{
  "</s>": 0,
  "<unk>": 1,
  ",": 2,
  "\u2581the": 3,
  "\u2581a": 4,
  ".": 5,
  "\u2581an": 6,
  "\u2581of": 7,
  "\u2581to": 8,
  "\u2581in": 9,
  "\u2581agus": 10,
  "\u2581and": 11,
  "\u2581(": 12,
  "\u2581ar": 13,
  "\u2581na": 14,
  ")": 15,
  "-": 16,
  "\u2581i": 17,
  "\u2581le": 18,
  "\u2581is": 19,
  "\u2581or": 20,
  "s": 21,
  "\u2581n\u00f3": 22,
  "\u2581be": 23,
  "\u2581for": 24,
  "\u2581go": 25,
  "\u2581,": 26,
  "\u2581sin": 27,
  "\u2581shall": 28,
  "\u2581by": 29,
  "\u2581de": 30,
  "\u2581as": 31,
  "\u2581seo": 32,
  ":": 33,
  "\u2581do": 34,
  "\u2581ag": 35,
  "'": 36,
  "\u2581on": 37,
  "\u2581this": 38,
  "a": 39,
  "\u2581that": 40,
  "\u2581leis": 41,
  "\u2581chun": 42,
  "\u2581den": 43,
  "\u2581d": 44,
  "\u2581with": 45,
  "]": 46,
  "\u2581aon": 47,
  "\u2581The": 48,
  "\u2581any": 49,
  "\u2581[": 50,
  "\u2581Act": 51,
  "\u2581.": 52,
  "\u2581faoi": 53,
  ";": 54,
  "\u2581section": 55,
  "\u2581such": 56,
  "\u2581not": 57,
  "\u2581s\u00e9": 58,
  "\u2581\u00e9": 59,
  "\u2581which": 60,
  "\u2581under": 61,
  "\u2581": 62,
  "\u2581mar": 63,
  "\u2581sa": 64,
  "\u2581)": 65,
  "\u2581alt": 66,
  "b": 67,
  "\u2581may": 68,
  "\u2581ina": 69,
  "\u2581at\u00e1": 70,
  "\u2581bhfuil": 71,
  "\u2581(2)": 72,
  "\u2581from": 73,
  "\u2581\u201c": 74,
  "\u2581it": 75,
  "\u2581are": 76,
  "\u2581I": 77,
  "\u2581chur": 78,
  "\u2581_": 79,
  "\u2581don": 80,
  "\u2581at": 81,
  "\u2581eile": 82,
  "\u2581san": 83,
  "\u2581n": 84,
  "\u2581d\u00e1": 85,
  "\u2581duine": 86,
  "\u2581so": 87,
  "EN": 88,
  "\u2581bheith": 89,
  "\u2581t": 90,
  "\u2581Acht": 91,
  "\u2581maidir": 92,
  "\u2581\"": 93,
  "\u2581person": 94,
  "\u2581An": 95,
  "\u2581&": 96,
  "\u2581\u00f3": 97,
  "\u2581Article": 98,
  "\u2581r\u00e9ir": 99,
  "alt": 100,
  "\u2581bheidh": 101,
  "d": 102,
  "\u25811": 103,
  "\u2581nach": 104,
  "\u2019": 105,
  "GA": 106,
  "/": 107,
  "\u2581dh\u00e9anamh": 108,
  "\u2581have": 109,
  "\u2581other": 110,
  "\u2581A": 111,
  "c": 112,
  "\u2581n\u00e1": 113,
  "\u2581\u2014": 114,
  "\u2581Minister": 115,
  "\u2581you": 116,
  "\u2581(3)": 117,
  "\u2581no": 118,
  "\u2581gach": 119,
  "\u2581lena": 120,
  "\u201d": 121,
  "e": 122,
  "\u2581Airteagal": 123,
  "\u2581%": 124,
  "\u2581has": 125,
  "\u2014": 126,
  "ing": 127,
  "\u2581gc\u00e1s": 128,
  "\u2581faoin": 129,
  "\u25812": 130,
  "\u2581In": 131,
  "\u2581n\u00ed": 132,
  "i": 133,
  "\u2581ach": 134,
  "\u2581f\u00e9idir": 135,
  "\u2581all": 136,
  "\u2581subsection": 137,
  "\u2581made": 138,
  "\u2581was": 139,
  "\u2581-": 140,
  "\u00ed": 141,
  "\u2581T\u00e1": 142,
  "\u2581European": 143,
  "\u25813": 144,
  "\u2581will": 145,
  "\u2581\u00e9is": 146,
  "\u2581if": 147,
  "\u2581(1)": 148,
  "\u2581\u00f3n": 149,
  "\u2581Is": 150,
  "\u2581leith": 151,
  "\u2581time": 152,
  "\u2581order": 153,
  "\u2581t\u00e1": 154,
  "\u2581beidh": 155,
  "\u2581\u2014(1)": 156,
  "\u2581Council": 157,
  "\u2581ann": 158,
  "\u2581he": 159,
  "\u2581l\u00e1": 160,
  "\u2581gur": 161,
  "\u2581\u00e1": 162,
  "\u2581been": 163,
  "\u2581n\u00edos": 164,
  "\u2581chuid": 165,
  "t": 166,
  "\u2581its": 167,
  "\u2581N\u00ed": 168,
  "\u2581thabhairt": 169,
  "\u2581amh\u00e1in": 170,
  "\u2581iad": 171,
  "\u2581after": 172,
  "\u2581his": 173,
  "\u2581(4)": 174,
  "\u2581who": 175,
  "\u2581tr\u00ed": 176,
  "\u2581m\u00f3": 177,
  "...": 178,
  "\"": 179,
  "\u2581one": 180,
  "\u2581tar": 181,
  "\u2581Member": 182,
  "\u2581arna": 183,
  "\u2581their": 184,
  "\u2581respect": 185,
  "\u2581t\u00fa": 186,
  "\u2581mbeidh": 187,
  "\u2581amach": 188,
  "\u2581out": 189,
  "\u2581than": 190,
  "\u2581um": 191,
  "\u2581Commission": 192,
  "_": 193,
  "\u2581leanas": 194,
  "\u2581tAire": 195,
  "\u25814": 196,
  "\u2581m\u00e9id": 197,
  "\u2581isteach": 198,
  "\u25815": 199,
  "\u2581day": 200,
  "\u2581paragraph": 201,
  "?": 202,
  "\u2581D": 203,
  "\u2581State": 204,
  "\u2581following": 205,
  "ed": 206,
  "\u2581Aire": 207,
  "\u2581where": 208,
  "\u2581siad": 209,
  "\u2581fho": 210,
  "\u2581No": 211,
  "\u2581case": 212,
  "\u00fa": 213,
  "\u2581period": 214,
  "\u2581Union": 215,
  "\u2581gan": 216,
  "\u2581C": 217,
  "\u2581into": 218,
  "\u2581before": 219,
  "\u2581means": 220,
  "\u2581your": 221,
  ").": 222,
  "\u2581bh\u00ed": 223,
  "\u25816": 224,
  "\u2581haghaidh": 225,
  "\u2581authority": 226,
  "\u2581referred": 227,
  "\u2581can": 228,
  "\u2581accordance": 229,
  "),": 230,
  "r": 231,
  "\u2581This": 232,
  "\u2581acu": 233,
  "\u2581tr\u00e9imhse": 234,
  "\u2581year": 235,
  "\u2581they": 236,
  "\u2581more": 237,
  "in": 238,
  "\u2581f\u00e1il": 239,
  "\u2581provisions": 240,
  "\u2581within": 241,
  "A": 242,
  "\u2581f\u00e9in": 243,
  "Acht": 244,
  "\u2581said": 245,
  "\u2581States": 246,
  "\u2581purposes": 247,
  "\u2581Court": 248,
  "\u2581but": 249,
  "\u2581information": 250,
  "\u2581relation": 251,
  "\u2581should": 252,
  "\u2581g\u00e1": 253,
  "\u2581(5)": 254,
  "\u2581Beidh": 255,
  "!": 256,
  "\u2581Board": 257,
  "\u2581;": 258,
  "\u2581daoine": 259,
  "\u2581sna": 260,
  "\u2581amount": 261,
  "\u2581raibh": 262,
  "\u2581'": 263,
  "\u2581Uimh": 264,
  "\u2581nua": 265,
  "\u2581m\u00e1": 266,
  "\u2581company": 267,
  "\u2581cib\u00e9": 268,
  "\u2581air": 269,
  "\u2581application": 270,
  "\u2581date": 271,
  "\u2581\u00e1irithe": 272,
  "n": 273,
  "\u2581rud": 274,
  "\u2581those": 275,
  "th": 276,
  "an": 277,
  "\u2581roimh": 278,
  "\u2581apply": 279,
  "\u2581bhaineann": 280,
  "\u2581ionad": 281,
  "\u258110": 282,
  "\u2581F\u00e9adfaidh": 283,
  "\u2581Regulation": 284,
  "\u2581\u2018": 285,
  "g": 286,
  "\u2581ord\u00fa": 287,
  "\u2581b": 288,
  "\u2581\u2013": 289,
  "\u2581Where": 290,
  "\u2581each": 291,
  "\u2581also": 292,
  "\u2581f\u00e9adfaidh": 293,
  "S": 294,
  "\u2581aige": 295,
  "\u2581part": 296,
  "\u2581fh\u00e1il": 297,
  "\u2581\u00ed": 298,
  "\u2581c": 299,
  "\u2581him": 300,
  "\u2581being": 301,
  "\u2581s\u00ed": 302,
  "\u2581dt\u00ed": 303,
  "\u2581d\u00f3": 304,
  "\u2581\u00fas\u00e1id": 305,
  "\u2581bhfeidhm": 306,
  "\u25818": 307,
  "\u2581dtagra\u00edtear": 308,
  "\u25817": 309,
  "\u2581mbaineann": 310,
  "\u2581aghaidh": 311,
  "\u2581idir": 312,
  "\u2581new": 313,
  "\u2581chuig": 314,
  "\u2581cheart": 315,
  "\u2581sonra\u00ed": 316,
  "\u2581Part": 317,
  "ar": 318,
  "\u2581make": 319,
  "\u2581ceann": 320,
  "\u2581use": 321,
  "l": 322,
  "\u2581fo": 323,
  "I": 324,
  "\u2581linn": 325,
  "\u2581Aontais": 326,
  "\u2581feidhm": 327,
  "\u2581specified": 328,
  "\u2581L": 329,
  "\u2581For": 330,
  "\u2581S": 331,
  "m": 332,
  "\u2581nd\u00e1il": 333,
  "\u2581T": 334,
  "the": 335,
  "\u2581first": 336,
  "\u2581cr\u00edocha": 337,
  "\u2581nuair": 338,
  "\u2581Irish": 339,
  "\u2581were": 340,
  "\u2581when": 341,
  "\u2581them": 342,
  "y": 343,
  "\u2581maith": 344,
  "\u2581Rialach\u00e1n": 345,
  "\u2581h": 346,
  "\u2581iomchu\u00ed": 347,
  "\u2581feidhme": 348,
  "\u2581bhfo": 349,
  "\u258112": 350,
  "\u2581subject": 351,
  "\u2581up": 352,
  "\u2581ch\u00e9ad": 353,
  "ach": 354,
  "\u2581Ar": 355,
  "\u2581dul": 356,
  "\u2581Finance": 357,
  "\u2581m\u00edr": 358,
  "\u2581Chomhairle": 359,
  "\u2581amhlaidh": 360,
  "\u2581m\u00f3r": 361,
  "\u2581d\u00e1ta": 362,
  "\u2581s\u00f3rt": 363,
  "\u2581II": 364,
  "\u2581m\u00e1s": 365,
  "\u2581cialla\u00edonn": 366,
  "\u2581provided": 367,
  "\u2581only": 368,
  "\u2581am": 369,
  "\u2581there": 370,
  "er": 371,
  "\u2581hEorpa": 372,
  "f": 373,
  "\u2581If": 374,
  "\u2581cur": 375,
  "\u2581B": 376,
  "ii": 377,
  "aon": 378,
  "\u2581Acts": 379,
  "\u2581for\u00e1lacha": 380,
  "\u2581chomh": 381,
  "\u2581persons": 382,
  "\u2581years": 383,
  "\u2581It": 384,
  "B": 385,
  "\u2581laistigh": 386,
  "\u2581(6)": 387,
  "\u2581member": 388,
  "\u2581\u00fadar\u00e1s": 389,
  "\u2581gcomhr\u00e9ir": 390,
  "\u2581sti\u00fair": 391,
  "\u2581leat": 392,
  "\u2581without": 393,
  "\u25819": 394,
  "\u2581bith": 395,
  "\u2581m\u00e9": 396,
  "\u2581effect": 397,
  "\u2581would": 398,
  "\u2581:": 399,
  "\u2581conditions": 400,
  "\u2581f\u00e9": 401,
  "\u2581tax": 402,
  "\u2581amended": 403,
  "\u2581public": 404,
  "\u2581ba": 405,
  "\u2581offence": 406,
  "\u2581necessary": 407,
  "\u2581notice": 408,
  "\u2581Ballst\u00e1it": 409,
  "idh": 410,
  "\u00e1ir\u00edtear": 411,
  "\u2581including": 412,
  "\u258115": 413,
  "al": 414,
  "\u2581tAcht": 415,
  "\u2581data": 416,
  "\u2581between": 417,
  "\u2581bliana": 418,
  "\u2581Schedule": 419,
  "\u2581relevant": 420,
  "adh": 421,
  "\u2581III": 422,
  "\u2581M\u00e1": 423,
  "M": 424,
  "\u2581Eorpach": 425,
  "\u2581members": 426,
  "\u2581paid": 427,
  "C": 428,
  "\u2581bhliain": 429,
  "\u2581place": 430,
  "\u2581f\u00f3gra": 431,
  "\u2581mh\u00edr": 432,
  "\u2581Sceideal": 433,
  "\u2581number": 434,
  "\u2581officer": 435,
  "\u2581service": 436,
  "\u2581bhun": 437,
  "\u2581thar": 438,
  "\u2581freisin": 439,
  "\u2581\u00e1it": 440,
  "\u2581Parliament": 441,
  "or": 442,
  "\u2581s\u00edos": 443,
  "\u2581take": 444,
  "ly": 445,
  "\u2581Coimisi\u00fan": 446,
  "\u2581same": 447,
  "is": 448,
  "p": 449,
  "\u2581tr\u00e1th": 450,
  "\u2581appropriate": 451,
  "\u2581Ireland": 452,
  "\u258131": 453,
  "\u2581we": 454,
  "\u2581Airgeadais": 455,
  "\u2581set": 456,
  "\u2581E": 457,
  "as": 458,
  "\u2581particular": 459,
  "\u2581body": 460,
  "\u2581two": 461,
  "\u2581purpose": 462,
  "\u2581ch\u00e9ile": 463,
  "\u2581every": 464,
  "\u2581ailt": 465,
  "\u2581had": 466,
  "\u258111": 467,
  "\u2581d\u00edreach": 468,
  "\u258114": 469,
  "\u2581work": 470,
  "\u2581local": 471,
  "\u2581mh\u00e9id": 472,
  "\u2581name": 473,
  "\u2581haon": 474,
  "\u2581Principal": 475,
  "\u2581used": 476,
  "\u2581iarratas": 477,
  "\u2581Achta": 478,
  "\u258118": 479,
  "\u2581Gaeilge": 480,
  "st": 481,
  "D": 482,
  "\u2581imeachta": 483,
  "\u2581l\u00e9ir": 484,
  "\u2581p": 485,
  "\u2581reference": 486,
  "\u2581land": 487,
  "\u2581O": 488,
  "\u2581payment": 489,
  "\u2581leas\u00fa": 490,
  "\u2581Chun": 491,
  "\u2581national": 492,
  "\u2581d\u00e9anfar": 493,
  "\u2581ioml\u00e1n": 494,
  "\u2581St\u00e1t": 495,
  "\u2581f\u00e9n": 496,
  "\u2581\u00e9ifeacht": 497,
  "\u258113": 498,
  "\u2581given": 499,
  "R": 500,
  "\u258120": 501,
  "\u2581required": 502,
  "\u2581leo": 503,
  "3": 504,
  "\u25811.": 505,
  "\u2581during": 506,
  "\u2581concerned": 507,
  "4": 508,
  "\u2581n\u00e1isi\u00fanta": 509,
  "\u2581services": 510,
  "ch": 511,
  "\u2581Ba": 512,
  "\u2581thereof": 513,
  "%": 514,
  "\u2581dh\u00e1": 515,
  "\u2581about": 516,
  "\u2581cheann": 517,
  "\u258116": 518,
  "\u2581office": 519,
  "\u2581Soilse": 520,
  "\u2581gComhairle": 521,
  "\u2581interest": 522,
  "\u2581/": 523,
  "\u2581dtaobh": 524,
  "\u2581iarraidh": 525,
  "\u2581account": 526,
  "\u2581bhaint": 527,
  "\u2581Mar": 528,
  "\u2581bhr\u00ed": 529,
  "\u2581certain": 530,
  "a\u00ed": 531,
  "\u2581airgeadais": 532,
  "\u2581our": 533,
  "\u2581F": 534,
  "\u2581roimhe": 535,
  "\u2581coinn\u00edollacha": 536,
  "h": 537,
  "igh": 538,
  "\u2581ghlacadh": 539,
  "\u2581roinnt": 540,
  "\u2581rialacha": 541,
  "\u2581Treaty": 542,
  "\u2581regulations": 543,
  "\u2581l\u00e1thair": 544,
  "\u2581mbeadh": 545,
  "\u2581financial": 546,
  "Name": 547,
  "\u2581right": 548,
  "\u2581her": 549,
  "\u2581uair": 550,
  "\u2581s": 551,
  "\u2581these": 552,
  "\u2581feadh": 553,
  "\u2581dl\u00ed": 554,
  "\u2581etc": 555,
  "\u2581down": 556,
  "\u2581decision": 557,
  "\u2581measures": 558,
  "\u2581Section": 559,
  "\u2581over": 560,
  "\u258117": 561,
  "\u2581does": 562,
  "\u2581Soilsi\u00fa": 563,
  "\u258130": 564,
  "\u2581P": 565,
  "\u2581tr\u00edd": 566,
  "\u2581provide": 567,
  "\u2581rialach\u00e1in": 568,
  "\u2581cu\u00ed": 569,
  "\u2581\u00edoc": 570,
  "\u2581available": 571,
  "\u2581taken": 572,
  "\u2581rith": 573,
  "\u2581cuid": 574,
  "\u2581area": 575,
  "\u2581seirbh\u00eds\u00ed": 576,
  "\u2581through": 577,
  "\u2581\u00e1ireamh": 578,
  "\u2581(7)": 579,
  "\u2581law": 580,
  "\u2581d\u00f3ibh": 581,
  "\u25812.": 582,
  "\u2581Bord": 583,
  "\u2581Phr\u00edomh": 584,
  "\u2581M": 585,
  "\u2581mh\u00ed": 586,
  "\u2581licence": 587,
  "\u2581Lights": 588,
  "The": 589,
  "\u2581force": 590,
  "\u2581Lighting": 591,
  "\u2581scheme": 592,
  "\u2581deemed": 593,
  "\u2581mura": 594,
  "\u2581rules": 595,
  "\u2581V": 596,
  "\u2581Flashlights": 597,
  "\u2581cinn": 598,
  "\u2581development": 599,
  "\u2581di": 600,
  "\u258121": 601,
  "\u2581\u201d": 602,
  "\u2581people": 603,
  "\u2581d\u00e9anfaidh": 604,
  "\u2581appointed": 605,
  "\u2581either": 606,
  "\u2581cuideachta": 607,
  "\u2581suas": 608,
  "\u2581payable": 609,
  "\u2581l\u00edne": 610,
  "\u2581ainm": 611,
  "\u2581Comhairle": 612,
  "\u2581ceart": 613,
  "\u2581per": 614,
  "P": 615,
  "\u2581G": 616,
  "\u2581file": 617,
  "\u2581in\u00edoctha": 618,
  "\u2581Le": 619,
  "\u2581ensure": 620,
  "\u2581then": 621,
  "\u2581\u00e9ags\u00fala": 622,
  "\u2581obair": 623,
  "\u2581Go": 624,
  "\u2581Agus": 625,
  "\u2581relating": 626,
  "\u2581form": 627,
  "ie": 628,
  "(": 629,
  "\u2581c\u00e9anna": 630,
  "\u2581business": 631,
  "\u2581court": 632,
  "\u2581uile": 633,
  "\u2581provision": 634,
  "\u2581income": 635,
  "\u2581Eorpaigh": 636,
  "na": 637,
  "ir": 638,
  "\u2581Amendment": 639,
  "\u2581luach": 640,
  "\u2581h\u00c9ireann": 641,
  "anna": 642,
  "\u2581rate": 643,
  "ta": 644,
  "\u2581against": 645,
  "\u2581Sa": 646,
  "\u2581way": 647,
  "\u2581Oireachtas": 648,
  "\u2581ghabhann": 649,
  "\u2581gheall": 650,
  "\u2581seachas": 651,
  "\u2581registered": 652,
  "LED": 653,
  "\u2581certificate": 654,
  "\u2581report": 655,
  "\u2581assessment": 656,
  "\u2581And": 657,
  "le": 658,
  "\u2581Government": 659,
  "\u2581Authority": 660,
  "No": 661,
  "\u2581Na": 662,
  "\u2581exceeding": 663,
  "il": 664,
  "\u2581days": 665,
  "\u2581duty": 666,
  "\u2581\u00e1iti\u00fail": 667,
  "\u2581applies": 668,
  "T": 669,
  "\u00fadar\u00e1s": 670,
  "\u2581EU": 671,
  "\u2581hereby": 672,
  "\u2581some": 673,
  "\u258122": 674,
  "\u2581whether": 675,
  "\u258125": 676,
  "\u2581authorities": 677,
  "\u2581leor": 678,
  "\u2581As": 679,
  "\u2581\u00c9ireann": 680,
  "\u2581D\u00e9anfaidh": 681,
  "\u2581r\u00e1": 682,
  "ic": 683,
  "\u2581h\u00e1irithe": 684,
  "re": 685,
  "\u2581give": 686,
  "\u2581bearta": 687,
  "\u2581K": 688,
  "\u2581n\u00f3s": 689,
  "\u2581support": 690,
  "\u2581Committee": 691,
  "\u2581third": 692,
  "on": 693,
  "\u2581trade": 694,
  "\u2581teacht": 695,
  "\u2581e": 696,
  "\u2581mo": 697,
  "\u2581re": 698,
  "\u2581Aon": 699,
  "EC": 700,
  "\u2581sub": 701,
  "\u2581must": 702,
  "\u2581You": 703,
  "\u2581...": 704,
  "\u258119": 705,
  "\u2581d\u00e9anta": 706,
  "\u2581entitled": 707,
  "\u2581\u00e1r": 708,
  "\u2581Community": 709,
  "\u2581system": 710,
  "\u2581TV": 711,
  "\u2581otherwise": 712,
  "\u2581First": 713,
  "\u2581D\u00e9anfar": 714,
  "\u2581g": 715,
  "\u2581p\u00e9": 716,
  "ithe": 717,
  "O": 718,
  "\u2581like": 719,
  "\u2581point": 720,
  "\u2581Ch\u00fairt": 721,
  "\u2581different": 722,
  "\u2581months": 723,
  "\u2581duit": 724,
  "\u2581Chuid": 725,
  "te": 726,
  "\u2581Commissioners": 727,
  "CE": 728,
  "\u2581leas": 729,
  "\u2581value": 730,
  "\u2581talamh": 731,
  "\u2581pursuant": 732,
  "am": 733,
  "\u2581ansin": 734,
  "\u2581fad": 735,
  "\u2581Pharlaimint": 736,
  "Airteagal": 737,
  "\u258124": 738,
  "\u2581power": 739,
  "\u2581l\u00edon": 740,
  "\u2581well": 741,
  "\u2581game": 742,
  "\u2581products": 743,
  "\u25813.": 744,
  "\u2581Fund": 745,
  "\u2581hAchtanna": 746,
  "\u2581\u00e1bhar": 747,
  "F": 748,
  "\u2581Home": 749,
  "\u2581having": 750,
  "\u2581ndiaidh": 751,
  "\u2581All": 752,
  "\u2581Ard": 753,
  ".\"": 754,
  "\u2581proceedings": 755,
  "\u2581manner": 756,
  "aigh": 757,
  "\u2581agat": 758,
  "\u2581St\u00e1it": 759,
  "\u2581os": 760,
  "\u2581cinneadh": 761,
  "\u2581dh\u00e9anfaidh": 762,
  "\u2581together": 763,
  "\u2581making": 764,
  "\u2581fearr": 765,
  "\u2581rinneadh": 766,
  "\u2581rights": 767,
  "G": 768,
  "\u2581act": 769,
  "\u2581request": 770,
  "\u2581nd\u00e9anfar": 771,
  "\u2581To": 772,
  "\u2581whom": 773,
  "\u2581dar": 774,
  "E": 775,
  "\u2581airgead": 776,
  "\u2581sc\u00e9im": 777,
  "\u2581chuige": 778,
  "\u258128": 779,
  "\u2581eolas": 780,
  "\u2581include": 781,
  "\u2581saor": 782,
  "o": 783,
  "\u2581upon": 784,
  "\u2581laid": 785,
  "es": 786,
  "\u2581r\u00e1ta": 787,
  "\u2581market": 788,
  "\u2581meaning": 789,
  "\u2581what": 790,
  "\u2581amhail": 791,
  "\u2581Tax": 792,
  "\u2581authorised": 793,
  "\u2581unless": 794,
  "\u2581both": 795,
  "\u2581three": 796,
  "\u2581another": 797,
  "\u2581neamh": 798,
  "\u2581property": 799,
  "\u2581General": 800,
  "\u2581orthu": 801,
  "\u2581athr\u00fa": 802,
  "\u2581oifigeach": 803,
  "EU": 804,
  "\u2581she": 805,
  "aithe": 806,
  "\u2581AE": 807,
  "\u2581Cuir": 808,
  "\u2581end": 809,
  "\u2581granted": 810,
  "\u2581goods": 811,
  "\u2581construed": 812,
  "\u2581established": 813,
  "it": 814,
  "\u2581premises": 815,
  "\u2581bh\u00edonn": 816,
  "\u2581less": 817,
  "\u2581speisialta": 818,
  "\u2581cuireadh": 819,
  "\u2581action": 820,
  "\u2581anseo": 821,
  "\u2581chinneadh": 822,
  "@": 823,
  "\u2581bliain": 824,
  "ann": 825,
  "\u2581dh\u00e1ta": 826,
  "\u2581Office": 827,
  "\u2581gCoimisi\u00fan": 828,
  "\u2581folder": 829,
  "\u2581Seo": 830,
  "\u2581IV": 831,
  "\u2581comhad": 832,
  "\u2581shol\u00e1thar": 833,
  "\u2581dh\u00e9anann": 834,
  "\u2581requirements": 835,
  "\u2581sum": 836,
  "\u2581chomhl\u00edonadh": 837,
  "\u2581meeting": 838,
  "\u2581me": 839,
  "\u2581Gach": 840,
  "\u2581employment": 841,
  "\u2581special": 842,
  "\u2581open": 843,
  "\u2581F\u00e9adfar": 844,
  "\u2581consent": 845,
  "\u2581deimhni\u00fa": 846,
  "\u2581bhr\u00e1id": 847,
  "\u2581dhuine": 848,
  "2": 849,
  "\u258123": 850,
  "\u2581level": 851,
  "\u2581operation": 852,
  "\u2581long": 853,
  "\u2581language": 854,
  "\u2581Chapter": 855,
  "\u2581.\u2014": 856,
  "\u2581uasteorainn": 857,
  "im": 858,
  "\u201d,": 859,
  "\u2581chuideachta": 860,
  "\u2581functions": 861,
  "\u2581agreement": 862,
  "\u258126": 863,
  "\u2581Ch\u00e9ad": 864,
  "\u2581ch\u00e1s": 865,
  "lights": 866,
  "\u2581free": 867,
  "able": 868,
  "\u2581f\u00e9adfar": 869,
  "\u2581leibh\u00e9al": 870,
  "\u2581faisn\u00e9is": 871,
  "\u2581Lch": 872,
  "\u2581prescribed": 873,
  "\u2581New": 874,
  "\u2581hAirteagal": 875,
  "L": 876,
  "\u2581Do": 877,
  "\u258127": 878,
  "\u2581Ag": 879,
  "\u2581terms": 880,
  "\u2581Zhong": 881,
  ".\u201d": 882,
  "\u2581procedure": 883,
  "\u2581Leas\u00fa": 884,
  "de": 885,
  "\u2581faoina": 886,
  "\u2581my": 887,
  "\u2581management": 888,
  ":\u2014": 889,
  "\u2581poibl\u00ed": 890,
  "\u2581most": 891,
  "\u2581comhalta": 892,
  "\u2581tr\u00ed\u00fa": 893,
  "dh": 894,
  "\u2581tagairt": 895,
  "\u2581Lampa\u00ed": 896,
  "\u2581grant": 897,
  "\u2581Baile": 898,
  "\u2581regard": 899,
  "\u2581deireadh": 900,
  "\u2581good": 901,
  "\u2581l\u00fa": 902,
  "acha": 903,
  "................": 904,
  "\u2581dochar": 905,
  "\u2581\u2019": 906,
  "\u2581gcuid": 907,
  "\u25814.": 908,
  "\u2581dhiaidh": 909,
  "\u2581own": 910,
  "\u2581N": 911,
  "\u2581d\u00e9ana\u00ed": 912,
  "\u2581Directive": 913,
  "\u2581Public": 914,
  "\u2581ch\u00f3ir": 915,
  "\u2581us": 916,
  "AE": 917,
  ":%": 918,
  "\u2581leagan": 919,
  "\u2581(8)": 920,
  "\u2581d\u00e9anamh": 921,
  "Shan": 922,
  "\u2581control": 923,
  "\u2581held": 924,
  "\u2581Aontas": 925,
  "\u2581measfar": 926,
  "\u2581\u00e1bhartha": 927,
  "\u2581LED": 928,
  "\u2581\u00e1irithi\u00fa": 929,
  "\u2581bunaithe": 930,
  "\u2581oibre": 931,
  "\u2581liable": 932,
  "\u2581>": 933,
  "\u2581Education": 934,
  "\u2581Central": 935,
  "\u2581powers": 936,
  "k": 937,
  "\u2581scr\u00edbhinn": 938,
  "\u2581i\u00fal": 939,
  "\u2581activities": 940,
  "\u2581F\u00f3mhair": 941,
  "\u2581C\u00fairte": 942,
  "\u2581register": 943,
  "\u25812016": 944,
  "\u2581Coimisin\u00e9ir\u00ed": 945,
  "\u2581aonair": 946,
  "\u2581Local": 947,
  "\u2581general": 948,
  "\u2581De": 949,
  "\u2581Chonradh": 950,
  "\u2581National": 951,
  "\u2581until": 952,
  "\u2581direct": 953,
  "\u2581need": 954,
  "\u2581Rialach\u00e1in": 955,
  "\u2581appeal": 956,
  "\u2581San": 957,
  "\u2581second": 958,
  "\".": 959,
  "\u2581Ioncaim": 960,
  "H": 961,
  "\u2581mentioned": 962,
  "\u2581competent": 963,
  "\u2581duties": 964,
  "\u2581M\u00e1s": 965,
  "\u2581Any": 966,
  "\u2581%1": 967,
  "\u2581R": 968,
  "\u2581health": 969,
  "\u2581County": 970,
  "to": 971,
  "\u2581post": 972,
  "id": 973,
  "\u2581Bank": 974,
  "\u2581committee": 975,
  "\u2581acts": 976,
  "\u2581April": 977,
  "\u2581c\u00e1nach": 978,
  "tar": 979,
  "\u2581Bh\u00ed": 980,
  "\u2581fine": 981,
  "\u2581leagtha": 982,
  "\u2581oifig": 983,
  "\u2581mBallst\u00e1t": 984,
  "\u2581God": 985,
  "\u2581very": 986,
  "\u2581Justice": 987,
  "\u2581m\u00ed": 988,
  "en": 989,
  "\u2581country": 990,
  "\u2581gc\u00e9ad": 991,
  "\u2581list": 992,
  "\u2581county": 993,
  "\u2581Roinn": 994,
  "\u2581m": 995,
  "\u2581aisce": 996,
  "\u2581Ach": 997,
  "\u2581toili\u00fa": 998,
  "\u2581next": 999,
  "\u2581policy": 1000,
  "\u2581dteideal": 1001,
  "\u2581THE": 1002,
  "\u2581get": 1003,
  "\u2581further": 1004,
  "\u2581Lamps": 1005,
  "\u2581issued": 1006,
  "\u2581\u00fadar\u00e1is": 1007,
  "\u2581immediately": 1008,
  "\u2581life": 1009,
  "fhonn": 1010,
  "\u2581He": 1011,
  "\u2581personal": 1012,
  "\u2581o": 1013,
  "\u25812013": 1014,
  "\u2581We": 1015,
  "\u2581basis": 1016,
  "\u2581quot": 1017,
  "\u2581sonraithe": 1018,
  "\u2581Number": 1019,
  "\u2581opinion": 1020,
  "\u201d.": 1021,
  "\u2581board": 1022,
  "\u2581capital": 1023,
  "\u2581words": 1024,
  "\u2581Regulations": 1025,
  "\u2581S\u00edoch\u00e1na": 1026,
  "\u2581N\u00edl": 1027,
  "\u2581imeachta\u00ed": 1028,
  "\u2581many": 1029,
  "\u2581Faoi": 1030,
  "\u2581carried": 1031,
  "\u2581leagtar": 1032,
  "\u2581possible": 1033,
  "\u2581charge": 1034,
  "\u2581subparagraph": 1035,
  "\u258129": 1036,
  "\u2581legal": 1037,
  "\u2581pearsanta": 1038,
  "\u25812014": 1039,
  "\u2581dhaoine": 1040,
  "\u2581dara": 1041,
  "\u2581non": 1042,
  "\u2581quality": 1043,
  "\u2581document": 1044,
  "\u2581gn\u00f3": 1045,
  "\u2581t\u00e1irg\u00ed": 1046,
  "Ceiling": 1047,
  "\u2581OF": 1048,
  "ailt": 1049,
  "\u2581cases": 1050,
  "\u2581writing": 1051,
  "\u00e1in": 1052,
  "\u2581prejudice": 1053,
  "\u2581High": 1054,
  "\u2581registration": 1055,
  "\u2581come": 1056,
  "\u2581r": 1057,
  "\u2581Dublin": 1058,
  "\u2581Department": 1059,
  "\u2581Nuair": 1060,
  "\u2581rinne": 1061,
  "\u2581school": 1062,
  "\u2581pay": 1063,
  "\u2581water": 1064,
  "section": 1065,
  "\u2581address": 1066,
  "\u2581online": 1067,
  "\u2581bheas": 1068,
  "\u2581due": 1069,
  "\u2581Europe": 1070,
  "\u2581cr\u00edche": 1071,
  "\u2581December": 1072,
  "\u2581fhaisn\u00e9is": 1073,
  "\u2581matter": 1074,
  "\u2581earra\u00ed": 1075,
  "\u2581bhun\u00fa": 1076,
  "fh\u00e9adfadh": 1077,
  "\u2581laghad": 1078,
  "\u2581chomhalta": 1079,
  "\u2581received": 1080,
  "\u2581Every": 1081,
  "\u2581Cliath": 1082,
  "\u2581chine\u00e1l": 1083,
  "\u2581require": 1084,
  "u": 1085,
  "\u2581gurb": 1086,
  "\u2581here": 1087,
  "\u2581dh\u00e9anfar": 1088,
  "\u2581common": 1089,
  "\u2581countries": 1090,
  "\u2581specific": 1091,
  "\u2581uisce": 1092,
  "\u2581pounds": 1093,
  "\u2581annual": 1094,
  "\u2581AN": 1095,
  "\u2581cad": 1096,
  "\u2581shares": 1097,
  "\u2581applicable": 1098,
  "\u2581bhonn": 1099,
  "\u2581reatha": 1100,
  "\u2581un": 1101,
  "\u2581behalf": 1102,
  "\u2581comhalta\u00ed": 1103,
  "\u2581Taispe\u00e1in": 1104,
  "\u2581CUID": 1105,
  "\u2581Order": 1106,
  "\u2581access": 1107,
  "\u2581rogha": 1108,
  "\u2581type": 1109,
  "\u2581hioml\u00e1n": 1110,
  "\u2581how": 1111,
  "\u2581aird": 1112,
  "\u2581gcomhairle": 1113,
  "\u2581N\u00e1isi\u00fanta": 1114,
  "\u2581expenses": 1115,
  "\u2581ghairm": 1116,
  "\u2581relates": 1117,
  "\u2581\u00dadar\u00e1s": 1118,
  "\u2581l\u00e9i": 1119,
  "\u2581Agency": 1120,
  "iii": 1121,
  "\u2581expenditure": 1122,
  "\u2581Co": 1123,
  "\u2581expression": 1124,
  "\u2581cl\u00e1r": 1125,
  "\u2581protection": 1126,
  "\u2581liosta": 1127,
  "\u2581now": 1128,
  "\u2581Roghnaigh": 1129,
  "kgm": 1130,
  "\u2581Nua": 1131,
  "\u2581There": 1132,
  "\u2581message": 1133,
  "\u2581copy": 1134,
  "\u2581evidence": 1135,
  "ra": 1136,
  "\u2581cluiche": 1137,
  "\u2581nithe": 1138,
  "mp": 1139,
  "\u2581System": 1140,
  "\u2581say": 1141,
  "\u2581Uimhir": 1142,
  "\u2581includes": 1143,
  "\u2581mhaith": 1144,
  "\u2581Maidir": 1145,
  "\u2581issue": 1146,
  "\u2581\u00fadaraithe": 1147,
  "\u2581scaireanna": 1148,
  "\u2581contract": 1149,
  "\u2581hord\u00fa": 1150,
  "x": 1151,
  "\u2581anois": 1152,
  "\u2581high": 1153,
  "i\u00fa": 1154,
  "\u2581performance": 1155,
  "An": 1156,
  "\u00e1n": 1157,
  "\u2581term": 1158,
  "\u2581whole": 1159,
  "\u2581cead\u00fanas": 1160,
  "\u2581focal": 1161,
  "\u2581guilty": 1162,
  "\u2581Allah": 1163,
  "\u2581virtue": 1164,
  "\u2581ciontach": 1165,
  "faidh": 1166,
  "\u2581Ballst\u00e1t": 1167,
  "\u2581far": 1168,
  "\u2581cited": 1169,
  "\u2581gn\u00edomha\u00edochta\u00ed": 1170,
  "\u2581pension": 1171,
  "\u2581Name": 1172,
  "\u2581Choimisi\u00fan": 1173,
  "\u2581programme": 1174,
  "\u2581\u00d3": 1175,
  "\u2581total": 1176,
  "\u25815.": 1177,
  "\u2581gceannas": 1178,
  "\u2581charged": 1179,
  "\u2581because": 1180,
  "if": 1181,
  "Y": 1182,
  "\u2581chruth\u00fa": 1183,
  "\u2581led": 1184,
  "\u2581January": 1185,
  "\u2581gcoinne": 1186,
  "ord\u00fa": 1187,
  "\u2581Ainm": 1188,
  "1": 1189,
  "\u2581whose": 1190,
  "\u2581rial\u00fa": 1191,
  "\u2581gcion": 1192,
  "far": 1193,
  "\u2581tv": 1194,
  "\u2581tuarasc\u00e1il": 1195,
  "\u2581gn\u00edomh\u00fa": 1196,
  "\u2581f": 1197,
  "\u2581halt": 1198,
  "U": 1199,
  "\u2581while": 1200,
  "\u2581ch\u00e9anna": 1201,
  "\u2581statement": 1202,
  "\u2581sl\u00ed": 1203,
  "\u2581child": 1204,
  "\u25811,": 1205,
  "\u2581sl\u00e1inte": 1206,
  "\u2581Subject": 1207,
  "\u2581full": 1208,
  "v": 1209,
  "\u2581D\u00e9": 1210,
  "\u2581vehicle": 1211,
  "\u2581sheoladh": 1212,
  "\u2581ama": 1213,
  "\u2581chl\u00e1r": 1214,
  "\u2581suim": 1215,
  "\u2581commencement": 1216,
  "\u2581money": 1217,
  "\u2581cheangal": 1218,
  "\u2581individual": 1219,
  "\u2581cheapadh": 1220,
  "\u2581aistri\u00fa": 1221,
  "\u2581benefit": 1222,
  "\u2581could": 1223,
  "\u2581House": 1224,
  "\u2581gceist": 1225,
  "\u00edoc": 1226,
  "\u2581ais": 1227,
  "\u2581fhorbairt": 1228,
  "\u2581comh": 1229,
  "\u25812009": 1230,
  "Uimh": 1231,
  "\u2581question": 1232,
  "\u25812012": 1233,
  "\u2581cuirfidh": 1234,
  "\u2581selected": 1235,
  "\u2581allowance": 1236,
  "\u2581r\u00e9imse": 1237,
  "\u2581least": 1238,
  "\u2581teideal": 1239,
  "\u2581working": 1240,
  "\u2581seoladh": 1241,
  "\u2581fi\u00fa": 1242,
  "\u2581Gan": 1243,
  "\u2581comhlacht": 1244,
  "\u2581just": 1245,
  "\u2581transfer": 1246,
  "\u2581cheana": 1247,
  "\u2581On": 1248,
  "\u2581Articles": 1249,
  "us": 1250,
  "\u2581Aontaithe": 1251,
  "\u25812015": 1252,
  "\u2581luaithe": 1253,
  "\u2581ts\u00f3rt": 1254,
  "\u2581substitution": 1255,
  "\u2581international": 1256,
  "\u2581adopted": 1257,
  "\u2581bheadh": 1258,
  "\u2581Prophet": 1259,
  "\u2581current": 1260,
  "\u2581bun": 1261,
  "\u2581Previous": 1262,
  "\u2581Rialtais": 1263,
  "\u2581\u00c1tha": 1264,
  "\u2581even": 1265,
  "\u2581ngach": 1266,
  "\u2581Health": 1267,
  "\u2581Convention": 1268,
  "\u2581children": 1269,
  "ion": 1270,
  "\u2581100": 1271,
  "\u2581(1),": 1272,
  "\u2581exercise": 1273,
  "\u258150": 1274,
  "\u2581cuirfear": 1275,
  "\u2581last": 1276,
  "\u2581f\u00f3s": 1277,
  "\u2581bodies": 1278,
  "\u2581course": 1279,
  "\u2581documents": 1280,
  "5": 1281,
  "\u2581addition": 1282,
  "\u2581Oifig": 1283,
  "\u2581idirn\u00e1isi\u00fanta": 1284,
  "\u2581based": 1285,
  "\u2581baint": 1286,
  "\u2581cl\u00e1raithe": 1287,
  "\u2581ch": 1288,
  "\u2581mba": 1289,
  "\u2581taking": 1290,
  "\u2581breise": 1291,
  "\u2581abairt": 1292,
  "\u2581fud": 1293,
  "Comment": 1294,
  "\u2581cos\u00fail": 1295,
  "\u2581chargeable": 1296,
  "\u2581world": 1297,
  "\u2581want": 1298,
  "\u00e1il": 1299,
  "\u2581security": 1300,
  "\u2581fh\u00e9idir": 1301,
  "\u2581staff": 1302,
  "\u2581education": 1303,
  "\u2581d\u00fairt": 1304,
  "\u2581r\u00e1iteas": 1305,
  "\u25812011": 1306,
  "\u2581present": 1307,
  "\u2581Company": 1308,
  "\u2581gn\u00edomhartha": 1309,
  "\u2581c\u00e9": 1310,
  "\u2581Online": 1311,
  "\u2581Nollaig": 1312,
  "\u2581passing": 1313,
  "\u2581areas": 1314,
  "ine": 1315,
  "\u2581arb": 1316,
  "\u2581accordingly": 1317,
  "\u2581ngn\u00edomh": 1318,
  "\u2581seirbh\u00edse": 1319,
  "\u2581inar": 1320,
  "\u2581Bhord": 1321,
  "se": 1322,
  "\u2581March": 1323,
  "\u2581implementation": 1324,
  "\u2581light": 1325,
  "\u2581cion": 1326,
  "\u2581rialach\u00e1n": 1327,
  "\u2581approved": 1328,
  "\u2581Next": 1329,
  "acht": 1330,
  "\u2581curtha": 1331,
  "\u2581gcr\u00edch": 1332,
  "\u2581deiridh": 1333,
  "\u2581\u00e9ileamh": 1334,
  "\u2581measc": 1335,
  "\u2581ginear\u00e1lta": 1336,
  "\u2581conviction": 1337,
  "\u2581Wall": 1338,
  "\u2581Treoir": 1339,
  "\u2581sale": 1340,
  "\u2581Social": 1341,
  "\u2581ioncaim": 1342,
  "\u2581laghd\u00fa": 1343,
  "\u2581H": 1344,
  "\u2581Leasa\u00edtear": 1345,
  "\u2581Show": 1346,
  "\u2581video": 1347,
  "\u2581cead": 1348,
  "\u2581seilbh": 1349,
  "\u2581n\u00e1r": 1350,
  "\u2581determined": 1351,
  "\u2581aici": 1352,
  "\u2581W": 1353,
  "\u2581When": 1354,
  "\u2581bhfor\u00e1iltear": 1355,
  "\u2581plan": 1356,
  "\u2581oiri\u00fanach": 1357,
  "\u2581limist\u00e9ar": 1358,
  "\u2581matters": 1359,
  "\u2581d\u00fainn": 1360,
  "\u2581process": 1361,
  "\u2581huaire": 1362,
  "\u2581help": 1363,
  "\u2581PART": 1364,
  "ers": 1365,
  "\u2581mian": 1366,
  "\u2581\u00edoca\u00edocht": 1367,
  "tha": 1368,
  "\u2581ceaptha": 1369,
  "la": 1370,
  "\u2581ionann": 1371,
  "\u2581references": 1372,
  "eanna": 1373,
  "\u2581Evolution": 1374,
  "\u2581taobh": 1375,
  "(1)": 1376,
  "\u2581cearta": 1377,
  "\u2581f\u00edne\u00e1il": 1378,
  "\u2581chosaint": 1379,
  "\u2581thaobh": 1380,
  "\u2581r\u00edomh": 1381,
  "\u2581adopt": 1382,
  "oir": 1383,
  "\u2581\u00e9igin": 1384,
  "\u00edonn": 1385,
  "\u2581c\u00faig": 1386,
  "\u2581event": 1387,
  "\u2581infheidhme": 1388,
  "ul": 1389,
  "\u2581Could": 1390,
  "fidh": 1391,
  "\u2581production": 1392,
  "\u2581dtugtar": 1393,
  "\u2581gr\u00e9as\u00e1in": 1394,
  "\u2581Alt": 1395,
  "\u2581Service": 1396,
  "\u2581training": 1397,
  "\u2581social": 1398,
  "\u2581'%": 1399,
  "\u2581Auto": 1400,
  "\u2581building": 1401,
  "\u2581five": 1402,
  "\u2581concerning": 1403,
  "\u2581su\u00edomh": 1404,
  "\u2581comply": 1405,
  "\u2581soon": 1406,
  "\u2581Revenue": 1407,
  "\u2581summary": 1408,
  "\u2581feidhmeanna": 1409,
  "\u2581society": 1410,
  "\u2581shonra\u00edtear": 1411,
  "\u258140": 1412,
  "\u2581tugadh": 1413,
  "\u2581Aghaidh": 1414,
  "\u2581ceanglais": 1415,
  "\u2581election": 1416,
  "\u2581oifige": 1417,
  "\u2581found": 1418,
  "\u2581incurred": 1419,
  "K": 1420,
  "\u2581Information": 1421,
  "\u2581orduithe": 1422,
  "\u2581moneys": 1423,
  "\u2581class": 1424,
  "\u2581fhios": 1425,
  "\u2581files": 1426,
  "\u2581saothair": 1427,
  "\u2581circumstances": 1428,
  "\u25812010": 1429,
  "\u2581\u2022": 1430,
  ".\u201d.": 1431,
  "\u2581liom": 1432,
  "\u2581fh\u00f3gra": 1433,
  "\u2581proper": 1434,
  "\u2581reasonable": 1435,
  "\u2581entry": 1436,
  "V": 1437,
  "ainneoin": 1438,
  "\u2581They": 1439,
  "\u2581focail": 1440,
  "\u2581technical": 1441,
  "\u25811967": 1442,
  "\u2581road": 1443,
  "\u2581become": 1444,
  "\u2581much": 1445,
  "\u2581group": 1446,
  "shan": 1447,
  "\u2581owner": 1448,
  "\u2581t\u00edr": 1449,
  "\u25816.": 1450,
  "ol": 1451,
  "\u2581energy": 1452,
  "):": 1453,
  "n\u00f3": 1454,
  "\u2581works": 1455,
  "\u2581roghnaithe": 1456,
  "\u2581May": 1457,
  "\u2581economic": 1458,
  "\u2581man": 1459,
  "\u2581costs": 1460,
  "N": 1461,
  "\u2581Annex": 1462,
  "\u2581C\u00f3ras": 1463,
  "ca": 1464,
  "\u00c3": 1465,
  "\u2581muid": 1466,
  "\u2581taca\u00edocht": 1467,
  "\u2581fear": 1468,
  "\u2581X": 1469,
  "\u2581reason": 1470,
  "and": 1471,
  "\u2581best": 1472,
  "\u2581th\u00e1inig": 1473,
  "\u2581ex": 1474,
  "\u2581later": 1475,
  "\u2581rochtain": 1476,
  "\u2581seach": 1477,
  "\u2581district": 1478,
  "\u2581Sl\u00e1inte": 1479,
  "PART": 1480,
  "\u2581luaitear": 1481,
  "\u2581change": 1482,
  "\u2581nd\u00e9anfaidh": 1483,
  "\u2581bhua": 1484,
  "\u2581thoradh": 1485,
  "\u2581website": 1486,
  "\u2581Oifigi\u00fail": 1487,
  "\u2581\u00e1itreabh": 1488,
  "\u2581Sr\u00e1id": 1489,
  "\u2581Provisions": 1490,
  "\u2581airgid": 1491,
  "\u2581payments": 1492,
  "\u2581uimhir": 1493,
  "\u2581Roimhe": 1494,
  "\u2581games": 1495,
  "\u2581age": 1496,
  "\u2581N\u00edorbh": 1497,
  "\u25812,": 1498,
  "\u2581(9)": 1499,
  "\u2581acting": 1500,
  "\u2581supply": 1501,
  "\u2581word": 1502,
  "\u2581c\u00f3ip": 1503,
  "\u2581si\u00fal": 1504,
  "iv": 1505,
  "\u2581contained": 1506,
  "\u2581gc\u00f3na\u00ed": 1507,
  "\u2581iarratais": 1508,
  "\u2581proposed": 1509,
  "mh": 1510,
  "\u2581Comhad": 1511,
  "\u2581using": 1512,
  "\u2581additional": 1513,
  "\u2581President": 1514,
  "\u2581fit": 1515,
  "\u2581f\u00e9achaint": 1516,
  "\u2581published": 1517,
  "\u2581gCuid": 1518,
  "\u2581Jesus": 1519,
  "\u2581approval": 1520,
  ");": 1521,
  "\u25811981": 1522,
  "\u2581chiont\u00fa": 1523,
  "\u2581cause": 1524,
  "\u2581Watch": 1525,
  "\u2581compensation": 1526,
  "\u2581t\u00e9arma": 1527,
  "\u2581L\u00edne": 1528,
  "ais": 1529,
  "\u2581state": 1530,
  "\u2581see": 1531,
  "\u2581h\u00fadar\u00e1is": 1532,
  "\u2581ham": 1533,
  "\u2581applied": 1534,
  "\u2581ndearnadh": 1535,
  "\u2581Free": 1536,
  "\u2581assistance": 1537,
  "\u2581Pr\u00edomh": 1538,
  "\u2581tal\u00fan": 1539,
  "\u2581mBord": 1540,
  "\u2581sol\u00e1thar": 1541,
  "ation": 1542,
  "\u258132": 1543,
  "\u2581scriosadh": 1544,
  "\u2581C\u00e1nach": 1545,
  "\u2581unit": 1546,
  "\u2581t\u00e9arma\u00ed": 1547,
  "\u2581\u00cdosa": 1548,
  "\u2581cent": 1549,
  "\u2581Down": 1550,
  "\u2581dh\u00edol": 1551,
  "\u2581research": 1552,
  "\u2581Ombudsman": 1553,
  "\u2581Iris": 1554,
  "\u2581costais": 1555,
  "ve": 1556,
  "\u2581planning": 1557,
  "\u2581t\u00edortha": 1558,
  "\u2581Garden": 1559,
  "\u2581oscailt": 1560,
  "\u2581choime\u00e1d": 1561,
  "\u2581ard": 1562,
  "\u2581institutions": 1563,
  "\u25811980": 1564,
  "\u2581applicant": 1565,
  "\u2581But": 1566,
  "\u2581tagairt\u00ed": 1567,
  "\u2581United": 1568,
  "\u2581Development": 1569,
  "\u2581Re": 1570,
  "\u2581know": 1571,
  "\u2581Select": 1572,
  "\u2581extent": 1573,
  "\u2581done": 1574,
  "\u2581d\u00f3igh": 1575,
  "\u2581File": 1576,
  "\u2581@": 1577,
  "d\u00e1": 1578,
  "\u2581bhealach": 1579,
  "\u2581mhalairt": 1580,
  "\u2581Tar": 1581,
  "\u2581tosach": 1582,
  "\u2581exceed": 1583,
  "\u2581tr\u00e1d\u00e1la": 1584,
  "\u2581ghn\u00e1th": 1585,
  "\u2581Income": 1586,
  "\u2581teanga": 1587,
  "\u2581Saoire": 1588,
  "\u2581sol\u00e1thraithe": 1589,
  "\u2581bpointe": 1590,
  "\u2581c\u00e1in": 1591,
  "\u2581Eoraip": 1592,
  "\u2581thinks": 1593,
  "\u2581glacadh": 1594,
  "\u2581hold": 1595,
  "\u2581Parlaimint": 1596,
  "\u2581price": 1597,
  "\u2581appointment": 1598,
  "\u2581connection": 1599,
  "\u2581except": 1600,
  "\u2581l\u00e1n": 1601,
  "\u2581gabh\u00e1il": 1602,
  "ig": 1603,
  "\u2581continue": 1604,
  "\u2581Bhaile": 1605,
  "\u2581comhair": 1606,
  "\u2581project": 1607,
  "\u2581li\u00fantas": 1608,
  "\u2581establishment": 1609,
  "\u2581thug": 1610,
  "at": 1611,
  "\u2581death": 1612,
  "\u25812007": 1613,
  "\u2581determine": 1614,
  "\u2581procedures": 1615,
  "\u2581ioncam": 1616,
  "\u2581l\u00e9amh": 1617,
  "bh": 1618,
  "\u258133": 1619,
  "\u2581carry": 1620,
  "\u2581saol": 1621,
  "\u2581shampla": 1622,
  "\u2581equal": 1623,
  "\u2581againn": 1624,
  "\u2581fheidhmi\u00fa": 1625,
  "\u2581Leis": 1626,
  "\u2581ath": 1627,
  "j": 1628,
  "\u2581choinne\u00e1il": 1629,
  "\u25817.": 1630,
  "\u2581October": 1631,
  "\u258134": 1632,
  "\u2581Rialtas": 1633,
  "\u2581subsequent": 1634,
  "\u2581Lord": 1635,
  "\u2581Ginear\u00e1lta": 1636,
  "\u2581direction": 1637,
  "ity": 1638,
  "\u2581Post": 1639,
  "\u2581cooperation": 1640,
  "\u2581enter": 1641,
  "\u2581Services": 1642,
  "\u2581co": 1643,
  "In": 1644,
  "\u2581party": 1645,
  "\u2581Executive": 1646,
  "\u2581d\u00edobh": 1647,
  "\u2581faisn\u00e9ise": 1648,
  "ad": 1649,
  "\u2581responsible": 1650,
  "\u2581profits": 1651,
  "\u2581share": 1652,
  "ne": 1653,
  "\u2581view": 1654,
  "\u2581existing": 1655,
  "\u2581code": 1656,
  "\u2581zhong": 1657,
  "W": 1658,
  "\u2581objectives": 1659,
  "\u2581Contae": 1660,
  "\u25812006": 1661,
  "including": 1662,
  "\u2581comhairle": 1663,
  "\u2581achomharc": 1664,
  "\u2581chumhacht": 1665,
  "\u2581times": 1666,
  "\u2581Conradh": 1667,
  "\u2581accounting": 1668,
  "\u2581deara": 1669,
  "\u2581Dia": 1670,
  "\u2581think": 1671,
  "\u2581considers": 1672,
  "\u2581Open": 1673,
  "\u25812017": 1674,
  "\u2581key": 1675,
  "\u2581Chomhphobail": 1676,
  "\u2581Director": 1677,
  "\u2581roghn\u00fa": 1678,
  "\u2581accounts": 1679,
  "\u2581return": 1680,
  "\u2581Gaeltachta": 1681,
  "\u2581n\u00f3sanna": 1682,
  "\u2581District": 1683,
  "\u2581Official": 1684,
  "\u2581product": 1685,
  "\u2581tabhairt": 1686,
  "\u2581July": 1687,
  "\u2581l\u00e1ithreach": 1688,
  "\u2581regulation": 1689,
  "\u2581imposed": 1690,
  "\u2581anything": 1691,
  "os": 1692,
  "T\u00e1": 1693,
  "\u2581sections": 1694,
  "\u00c1": 1695,
  "\u2581find": 1696,
  "\u2581ainmnithe": 1697,
  "\u2581therein": 1698,
  "\u2581English": 1699,
  "\u2581shl\u00ed": 1700,
  "\u2581America": 1701,
  "\u00e9": 1702,
  "\u2581Ch": 1703,
  "ite": 1704,
  "\u2581cr\u00edoch": 1705,
  "com": 1706,
  "\u2581Sonra\u00ed": 1707,
  "\u2581eisi\u00faint": 1708,
  "\u2581house": 1709,
  "\u2581freagrach": 1710,
  "\u2581increase": 1711,
  "\u2581included": 1712,
  "\u2581text": 1713,
  "\u2581cine\u00e1l": 1714,
  "\u2581nature": 1715,
  "\u2581taighde": 1716,
  "\u2581month": 1717,
  "\u2581conferred": 1718,
  "\u2581establishing": 1719,
  "\u2581porn": 1720,
  "\u2581fuair": 1721,
  "\u2581qualified": 1722,
  "\u2581June": 1723,
  "\u2581nd\u00e9antar": 1724,
  "\u2581Bhoird": 1725,
  "\u2581cinnte": 1726,
  "\u2581operations": 1727,
  "\u2581lae": 1728,
  "tear": 1729,
  "\u2581important": 1730,
  "\u2581gC\u00fairt": 1731,
  "\u2581dtaca": 1732,
  "\u2581already": 1733,
  "\u2581ch\u00fairt": 1734,
  "\u2581forbairt": 1735,
  "\u25812008": 1736,
  "\u2581Diode": 1737,
  "\u2581things": 1738,
  "(2)": 1739,
  "\u2581Eolas": 1740,
  "\u2581create": 1741,
  "\u2581inniu": 1742,
  "\u2581seirbh\u00eds": 1743,
  "man": 1744,
  "\u25812018": 1745,
  "\u2581Ean\u00e1ir": 1746,
  "\u2581si\u00fad": 1747,
  "\u2581beag": 1748,
  "up": 1749,
  "\u2581Corporation": 1750,
  "\u2581VI": 1751,
  "\u2581rates": 1752,
  "ro": 1753,
  "\u2581lucht": 1754,
  "\u00f3": 1755,
  "\u2581arrangements": 1756,
  "\u2581contact": 1757,
  "\u2581related": 1758,
  "\u2581riarach\u00e1in": 1759,
  "\u2581Land": 1760,
  "\u2581official": 1761,
  "\u258135": 1762,
  "\u2581investment": 1763,
  "\u2581doicim\u00e9ad": 1764,
  "\u2581c\u00e1ilithe": 1765,
  "\u2581dh\u00e9antar": 1766,
  "\u2581safety": 1767,
  "\u2581Saorst\u00e1t": 1768,
  "\u2581fhor\u00e1lacha": 1769,
  "\u2581transport": 1770,
  "\u2581obligations": 1771,
  "aois": 1772,
  "\u2581result": 1773,
  "\u2581Spot": 1774,
  "\u2581claim": 1775,
  "\u2581programmes": 1776,
  "\u2581uirthi": 1777,
  "\u2581phoibl\u00ed": 1778,
  "\u2581ionas": 1779,
  "\u2581material": 1780,
  "\u2581draft": 1781,
  "\u2581\u00c9irinn": 1782,
  "\u2581tortha\u00ed": 1783,
  "\u00e1la": 1784,
  "\u2581play": 1785,
  "sh": 1786,
  "\u2581f\u00edor": 1787,
  "\u2581Coiste": 1788,
  "\u2581dom": 1789,
  "\u2581institution": 1790,
  "\u2581r\u00fan": 1791,
  "\u2581thugtar": 1792,
  "\",": 1793,
  "\u2581*": 1794,
  "z": 1795,
  "\u2581carrying": 1796,
  "\u2581doicim\u00e9id": 1797,
  "\u2581image": 1798,
  "\u2581schools": 1799,
  "\u2581proposal": 1800,
  "\u2581pr\u00edomh": 1801,
  "\u2581ar\u00eds": 1802,
  "\u2581parties": 1803,
  "\u2581J": 1804,
  "\u2581Save": 1805,
  "\u2581beginning": 1806,
  "\u2581majority": 1807,
  "\u25810": 1808,
  "\u00f3ir": 1809,
  "\u2581beartaithe": 1810,
  "\u2581six": 1811,
  "\u2581budget": 1812,
  "\u2581Choimisi\u00fain": 1813,
  "\u2581St": 1814,
  "\u2581fosta\u00edochta": 1815,
  "\u2581column": 1816,
  "\u2581c\u00f3ras": 1817,
  "one": 1818,
  "\u2581Canno": 1819,
  "\u2581c\u00e1s": 1820,
  "\u2581implementing": 1821,
  "\u2581sula": 1822,
  "\u2581instrument": 1823,
  "\u2581back": 1824,
  "ur": 1825,
  "\u2581\u00e9isteacht": 1826,
  "\u2581leanbh": 1827,
  "\u2581bleib\u00edn\u00ed": 1828,
  "\u2581fishing": 1829,
  "\u2581line": 1830,
  "\u2581did": 1831,
  "do": 1832,
  "\u2581site": 1833,
  "\u2581t\u00fas": 1834,
  "\u2581Tiarna": 1835,
  "\u2581ch\u00e1in": 1836,
  "\u2581Road": 1837,
  "\u2581credit": 1838,
  "\u2581t\u00dadar\u00e1s": 1839,
  "\u258137": 1840,
  "\u2581fixed": 1841,
  "\u2581Contact": 1842,
  "CUID": 1843,
  "\u2581choinn\u00edoll": 1844,
  "\u2581tuairim": 1845,
  "\u2581toisc": 1846,
  "\u2581bhfianaise": 1847,
  "\u2581siar": 1848,
  "\u2581Fead\u00e1in": 1849,
  "\u2581conas": 1850,
  "\u2581faide": 1851,
  "\u2581cost": 1852,
  "\u2581above": 1853,
  "\u2581declaration": 1854,
  "\u2581Seirbh\u00eds\u00ed": 1855,
  "orches": 1856,
  "\u2581outside": 1857,
  "\u2581oibri\u00fa": 1858,
  "\u2581position": 1859,
  "\u2581riachtanach": 1860,
  "\u2581home": 1861,
  "\u2581info": 1862,
  "\u2581jurisdiction": 1863,
  "\u2581hundred": 1864,
  "\u2581close": 1865,
  "BAR": 1866,
  "\u2581able": 1867,
  "\u2581l\u00e9iri\u00fa": 1868,
  "\u2581Add": 1869,
  "\u00fas\u00e1id": 1870,
  "\u2581leana\u00ed": 1871,
  "\u2581fact": 1872,
  "\u2581pointe": 1873,
  "\u2581\"%": 1874,
  "\u2581assets": 1875,
  "\u2581several": 1876,
  "\u2581September": 1877,
  "\u2581cluich\u00ed": 1878,
  "\u2581\u00fas\u00e1idtear": 1879,
  "\u2581Arts": 1880,
  "\u2581Can": 1881,
  "\u2581final": 1882,
  "\u2581Choiste": 1883,
  "\u2581Oideachais": 1884,
  "\u2581At": 1885,
  "cha": 1886,
  "\u2581\u00e1bhair": 1887,
  "\u2581Bain": 1888,
  "\u2581thagann": 1889,
  "\u2581transferred": 1890,
  "\u2581article": 1891,
  "\u2581Spotlight": 1892,
  "\u2581inni\u00fala": 1893,
  "ist": 1894,
  "ce": 1895,
  "\u2581modh": 1896,
  "\u2581Iarscr\u00edbhinn": 1897,
  "\u2581enactment": 1898,
  "\u2581r\u00e1ta\u00ed": 1899,
  "\u2581lasmuigh": 1900,
  "\u2581cumhachta\u00ed": 1901,
  "\u2581Airteagail": 1902,
  "\u2581provides": 1903,
  "\u2581\u20ac": 1904,
  "\u2581consultation": 1905,
  "\u2581l\u00e1ithre\u00e1n": 1906,
  "\u2581Search": 1907,
  "\u2581exchange": 1908,
  "\u2581HD": 1909,
  "\u2581entered": 1910,
  "lena": 1911,
  "\u2581title": 1912,
  "w": 1913,
  "\u2581t\u00e9acs": 1914,
  "\u2581employer": 1915,
  "un": 1916,
  "\u2581appoint": 1917,
  "\u2581animals": 1918,
  "\u2581bun\u00fa": 1919,
  "\u2581deimhin": 1920,
  "\u2581Communities": 1921,
  "\u2581main": 1922,
  "\u2581treated": 1923,
  "\u258139": 1924,
  "\u2581substituted": 1925,
  "\u2581Meirice\u00e1": 1926,
  "\u2581satisfied": 1927,
  "go": 1928,
  "\u2581for\u00e1il": 1929,
  "\u2581food": 1930,
  "\u2581NA": 1931,
  "\u2581directly": 1932,
  "\u2581scr\u00fad\u00fa": 1933,
  "\u2581Protocol": 1934,
  "\u2581resolution": 1935,
  "\u2581assigned": 1936,
  "\u2581suppliers": 1937,
  "\u2581Cuirfidh": 1938,
  "\u2581known": 1939,
  "ment": 1940,
  "iarratas": 1941,
  "\u2581council": 1942,
  "\u25818.": 1943,
  "\u2581That": 1944,
  "\u2581chl\u00e1r\u00fa": 1945,
  "\u2581fhor\u00e1il": 1946,
  "\u2581Ord\u00fa": 1947,
  "\u2581S\u00e1bh\u00e1il": 1948,
  "\u258136": 1949,
  "\u2581territory": 1950,
  "Ireland": 1951,
  "\u2581intended": 1952,
  "eacht": 1953,
  "\u2581theacht": 1954,
  "\u2581Bulbs": 1955,
  "\u2581risk": 1956,
  "\u2581review": 1957,
  "(3)": 1958,
  "\u2581inni\u00fail": 1959,
  "\u2581n\u00e1d\u00fartha": 1960,
  "\u2581dheon\u00fa": 1961,
  "\u2581compliance": 1962,
  "\u2581receive": 1963,
  "\u2581By": 1964,
  "\u2581\u00a3": 1965,
  "\u2581preceding": 1966,
  "ex": 1967,
  "\u2581Agreement": 1968,
  "\u2581among": 1969,
  "\u2581equipment": 1970,
  "\u2581comhaont\u00fa": 1971,
  "\u2581receipt": 1972,
  "ag": 1973,
  "\u2581oil": 1974,
  "\u2581Republic": 1975,
  "\u2581iompair": 1976,
  "\u2581holder": 1977,
  "\u2581Airgid": 1978,
  "\u25812003": 1979,
  "\u00edtear": 1980,
  "\u2581gc\u00e1sanna": 1981,
  "\u2581great": 1982,
  "\u25812004": 1983,
  "\u2581Un": 1984,
  "ent": 1985,
  "\u2581makes": 1986,
  "\u2581save": 1987,
  "IO": 1988,
  "\u2581employed": 1989,
  "\u2581\u201c(": 1990,
  "\u2581customs": 1991,
  "\u2581administrative": 1992,
  "\u2581\u00c1iti\u00fail": 1993,
  "\u2581Torches": 1994,
  "agus": 1995,
  "\u2581bia": 1996,
  "\u2581cumhacht": 1997,
  "\u2581forbartha": 1998,
  "\u2581human": 1999,
  "\u2581Defence": 2000,
  "\u2581caiteachas": 2001,
  "\u2581medical": 2002,
  "\u2581Deireadh": 2003,
  "\u2581Tubes": 2004,
  "\u2581cosanta": 2005,
  "Leas\u00fa": 2006,
  "\u2581companies": 2007,
  "\u2581resources": 2008,
  "\u2581ainmhithe": 2009,
  "\u2581domhain": 2010,
  "\u2581giving": 2011,
  "\u2581condition": 2012,
  "\u2581paragraphs": 2013,
  "\u2581maximum": 2014,
  "Amendment": 2015,
  "\u2581Earr\u00e1id": 2016,
  "ch\u00e1in": 2017,
  "\u2581Management": 2018,
  "\u2581called": 2019,
  "\u2581fillte\u00e1n": 2020,
  "\u2581feidhmi\u00fa": 2021,
  "\u258138": 2022,
  "\u2581cruinni\u00fa": 2023,
  "\u2581size": 2024,
  "\u2581meas\u00fan\u00fa": 2025,
  "air": 2026,
  "\u2581natural": 2027,
  "\u2581framework": 2028,
  "\u2581bharr": 2029,
  "\u2581iasacht": 2030,
  "\u2581punt": 2031,
  "\u00fail": 2032,
  "\u2581gcl\u00e1r": 2033,
  "9": 2034,
  "\u2581U": 2035,
  "\u2581socruithe": 2036,
  "\u2581Cuid": 2037,
  "\u2581ordinary": 2038,
  "\u2581View": 2039,
  "\u2581interests": 2040,
  "\u2581So": 2041,
  "\u2581Caibidil": 2042,
  "Is": 2043,
  "\u2581Kingdom": 2044,
  "\u2581\u00fadar\u00fa": 2045,
  "\u2581fund": 2046,
  "el": 2047,
  "\u2581organisations": 2048,
  "\u2581ruda\u00ed": 2049,
  "\u2581thosach": 2050,
  "\u25812000": 2051,
  "other": 2052,
  "\u2581November": 2053,
  "\u2581corporation": 2054,
  "\u2581lorg": 2055,
  "\u258145": 2056,
  "oifigeach": 2057,
  "\u2581p\u00e1irteach": 2058,
  "eann": 2059,
  "\u2581Eireann": 2060,
  "\u2581Me\u00e1n": 2061,
  "\u2581fianaise": 2062,
  "\u2581designated": 2063,
  "\u2581lighting": 2064,
  "\u2581organisation": 2065,
  "\u2581processing": 2066,
  "\u25811923": 2067,
  "\u2581Garda": 2068,
  "\u2581shocr\u00fa": 2069,
  "nn": 2070,
  "\u2581example": 2071,
  "\u2581contae": 2072,
  "\u2581comhlachta\u00ed": 2073,
  "\u2581cuirtear": 2074,
  "\u2581officers": 2075,
  "\u2581actions": 2076,
  "\u2581r\u00e9as\u00fanach": 2077,
  "/%": 2078,
  "\u2581small": 2079,
  "\u2581results": 2080,
  "\u2581points": 2081,
  "\u25811963": 2082,
  "\u2581\u00e1iti\u00fala": 2083,
  "\u2581brought": 2084,
  "\u2581manufacturers": 2085,
  "\u2581Video": 2086,
  "\u2581bPr\u00edomh": 2087,
  "\u2581decisions": 2088,
  "\u2581monar\u00f3ir\u00ed": 2089,
  "Auto": 2090,
  "\u2581International": 2091,
  "\u2581four": 2092,
  "\u2581book": 2093,
  "\u2581undertaking": 2094,
  "\u2581\u00das\u00e1id": 2095,
  "\u2581Oscail": 2096,
  "\u2581ship": 2097,
  "\u2581corporate": 2098,
  "\u2581chuireann": 2099,
  "\u25819.": 2100,
  "\u2581s\u00fail": 2101,
  "\u2581Source": 2102,
  "\u2581sums": 2103,
  "\u2581Your": 2104,
  "Wall": 2105,
  "\u2581systems": 2106,
  "\u2581Use": 2107,
  "\u2581bhfoirm": 2108,
  "\u2581mbliana": 2109,
  "\u2581What": 2110,
  "\u2581dleacht": 2111,
  "\u00f3idh": 2112,
  "\u2581D\u00e1": 2113,
  "\u2581airde": 2114,
  "\u2581\u00bb": 2115,
  "OJ": 2116,
  "\u2581Protection": 2117,
  "\u2581p\u00e1irtithe": 2118,
  "\u2581Dara": 2119,
  "\u258160": 2120,
  "\u2581fuinnimh": 2121,
  "\u2581kept": 2122,
  "\u2581leath": 2123,
  "Holiday": 2124,
  "\u2581gComhphobal": 2125,
  "\u25811927": 2126,
  "\u2581dteannta": 2127,
  "\u2581fhomh\u00edr": 2128,
  "\u2581providing": 2129,
  "\u2581securities": 2130,
  "\u2581purchase": 2131,
  "\u2581structure": 2132,
  "\u2581window": 2133,
  "ia": 2134,
  "sa": 2135,
  "Street": 2136,
  "\u2581keep": 2137,
  "\u2581single": 2138,
  "\u2581Liosta": 2139,
  "um": 2140,
  "ip": 2141,
  "\u2581twenty": 2142,
  "\u2581family": 2143,
  "\u2581holding": 2144,
  "Garden": 2145,
  "\u2581City": 2146,
  "eachta": 2147,
  "\u2581bord": 2148,
  "\u2581cusp\u00f3ir\u00ed": 2149,
  "Diode": 2150,
  "Downlight": 2151,
  "Flashlights": 2152,
  "\u2581C\u00e9": 2153,
  "\u2581show": 2154,
  "ill": 2155,
  "\u2581Gaeltacht": 2156,
  "\u2581off": 2157,
  "\u2581definition": 2158,
  "\u2581t\u00e1irge": 2159,
  "\u2581mbun": 2160,
  "fho": 2161,
  "\u2581read": 2162,
  "\u2581riachtanais": 2163,
  "\u2581sent": 2164,
  "\u2581field": 2165,
  "\u2581Galway": 2166,
  "\u2581page": 2167,
  "\u258148": 2168,
  "\u2581relief": 2169,
  "\u2581hours": 2170,
  "\u2581s\u00f3isialta": 2171,
  "\u2581temporary": 2172,
  "\u2581gcuideachta": 2173,
  "\u2581c\u00f3d": 2174,
  "\u2581scoil": 2175,
  "\u2581care": 2176,
  "\u2581These": 2177,
  "\u2581description": 2178,
  "\u2581ullmh\u00fa": 2179,
  "\u2581fee": 2180,
  "\u2581lean\u00faint": 2181,
  "\u2581tugtha": 2182,
  "\u2581bhfad": 2183,
  "\u2581standard": 2184,
  "\u2581comhaid": 2185,
  "\u2581ola": 2186,
  "\u2581considered": 2187,
  "ah": 2188,
  "\u25812001": 2189,
  "\u2581contribution": 2190,
  "\u2581still": 2191,
  "\u2581bliant\u00fail": 2192,
  "\u2581meet": 2193,
  "\u2581consideration": 2194,
  "\u2581\u00edomh\u00e1": 2195,
  "\u2581Poibl\u00ed": 2196,
  "\u2581deis": 2197,
  "\u2581mhaoin": 2198,
  "\u2581cuntas": 2199,
  "\u2581authorisation": 2200,
  "\u2581remuneration": 2201,
  "\u2581committed": 2202,
  "\u2581thionscnamh": 2203,
  "\u2581insertion": 2204,
  "\u2581leabhar": 2205,
  "\u2581margadh": 2206,
  "\u2581delegated": 2207,
  "\u2581teach": 2208,
  "\u2581below": 2209,
  "ise": 2210,
  "\u2581aforesaid": 2211,
  "\u25811976": 2212,
  "\u2581applications": 2213,
  "\u2581species": 2214,
  "\u2581today": 2215,
  "\u2581th\u00f3g\u00e1il": 2216,
  "\u2581KDE": 2217,
  "\u2581loss": 2218,
  "co": 2219,
  "\u2581coiste": 2220,
  "\u2581leasa": 2221,
  "\u2581p\u00e1irt": 2222,
  "\u2581d\u00e9ag": 2223,
  "\u2581put": 2224,
  "\u2581dearbh\u00fa": 2225,
  "\u2581private": 2226,
  "\u2581gc": 2227,
  "ies": 2228,
  "\u2581Bhallst\u00e1it": 2229,
  "\u2581students": 2230,
  "\u2581always": 2231,
  ",\"": 2232,
  "\u2581dl\u00edfear": 2233,
  "\u2581Sti\u00farth\u00f3ir": 2234,
  "\u2581Data": 2235,
  "\u2581tsuim": 2236,
  "\u2581ghn\u00f3": 2237,
  "\u2581barr": 2238,
  "\u2581replaced": 2239,
  "\u2581tasks": 2240,
  "\u2581One": 2241,
  "\u2581(10)": 2242,
  "ma": 2243,
  "ll": 2244,
  "\u2581limited": 2245,
  "\u2581changes": 2246,
  "\u2581chuir": 2247,
  "\u2581factory": 2248,
  "\u25811997": 2249,
  "\u2581fola\u00edonn": 2250,
  "\u2581submitted": 2251,
  "\u2581R\u00edocht": 2252,
  "\u2581tr\u00e9": 2253,
  "\u2581Ghn\u00edomhaireacht": 2254,
  "\u2581mh\u00e9ad\u00fa": 2255,
  "\u2581community": 2256,
  "\u2581effective": 2257,
  "\u2581iarracht": 2258,
  "\u2581iompar": 2259,
  "\u2581imirt": 2260,
  "ru": 2261,
  "\u2581freastal": 2262,
  "\u258110.": 2263,
  "ard": 2264,
  "\u2581difear": 2265,
  "\u2581needs": 2266,
  "\u2581bhreise": 2267,
  "\u2581riamh": 2268,
  "\u2581choiste": 2269,
  "\u2581Bealtaine": 2270,
  "\u2581John": 2271,
  "\u2581content": 2272,
  "\u2581Chomh": 2273,
  "\u2581around": 2274,
  "\u2581gn\u00edomh": 2275,
  "\u2581rachaidh": 2276,
  "\u2581ch\u00fais": 2277,
  "\u2581tri": 2278,
  "\u2581added": 2279,
  "\u2581pinsean": 2280,
  "\u2581h\u00fas\u00e1id": 2281,
  "\u2581arising": 2282,
  "\u2581knowledge": 2283,
  "\u2581plean\u00e1la": 2284,
  "\u2581However": 2285,
  "\u2581wa": 2286,
  "\u2581luath": 2287,
  "\u00a1": 2288,
  "\u2581soilsi\u00fa": 2289,
  "\u2581Teach": 2290,
  "\u2581athbhreithni\u00fa": 2291,
  "\u2581son": 2292,
  "ness": 2293,
  "\u2581tuilleadh": 2294,
  "\u2581teachtaireacht": 2295,
  "\u2581allowed": 2296,
  "\u2581eolais": 2297,
  "\u2581inspector": 2298,
  "\u2581luaidhtear": 2299,
  "\u2581similar": 2300,
  "\u2581February": 2301,
  "\u2581thr\u00e9imhse": 2302,
  "\u2581tsl\u00ed": 2303,
  "\u2581scoile": 2304,
  "\u00e1bhar": 2305,
  "\u2581Companies": 2306,
  "\u2581cabhr\u00fa": 2307,
  "\u2581according": 2308,
  "\u2581determination": 2309,
  "ph": 2310,
  "\u2581charges": 2311,
  "\u2581mail": 2312,
  "\u2581oideachais": 2313,
  "\u2581nd\u00e9anamh": 2314,
  "\u2581sochair": 2315,
  "\u2581submit": 2316,
  "each": 2317,
  "\u2581fada": 2318,
  "\u2581particulars": 2319,
  "\u2581defined": 2320,
  "ainm": 2321,
  "\u2581status": 2322,
  "\u2581araon": 2323,
  "uithe": 2324,
  "\u2581t\u00e1ille": 2325,
  "cht": 2326,
  "\u2581cr\u00edcheanna": 2327,
  "Chiste": 2328,
  "\u2581cl\u00e1ir": 2329,
  "\u258141": 2330,
  "\u2581respects": 2331,
  "\u2581details": 2332,
  "\u2581Title": 2333,
  "\u2581oifigigh": 2334,
  "\u2581phobal": 2335,
  "\u25811924": 2336,
  "\u2581default": 2337,
  "\u2581employee": 2338,
  "\u2581sh\u00e1bh\u00e1il": 2339,
  "\u2581ort": 2340,
  "\u2581suimeanna": 2341,
  "\u2581Ciste": 2342,
  "\u2581iontu": 2343,
  "\u2581establish": 2344,
  "seachas": 2345,
  "\u2581Cruthaigh": 2346,
  "\u2581Foinse": 2347,
  "\u2581scoileanna": 2348,
  "\u2581thuras": 2349,
  "\u2581chomhalta\u00ed": 2350,
  "a\u00edonn": 2351,
  "\u2581plant": 2352,
  "\u2581D\u00e9an": 2353,
  "\u2581gn\u00e1th": 2354,
  "\u2581hand": 2355,
  "\u2581pursuance": 2356,
  "ain": 2357,
  "\u2581For\u00e1lacha": 2358,
  "\u258142": 2359,
  "\u2581representative": 2360,
  "\u2581civil": 2361,
  "\u2581cosaint": 2362,
  "\u2581events": 2363,
  "\u2581With": 2364,
  "\u2581version": 2365,
  "\u2581gcur": 2366,
  "\u2581comhl\u00edonadh": 2367,
  "\u2581listed": 2368,
  "\u2581Eorpacha": 2369,
  "\u2581possession": 2370,
  "\u2581ten": 2371,
  "\u2581kind": 2372,
  "\u2581Please": 2373,
  "\u2581Create": 2374,
  "\u258143": 2375,
  "\u2581cheannach": 2376,
  "\u2581mheas": 2377,
  "\u2581statutory": 2378,
  "\u2581talmha\u00edochta": 2379,
  "\u2581rialaithe": 2380,
  "\u2581r\u00e9": 2381,
  "\u2581maintenance": 2382,
  "\u00edn": 2383,
  "\u2581allowances": 2384,
  "\u00e1": 2385,
  "\u2581cuntais": 2386,
  "\u2581separate": 2387,
  "\u2581young": 2388,
  "ter": 2389,
  "\u2581messages": 2390,
  "\u2581thugann": 2391,
  "\u2581socr\u00fa": 2392,
  "\u2581contain": 2393,
  "\u2581p\u00e1irt\u00ed": 2394,
  "\u2581specify": 2395,
  "\u25811978": 2396,
  "\u2581Journal": 2397,
  "\u2581original": 2398,
  "\u2581men": 2399,
  "\u2581consider": 2400,
  "\u2581prior": 2401,
  "\u2581CRO": 2402,
  "\u2581achtach\u00e1n": 2403,
  "\u2581passed": 2404,
  "vi": 2405,
  "\u2581joint": 2406,
  "\u2581tionchar": 2407,
  "\u2581M\u00e1rta": 2408,
  "\u2581gcuirfear": 2409,
  "\u2581stock": 2410,
  "\u2581mhonarcha": 2411,
  "\u2581week": 2412,
  "\u2581amounts": 2413,
  "\u2581tabharfaidh": 2414,
  "\u2581s\u00f3cmhainn\u00ed": 2415,
  "AN": 2416,
  "\u2581c\u00e9im": 2417,
  "ocht": 2418,
  "\u2581Rules": 2419,
  "\u2581bank": 2420,
  "\u2581iascaigh": 2421,
  "\u2581follows": 2422,
  "\u2581served": 2423,
  "\u2581practice": 2424,
  "\u2581Uachtar\u00e1n": 2425,
  "\u2581li\u00fantais": 2426,
  "\u2581future": 2427,
  "fear": 2428,
  "\u2581ending": 2429,
  "\u2581since": 2430,
  "\u258144": 2431,
  "AR": 2432,
  "ail": 2433,
  "\u2581Error": 2434,
  "\u2581chr\u00edoch": 2435,
  "\u2581Power": 2436,
  "\u2581mh\u00f3r": 2437,
  "\u2581Economic": 2438,
  "\u258100": 2439,
  "\u2581capacity": 2440,
  "ile": 2441,
  "\u25812002": 2442,
  "ice": 2443,
  "\u2581Centre": 2444,
  "\u2581inmhuirearaithe": 2445,
  "\u2581lch": 2446,
  "\u00f3far": 2447,
  "\u2581start": 2448,
  "\u2581better": 2449,
  "\u2581c\u00fanamh": 2450,
  "\u2581duly": 2451,
  "\u2581qualifying": 2452,
  "\u2581Bhallst\u00e1t": 2453,
  "\u2581liability": 2454,
  "\u2581parts": 2455,
  "\u2581cannot": 2456,
  "\u2581\u00fas\u00e1ide": 2457,
  "\u2581mark": 2458,
  "ant": 2459,
  "\u2581fiche": 2460,
  "\u2581dleathach": 2461,
  "\u2581l\u00e1imh": 2462,
  "\u2581D\u00e1il": 2463,
  "\u2581sea": 2464,
  "age": 2465,
  "\u2581returning": 2466,
  "\u2581pre": 2467,
  "\u2581tharraingt": 2468,
  "\u2581Project": 2469,
  "\u2581signed": 2470,
  "\u2581ball": 2471,
  "\u2581maoin": 2472,
  "\u2581thart": 2473,
  "\u2581costas": 2474,
  "\u2581karn": 2475,
  "\u2581karnar": 2476,
  "\u2581instruments": 2477,
  "\u258111.": 2478,
  "\u2581record": 2479,
  "\u2581paper": 2480,
  "\u2581I\u00fail": 2481,
  "\u2581l\u00e9inn": 2482,
  "\u258146": 2483,
  "\u2581standards": 2484,
  "\u2581tuairisc": 2485,
  "\u2581dlite": 2486,
  "\u2581fees": 2487,
  "\u2581iascaireachta": 2488,
  "Z": 2489,
  "\u2581How": 2490,
  "\u2581Cl\u00e1r": 2491,
  "\u2581Help": 2492,
  "\u2581c\u00e1sanna": 2493,
  "\u2581faire": 2494,
  "\u2581orders": 2495,
  "\u2581discharge": 2496,
  "\u2581\u00edoca\u00edochta\u00ed": 2497,
  "\u2581complete": 2498,
  "\u2581allow": 2499,
  "\u2581chinnfidh": 2500,
  "\u2581deimhnithe": 2501,
  "\u2581ngairtear": 2502,
  "\u25812005": 2503,
  "\u2581director": 2504,
  "\u2581large": 2505,
  "\u2581again": 2506,
  "\u2581sh": 2507,
  "ri": 2508,
  "\u2581vehicles": 2509,
  "fh\u00e1il": 2510,
  "\u2581List": 2511,
  "\u2581rent": 2512,
  "\u2581imprisonment": 2513,
  "\u2581housing": 2514,
  "\u2581records": 2515,
  "\u2581principal": 2516,
  "\u2581AND": 2517,
  "\u2581Cluiche": 2518,
  "\u2581regards": 2519,
  "\u2581cothrom": 2520,
  "m\u00e1s": 2521,
  "\u2581c\u00fairte": 2522,
  "\u2581Each": 2523,
  "\u2581r\u00e9ims\u00ed": 2524,
  "\u2581Aibre\u00e1n": 2525,
  "\u2581Second": 2526,
  "ath": 2527,
  "imh": 2528,
  "\u2581leathanach": 2529,
  "\u2581notification": 2530,
  "\u2581investigation": 2531,
  "achta": 2532,
  "\u2581mhaithe": 2533,
  "\u2581affect": 2534,
  "\u2581Ceannais": 2535,
  "\u2581AGUS": 2536,
  "\u2581ionstraim": 2537,
  "\u2581send": 2538,
  "\u2581dtabharfar": 2539,
  "\u2581minimum": 2540,
  "da": 2541,
  "\u2581written": 2542,
  "\u2581reasons": 2543,
  "\u2581produce": 2544,
  "\u2581Cluich\u00ed": 2545,
  "ate": 2546,
  "\u2581nochtadh": 2547,
  "\u2581tr\u00e1d\u00e1il": 2548,
  "\u2581c\u00e9ad": 2549,
  "\u2581inform": 2550,
  "\u2581After": 2551,
  "\u2581Copy": 2552,
  "\u2581requirement": 2553,
  "Aibre\u00e1n": 2554,
  "\u2581bhreis": 2555,
  "\u2581Coda": 2556,
  "\u2581activity": 2557,
  "\u2581distribution": 2558,
  "\u2581leithligh": 2559,
  "\u2581various": 2560,
  "\u2581manufacturer": 2561,
  "\u2581repealed": 2562,
  "\u2581sector": 2563,
  "\u2581agricultural": 2564,
  "\u2581lease": 2565,
  "\u2581projects": 2566,
  "\u2581Tattoo": 2567,
  "\u2581million": 2568,
  "no": 2569,
  "\u2581ch\u00f3": 2570,
  "\u2581inspection": 2571,
  "\u2581m\u00e9ad\u00fa": 2572,
  "ire": 2573,
  "\u2581previous": 2574,
  "\u2581Meitheamh": 2575,
  "\u258147": 2576,
  "\u2581ch\u00falghairm": 2577,
  "\u2581experience": 2578,
  "\u2581sealadach": 2579,
  "\u2581poist": 2580,
  "\u2581r\u00f3": 2581,
  "\u2581n\u00edl": 2582,
  "ling": 2583,
  "\u2581tionscadal": 2584,
  "\u2581materials": 2585,
  "\u2581obligation": 2586,
  "\u2581soil\u00e9ir": 2587,
  "\u2581Scrios": 2588,
  "\u2581\u00e9ag": 2589,
  "teachtaireachta\u00ed": 2590,
  "\u2581disposal": 2591,
  "\u2581raon": 2592,
  "\u25811946": 2593,
  "om": 2594,
  "ry": 2595,
  "\u2581\u00f3na": 2596,
  "mar": 2597,
  "\u2581Banc": 2598,
  "\u2581ghn\u00f3th\u00fa": 2599,
  "\u2581might": 2600,
  "\u2581contains": 2601,
  "\u2581Mac": 2602,
  "\u2581SCEIDEAL": 2603,
  "\u258170": 2604,
  "\u2581\u00e1rachais": 2605,
  "\u2581contributions": 2606,
  "\u2581email": 2607,
  "\u2581c\u00f3": 2608,
  "\u2581fostaithe": 2609,
  "\u2581vote": 2610,
  "\u2581Game": 2611,
  "\u2581t\u00e1ill\u00ed": 2612,
  "Leasa\u00edtear": 2613,
  "\u2581device": 2614,
  "\u2581\u00ab": 2615,
  "\u258112.": 2616,
  "\u2581Dl\u00ed": 2617,
  "\u2581Mura": 2618,
  "\u2581Download": 2619,
  "\u2581Fillte\u00e1n": 2620,
  "\u2581CD": 2621,
  "\u2581r\u00e9amh": 2622,
  "\u2581al": 2623,
  "\u2581chontae": 2624,
  "\u2581longer": 2625,
  "\u2581aistrithe": 2626,
  "ha": 2627,
  "\u2581China": 2628,
  "\u2581News": 2629,
  "10": 2630,
  "\u2581error": 2631,
  "\u2581muirear": 2632,
  "\u2581te": 2633,
  "\u2581Posted": 2634,
  "(4)": 2635,
  "\u2581Group": 2636,
  "\u2581principles": 2637,
  "\u2581shown": 2638,
  "\u2581chead\u00fa": 2639,
  "\u2581Comhaid": 2640,
  "\u2581Other": 2641,
  "\u2581chinnti\u00fa": 2642,
  "\u2581regarding": 2643,
  "\u2581thing": 2644,
  "\u2581tr\u00edna": 2645,
  "EEC": 2646,
  "\u2581Ghaeilge": 2647,
  "\u2581Image": 2648,
  "\u2581tionscadail": 2649,
  "\u2581\u00dadar\u00e1is": 2650,
  "\u2581nasc": 2651,
  "\u2581nor": 2652,
  "\u2581iontach": 2653,
  "\u258190": 2654,
  "\u2581foregoing": 2655,
  "\u2581m\u00edreanna": 2656,
  "\u2581requires": 2657,
  "\u2581role": 2658,
  "\u2581agreements": 2659,
  "\u2581internal": 2660,
  "\u2581Programme": 2661,
  "\u2581conduct": 2662,
  "et": 2663,
  "\u2581ceithre": 2664,
  "\u2581context": 2665,
  "\u2581r\u00edomhaire": 2666,
  "\u2581groups": 2667,
  "\u2581criteria": 2668,
  "\u2581towards": 2669,
  "\u2581search": 2670,
  "\u2581Rialacha": 2671,
  "General": 2672,
  "\u2581con": 2673,
  "\u2581policies": 2674,
  "\u2581previously": 2675,
  "\u2581examination": 2676,
  "\u2581facilities": 2677,
  "\u2581thoil": 2678,
  "lo": 2679,
  "\u2581created": 2680,
  "\u2581simple": 2681,
  "\u2581foirm": 2682,
  "\u2581prevent": 2683,
  "\u2581notified": 2684,
  "\u2581perform": 2685,
  "\u2581sheachadadh": 2686,
  "\u2581Cad": 2687,
  "ary": 2688,
  "\u2581Comh": 2689,
  "\u2581chothabh\u00e1il": 2690,
  "\u2581Scheme": 2691,
  "\u00edodh": 2692,
  "\u2581dl\u00ednse": 2693,
  "\u2581resident": 2694,
  "\u2581di\u00fait\u00e9": 2695,
  "\u2581Teachtaireacht": 2696,
  "\u2581chuirfear": 2697,
  "\u2581washer": 2698,
  "amh": 2699,
  "\u2581chuntasa\u00edochta": 2700,
  "\u2581Forces": 2701,
  "\u2581cheist": 2702,
  "\u2581animal": 2703,
  "\u2581publication": 2704,
  "\u2581funds": 2705,
  "\u2581love": 2706,
  "\u25811925": 2707,
  "\u2581grounds": 2708,
  "\u2581Circuit": 2709,
  "\u2581tosaigh": 2710,
  "\u2581fheice\u00e1il": 2711,
  "\u2581bhainfidh": 2712,
  "\u2581August": 2713,
  "X": 2714,
  "\u2581currency": 2715,
  "\u2581old": 2716,
  "\u2581cinnt\u00ed": 2717,
  "\u2581expiration": 2718,
  "\u2581live": 2719,
  "\u2581reading": 2720,
  "\u2581Paul": 2721,
  "\u2581Gharda": 2722,
  "\u2581Move": 2723,
  "\u2581N\u00e1": 2724,
  "\u2581b\u00e1s": 2725,
  "\u2581gceann": 2726,
  "\u2581grants": 2727,
  "\u2581oifigi\u00fail": 2728,
  "\u25811977": 2729,
  "\u2581candidate": 2730,
  "\u2581cionn": 2731,
  "\u2581\u00e1fach": 2732,
  "\u2581stated": 2733,
  "\u2581collection": 2734,
  "\u2581C\u00e1in": 2735,
  "\u2581sonracha": 2736,
  "\u2581VII": 2737,
  "\u2581professional": 2738,
  "gh": 2739,
  "\u2581Decision": 2740,
  "\u2581range": 2741,
  "This": 2742,
  "\u2581eligible": 2743,
  "\u2581wall": 2744,
  "\u2581r\u00e9iteach": 2745,
  "ton": 2746,
  "lu": 2747,
  "ear": 2748,
  "\u2581network": 2749,
  "\u00cd": 2750,
  "\u2581chomhlacht": 2751,
  "\u2581contravention": 2752,
  "\u2581eacnama\u00edoch": 2753,
  "\u2581Chiste": 2754,
  "\u2581blianta": 2755,
  "\u2581completed": 2756,
  "\u2581Delete": 2757,
  "\u2581chead\u00fanas": 2758,
  "\u2581uaidh": 2759,
  "\u2581chairman": 2760,
  "pe": 2761,
  "\u2581treatment": 2762,
  "\u2581regional": 2763,
  "\u2581PC": 2764,
  "\u2581limit": 2765,
  "\u2581raghaidh": 2766,
  "\u2581himeachta\u00ed": 2767,
  "\u2581ordaithe": 2768,
  "inn": 2769,
  "\u2581scr\u00edobh": 2770,
  "\u2581aois": 2771,
  "\u2581Chontae": 2772,
  "\u2581s\u00e1r\u00fa": 2773,
  "\u2581fheabhs\u00fa": 2774,
  "\u2581Con": 2775,
  "\u2581leave": 2776,
  "\u2581ciallu\u00edonn": 2777,
  "+": 2778,
  "\u2581construction": 2779,
  "\u2581nd\u00e1ir\u00edre": 2780,
  "\u2581phr\u00edomh": 2781,
  "\u2581fhorl\u00e9iri\u00fa": 2782,
  "\u2581function": 2783,
  "\u2581bh": 2784,
  "\u2581taith\u00ed": 2785,
  "\u2581Commissioner": 2786,
  "\u2581chomhaont\u00fa": 2787,
  "\u2581scor": 2788,
  "\u2581environment": 2789,
  "\u2581ballot": 2790,
  "\u2581sti\u00farth\u00f3ir": 2791,
  "\u2581seal": 2792,
  "\u2581earn\u00e1il": 2793,
  "\u2581gheobhaidh": 2794,
  "\u2581F\u00e9ach": 2795,
  "\u2581deich": 2796,
  "\u2581Pensions": 2797,
  "nach": 2798,
  "\u2581Nuacht": 2799,
  "\u25814,": 2800,
  "\u2581thereto": 2801,
  "\u2581Cur": 2802,
  "\u2581hearra\u00ed": 2803,
  "\u2581ph": 2804,
  "\u2581teagmh\u00e1il": 2805,
  "\u2581sallam": 2806,
  "\u2581ini\u00fachadh": 2807,
  "\u25811935": 2808,
  "\u2581covered": 2809,
  "\u2581others": 2810,
  "\u2581decide": 2811,
  "\u2581notwithstanding": 2812,
  "\u2581k": 2813,
  "\u2581minic": 2814,
  "\u2581Certificate": 2815,
  "\u2581bh\u00edthin": 2816,
  "\u2581chuirtear": 2817,
  "\u2581ceadaithe": 2818,
  "\u2581School": 2819,
  "\u2581funding": 2820,
  "of": 2821,
  "\u2581gains": 2822,
  "\u2581benefits": 2823,
  "\u2581left": 2824,
  "\u2581f\u00e1th": 2825,
  "\u2581Constitution": 2826,
  "\u2581fhoilsi\u00fa": 2827,
  "\u2581cease": 2828,
  "\u2581Bhreithi\u00fanais": 2829,
  "\u258151": 2830,
  "CEE": 2831,
  "\u2581beartais": 2832,
  "\u2581th": 2833,
  "\u2581enable": 2834,
  "\u2581Fo": 2835,
  "\u2581manager": 2836,
  "\u2581user": 2837,
  "\u2581places": 2838,
  "\u2581gas": 2839,
  "\u2581permit": 2840,
  "\u2581tOrd\u00fa": 2841,
  "\u2581look": 2842,
  "\u258149": 2843,
  "\u2581Address": 2844,
  "\u2581Special": 2845,
  "\u2581beart": 2846,
  "\u2581Cuirfear": 2847,
  "\u2581corpraithe": 2848,
  "7": 2849,
  "\u2581caiteachais": 2850,
  "\u2581himself": 2851,
  "\u2581infheist\u00edochta": 2852,
  ".\".": 2853,
  "\u2581task": 2854,
  "\u2581remove": 2855,
  "\u2581Affairs": 2856,
  "\u2581Ra": 2857,
  "\u2581(11)": 2858,
  "\u2581call": 2859,
  "\u2581F\u00c1S": 2860,
  ".[": 2861,
  "\u2581Welfare": 2862,
  "\u2581fails": 2863,
  "\u2581mheas\u00fanachta": 2864,
  "N\u00ed": 2865,
  "\u2581opportunity": 2866,
  "\u2581planda\u00ed": 2867,
  "\u2581short": 2868,
  "\u2581format": 2869,
  "\u2581weeks": 2870,
  "\u2581Chaibidil": 2871,
  "\u2581Mo": 2872,
  "\u2581Eile": 2873,
  "\u2581foirne": 2874,
  "\u2581mb\u00edonn": 2875,
  "\u25811952": 2876,
  "\u2581Fisheries": 2877,
  "\u2581Idirn\u00e1isi\u00fanta": 2878,
  "\u2581sallallaahu": 2879,
  "\u2581women": 2880,
  "\u2581deontas": 2881,
  "\u2581oscailte": 2882,
  "\u2581sl\u00e1nd\u00e1la": 2883,
  "\u2581Such": 2884,
  "\u2581aer": 2885,
  "\u2581foreign": 2886,
  "\u2581tarmligthe": 2887,
  "\u2581articles": 2888,
  "\u2581caite": 2889,
  "\u2581deontais": 2890,
  "\u2581\u00a9": 2891,
  "\u2581D\u00faiche": 2892,
  "\u2581c\u00fais": 2893,
  "\u2581\u00fain\u00e9ir": 2894,
  "\u2581tharla": 2895,
  "\u2581really": 2896,
  "\u2581trust": 2897,
  "\u2581dam\u00e1iste": 2898,
  "\u2581She": 2899,
  "\u2581inter": 2900,
  "\u2581sealbh\u00f3ir": 2901,
  "\u2581SCHEDULE": 2902,
  "\u2581cionta": 2903,
  "J": 2904,
  "for": 2905,
  "\u2581Notwithstanding": 2906,
  "\u2581D\u00e1ta": 2907,
  "\u25811998": 2908,
  "\u2581Members": 2909,
  "\u2581debt": 2910,
  "II": 2911,
  "\u2581bainist\u00edochta": 2912,
  "\u2581laws": 2913,
  "\u2581r\u00f3l": 2914,
  "\u2581Teagmh\u00e1il": 2915,
  "\u2581acmhainn\u00ed": 2916,
  "\u2581teorainn": 2917,
  "ala": 2918,
  "\u2581glan": 2919,
  "\u2581tac\u00fa": 2920,
  "\u2581Table": 2921,
  "\u2581teilif\u00edse": 2922,
  "\u2581Europol": 2923,
  "\u2581ais\u00edoc": 2924,
  "\u2581impact": 2925,
  "\u2581load": 2926,
  "\u2581thaispe\u00e1int": 2927,
  "\u2581Sc\u00e9im": 2928,
  "IS": 2929,
  "\u258155": 2930,
  "\u2581inarb": 2931,
  "\u2581bhliant\u00fail": 2932,
  "\u2581fhoirm": 2933,
  "\u2581l": 2934,
  "\u2581taifead": 2935,
  "\u2581Feabhra": 2936,
  "\u2581l\u00e9as": 2937,
  "\u2581dea": 2938,
  "\u2581oiread": 2939,
  "\u2581Art": 2940,
  "\u2581l\u00e1r": 2941,
  "\u2581sheirbhe\u00e1il": 2942,
  "\u2581dheireadh": 2943,
  "\u25811999": 2944,
  "\u2581cl\u00e1r\u00fa": 2945,
  "\u2581phobail": 2946,
  "\u2581tAontas": 2947,
  "\u25811961": 2948,
  "\u2581takes": 2949,
  "\u258153": 2950,
  "\u2581Theip": 2951,
  "\u2581chuirfidh": 2952,
  "me": 2953,
  "\u2581ea": 2954,
  "\u2581amend": 2955,
  "\u2581head": 2956,
  "\u2581promote": 2957,
  "\u2581staid": 2958,
  "\u2581th\u00edos": 2959,
  "\u258113.": 2960,
  "\u2581adoption": 2961,
  "\u2581Am": 2962,
  "\u2581hearing": 2963,
  "\u2581fish": 2964,
  "\u2581ghabh\u00e1il": 2965,
  "\u2581sonrach": 2966,
  "\u2581bhf\u00e9adfadh": 2967,
  "\u2581Of": 2968,
  "\u2581breith": 2969,
  "\u2581half": 2970,
  "\u2581history": 2971,
  "\u2581Transport": 2972,
  "ian": 2973,
  "\u2581Al": 2974,
  "Ch\u00fairt": 2975,
  "\u2581guarantee": 2976,
  "\u2581\u00e9inn\u00ed": 2977,
  "\u2581pro": 2978,
  "\u2581Tiocfa": 2979,
  "\u2581inserted": 2980,
  "\u2581hachomair": 2981,
  "\u2581damage": 2982,
  "\u2581software": 2983,
  "est": 2984,
  "\u2581move": 2985,
  "\u2581elected": 2986,
  "\u2581failed": 2987,
  "\u2581increased": 2988,
  "\u2581waste": 2989,
  "\u2581Ina": 2990,
  "\u2581Print": 2991,
  "\u2581therefore": 2992,
  "\u2581chearta": 2993,
  "\u2581design": 2994,
  "op": 2995,
  "\u2581reduced": 2996,
  "\u2581Remove": 2997,
  "\u2581legislation": 2998,
  "\u2581T\u00ed": 2999,
  "\u2581lean\u00fanach": 3000,
  "ora": 3001,
  "\u25811933": 3002,
  "\u2581Time": 3003,
  "\u2581d\u00ed": 3004,
  "\u2581however": 3005,
  "\u2581Whenever": 3006,
  "\u2581sc\u00e9ime": 3007,
  "\u2581greater": 3008,
  "\u2581Subsection": 3009,
  "\u2581rule": 3010,
  "\u2581Institute": 3011,
  "\u2581Samhain": 3012,
  "\u2581aicme": 3013,
  "\u2581option": 3014,
  "eacha": 3015,
  "\u2581mara": 3016,
  "\u2581taifid": 3017,
  "\u2581Day": 3018,
  "\u2581sure": 3019,
  "\u2581substituting": 3020,
  "land": 3021,
  "\u258152": 3022,
  "\u2581Folder": 3023,
  "\u25811926": 3024,
  "\u2581agam": 3025,
  "\u2581situation": 3026,
  "\u2581treoir": 3027,
  "\u2581estate": 3028,
  "\u2581gcomhar": 3029,
  "\u2581legislative": 3030,
  "\u2581Seirbh\u00edse": 3031,
  "\u2581laethanta": 3032,
  "\u2581issues": 3033,
  "\u2581ord\u00f3idh": 3034,
  "\u2581Registrar": 3035,
  "\u2581fir": 3036,
  "\u2581offer": 3037,
  "\u2581aircraft": 3038,
  "\u2581limist\u00e9ir": 3039,
  "\u2581r\u00e9im": 3040,
  "\u2581deduction": 3041,
  "\u2581thuas": 3042,
  "\u2581domhan": 3043,
  "\u2581ground": 3044,
  "\u2581leasanna": 3045,
  "\u2581u": 3046,
  "\u2581m\u00e9ideanna": 3047,
  "time": 3048,
  "\u2581About": 3049,
  "\u2581aggregate": 3050,
  "\u2581bhain": 3051,
  "ive": 3052,
  "\u2581calendar": 3053,
  "\u2581bhf\u00e9adfar": 3054,
  "\u2581NCAA": 3055,
  "\u2581euro": 3056,
  "\u2581Outlook": 3057,
  "\u2581inti": 3058,
  "\u2581involved": 3059,
  "\u2581chumas": 3060,
  "\u2581lieu": 3061,
  "\u2581judge": 3062,
  "\u2581sufficient": 3063,
  "\u2581Thank": 3064,
  "not": 3065,
  "\u2581component": 3066,
  "\u2581subsections": 3067,
  "\u2581source": 3068,
  "\u2581College": 3069,
  "\u2581Duine": 3070,
  "\u2581chloig": 3071,
  "wa": 3072,
  "\u2581Achtanna": 3073,
  "\u2581placed": 3074,
  "\u2581c\u00f3na\u00ed": 3075,
  "\u2581Employment": 3076,
  "\u2581Housing": 3077,
  "\u2581obtained": 3078,
  ".1": 3079,
  "\u2581appears": 3080,
  "\u2581industrial": 3081,
  "\u2581permission": 3082,
  "\u2581calculated": 3083,
  "a\u00edocht": 3084,
  "\u2581administration": 3085,
  "\u25811990": 3086,
  "\u2581mac": 3087,
  "\u2581equivalent": 3088,
  "\u2581dath": 3089,
  "\u2581Dr": 3090,
  "\u2581forms": 3091,
  "Other": 3092,
  "\u2581L\u00fanasa": 3093,
  "\u2581effects": 3094,
  "\u2581Without": 3095,
  "\u2581agreed": 3096,
  "\u2581chion": 3097,
  "\u2581tuairim\u00ed": 3098,
  "\u2581Christ": 3099,
  "\u2581contrary": 3100,
  "\u2581\u00fas": 3101,
  "\u2581Eala\u00edon": 3102,
  "\u2581Not": 3103,
  "\u2581award": 3104,
  "\u2581c\u00faram": 3105,
  "onn": 3106,
  "\u258114.": 3107,
  "\u2581Z": 3108,
  "\u2581modhanna": 3109,
  "\u2581mhodh": 3110,
  "\u2581Policy": 3111,
  "ith": 3112,
  "\u2581n\u00f3im\u00e9ad": 3113,
  "\u258165": 3114,
  "\u2581amending": 3115,
  "\u2581criminal": 3116,
  "\u2581sochar": 3117,
  "\u2581containing": 3118,
  "\u2581me\u00e1n": 3119,
  "\u2581trealamh": 3120,
  "\u2581(%": 3121,
  "\u2581dr\u00e9acht": 3122,
  "\u2581B\u00f3thar": 3123,
  "\u2581Report": 3124,
  "\u2581tapa": 3125,
  "\u2581clear": 3126,
  "\u2581often": 3127,
  "\u2581votes": 3128,
  "\u2581chosc": 3129,
  "inserted": 3130,
  "\u2581oibleag\u00e1id": 3131,
  "\u2581prepared": 3132,
  "\u2581revoke": 3133,
  "\u2581riosca": 3134,
  "\u2581\u00edoctha": 3135,
  "\u2581across": 3136,
  "\u2581c\u00f3rais": 3137,
  "\u2581Bog": 3138,
  "\u2581t\u00e1bhachtach": 3139,
  "\u2581electronic": 3140,
  "\u2581(_": 3141,
  "\u258180": 3142,
  "\u2581agent": 3143,
  "\u2581ceachtar": 3144,
  "\u2581buan": 3145,
  "\u2581remain": 3146,
  "\u2581weight": 3147,
  "ang": 3148,
  "\u2581books": 3149,
  "\u2581maintain": 3150,
  "i\u00fail": 3151,
  "\u25811932": 3152,
  "\u2581Date": 3153,
  "\u2581meetings": 3154,
  "\u2581Organisation": 3155,
  "\u2581external": 3156,
  "\u2581hArd": 3157,
  "\u2581Tionscail": 3158,
  "\u2581ligean": 3159,
  "\u2581\u00e9ifeachtach": 3160,
  "\u2581cead\u00fa": 3161,
  "\u2581athruithe": 3162,
  "\u2581electron": 3163,
  "\u25812019": 3164,
  "\u2581Forbartha": 3165,
  "\u2581military": 3166,
  "\u2581caighde\u00e1n": 3167,
  "\u2581Criminal": 3168,
  "\u2581cine\u00e1lacha": 3169,
  "\u2581throughout": 3170,
  "l\u00fa": 3171,
  "\u2581periods": 3172,
  "\u2581designed": 3173,
  "\u2581gcomhair": 3174,
  "\u2581saoire": 3175,
  "\u2581D\u00fan": 3176,
  "\u2581delivered": 3177,
  "which": 3178,
  "\u2581mb": 3179,
  ".\u201d,": 3180,
  "\u2581balance": 3181,
  "\u2581recognised": 3182,
  "\u2581came": 3183,
  "\u2581d\u00e9ile\u00e1il": 3184,
  "\u2581insurance": 3185,
  "\u2581produced": 3186,
  "\u00edochta": 3187,
  "\u2581trading": 3188,
  "\u2581Read": 3189,
  "\u2581color": 3190,
  "\u2581central": 3191,
  "\u2581judgment": 3192,
  "\u2581v": 3193,
  "whether": 3194,
  "\u2581representatives": 3195,
  "\u2581bhaili\u00fa": 3196,
  "\u2581penalty": 3197,
  "\u2581EUR": 3198,
  "\u2581ainmni\u00fa": 3199,
  "\u2581Leictreon": 3200,
  "\u2581appear": 3201,
  "\u2581leasuithe": 3202,
  "\u2581reports": 3203,
  "50": 3204,
  "\u2581f\u00e1s": 3205,
  "\u2581thalamh": 3206,
  "\u2581cosc": 3207,
  "ow": 3208,
  "\u25811956": 3209,
  "\u2581comes": 3210,
  "\u2581notify": 3211,
  "\u2581simpl\u00ed": 3212,
  "\u2581teorainneacha": 3213,
  "r\u00f3": 3214,
  "\u25811936": 3215,
  "\u2581Type": 3216,
  "\u2581political": 3217,
  "\u2581iarratas\u00f3ir": 3218,
  "\u2581side": 3219,
  "\u2581thuilleadh": 3220,
  "\u258175": 3221,
  "nd": 3222,
  "\u2581phointe": 3223,
  "all": 3224,
  "\u2581?": 3225,
  "\u2581bhf\u00e9adfaidh": 3226,
  "io": 3227,
  "\u2581From": 3228,
  "\u2581thromlach": 3229,
  "\u2581rialta": 3230,
  "\u2581\u00c1": 3231,
  "\u2581\u00c1iti\u00fala": 3232,
  "\u2581tairbhe": 3233,
  "\u2581choose": 3234,
  "\u2581deir": 3235,
  "\u2581gr\u00fapa": 3236,
  "be": 3237,
  "\u2581space": 3238,
  "\u2581Screen": 3239,
  "\u2581thiocfaidh": 3240,
  "\u2581t\u00ed": 3241,
  "\u2581Cine\u00e1l": 3242,
  "\u2581coming": 3243,
  "\u2581c\u00faiteamh": 3244,
  "\u2581S\u00f3isialta": 3245,
  "\u2581classes": 3246,
  "\u2581real": 3247,
  "he": 3248,
  "\u2581fhianaise": 3249,
  "\u2581maoine": 3250,
  "\u25811992": 3251,
  "\u2581URL": 3252,
  "\u258158": 3253,
  "\u2581Ta": 3254,
  "\u2581Talmha\u00edochta": 3255,
  "\u2581cross": 3256,
  "\u2581little": 3257,
  "\u2581chaitheamh": 3258,
  "\u2581sound": 3259,
  "\u2581chomhairle": 3260,
  "\u2581feithicl\u00ed": 3261,
  "\u2581names": 3262,
  "\u2581never": 3263,
  "\u2581once": 3264,
  "Teachtaireachta\u00ed": 3265,
  "arna": 3266,
  "\u2581bunaidh": 3267,
  "\u2581stoc": 3268,
  "\u2581letter": 3269,
  "\u2581music": 3270,
  "\u2581Games": 3271,
  "20": 3272,
  "\u2581Page": 3273,
  "\u2581t\u00edre": 3274,
  "\u2581mbainfidh": 3275,
  "\u2581hAcht": 3276,
  "\u2581location": 3277,
  "a\u00edtear": 3278,
  "\u2581ndaoine": 3279,
  "\u2581pinsin": 3280,
  "\u2581=": 3281,
  "q": 3282,
  "\u2581series": 3283,
  "\u2581objective": 3284,
  "\u2581respectively": 3285,
  "\u2581Expenses": 3286,
  "\u2581car": 3287,
  "\u2581Rule": 3288,
  "\u2581ceapadh": 3289,
  "\u2581fuarthas": 3290,
  "\u2581comhionann": 3291,
  "\u2581fh": 3292,
  "\u2581ch\u00f3ras": 3293,
  "\u2581plean": 3294,
  "\u2581tith\u00edochta": 3295,
  "rs": 3296,
  "\u2581togra": 3297,
  "\u2581gn\u00e9ithe": 3298,
  "ut": 3299,
  "\u2581gr\u00e1": 3300,
  "\u2581leanfaidh": 3301,
  "\u2581Lawn": 3302,
  "\u2581Organiser": 3303,
  "\u2581industry": 3304,
  "\u2581aid": 3305,
  "\u2581ionada\u00ed": 3306,
  "40": 3307,
  "\u2581commercial": 3308,
  "\u2581fheidhmeanna": 3309,
  "\u2581receiving": 3310,
  "\u2581thagairt": 3311,
  "\u2581Message": 3312,
  "\u2581oili\u00fana": 3313,
  "ola": 3314,
  "\u2581Speisialta": 3315,
  "ty": 3316,
  "\u2581becomes": 3317,
  "\u2581Ionad": 3318,
  "\u2581asbhaint": 3319,
  "\u2581complaint": 3320,
  "\u2581gh": 3321,
  "\u2581Africa": 3322,
  "\u2581labhairt": 3323,
  "\u2581measure": 3324,
  "\u2581seasamh": 3325,
  "\u2581tr\u00e1cht\u00e1la": 3326,
  "\u2581beo": 3327,
  "\u2581suite": 3328,
  "\u2581Chuideachta": 3329,
  "\u2581acquired": 3330,
  "\u2581away": 3331,
  "\u2581gc\u00e9anna": 3332,
  "\u2581significant": 3333,
  "\u2581government": 3334,
  "ever": 3335,
  "\u2581Edit": 3336,
  "\u2581Street": 3337,
  "\u2581conradh": 3338,
  "\u2581Life": 3339,
  "\u2581gives": 3340,
  "\u2581L\u00e1": 3341,
  "\u2581Sh": 3342,
  "\u2581d\u00f3cha": 3343,
  "\u2581schemes": 3344,
  "\u2581test": 3345,
  "\u2581scann\u00e1n": 3346,
  "LA": 3347,
  "\u2581brab\u00fais": 3348,
  "\u2581buna\u00edodh": 3349,
  "\u2581leabhair": 3350,
  "\u2581praghas": 3351,
  "\u2581\u2192": 3352,
  "\u25811939": 3353,
  "\u2581cead\u00fanais": 3354,
  "\u2581undertakings": 3355,
  "\u2581valid": 3356,
  "\u00c9": 3357,
  "\u2581bhaile": 3358,
  "\u2581dheimhni\u00fa": 3359,
  "\u2581Riail": 3360,
  "\u2581failure": 3361,
  "\u2581reacht\u00fail": 3362,
  "\u2581Me": 3363,
  "\u2581srianta": 3364,
  "\u2581tabharfar": 3365,
  "\u25811994": 3366,
  "\u2581M\u00e9id": 3367,
  "\u2581selection": 3368,
  "\u2581crit\u00e9ir": 3369,
  "\u2581c\u00f3ir": 3370,
  "\u2581higher": 3371,
  "\u2581Text": 3372,
  "\u2581directors": 3373,
  "\u2581protected": 3374,
  "\u2581taca\u00edochta": 3375,
  "\u2581fishery": 3376,
  "\u2581acquisition": 3377,
  "\u2581institi\u00faid\u00ed": 3378,
  "\u2581nd\u00e9anann": 3379,
  "lann": 3380,
  "30": 3381,
  "\u2581heard": 3382,
  "\u2581itself": 3383,
  "\u2581thabharfar": 3384,
  "\u2581likely": 3385,
  "\u2581gc\u00f3ras": 3386,
  "\u2581apos": 3387,
  "\u2581la": 3388,
  "\u2581sean": 3389,
  "\u00edocht": 3390,
  "\u2581enforcement": 3391,
  "\u2581bogearra\u00ed": 3392,
  "\u2581Duties": 3393,
  "\u2581develop": 3394,
  "\u00f3ir\u00ed": 3395,
  "\u2581Comment": 3396,
  "\u2581baill": 3397,
  "\u2581bring": 3398,
  "ism": 3399,
  "\u2581responsibility": 3400,
  "\u2581item": 3401,
  "\u2581Language": 3402,
  "\u2581oibreacha": 3403,
  "\u00e2": 3404,
  "\u2581computer": 3405,
  "\u2581rannph\u00e1irteach": 3406,
  "\u25811993": 3407,
  "\u2581communication": 3408,
  "\u2581eochair": 3409,
  "\u2581iar": 3410,
  "\u2581spreagadh": 3411,
  "\u2581teast\u00e1il": 3412,
  "\u2581Registration": 3413,
  "\u2581generally": 3414,
  "(5)": 3415,
  "\u2581Function": 3416,
  "\u2581Dath": 3417,
  "\u2581chruinni\u00fa": 3418,
  "\u2581satellite": 3419,
  "\u25811972": 3420,
  "\u2581city": 3421,
  "\u2581im": 3422,
  "6": 3423,
  "\u2581Failed": 3424,
  "\u2581Gh": 3425,
  "\u2581Windows": 3426,
  "\u2581add": 3427,
  "\u2581harbour": 3428,
  "\u2581levels": 3429,
  "\u2581dhroim": 3430,
  "\u2581lucht\u00fa": 3431,
  "mo": 3432,
  "\u2581categories": 3433,
  "\u2581continued": 3434,
  "\u2581di\u00falt\u00fa": 3435,
  "\u2581says": 3436,
  "\u2581Cuardaigh": 3437,
  "\u2581forordaithe": 3438,
  "\u2581maoini\u00fa": 3439,
  "\u2581monitoring": 3440,
  "\u25811996": 3441,
  "\u2581dhl\u00ed": 3442,
  "\u2581limits": 3443,
  "\u2581loan": 3444,
  "\u2581cathaoirleach": 3445,
  "\u2581users": 3446,
  "li": 3447,
  "che": 3448,
  "\u2581character": 3449,
  "\u2581fhaigheann": 3450,
  "\u2581forward": 3451,
  "\u2581note": 3452,
  "\u2581Miscellaneous": 3453,
  "\u00e1ilte": 3454,
  "\u2581Seanad": 3455,
  "\u2581gcuirtear": 3456,
  "\u2581iarbh\u00edr": 3457,
  "\u2581Cuirtear": 3458,
  "\u2581borough": 3459,
  "0": 3460,
  "\u2581theannta": 3461,
  "\u2581ghlac": 3462,
  "\u25811960": 3463,
  "New": 3464,
  "gan": 3465,
  "by": 3466,
  "\u2581scoth": 3467,
  "\u2581Amharc": 3468,
  "\u2581d\u00edol": 3469,
  "\u2581Law": 3470,
  "\u2581port": 3471,
  "IN": 3472,
  "\u258115.": 3473,
  "\u2581Bhainc": 3474,
  "\u2581Application": 3475,
  "\u2581Cosanta": 3476,
  "\u2581Seoladh": 3477,
  "\u2581ch\u00e9im": 3478,
  "\u2581Be": 3479,
  "\u2581dhi\u00fascairt": 3480,
  "\u2581baile": 3481,
  "01": 3482,
  "\u2581Mr": 3483,
  "\u2581imeacht": 3484,
  "\u2581modifications": 3485,
  "\u2581ndearna": 3486,
  "Q": 3487,
  "\u2581comhaontuithe": 3488,
  "\u2581few": 3489,
  "\u2581occurs": 3490,
  "\u2581Leasa": 3491,
  "\u2581University": 3492,
  "\u2581devices": 3493,
  "\u2581principle": 3494,
  "sc": 3495,
  "--": 3496,
  "\u2581Leas": 3497,
  "\u2581Oideachas": 3498,
  "\u2581dwelling": 3499,
  "\u2581thousand": 3500,
  "\u2581execution": 3501,
  "ot": 3502,
  "ud": 3503,
  "aid": 3504,
  "\u2581facilitate": 3505,
  "\u2581skills": 3506,
  "\u2581themselves": 3507,
  "\u2581took": 3508,
  "\u258154": 3509,
  "\u25812)": 3510,
  "\u2581connected": 3511,
  "\u2581gcr\u00edoch": 3512,
  "\u2581imscr\u00fad\u00fa": 3513,
  "\u2581fhoireann": 3514,
  "less": 3515,
  "\u2581D\u00e9antar": 3516,
  "\u2581competition": 3517,
  "\u2581serious": 3518,
  "tu": 3519,
  "\u2581too": 3520,
  "\u2581seven": 3521,
  "\u2581contribute": 3522,
  "\u2581gceart": 3523,
  "\u2581molta\u00ed": 3524,
  "\u2581excess": 3525,
  "\u2581Cork": 3526,
  "\u2581Tribunal": 3527,
  "r\u00fa": 3528,
  "\u2581Skills": 3529,
  "\u2581association": 3530,
  "\u2581fomh\u00edr": 3531,
  "\u2581lawful": 3532,
  "\u2581c\u00e9n": 3533,
  "\u00da": 3534,
  "\u2581nominated": 3535,
  "\u25811979": 3536,
  "\u2581Ansin": 3537,
  "\u2581chu\u00ed": 3538,
  "\u2581delivery": 3539,
  "\u2581run": 3540,
  "\u25811940": 3541,
  "\u2581signature": 3542,
  "\u2581Plan": 3543,
  "\u2581ngairmtear": 3544,
  "airgead": 3545,
  "\u2581leith\u00e9id": 3546,
  "\u2581urban": 3547,
  "\u2581advice": 3548,
  "\u2581n\u00e1ch": 3549,
  "\u2581plans": 3550,
  "\u2581sti\u00farth\u00f3ir\u00ed": 3551,
  "\u2581Afraic": 3552,
  "\u2581defence": 3553,
  "\u2581mode": 3554,
  "\u2581Civil": 3555,
  "per": 3556,
  "\u2581Teideal": 3557,
  "\u2581phr\u00f3ise\u00e1il": 3558,
  "\u2581Conas": 3559,
  "\u2581questions": 3560,
  "\u2581fanacht": 3561,
  "\u2581primary": 3562,
  "\u2581servant": 3563,
  "\u2581Bainist\u00edochta": 3564,
  "\u2581Roghanna": 3565,
  "\u2581net": 3566,
  "\u2581oibr\u00edochta\u00ed": 3567,
  "\u2581recommendations": 3568,
  "\u2581hard": 3569,
  "\u2581(1": 3570,
  "\u2581along": 3571,
  "\u2581Internet": 3572,
  "sp": 3573,
  "ous": 3574,
  "\u2581feithicle": 3575,
  "\u2581thabharfaidh": 3576,
  "\u2581Up": 3577,
  "\u2581environmental": 3578,
  "\u258156": 3579,
  "\u2581Iascaigh": 3580,
  "\u2581amendment": 3581,
  "\u2581La": 3582,
  "\u2581f\u00edse\u00e1n": 3583,
  "\u2581minutes": 3584,
  "\u2581server": 3585,
  "\u2581\u00e9ard": 3586,
  "\u2581His": 3587,
  "\u2581requested": 3588,
  "\u2581Asia": 3589,
  "\u2581satail\u00edte": 3590,
  "od": 3591,
  "ting": 3592,
  "\u2581Then": 3593,
  "\u2581achomhairc": 3594,
  "\u2581nAchtanna": 3595,
  "\u2581progress": 3596,
  "led": 3597,
  "\u2581gc\u00f3ir": 3598,
  "\u2581shonr\u00fa": 3599,
  "\u2581improve": 3600,
  "\u2581\u00edoca\u00edochta": 3601,
  "\u2581[...]": 3602,
  "\u2581earra": 3603,
  "\u258116.": 3604,
  "\u2581bats": 3605,
  "\u2581d\u00edrithe": 3606,
  "\u2581licences": 3607,
  "\u2581living": 3608,
  "\u2581shu\u00edomh": 3609,
  "\u2581\u00e9asca": 3610,
  "\u2581for\u00e1la": 3611,
  "\u25811947": 3612,
  "\u2581sc\u00e9imeanna": 3613,
  "\u2581Peter": 3614,
  "\u2581fully": 3615,
  "\u2581scileanna": 3616,
  "\u2581shonr\u00f3far": 3617,
  "\u2581Fheidhmi\u00fa": 3618,
  "\u2581brath": 3619,
  "\u2581job": 3620,
  "\u2581st\u00e1das": 3621,
  "\u2581bpost": 3622,
  "\u2581disease": 3623,
  "\u2581dualgais": 3624,
  "\u2581delete": 3625,
  "\u2581sold": 3626,
  "\u2581stage": 3627,
  "\u2581warrant": 3628,
  "\u2581oili\u00faint": 3629,
  "\u2581milli\u00fan": 3630,
  "\u2581Teanga": 3631,
  "\u2581r\u00edomhphoist": 3632,
  "our": 3633,
  "ak": 3634,
  "\u2581parents": 3635,
  "\u2581reachta\u00edocht": 3636,
  "\u2581litir": 3637,
  "tic": 3638,
  "\u2581alos": 3639,
  "\u2581mh": 3640,
  "\u2581Bh": 3641,
  "int": 3642,
  "\u2581sprioc": 3643,
  "\u2581Threoir": 3644,
  "\u2581deposit": 3645,
  "\u2581f\u00e9ach": 3646,
  "\u2581learning": 3647,
  "\u2581T\u00e1bla": 3648,
  "\u2581ceisteanna": 3649,
  "\u2581cover": 3650,
  "\u2581top": 3651,
  "\u2581l\u00edonra": 3652,
  "\u2581mn\u00e1": 3653,
  "\u2581steps": 3654,
  "\u2581toradh": 3655,
  "\u2581types": 3656,
  "\u2581Iontr\u00e1il": 3657,
  "\u2581validity": 3658,
  "\u2581aithint": 3659,
  "\u2581muirir": 3660,
  ")(": 3661,
  "ED": 3662,
  "\u2581tseirbh\u00eds": 3663,
  "\u2581\u00e9ir\u00ed": 3664,
  "\u2581team": 3665,
  "\u2581operate": 3666,
  "\u2581\u00edocadh": 3667,
  "nna": 3668,
  "\u2581TG": 3669,
  "\u2581speiceas": 3670,
  "\u2581gConradh": 3671,
  "\u2581Feidhmi\u00fach\u00e1in": 3672,
  "\u2581movement": 3673,
  "\u2581suitable": 3674,
  "\u2581imthosca": 3675,
  "\u2581nd\u00e9anfa\u00ed": 3676,
  "\u2581repayment": 3677,
  "\u2581seachtaine": 3678,
  "\u2581\u00edsle": 3679,
  "\u2581c\u00faiseanna": 3680,
  "po": 3681,
  "\u2581aidhm": 3682,
  "\u2581forl\u00e9ireofar": 3683,
  "em": 3684,
  "\u2581operational": 3685,
  "\u00f3g": 3686,
  "\u25811959": 3687,
  "\u25811975": 3688,
  "\u2581sibhialta": 3689,
  "inne": 3690,
  "\u2581aimsi\u00fa": 3691,
  "\u2581study": 3692,
  "\u2581Sh\u00f3isialaigh": 3693,
  "\u2581certificates": 3694,
  "\u2581evaluation": 3695,
  "\u2581origin": 3696,
  "\u2581sex": 3697,
  "\u2581card": 3698,
  "\u2581\u00fais": 3699,
  "\u2581Foras": 3700,
  "\u2581sheachaint": 3701,
  "\u2581war": 3702,
  "\u2581applying": 3703,
  "\u2581arrangement": 3704,
  "\u258164": 3705,
  "\u2581Ph": 3706,
  "\u2581doing": 3707,
  "\u2581something": 3708,
  "\u2581eagra\u00edochta\u00ed": 3709,
  "\u2581relate": 3710,
  "\u2581se": 3711,
  "\u2581Achomhairc": 3712,
  "\u2581Fh": 3713,
  "\u2581Us": 3714,
  "ish": 3715,
  "\u2581ghn\u00edomh": 3716,
  "\u2581inserting": 3717,
  "\u2581prionsabail": 3718,
  "\u2581comhar": 3719,
  "\u2581creidmheasa": 3720,
  "\u2581fh\u00e9adfaidh": 3721,
  "\u2581c\u00farsa\u00ed": 3722,
  "\u2581\u00f3ga": 3723,
  "\u2581Events": 3724,
  "\u2581teoranta": 3725,
  "60": 3726,
  "\u2581associated": 3727,
  "\u2581freagra": 3728,
  "\u2581Key": 3729,
  "\u2581items": 3730,
  "\u2581smaoineamh": 3731,
  "Article": 3732,
  "\u2581teaghlaigh": 3733,
  "\u258166": 3734,
  "\u2581Church": 3735,
  "\u2581Financial": 3736,
  "\u2581woman": 3737,
  "\u2581contracts": 3738,
  "12": 3739,
  "\u2581believe": 3740,
  "\u2581Gn\u00f3tha\u00ed": 3741,
  "02": 3742,
  "\u2581please": 3743,
  "\u2581prepare": 3744,
  "\u25811934": 3745,
  "\u2581F\u00edse\u00e1n": 3746,
  "\u2581fire": 3747,
  "\u2581seacht": 3748,
  "\u2581leathair": 3749,
  "\u00e1it": 3750,
  "\u2581teachers": 3751,
  "\u2581bhainisti\u00fa": 3752,
  "\u2581tool": 3753,
  "\u2581Year": 3754,
  "\u2581corresponding": 3755,
  "\u2581demand": 3756,
  "\u2581tharla\u00edonn": 3757,
  "\u25811988": 3758,
  "\u2581Schengen": 3759,
  "\u2581major": 3760,
  "\u258157": 3761,
  "\u2581check": 3762,
  "\u2581directory": 3763,
  "\u2581employees": 3764,
  "\u2581wholly": 3765,
  "\u2581church": 3766,
  "\u2581former": 3767,
  "\u2581watch": 3768,
  "\u2581N\u00edor": 3769,
  "\u2581b\u00e1n": 3770,
  "\u2581registrar": 3771,
  "\u2581anuas": 3772,
  "\u2581Anjuta": 3773,
  "\u2581let": 3774,
  "\u2581f\u00e9ilire": 3775,
  "\u2581mhargadh": 3776,
  "\u2581potential": 3777,
  "\u2581leathn\u00fa": 3778,
  "\u2581mbeart": 3779,
  "\u2581units": 3780,
  "\u2581beagnach": 3781,
  "\u2581monar\u00f3ir": 3782,
  "05": 3783,
  "\u00ad": 3784,
  "\u2581tuiscint": 3785,
  "\u2581Insurance": 3786,
  "\u2581removed": 3787,
  "\u2581stand": 3788,
  "\u2581setting": 3789,
  "\u2581buildings": 3790,
  "\u2581chief": 3791,
  "\u2581dualgas": 3792,
  "\u2581en": 3793,
  "\u2581col\u00fan": 3794,
  "\u2581mion": 3795,
  "\u2581night": 3796,
  "\u2581ph\u00e1irt\u00ed": 3797,
  "\u258163": 3798,
  "\u2581certified": 3799,
  "\u2581cuideachta\u00ed": 3800,
  "\u2581workers": 3801,
  "\u2581affected": 3802,
  "\u2581excise": 3803,
  "\u2581volume": 3804,
  "\u2581Chiroblog": 3805,
  "\u2581Research": 3806,
  "\u2581addressed": 3807,
  "\u2581chl\u00e1ir": 3808,
  "\u2581described": 3809,
  "1,": 3810,
  "\u2581performed": 3811,
  "fh\u00e9idir": 3812,
  "\u2581urr\u00fas": 3813,
  "\u2581Dh\u00fan": 3814,
  "\u2581maintained": 3815,
  "\u2581\u00c1ise": 3816,
  "\u2581button": 3817,
  "\u2581weekly": 3818,
  "\u2581deliver": 3819,
  "\u2581st\u00f3r\u00e1il": 3820,
  "\u2581thereon": 3821,
  "\u2581x": 3822,
  "\u2581Sea": 3823,
  "oir\u00ed": 3824,
  "\u2581d\u00e9an": 3825,
  "ord": 3826,
  "\u2581Air": 3827,
  "11": 3828,
  "\u2581Mh\u00e1rta": 3829,
  "\u2581eagra\u00edocht": 3830,
  "\u2581Car": 3831,
  "\u2581Nothing": 3832,
  "Beidh": 3833,
  "\u2581!": 3834,
  "\u2581sraith": 3835,
  "\u2581suntasach": 3836,
  "ir\u00ed": 3837,
  "\u2581deceased": 3838,
  "\u2581s\u00e1sta": 3839,
  "\u2581audit": 3840,
  "\u2581governing": 3841,
  "out": 3842,
  "\u25812020": 3843,
  "\u2581Leabhar": 3844,
  "\u2581Mary": 3845,
  "\u2581Tabharfaidh": 3846,
  "\u2581extended": 3847,
  "end": 3848,
  "aire": 3849,
  "\u2581gcionta": 3850,
  "07": 3851,
  "\u2581Gaillimhe": 3852,
  "\u2581fh\u00e9adfar": 3853,
  "\u2581gear\u00e1n": 3854,
  "\u2581languages": 3855,
  "ts": 3856,
  "\u2581fosta\u00ed": 3857,
  "\u2581Mayo": 3858,
  "\u2581VIII": 3859,
  "\u2581independent": 3860,
  "\u2581white": 3861,
  "\u2581dt\u00fas": 3862,
  "\u2581early": 3863,
  "\u2581mbealach": 3864,
  "\u2581mbliain": 3865,
  "\u2581servants": 3866,
  "?\"": 3867,
  "this": 3868,
  "\u2581cist\u00ed": 3869,
  "\u2581Treaties": 3870,
  "\u2581\u00cdomh\u00e1": 3871,
  "\u2581\u00edocfar": 3872,
  "\u2581justice": 3873,
  "\u2581gcuntas": 3874,
  "mail": 3875,
  "\u2581Phoblacht": 3876,
  "\u2581milk": 3877,
  "19": 3878,
  "earra\u00ed": 3879,
  "\u258159": 3880,
  "\u2581wish": 3881,
  "\u2581caighde\u00e1in": 3882,
  "\u2581gceangal": 3883,
  "\u2581scoirfidh": 3884,
  "\u2581amendments": 3885,
  "\u2581developed": 3886,
  "eofar": 3887,
  "\u2581My": 3888,
  "\u2581click": 3889,
  "\u2581gcoitinne": 3890,
  "aistri\u00fa": 3891,
  "\u2581Ilghn\u00e9itheacha": 3892,
  "\u2581beatha": 3893,
  "\u2581Split": 3894,
  "\u2581aitheanta": 3895,
  "\u2581faoiseamh": 3896,
  "\u2581l\u00edomat\u00e1iste": 3897,
  "\u2581cumhachta": 3898,
  "\u2581discretion": 3899,
  "\u2581offences": 3900,
  "\u2581regarded": 3901,
  "\u2581Declaration": 3902,
  "\u2581dhearbh\u00fa": 3903,
  "\u2581tharchur": 3904,
  "\u258167": 3905,
  "\u2581nglacadh": 3906,
  "ide": 3907,
  "\u2581Account": 3908,
  "\u2581Ceann": 3909,
  "\u2581attached": 3910,
  "\u2581basic": 3911,
  "Section": 3912,
  "\u2581s\u00e1bh\u00e1ilteachta": 3913,
  "\u2581Breithi\u00fanais": 3914,
  "\u2581Eo": 3915,
  "\u2581link": 3916,
  "info": 3917,
  "\u2581objects": 3918,
  "\u2581pion\u00f3s": 3919,
  "\u25811931": 3920,
  "\u2581gC": 3921,
  "\u2581Statute": 3922,
  "\u2581ghearradh": 3923,
  "\u2581password": 3924,
  "\u2581guidelines": 3925,
  "\u2581Energy": 3926,
  "\u2581fost\u00f3ir": 3927,
  "\u2581lay": 3928,
  "\u2581plants": 3929,
  "pm": 3930,
  "\u2581o\u00edche": 3931,
  "\u2581reasonably": 3932,
  "\u2581riail": 3933,
  "\u2581Donegal": 3934,
  "\u2581Sunday": 3935,
  "\u2581ensuring": 3936,
  "\u2581follow": 3937,
  "\u2581recovery": 3938,
  "\u2581yet": 3939,
  "\u2581Party": 3940,
  "\u2581bh\u00e1is": 3941,
  "\u2581cheangla\u00edtear": 3942,
  "\u2581exceeds": 3943,
  "\u2581istigh": 3944,
  "\u2581metres": 3945,
  "\u2581ch\u00f3rais": 3946,
  "(1)(": 3947,
  "\u2581obtain": 3948,
  "\u2581oibleag\u00e1id\u00ed": 3949,
  "fa": 3950,
  "\u2581liostaithe": 3951,
  "och": 3952,
  "\u25811937": 3953,
  "\u2581bail\u00ed": 3954,
  "og": 3955,
  "\u2581thosaigh": 3956,
  "ge": 3957,
  "\u2581urr\u00fais": 3958,
  "ated": 3959,
  "\u25811950": 3960,
  "\u2581copies": 3961,
  "\u2581going": 3962,
  "\u2581sp\u00e1s": 3963,
  "\u2581Coinbhinsi\u00fan": 3964,
  "\u2581Euratom": 3965,
  "\u2581ghinear\u00e1lta": 3966,
  "\u2013": 3967,
  "\u25811971": 3968,
  "\u2581chuntas": 3969,
  "\u2581c\u00e1il\u00edochta": 3970,
  "\u2581meas": 3971,
  "\u2581Change": 3972,
  "\u2581staid\u00e9ar": 3973,
  "\u2581vested": 3974,
  "\u2581essential": 3975,
  "\u2581saor\u00e1id\u00ed": 3976,
  "\u25811973": 3977,
  "\u2581scientific": 3978,
  "\u2581Cuireann": 3979,
  "\u2581rannph\u00e1irt\u00edocht": 3980,
  "\u2581safe": 3981,
  "17": 3982,
  "\u00f3n": 3983,
  "\u2581import": 3984,
  "\u2581bonn": 3985,
  "\u2581+": 3986,
  "\u2581iontr\u00e1il": 3987,
  "\u2581Find": 3988,
  "\u2581scaoileadh": 3989,
  "\u2581hospital": 3990,
  "\u2581shows": 3991,
  "\u2581t\u00e9": 3992,
  "\u2581\u00e9adrom": 3993,
  "\u2581France": 3994,
  "\u2581valuation": 3995,
  "\u2581achieve": 3996,
  "\u2581v\u00f3t\u00e1il": 3997,
  "\u2581Association": 3998,
  "\u2581Northern": 3999,
  "\u2581dl\u00edthi\u00fail": 4000,
  "\u2581hAchta": 4001,
  "\u2581publish": 4002,
  "\u2581Scoil": 4003,
  "8": 4004,
  "\u2581dispute": 4005,
  "eoidh": 4006,
  "\u2581Reacht": 4007,
  "\u25811941": 4008,
  "\u2581channels": 4009,
  "ted": 4010,
  "\u2581Import": 4011,
  "\u2581breis": 4012,
  "\u2581methods": 4013,
  "\u2581Su\u00edomh": 4014,
  "\u2581accept": 4015,
  "\u2581bhall": 4016,
  "\u2581c\u00fapla": 4017,
  "\u2581d\u00edol\u00faine": 4018,
  "\u2581North": 4019,
  "\u2581seomra": 4020,
  ".2": 4021,
  "\u2581Y": 4022,
  "\u2581conformity": 4023,
  "80": 4024,
  "\u2581L\u00edon": 4025,
  "\u2581dhul": 4026,
  "\u2581feabhas": 4027,
  "ci": 4028,
  "\u258172": 4029,
  "\u2581dh\u00e9ag": 4030,
  "\u2581lightning": 4031,
  "\u2581self": 4032,
  "\u258118.": 4033,
  "\u2581T\u00e9igh": 4034,
  "\u2581offices": 4035,
  "\u2581Capital": 4036,
  "\u2581consulting": 4037,
  "\u2581threoir": 4038,
  "\u00a9": 4039,
  "\u2581IN": 4040,
  "\u2581bainc": 4041,
  "\u2581faighte": 4042,
  "\u2581black": 4043,
  "-3": 4044,
  "06": 4045,
  "tra": 4046,
  "\u2581ball\u00f3ide": 4047,
  "\u2581dliteanas": 4048,
  "\u2581tr\u00e9imhs\u00ed": 4049,
  "\u2581expressed": 4050,
  "mm": 4051,
  "\u2581Eagar": 4052,
  "\u2581Tabhair": 4053,
  "\u2581Te": 4054,
  "\u2581dh": 4055,
  "\u2581gCuideachta\u00ed": 4056,
  "\u2581shealbh\u00fa": 4057,
  "\u2581fifty": 4058,
  "\u2581fisheries": 4059,
  "\u2581gift": 4060,
  "\u2581scoir": 4061,
  "\u2581Ni": 4062,
  ".\u2014(1)": 4063,
  "35": 4064,
  "\u2581ghn\u00edomha\u00edochta\u00ed": 4065,
  "\u2581Chief": 4066,
  "\u2581Click": 4067,
  "\u2581Mail": 4068,
  "\u2581Man": 4069,
  "\u25811995": 4070,
  "\u2581exemption": 4071,
  "\u2581Socruithe": 4072,
  "\u2581T\u00e9acs": 4073,
  "\u2581dubh": 4074,
  "rd": 4075,
  "\u2581d\u00e1r": 4076,
  "\u2581proportion": 4077,
  "\u2581Baineann": 4078,
  "\u2581inquiry": 4079,
  "\u2581currently": 4080,
  "\u2581\u20ac1": 4081,
  "abh": 4082,
  "\u258119.": 4083,
  "\u2581s\u00e1bh\u00e1ilte": 4084,
  "\u2581Facebook": 4085,
  "\u2581Fosta\u00edochta": 4086,
  "\u2581d\u00faradh": 4087,
  "\u2581initiative": 4088,
  "\u2581bhord": 4089,
  "\u2581l\u00edonadh": 4090,
  "\u2581r\u00e9igi\u00fan": 4091,
  "\u2581st\u00e1t": 4092,
  "\u2581ask": 4093,
  "AL": 4094,
  "\u2581Those": 4095,
  "\u2581pe": 4096,
  "\u258173": 4097,
  "\u2581Clice\u00e1il": 4098,
  "\u2581\u00e1iteanna": 4099,
  "oll": 4100,
  "\u2581participation": 4101,
  "\u2581avoid": 4102,
  "ron": 4103,
  "\u2581download": 4104,
  "\u2581presented": 4105,
  "\u2581strategy": 4106,
  "\u2581lead": 4107,
  "ating": 4108,
  "\u258117.": 4109,
  "ch\u00e1n": 4110,
  "\u2581chaighde\u00e1n": 4111,
  "\u2581growth": 4112,
  "\u2581latest": 4113,
  "F\u00e9adfaidh": 4114,
  "\u2581Col\u00e1iste": 4115,
  "\u2581vol": 4116,
  "\u2581Support": 4117,
  "\u2581thagairt\u00ed": 4118,
  "\u25811954": 4119,
  "\u25813,": 4120,
  "\u2581GNOME": 4121,
  "\u2581cigire": 4122,
  "\u2581moladh": 4123,
  "\u2581nGall": 4124,
  "\u2581neamhsple\u00e1ch": 4125,
  "\u2581informed": 4126,
  "\u2581ch\u00faram": 4127,
  "\u2581lot": 4128,
  "\u2581thereunder": 4129,
  "\u2581values": 4130,
  "\u2581assist": 4131,
  "\u2581duration": 4132,
  "\u2581shonraithe": 4133,
  "\u2581Choinbhinsi\u00fan": 4134,
  "\u2581m\u00edre": 4135,
  "\u2581true": 4136,
  "\u2581m\u00edle": 4137,
  "\u2581portion": 4138,
  "\u2581requiring": 4139,
  "\u2581scam": 4140,
  "\u2581Society": 4141,
  "\u2581located": 4142,
  "\u2581determining": 4143,
  "\u2581dtreo": 4144,
  "\u2581Customs": 4145,
  "\u2581Leathanach": 4146,
  "\u2581teicni\u00fala": 4147,
  "\u2581riaradh": 4148,
  "iom": 4149,
  "\u2581Nollag": 4150,
  "\u2581Google": 4151,
  "\u2581cheapfaidh": 4152,
  "\u2581Great": 4153,
  "\u2581interested": 4154,
  "mon": 4155,
  "\u2581chaoi": 4156,
  "\u2581earlier": 4157,
  "hu": 4158,
  "\u2581heart": 4159,
  "\u2581meas\u00fanachta": 4160,
  "\u2581mh\u00edni\u00fa": 4161,
  "\u2581breathn\u00fa": 4162,
  "\u2581object": 4163,
  "\u2581oifigi\u00fala": 4164,
  "\u2581preparation": 4165,
  "\u2581sign": 4166,
  "\u2581practices": 4167,
  "\u2581caused": 4168,
  "\u2581method": 4169,
  "\u2581sustainable": 4170,
  "\u2581asset": 4171,
  "\u2581c\u00faraim\u00ed": 4172,
  "\u2581vessel": 4173,
  "\u2581prices": 4174,
  "\u2581fost\u00fa": 4175,
  "\u2581www": 4176,
  "di": 4177,
  "eadh": 4178,
  "line": 4179,
  "\u2581average": 4180,
  "\u2581cumas": 4181,
  "\u2581leagfar": 4182,
  "\u2581program": 4183,
  "\u2581Our": 4184,
  "\u2581stop": 4185,
  "\u2581Cinneadh": 4186,
  "(6)": 4187,
  "\u2581Conference": 4188,
  "\u2581shanntar": 4189,
  "\u2581speed": 4190,
  "\u2581thogra": 4191,
  "\u2581bhreith": 4192,
  "\u2581gCoiste": 4193,
  "\u2581papers": 4194,
  "\u00e9ileamh": 4195,
  "\u258171": 4196,
  "\u258178": 4197,
  "\u2581cuairt": 4198,
  "\u2581dt": 4199,
  "25": 4200,
  "\u2581respective": 4201,
  "\u2581distance": 4202,
  "\u258185": 4203,
  "\u2581deleted": 4204,
  "ib": 4205,
  "\u2581sc\u00e9al": 4206,
  "l\u00e1": 4207,
  "\u2581select": 4208,
  "\u2581st": 4209,
  "\u2581il": 4210,
  "\u2581linbh": 4211,
  "ator": 4212,
  "\u258161": 4213,
  "\u2581arm": 4214,
  "\u2581convicted": 4215,
  "\u2581c\u00edos": 4216,
  "\u2581cusp\u00f3ir": 4217,
  "\u2581enactments": 4218,
  "\u2581inchurtha": 4219,
  "ance": 4220,
  "\u2581occupier": 4221,
  "\u2581try": 4222,
  "\u00d3": 4223,
  "\u2581serve": 4224,
  "\u2581Options": 4225,
  "\u2581detailed": 4226,
  "\u2581priority": 4227,
  "\u258169": 4228,
  "\u2581face": 4229,
  "\u2581\u00e9asc\u00fa": 4230,
  "\u2581Under": 4231,
  "\u2581neart": 4232,
  "\u2581tionscail": 4233,
  "\u2581particularly": 4234,
  "\u2581scope": 4235,
  "\u2581uasta": 4236,
  "\u2581gcomh": 4237,
  "\u2581ghn\u00edomha\u00edocht": 4238,
  "\u2581th\u00e1irgeadh": 4239,
  "\u2581l\u00e1idir": 4240,
  "\u2581normal": 4241,
  "\u2581aice": 4242,
  "\u2581imported": 4243,
  "\u2581sciath\u00e1in": 4244,
  "\u2581Area": 4245,
  "\u2581sh\u00e1r\u00fa": 4246,
  "\u2581Institi\u00faid": 4247,
  "\u2581Hack": 4248,
  "\u2581Tugann": 4249,
  "va": 4250,
  "\u2581tS\u00edn": 4251,
  "\u2581Dearbh\u00fa": 4252,
  "\u2581mhuirear\u00fa": 4253,
  "\u2581recorded": 4254,
  "\u2581controller": 4255,
  "\u2581phost": 4256,
  "so": 4257,
  "\u2581%2": 4258,
  "\u2581tuairisce\u00e1n": 4259,
  "\u2581More": 4260,
  "\u2581tOireachtas": 4261,
  "\u2581m\u00edni\u00fa": 4262,
  "\u2581thagartha": 4263,
  "*": 4264,
  "\u2581Email": 4265,
  "\u2581cl\u00e1ruithe": 4266,
  "\u2581active": 4267,
  "\u2581regions": 4268,
  "\u2581dh\u00f3": 4269,
  "\u2581anaithnid": 4270,
  "\u2581(12)": 4271,
  "ni": 4272,
  "\u2581liabilities": 4273,
  "\u2581opportunities": 4274,
  "\u2581Book": 4275,
  "\u2581teicni\u00fail": 4276,
  "\u2581trial": 4277,
  "fheidhmi\u00fa": 4278,
  "\u2581pr\u00f3iseas": 4279,
  "ix": 4280,
  "\u2581ch\u00f3ipe\u00e1il": 4281,
  "\u2581permanent": 4282,
  "\u2581residence": 4283,
  "\u2581LE": 4284,
  "\u2581travel": 4285,
  "\u2581sentence": 4286,
  "\u2581Training": 4287,
  "\u2581m\u00e1il": 4288,
  "\u2581treoracha": 4289,
  "\u2581analysis": 4290,
  "\u2581supported": 4291,
  "\u258162": 4292,
  "\u2581Files": 4293,
  "\u2581export": 4294,
  "\u2581Raidi\u00f3": 4295,
  "\u2581advance": 4296,
  "\u2581r\u00e9as\u00fanta": 4297,
  "09": 4298,
  "\u2581Port": 4299,
  "\u2581l\u00e9ir\u00edonn": 4300,
  "\u2581looking": 4301,
  "\u2581chaiteachas": 4302,
  "\u2581mh\u00e9ad": 4303,
  "\u2581numbers": 4304,
  "mb": 4305,
  "\u2581cabhair": 4306,
  "\u2581dtiocfaidh": 4307,
  "\u2581levy": 4308,
  "\u2581problems": 4309,
  "\u2581transmission": 4310,
  "\u2581cruinnithe": 4311,
  "\u2581declared": 4312,
  "\u2581physical": 4313,
  "For\u00e1lacha": 4314,
  "\u2581vacancy": 4315,
  "min": 4316,
  "\u2581especially": 4317,
  "\u2581recommendation": 4318,
  "\u2581sources": 4319,
  "\u2581decided": 4320,
  "\u2581forais": 4321,
  "ster": 4322,
  "\u258176": 4323,
  "\u2581C\u00f3ipe\u00e1il": 4324,
  "\u2581beartas": 4325,
  "\u2581d\u00e9antar": 4326,
  "\u2581ghr\u00fapa": 4327,
  "\u2581institi\u00faid": 4328,
  "\u2581li": 4329,
  "\u2581regular": 4330,
  "\u2581w": 4331,
  "oil": 4332,
  "\u2581style": 4333,
  "\u2581Business": 4334,
  "\u2581table": 4335,
  ":1": 4336,
  "\u2581phl\u00e9": 4337,
  "a\u00edochta": 4338,
  "ti": 4339,
  "\u2581consist": 4340,
  "\u2581Chonartha": 4341,
  "\u2581Or": 4342,
  "\u2581comhairimh": 4343,
  "\u2581teorann": 4344,
  "artha": 4345,
  "\u2581Industrial": 4346,
  "\u2581amhras": 4347,
  "\u2581caoga": 4348,
  "\u2581chuaigh": 4349,
  "\u2581reduce": 4350,
  "\u2581Geo": 4351,
  "\u2581tagartha": 4352,
  "\u2581Athraigh": 4353,
  "\u2581D\u00fairt": 4354,
  "\u2581bar": 4355,
  "\u2581l\u00e1mh": 4356,
  "\u2581Daoine": 4357,
  "\u2581Saor": 4358,
  "\u2581Atha": 4359,
  "15": 4360,
  "\u2581reduction": 4361,
  "21": 4362,
  "\u2581wife": 4363,
  "\u2581Coimisin\u00e9ir": 4364,
  "\u2581Satellite": 4365,
  "\u2581web": 4366,
  "a\u00edodh": 4367,
  "\u2581C\u00e9n": 4368,
  "\u2581South": 4369,
  "\u2581Pro": 4370,
  "\u2581Trade": 4371,
  "\u2581stair": 4372,
  "\u2581200": 4373,
  "\u2581French": 4374,
  "\u2581centre": 4375,
  "\u2581c\u00f3ipeanna": 4376,
  "\u2581display": 4377,
  "\u2581returns": 4378,
  "\u2581\u00edocfaidh": 4379,
  "power": 4380,
  "\u2581Contracting": 4381,
  "\u2581candidates": 4382,
  "\u2581coinn\u00edoll": 4383,
  "\u2581Leana\u00ed": 4384,
  "\u2581aim": 4385,
  "\u2581mhaol\u00fa": 4386,
  "\u25811930": 4387,
  "\u2581choinne": 4388,
  "\u2581cuma": 4389,
  "\u2581cumars\u00e1ide": 4390,
  "\u2581proposals": 4391,
  "96": 4392,
  "\u2581Third": 4393,
  "\u2581\u00e9ineacht": 4394,
  "\u2581Naisc": 4395,
  "\u2581approach": 4396,
  "\u2581chomhlachta": 4397,
  "18": 4398,
  "\u2581$": 4399,
  "\u2581absence": 4400,
  "\u2581gcomhl\u00edonann": 4401,
  "\u2581Officer": 4402,
  "\u2581R\u00e9": 4403,
  "\u2581fuaime": 4404,
  "\u2581length": 4405,
  "eu": 4406,
  "lan": 4407,
  "\u25811986": 4408,
  "\u2581oideachas": 4409,
  "\u2581why": 4410,
  "\u2581Synchronis": 4411,
  "\u2581category": 4412,
  "\u2581citizens": 4413,
  "\u2581luaite": 4414,
  "\u2581mholadh": 4415,
  "\u2581Now": 4416,
  "\u2581gCoimisin\u00e9ir\u00ed": 4417,
  "\u2581praghsanna": 4418,
  "\u2581inmhuirir": 4419,
  "\u2581reachtach": 4420,
  "\u25811964": 4421,
  "\u2581drawn": 4422,
  "men": 4423,
  "\u2581Chosaint": 4424,
  "\u2581L\u00e9igh": 4425,
  "\u2581secure": 4426,
  "\u2581annuity": 4427,
  "\u2581th\u00e9ann": 4428,
  "\u2581dteagmh\u00e1il": 4429,
  "90": 4430,
  "\u2581cumann": 4431,
  "\u2581gn\u00edomha\u00edocht": 4432,
  "\u2581membership": 4433,
  "\u2581partnership": 4434,
  "\u2581sl\u00e1n": 4435,
  "\u2581delay": 4436,
  "\u2581tenant": 4437,
  "\u25811968": 4438,
  "\u2581Close": 4439,
  "\u2581Copyright": 4440,
  "\u2581mortgage": 4441,
  "\u2581timpeall": 4442,
  "\u2581fall": 4443,
  "\u2581thairiscint": 4444,
  "3,": 4445,
  "iarratas\u00f3ir": 4446,
  "\u2581Enter": 4447,
  "\u2581toil": 4448,
  "\u2581\u00f3c\u00e1id": 4449,
  "agh": 4450,
  "\u00e9ad": 4451,
  "\u2581Set": 4452,
  "\u258120.": 4453,
  "\u2581Choose": 4454,
  "\u2581Play": 4455,
  "\u2581aonad": 4456,
  "\u2581foirgneamh": 4457,
  "\u2581transaction": 4458,
  "2013": 4459,
  "les": 4460,
  "\u2581bhean": 4461,
  "\u2581cheantar": 4462,
  "\u2581dhliteanas": 4463,
  "Ch\u00fairte": 4464,
  "\u2581faith": 4465,
  "ence": 4466,
  "\u2581bp": 4467,
  "\u2581gc\u00farsa": 4468,
  "(1),": 4469,
  "\u2581cuir": 4470,
  "\u2581Eurojust": 4471,
  "\u2581cuntasa\u00edochta": 4472,
  "\u2581c\u00f3naithe": 4473,
  "\u2581leictreonach": 4474,
  "00": 4475,
  "\u2581neamhbhail\u00ed": 4476,
  "\u2581twelve": 4477,
  "\u2581Gr\u00e9as\u00e1in": 4478,
  "\u2581rial\u00e1la": 4479,
  "\u2581instead": 4480,
  "\u2581panel": 4481,
  "rn": 4482,
  "\u2581Children": 4483,
  "\u2581inmhe\u00e1nach": 4484,
  "fh": 4485,
  "\u2581ceanglas": 4486,
  "\u2581leibh\u00e9il": 4487,
  "\u2581pensions": 4488,
  "den": 4489,
  "\u258177": 4490,
  "\u2581Forbairt": 4491,
  "\u2581Q": 4492,
  "\u2581Unknown": 4493,
  "\u2581Gn\u00edomhaireachta": 4494,
  "\u2581Poist": 4495,
  "\u2581Oibre": 4496,
  "\u2581chomhair": 4497,
  "\u2581gCiste": 4498,
  "\u2581needed": 4499,
  "ful": 4500,
  "\u2581bhf\u00f3gra": 4501,
  "\u2581conducted": 4502,
  "\u2581accommodation": 4503,
  "\u2581iarrth\u00f3ir": 4504,
  "\u2581ion": 4505,
  "\u00e9ir": 4506,
  "\u2581Chinese": 4507,
  "\u2581became": 4508,
  "\u2581feice\u00e1il": 4509,
  "\u2581inbhuanaithe": 4510,
  "\u2581superannuation": 4511,
  "\u2581chonradh": 4512,
  "\u2581mBanc": 4513,
  "\u2581region": 4514,
  "\u2581Appeal": 4515,
  "\u2581accepted": 4516,
  "\u2581ceist": 4517,
  "\u2581improvement": 4518,
  "\u00e9ar": 4519,
  "\u2581gc\u00fairt": 4520,
  "\u2581Ath": 4521,
  "\u2581almost": 4522,
  "\u2581N\u00edos": 4523,
  "\u2581identification": 4524,
  "\u2581Work": 4525,
  "\u2581intention": 4526,
  "eoir": 4527,
  "\u2581Ha": 4528,
  "\u2581Safety": 4529,
  "\u2581disclosure": 4530,
  "pl": 4531,
  "\u2581nea": 4532,
  "odh": 4533,
  "\u2581Check": 4534,
  "\u2581railway": 4535,
  "\u2581Courts": 4536,
  "\u2581response": 4537,
  "ina": 4538,
  "\u2581accompanied": 4539,
  "Consolidation": 4540,
  "\u258168": 4541,
  "\u2581Mark": 4542,
  "\u2581Idir": 4543,
  "\u2581fheidhm": 4544,
  "\u2581hear": 4545,
  "\u2581neamhn\u00ed": 4546,
  "\u2581population": 4547,
  "iompar": 4548,
  "\u2581CAIBIDIL": 4549,
  "24": 4550,
  "con": 4551,
  "\u2581Sin": 4552,
  "\u2581corpar\u00e1ide": 4553,
  "\u2581mp": 4554,
  "\u2581\u00c9": 4555,
  "Aig\u00e9an": 4556,
  "\u2581Vict": 4557,
  "\u2581participate": 4558,
  "ml": 4559,
  "\u2581fadhbanna": 4560,
  "\u2581complied": 4561,
  "\u2581gcomhl\u00edonadh": 4562,
  "\u2581union": 4563,
  "16": 4564,
  "sean": 4565,
  "\u2581art": 4566,
  "\u2581bye": 4567,
  "\u2581command": 4568,
  "\u2581executive": 4569,
  "\u2581f\u00edse\u00e1in": 4570,
  "\u2581oibrithe": 4571,
  "\u2581Barbie": 4572,
  "\u2581low": 4573,
  "\u2581sl\u00e1int\u00edochta": 4574,
  "\u2581dhualgas": 4575,
  "\u2581sanitary": 4576,
  "\u2581Chill": 4577,
  "\u2581gcomhalta\u00ed": 4578,
  "\u2581Web": 4579,
  "\u2581Foreign": 4580,
  "\u2581ceannais": 4581,
  "\u2581excellent": 4582,
  "\u2581mm": 4583,
  "\u2581Secretary": 4584,
  "\u2581airgeadra": 4585,
  "\u2581mhe\u00e1n": 4586,
  "2,": 4587,
  "format": 4588,
  "mentioned": 4589,
  "\u2581mheas\u00fan\u00fa": 4590,
  "\u2581bhfor\u00e1lacha": 4591,
  "term": 4592,
  "\u2581write": 4593,
  "59": 4594,
  "\u2581chl\u00e1raithe": 4595,
  "\u2581met": 4596,
  "ioncam": 4597,
  "ual": 4598,
  "\u2581chathaoirleach": 4599,
  "\u2581waters": 4600,
  "lach": 4601,
  "lin": 4602,
  "\u25811965": 4603,
  "\u2581triail": 4604,
  "\u2581Cuntas": 4605,
  "\u2581d\u00e9anmhas": 4606,
  "\u2581CHAPTER": 4607,
  "\u2581shol\u00e1thr\u00f3idh": 4608,
  "tax": 4609,
  "\u2581actually": 4610,
  "\u2581refuse": 4611,
  "\u2581(2": 4612,
  "\u2581Action": 4613,
  "\u2581Description": 4614,
  "\u2581fol\u00e1ir": 4615,
  "\u2581mean": 4616,
  "\u2581chruinnithe": 4617,
  "\u2581veterinary": 4618,
  "\u2581attend": 4619,
  "\u2581intinn": 4620,
  "Ch": 4621,
  "\u2581Dh": 4622,
  "\u2581custaim": 4623,
  "\u2581wine": 4624,
  "\u2581actual": 4625,
  "\u2581furnish": 4626,
  "\u2581iontaobhais": 4627,
  "\u2581options": 4628,
  "\u2581\u00e9ilimh": 4629,
  "\u2581Clash": 4630,
  "\u2581\u00e1itribh": 4631,
  "n\u00ed": 4632,
  "\u2581l\u00e9ireofar": 4633,
  "\u2581bainisteoir": 4634,
  "Re": 4635,
  "\u2581Uirlis\u00ed": 4636,
  "\u2581controls": 4637,
  "\u2581fosta\u00edocht": 4638,
  "\u2581shaol": 4639,
  "\u2581recognition": 4640,
  "04": 4641,
  "\u2581Seol": 4642,
  "\u2581tine": 4643,
  "\u2581Chomhphobal": 4644,
  "\u2581Display": 4645,
  "\u2581Some": 4646,
  "\u2581assurance": 4647,
  "\u2581ind\u00e9anta": 4648,
  "\u2581m\u00fainteoir\u00ed": 4649,
  "Chapter": 4650,
  "\u2581Charter": 4651,
  "\u2581painting": 4652,
  "\u2581Current": 4653,
  "\u2581bhfeidhmi\u00fa": 4654,
  "\u25811966": 4655,
  "\u2581faireach\u00e1n": 4656,
  "\u2581tuigfear": 4657,
  "\u2581\u00e9inne": 4658,
  "\u2581elements": 4659,
  "\u2581sain": 4660,
  "\u2581gcomhlacht": 4661,
  "\u2581Tionscadal": 4662,
  "\u2581fix": 4663,
  "\u2581raised": 4664,
  "\u2581Control": 4665,
  "\u2581subsidiary": 4666,
  "tion": 4667,
  "\u2581foireann": 4668,
  "\u25811983": 4669,
  "based": 4670,
  "\u2581Anois": 4671,
  "\u2581acquire": 4672,
  "\u2581Are": 4673,
  "\u2581Cl\u00f3": 4674,
  "\u2581ways": 4675,
  "\u20ac": 4676,
  "\u2581su\u00ed": 4677,
  "\u258121.": 4678,
  "\u2581inch\u00e1ilithe": 4679,
  "\u258122.": 4680,
  "ille": 4681,
  "\u2581engine": 4682,
  "\u2581judicial": 4683,
  "\u2581regulatory": 4684,
  "ID": 4685,
  "\u2581Before": 4686,
  "\u2581communications": 4687,
  "\u2581eHouse": 4688,
  "\u2581false": 4689,
  "\u2581problem": 4690,
  "\u2581refusal": 4691,
  "\u2581r\u00e9amhshocraithe": 4692,
  "\u2581\u201c\u201d": 4693,
  "\u25811984": 4694,
  "\u2581bhf\u00e9adfa\u00ed": 4695,
  "\u2581Gaillimh": 4696,
  "\u2581strong": 4697,
  "\u2581substance": 4698,
  "\u2581\u00edosta": 4699,
  "org": 4700,
  "\u2581breitheamh": 4701,
  "\u2581supervisory": 4702,
  ".00": 4703,
  "\u25811989": 4704,
  "\u2581room": 4705,
  "\u2581allows": 4706,
  "\u2581standing": 4707,
  "\u2581tionscnaimh": 4708,
  "\u2581ionadaithe": 4709,
  "\u2581nationals": 4710,
  "ba": 4711,
  "\u258179": 4712,
  "\u2581gcol\u00fan": 4713,
  "\u25811929": 4714,
  "\u2581Network": 4715,
  "\u2581cr\u00edochnaithe": 4716,
  "\u2581engaged": 4717,
  "\u2581granting": 4718,
  "\u2581directions": 4719,
  "\u2581pl\u00e9": 4720,
  "ial": 4721,
  "\u2581flash": 4722,
  "\u2581teacher": 4723,
  "\u2581R\u00edomhphost": 4724,
  "\u2581exercised": 4725,
  "\u2581tasc": 4726,
  "6/": 4727,
  "\u2581Scileanna": 4728,
  "\u25811).": 4729,
  "\u2581Tr\u00ed\u00fa": 4730,
  "\u2581b\u00f3thar": 4731,
  "\u2581operators": 4732,
  "08": 4733,
  "\u2581Family": 4734,
  "\u2581Glacfaidh": 4735,
  "\u2581Oil": 4736,
  "\u2581h\u00e1bhair": 4737,
  "\u2581\u00fas\u00e1ideora": 4738,
  "\u2581Iomp\u00f3rt\u00e1il": 4739,
  "\u2581mheasfaidh": 4740,
  "37": 4741,
  "\u2581Holm": 4742,
  "\u2581glactha": 4743,
  "\u2581defendant": 4744,
  "\u2581hour": 4745,
  "\u2581Technology": 4746,
  "\u2581Views": 4747,
  "\u2581accession": 4748,
  "\u2581taispe\u00e1int": 4749,
  "\u2581Unit": 4750,
  "\u2581attention": 4751,
  "\u2581saineolaithe": 4752,
  "IT": 4753,
  "imid": 4754,
  "\u2581IT": 4755,
  "\u2581Taighde": 4756,
  "\u2581awarded": 4757,
  "\u2581growing": 4758,
  "\u2581sheirbh\u00eds": 4759,
  "\u2581Grants": 4760,
  "\u2581pobail": 4761,
  "\u2581Default": 4762,
  "\u2581Parties": 4763,
  "\u2581Settings": 4764,
  "\u2581bhf": 4765,
  "\u2581consult": 4766,
  "\u2581understand": 4767,
  "\u2581\u00edosl\u00f3d\u00e1il": 4768,
  "\u2581Last": 4769,
  "\u2581ard\u00fa": 4770,
  "\u2581implement": 4771,
  "\u25811958": 4772,
  "\u2581leathan": 4773,
  "\u2581partner": 4774,
  "70": 4775,
  "five": 4776,
  "\u2581Priont\u00e1il": 4777,
  "\u2581impose": 4778,
  "ata": 4779,
  "\u2581fhorchur": 4780,
  "\u2581fios": 4781,
  "0,000": 4782,
  "\u2581th\u00e9arma\u00ed": 4783,
  "\u2581Naomh": 4784,
  "\u2581restrictions": 4785,
  "\u2581DE": 4786,
  "\u2581manufacture": 4787,
  "\u2581shonra\u00ed": 4788,
  "\u2581Environment": 4789,
  "\u2581br\u00ed": 4790,
  "\u2581identified": 4791,
  "\u2581st\u00edl": 4792,
  "\u2581Eacnama\u00edoch": 4793,
  "\u2581Talmhan": 4794,
  "\u2581bhreithni\u00fa": 4795,
  "\u2581scr\u00edofa": 4796,
  "\u2581tairiscint": 4797,
  "\u2581Edw": 4798,
  "\u2581choice": 4799,
  "\u2581cuidi\u00fa": 4800,
  "\u2581bhfuair": 4801,
  "\u00e9ifeacht": 4802,
  "\u2581anail\u00eds": 4803,
  "\u2581proprietor": 4804,
  "\u2581images": 4805,
  "\u2581radio": 4806,
  "ram": 4807,
  "\u2581consumption": 4808,
  "\u2581satisfaction": 4809,
  "\u2581Chuarda": 4810,
  "\u2581Food": 4811,
  "\u2581deletion": 4812,
  "\u2581himthosca": 4813,
  "\u2581Leasuithe": 4814,
  "\u2581Th": 4815,
  "\u2581n\u00edor": 4816,
  "\u2581statistics": 4817,
  "\u2581\u00fadar": 4818,
  "\u25811974": 4819,
  "\u2581--": 4820,
  "\u2581protect": 4821,
  "\u2581resulting": 4822,
  "\u2581comhioml\u00e1n": 4823,
  "\u2581Lo": 4824,
  "\u2581Pinsean": 4825,
  "\u2581TO": 4826,
  "\u2581deal": 4827,
  "\u2581expected": 4828,
  "\u2581overall": 4829,
  "\u2581roghanna": 4830,
  "\u2581IX": 4831,
  "\u2581Preliminary": 4832,
  "\u2581spraoi": 4833,
  "\u2581retirement": 4834,
  "eas": 4835,
  "\u2581todhcha\u00ed": 4836,
  "\u2581v\u00f3ta": 4837,
  "\u2581hands": 4838,
  "\u2581whenever": 4839,
  "\u2581Black": 4840,
  "\u2581b\u00f3ithre": 4841,
  "\u2581\u00a31": 4842,
  "03": 4843,
  "\u2581Agriculture": 4844,
  "\u2581Cumann": 4845,
  "\u2581coinne": 4846,
  "\u2581marketing": 4847,
  "\u2581treoirl\u00ednte": 4848,
  "\u2581Bar": 4849,
  "\u2581agree": 4850,
  "\u2581practicable": 4851,
  "\u2581Presidency": 4852,
  "\u2581shonr\u00f3idh": 4853,
  "(2),": 4854,
  "\u2581Cathrach": 4855,
  "\u2581HTML": 4856,
  "\u2581arts": 4857,
  "\u2581completion": 4858,
  "\u2581m\u00f3ra": 4859,
  "\u2581point\u00ed": 4860,
  "It": 4861,
  "\u2581Security": 4862,
  "\u2581derogation": 4863,
  "\u2581mheasann": 4864,
  "\u2581effected": 4865,
  "\u2581financing": 4866,
  "\u2581r\u00e9idh": 4867,
  "\u2581station": 4868,
  "29": 4869,
  "ac": 4870,
  "\u2581developing": 4871,
  "\u2581electricity": 4872,
  "\u2581gn\u00edomha\u00edochta": 4873,
  "\u2581patent": 4874,
  "\u2581spouse": 4875,
  "\u2581via": 4876,
  "\u2581chead\u00f3idh": 4877,
  "\u2581past": 4878,
  "\u2581sh\u00f3isialta": 4879,
  "\u2581trustees": 4880,
  "\u2581CO": 4881,
  "\u2581Ne": 4882,
  "\u2581Therefore": 4883,
  "\u2581ag\u00f3id": 4884,
  "\u2581aitheantas": 4885,
  "\u2581Assembly": 4886,
  "\u2581Ministers": 4887,
  "\u2581mental": 4888,
  "\u2581P\u00e9": 4889,
  "\u2581caipiti\u00fail": 4890,
  "\u2581c\u00e9ile": 4891,
  "\u2581teaching": 4892,
  "\u2581deiseanna": 4893,
  "\u2581ever": 4894,
  "\u2581proof": 4895,
  "ug": 4896,
  "\u2581Fad": 4897,
  "\u2581bpobal": 4898,
  "\u2581dhaingni\u00fa": 4899,
  "\u2581stamp": 4900,
  "CH": 4901,
  "\u00e1ireamh": 4902,
  "\u2581acquis": 4903,
  "\u2581visit": 4904,
  "\u2581Tr\u00e1cht\u00e1la": 4905,
  "\u2581tree": 4906,
  "\u00e9al": 4907,
  "\u25811945": 4908,
  "\u2581People": 4909,
  "\u2581extend": 4910,
  "\u2581r\u00e9igi\u00fain": 4911,
  "\u2581RT\u00c9": 4912,
  "\u2581box": 4913,
  "\u2581m\u00e9adar": 4914,
  "\u2581ord": 4915,
  "\u2581implemented": 4916,
  "ure": 4917,
  "\u201d)": 4918,
  "\u2581storage": 4919,
  "\u2581crop": 4920,
  "\u2581partly": 4921,
  "\u00f3ra": 4922,
  "\u2581Iompair": 4923,
  "\u2581m\u00edleata": 4924,
  "\u2581saoirse": 4925,
  "\u2581sc\u00f3r": 4926,
  "\u2581step": 4927,
  "#": 4928,
  "\u2581Roinne": 4929,
  "\u2581media": 4930,
  "\u2581mhalart\u00fa": 4931,
  "\u2581scair": 4932,
  "\u2581Comhphobail": 4933,
  "\u2581nothing": 4934,
  "22": 4935,
  "5/": 4936,
  "\u2581Register": 4937,
  "\u2581Start": 4938,
  "\u2581World": 4939,
  "\u2581chead\u00fanais": 4940,
  "\u2581d\u00e1ileadh": 4941,
  "\u2581enjoy": 4942,
  "\u2581ocht": 4943,
  "\u2581operator": 4944,
  "\u2581v\u00f3ta\u00ed": 4945,
  "\u2581built": 4946,
  "\u2581prionsabal": 4947,
  "\u00fan": 4948,
  "\u258195": 4949,
  "\u2581Cathaoirleach": 4950,
  "\u2581dl\u00edthe": 4951,
  "\u2581went": 4952,
  "ium": 4953,
  "irt": 4954,
  "\u2581Eaglais": 4955,
  "\u2581Homily": 4956,
  "\u2581injury": 4957,
  "\u2581junction": 4958,
  "\u2581prosecution": 4959,
  "au": 4960,
  "\u258174": 4961,
  "\u2581Socraigh": 4962,
  "eolas": 4963,
  "\u2581chead": 4964,
  "\u2581lean": 4965,
  "\u2581technology": 4966,
  "anta": 4967,
  "\u2581colour": 4968,
  "\u2581tuarasc\u00e1lacha": 4969,
  "ten": 4970,
  "\u2581answer": 4971,
  "\u2581poll": 4972,
  "\u2581reacht": 4973,
  "4,": 4974,
  "use": 4975,
  "ins": 4976,
  "\u2581Teoranta": 4977,
  "\u2581earr\u00e1id": 4978,
  "\u2581near": 4979,
  "28": 4980,
  "\u2581#": 4981,
  "\u2581bainne": 4982,
  "\u2581indicated": 4983,
  "\u2581athbhreithnithe": 4984,
  "mer": 4985,
  "\u25811942": 4986,
  "\u2581Poblacht": 4987,
  "\u2581border": 4988,
  "27": 4989,
  "\u2581dh\u00ed": 4990,
  "OR": 4991,
  "ran": 4992,
  "\u2581Links": 4993,
  "\u2581sp\u00f3irt": 4994,
  "\u2581whats": 4995,
  "\u2581fheithicil": 4996,
  "\u2581kb": 4997,
  "\u2581named": 4998,
  "\u2581bainisti\u00fa": 4999,
  "\u2581leighis": 5000,
  "\u2581\u00cdosl\u00f3d\u00e1il": 5001,
  "\u2581comhr\u00e9ireachta": 5002,
  "\u2581feithicil": 5003,
  "\u2581tithe": 5004,
  "\u2581videos": 5005,
  "\u2581tiocfaidh": 5006,
  "55": 5007,
  "\u2581Mhaigh": 5008,
  "\u2581Rights": 5009,
  "\u2581cheaptha": 5010,
  "\u2581confirmed": 5011,
  "\u2581cultural": 5012,
  "\u2581ghabha": 5013,
  "\u2581rialtais": 5014,
  "65": 5015,
  "Caibidil": 5016,
  "\u2581requests": 5017,
  "\u2581r\u00e9igi\u00fanach": 5018,
  "\u2581lines": 5019,
  "\u2581Tal\u00fan": 5020,
  "\u2581Tr\u00ed": 5021,
  "\u2581features": 5022,
  "\u2581fhor\u00e1iltear": 5023,
  "\u2581glass": 5024,
  "\u2581keys": 5025,
  "\u2581log": 5026,
  "\u2581traffic": 5027,
  "\u2581vessels": 5028,
  "\u2581dleachta": 5029,
  "\u2581tseachtain": 5030,
  "\u2581uirlis": 5031,
  "omh": 5032,
  "\u25811970": 5033,
  "\u2581exist": 5034,
  "\u2581iasachta\u00ed": 5035,
  "\u2581tos\u00fa": 5036,
  "32": 5037,
  "=": 5038,
  "\u2581creation": 5039,
  "\u2581situate": 5040,
  "\u2581Faisn\u00e9ise": 5041,
  "\u2581\u00e9ifeachta\u00ed": 5042,
  "\u2581bac": 5043,
  "\u2581importance": 5044,
  "\u2581Se": 5045,
  "\u2581acmhainn": 5046,
  "\u2581television": 5047,
  "\u2581Cumhacht": 5048,
  "\u2581Ollscoil": 5049,
  "fe": 5050,
  "\u25811962": 5051,
  "\u258193": 5052,
  "\u2581cash": 5053,
  "\u2581teasa": 5054,
  "\u2581unanimously": 5055,
  "ions": 5056,
  "\u2581breithi\u00fanas": 5057,
  "\u2581fhola\u00edonn": 5058,
  "\u2581plugin": 5059,
  "ON": 5060,
  "\u2581conartha\u00ed": 5061,
  "\u2581entire": 5062,
  "\u2581examine": 5063,
  "\u2581participating": 5064,
  "\u2581t\u00e1irgeadh": 5065,
  "\u2581unique": 5066,
  "All": 5067,
  "\u2581Ioml\u00e1n": 5068,
  "\u2581Compensation": 5069,
  "\u2581U\u00ed": 5070,
  "\u2581bhfaighidh": 5071,
  "\u2581di\u00fascairt": 5072,
  "IC": 5073,
  "\u2581staid\u00e9ir": 5074,
  "\u258183": 5075,
  "\u2581AR": 5076,
  "\u2581draw": 5077,
  "\u2581proved": 5078,
  "\u2581sampla": 5079,
  "\u2581taistil": 5080,
  "\u2581percentage": 5081,
  "\u2581th\u00f3gaint": 5082,
  "66": 5083,
  "symbols": 5084,
  "ver": 5085,
  "\u2581TD": 5086,
  "\u2581transactions": 5087,
  ".3": 5088,
  "Where": 5089,
  "\u2581ceapfar": 5090,
  "\u2581deona\u00edodh": 5091,
  "\u2581economy": 5092,
  "\u2581nomination": 5093,
  "\u258123.": 5094,
  "\u2581bhearta": 5095,
  "\u2581disc": 5096,
  "\u2581falling": 5097,
  "\u2581feist\u00ed": 5098,
  "\u2581Bo": 5099,
  "\u2581enough": 5100,
  "\u2581phlean": 5101,
  "\u2581territories": 5102,
  "\u2581Led": 5103,
  "\u2581L\u00e9ir\u00edonn": 5104,
  "\u2581Pobail": 5105,
  "\u2581emergency": 5106,
  "\u2581infrastructure": 5107,
  "\u2581labour": 5108,
  "\u2581revoked": 5109,
  "\u2581shi\u00fal": 5110,
  "\u258186": 5111,
  "\u258188": 5112,
  "\u2581Leagan": 5113,
  "\u2581individuals": 5114,
  "\u2581F\u00e9ilire": 5115,
  "\u2581gr\u00fapa\u00ed": 5116,
  "\u2581chuimsi\u00fa": 5117,
  "\u2581thuiscint": 5118,
  "\u00fas": 5119,
  "\u2581disposed": 5120,
  "with": 5121,
  "\u2581Amendments": 5122,
  "\u2581\u00c9ire": 5123,
  "\u2581During": 5124,
  "\u2581Case": 5125,
  "\u2581Controller": 5126,
  "\u2581ownership": 5127,
  "\u2581r\u00ed": 5128,
  "\u2581uirlis\u00ed": 5129,
  "\u2581clice\u00e1il": 5130,
  "\u2581gcuirf\u00ed": 5131,
  "\u2581popular": 5132,
  "\u2581p\u00e1": 5133,
  "\u2581sites": 5134,
  "\u2581sp": 5135,
  "\u2581choinn\u00edollacha": 5136,
  "\u2581presence": 5137,
  "\u2581seen": 5138,
  "\u2581supplementary": 5139,
  "ay": 5140,
  "\u2581Stair": 5141,
  "\u2581uaireanta": 5142,
  "\u2581parent": 5143,
  "\u2581agencies": 5144,
  "\u2581lua": 5145,
  "\u2581risks": 5146,
  "\u25812014.": 5147,
  "\u2581levied": 5148,
  "\u2581speicis": 5149,
  "\u2581taisce": 5150,
  "\u2581Salaries": 5151,
  "\u2581ma": 5152,
  "\u2581strucht\u00far": 5153,
  "\u2581st\u00e1isi\u00fan": 5154,
  "\u2581annexed": 5155,
  "\u2581athnuachan": 5156,
  "\u2581custody": 5157,
  "\u2581dtr\u00e1cht": 5158,
  "\u2581ACT": 5159,
  "\u2581Fhrainc": 5160,
  "\u2581r\u00edomhphost": 5161,
  "\u2581teaghlach": 5162,
  "\u2581urscaoileadh": 5163,
  "\u2581Size": 5164,
  "\u2581beirt": 5165,
  "\u2581Strategy": 5166,
  "und": 5167,
  "\u2581eacnama\u00edocha": 5168,
  "\u2581focus": 5169,
  "\u2581leordh\u00f3thanach": 5170,
  "\u2581phr\u00f3iseas": 5171,
  "\u2581pleananna": 5172,
  "\u2581Meeting": 5173,
  "\u2581concluded": 5174,
  "\u2581experts": 5175,
  "\u2581luach\u00e1il": 5176,
  "\u2581B\u00edonn": 5177,
  "\u2581Science": 5178,
  "\u2581bealach": 5179,
  "\u2581Taoiseach": 5180,
  "\u2581Tuarasc\u00e1il": 5181,
  "\u2581educational": 5182,
  "14": 5183,
  "isc": 5184,
  "\u2581Certain": 5185,
  "\u2581installation": 5186,
  "vo": 5187,
  "\u2581Only": 5188,
  "\u2581assessed": 5189,
  "\u2581<": 5190,
  "\u2581Bia": 5191,
  "\u2581dliteanais": 5192,
  "\u2581th\u00edolacadh": 5193,
  "\u2581functional": 5194,
  "\u2581g\u00e1is": 5195,
  "\u2581Conartha\u00ed": 5196,
  "\u2581codanna": 5197,
  "\u2581thaifeadadh": 5198,
  "\u2581\u00f3g": 5199,
  "\u2581Calendar": 5200,
  "\u2581barra": 5201,
  "\u2581town": 5202,
  "\u2581dearadh": 5203,
  "\u2581usually": 5204,
  "bo": 5205,
  "\u2581Nations": 5206,
  "\u2581leasa\u00edtear": 5207,
  "net": 5208,
  "\u2581Planning": 5209,
  "\u2581blood": 5210,
  "\u2581falls": 5211,
  "\u2581gcaitheamh": 5212,
  "\u2581strait\u00e9is": 5213,
  "\u2581Dhia": 5214,
  "\u2581courses": 5215,
  "\u2581promoting": 5216,
  "\u2581Pr\u00f3tacal": 5217,
  "\u2581Short": 5218,
  "\u2581amuigh": 5219,
  "\u2581bhail\u00edocht": 5220,
  "\u2581claims": 5221,
  "\u2581climate": 5222,
  "\u2581coitianta": 5223,
  "\u2581naoi": 5224,
  "\u2581p\u00e1ip\u00e9ar": 5225,
  "\u2581release": 5226,
  "fhoireann": 5227,
  "\u2581j": 5228,
  "\u2581machinery": 5229,
  "\u2581coda": 5230,
  "\u2581cr\u00edochnaitheach": 5231,
  "\u2581loans": 5232,
  "day": 5233,
  "\u2581Agricultural": 5234,
  "\u2581efficiency": 5235,
  "\u2581welfare": 5236,
  "\u2581Review": 5237,
  "\u2581though": 5238,
  "\u2581Cuireadh": 5239,
  "\u2581banks": 5240,
  "\u2581ionch\u00faiseamh": 5241,
  "ee": 5242,
  "\u2581Pacific": 5243,
  "\u2581br\u00e9agach": 5244,
  "\u2581seirbh\u00edseach": 5245,
  "\u2581Manager": 5246,
  "\u2581fionra\u00ed": 5247,
  "\u2581Corpar\u00e1ide": 5248,
  "\u2581Here": 5249,
  "\u2581farm": 5250,
  "\u2581identify": 5251,
  "\u2581\u00e1ireofar": 5252,
  "000": 5253,
  "log": 5254,
  "\u2581commencing": 5255,
  "\u2581stoic": 5256,
  "ama": 5257,
  "\u2581White": 5258,
  "\u2581thus": 5259,
  "iste": 5260,
  "\u2581glacfaidh": 5261,
  "cho": 5262,
  "\u2581fhorordaithe": 5263,
  "\u2581huathoibr\u00edoch": 5264,
  "\u2581identity": 5265,
  "\u2581supplied": 5266,
  "pa": 5267,
  "\u2581cheapfar": 5268,
  "\u2581extension": 5269,
  "\u2581gold": 5270,
  "\u2581shin": 5271,
  "\u2581150": 5272,
  "\u2581feidhmi\u00fach\u00e1in": 5273,
  "\u2581leigheas": 5274,
  "45": 5275,
  "\u2581adequate": 5276,
  "\u2581beag\u00e1n": 5277,
  "\u2581sending": 5278,
  "\u2581gn\u00f3thas": 5279,
  "\u2581mionsonraithe": 5280,
  "\u2581refer": 5281,
  "r\u00e9": 5282,
  "\u2581Phr\u00f3tacal": 5283,
  "\u2581bean": 5284,
  "\u2581ionstraim\u00ed": 5285,
  "\u2581beyond": 5286,
  "gu": 5287,
  "\u2581Almighty": 5288,
  "\u2581chiste": 5289,
  "\u2581nine": 5290,
  "\u2581dleachtanna": 5291,
  "\u2581authorise": 5292,
  "over": 5293,
  "\u2581Chl\u00e1r": 5294,
  "\u2581Tab": 5295,
  "\u2581red": 5296,
  "\u2581\u00e2": 5297,
  "\u2581occurred": 5298,
  "\u2581tobacco": 5299,
  "ze": 5300,
  "\u2581.....": 5301,
  "\u2581father": 5302,
  "alaihi": 5303,
  "\u2581difference": 5304,
  "Ar": 5305,
  "\u2581acomhal": 5306,
  "\u2581gCaibidil": 5307,
  "\u2581mine": 5308,
  "\u2581news": 5309,
  "\u2581substances": 5310,
  "\u2581s\u00ednithe": 5311,
  "\u2581worker": 5312,
  "F\u00e9adfar": 5313,
  "\u25812016.": 5314,
  "\u258192": 5315,
  "\u2581Bliain": 5316,
  "\u2581ceangal": 5317,
  "\u2581collected": 5318,
  "\u2581d\u00edlsithe": 5319,
  "\u2581mother": 5320,
  "\u2581sat": 5321,
  "\u2581Investment": 5322,
  "\u2581neamhni\u00fa": 5323,
  "\u2581oibr\u00ed": 5324,
  "las": 5325,
  "\u2581London": 5326,
  "\u2581Mhe\u00e1n": 5327,
  "\u2581ainmneacha": 5328,
  "\u2581hoibleag\u00e1id\u00ed": 5329,
  "\u2581prohibited": 5330,
  "unt": 5331,
  "\u2581Monday": 5332,
  "\u2581fe": 5333,
  "\u2581hair": 5334,
  "\u2581innovation": 5335,
  "\u2581Twitter": 5336,
  "\u2581conflict": 5337,
  "athr\u00fa": 5338,
  "ell": 5339,
  "\u2581mission": 5340,
  "\u2581quota": 5341,
  "\u2581tion\u00f3nta": 5342,
  "r\u00ed": 5343,
  "\u2581sur": 5344,
  "\u2581\u00fas\u00e1ideoir\u00ed": 5345,
  "\u2581Friday": 5346,
  "\u2581Limited": 5347,
  "\u2581ainmni\u00fach\u00e1in": 5348,
  "\u25811938": 5349,
  "\u2581ability": 5350,
  "\u2581aspects": 5351,
  "\u2581b\u00edodh": 5352,
  "\u2581l\u00e1mha": 5353,
  "tri": 5354,
  "\u25811928": 5355,
  "\u2581chluiche": 5356,
  "\u2581chr\u00edochn\u00fa": 5357,
  "AD": 5358,
  "luach": 5359,
  "\u00edn\u00ed": 5360,
  "\u2581Water": 5361,
  "\u2581got": 5362,
  "\u2581comprised": 5363,
  "\u2581package": 5364,
  "\u25811982": 5365,
  "\u2581Industry": 5366,
  "\u2581R\u00ed": 5367,
  "\u2581Teagasc": 5368,
  "\u2581User": 5369,
  "\u2581leathanaigh": 5370,
  "\u2581Teaghlaigh": 5371,
  "\u2581consists": 5372,
  "\u2581driving": 5373,
  "\u2581Access": 5374,
  "\u2581Sna": 5375,
  "\u2581secretary": 5376,
  "\u2581friends": 5377,
  "\u2581removal": 5378,
  ":10": 5379,
  "\u25811:": 5380,
  "\u2581Basketball": 5381,
  "\u2581FOR": 5382,
  "\u2581Londain": 5383,
  "\u2581`": 5384,
  "\u2581Privacy": 5385,
  "\u2581initial": 5386,
  "RE": 5387,
  "l\u00edne": 5388,
  "\u2581continuing": 5389,
  "\u2581label": 5390,
  "\u2581capable": 5391,
  "\u2581gniomh\u00fa": 5392,
  "36": 5393,
  "\u2581AG": 5394,
  "\u2581Gr\u00fapa": 5395,
  ".5": 5396,
  "\u00edos": 5397,
  "\u2581Form": 5398,
  "\u2581Teagmh\u00e1lacha": 5399,
  "\u2581ciste": 5400,
  "\u2581EUROPEAN": 5401,
  "\u2581aisghairm": 5402,
  "\u2581cain\u00e9il": 5403,
  "\u258124.": 5404,
  "\u2581Pre": 5405,
  "\u2581War": 5406,
  "\u2581bhfocal": 5407,
  "\u2581gar": 5408,
  "\u2581super": 5409,
  "ors": 5410,
  "\u2581dhi\u00falt\u00fa": 5411,
  "\u2581Focal": 5412,
  "\u2581cuardaigh": 5413,
  "\u2581husband": 5414,
  "\u2581culture": 5415,
  "\u2581efficient": 5416,
  "\u2581medicinal": 5417,
  "GenericName": 5418,
  "ra\u00ed": 5419,
  "\u2581Exchequer": 5420,
  "\u2581N\u00e1isi\u00fan": 5421,
  "\u2581sell": 5422,
  "\u25811991": 5423,
  "\u2581Editor": 5424,
  "\u2581seek": 5425,
  "\u00fala": 5426,
  "\u2581CE": 5427,
  "\u2581Tion\u00f3l": 5428,
  "\u2581latter": 5429,
  "\u2581suspension": 5430,
  "\u2581Ioncuim": 5431,
  "\u2581Judge": 5432,
  "\u2581Location": 5433,
  "\u2581Tosaigh": 5434,
  "\u2581achmair": 5435,
  "\u2581Sean": 5436,
  "\u2581rialuithe": 5437,
  "We": 5438,
  "\u2581caidreamh": 5439,
  "\u2581documentation": 5440,
  "\u2581remains": 5441,
  "\u2581Seolta\u00ed": 5442,
  "\u2581eadhon": 5443,
  "\u2581feel": 5444,
  "\u2581turn": 5445,
  "\u2581v\u00f3t\u00e1la": 5446,
  "SE": 5447,
  "\u00e1ir": 5448,
  "\u2581f\u00f3ill": 5449,
  "ff": 5450,
  "ung": 5451,
  "\u2581West": 5452,
  "ber": 5453,
  "\u2581Hu": 5454,
  "\u2581chaiteachais": 5455,
  "\u2581inneall": 5456,
  "\u2581saoil": 5457,
  "\u2581Rialaithe": 5458,
  "\u2581comhshocra\u00edocht": 5459,
  "\u2581dt\u00e1irg\u00ed": 5460,
  "\u2581gcompar\u00e1id": 5461,
  "\u2581James": 5462,
  "\u2581ce": 5463,
  "\u2581voting": 5464,
  "\u258125.": 5465,
  "\u2581Michael": 5466,
  "\u2581fhoirceannadh": 5467,
  "\u2581ghlacfaidh": 5468,
  "\u2581p\u00e1ist\u00ed": 5469,
  "\u2581diosca": 5470,
  "\u2581fair": 5471,
  "\u2581gain": 5472,
  "\u2581gluaiseacht": 5473,
  "\u2581iarnr\u00f3id": 5474,
  "\u2581re\u00e1cht\u00e1il": 5475,
  "\u2581tobac": 5476,
  "Click": 5477,
  "i\u00fala": 5478,
  "oncler": 5479,
  "ps": 5480,
  "\u2581109": 5481,
  "\u2581OJ": 5482,
  "\u2581achar": 5483,
  "\u2581forces": 5484,
  "\u2581medium": 5485,
  "OS": 5486,
  "\u2581easy": 5487,
  "\u2581freedom": 5488,
  "du": 5489,
  "\u2581Heritage": 5490,
  "\u2581Procedure": 5491,
  "\u2581ceases": 5492,
  "\u2581stampa": 5493,
  "\u25812017.": 5494,
  "\u2581eight": 5495,
  "\u2581mainly": 5496,
  "\u2581markets": 5497,
  "\u2581ordach\u00e1n": 5498,
  "\u2581Increase": 5499,
  "ier": 5500,
  "\u2581(\u201c": 5501,
  "\u2581Thuaidh": 5502,
  "\u2581T\u00f3g": 5503,
  "\u2581lands": 5504,
  "\u2581rank": 5505,
  "\u2581tools": 5506,
  "\u2581winter": 5507,
  "\u2581affecting": 5508,
  "\u2581fun": 5509,
  "\u2581saying": 5510,
  "\u2581Air\u00edonna": 5511,
  "\u2581gcruinni\u00fa": 5512,
  "\u2581s\u00e1bh\u00e1ilteacht": 5513,
  "\u2581110": 5514,
  "\u2581Duration": 5515,
  "\u2581D\u00e9anann": 5516,
  "TA": 5517,
  "\u2581American": 5518,
  "\u2581Ci\u00fain": 5519,
  "\u2581earth": 5520,
  "\u2581tuigthe": 5521,
  "\u258126.": 5522,
  "\u2581Trenbolone": 5523,
  "2/": 5524,
  "ized": 5525,
  "\u2581Bun": 5526,
  "\u2581Document": 5527,
  "\u2581chr\u00edche": 5528,
  "\u2581n\u00e1isi\u00fanaigh": 5529,
  "75": 5530,
  "\u25811987": 5531,
  "\u2581ini\u00fachta": 5532,
  "\u2581wide": 5533,
  "ons": 5534,
  "\u2581alaihi": 5535,
  "\u2581binding": 5536,
  "\u2581dh\u00edth": 5537,
  "\u2581gn\u00edomhach": 5538,
  "\u2581contacts": 5539,
  "\u2581gcinneadh": 5540,
  "\u2581girls": 5541,
  "\u2581map": 5542,
  "ili": 5543,
  "\u2581Cho": 5544,
  "\u2581nd\u00f3igh": 5545,
  "\u2581onto": 5546,
  "\u2581operating": 5547,
  "\u2581phearsanta": 5548,
  "\u2581settings": 5549,
  "\u2581Ca": 5550,
  "\u2581Cumraigh": 5551,
  "\u2581Preview": 5552,
  "\u2581r\u00fana\u00ed": 5553,
  "\u2581supporting": 5554,
  "\u2581thirty": 5555,
  "\u2581model": 5556,
  "\u2581Amach": 5557,
  "\u2581Seachtain": 5558,
  "\u2581asked": 5559,
  "\u2581renewal": 5560,
  "\u2581collective": 5561,
  "\u2581updated": 5562,
  "obh": 5563,
  "san": 5564,
  "\u2581crann": 5565,
  "\u2581elector": 5566,
  "\u2581eol": 5567,
  ":12": 5568,
  "\u2581continues": 5569,
  "\u2581Hen": 5570,
  "\u2581namely": 5571,
  "\u2581quantity": 5572,
  "\u258189": 5573,
  "\u2581Eachtracha": 5574,
  "\u2581Imeachta\u00ed": 5575,
  "\u2581beaga": 5576,
  "\u2581bh\u00f3thar": 5577,
  "95": 5578,
  "\u2581IP": 5579,
  "\u2581Orders": 5580,
  "\u2581ch\u00faiteamh": 5581,
  "son": 5582,
  "\u2581ceoil": 5583,
  "\u2581commission": 5584,
  "\u2581gearr": 5585,
  "\u2581rannph\u00e1irtithe": 5586,
  "\u2581voltage": 5587,
  "Mar": 5588,
  "\u2581\u00c9ireannach": 5589,
  "\u2581\u203a": 5590,
  "\u258184": 5591,
  "\u2581Oili\u00fana": 5592,
  "\u2581disability": 5593,
  "\u2581d\u00edola": 5594,
  "\u2581sh\u00edni\u00fa": 5595,
  "ER": 5596,
  "\u2581B\u00e9arla": 5597,
  "\u2581dealing": 5598,
  "\u2581lower": 5599,
  "\u2581luas": 5600,
  "\u2581dh\u00edreach": 5601,
  "\u2581mB": 5602,
  "\u2581t\u00e1st\u00e1il": 5603,
  "\u2581Ro": 5604,
  "\u2581eyes": 5605,
  "\u2581recent": 5606,
  "7/": 5607,
  "\u2581Breataine": 5608,
  "\u2581mhaoini\u00fa": 5609,
  "\u2581Bhunreacht": 5610,
  "\u2581Sections": 5611,
  "\u2581bhfomh\u00edr": 5612,
  "\u2581functioning": 5613,
  "\u2581gloine": 5614,
  "\u2581master": 5615,
  "\u2581mg": 5616,
  "\u2581quite": 5617,
  "\u2581useful": 5618,
  "IM": 5619,
  "\u2581Governing": 5620,
  "\u2581breeding": 5621,
  "\u2581toghch\u00e1in": 5622,
  "ct": 5623,
  "\u2581Ionstraim": 5624,
  "\u258187": 5625,
  "\u2581consistent": 5626,
  "\u2581fh\u00e1g\u00e1il": 5627,
  "\u2581mir": 5628,
  "\u00fc": 5629,
  "\u2581contravenes": 5630,
  "\u2581folamh": 5631,
  "\u2581foras": 5632,
  "\u2581revenue": 5633,
  "\u2581r\u00e9as\u00fan": 5634,
  "\u2581saothar": 5635,
  "38": 5636,
  "que": 5637,
  "\u2581Full": 5638,
  "\u2581race": 5639,
  "\u2581r\u00e1itis": 5640,
  "\u2581ships": 5641,
  "\u25811953": 5642,
  "\u258196": 5643,
  "\u2581clearly": 5644,
  "\u2581poor": 5645,
  "4)": 5646,
  "\u2581Enable": 5647,
  "\u2581sia": 5648,
  "\u2581Tabharfar": 5649,
  "2010": 5650,
  "\u2581Auditors": 5651,
  "\u2581competence": 5652,
  "\u2581exempt": 5653,
  "\u2581\u00edomh\u00e1nna": 5654,
  "St": 5655,
  "cal": 5656,
  "chl\u00e1r": 5657,
  "tro": 5658,
  "\u2581Archives": 5659,
  "\u2581chostas": 5660,
  "\u2581movie": 5661,
  "\u2581muscle": 5662,
  "\u2581Hav": 5663,
  "\u2581aca": 5664,
  "\u2581dho": 5665,
  "\u2581h\u00edoc": 5666,
  "\u2581t\u00e1irgthe": 5667,
  "\")": 5668,
  "Gach": 5669,
  "\u00f6": 5670,
  "\u2581glaoch": 5671,
  "\u2581profit": 5672,
  "\u2581pr\u00edomha": 5673,
  "\u2581Rial\u00fa": 5674,
  "\u2581chostais": 5675,
  "\u2581tOmbudsman": 5676,
  "86": 5677,
  "Baile": 5678,
  "\u2581hOifige": 5679,
  "\u2581directed": 5680,
  "Clice\u00e1il": 5681,
  "\u2581roads": 5682,
  "\u258198": 5683,
  "\u2581constitute": 5684,
  "\u2581maoirseachta": 5685,
  "\u2581rather": 5686,
  "\u2581stocks": 5687,
  "ric": 5688,
  "\u258101": 5689,
  "\u2581\u00e9ags\u00fail": 5690,
  "border": 5691,
  "ior": 5692,
  "\u2581Tags": 5693,
  "\u2581aonaid": 5694,
  "\u2581thr\u00ed": 5695,
  "ible": 5696,
  "\u2581agency": 5697,
  "\u2581f\u00e1is": 5698,
  "ta\u00ed": 5699,
  "\u2581dheonadh": 5700,
  "\u2581sol\u00e1thair": 5701,
  "\u2581commenced": 5702,
  "\u2581variety": 5703,
  "\u2581Measfar": 5704,
  "\u2581bound": 5705,
  "\u2581exists": 5706,
  "\u2581th\u00e1irg\u00ed": 5707,
  "fhor\u00e1lacha": 5708,
  "fh\u00e9adfa\u00ed": 5709,
  "\u00far": 5710,
  "\u2581Denmark": 5711,
  "\u2581teagmhas": 5712,
  "\u2581Su": 5713,
  "\u2581neart\u00fa": 5714,
  "\u2581yourself": 5715,
  "\u2581solicitor": 5716,
  "58": 5717,
  "TH": 5718,
  "\u2581Common": 5719,
  "\u2581lo": 5720,
  "\u2581relations": 5721,
  "rach": 5722,
  "\u2581D\u00ed": 5723,
  "\u2581T\u00e1imid": 5724,
  "\u25812013.": 5725,
  "\u2581Gn\u00f3": 5726,
  "\u2581su": 5727,
  "\u2581c\u00e1il\u00edocht": 5728,
  "\u2581mouse": 5729,
  "\u2581spriocanna": 5730,
  "\u2581\u00e9ada\u00ed": 5731,
  "pro": 5732,
  "\u00e9ir\u00ed": 5733,
  "\u2581luachanna": 5734,
  "\u2581neither": 5735,
  "\u2581*.": 5736,
  "\u2581Imposition": 5737,
  "\u2581SIS": 5738,
  "\u2581alia": 5739,
  "\u2581conversion": 5740,
  "iarr": 5741,
  "\u2581declare": 5742,
  "\u2581pr\u00edobh\u00e1ideach": 5743,
  "\u2581tr\u00e9idliachta": 5744,
  "\u2581uses": 5745,
  "ize": 5746,
  "\u00e1r": 5747,
  "\u2581Super": 5748,
  "\u2581began": 5749,
  "\u2581buis\u00e9ad": 5750,
  "\u2581d\u00f3ich": 5751,
  "\u2581solely": 5752,
  "year": 5753,
  "\u2581102": 5754,
  "\u2581Sub": 5755,
  "\u2581farraige": 5756,
  "\u2581mhoill": 5757,
  "\u2581r\u00e1tha\u00edocht": 5758,
  "\u2581Right": 5759,
  "\u2581cleachtais": 5760,
  "\u2581delegation": 5761,
  "\u2581riachtanas": 5762,
  "\u2581theicni\u00fail": 5763,
  "\u2581toghch\u00e1n": 5764,
  "\u2581t\u00f3ir": 5765,
  ".\u2014": 5766,
  "\u258181": 5767,
  "\u2581BCE": 5768,
  "\u2581Cosaint": 5769,
  "\u2581ionaid": 5770,
  "\u2581relationship": 5771,
  "\u2581thaisceadh": 5772,
  "\u2581tromlach": 5773,
  "\u2581v\u00f3ta\u00edochta": 5774,
  "De": 5775,
  "\u2581Christian": 5776,
  "\u2581achieved": 5777,
  "\u2581galar": 5778,
  "\u2581DVD": 5779,
  "\u2581brab\u00fas": 5780,
  "\u2581Travel": 5781,
  "\u2581Tuairim\u00ed": 5782,
  "\u2581correct": 5783,
  "\u2581degree": 5784,
  "47": 5785,
  "oifig": 5786,
  "\u2581motor": 5787,
  "\u2581Configure": 5788,
  "\u2581Mc": 5789,
  "\u2581M\u00f3r": 5790,
  "\u2581PST": 5791,
  "\u2581Paragraph": 5792,
  "\u2581Software": 5793,
  "\u2581learn": 5794,
  "\u2581reporting": 5795,
  "\u2581teicneola\u00edochta": 5796,
  "\u2581License": 5797,
  "\u2581mBaile": 5798,
  "\u2581offered": 5799,
  "\u2581someone": 5800,
  "\u2581tribunal": 5801,
  "\u2581\u00fas\u00e1ideann": 5802,
  "26": 5803,
  "aimseartha": 5804,
  "\u2581t\u00e1bla": 5805,
  "31": 5806,
  "\u2581drawing": 5807,
  "\u2581penalties": 5808,
  "Gain": 5809,
  "\u2581Today": 5810,
  "\u2581catag\u00f3ir\u00ed": 5811,
  "\u2581completely": 5812,
  "\u2581Export": 5813,
  "\u2581fields": 5814,
  "(2)(": 5815,
  "\u00e1itreabh": 5816,
  "\u2581Send": 5817,
  "\u2581comhartha\u00ed": 5818,
  "\u2581mhargaidh": 5819,
  "\u2581target": 5820,
  "ACHT": 5821,
  "For": 5822,
  "\u2581c\u00e1ilitheach": 5823,
  "\u2581furnished": 5824,
  "\u2581hope": 5825,
  "\u2581120": 5826,
  "\u2581Leave": 5827,
  "\u2581internet": 5828,
  "\u2581sheirbh\u00eds\u00ed": 5829,
  "ou": 5830,
  "\u2581ECB": 5831,
  "\u2581margaidh": 5832,
  "\u25812:": 5833,
  "\u2581M\u00ed": 5834,
  "\u2581disqualified": 5835,
  "\u2581emissions": 5836,
  "\u2581scale": 5837,
  "fi": 5838,
  "way": 5839,
  "\u2581N\u00f3s": 5840,
  "\u2581Traffic": 5841,
  "\u2581naisc": 5842,
  "\u2581pr\u00edos\u00fanacht": 5843,
  "\u2581caighde\u00e1nach": 5844,
  "\u2581deireanach": 5845,
  "\u2581n\u00f3ta": 5846,
  "\u2581\u00e1lainn": 5847,
  "\u2581chinn": 5848,
  "\u2581laying": 5849,
  "\u2581running": 5850,
  "\u2581rural": 5851,
  "\u2581\u00edocshl\u00e1inte": 5852,
  "39": 5853,
  "\u2581(1)(": 5854,
  "\u2581dtabharfaidh": 5855,
  "\u2581stating": 5856,
  "ner": 5857,
  "ning": 5858,
  "\u2581Cl\u00e1raitheoir": 5859,
  "\u2581Red": 5860,
  "\u2581alone": 5861,
  "tais": 5862,
  "\u2581b\u00edonn": 5863,
  "\u2581ch\u00fanamh": 5864,
  "ga": 5865,
  "ibh": 5866,
  "\u258194": 5867,
  "\u2581mind": 5868,
  "her": 5869,
  "\u2581me\u00e1chan": 5870,
  "\u2581mhodhn\u00fa": 5871,
  "\u2581opening": 5872,
  "\u2581togra\u00ed": 5873,
  "/2006": 5874,
  "ities": 5875,
  "ley": 5876,
  "\u2581Joint": 5877,
  "\u2581caillteanas": 5878,
  "\u2581difficult": 5879,
  "\u2581fhorchuirtear": 5880,
  "\u2581thurus": 5881,
  "M\u00e1": 5882,
  "\u2581130": 5883,
  "\u2581Germany": 5884,
  "\u2581Share": 5885,
  "\u2581everything": 5886,
  "\u2581solas": 5887,
  "gar": 5888,
  "\u2581Luach": 5889,
  "\u2581Orduithe": 5890,
  "\u2581beautiful": 5891,
  "\u2581gn\u00f3thais": 5892,
  "\u2581holds": 5893,
  "\u2581initialise": 5894,
  "\u2581thereafter": 5895,
  "ger": 5896,
  "\u2581Details": 5897,
  "\u2581licensed": 5898,
  "\u2581Cialla\u00edonn": 5899,
  "\u2581Staff": 5900,
  "\u2581participants": 5901,
  "23": 5902,
  "\u2581History": 5903,
  "\u2581Mh": 5904,
  "\u2581bheatha": 5905,
  "\u2581chreidi\u00faint": 5906,
  "\u2581links": 5907,
  "\u2581crua": 5908,
  "\u2581drive": 5909,
  "LWW": 5910,
  "za": 5911,
  "\u2581occasion": 5912,
  "ES": 5913,
  "\u2581Light": 5914,
  "\u2581folders": 5915,
  "\u2581mhuirear": 5916,
  "laigh": 5917,
  "\u258128.": 5918,
  "\u2581Bainfidh": 5919,
  "\u2581Chomhaont\u00fa": 5920,
  "\u2581Father": 5921,
  "\u2581dh\u00f3igh": 5922,
  "\u2581gave": 5923,
  "\u2581rialtas": 5924,
  ":11": 5925,
  "ens": 5926,
  "\u2581Gn\u00e1th": 5927,
  "\u2581Tu": 5928,
  "\u2581lear": 5929,
  "\u2581modification": 5930,
  "\u2581salary": 5931,
  "\u2581\u00fain\u00e9ireacht": 5932,
  "oth": 5933,
  "we": 5934,
  "\u2581Gu": 5935,
  "\u2581chuntais": 5936,
  "\u2581detention": 5937,
  "\u2581sonr\u00f3far": 5938,
  "\u2581Environmental": 5939,
  "\u2581LYIT": 5940,
  "\u2581tab": 5941,
  "\u2581P\u00e1irt\u00ed": 5942,
  "\u2581budgetary": 5943,
  "8/": 5944,
  "dy": 5945,
  "\u2581500": 5946,
  "\u2581Aer": 5947,
  "\u2581Phone": 5948,
  "48": 5949,
  "\u2581Mon": 5950,
  "\u2581alleged": 5951,
  "\u2581issuing": 5952,
  "\u2581t\u00e1bhacht": 5953,
  "ess": 5954,
  "\u25811957": 5955,
  "\u2581archive": 5956,
  "\u2581sheet": 5957,
  "\u2581cuain": 5958,
  "\u2581f\u00e1gtha": 5959,
  "\u2581instructions": 5960,
  "\u2581l\u00e1rnach": 5961,
  "\u2581shoot": 5962,
  "rate": 5963,
  "\u2581characteristics": 5964,
  "\u2581grianghraf": 5965,
  "\u2581mic": 5966,
  "\u2581sales": 5967,
  "\u2581taxable": 5968,
  "500": 5969,
  "approval": 5970,
  "\u2581riosca\u00ed": 5971,
  "color": 5972,
  "light": 5973,
  "\u2581eagla": 5974,
  "\u2581savings": 5975,
  "ven": 5976,
  "\u2581C\u00f3ipcheart": 5977,
  "\u2581Freastala\u00ed": 5978,
  "\u2581objection": 5979,
  "\u2581changed": 5980,
  ".7": 5981,
  "\u2581Christmas": 5982,
  "\u2581modhnuithe": 5983,
  "\u2581tarl\u00fa": 5984,
  "\u00e8": 5985,
  "\u2581Force": 5986,
  "\u2581bhaill": 5987,
  "\u2581consisting": 5988,
  "\u2581passenger": 5989,
  "\u2581seachtain": 5990,
  "33": 5991,
  "ich": 5992,
  "\u2581Messenger": 5993,
  "\u2581east\u00e1t": 5994,
  "\u2581fulfil": 5995,
  "\u2581personnel": 5996,
  "\u2581t\u00e1st\u00e1la": 5997,
  "\u2581Classic": 5998,
  "\u2581gn\u00e9as": 5999,
  "\u2581output": 6000,
  "\u2581provisional": 6001,
  "\u2581story": 6002,
  "\u2581trustee": 6003,
  "\u2581Cuideachta": 6004,
  "\u2581uniform": 6005,
  "\u25812018.": 6006,
  "\u2581Com": 6007,
  "\u2581Window": 6008,
  "\u2581r\u00e9itigh": 6009,
  "\u258191": 6010,
  "\u2581deonadh": 6011,
  "\u2581fhosta\u00edocht": 6012,
  "\u2581giorra": 6013,
  "\u2581gn\u00edomhaire": 6014,
  "Le": 6015,
  "ec": 6016,
  "\u2581Status": 6017,
  "\u2581integrated": 6018,
  "Sa": 6019,
  "\u2581comment": 6020,
  "\u2581dh\u00e1ileadh": 6021,
  "\u2581\u00c1iritheo": 6022,
  "\u2581choth\u00fa": 6023,
  "\u2581global": 6024,
  "\u2581pobal": 6025,
  "\u2581s\u00e9ip\u00e9al": 6026,
  "\u2581toirmeasc": 6027,
  "\u2581turas": 6028,
  "port": 6029,
  "\u2581Body": 6030,
  "\u2581Comhshaoil": 6031,
  "\u2581auditor": 6032,
  "\u2581comhshaoil": 6033,
  "\u2581gcoinn\u00edollacha": 6034,
  "\u2581thereby": 6035,
  "illeann": 6036,
  "uil": 6037,
  "\u2581build": 6038,
  "\u2581gcuirfidh": 6039,
  "\u2581gr": 6040,
  ".\u201d;": 6041,
  "\u2581comhph\u00e1irt\u00edocht": 6042,
  "\u2581married": 6043,
  "bar": 6044,
  "gen": 6045,
  "gra": 6046,
  "\u2581nd": 6047,
  "\u2581rann\u00edoc": 6048,
  "\u2581shillings": 6049,
  "\u2581structures": 6050,
  "\u2581worked": 6051,
  "Share": 6052,
  "\u2581Reatha": 6053,
  "\u2581firm": 6054,
  "tal": 6055,
  "\u2581difr\u00edocht": 6056,
  "\u2581infheidhmithe": 6057,
  "\u2581tionscal": 6058,
  "\u2581En": 6059,
  "\u2581hinstiti\u00faid\u00ed": 6060,
  "\u2581tosa\u00edochta": 6061,
  "88": 6062,
  "If": 6063,
  "\u2581British": 6064,
  "\u2581committees": 6065,
  "\u2581ch\u00f3naithe": 6066,
  "\u2581dl\u00edthi\u00fala": 6067,
  "\u2581hearts": 6068,
  "uk": 6069,
  "\u2581M\u00f3d": 6070,
  "\u2581annulled": 6071,
  "\u2581buy": 6072,
  "\u2581coordination": 6073,
  "\u2581peace": 6074,
  ":13": 6075,
  "You": 6076,
  "cib\u00e9": 6077,
  "\u2581F\u00e1ilte": 6078,
  "\u2581achoimre": 6079,
  "\u2581aturnae": 6080,
  "\u2581creat": 6081,
  "\u2581daonna": 6082,
  "\u2581properly": 6083,
  "\u2581student": 6084,
  "\u25812007,": 6085,
  "\u2581UN": 6086,
  "\u2581chomaoin": 6087,
  "\u2581c\u00farsa": 6088,
  "hair": 6089,
  "\u2581000": 6090,
  "\u2581Code": 6091,
  "\u2581Ini\u00fach\u00f3ir\u00ed": 6092,
  "\u2581division": 6093,
  "1/": 6094,
  "\u2581Neamh": 6095,
  "\u2581Theas": 6096,
  "\u2581photo": 6097,
  "\u258199": 6098,
  "\u2581bh\u00e9al": 6099,
  "\u2581supplier": 6100,
  "\u2581carriage": 6101,
  "\u2581empowered": 6102,
  "\u2581pearsa": 6103,
  "\u2581kids": 6104,
  "\u2581purporting": 6105,
  "\u2581rochtana": 6106,
  "\u2581soilse": 6107,
  "\u00e1lacha": 6108,
  "\u2581Annual": 6109,
  "\u2581daily": 6110,
  "\u2581reacht\u00fala": 6111,
  "\u258127.": 6112,
  "\u2581dissolved": 6113,
  "\u2581oiri\u00fan\u00fa": 6114,
  "\u2581apart": 6115,
  "\u2581coime\u00e1d": 6116,
  "\u2581tirim": 6117,
  "\u2581understanding": 6118,
  "\u00e1is": 6119,
  "\u2581followed": 6120,
  "\u2581inch\u00e1nach": 6121,
  "\u2581prohibition": 6122,
  "\u2581\u00edseal": 6123,
  "\u2581club": 6124,
  "\u2581sectors": 6125,
  "\u2581Superannuation": 6126,
  "\u2581ciona": 6127,
  "\u2581dt\u00edr": 6128,
  "\u2581foils\u00edodh": 6129,
  "\u2581thought": 6130,
  "3/": 6131,
  "ras": 6132,
  "\u2581F\u00f3rsa\u00ed": 6133,
  "\u2581qualifications": 6134,
  "\u2581sports": 6135,
  "\u2581125": 6136,
  "\u2581GNU": 6137,
  "\u2581Li": 6138,
  "\u2581c\u00e9imeanna": 6139,
  "\u2581Rates": 6140,
  "\u2581Word": 6141,
  "\u2581fhuinneog": 6142,
  "\u2581offers": 6143,
  "\u2581Property": 6144,
  "\u2581database": 6145,
  "\u2581indicate": 6146,
  "\u2581refuses": 6147,
  "\u2581started": 6148,
  "49": 6149,
  "\u2581Bill": 6150,
  "\u2581alteration": 6151,
  "\u2581deducted": 6152,
  "\u2581landlord": 6153,
  "\u258182": 6154,
  "\u2581Archive": 6155,
  "\u2581c\u00e1rta": 6156,
  "\u2581oibr\u00edocht": 6157,
  "\u2581rest": 6158,
  "\u2581sc\u00e1la": 6159,
  "\u2581Test": 6160,
  "\u2581big": 6161,
  "\u2581fruit": 6162,
  "\u2581pas": 6163,
  "law": 6164,
  "\u2581f\u00f3gra\u00ed": 6165,
  "\u2581gcomhth\u00e9acs": 6166,
  "\u2581settlement": 6167,
  "\u2581strength": 6168,
  "fa\u00ed": 6169,
  "\u2581tests": 6170,
  "\u2581cnaipe": 6171,
  "\u2581constituency": 6172,
  "\u2581easily": 6173,
  "\u2581jobs": 6174,
  "\u2581recovered": 6175,
  "\u2581rise": 6176,
  "\u2581st\u00e1it": 6177,
  "\u2581assessments": 6178,
  "\u2581components": 6179,
  "\u2581sainr\u00e1ite": 6180,
  "r\u00e1": 6181,
  "\u2581Feidhm": 6182,
  "\u2581Music": 6183,
  "\u2581shl\u00e1inte": 6184,
  "\u2581Faigh": 6185,
  "\u2581chosen": 6186,
  "\u2581gurbh": 6187,
  "\u2581session": 6188,
  "isation": 6189,
  "\u2581mu": 6190,
  "As": 6191,
  "\u2581breach": 6192,
  "\u2581king": 6193,
  "\u2581lu\u00ed": 6194,
  "\u2581Continue": 6195,
  "\u2581controlled": 6196,
  "\u2581tionscnamh": 6197,
  "\u2581vesting": 6198,
  "\u2581bh\u00e9arfaidh": 6199,
  "\u2581fill": 6200,
  "\u2581profession": 6201,
  "\u2581Painting": 6202,
  "\u2581bottle": 6203,
  "\u2581menu": 6204,
  "fheidhm": 6205,
  "\u2581Grant": 6206,
  "i\u00fan": 6207,
  "\u2581Authorities": 6208,
  "\u2581Barra": 6209,
  "\u2581voluntary": 6210,
  "\u2581witness": 6211,
  "action": 6212,
  "ai": 6213,
  "\u2581101": 6214,
  "\u2581Coiri\u00fail": 6215,
  "\u2581advanced": 6216,
  "\u2581c\u00faitimh": 6217,
  "\u2581performing": 6218,
  "\u2581Teo": 6219,
  "\u2581bra": 6220,
  "\u2581n\u00f3ta\u00ed": 6221,
  "\u2581raidi\u00f3": 6222,
  "\u2581stay": 6223,
  "\u2581unemployment": 6224,
  "\u2581client": 6225,
  "\u2581ordinarily": 6226,
  "\u2581tabha\u00edodh": 6227,
  "t\u00ed": 6228,
  "\u00f3s": 6229,
  "\u2581Sex": 6230,
  "\u2581authorising": 6231,
  "\u2581loinge": 6232,
  "CO": 6233,
  "ong": 6234,
  "\u2581arrow": 6235,
  "\u2581pion\u00f3is": 6236,
  "46": 6237,
  "ical": 6238,
  "off": 6239,
  "sta": 6240,
  "\u2581Note": 6241,
  "\u2581gn\u00f3chain": 6242,
  "\u2581lig": 6243,
  "PDF": 6244,
  "\u2581Teaching": 6245,
  "\u2581b\u00f3thair": 6246,
  "\u2581eis\u00edodh": 6247,
  "\u2581heat": 6248,
  "\u2581idirdheal\u00fa": 6249,
  "\u2581nGn\u00edomhaireacht": 6250,
  "\u2581\u00e9igeand\u00e1la": 6251,
  "\u2581Bainisteoir": 6252,
  "\u2581Bhe": 6253,
  "\u2581Just": 6254,
  "\u2581provider": 6255,
  "\u2581seachadadh": 6256,
  "\u2581sol\u00e1thra\u00ed": 6257,
  "ING": 6258,
  "\u258197": 6259,
  "\u2581Airde": 6260,
  "\u2581existence": 6261,
  "\u2581multi": 6262,
  "\u2581obtaining": 6263,
  "\u2581\u00d3glaigh": 6264,
  "\u2581consequence": 6265,
  "\u2581eagr\u00fa": 6266,
  "\u2581lost": 6267,
  "rr": 6268,
  "\u2581Oidhreachta": 6269,
  "\u2581infringement": 6270,
  "\u2581phone": 6271,
  "\u2581plays": 6272,
  "aill": 6273,
  "\u00edocfar": 6274,
  "\u2581film": 6275,
  "\u2581iarrfaidh": 6276,
  "lia": 6277,
  "\u2581ETIAS": 6278,
  "\u2581Microsoft": 6279,
  "\u2581Properties": 6280,
  "\u2581exception": 6281,
  "\u2581h\u00e9asca": 6282,
  "\u2581indicator": 6283,
  "\u2581saw": 6284,
  "\u2581screen": 6285,
  "\u2581TH": 6286,
  "\u2581processes": 6287,
  "\u2581\u00c1bhar": 6288,
  "44": 6289,
  "\u2581recover": 6290,
  "\u2581repaid": 6291,
  "\u2581representing": 6292,
  "\u2581statements": 6293,
  "\u2581surveillance": 6294,
  "\u2581Libertex": 6295,
  "\u2581beala\u00ed": 6296,
  "\u2581fundamental": 6297,
  "\u2581shainaithint": 6298,
  "Oscail": 6299,
  "\u2581dtuairim": 6300,
  "\u2581t\u00e1imid": 6301,
  "eo": 6302,
  "\u2581Over": 6303,
  "\u2581dheasca": 6304,
  "\u2581favour": 6305,
  "ho": 6306,
  "\u2581bhaineas": 6307,
  "\u2581cuardach": 6308,
  "\u2581dh\u00e9anta": 6309,
  "\u2581orainn": 6310,
  "\u2581processed": 6311,
  "ries": 6312,
  "\u2581Iompar": 6313,
  "\u2581titim": 6314,
  "\u2581\u00e9ags\u00falacht": 6315,
  "\u2581\u00fas\u00e1ideoir": 6316,
  "56": 6317,
  "List": 6318,
  "thar": 6319,
  "\u2581Gazette": 6320,
  "\u2581chaomhn\u00fa": 6321,
  "\u2581eala\u00edne": 6322,
  "\u2581encourage": 6323,
  "\u2581properties": 6324,
  "\u2581seolta\u00ed": 6325,
  "\u2581s\u00edni\u00fa": 6326,
  "achta\u00ed": 6327,
  "\u25812015.": 6328,
  "\u2581Chairman": 6329,
  "\u2581consumer": 6330,
  "\u2581lonnaithe": 6331,
  "\u2581undertaken": 6332,
  "\u2581SOLAS": 6333,
  "\u2581accused": 6334,
  "\u2581caipitil": 6335,
  "\u2581promotion": 6336,
  "\u2581Club": 6337,
  "\u2581Patrick": 6338,
  "\u2581bun\u00fasacha": 6339,
  "\u2581composition": 6340,
  "\u2581investments": 6341,
  "fheidhmeannach": 6342,
  "rea": 6343,
  "\u2581frith": 6344,
  "\u2581oibr\u00edonn": 6345,
  "\u2581pr\u00f3ise\u00e1la": 6346,
  "\u2581rann\u00edoca\u00ed": 6347,
  "\u2581IncrediMail": 6348,
  "\u2581Link": 6349,
  "\u2581thiar": 6350,
  "\u2581Britain": 6351,
  "\u2581German": 6352,
  "\u2581Nasc": 6353,
  "\u2581Since": 6354,
  "\u2581prayer": 6355,
  "\u2581thr\u00e1d\u00e1il": 6356,
  "\u00e1id": 6357,
  "\u2581Invalid": 6358,
  "\u2581taxes": 6359,
  "2012": 6360,
  "\u2581domhanda": 6361,
  "\u2581fh\u00edne\u00e1il": 6362,
  ".2.": 6363,
  ".3.": 6364,
  "\u2581Accounts": 6365,
  "\u2581US": 6366,
  "\u2581chuma": 6367,
  "\u2581chumas\u00fa": 6368,
  "\u2581c\u00fairt": 6369,
  "\u2581inside": 6370,
  "(7)": 6371,
  "\u25811969": 6372,
  "\u2581Chathair": 6373,
  "\u2581muin\u00edn": 6374,
  "NA": 6375,
  "\u2581cheap": 6376,
  "\u2581dui": 6377,
  "\u2581Breitheamh": 6378,
  "\u2581dalta\u00ed": 6379,
  "\u2581f\u00e1n": 6380,
  "\u2581gheofar": 6381,
  "\u2581ollmh\u00f3r": 6382,
  "\u2581thuaidh": 6383,
  "Roinnt": 6384,
  "oc": 6385,
  "\u2581CVS": 6386,
  "\u2581Muhammad": 6387,
  "\u2581Space": 6388,
  "\u2581complaints": 6389,
  "!\"": 6390,
  "\u2581B\u00ed": 6391,
  "\u2581Parlaiminte": 6392,
  "\u2581d\u00edolmhaithe": 6393,
  "\u2581r\u00e9igi\u00fanacha": 6394,
  "\u2581trasteorann": 6395,
  "\u2581~": 6396,
  "\u2581Teastas": 6397,
  "\u2581While": 6398,
  "\u2581deacair": 6399,
  "(3),": 6400,
  "\u2581Oifigeach": 6401,
  "\u258129.": 6402,
  "\u2581Commerce": 6403,
  "\u2581aoisli\u00fantais": 6404,
  "\u2581revocation": 6405,
  "\u2581surface": 6406,
  "\u2581tUachtar\u00e1n": 6407,
  "\u2581Ex": 6408,
  "val": 6409,
  "\u00f3id": 6410,
  "\u2581UM": 6411,
  "\u2581hoibreacha": 6412,
  "\u2581t\u00f3g\u00e1la": 6413,
  "\u25811908": 6414,
  "\u2581Oireachtais": 6415,
  "\u2581chialla\u00edonn": 6416,
  "\u2581hailt": 6417,
  "\u2581studies": 6418,
  "dha": 6419,
  "\u2581Cumasaigh": 6420,
  "\u2581EPA": 6421,
  "\u2581R\u00e9amhr\u00e1iteach": 6422,
  "\u2581customers": 6423,
  "\u2581ngleic": 6424,
  "\u2581rialaitheoir": 6425,
  "\u2581salaries": 6426,
  "\u2581tuismitheoir\u00ed": 6427,
  "San": 6428,
  "ble": 6429,
  "\u2581ainneoin": 6430,
  "\u2581airm": 6431,
  "\u2581embed": 6432,
  "\u2581facility": 6433,
  "\u2581facts": 6434,
  "\u2581glas": 6435,
  "\u2581houses": 6436,
  "ves": 6437,
  "raithe": 6438,
  "\u2581substaint\u00ed": 6439,
  "\u2581chionta": 6440,
  "\u2581l\u00e1ithre\u00e1in": 6441,
  "\u2581modified": 6442,
  "\u2581ngn\u00edomha\u00edochta\u00ed": 6443,
  "\u2581scrios": 6444,
  "\u2581statute": 6445,
  "ship": 6446,
  "\u2581Accession": 6447,
  "\u2581com": 6448,
  "\u2581mheasfar": 6449,
  "within": 6450,
  "\u2581CFAE": 6451,
  "\u2581Mp": 6452,
  "\u2581Personal": 6453,
  "\u2581Press": 6454,
  "\u2581b\u00e1is": 6455,
  "\u2581chairperson": 6456,
  "\u2581feidhm\u00edochta": 6457,
  "gg": 6458,
  "\u25811944": 6459,
  "\u2581Fa": 6460,
  "\u2581Product": 6461,
  "\u2581dearg": 6462,
  "\u2581300": 6463,
  "\u2581Euro": 6464,
  "\u2581Tr\u00e1d\u00e1la": 6465,
  "\u2581hachtach\u00e1in": 6466,
  "\u2581km": 6467,
  "\u2581luchtaigh": 6468,
  "\u2581remaining": 6469,
  "-1": 6470,
  "Ean\u00e1ir": 6471,
  "tas": 6472,
  "\u2581checks": 6473,
  "\u2581courts": 6474,
  "\u2581forthwith": 6475,
  "\u2581interesting": 6476,
  "\u2581tell": 6477,
  "\u2581Custom": 6478,
  "\u2581Ich": 6479,
  "\u2581commitment": 6480,
  "\u2581fresh": 6481,
  "\u2581lenar": 6482,
  "\u2581orm": 6483,
  "\u2581prescribe": 6484,
  "\u2581coiri\u00fala": 6485,
  "\u2581memory": 6486,
  "\u2581qualification": 6487,
  "\u2581srian": 6488,
  "\u2581steel": 6489,
  "\u2581Licence": 6490,
  "\u2581Works": 6491,
  "\u2581cuibhe": 6492,
  "\u2581ha": 6493,
  "\u2581pound": 6494,
  "\u2581speak": 6495,
  "hi": 6496,
  "\u2581Because": 6497,
  "\u2581Rud": 6498,
  "\u2581TFEU": 6499,
  "\u2581gn\u00e9": 6500,
  "\u2581tiarna": 6501,
  "air\u00ed": 6502,
  "ke": 6503,
  "\u2581aer\u00e1ide": 6504,
  "\u2581discharged": 6505,
  "9/": 6506,
  "\u2581agriculture": 6507,
  "\u2581cruinn": 6508,
  "\u2581bat": 6509,
  "\u2581ch\u00faig": 6510,
  "\u2581opened": 6511,
  "\u2581strategic": 6512,
  "abhair": 6513,
  "\u2581Password": 6514,
  "\u2581Statement": 6515,
  "\u2581fast": 6516,
  "\u2581tUasal": 6517,
  "\u2581Level": 6518,
  "\u2581N\u00f3ta": 6519,
  "\u2581gcuireann": 6520,
  "\u2581networks": 6521,
  "\u2581scheduled": 6522,
  "\u2581s\u00e9ala": 6523,
  "4/": 6524,
  "\u2581dt\u00e9arma\u00ed": 6525,
  "\u2581feed": 6526,
  "\u2581north": 6527,
  "\u2581KB": 6528,
  "\u2581Top": 6529,
  "\u2581administered": 6530,
  "\u2581me\u00e1in": 6531,
  "\u2581season": 6532,
  "RA": 6533,
  "\u2581El": 6534,
  "\u2581ch\u00f3ip": 6535,
  "\u2581f\u00e1ilte": 6536,
  "\u2581Scoile": 6537,
  "\u2581ceal": 6538,
  "\u2581eagar": 6539,
  "faoi": 6540,
  "\u2581F\u00f3n": 6541,
  "\u2581Gospel": 6542,
  "\u2581d\u00edobh\u00e1il": 6543,
  "\u2581fh\u00edor\u00fa": 6544,
  "ick": 6545,
  "\u2581Assessment": 6546,
  "\u2581King": 6547,
  "\u2581S\u00edos": 6548,
  "\u2581polasa\u00ed": 6549,
  "uch": 6550,
  "\u2581Ma": 6551,
  "\u2581meast\u00f3ireacht": 6552,
  "f\u00ed": 6553,
  "\u2581appeals": 6554,
  "\u2581dates": 6555,
  "Do": 6556,
  "\u2581Po": 6557,
  "\u2581occupation": 6558,
  "\u2581sheachtain": 6559,
  "97": 6560,
  "\u2581107": 6561,
  "\u2581Foundation": 6562,
  "\u2581R\u00e1ta\u00ed": 6563,
  "\u2581carrier": 6564,
  "\u2581cd": 6565,
  "\u2581doubt": 6566,
  "\u2581iarrann": 6567,
  "house": 6568,
  "\u2581Advisory": 6569,
  "\u2581Saint": 6570,
  "\u2581Pa": 6571,
  "\u2581l\u00ednte": 6572,
  "\u2581phinsean": 6573,
  "\u2581press": 6574,
  "\u2581repair": 6575,
  "\u2581shol\u00e1thra\u00edonn": 6576,
  "\u00f3r": 6577,
  "\u2581Transfer": 6578,
  "\u2581bar\u00e1ntas": 6579,
  "\u2581easpa": 6580,
  "\u2581practitioner": 6581,
  "\u2581priorities": 6582,
  "pt": 6583,
  "\u2581fola": 6584,
  "\u2581lives": 6585,
  "\u2581phearsa": 6586,
  "\u2581\u00fanaer": 6587,
  ":14": 6588,
  "laws": 6589,
  "\u258132.": 6590,
  "\u2581EES": 6591,
  "\u2581comhdh\u00e9anta": 6592,
  "\u2581fhor": 6593,
  "\u2581host": 6594,
  "ov": 6595,
  "\u2581Persons": 6596,
  "\u2581collect": 6597,
  "\u2581path": 6598,
  "\u2581prevention": 6599,
  "\u2581Conditions": 6600,
  "embed": 6601,
  "\u2581Regional": 6602,
  "\u2581Rinne": 6603,
  "\u2581bainte": 6604,
  "\u2581rial\u00e1il": 6605,
  "\u2581saghas": 6606,
  "\u2581Ball": 6607,
  "\u2581Infheist\u00edochta": 6608,
  "\u2581MP": 6609,
  "\u2581allmhairi\u00fa": 6610,
  ":15": 6611,
  "\u25812007.": 6612,
  "\u2581Plugin": 6613,
  "\u2581dealt": 6614,
  "\u2581infheist\u00edocht": 6615,
  "\u2581ioml\u00e1ine": 6616,
  "\u2581oifig\u00ed": 6617,
  ".6": 6618,
  "iar": 6619,
  "\u2581105": 6620,
  "\u2581aquaculture": 6621,
  "\u2581b\u00e9im": 6622,
  "\u2581chugainn": 6623,
  "\u2581fight": 6624,
  "\u2581subjects": 6625,
  "\u2581widow": 6626,
  "\u2581Funds": 6627,
  "\u2581idirbheart": 6628,
  "\u2581renewable": 6629,
  "-8": 6630,
  "\u2581automatically": 6631,
  "ISO": 6632,
  "lam": 6633,
  "\u00e1lta": 6634,
  "\u2581(13)": 6635,
  "\u2581vocational": 6636,
  "chta": 6637,
  "\u2581(3": 6638,
  "\u25811955": 6639,
  "\u2581Filter": 6640,
  "\u2581cuireann": 6641,
  "\u2581managed": 6642,
  "\u2581m\u00edcheart": 6643,
  "\u2581possibility": 6644,
  "\u2581track": 6645,
  "\u2581Server": 6646,
  "\u2581Technical": 6647,
  "\u2581Week": 6648,
  "\u2581cl": 6649,
  "\u2581lie": 6650,
  "\u2581notes": 6651,
  "responsibilities": 6652,
  "\u258130.": 6653,
  "\u2581Ad": 6654,
  "\u2581Live": 6655,
  "\u2581developments": 6656,
  "\u2581getting": 6657,
  "\u2581luch": 6658,
  "\u2581modern": 6659,
  "\u2581\u00dadar": 6660,
  "board": 6661,
  "\u2581claimant": 6662,
  "\u2581won": 6663,
  "IR": 6664,
  "\u2581tenancy": 6665,
  "\u2581unable": 6666,
  "\u2581IO": 6667,
  "\u2581Park": 6668,
  "\u2581foghlaim": 6669,
  "\u2581imports": 6670,
  "\u2581late": 6671,
  "\u2581Cuarda": 6672,
  "\u2581monetary": 6673,
  "\u2581roinn": 6674,
  "To": 6675,
  "ana": 6676,
  "\u2581References": 6677,
  "\u2581marked": 6678,
  "\u2581morg\u00e1iste": 6679,
  "\u2581picture": 6680,
  "Imp": 6681,
  "\u2581employers": 6682,
  "\u2581t\u00f3g\u00e1il": 6683,
  "\u2581ur": 6684,
  "res": 6685,
  "\u2581Loading": 6686,
  "\u2581Teilif\u00edse": 6687,
  "\u2581enabling": 6688,
  "\u2581balla": 6689,
  "\u2581becoming": 6690,
  "\u2581po": 6691,
  "\u2581testing": 6692,
  "\u2581Reply": 6693,
  "\u2581rannph\u00e1irt\u00ed": 6694,
  "\u2581tu": 6695,
  "\u2581Seirbh\u00eds": 6696,
  "\u2581birth": 6697,
  "\u2581reach": 6698,
  "\u2581comhoibri\u00fa": 6699,
  "\u2581foirmeacha": 6700,
  "t\u00f3ir": 6701,
  "\u2581dead": 6702,
  "ns": 6703,
  "\u2581double": 6704,
  "\u2581taitneamh": 6705,
  "ally": 6706,
  "ionad": 6707,
  "\u25811985": 6708,
  "\u2581bhuis\u00e9ad": 6709,
  "\u2581samhail": 6710,
  "\u2581tr\u00e1chta": 6711,
  "\u2581Payments": 6712,
  "\u2581Sula": 6713,
  "\u2581executed": 6714,
  "\u2581generality": 6715,
  "\u2581base": 6716,
  "\u2581Menu": 6717,
  "\u2581Sha": 6718,
  "\u2581introduced": 6719,
  "ara": 6720,
  "\u2581David": 6721,
  "\u2581consumers": 6722,
  "\u2581shon": 6723,
  "sion": 6724,
  "\u2581gCoinbhinsi\u00fan": 6725,
  "\u2581iascach": 6726,
  "\u2581mionsonra\u00ed": 6727,
  ".4": 6728,
  "\u2581Brussels": 6729,
  "\u2581Supreme": 6730,
  "\u2581Treoracha": 6731,
  "\u2581cothabh\u00e1la": 6732,
  "\u2581pass": 6733,
  "\u2581foirgnimh": 6734,
  "\u2581incidental": 6735,
  "\u2581n\u00e1d\u00far": 6736,
  "\u2581vary": 6737,
  ".\u2019;": 6738,
  "ionn": 6739,
  "oibri\u00fa": 6740,
  "\u00f3fa\u00ed": 6741,
  "\u25811'": 6742,
  "\u2581Army": 6743,
  "\u2581occur": 6744,
  "\u2581submission": 6745,
  "eisi\u00faint": 6746,
  "\u25811948": 6747,
  "\u2581bliant\u00fala": 6748,
  "\u2581quickly": 6749,
  "\u2581t\u00e1scaire": 6750,
  "\u2581uait": 6751,
  "\u2581Comments": 6752,
  "\u2581Powers": 6753,
  "\u2581ceased": 6754,
  "\u2581communities": 6755,
  "\u2581contents": 6756,
  "\u2581marriage": 6757,
  "being": 6758,
  "\u2581Lucht": 6759,
  "\u2581affairs": 6760,
  "\u2581t\u00f3gadh": 6761,
  "\u2581breithe": 6762,
  "ey": 6763,
  "\u2581Breise\u00e1n": 6764,
  "\u2581Strait\u00e9is": 6765,
  "\u2581allocation": 6766,
  "\u2581p\u00e1ip\u00e9ir": 6767,
  "\u2581thos\u00fa": 6768,
  "\u2581\u00fas\u00e1ideadh": 6769,
  "\u2581cm": 6770,
  "\u2581seachtracha": 6771,
  "67": 6772,
  "az": 6773,
  "ja": 6774,
  "mhar": 6775,
  "ni\u00fa": 6776,
  "\u2581Line": 6777,
  "\u2581fol\u00fantas": 6778,
  "\u2581foot": 6779,
  "\u2581sitting": 6780,
  "l\u00ed": 6781,
  "\u2581allocated": 6782,
  "\u2581d\u00edosp\u00f3id": 6783,
  "\u2581normally": 6784,
  "\u2581saincheisteanna": 6785,
  "\u2581\u00b7": 6786,
  "\u2581Stamp": 6787,
  "\u2581bhia": 6788,
  "art": 6789,
  "nic": 6790,
  "\u2581born": 6791,
  "\u2581preliminary": 6792,
  "\u2581rang": 6793,
  "\u2581Age": 6794,
  "\u2581ISO": 6795,
  "\u2581broadcasting": 6796,
  "\u2581exercising": 6797,
  "\u2581\u00e9isc": 6798,
  "aibh": 6799,
  "c\u00e1in": 6800,
  "\u2581Comhphobal": 6801,
  "\u2581dTithe": 6802,
  "\u2581n\u00e1isi\u00fanach": 6803,
  "\u2581views": 6804,
  "ea": 6805,
  "\u2581Fraince": 6806,
  "\u2581fhoghlaim": 6807,
  "\u2581marga\u00ed": 6808,
  "oo": 6809,
  "\u25811949": 6810,
  "\u2581Good": 6811,
  "\u2581bun\u00fasach": 6812,
  "\u2581front": 6813,
  "\u2581positive": 6814,
  "\u2581thereupon": 6815,
  "aim": 6816,
  "\u2581Glan": 6817,
  "\u2581gairmi\u00fala": 6818,
  "\u2581household": 6819,
  "\u2581plain": 6820,
  "\u2581situated": 6821,
  "Iarscr\u00edbhinn": 6822,
  "\u2581Clear": 6823,
  "\u2581Value": 6824,
  "\u2581bhfaisn\u00e9is": 6825,
  "\u2581f\u00f3rsa\u00ed": 6826,
  "\u2581seirbh\u00edsigh": 6827,
  "\u2581sl": 6828,
  "\u2581\u00d3s": 6829,
  "\u2581discussion": 6830,
  "\u2581indirectly": 6831,
  "\u2581sit": 6832,
  "d\u00fa": 6833,
  "\u2581See": 6834,
  "\u2581bronntanas": 6835,
  "\u2581observations": 6836,
  "\u2581rann\u00edoca": 6837,
  "dd": 6838,
  "\u2581chomhlachta\u00ed": 6839,
  "\u2581Category": 6840,
  "\u2581Labour": 6841,
  "\u2581died": 6842,
  "\u2581liachta": 6843,
  "MH": 6844,
  "\u2581conveyance": 6845,
  "\u2581feedback": 6846,
  "\u2581fourth": 6847,
  "\u2581St\u00e1tchiste": 6848,
  "\u2581chigire": 6849,
  "\u2581Sraith": 6850,
  "\u2581tr\u00e1thanna": 6851,
  "62": 6852,
  "\u2581teagmh\u00e1la": 6853,
  "Mac": 6854,
  "\u25811976,": 6855,
  "\u2581Provided": 6856,
  "\u2581Uisce": 6857,
  "\u2581assess": 6858,
  "\u2581complex": 6859,
  "\u2581marc": 6860,
  "\u2581prove": 6861,
  "\u2581successful": 6862,
  "76": 6863,
  "su": 6864,
  "\u2581Legal": 6865,
  "\u2581faid": 6866,
  "\u2581height": 6867,
  "\u2581lean\u00fana": 6868,
  "\u2581Ben": 6869,
  "\u2581Domhnach": 6870,
  "\u2581Don": 6871,
  "\u2581communicate": 6872,
  "\u2581memo": 6873,
  "\u2581partners": 6874,
  "\u2581pending": 6875,
  "\u2581Eochair": 6876,
  "\u2581certification": 6877,
  "\u2581dt\u00edortha": 6878,
  "\u2581leictreachais": 6879,
  "\u2581therefor": 6880,
  "\u2581th\u00e9arma": 6881,
  "\u2581arrest": 6882,
  "\u2581caitheamh": 6883,
  "\u2581signs": 6884,
  "57": 6885,
  "ub": 6886,
  "\u2581Messages": 6887,
  "\u2581Taiwan": 6888,
  "\u2581bhforbairt": 6889,
  "\u2581imn\u00ed": 6890,
  "tach": 6891,
  "\u2581104": 6892,
  "\u25811951": 6893,
  "\u2581calls": 6894,
  "\u2581f\u00e1sta": 6895,
  "\u2581justified": 6896,
  "85": 6897,
  "oifigigh": 6898,
  "\u2581athch\u00f3iri\u00fa": 6899,
  "\u2581bh\u00e1s": 6900,
  "\u2581fi": 6901,
  "\u2581green": 6902,
  "\u2581ionada\u00edocht": 6903,
  "\u2581occupied": 6904,
  "pi": 6905,
  "qui": 6906,
  "ya": 6907,
  "\u00edoch": 6908,
  "\u2581Chuir": 6909,
  "\u2581copyright": 6910,
  "\u2581gratuity": 6911,
  "\u2581ithe": 6912,
  "\u25811911": 6913,
  "\u25811997,": 6914,
  "\u2581Comhaont\u00fa": 6915,
  "\u2581Uachtar\u00e1nacht": 6916,
  "\u2581bpr\u00f3iseas": 6917,
  "\u2581closed": 6918,
  "\u2581marbh": 6919,
  "\u2581polling": 6920,
  "\u2581probably": 6921,
  "\u2581store": 6922,
  "\u2581taisteal": 6923,
  "52": 6924,
  "Oifig": 6925,
  "\u2581123": 6926,
  "\u2581Collection": 6927,
  "\u2581Eagarth\u00f3ir": 6928,
  "\u2581bhfeidhmeanna": 6929,
  "\u2581contr\u00e1rtha": 6930,
  "\u2581Back": 6931,
  "\u2581Relief": 6932,
  "\u2581caithfidh": 6933,
  "\u2581chro\u00ed": 6934,
  "\u2581mainneachtain": 6935,
  "\u2581tascanna": 6936,
  "\u2581win": 6937,
  "\u2581Aonair": 6938,
  "\u2581gcaoi": 6939,
  "\u2581organic": 6940,
  "\u2581par": 6941,
  "\u2581si": 6942,
  "\u2581treo": 6943,
  "ler": 6944,
  "\u2581Class": 6945,
  "\u2581commitments": 6946,
  "\u2581fhorghn\u00edomh\u00fa": 6947,
  "\u2581Airgead": 6948,
  "\u2581Sweden": 6949,
  "\u2581cast": 6950,
  "\u2581bhforas": 6951,
  "\u2581emoluments": 6952,
  "\u2581ended": 6953,
  "\u2581increasing": 6954,
  "\u2581str": 6955,
  "\u2581teagaisc": 6956,
  "\u2581traidisi\u00fanta": 6957,
  "\u2581\u20ac2": 6958,
  "\u00f3in": 6959,
  "\u25812009,": 6960,
  "\u2581interpretation": 6961,
  "\u2581shuite\u00e1il": 6962,
  "l\u00f3idh": 6963,
  "\u2581domestic": 6964,
  "eir": 6965,
  "\u2581Author": 6966,
  "\u2581Insert": 6967,
  "\u2581Li\u00fantas": 6968,
  "\u2581Luxembourg": 6969,
  "\u2581phinsin": 6970,
  "yn": 6971,
  "\u2581Dheireadh": 6972,
  "\u2581Head": 6973,
  "\u2581R\u00e9igi\u00fan": 6974,
  "\u2581administrator": 6975,
  "\u2581lamp": 6976,
  "\u2581salmon": 6977,
  "\u25811920,": 6978,
  "\u2581indictment": 6979,
  "\u2581saincheaptha": 6980,
  "\u2581solution": 6981,
  "\u2581Mheirice\u00e1": 6982,
  "\u2581St\u00e1das": 6983,
  "\u2581fashion": 6984,
  "\u2581laghdaithe": 6985,
  "\u2581ni": 6986,
  "\u2581privileges": 6987,
  "ST": 6988,
  "\u2581Leibh\u00e9al": 6989,
  "\u2581translation": 6990,
  "\u2581truth": 6991,
  "\u2581Mara": 6992,
  "\u2581galair": 6993,
  "\u2581practical": 6994,
  "AIR": 6995,
  "\u2581CBS": 6996,
  "\u2581cut": 6997,
  "\u2581derived": 6998,
  "\u2581teagmh\u00e1lacha": 6999,
  "\u2581Cr\u00edost": 7000,
  "\u2581crutha\u00edodh": 7001,
  "\u2581reserve": 7002,
  "\u2581south": 7003,
  "\u2581\u00f3ige": 7004,
  "LE": 7005,
  "ean": 7006,
  "\u2581bainteach": 7007,
  "\u2581sugar": 7008,
  "\u201d;": 7009,
  "\u2581Call": 7010,
  "\u2581Electora": 7011,
  "\u2581Thr\u00e1cht": 7012,
  "\u2581adult": 7013,
  "\u2581compulsory": 7014,
  "\u2581ghinear\u00e1ltacht": 7015,
  "\u2581guarantees": 7016,
  "\u2581memorandum": 7017,
  "\u2581min": 7018,
  "\u2581Skip": 7019,
  "\u2581guidance": 7020,
  "ring": 7021,
  "tr\u00e9imhse": 7022,
  "\u2581+353": 7023,
  "\u25811924,": 7024,
  "\u2581dearmad": 7025,
  "\u2581dtagann": 7026,
  "\u2581leading": 7027,
  "\u2581permitted": 7028,
  "\u2581receives": 7029,
  "\u2581retain": 7030,
  "\u2581alternative": 7031,
  "\u2581dlighfear": 7032,
  "\u2581manage": 7033,
  "\u2581scaipeadh": 7034,
  "\u2581Primary": 7035,
  "\u2581ceol": 7036,
  "\u2581http": 7037,
  "\u2581Cabhair": 7038,
  "\u2581IMAP": 7039,
  "\u2581R\u00e1iteas": 7040,
  "\u2581exclusive": 7041,
  "\u2581pr\u00f3ise\u00e1il": 7042,
  "\u2581withdrawn": 7043,
  ":30": 7044,
  "SC": 7045,
  "oid": 7046,
  "\u2581Framework": 7047,
  "\u2581managing": 7048,
  "\u2581hamh\u00e1in": 7049,
  "\u2581highest": 7050,
  "\u2581lia": 7051,
  "Nua": 7052,
  "iz": 7053,
  "\u2581Log": 7054,
  "\u2581diseases": 7055,
  "\u2581entering": 7056,
  "\u2581insint": 7057,
  "\u2581monitor": 7058,
  "\u2581patient": 7059,
  "\u2581represented": 7060,
  "\u2581termination": 7061,
  "ics": 7062,
  "\u2581c\u00e1il\u00edochta\u00ed": 7063,
  "\u2581gcead\u00fanas": 7064,
  "\u2581gl\u00e9asra": 7065,
  "ogh": 7066,
  "\u2581annulling": 7067,
  "\u2581Chorca\u00ed": 7068,
  "\u2581bogadh": 7069,
  "\u2581calculation": 7070,
  "\u2581mh\u00edchumas": 7071,
  "\u2581supervision": 7072,
  "\u2581th\u00f3g": 7073,
  "98": 7074,
  "AS": 7075,
  "\u2581Ka": 7076,
  "\u2581designation": 7077,
  "\u2581thuairim": 7078,
  "\u2581hacmhainn\u00ed": 7079,
  "\u2581heagra\u00edochta\u00ed": 7080,
  "\u2581theicni\u00fala": 7081,
  "\u2581\u00f3ir": 7082,
  "41": 7083,
  ":16": 7084,
  "ock": 7085,
  "\u2581Acmhainn\u00ed": 7086,
  "\u2581Col": 7087,
  "\u2581Most": 7088,
  "\u2581d\u00edol\u00faint\u00ed": 7089,
  "\u2581pages": 7090,
  "\u2581phoist": 7091,
  "\u2581Pandora": 7092,
  "\u2581tagtha": 7093,
  "\u2581Toolbar": 7094,
  "\u2581chomhl\u00edonann": 7095,
  "\u2581chumainn": 7096,
  "\u2581estimated": 7097,
  "\u2581iasc": 7098,
  "\u2581proposes": 7099,
  "gn\u00edomhaireachta\u00ed": 7100,
  "\u258131.": 7101,
  "\u2581Lucsamburg": 7102,
  "\u2581agents": 7103,
  "\u2581mention": 7104,
  "ada": 7105,
  "martial": 7106,
  "\u2581AS": 7107,
  "\u2581Schools": 7108,
  "\u2581feiste": 7109,
  "\u2581fuinneamh": 7110,
  "\u2581funded": 7111,
  "\u2581traditional": 7112,
  "\u00fach\u00e1in": 7113,
  "\u2581Navigation": 7114,
  "\u2581Teip": 7115,
  "\u2581morning": 7116,
  "IP": 7117,
  "\u2581Royale": 7118,
  "\u2581assignment": 7119,
  "\u2581deposited": 7120,
  "\u2581engage": 7121,
  "\u2581f\u00e9ideartha": 7122,
  "\u2581129": 7123,
  "\u2581Netherlands": 7124,
  "\u2581bhfosta\u00edocht": 7125,
  "\u2581dialogue": 7126,
  "\u2581hath": 7127,
  "\u2581hionstraim\u00ed": 7128,
  "\u2581letters": 7129,
  "\u2581lists": 7130,
  "\u2581permanently": 7131,
  "\u2581sought": 7132,
  "neoidh": 7133,
  "\u2581cheili\u00faradh": 7134,
  "\u2581dr\u00e1ma\u00ed": 7135,
  "\u2581verification": 7136,
  "\u2581fuel": 7137,
  "\u2581sheilbh": 7138,
  "\u2581sometimes": 7139,
  "\u2581tailte": 7140,
  "\u2581L\u00edonra": 7141,
  "\u2581background": 7142,
  "\u2581reached": 7143,
  "\u2581Plean": 7144,
  "\u2581Seice\u00e1il": 7145,
  "\u2581log\u00e1nta": 7146,
  "\u2581seed": 7147,
  "\u2581theme": 7148,
  "\u2581Iar": 7149,
  "\u2581Se\u00e1n": 7150,
  "\u2581chor": 7151,
  "\u2581dramha\u00edola": 7152,
  "\u2581freastala\u00ed": 7153,
  "\u2581oibreoidh": 7154,
  "\u2581reply": 7155,
  "\u2581undertake": 7156,
  ":6": 7157,
  "bhunaithe": 7158,
  "\u2581106": 7159,
  "\u2581ch\u00farsa": 7160,
  "\u2581d\u00edlse\u00e1nach": 7161,
  "\u2581Foirm": 7162,
  "\u2581Resources": 7163,
  "t\u00f3ir\u00ed": 7164,
  "\u2581ghn\u00edomhaire": 7165,
  "\u2581g\u00e1s": 7166,
  "\u2581laeth\u00fail": 7167,
  "\u2581tras": 7168,
  "har": 7169,
  "\u2581Rith": 7170,
  "\u2581expiry": 7171,
  "\u2581olc": 7172,
  "\u2581skin": 7173,
  "red": 7174,
  "\u2581cheachtar": 7175,
  "\u2581chumann": 7176,
  "\u2581dividend": 7177,
  "\u2581extra": 7178,
  "\u2581rannchuidi\u00fa": 7179,
  "\u2581socraithe": 7180,
  "ability": 7181,
  "\u2581apparatus": 7182,
  "\u2581comhartha": 7183,
  "\u2581conartha": 7184,
  "\u2581owners": 7185,
  "\u2581saor\u00e1nach": 7186,
  "e\u00e1n": 7187,
  "\u2581Arm": 7188,
  "\u2581buid\u00e9al": 7189,
  "\u2581chorpar\u00e1ide": 7190,
  "\u2581comhth\u00e9acs": 7191,
  "\u00e9irigh": 7192,
  "\u2581Bh\u00f3ithre": 7193,
  "\u2581Chomhdh\u00e1il": 7194,
  "\u2581uathu": 7195,
  "13": 7196,
  "Abr\u00e1n": 7197,
  "country": 7198,
  "\u2581boat": 7199,
  "\u2581ro": 7200,
  "\u2581update": 7201,
  "EL": 7202,
  "\u2581Benefit": 7203,
  "\u2581Bhinse": 7204,
  "\u2581ch\u00farsa\u00ed": 7205,
  "\u2581expedient": 7206,
  "\u2581h\u00edoca\u00edochta\u00ed": 7207,
  "\u2581sun": 7208,
  "2009": 7209,
  "\u2581Emergency": 7210,
  "\u2581businesses": 7211,
  "\u2581carries": 7212,
  "\u2581everyone": 7213,
  "\u2581f\u00edon": 7214,
  "\u2581licensee": 7215,
  "\u2581nGaeilge": 7216,
  "\u2581photos": 7217,
  "\u2581represent": 7218,
  "tr\u00ed": 7219,
  "\u2581121": 7220,
  "\u2581Italian": 7221,
  "\u2581ch\u00e1il\u00edocht": 7222,
  "\u2581resource": 7223,
  "\u2581supports": 7224,
  "\u2581tarraingt": 7225,
  "\u2581Minutes": 7226,
  "\u2581mh\u00e9adar": 7227,
  "\u2581oath": 7228,
  "\u2581sampla\u00ed": 7229,
  "\u2581shop": 7230,
  "cc": 7231,
  "\u2581meas\u00fanacht": 7232,
  "\u2581specifying": 7233,
  "mi": 7234,
  "\u2581Task": 7235,
  "\u2581characters": 7236,
  "\u2581holiday": 7237,
  "\u2581\u00fadaruithe": 7238,
  "99": 7239,
  "ised": 7240,
  "\u2581ng": 7241,
  "\u2581srl": 7242,
  "\u2581thomas": 7243,
  "\u2581\u00b0": 7244,
  ".7.": 7245,
  "\u2581Ordinary": 7246,
  "\u2581Thursday": 7247,
  "\u2581clothing": 7248,
  "\u2581moment": 7249,
  "\u2581Teicneola\u00edochta": 7250,
  "\u2581cothabh\u00e1il": 7251,
  "\u2581opinions": 7252,
  ":7": 7253,
  "my": 7254,
  "\u2581Sceidil": 7255,
  "\u2581ceantair": 7256,
  "\u2581t\u00f3gtha": 7257,
  "\u25812009.": 7258,
  "\u2581Credit": 7259,
  "\u2581Design": 7260,
  "\u2581resignation": 7261,
  "\u2581transitional": 7262,
  "51": 7263,
  "7:": 7264,
  ":9": 7265,
  "\u2581St\u00edl": 7266,
  "\u2581aicm\u00ed": 7267,
  "\u2581gCl\u00e1r": 7268,
  "\u2581lodged": 7269,
  "\u2581multiple": 7270,
  "\u2581restriction": 7271,
  "\u2581\u00fas\u00e1ideach": 7272,
  "2011": 7273,
  "ek": 7274,
  "ionann": 7275,
  "list": 7276,
  "side": 7277,
  "\u2581ca": 7278,
  "\u2581classified": 7279,
  "\u2581decides": 7280,
  "\u2581digital": 7281,
  "\u2581ge": 7282,
  "\u2581manufactured": 7283,
  "\u2581phraghas": 7284,
  "\u2581refused": 7285,
  "4.": 7286,
  "der": 7287,
  "ious": 7288,
  "\u2581Costais\u00ed": 7289,
  "\u2581Directors": 7290,
  "\u2581excluding": 7291,
  "\u2581fonn": 7292,
  "\u2581gco": 7293,
  "\u2581sexual": 7294,
  "78": 7295,
  "act": 7296,
  "read": 7297,
  "\u2581Medical": 7298,
  "\u2581Officers": 7299,
  "\u2581door": 7300,
  "\u2581Many": 7301,
  "\u2581cheanglais": 7302,
  "\u2581inphinsin": 7303,
  "\u2581jointly": 7304,
  "\u2581subsequently": 7305,
  ":8": 7306,
  "set": 7307,
  "\u25811919,": 7308,
  "\u2581Deontais": 7309,
  "\u2581referendum": 7310,
  "\u2581thr\u00ed\u00fa": 7311,
  "aidh": 7312,
  "\u25813:": 7313,
  "\u2581Contacts": 7314,
  "\u2581Stop": 7315,
  "\u2581fiosr\u00fach\u00e1n": 7316,
  "\u2581tuarastail": 7317,
  "\u2581winding": 7318,
  "\u2581gh\u00e1": 7319,
  "\u2581navigation": 7320,
  "Edit": 7321,
  "TORS": 7322,
  "\u2581Sp": 7323,
  "\u2581challenges": 7324,
  "\u2581gcumas": 7325,
  "\u2581motion": 7326,
  "\u2581p\u00f3sta": 7327,
  ".10": 7328,
  "\u2581DO": 7329,
  "\u2581Inter": 7330,
  "\u2581bheartais": 7331,
  "\u2581connect": 7332,
  "\u2581dtugann": 7333,
  "\u2581involving": 7334,
  "77": 7335,
  "ms": 7336,
  "\u00fain\u00e9ir": 7337,
  "\u2581Faire": 7338,
  "\u2581Tuairisc": 7339,
  "\u2581elections": 7340,
  "\u2581incorporated": 7341,
  "\u2581machine": 7342,
  "ilte": 7343,
  "\u2581103": 7344,
  "\u2581Catag\u00f3ir": 7345,
  "\u00e9in": 7346,
  "\u2581Caibidle": 7347,
  "\u2581bp\u00e1irt": 7348,
  "\u2581hiarratais": 7349,
  "\u2581Pet": 7350,
  "\u2581grianghraif": 7351,
  "\u2581leanfar": 7352,
  "\u2581stored": 7353,
  "\u2581uathoibr\u00edoch": 7354,
  "\u2581138": 7355,
  "\u2581TRANS": 7356,
  "\u2581leanann": 7357,
  "aint": 7358,
  "language": 7359,
  "nta": 7360,
  "\u2581Cor": 7361,
  "\u2581perfect": 7362,
  "\u2581transmitted": 7363,
  "2)": 7364,
  "\u2581Building": 7365,
  "\u2581Old": 7366,
  "\u2581eipeas\u00f3id": 7367,
  "68": 7368,
  "oibrithe": 7369,
  "\u2581thig": 7370,
  "ige": 7371,
  "\u2581Chl\u00e1ir": 7372,
  "\u2581Kerry": 7373,
  "\u2581concern": 7374,
  "\u2581mbaol": 7375,
  "\u2581meastar": 7376,
  "\u2581representation": 7377,
  "\u2581tugann": 7378,
  ".30": 7379,
  "l\u00e1n": 7380,
  "}": 7381,
  "\u00fadar\u00e1is": 7382,
  "\u2581140": 7383,
  "\u2581interview": 7384,
  "\u2581providers": 7385,
  "\u00e1l": 7386,
  "\u2581Inscne": 7387,
  "\u2581comhlachais": 7388,
  "\u2581factors": 7389,
  "\u2581propelled": 7390,
  "Miscellaneous": 7391,
  "sha": 7392,
  "\u00e9ag": 7393,
  "\u2581Colour": 7394,
  "\u2581Format": 7395,
  "\u2581meamram": 7396,
  "\u2581submissions": 7397,
  "\u2581\u201c%": 7398,
  "Part": 7399,
  "\u2581luadh": 7400,
  "\u2581postal": 7401,
  "\u2581siopa": 7402,
  "n\u00e1": 7403,
  "\u2581Payment": 7404,
  "\u2581banc": 7405,
  "\u2581remote": 7406,
  "\u2581seisi\u00fan": 7407,
  "TE": 7408,
  "\u00e9il": 7409,
  "\u2581Ions\u00e1igh": 7410,
  "\u2581announced": 7411,
  "\u2581bear": 7412,
  "\u2581lack": 7413,
  "\u2581wear": 7414,
  "\u2581fhiach": 7415,
  "\u2581fhionra\u00ed": 7416,
  "\u2581oral": 7417,
  "\u2581tromch\u00faiseach": 7418,
  "\u2581voice": 7419,
  "ios": 7420,
  "nc": 7421,
  "\u2581Green": 7422,
  "\u2581Mode": 7423,
  "\u2581bpr\u00edomh": 7424,
  "\u2581carr": 7425,
  "\u2581empty": 7426,
  "\u2581feasta": 7427,
  "\u2581fhaightear": 7428,
  "\u2581sular": 7429,
  "\u2581university": 7430,
  "\u2581Bra": 7431,
  "\u2581Cartlann": 7432,
  "\u2581science": 7433,
  "\u2581ualach": 7434,
  "\u2581\u20ac3": 7435,
  "\u2581Beo": 7436,
  "\u2581Son": 7437,
  "\u2581chathair": 7438,
  "\u2581drug": 7439,
  "\u2581gcomhaont\u00fa": 7440,
  "\u2581gruaige": 7441,
  "\u2581religion": 7442,
  "\u2581specifications": 7443,
  "\u2581substantial": 7444,
  "\u2581Enterprise": 7445,
  "\u2581attach": 7446,
  "\u2581deartha": 7447,
  "europa": 7448,
  "han": 7449,
  "\u2581bhfuirm": 7450,
  "\u2581earnings": 7451,
  "\u2581gov": 7452,
  "\u2581rabhadh": 7453,
  "\u2581fraud": 7454,
  "\u2581holders": 7455,
  "\u2581legit": 7456,
  "\u2581\u00e9ifeacht\u00falacht": 7457,
  "ker": 7458,
  "\u2581Dh\u00e1il": 7459,
  "\u2581ceannaigh": 7460,
  "\u2581customer": 7461,
  "\u2581sets": 7462,
  "\u2581tried": 7463,
  "\u2581cheannas": 7464,
  "\u2581chuardach": 7465,
  "\u2581tairbh\u00ed": 7466,
  "\u2581thoirmeasc": 7467,
  "\u2581Bhanc": 7468,
  "\u2581Museum": 7469,
  "\u2581aont\u00fa": 7470,
  "\u2581combination": 7471,
  "\u2581continuous": 7472,
  "ations": 7473,
  "car": 7474,
  "\u2581(2)(": 7475,
  "\u25810.": 7476,
  "\u2581Idirl\u00edon": 7477,
  "\u2581anti": 7478,
  "\u2581destination": 7479,
  "\u2581fhosta\u00ed": 7480,
  "\u2581forth": 7481,
  "\u2581hot": 7482,
  "\u2581showing": 7483,
  "card": 7484,
  "ria": 7485,
  "\u2581Nach": 7486,
  "\u2581bus": 7487,
  "\u2581complainant": 7488,
  "\u2581heading": 7489,
  "\u2581maintaining": 7490,
  "\u25811998,": 7491,
  "\u2581Bhealtaine": 7492,
  "\u2581Che": 7493,
  "\u2581Fe": 7494,
  "\u2581Thomas": 7495,
  "\u2581Thug": 7496,
  "\u2581campaign": 7497,
  "\u2581chl\u00e9": 7498,
  "\u2581girl": 7499,
  "\u2581hathruithe": 7500,
  "\u2581smaointe": 7501,
  "eal": 7502,
  "kan": 7503,
  "rian": 7504,
  "\u2581Holy": 7505,
  "\u2581admh\u00e1il": 7506,
  "\u2581chucu": 7507,
  "\u2581foghlama": 7508,
  "\u2581summer": 7509,
  "-2": 7510,
  "European": 7511,
  "cra": 7512,
  "qu": 7513,
  "\u2581chomhad": 7514,
  "\u2581petition": 7515,
  "\u2581tiom\u00e1na": 7516,
  "len": 7517,
  "\u2581Limerick": 7518,
  "\u2581Student": 7519,
  "\u2581borders": 7520,
  "\u2581chomhaid": 7521,
  "\u2581\u00far": 7522,
  "CC": 7523,
  "\u2581Tascanna": 7524,
  "\u2581proceeds": 7525,
  "\u2581shibhialta": 7526,
  "\u2581tarchur": 7527,
  "\u2581ch\u00faiseanna": 7528,
  "\u2581exceptional": 7529,
  "\u2581innealra": 7530,
  "\u2581regularly": 7531,
  "\u2581tArd": 7532,
  "\u2581tharmligean": 7533,
  "Na": 7534,
  "achas": 7535,
  "\u00e1s": 7536,
  "\u2581Barbour": 7537,
  "\u2581Choinbhinsi\u00fain": 7538,
  "\u2581Isteach": 7539,
  "\u2581confirm": 7540,
  "\u2581creideamh": 7541,
  "\u2581cuimhne": 7542,
  "\u2581h\u00e9ifeachtach": 7543,
  "\u2581roghnaigh": 7544,
  "\u2581Rural": 7545,
  "\u2581Two": 7546,
  "\u2581chustaim": 7547,
  "\u2581dheas": 7548,
  "\u2581divided": 7549,
  "\u2581sonra\u00edtear": 7550,
  "\u2581'%1": 7551,
  "\u2581CH": 7552,
  "\u2581Domhnaigh": 7553,
  "\u2581Teachers": 7554,
  "\u2581chomhar": 7555,
  "\u2581amharc": 7556,
  "\u2581clinical": 7557,
  "\u2581daonra": 7558,
  "\u2581debtor": 7559,
  "2016": 7560,
  "Open": 7561,
  "PS": 7562,
  "cm": 7563,
  "reas": 7564,
  "\u2581108": 7565,
  "\u2581Thar": 7566,
  "\u2581Th\u00e1inig": 7567,
  "\u2581d\u00edri\u00fa": 7568,
  "\u2581farmers": 7569,
  "\u2581mhionn": 7570,
  "\u2581puibl\u00ed": 7571,
  "cy": 7572,
  "ists": 7573,
  "low": 7574,
  "ments": 7575,
  "\u2581Lean\u00faint": 7576,
  "\u2581ancillary": 7577,
  "\u2581college": 7578,
  "Next": 7579,
  "chomh": 7580,
  "\u2581Aonad": 7581,
  "\u2581bh\u00e9arfar": 7582,
  "\u2581butter": 7583,
  "\u2581crime": 7584,
  "\u2581Lu": 7585,
  "\u2581Luain": 7586,
  "\u2581bhainc": 7587,
  "\u2581gcoime\u00e1d": 7588,
  "\u2581reserved": 7589,
  "ks": 7590,
  "\u2581182/2011": 7591,
  "\u2581Mu": 7592,
  "\u2581computing": 7593,
  "\u2581conference": 7594,
  "\u2581cro\u00ed": 7595,
  "\u2581immediate": 7596,
  "\u2581pensionable": 7597,
  ".4.": 7598,
  "ach\u00e1in": 7599,
  "\u2581372": 7600,
  "\u2581Mh\u00ed": 7601,
  "\u2581TEC": 7602,
  "\u2581formh\u00f3r": 7603,
  "\u2581rite": 7604,
  "\u2581scilling": 7605,
  "bit": 7606,
  "\u2581(\u2018": 7607,
  "\u2581Chairt": 7608,
  "\u2581h\u00e9ifeacht": 7609,
  "\u2581instance": 7610,
  "\u2581ph\u00e1irt": 7611,
  "ka": 7612,
  "vers": 7613,
  "\u2581Long": 7614,
  "\u2581gn\u00f3chan": 7615,
  "\u2581mobile": 7616,
  "\u2581released": 7617,
  "\u2581TAR": 7618,
  "\u2581chomhl\u00e1n\u00fa": 7619,
  "\u2581gealltanas": 7620,
  "34": 7621,
  "\u2581Ailt": 7622,
  "\u2581br\u00fa": 7623,
  "\u2581liosta\u00edtear": 7624,
  "Size": 7625,
  "imeachta\u00ed": 7626,
  "\u25812008.": 7627,
  "\u2581Also": 7628,
  "\u2581Strasbourg": 7629,
  "\u2581damages": 7630,
  "\u2581dtosach": 7631,
  "\u2581ioml\u00e1na": 7632,
  "\u2581mutual": 7633,
  "\u2581operative": 7634,
  "inse": 7635,
  "ko": 7636,
  "\u2581Money": 7637,
  "\u2581PRO": 7638,
  "\u2581Saturday": 7639,
  "\u2581bhfios": 7640,
  "\u2581c\u00faraim": 7641,
  "\u2581et": 7642,
  "\u2581organised": 7643,
  "\u2581preparing": 7644,
  "pp": 7645,
  "\u2581Cross": 7646,
  "\u2581Star": 7647,
  "\u2581astu": 7648,
  "\u2581citizen": 7649,
  "\u2581exported": 7650,
  "\u2581round": 7651,
  "naithe": 7652,
  "old": 7653,
  "\u2581Eola\u00edochta": 7654,
  "\u2581P\u00e1draig": 7655,
  "\u2581beneficial": 7656,
  "\u2581driver": 7657,
  "\u2581maille": 7658,
  "\u2581mechanically": 7659,
  "\u2581tube": 7660,
  "\u2581114": 7661,
  "\u2581NBA": 7662,
  "\u2581airgeada\u00edochta": 7663,
  "\u2581belonging": 7664,
  "\u2581east\u00e1it": 7665,
  "\u2581ghn\u00e9": 7666,
  "\u2581m\u00e1istir": 7667,
  "\u2581recording": 7668,
  "\u2581\u00e9agtha": 7669,
  ".12.": 7670,
  ":17": 7671,
  "gal": 7672,
  "\u2581app": 7673,
  "\u2581aware": 7674,
  "\u2581figures": 7675,
  ":18": 7676,
  "loingseoireachta": 7677,
  "\u2581PDF": 7678,
  "\u2581dathanna": 7679,
  "\u2581ho": 7680,
  "\u2581nd\u00e9anfadh": 7681,
  "(4),": 7682,
  "2008": 7683,
  "ney": 7684,
  "\u2581begin": 7685,
  "\u2581marks": 7686,
  "92": 7687,
  "\u2581Electricity": 7688,
  "\u2581Final": 7689,
  "\u2581chomhshaoil": 7690,
  "\u2581governed": 7691,
  "(8)": 7692,
  "\u2019)": 7693,
  "\u2581Connectable": 7694,
  "\u2581Lae": 7695,
  "\u2581chabhair": 7696,
  "\u2581detained": 7697,
  "\u2581express": 7698,
  "\u2581formed": 7699,
  "Add": 7700,
  "leas": 7701,
  "nu": 7702,
  "\u2581Assistance": 7703,
  "\u2581Muslims": 7704,
  "\u2581aire": 7705,
  "\u2581eat": 7706,
  "\u2581\u0e00": 7707,
  "chair": 7708,
  "\u00e9id": 7709,
  "\u258134.": 7710,
  "\u2581Caipiti\u00fail": 7711,
  "\u2581Sp\u00f3irt": 7712,
  "\u2581chuici": 7713,
  "\u2581cl\u00e1r\u00fach\u00e1in": 7714,
  "\u2581filled": 7715,
  "\u2581int\u00edre": 7716,
  "\u2581positions": 7717,
  "\u2581theoranta": 7718,
  "43": 7719,
  "fo": 7720,
  "\u2581Gearr": 7721,
  "\u2581comhord\u00fa": 7722,
  "\u2581fiach": 7723,
  "\u2581launched": 7724,
  "\u2581litreacha": 7725,
  "\u2581tomhalt\u00f3ir\u00ed": 7726,
  "\u2581bears": 7727,
  "\u2581ch\u00e1ilitheach": 7728,
  "\u2581ch\u00e1is": 7729,
  "\u2581cumars\u00e1id": 7730,
  "\u2581gcoinnibh": 7731,
  "\u2581launch": 7732,
  "2005": 7733,
  "tur": 7734,
  "\u2581Main": 7735,
  "\u2581aims": 7736,
  "\u2581leasmhara": 7737,
  "\u2581\u00e9il\u00edonn": 7738,
  "Co": 7739,
  "sk": 7740,
  "\u2581Cl": 7741,
  "\u2581Leictreachais": 7742,
  "\u2581effectively": 7743,
  "\u2581featured": 7744,
  "\u2581gl\u00e9as": 7745,
  "\u2581neamhdhleathach": 7746,
  "\u2581player": 7747,
  "\u2581thuairisc": 7748,
  "\u2581\u00c1ir\u00edtear": 7749,
  "\u2581Mheirice\u00e1nach": 7750,
  "\u2581fat": 7751,
  "\u2581returned": 7752,
  "\u2581suime": 7753,
  "\u2581youth": 7754,
  "\u258133.": 7755,
  "\u2581Notice": 7756,
  "\u2581fa": 7757,
  "\u2581fulfilled": 7758,
  "\u2581\u00fas\u00e1idfear": 7759,
  "ME": 7760,
  "\u2581Crop": 7761,
  "\u2581Ru": 7762,
  "\u2581author": 7763,
  "\u2581browser": 7764,
  "\u2581chorp": 7765,
  "\u2581haois": 7766,
  "iam": 7767,
  "pdf": 7768,
  "world": 7769,
  "\u25812014,": 7770,
  "\u2581D\u00e9ardaoin": 7771,
  "\u2581Paris": 7772,
  "\u2581athair": 7773,
  "\u2581molta": 7774,
  "\u2581sanction": 7775,
  "\u2581\u00e1ir\u00edtear": 7776,
  "\u2581accessible": 7777,
  "\u2581bheart": 7778,
  "\u2581costais\u00ed": 7779,
  "\u2581mechanism": 7780,
  "\u2581representations": 7781,
  "\u2581specification": 7782,
  "ime": 7783,
  "\u2581Cu": 7784,
  "\u2581expert": 7785,
  "\u2581phr\u00edobh\u00e1ideach": 7786,
  "\u2581script": 7787,
  "\u2581survey": 7788,
  "\u2581Preferences": 7789,
  "\u2581Reserve": 7790,
  "\u2581bhfuiltear": 7791,
  "\u2581printed": 7792,
  "\u2581tha": 7793,
  "\u2581initiatives": 7794,
  "\u2581phunt": 7795,
  "\u2581scr\u00faduithe": 7796,
  "\u2581thiom\u00e1int": 7797,
  "\u2581wound": 7798,
  "US": 7799,
  "uir": 7800,
  "\u25812008,": 7801,
  "\u2581Di": 7802,
  "\u2581Form\u00e1id": 7803,
  "\u2581ago": 7804,
  "\u2581comhth\u00e1ite": 7805,
  "\u2581c\u00e1rta\u00ed": 7806,
  "\u2581staitistic\u00ed": 7807,
  "-10": 7808,
  "\u2581achievement": 7809,
  "\u2581cairde": 7810,
  "\u2581ceangailte": 7811,
  "\u2581punishment": 7812,
  "\u2581talk": 7813,
  "\u2581vi": 7814,
  "bu": 7815,
  "\u2581Fourth": 7816,
  "\u2581Pe": 7817,
  "\u2581approve": 7818,
  "\u2581dian": 7819,
  "\u2581investigations": 7820,
  "\u2581schedule": 7821,
  "\u2581told": 7822,
  "\u2581R\u00edomhphoist": 7823,
  "\u2581Spain": 7824,
  "\u2581arises": 7825,
  "\u2581attributable": 7826,
  "\u2581bre\u00e1": 7827,
  "\u2581covering": 7828,
  "\u2581determines": 7829,
  "\u2581d\u00e9ile\u00e1lfar": 7830,
  "\u2581supplies": 7831,
  "AC": 7832,
  "liosta": 7833,
  "\u2581Instance": 7834,
  "\u2581airteagal": 7835,
  "\u2581attendance": 7836,
  "\u2581creidi\u00fanaithe": 7837,
  "\u2581enhance": 7838,
  "\u2581silver": 7839,
  "\u2581unity": 7840,
  "aicme": 7841,
  "\u2581Moncler": 7842,
  "\u2581M\u00e9ad\u00fa": 7843,
  "\u2581cards": 7844,
  "\u2581ciorcail": 7845,
  "\u2581mass": 7846,
  "\u2581oibreoir\u00ed": 7847,
  "\u2581retail": 7848,
  "\u2581EML": 7849,
  "\u2581comhl\u00edonta": 7850,
  "100": 7851,
  "\u2581Rinneadh": 7852,
  "\u2581d\u00edolach\u00e1in": 7853,
  "\u2581geographical": 7854,
  "\u2581shealbh\u00f3ir": 7855,
  "eoir\u00ed": 7856,
  "\u2581Il": 7857,
  "\u2581asta\u00edochta\u00ed": 7858,
  "\u2581hoibr\u00edochta\u00ed": 7859,
  "\u2581recommended": 7860,
  "\u2581Marc\u00e1il": 7861,
  "\u2581annum": 7862,
  "\u2581century": 7863,
  "\u2581fh\u00f3gairt": 7864,
  "\u2581malart\u00fa": 7865,
  "\u2581seans": 7866,
  "\u2581sl\u00e1nd\u00e1il": 7867,
  "lar": 7868,
  "\u2581Gregor": 7869,
  "\u2581Scoir": 7870,
  "\u2581Sl\u00e1nd\u00e1la": 7871,
  "\u2581adhmaid": 7872,
  "\u2581aitheantais": 7873,
  "\u2581cirt": 7874,
  "\u2581d\u00edch\u00e1ilithe": 7875,
  "\u2581f\u00e1": 7876,
  "\u2581opposite": 7877,
  "\u2581owned": 7878,
  "\u2581presentation": 7879,
  "\u2581shared": 7880,
  "\u2581symbol": 7881,
  "\u2581uirbeach": 7882,
  "194": 7883,
  "\u2581Appeals": 7884,
  "\u2581m\u00f3d": 7885,
  "\u2581simply": 7886,
  "\u2581\u00d3n": 7887,
  "\u2581Pinsin": 7888,
  "\u2581Tournament": 7889,
  "\u2581creditor": 7890,
  "\u2581generation": 7891,
  "\u201d\u201d": 7892,
  "\u25811916": 7893,
  "\u2581Pension": 7894,
  "\u2581R\u00e9amh": 7895,
  "\u2581ceathr\u00fa": 7896,
  "\u2581configuration": 7897,
  "\u2581revision": 7898,
  "\u2581troid": 7899,
  "obair": 7900,
  "str": 7901,
  "\u2581Android": 7902,
  "\u2581Her": 7903,
  "\u2581Ibn": 7904,
  "\u2581Italy": 7905,
  "ET": 7906,
  "\u2581112": 7907,
  "\u25811943": 7908,
  "\u2581Movie": 7909,
  "\u2581Offices": 7910,
  "\u2581admission": 7911,
  "\u2581mh\u00edle": 7912,
  "mh\u00e9id": 7913,
  "phost": 7914,
  "ue": 7915,
  "\u2581Zoom": 7916,
  "\u2581dis": 7917,
  "\u2581excluded": 7918,
  "\u2581t\u00e1bhachta\u00ed": 7919,
  "but": 7920,
  "orl\u00e9ireofar": 7921,
  "\u2581P\u00e1irtithe": 7922,
  "\u2581eachtrach": 7923,
  "\u2581eisi\u00fana": 7924,
  "\u2581tS": 7925,
  "\u2581Russian": 7926,
  "\u2581anyone": 7927,
  "\u2581cruth\u00fa": 7928,
  "\u2581hit": 7929,
  "\u2581shaothr\u00fa": 7930,
  "\u2581thuismitheoir\u00ed": 7931,
  "Irish": 7932,
  "\u00e9is": 7933,
  "\u25817,": 7934,
  "\u2581Danmhairg": 7935,
  "\u2581Tag": 7936,
  "\u2581finds": 7937,
  "\u2581marga\u00edochta": 7938,
  "\u2581selling": 7939,
  "\u2581situations": 7940,
  "\u2581uisc\u00ed": 7941,
  "\u2581\u00c1r": 7942,
  "\u2581Offences": 7943,
  "\u2581constructed": 7944,
  "\u2581tosaithe": 7945,
  "\u2581Gaelscoil": 7946,
  "\u2581Tagann": 7947,
  "\u2581applicants": 7948,
  "\u2581bua": 7949,
  "\u2581flag": 7950,
  "\u2581fochuideachta": 7951,
  ":20": 7952,
  "oideachas": 7953,
  "\u2581Tuarastail": 7954,
  "\u2581ban": 7955,
  "\u2581religious": 7956,
  "\u2581spirit": 7957,
  "\u2581Big": 7958,
  "\u2581Faoin": 7959,
  "\u2581causes": 7960,
  "\u2581dheiridh": 7961,
  "\u2581druga\u00ed": 7962,
  "\u2581improving": 7963,
  "\u2581teangacha": 7964,
  "\u2581\u00e1ititheoir": 7965,
  "ainn": 7966,
  "related": 7967,
  "rit": 7968,
  "\u2581Communications": 7969,
  "\u2581NFL": 7970,
  "\u2581Ros": 7971,
  "\u2581UNION": 7972,
  "\u2581beneficiary": 7973,
  "\u2581cail\u00edn": 7974,
  "\u2581fhreagra": 7975,
  "\u2581figure": 7976,
  "\u2581pm": 7977,
  "\u2581reported": 7978,
  "DE": 7979,
  "ev": 7980,
  "kin": 7981,
  "\u2581bosca": 7982,
  "\u2581break": 7983,
  "\u2581creating": 7984,
  "\u2581diamonds": 7985,
  "\u2581gairm": 7986,
  "42": 7987,
  "D\u00e9anfar": 7988,
  "ini\u00fachadh": 7989,
  "\u2581conclusion": 7990,
  "\u2581inghlactha": 7991,
  "van": 7992,
  "\u2581Im": 7993,
  "\u2581Mhic": 7994,
  "\u2581gaolmhara": 7995,
  "\u2581gu\u00ed": 7996,
  "\u2581rich": 7997,
  "-18": 7998,
  ".6.": 7999,
  "91": 8000,
  "\u2581Arna": 8001,
  "\u2581Chol\u00e1iste": 8002,
  "\u2581Color": 8003,
  "\u2581d\u00edot\u00e1il": 8004,
  "\u2581input": 8005,
  "\u2581oibr\u00edocht\u00fail": 8006,
  "\u2581ph\u00e9int\u00e9ireacht": 8007,
  "://": 8008,
  "ioml\u00e1n": 8009,
  "\u25812006.": 8010,
  "\u2581Domhanda": 8011,
  "\u2581Faisn\u00e9is": 8012,
  "\u2581bainfidh": 8013,
  "\u00f3dh": 8014,
  "\u2581CCE": 8015,
  "\u2581Ola": 8016,
  "\u2581Terms": 8017,
  "\u2581cheithre": 8018,
  "\u2581efforts": 8019,
  "\u2581\u00e9igeantach": 8020,
  "0/": 8021,
  "vin": 8022,
  "\u2581Merlinlx": 8023,
  "\u2581complies": 8024,
  "\u2581feitheamh": 8025,
  "\u2581ioma\u00edocht": 8026,
  "\u2581stakeholders": 8027,
  "\u2581\u00e1iti\u00fa": 8028,
  "BH": 8029,
  "char": 8030,
  "gi": 8031,
  "unit": 8032,
  "\u258102": 8033,
  "\u2581Imeachta": 8034,
  "\u2581Wednesday": 8035,
  "\u2581cumainn": 8036,
  "\u2581maidin": 8037,
  "\u2581patterns": 8038,
  "ki": 8039,
  "mu": 8040,
  "work": 8041,
  "\u2581Western": 8042,
  "\u2581Within": 8043,
  "\u2581appropriations": 8044,
  "\u2581casta": 8045,
  "\u2581hiarratas": 8046,
  "\u2581instituted": 8047,
  "\u2581mis": 8048,
  "\u2581playing": 8049,
  "\u2581seice\u00e1lacha": 8050,
  "\u2581withdrawal": 8051,
  "79": 8052,
  "\u2581Fillte\u00e1in": 8053,
  "\u2581Languages": 8054,
  "\u2581Non": 8055,
  "\u2581Per": 8056,
  "\u2581Total": 8057,
  "\u2581bit": 8058,
  "\u2581equality": 8059,
  "\u2581exclusion": 8060,
  "\u2581river": 8061,
  "\u2581sense": 8062,
  "ative": 8063,
  "\u2581MA": 8064,
  "\u2581Sunnah": 8065,
  "\u2581arise": 8066,
  "\u2581cycle": 8067,
  "\u2581discount": 8068,
  "\u2581fide": 8069,
  "\u2581finally": 8070,
  "\u2581huge": 8071,
  "\u2581seachtaini\u00fail": 8072,
  "\u2581temporarily": 8073,
  "\u2581withdraw": 8074,
  "\u00e1iste": 8075,
  "\u00e9an": 8076,
  "\u2581Fifth": 8077,
  "\u2581bona": 8078,
  "\u2581chonartha": 8079,
  "\u2581fhor\u00e1la": 8080,
  "\u2581sol\u00e1thr\u00f3ir": 8081,
  "\u2581supplement": 8082,
  "\u2581Limist\u00e9ar": 8083,
  "\u2581bhliana": 8084,
  "\u2581ch\u00f3na\u00ed": 8085,
  "\u2581leithdh\u00e1ileadh": 8086,
  "\u2581officials": 8087,
  "3.": 8088,
  "ainmhithe": 8089,
  "\u2581Posts": 8090,
  "\u2581Products": 8091,
  "\u2581Spirit": 8092,
  "\u2581eola\u00edoch": 8093,
  "\u2581goal": 8094,
  "\u2581purchaser": 8095,
  "\u2581shaini\u00fa": 8096,
  "\u2581tiomanta": 8097,
  "\u2581trans": 8098,
  "\u2581whatever": 8099,
  "\u2581118": 8100,
  "\u2581Eacnama\u00edochta": 8101,
  "\u2581ghn\u00f3thais": 8102,
  "\u2581sceidealta": 8103,
  "\u2581spot": 8104,
  "87": 8105,
  "\u2581bhfabhar": 8106,
  "\u2581iasachta": 8107,
  "\u2581indicators": 8108,
  "\u2581paying": 8109,
  "\u2581pressure": 8110,
  "\u2581pr\u00edobh\u00e1ideacha": 8111,
  "\u2581r\u00e9as\u00fanacha": 8112,
  "lon": 8113,
  "ology": 8114,
  "pre": 8115,
  "\u2581Dealaigh": 8116,
  "\u2581bunt\u00e1ist\u00ed": 8117,
  "\u2581clipboard": 8118,
  "\u2581dheis": 8119,
  "\u2581losses": 8120,
  "\u2581\u00e9ifeacht\u00fail": 8121,
  "\u2581Ri": 8122,
  "\u2581Why": 8123,
  "\u2581breithni\u00fa": 8124,
  "\u2581starting": 8125,
  "\u2581L\u00e1r": 8126,
  "\u2581Tuesday": 8127,
  "\u2581cl\u00f3": 8128,
  "\u2581custom": 8129,
  "\u2581dies": 8130,
  "\u2581effectiveness": 8131,
  "\u2581h\u00fadar\u00e1s": 8132,
  "\u2581relative": 8133,
  "\u2581riachtanacha": 8134,
  "ino": 8135,
  "\u25812003.": 8136,
  "\u2581Abu": 8137,
  "\u2581Israel": 8138,
  "\u2581Luas": 8139,
  "\u2581Steel": 8140,
  "\u2581T\u00e9arma\u00ed": 8141,
  "\u2581horduithe": 8142,
  "\u2581success": 8143,
  "\u2581variation": 8144,
  "\u2581115": 8145,
  "\u2581George": 8146,
  "\u2581me\u00e1chain": 8147,
  "let": 8148,
  "ray": 8149,
  "\u2581Bliana": 8150,
  "\u2581eola\u00edochta": 8151,
  "\u2581tSeirbh\u00eds": 8152,
  "\u2581verify": 8153,
  "aga": 8154,
  "right": 8155,
  "\u2581Atlantic": 8156,
  "\u2581Greek": 8157,
  "\u2581HBO": 8158,
  "\u2581Phoibl\u00ed": 8159,
  "\u2581dog": 8160,
  "\u2581entity": 8161,
  "\u2581linked": 8162,
  "ort": 8163,
  "\u2581gairmi\u00fail": 8164,
  "\u2581gceangla\u00edtear": 8165,
  "\u2581l\u00e1imhse\u00e1il": 8166,
  "\u2581recoverable": 8167,
  "\u2581wishes": 8168,
  "2014": 8169,
  "Temporary": 8170,
  "\u2581Cealaigh": 8171,
  "\u2581Freagra": 8172,
  "\u2581cheal\u00fa": 8173,
  "\u2581goes": 8174,
  "\u2581spread": 8175,
  "\u2581thomhas": 8176,
  "\u2581(19": 8177,
  "\u2581ESPN": 8178,
  "\u2581baol": 8179,
  "\u2581bhuail": 8180,
  "\u2581constituted": 8181,
  "\u2581difri\u00fail": 8182,
  "\u2581d\u00f3ite\u00e1in": 8183,
  "\u2581mheastar": 8184,
  "\u2581sine": 8185,
  "\u2581states": 8186,
  "achomharc": 8187,
  "\u2581'{0}'": 8188,
  "\u258119,": 8189,
  "\u2581Iarratas": 8190,
  "\u2581Single": 8191,
  "\u2581Trust": 8192,
  "\u2581aged": 8193,
  "\u2581gl": 8194,
  "\u2581mbord": 8195,
  "\u2581revised": 8196,
  "\u2581temperature": 8197,
  "\u2581adjustment": 8198,
  "\u2581artists": 8199,
  "\u2581influence": 8200,
  "\u2581longa": 8201,
  "\u2581tarraingthe": 8202,
  "\u2581(0)": 8203,
  "\u2581Anseo": 8204,
  "\u2581Chl\u00e1r\u00fa": 8205,
  "\u2581S\u00fam\u00e1il": 8206,
  "\u2581aeir": 8207,
  "\u2581ascertained": 8208,
  "\u2581catag\u00f3ir": 8209,
  "\u2581chatag\u00f3ir": 8210,
  "\u2581creditors": 8211,
  "\u2581foirgn\u00edochta": 8212,
  "\u2581replace": 8213,
  "\u2581sti\u00faradh": 8214,
  "naigh": 8215,
  "\u2581Athbhreithni\u00fa": 8216,
  "\u2581ON": 8217,
  "\u2581chiona": 8218,
  "\u2581producer": 8219,
  "\u2581sh\u00e1r\u00f3idh": 8220,
  "\u2581suspended": 8221,
  "\u2581SSL": 8222,
  "\u2581gcinnfidh": 8223,
  "53": 8224,
  "\u2581(*)": 8225,
  "\u2581gcoinn\u00edoll": 8226,
  "\u2581purchased": 8227,
  "\u2581tosa\u00edocht": 8228,
  "\u2581docht\u00fair": 8229,
  "\u2581sheolann": 8230,
  "\u2581thoili\u00fa": 8231,
  ",000,000": 8232,
  "IL": 8233,
  "ake": 8234,
  "ned": 8235,
  "\u2581Mheitheamh": 8236,
  "\u2581alcohol": 8237,
  "\u2581loading": 8238,
  "\u2581raise": 8239,
  "\u2581sample": 8240,
  "\u2581Sibhialta": 8241,
  "\u2581achtach\u00e1in": 8242,
  "\u2581installed": 8243,
  "\u2581urram\u00fa": 8244,
  "61": 8245,
  ":00": 8246,
  "ball": 8247,
  "tan": 8248,
  "\u2581Assistant": 8249,
  "\u2581Coinn\u00edollacha": 8250,
  "\u2581Dubh": 8251,
  "\u2581EURES": 8252,
  "\u2581Java": 8253,
  "\u2581circles": 8254,
  "\u2581innill": 8255,
  "\u2581sc\u00e1ile\u00e1n": 8256,
  "\u25811891,": 8257,
  "\u2581Jo": 8258,
  "\u2581Sainroghanna": 8259,
  "\u2581artist": 8260,
  "\u2581d\u00e9anann": 8261,
  "\u2581guide": 8262,
  "\u2581l\u00e1imhe": 8263,
  "form": 8264,
  "\u2581Cumars\u00e1ide": 8265,
  "\u2581attachment": 8266,
  "\u2581bhF": 8267,
  "\u2581ch\u00f3na\u00edonn": 8268,
  "\u2581dispose": 8269,
  "\u2581exclusively": 8270,
  "\u2581fara": 8271,
  "\u2581findings": 8272,
  "\u2581friend": 8273,
  "\u2581nuashonr\u00fa": 8274,
  "\u2581pctv": 8275,
  "\u2581saor\u00e1naigh": 8276,
  "2007": 8277,
[...]
