{
  "</s>": 0,
  "<unk>": 1,
  ".": 2,
  ",": 3,
  "\u2581the": 4,
  "\u2581of": 5,
  "\u2581to": 6,
  "\u2581on": 7,
  "\u2581-": 8,
  "\u2581and": 9,
  "s": 10,
  "'": 11,
  "?": 12,
  "\u2581ja": 13,
  "\u2581in": 14,
  "n": 15,
  "\u2581I": 16,
  "\u2581a": 17,
  "t": 18,
  "-": 19,
  "\u2581": 20,
  "\u2581you": 21,
  ":": 22,
  "\u2581that": 23,
  "a": 24,
  "\u2581is": 25,
  "\u2581(": 26,
  "\u2581for": 27,
  ")": 28,
  "\u2581be": 29,
  "\u2581it": 30,
  "!": 31,
  "\u2581with": 32,
  "\u2581ett\u00e4": 33,
  "\u2581The": 34,
  "\u2581this": 35,
  "\u2581are": 36,
  "...": 37,
  "\u2581not": 38,
  "\u2581ei": 39,
  "\u2581by": 40,
  "\u2581as": 41,
  "\u2581have": 42,
  "en": 43,
  "in": 44,
  "\u2581or": 45,
  "\u2581me": 46,
  "\u2581was": 47,
  "\u2581You": 48,
  "sta": 49,
  "\u2581we": 50,
  "\u2581tai": 51,
  "m": 52,
  "\u2581se": 53,
  "re": 54,
  "\u2581at": 55,
  "\u2581from": 56,
  "\u2581he": 57,
  "\u2581your": 58,
  ";": 59,
  "ssa": 60,
  "\u2581can": 61,
  "\u2581ole": 62,
  "\u2581It": 63,
  "\u2581all": 64,
  "\u00e4": 65,
  "ta": 66,
  "an": 67,
  "\u2581an": 68,
  "\u2581will": 69,
  "lle": 70,
  "\u2581do": 71,
  "/": 72,
  "\u2581sen": 73,
  "\u2581\u201d": 74,
  "o": 75,
  "\u2581my": 76,
  "si": 77,
  "\u2581which": 78,
  "\u2581No": 79,
  "\u2581oli": 80,
  "\u2581know": 81,
  "\u2581ovat": 82,
  "\u25811": 83,
  "\u2581\"": 84,
  "\u2581out": 85,
  "\u2581what": 86,
  "d": 87,
  "\u2581has": 88,
  "\u2581What": 89,
  "mme": 90,
  "\u2581European": 91,
  "\u2581A": 92,
  "lla": 93,
  "\u2581We": 94,
  "\u2581kuin": 95,
  "ing": 96,
  "\u2581He": 97,
  "\u2581up": 98,
  "\u2581they": 99,
  "\u2581one": 100,
  "\u2581h\u00e4n": 101,
  "\u2581Euroopan": 102,
  "i": 103,
  "ni": 104,
  "\u2581Commission": 105,
  "\u2581In": 106,
  "\u2581joka": 107,
  "\u2581about": 108,
  "\u2581Se": 109,
  "\u2581but": 110,
  "\u25812": 111,
  "e": 112,
  "\u2581shall": 113,
  "\u2581should": 114,
  "\u2581like": 115,
  "\u2581there": 116,
  "\u2581been": 117,
  "\u2581voi": 118,
  "ja": 119,
  "\u2019": 120,
  "\u2581H\u00e4n": 121,
  "\u2581just": 122,
  "\u2581EU": 123,
  "\u2581don": 124,
  "\u2581En": 125,
  "\u2581so": 126,
  "\u2581no": 127,
  "ed": 128,
  "\u2581jotka": 129,
  "ll": 130,
  "\u2581And": 131,
  "\u2581This": 132,
  "\u2581their": 133,
  "\u2581here": 134,
  "\u2581Article": 135,
  "ko": 136,
  "\u2581if": 137,
  "\u2581other": 138,
  "\u2581his": 139,
  "\u2581vain": 140,
  "\u2581right": 141,
  "\u2581more": 142,
  "\u2581would": 143,
  "\u2581him": 144,
  "\u2581my\u00f6s": 145,
  "ve": 146,
  "\u2581kun": 147,
  "\u2581mutta": 148,
  "na": 149,
  "\u2581were": 150,
  "\u2581sek\u00e4": 151,
  "ksi": 152,
  "\u2581get": 153,
  "\u25813": 154,
  "\u2581niin": 155,
  "\u2581time": 156,
  "\u2581N": 157,
  "\u2581Member": 158,
  "\u2581Mit\u00e4": 159,
  "\u2581sit\u00e4": 160,
  "\u2581its": 161,
  "kin": 162,
  ").": 163,
  "y": 164,
  "\u2581L": 165,
  "\u2581also": 166,
  "\u2581her": 167,
  "\u2581olisi": 168,
  "\u2581\u2013": 169,
  "\u2581who": 170,
  "\u2581That": 171,
  "\u2581Ei": 172,
  "\u2581them": 173,
  "on": 174,
  "\u2581Regulation": 175,
  "\u2581kanssa": 176,
  "st\u00e4": 177,
  "\u2581go": 178,
  "\u2581our": 179,
  "\u2581into": 180,
  "\u2581had": 181,
  "\u2581Council": 182,
  "\u2581when": 183,
  "\u2581States": 184,
  "\u2581olla": 185,
  "\u2581Jos": 186,
  "\u2581jos": 187,
  "ista": 188,
  "\u2581may": 189,
  "\u2581any": 190,
  "\u2581us": 191,
  "\u2581want": 192,
  "\u2581T\u00e4m\u00e4": 193,
  "\u2581need": 194,
  "\u2581mit\u00e4": 195,
  "\u2581than": 196,
  "\u2581now": 197,
  "\u2581siit\u00e4": 198,
  "\u25815": 199,
  "\u2581think": 200,
  "\u2581got": 201,
  "\u2581t\u00e4m\u00e4n": 202,
  "vat": 203,
  "\u2581artiklan": 204,
  "\u2581h\u00e4nen": 205,
  "\u2581But": 206,
  "\u2581s": 207,
  "S": 208,
  "\u2581these": 209,
  "\u2581C": 210,
  "\u2581only": 211,
  "\u2581must": 212,
  "t\u00e4": 213,
  "\u2581see": 214,
  "\u2581ne": 215,
  "\u2581take": 216,
  "\u2581some": 217,
  "jen": 218,
  "\u2581So": 219,
  "\u2581Oh": 220,
  "\u25814": 221,
  "\u2581Union": 222,
  "\u2581Yeah": 223,
  "),": 224,
  "\u2581people": 225,
  "ss\u00e4": 226,
  "\u2581she": 227,
  "\u2581S": 228,
  "\u2581nyt": 229,
  "\u2581new": 230,
  "\u2581\u201c": 231,
  "er": 232,
  "\u2581did": 233,
  "\u2581mukaan": 234,
  "\u2581Olen": 235,
  "\u2581could": 236,
  "\u2581good": 237,
  "\u2581such": 238,
  "us": 239,
  "sti": 240,
  "\u2581kaikki": 241,
  "\u2581down": 242,
  "A": 243,
  "et": 244,
  "\u258110": 245,
  "\u2581If": 246,
  "\u2581make": 247,
  "ten": 248,
  "\u2581back": 249,
  "\u2581Ja": 250,
  "\u2581where": 251,
  "EC": 252,
  "\u2581Mr": 253,
  "\u2581way": 254,
  "ll\u00e4": 255,
  "ly": 256,
  "\u2581over": 257,
  "\u2581those": 258,
  "\u2581Well": 259,
  "\u2581work": 260,
  "\u2581t\u00e4m\u00e4": 261,
  "\u00ad": 262,
  "\u2581They": 263,
  "\u2581use": 264,
  "\u2581under": 265,
  "\u2581God": 266,
  "EY": 267,
  "\u2581p\u00e4iv\u00e4n\u00e4": 268,
  "nsa": 269,
  "\u2581gonna": 270,
  "\u2581\u2014": 271,
  "\u2581going": 272,
  "\u2581information": 273,
  "\u2581B": 274,
  "\u2581how": 275,
  "\u2581[": 276,
  "\u2581On": 277,
  "\u2581saa": 278,
  "\u2581first": 279,
  "\"": 280,
  "C": 281,
  "minen": 282,
  "\u2581two": 283,
  "\u2581man": 284,
  "nne": 285,
  "\u2581very": 286,
  "ia": 287,
  "ille": 288,
  "\u2581eiv\u00e4t": 289,
  "\u2581between": 290,
  "\u2581jo": 291,
  "I": 292,
  "lta": 293,
  "\u2581ollut": 294,
  "\u2581made": 295,
  "\u2581voidaan": 296,
  "\u2581unionin": 297,
  "\u2581sin\u00e4": 298,
  "\u2581How": 299,
  "\u25816": 300,
  "\u2581years": 301,
  "\u2581come": 302,
  "\u2581There": 303,
  "\u2581.": 304,
  "\u2581say": 305,
  "sa": 306,
  "\u2581p": 307,
  "te": 308,
  "\u2581well": 309,
  "g": 310,
  "u": 311,
  "\u2581niiden": 312,
  "h": 313,
  "\u2581j\u00e4lkeen": 314,
  "\u2581She": 315,
  "\u2581said": 316,
  "\u2581komission": 317,
  "c": 318,
  "\u2581jonka": 319,
  "issa": 320,
  "\u2581For": 321,
  "\u2581mukaisesti": 322,
  "\u258120": 323,
  "maan": 324,
  "\u2581E": 325,
  "to": 326,
  "\u2581sitten": 327,
  "\u2581before": 328,
  "\u2581then": 329,
  "\u2581tulee": 330,
  "b": 331,
  ".\"": 332,
  "\u2581Community": 333,
  "al": 334,
  "\u2581because": 335,
  "\u25817": 336,
  "\u2581min\u00e4": 337,
  "\u2581after": 338,
  "\u2581used": 339,
  "\u2581'": 340,
  "l": 341,
  "EU": 342,
  "]": 343,
  "\u2581All": 344,
  "\u258115": 345,
  "\u2581mit\u00e4\u00e4n": 346,
  "\u2581en": 347,
  "\u2581hyvin": 348,
  "\u2581olet": 349,
  "\u2581ennen": 350,
  "n\u00e4": 351,
  "T": 352,
  "r": 353,
  "\u2581Mutta": 354,
  "\u258112": 355,
  "\u2581Parliament": 356,
  "\u2581pit\u00e4\u00e4": 357,
  "\u2581even": 358,
  "\u2581market": 359,
  "\u2581t\u00e4\u00e4ll\u00e4": 360,
  "\u2581olen": 361,
  "\u2581too": 362,
  "\u2581koska": 363,
  "\u2581huomioon": 364,
  "\u2581minua": 365,
  "un": 366,
  "\u2581am": 367,
  "\u2581Do": 368,
  "\u2581something": 369,
  "\u2581measures": 370,
  "ne": 371,
  "\u2581P": 372,
  "\u2581%": 373,
  "\u2581kohdan": 374,
  "2": 375,
  "\u2581through": 376,
  "va": 377,
  "\u2581asetuksen": 378,
  "\u25818": 379,
  "\u00e4n": 380,
  "\u2581countries": 381,
  "\u2581sinua": 382,
  "\u2581does": 383,
  "\u2581day": 384,
  "\u2581viel\u00e4": 385,
  "illa": 386,
  "inen": 387,
  "\u2581being": 388,
  "\u2581really": 389,
  "\u2581life": 390,
  "\u2581tehd\u00e4": 391,
  "nen": 392,
  "\u258130": 393,
  "\u2581help": 394,
  "tta": 395,
  "or": 396,
  "ihin": 397,
  "\u2581neuvoston": 398,
  "\u2581State": 399,
  "B": 400,
  "\u2581tell": 401,
  "iden": 402,
  "\u2581year": 403,
  "\u2581set": 404,
  "\u2581Yes": 405,
  "\u2581Min\u00e4": 406,
  "\u2581products": 407,
  "\u2581didn": 408,
  "\u2581kuten": 409,
  "tte": 410,
  "\u2581O": 411,
  "\u2581Why": 412,
  "\u2581following": 413,
  "\u2581koko": 414,
  "\u2581h\u00e4net": 415,
  "\u2581same": 416,
  "\u2581much": 417,
  "\u2581minun": 418,
  "\u25819": 419,
  "\u2581point": 420,
  "\u2581T": 421,
  "\u2581within": 422,
  "\u2581yhteis\u00f6n": 423,
  "\u2581mean": 424,
  "\u2581Directive": 425,
  "\u2581Kun": 426,
  "\u2581\u2018": 427,
  "den": 428,
  "\u2581order": 429,
  "\u2581off": 430,
  "k\u00f6": 431,
  "\u2581\u2019": 432,
  "\u2581part": 433,
  "\u2581little": 434,
  "ke": 435,
  "\u2581eri": 436,
  "\u2581national": 437,
  "\u2581t\u00e4ss\u00e4": 438,
  "\u2581system": 439,
  "\u2581Onko": 440,
  "\u2581vuoden": 441,
  "N": 442,
  "\u2581K": 443,
  "pa": 444,
  "\u2581jossa": 445,
  "es": 446,
  "k": 447,
  "\u2581D": 448,
  "it": 449,
  "\u2581never": 450,
  "\u2581still": 451,
  "\u2581kuitenkin": 452,
  "\u2581place": 453,
  "neet": 454,
  "\u2581To": 455,
  "\u2581As": 456,
  "tti": 457,
  "\u2581paljon": 458,
  "\u2581Me": 459,
  "\u2581t\u00e4t\u00e4": 460,
  "\u2581number": 461,
  "\u2581sill\u00e4": 462,
  "\u2581give": 463,
  "\u2581Okay": 464,
  "\u2581report": 465,
  "\u2581siihen": 466,
  "\u2581My": 467,
  "\u2581sinun": 468,
  "\u2581let": 469,
  "\u2581case": 470,
  "\u2581most": 471,
  "\u2581long": 472,
  "\u2581osalta": 473,
  "\u2581vuonna": 474,
  "\u2581last": 475,
  "\u2581e": 476,
  "is": 477,
  "\u2581find": 478,
  "\u2581own": 479,
  "\u2581erityisesti": 480,
  "\u2581re": 481,
  "\u2581particular": 482,
  "\u2581many": 483,
  "\u2581policy": 484,
  "\u2581services": 485,
  "\u2581Come": 486,
  "\u2581world": 487,
  "\u2581look": 488,
  "\u2581h\u00e4nt\u00e4": 489,
  "\u2581public": 490,
  "nut": 491,
  "\u2581artikla": 492,
  "\u2581Let": 493,
  "\u2581doing": 494,
  "\u2581why": 495,
  "\u2581Miksi": 496,
  "\u2581\u00c4l\u00e4": 497,
  "\u258119": 498,
  "\u2581President": 499,
  "\u2581G": 500,
  "\u2581kohta": 501,
  "\u2581data": 502,
  "\u2581yli": 503,
  "\u2581Miten": 504,
  "\u2581yksi": 505,
  "\u2581financial": 506,
  "\u2581support": 507,
  "\u2581Niin": 508,
  "\u2581Europe": 509,
  "\u2581olevan": 510,
  "\u2581thing": 511,
  "de": 512,
  "\u2581Committee": 513,
  "\u2581Don": 514,
  "misen": 515,
  "\u2581each": 516,
  "\u2581komissio": 517,
  "\u2581development": 518,
  "E": 519,
  "ita": 520,
  "\u2581without": 521,
  "mista": 522,
  "\u2581level": 523,
  "\u2581de": 524,
  "ma": 525,
  "\u2581eik\u00e4": 526,
  "\u2581jotta": 527,
  "\u2581mg": 528,
  "\u2581accordance": 529,
  "\u2581varten": 530,
  "\u2581vuoksi": 531,
  "\u2581ottaa": 532,
  "\u2581joita": 533,
  "\u258125": 534,
  "\u2581Where": 535,
  "\u2581parlamentin": 536,
  "1": 537,
  "\u2581F": 538,
  "\u2581per": 539,
  "\u2581itse": 540,
  "H": 541,
  "\u2581put": 542,
  "\u258118": 543,
  "ist\u00e4": 544,
  "\u2581Hey": 545,
  "\u2581hyv\u00e4": 546,
  "\u2581means": 547,
  "\u2581osa": 548,
  "D": 549,
  "li": 550,
  "\u2581aikana": 551,
  "\u2581Annex": 552,
  "\u2581three": 553,
  "\u2581important": 554,
  "\u2581Now": 555,
  "\u2581minulle": 556,
  "\u2581love": 557,
  "le": 558,
  "p": 559,
  "\u2581against": 560,
  "3": 561,
  "\u2581mik\u00e4": 562,
  "sen": 563,
  "\u2581heid\u00e4n": 564,
  "\u2581meid\u00e4n": 565,
  "\u2581voivat": 566,
  "\u2581b": 567,
  "ka": 568,
  "tu": 569,
  "la": 570,
  "\u2581things": 571,
  "\u2581Olet": 572,
  "\u2581both": 573,
  "\u2581better": 574,
  "\u2581pit\u00e4isi": 575,
  "\u2581Mik\u00e4": 576,
  "\u2581antaa": 577,
  "\u2581pois": 578,
  "\u2581sinulle": 579,
  "ki": 580,
  "miseen": 581,
  "man": 582,
  "\u2581tied\u00e4": 583,
  "\u258111": 584,
  "\u2581joiden": 585,
  "\u2581Et": 586,
  "\u2581aina": 587,
  "\u2581kohdassa": 588,
  "\u2581j\u00e4senvaltioiden": 589,
  "\u2581V": 590,
  "\u2581miten": 591,
  "\u2581M": 592,
  "\u2581again": 593,
  "sin": 594,
  "\u2581period": 595,
  "kseen": 596,
  "van": 597,
  "\u2581including": 598,
  "\u2581When": 599,
  "v\u00e4t": 600,
  "\u2581ty\u00f6": 601,
  "\u2581provided": 602,
  "(": 603,
  "\u2581niit\u00e4": 604,
  "\u2581te": 605,
  "\u2581end": 606,
  "\u2581name": 607,
  "\u25811.": 608,
  "\u2581:": 609,
  "\u2581sure": 610,
  "\u2581kaksi": 611,
  "\u2581aid": 612,
  "\u2581et": 613,
  "\u2581economic": 614,
  "\u2581koskevat": 615,
  "\u2581Ne": 616,
  "ty": 617,
  "\u2581tuo": 618,
  "\u2581necessary": 619,
  "\u2581taken": 620,
  "\u2581conditions": 621,
  "\u2581home": 622,
  "\u2581jotain": 623,
  "taan": 624,
  "\u2581great": 625,
  "isi": 626,
  "\u258124": 627,
  "\u2581social": 628,
  "\u2581i": 629,
  "\u2581joilla": 630,
  "\u258114": 631,
  "\u2581rules": 632,
  "\u2581Kiitos": 633,
  "th": 634,
  "\u2581vaan": 635,
  "\u201d": 636,
  "M": 637,
  "\u2581Sen": 638,
  "\u2581II": 639,
  "\u2581...": 640,
  "\u2581possible": 641,
  "\u2581Just": 642,
  "\u2581call": 643,
  "\u2581k\u00e4ytt\u00e4\u00e4": 644,
  "da": 645,
  "\u2581ensure": 646,
  "\u2581prosenttia": 647,
  "\u2581during": 648,
  "tin": 649,
  "\u2581regard": 650,
  "\u2581minut": 651,
  "j\u00e4": 652,
  "\u2581R": 653,
  "\u2581Komissio": 654,
  "the": 655,
  "\u2581referred": 656,
  "\u2581authorities": 657,
  "mis": 658,
  "\u2581t\u00e4ytyy": 659,
  "\u2581T\u00e4ss\u00e4": 660,
  "\u2581another": 661,
  "\u258116": 662,
  "\u2581certain": 663,
  "\u2581around": 664,
  "\u2581Kaikki": 665,
  "\u2581believe": 666,
  "\u2581different": 667,
  "\u258117": 668,
  "\u2581/": 669,
  "\u2581therefore": 670,
  "\u2581vastaan": 671,
  "\u2581already": 672,
  "\u2581m\u00e4\u00e4r\u00e4": 673,
  "ro": 674,
  "\u2581country": 675,
  "\u2581Not": 676,
  "\u2581okay": 677,
  "\u2581found": 678,
  "\u2581olivat": 679,
  "\u2581Decision": 680,
  "\u2581every": 681,
  "G": 682,
  "x": 683,
  "\u2581common": 684,
  "\u2581ettei": 685,
  "K": 686,
  "\u2581sinut": 687,
  "\u2581THE": 688,
  "me": 689,
  "\u2581sanoi": 690,
  "ina": 691,
  "\u2581tiedot": 692,
  "P": 693,
  "\u2581en\u00e4\u00e4": 694,
  "\u2581away": 695,
  "\u2581course": 696,
  "\u2581Hyv\u00e4": 697,
  "\u2581area": 698,
  "\u2581always": 699,
  "\u2581thought": 700,
  "\u2581high": 701,
  "ton": 702,
  "\u2581available": 703,
  "\u2581anything": 704,
  "\u2581night": 705,
  "\u2581n\u00e4in": 706,
  "\u2581sorry": 707,
  "ttu": 708,
  "di": 709,
  "\u2581saada": 710,
  "\u258113": 711,
  "\u2581Are": 712,
  "L": 713,
  "\u2581human": 714,
  "\u2581t\u00e4st\u00e4": 715,
  "kaan": 716,
  "\u2581might": 717,
  "ti": 718,
  "kaa": 719,
  "\u2581Finland": 720,
  "se": 721,
  "\u2013": 722,
  "\u2581muut": 723,
  "\u2581Jehovah": 724,
  "F": 725,
  "\u2581m": 726,
  "\u2581jota": 727,
  "\u2581perusteella": 728,
  "\u2581given": 729,
  "\u2581talk": 730,
  "\u2581account": 731,
  "\u2581done": 732,
  "\u258150": 733,
  "\u2581law": 734,
  "\u2581Can": 735,
  "mo": 736,
  "\u2581koskevan": 737,
  "mi": 738,
  "\u2581enemm\u00e4n": 739,
  "\u2581takaisin": 740,
  "\u2581Re": 741,
  "at": 742,
  "\u2581best": 743,
  "\u2581non": 744,
  "\u2581ilman": 745,
  "\u2581Treaty": 746,
  "\u2581basis": 747,
  "\u2581siin\u00e4": 748,
  "f": 749,
  "\u2581third": 750,
  "\u258121": 751,
  "\u2581noin": 752,
  "ri": 753,
  "\u2581application": 754,
  "\u2581vuotta": 755,
  "O": 756,
  "\u2581T\u00e4m\u00e4n": 757,
  "\u2581t\u00e4h\u00e4n": 758,
  "\u2581money": 759,
  "\u2581Look": 760,
  "\u2581product": 761,
  "pe": 762,
  "\u2581Kyll\u00e4": 763,
  "\u2581together": 764,
  "\u2581H": 765,
  "\u2581change": 766,
  "\u2581second": 767,
  "\u2581business": 768,
  "\u2581direktiivin": 769,
  "\u2581told": 770,
  "\u2581rights": 771,
  "do": 772,
  "\u2581decision": 773,
  "\u2581risk": 774,
  "\u2581since": 775,
  "\u2581Nyt": 776,
  "\u2581days": 777,
  "\u2581keep": 778,
  "ra": 779,
  "\u2581siis": 780,
  "\u2581ajan": 781,
  "\u2581protection": 782,
  "\u2581working": 783,
  "\u2581_": 784,
  "\u2581service": 785,
  "\u2581aika": 786,
  "\u2581control": 787,
  "\u2581Thank": 788,
  "\u2581Jumalan": 789,
  "\u2581kind": 790,
  "\u2581Your": 791,
  "\u2581Jesus": 792,
  "\u2581million": 793,
  "\u2581while": 794,
  "\u2581least": 795,
  "\u2581view": 796,
  "\u2581today": 797,
  "ku": 798,
  "tt\u00e4": 799,
  "lt\u00e4": 800,
  "tus": 801,
  "\u2581old": 802,
  "\u2581ever": 803,
  "\u2581olemme": 804,
  "\u2581un": 805,
  "\u258122": 806,
  "\u2581provide": 807,
  "\u2581toiminta": 808,
  "\u2581patients": 809,
  "\u2581free": 810,
  "\u2581Oletko": 811,
  "\u2581energy": 812,
  "\u2581avulla": 813,
  "\u2581toimi": 814,
  "\u2581t\u00e4nne": 815,
  "\u258131": 816,
  "\u2581Who": 817,
  "\u2581activities": 818,
  "\u2581question": 819,
  "\u2581100": 820,
  "han": 821,
  "\u2581However": 822,
  "\u2581h\u00e4nelle": 823,
  "\u2581specific": 824,
  "\u2581juuri": 825,
  "\u2581action": 826,
  "\u2581Komission": 827,
  "\u2581At": 828,
  "\u2581Go": 829,
  "\u2581&": 830,
  "\u2581jolla": 831,
  "\u2581based": 832,
  "\u2581koskaan": 833,
  "\u2581La": 834,
  "\u2581muiden": 835,
  "sopimuksen": 836,
  "\u2581proposal": 837,
  "\u2581W": 838,
  "lo": 839,
  "\u2581j\u00e4sen": 840,
  "\u2581whole": 841,
  "llinen": 842,
  "\u2581New": 843,
  "\u2581further": 844,
  "\u2581concerned": 845,
  "\u2581person": 846,
  "\u2581programme": 847,
  "\u2581Koska": 848,
  "\u2581tiet\u00e4\u00e4": 849,
  "\u2581requirements": 850,
  "\u2581cooperation": 851,
  "\u2581children": 852,
  "ers": 853,
  "\u2581fact": 854,
  "\u2581appropriate": 855,
  "\u2581international": 856,
  "\u258128": 857,
  "\u2581force": 858,
  "\u2581o": 859,
  "\u2581maan": 860,
  "\u2581water": 861,
  "\u2581sir": 862,
  "\u2581adopted": 863,
  "W": 864,
  "able": 865,
  "\u2581Good": 866,
  "\u2581family": 867,
  "\u2581paragraph": 868,
  "\u2581feel": 869,
  "\u2581real": 870,
  "\u2581taking": 871,
  "\u2581future": 872,
  "\u2581siell\u00e4": 873,
  "\u2581)": 874,
  "miseksi": 875,
  "V": 876,
  "\u2581next": 877,
  "\u25812000": 878,
  "\u2581halua": 879,
  "\u2581having": 880,
  "\u2581joissa": 881,
  "fi": 882,
  "pi": 883,
  "sten": 884,
  "\u2581U": 885,
  "\u2581Get": 886,
  "\u2581respect": 887,
  "\u258123": 888,
  "\u2581provisions": 889,
  "\u2581security": 890,
  "\u2581c": 891,
  "\u2581sopimuksen": 892,
  "ks": 893,
  "\u2581aikaa": 894,
  "\u2581yhteydess\u00e4": 895,
  "\u2581n\u00e4m\u00e4": 896,
  "\u2581p\u00e4\u00e4": 897,
  "\u2581Haluan": 898,
  "\u2581These": 899,
  "\u2581health": 900,
  "\u2581came": 901,
  "\u2581nothing": 902,
  "\u2581sector": 903,
  "\u2581Arvoisa": 904,
  "\u2581please": 905,
  "\u2581problem": 906,
  "4": 907,
  "\u2581tuli": 908,
  "\u2581care": 909,
  "\u2581open": 910,
  "iin": 911,
  "\u2581until": 912,
  "\u2581treatment": 913,
  "\u2581whether": 914,
  "\u2581left": 915,
  "\u2581far": 916,
  "\u2581EUR": 917,
  "s\u00e4": 918,
  "\u2581auttaa": 919,
  "\u2581legal": 920,
  "\u2581men": 921,
  "v": 922,
  "\u2581general": 923,
  "iset": 924,
  "\u2581g": 925,
  "\u2581areas": 926,
  "\u2581house": 927,
  "\u2581Minulla": 928,
  "ry": 929,
  "\u2581management": 930,
  "\u2581Sin\u00e4": 931,
  "\u2581puhemies": 932,
  "\u2581implementation": 933,
  "misesta": 934,
  "\u2581yhdess\u00e4": 935,
  "\u2581puolesta": 936,
  "\u2581lot": 937,
  "\u2581Meid\u00e4n": 938,
  "\u2581Minun": 939,
  "\u2581cannot": 940,
  "\u258127": 941,
  "\u2581guy": 942,
  "ic": 943,
  "\u2581show": 944,
  "\u2581l": 945,
  "\u2581subject": 946,
  "\u2581December": 947,
  "\u2581Te": 948,
  "\u2581called": 949,
  "\u2581production": 950,
  "\u2581able": 951,
  "10": 952,
  "\u2581One": 953,
  "\u2581situation": 954,
  "\u2581oltava": 955,
  "\u2581process": 956,
  "\u2581months": 957,
  "\u2581less": 958,
  "\u2581full": 959,
  "\u2581car": 960,
  "\u2581body": 961,
  "ns\u00e4": 962,
  "\u2581k\u00e4ytt\u00f6": 963,
  "\u2581voit": 964,
  "\u2581vai": 965,
  "\u2581eli": 966,
  "\u2581trade": 967,
  "--": 968,
  "\u2581everything": 969,
  "\u2581OJ": 970,
  "\u2581annettu": 971,
  "\u2581muuta": 972,
  "\u2581Then": 973,
  "\u2581OF": 974,
  "\u2581kautta": 975,
  "\u2581hand": 976,
  "ation": 977,
  "malla": 978,
  "\u2581won": 979,
  "\u2581vasta": 980,
  "\u2581vaikka": 981,
  "\u2581An": 982,
  "R": 983,
  "\u2581matter": 984,
  "po": 985,
  "\u258129": 986,
  "\u2581Lis\u00e4ksi": 987,
  "\u2581power": 988,
  "\u2581needs": 989,
  "\u2581coming": 990,
  "\u2581liitteess\u00e4": 991,
  "\u2581procedure": 992,
  "\u2581apply": 993,
  "\u2581todella": 994,
  "Y": 995,
  "\u2581understand": 996,
  "\u2581k\u00e4ytt\u00f6\u00f6n": 997,
  "\u2581\u2022": 998,
  "\u2581edelleen": 999,
  "\u2581idea": 1000,
  "\u2581asetus": 1001,
  "\u2581yet": 1002,
  "\u2581v\u00e4lill\u00e4": 1003,
  "ETY": 1004,
  "\u2581Anna": 1005,
  "\u2581value": 1006,
  "essa": 1007,
  "\u2581asia": 1008,
  "\u2581lis\u00e4\u00e4": 1009,
  "\u2581relevant": 1010,
  "\u2581eritt\u00e4in": 1011,
  "yn": 1012,
  "\u2581lis\u00e4ksi": 1013,
  "\u2581doesn": 1014,
  "ter": 1015,
  "set": 1016,
  "\u2581t\u00e4yt\u00e4nt\u00f6\u00f6npano": 1017,
  "up": 1018,
  "\".": 1019,
  "\u2581food": 1020,
  "ttiin": 1021,
  "\u2581group": 1022,
  "\u2581muita": 1023,
  "\u2581Ehk\u00e4": 1024,
  "\u2581date": 1025,
  "\u2581ask": 1026,
  "\u2581uudelleen": 1027,
  "\u2581enough": 1028,
  "\u2581few": 1029,
  "\u2581wrong": 1030,
  "\u2581access": 1031,
  "\u2581la": 1032,
  "ment": 1033,
  "\u2581guys": 1034,
  "\u258126": 1035,
  "\u2581transport": 1036,
  "\u258140": 1037,
  "\u2581Tied\u00e4n": 1038,
  "\u2581example": 1039,
  "\u2581ymp\u00e4rist\u00f6": 1040,
  "\u2581safety": 1041,
  "\u2581Miss\u00e4": 1042,
  "\u2581Tuo": 1043,
  "\u2581sinulla": 1044,
  "\u2581ago": 1045,
  "kki": 1046,
  "he": 1047,
  "\u2581wanted": 1048,
  "\u2581Al": 1049,
  "\u2581tavalla": 1050,
  "isten": 1051,
  "ha": 1052,
  "\u2581start": 1053,
  "\u2581blood": 1054,
  "z": 1055,
  "\u2581leave": 1056,
  "\u2581hear": 1057,
  "\u2581t\u00e4ll\u00e4": 1058,
  "\u2581amount": 1059,
  "\u25812004": 1060,
  "\u2581Olemme": 1061,
  "\u2581United": 1062,
  "\u2581took": 1063,
  "\u2581clear": 1064,
  "\u2581agreement": 1065,
  "EEC": 1066,
  "uksen": 1067,
  "w": 1068,
  "\u2581kaiken": 1069,
  "\u2581opinion": 1070,
  "\u2581Did": 1071,
  "\u2581kai": 1072,
  "\u2581Kuka": 1073,
  "\u2581concerning": 1074,
  "\u2581Ha": 1075,
  "\u2581position": 1076,
  "\u25812006": 1077,
  "\u2581job": 1078,
  "\u2581menn\u00e4": 1079,
  "\u2581Emme": 1080,
  "\u2581sovelletaan": 1081,
  "\u2581framework": 1082,
  "\u2581oikeus": 1083,
  "vi": 1084,
  "\u2581research": 1085,
  "\u2581file": 1086,
  "\u25812008": 1087,
  "\u2581using": 1088,
  "\u2581type": 1089,
  "vien": 1090,
  "iss\u00e4": 1091,
  "vo": 1092,
  "\u2581Anteeksi": 1093,
  "\u2581May": 1094,
  "hi": 1095,
  "\u2581mind": 1096,
  "ity": 1097,
  "\u2581artiklassa": 1098,
  "\u2581stop": 1099,
  "\u2581uusi": 1100,
  "\u2581main": 1101,
  "\u2581big": 1102,
  "\u2581Voi": 1103,
  "\u2581happened": 1104,
  "\u2581lis\u00e4": 1105,
  "\u2581costs": 1106,
  "\u25812007": 1107,
  "\u25812002": 1108,
  "\u2581yht\u00e4": 1109,
  "\u2581Sinun": 1110,
  "isen": 1111,
  "\u2581price": 1112,
  "\u2581seen": 1113,
  "\u2581industry": 1114,
  "\u2581women": 1115,
  "\u2581Herra": 1116,
  "\u2581present": 1117,
  "\u2581live": 1118,
  "\u2581dead": 1119,
  "\u2581total": 1120,
  "\u2581quality": 1121,
  "m\u00e4\u00e4n": 1122,
  "\u2581Agreement": 1123,
  "\u2581political": 1124,
  "\u2581usko": 1125,
  "ar": 1126,
  "\u2581above": 1127,
  "\u2581perus": 1128,
  "isia": 1129,
  "\u2581k\u00e4y": 1130,
  "pu": 1131,
  "\u2581went": 1132,
  "\u25810": 1133,
  "\u2581Court": 1134,
  "\u2581once": 1135,
  "\u2581Please": 1136,
  "\u2581increase": 1137,
  "7": 1138,
  "\u2581mies": 1139,
  "\u2581meet": 1140,
  "\u2581ainoastaan": 1141,
  "\u2581side": 1142,
  "sia": 1143,
  "\u2581joten": 1144,
  "\u2581N\u00e4in": 1145,
  "\u2581become": 1146,
  "\u2581maailman": 1147,
  "nyt": 1148,
  "\u2581company": 1149,
  "een": 1150,
  "\u2581euroa": 1151,
  "\u2581form": 1152,
  "min": 1153,
  "\u2581bad": 1154,
  "el": 1155,
  "\u2581making": 1156,
  "\u2581Hei": 1157,
  "\u2581required": 1158,
  "v\u00e4": 1159,
  "\u2581t\u00e4ysin": 1160,
  "\u2581tutkimus": 1161,
  "\u2581rahoitus": 1162,
  "h\u00e4n": 1163,
  "\u25812005": 1164,
  "\u2581v\u00e4h\u00e4n": 1165,
  "\u2581yh\u00e4": 1166,
  "il": 1167,
  "\u2581local": 1168,
  "\u2581line": 1169,
  "\u2581interest": 1170,
  "\u2581systems": 1171,
  "\u2581small": 1172,
  "seen": 1173,
  "\u2581koskeva": 1174,
  "\u2581t\u00e4rke\u00e4\u00e4": 1175,
  "\u2581talking": 1176,
  "isiin": 1177,
  "\u2581nimi": 1178,
  "\u2581kaikkien": 1179,
  "\u2581someone": 1180,
  "\u2581result": 1181,
  "\u2581suuri": 1182,
  "\u2581cases": 1183,
  "\u2581With": 1184,
  "\u2581v\u00e4hint\u00e4\u00e4n": 1185,
  "\u2581De": 1186,
  "\u2581000": 1187,
  "\u2581kolme": 1188,
  "\u25812003": 1189,
  "\u2581taas": 1190,
  "\u2581muun": 1191,
  "\u2581play": 1192,
  "\u2581father": 1193,
  "\u2581liian": 1194,
  "\u2581tekee": 1195,
  "co": 1196,
  "\u2581June": 1197,
  "\u2581J": 1198,
  "\u2581says": 1199,
  "neen": 1200,
  "\u2581tulla": 1201,
  "\u2581training": 1202,
  "\u2581liittyv\u00e4t": 1203,
  "k\u00e4\u00e4n": 1204,
  "\u25814.": 1205,
  "\u2581hope": 1206,
  "\u2581rate": 1207,
  "\u2581issue": 1208,
  "\u2581fine": 1209,
  "ce": 1210,
  "\u2581ha": 1211,
  "\u2581looking": 1212,
  "\u2581else": 1213,
  "%": 1214,
  "\u2581Or": 1215,
  "\u2581Maybe": 1216,
  "ur": 1217,
  "\u2581Ra": 1218,
  "\u2581sanoa": 1219,
  "\u2581edes": 1220,
  "\u2581applicable": 1221,
  "\u2581room": 1222,
  "mien": 1223,
  "\u2581persons": 1224,
  "\u2581esimerkiksi": 1225,
  "\u2581plan": 1226,
  "\u2581oikein": 1227,
  "\u2581single": 1228,
  "\u2581kerran": 1229,
  "\u2581times": 1230,
  "EN": 1231,
  "\u2581voisi": 1232,
  "\u2581considered": 1233,
  "\u2581yhden": 1234,
  "\u2581final": 1235,
  "\u2581trying": 1236,
  "\u2581special": 1237,
  "\u2581koskevien": 1238,
  "\u2581III": 1239,
  "\u2581d": 1240,
  "\u2581tuki": 1241,
  "\u2581siten": 1242,
  "ilta": 1243,
  "\u2581p\u00e4\u00e4t\u00f6ksen": 1244,
  "\u2581kyll\u00e4": 1245,
  "\u2581saw": 1246,
  "\u2581annetun": 1247,
  "\u2581problems": 1248,
  "\u2581ehk\u00e4": 1249,
  "00": 1250,
  "\u2581bring": 1251,
  "\u2581k": 1252,
  "\u2581H\u00e4nen": 1253,
  "p\u00e4": 1254,
  "\u2581head": 1255,
  "\u2581established": 1256,
  "\u2581getting": 1257,
  "\u2581k\u00e4ytet\u00e4\u00e4n": 1258,
  "\u2581miss\u00e4": 1259,
  "\u2581meit\u00e4": 1260,
  "\u2581erityis": 1261,
  "lu": 1262,
  "\u2581mm": 1263,
  "ju": 1264,
  "\u2581saattaa": 1265,
  "via": 1266,
  "\u2581light": 1267,
  "\u2581results": 1268,
  "\u2581kiinni": 1269,
  "\u2581Of": 1270,
  "\u2581kill": 1271,
  "\u25812009": 1272,
  "\u2581Eurooppa": 1273,
  "\u2581tietoja": 1274,
  "\u2581Tule": 1275,
  "\u2581Here": 1276,
  "ksen": 1277,
  "\u2581technical": 1278,
  "\u2581Because": 1279,
  "\u2581kuitenkaan": 1280,
  "\u2581Bible": 1281,
  "\u2581stay": 1282,
  "\u2581co": 1283,
  "\u2581son": 1284,
  "\u2581n\u00e4iden": 1285,
  "\u2581authority": 1286,
  "\u2581tieto": 1287,
  "\u2581hell": 1288,
  "mist\u00e4": 1289,
  "\u2581Katso": 1290,
  "\u2581p\u00e4iv\u00e4n": 1291,
  "\u2581include": 1292,
  "\u2581heart": 1293,
  "\u25812013": 1294,
  "\u2581viime": 1295,
  "\u2581table": 1296,
  "\u2581legislation": 1297,
  "\u2581close": 1298,
  "\u2581p\u00e4\u00e4t\u00f6s": 1299,
  "5": 1300,
  "\u2581joku": 1301,
  "am": 1302,
  "\u2581terms": 1303,
  "\u2581tulisi": 1304,
  "\u2581employment": 1305,
  "\u2581field": 1306,
  "\u2581p\u00e4iv\u00e4": 1307,
  "\u2581young": 1308,
  "\u2581mahdollista": 1309,
  "aan": 1310,
  "\u2581maa": 1311,
  "\u2581miljoonaa": 1312,
  "\u2581tarvitse": 1313,
  "\u2581game": 1314,
  "\u2581hours": 1315,
  "\u2581four": 1316,
  "\u2581Helsinki": 1317,
  "\u2581p\u00e4\u00e4st\u00e4": 1318,
  "\u2581toimia": 1319,
  "\u2581ma": 1320,
  "\u25812010": 1321,
  "ge": 1322,
  "\u2581meille": 1323,
  "alan": 1324,
  "\u2581kuinka": 1325,
  "\u2581kuuluu": 1326,
  "\u2581July": 1327,
  "\u2581fucking": 1328,
  "\u2581ulos": 1329,
  "\u2581companies": 1330,
  "\u2581girl": 1331,
  "\u2581Jumala": 1332,
  "\u25812012": 1333,
  "\u2581niist\u00e4": 1334,
  "\u2581luo": 1335,
  "massa": 1336,
  "\u2581t\u00e4n\u00e4\u00e4n": 1337,
  "\u2581effect": 1338,
  "\u2581yourself": 1339,
  "\u2581true": 1340,
  "\u2581haluat": 1341,
  "elle": 1342,
  "\u2581heard": 1343,
  "\u2581perustamis": 1344,
  "\u2581ep\u00e4": 1345,
  "i\u00e4": 1346,
  "\u2581five": 1347,
  "\u2581Having": 1348,
  "\u2581January": 1349,
  "\u2581actually": 1350,
  "\u2581tehnyt": 1351,
  "):": 1352,
  "\u2581current": 1353,
  "\u2581air": 1354,
  "The": 1355,
  "kka": 1356,
  "\u2581emme": 1357,
  "\u2581either": 1358,
  "\u2581uuden": 1359,
  "\u2581tehty": 1360,
  "\u2581saying": 1361,
  "ck": 1362,
  "\u2581hard": 1363,
  "ho": 1364,
  "\u2581tapauksessa": 1365,
  "j\u00e4rjestelm\u00e4n": 1366,
  "ill\u00e4": 1367,
  "\u258160": 1368,
  "\u2581try": 1369,
  "\u00f6n": 1370,
  "\u2581school": 1371,
  "\u2581resources": 1372,
  "and": 1373,
  "\u2581due": 1374,
  "\u2581remember": 1375,
  "\u2581herra": 1376,
  "\u2581talous": 1377,
  "ess\u00e4": 1378,
  "\u2581members": 1379,
  "\u2581John": 1380,
  "\u2581vastaa": 1381,
  "20": 1382,
  "\u2581tietojen": 1383,
  "\u2581state": 1384,
  "\u2581effects": 1385,
  "\u2581pro": 1386,
  "\u2581institutions": 1387,
  "\u2581budget": 1388,
  "mia": 1389,
  "go": 1390,
  "\u2581+": 1391,
  "\u2581See": 1392,
  "\u2581test": 1393,
  "ch": 1394,
  "\u2581friend": 1395,
  "\u2581kannalta": 1396,
  "\u2581euro": 1397,
  "\u2581project": 1398,
  "\u2581kertaa": 1399,
  "\u2581turvallisuus": 1400,
  "\u2581>": 1401,
  "\u2581mother": 1402,
  "\u2581heit\u00e4": 1403,
  "lainen": 1404,
  "ga": 1405,
  "\u2581dose": 1406,
  "U": 1407,
  "\u2581olevien": 1408,
  "ttava": 1409,
  "\u2581ta": 1410,
  "\u2581key": 1411,
  "\u2581Ent\u00e4": 1412,
  "\u2581pre": 1413,
  "\u2581silloin": 1414,
  "\u2581upon": 1415,
  "\u2581teht\u00e4v\u00e4": 1416,
  "\u2581death": 1417,
  "\u2581issues": 1418,
  "\u2581amended": 1419,
  "J": 1420,
  "\u2581pa": 1421,
  "\u2581related": 1422,
  "\u2581move": 1423,
  "\u2581miksi": 1424,
  "\u2581hi": 1425,
  "tko": 1426,
  "\u2581face": 1427,
  "\u2581points": 1428,
  "\u2581ra": 1429,
  "\u2581later": 1430,
  "\u2581valvonta": 1431,
  "\u2581Eik\u00f6": 1432,
  "\u2581reason": 1433,
  "\u2581takia": 1434,
  "em": 1435,
  "be": 1436,
  "\u2581list": 1437,
  "\u2581pay": 1438,
  "\u2581mielt\u00e4": 1439,
  "\u2581n\u00e4hd\u00e4": 1440,
  "\u2581pid\u00e4": 1441,
  "\u2581wait": 1442,
  "\u2581tule": 1443,
  "\u2581toisen": 1444,
  "\u2581Co": 1445,
  "\u2581olemassa": 1446,
  "\u2581meeting": 1447,
  "men": 1448,
  "\u2581Ma": 1449,
  "\u2581role": 1450,
  "].": 1451,
  "\u2581j\u00e4\u00e4": 1452,
  "\u2581Yksi": 1453,
  "\u2581Selv\u00e4": 1454,
  "\u2581government": 1455,
  "\u2581isn": 1456,
  "\u2581study": 1457,
  "\u2581vie": 1458,
  "\u2581Siin\u00e4": 1459,
  "\u2581growth": 1460,
  "\u2581impact": 1461,
  "um": 1462,
  "\u2581Vaikka": 1463,
  "\u2581toinen": 1464,
  "\u2581environmental": 1465,
  "\u2581continue": 1466,
  "iksi": 1467,
  "as": 1468,
  "\u2581Sitten": 1469,
  "see": 1470,
  "\u2581shit": 1471,
  "\u2581programmes": 1472,
  "\u2581kyse": 1473,
  "\u2581projects": 1474,
  "\u2581procedures": 1475,
  "esi": 1476,
  "\u00f6": 1477,
  "\u2581others": 1478,
  "\u2581Right": 1479,
  "\u2581maiden": 1480,
  "\u2581N\u00e4m\u00e4": 1481,
  "\u2581ex": 1482,
  "\u25811999": 1483,
  "OJ": 1484,
  "\u2581Sa": 1485,
  "\u2581effective": 1486,
  "\u2581ala": 1487,
  "\u2581laid": 1488,
  "\u2581puheenjohtaja": 1489,
  "\u2581vero": 1490,
  "\u2581wasn": 1491,
  "\u2581aikaan": 1492,
  "\u2581Pa": 1493,
  "\u2581katsoo": 1494,
  "\u2581puhua": 1495,
  "\u2581\u266a": 1496,
  "\u2581By": 1497,
  "\u2581March": 1498,
  "\u2581run": 1499,
  "\u2581voimme": 1500,
  "\u2581ku": 1501,
  "\u2581tukea": 1502,
  "\u2581aivan": 1503,
  "\u2581varmasti": 1504,
  "so": 1505,
  "ella": 1506,
  "\u2581Hi": 1507,
  "\u2581deal": 1508,
  "\u2581kunnossa": 1509,
  "\u2581n\u00e4ytt\u00e4\u00e4": 1510,
  "\u2581alle": 1511,
  "\u25812001": 1512,
  "\u2581haluaa": 1513,
  "\u2581makes": 1514,
  "\u2581koskee": 1515,
  "\u2581sis\u00e4\u00e4n": 1516,
  "ness": 1517,
  "\u2581heti": 1518,
  "\u2581pian": 1519,
  "\u2581teet": 1520,
  "\u2581kahden": 1521,
  "\u2581addition": 1522,
  "6": 1523,
  "\u2581assessment": 1524,
  "\u2581woman": 1525,
  "19": 1526,
  "\u2581knew": 1527,
  "\u2581asti": 1528,
  "\u2581goods": 1529,
  "\u2581Mo": 1530,
  "\u2581competition": 1531,
  "\u2581teki": 1532,
  "son": 1533,
  "\u2581according": 1534,
  "\u2581soon": 1535,
  "\u2581Jo": 1536,
  "\u2581regional": 1537,
  "\u2581environment": 1538,
  "\u2581joulukuuta": 1539,
  "\u2581increased": 1540,
  "\u2581large": 1541,
  "\u25812011": 1542,
  "\u2581tax": 1543,
  "per": 1544,
  "\u2581investment": 1545,
  "\u2581alalla": 1546,
  "\u2581October": 1547,
  "\u2581jopa": 1548,
  "os": 1549,
  "\u2581tahansa": 1550,
  "lin": 1551,
  "\u2581education": 1552,
  "ru": 1553,
  "\u2581seuraavasti": 1554,
  "\u2581EC": 1555,
  "ttaa": 1556,
  "\u2581words": 1557,
  "\u2581experience": 1558,
  "\u2581ml": 1559,
  "\u2581Group": 1560,
  "\u2581however": 1561,
  "\u2581anti": 1562,
  "\u2581needed": 1563,
  "\u2581levels": 1564,
  "\u2581uh": 1565,
  "\u2581among": 1566,
  "tit": 1567,
  "\u2581usein": 1568,
  "\u25812014": 1569,
  "\u2581Uh": 1570,
  "\u2581wanna": 1571,
  "_": 1572,
  "\u2581competent": 1573,
  "\u2581Mist\u00e4": 1574,
  "\u2581ihmiset": 1575,
  "\u2581v": 1576,
  "\u2581Republic": 1577,
  ");": 1578,
  "it\u00e4": 1579,
  "\u2581objectives": 1580,
  "k\u00e4": 1581,
  "\u2581teille": 1582,
  "\u2581After": 1583,
  "\u2581alone": 1584,
  "\u2581asian": 1585,
  "\u2581alueella": 1586,
  "\u2581sa": 1587,
  "\u2581doctor": 1588,
  "\u25812015": 1589,
  "\u2581oleva": 1590,
  "\u2581carried": 1591,
  "\u2581teit\u00e4": 1592,
  "\u2581purpose": 1593,
  "\u2581serious": 1594,
  "esta": 1595,
  "\u2581yeah": 1596,
  "ili": 1597,
  "\u2581kokonais": 1598,
  "isin": 1599,
  "\u2581valmis": 1600,
  "taa": 1601,
  "\u2581progress": 1602,
  "\u2581age": 1603,
  "\u2581policies": 1604,
  "\u2581meill\u00e4": 1605,
  "teen": 1606,
  "\u2581proposed": 1607,
  "\u2581nice": 1608,
  "\u2581approach": 1609,
  "\u2581Jehovan": 1610,
  "\u00e9": 1611,
  "\u25812016": 1612,
  "ile": 1613,
  "\u2581Na": 1614,
  "\u2581tarpeen": 1615,
  "\u2581wife": 1616,
  "\u2581citizens": 1617,
  "\u2581known": 1618,
  "\u2581Ko": 1619,
  "\u2581prices": 1620,
  "\u2581j\u00e4senvaltion": 1621,
  "\u2581responsible": 1622,
  "\u2581read": 1623,
  "mu": 1624,
  "\u2581ready": 1625,
  "50": 1626,
  "llis": 1627,
  "\u2581additional": 1628,
  "\u2581mukana": 1629,
  "\u2581Mrs": 1630,
  "mpi": 1631,
  "\u2581minutes": 1632,
  "\u2581particularly": 1633,
  "\u2581Sit\u00e4": 1634,
  "dy": 1635,
  "ion": 1636,
  "siin": 1637,
  "\u2581Be": 1638,
  "8": 1639,
  "\u2581asiassa": 1640,
  "\u2581reference": 1641,
  "\u2581Y": 1642,
  "\u2581kehitys": 1643,
  "\u2581tapahtui": 1644,
  "25": 1645,
  "\u2581Kuinka": 1646,
  "\u2581turn": 1647,
  "\u2581kotiin": 1648,
  "\u2581markkina": 1649,
  "ise": 1650,
  "\u2581teid\u00e4n": 1651,
  "\u2581t\u00e4rke\u00e4": 1652,
  "\u2581involved": 1653,
  "\u2581week": 1654,
  "\u2581cost": 1655,
  "\u2581share": 1656,
  "\u2581word": 1657,
  "maa": 1658,
  "\u2581society": 1659,
  "\u2581gotta": 1660,
  "\u2581Ho": 1661,
  "\u2581Ka": 1662,
  "\u2581tapahtuu": 1663,
  "\u2581haluan": 1664,
  "\u2581X": 1665,
  "\u2581killed": 1666,
  "\u2581Le": 1667,
  "\u2581request": 1668,
  "\u2581changes": 1669,
  "\u2581heid\u00e4t": 1670,
  "gen": 1671,
  "\u2581standards": 1672,
  "politiikan": 1673,
  "\u2581onko": 1674,
  "\u2581*": 1675,
  "uksia": 1676,
  "\u2581sis\u00e4lt\u00e4\u00e4": 1677,
  "\u2581johon": 1678,
  "\u2581morning": 1679,
  "ukset": 1680,
  "\u2581otetaan": 1681,
  "\u2581Ro": 1682,
  "\u2581maybe": 1683,
  "\u2581Mar": 1684,
  "\u2581child": 1685,
  "ir": 1686,
  "\u2581kaikkia": 1687,
  "\u2581party": 1688,
  "\u2581minulla": 1689,
  "\u2581oma": 1690,
  "\u2581internal": 1691,
  "\u2581Man": 1692,
  "0": 1693,
  "ba": 1694,
  "\u2581asked": 1695,
  "\u2581outside": 1696,
  "\u2581establishing": 1697,
  "\u2581vaikuttaa": 1698,
  "12": 1699,
  "ol": 1700,
  "\u2581parties": 1701,
  "\u2581gave": 1702,
  "je": 1703,
  "\u2581olette": 1704,
  "ie": 1705,
  "\u2581thereof": 1706,
  "\u2581Kuten": 1707,
  "\u2581muista": 1708,
  "\u2581half": 1709,
  "\u2581ensimm\u00e4isen": 1710,
  "\u2581Thanks": 1711,
  "tai": 1712,
  "\u2581major": 1713,
  "\u2581enint\u00e4\u00e4n": 1714,
  "\u2581tasolla": 1715,
  "\u2581private": 1716,
  "\u2581city": 1717,
  "\u2581asiaa": 1718,
  "\u2581Meill\u00e4": 1719,
  "\u2581content": 1720,
  "\u2581equipment": 1721,
  "\u2581is\u00e4": 1722,
  "\u2581individual": 1723,
  "\u2581Other": 1724,
  "\u2581f": 1725,
  "sto": 1726,
  "\u2581sai": 1727,
  "ive": 1728,
  "\u2581thank": 1729,
  "\u2581voin": 1730,
  "\u2581though": 1731,
  "\u2581uusia": 1732,
  "\u2581Wait": 1733,
  "\u2581Muut": 1734,
  "\u2581longer": 1735,
  "\u2581November": 1736,
  "vaa": 1737,
  "\u2581tietoa": 1738,
  "nti": 1739,
  "\u2581baby": 1740,
  "\u2581friends": 1741,
  "\u2581brought": 1742,
  "\u2581received": 1743,
  "\u2581kyseisen": 1744,
  "\u2581ollen": 1745,
  "\u2581kertoa": 1746,
  "\u2581April": 1747,
  "\u2581j\u00e4senvaltioissa": 1748,
  "\u2581energia": 1749,
  "\u2581Christ": 1750,
  "\u2581suoraan": 1751,
  "\u2581low": 1752,
  "\u2581section": 1753,
  "\u258135": 1754,
  "30": 1755,
  "\u2581v\u00e4li": 1756,
  "\u2581living": 1757,
  "\u2581capital": 1758,
  "\u2581nopeasti": 1759,
  "ys": 1760,
  "\u2581di": 1761,
  "ut": 1762,
  "\u2581Some": 1763,
  "\u2581sanoo": 1764,
  "\u2581pahoillani": 1765,
  "\u2581sent": 1766,
  "llista": 1767,
  "\u2581samalla": 1768,
  "\u2581bit": 1769,
  "\u2581often": 1770,
  "\u2581varma": 1771,
  "\u2581Ta": 1772,
  "\u2581personal": 1773,
  "\u2581parlamentti": 1774,
  "\u2581boy": 1775,
  "kan": 1776,
  "\u2581tarkoitettu": 1777,
  "\u2581tee": 1778,
  "\u2581Our": 1779,
  "ell\u00e4": 1780,
  "\u2581office": 1781,
  "\u2581mink\u00e4": 1782,
  "\u2581neuvosto": 1783,
  "\u2581relating": 1784,
  "\u2581principle": 1785,
  "\u2581September": 1786,
  "\u2581rest": 1787,
  "mm": 1788,
  "\u2581existing": 1789,
  "\u2581saanut": 1790,
  "\u2581henkil\u00f6": 1791,
  "\u258190": 1792,
  "ste": 1793,
  "\u2581pieni": 1794,
  "land": 1795,
  "\u2581wouldn": 1796,
  "\u2581joista": 1797,
  "\u2581various": 1798,
  "\u2581active": 1799,
  "\u2581Tai": 1800,
  "\u2581koskevia": 1801,
  "m\u00e4": 1802,
  "ate": 1803,
  "\u258180": 1804,
  "\u2581Paul": 1805,
  "aa": 1806,
  "IT": 1807,
  "\u2581menness\u00e4": 1808,
  "\u2581similar": 1809,
  "\u2581kohtaan": 1810,
  "\u2581lukien": 1811,
  "ul": 1812,
  "\u2581toiminnan": 1813,
  "\u2581Mene": 1814,
  "tuksen": 1815,
  "\u2581Siksi": 1816,
  "kseni": 1817,
  "\u2581lost": 1818,
  "X": 1819,
  "\u2581significant": 1820,
  "\u2581l\u00e4pi": 1821,
  "\u2581arvo": 1822,
  "\u2581vesi": 1823,
  "\u2581several": 1824,
  "\u2581tehdyn": 1825,
  "\u2581my\u00f6hemmin": 1826,
  "\u2581truth": 1827,
  "tetaan": 1828,
  "\u2581capacity": 1829,
  "\u2581fight": 1830,
  "\u2581wants": 1831,
  "\u2581komissiolle": 1832,
  "\u2581regards": 1833,
  "\u2581vuosi": 1834,
  "\u2581wish": 1835,
  "\u2581maksu": 1836,
  "\u2581voida": 1837,
  "\u2581Have": 1838,
  "\u2581Dr": 1839,
  "\u00e4\u00e4n": 1840,
  "\u2581natural": 1841,
  "\u2581fuck": 1842,
  "\u2581directly": 1843,
  "com": 1844,
  "\u2581English": 1845,
  "\u2581comes": 1846,
  "\u2581criteria": 1847,
  "esti": 1848,
  "ky": 1849,
  "\u2581land": 1850,
  "\u2581Voit": 1851,
  "\u2581Jeesus": 1852,
  "\u2581met": 1853,
  "\u2581pysty": 1854,
  "hin": 1855,
  "kset": 1856,
  "\u2581General": 1857,
  "\u2581n\u00e4it\u00e4": 1858,
  "\u2581lead": 1859,
  "\u2581tullut": 1860,
  "\u2581questions": 1861,
  "\u2581heille": 1862,
  "\u2581meid\u00e4t": 1863,
  "\u2581actions": 1864,
  "\u2581myself": 1865,
  "\u2581potential": 1866,
  "\u2581tarkoittaa": 1867,
  "\u2581towards": 1868,
  "\u2581ON": 1869,
  "\u2581olevat": 1870,
  "\u2581strategy": 1871,
  "\u2581yhteen": 1872,
  "\u2581yritysten": 1873,
  "\u2581siksi": 1874,
  "\u2581esi": 1875,
  "mp": 1876,
  "\u2581valtion": 1877,
  "\u2581six": 1878,
  "\u2581ongelma": 1879,
  "\u2581auto": 1880,
  "\u2581j\u00e4senvaltiot": 1881,
  "\u2581book": 1882,
  "\u2581covered": 1883,
  "\u2581included": 1884,
  "\u2581forward": 1885,
  "En": 1886,
  "\u2581greater": 1887,
  "\u2581material": 1888,
  "\u2581AND": 1889,
  "\u2581Ri": 1890,
  "\u2581muu": 1891,
  "\u2581josta": 1892,
  "\u2581p\u00e4iv\u00e4\u00e4": 1893,
  "\u2581improve": 1894,
  "\u2581especially": 1895,
  "\u2581gone": 1896,
  "\u2581short": 1897,
  "\u2581anyone": 1898,
  "\u2581granted": 1899,
  "\u2581nojalla": 1900,
  "\u2581guess": 1901,
  "\u2581allow": 1902,
  "\u2581sinusta": 1903,
  "ot": 1904,
  "\u2581Take": 1905,
  "IN": 1906,
  "01": 1907,
  "\u2581groups": 1908,
  "k\u00e4\u00e4": 1909,
  "\u2581poika": 1910,
  "\u2581syy": 1911,
  "\u2581totta": 1912,
  "ist": 1913,
  "\u2581online": 1914,
  "teet": 1915,
  "no": 1916,
  "\u2581act": 1917,
  "\u2581past": 1918,
  "90": 1919,
  "\u2581piti": 1920,
  "\u2581kirja": 1921,
  "\u2581check": 1922,
  "of": 1923,
  "\u2581ihmisten": 1924,
  "\u2581yhteisty\u00f6": 1925,
  "tettiin": 1926,
  "\u2581earth": 1927,
  "\u2581door": 1928,
  "\u2581kohti": 1929,
  "\u2581die": 1930,
  "\u2581yleis": 1931,
  "eksi": 1932,
  "15": 1933,
  "\u2581TV": 1934,
  "\u2581evidence": 1935,
  "\u2581Appendix": 1936,
  "\u2581thinking": 1937,
  "\u2581sinne": 1938,
  "\u2581Po": 1939,
  "\u2581solution": 1940,
  "\u2581Kingdom": 1941,
  "\u2581ty\u00f6t\u00e4": 1942,
  "\u2581apua": 1943,
  "40": 1944,
  "\u2581credit": 1945,
  "\u2581activity": 1946,
  "est": 1947,
  "\u2581weeks": 1948,
  "\u2581address": 1949,
  "\u2581held": 1950,
  "\u2581higher": 1951,
  "\u2581Like": 1952,
  "\u2581review": 1953,
  "\u2581osaa": 1954,
  "\u2581cover": 1955,
  "\u2581Hu": 1956,
  "ala": 1957,
  "jien": 1958,
  "\u2581easy": 1959,
  "\u2581pari": 1960,
  "\u2581EUVL": 1961,
  "\u2581gas": 1962,
  "\u2581minusta": 1963,
  "\u2581studies": 1964,
  "\u2581tuotanto": 1965,
  "\u2581200": 1966,
  "ca": 1967,
  "bo": 1968,
  "term": 1969,
  "\u2581alakohdan": 1970,
  "\u25811998": 1971,
  "rin": 1972,
  "\u2581Olin": 1973,
  "\u2581page": 1974,
  "bi": 1975,
  "\u2581waste": 1976,
  "\u2581paid": 1977,
  "\u2581kuva": 1978,
  "\u2581His": 1979,
  "\u2581Ar": 1980,
  "\u2581Kerro": 1981,
  "\u258132": 1982,
  "\u2581kauan": 1983,
  "\u2581basic": 1984,
  "\u2581ainoa": 1985,
  "\u2581etu": 1986,
  "\u2581pretty": 1987,
  "\u2581Pe": 1988,
  "miin": 1989,
  "11": 1990,
  "\u2581ihan": 1991,
  "\u2581pe": 1992,
  "\u2581animals": 1993,
  "\u2581building": 1994,
  "tettava": 1995,
  "\u2581weight": 1996,
  "\u2581alkaen": 1997,
  "\u2581tuotteiden": 1998,
  "\u2581kuka": 1999,
  "\u2581puoli": 2000,
  "\u2581hold": 2001,
  "\u2581Pi": 2002,
  "\u2581animal": 2003,
  "\u2581started": 2004,
  "\u2581markets": 2005,
  "\u2581samaa": 2006,
  "\u2581applied": 2007,
  "\u2581quite": 2008,
  "jo": 2009,
  "\u2581alue": 2010,
  "\u2581nature": 2011,
  "\u2581purposes": 2012,
  "\u2581everyone": 2013,
  "\u2581war": 2014,
  "\u2581contact": 2015,
  "ary": 2016,
  "\u2581otettava": 2017,
  "ani": 2018,
  "\u2581Neuvosto": 2019,
  "\u258133": 2020,
  "\u2581brother": 2021,
  "\u2581added": 2022,
  "\u2581happy": 2023,
  "\u2581debate": 2024,
  "\u2581ko": 2025,
  "\",": 2026,
  "\u2581\u20ac": 2027,
  "\u2581nelj\u00e4": 2028,
  "\u2581Sorry": 2029,
  "\u2581toimenpiteet": 2030,
  "\u2581km": 2031,
  "\u2581provides": 2032,
  "\u2581Statistics": 2033,
  "\u2581sopimus": 2034,
  "\u2581JA": 2035,
  "\u2581assistance": 2036,
  "\u2581iso": 2037,
  "\u2581regions": 2038,
  "\u2581voitaisiin": 2039,
  "\u2581rather": 2040,
  "\u2581average": 2041,
  "\u2581antoi": 2042,
  "\u2581kg": 2043,
  "\u2581below": 2044,
  "arvo": 2045,
  "aali": 2046,
  "14": 2047,
  "\u2581monitoring": 2048,
  "\u2581Economic": 2049,
  "\u2581hyv\u00e4\u00e4": 2050,
  "ven": 2051,
  "\u2581kes\u00e4kuuta": 2052,
  "sit": 2053,
  "\u2581phone": 2054,
  "\u2581agricultural": 2055,
  "4/": 2056,
  "\u2581decisions": 2057,
  "\u2581instruments": 2058,
  "\u2581kaikille": 2059,
  "\u2581operation": 2060,
  "age": 2061,
  "j": 2062,
  "\u2581themselves": 2063,
  "\u2581vastuu": 2064,
  "\u2581Haluatko": 2065,
  "\u2581attention": 2066,
  "\u2581works": 2067,
  "\u2581France": 2068,
  "\u2581T\u00e4t\u00e4": 2069,
  "kas": 2070,
  "\u2581=": 2071,
  "\u2581ihmisi\u00e4": 2072,
  "\u2581Will": 2073,
  "16": 2074,
  "lan": 2075,
  "\u2581kuukauden": 2076,
  "\u2581Social": 2077,
  "\u2581menee": 2078,
  "ver": 2079,
  "\u2581code": 2080,
  "\u2581seuraavat": 2081,
  "17": 2082,
  "\u2581koti": 2083,
  "\u2581happen": 2084,
  "\u2581funds": 2085,
  "\u2581voimaan": 2086,
  "\u2581EYVL": 2087,
  "tty": 2088,
  "val": 2089,
  "\u2581ri": 2090,
  "\u2581along": 2091,
  "\u2581mene": 2092,
  "\u2581edell\u00e4": 2093,
  "\u2581Her": 2094,
  "\u2581tosi": 2095,
  "\u2581fully": 2096,
  "\u2581almost": 2097,
  "ting": 2098,
  "\u2581po": 2099,
  "\u2581n\u00e4hnyt": 2100,
  "\u2581principles": 2101,
  "\u2581sivu": 2102,
  "\u2581proposals": 2103,
  "\u2581operations": 2104,
  "\u2581yksin": 2105,
  "\u2581benefit": 2106,
  "\u2581kaikissa": 2107,
  "\u2581alakohdassa": 2108,
  "\u2581video": 2109,
  "\u2581bodies": 2110,
  "\u2581strong": 2111,
  "\u2581Official": 2112,
  "\u2581yleens\u00e4": 2113,
  "aika": 2114,
  "DE": 2115,
  "\u2581esitt\u00e4\u00e4": 2116,
  "\u2581maximum": 2117,
  "\u2581exchange": 2118,
  "\u2581annual": 2119,
  "\u2581olin": 2120,
  "\u2581yhteisty\u00f6t\u00e4": 2121,
  "one": 2122,
  "\u2581safe": 2123,
  "\u2581tuon": 2124,
  "\u2581joihin": 2125,
  "\u2581probably": 2126,
  "ling": 2127,
  "\u2581text": 2128,
  "\u2581lo": 2129,
  "for": 2130,
  "\u2581context": 2131,
  "\u2581inside": 2132,
  "\u2581follow": 2133,
  "\u2581direktiivi": 2134,
  "\u2581economy": 2135,
  "\u2581osoittaa": 2136,
  "\u2581voinut": 2137,
  "\u2581cross": 2138,
  "\u2581early": 2139,
  "\u2581Bank": 2140,
  "\u2581supply": 2141,
  "\u2581ensimm\u00e4inen": 2142,
  "isesti": 2143,
  "\u2581enter": 2144,
  "\u2581TO": 2145,
  "tys": 2146,
  "\u2581direct": 2147,
  "\u2581vaikea": 2148,
  "\u2581sound": 2149,
  "\u2581Lo": 2150,
  "\u2581Articles": 2151,
  "din": 2152,
  "\u2581niihin": 2153,
  "\u2581rahaa": 2154,
  "con": 2155,
  "ING": 2156,
  "\u2581Etk\u00f6": 2157,
  "su": 2158,
  "im": 2159,
  "\u2581Asia": 2160,
  "\u2581oikea": 2161,
  "\u2581knowledge": 2162,
  "tri": 2163,
  "\u2581late": 2164,
  "\u2581Israel": 2165,
  "rs": 2166,
  "\u2581cause": 2167,
  "\u2581administrative": 2168,
  "\u2581defined": 2169,
  "\u2581First": 2170,
  "\u2581varmistaa": 2171,
  "ine": 2172,
  "\u2581eyes": 2173,
  "oma": 2174,
  "\u2581arviointi": 2175,
  "\u2581payment": 2176,
  "\u2581road": 2177,
  "vel": 2178,
  "\u2581objective": 2179,
  "ska": 2180,
  "\u2581itself": 2181,
  "\u2581answer": 2182,
  "\u2581muuttaa": 2183,
  "\u2581fire": 2184,
  "by": 2185,
  "\u2581hands": 2186,
  "matta": 2187,
  "\u2581exactly": 2188,
  "\u2581kalastus": 2189,
  "\u2581Ole": 2190,
  "j\u00e4rjestelm\u00e4": 2191,
  "\u2581Ju": 2192,
  "\u2581mist\u00e4": 2193,
  "t\u00f6": 2194,
  "\u2581Con": 2195,
  "\u2581haven": 2196,
  "\u2581values": 2197,
  "der": 2198,
  "\u2581Commissioner": 2199,
  "\u2581asioita": 2200,
  "\u2581importance": 2201,
  "@": 2202,
  "\u2581responsibility": 2203,
  "\u2581pu": 2204,
  "\u2581February": 2205,
  "\u2581kansalais": 2206,
  "\u2581moni": 2207,
  "\u2581offer": 2208,
  "\u2581himself": 2209,
  "p\u00e4\u00e4": 2210,
  "\u2581Val": 2211,
  "voi": 2212,
  "\u2581Jack": 2213,
  "ien": 2214,
  "\u2581useita": 2215,
  "\u2581turva": 2216,
  "\u2581mahdollisimman": 2217,
  ".\u201d": 2218,
  "\u2581Mu": 2219,
  "\u2581Neuvoston": 2220,
  "\u2581Di": 2221,
  "\u2581reports": 2222,
  "\u2581tapa": 2223,
  "\u2581Vi": 2224,
  "\u2581Brussels": 2225,
  "\u2581syyt\u00e4": 2226,
  "\u2581agreements": 2227,
  "\u2581OK": 2228,
  "\u2581minimum": 2229,
  "\u2581pursuant": 2230,
  "\u2581submitted": 2231,
  "\u2581olleet": 2232,
  "\u2581performance": 2233,
  "imme": 2234,
  "\u2581toimii": 2235,
  "line": 2236,
  "\u2581T\u00e4st\u00e4": 2237,
  "\u2581Euro": 2238,
  "\u2581Tell": 2239,
  "\u2581IV": 2240,
  "\u2581Wi": 2241,
  "\u2581raha": 2242,
  "\u2581cut": 2243,
  "\u2581Ben": 2244,
  "yl": 2245,
  "\u2581Ku": 2246,
  "\u2581standard": 2247,
  "ran": 2248,
  "\u2581kukaan": 2249,
  "\u25811997": 2250,
  "\u2581parts": 2251,
  "\u2581k\u00e4si": 2252,
  "\u2581loppu": 2253,
  "vu": 2254,
  "13": 2255,
  "\u2581knows": 2256,
  "\u2581Is\u00e4": 2257,
  "\u2581moment": 2258,
  "\u2581range": 2259,
  "ex": 2260,
  "\u2581hallinto": 2261,
  "\u2581koskevista": 2262,
  "id": 2263,
  "\u2581communication": 2264,
  "\u2581fishing": 2265,
  "\u2581police": 2266,
  "\u2581sille": 2267,
  "\u2581amendments": 2268,
  "\u2581cent": 2269,
  "\u2581ase": 2270,
  "\u2581More": 2271,
  "\u2581ke": 2272,
  "\u2581decided": 2273,
  "\u2581network": 2274,
  "\u2581ty\u00f6n": 2275,
  "\u2581measure": 2276,
  "\u2581katso": 2277,
  "\u2581intended": 2278,
  "\u2581Hello": 2279,
  "\u2581kid": 2280,
  "\u2581con": 2281,
  "\u2581entry": 2282,
  "\u2581essential": 2283,
  "\u2581organisations": 2284,
  "tettu": 2285,
  "\u2581speak": 2286,
  "utta": 2287,
  "\u2581Finnish": 2288,
  "\u2581regulation": 2289,
  "\u2581radio": 2290,
  "\u2581site": 2291,
  "vin": 2292,
  "tiin": 2293,
  "\u2581reported": 2294,
  "\u2581news": 2295,
  "llisten": 2296,
  "\u2581paremmin": 2297,
  "\u258136": 2298,
  "\u2581behind": 2299,
  "\u2581hieman": 2300,
  "\u258170": 2301,
  "\u2581[1]": 2302,
  "\u2581takes": 2303,
  "\u2581odottaa": 2304,
  "\u2581approved": 2305,
  "9": 2306,
  "\u2581tomorrow": 2307,
  "\u2581return": 2308,
  "jan": 2309,
  "\u2581listen": 2310,
  "\u2581tarvitaan": 2311,
  "\u2581kilpailu": 2312,
  "\u2581anteeksi": 2313,
  "\u2581kauppa": 2314,
  "\u2581EY": 2315,
  "\u2581Jehova": 2316,
  "\u2581region": 2317,
  "\u2581vehicle": 2318,
  "\u2581uutta": 2319,
  "lli": 2320,
  "\u2581hoito": 2321,
  "\u2581analysis": 2322,
  "\u2581pit\u00e4nyt": 2323,
  "\u2581sy\u00f6": 2324,
  "\u2581peli": 2325,
  "18": 2326,
  "\u2581practice": 2327,
  "\u2581oman": 2328,
  "\u2581labour": 2329,
  "\u2581step": 2330,
  "\u2581annetaan": 2331,
  "\u2581liittyy": 2332,
  "\u2581Ki": 2333,
  "\u2581workers": 2334,
  "\u2581yhteis\u00f6jen": 2335,
  "kko": 2336,
  "\u2581viranomaisten": 2337,
  "\u2581Suomen": 2338,
  "\u2581Ota": 2339,
  "\u2581al": 2340,
  "\u2581yhteisen": 2341,
  "\u2581sense": 2342,
  "\u2581voimassa": 2343,
  "23": 2344,
  "\u2581korkea": 2345,
  "ajan": 2346,
  "oli": 2347,
  "\u2581ulko": 2348,
  "usta": 2349,
  "\u2581vaikutus": 2350,
  "95": 2351,
  "t\u00e4\u00e4n": 2352,
  "\u2581drink": 2353,
  "\u2581yes": 2354,
  "pro": 2355,
  "\u2581nor": 2356,
  "Se": 2357,
  "\u2581annettava": 2358,
  "\u2581implementing": 2359,
  "\u2581Sam": 2360,
  "\u2581alueen": 2361,
  "hti": 2362,
  "\u2581chance": 2363,
  "ski": 2364,
  "\u2581regarding": 2365,
  "\u2581kuuluvat": 2366,
  "y\u00f6": 2367,
  "\u2581expenditure": 2368,
  "\u2581jolloin": 2369,
  "ler": 2370,
  "eli": 2371,
  "\u2581across": 2372,
  "\u2581seuraa": 2373,
  "24": 2374,
  "\u2581\u00e4iti": 2375,
  "\u2581normal": 2376,
  "\u2581meni": 2377,
  "\u2581saatavilla": 2378,
  "\u2581k\u00e4ytt\u00f6\u00e4": 2379,
  "\u2581Lord": 2380,
  "\u2581oil": 2381,
  "\u2581kaikkea": 2382,
  "Z": 2383,
  "est\u00e4": 2384,
  "tut": 2385,
  "ker": 2386,
  "\u2581johtaa": 2387,
  "\u00c4": 2388,
  "\u2581h\u00e4nest\u00e4": 2389,
  "\u2581T\u00e4\u00e4ll\u00e4": 2390,
  "\u2581directive": 2391,
  "\u25811995": 2392,
  "\u2581consider": 2393,
  "\u2581yritys": 2394,
  "tuu": 2395,
  "\u2581vote": 2396,
  "\u2581EESC": 2397,
  "\u2581From": 2398,
  "\u2581Germany": 2399,
  "7/": 2400,
  "ura": 2401,
  "\u2581David": 2402,
  "\u2581peace": 2403,
  "\u2581tonight": 2404,
  "\u2581House": 2405,
  "\u2581stuff": 2406,
  "\u2581asetuksessa": 2407,
  "\u2581difficult": 2408,
  "\u2581raja": 2409,
  "\u2581term": 2410,
  "\u2581x": 2411,
  "\u2581kar": 2412,
  "\u2581El": 2413,
  "ner": 2414,
  "mer": 2415,
  "EUVL": 2416,
  "\u2581aiheuttaa": 2417,
  "IS": 2418,
  "\u2581tehd\u00e4\u00e4n": 2419,
  "\u2581disease": 2420,
  "ley": 2421,
  "\u2581osuus": 2422,
  "ES": 2423,
  "ad": 2424,
  "\u2581Aivan": 2425,
  "\u2581Windows": 2426,
  "\u2581alkaa": 2427,
  "?\"": 2428,
  "\u2581event": 2429,
  "\u2581Tu": 2430,
  "\u2581Peter": 2431,
  "ger": 2432,
  "\u2581Pro": 2433,
  "\u2581staff": 2434,
  "\u2581replaced": 2435,
  "\u2581thus": 2436,
  "\u2581oikeassa": 2437,
  "22": 2438,
  "\u2581couldn": 2439,
  "\u2581imports": 2440,
  "osa": 2441,
  "tel": 2442,
  "\u2581kuulu": 2443,
  "\u2581ensin": 2444,
  "\u2581ongelmia": 2445,
  "\u2581limited": 2446,
  "\u2581figure": 2447,
  "05": 2448,
  "\u2581Internet": 2449,
  "\u2581mu": 2450,
  "\u2581Vain": 2451,
  "\u2581sub": 2452,
  "ard": 2453,
  "\u2581create": 2454,
  "\u2581hetkell\u00e4": 2455,
  "ppi": 2456,
  "\u2581P\u00e4\u00e4": 2457,
  "\u2581koulutus": 2458,
  "\u2581Z": 2459,
  "\u2581tammikuuta": 2460,
  "1/": 2461,
  "\u2581talouden": 2462,
  "\u2581positive": 2463,
  "EL": 2464,
  "\u2581trust": 2465,
  "35": 2466,
  "\u2581pressure": 2467,
  "\u2581sama": 2468,
  "\u2581International": 2469,
  "\u2581reasons": 2470,
  "\u2581import": 2471,
  "\u2581provision": 2472,
  "\u2581published": 2473,
  "\u2581Convention": 2474,
  "\u2581protect": 2475,
  "\u25811996": 2476,
  "\u2581Siit\u00e4": 2477,
  "eu": 2478,
  "\u2581sustainable": 2479,
  "21": 2480,
  "ism": 2481,
  "\u2581juttu": 2482,
  "\u2581associated": 2483,
  "\u2581puhu": 2484,
  "\u2581games": 2485,
  "9/": 2486,
  "\u2581ottaen": 2487,
  "ole": 2488,
  "\u2581Per": 2489,
  "\u2581designed": 2490,
  "\u2581civil": 2491,
  "\u2581team": 2492,
  "Ei": 2493,
  "\u2581tarkoituksena": 2494,
  "\u2581efforts": 2495,
  "\u2581lains\u00e4\u00e4d\u00e4nn\u00f6n": 2496,
  "\u2581top": 2497,
  "\u2581clearly": 2498,
  "\u2581eat": 2499,
  "\u2581America": 2500,
  "\u2581behalf": 2501,
  "\u2581liittyvi\u00e4": 2502,
  "\u2581toimintaa": 2503,
  "\u2581tulevat": 2504,
  "\u2581administration": 2505,
  "\u2581osin": 2506,
  "\u2581central": 2507,
  "\u2581asiasta": 2508,
  "04": 2509,
  "\u2581keski": 2510,
  "\u2581edist\u00e4\u00e4": 2511,
  "\u2581agree": 2512,
  "\u2581recent": 2513,
  "\u2581joko": 2514,
  "\u25816.": 2515,
  "\u2581Dad": 2516,
  "\u2581World": 2517,
  "\u258137": 2518,
  "\u2581mo": 2519,
  "\u2581muassa": 2520,
  "\u2581front": 2521,
  "\u2581contribution": 2522,
  "\u2581supposed": 2523,
  "\u2581whose": 2524,
  "\u2581s\u00e4hk\u00f6": 2525,
  "\u2581interests": 2526,
  "\u2581agreed": 2527,
  "neuvoston": 2528,
  "\u2581population": 2529,
  "\u2581member": 2530,
  "\u2581Home": 2531,
  "\u2581pi": 2532,
  "\u258145": 2533,
  "\u2581vahvistaa": 2534,
  "\u2581j\u00e4lleen": 2535,
  "\u2581Su": 2536,
  "\u2581su": 2537,
  "\u2581kulttuuri": 2538,
  "\u2581beautiful": 2539,
  "\u2581goes": 2540,
  "\u2581rates": 2541,
  "\u2581ones": 2542,
  "\u2581tavoin": 2543,
  "\u2581matters": 2544,
  "\u2581yhteis\u00f6": 2545,
  "\u2581ihmis": 2546,
  "\u2581language": 2547,
  "\u2581kuluessa": 2548,
  "\u2581develop": 2549,
  "\u2581minute": 2550,
  "\u2581lasten": 2551,
  "\u2581ty": 2552,
  "\u2581lie": 2553,
  "\u2581lives": 2554,
  "\u2581message": 2555,
  "\u2581follows": 2556,
  "\u2581Stop": 2557,
  "\u2581paikka": 2558,
  "ated": 2559,
  "\u2581specified": 2560,
  "\u2581saat": 2561,
  "\u2581parents": 2562,
  "ci": 2563,
  "\u2581toimenpiteit\u00e4": 2564,
  "\u2581kids": 2565,
  "\u2581publication": 2566,
  "\u2581stand": 2567,
  "\u2581Since": 2568,
  "\u2581sis\u00e4ll\u00e4": 2569,
  "tto": 2570,
  "\u2581charge": 2571,
  "\u2581spirit": 2572,
  "\u2581kasvu": 2573,
  "\u2581sex": 2574,
  "\u2581na": 2575,
  "\u2581opportunity": 2576,
  "\u2581month": 2577,
  "\u25812017": 2578,
  "\u2581meri": 2579,
  "\u2581inter": 2580,
  "\u2581pikku": 2581,
  "\u2581paino": 2582,
  "\u2581technology": 2583,
  "\u2581containing": 2584,
  "\u2581ETSK": 2585,
  "\u2581promote": 2586,
  "\u2581l\u00e4hell\u00e4": 2587,
  "\u2581paper": 2588,
  "\u2581tarvittaessa": 2589,
  "\u2581global": 2590,
  "\u2581yhteis": 2591,
  "\u2581r": 2592,
  "\u2581kuollut": 2593,
  "\u2581sosiaali": 2594,
  "\u2581perustuu": 2595,
  "\u2581kysymys": 2596,
  "\u2581unioni": 2597,
  "\u2581documents": 2598,
  "ED": 2599,
  "\u2581hein\u00e4kuuta": 2600,
  "nnin": 2601,
  "\u2581J\u00e4senvaltioiden": 2602,
  "\u258175": 2603,
  "m\u00e4\u00e4r\u00e4": 2604,
  "\u2581suhteen": 2605,
  "sh": 2606,
  "llisen": 2607,
  "\u2581kansallisten": 2608,
  "\u2581South": 2609,
  "\u2581joint": 2610,
  "\u2581van": 2611,
  "\u2581koulu": 2612,
  "\u2581sy": 2613,
  "hu": 2614,
  "\u2581Listen": 2615,
  "\u2581parempi": 2616,
  "\u2581materials": 2617,
  "\u2581vara": 2618,
  "\u2581saavat": 2619,
  "\u2581details": 2620,
  "\u2581h": 2621,
  "\u2581kunnes": 2622,
  "\u2581San": 2623,
  "\u2581yksityiskohtais": 2624,
  "\u2581Lu": 2625,
  "\u2581self": 2626,
  "\u2581Ru": 2627,
  "\u2581EKP": 2628,
  "\u2581tuote": 2629,
  "\u2581Bo": 2630,
  "\u2581500": 2631,
  "\u2581silt\u00e4": 2632,
  "\u2581l\u00f6yt\u00e4\u00e4": 2633,
  "\u2581tekem\u00e4\u00e4n": 2634,
  "\u2581vaatimukset": 2635,
  "\u2581liikenne": 2636,
  "\u2581equal": 2637,
  "\u2581li": 2638,
  "tra": 2639,
  "\u2581aiemmin": 2640,
  "\u2581duty": 2641,
  "\u2581seuraavaa": 2642,
  "aine": 2643,
  "\u2581hit": 2644,
  "\u2581Pu": 2645,
  "tic": 2646,
  "\u2581mahdollisuus": 2647,
  "ak": 2648,
  "ase": 2649,
  "\u2581tarkoitus": 2650,
  "\u2581el\u00e4m\u00e4n": 2651,
  "\u258134": 2652,
  "\u2581Central": 2653,
  "\u2581expected": 2654,
  "\u2581Sill\u00e4": 2655,
  "du": 2656,
  "\u2581anna": 2657,
  "\u2581tie": 2658,
  "\u2581contains": 2659,
  "mon": 2660,
  "my": 2661,
  "\u2581lokakuuta": 2662,
  "\u2581husband": 2663,
  "\u2581tilanne": 2664,
  "misest\u00e4": 2665,
  "\u2581send": 2666,
  "\u2581benefits": 2667,
  "\u2581ka": 2668,
  "tt\u00e4v\u00e4": 2669,
  "\u2581crisis": 2670,
  "\u2581looks": 2671,
  "\u2581tuen": 2672,
  "\u2581perhe": 2673,
  "\u2581approval": 2674,
  "\u2581Car": 2675,
  "\u2581Ba": 2676,
  "60": 2677,
  "\u2581jatkaa": 2678,
  "\u2581previous": 2679,
  "\u2581kiitos": 2680,
  "\u2581achieve": 2681,
  "\u2581learn": 2682,
  "+": 2683,
  "\u2581overall": 2684,
  "\u2581giving": 2685,
  "II": 2686,
  "asi": 2687,
  "ster": 2688,
  "\u2581tunne": 2689,
  "\u2581maatalous": 2690,
  "\u2581vuosina": 2691,
  "l\u00e4": 2692,
  "\u2581St": 2693,
  "\u2581IN": 2694,
  "\u2581external": 2695,
  "\u2581merkitt\u00e4v\u00e4": 2696,
  "\u2581vaatimusten": 2697,
  "\u2581watch": 2698,
  "\u2581t\u00e4\u00e4lt\u00e4": 2699,
  "\u2581investigation": 2700,
  "ah": 2701,
  "\u2581listed": 2702,
  "\u2581tapauksissa": 2703,
  "AT": 2704,
  "\u2581Journal": 2705,
  "\u2581Sinulla": 2706,
  "\u2581detailed": 2707,
  "jat": 2708,
  "\u25812018": 2709,
  "96": 2710,
  "\u2581document": 2711,
  "\u2581Lis\u00e4\u00e4": 2712,
  "masta": 2713,
  "31": 2714,
  "\u2581resolution": 2715,
  "\u2581export": 2716,
  "palvelu": 2717,
  "time": 2718,
  "\u2581break": 2719,
  "\u2581<": 2720,
  "\u2581Italian": 2721,
  "\u2581town": 2722,
  "\u2581response": 2723,
  "\u2581jotakin": 2724,
  "\u2581EEA": 2725,
  "\u2581Give": 2726,
  "\u2581Da": 2727,
  "\u2581remain": 2728,
  "vi\u00e4": 2729,
  "\u2581worry": 2730,
  "stu": 2731,
  "\u2581origin": 2732,
  "\u2581prevent": 2733,
  "tun": 2734,
  "\u2581carry": 2735,
  "\u2581developed": 2736,
  "\u2581complete": 2737,
  "don": 2738,
  "\u2581Agency": 2739,
  "\u2581Christian": 2740,
  "\u2581fun": 2741,
  "80": 2742,
  "uus": 2743,
  "\u2581developing": 2744,
  "\u2581vapaa": 2745,
  "\u2581Therefore": 2746,
  "\u2581obligations": 2747,
  "dll": 2748,
  "\u2581story": 2749,
  "000": 2750,
  "\u2581save": 2751,
  "\u2581ten": 2752,
  "\u2581Har": 2753,
  "27": 2754,
  "\u2581N\u00e4yt\u00e4": 2755,
  "mus": 2756,
  "AL": 2757,
  "\u2581reduce": 2758,
  "tava": 2759,
  "\u2581ikin\u00e4": 2760,
  "\u2581t": 2761,
  "Mit\u00e4": 2762,
  "\u2581selv\u00e4sti": 2763,
  "\u2581s\u00e4\u00e4det\u00e4\u00e4n": 2764,
  "\u2581ensi": 2765,
  "\u2581hurt": 2766,
  "\u2581esiin": 2767,
  "ET": 2768,
  "\u2581maaliskuuta": 2769,
  "\u2581amending": 2770,
  "\u2581seems": 2771,
  "\u2581vehicles": 2772,
  "\u2581history": 2773,
  "28": 2774,
  "\u2581fixed": 2775,
  "\u2581l\u00e4hes": 2776,
  "\u2581tu": 2777,
  "\u2581media": 2778,
  "\u2581300": 2779,
  "\u2581huh": 2780,
  "\u2581reduction": 2781,
  "\u2581post": 2782,
  "\u2581l\u00e4hte\u00e4": 2783,
  "tt\u00e4\u00e4": 2784,
  "we": 2785,
  "\u2581Really": 2786,
  "\u2581white": 2787,
  "\u2581sea": 2788,
  "\u2581poliisi": 2789,
  "99": 2790,
  "\u2581walk": 2791,
  "ance": 2792,
  "ei": 2793,
  "\u2581Development": 2794,
  "\u2581matka": 2795,
  "\u2581par": 2796,
  "ris": 2797,
  "\u2581French": 2798,
  "\u2581National": 2799,
  "out": 2800,
  "\u2581Ty\u00f6": 2801,
  "\u2581People": 2802,
  "\u2581pyyt\u00e4\u00e4": 2803,
  "\u2581died": 2804,
  "\u258148": 2805,
  "\u2581tappaa": 2806,
  "\u2581Va": 2807,
  "\u2581Sir": 2808,
  "\u2581lu": 2809,
  "\u2581ain": 2810,
  "\u2581Hotel": 2811,
  "\u2581lower": 2812,
  "\u2581va": 2813,
  "\u2581organisation": 2814,
  "\u2581tried": 2815,
  "\u2581mentioned": 2816,
  "\u2581tytt\u00f6": 2817,
  "\u2581pain": 2818,
  "\u2581contract": 2819,
  "\u2581Government": 2820,
  "\u2581Odota": 2821,
  "\u2581funding": 2822,
  "\u2581osan": 2823,
  "98": 2824,
  "\u2581alas": 2825,
  "\u2581alueiden": 2826,
  "\u2581choice": 2827,
  "\u2581Ke": 2828,
  "\u2581size": 2829,
  "\u2581kansalaisten": 2830,
  "\u2581Any": 2831,
  "\u2581Ex": 2832,
  "fa": 2833,
  "kkaa": 2834,
  "\u2581gets": 2835,
  "\u2581dad": 2836,
  "\u2581drive": 2837,
  "\u2581ground": 2838,
  "\u2581parantaa": 2839,
  "staan": 2840,
  "tia": 2841,
  "\u2581scope": 2842,
  "\u2581tavoitteena": 2843,
  "\u2581billion": 2844,
  "\u2581huono": 2845,
  "\u2581events": 2846,
  "\u2581Ah": 2847,
  "\u2581consumption": 2848,
  "\u258138": 2849,
  "port": 2850,
  "ville": 2851,
  "\u2581My\u00f6s": 2852,
  "\u2581kolmen": 2853,
  "\u2581foreign": 2854,
  "ssi": 2855,
  "udu": 2856,
  "\u2581toteuttaa": 2857,
  "kun": 2858,
  "\u2581draft": 2859,
  "\u2581varmaan": 2860,
  "\u2581tarjoaa": 2861,
  "uksesta": 2862,
  "\u2581T\u00e4ll\u00e4": 2863,
  "\u2581paitsi": 2864,
  "\u2581saman": 2865,
  "\u2581tuntia": 2866,
  "\u2581assets": 2867,
  "tk\u00f6": 2868,
  "\u2581tuota": 2869,
  "\u2581ymm\u00e4rr\u00e4": 2870,
  "ero": 2871,
  "\u2581Ti": 2872,
  "\u2581viranomaiset": 2873,
  "\u2581UN": 2874,
  "\u2581fall": 2875,
  "\u2581status": 2876,
  "lleen": 2877,
  "\u2581operating": 2878,
  "70": 2879,
  "09": 2880,
  "\u2581require": 2881,
  "\u258185": 2882,
  "\u2581Even": 2883,
  "\u2581n\u00e4ist\u00e4": 2884,
  "toimi": 2885,
  "v\u00e4n": 2886,
  "\u2581v\u00e4hemm\u00e4n": 2887,
  "not": 2888,
  "\u2581calls": 2889,
  "\u2581Nothing": 2890,
  "5/": 2891,
  "\u2581providing": 2892,
  "\u2581fish": 2893,
  "\u00b0": 2894,
  "\u2581[2]": 2895,
  "\u2581balance": 2896,
  "\u2581sellaisten": 2897,
  "\u2581monia": 2898,
  "\u2581Fa": 2899,
  "\u2581couple": 2900,
  "var": 2901,
  "\u2581Party": 2902,
  "\u2581aim": 2903,
  "\u2581Ca": 2904,
  "\u2581ainakin": 2905,
  "amme": 2906,
  "\u2581viisi": 2907,
  "mpaa": 2908,
  "\u2581Du": 2909,
  "3/": 2910,
  "\u2581per\u00e4isin": 2911,
  "\u2581edellytt\u00e4\u00e4": 2912,
  "\u2581Un": 2913,
  "\u2581buy": 2914,
  "\u2581n": 2915,
  "ksemme": 2916,
  "\u2581terveys": 2917,
  "\u2581ihmisen": 2918,
  "\u2581oikeuden": 2919,
  "\u2581ro": 2920,
  "29": 2921,
  "\u2581Bar": 2922,
  "\u2581insurance": 2923,
  "rit": 2924,
  "\u2581Michael": 2925,
  "\u2581statistics": 2926,
  "\u2581var": 2927,
  "\u2581arrangements": 2928,
  "p\u00e4iv\u00e4": 2929,
  "\u2581entire": 2930,
  "\u2581Mi": 2931,
  "misessa": 2932,
  "ous": 2933,
  "\u2581h\u00e4nell\u00e4": 2934,
  "\u2581p\u00e4\u00e4lle": 2935,
  "\u2581adopt": 2936,
  "\u2581v\u00e4ri": 2937,
  "\u2581created": 2938,
  "mmin": 2939,
  "\u2581teid\u00e4t": 2940,
  "\u2581Section": 2941,
  "1999": 2942,
  "\u2581sijaan": 2943,
  "mar": 2944,
  "\u2581methods": 2945,
  "\u2581avoid": 2946,
  "\u2581Those": 2947,
  "\u2581receive": 2948,
  "\u2581uusien": 2949,
  "\u2581consumer": 2950,
  "\u2581Report": 2951,
  "ite": 2952,
  "\u2581ECB": 2953,
  "\u2581maksa": 2954,
  "2002": 2955,
  "\u2581scheme": 2956,
  "\u2581aine": 2957,
  "\u2581sleep": 2958,
  "\u2581suurempi": 2959,
  "\u2581numero": 2960,
  "\u2581toiminnasta": 2961,
  "aatio": 2962,
  "\u2581sellaisena": 2963,
  "\u2581Am": 2964,
  "\u2581Voin": 2965,
  "\u2581edess\u00e4": 2966,
  "tie": 2967,
  "\u2581guarantee": 2968,
  "ken": 2969,
  "\u2581EUROPEAN": 2970,
  "\u2581toukokuuta": 2971,
  "75": 2972,
  "\u2581paras": 2973,
  "\u2581industrial": 2974,
  "\u2581sectors": 2975,
  "taso": 2976,
  "eseen": 2977,
  "\u2581hair": 2978,
  "\u2581sales": 2979,
  "ron": 2980,
  "\u2581muuttamisesta": 2981,
  "tele": 2982,
  "\u2581ti": 2983,
  "\u2581viimeksi": 2984,
  "\u2581substances": 2985,
  "isuus": 2986,
  "teli": 2987,
  "\u2581EUROOPAN": 2988,
  "\u2581Jeesuksen": 2989,
  "\u2581producers": 2990,
  "\u2581crazy": 2991,
  "\u2581states": 2992,
  "\u2581VI": 2993,
  "\u2581space": 2994,
  "\u2581silti": 2995,
  "\u2581relation": 2996,
  "\u2581kanta": 2997,
  "\u2581model": 2998,
  "\u2581lausunnon": 2999,
  "\u2581tasa": 3000,
  "\u2581daily": 3001,
  "\u2581method": 3002,
  "\u2581loppuun": 3003,
  "\u2581Joo": 3004,
  "\u2581julkisen": 3005,
  "\u2581kuukautta": 3006,
  "\u2581sign": 3007,
  "\u258139": 3008,
  "\u2581k\u00e4yt\u00f6n": 3009,
  "\u2581presented": 3010,
  "ryhm\u00e4n": 3011,
  "\u2581huomiota": 3012,
  "\u2581Two": 3013,
  "\u2581dis": 3014,
  "\u2581hot": 3015,
  "\u2581welcome": 3016,
  "\u2581risks": 3017,
  "\u2581vaimo": 3018,
  "\u2581lain": 3019,
  "\u2581palvelu": 3020,
  "\u2581maassa": 3021,
  "\u2581likely": 3022,
  "\u2581emissions": 3023,
  "\u2581liittyvien": 3024,
  "\u2581fair": 3025,
  "\u2581vi": 3026,
  "\u2581ISSN": 3027,
  "\u2581lento": 3028,
  "\u2581shot": 3029,
  "\u2581nainen": 3030,
  "97": 3031,
  "\u2581naisten": 3032,
  "26": 3033,
  "\u2581mine": 3034,
  "olo": 3035,
  "\u2581partners": 3036,
  "ow": 3037,
  "\u2581About": 3038,
  "\u2581worked": 3039,
  "08": 3040,
  "tar": 3041,
  "\u2581rule": 3042,
  "\u2581teksti": 3043,
  "\u2581yhteytt\u00e4": 3044,
  "\u2581running": 3045,
  "\u2581asu": 3046,
  "neiden": 3047,
  "\u2581Fund": 3048,
  "\u2581hyv\u00e4ksi": 3049,
  "\u2581ho": 3050,
  "\u2581establish": 3051,
  "\u2581Tied\u00e4tk\u00f6": 3052,
  "\u2581maksaa": 3053,
  "\u2581immediately": 3054,
  "\u2581gentlemen": 3055,
  "\u2581vahvistetaan": 3056,
  "ide": 3057,
  "tila": 3058,
  "\u2581skin": 3059,
  "ksesi": 3060,
  "\u2581Si": 3061,
  "\u2581riski": 3062,
  "\u2581#": 3063,
  "\u2581afraid": 3064,
  "\u2581H\u00e4nell\u00e4": 3065,
  "fe": 3066,
  "\u2581Information": 3067,
  "\u2581August": 3068,
  "\u2581p\u00e4\u00e4tt\u00e4\u00e4": 3069,
  "ty\u00f6": 3070,
  "\u2581participation": 3071,
  "\u2581shown": 3072,
  "\u2581kyseess\u00e4": 3073,
  "ps": 3074,
  "\u2581Vuonna": 3075,
  "nd": 3076,
  "\u2581types": 3077,
  "\u2581York": 3078,
  "\u2581sugar": 3079,
  "\u2581alla": 3080,
  "\u2581favour": 3081,
  "\u2581j\u00e4rjestelm\u00e4": 3082,
  "iko": 3083,
  "\u2581kaikista": 3084,
  "tion": 3085,
  "\u2581suurin": 3086,
  "\u2581k\u00e4ytett\u00e4viss\u00e4": 3087,
  "par": 3088,
  "\u2581erityisen": 3089,
  "02": 3090,
  "\u2581currently": 3091,
  "\u2581markkinoille": 3092,
  "\u2581hyv\u00e4ksy\u00e4": 3093,
  "\u2581transfer": 3094,
  "\u2581ilma": 3095,
  "\u2581relationship": 3096,
  "\u2581l\u00e4htien": 3097,
  "\u2581Euroopassa": 3098,
  "\u2581Only": 3099,
  "\u2581ohi": 3100,
  "\u2581monet": 3101,
  "day": 3102,
  "\u2581circumstances": 3103,
  "\u2581interested": 3104,
  "\u2581authorisation": 3105,
  "\u2581maissa": 3106,
  "\u2581sis\u00e4": 3107,
  "ori": 3108,
  "\u2581p\u00e4\u00e4ll\u00e4": 3109,
  "\u2581Free": 3110,
  "\u2581Cor": 3111,
  "\u2581jokin": 3112,
  "\u2581marraskuuta": 3113,
  "\u201d.": 3114,
  "\u2581ottamatta": 3115,
  "nnan": 3116,
  "RE": 3117,
  "\u2581vanha": 3118,
  "mat": 3119,
  "\u2581hour": 3120,
  "\u25812020": 3121,
  "t\u00e4\u00e4": 3122,
  "\u2581Great": 3123,
  "In": 3124,
  "\u2581Li": 3125,
  "kar": 3126,
  "\u2581consumers": 3127,
  "\u2581plant": 3128,
  "\u2581hinta": 3129,
  "\u2581financing": 3130,
  "\u2581k\u00e4vi": 3131,
  "\u2581kaupan": 3132,
  "\u2581issued": 3133,
  "\u2581syyst\u00e4": 3134,
  "\u2581treated": 3135,
  "\u2581compared": 3136,
  "\u2581Edell\u00e4": 3137,
  "\u2581freedom": 3138,
  "\u2581sit": 3139,
  "\u2581bio": 3140,
  "mies": 3141,
  "\u2581accept": 3142,
  "\u2581Menn\u00e4\u00e4n": 3143,
  "\u2581le": 3144,
  "\u2581Mom": 3145,
  "gi": 3146,
  "\u2581throughout": 3147,
  "\u2581ahead": 3148,
  "\u2581income": 3149,
  "\u2581limit": 3150,
  "\u2581rapporteur": 3151,
  "\u2581voima": 3152,
  "\u2581Etel\u00e4": 3153,
  "\u2581huolimatta": 3154,
  "\u2581ship": 3155,
  "\u2581tila": 3156,
  "less": 3157,
  "\u2581stage": 3158,
  "ime": 3159,
  "\u2581loss": 3160,
  "\u2581ways": 3161,
  "\u2581suoja": 3162,
  "\u2581daughter": 3163,
  "\u2581toivo": 3164,
  "\u2581produced": 3165,
  "\u2581near": 3166,
  "\u2581Van": 3167,
  "\u2581recommended": 3168,
  "\u2581Tom": 3169,
  "\u2581tutki": 3170,
  "\u2581reach": 3171,
  "\u2581haluavat": 3172,
  "\u2581medical": 3173,
  "\u2581negotiations": 3174,
  "\u2581customs": 3175,
  "\u2581concern": 3176,
  "llisesti": 3177,
  "\u2581pyrit\u00e4\u00e4n": 3178,
  "\u2581commercial": 3179,
  "\u2581lack": 3180,
  "\u2581Part": 3181,
  "\u2581whatever": 3182,
  "\u2581Ve": 3183,
  "\u2581j\u00e4ljemp\u00e4n\u00e4": 3184,
  "\u2581electronic": 3185,
  "32": 3186,
  "\u2581territory": 3187,
  "\u2581kerro": 3188,
  "\u2581kuoli": 3189,
  "\u2581trouble": 3190,
  "\u2581ilmoitettava": 3191,
  "\u2581ki": 3192,
  "laiset": 3193,
  "lliset": 3194,
  "\u2581Tri": 3195,
  "ber": 3196,
  "\u2581adoption": 3197,
  "bu": 3198,
  "\u2581unionissa": 3199,
  "\u2581Hyv\u00e4\u00e4": 3200,
  "tro": 3201,
  "\u2581efficiency": 3202,
  "\u2581ryhm\u00e4": 3203,
  "\u2581compliance": 3204,
  "ies": 3205,
  "\u2581vuoteen": 3206,
  "hen": 3207,
  "\u2581ohjelma": 3208,
  "\u2581bed": 3209,
  "\u2581faith": 3210,
  "fer": 3211,
  "\u2581opportunities": 3212,
  "\u2581official": 3213,
  "\u2581yst\u00e4v\u00e4": 3214,
  "\u2581toi": 3215,
  "\u2581miehen": 3216,
  "\u2581hyv\u00e4ksyi": 3217,
  "\u2581allowed": 3218,
  "\u2581sellaista": 3219,
  "\u2581cm": 3220,
  "\u2581Authority": 3221,
  "ointi": 3222,
  "\u2581tiettyjen": 3223,
  "\u2581reform": 3224,
  "dia": 3225,
  "\u2581ehdotuksen": 3226,
  "\u2581jobs": 3227,
  "\u2581Ennen": 3228,
  "\u2581jatkuvasti": 3229,
  "\u2581According": 3230,
  "llisia": 3231,
  "\u2581forms": 3232,
  "\u2581black": 3233,
  "\u2581achieved": 3234,
  "\u2581DLL": 3235,
  "\u2581meaning": 3236,
  "\u2581lis\u00e4t\u00e4": 3237,
  "\u2581s\u00e4\u00e4ntely": 3238,
  "\u2581kulta": 3239,
  "\u2581samoin": 3240,
  "2/": 3241,
  "\u2581substance": 3242,
  "\u2581species": 3243,
  "\u2581infrastructure": 3244,
  "\u2581gun": 3245,
  "\u2581suuren": 3246,
  "\u2581tied\u00e4t": 3247,
  "\u2581class": 3248,
  "\u2581mom": 3249,
  "vir": 3250,
  "\u2581teen": 3251,
  "\u2581alan": 3252,
  "\u2581olevia": 3253,
  "2001": 3254,
  "1,": 3255,
  "\u2581(1": 3256,
  "\u2581lapsi": 3257,
  "\"?": 3258,
  "\u2581Sch": 3259,
  "\u2581beginning": 3260,
  "kirja": 3261,
  "AN": 3262,
  "\u2581evaluation": 3263,
  "\u2581\u00ad": 3264,
  "tusta": 3265,
  "\u25812.": 3266,
  "her": 3267,
  "\u2581plans": 3268,
  "ohjelman": 3269,
  "\u2581decide": 3270,
  "\u2581el\u00e4inten": 3271,
  "ltaan": 3272,
  "\u2581Maa": 3273,
  "\u2581Liitetauluk": 3274,
  "\u2581!": 3275,
  "\u2581court": 3276,
  "37": 3277,
  "\u2581est\u00e4\u00e4": 3278,
  "\u2581niille": 3279,
  "\u2581verrattuna": 3280,
  "\u2581pitk\u00e4": 3281,
  "\u2581Oli": 3282,
  "\u2581Sano": 3283,
  "\u2581mihin": 3284,
  "ating": 3285,
  "\u2581t\u00e4yt\u00e4nt\u00f6\u00f6n": 3286,
  "\u2581tavata": 3287,
  "\u2581original": 3288,
  "2)": 3289,
  "\u2581Common": 3290,
  "\u2581Programme": 3291,
  "\u2581fast": 3292,
  "\u2581Show": 3293,
  "-1": 3294,
  "\u2581bank": 3295,
  "\u2581muihin": 3296,
  "\u2581dialogue": 3297,
  "\u2581design": 3298,
  "\u2581jonkin": 3299,
  "\u2581establishment": 3300,
  "\u2581injection": 3301,
  "\u2581kehityksen": 3302,
  "\u2581hyv\u00e4t": 3303,
  "0/": 3304,
  "\u2581val": 3305,
  "ssaan": 3306,
  "\u2581Joten": 3307,
  "\u2581waiting": 3308,
  "les": 3309,
  "45": 3310,
  "*": 3311,
  "\u2581art": 3312,
  "\u2581\u00c4iti": 3313,
  "\u2581letter": 3314,
  "\u2581Chapter": 3315,
  "\u2581kept": 3316,
  "8/": 3317,
  "\u2581University": 3318,
  "\u2581whom": 3319,
  "mit": 3320,
  "\u2581forget": 3321,
  "\u2581concerns": 3322,
  "\u2581t\u00e4n\u00e4": 3323,
  "You": 3324,
  "\u2581tutkimuksen": 3325,
  "\u2581telling": 3326,
  "\u2581integration": 3327,
  "nu": 3328,
  "\u2581relations": 3329,
  "\u2581liitteen": 3330,
  "\u2581huhtikuuta": 3331,
  "\u2581source": 3332,
  "\u2581bar": 3333,
  "kohta": 3334,
  "\u2581Jotta": 3335,
  "\u2581determined": 3336,
  "met": 3337,
  "numero": 3338,
  "ttele": 3339,
  "\u2581hieno": 3340,
  "\u2581seem": 3341,
  "36": 3342,
  "\u2581Toimi": 3343,
  "\u2581Brysseliss\u00e4": 3344,
  "m\u00e4ll\u00e4": 3345,
  "\u2581lose": 3346,
  "\u2581tarkoitetut": 3347,
  "\u2581kaveri": 3348,
  "ike": 3349,
  "\u2581esitet\u00e4\u00e4n": 3350,
  "\u2581Vai": 3351,
  "\u2581koske": 3352,
  "\u2581China": 3353,
  "\u2581creation": 3354,
  "\u2581Whereas": 3355,
  "uuden": 3356,
  "\u2581Excuse": 3357,
  "\u2581Pid\u00e4": 3358,
  "39": 3359,
  "\u2581king": 3360,
  "iv": 3361,
  "talo": 3362,
  "\u2581paikallis": 3363,
  "\u2581condition": 3364,
  "\u2581Would": 3365,
  "\u2581Ihan": 3366,
  "\u2581asiat": 3367,
  "\u2581tekev\u00e4t": 3368,
  "\u2581guidelines": 3369,
  "hy": 3370,
  "\u2581statement": 3371,
  "\u2581majority": 3372,
  "6/": 3373,
  "\u2581travel": 3374,
  "\u2581Frank": 3375,
  "\u2581Haluaisin": 3376,
  "\u2581unit": 3377,
  "\u2581visit": 3378,
  "maton": 3379,
  "\u2581pidet\u00e4\u00e4n": 3380,
  "ske": 3381,
  "\u2581red": 3382,
  "\u2581sana": 3383,
  "\u2581reduced": 3384,
  "\u2581regulatory": 3385,
  "nno": 3386,
  "\u2581lukuun": 3387,
  "\u2581tarkoitettujen": 3388,
  "\u2581Keep": 3389,
  "\u2581tiedon": 3390,
  "\u2581thanks": 3391,
  "ON": 3392,
  "\u2581ota": 3393,
  "\u2581girls": 3394,
  "\u2581shows": 3395,
  "\u2581simply": 3396,
  "\u2581hy": 3397,
  "\u2581toimien": 3398,
  "\u2581hetki": 3399,
  "\u2581etenkin": 3400,
  "\u2581initiative": 3401,
  "\u2581feeling": 3402,
  "\u2581changed": 3403,
  "\u2581payments": 3404,
  "\u2581speed": 3405,
  "\u2581valtio": 3406,
  "\u2581ju": 3407,
  "\u2581COM": 3408,
  "\u2581olemaan": 3409,
  "ilu": 3410,
  "\u2581setting": 3411,
  "net": 3412,
  "\u2581tulli": 3413,
  "\u25811994": 3414,
  "\u2581uskoa": 3415,
  "\u2581\u00bb": 3416,
  "\u2581j\u00e4senet": 3417,
  "\u2581yl\u00f6s": 3418,
  "\u2581ETA": 3419,
  "\u2581CO": 3420,
  "\u2581perfect": 3421,
  "\u2581alive": 3422,
  "\u2581y": 3423,
  "\u2581joskus": 3424,
  "ttua": 3425,
  "\u2581target": 3426,
  "\u2581koskevaa": 3427,
  "\u2581Miss": 3428,
  "\u2581tapahtunut": 3429,
  "\u2581etten": 3430,
  "\u2581reading": 3431,
  "\u2581unless": 3432,
  "\u2581priority": 3433,
  "pin": 3434,
  "\u2581focus": 3435,
  "oitu": 3436,
  "\u2581viikon": 3437,
  "\u2581Lis\u00e4tietoja": 3438,
  "\u2581kansan": 3439,
  "\u2581kii": 3440,
  "\u2581prepared": 3441,
  "\u2581palaa": 3442,
  "\u2581movement": 3443,
  "\u2581j\u00e4tt\u00e4\u00e4": 3444,
  "\u2581Green": 3445,
  "\u2581medicinal": 3446,
  "ung": 3447,
  "essaan": 3448,
  "44": 3449,
  "ant": 3450,
  "\u2581Olisi": 3451,
  "\u2581hauskaa": 3452,
  "\u2581extent": 3453,
  "\u2581ero": 3454,
  "ny": 3455,
  "\u2581applications": 3456,
  "\u2581Tilastokeskus": 3457,
  "\u2581clean": 3458,
  "\u2581Africa": 3459,
  "\u258142": 3460,
  "qui": 3461,
  "\u2581aspects": 3462,
  "\u2581siirto": 3463,
  "\u2581Max": 3464,
  "\u2581Such": 3465,
  "\u2581kon": 3466,
  "\u2581keino": 3467,
  "PA": 3468,
  "03": 3469,
  "\u2581Aika": 3470,
  "\u2581sovellettava": 3471,
  "\u2581prior": 3472,
  "\u2581ammatti": 3473,
  "\u2581yrityksen": 3474,
  "33": 3475,
  "\u2581applicant": 3476,
  "\u2581PC": 3477,
  "\u2581includes": 3478,
  "\u2581antanut": 3479,
  "2,": 3480,
  "\u2581Father": 3481,
  "gu": 3482,
  "kku": 3483,
  "\u2581accounts": 3484,
  "tuksia": 3485,
  "\u2581Luulin": 3486,
  "Fi": 3487,
  "\u2581series": 3488,
  "\u2581henki": 3489,
  "\u2581ohjelman": 3490,
  "ivat": 3491,
  "\u2581except": 3492,
  "\u2581Italy": 3493,
  "\u2581Board": 3494,
  "\u2581ansiosta": 3495,
  "\u2581suhteessa": 3496,
  "\u2581professional": 3497,
  "\u2581tuntuu": 3498,
  "\u2581felt": 3499,
  "\u2581sala": 3500,
  "ikka": 3501,
  "che": 3502,
  "\u2581CN": 3503,
  "\u2581kello": 3504,
  "\u2581v\u00e4\u00e4rin": 3505,
  "\u2581toimet": 3506,
  "\u2581acts": 3507,
  "\u2581elements": 3508,
  "No": 3509,
  "\u2581film": 3510,
  "\u2581anymore": 3511,
  "op": 3512,
  "itte": 3513,
  "\u2581married": 3514,
  "\u2581function": 3515,
  "\u2581connection": 3516,
  "2000": 3517,
  "H\u00e4n": 3518,
  "\u2581olevassa": 3519,
  "\u2581virus": 3520,
  "year": 3521,
  "\u2581innovation": 3522,
  "\u2581Ab": 3523,
  "\u2581hu": 3524,
  "aste": 3525,
  "que": 3526,
  "\u2581identified": 3527,
  "\u2581operators": 3528,
  "\u2581komitean": 3529,
  "\u2581tarvitsee": 3530,
  "\u2581airport": 3531,
  "\u2581Par": 3532,
  "\u2581palvelujen": 3533,
  "\u2581powers": 3534,
  "\u2581subparagraph": 3535,
  "ukseen": 3536,
  "\u2581Uusi": 3537,
  "\u2581kuulla": 3538,
  "\u2581tied\u00e4n": 3539,
  "\u2581potilailla": 3540,
  "\u2581US": 3541,
  "tukset": 3542,
  "\u2581Done": 3543,
  "\u2581hotel": 3544,
  "\u2581syyskuuta": 3545,
  "\u2581American": 3546,
  "\u2581became": 3547,
  "\u2581milk": 3548,
  "\u2581North": 3549,
  "\u2581verkko": 3550,
  "\u2581demand": 3551,
  "64": 3552,
  "\u2581written": 3553,
  "\u2581climate": 3554,
  "\u2581huomenna": 3555,
  "\u2581processing": 3556,
  "sy": 3557,
  "ac": 3558,
  "\u2581Koko": 3559,
  "\u2581City": 3560,
  "ts": 3561,
  "\u2581kohtaa": 3562,
  "\u2581150": 3563,
  "ian": 3564,
  "\u2581m\u00e4\u00e4r\u00e4\u00e4": 3565,
  "\u2581ve": 3566,
  "\u2581marketing": 3567,
  "\u2581el\u00e4\u00e4": 3568,
  "\u2581hullu": 3569,
  "\u2581playing": 3570,
  "\u2581Justice": 3571,
  "\u2581completely": 3572,
  "\u2581tuomioistuimen": 3573,
  "vis": 3574,
  "\u2581board": 3575,
  "\u2581Kaksi": 3576,
  "\u2581yhteens\u00e4": 3577,
  "\u2581writing": 3578,
  "\u2581THIS": 3579,
  "US": 3580,
  "\u2581tarkoitetun": 3581,
  "\u2581pal": 3582,
  "\u2581feed": 3583,
  "-2": 3584,
  "\u2581increasing": 3585,
  "\u2581s\u00e4\u00e4nt\u00f6jen": 3586,
  "\u2581mahdollisesti": 3587,
  "\u2581King": 3588,
  "\u2581Raamatun": 3589,
  "\u2581instrument": 3590,
  "\u2581patient": 3591,
  "jia": 3592,
  "Ma": 3593,
  "tur": 3594,
  "\u2581Fi": 3595,
  "\u2581scientific": 3596,
  "\u2581Australia": 3597,
  "06": 3598,
  "34": 3599,
  "tio": 3600,
  "\u2581ladies": 3601,
  "\u2581varmistamiseksi": 3602,
  "kuu": 3603,
  "\u2581notice": 3604,
  "\u2581Ed": 3605,
  "\u2581jonkun": 3606,
  "\u2581sufficient": 3607,
  "\u2581kansallisen": 3608,
  "\u2581maahan": 3609,
  "\u2581property": 3610,
  "\u2581crime": 3611,
  "ppa": 3612,
  "\u2581tuomio": 3613,
  "\u2581Lue": 3614,
  "\u2581p\u00e4iv\u00e4st\u00e4": 3615,
  "\u2581toimenpiteiden": 3616,
  "\u2581hate": 3617,
  "\u2581taso": 3618,
  "valta": 3619,
  "\u2581yritt\u00e4\u00e4": 3620,
  "\u2581numbers": 3621,
  "ium": 3622,
  "38": 3623,
  "\u2581kaupunki": 3624,
  "\u2581tulokset": 3625,
  "\u2581Kukaan": 3626,
  "\u2581enable": 3627,
  "\u2581described": 3628,
  "\u2581EN": 3629,
  "\u2581practices": 3630,
  "\u2581ihminen": 3631,
  "bit": 3632,
  "politiikka": 3633,
  "\u2581p\u00e4\u00e4ss\u00e4": 3634,
  "\u2581Kar": 3635,
  "CO": 3636,
  "\u2581saadaan": 3637,
  "\u2581Osa": 3638,
  "our": 3639,
  "\u2581saatu": 3640,
  "\u2581soveltamista": 3641,
  "\u2581certainly": 3642,
  "\u2581gives": 3643,
  "\u2581Asetuksen": 3644,
  "\u2581monta": 3645,
  "\u2581note": 3646,
  "\u2581package": 3647,
  "\u2581alakohta": 3648,
  "kke": 3649,
  "\u2581Director": 3650,
  "\u2581Very": 3651,
  "\u2581duties": 3652,
  "\u2581Affairs": 3653,
  "\u2581sano": 3654,
  "\u2581Implementing": 3655,
  "\u2581stock": 3656,
  "za": 3657,
  "\u2581Q": 3658,
  "\u2581Financial": 3659,
  "\u2581seven": 3660,
  "\u2581contribute": 3661,
  "\u2581institution": 3662,
  "\u2581onnistu": 3663,
  "\u2581requires": 3664,
  "\u2581Ette": 3665,
  "\u2581laws": 3666,
  "\u2581my\u00f6nt\u00e4\u00e4": 3667,
  "\u2581eye": 3668,
  "\u2581Russia": 3669,
  "\u2581s\u00e4\u00e4nn\u00f6t": 3670,
  "\u258143": 3671,
  "\u25811:": 3672,
  "valtio": 3673,
  "isation": 3674,
  "\u2581soveltaa": 3675,
  "\u2581\u00e4l\u00e4": 3676,
  "\u2581record": 3677,
  "ryhm\u00e4": 3678,
  "\u25812:": 3679,
  "isto": 3680,
  "har": 3681,
  "ang": 3682,
  "\u2581followed": 3683,
  "\u2581varmistettava": 3684,
  "mail": 3685,
  "\u2581kanssaan": 3686,
  "\u2581fundamental": 3687,
  "\u2581Bull": 3688,
  "\u2581Service": 3689,
  "toja": 3690,
  "\u2581aloilla": 3691,
  "\u2581mik\u00e4\u00e4n": 3692,
  "\u2581lasku": 3693,
  "\u2581choose": 3694,
  "\u2581entist\u00e4": 3695,
  "\u2581YK": 3696,
  "\u2581hyv\u00e4ksy": 3697,
  "tiedot": 3698,
  "\u2581combination": 3699,
  "\u2581kertoi": 3700,
  "\u2581tarpeeksi": 3701,
  "ksia": 3702,
  "utu": 3703,
  "\u2581Tee": 3704,
  "\u2581s\u00e4": 3705,
  "\u2581authorised": 3706,
  "\u2581tri": 3707,
  "alue": 3708,
  "ren": 3709,
  "nnut": 3710,
  "\u2581kaa": 3711,
  "\u2581kunkin": 3712,
  "\u2581implemented": 3713,
  "chi": 3714,
  "\u2581Kor": 3715,
  "ER": 3716,
  "\u2581v\u00e4lisen": 3717,
  "\u2581ratkaisu": 3718,
  "\u2581regulations": 3719,
  "\u2581clinical": 3720,
  "\u2581Action": 3721,
  "ec": 3722,
  "\u2581volume": 3723,
  "\u2581lains\u00e4\u00e4d\u00e4nt\u00f6": 3724,
  "ee": 3725,
  "ence": 3726,
  "\u2581w": 3727,
  "\u258165": 3728,
  "\u2581Protocol": 3729,
  "\u2581website": 3730,
  "use": 3731,
  "\u2581luoda": 3732,
  "\u2581domestic": 3733,
  "\u2581mielest\u00e4ni": 3734,
  "\u2581Ala": 3735,
  "jille": 3736,
  "\u25813.": 3737,
  "\u2581amendment": 3738,
  "\u2581ket\u00e4\u00e4n": 3739,
  "\u2581luku": 3740,
  "\u2581located": 3741,
  "\u2581Saat": 3742,
  "\u2581concluded": 3743,
  "\u2581comply": 3744,
  "\u2581Pre": 3745,
  "\u2581liike": 3746,
  "\u2581Ga": 3747,
  "eni": 3748,
  "\u2581onkin": 3749,
  "gg": 3750,
  "\u2581kaupungin": 3751,
  "48": 3752,
  "ohjelma": 3753,
  "\u2581hallituksen": 3754,
  "\u2581h\u00e4": 3755,
  "\u2581pakko": 3756,
  "\u2581suu": 3757,
  "\u2581fruit": 3758,
  "\u2581simple": 3759,
  "\u2581taka": 3760,
  "UN": 3761,
  "\u2581\u2015": 3762,
  "\u2581starting": 3763,
  "\u2581\u00c4lk\u00e4\u00e4": 3764,
  "\u2581IT": 3765,
  "46": 3766,
  "peli": 3767,
  "\u2581muka": 3768,
  "\u2581laying": 3769,
  "\u2581hyv\u00e4n": 3770,
  "\u2581caused": 3771,
  "\u2581possibility": 3772,
  "\u00e4\u00e4": 3773,
  "TA": 3774,
  "FR": 3775,
  "\u2581turned": 3776,
  "\u2581construction": 3777,
  "\u2581j\u00e4rjestelm\u00e4n": 3778,
  "ilt\u00e4": 3779,
  "\u2581haluaisin": 3780,
  "\u2581holding": 3781,
  "\u2581boys": 3782,
  "\u2581u": 3783,
  "\u2581meist\u00e4": 3784,
  "\u2581German": 3785,
  "pan": 3786,
  "\u2581proceedings": 3787,
  "\u2581Ai": 3788,
  "\u2581aware": 3789,
  "\u2581rouva": 3790,
  "\u2581asetuksella": 3791,
  "\u2581Eli": 3792,
  "49": 3793,
  "\u2581sellainen": 3794,
  "UT": 3795,
  "\u2581dog": 3796,
  "\u2581Mark": 3797,
  "\u2581finally": 3798,
  "\u2581Does": 3799,
  "\u2581el\u00e4": 3800,
  "dan": 3801,
  "ze": 3802,
  "hoito": 3803,
  "tojen": 3804,
  "\u2581nyky\u00e4\u00e4n": 3805,
  "\u2581Komitea": 3806,
  "\u2581somebody": 3807,
  "\u2581Members": 3808,
  "\u2581arvoisa": 3809,
  "\u2581binding": 3810,
  "ikko": 3811,
  "\u2581sometimes": 3812,
  "\u2581lehdess\u00e4": 3813,
  "\u2581vaikutuksia": 3814,
  "tteli": 3815,
  "\u2581promise": 3816,
  "oni": 3817,
  "\u2581base": 3818,
  "\u2581software": 3819,
  "\u2581vastaava": 3820,
  "ji": 3821,
  "\u2581Security": 3822,
  "\u2581Um": 3823,
  "yyli": 3824,
  "\u2581asking": 3825,
  "\u2581vii": 3826,
  "\u2581ensuring": 3827,
  "\u2581s\u00e4\u00e4": 3828,
  "\u2581contracts": 3829,
  "\u2581exercise": 3830,
  "\u2581olisivat": 3831,
  "\u2581komitea": 3832,
  "\u2581Tehty": 3833,
  "\u2581Itse": 3834,
  "\u2581reporting": 3835,
  "\u2581(2": 3836,
  "vara": 3837,
  "\u2581pick": 3838,
  "\u2581beyond": 3839,
  "asetuksen": 3840,
  "\u2581KOM": 3841,
  "\u2581tuolla": 3842,
  "RA": 3843,
  "\u2581maailmassa": 3844,
  "\u2581sanoin": 3845,
  "ig": 3846,
  "\u2581tuotteen": 3847,
  "\u2581Which": 3848,
  "\u2581Table": 3849,
  "\u2581everybody": 3850,
  "\u00a4": 3851,
  "\u2581sick": 3852,
  "vasta": 3853,
  "\u258155": 3854,
  "\u2581sister": 3855,
  "\u2581users": 3856,
  "\u2581sellaisen": 3857,
  "\u2581indicated": 3858,
  "\u2581expressed": 3859,
  "\u2581acid": 3860,
  "j\u00e4rjestelmien": 3861,
  "\u258101": 3862,
  "\u2581markkinoilla": 3863,
  "\u2581(1)": 3864,
  "\u2581undertakings": 3865,
  "\u2581Charlie": 3866,
  "\u2581tunnin": 3867,
  "\u2581affect": 3868,
  "laisten": 3869,
  "paikka": 3870,
  "\u2581moving": 3871,
  "\u2581tyyppi": 3872,
  "om": 3873,
  "\u2581committee": 3874,
  "\u2581talo": 3875,
  "\u2581ette": 3876,
  "\u258192": 3877,
  "kunta": 3878,
  "\u2581tuomioistuin": 3879,
  "mpia": 3880,
  "\u2581teko": 3881,
  "\u2581Suomi": 3882,
  "py": 3883,
  "\u2581tavoite": 3884,
  "\u2581manner": 3885,
  "tuotteiden": 3886,
  "hun": 3887,
  "\u2581Joint": 3888,
  "\u2581missing": 3889,
  "ble": 3890,
  "eri": 3891,
  "\u258144": 3892,
  "\u2581muodossa": 3893,
  "ised": 3894,
  "toista": 3895,
  "isi\u00e4": 3896,
  "\u2581euron": 3897,
  "sivat": 3898,
  "\u2581structure": 3899,
  "\u2581p\u00e4\u00e4se": 3900,
  "\u2581v\u00e4litt\u00f6m\u00e4sti": 3901,
  "\u25811/": 3902,
  "\u2581program": 3903,
  "sesti": 3904,
  "\u2581vessels": 3905,
  "\u2581George": 3906,
  "\u2581White": 3907,
  "\u2581erikois": 3908,
  "\u2581Each": 3909,
  "\u2581Nice": 3910,
  "\u2581myynti": 3911,
  "Re": 3912,
  "\u2581tavoitteiden": 3913,
  "\u2581Policy": 3914,
  "\u2581fear": 3915,
  "\u2581si": 3916,
  "\u2581Kuva": 3917,
  "\u2581floor": 3918,
  "\u2581kotona": 3919,
  "\u2581although": 3920,
  "\u2581leaving": 3921,
  "\u2581cool": 3922,
  "\u2581\u00b0": 3923,
  "uksista": 3924,
  "\u2581independent": 3925,
  "\u2581lapsia": 3926,
  "\u2581Fuck": 3927,
  "\u2581difference": 3928,
  "\u2581medium": 3929,
  "\u2581kan": 3930,
  "\u2581medicine": 3931,
  "\u2581m\u00e4\u00e4r\u00e4n": 3932,
  "3,": 3933,
  "\u2581pass": 3934,
  ".2.": 3935,
  "\u2581separate": 3936,
  "\u2581ru": 3937,
  "\u2581enterprises": 3938,
  "\u2581units": 3939,
  "\u2581amounts": 3940,
  "\u2581coordination": 3941,
  "\u2581Health": 3942,
  "\u2581aja": 3943,
  "\u2581alkoi": 3944,
  "\u2581annos": 3945,
  "\u2581reached": 3946,
  "\u2581kerta": 3947,
  "\u2581liha": 3948,
  "\u2581\u00e4\u00e4ni": 3949,
  "\u2581legislative": 3950,
  "\u2581helmikuuta": 3951,
  "\u2581ettet": 3952,
  "tor": 3953,
  "\u2581Gu": 3954,
  "ras": 3955,
  "\u2581mukainen": 3956,
  "off": 3957,
  "\u2581joitakin": 3958,
  "\u2581selv\u00e4\u00e4": 3959,
  "\u2581sort": 3960,
  "ish": 3961,
  "\u2581Contact": 3962,
  "07": 3963,
  "\u2581muutettuna": 3964,
  "\u2581picture": 3965,
  "ula": 3966,
  "\u2581Toinen": 3967,
  "AR": 3968,
  "\u2581puu": 3969,
  "\u2581observed": 3970,
  "\u2581FOR": 3971,
  "\u2581kuluttua": 3972,
  "\u2581Spain": 3973,
  "\u2581regular": 3974,
  "\u2581operational": 3975,
  "\u2581cash": 3976,
  "ya": 3977,
  "\u2581instead": 3978,
  "\u2581sijaitsee": 3979,
  "\u2581factors": 3980,
  "\u2581search": 3981,
  "\u2581Finally": 3982,
  "\u2581Research": 3983,
  "del": 3984,
  "\u2581julkaisu": 3985,
  "\u25811).": 3986,
  "\u2581military": 3987,
  "emme": 3988,
  "\u2581usually": 3989,
  "\u2581Help": 3990,
  "\u2581distribution": 3991,
  "\u2581rakennus": 3992,
  "\u2581laske": 3993,
  "sopimus": 3994,
  "\u2581lausunto": 3995,
  "2003": 3996,
  "\u2581hoitaa": 3997,
  "des": 3998,
  "tunut": 3999,
  "\u2581mouth": 4000,
  "85": 4001,
  "\u2581nuclear": 4002,
  "ham": 4003,
  "\u2581obtained": 4004,
  "based": 4005,
  "\u2581planning": 4006,
  "\u2581selv\u00e4": 4007,
  "\u2581opening": 4008,
  "41": 4009,
  "\u2581j\u00e4senvaltio": 4010,
  "\u2581k\u00e4ytett\u00e4v\u00e4": 4011,
  "\u2581Totta": 4012,
  "\u2581Ireland": 4013,
  "\u2581paska": 4014,
  "\u2581dangerous": 4015,
  "\u2581ability": 4016,
  "\u2581Auto": 4017,
  "\u2581k\u00e4yt\u00f6st\u00e4": 4018,
  "\u2581pienen": 4019,
  "\u2581tuotteita": 4020,
  "\u2581v\u00e4himm\u00e4is": 4021,
  "ily": 4022,
  "tulo": 4023,
  "\u2581networks": 4024,
  "\u2581card": 4025,
  "\u2581Pohjois": 4026,
  "\u2581net": 4027,
  "\u2581lapsen": 4028,
  "SA": 4029,
  "\u2581music": 4030,
  "\u2581eik\u00f6": 4031,
  "\u2581terve": 4032,
  "vy": 4033,
  "\u2581happens": 4034,
  ".11": 4035,
  "\u2581implement": 4036,
  "\u2581Read": 4037,
  "\u2581device": 4038,
  "\u2581valta": 4039,
  "\u2581sources": 4040,
  "\u2581While": 4041,
  "\u2581Romania": 4042,
  "\u2581win": 4043,
  "\u2581koe": 4044,
  "\u2581build": 4045,
  "59": 4046,
  "viin": 4047,
  "\u2581tarkastus": 4048,
  "\u2581j\u00e4senvaltiossa": 4049,
  "\u2581commitment": 4050,
  "\u2581initiatives": 4051,
  "\u2581markkinoiden": 4052,
  "\u2581meetings": 4053,
  "\u2581elin": 4054,
  "\u2581muutoksia": 4055,
  "\u2581kokonaan": 4056,
  "\u2581tiennyt": 4057,
  "\u2581vastaavat": 4058,
  "\u201d,": 4059,
  "\u2581halunnut": 4060,
  "\u2581[1],": 4061,
  "\u2581quickly": 4062,
  "\u2581calling": 4063,
  "io": 4064,
  "\u2581continued": 4065,
  "\u2581ANNEX": 4066,
  "\u2581arvioi": 4067,
  "\u0e00": 4068,
  "TU": 4069,
  "\u2581verta": 4070,
  "lly": 4071,
  "saa": 4072,
  "\u2581katsoa": 4073,
  "(2)": 4074,
  "\u2581HAS": 4075,
  "\u2581otettu": 4076,
  "\u2581worth": 4077,
  "\u2581traffic": 4078,
  "\u2581ymp\u00e4ri": 4079,
  "\u2581draw": 4080,
  "\u2581tiedote": 4081,
  "pen": 4082,
  "\u2581War": 4083,
  "\u2581voice": 4084,
  "\u2581teill\u00e4": 4085,
  "\u2581Minister": 4086,
  "\u258147": 4087,
  "\u2581tilasto": 4088,
  "\u2581ulkopuolella": 4089,
  "\u2581nuo": 4090,
  "\u2581miss": 4091,
  "reita": 4092,
  "ek": 4093,
  "\u2581luoja": 4094,
  "\u2581tarkoitetaan": 4095,
  "\u2581yhteisty\u00f6n": 4096,
  "\u2581High": 4097,
  "\u2581vienti": 4098,
  "\u2581Oliko": 4099,
  "\u2581aloittaa": 4100,
  "\u2581cultural": 4101,
  "\u2581pyysi": 4102,
  "\u2581toimivat": 4103,
  "\u2581Dan": 4104,
  "tori": 4105,
  "\u2581asiaan": 4106,
  "\u2581s\u00e4\u00e4nt\u00f6j\u00e4": 4107,
  "in\u00e4": 4108,
  "\u2581computer": 4109,
  "\u2581etc": 4110,
  "\u2581highly": 4111,
  "\u2581accepted": 4112,
  "laisen": 4113,
  "\u2581Mike": 4114,
  "\u2581touch": 4115,
  "\u2581halusi": 4116,
  "................": 4117,
  "laa": 4118,
  "\u2581Olette": 4119,
  "\u2581pan": 4120,
  "\u2581exposure": 4121,
  "\u2581Act": 4122,
  "zi": 4123,
  "\u2581pohja": 4124,
  "\u2581omaa": 4125,
  "\u2581alku": 4126,
  "\u2581Sain": 4127,
  "\u2581Sure": 4128,
  "ring": 4129,
  "\u2581Ranskan": 4130,
  "yty": 4131,
  "\u2581ran": 4132,
  "\u2581tason": 4133,
  "OR": 4134,
  "\u2581fields": 4135,
  "\u2581K\u00e4y": 4136,
  "\u2581hoidon": 4137,
  "yritysten": 4138,
  "\u2581merkitsee": 4139,
  "\u2581neuvo": 4140,
  "kse": 4141,
  "\u2581kuu": 4142,
  "\u2581v\u00e4linen": 4143,
  "2010": 4144,
  "\u25811)": 4145,
  "\u2581minuuttia": 4146,
  "\u2581maailmanlaajuis": 4147,
  "\u2581heist\u00e4": 4148,
  "\u2581m\u00e4\u00e4rin": 4149,
  "\u2581failure": 4150,
  "\u2581stupid": 4151,
  "uksiin": 4152,
  "llaan": 4153,
  "\u2581inform": 4154,
  "\u2581drug": 4155,
  "\u2581t\u00f6it\u00e4": 4156,
  "ning": 4157,
  "\u2581Cha": 4158,
  "\u2581totesi": 4159,
  "teiden": 4160,
  "\u2581eiv\u00e4tk\u00e4": 4161,
  "palvelujen": 4162,
  "cy": 4163,
  "\u258141": 4164,
  "uutta": 4165,
  "\u2581submit": 4166,
  "timme": 4167,
  "ful": 4168,
  "\u2581kest\u00e4": 4169,
  "\u2581laatu": 4170,
  "\u2581Sweden": 4171,
  "IA": 4172,
  "\u2581poissa": 4173,
  "\u2581Red": 4174,
  "\u2581solutions": 4175,
  "neuvosto": 4176,
  "\u2581maintain": 4177,
  "(1)": 4178,
  "otto": 4179,
  "\u2581kansainv\u00e4lisen": 4180,
  "\u2581ilo": 4181,
  "\u2581olo": 4182,
  "ttaisi": 4183,
  "\u2581elintarvike": 4184,
  "\u2581kertoo": 4185,
  "q": 4186,
  "\u2581alueilla": 4187,
  "\u2581hallitus": 4188,
  "\u2581Data": 4189,
  "if": 4190,
  "\u2581ehdotus": 4191,
  "\u2581double": 4192,
  "kauden": 4193,
  "\u2581Before": 4194,
  "\u2581version": 4195,
  "\u2581pk": 4196,
  "\u2581Joku": 4197,
  "isti": 4198,
  "\u2581debt": 4199,
  "\u2581Juuri": 4200,
  "\u2581Tel": 4201,
  "vuus": 4202,
  "paino": 4203,
  "\u2581kuluttaja": 4204,
  "\u2581t\u00e4ytt\u00e4\u00e4": 4205,
  "\u2581kymmenen": 4206,
  "RO": 4207,
  "\u2581physical": 4208,
  "\u2581puitteissa": 4209,
  "mi\u00e4": 4210,
  "\u2581damage": 4211,
  "\u2581Ni": 4212,
  "\u2581toista": 4213,
  "\u2581ymm\u00e4rt\u00e4\u00e4": 4214,
  "\u2581menettely": 4215,
  "\u258195": 4216,
  "tuki": 4217,
  "\u2581muutokset": 4218,
  "\u2581Air": 4219,
  "\u2581otherwise": 4220,
  "\u2581saisi": 4221,
  "\u2581huomattavasti": 4222,
  "\u2581Put": 4223,
  "\u2581therapy": 4224,
  "\u2581ty\u00f6ntekij\u00f6iden": 4225,
  "\u2581customers": 4226,
  "\u2581meat": 4227,
  "\u2581poor": 4228,
  "lon": 4229,
  "He": 4230,
  "\u2581hankinta": 4231,
  "\u2581sun": 4232,
  "\u2581vuodesta": 4233,
  "\u2581tablets": 4234,
  "\u2581tarvittavat": 4235,
  "IC": 4236,
  "\u2581kyseise": 4237,
  "\u2581undertaking": 4238,
  "\u2581laaja": 4239,
  "\u2581olisin": 4240,
  "\u2581Daniel": 4241,
  "\u2581Ge": 4242,
  "\u2581Centre": 4243,
  "\u2581kuullut": 4244,
  "\u2581Paris": 4245,
  "\u2581ky": 4246,
  "\u2581muille": 4247,
  "\u258100": 4248,
  "\u2581Tarvitsen": 4249,
  "\u2581community": 4250,
  "\u2581Although": 4251,
  "43": 4252,
  "\u2581partner": 4253,
  "\u2581Korvataan": 4254,
  "\u2581vakuutus": 4255,
  "\u2581conclusions": 4256,
  "\u2581muutos": 4257,
  "\u2581virhe": 4258,
  "\u2581sellaisia": 4259,
  "\u2581nro": 4260,
  "\u2581luonnon": 4261,
  "\u2581saattavat": 4262,
  "\u2581komissiota": 4263,
  "\u2581aren": 4264,
  "47": 4265,
  "78": 4266,
  "\u2581liikaa": 4267,
  "\u2581Mary": 4268,
  "\u2581Siell\u00e4": 4269,
  "\u2581rooli": 4270,
  "\u2581enjoy": 4271,
  "\u2581saakka": 4272,
  "\u2581pankki": 4273,
  "\u2581LIITE": 4274,
  "\u2581kysymyksi\u00e4": 4275,
  "\u258109": 4276,
  "\u2581(2)": 4277,
  "\u2581Sha": 4278,
  "\u2581steps": 4279,
  "\u2581j\u00e4": 4280,
  "65": 4281,
  "\u2581k\u00e4yt\u00f6ss\u00e4": 4282,
  "auto": 4283,
  "\u2581yksityis": 4284,
  "\u2581erilaisia": 4285,
  "tyksen": 4286,
  "\u2581conclusion": 4287,
  "\u2581cold": 4288,
  "\u2581k\u00e4yd\u00e4": 4289,
  "\u2581toisin": 4290,
  "\u2581pidett\u00e4v\u00e4": 4291,
  "\u2581Hyvin": 4292,
  "\u2581maintenance": 4293,
  "\u2581fuel": 4294,
  "\u2581advice": 4295,
  "\u2581valmistelu": 4296,
  "\u2581heading": 4297,
  "\u2581asema": 4298,
  "palvelut": 4299,
  "\u258149": 4300,
  "\u2581t\u00e4hden": 4301,
  "\u2581murder": 4302,
  "tteko": 4303,
  "oksi": 4304,
  "tal": 4305,
  "eja": 4306,
  "\u2581Ver": 4307,
  "\u2581paha": 4308,
  "\u2581obligation": 4309,
  "\u2581Presidency": 4310,
  "\u2581pen": 4311,
  "\u2581kesken": 4312,
  "\u2581Son": 4313,
  "\u2581virallisessa": 4314,
  "\u2581piece": 4315,
  "\u2581electricity": 4316,
  "\u2581Code": 4317,
  "ted": 4318,
  "\u2581vei": 4319,
  "\u2581serve": 4320,
  "\u2581tasavallan": 4321,
  "\u2581joukko": 4322,
  "n\u00f6": 4323,
  "\u2581puhe": 4324,
  "55": 4325,
  "\u2581pysy": 4326,
  "markkinoiden": 4327,
  "\u2581explain": 4328,
  "\u2581tests": 4329,
  "\u2581stated": 4330,
  "\u2581testi": 4331,
  "\u2581Special": 4332,
  "\u258156": 4333,
  "\u2581Furthermore": 4334,
  "\u2581korostaa": 4335,
  "\u2581seuranta": 4336,
  "\u2581N\u00e4iden": 4337,
  "v\u00e4li": 4338,
  "hr": 4339,
  "Q": 4340,
  "bra": 4341,
  "\u2581aikoo": 4342,
  "\u2581melko": 4343,
  "\u2581Use": 4344,
  "\u2581Saksa": 4345,
  "\u2581YOU": 4346,
  "\u2581limits": 4347,
  "\u2581equivalent": 4348,
  "IM": 4349,
  "keskus": 4350,
  "\u2581box": 4351,
  "\u2581wine": 4352,
  "\u258111.": 4353,
  "\u2581storage": 4354,
  "\u2581istu": 4355,
  "\u2581edellytykset": 4356,
  "\u2581led": 4357,
  "\u2581expect": 4358,
  "\u2581v\u00e4hent\u00e4\u00e4": 4359,
  "gin": 4360,
  "\u2581affected": 4361,
  "aatti": 4362,
  "\u2581challenges": 4363,
  "\u2581varojen": 4364,
  "\u258184": 4365,
  "\u2581Luo": 4366,
  "\u2581latest": 4367,
  "\u2581remains": 4368,
  "\u2581Could": 4369,
  "\u2581Hold": 4370,
  "\u2581efficient": 4371,
  "\u2581cell": 4372,
  "fo": 4373,
  "\u2581enk\u00e4": 4374,
  "gan": 4375,
  "\u2581representative": 4376,
  "\u2581correct": 4377,
  "\u2581Time": 4378,
  "\u2581toimitettava": 4379,
  "\u2581Office": 4380,
  "\u2581viestint\u00e4": 4381,
  "\u2581olevaa": 4382,
  "\u2581kasvi": 4383,
  "\u2581Kat": 4384,
  "mm\u00e4": 4385,
  "\u2581steel": 4386,
  "\u2581musta": 4387,
  "\u2581Kai": 4388,
  "\u2581initial": 4389,
  "form": 4390,
  "\u2581kuusi": 4391,
  "\u2581files": 4392,
  "\u2581teemme": 4393,
  "\u00e1": 4394,
  "ADOPTED": 4395,
  "\u2581mielest\u00e4": 4396,
  "\u2581puolella": 4397,
  "\u2581oikeutta": 4398,
  "\u2581toteutettava": 4399,
  "\u2581seuraavan": 4400,
  "\u2581born": 4401,
  "pre": 4402,
  "berg": 4403,
  "\u2581feet": 4404,
  "\u2581Price": 4405,
  "ities": 4406,
  "\u2581places": 4407,
  "\u2581border": 4408,
  "\u2581helposti": 4409,
  "\u2581kanssasi": 4410,
  "ava": 4411,
  "\u2581lapset": 4412,
  "\u2581koskevassa": 4413,
  "\u2581ehdot": 4414,
  "\u2581Mac": 4415,
  "osi": 4416,
  "\u2581sota": 4417,
  "\u2581percentage": 4418,
  "tukseen": 4419,
  "\u2581juo": 4420,
  "\u2581osallistua": 4421,
  "\u2581soittaa": 4422,
  "\u2581tiet\u00e4": 4423,
  "\u2581considers": 4424,
  "\u2581Sea": 4425,
  "\u2581learning": 4426,
  "What": 4427,
  "\u2581Minusta": 4428,
  "\u2581wide": 4429,
  "tuksesta": 4430,
  "\u2581category": 4431,
  "\u2581proper": 4432,
  "\u2581Keski": 4433,
  "\u2581bitch": 4434,
  "\u2581yhti\u00f6": 4435,
  "\u2581T\u00e4h\u00e4n": 4436,
  "\u2581itsens\u00e4": 4437,
  "66": 4438,
  "lia": 4439,
  "\u2581centre": 4440,
  "\u2581nu": 4441,
  "\u2581s\u00e4ily": 4442,
  "\u2581kaasu": 4443,
  "\u2581offers": 4444,
  "OS": 4445,
  "\u2581comments": 4446,
  "\u2581energian": 4447,
  "\u2581lii": 4448,
  "led": 4449,
  "uma": 4450,
  "\u2581mahdollisuuksia": 4451,
  "\u2581vertailu": 4452,
  "2014": 4453,
  "\u2581yhteinen": 4454,
  "uh": 4455,
  "\u25813:": 4456,
  "\u2581earlier": 4457,
  "\u25811990": 4458,
  "SI": 4459,
  "\u2581vaiheessa": 4460,
  "\u2581doubt": 4461,
  "\u2581location": 4462,
  "\u2581tulossa": 4463,
  "\u2581stability": 4464,
  "\u2581USA": 4465,
  "kunnan": 4466,
  "\u2581toiseen": 4467,
  "\u2581built": 4468,
  "\u2581saatava": 4469,
  "k\u00e4ytt\u00f6": 4470,
  "\u2581niill\u00e4": 4471,
  "\u2581closed": 4472,
  "elt\u00e4": 4473,
  "\u2581sis\u00e4ltyy": 4474,
  "l\u00f6": 4475,
  "\u2581tavoitteet": 4476,
  "hde": 4477,
  "way": 4478,
  "yr": 4479,
  "ice": 4480,
  "\u258193": 4481,
  "\u2581merkityst\u00e4": 4482,
  "\u2581discuss": 4483,
  "au": 4484,
  "\u2581yhteisty\u00f6ss\u00e4": 4485,
  "\u2581Lisbon": 4486,
  "\u2581Silloin": 4487,
  "sse": 4488,
  "\u2581secret": 4489,
  "\u2581julkaistu": 4490,
  "\u2581conduct": 4491,
  "\u25811993": 4492,
  "\u2581johtuu": 4493,
  "\u2581prosentin": 4494,
  "\u2581dollaria": 4495,
  "\u2581kuvaa": 4496,
  "\u2581perin": 4497,
  "elin": 4498,
  "\u2581hospital": 4499,
  "\u2581via": 4500,
  "ukka": 4501,
  "\u2581mukava": 4502,
  "\u2581aihe": 4503,
  "\u2581instructions": 4504,
  "\u258152": 4505,
  "\u2581el\u00e4in": 4506,
  "\u2581hei": 4507,
  "\u2581%)": 4508,
  "\u2581lines": 4509,
  "\u2581Energy": 4510,
  "\u2581muuten": 4511,
  "\u2581System": 4512,
  "\u2581l\u00e4\u00e4k\u00e4ri": 4513,
  "\u2581tasks": 4514,
  "\u2581requested": 4515,
  "\u2581malli": 4516,
  "\u2581j\u00e4senvaltioille": 4517,
  "osan": 4518,
  "\u2581Communication": 4519,
  "\u2581skills": 4520,
  "\u2581veden": 4521,
  "\u2581Market": 4522,
  "\u2581practical": 4523,
  "let": 4524,
  "\u2581yritykset": 4525,
  "\u2581SMEs": 4526,
  "\u2581Saksan": 4527,
  "\u2581olit": 4528,
  "\u2581Pan": 4529,
  ".4.": 4530,
  "\u2581mar": 4531,
  "\u2581Lopeta": 4532,
  "\u2581negative": 4533,
  "\u2581saan": 4534,
  "\u2581structural": 4535,
  "tet\u00e4\u00e4n": 4536,
  "\u2581machine": 4537,
  "\u2581tilaa": 4538,
  "\u2581During": 4539,
  "\u2581Herran": 4540,
  "\u2581sovi": 4541,
  "\u2581raised": 4542,
  "\u2581suunniteltu": 4543,
  "m\u00e4ss\u00e4": 4544,
  "\u2581damn": 4545,
  "\u2581kaikilla": 4546,
  "TO": 4547,
  "\u2581k\u00e4yt\u00e4": 4548,
  "\u2581seitsem\u00e4n": 4549,
  "\u2581businesses": 4550,
  ",\"": 4551,
  "\u2581dinner": 4552,
  "dis": 4553,
  "asia": 4554,
  "\u2581minuun": 4555,
  "\u2581improving": 4556,
  "\u2581facilities": 4557,
  "empi": 4558,
  "\u2581West": 4559,
  "\u2581T\u00c4M\u00c4N": 4560,
  "\u2581kolmansien": 4561,
  "\u2581students": 4562,
  "\u2581extension": 4563,
  "uksessa": 4564,
  "\u2581luona": 4565,
  "\u2581yll\u00e4": 4566,
  "\u2581tur": 4567,
  "\u2581collection": 4568,
  "\u2581entered": 4569,
  "\u2581priorities": 4570,
  "\u258151": 4571,
  "\u2581recommendations": 4572,
  "\u2581rise": 4573,
  "\u2581400": 4574,
  "\u2581extra": 4575,
  "\u2581components": 4576,
  "\u2581article": 4577,
  "\u2581release": 4578,
  "\u2581Witnesses": 4579,
  "\u2581saaneet": 4580,
  "\u2581valo": 4581,
  "\u2581tuonti": 4582,
  "IL": 4583,
  "\u2581takana": 4584,
  "\u2581Mc": 4585,
  "\u2581supported": 4586,
  "\u2581ty\u00f6llisyys": 4587,
  "\u2581banks": 4588,
  "\u2581lupa": 4589,
  "\u2581l\u00e4hde": 4590,
  "tua": 4591,
  "\u2581hy\u00f6ty\u00e4": 4592,
  "\u2581looked": 4593,
  "\u258146": 4594,
  "\u2581Niink\u00f6": 4595,
  "\u2581viiden": 4596,
  "\u2581tarjota": 4597,
  "\u2581tuotteet": 4598,
  "\u2581kuule": 4599,
  "\u2581mainitun": 4600,
  "\u2581Eik\u00e4": 4601,
  "\u2581osaksi": 4602,
  "\u2581meant": 4603,
  "\u2581teollisuus": 4604,
  "\u2581kuningas": 4605,
  "\u2581criminal": 4606,
  "\u2581severe": 4607,
  "ok": 4608,
  "\u2581effort": 4609,
  "\u2581James": 4610,
  "\u2581catch": 4611,
  "\u2581infrastruktuuri": 4612,
  "\u2581round": 4613,
  "\u2581Madam": 4614,
  "\u25812,": 4615,
  "\u2581sanonut": 4616,
  "\u2581actual": 4617,
  "2007": 4618,
  "\u2581eurooppalaisen": 4619,
  "\u2581Euratom": 4620,
  "\u2581Casino": 4621,
  "\u2581vaikeaa": 4622,
  "\u2581kiitt\u00e4\u00e4": 4623,
  "\u2581kuoleman": 4624,
  "\u2581t\u00e4": 4625,
  "\u2581Tra": 4626,
  "tason": 4627,
  "\u2581placed": 4628,
  "iseen": 4629,
  "\u2581Bu": 4630,
  "\u2581straight": 4631,
  "\u2581kyseisten": 4632,
  "\u2581funny": 4633,
  "\u2581ali": 4634,
  "\u2581my\u00f6t\u00e4": 4635,
  "\u2581kehityst\u00e4": 4636,
  "\u2581transparency": 4637,
  "\u2581eteenp\u00e4in": 4638,
  "\u2581spent": 4639,
  "\u2581contain": 4640,
  "st": 4641,
  "\u2581Check": 4642,
  "\u2581kovin": 4643,
  "\u2581Human": 4644,
  "\u2581ilmoittaa": 4645,
  "\u2581employees": 4646,
  "\u2581consultation": 4647,
  "\u2581jona": 4648,
  "\u2581niiss\u00e4": 4649,
  "\u2581began": 4650,
  "koodi": 4651,
  "\u2581former": 4652,
  "vero": 4653,
  "\u2581Pid\u00e4n": 4654,
  "\u2581molemmat": 4655,
  "ksiin": 4656,
  "voima": 4657,
  "\u2581Ky": 4658,
  "\u2581success": 4659,
  "\u2581begin": 4660,
  "\u2581Under": 4661,
  "puoli": 4662,
  "\u2581perhaps": 4663,
  "European": 4664,
  "\u2581poly": 4665,
  "oja": 4666,
  "ser": 4667,
  "\u2581facilitate": 4668,
  "\u2581mukaiset": 4669,
  "politiikkaa": 4670,
  "\u2581Joe": 4671,
  "cha": 4672,
  "\u2581Most": 4673,
  "gra": 4674,
  "\u2581glad": 4675,
  "\u2581schemes": 4676,
  "\u2581definition": 4677,
  "\u2581leading": 4678,
  "\u2581signed": 4679,
  "laisia": 4680,
  "\u2581consideration": 4681,
  "\u2581surface": 4682,
  "kit": 4683,
  "\u2581direction": 4684,
  "\u2581Vie": 4685,
  "\u2581suo": 4686,
  "\u2581integrated": 4687,
  "\u2581determine": 4688,
  "\u2581vaatimuksia": 4689,
  "\u2581List": 4690,
  "\u2581kirjan": 4691,
  "cause": 4692,
  "\u2581quarter": 4693,
  "\u2581shut": 4694,
  "simme": 4695,
  "\u2581klo": 4696,
  "\u2581sale": 4697,
  "\u2581sanoen": 4698,
  "jaa": 4699,
  "\u2581developments": 4700,
  "\u2581Total": 4701,
  "\u2581Luoja": 4702,
  "\u2581happening": 4703,
  "\u2581trans": 4704,
  "itse": 4705,
  "\u2581aluksi": 4706,
  "\u2581write": 4707,
  "\u2581anyway": 4708,
  "\u2581pohjalta": 4709,
  "\u2581my\u00f6sk\u00e4\u00e4n": 4710,
  "\u2581showed": 4711,
  "\u2581fresh": 4712,
  "OT": 4713,
  "\u2581au": 4714,
  "\u2581sitting": 4715,
  "\u2581kolmannen": 4716,
  "\u2581user": 4717,
  "\u2581Sta": 4718,
  "\u2581valita": 4719,
  "tis": 4720,
  "ized": 4721,
  "\u2581indeed": 4722,
  "oi": 4723,
  "pp": 4724,
  "\u2581super": 4725,
  "\u2581da": 4726,
  "\u2581drugs": 4727,
  "lais": 4728,
  "2011": 4729,
  "\u2581CD": 4730,
  "\u2581introduced": 4731,
  "\u2581accession": 4732,
  "79": 4733,
  "\u2581johtaja": 4734,
  "\u2581koskevasta": 4735,
  "Euroopan": 4736,
  "\u2581informed": 4737,
  "ope": 4738,
  "\u2581katsotaan": 4739,
  "OP": 4740,
  "\u2581johto": 4741,
  "\u2581eight": 4742,
  "\u2581Moreover": 4743,
  "\u2581WTO": 4744,
  "\u2581alusta": 4745,
  "\u25810,": 4746,
  "68": 4747,
  "\u00fc": 4748,
  "\u2581aio": 4749,
  "\u2581join": 4750,
  "56": 4751,
  "\u2581plants": 4752,
  "\u2581keskustelu": 4753,
  "\u2581kehitt\u00e4\u00e4": 4754,
  "\u2581k\u00e4sitell\u00e4\u00e4n": 4755,
  "\u2581Over": 4756,
  "viranomaisten": 4757,
  "\u2581um": 4758,
  "\u2581Airport": 4759,
  "\u2581Kuule": 4760,
  "ini": 4761,
  "\u2581East": 4762,
  "\u2581ilmi": 4763,
  "\u2581takaa": 4764,
  "\u2581uudet": 4765,
  "\u2581yleisesti": 4766,
  "\u2581paikan": 4767,
  "3)": 4768,
  "\u2581grant": 4769,
  "\u2581recently": 4770,
  "\u2581pelk\u00e4st\u00e4\u00e4n": 4771,
  "\u2581Back": 4772,
  "\u258113.": 4773,
  "\u2581internet": 4774,
  "\u2581birth": 4775,
  "\u2581parlamentille": 4776,
  "2013": 4777,
  "\u00f6ljy": 4778,
  "\u2581mass": 4779,
  "\u2581[3]": 4780,
  "\u2581completed": 4781,
  "\u2581nuori": 4782,
  "\u2581samaan": 4783,
  "\u2581N\u00e4hd\u00e4\u00e4n": 4784,
  "TI": 4785,
  "92": 4786,
  "\u2581j\u00e4senten": 4787,
  "kuva": 4788,
  "\u2581bear": 4789,
  "\u2581irti": 4790,
  "\u2581neuvostolle": 4791,
  "\u2581talousarvio": 4792,
  "\u2581add": 4793,
  "COM": 4794,
  "\u2581keskus": 4795,
  "\u2581addressed": 4796,
  "\u2581manufacturer": 4797,
  "\u2581vaatii": 4798,
  "\u2581Minne": 4799,
  "\u2581Puheenjohtaja": 4800,
  "\u2581representatives": 4801,
  "\u2581produce": 4802,
  "88": 4803,
  "\u2581sp": 4804,
  "laista": 4805,
  "\u2581offered": 4806,
  "\u2581levy": 4807,
  "\u2581Je": 4808,
  "\u2581Mal": 4809,
  "\u2581Ad": 4810,
  "\u2581mission": 4811,
  "\u2581Suomessa": 4812,
  "ub": 4813,
  "\u2581Every": 4814,
  "\u2581competitiveness": 4815,
  "\u2581mieli": 4816,
  "\u2581saavuttaa": 4817,
  "\u2581p\u00e4\u00e4asiassa": 4818,
  "\u2581Mor": 4819,
  "\u2581lains\u00e4\u00e4d\u00e4nt\u00f6\u00e4": 4820,
  "\u2581mukaisia": 4821,
  "\u2581unto": 4822,
  "\u2581shoot": 4823,
  "\u2581survey": 4824,
  "\u2581judgment": 4825,
  "\u2581technologies": 4826,
  "\u2581opened": 4827,
  "\u2581kaikkiin": 4828,
  "\u2581p\u00e4\u00e4oma": 4829,
  "\u2581halu": 4830,
  "\u2581presence": 4831,
  "\u2581budgetary": 4832,
  "\u2581Bulgaria": 4833,
  "\u00c3": 4834,
  "\u2581ourselves": 4835,
  "\u2581Many": 4836,
  "\u2581approximately": 4837,
  "\u2581committed": 4838,
  "\u2581Joka": 4839,
  "\u2581minuutin": 4840,
  "\u2581registered": 4841,
  "\u2581investments": 4842,
  "\u2581kysy\u00e4": 4843,
  "ov": 4844,
  "\u2581esitetty": 4845,
  "\u2581riitt\u00e4\u00e4": 4846,
  "\u2581miest\u00e4": 4847,
  "ik": 4848,
  "\u2581henkil\u00f6st\u00f6": 4849,
  "\u2581influence": 4850,
  "\u2581S\u00e4\u00e4": 4851,
  "\u2581naiset": 4852,
  "\u2581unemployment": 4853,
  "\u25811992": 4854,
  "\u2581myy": 4855,
  "\u2581Everything": 4856,
  "\u2581strengthen": 4857,
  "ell": 4858,
  "\u2581Israelin": 4859,
  "\u2581Niiden": 4860,
  "\u2581toimiin": 4861,
  "\u2581Management": 4862,
  "\u2581k\u00e4sittely": 4863,
  "\u2581Voimme": 4864,
  "ap": 4865,
  "tynyt": 4866,
  "\u2581sanotaan": 4867,
  "\u2581attack": 4868,
  "llist\u00e4": 4869,
  "\u2581reactions": 4870,
  "\u2581View": 4871,
  "\u2581spend": 4872,
  "\u2581Lin": 4873,
  "toiminta": 4874,
  "\u2581Was": 4875,
  "ding": 4876,
  "\u258161": 4877,
  "\u2581nime\u00e4": 4878,
  "\u2581resulting": 4879,
  "car": 4880,
  "si\u00e4": 4881,
  "\u2581kieli": 4882,
  "border": 4883,
  "\u2581glass": 4884,
  "\u2581heikko": 4885,
  "\u2581merkitt\u00e4v\u00e4sti": 4886,
  "\u2581applies": 4887,
  "\u2581insulin": 4888,
  "\u2581maista": 4889,
  "\u2581haittavaikutuks": 4890,
  "\u2581drawn": 4891,
  "\u2581justice": 4892,
  "\u2581valmistus": 4893,
  "\u2581temporary": 4894,
  "\u2581encourage": 4895,
  "\u2581vied\u00e4": 4896,
  "\u258187": 4897,
  "sel": 4898,
  "\u2581Ranska": 4899,
  "\u2581osittain": 4900,
  "\u2581driving": 4901,
  "\u2581posti": 4902,
  "including": 4903,
  "\u2581s\u00e4\u00e4nn\u00f6sten": 4904,
  "\u2581introduction": 4905,
  "1)": 4906,
  "\u2581min": 4907,
  "\u2581tasapaino": 4908,
  "gar": 4909,
  "suoja": 4910,
  "\u2581growing": 4911,
  "\u2581machines": 4912,
  "\u2581claim": 4913,
  "\u2581paikalla": 4914,
  "\u2581veri": 4915,
  "\u2581Christians": 4916,
  "\u2581lasi": 4917,
  "\u2581neither": 4918,
  "\u2581oppi": 4919,
  "\u2581todenn\u00e4k\u00f6isesti": 4920,
  "\u2581symptoms": 4921,
  "\u2581exceeding": 4922,
  "\u2581moved": 4923,
  "\u2581luu": 4924,
  "%)": 4925,
  "\u2581Got": 4926,
  "\u2581toimintaan": 4927,
  "\u2581emergency": 4928,
  "\u2581ryhm\u00e4n": 4929,
  "\u2581suora": 4930,
  "\u2581Sama": 4931,
  "\u2581Var": 4932,
  "\u2581notes": 4933,
  "\u2581Vuoden": 4934,
  "\u2581kasvoi": 4935,
  "\u2581ruoka": 4936,
  "\u2581acting": 4937,
  "\u2581kaikilta": 4938,
  "\u2581vett\u00e4": 4939,
  "tre": 4940,
  "\u258172": 4941,
  "\u2581l\u00e4\u00e4ke": 4942,
  "\u2581press": 4943,
  "\u2581wrote": 4944,
  "\u2581recognition": 4945,
  "\u2581kuljetus": 4946,
  "\u2581declaration": 4947,
  "\u2581mainly": 4948,
  "\u2581kappale": 4949,
  "\u2581corresponding": 4950,
  "\u2581rikos": 4951,
  "\u2581discussion": 4952,
  "\u2581multi": 4953,
  "\u2581silm\u00e4": 4954,
  "\u2581medicines": 4955,
  "\u2581politiikan": 4956,
  "\u2581store": 4957,
  "\u2581worse": 4958,
  "\u2581hyvi\u00e4": 4959,
  "\u2581rakenne": 4960,
  "cal": 4961,
  "\u2581v\u00e4lit\u00e4": 4962,
  "\u2581kova": 4963,
  "\u2581Black": 4964,
  "\u2581rauhan": 4965,
  "\u2581l\u00e4hi": 4966,
  "\u2581transactions": 4967,
  "\u2581kasva": 4968,
  "\u2581operator": 4969,
  "KE": 4970,
  "\u2581Greece": 4971,
  "\u2581categories": 4972,
  "\u2581Teid\u00e4n": 4973,
  "\u2581etsi": 4974,
  "\u2581k\u00e4ytetty": 4975,
  "\u2581fisheries": 4976,
  "42": 4977,
  "\u2581Russian": 4978,
  "\u2581noted": 4979,
  "\u2581Jotkut": 4980,
  "wa": 4981,
  "\u2581Should": 4982,
  "AM": 4983,
  "\u2581\u00ab": 4984,
  "\u2581kest\u00e4\u00e4": 4985,
  "\u2581vastuussa": 4986,
  "\u2581henkil\u00f6iden": 4987,
  "\u2581item": 4988,
  "valla": 4989,
  "\u2581lopettaa": 4990,
  "\u2581items": 4991,
  "\u2581Kristuksen": 4992,
  "\u2581certificate": 4993,
  "\u2581Rakastan": 4994,
  "\u2581paperi": 4995,
  "\u2581Oy": 4996,
  "\u2581phase": 4997,
  "\u2581m\u00e4": 4998,
  "\u2581reviews": 4999,
  "\u2581handle": 5000,
  "oikeus": 5001,
  "\u2581kantaa": 5002,
  "\u2581blue": 5003,
  "wi": 5004,
  "\u2581promoting": 5005,
  "\u2581waters": 5006,
  "\u2581seeing": 5007,
  "\u2581kaunis": 5008,
  "\u2581Mihin": 5009,
  "\u2581exist": 5010,
  "\u2581Hienoa": 5011,
  "\u2581turvallisuuden": 5012,
  "\u2581arm": 5013,
  "\u2581vali": 5014,
  "\u2581culture": 5015,
  "\u2581station": 5016,
  "\u2581l\u00e4he": 5017,
  "\u25812013,": 5018,
  "\u2581London": 5019,
  "\u258188": 5020,
  "stus": 5021,
  "\u2581sold": 5022,
  "\u2581auton": 5023,
  "\u2581tehneet": 5024,
  "bin": 5025,
  "\u2581Open": 5026,
  "\u25812014,": 5027,
  "\u2581keksi": 5028,
  "\u2581Pysy": 5029,
  "\u2581ydin": 5030,
  "\u2581asianmukaisesti": 5031,
  "mark": 5032,
  "\u2581menettelyn": 5033,
  "\u2581prove": 5034,
  "\u2581spiritual": 5035,
  "\u2581toimielinten": 5036,
  "\u2581kone": 5037,
  "\u2581luettelo": 5038,
  "hdi": 5039,
  "\u2581track": 5040,
  "\u2581option": 5041,
  "\u2581voisivat": 5042,
  "t\u00e4v\u00e4": 5043,
  "\u2581vaikutusta": 5044,
  "\u2581fault": 5045,
  "\u2581uses": 5046,
  "\u258153": 5047,
  "\u2581eilen": 5048,
  "\u2581viesti": 5049,
  "\u2581primary": 5050,
  "\u2581languages": 5051,
  "\u2581Captain": 5052,
  "\u2581otti": 5053,
  "\u2581adequate": 5054,
  "alueen": 5055,
  "\u2581milloin": 5056,
  "\u2581Yli": 5057,
  "ep": 5058,
  "toiminnan": 5059,
  "\u2581currency": 5060,
  "\u2581Adam": 5061,
  "\u2581l\u00e4ht\u00f6": 5062,
  "ng": 5063,
  "all": 5064,
  "\u2581huone": 5065,
  "\u2581recovery": 5066,
  "\u2581deep": 5067,
  "\u2581eligible": 5068,
  "69": 5069,
  "alalla": 5070,
  "\u2581UK": 5071,
  "\u2581yht\u00e4\u00e4n": 5072,
  "old": 5073,
  "\u2581perustuvat": 5074,
  "\u2581receiving": 5075,
  "\u2581toisessa": 5076,
  "\u2581riitt\u00e4v\u00e4sti": 5077,
  "\u00e4r": 5078,
  "\u2581ihme": 5079,
  "\u2581understanding": 5080,
  "\u2581ehdottaa": 5081,
  "\u25812012,": 5082,
  "EYVL": 5083,
  "\u2581degree": 5084,
  "\u2581evening": 5085,
  "\u2581Halusin": 5086,
  "\u2581\u00f6ljy": 5087,
  "\u2581Labour": 5088,
  "ship": 5089,
  "uk": 5090,
  "\u2581liittyv\u00e4n": 5091,
  "4-": 5092,
  "\u2581temperature": 5093,
  "\u2581kustannukset": 5094,
  "\u2581l\u00e4htee": 5095,
  "v\u00e4\u00e4": 5096,
  "\u2581sielu": 5097,
  "kg": 5098,
  "RI": 5099,
  "\u2581shares": 5100,
  "\u2581hyv\u00e4lt\u00e4": 5101,
  "\u2581toimisto": 5102,
  "\u2581Yhteis\u00f6n": 5103,
  "\u2581characteristics": 5104,
  "\u2581tilanteen": 5105,
  "\u2581train": 5106,
  "\u2581el\u00e4m\u00e4": 5107,
  "toi": 5108,
  "\u2581heat": 5109,
  "oon": 5110,
  "\u2581seek": 5111,
  "tetty": 5112,
  "miselle": 5113,
  "ytt\u00e4": 5114,
  "\u2581]": 5115,
  "\u2581Milloin": 5116,
  "To": 5117,
  "\u2581suojaa": 5118,
  "\u2581mahdollisuuden": 5119,
  "87": 5120,
  "\u2581kanssani": 5121,
  "ika": 5122,
  "\u2581Moni": 5123,
  "\u2581Gi": 5124,
  "\u2581requirement": 5125,
  "happo": 5126,
  "\u2581muutama": 5127,
  "\u2581Toivottavasti": 5128,
  "\u2581Suite": 5129,
  "\u2581anybody": 5130,
  "\u2581prison": 5131,
  "ent": 5132,
  "\u2581est\u00e4": 5133,
  "\u2581lopussa": 5134,
  "\u2581modern": 5135,
  "\u2581vaihtoehto": 5136,
  "\u2581calculated": 5137,
  "MP": 5138,
  "\u2581kiltti": 5139,
  "\u2581Chinese": 5140,
  "\u2581ymp\u00e4rist\u00f6n": 5141,
  "\u2581loved": 5142,
  "\u2581vaikutukset": 5143,
  "\u2581Oletteko": 5144,
  "\u2581Three": 5145,
  "\u2581lady": 5146,
  "\u2581preparation": 5147,
  "\u2581tools": 5148,
  "\u2581Art": 5149,
  "\u2581It\u00e4": 5150,
  "\u2581map": 5151,
  "aja": 5152,
  "\u2581kuvaus": 5153,
  "\u2581lukum\u00e4\u00e4r\u00e4": 5154,
  "\u2581viimeist\u00e4\u00e4n": 5155,
  "\u201c": 5156,
  "\u2581Martin": 5157,
  "\u2581kau": 5158,
  "\u2581puhui": 5159,
  "(3)": 5160,
  "\u2581task": 5161,
  "\u2581Search": 5162,
  "\u2581miljardia": 5163,
  "\u2581my\u00f6nnetty": 5164,
  "\u2581toteaa": 5165,
  "\u2581teit": 5166,
  "yys": 5167,
  "j\u00e4rjestelm\u00e4\u00e4": 5168,
  "\u2581accident": 5169,
  "\u2581kertonut": 5170,
  "\u2581weather": 5171,
  "yksi": 5172,
  "\u2581Association": 5173,
  "mman": 5174,
  "EUR": 5175,
  "\u2581kansalliset": 5176,
  "kkeen": 5177,
  "\u2581pension": 5178,
  "\u2581l\u00e4hett\u00e4\u00e4": 5179,
  "\u2014": 5180,
  "\u258159": 5181,
  "\u2581ker": 5182,
  "rvi": 5183,
  "\u2581meteo": 5184,
  "\u2581kannattaa": 5185,
  "\u2581t\u00e4llaista": 5186,
  "\u2581Sal": 5187,
  "\u2581kansa": 5188,
  "put": 5189,
  "\u2581linja": 5190,
  "\u2581s\u00e4\u00e4nn\u00f6ksi\u00e4": 5191,
  "\u2581luotto": 5192,
  "\u2581competitive": 5193,
  "mal": 5194,
  "\u2581Dis": 5195,
  "\u2581Heid\u00e4n": 5196,
  "\u258154": 5197,
  "\u2581Something": 5198,
  "nus": 5199,
  "esim": 5200,
  "\u2581articles": 5201,
  "\u2581veren": 5202,
  "\u2581motor": 5203,
  "\u258186": 5204,
  "\u2581Jerusalem": 5205,
  "\u2581KOMISSIO": 5206,
  "\u2581Turkey": 5207,
  "\u2581News": 5208,
  "52": 5209,
  "\u2581Mies": 5210,
  "FI": 5211,
  "\u2581p\u00e4\u00e4t\u00f6kseen": 5212,
  "\u2581improved": 5213,
  "over": 5214,
  "\u2581Today": 5215,
  "\u2581COMMISSION": 5216,
  "\u2581mieless\u00e4": 5217,
  "\u2581huolta": 5218,
  "\u2581factor": 5219,
  "\u2581applying": 5220,
  "\u2581osat": 5221,
  "\u2581notified": 5222,
  "st\u00f6": 5223,
  "\u2581Perus": 5224,
  "\u2581church": 5225,
  "ure": 5226,
  "sk": 5227,
  "ttaja": 5228,
  "related": 5229,
  "\u2581tohtori": 5230,
  "\u2581Monet": 5231,
  "\u2581mietinn\u00f6n": 5232,
  "\u2581successful": 5233,
  "\u2581generally": 5234,
  "\u2581luck": 5235,
  "\u2581Call": 5236,
  "\u2581aged": 5237,
  "\u2581enlargement": 5238,
  "\u2581vuodessa": 5239,
  "ator": 5240,
  "\u2581Sanoin": 5241,
  "vers": 5242,
  "llisi\u00e4": 5243,
  "\u25812)": 5244,
  "\u2581Tim": 5245,
  "\u2581peri": 5246,
  "\u2581Esimerkiksi": 5247,
  "\u2581description": 5248,
  "\u2581tuntee": 5249,
  "\u2581seura": 5250,
  "63": 5251,
  "\u25813,": 5252,
  "ial": 5253,
  "\u2581kingdom": 5254,
  "\u2581pitk\u00e4n": 5255,
  "\u2581advantage": 5256,
  "\u2581suuria": 5257,
  "\u2581Tieto": 5258,
  "\u2581link": 5259,
  "\u2581Plan": 5260,
  "\u2581Swedish": 5261,
  "\u2581violence": 5262,
  "\u2581interesting": 5263,
  "\u2581wonder": 5264,
  "\u2581noudattaen": 5265,
  "\u2581sweet": 5266,
  "\u2581Netherlands": 5267,
  "\u2581suunnitelma": 5268,
  "\u2581j\u00e4\u00e4d\u00e4": 5269,
  "\u2581tulevaisuudessa": 5270,
  "bb": 5271,
  "\u2581Gar": 5272,
  "viranomainen": 5273,
  "\u25814:": 5274,
  "\u2581democracy": 5275,
  "\u2581seat": 5276,
  "\u2581extremely": 5277,
  "\u2581useful": 5278,
  "\u25812019": 5279,
  "\u2581fa": 5280,
  "tes": 5281,
  "\u2581notification": 5282,
  "\u2581customer": 5283,
  "\u2581ostaa": 5284,
  "\u2581asettaa": 5285,
  "\u2581ellei": 5286,
  "\u2581maat": 5287,
  "67": 5288,
  "\u2581mark": 5289,
  "\u2581wood": 5290,
  "\u2581kehottaa": 5291,
  "\u2581aimed": 5292,
  "\u2581entitled": 5293,
  "\u2581Luxembourg": 5294,
  "\u2581taloudellisen": 5295,
  "57": 5296,
  "\u2581vaivaa": 5297,
  "It": 5298,
  "\u2581k\u00e4yt\u00e4nn\u00f6n": 5299,
  "\u2581marriage": 5300,
  "\u2581honey": 5301,
  "\u2581salli": 5302,
  "\u2581Make": 5303,
  "\u2581Star": 5304,
  "\u2581Ray": 5305,
  "dit": 5306,
  "ft": 5307,
  "2004": 5308,
  "\u2581Robert": 5309,
  "\u2581dream": 5310,
  "\u2581avaa": 5311,
  "\u2581[...]": 5312,
  "\u2581Ms": 5313,
  "tz": 5314,
  "\u2581Ymm\u00e4rr\u00e4n": 5315,
  "\u2581v\u00e4list\u00e4": 5316,
  "\u2581supporting": 5317,
  "lis": 5318,
  "\u2581tyytyv\u00e4inen": 5319,
  "\u2581tuho": 5320,
  "\u2581Function": 5321,
  "\u2581vastaavan": 5322,
  "k\u00e4y": 5323,
  "\u258102": 5324,
  "-3": 5325,
  "ston": 5326,
  "sko": 5327,
  "\u2581vakava": 5328,
  "nes": 5329,
  "\u2581brain": 5330,
  "\u2581treat": 5331,
  "\u2581pitk\u00e4\u00e4n": 5332,
  "\u2581aivo": 5333,
  "\u2581t\u00e4rkeit\u00e4": 5334,
  "\u258162": 5335,
  "\u2581comprehensive": 5336,
  "\u2581Save": 5337,
  "=": 5338,
  "Ka": 5339,
  "\u2581Next": 5340,
  "\u2581wind": 5341,
  "\u2581uskon": 5342,
  "\u2581Che": 5343,
  "kea": 5344,
  "\u2581helped": 5345,
  "\u2581FBI": 5346,
  "\u2581coffee": 5347,
  "h\u00e4": 5348,
  "\u25812015/": 5349,
  "\u2581vahvistettu": 5350,
  "\u2581standing": 5351,
  "bar": 5352,
  "\u2581er\u00e4\u00e4n": 5353,
  "len": 5354,
  "europa": 5355,
  "\u2581Ven\u00e4j\u00e4n": 5356,
  "\u2581green": 5357,
  "\u2581koulutuksen": 5358,
  "\u2581raaka": 5359,
  "\u2581lopullinen": 5360,
  "\u2581laki": 5361,
  "\u2581tulos": 5362,
  "\u2581v\u00e4h\u00e4": 5363,
  "\u2581controls": 5364,
  "\u2581Actually": 5365,
  "\u2581appear": 5366,
  "\u2581options": 5367,
  "\u2581kest\u00e4v\u00e4": 5368,
  "teja": 5369,
  "ettava": 5370,
  "ii": 5371,
  "\u2581p\u00e4iv\u00e4\u00e4n": 5372,
  "iini": 5373,
  "\u2581Alex": 5374,
  "\u2581liite": 5375,
  "\u2581Jumalaa": 5376,
  "las": 5377,
  "\u2581prejudice": 5378,
  "\u2581fell": 5379,
  "\u2581hotelli": 5380,
  "We": 5381,
  "\u2581vastata": 5382,
  "ez": 5383,
  "ksesta": 5384,
  "\u2581avata": 5385,
  "\u2581Kuuntele": 5386,
  "\u2581pure": 5387,
  "\u2581excellent": 5388,
  "\u2581ruokaa": 5389,
  "\u2581Product": 5390,
  "89": 5391,
  "\u2581agenda": 5392,
  "12.": 5393,
  "76": 5394,
  "\u2581tukee": 5395,
  "uta": 5396,
  "komitea": 5397,
  "IR": 5398,
  "osta": 5399,
  "\u2581ik\u00e4": 5400,
  "\u2581raise": 5401,
  "\u2581fix": 5402,
  "sor": 5403,
  "\u2581Bill": 5404,
  "\u2581till": 5405,
  "\u2581consequences": 5406,
  "\u258191": 5407,
  "\u2581valinta": 5408,
  "\u2581joille": 5409,
  "\u2581Watch": 5410,
  "\u2581rural": 5411,
  "ros": 5412,
  "\u2581J\u00e4": 5413,
  "\u2581entity": 5414,
  "6,": 5415,
  "\u2581valtioiden": 5416,
  "\u2581promotion": 5417,
  "elta": 5418,
  "\u2581tiettyj\u00e4": 5419,
  "suunnitelma": 5420,
  "ett\u00e4": 5421,
  "\u2581koo": 5422,
  "\u2581hearing": 5423,
  "\u2581riitt\u00e4v\u00e4n": 5424,
  "suunnitelman": 5425,
  "\u25811.1": 5426,
  "merkki": 5427,
  "\u2581Name": 5428,
  "\u2581Hy": 5429,
  "\u2581tietenkin": 5430,
  "\u2581unioniin": 5431,
  "\u2581linked": 5432,
  "\u2581tekisi": 5433,
  "assa": 5434,
  "\u2581drop": 5435,
  "\u2581huomaa": 5436,
  "\u2581haittaa": 5437,
  "iti": 5438,
  "\u2581association": 5439,
  "\u2581challenge": 5440,
  "\u2581charges": 5441,
  "2-": 5442,
  "\u2581fat": 5443,
  "\u2581sielt\u00e4": 5444,
  "\u2581strength": 5445,
  "\u2581contained": 5446,
  "\u2581teho": 5447,
  "DA": 5448,
  "\u2581ty\u00f6markkina": 5449,
  "ija": 5450,
  "\u2581melkein": 5451,
  "\u2581n\u00e4e": 5452,
  "\u2581recognised": 5453,
  "alle": 5454,
  "\u2581rahat": 5455,
  "51": 5456,
  "\u2581players": 5457,
  "\u2581evil": 5458,
  "ative": 5459,
  "\u2581identify": 5460,
  "\u2581el\u00e4m\u00e4\u00e4": 5461,
  "\u2581apu": 5462,
  "\u2581appreciate": 5463,
  "ef": 5464,
  "\u2581president": 5465,
  "\u2581delivery": 5466,
  "\u2581vuosien": 5467,
  "\u2581perusta": 5468,
  "2006": 5469,
  "\u2581ovi": 5470,
  "\u2581Niinp\u00e4": 5471,
  "\u2581direktiiviss\u00e4": 5472,
  "\u2581sell": 5473,
  "\u2581views": 5474,
  "\u2581koira": 5475,
  "\u2581differences": 5476,
  "\u2581toimittaa": 5477,
  "\u2581s\u00e4\u00e4nn\u00f6llisesti": 5478,
  "log": 5479,
  "\u258189": 5480,
  "\u2581maata": 5481,
  "\u2581Never": 5482,
  "\u2581firm": 5483,
  "menettelyn": 5484,
  "TE": 5485,
  "AS": 5486,
  "\u2581Henry": 5487,
  "PS": 5488,
  "\u2581functions": 5489,
  "\u2581names": 5490,
  "sion": 5491,
  "\u2581y\u00f6": 5492,
  "\u2581muoto": 5493,
  "General": 5494,
  "UR": 5495,
  "\u2581complex": 5496,
  "\u2581tehokkaasti": 5497,
  "://": 5498,
  "ministeri": 5499,
  "\u2581Once": 5500,
  "koon": 5501,
  "\u2581sellaisenaan": 5502,
  "\u2581sis\u00e4lt\u00e4v\u00e4t": 5503,
  "but": 5504,
  "\u2581hyv\u00e4ksytty": 5505,
  "\u2581Ly": 5506,
  "viranomaisen": 5507,
  "ff": 5508,
  "\u2581dark": 5509,
  "\u2581yleisen": 5510,
  "\u2581Paavali": 5511,
  "ida": 5512,
  "\u2581Fine": 5513,
  "\u2581hau": 5514,
  "\u2581democratic": 5515,
  "\u258166": 5516,
  "\u2581alternative": 5517,
  "\u2581SA": 5518,
  "\u2581enforcement": 5519,
  "\u2581testing": 5520,
  "\u2581vuosittain": 5521,
  "\u2581cells": 5522,
  "2015": 5523,
  "\u2581shouldn": 5524,
  "\u2581confidence": 5525,
  "oita": 5526,
  "\u2581Tied\u00e4t": 5527,
  "\u2581aineiden": 5528,
  "\u2581image": 5529,
  "\u2581soul": 5530,
  "\u2581kohde": 5531,
  "\u2581hoitoon": 5532,
  "\u2581length": 5533,
  "\u2581properly": 5534,
  "2008": 5535,
  "\u2581Raamattu": 5536,
  "La": 5537,
  "\u2581tili": 5538,
  "\u2581Uskon": 5539,
  "\u2581syd\u00e4n": 5540,
  "maat": 5541,
  "\u2581maailma": 5542,
  "\u2581Christmas": 5543,
  "\u2581j\u00e4ljell\u00e4": 5544,
  "\u258158": 5545,
  "\u2581IU": 5546,
  "ture": 5547,
  "\u2581Kiinan": 5548,
  "hoidon": 5549,
  "\u2581Thus": 5550,
  "\u2581Ze": 5551,
  "\u2581kysymykseen": 5552,
  "\u2581selvitt\u00e4\u00e4": 5553,
  "\u2581middle": 5554,
  "\u2581loma": 5555,
  "ttaessa": 5556,
  "\u2581jokaisen": 5557,
  "\u2581palvelut": 5558,
  "\u2581contributions": 5559,
  "isuuden": 5560,
  "\u2581exceed": 5561,
  "\u2581Food": 5562,
  "\u2581totally": 5563,
  "\u2581t\u00e4ynn\u00e4": 5564,
  "\u2581bi": 5565,
  "tt\u00f6": 5566,
  "\u2581varmistetaan": 5567,
  "54": 5568,
  "93": 5569,
  "\u2581250": 5570,
  "\u2581Communities": 5571,
  "\u2581edisty": 5572,
  "\u2581asiantuntija": 5573,
  "VA": 5574,
  "tetut": 5575,
  "act": 5576,
  "\u2581twice": 5577,
  "1996": 5578,
  "\u2581dear": 5579,
  "\u2581nimen": 5580,
  "\u2581ministeri": 5581,
  "\u2581restructuring": 5582,
  "\u2581koodi": 5583,
  "\u2581tietokone": 5584,
  "\u2581varaa": 5585,
  "\u2581Usko": 5586,
  "\u2581tavaroiden": 5587,
  "77": 5588,
  "\u2581Mink\u00e4": 5589,
  "\u2581adverse": 5590,
  "\u2581edustaja": 5591,
  "\u2581Toivon": 5592,
  "\u2581tekemist\u00e4": 5593,
  "zo": 5594,
  "rii": 5595,
  "\u2581poistaa": 5596,
  "uksissa": 5597,
  "84": 5598,
  "m\u00e4tt\u00e4": 5599,
  "ping": 5600,
  "86": 5601,
  "\u2581Parties": 5602,
  "\u2581voittaa": 5603,
  "\u2581pull": 5604,
  "\u2581Life": 5605,
  "Ja": 5606,
  "\u2581kest\u00e4v\u00e4n": 5607,
  "\u2581ik\u00e4\u00e4n": 5608,
  "iz": 5609,
  "\u2581functioning": 5610,
  "\u2581lentoasema": 5611,
  "\u2581processes": 5612,
  "\u258164": 5613,
  "\u2581cohesion": 5614,
  "MA": 5615,
  "\u2581engine": 5616,
  "\u2581Italia": 5617,
  "\u2581Public": 5618,
  "\u2581osoittavat": 5619,
  "joiden": 5620,
  "\u2581India": 5621,
  "\u2581heill\u00e4": 5622,
  "\u2581caught": 5623,
  "\u2581experts": 5624,
  "\u2581viimeinen": 5625,
  "isuutta": 5626,
  "\u2581entities": 5627,
  "\u2581jokainen": 5628,
  "4)": 5629,
  "\u2581Word": 5630,
  "\u2581yhteist\u00e4": 5631,
  "\u2581Tie": 5632,
  "\u2581claims": 5633,
  "\u2581alfa": 5634,
  "r\u00e4": 5635,
  "CC": 5636,
  "\u2581Stay": 5637,
  "\u2581t\u00e4llainen": 5638,
  "\u2581pala": 5639,
  "\u2581religious": 5640,
  "lista": 5641,
  "\u2581Rights": 5642,
  "\u2581delivered": 5643,
  "\u2581valmista": 5644,
  "sista": 5645,
  "\u2581detail": 5646,
  "\u2581partnership": 5647,
  "\u2581iho": 5648,
  "\u2581Ensimm\u00e4inen": 5649,
  "\u2581Voinko": 5650,
  "\u2581dealing": 5651,
  "\u2581VII": 5652,
  "\u2581p\u00e4\u00e4t\u00f6slauselma": 5653,
  "\u2581suur": 5654,
  "\u2581avain": 5655,
  "58": 5656,
  "\u2581elokuva": 5657,
  "\u258157": 5658,
  "\u2581120": 5659,
  "referred": 5660,
  "\u2581pinta": 5661,
  "\u2581flight": 5662,
  "Article": 5663,
  "\u25812011,": 5664,
  "pyr": 5665,
  "\u2581Ehdotus": 5666,
  "\u2581paragraphs": 5667,
  "uuteen": 5668,
  "\u2581Main": 5669,
  "\u2581closely": 5670,
  "\u2581registration": 5671,
  "\u2581riippumatta": 5672,
  "\u2581Nordic": 5673,
  "\u2581tulo": 5674,
  "\u258198": 5675,
  "\u2581syist\u00e4": 5676,
  "\u2581aims": 5677,
  "\u2581miehet": 5678,
  "\u2581hankki": 5679,
  "\u2581metal": 5680,
  "etti": 5681,
  "\u2581korva": 5682,
  "\u2581kasvaa": 5683,
  "\u2581Teen": 5684,
  "\u2581muissa": 5685,
  "\u2581tarkoitettua": 5686,
  "\u2581menossa": 5687,
  "\u2581saamme": 5688,
  "\u2581Paper": 5689,
  "\u2581tien": 5690,
  "\u2581kattaa": 5691,
  "teit\u00e4": 5692,
  "alainen": 5693,
  "\u2581maailmaa": 5694,
  "\u2581parasta": 5695,
  "\u2581kaikkialla": 5696,
  "CH": 5697,
  "lim": 5698,
  "\u2581k\u00e4ytt\u00e4j\u00e4": 5699,
  "\u2581Lissabonin": 5700,
  "kat": 5701,
  "pal": 5702,
  "\u2581Wow": 5703,
  "\u2581du": 5704,
  "\u2581gold": 5705,
  "ney": 5706,
  "\u2581antamaan": 5707,
  "\u2581Oma": 5708,
  "cho": 5709,
  "\u2581sal": 5710,
  "Pa": 5711,
  "\u2581moottori": 5712,
  "\u2581Bro": 5713,
  "\u2581Shut": 5714,
  "Mi": 5715,
  "\u2581seuraava": 5716,
  "bro": 5717,
  "\u2581toteut": 5718,
  "\u2581haluamme": 5719,
  "\u2581Tar": 5720,
  "\u2581liittyv\u00e4": 5721,
  "istu": 5722,
  "lit": 5723,
  "\u2581jne": 5724,
  "nneet": 5725,
  "lic": 5726,
  "\u2581naisen": 5727,
  "\u2581palata": 5728,
  "\u2581vuoro": 5729,
  "\u2581Yleis": 5730,
  "\u2581helppo": 5731,
  "kausi": 5732,
  "\u2581asioista": 5733,
  "73": 5734,
  "\u2581scared": 5735,
  "\u2581governments": 5736,
  "etaan": 5737,
  "\u2581Eri": 5738,
  "\u2581vaikuttavat": 5739,
  "\u2581commitments": 5740,
  "\u2581helping": 5741,
  "\u2581merkille": 5742,
  "\u2581merkki": 5743,
  "\u2581presidentti": 5744,
  "\u2581sanan": 5745,
  "teho": 5746,
  "\u2581selitt\u00e4\u00e4": 5747,
  "\u2581huoli": 5748,
  "lleni": 5749,
  "\u2581para": 5750,
  "ight": 5751,
  "\u2581confirmed": 5752,
  "\u2581Liite": 5753,
  "72": 5754,
  "\u2581summer": 5755,
  "\u2581window": 5756,
  "viitattu": 5757,
  "\u2581effectively": 5758,
  "nee": 5759,
  "\u2581puhut": 5760,
  "\u2581esitt\u00e4m\u00e4": 5761,
  "\u2581seurauksena": 5762,
  "\u2581individuals": 5763,
  "61": 5764,
  "\u2581selected": 5765,
  "\u2581compensation": 5766,
  "\u2581Sy": 5767,
  "\u2581todetaan": 5768,
  "rd": 5769,
  "\u2581oral": 5770,
  "\u2581planned": 5771,
  "\u2581t\u00e4yt\u00e4nt\u00f6\u00f6npanoa": 5772,
  "\u2581vuokra": 5773,
  "\u2581koskevaan": 5774,
  "\u2581secure": 5775,
  "\u2581tulevan": 5776,
  "\u2581cancer": 5777,
  "\u2581loans": 5778,
  "\u2581iloinen": 5779,
  "\u2581vir": 5780,
  "\u2581weird": 5781,
  "\u2581aikav\u00e4lin": 5782,
  "\u2581kulu": 5783,
  "\u2581kehitt\u00e4minen": 5784,
  "\u2581tuoda": 5785,
  "\u2581Poland": 5786,
  "\u2581sanon": 5787,
  "[": 5788,
  "\u2581pelk\u00e4\u00e4": 5789,
  "\u2581carrying": 5790,
  "\u2581viranomaisen": 5791,
  "\u2581hyv\u00e4ksynyt": 5792,
  "\u2581liittyvist\u00e4": 5793,
  "\u2581j\u00e4senvaltioita": 5794,
  "\u2581hey": 5795,
  "\u2581careful": 5796,
  "\u2581tuottaa": 5797,
  "yt": 5798,
  "\u2581Tulen": 5799,
  "\u2581USE": 5800,
  "red": 5801,
  "\u2581putting": 5802,
  "\u2581l\u00e4hti": 5803,
  "\u2581osta": 5804,
  "tieto": 5805,
  "\u2581fi": 5806,
  "\u2581keeping": 5807,
  "\u2581transmission": 5808,
  "\u2581lay": 5809,
  "\u2581Services": 5810,
  "\u2581n\u00e4ihin": 5811,
  "ries": 5812,
  "\u2581ominaisuudet": 5813,
  "wood": 5814,
  "\u2581viikkoa": 5815,
  "\u2581hinnat": 5816,
  "\u2581century": 5817,
  "\u2581goal": 5818,
  "\u2581huge": 5819,
  "\u2581keskustella": 5820,
  "llo": 5821,
  "\u2581Bob": 5822,
  "\u2581Iso": 5823,
  "ansa": 5824,
  "\u2581Shit": 5825,
  "ttelu": 5826,
  "\u2581illegal": 5827,
  "\u2581mention": 5828,
  "\u2581improvement": 5829,
  "tyy": 5830,
  "\u2581fellow": 5831,
  "\u2581menet": 5832,
  "\u2581m\u00e4\u00e4ri": 5833,
  "\u2581wonderful": 5834,
  "\u2581strategic": 5835,
  "\u2581Etsi": 5836,
  "\u2581Employment": 5837,
  "\u258176": 5838,
  "\u2581Case": 5839,
  "\u2581Mielest\u00e4ni": 5840,
  "\u2581spread": 5841,
  "\u2581wall": 5842,
  "\u2581occur": 5843,
  "\u2581instance": 5844,
  "\u2581failed": 5845,
  "\u2581julkaistaan": 5846,
  "\u2581performed": 5847,
  "tapa": 5848,
  "ola": 5849,
  "53": 5850,
  "\u2581prevention": 5851,
  "\u2581teist\u00e4": 5852,
  "\u2581beat": 5853,
  "\u2581Hal": 5854,
  "\u2581t\u00e4ydellinen": 5855,
  "\u2581vuosia": 5856,
  "\u25812015,": 5857,
  "iseksi": 5858,
  "\u2581kutsu": 5859,
  "\u2581kirjaa": 5860,
  "t\u00f6n": 5861,
  "\u2581Ken": 5862,
  "\u2581ilmoitettu": 5863,
  "\u2581Jim": 5864,
  "\u2581miljoonan": 5865,
  "\u2581600": 5866,
  "\u2581respond": 5867,
  "\u2581wear": 5868,
  "\u2581checks": 5869,
  "\u2581street": 5870,
  "Niin": 5871,
  "\u2581brothers": 5872,
  "\u2581t\u00e4ytt\u00e4": 5873,
  "\u2581tiedonanto": 5874,
  "\u2581noudatettava": 5875,
  "kirjoi": 5876,
  "\u2581involving": 5877,
  "\u2581speaking": 5878,
  "\u2581lasta": 5879,
  "\u2581ride": 5880,
  "\u2581ihmist\u00e4": 5881,
  "\u2581029": 5882,
  "low": 5883,
  "\u2581participate": 5884,
  "\u2581uudestaan": 5885,
  "\u2581noudattaa": 5886,
  "\u2581trading": 5887,
  "\u2581indicate": 5888,
  "koulu": 5889,
  "\u2581Dar": 5890,
  "pito": 5891,
  "\u2581merkitys": 5892,
  "koko": 5893,
  "isesta": 5894,
  "\u2581osana": 5895,
  "neita": 5896,
  "\u2581targets": 5897,
  "\u2581nations": 5898,
  "2016": 5899,
  "\u2581closer": 5900,
  "\u2581situations": 5901,
  "\u2581allows": 5902,
  "\u2581alussa": 5903,
  "\u2581sinuun": 5904,
  "\u2581tuonnin": 5905,
  "\u2581Framework": 5906,
  "\u2581Another": 5907,
  "erin": 5908,
  "\u2581IP": 5909,
  "\u2581kohden": 5910,
  "\u2581Tapa": 5911,
  "uden": 5912,
  "\u2581maaseudun": 5913,
  "1997": 5914,
  "\u2581taloudellista": 5915,
  "IV": 5916,
  "\u2581duration": 5917,
  "\u2581trip": 5918,
  "\u2581miesten": 5919,
  "\u2581passed": 5920,
  "\u2581ulkopuolelle": 5921,
  "\u2581somewhere": 5922,
  "metri": 5923,
  "\u2581Number": 5924,
  "\u2581Okei": 5925,
  "\u2581mechanism": 5926,
  "\u2581mutual": 5927,
  "\u2581controlled": 5928,
  "\u2581turvallisuutta": 5929,
  "\u2581v\u00e4ltt\u00e4m\u00e4t\u00f6nt\u00e4": 5930,
  "\u2581grounds": 5931,
  "joi": 5932,
  "\u2581j\u00e4rjest\u00e4": 5933,
  "ach": 5934,
  "end": 5935,
  "\u2581hang": 5936,
  "\u2581hundred": 5937,
  "\u2581Last": 5938,
  "\u2581count": 5939,
  "\u2581tekij\u00e4": 5940,
  "art": 5941,
  "\u2581examination": 5942,
  "\u2581existence": 5943,
  "\u2581yhteys": 5944,
  "nnit": 5945,
  "\u2581Puhu": 5946,
  "\u2581GDP": 5947,
  "ll\u00e4\u00e4n": 5948,
  "\u2581Greek": 5949,
  "puu": 5950,
  "\u2581arvioida": 5951,
  "\u2581broken": 5952,
  "\u2581apartment": 5953,
  "\u2581h\u00e4t\u00e4\u00e4": 5954,
  "\u258199": 5955,
  "\u2581Mm": 5956,
  "\u2581accordingly": 5957,
  "\u2581Spanish": 5958,
  "\u2581tuloksia": 5959,
  "\u2581Trade": 5960,
  "tavat": 5961,
  "\u2581significantly": 5962,
  "\u2581adjustment": 5963,
  "\u2581Min": 5964,
  "\u2581Conference": 5965,
  "\u2581luota": 5966,
  "\u2581nyky": 5967,
  "\u2581reasonable": 5968,
  "\u2581luvan": 5969,
  "\u2581osoitettu": 5970,
  "\u2581lopulta": 5971,
  "71": 5972,
  "yli": 5973,
  "74": 5974,
  "\u2581tarkoitettuja": 5975,
  "!\"": 5976,
  "vii": 5977,
  "\u2581Add": 5978,
  "\u2581Nations": 5979,
  "aineiden": 5980,
  "\u2581Za": 5981,
  "\u2581vital": 5982,
  "ik\u00e4": 5983,
  "\u2019,": 5984,
  "mmat": 5985,
  "\u2581suostu": 5986,
  "\u2581hedelm\u00e4": 5987,
  "\u2581henkil\u00f6n": 5988,
  "\u2581vaihto": 5989,
  "ttavat": 5990,
  "\u2581mikro": 5991,
  "\u2581periods": 5992,
  "LA": 5993,
  "\u2581maasta": 5994,
  "\u2581min\u00e4kin": 5995,
  "\u2581hy\u00f6ty": 5996,
  "\u2581p\u00e4\u00e4si": 5997,
  "\u2581laji": 5998,
  "\u2581creating": 5999,
  "\u2581none": 6000,
  "levy": 6001,
  "yri": 6002,
  "\u2581Saanko": 6003,
  "\u2581Istu": 6004,
  "\u2581sight": 6005,
  "\u2581samanaikaisesti": 6006,
  "\u2581oikeasti": 6007,
  "\u2581producer": 6008,
  "rus": 6009,
  "ensa": 6010,
  "\u2581chemical": 6011,
  "\u2581Pen": 6012,
  "\u2581Em": 6013,
  "\u2581easily": 6014,
  "\u2581y\u00f6t\u00e4": 6015,
  "\u2581bag": 6016,
  "ery": 6017,
  "maksu": 6018,
  "\u2581puh": 6019,
  "-4": 6020,
  "\u2581yst\u00e4vi\u00e4": 6021,
  "\u2581lait": 6022,
  "\u2581kiire": 6023,
  "\u2581jotkut": 6024,
  "\u2581difficulties": 6025,
  "maiden": 6026,
  "\u2581dance": 6027,
  "\u2581older": 6028,
  "yhteiskunnan": 6029,
  "2005": 6030,
  "\u2581(3)": 6031,
  "\u2581kysy": 6032,
  "kkee": 6033,
  "94": 6034,
  "\u2581$": 6035,
  "\u2581sin": 6036,
  "\u2581grow": 6037,
  "\u2581strategia": 6038,
  "\u2581protected": 6039,
  "\u2581tender": 6040,
  "\u2581Tulkaa": 6041,
  "\u2581lahja": 6042,
  "\u2581tutkimuksessa": 6043,
  "menettely": 6044,
  "\u2581Er": 6045,
  "\u2581CYP": 6046,
  "\u2581aircraft": 6047,
  "\u2581Seuraava": 6048,
  "ari": 6049,
  "\u2581Luulen": 6050,
  "\u258182": 6051,
  "geeni": 6052,
  "\u2581Ajattelin": 6053,
  "ml": 6054,
  "\u2581Matt": 6055,
  "\u2581Chi": 6056,
  "\u2581k\u00e4ynyt": 6057,
  "can": 6058,
  "\u2581seuraavia": 6059,
  "\u258124.6.2016": 6060,
  "\u2581mik\u00e4li": 6061,
  "MS": 6062,
  "\u2581551": 6063,
  "\u2581mitta": 6064,
  "\u2581Law": 6065,
  "\u2581Minua": 6066,
  "\u2581aikoina": 6067,
  "\u2581tehtiin": 6068,
  "\u2581k\u00e4rsi": 6069,
  "\u2581path": 6070,
  "you": 6071,
  "\u2581concentration": 6072,
  "100": 6073,
  "\u2581mietint\u00f6": 6074,
  "ph": 6075,
  "\u2581rajat": 6076,
  "\u2581sounds": 6077,
  "\u2581Area": 6078,
  "\u2581todellakin": 6079,
  "\u2581Safety": 6080,
  "\u2581metalli": 6081,
  "teita": 6082,
  "\u2581estimated": 6083,
  "\u2581plus": 6084,
  "\u2581Regulations": 6085,
  "\u25812006.": 6086,
  "\u2581yleinen": 6087,
  "tiedosto": 6088,
  "\u258179": 6089,
  "\u2581Remember": 6090,
  "\u2581families": 6091,
  "peri": 6092,
  "\u2581Portugal": 6093,
  "\u2581tarkoitat": 6094,
  "91": 6095,
  "\u2581kuuluvien": 6096,
  "\u2581scale": 6097,
  "\u2581heaven": 6098,
  "\u2581Weather": 6099,
  "\u2581extended": 6100,
  "\u2581output": 6101,
  "nnon": 6102,
  "\u2581indicators": 6103,
  "\u2581k\u00e4ytt\u00e4v\u00e4t": 6104,
  "toimia": 6105,
  "\u2581k\u00e4sitell\u00e4": 6106,
  "\u2581residence": 6107,
  "\u2581Steve": 6108,
  "\u2581p\u00e4\u00e4tti": 6109,
  "\u2581ratio": 6110,
  "\u2581victims": 6111,
  "stasi": 6112,
  "\u2581johdosta": 6113,
  "\u258196": 6114,
  "\u2581kohdalla": 6115,
  "\u25811.3.1": 6116,
  "\u2581consistent": 6117,
  "\u2581assess": 6118,
  "\u2581seconds": 6119,
  "\u2581absence": 6120,
  "\u258181": 6121,
  "\u2581learned": 6122,
  "\u2581sosiaalikomitea": 6123,
  "SS": 6124,
  "\u2581fund": 6125,
  "\u2581ver": 6126,
  "\u2581tulen": 6127,
  "\u2581Big": 6128,
  "\u2581Kir": 6129,
  "\u2581thousand": 6130,
  "\u2581bringing": 6131,
  "\u2581toimenpiteist\u00e4": 6132,
  "vista": 6133,
  "\u2581analyysi": 6134,
  "\u258168": 6135,
  "\u2581reducing": 6136,
  "ale": 6137,
  "\u2581Vii": 6138,
  "press": 6139,
  "\u2581kylm\u00e4": 6140,
  "\u2581sopimukseen": 6141,
  "Me": 6142,
  "\u2581kal": 6143,
  "\u2581Menen": 6144,
  "eeni": 6145,
  "osasto": 6146,
  "af": 6147,
  "\u2581Austria": 6148,
  "\u2581sopii": 6149,
  "\u2581vaara": 6150,
  "\u2581properties": 6151,
  "\u2581quick": 6152,
  "\u2581sets": 6153,
  "ria": 6154,
  "row": 6155,
  "making": 6156,
  "\u25812010,": 6157,
  "\u2581Pyyd\u00e4n": 6158,
  "\u2581Wa": 6159,
  "\u2581h\u00e4neen": 6160,
  "p\u00e4in": 6161,
  "\u2581mukaista": 6162,
  "\u2581orders": 6163,
  "\u2581conducted": 6164,
  "ima": 6165,
  "\u2581k\u00e4ytt\u00e4en": 6166,
  "\u2581asunto": 6167,
  "\u2581Cal": 6168,
  "\u2581uhri": 6169,
  "\u2581rich": 6170,
  "\u2581sosiaalisen": 6171,
  "\u2581agents": 6172,
  "\u2581EFTA": 6173,
  "\u2581etteiv\u00e4t": 6174,
  "\u2581devices": 6175,
  "\u2581kala": 6176,
  "\u2581Press": 6177,
  "\u2581ice": 6178,
  "\u2581identification": 6179,
  "\u2581pit\u00e4v\u00e4t": 6180,
  "\u2581DNA": 6181,
  "2018": 6182,
  "\u2581n\u00e4yt\u00e4": 6183,
  "kk\u00e4": 6184,
  "iso": 6185,
  "laitteet": 6186,
  "\u2581Viime": 6187,
  "tt\u00e4isi": 6188,
  "\u2581arvon": 6189,
  "\u2581katsoi": 6190,
  "ible": 6191,
  "\u2581auki": 6192,
  "\u2581Valitse": 6193,
  "\u2581Mag": 6194,
  "\u2581aikaisemmin": 6195,
  "\u2581mistake": 6196,
  "\u2581books": 6197,
  "ele": 6198,
  "\u2581Anti": 6199,
  "\u2581palkka": 6200,
  "elintarvikkeiden": 6201,
  "/1": 6202,
  "ey": 6203,
  "\u2581oikeuksia": 6204,
  "\u2581ehtoja": 6205,
  "\u2581Street": 6206,
  "\u2581kor": 6207,
  "\u2581impossible": 6208,
  "\u2581profit": 6209,
  "\u2581varsinkin": 6210,
  "\u2581har": 6211,
  "\u2581smart": 6212,
  "\u2581monetary": 6213,
  "\u2581hoita": 6214,
  "\u2581valid": 6215,
  "\u2581concept": 6216,
  "KO": 6217,
  "\u2581copy": 6218,
  "\u2581prepare": 6219,
  "\u2581rahoituksen": 6220,
  "\u2581FI": 6221,
  "\u00ed": 6222,
  "\u2581k\u00e4": 6223,
  "\u2581n\u00e4ky": 6224,
  "res": 6225,
  "piste": 6226,
  "\u2581K\u00e4yt\u00e4": 6227,
  "TOL": 6228,
  "\u2581effectiveness": 6229,
  "ID": 6230,
  "isa": 6231,
  "\u2581siviili": 6232,
  "\u2581http": 6233,
  "\u2581ajoneuvo": 6234,
  "\u25812005.": 6235,
  "PT": 6236,
  "\u2581luulet": 6237,
  "\u2581p\u00e4in": 6238,
  "ute": 6239,
  "\u2581Bi": 6240,
  "ica": 6241,
  "\u25812007.": 6242,
  "\u2581quantities": 6243,
  "\u25811000": 6244,
  "\u2581muutaman": 6245,
  "\u2581Jane": 6246,
  "\u2581j\u00e4i": 6247,
  "\u2581AS": 6248,
  "sty": 6249,
  "\u2581tool": 6250,
  "\u2581stopped": 6251,
  "\u2581kuolema": 6252,
  "\u2581korko": 6253,
  "\u2581elossa": 6254,
  "\u2581v\u00e4line": 6255,
  "\u2581s\u00e4\u00e4nn\u00f6ist\u00e4": 6256,
  "\u2581omat": 6257,
  "\u2581v\u00e4lityksell\u00e4": 6258,
  "\u2581\u03bc": 6259,
  "\u2581congregation": 6260,
  "\u2581osto": 6261,
  "luku": 6262,
  "\u2581ohjelmisto": 6263,
  "\u2581dry": 6264,
  "\u2581L\u00e4": 6265,
  "\u2581Col": 6266,
  "\u2581positions": 6267,
  "bel": 6268,
  "\u2581osassa": 6269,
  "\u2581delay": 6270,
  "\u2581Business": 6271,
  "testi": 6272,
  "\u2581administered": 6273,
  "\u2581keho": 6274,
  "\u2581features": 6275,
  "\u2581eteen": 6276,
  "\u2581Mon": 6277,
  "\u2581saivat": 6278,
  "\u2581maatalouden": 6279,
  "\u2581tuottaja": 6280,
  "\u2581sain": 6281,
  "\u2581LORD": 6282,
  "\u2581Pol": 6283,
  "\u2581VAT": 6284,
  "\u2581tutkia": 6285,
  "\u2581sie": 6286,
  "\u258178": 6287,
  "\u2581kansainv\u00e4listen": 6288,
  "\u2581Vir": 6289,
  "\u2581valvonnan": 6290,
  "ces": 6291,
  "\u2581Also": 6292,
  "\u2581havaittu": 6293,
  "\u2581intervention": 6294,
  "\u2581Date": 6295,
  "tee": 6296,
  "\u2581monitor": 6297,
  "1998": 6298,
  "\u2581Online": 6299,
  "\u2581Fo": 6300,
  "\u2581Tuote": 6301,
  "\u2581ideas": 6302,
  "\u2581thinks": 6303,
  "\u2581Port": 6304,
  "\u25815:": 6305,
  "\u2581nousu": 6306,
  "j\u00e4\u00e4": 6307,
  "\u2581disorders": 6308,
  "\u2581innovaatio": 6309,
  "\u2581Without": 6310,
  "\u2581aiheesta": 6311,
  "\u2581jolle": 6312,
  "\u2581Kan": 6313,
  "\u2581surveillance": 6314,
  "\u2581conformity": 6315,
  "\u2581soveltamisalaan": 6316,
  "tt\u00e4nyt": 6317,
  "\u2581homma": 6318,
  "vuotias": 6319,
  "\u2581digital": 6320,
  "\u2581m\u00e4\u00e4ritell\u00e4\u00e4n": 6321,
  "\u2581kuuntele": 6322,
  "\u2581highest": 6323,
  "\u2581sarja": 6324,
  "\u2581J\u00e4\u00e4": 6325,
  "\u2581homo": 6326,
  "\u2581Nick": 6327,
  "\u2581kyseinen": 6328,
  "IP": 6329,
  "\u2581reality": 6330,
  "\u2581urheilu": 6331,
  "\u2581neuvoa": 6332,
  "\u2581weren": 6333,
  "nie": 6334,
  "\u2581Kolme": 6335,
  "\u2581rautatie": 6336,
  "\u2581invited": 6337,
  "isivat": 6338,
  "\u2581cities": 6339,
  "\u2581throw": 6340,
  "\u2581ennakko": 6341,
  "\u25812008.": 6342,
  "\u2581s\u00e4\u00e4detyt": 6343,
  "\u2581varoja": 6344,
  "\u2581Luuletko": 6345,
  "\u2581Day": 6346,
  "str": 6347,
  "\u2581ottamaan": 6348,
  "\u2581saved": 6349,
  "\u2581suorittaa": 6350,
  "\u2581lopull": 6351,
  "stin": 6352,
  "\u2581yrityksille": 6353,
  "\u2581nobody": 6354,
  "ruu": 6355,
  "\u2581Denmark": 6356,
  "\u2581Up": 6357,
  "\u2581huippu": 6358,
  "\u2581koskeviin": 6359,
  "\u2581tajua": 6360,
  "asema": 6361,
  "\u2581Whatever": 6362,
  "\u2581Kyse": 6363,
  "\u2581Park": 6364,
  "\u2581n\u00e4hden": 6365,
  "\u2581obtain": 6366,
  "\u2581budjetti": 6367,
  "\u2581played": 6368,
  "\u2581(3": 6369,
  "\u2581oven": 6370,
  "imen": 6371,
  "malli": 6372,
  "\u2581piir": 6373,
  "\u2581puolestaan": 6374,
  "\u2581virallinen": 6375,
  "\u25812009,": 6376,
  "\u2581suitable": 6377,
  "\u2581Maria": 6378,
  "\u2581Proposal": 6379,
  "\u2581tilan": 6380,
  "tyyppi": 6381,
  "\u2581t\u00e4llaisen": 6382,
  "turi": 6383,
  "\u2581kahdeksan": 6384,
  "\u2581register": 6385,
  "\u2581voted": 6386,
  "\u2581hetken": 6387,
  "\u2581lying": 6388,
  "\u2581luvun": 6389,
  "\u2581arms": 6390,
  "kel": 6391,
  "\u2581Sarah": 6392,
  "\u2581pani": 6393,
  "\u2581p\u00e4\u00e4t\u00f6ksess\u00e4": 6394,
  "alueella": 6395,
  "\u2581nelj\u00e4n": 6396,
  "\u2581Mer": 6397,
  "ban": 6398,
  "v\u00e4line": 6399,
  "\u2581p\u00e4\u00e4oman": 6400,
  "ip": 6401,
  "ect": 6402,
  "\u2581originating": 6403,
  "pohja": 6404,
  "\u2581johdanto": 6405,
  "\u2581combined": 6406,
  "\u2581tapaa": 6407,
  "\u2581haluaisi": 6408,
  "\u2581S\u00e4hk\u00f6": 6409,
  "\u2581Sp": 6410,
  "\u2581weapons": 6411,
  "\u2581esittelij\u00e4": 6412,
  "\u2581Their": 6413,
  "\u2581huo": 6414,
  "\u2581asiakas": 6415,
  "\u2581por": 6416,
  "\u2581poverty": 6417,
  "turvallisuus": 6418,
  "\u2581Esi": 6419,
  "\u2581iltana": 6420,
  "tt\u00e4v\u00e4t": 6421,
  "\u2581nuorten": 6422,
  "\u2581farmers": 6423,
  "\u2581traditional": 6424,
  "\u2581Kon": 6425,
  "Ra": 6426,
  "\u2581kidding": 6427,
  "\u2581puolustus": 6428,
  "\u2581flow": 6429,
  "\u2581Unionin": 6430,
  "\u2581easier": 6431,
  "\u2581organised": 6432,
  "\u2581tarina": 6433,
  "huone": 6434,
  "\u2581uhka": 6435,
  "\u2581specifically": 6436,
  "\u2581tied\u00e4mme": 6437,
  "\u258171": 6438,
  "\u2581seriously": 6439,
  "\u2581gift": 6440,
  "\u2581Perhaps": 6441,
  "vaatimukset": 6442,
  "\u2581Damn": 6443,
  "\u2581signs": 6444,
  "\u2581ehdotuksia": 6445,
  "\u2581p\u00e4\u00e4sy": 6446,
  "raa": 6447,
  "pri": 6448,
  "\u2581viittaa": 6449,
  "\u2581Carl": 6450,
  "\u2581lainkaan": 6451,
  "\u2581alcohol": 6452,
  "\u2581yhteiskunnallis": 6453,
  "\u2581agencies": 6454,
  "\u2581seurata": 6455,
  "\u2581Post": 6456,
  "\u2581hyper": 6457,
  "\u2581tilannetta": 6458,
  "\u2581agriculture": 6459,
  "\u2581hiili": 6460,
  "\u2581burden": 6461,
  "\u2581yesterday": 6462,
  "\u2581Com": 6463,
  "\u2581popular": 6464,
  "\u2581ohje": 6465,
  "\u2581kuluttajien": 6466,
  "\u2581entirety": 6467,
  "\u258103": 6468,
  "\u2581managed": 6469,
  "(4)": 6470,
  "ara": 6471,
  "\u2581recorded": 6472,
  "\u2581Bra": 6473,
  "\u2581pregnant": 6474,
  "\u2581Terve": 6475,
  "\u2581ura": 6476,
  "TER": 6477,
  "\u2581foot": 6478,
  "imi": 6479,
  "eg": 6480,
  "kasta": 6481,
  "LE": 6482,
  "rr": 6483,
  "\u2581Jimmy": 6484,
  "virasto": 6485,
  "\u25812010.": 6486,
  "\u2581kehitt\u00e4mist\u00e4": 6487,
  "\u2581namely": 6488,
  "/4": 6489,
  "\u2581forest": 6490,
  "\u2581\u00a9": 6491,
  "itti": 6492,
  "pit": 6493,
  "\u2581Asetus": 6494,
  "\u2581structures": 6495,
  "\u2581tietyn": 6496,
  "\u2581port": 6497,
  "\u2581Mikset": 6498,
  "\u2581Yrit\u00e4n": 6499,
  "rk": 6500,
  "\u2581conference": 6501,
  "\u2581tosiaan": 6502,
  "\u2581slow": 6503,
  "/3": 6504,
  "\u2581olevansa": 6505,
  "\u2581totuuden": 6506,
  "mille": 6507,
  "\u2581permanent": 6508,
  "\u2581Bur": 6509,
  "\u2581teaching": 6510,
  "AD": 6511,
  "nnista": 6512,
  "pitoisuus": 6513,
  "\u2581RA": 6514,
  "\u2581teollisuuden": 6515,
  "\u2581forces": 6516,
  "\u2581tavara": 6517,
  "\u2581ajo": 6518,
  "liini": 6519,
  "\u2581kunnia": 6520,
  "VE": 6521,
  "\u2581advance": 6522,
  "\u2581boat": 6523,
  "\u2581investointi": 6524,
  "\u2581Power": 6525,
  "\u2581luottaa": 6526,
  "\u2581remove": 6527,
  "\u2581kuningaskunnan": 6528,
  "mahdollisuuksien": 6529,
  "\u2581talked": 6530,
  "\u2581Au": 6531,
  "\u2581pako": 6532,
  "\u2581minulta": 6533,
  "\u25812009.": 6534,
  "\u2581Move": 6535,
  "\u2581appears": 6536,
  "\u2581error": 6537,
  "AP": 6538,
  "\u2581web": 6539,
  "\u258167": 6540,
  "\u2581kol": 6541,
  "\u2581absolutely": 6542,
  "\u2581pystyy": 6543,
  "\u2581julkis": 6544,
  "\u2581osallistu": 6545,
  "k\u00e4sittely": 6546,
  "\u2581palveluja": 6547,
  "\u2581suojelu": 6548,
  "\u2581refer": 6549,
  "\u2581l\u00e4hetti": 6550,
  "asioiden": 6551,
  "\u2581falling": 6552,
  "\u2581soi": 6553,
  "\u2581heavy": 6554,
  "\u2581VIII": 6555,
  "SE": 6556,
  "\u2581toimenpide": 6557,
  "house": 6558,
  "teri": 6559,
  "\u2581Nor": 6560,
  "luu": 6561,
  "\u2581normaali": 6562,
  "\u2581viikolla": 6563,
  "\u2581figures": 6564,
  "toimet": 6565,
  "\u2581bought": 6566,
  "\u2581Ministry": 6567,
  "\u258173": 6568,
  "\u2581m\u00e4\u00e4ritelty": 6569,
  "\u2581tarjoa": 6570,
  "\u2581Master": 6571,
  "\u2581s\u00e4\u00e4nn\u00f6kset": 6572,
  "\u2581pid\u00e4n": 6573,
  "\u2581viitsi": 6574,
  "\u2581koke": 6575,
  "\u2581aamu": 6576,
  "\u2581t\u00e4lle": 6577,
  "\u2581avun": 6578,
  "ally": 6579,
  "\u2581revenue": 6580,
  "liikenteen": 6581,
  "\u2581Belgian": 6582,
  "\u2581plasma": 6583,
  "\u2581amazing": 6584,
  "\u2581henkil\u00f6kohtaise": 6585,
  "\u2581broad": 6586,
  "\u2581powder": 6587,
  "\u2581perform": 6588,
  "\u2581ry": 6589,
  "\u2581deliver": 6590,
  "2012": 6591,
  "\u2581kuiva": 6592,
  "ev": 6593,
  "\u2581mechanisms": 6594,
  "idi": 6595,
  "\u2581fulfil": 6596,
  "\u2581talousarvion": 6597,
  "\u2581trial": 6598,
  "\u2581l\u00f6ytyy": 6599,
  "tinen": 6600,
  "\u2581anywhere": 6601,
  "\u2581god": 6602,
  "\u2581kirjoitti": 6603,
  "\u2581Trans": 6604,
  "\u2581capable": 6605,
  "\u2581korjata": 6606,
  "roni": 6607,
  "\u2581eniten": 6608,
  "\u2581ehdo": 6609,
  "\u2581Rules": 6610,
  "\u2581discussed": 6611,
  "\u2581represent": 6612,
  "\u2581spoke": 6613,
  "\u2581Joskus": 6614,
  "\u2581killing": 6615,
  "\u2581forever": 6616,
  "\u2581kesto": 6617,
  "\u2581taikka": 6618,
  "\u2581sample": 6619,
  "ier": 6620,
  "ino": 6621,
  "ud": 6622,
  "\u2581Ter": 6623,
  "muut": 6624,
  "\u2581Kal": 6625,
  "\u2581selection": 6626,
  "\u2581pyynn\u00f6st\u00e4": 6627,
  "fin": 6628,
  "\u258108": 6629,
  "viiri": 6630,
  "\u2581lived": 6631,
  "\u2581kielt\u00e4": 6632,
  "tavan": 6633,
  "\u2581todellinen": 6634,
  "\u2581Gra": 6635,
  "hinta": 6636,
  "\u2581generation": 6637,
  "\u2581covering": 6638,
  "\u2581ihmisille": 6639,
  "\u2581tavoitteita": 6640,
  "\u2581siirtym\u00e4": 6641,
  "dra": 6642,
  "\u2581kehi": 6643,
  "\u2581conflict": 6644,
  "\u2581Olit": 6645,
  "\u2581toisaalta": 6646,
  "\u2581hoitoa": 6647,
  "\u2581ohjaus": 6648,
  "\u2581worship": 6649,
  "\u2581omista": 6650,
  "\u2581Nobody": 6651,
  "\u2581finished": 6652,
  "\u2581mobility": 6653,
  "\u2581suuntaan": 6654,
  "\u2581cars": 6655,
  "wer": 6656,
  "\u2581valmistettu": 6657,
  "ette": 6658,
  "\u2581express": 6659,
  "matto": 6660,
  "\u2581kuuma": 6661,
  "\u258177": 6662,
  "lar": 6663,
  "\u2581alkuper\u00e4": 6664,
  "\u2581tanssi": 6665,
  "\u2581v\u00e4li\u00e4": 6666,
  "yhti\u00f6": 6667,
  "NA": 6668,
  "\u2581seuraavista": 6669,
  "uko": 6670,
  "tiivis": 6671,
  "bil": 6672,
  "\u2581hal": 6673,
  "CA": 6674,
  "isille": 6675,
  "\u2581Booking": 6676,
  "\u2581tree": 6677,
  "\u2581sexual": 6678,
  "\u2581mail": 6679,
  "\u2581uniform": 6680,
  "\u2581sanoit": 6681,
  "suo": 6682,
  "\u2581distance": 6683,
  "\u2581mi": 6684,
  "\u2581liikenteen": 6685,
  "\u2581vision": 6686,
  "\u2581Vasta": 6687,
  "\u2581velje": 6688,
  "vesi": 6689,
  "\u2581Further": 6690,
  "\u2581shared": 6691,
  "ano": 6692,
  "\u2581uni": 6693,
  "-2-": 6694,
  "\u2581er\u00e4s": 6695,
  "\u2581sovelleta": 6696,
  "\u2581kuningaskunta": 6697,
  "\u2581subjects": 6698,
  "\u2581itse\u00e4\u00e4n": 6699,
  "1995": 6700,
  "lip": 6701,
  "\u2581raportoi": 6702,
  "\u2581proof": 6703,
  "\u2581watching": 6704,
  "\u2581Amsterdam": 6705,
  "tamme": 6706,
  "\u2581viite": 6707,
  "\u2581manage": 6708,
  "\u2581selvi": 6709,
  "alueiden": 6710,
  "\u2581kilpailun": 6711,
  "ability": 6712,
  "\u2581Maailman": 6713,
  "\u2581plane": 6714,
  "\u2581outcome": 6715,
  "ss": 6716,
  "\u2581askel": 6717,
  "\u2581sites": 6718,
  "iste": 6719,
  "gon": 6720,
  "\u2581lehti": 6721,
  "uri": 6722,
  "rom": 6723,
  "teihin": 6724,
  "pol": 6725,
  "\u2581mahdollisuutta": 6726,
  "\u2581siirt\u00e4\u00e4": 6727,
  "\u2581anta": 6728,
  "\u2581alueelle": 6729,
  "\u2581requests": 6730,
  "\u2581vapautu": 6731,
  "\u2581vessel": 6732,
  "asetus": 6733,
  "\u2581korkean": 6734,
  "\u2581asemassa": 6735,
  "telu": 6736,
  "KA": 6737,
  "\u2581kaikesta": 6738,
  "\u2581Inter": 6739,
  "\u2581sijainti": 6740,
  "itis": 6741,
  "\u2581reforms": 6742,
  "ab": 6743,
  "\u258163": 6744,
  "\u2581Holy": 6745,
  "\u2581science": 6746,
  "isessa": 6747,
  "tutkimus": 6748,
  "\u2581Viel\u00e4": 6749,
  "ulo": 6750,
  "\u2581Ulko": 6751,
  "\u2581huole": 6752,
  "\u2581season": 6753,
  "\u2581ar": 6754,
  "\u2581toimijoiden": 6755,
  "\u2581HIV": 6756,
  "\u2581yliopisto": 6757,
  "rahasto": 6758,
  "\u2581hyv\u00e4ksytt\u00e4v\u00e4": 6759,
  "\u2581REGULATION": 6760,
  "\u2581fighting": 6761,
  "soi": 6762,
  "\u2581kehitt\u00e4misen": 6763,
  "\u2581ilmasto": 6764,
  "\u2581is\u00e4ni": 6765,
  "\u2581Muutetaan": 6766,
  "\u2581Standard": 6767,
  "\u2581strengthening": 6768,
  "gh": 6769,
  "\u2581Google": 6770,
  "\u2581L\u00e4het\u00e4": 6771,
  "komitean": 6772,
  "\u2581hyv\u00e4ksyy": 6773,
  "\u2581greatest": 6774,
  "\u2581vahvistettava": 6775,
  "Olen": 6776,
  "\u2581kuuli": 6777,
  "\u2581varasto": 6778,
  "\u2581bo": 6779,
  "\u2581Poika": 6780,
  "\u2581imposed": 6781,
  "\u2581Tony": 6782,
  "\u2581percent": 6783,
  "\u2581esille": 6784,
  "\u2581osapuolten": 6785,
  "\u2581boss": 6786,
  "\u2581pienempi": 6787,
  "\u2581diseases": 6788,
  "\u2581Ett\u00e4": 6789,
  "\u2581finish": 6790,
  "\u2581taistelu": 6791,
  "\u2581Lis\u00e4t\u00e4\u00e4n": 6792,
  "\u2581allocated": 6793,
  "\u2581nine": 6794,
  "nto": 6795,
  "\u2581Opinion": 6796,
  "\u2581Alan": 6797,
  "ration": 6798,
  "\u2581riit\u00e4": 6799,
  "\u2581mobile": 6800,
  "\u2581muistuttaa": 6801,
  "\u2581menettely\u00e4": 6802,
  "\u2581Strategy": 6803,
  "\u2581Top": 6804,
  "\u2581t\u00e4yt\u00e4nt\u00f6\u00f6npanon": 6805,
  "\u2581hengen": 6806,
  "\u2581micro": 6807,
  "\u2581merkitt\u00e4vi\u00e4": 6808,
  "\u2581miles": 6809,
  "\u2581MA": 6810,
  "ther": 6811,
  "\u2581vil": 6812,
  "\u2581carbon": 6813,
  "zz": 6814,
  "\u2581ring": 6815,
  "\u2581velvoittava": 6816,
  "\u2581Earth": 6817,
  "\u2581televisio": 6818,
  "\u2581yhteisest\u00e4": 6819,
  "\u2581yleissopimuksen": 6820,
  "\u2581truly": 6821,
  "oksen": 6822,
  "\u2581voisin": 6823,
  "\u2581Siihen": 6824,
  "\u2581vahva": 6825,
  "\u2581tuotannon": 6826,
  "oikeuden": 6827,
  "\u2581p\u00f6yt\u00e4kirjan": 6828,
  "\u258105": 6829,
  "ising": 6830,
  "\u2581mets\u00e4": 6831,
  "\u2581feels": 6832,
  "itten": 6833,
  "\u2581jatka": 6834,
  "\u2581versio": 6835,
  "arvon": 6836,
  "\u2581meren": 6837,
  "\u2581aamulla": 6838,
  "\u2581annettiin": 6839,
  "\u2581rahoitusta": 6840,
  "\u2581Charles": 6841,
  "johtaja": 6842,
  "\u2581Yhdysvaltojen": 6843,
  "\u2581sotilas": 6844,
  "\u2581crucial": 6845,
  "Cause": 6846,
  "\u2581Water": 6847,
  "\u2581frequency": 6848,
  "\u2581named": 6849,
  "\u2581j": 6850,
  "emmin": 6851,
  "llesi": 6852,
  "\u2581perheen": 6853,
  "dio": 6854,
  "\u2581pane": 6855,
  "sch": 6856,
  "\u2581officer": 6857,
  "\u2581pelastaa": 6858,
  "\u2581Muista": 6859,
  "vie": 6860,
  "pel": 6861,
  "\u2581asiakirja": 6862,
  "oc": 6863,
  "oo": 6864,
  "ty\u00f6n": 6865,
  "\u2581tavoitteen": 6866,
  "\u2581worried": 6867,
  "\u2581n\u00e4k\u00f6": 6868,
  "\u2581sanoma": 6869,
  "\u2581ker\u00e4\u00e4": 6870,
  "\u2581college": 6871,
  "fen": 6872,
  "\u2581tausta": 6873,
  "ath": 6874,
  "\u2581korvaa": 6875,
  "matka": 6876,
  "taminen": 6877,
  "\u2581Muu": 6878,
  "\u2581erityist\u00e4": 6879,
  "\u2581Ste": 6880,
  "\u2581m\u00e4\u00e4r\u00e4t": 6881,
  "\u2581tunnista": 6882,
  "sar": 6883,
  "\u2581becoming": 6884,
  "\u2581huume": 6885,
  "\u2581defence": 6886,
  "\u2581Lopuksi": 6887,
  "\u2581movie": 6888,
  "\u2581L\u00e4hde": 6889,
  "\u2581raw": 6890,
  "\u2581Procedure": 6891,
  "hal": 6892,
  "TS": 6893,
  "\u2581Description": 6894,
  "\u2581Chris": 6895,
  "\u2581ajatus": 6896,
  "\u2581mielen": 6897,
  "\u2581taida": 6898,
  "\u2581broke": 6899,
  "\u2581examine": 6900,
  "\u2581is\u00e4si": 6901,
  "\u2581ensimm\u00e4ist\u00e4": 6902,
  "\u2581sanat": 6903,
  "ema": 6904,
  "\u2581ensimm\u00e4isess\u00e4": 6905,
  "Ko": 6906,
  "\u2581respectively": 6907,
  "\u2581ajatella": 6908,
  "\u2581favor": 6909,
  "\u2581antavat": 6910,
  "\u2581variety": 6911,
  "\u2581willing": 6912,
  "\u2581pleasure": 6913,
  "king": 6914,
  "\u2581j\u00e4t\u00e4": 6915,
  "aattori": 6916,
  "\u2581rikko": 6917,
  "\u2581victim": 6918,
  "2017": 6919,
  "\u2581Luke": 6920,
  "\u2581tavarat": 6921,
  "\u2581British": 6922,
  "\u2581vienti\u00e4": 6923,
  "\u258174": 6924,
  "\u2581kaikkein": 6925,
  "rate": 6926,
  "\u2581finance": 6927,
  "\u2581race": 6928,
  "\u2581im": 6929,
  "\u2581Ya": 6930,
  "\u2581Someone": 6931,
  "\u2581introduce": 6932,
  "\u2581unique": 6933,
  "\u2581renewable": 6934,
  "rakentee": 6935,
  "\u2581religion": 6936,
  "\u2581realize": 6937,
  "s\u00e4\u00e4d\u00f6": 6938,
  "\u2581Super": 6939,
  "\u2581taxes": 6940,
  "isista": 6941,
  "\u2581proud": 6942,
  "\u2581lupaa": 6943,
  "\u2581Fe": 6944,
  "kustannukset": 6945,
  "\u2581Land": 6946,
  "\u2581Ali": 6947,
  "\u2581Bio": 6948,
  "\u2581Katsokaa": 6949,
  "mma": 6950,
  "\u2581Kirja": 6951,
  "2009": 6952,
  "\u2581stress": 6953,
  "\u2581desire": 6954,
  "\u2581statistical": 6955,
  "itko": 6956,
  "onia": 6957,
  "well": 6958,
  "\u2581kuvan": 6959,
  "\u2581supports": 6960,
  "\u2581suggest": 6961,
  "muoto": 6962,
  "\u2581inspection": 6963,
  "teollisuuden": 6964,
  "\u2581auta": 6965,
  "\u2581ball": 6966,
  "\u2581formal": 6967,
  "\u2581Win": 6968,
  "\u2581buildings": 6969,
  "\u2581stakeholders": 6970,
  "\u2581finding": 6971,
  "\u2581V\u00e4li": 6972,
  "\u2010": 6973,
  "ua": 6974,
  "\u2581matkailu": 6975,
  "\u2581clothes": 6976,
  "\u2581painoprosenttia": 6977,
  "\u2581satama": 6978,
  "\u2581statements": 6979,
  "ong": 6980,
  "\u2581sopimusta": 6981,
  "\u2581appointed": 6982,
  "\u2581Yet": 6983,
  "\u2581healthy": 6984,
  "ization": 6985,
  "\u2581k\u00e4yt\u00e4nn\u00f6ss\u00e4": 6986,
  "TM": 6987,
  "villa": 6988,
  "llisuus": 6989,
  "\u2581critical": 6990,
  "\u2581threat": 6991,
  "\u25814.2": 6992,
  "ohj": 6993,
  "\u2581jakso": 6994,
  "\u2581rail": 6995,
  "\u2581sake": 6996,
  "\u2581driver": 6997,
  "\u2581voitto": 6998,
  "\u2581organization": 6999,
  "\u2581removed": 7000,
  "\u2581Following": 7001,
  "\u2581tutkimuksissa": 7002,
  "\u2581n\u00e4y": 7003,
  "\u2581puhuu": 7004,
  "\u2581j\u00e4tti": 7005,
  "\u2581lis\u00e4t\u00e4\u00e4n": 7006,
  "\u2581regime": 7007,
  "\u2581busy": 7008,
  "alla": 7009,
  "\u2581kuolla": 7010,
  "\u2581mainittu": 7011,
  "\u2581osiltaan": 7012,
  "\u2581Tein": 7013,
  "\u2581vihaa": 7014,
  "ellinen": 7015,
  "\u2581bus": 7016,
  "\u2581Index": 7017,
  "\u2581stocks": 7018,
  "paikan": 7019,
  "\u2581chain": 7020,
  "\u2581wedding": 7021,
  "henkil\u00f6": 7022,
  "\u2581Media": 7023,
  "\u2581Noin": 7024,
  "\u2581arvosta": 7025,
  "SC": 7026,
  "\u2581s\u00e4ilytt\u00e4\u00e4": 7027,
  "\u2581Belgium": 7028,
  "\u2581mad": 7029,
  "\u2581katsomaan": 7030,
  "\u2581laina": 7031,
  "\u2581ottanut": 7032,
  "tett\u00e4v\u00e4": 7033,
  "\u2581agent": 7034,
  "\u2581niinkuin": 7035,
  "\u2581toimiva": 7036,
  "\u2581Welcome": 7037,
  "\u2581huolto": 7038,
  "\u2581reflect": 7039,
  "\u2581borders": 7040,
  "\u2581l\u00e4mp\u00f6tila": 7041,
  "\u2581nimitt\u00e4in": 7042,
  "\u2581Hol": 7043,
  "\u2581Richard": 7044,
  "\u2581substantial": 7045,
  "\u2581v\u00e4ltt\u00e4\u00e4": 7046,
  "\u2581palvelun": 7047,
  "\u2581lucky": 7048,
  "\u2581n\u00e4ki": 7049,
  "isit": 7050,
  "\u2581\u0308": 7051,
  "laitosten": 7052,
  "\u2581securities": 7053,
  "\u2581kehitt\u00e4mis": 7054,
  "\u2581communications": 7055,
  "\u2581pur": 7056,
  "\u2581lista": 7057,
  "\u2581vaike": 7058,
  "iri": 7059,
  "\u2581suurta": 7060,
  "responsibilities": 7061,
  "\u2581killer": 7062,
  "\u258169": 7063,
  "\u2581naimisiin": 7064,
  "\u2581renal": 7065,
  "ttanut": 7066,
  "\u2581firms": 7067,
  "\u2581J\u00e4senvaltiot": 7068,
  "\u2581sopimusten": 7069,
  "\u2581toteutetaan": 7070,
  "\u2581Ty": 7071,
  "tuksessa": 7072,
  "j\u00e4rjestelm\u00e4t": 7073,
  "\u25811234/2007": 7074,
  "\u2581syv\u00e4": 7075,
  "\u2581Regional": 7076,
  "\u2581Latvia": 7077,
  "vuutta": 7078,
  "\u2581surprise": 7079,
  "\u2581Kristus": 7080,
  "\u2581Kysy": 7081,
  "ology": 7082,
  "\u2581despite": 7083,
  "\u2581tuomari": 7084,
  "\u2581pelaa": 7085,
  "\u2581viranomainen": 7086,
  "\u2581ihmisoikeus": 7087,
  "\u2581seuraavien": 7088,
  "metyyli": 7089,
  "\u2581background": 7090,
  "\u2581passenger": 7091,
  "\u2581ISO": 7092,
  "\u2581ylitt\u00e4\u00e4": 7093,
  "\u2581W\u00e4rtsil\u00e4": 7094,
  "\u2581ME": 7095,
  "\u2581constitute": 7096,
  "jakso": 7097,
  "tiedoston": 7098,
  "\u2581oikeastaan": 7099,
  "ologi": 7100,
  "\u2581n\u00e4et": 7101,
  "\u2581operate": 7102,
  "\u2581Sub": 7103,
  "\u2581j\u00e4rjest\u00e4\u00e4": 7104,
  "\u2581ratkaista": 7105,
  "\u2581vegetables": 7106,
  "sivu": 7107,
  "\u2581terrible": 7108,
  "\u2581Tur": 7109,
  "\u2581Tor": 7110,
  "\u2581ty\u00f6st\u00e4": 7111,
  "\u2581horse": 7112,
  "\u2581screen": 7113,
  "\u2581Control": 7114,
  "\u2581powerful": 7115,
  "\u2581p\u00e4\u00e4ttyy": 7116,
  "\u2581linkki": 7117,
  "\u2581session": 7118,
  "\u2581declared": 7119,
  "\u2581votes": 7120,
  "\u2581Funds": 7121,
  "\u2581Ase": 7122,
  "joita": 7123,
  "\u2581destroy": 7124,
  "\u2581todettu": 7125,
  "\u2581combat": 7126,
  "ettu": 7127,
  "62": 7128,
  "\u2581vastaus": 7129,
  "\u2581katu": 7130,
  "hdin": 7131,
  "vuosi": 7132,
  "\u2581antama": 7133,
  "\u2581el\u00e4ke": 7134,
  "\u2581lue": 7135,
  "\u2581tilintarkastus": 7136,
  "\u2581esitti": 7137,
  "\u2581yst\u00e4v\u00e4ni": 7138,
  "\u2581netto": 7139,
  "\u2581danger": 7140,
  "\u2581kasvua": 7141,
  "\u2581muilla": 7142,
  "\u2581ilmoitus": 7143,
  "reiden": 7144,
  "\u2581accounting": 7145,
  "tiedostotunniste": 7146,
  "\u2581omia": 7147,
  "\u2581gain": 7148,
  "\u2581(10": 7149,
  "\u2581Ilman": 7150,
  "\u2581(\u2018": 7151,
  "\u2581Sign": 7152,
  "\u2581Pal": 7153,
  "\u2581format": 7154,
  "j\u00e4rjestelm\u00e4\u00e4n": 7155,
  "\u2581Regions": 7156,
  "\u2581Blue": 7157,
  "\u2581piiriin": 7158,
  "\u2581speech": 7159,
  "\u2581latter": 7160,
  "\u2581center": 7161,
  "\u2581facts": 7162,
  "\u2581liittyv\u00e4\u00e4": 7163,
  "ped": 7164,
  "ittain": 7165,
  "\u2581Out": 7166,
  "\u2581permit": 7167,
  "\u2581guarantees": 7168,
  "\u2581humans": 7169,
  "\u2581neste": 7170,
  "\u2581fit": 7171,
  "\u2581panna": 7172,
  "\u2581loan": 7173,
  "\u2581Nelj\u00e4": 7174,
  "\u2581jakelu": 7175,
  "\u2581juoma": 7176,
  "\u2581jatko": 7177,
  "\u2581Tervetuloa": 7178,
  "gue": 7179,
  "\u2581quantity": 7180,
  "\u2581kannan": 7181,
  "\u2581edun": 7182,
  "\u2581s\u00e4hk\u00f6posti": 7183,
  "\u2581iron": 7184,
  "field": 7185,
  "\u2581ruisku": 7186,
  "\u2581paine": 7187,
  "\u2581riko": 7188,
  "\u2581tasavalta": 7189,
  "\u2581opinions": 7190,
  "\u2581Haloo": 7191,
  "\u2581miss\u00e4\u00e4n": 7192,
  "\u2581Yhdysvaltain": 7193,
  "\u2581verran": 7194,
  "\u2581em": 7195,
  "itu": 7196,
  "\u2581chosen": 7197,
  "\u2581imagine": 7198,
  "cia": 7199,
  "\u2581largest": 7200,
  "\u2581command": 7201,
  "\u2581fraud": 7202,
  "\u2581pictures": 7203,
  "\u2581yksinkertaista": 7204,
  "\u2581offering": 7205,
  "\u258104": 7206,
  "\u2581kriisi": 7207,
  "\u2581m\u00e4\u00e4r\u00e4ysten": 7208,
  "\u2581taloudellinen": 7209,
  "\u2581elections": 7210,
  "\u2581enhance": 7211,
  "\u2581vaikuta": 7212,
  "\u2581parlamentissa": 7213,
  "\u2581ya": 7214,
  "\u2581geographical": 7215,
  "\u2581pilot": 7216,
  "\u2581lapsille": 7217,
  "\u2581J\u00e4t\u00e4": 7218,
  "\u2581neuvottelu": 7219,
  "\u2581Foreign": 7220,
  "\u2581Espanja": 7221,
  "\u2581worst": 7222,
  "\u2581modified": 7223,
  "\u258194": 7224,
  "\u2581immediate": 7225,
  "\u2581oh": 7226,
  "\u2581aurinko": 7227,
  "\u2581rock": 7228,
  "\u2581viikko": 7229,
  "\u2581Everyone": 7230,
  "\u2581bathroom": 7231,
  "vuotiaat": 7232,
  "\u2581dimension": 7233,
  "\u2581restrictions": 7234,
  "ude": 7235,
  "haa": 7236,
  "\u2581henke\u00e4": 7237,
  "burg": 7238,
  "\u2581answers": 7239,
  "\u2581laite": 7240,
  "\u2581pohjois": 7241,
  "III": 7242,
  "\u2581Transport": 7243,
  "cin": 7244,
  "\u2581hiljaa": 7245,
  "mpien": 7246,
  "\u2581summa": 7247,
  "LO": 7248,
  "ksista": 7249,
  "llisuuden": 7250,
  "org": 7251,
  "\u2581p\u00e4\u00e4t\u00f6ksell\u00e4": 7252,
  "\u25812008,": 7253,
  "nimi": 7254,
  "5-0": 7255,
  "missa": 7256,
  "\u2581liver": 7257,
  "\u2581muna": 7258,
  "\u2581tonnes": 7259,
  "\u2581synny": 7260,
  "\u2581130": 7261,
  "\u2581discrimination": 7262,
  "\u2581Yo": 7263,
  "\u2581olevista": 7264,
  "/10": 7265,
  "\u2581des": 7266,
  "kkaan": 7267,
  "\u2581Say": 7268,
  "\u2581opetus": 7269,
  "\u2581institutional": 7270,
  "\u2581sosiaaliturva": 7271,
  "\u2581hanki": 7272,
  "\u2581Jokainen": 7273,
  "\u2581injury": 7274,
  "gel": 7275,
  "\u2581strategian": 7276,
  "\u25812011.": 7277,
  "ations": 7278,
  "\u2581allocation": 7279,
  "\u2581todistaja": 7280,
  "\u2581wild": 7281,
  "\u2581pin": 7282,
  "\u2581ihon": 7283,
  "\u25811991": 7284,
  "\u2581kumppani": 7285,
  "\u2581huomattava": 7286,
  "\u2581Both": 7287,
  "EA": 7288,
  "\u2581mandate": 7289,
  "\u2581perustuva": 7290,
  "\u2581believes": 7291,
  "\u2581crew": 7292,
  "neit\u00e4": 7293,
  "\u2581pojat": 7294,
  "\u2581participating": 7295,
  "\u2581records": 7296,
  "\u25814,": 7297,
  "\u2581Barcelona": 7298,
  "\u2581tunnus": 7299,
  "yytt\u00e4": 7300,
  "\u2581kivi": 7301,
  "alueilla": 7302,
  "\u2581suhde": 7303,
  "\u2581puolusta": 7304,
  "\u2581avo": 7305,
  "ize": 7306,
  "\u2581ASETUKSEN": 7307,
  "\u2581Czech": 7308,
  "valo": 7309,
  "\u2581File": 7310,
  "\u2581keskuudessa": 7311,
  "\u2581Kii": 7312,
  "\u2581Annual": 7313,
  "\u2581remaining": 7314,
  "\u2581keskiarvo": 7315,
  "\u2581l\u00e4\u00e4k\u00e4rin": 7316,
  "\u2581thousands": 7317,
  "\u2581terveyden": 7318,
  "\u2581experienced": 7319,
  "tyksi\u00e4": 7320,
  "\u2581Tulin": 7321,
  "\u2581H\u00e4net": 7322,
  "\u2581hide": 7323,
  "\u2581varo": 7324,
  "\u2581RT": 7325,
  "\u2581suunnittelu": 7326,
  "\u2581pysy\u00e4": 7327,
  "\u2581kuuden": 7328,
  "\u2581hienoa": 7329,
  "\u2581missed": 7330,
  "\u2581toisella": 7331,
  "\u2581pullo": 7332,
  "ttaisiin": 7333,
  "top": 7334,
  "\u2581Voitko": 7335,
  "ikki": 7336,
  "\u2581kansalaiset": 7337,
  "\u2581ollessa": 7338,
  "\u2581updated": 7339,
  "\u2581Espanjan": 7340,
  "\u2581Pit\u00e4\u00e4": 7341,
  "\u2581character": 7342,
  "stani": 7343,
  "\u2581Suo": 7344,
  "\u2581prosessi": 7345,
  "\u2581answered": 7346,
  "\u2581riippuu": 7347,
  "\u25816:": 7348,
  "eta": 7349,
  "5)": 7350,
  "ami": 7351,
  "\u2581candidate": 7352,
  "\u2581update": 7353,
  "\u2581ECU": 7354,
  "\u2581ajaa": 7355,
  "\u2581seuraavana": 7356,
  "\u2581reaction": 7357,
  "point": 7358,
  "annos": 7359,
  "nnasta": 7360,
  "valtion": 7361,
  "\u2581wake": 7362,
  "\u2581isku": 7363,
  "\u2581sanot": 7364,
  "ious": 7365,
  "\u2581puna": 7366,
  "\u2581muutettava": 7367,
  "\u25812016/": 7368,
  "\u2581harm": 7369,
  "yh": 7370,
  "\u2581viestin": 7371,
  "luo": 7372,
  "\u2581Tuolla": 7373,
  "\u2581sy\u00f6d\u00e4": 7374,
  "\u2581Sometimes": 7375,
  "\u2581mietinn\u00f6ss\u00e4": 7376,
  "vallan": 7377,
  "era": 7378,
  "\u2581kysyi": 7379,
  "\u2581Leave": 7380,
  "\u2581annoksen": 7381,
  "\u2581licence": 7382,
  "\u2581vaati": 7383,
  "ossa": 7384,
  "\u2581tehokas": 7385,
  "bol": 7386,
  "ehdot": 7387,
  "free": 7388,
  "\u2581varainhoito": 7389,
  "\u2581v\u00e4ltt\u00e4m\u00e4tt\u00e4": 7390,
  "\u2581vastasi": 7391,
  "kul": 7392,
  "\u2581nais": 7393,
  "\u2581student": 7394,
  "\u2581Alue": 7395,
  "\u2581py\u00f6ri": 7396,
  "\u2581showing": 7397,
  "\u2581tein": 7398,
  "\u2581teach": 7399,
  "mann": 7400,
  "excluding": 7401,
  "\u2581kartta": 7402,
  "\u2581Sil": 7403,
  "\u2581walking": 7404,
  "CR": 7405,
  "\u2581pomo": 7406,
  "\u2581governance": 7407,
  "\u2581kaukana": 7408,
  "\u2581laadun": 7409,
  "\u2581haku": 7410,
  "\u2581supervision": 7411,
  "\u2581kirjoittaa": 7412,
  "ssani": 7413,
  "\u2581quiet": 7414,
  "key": 7415,
  "ttek\u00f6": 7416,
  "\u2581suun": 7417,
  "\u2581h\u00e4t\u00e4": 7418,
  "\u2581color": 7419,
  "\u2581Think": 7420,
  "dyn": 7421,
  "gia": 7422,
  "\u2581p\u00e4iv\u00e4ss\u00e4": 7423,
  "teisiin": 7424,
  "\u2581helppoa": 7425,
  "l\u00e4\u00e4": 7426,
  "\u2581vastusta": 7427,
  "\u2581Environment": 7428,
  "81": 7429,
  "\u2581blow": 7430,
  "\u2581master": 7431,
  "tajien": 7432,
  "\u2581Consumer": 7433,
  "\u2581enimm\u00e4is": 7434,
  "bor": 7435,
  "\u2581technological": 7436,
  "\u2581tiesi": 7437,
  "\u2581valvo": 7438,
  "\u2581v\u00e4est\u00f6": 7439,
  "\u2581oikeuksien": 7440,
  "tui": 7441,
  "\u2581t\u00f6iss\u00e4": 7442,
  "\u2581Mel": 7443,
  "maatti": 7444,
  "tonta": 7445,
  "\u2581employed": 7446,
  "\u2581television": 7447,
  "\u2019)": 7448,
  "\u2581Th": 7449,
  "\u2581selke\u00e4sti": 7450,
  ":00": 7451,
  "\u2581element": 7452,
  "piiri": 7453,
  "Min\u00e4": 7454,
  "\u2581flag": 7455,
  "\u2581false": 7456,
  "ojen": 7457,
  "\u2581Society": 7458,
  "ule": 7459,
  "\u2581kes\u00e4": 7460,
  "\u2581innovative": 7461,
  "\u2581pitk\u00e4lle": 7462,
  "\u2581considerable": 7463,
  "\u2581rare": 7464,
  "\u2581tunnusta": 7465,
  "\u2581competence": 7466,
  "JA": 7467,
  "tarkas": 7468,
  "\u2581tilanteessa": 7469,
  "\u2581yhteis\u00f6ss\u00e4": 7470,
  "\u2581syd\u00e4men": 7471,
  "laji": 7472,
  "l\u00e4is": 7473,
  "solu": 7474,
  "tella": 7475,
  "\u2581suosi": 7476,
  "\u2581hallinnon": 7477,
  "\u2581maksettava": 7478,
  "ens\u00e4": 7479,
  "\u2581tiedotus": 7480,
  "\u2581urban": 7481,
  "\u2581Try": 7482,
  "\u2581definitely": 7483,
  "\u2581Long": 7484,
  "\u2581Tarvitsemme": 7485,
  "\u2581measured": 7486,
  "\u2581Jean": 7487,
  "\u2581upea": 7488,
  "\u2581toward": 7489,
  "shi": 7490,
  "\u2581respective": 7491,
  "\u2581varmista": 7492,
  "-6": 7493,
  "\u2581levi": 7494,
  "\u2581opettaja": 7495,
  "\u2581este": 7496,
  "muksen": 7497,
  "\u2581joulu": 7498,
  "\u2581yhten\u00e4is": 7499,
  "\u2581kirje": 7500,
  "\u2581flat": 7501,
  "\u2581selville": 7502,
  "\u2581sis\u00e4lt\u00f6": 7503,
  "\u2581ter": 7504,
  "s\u00e4\u00e4nt\u00f6jen": 7505,
  "\u2581connected": 7506,
  "tuista": 7507,
  "\u2581guidance": 7508,
  "\u2581parhaillaan": 7509,
  "\u2581sis\u00e4ltyv\u00e4t": 7510,
  "\u2581Fu": 7511,
  "\u2581comment": 7512,
  "\u2581Roman": 7513,
  "oista": 7514,
  "MO": 7515,
  "stra": 7516,
  "int": 7517,
  "\u2581kir": 7518,
  "\u2581julkista": 7519,
  "/02": 7520,
  "work": 7521,
  "\u2581Structural": 7522,
  "\u2581tra": 7523,
  "\u2581murha": 7524,
  "verkko": 7525,
  "\u2581voitu": 7526,
  "teko": 7527,
  "side": 7528,
  "\u2581carefully": 7529,
  "\u2581CON": 7530,
  "\u2581determining": 7531,
  "PI": 7532,
  "\u2581nosta": 7533,
  "siirto": 7534,
  "\u2581witness": 7535,
  "\u2581rakastaa": 7536,
  "lf": 7537,
  "\u2581adult": 7538,
  "ably": 7539,
  "\u2581tiede": 7540,
  "\u2581forth": 7541,
  "VI": 7542,
  "\u2581compromise": 7543,
  "\u2581laiva": 7544,
  "tej\u00e4": 7545,
  "\u2581eurooppalaisten": 7546,
  "\u2581nimens\u00e4": 7547,
  "\u2581osasto": 7548,
  "ical": 7549,
  "\u2581pid\u00e4t": 7550,
  "LU": 7551,
  "\u2581Instant": 7552,
  "\u2581Lee": 7553,
  "\u2581tiuk": 7554,
  "AC": 7555,
  "tietojen": 7556,
  "\u2581joulukuu": 7557,
  "inti": 7558,
  "\u2581load": 7559,
  "\u2581Norway": 7560,
  "\u2581holy": 7561,
  "\u2581fourth": 7562,
  "\u2581purchase": 7563,
  "\u2581exports": 7564,
  "\u2581j\u00e4lki": 7565,
  "\u2581settlement": 7566,
  "\u2581jakaa": 7567,
  "\u2581yhdell\u00e4": 7568,
  "\u2581t\u00e4llaisia": 7569,
  "ote": 7570,
  "\u2581saavuttamiseksi": 7571,
  "\u2581pelej\u00e4": 7572,
  "\u2581Eu": 7573,
  "\u2581yhteiskunta": 7574,
  "\u2581assessed": 7575,
  "\u2581Vuosi": 7576,
  "\u2581alus": 7577,
  "\u25812006,": 7578,
  "\u2581increases": 7579,
  "\u2581gender": 7580,
  "Va": 7581,
  "\u2581promised": 7582,
  "\u2581suojella": 7583,
  "\u2581taxation": 7584,
  "\u2581Reg": 7585,
  "yyden": 7586,
  "\u2581todeta": 7587,
  "\u2581hydro": 7588,
  "\u2581yhdenmukaista": 7589,
  "pl": 7590,
  "\u2581vaihe": 7591,
  "\u2581mahdollistaa": 7592,
  "\u2581ollaan": 7593,
  "\u2581Ihmiset": 7594,
  "ttamaan": 7595,
  "\u2581Sis\u00e4": 7596,
  "\u2581lau": 7597,
  "\u2581tappoi": 7598,
  "luokka": 7599,
  "\u2581yrityksi\u00e4": 7600,
  "\u2581matkustaja": 7601,
  "\u2581route": 7602,
  "\u2581v\u00e4": 7603,
  "km": 7604,
  "\u2581h\u00e4nelt\u00e4": 7605,
  "\u2581sinulta": 7606,
  "\u2581Sol": 7607,
  "\u2581my\u00f6nnet\u00e4\u00e4n": 7608,
  "\u2581Mediterranean": 7609,
  "\u2581Bal": 7610,
  "mentti": 7611,
  "\u2581Ilma": 7612,
  "aasi": 7613,
  "\u2581Danny": 7614,
  "\u2581toimivaltaise": 7615,
  "\u2581enemp\u00e4\u00e4": 7616,
  "m\u00e4st\u00e4": 7617,
  "\u2581selke\u00e4": 7618,
  "\u2581prosenttiin": 7619,
  "\u2581yhdistelm\u00e4": 7620,
  "\u2581ohjelmien": 7621,
  "Te": 7622,
  "\u2581doses": 7623,
  "\u2581erikseen": 7624,
  "\u2581osoitta": 7625,
  "\u2581Saa": 7626,
  "\u2581kasvun": 7627,
  "\u2581pii": 7628,
  "\u2581todista": 7629,
  "\u2581Bosnia": 7630,
  "\u2581decreased": 7631,
  "mas": 7632,
  "\u2581Jake": 7633,
  "\u2581helps": 7634,
  "\u2581m\u00e4\u00e4r\u00e4t\u00e4\u00e4n": 7635,
  "\u2581north": 7636,
  "\u2581EP": 7637,
  "\u2581jumala": 7638,
  "\u2581valitse": 7639,
  "\u2581Tre": 7640,
  "pon": 7641,
  "\u2581jossain": 7642,
  "\u2581tarjo": 7643,
  "\u2581thy": 7644,
  "82": 7645,
  "\u2581becomes": 7646,
  "\u2581Han": 7647,
  "\u2581concrete": 7648,
  "\u2581exporting": 7649,
  "\u2581ships": 7650,
  "\u2581agency": 7651,
  "\u2581nearly": 7652,
  "\u2581(19": 7653,
  "PL": 7654,
  "sis\u00e4markkinoiden": 7655,
  "lt\u00e4\u00e4n": 7656,
  "\u2581manufacturing": 7657,
  "\u2581Amendment": 7658,
  "\u2581Key": 7659,
  "ls": 7660,
  "\u2581Kuulin": 7661,
  "ions": 7662,
  "ila": 7663,
  "sha": 7664,
  "teltu": 7665,
  "\u2581suffering": 7666,
  "/2": 7667,
  "enne": 7668,
  "\u2581odota": 7669,
  "\u2581Hetkinen": 7670,
  "UL": 7671,
  "ou": 7672,
  "\u2581Lis\u00e4": 7673,
  "\u2581aikav\u00e4lill\u00e4": 7674,
  "toimien": 7675,
  "toimisto": 7676,
  "\u2581aiot": 7677,
  "\u2581syn": 7678,
  "\u2581kansallista": 7679,
  "/5": 7680,
  "\u2581Sana": 7681,
  "\u2581hakea": 7682,
  "\u2581miehi\u00e4": 7683,
  "\u2581Cooperation": 7684,
  "\u2581Henkil\u00f6": 7685,
  "\u2581tulevaisuuden": 7686,
  "\u2581k\u00e4ynnist\u00e4": 7687,
  "\u2581Eiv\u00e4t": 7688,
  "\u2581youth": 7689,
  "\u2581stick": 7690,
  "bri": 7691,
  "\u2581cap": 7692,
  "\u2581mahdollisuudet": 7693,
  "\u2581tan": 7694,
  "\u2581l\u00e4": 7695,
  "\u2581toimitetaan": 7696,
  "\u2581N\u00e4it\u00e4": 7697,
  "\u2581el": 7698,
  "\u2581Agriculture": 7699,
  "\u2581ulkona": 7700,
  "\u2581osoite": 7701,
  "\u2581excuse": 7702,
  "\u2581lei": 7703,
  "\u2581valtaa": 7704,
  "\u2581fo": 7705,
  "\u258110:": 7706,
  "sesta": 7707,
  "\u2581p\u00e4\u00e4t\u00f6st\u00e4": 7708,
  "\u2581zone": 7709,
  "ore": 7710,
  "onin": 7711,
  "\u2581tele": 7712,
  "\u2581Tutki": 7713,
  "\u2581warning": 7714,
  "\u2581t\u00e4hti": 7715,
  "\u2581BKT": 7716,
  "\u2581Malta": 7717,
  "\u2581Phil": 7718,
  "vaihe": 7719,
  "\u2581procurement": 7720,
  "\u2581Tommy": 7721,
  "\u2581olisit": 7722,
  "kia": 7723,
  "\u2581exception": 7724,
  "\u2581Tutkimus": 7725,
  "\u2581125": 7726,
  "p\u00e4\u00e4t\u00f6s": 7727,
  "\u258183": 7728,
  "\u2581voisimme": 7729,
  "-5": 7730,
  "\u2581naisia": 7731,
  "gli": 7732,
  "\u2581kauppaa": 7733,
  "\u2581N\u00e4y": 7734,
  "\u2581square": 7735,
  "\u2581solid": 7736,
  "\u2581sijoitus": 7737,
  "\u2581smell": 7738,
  "\u2581signal": 7739,
  "kis": 7740,
  "ttaminen": 7741,
  "\u258197": 7742,
  "\u2581mill\u00e4": 7743,
  "ric": 7744,
  "\u2581todettiin": 7745,
  "\u2581valvontaa": 7746,
  "\u2581solu": 7747,
  "\u2581viini": 7748,
  "\u2581todistaa": 7749,
  "\u258119.": 7750,
  "ffi": 7751,
  "\u2581index": 7752,
  "\u2581vakaa": 7753,
  "\u2581judicial": 7754,
  "misess\u00e4": 7755,
  "\u2581kertomus": 7756,
  "\u25812007,": 7757,
  "amo": 7758,
  "\u2581Talous": 7759,
  "ISSN": 7760,
  "\u2581tonnia": 7761,
  "\u2581tietysti": 7762,
  "\u2581kitchen": 7763,
  "\u2581palasi": 7764,
  "\u2581noise": 7765,
  "kuvio": 7766,
  "\u2581selvi\u00e4": 7767,
  "\u2581examined": 7768,
  "\u2581omien": 7769,
  "\u2581tired": 7770,
  "\u2581personnel": 7771,
  "laitoksen": 7772,
  "\u2581juna": 7773,
  "\u2581saamaan": 7774,
  "\u2581mahdollinen": 7775,
  "\u2581yleist\u00e4": 7776,
  "\u2581j\u00e4rjest\u00f6": 7777,
  "\u2581goals": 7778,
  "\u2581Simon": 7779,
  "\u2581\u2010": 7780,
  "\u2581arrest": 7781,
  "\u2581t\u00e4rkein": 7782,
  "\u2581hankkeiden": 7783,
  "\u2581assist": 7784,
  "\u2581appeal": 7785,
  "\u2581nation": 7786,
  "\u2581toivon": 7787,
  "\u2581blind": 7788,
  "\u2581trend": 7789,
  "\u2581lukea": 7790,
  "Ro": 7791,
  "\u258106": 7792,
  "\u2581causes": 7793,
  "tien": 7794,
  "\u2581elokuuta": 7795,
  "\u2581images": 7796,
  "\u2581valmiste": 7797,
  "eista": 7798,
  "\u2581strange": 7799,
  "\u2581audit": 7800,
  "\u2581pojan": 7801,
  "\u2581island": 7802,
  "\u2581suffer": 7803,
  "\u25811.2": 7804,
  "\u2581Looks": 7805,
  "\u2581covers": 7806,
  "\u2581fly": 7807,
  "tykset": 7808,
  "turva": 7809,
  "\u2581m\u00e4\u00e4r\u00e4tty": 7810,
  "\u2581loistava": 7811,
  "\u2581teht\u00e4vien": 7812,
  "\u2581calm": 7813,
  "\u2581ehdotusta": 7814,
  "vit": 7815,
  "\u2581Muistatko": 7816,
  "\u2581SO": 7817,
  "\u2581retail": 7818,
  "\u2581etuja": 7819,
  "\u2581ruumii": 7820,
  "\u2581spring": 7821,
  "\u2581taught": 7822,
  "\u2581Hitto": 7823,
  "\u2581vaikutusten": 7824,
  "\u2581primarily": 7825,
  "\u2581changing": 7826,
  "pot": 7827,
  "\u2581Secretary": 7828,
  "\u2581lunch": 7829,
  "\u2581trials": 7830,
  "De": 7831,
  "\u2581dogs": 7832,
  "\u2581mahtava": 7833,
  "\u2581previously": 7834,
  "\u2581parantamiseksi": 7835,
  "riski": 7836,
  "\u2581vuo": 7837,
  "\u2581involvement": 7838,
  "\u2581talon": 7839,
  "\u2581Otan": 7840,
  "laatu": 7841,
  "\u2581lin": 7842,
  "\u2581hallinta": 7843,
  "\u25813-": 7844,
  "\u2581classification": 7845,
  "\u2581\u00c4": 7846,
  "ball": 7847,
  "\u2581maito": 7848,
  "og": 7849,
  "\u2581pleased": 7850,
  "\u2581explained": 7851,
  "\u25812008)": 7852,
  "tse": 7853,
  "\u2581Del": 7854,
  "\u2581email": 7855,
  "\u2581asiakirjat": 7856,
  "loista": 7857,
  "\u2581tariff": 7858,
  "\u2581korjaus": 7859,
  "\u2581thou": 7860,
  "\u25812014.": 7861,
  "\u2581haluatte": 7862,
  "\u2581awareness": 7863,
  "\u2581Sun": 7864,
  "\u2581jalka": 7865,
  "\u2581ly\u00f6": 7866,
  "\u2581Work": 7867,
  "\u2581Yhdysvallat": 7868,
  "iitti": 7869,
  "valiokunnan": 7870,
  "\u2581Lei": 7871,
  "ib": 7872,
  "\u2581arvioidaan": 7873,
  "\u2581continues": 7874,
  "\u2581derogation": 7875,
  "\u2581judge": 7876,
  "stys": 7877,
  "toimintaa": 7878,
  "\u2581Thomas": 7879,
  "\u2581Mah": 7880,
  "\u2581spot": 7881,
  "\u2581disposal": 7882,
  "\u2581risti": 7883,
  "telm\u00e4": 7884,
  "\u2581koskevissa": 7885,
  "\u2581ajoneuvon": 7886,
  "\u2581st": 7887,
  "\u2581south": 7888,
  "win": 7889,
  "\u2581Year": 7890,
  "st\u00e4\u00e4n": 7891,
  "\u2581vapautta": 7892,
  "\u2581warm": 7893,
  "\u2581Daddy": 7894,
  "\u2581housing": 7895,
  "luettelo": 7896,
  "\u2581passengers": 7897,
  "\u2581Canada": 7898,
  "ene": 7899,
  "\u2581kehitt\u00e4miseen": 7900,
  "\u2581ilmoitti": 7901,
  "\u2581T\u00e4n\u00e4\u00e4n": 7902,
  "\u2581swear": 7903,
  "toimenpiteit\u00e4": 7904,
  "\u2581Slovenia": 7905,
  "sol": 7906,
  "\u2581olevaan": 7907,
  "\u2581pelata": 7908,
  "\u2581voitava": 7909,
  "tyst\u00e4": 7910,
  "\u2581asylum": 7911,
  "\u2581star": 7912,
  "\u2581tar": 7913,
  "hoitoa": 7914,
  "\u2581birthday": 7915,
  "bal": 7916,
  "\u2581Samoin": 7917,
  "\u2581tulit": 7918,
  "\u2581p\u00e4\u00e4telm\u00e4t": 7919,
  "\u2581rasva": 7920,
  "7)": 7921,
  "Ha": 7922,
  "\u2581component": 7923,
  "\u2581contrary": 7924,
  "\u2581Far": 7925,
  "\u2581client": 7926,
  "yde": 7927,
  "aari": 7928,
  "laitos": 7929,
  "talouden": 7930,
  "\u25812018,": 7931,
  "\u2581hauska": 7932,
  "\u25812011/": 7933,
  "EX": 7934,
  "SP": 7935,
  "syy": 7936,
  "\u2581tuhoa": 7937,
  "utua": 7938,
  "\u2581battle": 7939,
  "mpi\u00e4": 7940,
  "\u2581truck": 7941,
  "mie": 7942,
  "\u2581kohteena": 7943,
  "\u2581kunnolla": 7944,
  "hl": 7945,
  "\u2581kana": 7946,
  "\u2581kolmas": 7947,
  "\u2581transparent": 7948,
  "\u2581African": 7949,
  "\u2581provisional": 7950,
  "\u2581Muuta": 7951,
  "\u2581Ger": 7952,
  "\u2581vaiva": 7953,
  "\u2581tarkka": 7954,
  "\u2581todisteita": 7955,
  "\u2581Tro": 7956,
  "\u2581nopea": 7957,
  "\u2581info": 7958,
  "\u2581granting": 7959,
  "\u2581empty": 7960,
  "\u2581t\u00f6ihin": 7961,
  "\u2581mid": 7962,
  "elli": 7963,
  "\u2581Vara": 7964,
  "\u2581poliittinen": 7965,
  "\u2581planet": 7966,
  "\u2581Available": 7967,
  "\u2581honest": 7968,
  "\u2581del": 7969,
  "\u2581muisti": 7970,
  "\u2581justified": 7971,
  "\u2581my\u00f6nnett\u00e4v\u00e4": 7972,
  "\u2581kahta": 7973,
  "\u2581maksan": 7974,
  "\u2581apart": 7975,
  "\u2581maataloustuotte": 7976,
  "\u2581ilta": 7977,
  "\u2581witnesses": 7978,
  "\u2581luovu": 7979,
  "ministeri\u00f6": 7980,
  "lke": 7981,
  "\u2581Send": 7982,
  "\u2581tarkistaa": 7983,
  "83": 7984,
  "ess\u00e4\u00e4n": 7985,
  "\u2581servants": 7986,
  "\u2581lopuksi": 7987,
  "\u2581nykyist\u00e4": 7988,
  "\u2581ter\u00e4s": 7989,
  "\u2581calculation": 7990,
  "\u2581hy\u00f6dynt\u00e4\u00e4": 7991,
  "\u2581schools": 7992,
  "`": 7993,
  "cher": 7994,
  "cur": 7995,
  "\u2581Everybody": 7996,
  "\u2581poliittisen": 7997,
  "\u2581sons": 7998,
  "\u2581possibly": 7999,
  "\u2581Title": 8000,
  "\u2581song": 8001,
  "board": 8002,
  "\u2581identity": 8003,
  "\u2581p\u00e4iv\u00e4m\u00e4\u00e4r\u00e4": 8004,
  "\u2581discussions": 8005,
  "\u2581kuolee": 8006,
  "\u2581tapahtuma": 8007,
  "\u2581com": 8008,
  "IO": 8009,
  "\u2581suori": 8010,
  "\u2581tulosten": 8011,
  "OL": 8012,
  "\u2581Schengen": 8013,
  "mattomat": 8014,
  "\u2581maintained": 8015,
  "\u2581achieving": 8016,
  "sissa": 8017,
  "\u2581wearing": 8018,
  "\u2581preparations": 8019,
  "\u2581rakastan": 8020,
  "sal": 8021,
  "\u2581Facebook": 8022,
  "\u2581terveytt\u00e4": 8023,
  "\u2581110": 8024,
  "\u2581pack": 8025,
  "\u2581tulivat": 8026,
  "\u2581tarvitset": 8027,
  "\u2581kas": 8028,
  "\u2581k\u00e4sittelev\u00e4n": 8029,
  "\u2581synti": 8030,
  "\u2581ty\u00f6ss\u00e4": 8031,
  "\u2581n\u00e4iss\u00e4": 8032,
  "j\u00e4t": 8033,
  "\u2581uuteen": 8034,
  "\u2581Company": 8035,
  "\u2581Tohtori": 8036,
  "\u2581tarkasti": 8037,
  "\u2581Source": 8038,
  "\u2581kutsutaan": 8039,
  "\u2581Ymp\u00e4rist\u00f6": 8040,
  "asti": 8041,
  "nor": 8042,
  "\u2581korvaus": 8043,
  "\u2581shop": 8044,
  "\u2581ban": 8045,
  "lyn": 8046,
  "\u2581laatima": 8047,
  "\u2581analysoi": 8048,
  "\u2581farm": 8049,
  "\u2581[4]": 8050,
  "\u2581obviously": 8051,
  "\u2581koulutusta": 8052,
  "\u2581Nimi": 8053,
  "\u2581Ava": 8054,
  "\u2581800": 8055,
  "med": 8056,
  "\u2581BE": 8057,
  "\u2581photo": 8058,
  "\u2581Doctor": 8059,
  "\u2581selling": 8060,
  "\u2581honor": 8061,
  "\u2581Onneksi": 8062,
  "\u2581pollution": 8063,
  "\u2581palo": 8064,
  "back": 8065,
  "\u2581toimitus": 8066,
  "\u2581valiokunnan": 8067,
  "markkina": 8068,
  "\u2581viimeisen": 8069,
  "\u2581riskin": 8070,
  "\u2581er\u00e4": 8071,
  "lki": 8072,
  "\u2581bottom": 8073,
  "\u2581kokonaism\u00e4\u00e4r\u00e4": 8074,
  "HO": 8075,
  "EM": 8076,
  "vuuden": 8077,
  "\u2581Agent": 8078,
  "\u2581compatible": 8079,
  "\u2581voting": 8080,
  "\u2581savu": 8081,
  "\u2581kapteeni": 8082,
  "\u2581kovasti": 8083,
  "\u2581potilaiden": 8084,
  "\u2581vakavasti": 8085,
  "\u2581Hinta": 8086,
  "\u2581classified": 8087,
  "\u2581sait": 8088,
  "\u2581tea": 8089,
  "sessa": 8090,
  "sarja": 8091,
  "\u2581collected": 8092,
  "\u2581paying": 8093,
  "\u2581N\u00e4ytt\u00e4\u00e4": 8094,
  "\u2581tuleva": 8095,
  "sis": 8096,
  "ppu": 8097,
  "\u2581machinery": 8098,
  "\u2581keskell\u00e4": 8099,
  "\u2581extend": 8100,
  "\u2581availability": 8101,
  "\u2581oppia": 8102,
  "\u2581liittymis": 8103,
  "\u2581accompanied": 8104,
  "\u2581julkisten": 8105,
  "\u2581l\u00e4hetys": 8106,
  "ME": 8107,
  "\u2581feelings": 8108,
  "\u2581flu": 8109,
  "\u2581Jatka": 8110,
  "\u2581Kuu": 8111,
  "YUTP": 8112,
  "\u2581todiste": 8113,
  "ford": 8114,
  "\u2581Eric": 8115,
  "\u2581piilo": 8116,
  "\u2581Find": 8117,
  "\u2581muisto": 8118,
  "\u2581industries": 8119,
  "\u2581hintojen": 8120,
  "\u2581strategies": 8121,
  "\u2581neiti": 8122,
  "\u2581sum": 8123,
  "Le": 8124,
  "\u2581koostuu": 8125,
  "\u2581proportion": 8126,
  "\u2581teollis": 8127,
  "\u2581Radio": 8128,
  "tt\u00e4m\u00e4\u00e4n": 8129,
  "\u2581soveltamisesta": 8130,
  "\u2581allekirjoitta": 8131,
  "\u2581union": 8132,
  "SO": 8133,
  "\u2581seed": 8134,
  "\u2581Gre": 8135,
  "\u2581kysymyksen": 8136,
  "\u2581verification": 8137,
  "\u2581nykyisen": 8138,
  "tuksista": 8139,
  "\u2581rauha": 8140,
  "\u2581fe": 8141,
  "imet": 8142,
  "\u2581hyv\u00e4ksyttiin": 8143,
  "\u2581sopiva": 8144,
  "iv\u00e4t": 8145,
  "\u2581Iran": 8146,
  "\u2581replace": 8147,
  "\u2581career": 8148,
  "\u2581Still": 8149,
  "\u2581verkosto": 8150,
  "\u2581kaipaa": 8151,
  "\u2581Mur": 8152,
  "\u2581Ltd": 8153,
  "\u2581viha": 8154,
  "\u2581Scott": 8155,
  "\u2581comparison": 8156,
  "\u2581kyl": 8157,
  "\u2581drinking": 8158,
  "\u2581lies": 8159,
  "\u2581manufacture": 8160,
  "\u2581ty\u00f6h\u00f6n": 8161,
  "\u2581maihin": 8162,
  "ksi\u00e4": 8163,
  "\u2581Japan": 8164,
  "cor": 8165,
  "\u2581Berlin": 8166,
  "xi": 8167,
  "\u2581Has": 8168,
  "ST": 8169,
  "\u2581velkaa": 8170,
  "\u2581turnover": 8171,
  "\u2581M\u00e4\u00e4r\u00e4": 8172,
  "\u2581Nu": 8173,
  "\u2581varat": 8174,
  "\u2581stable": 8175,
  "\u2581Isn": 8176,
  "ido": 8177,
  "T\u00e4m\u00e4": 8178,
  "\u2581emission": 8179,
  "\u2581ihmisoikeuksien": 8180,
  "\u2581Play": 8181,
  "kari": 8182,
  "rie": 8183,
  "sson": 8184,
  "kkeiden": 8185,
  "\u2581decrease": 8186,
  "\u2581buddy": 8187,
  "tom": 8188,
  "\u2581oikeudet": 8189,
  "\u2581refers": 8190,
  "\u2581rooms": 8191,
  "ajat": 8192,
  "\u2581match": 8193,
  "nnassa": 8194,
  "\u2581liability": 8195,
  "\u2581puolet": 8196,
  "muodo": 8197,
  "\u2581push": 8198,
  "\u2581campaign": 8199,
  "\u2581keskustelun": 8200,
  "\u2581qualified": 8201,
  "\u2581koh": 8202,
  "\u2581Avaa": 8203,
  "\u2581Pri": 8204,
  "teeseen": 8205,
  "\u2581infection": 8206,
  "\u2581teht\u00e4v\u00e4t": 8207,
  "\u2581Rome": 8208,
  "\u2581tiet\u00e4v\u00e4t": 8209,
  "\u2581scene": 8210,
  "vist\u00e4": 8211,
  "\u2581selvitys": 8212,
  "operation": 8213,
  "daan": 8214,
  "r\u00f6": 8215,
  "\u2581ai": 8216,
  "\u2581Agenda": 8217,
  "\u2581incorporated": 8218,
  "\u2581m\u00e4\u00e4r\u00e4yksi\u00e4": 8219,
  "\u258107": 8220,
  "\u2581tabletti": 8221,
  "\u2581sektorin": 8222,
  "\u2581Bel": 8223,
  "\u2581ajoi": 8224,
  "\u2581block": 8225,
  "\u00e4si": 8226,
  "\u2581asemaa": 8227,
  "\u2581leaves": 8228,
  "\u2581Whoa": 8229,
  "\u2581fill": 8230,
  "\u2581returned": 8231,
  "\u2581rejected": 8232,
  "\u2581cop": 8233,
  "\u2581allowing": 8234,
  "akti": 8235,
  "\u2581k\u00e4ytt\u00e4": 8236,
  "\u2581Raha": 8237,
  "tetun": 8238,
  "\u2581Cyprus": 8239,
  "\u2581recommendation": 8240,
  "lie": 8241,
  "\u2581jurisdiction": 8242,
  "\u2581Kirjaudu": 8243,
  "\u2581asuu": 8244,
  "\u2581torju": 8245,
  "VAN": 8246,
  "d\u00e4": 8247,
  "\u2581Box": 8248,
  "ikan": 8249,
  "\u2581Organisation": 8250,
  "\u2581quota": 8251,
  "\u2581Hall": 8252,
  "LL": 8253,
  "jista": 8254,
  "\u2581Er\u00e4s": 8255,
  "valvonta": 8256,
  "izing": 8257,
  "\u2581perustaa": 8258,
  "\u2581involve": 8259,
  "\u2581ongelmat": 8260,
  "ens": 8261,
  "\u2581Soita": 8262,
  "\u2581Ol": 8263,
  "\u2581matkalla": 8264,
  "nnissa": 8265,
  "Al": 8266,
  "\u2581olosuhteissa": 8267,
  "\u2581rapid": 8268,
  "\u2581kansallinen": 8269,
  "\u2581reply": 8270,
  "\u2581esimerkki": 8271,
  "\u2581taloudellisten": 8272,
  "\u2581oleviin": 8273,
  "\u2581tarve": 8274,
  "keskuksen": 8275,
  "\u2581recommend": 8276,
  "\u2581kysymyksiin": 8277,
  "\u2581koho": 8278,
  "\u2581T\u00e4ytyy": 8279,
  "\u2581advanced": 8280,
  "\u2581t\u00e4ysi": 8281,
  "\u2581oikean": 8282,
  "\u2581teknologian": 8283,
  "\u2581launched": 8284,
  "\u2581pool": 8285,
  "\u2581Harry": 8286,
  "\u2581bound": 8287,
  "hdy": 8288,
  "\u2581propose": 8289,
  "\u2581vaaran": 8290,
  "\u2581mate": 8291,
  "\u25812-": 8292,
  "\u2581codes": 8293,
  "\u2581p\u00e4\u00e4t\u00f6kset": 8294,
  "\u2581huomio": 8295,
  "kaasu": 8296,
  "\u2581kuulemis": 8297,
  "\u25812.1": 8298,
  "\u2581vene": 8299,
  "\u2581s\u00e4hk\u00f6n": 8300,
  "\u2581keskeinen": 8301,
  "\u2581hakemaan": 8302,
  "\u2581pyynn\u00f6n": 8303,
  "\u2581normally": 8304,
  "\u2581losses": 8305,
  "\u2581refund": 8306,
  "\u2581kulutus": 8307,
  "tuotteet": 8308,
  "\u2581artiklaa": 8309,
  "\u2581interpretation": 8310,
  "\u2581increasingly": 8311,
  "\u2581lasketaan": 8312,
  "cc": 8313,
  "\u2581M\u00e4": 8314,
  "\u2581pri": 8315,
  "\u2581invitation": 8316,
  "1994": 8317,
  "\u2581Tuki": 8318,
  "\u2581Bye": 8319,
  "s\u00e4\u00e4": 8320,
  "\u2581jatkuva": 8321,
  "\u2581samassa": 8322,
  "\u2581Washington": 8323,
  "\u2581Single": 8324,
  "\u2581Auta": 8325,
  "IF": 8326,
  "\u2581discharge": 8327,
  "\u2581kansallisia": 8328,
  "l\u00e4h": 8329,
  "\u2581drawing": 8330,
  "stat": 8331,
  "\u25813.1": 8332,
  "\u2581mahdolliset": 8333,
  "\u2581olimme": 8334,
  "\u2581Niit\u00e4": 8335,
  "\u2581s\u00e4\u00e4nn\u00f6n": 8336,
  "\u2581liity": 8337,
  "\u2581El\u00e4m\u00e4": 8338,
  "\u2581Koti": 8339,
  "\u2581kansainv\u00e4linen": 8340,
  "\u2581pahaa": 8341,
  "ivi": 8342,
  "\u2581Protection": 8343,
  "\u2581\u2265": 8344,
  "\u2581Bobby": 8345,
  "uudesta": 8346,
  "\u2581sanaa": 8347,
  "\u2581Kaikkien": 8348,
  "\u2581Network": 8349,
  "ilija": 8350,
  "\u25812004,": 8351,
  "MI": 8352,
  "m\u00e4t\u00f6n": 8353,
  "\u2581etel\u00e4": 8354,
  "\u2581107": 8355,
  "\u2581synty": 8356,
  "\u2581teknologia": 8357,
  "\u2581vaaditaan": 8358,
  "\u2581facility": 8359,
  "\u2581---": 8360,
  "\u258114.": 8361,
  "\u2581Kosovo": 8362,
  "\u2581dress": 8363,
  "001": 8364,
  "\u2581\u00a1": 8365,
  "\u2581el\u00e4m\u00e4\u00e4n": 8366,
  "\u2581appropriations": 8367,
  "rich": 8368,
  "\u2581attitude": 8369,
  "\u2581sheet": 8370,
  "\u2581designated": 8371,
  "ments": 8372,
  "\u2581pieni\u00e4": 8373,
  "\u2581Pel": 8374,
  "isella": 8375,
  "sky": 8376,
  "ohjelmien": 8377,
  "\u2581suku": 8378,
  "\u2581v\u00e4l": 8379,
  "\u25812009/": 8380,
  "\u2581keskuspankin": 8381,
  "\u2581cat": 8382,
  "\u2581Non": 8383,
  "\u2581asioiden": 8384,
  "\u2581suppose": 8385,
  "\u2581represents": 8386,
  "\u2581Aina": 8387,
  "\u2581Menk\u00e4\u00e4": 8388,
  "\u2581cycle": 8389,
  "steri": 8390,
  "\u2581tarjouskilpailu": 8391,
  "\u2581leaflet": 8392,
  "\u2581esitett\u00e4v\u00e4": 8393,
  "\u2581p\u00e4\u00e4t\u00e4": 8394,
  "\u2581omasta": 8395,
  "tauti": 8396,
  "\u2581sata": 8397,
  "\u2581veterinary": 8398,
  "\u2581ravintola": 8399,
  "\u2581lawyer": 8400,
  "\u2581osapuoli": 8401,
  "\u2581Job": 8402,
  "\u2581k\u00e4ski": 8403,
  "\u2581ty\u00f6voima": 8404,
  "\u2581kilpailua": 8405,
  "\u2581kustannuksia": 8406,
  "\u2581joudu": 8407,
  "\u2581definitions": 8408,
  "\u2581yhdist\u00e4": 8409,
  "tos": 8410,
  "\u2581cards": 8411,
  "\u2581counter": 8412,
  "\u2581afternoon": 8413,
  "\u2581inclusion": 8414,
  "silla": 8415,
  "\u2581(4)": 8416,
  "\u2581voitte": 8417,
  "\u2581club": 8418,
  "hintaindeksi": 8419,
  "\u2581gear": 8420,
  "\u2581kansalaisille": 8421,
  "\u2581lyhyt": 8422,
  "tkaa": 8423,
  "ira": 8424,
  "\u2581bone": 8425,
  "\u2581represented": 8426,
  "\u2581laatua": 8427,
  "\u2581sivusto": 8428,
  "\u2581occurred": 8429,
  "liitti": 8430,
  "}": 8431,
  "\u2581Lau": 8432,
  "kes": 8433,
  "\u2581yksinomaan": 8434,
  "lau": 8435,
  "\u2581soveltaminen": 8436,
  "\u2581N\u00e4yt\u00e4t": 8437,
  "\u2581l\u00e4mp\u00f6": 8438,
  "\u2581Tosi": 8439,
  "\u2581palauttaa": 8440,
  "\u2581arvioinnin": 8441,
  "\u2581yritti": 8442,
  "\u2581multiple": 8443,
  "\u2581osoitti": 8444,
  "teista": 8445,
  "\u2581mono": 8446,
  "\u2581samat": 8447,
  "\u2581smoke": 8448,
  "\u25812005,": 8449,
  "\u2581etsi\u00e4": 8450,
  "\u2581voimakkaasti": 8451,
  "CAS": 8452,
  "\u2581ruumiin": 8453,
  "\u2581bottle": 8454,
  "On": 8455,
  "lus": 8456,
  "\u2581helpottaa": 8457,
  "\u2581potilas": 8458,
  "\u2581underlying": 8459,
  "\u2581unionista": 8460,
  "\u2581brings": 8461,
  "yrityksen": 8462,
  "\u2581licences": 8463,
  "Po": 8464,
  "\u2581core": 8465,
  "\u2581ottavat": 8466,
  "\u2581Grand": 8467,
  "isu": 8468,
  "\u2581160": 8469,
  "\u2581escape": 8470,
  "gy": 8471,
  "\u2581male": 8472,
  "\u2581Louis": 8473,
  "\u2581Products": 8474,
  "kaupan": 8475,
  "\u2581School": 8476,
  "\u2581Para": 8477,
  "\u2581participants": 8478,
  "\u2581memory": 8479,
  "ound": 8480,
  "\u2581HYV\u00c4KSYNYT": 8481,
  "\u2581Vil": 8482,
  "\u2581Sy\u00f6": 8483,
  "\u2581continuing": 8484,
  "ryhmien": 8485,
  "\u2581T\u00e4": 8486,
  "puhe": 8487,
  "\u2581sein\u00e4": 8488,
  "\u2581Guidelines": 8489,
  "\u2581handling": 8490,
  "\u2581rehu": 8491,
  "ray": 8492,
  "\u2581viikossa": 8493,
  "\u2581Sanoit": 8494,
  "\u258112:": 8495,
  "\u2581sopi": 8496,
  "lee": 8497,
  "\u2581Parlamentti": 8498,
  "\u2581sukupuolen": 8499,
  "\u2581ilmoitetaan": 8500,
  "\u2581owe": 8501,
  "\u2581edist\u00e4miseksi": 8502,
  "\u2581ohja": 8503,
  "\u2581esiintyy": 8504,
  "\u2581j\u00e4senen": 8505,
  "gas": 8506,
  "\u2581;": 8507,
  "\u2581n\u00e4kee": 8508,
  "\u2581valittu": 8509,
  "\u2581sensitive": 8510,
  "\u2581Friday": 8511,
  "\u2581sukupuoli": 8512,
  "\u2581valtava": 8513,
  "\u2581pyh\u00e4": 8514,
  "\u2581kuvia": 8515,
  "\u2581Rose": 8516,
  "\u2581tarvetta": 8517,
  "\u2581Men": 8518,
  "\u2581pointed": 8519,
  "\u2581object": 8520,
  "\u2581tablet": 8521,
  "\u2581officials": 8522,
  "\u25811.5": 8523,
  "\u2581milt\u00e4": 8524,
  "suunta": 8525,
  "\u2581uutisia": 8526,
  "\u2581etua": 8527,
  "\u2581Hor": 8528,
  "down": 8529,
  "\u2581Palvelu": 8530,
  "stro": 8531,
  "\u2581Bas": 8532,
  "\u2581governing": 8533,
  "This": 8534,
  "\u2581nostaa": 8535,
  "\u2581army": 8536,
  "\u2581ilme": 8537,
  "\u2581models": 8538,
  "kaise": 8539,
  "\u2581sanovat": 8540,
  "\u2581Real": 8541,
  "\u2581puhelin": 8542,
  "\u2581organisaatio": 8543,
  "\u2581band": 8544,
  "\u2581placebo": 8545,
  "\u2581regularly": 8546,
  "uttaa": 8547,
  "\u2581muodo": 8548,
  "suhde": 8549,
  "\u2581lai": 8550,
  "\u2581soitti": 8551,
  "\u2581mukaisen": 8552,
  "\u2581P\u00e4\u00e4st\u00e4": 8553,
  "\u2581demonstrated": 8554,
  "\u2581Egypt": 8555,
  "\u2581\u00e4itisi": 8556,
  "\u25811989": 8557,
  "\u2581expert": 8558,
  "meno": 8559,
  "\u2581v\u00e4\u00e4r\u00e4ss\u00e4": 8560,
  "\u2581edellytt\u00e4en": 8561,
  "\u2581undertaken": 8562,
  "vali": 8563,
  "\u2581menu": 8564,
  "pas": 8565,
  "\u2581Institute": 8566,
  "\u2581subsequent": 8567,
  "ukku": 8568,
  "Jo": 8569,
  "koja": 8570,
  "\u2581vuodeksi": 8571,
  "\u2581osallistumista": 8572,
  "\u2581Los": 8573,
  "\u2581keskustelua": 8574,
  "tkin": 8575,
  "\u2581solidarity": 8576,
  "\u2581releases": 8577,
  "\u2581ye": 8578,
  "\u2581ID": 8579,
  "kalta": 8580,
  "paa": 8581,
  "onta": 8582,
  "\u2581Climate": 8583,
  "\u2581turvaa": 8584,
  "\u2581puheenvuoro": 8585,
  "emi": 8586,
  "\u2581Yhdistyneen": 8587,
  "mekanismi": 8588,
  "\u2581cast": 8589,
  "\u2581ilmenee": 8590,
  "direktiivi": 8591,
  "\u2581IS": 8592,
  "ttomia": 8593,
  "\u2581suspension": 8594,
  "\u2581pieces": 8595,
  "\u2581sel": 8596,
  "\u2581kokonaisuudessa": 8597,
  "\u2581destroyed": 8598,
  "ben": 8599,
  "liikenne": 8600,
  "\u2581tells": 8601,
  "tykseen": 8602,
  "\u2581Slovakia": 8603,
  "\u2581links": 8604,
  "ttavan": 8605,
  "cu": 8606,
  "\u2581laitteet": 8607,
  "\u25811.6": 8608,
  "\u2581released": 8609,
  "\u2581Olkaa": 8610,
  "\u2581apostoli": 8611,
  "\u2581tutkimusta": 8612,
  "meri": 8613,
  "\u2581organic": 8614,
  "\u2581tyt\u00f6n": 8615,
  "ix": 8616,
  "\u2581transition": 8617,
  "rio": 8618,
  "\u2581raa": 8619,
  "mpa": 8620,
  "\u2581dude": 8621,
  "\u2581electric": 8622,
  "\u2581Roger": 8623,
  "\u2581host": 8624,
  "\u2581l\u00e4sn\u00e4": 8625,
  "\u2581tunti": 8626,
  "arviointi": 8627,
  "lat": 8628,
  "\u2581preliminary": 8629,
  "\u2581Kuin": 8630,
  "empaa": 8631,
  "\u2581Indeed": 8632,
  "\u2581p\u00e4\u00e4see": 8633,
  "\u2581massa": 8634,
  "\u2581Mother": 8635,
  "piir": 8636,
  "poli": 8637,
  "\u2581Besides": 8638,
  "NS": 8639,
  "\u2581soil": 8640,
  "\u2581village": 8641,
  "tions": 8642,
  "\u2581Ruotsin": 8643,
  "\u2581Pala": 8644,
  "\u2581Kate": 8645,
  "nk": 8646,
  "\u2581Rahoitus": 8647,
  "\u2581Ruotsi": 8648,
  "\u2581recital": 8649,
  "\u2581kiva": 8650,
  "TEN": 8651,
  "\u2581Direktiivin": 8652,
  "qua": 8653,
  "kiin": 8654,
  "\u2581voluntary": 8655,
  "\u2581Esittelij\u00e4": 8656,
  "\u2581Toiseksi": 8657,
  "Si": 8658,
  "\u2581jalo": 8659,
  "\u2581\u00d7": 8660,
  "\u2581asetta": 8661,
  "\u2581seeking": 8662,
  "\u2581hallitusten": 8663,
  "\u2581103": 8664,
  "\u2581transferred": 8665,
  "\u2581vapa": 8666,
  "eissa": 8667,
  "\u2581Satan": 8668,
  "\u2581sad": 8669,
  "dal": 8670,
  "\u2581parent": 8671,
  "\u2581providers": 8672,
  "\u2581tarvitsemme": 8673,
  "\u2581hyv\u00e4ksym\u00e4": 8674,
  "bis": 8675,
  "\u2581torjunta": 8676,
  "\u2581sentence": 8677,
  "\u2581palvelija": 8678,
  "\u2581mitk\u00e4": 8679,
  "\u2581assume": 8680,
  "\u2581tuskin": 8681,
  "\u2581\u00e4idin": 8682,
  "\u2581Poliisi": 8683,
  "\u2581Sunday": 8684,
  "\u2581reserve": 8685,
  "\u25812014/": 8686,
  "\u2581oireita": 8687,
  "\u2581toimivaltaisten": 8688,
  "\u2581adults": 8689,
  "\u2581lentokone": 8690,
  "\u2581tarkoituksen": 8691,
  "\u2581joy": 8692,
  "\u2581kollegat": 8693,
  "\u2581Kreikan": 8694,
  "\u2581adjusted": 8695,
  "\u2581juhli": 8696,
  "\u2581m\u00e4\u00e4ritt\u00e4\u00e4": 8697,
  "\u2581destination": 8698,
  "\u2581edist\u00e4": 8699,
  "$": 8700,
  "\u2581Angel": 8701,
  "\u2581Aihe": 8702,
  "\u2581luotettava": 8703,
  "kk\u00e4\u00e4": 8704,
  "\u2581impairment": 8705,
  "\u2581milj": 8706,
  "joille": 8707,
  "kumppanei": 8708,
  "yhte": 8709,
  "\u2581acceptable": 8710,
  "\u2581kertomuksen": 8711,
  "\u2581spending": 8712,
  "\u2581tietenk\u00e4\u00e4n": 8713,
  "lam": 8714,
  "\u2581tourism": 8715,
  "\u25812.2": 8716,
  "fl": 8717,
  "lain": 8718,
  "\u2581tekiv\u00e4t": 8719,
  "\u2581Ham": 8720,
  "\u2581sheep": 8721,
  "\u2581toiselle": 8722,
  "\u2581nuoriso": 8723,
  "\u2581v\u00e4\u00e4r\u00e4": 8724,
  "\u2581schedule": 8725,
  "\u2581Etusivu": 8726,
  "\u2581Love": 8727,
  "\u2581sodan": 8728,
  "\u2581tarjoavat": 8729,
  "hon": 8730,
  "\u2581munuaisten": 8731,
  "\u2581varsin": 8732,
  "\u2581Support": 8733,
  "\u2581L\u00e4hi": 8734,
  "sille": 8735,
[...]
