{
  "</s>": 0,
  "<unk>": 1,
  ",": 2,
  ".": 3,
  "\u2581\"": 4,
  "\u2581the": 5,
  "\u2581to": 6,
  "'": 7,
  "\u2581of": 8,
  ":": 9,
  "\u2581-": 10,
  "?": 11,
  "\u2581ne": 12,
  "\u2581mu": 13,
  "\u2581and": 14,
  "\u2581a": 15,
  "\u2581na": 16,
  "\u2581in": 17,
  "\u2581wa": 18,
  "\u2581that": 19,
  "\u2581ku": 20,
  "\u2581pa": 21,
  "s": 22,
  "\u2581i": 23,
  "\u2581bwa": 24,
  "\u2581ba": 25,
  "\u2581is": 26,
  "\u2581amba": 27,
  "\u2581Yehova": 28,
  "\u2581Jehovah": 29,
  "\u2581kya": 30,
  "\u2581ya": 31,
  "\u2581Leza": 32,
  "\u2581we": 33,
  "\u2581": 34,
  "\u2581God": 35,
  "\u2581for": 36,
  "\u2581(": 37,
  "\u2581his": 38,
  "\u2581be": 39,
  "\u2581bya": 40,
  "\u2581I": 41,
  "\u2581Bible": 42,
  "\u2581mwanda": 43,
  "\u2581with": 44,
  "\u2581bantu": 45,
  "\u2581you": 46,
  "\u2581not": 47,
  "\u2581will": 48,
  ";": 49,
  "\u2581he": 50,
  "\u2581was": 51,
  "\u2581as": 52,
  "\u2581have": 53,
  "\u2581are": 54,
  ")": 55,
  "\u25811": 56,
  "\u2581'": 57,
  "\u2581Yesu": 58,
  "\u2581on": 59,
  "\u2581Jesus": 60,
  "mba": 61,
  "\u2581our": 62,
  "po": 63,
  "\u2581us": 64,
  "\u2581it": 65,
  "ing": 66,
  "ka": 67,
  "\u2581mutyima": 68,
  "\u2581bu": 69,
  "\u2581can": 70,
  "\u2581nansha": 71,
  "\u2581The": 72,
  "\u2581What": 73,
  "\u2581by": 74,
  "ko": 75,
  "\u2581from": 76,
  "\u2581Kidishitu": 77,
  "\u2581what": 78,
  "\u2581kwa": 79,
  "\u2581who": 80,
  "\u2581ke": 81,
  "\u2581their": 82,
  "\u2581kadi": 83,
  "!": 84,
  "\u2581they": 85,
  "\u2581do": 86,
  "\u2581ino": 87,
  "a": 88,
  "\u2581Le": 89,
  "nga": 90,
  "\u2581or": 91,
  "\u2581ntanda": 92,
  "\u2581this": 93,
  "\u2581[": 94,
  "\u2581muswelo": 95,
  "\u2581muntu": 96,
  "\u2581shi": 97,
  "\u2581all": 98,
  "\u2581How": 99,
  "\u2581him": 100,
  "\u2581Lelo": 101,
  "\u2581your": 102,
  "\u2581bintu": 103,
  "\u25812": 104,
  "\u2581kitatyi": 105,
  "\u2581bene": 106,
  "\u2581them": 107,
  "\u2581people": 108,
  "\u2581one": 109,
  "\u2581kudi": 110,
  "\u2581did": 111,
  "\u2581mushipiditu": 112,
  "\u2581w\u0101di": 113,
  "\u2581namani": 114,
  "\u2581about": 115,
  "\u2581at": 116,
  "\u2581In": 117,
  "\u2581bana": 118,
  "\u2581b\u016bmi": 119,
  "\u2581were": 120,
  "\u2581when": 121,
  "\u2581an": 122,
  "\u2581Mu": 123,
  "\u2581kwikala": 124,
  "\u2581had": 125,
  "\u2581has": 126,
  "\u2581lwa": 127,
  "\u2581bika": 128,
  "\u2581would": 129,
  "\u2581myanda": 130,
  "\u2581Ino": 131,
  "\u2581those": 132,
  "\u2581may": 133,
  "\u2581life": 134,
  "\u2581uno": 135,
  "\u2581umo": 136,
  "\u2581pamo": 137,
  "\u2581kino": 138,
  "\u2581bukomo": 139,
  "\u25815": 140,
  "\u2581dya": 141,
  "\u2581myaka": 142,
  "\u2581bonso": 143,
  "\u2581time": 144,
  "\u2581mwingilo": 145,
  "b": 146,
  "\u2581kulonga": 147,
  "mo": 148,
  "\u2581but": 149,
  "]": 150,
  "\u2581pano": 151,
  "\u2581so": 152,
  "\u2581nyeke": 153,
  "\u2581Mwanda": 154,
  "\u2581mwine": 155,
  "\u2581how": 156,
  "\u2581help": 157,
  "\u2581ka": 158,
  "\u2581He": 159,
  "\u2581Shi": 160,
  "\u2581love": 161,
  "\u2581boba": 162,
  "\u2581Paul": 163,
  "\u25814": 164,
  "\u25816": 165,
  "\u2581waka": 166,
  "\u2581Polo": 167,
  "\u2581good": 168,
  "\u2581should": 169,
  "\u2581my": 170,
  "\u2581We": 171,
  "\u2581does": 172,
  "\u2022": 173,
  "\"": 174,
  "\u2581wandi": 175,
  "\u2581some": 176,
  "\u2581mwa": 177,
  "\u2581Why": 178,
  "\u2581also": 179,
  "\u2581out": 180,
  "\u2581things": 181,
  "i": 182,
  "\u2581biyampe": 183,
  "\u2581b\u0101di": 184,
  "\u2581badi": 185,
  "\u2581more": 186,
  "\u2581such": 187,
  "\u2581monka": 188,
  "\u2581bandi": 189,
  "tu": 190,
  "\u2581bidi": 191,
  "\u2581way": 192,
  "\u25813": 193,
  "\u2581spirit": 194,
  "\u2581Kadi": 195,
  "\u2581nandi": 196,
  "\u2581Christians": 197,
  "\u2581nabo": 198,
  "\u258115": 199,
  "ed": 200,
  "\u2581make": 201,
  "\u2581been": 202,
  "\u2581bine": 203,
  "\u2581Inoko": 204,
  "\u2581her": 205,
  "\u2581Christ": 206,
  "\u2581Bine": 207,
  "\u2581if": 208,
  "\u2581world": 209,
  "\u2581mafuku": 210,
  "\u2581mwana": 211,
  "\u2581Christian": 212,
  "\u2581up": 213,
  "\u2581aye": 214,
  "\u2581kintu": 215,
  "\u2581A": 216,
  "\u2581earth": 217,
  "ly": 218,
  "\u2581many": 219,
  "\u2581me": 220,
  "\u2581buswe": 221,
  "\u2581It": 222,
  "\u2581work": 223,
  "\u2581no": 224,
  "\u2581faith": 225,
  "nka": 226,
  "\u2581said": 227,
  "\u258110": 228,
  "\u2581bakwabo": 229,
  "\u2581w\u0101": 230,
  "\u2581Bene": 231,
  "the": 232,
  "\u2581bavule": 233,
  "\u2581Kingdom": 234,
  "\u2581others": 235,
  "\u2581kipwilo": 236,
  "\u2581even": 237,
  "\u2581Bulopwe": 238,
  "\u2581need": 239,
  "\u2581man": 240,
  "\u2581When": 241,
  "\u2581ngikadilo": 242,
  "\u2581Pa": 243,
  "\u258112": 244,
  "\u2581day": 245,
  "\u2581could": 246,
  "\u2581udi": 247,
  "\u2581other": 248,
  "\u2581byonso": 249,
  "\u2581kumeso": 250,
  "\u2581bino": 251,
  "\u2581kala": 252,
  "\u2581Isalela": 253,
  "\u258111": 254,
  "\u25817": 255,
  "\u2581example": 256,
  "\u2581yonso": 257,
  "\u2581bwandi": 258,
  "e": 259,
  "\u2581mvubu": 260,
  "\u2581padi": 261,
  "\u2581spiritual": 262,
  "\u2581there": 263,
  "\u2581must": 264,
  "\u2581For": 265,
  "\u258113": 266,
  "\u2581than": 267,
  "\u2581lwitabijo": 268,
  "\u2581nsangaji": 269,
  "\u258114": 270,
  "\u2581first": 271,
  "\u2581these": 272,
  "\u2581congregation": 273,
  "\u2581mfulo": 274,
  "\u2581o": 275,
  "\u2581\u00f1eni": 276,
  "\u2581wetu": 277,
  "\u2581into": 278,
  "\u2581u": 279,
  "\u25818": 280,
  "\u2581because": 281,
  "\u2581They": 282,
  "\u2581enka": 283,
  "\u2581which": 284,
  "\u2581As": 285,
  "\u2581But": 286,
  "\u2581abo": 287,
  "\u2581dyalelo": 288,
  "\u2581If": 289,
  "\u2581mukaji": 290,
  "\u2581being": 291,
  "\u2581K": 292,
  "\u2581bininge": 293,
  "\u2581Nansha": 294,
  "\u2581kunena": 295,
  "\u2581difuku": 296,
  "\u2581kuyuka": 297,
  "\u2581heart": 298,
  "\u2581know": 299,
  "\u2581unena": 300,
  "\u2581m\u016blu": 301,
  "\u2581made": 302,
  "\u2581kupwa": 303,
  "\u2581mudi": 304,
  "\u2581ones": 305,
  "\u2581This": 306,
  "\u25811,": 307,
  "\u2581O": 308,
  "\u25819": 309,
  "\u2581B": 310,
  "\u2581see": 311,
  "\u2581bubine": 312,
  "\u2581true": 313,
  "\u2581You": 314,
  "\u2581bubi": 315,
  "\u2581binenwa": 316,
  "\u2581kimo": 317,
  "\u2581kyaba": 318,
  "\u2581Witnesses": 319,
  "\u2581Satana": 320,
  "\u2581words": 321,
  "\u2581come": 322,
  "\u2581only": 323,
  "\u2581kisaka": 324,
  "\u258117": 325,
  "\u258116": 326,
  "\u2581Na": 327,
  "\u2581she": 328,
  "\u2581tufwaninwe": 329,
  "\u2581ko": 330,
  "\u2581Satan": 331,
  "\u2581years": 332,
  "\u2581paje": 333,
  "\u2581*": 334,
  "\u2581take": 335,
  "\u2581kimfwa": 336,
  "\u2581like": 337,
  "\u2581Ku": 338,
  "\u2581kik\u014dkeji": 339,
  "...": 340,
  "\u2581family": 341,
  "\u2581children": 342,
  "\u2581become": 343,
  "\u2581yandi": 344,
  "\u2581Word": 345,
  "\u2581Batumoni": 346,
  "\u2581David": 347,
  "\u2581kumona": 348,
  "\u2581byo": 349,
  "\u2581says": 350,
  "\u2581kyandi": 351,
  "\u2581might": 352,
  "\u2581mo": 353,
  "\u2581then": 354,
  "\u2581over": 355,
  "\u2581own": 356,
  "\u2581give": 357,
  "\u2581binebine": 358,
  "\u2581death": 359,
  "\u2581ye": 360,
  "\u258119": 361,
  "\u2581Davida": 362,
  "\u2581ki": 363,
  "\u2581miyampe": 364,
  "\u2581truth": 365,
  "\u2581mingilo": 366,
  "\u2581men": 367,
  "\u2581ubwanya": 368,
  "\u258118": 369,
  "\u2581And": 370,
  "\u2581well": 371,
  "\u2581page": 372,
  "\u2581today": 373,
  "\u2581before": 374,
  "\u2581bi": 375,
  "\u2581meso": 376,
  "\u2581John": 377,
  "\u2581bwine": 378,
  "\u2581le": 379,
  "\u2581keep": 380,
  "\u2581kupita": 381,
  "\u2581twa": 382,
  "\u2581kyo": 383,
  "\u2581batwe": 384,
  "\u2581ngitu": 385,
  "\u2581name": 386,
  "\u2581milangwe": 387,
  "\u2581That": 388,
  "\u2581Kinenwa": 389,
  "\u2581apostle": 390,
  "d": 391,
  "\u2581show": 392,
  "\u2581wadi": 393,
  "\u2581bivule": 394,
  "\u2581mpata": 395,
  "\u2581faithful": 396,
  "o": 397,
  "\u2581bibi": 398,
  "\u2581bwetu": 399,
  "\u2581just": 400,
  "\u2581tu": 401,
  "\u2581bamo": 402,
  "\u2581Kino": 403,
  "\u2581Nanshi": 404,
  "\u2581its": 405,
  "\u2581person": 406,
  "\u2581now": 407,
  "\u2581dijina": 408,
  "\u2581through": 409,
  "\u2581Israel": 410,
  "\u2581mulume": 411,
  "\u2581Ne": 412,
  "\u258121": 413,
  "\u2581another": 414,
  "\u2581new": 415,
  "\u2581great": 416,
  "\u2581times": 417,
  "\u2581any": 418,
  "I": 419,
  "\u2581against": 420,
  "\u2581brothers": 421,
  "K": 422,
  "\u2581byobya": 423,
  "\u258120": 424,
  "\u2581To": 425,
  "\u2581kulombola": 426,
  "\u2581madingi": 427,
  "\u2581lufu": 428,
  "\u2581why": 429,
  "\u2581holy": 430,
  "\u2581b": 431,
  "\u2581njibo": 432,
  "\u2581namino": 433,
  "\u25813:": 434,
  "\u2581kipwano": 435,
  "\u2581learn": 436,
  "\u2581bubinebine": 437,
  "\u2581/": 438,
  "\u2581nabya": 439,
  "\u2581Kimfwa": 440,
  "\u2581after": 441,
  "\u258122": 442,
  "\u2581Peter": 443,
  "\u2581himself": 444,
  "\u2581Yoano": 445,
  "\u2581means": 446,
  "\u2581Do": 447,
  "\u2581w\u0101nene": 448,
  "\u25812.": 449,
  "\u2581Bisonekwa": 450,
  "\u2581lusa": 451,
  "\u2581Petelo": 452,
  "\u2581bengidi": 453,
  "\u2581lupusa": 454,
  "\u2581b\u0101": 455,
  "\u2581bula": 456,
  "\u2581bwanga": 457,
  "\u2581butyibi": 458,
  "\u2581put": 459,
  "wa": 460,
  "\u2581part": 461,
  "\u2581wrote": 462,
  "\u2581find": 463,
  "\u2581human": 464,
  "\u2581kika": 465,
  "\u2581feel": 466,
  "mpikwa": 467,
  "\u2581news": 468,
  "\u2581obe": 469,
  "\u2581Bantu": 470,
  "\u2581much": 471,
  "\u2581disciples": 472,
  "\u2581kampanda": 473,
  "\u2581ministry": 474,
  "\u2581Father": 475,
  "\u2581important": 476,
  "\u2581Mit\u014dto": 477,
  "\u2581Ba": 478,
  "\u2581worship": 479,
  "\u2581ponka": 480,
  "\u2581very": 481,
  "\u2581parents": 482,
  "\u2581consider": 483,
  "\u2581end": 484,
  "\u2581m\u0101ni": 485,
  "\u2581word": 486,
  "\u2581say": 487,
  "\u258110.": 488,
  "\u2581However": 489,
  "\u2581use": 490,
  "\u25814.": 491,
  "\u2581right": 492,
  "\u2581buno": 493,
  "\u2581study": 494,
  "byo": 495,
  "\u2581mityima": 496,
  "\u2581kwifunda": 497,
  "\u2581abe": 498,
  "\u2581dimo": 499,
  "\u2581mind": 500,
  "\u2581course": 501,
  "\u2581upon": 502,
  "\u2581let": 503,
  "\u2581ndoe": 504,
  "E": 505,
  "\u2581hope": 506,
  "\u2581two": 507,
  "\u258124": 508,
  "\u2581Loma": 509,
  "\u2581kubulwa": 510,
  "\u2581onso": 511,
  "\u2581bwabo": 512,
  "\u2581bambutwile": 513,
  "\u2581kupityila": 514,
  "\u2581ways": 515,
  "\u258112.": 516,
  "\u2581milombelo": 517,
  "\u2581mwaka": 518,
  "\u2581each": 519,
  "\u2581preaching": 520,
  "\u2581kine": 521,
  "\u2581view": 522,
  "\u2581though": 523,
  "\u2581kusapula": 524,
  "\u2581miso\u00f1anya": 525,
  "\u25818.": 526,
  "\u2581ano": 527,
  "\u2581kete": 528,
  "\u2581kukwasha": 529,
  "\u2581kulonda": 530,
  "\u2581bano": 531,
  "\u258114.": 532,
  "\u2581kwitabija": 533,
  "\u258113.": 534,
  "\u2581kamweno": 535,
  "\u2581kyonso": 536,
  "\u2581bafwaninwe": 537,
  "\u2581young": 538,
  "\u25819.": 539,
  "\u2581bo": 540,
  "\u25815.": 541,
  "\u2581Psalm": 542,
  "\u2581long": 543,
  "\u2581servants": 544,
  "\u2581T": 545,
  "\u258116.": 546,
  "\u2581mukwabo": 547,
  "\u2581mivule": 548,
  "\u2581Mosesa": 549,
  "\u2581Kifwatulo": 550,
  "\u2581po": 551,
  "\u2581want": 552,
  "\u2581bakaji": 553,
  "\u2581netu": 554,
  "\u2581place": 555,
  "\u258111.": 556,
  "\u2581yabo": 557,
  "\u2581pangala": 558,
  "t": 559,
  "\u2581mpika": 560,
  "\u25817.": 561,
  "\u2581yetu": 562,
  "\u2581kusaka": 563,
  "\u2581by\u0101di": 564,
  "\u2581found": 565,
  "\u2581mukanda": 566,
  "\u2581never": 567,
  "\u2581mhm": 568,
  "\u258117.": 569,
  "\u2581same": 570,
  "\u2581kwi": 571,
  "\u2581under": 572,
  "\u2581ky\u0101di": 573,
  "\u2581anointed": 574,
  "\u2581most": 575,
  "\u2581One": 576,
  "\u2581makambakano": 577,
  "\u2581So": 578,
  "\u2581panshi": 579,
  "\u2581loving": 580,
  "\u2581Mulopwe": 581,
  "\u2581power": 582,
  "ba": 583,
  "ya": 584,
  "\u2581doing": 585,
  "\u2581tudi": 586,
  "\u2581Mateo": 587,
  "\u2581boloke": 588,
  "\u2581among": 589,
  "\u2581days": 590,
  "\u2581given": 591,
  "/": 592,
  "\u2581peace": 593,
  "\u2581Is": 594,
  "\u2581bobe": 595,
  "\u2581every": 596,
  "\u258115.": 597,
  "\u25813,": 598,
  "\u2581serve": 599,
  "\u2581wabo": 600,
  "\u2581fellow": 601,
  "\u25816.": 602,
  "\u2581senene": 603,
  "Read": 604,
  "\u2581C": 605,
  "\u2581usaka": 606,
  "Tanga": 607,
  "\u2581book": 608,
  "\u2581go": 609,
  "\u2581\"?": 610,
  "\u2581King": 611,
  "\u2581kibundi": 612,
  "\u258123": 613,
  "\u2581nankyo": 614,
  "\u2581where": 615,
  "\u2581set": 616,
  "\u2581kanye": 617,
  "\u2581kwingila": 618,
  "\u2581read": 619,
  "\u2581whom": 620,
  "\u2581By": 621,
  "\u2581service": 622,
  "\u2581ami": 623,
  "\u2581Picture": 624,
  "\u258125": 625,
  "\u2581too": 626,
  "\u2581live": 627,
  "\u2581bilongwa": 628,
  "\u2581bring": 629,
  "\u2581Moses": 630,
  "\u2581katwa": 631,
  "\u2581humans": 632,
  "\u2581prayer": 633,
  "\u2581ufwaninwe": 634,
  "\u2581Some": 635,
  "\u2581making": 636,
  "\u2581uyukile": 637,
  "\u2581away": 638,
  "mu": 639,
  "\u2581bijila": 640,
  "\u2581bukwashi": 641,
  "\u2581knowledge": 642,
  "\u2581kulama": 643,
  "\u2581Son": 644,
  "\u2581kuleka": 645,
  "\u2581miswelo": 646,
  "\u2581sin": 647,
  "\u2581No": 648,
  "\u2581balume": 649,
  "\u2581wife": 650,
  "\u2581Our": 651,
  "\u2581Scriptures": 652,
  "\u2581told": 653,
  "\u2581bipwilo": 654,
  "\u2581bubela": 655,
  "\u2581kupwila": 656,
  "\u2581marriage": 657,
  "\u25813.": 658,
  "\u25819,": 659,
  "\u2581babo": 660,
  "\u2581nanshi": 661,
  "\u2581article": 662,
  "\u2581gave": 663,
  "\u2581lukulupilo": 664,
  "\u2581ky\u0101": 665,
  "\u2581heaven": 666,
  "\u2581reason": 667,
  "\u2581themselves": 668,
  "\u2581used": 669,
  "\u2581kikatampe": 670,
  "\u2581busapudi": 671,
  "\u2581Israelites": 672,
  "\u2581bul\u0113me": 673,
  "\u2581nobe": 674,
  "\u2581His": 675,
  "\u2581living": 676,
  "\u2581Matthew": 677,
  "\u258128": 678,
  "\u2581madyese": 679,
  "\u2581Yes": 680,
  "\u2581At": 681,
  "\u2581After": 682,
  "\u2581bashingwe": 683,
  "\u2581back": 684,
  "\u2581ukokeja": 685,
  "\u2581Isaya": 686,
  "\u2581bupolofeto": 687,
  "y": 688,
  "\u2581became": 689,
  "\u25816,": 690,
  "\u2581Kitatyi": 691,
  "\u2581M": 692,
  "\u2581mikwabo": 693,
  "\u2581during": 694,
  "\u2581personal": 695,
  "\u258118.": 696,
  "\u2581century": 697,
  "\u2581utala": 698,
  "\u2581counsel": 699,
  "\u2581down": 700,
  "\u2581mankind": 701,
  "\u2581kwenda": 702,
  "\u2581Abraham": 703,
  "\u2581toward": 704,
  "\u2581bitupu": 705,
  "\u2581Mwine": 706,
  "\u2581With": 707,
  "\u2581kyetu": 708,
  "\u2581wami": 709,
  "\u2581idi": 710,
  "\u2581bakulumpe": 711,
  "\u2581Kupwa": 712,
  "\u2581Kweji": 713,
  "\u2581bipa": 714,
  "\u2581bukatampe": 715,
  "\u2581muyampe": 716,
  "\u2581musapu": 717,
  "\u2581tunangu": 718,
  "\u2581kwingidija": 719,
  "\u25818,": 720,
  "\u2581get": 721,
  "\u2581Bilongwa": 722,
  "\u2581U": 723,
  "\u2581purpose": 724,
  "\u2581bakwetu": 725,
  "\u2581muzo": 726,
  "\u2581order": 727,
  "\u2581result": 728,
  "\u2581kishinte": 729,
  "\u2581future": 730,
  "kyo": 731,
  "\u2581Abalahama": 732,
  "\u2581wicked": 733,
  "al": 734,
  "\u2581elders": 735,
  "\u2581often": 736,
  "\u2581came": 737,
  "\u2581fact": 738,
  "\u2581kwine": 739,
  "\u2581lupeto": 740,
  "\u2581am": 741,
  "\u25814,": 742,
  "\u2581Mwana": 743,
  "\u2581heavenly": 744,
  "\u2581questions": 745,
  "\u2581joy": 746,
  "\u2581Bayuda": 747,
  "\u2581ourselves": 748,
  "\u2581ntumbo": 749,
  "\u2581Isaiah": 750,
  "\u258133": 751,
  "\u2581Jerusalem": 752,
  "\u25817,": 753,
  "The": 754,
  "\u2581bipangujo": 755,
  "\u2581Uno": 756,
  "\u2581pat\u014dka": 757,
  "\u2581wi": 758,
  "\u2581hand": 759,
  "ku": 760,
  "\u2581Yelusalema": 761,
  "\u2581always": 762,
  "\u2581without": 763,
  "\u2581later": 764,
  "\u2581itala": 765,
  "\u2581Let": 766,
  "\u2581year": 767,
  "\u2581mpango": 768,
  "\u2581face": 769,
  "\u2581Kodinda": 770,
  "\u2581relationship": 771,
  "\u2581Yet": 772,
  "\u2581nations": 773,
  "\u2581On": 774,
  "\u2581mizo": 775,
  "\u2581tubwanya": 776,
  "\u2581yewa": 777,
  "\u2581bubinga": 778,
  "\u2581bikwabo": 779,
  "\u2581able": 780,
  "\u2581buluji": 781,
  "\u2581mutumibwa": 782,
  "\u2581mpangiko": 783,
  "\u2581Yoba": 784,
  "\u2581however": 785,
  "\u2581benefit": 786,
  "\u2581mambo": 787,
  "\u2581Pano": 788,
  "\u2581Read": 789,
  "\u2581kulomba": 790,
  "\u2581w\u0101lombwele": 791,
  "\u2581dyese": 792,
  "\u2581Tanga": 793,
  "\u2581kindness": 794,
  "\u2581still": 795,
  "\u2581babwanya": 796,
  "\u2581something": 797,
  "\u258111,": 798,
  "\u2581banabetu": 799,
  "\u2581twi": 800,
  "\u2581kwingidila": 801,
  "\u2581di": 802,
  "\u2581y\u0101di": 803,
  "\u258130": 804,
  "\u2581called": 805,
  "\u258119.": 806,
  "\u2581began": 807,
  "\u2581full": 808,
  "\u2581bidibwa": 809,
  "\u2581kidi": 810,
  "\u2581brother": 811,
  "\u2581Job": 812,
  "\u2581sandu": 813,
  "\u2581having": 814,
  "\u2581think": 815,
  "\u2581tamba": 816,
  "\u2581wisdom": 817,
  "\u2581Ke": 818,
  "\u25812,": 819,
  "\u2581teaching": 820,
  "\u2581Yakoba": 821,
  "\u2581message": 822,
  "\u2581righteous": 823,
  "\u2581inoko": 824,
  "\u2581kufika": 825,
  "\u2581house": 826,
  "\u2581mungya": 827,
  "\u2581experience": 828,
  "Mit\u014dto": 829,
  "\u258127": 830,
  "\u2581moyo": 831,
  "\u2581old": 832,
  "\u2581yo": 833,
  "\u2581kiswa": 834,
  "\u2581close": 835,
  "\u2581byandi": 836,
  "\u2581kufundija": 837,
  "\u2581ask": 838,
  "\u2581attitude": 839,
  "\u2581kyelekejo": 840,
  "\u2581kwadi": 841,
  "\u2581bufundiji": 842,
  "\u2581busongi": 843,
  "n": 844,
  "\u2581bisakibwa": 845,
  "\u2581home": 846,
  "\u2581malwa": 847,
  "\u2581son": 848,
  "tumibwa": 849,
  "\u2581Even": 850,
  "\u2581needed": 851,
  "\u258126": 852,
  "\u2581both": 853,
  "\u2581meetings": 854,
  "te": 855,
  "u": 856,
  "\u2581look": 857,
  "\u2581three": 858,
  "\u2581bulopwe": 859,
  "\u2581dishinda": 860,
  "\u2581really": 861,
  "\u2581Eyo": 862,
  "\u2581lwandi": 863,
  "\u2581kukulupila": 864,
  "\u2581support": 865,
  "\u2581There": 866,
  "\u2581byabo": 867,
  "\u2581avoid": 868,
  "\u2581etu": 869,
  "\u2581nabyo": 870,
  "\u2581Many": 871,
  "\u2581continue": 872,
  "\u2581masomo": 873,
  "\u258129": 874,
  "\u2581Luka": 875,
  "\u2581father": 876,
  "\u2581bumo": 877,
  "\u2581eyes": 878,
  "\u2581Tata": 879,
  "\u2581fear": 880,
  "\u2581andi": 881,
  "\u2581desire": 882,
  "\u2581fine": 883,
  "\u2581share": 884,
  "\u2581kiyampe": 885,
  "\u2581Adam": 886,
  "\u2581mulopwe": 887,
  "\u2581Lord": 888,
  "\u2581Padi": 889,
  "\u2581Then": 890,
  "\u258120.": 891,
  "\u2581mwikadilo": 892,
  "h": 893,
  "\u2581done": 894,
  "\u2581someone": 895,
  "\u2581conduct": 896,
  "\u2581dibuku": 897,
  "\u2581Temote": 898,
  "\u2581kifuko": 899,
  "\u2581Adama": 900,
  "\u2581Tala": 901,
  "hose": 902,
  "\u2581kaji": 903,
  "\u2581Law": 904,
  "\u2581Bijila": 905,
  "\u2581Mfumwetu": 906,
  "\u2581helped": 907,
  "\u2581matter": 908,
  "yo": 909,
  "\u2581system": 910,
  "\u2581between": 911,
  "\u2581matompo": 912,
  "\u2581kuk\u014dkela": 913,
  "\u2581respect": 914,
  "\u2581together": 915,
  "\u2581Consider": 916,
  "\u2581slave": 917,
  "\u2581W": 918,
  "\u258131": 919,
  "\u2581bad": 920,
  "\u2581Luke": 921,
  "\u2581ani": 922,
  "\u2581mikatampe": 923,
  "\u2581possible": 924,
  "\u258132": 925,
  "\u2581W\u0101": 926,
  "\u2581kut\u016bla": 927,
  "\u2581prophet": 928,
  "\u2581act": 929,
  "\u2581husband": 930,
  "\u2581mean": 931,
  "\u2581woman": 932,
  "\u2581following": 933,
  "\u2581while": 934,
  "\u2581answer": 935,
  "\u2581lives": 936,
  "\u2581mema": 937,
  "\u2581kikulupiji": 938,
  "\u2581Timothy": 939,
  "\u2581kukimba": 940,
  "\u2581best": 941,
  "\u2581nakampata": 942,
  "\u2581receive": 943,
  "\u2581understand": 944,
  "\u2581tell": 945,
  "\u2581took": 946,
  "\u2581followers": 947,
  "\u2581pampikwa": 948,
  "\u2581sheep": 949,
  "\u2581bubidi": 950,
  "\u2581mut\u014dtelo": 951,
  "\u2581suffering": 952,
  "\u2581kipindi": 953,
  "\u2581Ntanda": 954,
  "\u2581follow": 955,
  "\u2581buludiki": 956,
  "\u2581cannot": 957,
  "\u2581last": 958,
  "le": 959,
  "\u2581She": 960,
  "\u2581kwisamba": 961,
  "\u258137": 962,
  ".)": 963,
  "\u2581Devil": 964,
  "\u2581bisaka": 965,
  "\u2581by\u0101": 966,
  "\u2581kutendelwa": 967,
  "\u2581midiyo": 968,
  "\u2581enjoy": 969,
  "\u2581self": 970,
  "\u2581balunda": 971,
  "\u2581kuta": 972,
  "\u258121.": 973,
  "\u2581kutabuka": 974,
  "\u2581law": 975,
  "\u2581ludimi": 976,
  "\u2581ever": 977,
  "\u2581present": 978,
  "\u2581Acts": 979,
  "\u2581From": 980,
  "\u2581bilombola": 981,
  "\u2581attention": 982,
  "\u2581mukatampe": 983,
  "\u2581Because": 984,
  "bo": 985,
  "\u2581sense": 986,
  "\u2581care": 987,
  "\u2581giving": 988,
  "\u2581trust": 989,
  "\u2581asked": 990,
  "\u2581Nkindi": 991,
  "\u2581Who": 992,
  "\u2581child": 993,
  "\u2581lead": 994,
  "\u2581pray": 995,
  "\u2581wise": 996,
  "\u258112:": 997,
  "\u2581Kusokwelwa": 998,
  "\u2581food": 999,
  "\u2581mashi": 1000,
  "ni": 1001,
  "\u2581mumweno": 1002,
  "\u2581remain": 1003,
  "\u2581happy": 1004,
  "\u2581budi": 1005,
  "\u2581kushinta": 1006,
  "\u2581balondi": 1007,
  "\u2581serving": 1008,
  "\u2581account": 1009,
  "\u2581apostles": 1010,
  "\u2581kitungo": 1011,
  "\u2581king": 1012,
  "\u2581certain": 1013,
  "\u2581misongo": 1014,
  "\u2581felt": 1015,
  "\u2581kubandaula": 1016,
  "\u2581sure": 1017,
  "\u2581Daniel": 1018,
  "\u2581learned": 1019,
  "\u2581e": 1020,
  "\u2581amo": 1021,
  "\u2581imitate": 1022,
  "\u2581ulombola": 1023,
  "\u2581All": 1024,
  "\u2581hard": 1025,
  "\u2581sacrifice": 1026,
  "\u2581everlasting": 1027,
  "\u2581N": 1028,
  "\u2581nation": 1029,
  "\u2581bakokeja": 1030,
  "\u2581kwitukwasha": 1031,
  "\u2581Bahebelu": 1032,
  "\u2581resurrection": 1033,
  "\u2581righteousness": 1034,
  "\u258140": 1035,
  "\u2581speak": 1036,
  "\u2581spiritually": 1037,
  "\u2581Corinthians": 1038,
  "\u2581b\u0101na": 1039,
  "\u2581E": 1040,
  "\u2581kwivwanija": 1041,
  "\u2581yet": 1042,
  "ki": 1043,
  "lo": 1044,
  "\u2581kind": 1045,
  "\u2581lu": 1046,
  "\u2581(1": 1047,
  "\u2581banababo": 1048,
  "\u2581kyabo": 1049,
  "\u2581situation": 1050,
  "S": 1051,
  "\u2581Of": 1052,
  "\u2581again": 1053,
  "\u2581nao": 1054,
  "\u2581pene": 1055,
  "\u2581kuno": 1056,
  "\u2581bukata": 1057,
  "pa": 1058,
  "\u2581dino": 1059,
  "\u2581wrong": 1060,
  "\u2581kwivwana": 1061,
  "\u2581temple": 1062,
  "\u2581kyaka": 1063,
  "\u2581needs": 1064,
  "\u2581qualities": 1065,
  "\u2581individuals": 1066,
  "\u2581saying": 1067,
  "\u2581Does": 1068,
  "\u2581twikale": 1069,
  "\u2581members": 1070,
  "\u2581k\u0101dipo": 1071,
  "\u2581w\u0101sonekele": 1072,
  "\u2581yourself": 1073,
  "\u2581Revelation": 1074,
  "\u2581Wa": 1075,
  "\u2581question": 1076,
  "\u2581koku": 1077,
  "\u2581thus": 1078,
  "\u2581bekale": 1079,
  "\u2581language": 1080,
  "\u258134": 1081,
  "Ngalwilo": 1082,
  "\u2581These": 1083,
  "\u2581Thus": 1084,
  "\u2581far": 1085,
  "\u2581teach": 1086,
  "\u2581works": 1087,
  "\u2581Jews": 1088,
  "\u2581Romans": 1089,
  "\u2581kwendelela": 1090,
  "\u2581baptized": 1091,
  "\u2581divule": 1092,
  "\u2581land": 1093,
  "\u2581ngalwilo": 1094,
  "\u2581free": 1095,
  "\u2581nor": 1096,
  "\u2581kingdom": 1097,
  "\u2581light": 1098,
  "\u2581city": 1099,
  "\u258123.": 1100,
  "\u2581k": 1101,
  "\u2581masusu": 1102,
  "\u2581problems": 1103,
  "\u2581different": 1104,
  "\u2581dyandi": 1105,
  "ke": 1106,
  "\u2581cause": 1107,
  "\u2581bankasampe": 1108,
  "\u2581kishima": 1109,
  "\u2581allow": 1110,
  "\u2581prophecy": 1111,
  "\u2581batutu": 1112,
  "\u2581thinking": 1113,
  "ther": 1114,
  "\u2581P": 1115,
  "\u2581principles": 1116,
  "kokeja": 1117,
  "\u2581gives": 1118,
  "\u2581religious": 1119,
  "\u2581turn": 1120,
  "\u2581bulanda": 1121,
  "\u2581kuleta": 1122,
  "\u2581strong": 1123,
  "\u2581kilombola": 1124,
  "\u2581matters": 1125,
  "\u2581m\u0101nga": 1126,
  "\u2581Dyalelo": 1127,
  "\u2581Noa": 1128,
  "\u2581Rather": 1129,
  "\u2581bitala": 1130,
  "\u2581buyampe": 1131,
  "\u2581Dyabola": 1132,
  "\u2581bwino": 1133,
  "\u2581believe": 1134,
  "\u2581whole": 1135,
  "\u2581examples": 1136,
  "\u2581few": 1137,
  "\u2581kifwa": 1138,
  "\u2581likely": 1139,
  "\u2581prayers": 1140,
  "\u2581perfect": 1141,
  "\u2581Your": 1142,
  "\u2581kulampe": 1143,
  "\u2581kufwija": 1144,
  "\u2581kwandi": 1145,
  "\u2581moved": 1146,
  "\u2581tempelo": 1147,
  "\u2581Proverbs": 1148,
  "\u2581known": 1149,
  "\u2581open": 1150,
  "\u2581real": 1151,
  "\u2581batumibwa": 1152,
  "\u2581knew": 1153,
  "mwikadile": 1154,
  "\u2581Danyele": 1155,
  "\u2581feelings": 1156,
  "\u2581mother": 1157,
  "\u2581uka": 1158,
  "kya": 1159,
  "\u2581blood": 1160,
  "\u2581false": 1161,
  "\u2581kw\u0101di": 1162,
  "\u2581mine": 1163,
  "\u2581case": 1164,
  "\u2581especially": 1165,
  "\u2581New": 1166,
  "\u2581imo": 1167,
  "\u2581whe": 1168,
  "\u2581provide": 1169,
  "ne": 1170,
  "\u2581bitatyi": 1171,
  "\u2581brought": 1172,
  "\u2581women": 1173,
  "la": 1174,
  "\u2581dyani": 1175,
  "\u2581Noah": 1176,
  "\u2581point": 1177,
  "\u2581comes": 1178,
  "\u2581near": 1179,
  "\u2581kubwanya": 1180,
  "\u2581dead": 1181,
  "\u2581kutupu": 1182,
  "\u2581ancient": 1183,
  "\u2581better": 1184,
  "\u2581buyuki": 1185,
  "\u2581kutanga": 1186,
  "\u2581kutyina": 1187,
  "\u2581Although": 1188,
  "\u2581James": 1189,
  "A": 1190,
  "\u2581gift": 1191,
  "\u2581off": 1192,
  "\u2581inspired": 1193,
  "\u2581tukokeja": 1194,
  "\u2581Scriptural": 1195,
  "\u2581kitapwa": 1196,
  "\u2581tutwa": 1197,
  "\u2581bulwi": 1198,
  "\u2581ibidi": 1199,
  "\u2581kulombela": 1200,
  "\u2581body": 1201,
  "\u2581divine": 1202,
  "m": 1203,
  "\u2581bukamoni": 1204,
  "\u2581mupolofeto": 1205,
  "\u2581mukenga": 1206,
  "\u2581sons": 1207,
  "\u2581mavule": 1208,
  "\u2581taking": 1209,
  "\u2581makes": 1210,
  "\u2581babidi": 1211,
  "\u2581nayo": 1212,
  "\u2581shows": 1213,
  "\u2581kwityepeja": 1214,
  "\u2581Can": 1215,
  "\u2581Mushipiditu": 1216,
  "\u2581kubwaninina": 1217,
  "to": 1218,
  "\u2581loyal": 1219,
  "\u2581saw": 1220,
  "ever": 1221,
  "\u2581Solomon": 1222,
  "\u2581blessings": 1223,
  "\u2581byetu": 1224,
  "\u2581kunyuma": 1225,
  "\u2581since": 1226,
  "\u2581early": 1227,
  "\u2581certainly": 1228,
  "\u2581Joseph": 1229,
  "\u2581tununu": 1230,
  "\u2581Suc": 1231,
  "\u2581bibwanya": 1232,
  "\u2581matanda": 1233,
  "\u2581next": 1234,
  "bwanya": 1235,
  "\u2581More": 1236,
  "\u2581received": 1237,
  "\u2581mabuku": 1238,
  "\u2581prove": 1239,
  "\u2581yense": 1240,
  "\u258122.": 1241,
  "\u2581draw": 1242,
  "\u2581mpalo": 1243,
  "\u2581number": 1244,
  "\u2581strength": 1245,
  "\u2581n": 1246,
  "\u2581difficult": 1247,
  "\u2581glory": 1248,
  "\u2581went": 1249,
  "\u2581Bwine": 1250,
  "\u2581kufwa": 1251,
  "\u2581similar": 1252,
  "\u2581busekese": 1253,
  "\u2581honor": 1254,
  "\u2581kikwabo": 1255,
  "\u2581Muntu": 1256,
  "\u2581dibajinji": 1257,
  "\u2581kabajinji": 1258,
  "\u2581bakaka": 1259,
  "\u2581taught": 1260,
  "\u2581Mutyima": 1261,
  "\u2581rule": 1262,
  "\u2581truly": 1263,
  "\u2581kwiula": 1264,
  "\u2581little": 1265,
  "\u2581mutwe": 1266,
  "\u2581states": 1267,
  "\u258124.": 1268,
  "\u2581kwip\u0101na": 1269,
  "\u2581Bino": 1270,
  "\u2581bwanapabo": 1271,
  "\u2581clear": 1272,
  "\u2581regard": 1273,
  "\u2581Boba": 1274,
  "\u2581betu": 1275,
  "\u2581bukankamane": 1276,
  "\u2581kupa": 1277,
  "\u2581left": 1278,
  "\u2581involved": 1279,
  "\u2581thought": 1280,
  "Nkindi": 1281,
  "na": 1282,
  "\u2581Are": 1283,
  "\u2581Di": 1284,
  "\u2581W\u0101di": 1285,
  "\u2581kash\u0101": 1286,
  "\u2581material": 1287,
  "\u2581Be": 1288,
  "\u2581understanding": 1289,
  "\u2581until": 1290,
  "\u2581comfort": 1291,
  "\u2581friends": 1292,
  "\u2581mwingidi": 1293,
  "\u2581witness": 1294,
  "\u2581lelo": 1295,
  "\u2581provided": 1296,
  "\u2581Kunshi": 1297,
  "\u2581kutamija": 1298,
  "\u2581Kudi": 1299,
  "\u2581circumstances": 1300,
  "\u2581forever": 1301,
  "\u2581keba": 1302,
  "\u2581kukwata": 1303,
  "di": 1304,
  "\u2581lwabo": 1305,
  "\u2581kitango": 1306,
  "\u2581mik\u014dko": 1307,
  "\u2581Like": 1308,
  "\u2581control": 1309,
  "\u2581yobe": 1310,
  "\u2581Solomone": 1311,
  "\u2581S": 1312,
  "\u2581Since": 1313,
  "\u2581shapita": 1314,
  "\u2581Meshiasa": 1315,
  "\u2581kyabuntu": 1316,
  "\u2581Yosefa": 1317,
  "\u2581coming": 1318,
  "\u2581believers": 1319,
  "\u2581mwiendelejo": 1320,
  "\u2581nsekununi": 1321,
  "\u2581panopantanda": 1322,
  "\u2581bulongolodi": 1323,
  "\u2581Muswelo": 1324,
  "\u2581but\u014dtyi": 1325,
  "\u2581change": 1326,
  "\u2581accept": 1327,
  "\u2581lwetu": 1328,
  "\u2581mulangwe": 1329,
  "\u2581promise": 1330,
  "\u2581integrity": 1331,
  "\u2581decisions": 1332,
  "\u2581kulanga": 1333,
  "\u2581standards": 1334,
  "\u2581wampikwa": 1335,
  "\u2581bamwikeulu": 1336,
  "\u2581privilege": 1337,
  "\u2581maintain": 1338,
  "\u2581thing": 1339,
  "\u2581fully": 1340,
  "\u2581kwetu": 1341,
  "\u2581organization": 1342,
  "\u2581kwisambila": 1343,
  "\u2581Edipito": 1344,
  "\u2581Tufwaninwe": 1345,
  "\u2581confidence": 1346,
  "\u2581heavens": 1347,
  "\u2581bupeta": 1348,
  "bi": 1349,
  "\u2581bibidi": 1350,
  "\u2581died": 1351,
  "\u2581evidence": 1352,
  "\u2581kumwena": 1353,
  "\u2581umbukata": 1354,
  "\u2581Hebrews": 1355,
  "\u2581loved": 1356,
  "\u2581un": 1357,
  "See": 1358,
  "\u2581apply": 1359,
  "\u2581kilonda": 1360,
  "\u2581sisters": 1361,
  "\u2581Efisesa": 1362,
  "\u2581shall": 1363,
  "\u2581preach": 1364,
  "ngapo": 1365,
  "\u2581authority": 1366,
  "\u2581balwana": 1367,
  "\u2581blessing": 1368,
  "\u2581effect": 1369,
  "\u2581promises": 1370,
  "\u2581usa": 1371,
  "\u2581Would": 1372,
  "\u2581kudya": 1373,
  "\u2581momwa": 1374,
  "\u2581therefore": 1375,
  "\u2581Tu": 1376,
  "\u2581kw\u0101": 1377,
  "\u2581luno": 1378,
  "\u2581reading": 1379,
  "\u2581Today": 1380,
  "\u2581heard": 1381,
  "\u2581hearts": 1382,
  "\u2581kubatyijibwa": 1383,
  "Tala": 1384,
  "\u2581ransom": 1385,
  "\u2581kwiya": 1386,
  "\u2581kyobe": 1387,
  "\u2581Eva": 1388,
  "\u2581nami": 1389,
  "\u2581seen": 1390,
  "\u2581adi": 1391,
  "\u2581kubwipi": 1392,
  "\u2581mentioned": 1393,
  "\u2581nadi": 1394,
  "hile": 1395,
  "\u2581powerful": 1396,
  "\u2581strengthen": 1397,
  "\u2581Yelemia": 1398,
  "\u2581angels": 1399,
  "\u2581byadi": 1400,
  "\u2581mwenda": 1401,
  "\u2581nothing": 1402,
  "\u2581judgment": 1403,
  "\u2581along": 1404,
  "\u2581konso": 1405,
  "\u2581Ngalwilo": 1406,
  "\u2581going": 1407,
  "\u2581vital": 1408,
  "\u2581happiness": 1409,
  "\u2581high": 1410,
  "\u2581kiselwa": 1411,
  "\u2581around": 1412,
  "\u2581ekale": 1413,
  "\u2581including": 1414,
  "\u2581regarding": 1415,
  "\u2581t\u014d": 1416,
  "\u2581buntu": 1417,
  "\u2581kibi": 1418,
  "\u2581Samwele": 1419,
  "Jehovah": 1420,
  "\u2581stand": 1421,
  "\u2581mashinda": 1422,
  "\u2581kwiba": 1423,
  "\u2581married": 1424,
  "Isaya": 1425,
  "\u2581'?": 1426,
  "\u2581THE": 1427,
  "\u2581mw\u0101di": 1428,
  "\u2581nakyo": 1429,
  "\u2581soon": 1430,
  "You": 1431,
  "godly": 1432,
  "\u2581Mulami": 1433,
  "\u2581Not": 1434,
  "\u2581covenant": 1435,
  "\u258120,": 1436,
  "\u2581try": 1437,
  "\u2581kumo": 1438,
  "\u2581direction": 1439,
  "\u2581efforts": 1440,
  "\u2581Creator": 1441,
  "\u2581kibumbo": 1442,
  "\u2581kwabo": 1443,
  "\u2581dyuba": 1444,
  "\u2581pat\u014dkelela": 1445,
  "\u2581psalmist": 1446,
  "\u2581greater": 1447,
  "\u2581bw\u0101di": 1448,
  "\u2581ponso": 1449,
  "\u2581showed": 1450,
  "\u2581bw\u0101": 1451,
  "\u2581doubt": 1452,
  "\u2581meaning": 1453,
  "\u2581Ebiya": 1454,
  "\u2581sent": 1455,
  "\u2581war": 1456,
  "C": 1457,
  "less": 1458,
  "\u2581deep": 1459,
  "\u2581foretold": 1460,
  "\u2581flesh": 1461,
  "\u2581mbila": 1462,
  ",...": 1463,
  "\u2581age": 1464,
  "\u2581appointed": 1465,
  "\u2581betabije": 1466,
  "\u2581anyone": 1467,
  "\u2581kutala": 1468,
  "\u258115,": 1469,
  "\u2581Babiloni": 1470,
  "\u2581Jeremiah": 1471,
  "\u2581special": 1472,
  "\u2581bakubulwa": 1473,
  "\u2581interest": 1474,
  "\u2581umpika": 1475,
  "\u2581Bana": 1476,
  "\u2581World": 1477,
  "\u2581byamalwa": 1478,
  "\u2581kup\u0101na": 1479,
  "\u2581earthly": 1480,
  "\u2581helps": 1481,
  "\u2581Eve": 1482,
  "\u2581Mukanda": 1483,
  "\u2581Yuda": 1484,
  "\u2581lonso": 1485,
  "\u2581panopano": 1486,
  "\u2581religion": 1487,
  "\u2581past": 1488,
  "\u2581Bano": 1489,
  "\u2581Instead": 1490,
  "\u2581ebiya": 1491,
  "\u2581praise": 1492,
  "\u2581respond": 1493,
  "\u2581dik\u014dkeji": 1494,
  "\u2581return": 1495,
  "\u2581serious": 1496,
  "otukokeja": 1497,
  "\u2581Kiteba": 1498,
  "\u2581Shandi": 1499,
  "\u2581manwa": 1500,
  "\u2581mundamunda": 1501,
  "\u2581w": 1502,
  "\u2581mit\u014dto": 1503,
  "\u2581ndimi": 1504,
  "....": 1505,
  "\u2581Watchtower": 1506,
  "\u2581bikomo": 1507,
  "\u2581opportunity": 1508,
  "\u2581ma": 1509,
  "\u2581muso\u00f1anya": 1510,
  "\u2581effort": 1511,
  "\u2581onka": 1512,
  "\u2581sins": 1513,
  "ye": 1514,
  "\u25815,": 1515,
  "\u2581Penepa": 1516,
  "\u2581kibajinji": 1517,
  "\u2581Myanda": 1518,
  "\u2581bikoleja": 1519,
  "\u2581b\u0101nwe": 1520,
  "\u2581according": 1521,
  "\u2581affect": 1522,
  "\u2581mulembi": 1523,
  "\u2581bikatampe": 1524,
  "\u2581kushintulula": 1525,
  "\u2581Genesis": 1526,
  "\u2581kaka": 1527,
  "\u2581kininga": 1528,
  "\u2581lusangukilo": 1529,
  "\u2581value": 1530,
  "\u2581remember": 1531,
  "\u2581Still": 1532,
  "\u2581ehe": 1533,
  "\u2581mudilo": 1534,
  "\u2581night": 1535,
  "\u2581second": 1536,
  "\u2581dikumi": 1537,
  "\u2581kept": 1538,
  "\u2581kulwa": 1539,
  "\u2581munda": 1540,
  "\u2581kunekenya": 1541,
  "\u2581wonderful": 1542,
  "\u2581Pamo": 1543,
  "\u2581malondololo": 1544,
  "\u2581kulangulukila": 1545,
  "\u2581money": 1546,
  "\u2581recorded": 1547,
  "\u2581bwami": 1548,
  "\u2581based": 1549,
  "\u2581Did": 1550,
  "\u2581kipangujo": 1551,
  "\u2581makasa": 1552,
  "\u2581BIBLE": 1553,
  "\u2581Buswe": 1554,
  "\u2581bayukile": 1555,
  "\u2581deal": 1556,
  "\u2581sister": 1557,
  "yotufwaninwe": 1558,
  "\u2581appreciation": 1559,
  "\u2581babajinji": 1560,
  "\u2581kijila": 1561,
  "\u2581119": 1562,
  "\u2581appreciate": 1563,
  "\u2581bimo": 1564,
  "\u2581information": 1565,
  "\u2581bat\u014dtyi": 1566,
  "\u2581bimfwa": 1567,
  "\u2581willing": 1568,
  "we": 1569,
  "\u2581bufuku": 1570,
  "\u2581k\u0101": 1571,
  "\u2581k\u016bminina": 1572,
  "\u2581soul": 1573,
  "\u2581move": 1574,
  "\u2581spoke": 1575,
  "\u2581Myaka": 1576,
  "\u2581determined": 1577,
  "\u2581misunsa": 1578,
  "\u2581chapter": 1579,
  "\u2581hold": 1580,
  "\u2581kufikidila": 1581,
  "\u2581offer": 1582,
  "\u2581seek": 1583,
  "Leza": 1584,
  "er": 1585,
  "\u2581(2": 1586,
  "\u2581bunka": 1587,
  "\u2581courage": 1588,
  "\u2581bya\u0101di": 1589,
  "\u2581Indeed": 1590,
  "\u2581Will": 1591,
  "\u2581diwi": 1592,
  "\u2581mwi": 1593,
  "\u2581nako": 1594,
  "God": 1595,
  "\u2581taken": 1596,
  "\u2581divita": 1597,
  "\u2581Hence": 1598,
  "\u2581Umpangi": 1599,
  "\u2581poso": 1600,
  "\u2581promised": 1601,
  "\u2581walk": 1602,
  "\u2581written": 1603,
  "\u2581illustration": 1604,
  "\u2581tala": 1605,
  "\u2581babi": 1606,
  "\u2581obey": 1607,
  "\u2581mulao": 1608,
  "\u258114,": 1609,
  "\u2581decision": 1610,
  "\u2581kutonga": 1611,
  "\u2581Judah": 1612,
  "\u2581Ki": 1613,
  "\u2581otubwanya": 1614,
  "\u2581physical": 1615,
  "\u2581events": 1616,
  "\u2581rather": 1617,
  "\u2581binena": 1618,
  "\u2581kit\u016bkijetyima": 1619,
  "\u258125.": 1620,
  "\u2581once": 1621,
  "\u2581wanted": 1622,
  "\u2581gain": 1623,
  "\u2581kifwaninwe": 1624,
  "\u2581salvation": 1625,
  "over": 1626,
  "\u2581simply": 1627,
  "\u2581m": 1628,
  "\u2581nkasampe": 1629,
  "\u2581wants": 1630,
  "\u2581kuvuluka": 1631,
  "lwa": 1632,
  "\u2581Kyaba": 1633,
  "\u2581Therefore": 1634,
  "\u2581harmony": 1635,
  "\u2581listen": 1636,
  "\u2581\u00d1imbo": 1637,
  "\u2581already": 1638,
  "\u2581kusapwila": 1639,
  "\u2581perhaps": 1640,
  "\u2581using": 1641,
  "\u2581budimbidimbi": 1642,
  "\u2581speaking": 1643,
  "\u2581Pictures": 1644,
  "\u2581actions": 1645,
  "\u2581form": 1646,
  "\u2581instance": 1647,
  "\u2581kifundwa": 1648,
  "\u2581kodi": 1649,
  "\u2581stated": 1650,
  "\u2581talk": 1651,
  "\u2581bululame": 1652,
  "\u2581byabuntu": 1653,
  "\u2581fulfillment": 1654,
  "\u2581kusumininwa": 1655,
  "\u2581kyadi": 1656,
  "\u2581role": 1657,
  "\u2581thoughts": 1658,
  "\u2581baptism": 1659,
  "\u258124:": 1660,
  "\u2581Namani": 1661,
  "\u2581b\u0101ni": 1662,
  "\u2581dine": 1663,
  "\u2581lost": 1664,
  "\u2581bumvu": 1665,
  "\u2581conscience": 1666,
  "\u2581Greek": 1667,
  "\u2581bukidi": 1668,
  "\u2581group": 1669,
  "\u2581kutanwa": 1670,
  "\u2581Aye": 1671,
  "\u2581bikokeja": 1672,
  "\u2581endure": 1673,
  "\u2581Hebrew": 1674,
  "\u2581reasons": 1675,
  "\u2581trials": 1676,
  "\u2581Monka": 1677,
  "\u2581bishima": 1678,
  "\u2581water": 1679,
  "\u2581baka": 1680,
  "\u2581kumweka": 1681,
  "\u2581butala": 1682,
  "\u2581congregations": 1683,
  "\u2581friend": 1684,
  "\u2581imperfect": 1685,
  "bu": 1686,
  "Yehova": 1687,
  "\u2581My": 1688,
  "\u2581hear": 1689,
  "\u2581w\u0101longele": 1690,
  "\u2581kushilula": 1691,
  "\u2581mwinya": 1692,
  "\u2581health": 1693,
  "\u2581kibwanya": 1694,
  "\u2581p\u0101": 1695,
  "\u2581guidance": 1696,
  "\u2581influence": 1697,
  "\u2581kotudi": 1698,
  "\u2581WA": 1699,
  "\u2581Their": 1700,
  "\u2581buya": 1701,
  "\u2581mi": 1702,
  "\u2581budimi": 1703,
  "\u2581keb\u0101dipo": 1704,
  "\u2581complete": 1705,
  "\u2581display": 1706,
  "\u2581kwepuka": 1707,
  "\u2581older": 1708,
  "ting": 1709,
  "\u2581Bamo": 1710,
  "\u2581everything": 1711,
  "\u2581forth": 1712,
  "\u2581issue": 1713,
  "\u2581Langa": 1714,
  "\u2581kutamba": 1715,
  "\u2581mulunda": 1716,
  "\u2581muya": 1717,
  "\u2581penepa": 1718,
  "\u2581anything": 1719,
  "\u2581leave": 1720,
  "\u2581here": 1721,
  "\u2581please": 1722,
  "\u2581precious": 1723,
  "\u2581responsibility": 1724,
  "\u2581Footnote": 1725,
  "\u2581kuswa": 1726,
  "\u2581proved": 1727,
  "\u2581ability": 1728,
  "\u2581field": 1729,
  "\u2581four": 1730,
  "\u2581moloke": 1731,
  "\u2581small": 1732,
  "\u2581ketu": 1733,
  "\u2581papo": 1734,
  "\u2581w\u0113": 1735,
  "\u2581hands": 1736,
  "\u2581kwitu": 1737,
  "\u2581B\u016bmi": 1738,
  "\u2581mibi": 1739,
  "\u2581mwin\u0113": 1740,
  "\u2581clearly": 1741,
  "\u2581Kintu": 1742,
  "\u2581desires": 1743,
  "\u2581die": 1744,
  "\u2581experienced": 1745,
  "\u2581head": 1746,
  "\u2581bendeji": 1747,
  "\u2581kupela": 1748,
  "\u2581meeting": 1749,
  "\u2581mere": 1750,
  "\u2581basapudi": 1751,
  "\u2581bifuko": 1752,
  "\u2581m\u012bsambo": 1753,
  "\u2581Jewish": 1754,
  "\u2581Mo": 1755,
  "\u2581True": 1756,
  "\u2581clean": 1757,
  "\u2581lived": 1758,
  "\u2581mobo": 1759,
  "in": 1760,
  "\u2581concern": 1761,
  "\u2581crowd": 1762,
  "\u2581ilombola": 1763,
  "\u2581tribulation": 1764,
  "\u2581reflect": 1765,
  "\u2581\u00d1IMBO": 1766,
  "\u25811914": 1767,
  "\u25819)": 1768,
  "\u2581Solo": 1769,
  "\u2581within": 1770,
  "\u2581call": 1771,
  "\u2581considered": 1772,
  "\u2581public": 1773,
  "\u2581tutu": 1774,
  "st": 1775,
  "\u2581Egypt": 1776,
  "\u2581kutoma": 1777,
  "\u258129.": 1778,
  "\u2581Messiah": 1779,
  "\u2581kyokya": 1780,
  "\u2581bulombola": 1781,
  "\u2581destruction": 1782,
  "\u2581further": 1783,
  "\u2581happened": 1784,
  "\u2581large": 1785,
  "\u2581milao": 1786,
  "\u2581showing": 1787,
  "\u2581bukondame": 1788,
  "\u2581kuboko": 1789,
  "\u2581evil": 1790,
  "\u258111)": 1791,
  "\u2581activities": 1792,
  "\u2581enemies": 1793,
  "l": 1794,
  "n\u0101": 1795,
  "\u258116,": 1796,
  "\u2581First": 1797,
  "\u2581Saul": 1798,
  "\u2581meet": 1799,
  "\u258128.": 1800,
  "\u2581express": 1801,
  "\u2581longer": 1802,
  "\u2581alone": 1803,
  "\u2581couple": 1804,
  "\u2581Batwe": 1805,
  "\u2581action": 1806,
  "\u2581build": 1807,
  "\u2581buvule": 1808,
  "\u2581start": 1809,
  "\u2581teachings": 1810,
  "\u2581y\u0101": 1811,
  "\u2581Mako": 1812,
  "\u2581answers": 1813,
  "\u2581m\u012bngilo": 1814,
  "\u2581whose": 1815,
  "kubulwa": 1816,
  "\u2581Matt": 1817,
  "\u2581creation": 1818,
  "\u2581mercy": 1819,
  "\u2581ngikadila": 1820,
  "\u2581bitungo": 1821,
  "\u2581expression": 1822,
  "\u2581raised": 1823,
  "\u258138": 1824,
  "\u2581fulfilled": 1825,
  "\u2581helping": 1826,
  "\u2581humility": 1827,
  "\u2581palapala": 1828,
  "\u2581kuboila": 1829,
  "\u2581kusanswa": 1830,
  "\u2581unity": 1831,
  "\u258136": 1832,
  "\u2581Just": 1833,
  "\u2581laws": 1834,
  "\u2581Mwingilo": 1835,
  "\u2581bubikadi": 1836,
  "\u2581else": 1837,
  "\u2581mukulumpe": 1838,
  "\u2581Kingidiki": 1839,
  "\u2581MU": 1840,
  "\u2581moral": 1841,
  "\u2581provides": 1842,
  "\u2581banwe": 1843,
  "\u2581lubilo": 1844,
  "\u258112,": 1845,
  "\u2581Dur": 1846,
  "\u2581babwanga": 1847,
  "\u2581bakulupile": 1848,
  "\u2581bupyasakane": 1849,
  "\u2581mw\u0101": 1850,
  "\u2581umbikalo": 1851,
  "Mit": 1852,
  "\u2581stay": 1853,
  "\u2581takes": 1854,
  "\u2581Now": 1855,
  "\u2581balopwe": 1856,
  "\u2581bulobo": 1857,
  "\u2581elder": 1858,
  "\u2581Balopwe": 1859,
  "\u2581Enka": 1860,
  "\u2581People": 1861,
  "\u2581advice": 1862,
  "\u2581kuvuija": 1863,
  "\u2581basaka": 1864,
  "\u2581behalf": 1865,
  "\u2581kekudipo": 1866,
  "\u2581kwela": 1867,
  "\u2581kwiipangula": 1868,
  "\u25814;": 1869,
  "\u2581Mark": 1870,
  "\u2581May": 1871,
  "\u2581biselwa": 1872,
  "\u2581history": 1873,
  "\u2581kut\u014dta": 1874,
  "\u2581pa\u0101di": 1875,
  "\u2581continued": 1876,
  "\u2581pabwipi": 1877,
  "\u2581practical": 1878,
  "\u2581Mwenda": 1879,
  "\u2581created": 1880,
  "\u2581described": 1881,
  "\u2581examine": 1882,
  "\u2581focus": 1883,
  "\u2581subject": 1884,
  "\u2581available": 1885,
  "\u2581bisonekwa": 1886,
  "\u2581proper": 1887,
  "\u2581warning": 1888,
  "\u2581bilumbuluke": 1889,
  "\u2581dikwabo": 1890,
  "\u25816)": 1891,
  "\u2581choose": 1892,
  "\u2581humble": 1893,
  "\u2581knows": 1894,
  "\u2581position": 1895,
  "\u258110,": 1896,
  "\u2581born": 1897,
  "\u2581grow": 1898,
  "\u2581offered": 1899,
  "\u2581reach": 1900,
  "Yewa": 1901,
  "\u2581mutyi": 1902,
  "\u2581s": 1903,
  "\u2581sacrifices": 1904,
  "\u2581Buno": 1905,
  "\u2581Mary": 1906,
  "\u2581kidyumu": 1907,
  "\u2581particular": 1908,
  "\u2581pioneer": 1909,
  "\u2581Levi": 1910,
  "\u2581Mwene": 1911,
  "\u2581modern": 1912,
  "\u25815)": 1913,
  "\u2581Leta": 1914,
  "\u2581kadipo": 1915,
  "\u2581kasuku": 1916,
  "\u2581seeking": 1917,
  "\u2581bear": 1918,
  "\u2581published": 1919,
  "tambile": 1920,
  "\u2581cultivate": 1921,
  "\u2581led": 1922,
  "\u2581sovereignty": 1923,
  "\u25814)": 1924,
  "\u2581daily": 1925,
  "\u25813)": 1926,
  "\u2581justice": 1927,
  "\u2581p": 1928,
  "\u2581Kifwa": 1929,
  "\u2581kebadipo": 1930,
  "\u2581mutamba": 1931,
  "\u2581neither": 1932,
  "\u2581bwendeji": 1933,
  "\u2581mubi": 1934,
  "\u2581yenga": 1935,
  "\u258145": 1936,
  "\u2581Kihebelu": 1937,
  "\u2581Love": 1938,
  "\u2581government": 1939,
  "\u2581knowing": 1940,
  "ta": 1941,
  "\u2581Penepo": 1942,
  "\u2581kubadila": 1943,
  "\u2581Difuku": 1944,
  "\u2581banunu": 1945,
  "\u2581develop": 1946,
  "\u2581poor": 1947,
  "\u2581Have": 1948,
  "\u2581Mhm": 1949,
  "\u2581Unena": 1950,
  "\u2581kwitupa": 1951,
  "\u258135": 1952,
  "\u2581bifwaninwe": 1953,
  "\u2581lwendo": 1954,
  "\u2581voice": 1955,
  "shilwile": 1956,
  "\u2581indeed": 1957,
  "),": 1958,
  "\u2581pala": 1959,
  "\u258110)": 1960,
  "\u258113,": 1961,
  "\u2581Kamoni": 1962,
  "\u2581Ps": 1963,
  "\u2581benefits": 1964,
  "\u2581carry": 1965,
  "\u2581diulu": 1966,
  "\u2581itself": 1967,
  "\u2581w\u0101ikele": 1968,
  "\u258160": 1969,
  "\u2581According": 1970,
  "\u2581Jacob": 1971,
  "\u2581See": 1972,
  "\u2581bilembwa": 1973,
  "\u2581command": 1974,
  "\u2581explained": 1975,
  "\u258110;": 1976,
  "\u2581blessed": 1977,
  "\u2581kupangwapangwa": 1978,
  "\u2581letter": 1979,
  "\u2581regularly": 1980,
  "\u2581Similarly": 1981,
  "\u2581bibidiji": 1982,
  "\u2581freedom": 1983,
  "\u2581worldwide": 1984,
  "\u2581school": 1985,
  "\u2581umb\u016bmi": 1986,
  "\u2581Mat": 1987,
  "\u2581basis": 1988,
  "Shi": 1989,
  "\u2581bibumbo": 1990,
  "\u2581kupwija": 1991,
  "\u2581mate": 1992,
  "lupwilwe": 1993,
  "\u2581devotion": 1994,
  "\u2581kwepi": 1995,
  "\u2581paradise": 1996,
  "\u2581quality": 1997,
  "\u2581Pakwabo": 1998,
  "\u2581mukose": 1999,
  "\u2581resurrected": 2000,
  "\u2581shepherd": 2001,
  "th": 2002,
  "\u2581Bika": 2003,
  "\u2581actually": 2004,
  "\u2581kishintulula": 2005,
  "\u2581kupwana": 2006,
  "\u2581usakanga": 2007,
  "N": 2008,
  "be": 2009,
  "kwa": 2010,
  "\u2581B\u0101di": 2011,
  "\u2581Kitango": 2012,
  "\u2581mwadi": 2013,
  "\u2581worshippers": 2014,
  "\u2581000": 2015,
  "\u258131.": 2016,
  "\u2581Watch": 2017,
  "\u2581enable": 2018,
  "\u2581interests": 2019,
  "\u2581kukwatakanya": 2020,
  "\u2581occasion": 2021,
  "\u2581period": 2022,
  "\u2581yenu": 2023,
  "\u2581accepted": 2024,
  "\u2581everyone": 2025,
  "\u2581persecution": 2026,
  "\u2581rest": 2027,
  "\u2581ulonga": 2028,
  "bwa": 2029,
  "\u2581Babylon": 2030,
  "\u2581Joshua": 2031,
  "\u2581got": 2032,
  "\u2581kityetye": 2033,
  "\u2581kufikidija": 2034,
  "\u2581kutana": 2035,
  "\u2581ukulupile": 2036,
  "\u2581w\u0101laile": 2037,
  "\u2581Or": 2038,
  "\u2581bakekala": 2039,
  "\u2581lesson": 2040,
  "\u2581An": 2041,
  "\u2581genuine": 2042,
  "\u2581kuyukila": 2043,
  "\u25817)": 2044,
  "\u2581Dibajinji": 2045,
  "\u2581Tubwanya": 2046,
  "\u2581bukalabale": 2047,
  "\u2581bukidibukidi": 2048,
  "\u2581servant": 2049,
  "\u2581bami": 2050,
  "\u2581basakilwa": 2051,
  "\u2581flock": 2052,
  "\u2581kulondolola": 2053,
  "\u2581pain": 2054,
  "org": 2055,
  "\u2581happen": 2056,
  "\u2581millions": 2057,
  "\u2581F": 2058,
  "\u2581balonga": 2059,
  "\u2581bipindi": 2060,
  "\u2581brings": 2061,
  "\u2581leaders": 2062,
  "\u2581served": 2063,
  "\u2581walking": 2064,
  "\u2581changed": 2065,
  "\u2581kilumbuluke": 2066,
  "\u2581paladisa": 2067,
  "\u2581wives": 2068,
  "\u2581yourselves": 2069,
  "\u2581Mungya": 2070,
  "\u2581Yoshua": 2071,
  "\u2581becoming": 2072,
  "\u2581ibwanya": 2073,
  "\u2581disciple": 2074,
  "\u2581mwendele": 2075,
  "\u2581ujila": 2076,
  "\u2581Most": 2077,
  "\u2581acts": 2078,
  "\u2581common": 2079,
  "\u2581kutwela": 2080,
  "\u2581personality": 2081,
  "\u2581regular": 2082,
  "\u2581shown": 2083,
  "like": 2084,
  "\u2581expect": 2085,
  "\u2581nzala": 2086,
  "\u2581training": 2087,
  "\u2581tusaka": 2088,
  "\u258170": 2089,
  "\u2581Ephesians": 2090,
  "\u2581banyema": 2091,
  "\u2581birth": 2092,
  "\u2581favor": 2093,
  "\u2581yami": 2094,
  "\u2581force": 2095,
  "\u2581protect": 2096,
  "\u2581sacred": 2097,
  "\u2581speech": 2098,
  "\u25818)": 2099,
  "\u2581kwibakwasha": 2100,
  "\u2581positive": 2101,
  "\u2581individual": 2102,
  "\u2581twadi": 2103,
  "lombwele": 2104,
  "\u2581demonstrate": 2105,
  "\u2581revealed": 2106,
  "\u2581tulonge": 2107,
  "\u2581greatest": 2108,
  "\u2581include": 2109,
  "\u2581katentekeji": 2110,
  "\u2581personally": 2111,
  "\u2581source": 2112,
  "\u258114)": 2113,
  "\u258127.": 2114,
  "\u2581Bavule": 2115,
  "\u2581Samuel": 2116,
  "\u2581alive": 2117,
  "\u2581encouragement": 2118,
  "\u2581entire": 2119,
  "\u2581faced": 2120,
  "\u2581named": 2121,
  "\u2581Tutu": 2122,
  "\u2581firm": 2123,
  "\u2581anger": 2124,
  "\u2581kamo": 2125,
  "\u2581ketufwaninwepo": 2126,
  "\u2581milumbuluke": 2127,
  "\u2581pakwabo": 2128,
  "\u2581makumi": 2129,
  "\u2581problem": 2130,
  "longa": 2131,
  "\u2581Fidipai": 2132,
  "\u2581easy": 2133,
  "\u2581kupebwa": 2134,
  "\u2581munshi": 2135,
  "\u2581nenu": 2136,
  "ts": 2137,
  "\u2581goals": 2138,
  "Lelo": 2139,
  "\u25813;": 2140,
  "\u2581kukokeja": 2141,
  "\u2581kul\u0113meka": 2142,
  "\u2581results": 2143,
  "\u2581Bintu": 2144,
  "\u2581addition": 2145,
  "\u2581kwikadila": 2146,
  "\u2581prayed": 2147,
  "\u2581ukimba": 2148,
  "\u2581Kwikala": 2149,
  "\u2581Tower": 2150,
  "\u2581bupika": 2151,
  "\u2581encourage": 2152,
  "\u2581pages": 2153,
  "\u2581various": 2154,
  "\u2581Pet": 2155,
  "\u2581kinenenwa": 2156,
  "\u2581shandi": 2157,
  "\u2581Madia": 2158,
  "\u2581kujingulula": 2159,
  "\u2581steps": 2160,
  "\u2581Us": 2161,
  "\u2581earlier": 2162,
  "\u2581kumu": 2163,
  "\u2581pi": 2164,
  "\u2581Though": 2165,
  "\u2581challenge": 2166,
  "\u2581discreet": 2167,
  "\u2581kings": 2168,
  "\u2581makwabo": 2169,
  "\u2581rich": 2170,
  "\u258118)": 2171,
  "\u2581Mwan\u0101": 2172,
  "\u2581ahead": 2173,
  "\u2581by\u0101nene": 2174,
  "\u2581kyepelo": 2175,
  "\u258141": 2176,
  "\u2581Others": 2177,
  "\u2581above": 2178,
  "\u2581ago": 2179,
  "\u2581bipangwa": 2180,
  "\u2581byabuyabuya": 2181,
  "\u2581eat": 2182,
  "\u2581fruit": 2183,
  "\u2581obedience": 2184,
  "\u2581strive": 2185,
  "\u2581visit": 2186,
  "\u258130.": 2187,
  "\u2581angel": 2188,
  "\u2581lupandilo": 2189,
  "\u2581seem": 2190,
  "\u2581activity": 2191,
  "\u2581exercise": 2192,
  "\u2581kiyukeno": 2193,
  "\u2581kufikila": 2194,
  "dya": 2195,
  "\u258117)": 2196,
  "\u2581Roman": 2197,
  "\u2581beyond": 2198,
  "\u2581realize": 2199,
  "\u2581Keep": 2200,
  "\u2581Kolose": 2201,
  "\u2581bitapwa": 2202,
  "\u2581k\u016blu": 2203,
  "\u2581ukekala": 2204,
  "\u258150": 2205,
  "\u2581Bifwatulo": 2206,
  "\u2581Netu": 2207,
  "\u2581arrangement": 2208,
  "\u2581bilubo": 2209,
  "\u2581w\u0101mwene": 2210,
  "\u2581w\u0101pele": 2211,
  "\u258117,": 2212,
  "\u2581de": 2213,
  "\u2581importance": 2214,
  "\u2581local": 2215,
  "\u2581obedient": 2216,
  "\u2581priests": 2217,
  "\u2581suffer": 2218,
  "\u2581\u25aa": 2219,
  "mwene": 2220,
  "\u25812)": 2221,
  "\u2581Bonso": 2222,
  "\u2581Vuluka": 2223,
  "\u2581dedication": 2224,
  "\u2581involves": 2225,
  "\u2581kyalwilo": 2226,
  "\u2581lo": 2227,
  "\u2581sexual": 2228,
  "\u2581Kumeso": 2229,
  "\u2581explains": 2230,
  "\u2581keeping": 2231,
  "\u2581kutama": 2232,
  "\u2581seed": 2233,
  "\u258112)": 2234,
  "\u258133.": 2235,
  "\u2581class": 2236,
  "\u2581discipline": 2237,
  "\u2581wonder": 2238,
  "\u2581isatu": 2239,
  "\u2581kipya": 2240,
  "bya": 2241,
  "\u258126.": 2242,
  "\u2581Tukokeja": 2243,
  "\u2581choice": 2244,
  "\u2581wisambila": 2245,
  "\u2581working": 2246,
  "\u2581\u0101di": 2247,
  "\u2581kunshi": 2248,
  "\u2581kusangela": 2249,
  "\u2581contrast": 2250,
  "\u2581protection": 2251,
  "If": 2252,
  "\u2581Divule": 2253,
  "\u2581Further": 2254,
  "\u2581Great": 2255,
  "\u2581Through": 2256,
  "\u2581Ubwanya": 2257,
  "\u2581allowed": 2258,
  "\u2581kukwata\u00f1ana": 2259,
  "\u2581mikanda": 2260,
  "\u2581observe": 2261,
  "\u2581presence": 2262,
  "es": 2263,
  "r": 2264,
  "\u258119,": 2265,
  "\u2581Clearly": 2266,
  "\u2581bityetye": 2267,
  "\u2581bonsololo": 2268,
  "\u2581expressed": 2269,
  "\u2581goal": 2270,
  "\u2581konka": 2271,
  "\u2581loyalty": 2272,
  "\u2581mipya": 2273,
  "\u2581mukomo": 2274,
  "\u2581nkulupilo": 2275,
  "\u2581Really": 2276,
  "\u2581behind": 2277,
  "\u2581caused": 2278,
  "\u2581compassion": 2279,
  "\u2581kutambula": 2280,
  "\u2581longa": 2281,
  "\u2581nadyo": 2282,
  "\u2581ntenke": 2283,
  "\u2581throughout": 2284,
  "Mu": 2285,
  "\u258113)": 2286,
  "\u2581approach": 2287,
  "\u2581recognize": 2288,
  "\u2581Later": 2289,
  "lwe": 2290,
  "\u2581tuyukile": 2291,
  "\u258115)": 2292,
  "\u2581batyetye": 2293,
  "\u2581contribute": 2294,
  "\u2581kwipwija": 2295,
  "\u2581practice": 2296,
  "\u2581stop": 2297,
  "otufwaninwe": 2298,
  "\u2581\"[": 2299,
  "\u2581bumuntu": 2300,
  "\u2581luombe": 2301,
  "\u2581single": 2302,
  "\u2581started": 2303,
  "fwaninwe": 2304,
  "\u2581dyo": 2305,
  "\u2581muneneno": 2306,
  "\u2581njia": 2307,
  "\u2581seven": 2308,
  "\u2581Holy": 2309,
  "\u2581Shako": 2310,
  "\u2581umwene": 2311,
  "\u258118,": 2312,
  "\u2581Bakwabo": 2313,
  "\u2581Mukatampe": 2314,
  "\u2581Perhaps": 2315,
  "\u2581batame": 2316,
  "\u2581kuloelelwa": 2317,
  "\u2581kwisakila": 2318,
  "\u2581makayo": 2319,
  "\u2581mubwaninine": 2320,
  "\u2581kisumpi": 2321,
  "\u2581kyotu": 2322,
  "\u2581manifest": 2323,
  "\u2581masobo": 2324,
  "\u2581natural": 2325,
  "\u2581bukwabo": 2326,
  "\u2581changes": 2327,
  "\u2581kwishila": 2328,
  "\u2581languages": 2329,
  "\u2581test": 2330,
  "kopo": 2331,
  "\u2581Another": 2332,
  "\u2581Bukomo": 2333,
  "\u2581Ko": 2334,
  "\u2581less": 2335,
  "\u2581truths": 2336,
  "\u2581tukulupile": 2337,
  "k": 2338,
  "\u2581abidi": 2339,
  "\u2581opposition": 2340,
  "\u2581tried": 2341,
  "\u2581vision": 2342,
  "\u2581Society": 2343,
  "\u2581fruitage": 2344,
  "\u2581kujokela": 2345,
  "\u2581sort": 2346,
  "\u2581treat": 2347,
  "\u2581wingila": 2348,
  "\u2581Bambutwile": 2349,
  "\u2581Tamba": 2350,
  "\u2581bonka": 2351,
  "\u2581join": 2352,
  "\u2581pania": 2353,
  "buku": 2354,
  "\u2581Cor": 2355,
  "\u2581attend": 2356,
  "\u2581completely": 2357,
  "\u2581kusangaja": 2358,
  "\u2581Remember": 2359,
  "\u2581bilo": 2360,
  "\u2581dedicated": 2361,
  "\u2581kukankamika": 2362,
  "\u2581lack": 2363,
  "c": 2364,
  "\u2581endurance": 2365,
  "\u2581learning": 2366,
  "\u2581neighbor": 2367,
  "\u2581ready": 2368,
  "\u2581tumweno": 2369,
  "\u258142": 2370,
  "\u2581Binenwa": 2371,
  "\u2581PA": 2372,
  "\u2581assignment": 2373,
  "\u2581image": 2374,
  "\u2581rejoice": 2375,
  "\u2581umbajinji": 2376,
  "\u2581country": 2377,
  "\u2581mwikeulu": 2378,
  "\u2581affection": 2379,
  "\u2581asking": 2380,
  "\u2581aware": 2381,
  "\u2581bulunda": 2382,
  "\u2581general": 2383,
  "\u2581kilongwa": 2384,
  "\u2581kinena": 2385,
  "\u2581kisonekwa": 2386,
  "\u2581kulongela": 2387,
  "\u2581kusokola": 2388,
  "\u2581kweji": 2389,
  "\u2581necessary": 2390,
  "\u2581record": 2391,
  "Yoba": 2392,
  "\u2581appropriate": 2393,
  "\u2581bread": 2394,
  "\u2581centuries": 2395,
  "\u2581enough": 2396,
  "\u2581resist": 2397,
  "\u2581utele": 2398,
  "\u258135.": 2399,
  "\u2581conditions": 2400,
  "\u2581interested": 2401,
  "\u2581kyami": 2402,
  "\u2581nalo": 2403,
  "\u2581accounts": 2404,
  "\u2581bengila": 2405,
  "\u2581mavita": 2406,
  "\u2581ten": 2407,
  "\u2581urged": 2408,
  "\u2581Unis": 2409,
  "\u2581added": 2410,
  "\u2581kutela": 2411,
  "\u2581lands": 2412,
  "\u2581final": 2413,
  "\u2581kimweke": 2414,
  "\u2581related": 2415,
  "\u2581yadi": 2416,
  "\u2581condition": 2417,
  "\u2581deeply": 2418,
  "\u2581line": 2419,
  "\u2581ludi": 2420,
  "\u2581turned": 2421,
  "Do": 2422,
  "\u2581Life": 2423,
  "\u2581kinenwa": 2424,
  "\u2581kwakamwa": 2425,
  "\u2581challenges": 2426,
  "\u2581w\u0101ingidije": 2427,
  "evertheless": 2428,
  "\u2581Un": 2429,
  "\u2581bulombodi": 2430,
  "\u2581imbi": 2431,
  "\u2581offering": 2432,
  "\u2581wenda": 2433,
  "\u2581Before": 2434,
  "\u2581Kivulukilo": 2435,
  "\u2581Memorial": 2436,
  "\u2581kuteja": 2437,
  "\u2581mikomo": 2438,
  "\u2581prepare": 2439,
  "\u2581reward": 2440,
  "\u2581success": 2441,
  "mwa": 2442,
  "\u2581L": 2443,
  "\u2581bibundi": 2444,
  "\u2581despi": 2445,
  "\u2581discuss": 2446,
  "\u2581closer": 2447,
  "\u2581impya": 2448,
  "\u2581kibidiji": 2449,
  "\u2581kulanguluka": 2450,
  "\u2581mwaba": 2451,
  "\u2581confident": 2452,
  "\u2581declared": 2453,
  "\u2581peulu": 2454,
  "\u2581busatu": 2455,
  "\u2581effective": 2456,
  "\u2581key": 2457,
  "\u2581kimonwa": 2458,
  "],": 2459,
  "\u2581Kya": 2460,
  "\u2581beginning": 2461,
  "\u2581byobe": 2462,
  "\u2581kujokoloka": 2463,
  "\u2581publications": 2464,
  "\u2581sound": 2465,
  "w": 2466,
  "\u2581daughter": 2467,
  "\u2581encouraged": 2468,
  "\u2581fall": 2469,
  "\u2581pantu": 2470,
  "\u2581penepo": 2471,
  "\u2581tree": 2472,
  "\u2581kwampikwa": 2473,
  "\u2581react": 2474,
  "\u2581short": 2475,
  "\u2581byonsololo": 2476,
  "\u2581forgiveness": 2477,
  "\u2581situations": 2478,
  "\u2581held": 2479,
  "\u2581kut\u016bkija": 2480,
  "\u2581progress": 2481,
  "\u2581reveal": 2482,
  "\u2581umona": 2483,
  "\u2581kik\u016blwa": 2484,
  "\u2581kipa": 2485,
  "\u2581Hosea": 2486,
  "\u2581Sarah": 2487,
  "\u2581surely": 2488,
  "\u2581\u00c9ta": 2489,
  "\u2581destroyed": 2490,
  "\u2581kubutulwa": 2491,
  "\u2581mulangilo": 2492,
  "\u2581pressure": 2493,
  "\u2581prospect": 2494,
  "\u2581guard": 2495,
  "\u2581kukukwasha": 2496,
  "\u2581mubadilwa": 2497,
  "\u2581standing": 2498,
  "Let": 2499,
  "ness": 2500,
  "\u2581Mika": 2501,
  "\u2581kobe": 2502,
  "\u2581mulumbuluke": 2503,
  "\u2581sign": 2504,
  "\u2581ushintulula": 2505,
  "out": 2506,
  "\u2581Nadi": 2507,
  "\u2581accurate": 2508,
  "\u2581bafwe": 2509,
  "\u2581chosen": 2510,
  "\u2581delight": 2511,
  "\u2581kufula": 2512,
  "\u2581kuludika": 2513,
  "\u2581lwito": 2514,
  "\u2581pure": 2515,
  "\u2581Teach": 2516,
  "\u2581forward": 2517,
  "\u2581kutyiba": 2518,
  "\u2581kwitabijibwa": 2519,
  "\u2581watch": 2520,
  "\u2581fulfill": 2521,
  "\u2581matabula": 2522,
  "\u2581mukumbi": 2523,
  "\u2581mwanabo": 2524,
  "\u2581panja": 2525,
  "\u2581patience": 2526,
  "\u2581specific": 2527,
  "\u2581spoken": 2528,
  "\u2581thousands": 2529,
  "\u2581NW": 2530,
  "\u2581kebi": 2531,
  "\u2581mitatulo": 2532,
  "\u2581offspring": 2533,
  "\u2581studying": 2534,
  "\u2581w\u0101nenene": 2535,
  "\u2581banena": 2536,
  "\u2581building": 2537,
  "\u2581butongi": 2538,
  "\u2581fight": 2539,
  "\u2581filled": 2540,
  "\u2581requires": 2541,
  "\u2581ulanga": 2542,
  "\u2581acceptable": 2543,
  "\u2581begin": 2544,
  "\u2581kukekala": 2545,
  "\u2581kyamalwa": 2546,
  "\u2581lobe": 2547,
  "\u2581myself": 2548,
  "\u2581picture": 2549,
  "\u2581places": 2550,
  "\u2581zeal": 2551,
  "\u2581Betele": 2552,
  "\u2581Kukwata\u00f1an": 2553,
  "\u2581destroy": 2554,
  "\u2581eventually": 2555,
  "\u2581followed": 2556,
  "\u2581kabidi": 2557,
  "\u2581katyetye": 2558,
  "\u258143": 2559,
  "\u258144": 2560,
  "\u2581Abo": 2561,
  "\u2581Lwitabijo": 2562,
  "\u2581beni": 2563,
  "\u2581bilokoloko": 2564,
  "\u2581kingelengele": 2565,
  "\u2581pay": 2566,
  "\u2581fail": 2567,
  "\u2581nka": 2568,
  "He": 2569,
  "\u2581Explain": 2570,
  "\u2581aba": 2571,
  "\u2581area": 2572,
  "\u2581kujilula": 2573,
  "\u2581looking": 2574,
  "\u2581universe": 2575,
  "\u2581violence": 2576,
  "\u2581Bu": 2577,
  "\u2581Njibo": 2578,
  "\u2581United": 2579,
  "\u2581carefully": 2580,
  "\u2581consequences": 2581,
  "\u2581friendship": 2582,
  "\u2581kandi": 2583,
  "\u2581lose": 2584,
  "\u2581pursue": 2585,
  "\u2581response": 2586,
  "\u2581warned": 2587,
  "\u2581yoya": 2588,
  "\u2581Regard": 2589,
  "\u2581calls": 2590,
  "\u2581quickly": 2591,
  "\u2581sharing": 2592,
  "5:": 2593,
  "\u2581bakwenu": 2594,
  "\u2581met": 2595,
  "\u2581sometimes": 2596,
  "M": 2597,
  "\u258148": 2598,
  "\u2581D": 2599,
  "\u2581Tubandaulei": 2600,
  "\u2581association": 2601,
  "\u2581forgive": 2602,
  "\u2581\u00d1eni": 2603,
  "sa": 2604,
  "\u2581Elijah": 2605,
  "\u2581kyolwa": 2606,
  "\u2581student": 2607,
  "\u2581witwa": 2608,
  "ma": 2609,
  "\u2581Paladisa": 2610,
  "\u2581commanded": 2611,
  "\u2581getting": 2612,
  "\u2581meant": 2613,
  "\u2581wikale": 2614,
  "\u2581Paradise": 2615,
  "\u2581nature": 2616,
  "\u2581yotuboila": 2617,
  "langa": 2618,
  "\u00a9": 2619,
  "\u2581Sala": 2620,
  "\u2581balanda": 2621,
  "\u2581basic": 2622,
  "\u2581bless": 2623,
  "\u2581guide": 2624,
  "\u2581original": 2625,
  "\u2581panopanshi": 2626,
  "\u2581priest": 2627,
  "\u2581remind": 2628,
  "\u2581Ediya": 2629,
  "\u2581Kupituluka": 2630,
  "\u2581beliefs": 2631,
  "\u2581bikekala": 2632,
  "\u2581deeds": 2633,
  "\u2581imoimo": 2634,
  "\u2581kufwena": 2635,
  "\u2581sever": 2636,
  "\u2581vese": 2637,
  "].": 2638,
  "\u2581Bakulumpe": 2639,
  "\u2581byob\u0101di": 2640,
  "\u2581by\u0101longele": 2641,
  "\u2581kyendele": 2642,
  "\u2581valuable": 2643,
  "\u2581Ami": 2644,
  "\u2581Mulemb": 2645,
  "\u2581bapika": 2646,
  "\u2581commandments": 2647,
  "\u2581door": 2648,
  "\u2581kwis\u0101sa": 2649,
  "\u2581lutundu": 2650,
  "\u2581temptation": 2651,
  "\u2581ut\u014dka": 2652,
  "\u2581SONGS": 2653,
  "\u2581accomplish": 2654,
  "\u2581families": 2655,
  "\u2581mubajinji": 2656,
  "\u2581musubu": 2657,
  "\u2581trying": 2658,
  "\u2581Witness": 2659,
  "\u2581aspects": 2660,
  "\u2581enjoyed": 2661,
  "\u2581lubila": 2662,
  "\u2581mfuto": 2663,
  "\u2581ndi": 2664,
  "ach": 2665,
  "\u258165": 2666,
  "\u2581Where": 2667,
  "\u2581explain": 2668,
  "\u2581five": 2669,
  "\u2581note": 2670,
  "est": 2671,
  "lengeje": 2672,
  "\u2581bulumbuluke": 2673,
  "\u2581byelekejo": 2674,
  "\u2581conclusion": 2675,
  "\u2581pobe": 2676,
  "\u2581Despi": 2677,
  "\u2581Isaac": 2678,
  "\u2581Pennsylvania": 2679,
  "\u2581Tesalonika": 2680,
  "\u2581bilomba": 2681,
  "\u2581bityebitye": 2682,
  "\u2581includes": 2683,
  "\u2581kulondalonda": 2684,
  "\u2581kyonka": 2685,
  "\u2581prophets": 2686,
  "\u2581tuleke": 2687,
  "\u2581Mfulo": 2688,
  "\u2581feeling": 2689,
  "\u2581fire": 2690,
  "\u2581undeserved": 2691,
  "\u258132.": 2692,
  "\u2581Bethel": 2693,
  "\u2581Bi": 2694,
  "\u2581W\u0101nene": 2695,
  "\u2581kushikata": 2696,
  "\u2581manner": 2697,
  "\u2581teaches": 2698,
  "\u2581tusa": 2699,
  "\u2581Trac": 2700,
  "\u2581Ukokeja": 2701,
  "\u2581failed": 2702,
  "\u2581isamba": 2703,
  "\u2581kutendela": 2704,
  "\u2581least": 2705,
  "\u2581mental": 2706,
  "\u2581prevent": 2707,
  "\u2581state": 2708,
  "more": 2709,
  "\u2581Micah": 2710,
  "\u2581former": 2711,
  "\u2581included": 2712,
  "\u2581poba": 2713,
  "\u2581preached": 2714,
  "\u2581seems": 2715,
  "\u2581sincere": 2716,
  "\u258139": 2717,
  "\u2581bearing": 2718,
  "\u2581forget": 2719,
  "\u2581kifwatulo": 2720,
  "\u2581kwalamuka": 2721,
  "\u2581lufundijo": 2722,
  "\u2581lukomo": 2723,
  "\u2581mikalo": 2724,
  "\u2581mushike": 2725,
  "\u2581returned": 2726,
  "\u2581step": 2727,
  "\u2581umbidi": 2728,
  "\u2581usenswe": 2729,
  "\u2581w\u0101letele": 2730,
  "\u25aa": 2731,
  "\u2581Bipangujo": 2732,
  "\u2581Kuno": 2733,
  "\u2581Po": 2734,
  "\u2581Questions": 2735,
  "\u2581Was": 2736,
  "\u2581bimweka": 2737,
  "\u2581bishinte": 2738,
  "\u2581goodness": 2739,
  "\u2581mpala": 2740,
  "\u2581parent": 2741,
  "\u2581subjects": 2742,
  "\u2581wine": 2743,
  "\u2581w\u0101telele": 2744,
  "B": 2745,
  "In": 2746,
  "mona": 2747,
  "\u258146": 2748,
  "\u2581Nehemia": 2749,
  "\u2581Tim": 2750,
  "\u2581Tudi": 2751,
  "\u2581bayuke": 2752,
  "\u2581kwibapa": 2753,
  "\u2581overcome": 2754,
  "\u2581overseers": 2755,
  "\u2581security": 2756,
  "\u2581side": 2757,
  "\u2581tongue": 2758,
  "\u2581uses": 2759,
  "\u2581beautiful": 2760,
  "\u2581existence": 2761,
  "\u2581imagine": 2762,
  "\u2581immorality": 2763,
  "\u2581kutengela": 2764,
  "\u2581loves": 2765,
  "\u2581master": 2766,
  "\u2581tuka": 2767,
  "\u2581tusakilwa": 2768,
  "\u2581Hall": 2769,
  "\u2581bitango": 2770,
  "\u2581creatures": 2771,
  "\u2581education": 2772,
  "\u2581konakanya": 2773,
  "\u2581mwifundi": 2774,
  "\u2581required": 2775,
  "\u2581verse": 2776,
  "all": 2777,
  "\u2581biketukwasha": 2778,
  "\u2581byoba": 2779,
  "\u2581b\u014dmi": 2780,
  "\u2581practices": 2781,
  "\u2581prepared": 2782,
  "\u2581prophecies": 2783,
  "\u2581request": 2784,
  "\u2581bamobamo": 2785,
  "\u2581byoloke": 2786,
  "\u2581kujimija": 2787,
  "\u2581uba": 2788,
  "dyo": 2789,
  "\u2581bamwene": 2790,
  "\u2581elderly": 2791,
  "\u2581fill": 2792,
  "\u2581kilampe": 2793,
  "\u2581concerning": 2794,
  "\u2581nsulo": 2795,
  "ww": 2796,
  "\u2581Recall": 2797,
  "\u2581basatu": 2798,
  "\u2581befundi": 2799,
  "\u2581kutatana": 2800,
  "\u2581kw\u012bfula": 2801,
  "\u2581myoloke": 2802,
  "\u2581riches": 2803,
  "\u2581sinful": 2804,
  "yukile": 2805,
  "\u2581assist": 2806,
  "\u2581kink\u016blwa": 2807,
  "\u2581kukomeja": 2808,
  "\u2581reasonable": 2809,
  "\u2581reject": 2810,
  "z": 2811,
  "\u2581Also": 2812,
  "\u2581Colossians": 2813,
  "\u2581Kine": 2814,
  "\u2581Nehemiah": 2815,
  "\u2581Note": 2816,
  "\u2581Philippians": 2817,
  "\u2581approval": 2818,
  "\u2581concerned": 2819,
  "\u2581household": 2820,
  "\u2581passed": 2821,
  "\u2581wait": 2822,
  "It": 2823,
  "\u2581Bil": 2824,
  "\u2581buninge": 2825,
  "\u2581consideration": 2826,
  "\u2581kukomena": 2827,
  "\u2581months": 2828,
  "\u2581points": 2829,
  "\u2581prophetic": 2830,
  "\u2581six": 2831,
  "\u2581students": 2832,
  "\u2581wenu": 2833,
  "no": 2834,
  "responsibilities": 2835,
  "\u2581Ruth": 2836,
  "\u2581bapolofeto": 2837,
  "\u2581companions": 2838,
  "\u2581cope": 2839,
  "\u2581danger": 2840,
  "\u2581encouraging": 2841,
  "\u2581listening": 2842,
  "Divilu": 2843,
  "shile": 2844,
  "\u258155": 2845,
  "\u2581Heb": 2846,
  "\u2581Think": 2847,
  "\u2581evident": 2848,
  "\u2581grateful": 2849,
  "\u2581invited": 2850,
  "\u2581lukindi": 2851,
  "\u2581luvula": 2852,
  "\u2581negative": 2853,
  "\u2581seeing": 2854,
  "\u2581umbumo": 2855,
  "\u2581About": 2856,
  "\u2581Ezekyele": 2857,
  "\u2581Govern": 2858,
  "\u2581dikatampe": 2859,
  "\u2581lumo": 2860,
  "\u2581relatives": 2861,
  "Kupituluka": 2862,
  "\u2581bimobimo": 2863,
  "\u2581byabinebine": 2864,
  "\u2581ikokeja": 2865,
  "AJE": 2866,
  "\u2581Asa": 2867,
  "\u2581Give": 2868,
  "\u2581bakimba": 2869,
  "\u2581hour": 2870,
  "\u2581lie": 2871,
  "\u2581simple": 2872,
  "\u2581tuyuke": 2873,
  "\u2581100": 2874,
  "\u2581books": 2875,
  "\u2581byotudi": 2876,
  "\u2581political": 2877,
  "\u2581principle": 2878,
  "\u2581realized": 2879,
  "\u2581suffered": 2880,
  "mi": 2881,
  "\u2581Musapudi": 2882,
  "\u2581Should": 2883,
  "\u2581bupangi": 2884,
  "\u2581discussed": 2885,
  "\u2581kushala": 2886,
  "\u2581musunsa": 2887,
  "\u2581noted": 2888,
  "\u2581praying": 2889,
  "\u2581zealous": 2890,
  "This": 2891,
  "We": 2892,
  "kwata\u00f1ene": 2893,
  "\u25811919": 2894,
  "\u2581Nsekununi": 2895,
  "\u2581assured": 2896,
  "\u2581binkumenkume": 2897,
  "\u2581experiences": 2898,
  "\u2581extent": 2899,
  "\u2581heartfelt": 2900,
  "\u2581limited": 2901,
  "\u2581mildness": 2902,
  "\u2581worked": 2903,
  "\u2581convinced": 2904,
  "\u2581enemy": 2905,
  "\u2581evening": 2906,
  "\u2581illustrate": 2907,
  "\u2581w\u0113ba": 2908,
  "shi": 2909,
  "\u2581Eden": 2910,
  "\u2581Ivwana": 2911,
  "\u2581Ngalatea": 2912,
  "\u2581Yoa": 2913,
  "\u2581break": 2914,
  "\u2581lessons": 2915,
  "\u2581measure": 2916,
  "\u2581mityetye": 2917,
  "\u2581understood": 2918,
  "\u2581uswele": 2919,
  "\u2581write": 2920,
  "Nk": 2921,
  "lu": 2922,
  "\u2581Mount": 2923,
  "\u2581Naomi": 2924,
  "\u2581event": 2925,
  "\u2581faithfully": 2926,
  "\u2581insight": 2927,
  "\u2581lukunwa": 2928,
  "\u2581mikenga": 2929,
  "\u2581teachers": 2930,
  "\u2581Ka": 2931,
  "\u2581Only": 2932,
  "\u2581caring": 2933,
  "\u2581deliver": 2934,
  "\u2581distress": 2935,
  "\u2581meditate": 2936,
  "\u2581opportunities": 2937,
  "\u2581pride": 2938,
  "\u2581spent": 2939,
  "\u2581wanene": 2940,
  "\u2581w\u0101so\u00f1enye": 2941,
  "\u00d1imbo": 2942,
  "\u2581agree": 2943,
  "\u2581balo\u00f1anga": 2944,
  "\u2581becomes": 2945,
  "\u2581enter": 2946,
  "\u2581husbands": 2947,
  "\u2581lw\u0101": 2948,
  "\u2581mwabo": 2949,
  "\u2581mwikale": 2950,
  "\u2581race": 2951,
  "\u2581rulership": 2952,
  "\u2581satisfaction": 2953,
  "\u2581term": 2954,
  "\u2581viewed": 2955,
  "\u2581Kipwilo": 2956,
  "\u2581Luta": 2957,
  "\u2581Prov": 2958,
  "\u2581kikomo": 2959,
  "\u2581minds": 2960,
  "\u2581nshi": 2961,
  "\u2581opened": 2962,
  "\u2581relief": 2963,
  "\u2581yampikwa": 2964,
  "Na": 2965,
  "\u2581English": 2966,
  "\u2581Rom": 2967,
  "\u2581Sam": 2968,
  "\u2581Soon": 2969,
  "\u2581baleke": 2970,
  "\u2581church": 2971,
  "\u2581darkness": 2972,
  "\u2581either": 2973,
  "\u2581job": 2974,
  "\u2581konakanibwa": 2975,
  "\u2581slaves": 2976,
  "\u2581w\u0101sapwidile": 2977,
  "se": 2978,
  "\u258116)": 2979,
  "\u2581Edena": 2980,
  "\u2581Esau": 2981,
  "\u2581answered": 2982,
  "\u2581articles": 2983,
  "\u2581decided": 2984,
  "\u2581dyobe": 2985,
  "\u2581harvest": 2986,
  "\u2581kumfulo": 2987,
  "\u2581lubanga": 2988,
  "\u2581politike": 2989,
  "\u2581wanena": 2990,
  "\u25817]": 2991,
  "\u2581Good": 2992,
  "\u2581Mit": 2993,
  "\u2581assigned": 2994,
  "\u2581assure": 2995,
  "\u2581ground": 2996,
  "\u2581kanwa": 2997,
  "\u2581kumwingidila": 2998,
  "\u2581munenena": 2999,
  "ile": 3000,
  "\u2581Rome": 3001,
  "\u2581lw\u0101di": 3002,
  "\u2581referred": 3003,
  "\u2581save": 3004,
  "\u2581sea": 3005,
  "\u2581J": 3006,
  "\u2581Kwi": 3007,
  "\u2581L\u016blu": 3008,
  "\u2581banenwe": 3009,
  "\u2581dealings": 3010,
  "\u2581direct": 3011,
  "\u2581idea": 3012,
  "\u2581million": 3013,
  "\u2581parts": 3014,
  "\u2581raise": 3015,
  "\u2581third": 3016,
  "Wivwane": 3017,
  "\u2581Badi": 3018,
  "\u2581benda": 3019,
  "\u2581careful": 3020,
  "\u2581garden": 3021,
  "\u2581m\u016bmi": 3022,
  "\u2581pattern": 3023,
  "ic": 3024,
  "ji": 3025,
  "\u2581II": 3026,
  "\u2581buk\u014dkek\u014dke": 3027,
  "\u2581convention": 3028,
  "\u2581kabumbo": 3029,
  "\u2581wakubulwa": 3030,
  "U": 3031,
  "an": 3032,
  "mpeja": 3033,
  "\u00b7": 3034,
  "\u2581Bifundija": 3035,
  "\u2581Imagine": 3036,
  "\u2581Kulonga": 3037,
  "\u2581Mafuku": 3038,
  "\u2581claim": 3039,
  "\u2581closely": 3040,
  "\u2581established": 3041,
  "\u2581kikokeja": 3042,
  "\u2581kilubo": 3043,
  "\u2581kukatampe": 3044,
  "\u2581kwisonga": 3045,
  "\u2581ludingo": 3046,
  "\u2581observed": 3047,
  "\u2581pleasure": 3048,
  "\u2581produce": 3049,
  "\u2581High": 3050,
  "\u2581remained": 3051,
  "\u2581ruler": 3052,
  "\u2581sight": 3053,
  "\u2581territory": 3054,
  "\u2581tuba": 3055,
  "\u2581Ezekiel": 3056,
  "\u2581anxiety": 3057,
  "\u2581kipango": 3058,
  "\u2581member": 3059,
  "\u2581motoka": 3060,
  "\u2581mupya": 3061,
  "\u2581play": 3062,
  "\u2581purposes": 3063,
  "\u2581statement": 3064,
  "\u2581umbi": 3065,
  "\u2581w\u0101nena": 3066,
  "fwena": 3067,
  "\u2581bamone": 3068,
  "\u2581batadi": 3069,
  "\u2581bayampe": 3070,
  "\u2581benu": 3071,
  "\u2581byaka": 3072,
  "\u2581drawn": 3073,
  "\u2581endeavor": 3074,
  "\u2581kusela": 3075,
  "\u2581tubandaulei": 3076,
  "Mosaic": 3077,
  "\u2581Armageddon": 3078,
  "\u2581Bengidi": 3079,
  "\u2581Kishima": 3080,
  "\u2581Kyendeji": 3081,
  "\u2581b\u0101twe": 3082,
  "\u2581demons": 3083,
  "\u2581fukutu": 3084,
  "\u2581maulu": 3085,
  "Is": 3086,
  "lombole": 3087,
  "\u2581Being": 3088,
  "\u2581Bya": 3089,
  "\u2581appear": 3090,
  "\u2581beloved": 3091,
  "\u2581continues": 3092,
  "\u2581kwimona": 3093,
  "\u2581malango": 3094,
  "Ke": 3095,
  "fikile": 3096,
  "shingwe": 3097,
  "\u2581Faith": 3098,
  "\u2581affected": 3099,
  "\u2581describes": 3100,
  "\u2581invitation": 3101,
  "\u2581likewise": 3102,
  "\u2581mit\u014dtelo": 3103,
  "\u2581potu": 3104,
  "\u2581tukekala": 3105,
  "\u2581ukalonga": 3106,
  "or": 3107,
  "\u258119)": 3108,
  "\u2581Answer": 3109,
  "\u2581Bah": 3110,
  "\u2581bujalale": 3111,
  "\u2581chose": 3112,
  "\u2581ditompo": 3113,
  "\u2581gifts": 3114,
  "\u2581makatampe": 3115,
  "\u2581namo": 3116,
  "\u2581outside": 3117,
  "\u2581outstanding": 3118,
  "Abe": 3119,
  "ja": 3120,
  "mbulwa": 3121,
  "\u2581Amba": 3122,
  "\u2581Learn": 3123,
  "\u2581Wadi": 3124,
  "\u2581bifwatulo": 3125,
  "\u2581kulumbulula": 3126,
  "\u2581leading": 3127,
  "\u2581mouth": 3128,
  "\u2581secular": 3129,
  "\u2581ukidi": 3130,
  "O": 3131,
  "je": 3132,
  "kidipo": 3133,
  "\u2581Bubi": 3134,
  "\u2581attack": 3135,
  "\u2581beba": 3136,
  "\u2581branch": 3137,
  "\u2581byobadi": 3138,
  "\u2581energy": 3139,
  "\u2581eternal": 3140,
  "\u2581judge": 3141,
  "\u2581kakatampe": 3142,
  "\u2581loss": 3143,
  "\u2581mwene": 3144,
  "\u2581sun": 3145,
  "\u2581washilula": 3146,
  "Ngal": 3147,
  "kweshe": 3148,
  "\u2581Amakedona": 3149,
  "\u2581States": 3150,
  "\u2581battle": 3151,
  "\u2581helpful": 3152,
  "\u2581kufwatakanya": 3153,
  "t\u016bla": 3154,
  "ually": 3155,
  "wi": 3156,
  "\u2581Body": 3157,
  "\u2581Christendom": 3158,
  "\u2581Kaka": 3159,
  "\u2581active": 3160,
  "\u2581basenswe": 3161,
  "\u2581b\u0101ikele": 3162,
  "\u2581entertainment": 3163,
  "\u2581indicated": 3164,
  "\u2581mwishile": 3165,
  "\u2581youth": 3166,
  "\u2581Dya": 3167,
  "\u2581Mobimwekela": 3168,
  "\u2581byami": 3169,
  "\u2581byotubwanya": 3170,
  "\u2581due": 3171,
  "\u2581inandi": 3172,
  "\u2581kuketukwasha": 3173,
  "\u2581kyenu": 3174,
  "\u2581wickedness": 3175,
  "\u2581workers": 3176,
  "When": 3177,
  "\u2581Bipwilo": 3178,
  "\u2581Umbikalo": 3179,
  "\u2581Wi": 3180,
  "\u2581bukila": 3181,
  "\u2581enkapo": 3182,
  "\u2581greatly": 3183,
  "\u2581instead": 3184,
  "\u2581kei": 3185,
  "\u2581kulamata": 3186,
  "\u2581kunanga": 3187,
  "\u2581mabwe": 3188,
  "\u2581mufwaninwe": 3189,
  "\u2581promote": 3190,
  "\u2581publishers": 3191,
  "\u2581refers": 3192,
  "\u2581spend": 3193,
  "\u2581traveling": 3194,
  "\u2581week": 3195,
  "pi": 3196,
  "\u2581Ask": 3197,
  "\u2581R": 3198,
  "\u2581foreign": 3199,
  "\u2581kupanda": 3200,
  "\u2581mbutwile": 3201,
  "\u2581muk\u014dko": 3202,
  "\u2581provisions": 3203,
  "\u2581strengthened": 3204,
  "\u2581wingidijanga": 3205,
  "\u2581Lot": 3206,
  "\u2581Lota": 3207,
  "\u2581Over": 3208,
  "\u2581identify": 3209,
  "\u2581killed": 3210,
  "\u2581utelelwe": 3211,
  "lombwelwe": 3212,
  "nda": 3213,
  "ushintuludi": 3214,
  "\u2581although": 3215,
  "\u2581attending": 3216,
  "\u2581butundaile": 3217,
  "\u2581goes": 3218,
  "\u2581heed": 3219,
  "\u2581immoral": 3220,
  "\u2581kilomboji": 3221,
  "\u2581kubutula": 3222,
  "\u2581kulekela": 3223,
  "\u2581mayampe": 3224,
  "\u2581usakilwa": 3225,
  "able": 3226,
  "mwekele": 3227,
  "p": 3228,
  "\u2581Pharaoh": 3229,
  "\u2581areas": 3230,
  "\u2581boy": 3231,
  "\u2581kyakanwa": 3232,
  "\u2581lukatampe": 3233,
  "\u2581prison": 3234,
  "\u2581utela": 3235,
  "\u2581yonsololo": 3236,
  "\u258149": 3237,
  "\u2581babutule": 3238,
  "\u2581growth": 3239,
  "\u2581kulengeja": 3240,
  "\u2581rely": 3241,
  "\u2581sick": 3242,
  "\u2581tender": 3243,
  "\u2581uleta": 3244,
  "\u2581Land": 3245,
  "\u2581animals": 3246,
  "\u2581bep\u0101ne": 3247,
  "\u2581lasting": 3248,
  "\u2581lies": 3249,
  "\u2581succeed": 3250,
  "\u2581talala": 3251,
  "\u2581widow": 3252,
  "\u2581\u00f1enyenye": 3253,
  "\u2581\"!": 3254,
  "\u2581expressions": 3255,
  "\u2581kibalwa": 3256,
  "\u2581kitulumukila": 3257,
  "\u2581makoji": 3258,
  "\u2581reveals": 3259,
  "\u2581sees": 3260,
  "\u2581w\u0101lombele": 3261,
  "bintu": 3262,
  "\u02b9": 3263,
  "\u2581Divilu": 3264,
  "\u2581York": 3265,
  "\u2581bafwile": 3266,
  "\u2581bisatu": 3267,
  "\u2581discern": 3268,
  "\u2581inheritance": 3269,
  "\u2581mityi": 3270,
  "\u2581morning": 3271,
  "\u2581seemed": 3272,
  "\u2581wisamba": 3273,
  "\u2581Brother": 3274,
  "\u2581Divita": 3275,
  "\u2581Under": 3276,
  "\u2581bademona": 3277,
  "\u2581dinena": 3278,
  "\u2581easily": 3279,
  "\u2581evidently": 3280,
  "\u2581involve": 3281,
  "\u2581kebu": 3282,
  "\u2581kwipaya": 3283,
  "\u2581miseke": 3284,
  "\u2581mishileshile": 3285,
  "\u2581sianse": 3286,
  "\u2581successful": 3287,
  "\u2581youths": 3288,
  "Pa": 3289,
  "\u2581Byotud": 3290,
  "\u2581Felo": 3291,
  "\u2581Mulao": 3292,
  "\u2581balonge": 3293,
  "\u2581carried": 3294,
  "\u2581conclude": 3295,
  "\u2581ense": 3296,
  "\u2581essential": 3297,
  "\u2581girl": 3298,
  "\u2581harm": 3299,
  "\u2581improve": 3300,
  "\u2581kungala": 3301,
  "\u2581kwija": 3302,
  "\u2581pass": 3303,
  "\u2581represent": 3304,
  "\u2581spread": 3305,
  "\u2581waiting": 3306,
  "\u2581willingly": 3307,
  "ould": 3308,
  "\u2581Deuteronomy": 3309,
  "\u2581Ma": 3310,
  "\u2581ayo": 3311,
  "\u2581bapela": 3312,
  "\u2581busunga": 3313,
  "\u2581drink": 3314,
  "\u2581feet": 3315,
  "\u2581indicate": 3316,
  "\u2581issues": 3317,
  "\u2581kumukwasha": 3318,
  "\u2581minister": 3319,
  "\u25812013": 3320,
  "\u2581bifundwa": 3321,
  "\u2581bubwaninine": 3322,
  "\u2581b\u0113": 3323,
  "\u2581commission": 3324,
  "\u2581contrary": 3325,
  "\u2581increase": 3326,
  "\u2581kibelo": 3327,
  "\u2581kidye": 3328,
  "\u2581kwami": 3329,
  "\u2581kyanga": 3330,
  "\u2581privileges": 3331,
  "\u2581p\u0101di": 3332,
  "\u2581rejected": 3333,
  "\u2581responsible": 3334,
  "\u2581sex": 3335,
  "\u2581unique": 3336,
  "\u258115]": 3337,
  "\u2581Habakuka": 3338,
  "\u2581army": 3339,
  "\u2581baku": 3340,
  "\u2581emotional": 3341,
  "\u2581kukanina": 3342,
  "\u2581mful\u014d": 3343,
  "\u2581translated": 3344,
  "T": 3345,
  "longele": 3346,
  "\u2581bilonda": 3347,
  "\u2581contains": 3348,
  "\u2581engage": 3349,
  "\u2581fearing": 3350,
  "\u2581honest": 3351,
  "\u2581immediately": 3352,
  "\u2581kokwa": 3353,
  "\u2581kona": 3354,
  "\u2581reality": 3355,
  "\u2581refused": 3356,
  "\u2581relates": 3357,
  "\u2581text": 3358,
  "\u2581vinyu": 3359,
  "Ba": 3360,
  "lamwinwe": 3361,
  "\u258120)": 3362,
  "\u258134.": 3363,
  "\u2581Spirit": 3364,
  "\u2581bangi": 3365,
  "\u2581butomboki": 3366,
  "\u2581byonka": 3367,
  "\u2581eye": 3368,
  "\u2581instruction": 3369,
  "\u2581kilokoloko": 3370,
  "\u2581primary": 3371,
  "\u2581teacher": 3372,
  "Jesus": 3373,
  "Messianic": 3374,
  "\u2581COVER": 3375,
  "\u2581Isa": 3376,
  "\u2581Kisaka": 3377,
  "\u2581Mukatakata": 3378,
  "\u2581War": 3379,
  "\u2581aspect": 3380,
  "\u2581basola": 3381,
  "\u2581bisa": 3382,
  "\u2581cut": 3383,
  "\u2581fututu": 3384,
  "\u2581ifwaninwe": 3385,
  "\u2581kutalula": 3386,
  "\u2581kwikuja": 3387,
  "Ino": 3388,
  "Musapudi": 3389,
  "\u2581(3)": 3390,
  "\u2581Kenani": 3391,
  "\u2581Likewise": 3392,
  "\u2581almo": 3393,
  "\u2581bisela": 3394,
  "\u2581byamwiko": 3395,
  "\u2581connection": 3396,
  "\u2581correct": 3397,
  "\u2581hours": 3398,
  "\u2581kobadi": 3399,
  "\u2581kunyema": 3400,
  "\u2581occur": 3401,
  "\u2581overseer": 3402,
  "\u2581refuge": 3403,
  "\u2581studies": 3404,
  "\u258122)": 3405,
  "\u2581Enoch": 3406,
  "\u2581Habakkuk": 3407,
  "\u2581applying": 3408,
  "\u2581countries": 3409,
  "\u2581kumupa": 3410,
  "\u2581kya\u0101di": 3411,
  "\u2581presented": 3412,
  "\u2581rebellion": 3413,
  "\u2581requirements": 3414,
  "\u2581resolve": 3415,
  "\u2581society": 3416,
  "\u2581Hav": 3417,
  "\u2581Sovereign": 3418,
  "\u2581advantage": 3419,
  "\u2581conversation": 3420,
  "\u2581cover": 3421,
  "\u2581dealing": 3422,
  "\u2581declare": 3423,
  "\u2581directed": 3424,
  "\u2581half": 3425,
  "\u2581injustice": 3426,
  "\u2581kupanga": 3427,
  "\u2581misapu": 3428,
  "\u2581mituntulu": 3429,
  "\u2581relative": 3430,
  "\u2581\u00f1imbo": 3431,
  "\u258110]": 3432,
  "\u2581bafundiji": 3433,
  "\u2581bingelengele": 3434,
  "\u2581byotusa": 3435,
  "\u2581cares": 3436,
  "\u2581instructions": 3437,
  "\u2581kubikala": 3438,
  "\u2581kwendela": 3439,
  "\u2581kwipangula": 3440,
  "\u2581mukaja": 3441,
  "\u2581mukate": 3442,
  "\u2581mununu": 3443,
  "\u2581pour": 3444,
  "\u2581receiving": 3445,
  "\u2581saved": 3446,
  "mutyima": 3447,
  "senswe": 3448,
  "\u258121)": 3449,
  "\u2581Cain": 3450,
  "\u2581Falanse": 3451,
  "\u2581H": 3452,
  "\u2581bapania": 3453,
  "\u2581bapwani": 3454,
  "\u2581botuswele": 3455,
  "\u2581built": 3456,
  "\u2581faithfulness": 3457,
  "\u2581kisa": 3458,
  "\u2581notice": 3459,
  "\u2581powers": 3460,
  "\u2581trial": 3461,
  "\u2581values": 3462,
  "pelwe": 3463,
  "\u258122,": 3464,
  "\u258144.": 3465,
  "\u2581Ecclesiastes": 3466,
  "\u2581IN": 3467,
  "\u2581Mupolofeto": 3468,
  "\u2581Nsangaji": 3469,
  "\u2581Well": 3470,
  "\u2581bekadi": 3471,
  "\u2581inside": 3472,
  "\u2581keki": 3473,
  "\u2581office": 3474,
  "\u2581shepherds": 3475,
  "pu": 3476,
  "p\u0101na": 3477,
  "\u2581Dilobe": 3478,
  "\u2581Enoke": 3479,
  "\u2581Isake": 3480,
  "\u2581Zechariah": 3481,
  "\u2581arrived": 3482,
  "\u2581babitobo": 3483,
  "\u2581communication": 3484,
  "\u2581groups": 3485,
  "\u2581imbajinji": 3486,
  "\u2581literature": 3487,
  "\u2581mwanetu": 3488,
  "\u2581search": 3489,
  "\u2581united": 3490,
  "\u2581Promised": 3491,
  "\u2581arise": 3492,
  "\u2581beneficial": 3493,
  "\u2581determination": 3494,
  "\u2581hearing": 3495,
  "\u2581kit\u014dkeji": 3496,
  "\u2581kuyampe": 3497,
  "\u2581kwita": 3498,
  "\u2581mature": 3499,
  "Ami": 3500,
  "kwete": 3501,
  "umpika": 3502,
  "us": 3503,
  "\u2581Abe": 3504,
  "\u2581Kod": 3505,
  "\u2581Masomo": 3506,
  "\u2581bamona": 3507,
  "\u2581bemvwaniki": 3508,
  "\u2581eating": 3509,
  "\u2581kitala": 3510,
  "\u2581kutalala": 3511,
  "\u2581lot": 3512,
  "\u2581lwami": 3513,
  "\u2581madiulu": 3514,
  "\u2581mavese": 3515,
  "\u2581road": 3516,
  "\u2581w\u0101dyumwine": 3517,
  "j": 3518,
  "letele": 3519,
  "lwanga": 3520,
  "\u258190": 3521,
  "\u2581B\u0101": 3522,
  "\u2581Entelenete": 3523,
  "\u2581Translation": 3524,
  "\u2581applied": 3525,
  "\u2581decades": 3526,
  "\u2581differ": 3527,
  "\u2581kipite": 3528,
  "\u2581peoples": 3529,
  "\u2581responded": 3530,
  "\u2581speaks": 3531,
  "\u2581wealth": 3532,
  "ive": 3533,
  "\u2581MB": 3534,
  "\u2581Pentecost": 3535,
  "\u2581Tutanga": 3536,
  "\u2581Young": 3537,
  "\u2581bekalanga": 3538,
  "\u2581comments": 3539,
  "\u2581decide": 3540,
  "\u2581kulupula": 3541,
  "\u2581kuvwala": 3542,
  "\u2581nkunwa": 3543,
  "\u2581refer": 3544,
  "\u2581sword": 3545,
  "\u2581weak": 3546,
  "\u2581wish": 3547,
  "ve": 3548,
  "\u2581Galatians": 3549,
  "\u2581Kena": 3550,
  "\u2581MWANDA": 3551,
  "\u2581Malaki": 3552,
  "\u2581acted": 3553,
  "\u2581bond": 3554,
  "\u2581committed": 3555,
  "\u2581deliverance": 3556,
  "\u2581eight": 3557,
  "\u2581hurt": 3558,
  "\u2581missionary": 3559,
  "\u2581mountain": 3560,
  "\u2581mpiko": 3561,
  "\u2581myeji": 3562,
  "\u2581setting": 3563,
  "\u2581tulame": 3564,
  "\u2581wabijila": 3565,
  "\u258123]": 3566,
  "\u2581Aaron": 3567,
  "\u2581Befundi": 3568,
  "\u2581Byo": 3569,
  "\u2581Hezekia": 3570,
  "\u2581Kishinte": 3571,
  "\u2581Zekadia": 3572,
  "\u2581delivered": 3573,
  "\u2581freely": 3574,
  "\u2581inena": 3575,
  "\u2581meal": 3576,
  "\u2581ngidi": 3577,
  "\u2581performed": 3578,
  "\u2581report": 3579,
  "\u2581survive": 3580,
  "\u2581type": 3581,
  "\u2581warm": 3582,
  "mong": 3583,
  "tengele": 3584,
  "\u2581Ano": 3585,
  "\u2581Exodus": 3586,
  "\u2581Help": 3587,
  "\u2581Kekudipo": 3588,
  "\u2581constantly": 3589,
  "\u2581determine": 3590,
  "\u2581drinking": 3591,
  "\u2581finally": 3592,
  "\u2581joyful": 3593,
  "\u2581kasha": 3594,
  "\u2581magazine": 3595,
  "\u2581mighty": 3596,
  "\u2581mutuntulu": 3597,
  "\u2581mwita": 3598,
  "\u2581nsaa": 3599,
  "\u2581nshintulwilo": 3600,
  "\u2581nsongwakaji": 3601,
  "\u2581parable": 3602,
  "\u2581umonanga": 3603,
  "kwata": 3604,
  "telele": 3605,
  "\u258118]": 3606,
  "\u2581Hezekiah": 3607,
  "\u2581Kuyuka": 3608,
  "\u2581adds": 3609,
  "\u2581appeared": 3610,
  "\u2581ark": 3611,
  "\u2581bakidi": 3612,
  "\u2581bingidilwa": 3613,
  "\u2581business": 3614,
  "\u2581busy": 3615,
  "\u2581bute": 3616,
  "\u2581grasp": 3617,
  "\u2581kusambakena": 3618,
  "\u2581mutuputupu": 3619,
  "\u2581pioneers": 3620,
  "\u2581superior": 3621,
  "\u2581train": 3622,
  "\u2581trained": 3623,
  "\u2581w\u0101lembele": 3624,
  "Keep": 3625,
  "nadi": 3626,
  "\u2581BYA": 3627,
  "\u2581Rev": 3628,
  "\u2581await": 3629,
  "\u2581bonakani": 3630,
  "\u2581invisible": 3631,
  "\u2581kanena": 3632,
  "\u2581mutadi": 3633,
  "\u2581mwetu": 3634,
  "\u2581pleased": 3635,
  "\u2581recent": 3636,
  "\u2581unenwe": 3637,
  "\u2581witnessing": 3638,
  "\u2581\u0101ya": 3639,
  "Le": 3640,
  "ether": 3641,
  "sapwila": 3642,
  "\u258139.": 3643,
  "\u2581Amos": 3644,
  "\u2581Shintulula": 3645,
  "\u2581contact": 3646,
  "\u2581entered": 3647,
  "\u2581impolo": 3648,
  "\u2581late": 3649,
  "\u2581looked": 3650,
  "\u2581mistakes": 3651,
  "\u2581thousand": 3652,
  "\u2581ukamona": 3653,
  "\u2581yonka": 3654,
  "en": 3655,
  "great": 3656,
  "\u258123)": 3657,
  "\u25815]": 3658,
  "\u2581Afrika": 3659,
  "\u2581Amose": 3660,
  "\u2581Bupolofeto": 3661,
  "\u2581Make": 3662,
  "\u2581Wh": 3663,
  "\u2581aid": 3664,
  "\u2581aside": 3665,
  "\u2581bamonanga": 3666,
  "\u2581bapya": 3667,
  "\u2581bilupuka": 3668,
  "\u2581busengi": 3669,
  "\u2581kiba": 3670,
  "\u2581kindly": 3671,
  "\u2581kufwila": 3672,
  "\u2581major": 3673,
  "\u2581musapudi": 3674,
  "\u2581patient": 3675,
  "\u2581spirituality": 3676,
  "\u2581witulombola": 3677,
  "What": 3678,
  "\u2581BA": 3679,
  "\u2581Kulondolola": 3680,
  "\u2581Milombelo": 3681,
  "\u2581Mwa": 3682,
  "\u2581Samadia": 3683,
  "\u2581bakik\u014dkeji": 3684,
  "\u2581banuke": 3685,
  "\u2581challenging": 3686,
  "\u2581kupona": 3687,
  "\u2581musambo": 3688,
  "\u2581nsongwalume": 3689,
  "\u2581oba": 3690,
  "\u2581reminders": 3691,
  "\u2581ruling": 3692,
  "\u2581views": 3693,
  "LELO": 3694,
  "he": 3695,
  "jw": 3696,
  "kwi": 3697,
  "on": 3698,
  "\u258121,": 3699,
  "\u258166": 3700,
  "\u2581Israelite": 3701,
  "\u2581Take": 3702,
  "\u2581banenanga": 3703,
  "\u2581considering": 3704,
  "\u2581esambila": 3705,
  "\u2581kyoba": 3706,
  "\u2581legal": 3707,
  "\u2581pabo": 3708,
  "\u2581throne": 3709,
  "\u2581tulo": 3710,
  "\u2581worth": 3711,
  "My": 3712,
  "\u2581Langulukila": 3713,
  "\u2581assurance": 3714,
  "\u2581bak\u014dkele": 3715,
  "\u2581begotten": 3716,
  "\u2581bivwalwa": 3717,
  "\u2581dy\u0101": 3718,
  "\u2581escape": 3719,
  "\u2581kisanso": 3720,
  "\u2581kubadilwa": 3721,
  "\u2581perform": 3722,
  "\u2581selfish": 3723,
  "\u2581telling": 3724,
  "\u2581verses": 3725,
  "\u2581walwana": 3726,
  "\u2581wedding": 3727,
  "budilwepo": 3728,
  "\u2581Alone": 3729,
  "\u2581Am": 3730,
  "\u2581Christianity": 3731,
  "\u2581KU": 3732,
  "\u2581Pentekosa": 3733,
  "\u2581associated": 3734,
  "\u2581basa": 3735,
  "\u2581comforting": 3736,
  "\u2581forces": 3737,
  "\u2581main": 3738,
  "\u2581majina": 3739,
  "\u2581provision": 3740,
  "\u2581wilderness": 3741,
  "\u2581witnesses": 3742,
  "Yelemia": 3743,
  "one": 3744,
  "\u2581afraid": 3745,
  "\u2581baswe": 3746,
  "\u2581cities": 3747,
  "\u2581gods": 3748,
  "\u2581kifungo": 3749,
  "\u2581motivate": 3750,
  "\u2581seriously": 3751,
  "\u2581tears": 3752,
  "All": 3753,
  "adi": 3754,
  "\u2581Abel": 3755,
  "\u2581Kunena": 3756,
  "\u2581Sad": 3757,
  "\u2581Usa": 3758,
  "\u2581WHAT": 3759,
  "\u2581Waka": 3760,
  "\u2581Ye": 3761,
  "\u2581factors": 3762,
  "\u2581glorious": 3763,
  "\u2581homes": 3764,
  "\u2581kill": 3765,
  "\u2581kilomba": 3766,
  "\u2581motudi": 3767,
  "\u2581persecuted": 3768,
  "\u2581treated": 3769,
  "\u2581ungi": 3770,
  "ns": 3771,
  "pe": 3772,
  "\u2581Kus": 3773,
  "\u2581Parents": 3774,
  "\u2581Version": 3775,
  "\u2581bakumbi": 3776,
  "\u2581daughters": 3777,
  "\u2581descendants": 3778,
  "\u2581disubi": 3779,
  "\u2581eyo": 3780,
  "\u2581monso": 3781,
  "\u2581mulongo": 3782,
  "\u2581ngulu": 3783,
  "\u2581send": 3784,
  "\u2581sinners": 3785,
  "Mwanda": 3786,
  "bantu": 3787,
  "kidi": 3788,
  "quite": 3789,
  "\u258151": 3790,
  "\u2581Her": 3791,
  "\u2581Twi": 3792,
  "\u2581adultery": 3793,
  "\u2581kishala": 3794,
  "\u2581w\u0113sambile": 3795,
  "lenga": 3796,
  "\u2581Gospel": 3797,
  "\u2581NA": 3798,
  "\u2581YEHOVA": 3799,
  "\u2581accomplished": 3800,
  "\u2581amount": 3801,
  "\u2581box": 3802,
  "\u2581courageous": 3803,
  "\u2581focused": 3804,
  "\u2581gathered": 3805,
  "\u2581mene": 3806,
  "\u2581opposers": 3807,
  "\u2581treasure": 3808,
  "\u2581worshipers": 3809,
  "as": 3810,
  "is": 3811,
  "\u25811914.": 3812,
  "\u25819]": 3813,
  "\u2581believed": 3814,
  "\u2581bengidila": 3815,
  "\u2581bununu": 3816,
  "\u2581cases": 3817,
  "\u2581corrupt": 3818,
  "\u2581dangerous": 3819,
  "\u2581kutulumukapo": 3820,
  "\u2581mboloji": 3821,
  "\u2581milomo": 3822,
  "\u2581neighbors": 3823,
  "\u2581path": 3824,
  "\u2581providing": 3825,
  "\u2581strengthening": 3826,
  "ivwene": 3827,
  "\u2581Malachi": 3828,
  "\u2581appeal": 3829,
  "\u2581bufwaninwe": 3830,
  "\u2581indicates": 3831,
  "\u2581kipangila": 3832,
  "\u2581paragraph": 3833,
  "re": 3834,
  "shidile": 3835,
  "\u2581Abele": 3836,
  "\u2581Kutentekela": 3837,
  "\u2581Second": 3838,
  "\u2581belong": 3839,
  "\u2581expected": 3840,
  "\u2581kwendeja": 3841,
  "\u2581lundyo": 3842,
  "\u2581ulo\u00f1anga": 3843,
  "\u2581w\u0101yukile": 3844,
  "and": 3845,
  "fikije": 3846,
  "nenwe": 3847,
  "\u2581School": 3848,
  "\u2581Thessalonians": 3849,
  "\u2581awake": 3850,
  "\u2581describe": 3851,
  "\u2581indefinite": 3852,
  "\u2581inhabitants": 3853,
  "\u2581kyotufwaninwe": 3854,
  "\u2581matyetye": 3855,
  "\u2581pambulwa": 3856,
  "\u2581social": 3857,
  "\u2581uke": 3858,
  "\u2581um": 3859,
  "\u2581younger": 3860,
  "ought": 3861,
  "pityile": 3862,
  "\u2581Family": 3863,
  "\u2581demonstrated": 3864,
  "\u2581details": 3865,
  "\u2581didi": 3866,
  "\u2581diso": 3867,
  "\u2581humbly": 3868,
  "\u2581kufundula": 3869,
  "\u2581nki": 3870,
  "\u2581placed": 3871,
  "\u2581preced": 3872,
  "\u2581remains": 3873,
  "\u2581scriptures": 3874,
  "\u2581sinned": 3875,
  "\u2581witu": 3876,
  "Ku": 3877,
  "There": 3878,
  "dile": 3879,
  "\u2581Him": 3880,
  "\u2581developed": 3881,
  "\u2581difference": 3882,
  "\u2581discussion": 3883,
  "\u2581figurative": 3884,
  "\u2581fleshly": 3885,
  "\u2581gratitude": 3886,
  "\u2581grew": 3887,
  "\u2581kulongeka": 3888,
  "\u2581leads": 3889,
  "\u2581music": 3890,
  "\u2581owa": 3891,
  "\u2581qualified": 3892,
  "\u2581repentant": 3893,
  "Div": 3894,
  "pwile": 3895,
  "su": 3896,
  "\u258153": 3897,
  "\u2581Pashika": 3898,
  "\u2581bwenu": 3899,
  "\u2581exist": 3900,
  "\u2581kalunga": 3901,
  "\u2581kupya": 3902,
  "\u2581kwabila": 3903,
  "\u2581mwikadila": 3904,
  "\u2581occurred": 3905,
  "\u2581recognized": 3906,
  "\u2581reports": 3907,
  "Ne": 3908,
  "\u258117]": 3909,
  "\u258137.": 3910,
  "\u2581illustrations": 3911,
  "\u2581inhabited": 3912,
  "\u2581kwimwena": 3913,
  "\u2581k\u016bbaka": 3914,
  "\u2581lovingly": 3915,
  "\u2581merciful": 3916,
  "\u2581month": 3917,
  "\u2581mwandapo": 3918,
  "\u2581pandi": 3919,
  "\u2581reference": 3920,
  "\u2581sh\u0113": 3921,
  "\u2581twendelele": 3922,
  "\u2581Alemanye": 3923,
  "\u2581Busapudi": 3924,
  "\u2581Nk": 3925,
  "\u2581admonition": 3926,
  "\u2581balanga": 3927,
  "\u2581chapters": 3928,
  "\u2581granted": 3929,
  "\u2581ideas": 3930,
  "\u2581keb": 3931,
  "\u2581ketudipo": 3932,
  "\u2581kusenga": 3933,
  "\u2581mwanuke": 3934,
  "\u2581nsaka": 3935,
  "\u2581pursuing": 3936,
  "\u2581quoted": 3937,
  "\u2581rulers": 3938,
  "\u2581separate": 3939,
  "\u2581stake": 3940,
  "pwa": 3941,
  "swele": 3942,
  "\u2581Catholic": 3943,
  "\u2581Kupityila": 3944,
  "\u2581Mut\u014dto": 3945,
  "\u2581bukokeja": 3946,
  "\u2581by\u0101longekele": 3947,
  "\u2581grief": 3948,
  "\u2581kano": 3949,
  "\u2581keb\u0101": 3950,
  "\u2581kupityija": 3951,
  "\u2581kutompa": 3952,
  "\u2581satisfying": 3953,
  "\u2581ubamone": 3954,
  "\u2581ubweja": 3955,
  "\u2581wabinebine": 3956,
  "\u2581worthy": 3957,
  "nya": 3958,
  "ty": 3959,
  "\u2581Awake": 3960,
  "\u2581Never": 3961,
  "\u2581Surely": 3962,
  "\u2581batengele": 3963,
  "\u2581kizaji": 3964,
  "\u2581kudila": 3965,
  "\u2581musaka": 3966,
  "\u2581reflected": 3967,
  "\u2581viewpoint": 3968,
  "\u2581w\u0101shilwile": 3969,
  "\u2581Bulaya": 3970,
  "\u2581Flood": 3971,
  "\u2581YOU": 3972,
  "\u2581babela": 3973,
  "\u2581bifwa": 3974,
  "\u2581but\u016bkanye": 3975,
  "\u2581conviction": 3976,
  "\u2581discouraged": 3977,
  "\u2581extend": 3978,
  "\u2581facts": 3979,
  "\u2581front": 3980,
  "\u2581kulela": 3981,
  "\u2581leza": 3982,
  "\u2581musala": 3983,
  "\u2581organized": 3984,
  "\u2581potudi": 3985,
  "\u2581program": 3986,
  "\u2581re": 3987,
  "\u2581remarkable": 3988,
  "\u2581tusakanga": 3989,
  "\u2581writer": 3990,
  "\u2581w\u0101itabije": 3991,
  "\u2581yes": 3992,
  "tamije": 3993,
  "wikalanga": 3994,
  "\u258124)": 3995,
  "\u2581Once": 3996,
  "\u2581Yudea": 3997,
  "\u2581asatu": 3998,
  "\u2581bushinda\u00f1ani": 3999,
  "\u2581chief": 4000,
  "\u2581choices": 4001,
  "\u2581exert": 4002,
  "\u2581global": 4003,
  "\u2581governments": 4004,
  "\u2581listened": 4005,
  "\u2581l\u016blu": 4006,
  "\u2581mild": 4007,
  "\u2581nenki": 4008,
  "\u258136.": 4009,
  "\u2581attended": 4010,
  "\u2581basakanga": 4011,
  "\u2581calling": 4012,
  "\u2581k\u012bkalo": 4013,
  "\u2581produced": 4014,
  "\u2581reminded": 4015,
  "\u2581render": 4016,
  "\u2581tukalonga": 4017,
  "\u2581wiba": 4018,
  "\u2581wingilanga": 4019,
  "\u2581Edisha": 4020,
  "\u2581KIBALU": 4021,
  "\u2581Udi": 4022,
  "\u2581blind": 4023,
  "\u2581concerns": 4024,
  "\u2581corruption": 4025,
  "\u2581count": 4026,
  "\u2581cry": 4027,
  "\u2581dear": 4028,
  "\u2581kikekala": 4029,
  "\u2581lonka": 4030,
  "\u2581mukajandi": 4031,
  "\u2581proud": 4032,
  "\u2581remaining": 4033,
  "\u2581secret": 4034,
  "\u2581vast": 4035,
  "\u258116]": 4036,
  "\u2581assistance": 4037,
  "\u2581authorities": 4038,
  "\u2581betyepeje": 4039,
  "\u2581easier": 4040,
  "\u2581kunyemena": 4041,
  "\u2581kwikale": 4042,
  "\u2581misungi": 4043,
  "\u2581mvula": 4044,
  "\u2581stick": 4045,
  "\u2581upright": 4046,
  "\u2581vous": 4047,
  "\u2581yeu": 4048,
  "\u2581G": 4049,
  "\u2581abundance": 4050,
  "\u2581allows": 4051,
  "\u2581baswele": 4052,
  "\u2581batele": 4053,
  "\u2581bwadi": 4054,
  "\u2581kubi": 4055,
  "\u2581kwalamuna": 4056,
  "\u2581lay": 4057,
  "\u2581lulombelo": 4058,
  "\u2581marvelous": 4059,
  "\u2581model": 4060,
  "\u2581mutyika": 4061,
  "\u2581shabo": 4062,
  "\u2581talking": 4063,
  "\u2581Elisha": 4064,
  "\u2581Passover": 4065,
  "\u2581abundant": 4066,
  "\u2581aleke": 4067,
  "\u2581apart": 4068,
  "\u2581bakomo": 4069,
  "\u2581bileta": 4070,
  "\u2581bilongeka": 4071,
  "\u2581carrying": 4072,
  "\u2581feels": 4073,
  "\u2581forgiving": 4074,
  "\u2581generation": 4075,
  "\u2581growing": 4076,
  "\u2581imbikalo": 4077,
  "\u2581kivule": 4078,
  "\u2581kwimanina": 4079,
  "\u2581lying": 4080,
  "\u2581peaceful": 4081,
  "\u2581ruin": 4082,
  "\u2581significant": 4083,
  "\u2581w\u0101fundije": 4084,
  "fi": 4085,
  "\u2581Bimweka": 4086,
  "\u2581Twa": 4087,
  "\u2581bupania": 4088,
  "\u2581bwalamuni": 4089,
  "\u2581fell": 4090,
  "\u2581kinongo": 4091,
  "\u2581kutumbija": 4092,
  "\u2581k\u012bpi": 4093,
  "\u2581listeners": 4094,
  "\u2581mitwe": 4095,
  "\u2581repentance": 4096,
  "\u2581successfully": 4097,
  "\u2581tata": 4098,
  "\u2581tribe": 4099,
  "mwena": 4100,
  "sonekelwe": 4101,
  "\u2581Angele": 4102,
  "\u2581Bankasampe": 4103,
  "\u2581Kings": 4104,
  "\u2581Look": 4105,
  "\u2581[\"": 4106,
  "\u2581appearance": 4107,
  "\u2581bafu": 4108,
  "\u2581belongs": 4109,
  "\u2581don": 4110,
  "\u2581dwelling": 4111,
  "\u2581forms": 4112,
  "\u2581gone": 4113,
  "\u2581kwipaibwa": 4114,
  "\u2581miles": 4115,
  "\u2581moves": 4116,
  "\u2581names": 4117,
  "\u2581reaction": 4118,
  "letanga": 4119,
  "\u2581Answered": 4120,
  "\u2581Doing": 4121,
  "\u2581Leka": 4122,
  "\u2581behavior": 4123,
  "\u2581bwikale": 4124,
  "\u2581exercising": 4125,
  "\u2581god": 4126,
  "\u2581kudyumuka": 4127,
  "\u2581kuteakanya": 4128,
  "\u2581kwilwa": 4129,
  "\u2581normal": 4130,
  "\u2581ny\u0101": 4131,
  "\u2581outcome": 4132,
  "\u2581remnant": 4133,
  "\u2581sought": 4134,
  "\u2581struggle": 4135,
  "\u2581ungodly": 4136,
  "\u2581wa\u0101di": 4137,
  "\u2581wikele": 4138,
  "\u2581writing": 4139,
  "\u2581w\u0101pelwe": 4140,
  "\u2581\u012b": 4141,
  "ikala": 4142,
  "tanga": 4143,
  "\u2581Nyeke": 4144,
  "\u2581PAGE": 4145,
  "\u2581Pharisees": 4146,
  "\u2581compared": 4147,
  "\u2581inner": 4148,
  "\u2581mwangulo": 4149,
  "\u2581mwisambo": 4150,
  "\u2581poverty": 4151,
  "\u2581reasoning": 4152,
  "\u2581sang": 4153,
  "tala": 4154,
  "\u2581Almighty": 4155,
  "\u2581Draw": 4156,
  "\u2581JEHOVAH": 4157,
  "\u2581Notice": 4158,
  "\u2581big": 4159,
  "\u2581bwimanine": 4160,
  "\u2581dipepala": 4161,
  "\u2581kusonga": 4162,
  "\u2581lubatyijo": 4163,
  "\u2581mukao": 4164,
  "\u2581patiently": 4165,
  "\u2581twaji": 4166,
  "\u2581ufundija": 4167,
  "\u2581Abalama": 4168,
  "\u2581Abram": 4169,
  "\u2581Ngikadilo": 4170,
  "\u2581OF": 4171,
  "\u2581acknowledge": 4172,
  "\u2581biba": 4173,
  "\u2581busamba": 4174,
  "\u2581critical": 4175,
  "\u2581dyami": 4176,
  "\u2581kebafwaninwepo": 4177,
  "\u2581koba": 4178,
  "\u2581lupata": 4179,
  "\u2581minjiki": 4180,
  "\u2581mpeta": 4181,
  "\u2581pointed": 4182,
  "\u2581reached": 4183,
  "\u2581relations": 4184,
  "\u2581rise": 4185,
  "\u2581tumone": 4186,
  "Levi": 4187,
  "batanwa": 4188,
  "\u2581145": 4189,
  "\u2581Both": 4190,
  "\u2581Dijina": 4191,
  "\u2581Katolika": 4192,
  "\u2581Panopano": 4193,
  "\u2581akyo": 4194,
  "\u2581attempt": 4195,
  "\u2581bubajinji": 4196,
  "\u2581conventions": 4197,
  "\u2581dignity": 4198,
  "\u2581kapango": 4199,
  "\u2581kasusu": 4200,
  "\u2581kumwekeja": 4201,
  "\u2581kwilama": 4202,
  "\u2581midst": 4203,
  "\u2581muno": 4204,
  "\u2581musango": 4205,
  "\u2581review": 4206,
  "\u2581run": 4207,
  "\u2581tusepo": 4208,
  "\u2581walonga": 4209,
  "Banwe": 4210,
  "komeje": 4211,
  "mik\u014dko": 4212,
  "ngile": 4213,
  "\u2581Illustrate": 4214,
  "\u2581Kapango": 4215,
  "\u2581Ponka": 4216,
  "\u2581appears": 4217,
  "\u2581bake": 4218,
  "\u2581causes": 4219,
  "\u2581firmly": 4220,
  "\u2581kifunkila": 4221,
  "\u2581kulekelwa": 4222,
  "\u2581kulwila": 4223,
  "\u2581kupandija": 4224,
  "\u2581kusansanya": 4225,
  "\u2581lowly": 4226,
  "\u2581midiyala": 4227,
  "\u2581slow": 4228,
  "\u2581thank": 4229,
  "\u2581umweka": 4230,
  "\u2581wide": 4231,
  "Danyele": 4232,
  "Look": 4233,
  "\u2581Book": 4234,
  "\u2581Children": 4235,
  "\u2581bupya": 4236,
  "\u2581bwanuke": 4237,
  "\u2581dwell": 4238,
  "\u2581habits": 4239,
  "\u2581hatred": 4240,
  "\u2581identity": 4241,
  "\u2581kibengo": 4242,
  "\u2581kitu": 4243,
  "\u2581l\u016bbako": 4244,
  "\u2581meaningful": 4245,
  "\u2581miracles": 4246,
  "\u2581persons": 4247,
  "\u2581process": 4248,
  "\u2581remove": 4249,
  "bulwepo": 4250,
  "so": 4251,
  "will": 4252,
  "\u258124,": 4253,
  "\u258138.": 4254,
  "\u2581Has": 4255,
  "\u2581Know": 4256,
  "\u2581armies": 4257,
  "\u2581bakatampe": 4258,
  "\u2581bankishi": 4259,
  "\u2581exists": 4260,
  "\u2581glorify": 4261,
  "\u2581grown": 4262,
  "\u2581kabwanyapo": 4263,
  "\u2581kufwaninwe": 4264,
  "\u2581kumonwa": 4265,
  "\u2581kunyongololwa": 4266,
  "\u2581kwibalombola": 4267,
  "\u2581lolo": 4268,
  "\u2581maboko": 4269,
  "\u2581ministers": 4270,
  "\u2581obeying": 4271,
  "\u2581occasions": 4272,
  "\u2581reaching": 4273,
  "\u2581union": 4274,
  "\u2581w\u0101mu": 4275,
  "other": 4276,
  "telelwe": 4277,
  "\u258123,": 4278,
  "\u25816]": 4279,
  "\u2581abandon": 4280,
  "\u2581advance": 4281,
  "\u2581animal": 4282,
  "\u2581bimpengele": 4283,
  "\u2581brief": 4284,
  "\u2581byotu": 4285,
  "\u2581fast": 4286,
  "\u2581handle": 4287,
  "\u2581illness": 4288,
  "\u2581journey": 4289,
  "\u2581lupona": 4290,
  "\u2581moving": 4291,
  "\u2581mutaka": 4292,
  "\u2581sake": 4293,
  "\u2581shed": 4294,
  "\u2581sleep": 4295,
  "\u2581tempted": 4296,
  "\u2581umbuo": 4297,
  "keep": 4298,
  "kibumbo": 4299,
  "pleasing": 4300,
  "shilula": 4301,
  "tana": 4302,
  "\u258142.": 4303,
  "\u2581Russell": 4304,
  "\u2581anxious": 4305,
  "\u2581background": 4306,
  "\u2581belief": 4307,
  "\u2581bitamba": 4308,
  "\u2581b\u012bne": 4309,
  "\u2581designed": 4310,
  "\u2581eager": 4311,
  "\u2581invite": 4312,
  "\u2581kusakilwa": 4313,
  "\u2581marry": 4314,
  "\u2581possession": 4315,
  "\u2581pressures": 4316,
  "\u2581touched": 4317,
  "ers": 4318,
  "lekele": 4319,
  "longela": 4320,
  "lwile": 4321,
  "\u258131]": 4322,
  "\u258161": 4323,
  "\u2581Bafadiseo": 4324,
  "\u2581abilities": 4325,
  "\u2581abyo": 4326,
  "\u2581balembi": 4327,
  "\u2581baleza": 4328,
  "\u2581bivulujo": 4329,
  "\u2581circuit": 4330,
  "\u2581endured": 4331,
  "\u2581formed": 4332,
  "\u2581inclined": 4333,
  "\u2581kubungakana": 4334,
  "\u2581kufunda": 4335,
  "\u2581kukinga": 4336,
  "\u2581kul\u0101la": 4337,
  "\u2581matwi": 4338,
  "\u2581mwitupe": 4339,
  "\u2581ndalama": 4340,
  "\u2581refuse": 4341,
  "\u2581ulonda": 4342,
  "\u2581\u00f1ano": 4343,
  "myanda": 4344,
  "\u2581Here": 4345,
  "\u2581apparently": 4346,
  "\u2581bamu": 4347,
  "\u2581benefited": 4348,
  "\u2581butapani": 4349,
  "\u2581b\u0101longele": 4350,
  "\u2581itamba": 4351,
  "\u2581nsahabu": 4352,
  "\u2581referring": 4353,
  "\u2581rendered": 4354,
  "\u2581require": 4355,
  "\u2581souls": 4356,
  "w\u0101di": 4357,
  "\u2581Ashidia": 4358,
  "\u2581balonda": 4359,
  "\u2581beshile": 4360,
  "\u2581commit": 4361,
  "\u2581dikinga": 4362,
  "\u2581fitting": 4363,
  "\u2581mfwanka": 4364,
  "\u2581mishipiditu": 4365,
  "\u2581repeatedly": 4366,
  "\u2581weba": 4367,
  "kulupile": 4368,
  "\u258180": 4369,
  "\u2581Africa": 4370,
  "\u2581Byonso": 4371,
  "\u2581Finally": 4372,
  "\u2581Kitungo": 4373,
  "\u2581Tutalei": 4374,
  "\u2581displayed": 4375,
  "\u2581effects": 4376,
  "\u2581exactly": 4377,
  "\u2581gathering": 4378,
  "\u2581kuludikwa": 4379,
  "\u2581kusepelela": 4380,
  "\u2581leaving": 4381,
  "\u2581makilometele": 4382,
  "\u2581offers": 4383,
  "\u2581pre": 4384,
  "\u2581probabl": 4385,
  "\u2581room": 4386,
  "\u2581secure": 4387,
  "\u2581turning": 4388,
  "\u2581vow": 4389,
  "For": 4390,
  "ngo": 4391,
  "twelele": 4392,
  "yukene": 4393,
  "\u2581Ikala": 4394,
  "\u2581Lu": 4395,
  "\u2581emotions": 4396,
  "\u2581ketuka": 4397,
  "\u2581kunyongolola": 4398,
  "\u2581kuponena": 4399,
  "\u2581maintaining": 4400,
  "\u2581pakatampe": 4401,
  "\u2581proof": 4402,
  "\u2581properly": 4403,
  "\u2581recall": 4404,
  "\u2581standard": 4405,
  "\u2581stress": 4406,
  "\u2581unrighteous": 4407,
  "\u2581walked": 4408,
  "ine": 4409,
  "kokejapo": 4410,
  "ous": 4411,
  "\u25812000": 4412,
  "\u258173": 4413,
  "\u2581Chronicles": 4414,
  "\u2581Hannah": 4415,
  "\u2581Show": 4416,
  "\u2581Titus": 4417,
  "\u2581abuse": 4418,
  "\u2581bamishonele": 4419,
  "\u2581bengilanga": 4420,
  "\u2581bingi": 4421,
  "\u2581bujinguludi": 4422,
  "\u2581conflict": 4423,
  "\u2581highly": 4424,
  "\u2581kil\u0113me": 4425,
  "\u2581kipangwa": 4426,
  "\u2581kip\u0113la": 4427,
  "\u2581kubingija": 4428,
  "\u2581kukamona": 4429,
  "\u2581mention": 4430,
  "\u2581mwenu": 4431,
  "\u2581relationships": 4432,
  "\u2581temporary": 4433,
  "\u2581unclean": 4434,
  "\u2581violent": 4435,
  "\u2581worse": 4436,
  "dilwe": 4437,
  "fu": 4438,
  "nena": 4439,
  "tumine": 4440,
  "\u2581Gen": 4441,
  "\u2581Miyampe": 4442,
  "\u2581beast": 4443,
  "\u2581bilezaleza": 4444,
  "\u2581bwinebwine": 4445,
  "\u2581environment": 4446,
  "\u2581financial": 4447,
  "\u2581fornication": 4448,
  "\u2581guided": 4449,
  "\u2581happens": 4450,
  "\u2581kotu": 4451,
  "\u2581meditating": 4452,
  "\u2581mishile": 4453,
  "\u2581modest": 4454,
  "\u2581root": 4455,
  "\u2581translation": 4456,
  "\u2581visited": 4457,
  "\u2581waters": 4458,
  "day": 4459,
  "mopo": 4460,
  "ngila": 4461,
  "\u258147": 4462,
  "\u2581Tem": 4463,
  "\u2581Tuyukile": 4464,
  "\u2581acting": 4465,
  "\u2581alonge": 4466,
  "\u2581altar": 4467,
  "\u2581bala\u00f1anga": 4468,
  "\u2581bampeta": 4469,
  "\u2581bundapi": 4470,
  "\u2581facing": 4471,
  "\u2581influenced": 4472,
  "\u2581kuntu": 4473,
  "\u2581kwibi": 4474,
  "\u2581non": 4475,
  "\u2581recreation": 4476,
  "\u2581supported": 4477,
  "\u2581sustain": 4478,
  "\u2581tulonde": 4479,
  "me": 4480,
  "pela": 4481,
  "\u258125]": 4482,
  "\u2581Bajentaila": 4483,
  "\u2581Other": 4484,
  "\u2581Twadi": 4485,
  "\u2581advancement": 4486,
  "\u2581alcohol": 4487,
  "\u2581brotherhood": 4488,
  "\u2581busa": 4489,
  "\u2581causing": 4490,
  "\u2581contain": 4491,
  "\u2581directly": 4492,
  "\u2581divorce": 4493,
  "\u2581fit": 4494,
  "\u2581kufundijibwa": 4495,
  "\u2581kutyumukwa": 4496,
  "\u2581motives": 4497,
  "\u2581mufundiji": 4498,
  "\u2581mwitu": 4499,
  "\u2581physically": 4500,
  "\u2581religions": 4501,
  "\u2581risk": 4502,
  "\u2581ubela": 4503,
  "\u2581w\u0101pelele": 4504,
  "ei": 4505,
  "kwasha": 4506,
  "tela": 4507,
  "\u00f1": 4508,
  "\u258183": 4509,
  "\u2581Ephesus": 4510,
  "\u2581La": 4511,
  "\u2581Sea": 4512,
  "\u2581Umo": 4513,
  "\u2581Yotuboila": 4514,
  "\u2581asks": 4515,
  "\u2581ban\u00e1": 4516,
  "\u2581boldness": 4517,
  "\u2581extreme": 4518,
  "\u2581inherited": 4519,
  "\u2581kuyukidija": 4520,
  "\u2581military": 4521,
  "\u2581mountains": 4522,
  "\u2581shared": 4523,
  "\u2581straight": 4524,
  "\u2581treatment": 4525,
  "\u2581ubulwe": 4526,
  "anga": 4527,
  "saka": 4528,
  "with": 4529,
  "\u258128,": 4530,
  "\u2581Box": 4531,
  "\u2581Nakampata": 4532,
  "\u2581R\u00e9": 4533,
  "\u2581abandoned": 4534,
  "\u2581approached": 4535,
  "\u2581bibibibi": 4536,
  "\u2581byakudya": 4537,
  "\u2581byotulonga": 4538,
  "\u2581dress": 4539,
  "\u2581dy\u0101di": 4540,
  "\u2581encourages": 4541,
  "\u2581ignore": 4542,
  "\u2581kib\u016bke": 4543,
  "\u2581kupota": 4544,
  "\u2581kutambila": 4545,
  "\u2581letters": 4546,
  "\u2581motivated": 4547,
  "\u2581oa": 4548,
  "\u2581resulted": 4549,
  "\u2581theocratic": 4550,
  "\u2581wars": 4551,
  "\u2581w\u0101shintulwile": 4552,
  "dingakene": 4553,
  "muntu": 4554,
  "\u0113": 4555,
  "\u258140.": 4556,
  "\u2581Evanjile": 4557,
  "\u2581Lessons": 4558,
  "\u2581Mobo": 4559,
  "\u2581Sandu": 4560,
  "\u2581Scripture": 4561,
  "\u2581accord": 4562,
  "\u2581byendele": 4563,
  "\u2581entrusted": 4564,
  "\u2581grand": 4565,
  "\u2581impossible": 4566,
  "\u2581kubanga": 4567,
  "\u2581kwitana": 4568,
  "\u2581kyotupwene": 4569,
  "\u2581lubi": 4570,
  "\u2581madilo": 4571,
  "\u2581pob\u0101di": 4572,
  "\u2581possessions": 4573,
  "\u2581royal": 4574,
  "\u2581sickness": 4575,
  "\u2581subjection": 4576,
  "\u2581trouble": 4577,
  "\u2581wabine": 4578,
  "Yesu": 4579,
  "nene": 4580,
  "\u2581500": 4581,
  "\u2581Earth": 4582,
  "\u2581Papo": 4583,
  "\u2581Readers": 4584,
  "\u2581Ukivulukile": 4585,
  "\u2581amiwa": 4586,
  "\u2581bungi": 4587,
  "\u2581company": 4588,
  "\u2581create": 4589,
  "\u2581difficulties": 4590,
  "\u2581ketubwanyapo": 4591,
  "\u2581kileta": 4592,
  "\u2581kwitongela": 4593,
  "\u2581ntundubuko": 4594,
  "\u2581onsololo": 4595,
  "\u2581patyetye": 4596,
  "\u2581publication": 4597,
  "\u2581story": 4598,
  "\u2581studied": 4599,
  "\u2581treasures": 4600,
  "\u2581utelwa": 4601,
  "man": 4602,
  "tyi": 4603,
  "\u00e9": 4604,
  "\u258126]": 4605,
  "\u2581Ketufwaninwepo": 4606,
  "\u2581Mingilo": 4607,
  "\u2581Worship": 4608,
  "\u2581Zefenia": 4609,
  "\u2581address": 4610,
  "\u2581approved": 4611,
  "\u2581babikalwa": 4612,
  "\u2581bapidishitu": 4613,
  "\u2581byaadi": 4614,
  "\u2581court": 4615,
  "\u2581kepadi": 4616,
  "\u2581kutuma": 4617,
  "\u2581medical": 4618,
  "\u2581mifwatakanyo": 4619,
  "\u2581moment": 4620,
  "\u2581none": 4621,
  "\u2581nyoka": 4622,
  "\u2581restore": 4623,
  "\u2581series": 4624,
  "\u2581tukamona": 4625,
  "P": 4626,
  "They": 4627,
  "fundile": 4628,
  "tambula": 4629,
  "yotukokeja": 4630,
  "\u258172": 4631,
  "\u2581Granted": 4632,
  "\u2581IS": 4633,
  "\u2581Malondololo": 4634,
  "\u2581attendance": 4635,
  "\u2581attitudes": 4636,
  "\u2581bikale": 4637,
  "\u2581buujila": 4638,
  "\u2581confront": 4639,
  "\u2581hate": 4640,
  "\u2581hundreds": 4641,
  "\u2581impressed": 4642,
  "\u2581kitenta": 4643,
  "\u2581majority": 4644,
  "\u2581mitendelo": 4645,
  "\u2581possess": 4646,
  "\u2581ukankamika": 4647,
  "\u2581white": 4648,
  "\u2581yoke": 4649,
  "ra": 4650,
  "sela": 4651,
  "wadi": 4652,
  "\u2581Every": 4653,
  "\u2581Master": 4654,
  "\u2581Robert": 4655,
  "\u2581Students": 4656,
  "\u2581babipya": 4657,
  "\u2581bitu": 4658,
  "\u2581bodies": 4659,
  "\u2581but\u014dki": 4660,
  "\u2581conscious": 4661,
  "\u2581couples": 4662,
  "\u2581dishintulula": 4663,
  "\u2581error": 4664,
  "\u2581itano": 4665,
  "\u2581kebe": 4666,
  "\u2581kwisangaja": 4667,
  "\u2581literal": 4668,
  "\u2581mw\u0101nenene": 4669,
  "\u2581sacrificing": 4670,
  "\u2581stars": 4671,
  "\u2581trusting": 4672,
  "\u2581ulombolanga": 4673,
  "\u2581witabije": 4674,
  "\u2581writes": 4675,
  "\u2581w\u0101pangile": 4676,
  "D": 4677,
  "How": 4678,
  "\u258112]": 4679,
  "\u2581144,000": 4680,
  "\u2581Corinth": 4681,
  "\u2581Happy": 4682,
  "\u2581Jonathan": 4683,
  "\u2581Jordan": 4684,
  "\u2581Koka": 4685,
  "\u2581Ministry": 4686,
  "\u2581Ndoe": 4687,
  "\u2581Nobe": 4688,
  "\u2581accepting": 4689,
  "\u2581an\u00e1": 4690,
  "\u2581arrangements": 4691,
  "\u2581buzazangi": 4692,
  "\u2581finding": 4693,
  "\u2581identified": 4694,
  "\u2581kumuk\u014dkela": 4695,
  "\u2581malopwe": 4696,
  "\u2581ministeri": 4697,
  "\u2581private": 4698,
  "\u2581reign": 4699,
  "\u2581relate": 4700,
  "\u2581safini": 4701,
  "\u2581serpent": 4702,
  "\u2581tribes": 4703,
  "\u2581ulomba": 4704,
  "des": 4705,
  "veille": 4706,
  "\u2581Dino": 4707,
  "\u2581Name": 4708,
  "\u2581Nsulo": 4709,
  "\u2581ao": 4710,
  "\u2581balanced": 4711,
  "\u2581bisamba": 4712,
  "\u2581biyukeno": 4713,
  "\u2581compare": 4714,
  "\u2581date": 4715,
  "\u2581heavy": 4716,
  "\u2581involv": 4717,
  "\u2581kisangaja": 4718,
  "\u2581km": 4719,
  "\u2581kulemba": 4720,
  "\u2581kuningilwa": 4721,
  "\u2581kwiteakanya": 4722,
  "\u2581makomo": 4723,
  "\u2581meek": 4724,
  "\u2581mishonele": 4725,
  "\u2581mushikwa": 4726,
  "\u2581national": 4727,
  "\u2581pob\u0101": 4728,
  "\u2581silver": 4729,
  "\u2581suggestions": 4730,
  "\u2581weeks": 4731,
  "\u2581witukwashanga": 4732,
  "kekadila": 4733,
  "sokwele": 4734,
  "\u25812012": 4735,
  "\u2581Eph": 4736,
  "\u2581Kwifunda": 4737,
  "\u2581Levites": 4738,
  "\u2581Two": 4739,
  "\u2581abwanya": 4740,
  "\u2581affairs": 4741,
  "\u2581associate": 4742,
  "\u2581batambile": 4743,
  "\u2581instructed": 4744,
  "\u2581kat\u014dkwe": 4745,
  "\u2581kufwilwa": 4746,
  "\u2581kutenga": 4747,
  "\u2581limit": 4748,
  "\u2581lwimbo": 4749,
  "\u2581maturity": 4750,
  "\u2581potential": 4751,
  "\u2581severe": 4752,
  "\u2581yotubwanya": 4753,
  "\u2581\u0101": 4754,
  "ifundwa": 4755,
  "jokela": 4756,
  "tene": 4757,
  "t\u016bdile": 4758,
  "\u00f1ana": 4759,
  "\u2581Amerika": 4760,
  "\u2581Bubinebine": 4761,
  "\u2581Kala": 4762,
  "\u2581Lombola": 4763,
  "\u2581Mikatampe": 4764,
  "\u2581NE": 4765,
  "\u2581Zephaniah": 4766,
  "\u2581bekele": 4767,
  "\u2581commands": 4768,
  "\u2581cost": 4769,
  "\u2581healthy": 4770,
  "\u2581imperfection": 4771,
  "\u2581kal\u0101": 4772,
  "\u2581kusanguka": 4773,
  "\u2581kutadija": 4774,
  "\u2581kutunduka": 4775,
  "\u2581kwii": 4776,
  "\u2581kwitutonona": 4777,
  "\u2581madimi": 4778,
  "\u2581missionaries": 4779,
  "\u2581nkuku": 4780,
  "\u2581nonga": 4781,
  "\u2581numerous": 4782,
  "\u2581pobadi": 4783,
  "\u2581restored": 4784,
  "\u2581sit": 4785,
  "\u2581t": 4786,
  "\u2581telefone": 4787,
  "\u2581traits": 4788,
  "As": 4789,
  "Y": 4790,
  "nge": 4791,
  "our": 4792,
  "\u2581Lamb": 4793,
  "\u2581Yuka": 4794,
  "\u2581babine": 4795,
  "\u2581basapula": 4796,
  "\u2581buy": 4797,
  "\u2581byotwifunda": 4798,
  "\u2581dibwe": 4799,
  "\u2581gold": 4800,
  "\u2581higher": 4801,
  "\u2581ill": 4802,
  "\u2581kukungila": 4803,
  "\u2581kuletanga": 4804,
  "\u2581obtain": 4805,
  "\u2581perfection": 4806,
  "\u2581town": 4807,
  "\u2581trusted": 4808,
  "\u2581uvuluka": 4809,
  "badilwa": 4810,
  "for": 4811,
  "kankamika": 4812,
  "komenwe": 4813,
  "nkapo": 4814,
  "\u2581Day": 4815,
  "\u2581ditabula": 4816,
  "\u2581gradually": 4817,
  "\u2581kwenu": 4818,
  "\u2581muk\u014dkele": 4819,
  "\u2581readily": 4820,
  "\u2581symbolic": 4821,
  "\u2581tests": 4822,
  "\u2581up\u0113la": 4823,
  "\u2581weaknesses": 4824,
  "\u2581wrath": 4825,
  "\u2581w\u0101ikala": 4826,
  "B\u0101nwe": 4827,
  "Nadi": 4828,
  "fudile": 4829,
  "ija": 4830,
  "kaminwe": 4831,
  "sanswa": 4832,
  "tufwaninwe": 4833,
  "\u258125)": 4834,
  "\u2581Go": 4835,
  "\u2581Lukulupilo": 4836,
  "\u2581MUTWE": 4837,
  "\u2581Michelle": 4838,
  "\u2581Ta": 4839,
  "\u2581Time": 4840,
  "\u2581Upon": 4841,
  "\u2581additional": 4842,
  "\u2581alert": 4843,
  "\u2581appreciated": 4844,
  "\u2581associates": 4845,
  "\u2581attacks": 4846,
  "\u2581besongele": 4847,
  "\u2581car": 4848,
  "\u2581disaster": 4849,
  "\u2581drawing": 4850,
  "\u2581dyetu": 4851,
  "\u2581hospitality": 4852,
  "\u2581kipete": 4853,
  "\u2581kitobo": 4854,
  "\u2581kulongolola": 4855,
  "\u2581kulupuka": 4856,
  "\u2581kyotudi": 4857,
  "\u2581limitations": 4858,
  "\u2581luba": 4859,
  "\u2581musuku": 4860,
  "\u2581musumininwe": 4861,
  "\u2581mutame": 4862,
  "\u2581mweni": 4863,
  "\u2581ndudi": 4864,
  "\u2581significance": 4865,
  "\u2581task": 4866,
  "\u2581unable": 4867,
  "\u2581wipe": 4868,
  "ele": 4869,
  "ketukwasha": 4870,
  "\u258191": 4871,
  "\u2581LEZA": 4872,
  "\u2581Shidea": 4873,
  "\u2581begins": 4874,
  "\u2581bipitepite": 4875,
  "\u2581disease": 4876,
  "\u2581kinkumenkume": 4877,
  "\u2581kisense": 4878,
  "\u2581kufikija": 4879,
  "\u2581kujokeja": 4880,
  "\u2581madabahu": 4881,
  "\u2581represented": 4882,
  "\u2581sad": 4883,
  "\u2581song": 4884,
  "\u2581terms": 4885,
  "\u2581tulo\u00f1anga": 4886,
  "\u2581upbuilding": 4887,
  "\u2581ushikete": 4888,
  "\u2581waikala": 4889,
  "Nansha": 4890,
  "fwile": 4891,
  "\u2581Batutu": 4892,
  "\u2581Close": 4893,
  "\u2581SUBJECT": 4894,
  "\u2581ikale": 4895,
  "\u2581increased": 4896,
  "\u2581kukankamikwa": 4897,
  "\u2581kutyepeja": 4898,
  "\u2581kwitatula": 4899,
  "\u2581lukongo": 4900,
  "\u2581lwine": 4901,
  "\u2581mukatakata": 4902,
  "\u2581quick": 4903,
  "\u2581reported": 4904,
  "\u2581rules": 4905,
  "\u2581tendency": 4906,
  "\u2581tunena": 4907,
  "\u2581vuluka": 4908,
  "\u2581wendelela": 4909,
  "\u2581w\u0101londolwele": 4910,
  "\u2581yotudi": 4911,
  "fikila": 4912,
  "\u258128)": 4913,
  "\u258145.": 4914,
  "\u2581Bidibwa": 4915,
  "\u2581Martha": 4916,
  "\u2581TO": 4917,
  "\u2581attain": 4918,
  "\u2581bukimbi": 4919,
  "\u2581bukya": 4920,
  "\u2581calamity": 4921,
  "\u2581choosing": 4922,
  "\u2581compassionate": 4923,
  "\u2581discernment": 4924,
  "\u2581familiar": 4925,
  "\u2581international": 4926,
  "\u2581kushilwila": 4927,
  "\u2581kususuka": 4928,
  "\u2581lifestyle": 4929,
  "\u2581lovers": 4930,
  "\u2581mulumyandi": 4931,
  "\u2581removed": 4932,
  "\u2581victory": 4933,
  "\u2581wrongdoing": 4934,
  "\u2581w\u0101ingile": 4935,
  "\u2581w\u0101kweshe": 4936,
  "fundija": 4937,
  "ingidije": 4938,
  "lombele": 4939,
  "pele": 4940,
  "pita": 4941,
  "sonekele": 4942,
  "\u25818]": 4943,
  "\u2581Germany": 4944,
  "\u2581applies": 4945,
  "\u2581betela": 4946,
  "\u2581en": 4947,
  "\u2581enduring": 4948,
  "\u2581fundamental": 4949,
  "\u2581governing": 4950,
  "\u2581kebabwanyapo": 4951,
  "\u2581kipyanwa": 4952,
  "\u2581kuku": 4953,
  "\u2581kumulombola": 4954,
  "\u2581kwibafundija": 4955,
  "\u2581methods": 4956,
  "\u2581oil": 4957,
  "\u2581pornography": 4958,
  "\u2581rewarded": 4959,
  "\u2581wheat": 4960,
  "\u0101": 4961,
  "\u258113]": 4962,
  "\u2581Byobya": 4963,
  "\u2581Credit": 4964,
  "\u2581Lazalasa": 4965,
  "\u2581Lazarus": 4966,
  "\u2581Madingi": 4967,
  "\u2581bunwa": 4968,
  "\u2581bupondo": 4969,
  "\u2581career": 4970,
  "\u2581concluded": 4971,
  "\u2581gather": 4972,
  "\u2581harmful": 4973,
  "\u2581kyampikwa": 4974,
  "\u2581literally": 4975,
  "\u2581mama": 4976,
  "\u2581mwityepeje": 4977,
  "\u2581safeguard": 4978,
  "\u2581senses": 4979,
  "\u2581sorts": 4980,
  "\u2581twana": 4981,
  "\u2581usapula": 4982,
  "\u2581wild": 4983,
  "f": 4984,
  "his": 4985,
  "kwatakenye": 4986,
  "ri": 4987,
  "\u00f1anga": 4988,
  "\u2581Hana": 4989,
  "\u2581Maevanjile": 4990,
  "\u2581Sophia": 4991,
  "\u2581Yona": 4992,
  "\u2581angry": 4993,
  "\u2581balupusa": 4994,
  "\u2581commandment": 4995,
  "\u2581content": 4996,
  "\u2581firstborn": 4997,
  "\u2581foundation": 4998,
  "\u2581kuk\u016bla": 4999,
  "\u2581kuningija": 5000,
  "\u2581mabi": 5001,
  "\u2581misanshi": 5002,
  "\u2581mukwetu": 5003,
  "\u2581m\u012bne": 5004,
  "\u2581painful": 5005,
  "\u2581scripture": 5006,
  "\u2581ulwa": 5007,
  "\u2581urgency": 5008,
  "\u2581writings": 5009,
  "\u2581w\u0101tongele": 5010,
  "2)": 5011,
  "R": 5012,
  "bweja": 5013,
  "mafuku": 5014,
  "pwene": 5015,
  "tangidija": 5016,
  "\u2581Bal": 5017,
  "\u2581Judea": 5018,
  "\u2581Kubulwa": 5019,
  "\u2581LE": 5020,
  "\u2581Prayer": 5021,
  "\u2581Work": 5022,
  "\u2581batumoni": 5023,
  "\u2581bun\u00e1": 5024,
  "\u2581busendwe": 5025,
  "\u2581differences": 5026,
  "\u2581dipya": 5027,
  "\u2581employment": 5028,
  "\u2581flee": 5029,
  "\u2581holding": 5030,
  "\u2581kufwaninwa": 5031,
  "\u2581miracle": 5032,
  "\u2581peaceable": 5033,
  "\u2581popular": 5034,
  "\u2581stood": 5035,
  "\u2581tutanga": 5036,
  "difuku": 5037,
  "enda": 5038,
  "sakilwa": 5039,
  "\u2581Its": 5040,
  "\u2581Jonah": 5041,
  "\u2581Uka": 5042,
  "\u2581bibwanika": 5043,
  "\u2581bupyani": 5044,
  "\u2581bwabinebine": 5045,
  "\u2581dishikulu": 5046,
  "\u2581failure": 5047,
  "\u2581idolatry": 5048,
  "\u2581kukomenwa": 5049,
  "\u2581kusakasaka": 5050,
  "\u2581kutompibwa": 5051,
  "\u2581meditation": 5052,
  "\u2581otu": 5053,
  "\u2581paying": 5054,
  "\u2581season": 5055,
  "\u2581stone": 5056,
  "\u2581thereafter": 5057,
  "\u2581urges": 5058,
  "\u2581video": 5059,
  "\u2581wind": 5060,
  "\u2581witukulupija": 5061,
  "\u2581worldly": 5062,
  "Po": 5063,
  "YA": 5064,
  "bandaula": 5065,
  "kala": 5066,
  "lengeja": 5067,
  "nenene": 5068,
  "so\u00f1anya": 5069,
  "\u016b": 5070,
  "\u258131)": 5071,
  "\u2581Bilondolwelwe": 5072,
  "\u2581Dan": 5073,
  "\u2581Source": 5074,
  "\u2581V": 5075,
  "\u2581amone": 5076,
  "\u2581butamba": 5077,
  "\u2581earnestly": 5078,
  "\u2581excellent": 5079,
  "\u2581ikekala": 5080,
  "\u2581kipyupyu": 5081,
  "\u2581mapya": 5082,
  "\u2581modesty": 5083,
  "\u2581motive": 5084,
  "\u2581mukwashi": 5085,
  "\u2581mwimanino": 5086,
  "\u2581mwip\u0101ne": 5087,
  "\u2581nyema": 5088,
  "\u2581offerings": 5089,
  "\u2581preserve": 5090,
  "\u2581protected": 5091,
  "\u2581resources": 5092,
  "\u2581safe": 5093,
  "\u2581serves": 5094,
  "\u2581store": 5095,
  "\u2581struck": 5096,
  "\u2581submit": 5097,
  "\u2581tutamije": 5098,
  "\u2581wisely": 5099,
  "4:": 5100,
  "PO": 5101,
  "ermon": 5102,
  "ingness": 5103,
  "kimba": 5104,
  "kwashe": 5105,
  "laile": 5106,
  "mwenine": 5107,
  "pebwe": 5108,
  "rb": 5109,
  "sambile": 5110,
  "\u00d1im": 5111,
  "\u258186": 5112,
  "\u2581Ruler": 5113,
  "\u2581Sometimes": 5114,
  "\u2581acquire": 5115,
  "\u2581bidyumu": 5116,
  "\u2581b\u0101ya": 5117,
  "\u2581dangers": 5118,
  "\u2581declaring": 5119,
  "\u2581kuy\u016bka": 5120,
  "\u2581kwilunga": 5121,
  "\u2581mufwe": 5122,
  "\u2581pursuits": 5123,
  "\u2581replied": 5124,
  "\u2581shine": 5125,
  "\u2581stopped": 5126,
  "\u2581supply": 5127,
  "\u2581universal": 5128,
  "\u2581warfare": 5129,
  "\u2581w\u0113samb\u012ble": 5130,
  "Be": 5131,
  "badikile": 5132,
  "\u2581Biblical": 5133,
  "\u2581Bul\u0113me": 5134,
  "\u2581Europe": 5135,
  "\u2581balondakani": 5136,
  "\u2581beauty": 5137,
  "\u2581community": 5138,
  "\u2581dyodya": 5139,
  "\u2581inherit": 5140,
  "\u2581kabo": 5141,
  "\u2581kisakibwa": 5142,
  "\u2581kwelwa": 5143,
  "\u2581munyanji": 5144,
  "\u2581otherwise": 5145,
  "\u2581promotes": 5146,
  "\u2581recalls": 5147,
  "\u2581release": 5148,
  "\u2581reproach": 5149,
  "\u2581residents": 5150,
  "\u2581songs": 5151,
  "\u2581temptations": 5152,
  "\u2581travel": 5153,
  "\u2581variety": 5154,
  "\u2581w\u0101shile": 5155,
  "\u2581\u00f1ombe": 5156,
  "keba": 5157,
  "nye": 5158,
  "tele": 5159,
  "\u25811918": 5160,
  "\u2581Blu": 5161,
  "\u2581Church": 5162,
  "\u2581Ef": 5163,
  "\u2581Leviticus": 5164,
  "\u2581MA": 5165,
  "\u2581Mwaka": 5166,
  "\u2581Testament": 5167,
  "\u2581Yudasa": 5168,
  "\u2581baby": 5169,
  "\u2581bapye": 5170,
  "\u2581bisangaja": 5171,
  "\u2581bitenta": 5172,
  "\u2581ears": 5173,
  "\u2581kemu": 5174,
  "\u2581kujoka": 5175,
  "\u2581kunangila": 5176,
  "\u2581kusangula": 5177,
  "\u2581kyakwela": 5178,
  "\u2581oppose": 5179,
  "\u2581represents": 5180,
  "\u2581research": 5181,
  "\u2581soil": 5182,
  "\u2581surprise": 5183,
  "\u2581throw": 5184,
  "\u2581twivwanije": 5185,
  "\u2581uphold": 5186,
  "\u2581usangaja": 5187,
  "\u2581warns": 5188,
  "\u2581wiya": 5189,
  "Nki": 5190,
  "go": 5191,
  "pite": 5192,
  "tyiba": 5193,
  "\u2581144": 5194,
  "\u25812014": 5195,
  "\u2581Concern": 5196,
  "\u2581Ngadilea": 5197,
  "\u2581Peace": 5198,
  "\u2581Philip": 5199,
  "\u2581Study": 5200,
  "\u2581Tetusa": 5201,
  "\u2581arranged": 5202,
  "\u2581asamba": 5203,
  "\u2581babwaninine": 5204,
  "\u2581bashikete": 5205,
  "\u2581economic": 5206,
  "\u2581establish": 5207,
  "\u2581herself": 5208,
  "\u2581kingdoms": 5209,
  "\u2581likened": 5210,
  "\u2581lupotopoto": 5211,
  "\u2581morally": 5212,
  "\u2581preparing": 5213,
  "\u2581released": 5214,
  "\u2581repent": 5215,
  "\u2581slavery": 5216,
  "\u2581stronger": 5217,
  "\u2581witupanga": 5218,
  "byopo": 5219,
  "ila": 5220,
  "ng": 5221,
  "\u2581Contents": 5222,
  "\u2581Judas": 5223,
  "\u2581Mwin\u0113": 5224,
  "\u2581Nisan": 5225,
  "\u2581Nisane": 5226,
  "\u2581Table": 5227,
  "\u2581balance": 5228,
  "\u2581enjoying": 5229,
  "\u2581features": 5230,
  "\u2581footnote": 5231,
  "\u2581kipolitike": 5232,
  "\u2581kitema": 5233,
  "\u2581kukoma": 5234,
  "\u2581kulondela": 5235,
  "\u2581kutyumuna": 5236,
  "\u2581mass": 5237,
  "\u2581mbwanya": 5238,
  "\u2581punishment": 5239,
  "\u2581strangers": 5240,
  "\u2581tubandaule": 5241,
  "\u2581weakness": 5242,
  "\u2581wivwane": 5243,
  "disfellowshipped": 5244,
  "ikele": 5245,
  "lupulwe": 5246,
  "nde": 5247,
  "ndi": 5248,
  "rimarily": 5249,
  "selele": 5250,
  "twela": 5251,
  "\u2581139": 5252,
  "\u258129)": 5253,
  "\u2581Luno": 5254,
  "\u2581Man": 5255,
  "\u2581Mfumwami": 5256,
  "\u2581balombolanga": 5257,
  "\u2581bashilula": 5258,
  "\u2581bip\u0113la": 5259,
  "\u2581bumi": 5260,
  "\u2581camp": 5261,
  "\u2581clothing": 5262,
  "\u2581glad": 5263,
  "\u2581in\u00e1": 5264,
  "\u2581judges": 5265,
  "\u2581keu": 5266,
  "\u2581kibundu": 5267,
  "\u2581kukwashibwa": 5268,
  "\u2581kunengela": 5269,
  "\u2581kutweja": 5270,
  "\u2581lapolo": 5271,
  "\u2581lulekelo": 5272,
  "\u2581mates": 5273,
  "\u2581mobadi": 5274,
  "\u2581muludiki": 5275,
  "\u2581reliable": 5276,
  "\u2581spirits": 5277,
  "\u2581twitabije": 5278,
  "\u2581useful": 5279,
  "\u25cf": 5280,
  "do": 5281,
  "lela": 5282,
  "shikete": 5283,
  "vu": 5284,
  "yuka": 5285,
  "\u258127)": 5286,
  "\u258154": 5287,
  "\u258156": 5288,
  "\u2581American": 5289,
  "\u2581Angeletele": 5290,
  "\u2581Truth": 5291,
  "\u2581Yonafane": 5292,
  "\u2581acknowledged": 5293,
  "\u2581adopt": 5294,
  "\u2581aku": 5295,
  "\u2581believing": 5296,
  "\u2581bimonwa": 5297,
  "\u2581bituntwa": 5298,
  "\u2581conversations": 5299,
  "\u2581devoted": 5300,
  "\u2581disasters": 5301,
  "\u2581grain": 5302,
  "\u2581kafinda": 5303,
  "\u2581kalunganyembo": 5304,
  "\u2581kinyema": 5305,
  "\u2581kutambwa": 5306,
  "\u2581kwitungila": 5307,
  "\u2581lwana": 5308,
  "\u2581mapepala": 5309,
  "\u2581mashika": 5310,
  "\u2581mayenga": 5311,
  "\u2581mukwenu": 5312,
  "\u2581observ": 5313,
  "\u2581passing": 5314,
  "\u2581recently": 5315,
  "\u2581resolved": 5316,
  "\u2581scholar": 5317,
  "\u2581soldiers": 5318,
  "\u2581torture": 5319,
  "\u2581waitabija": 5320,
  "\u2581welcome": 5321,
  "\u2581win": 5322,
  "\u2581w\u0101tumine": 5323,
  "bukata": 5324,
  "du": 5325,
  "ipangwile": 5326,
  "itabije": 5327,
  "\u2581Ahab": 5328,
  "\u2581KWEJI": 5329,
  "\u2581Kanye": 5330,
  "\u2581Mudi": 5331,
  "\u2581Out": 5332,
  "\u2581Yodano": 5333,
  "\u2581bakasangulwa": 5334,
  "\u2581bashele": 5335,
  "\u2581betabija": 5336,
  "\u2581bulami": 5337,
  "\u2581burn": 5338,
  "\u2581byaba": 5339,
  "\u2581courageously": 5340,
  "\u2581damage": 5341,
  "\u2581degree": 5342,
  "\u2581depend": 5343,
  "\u2581disobedience": 5344,
  "\u2581earnest": 5345,
  "\u2581eliminate": 5346,
  "\u2581endaenda": 5347,
  "\u2581exposed": 5348,
  "\u2581joyfully": 5349,
  "\u2581ketudi": 5350,
  "\u2581kukankaja": 5351,
  "\u2581kwiendeja": 5352,
  "\u2581laid": 5353,
  "\u2581loyally": 5354,
  "\u2581mani": 5355,
  "\u2581marital": 5356,
  "\u2581mfundijo": 5357,
  "\u2581muswedibwe": 5358,
  "\u2581mwendeji": 5359,
  "\u2581paragraphs": 5360,
  "\u2581percent": 5361,
  "\u2581possibly": 5362,
  "\u2581psalm": 5363,
  "\u2581publicly": 5364,
  "\u2581singing": 5365,
  "\u2581televijo": 5366,
  "\u2581unbeliev": 5367,
  "WA": 5368,
  "twikalanga": 5369,
  "\u2581110": 5370,
  "\u2581Ekal": 5371,
  "\u2581Ponso": 5372,
  "\u2581adjustments": 5373,
  "\u2581basusuka": 5374,
  "\u2581belongings": 5375,
  "\u2581ben\u0113": 5376,
  "\u2581bityani": 5377,
  "\u2581buloko": 5378,
  "\u2581bweni": 5379,
  "\u2581byakwela": 5380,
  "\u2581depth": 5381,
  "\u2581divided": 5382,
  "\u2581fallen": 5383,
  "\u2581ingi": 5384,
  "\u2581initiative": 5385,
  "\u2581innocent": 5386,
  "\u2581isa": 5387,
  "\u2581kiponka": 5388,
  "\u2581kwiivwana": 5389,
  "\u2581kyenda": 5390,
  "\u2581mourning": 5391,
  "\u2581mwiba": 5392,
  "\u2581nkishi": 5393,
  "\u2581prominent": 5394,
  "\u2581region": 5395,
  "\u2581surprised": 5396,
  "\u2581t\u016bminine": 5397,
  "\u2581welfare": 5398,
  "2:": 5399,
  "ela": 5400,
  "ingidijibwe": 5401,
  "it": 5402,
  "mwanda": 5403,
  "p\u0113ne": 5404,
  "thrown": 5405,
  "\u2581DO": 5406,
  "\u2581GOD": 5407,
  "\u2581Galilee": 5408,
  "\u2581Gideon": 5409,
  "\u2581Peleshia": 5410,
  "\u2581Sa": 5411,
  "\u2581Umbadilo": 5412,
  "\u2581batelelwe": 5413,
  "\u2581besamba": 5414,
  "\u2581bipya": 5415,
  "\u2581bisansa": 5416,
  "\u2581broken": 5417,
  "\u2581churches": 5418,
  "\u2581cruel": 5419,
  "\u2581detail": 5420,
  "\u2581finds": 5421,
  "\u2581kusambakanya": 5422,
  "\u2581kwilaija": 5423,
  "\u2581kwimvwana": 5424,
  "\u2581kwitukwashanga": 5425,
  "\u2581luvule": 5426,
  "\u2581miraculously": 5427,
  "\u2581mistake": 5428,
  "\u2581plans": 5429,
  "\u2581plant": 5430,
  "\u2581profound": 5431,
  "\u2581regret": 5432,
  "\u2581sets": 5433,
  "\u2581tested": 5434,
  "\u2581warnings": 5435,
  "\u2581yuka": 5436,
  "\u2581zealously": 5437,
  "Ezekyele": 5438,
  "bala": 5439,
  "lombola": 5440,
  "tangidile": 5441,
  "tuswele": 5442,
  "w\u0101endelele": 5443,
  "\u012b": 5444,
  "\u25812001": 5445,
  "\u2581Kyolwa": 5446,
  "\u2581Moabu": 5447,
  "\u2581Yefeta": 5448,
  "\u2581adjust": 5449,
  "\u2581ako": 5450,
  "\u2581balongele": 5451,
  "\u2581bul\u0113mantu": 5452,
  "\u2581companion": 5453,
  "\u2581crowds": 5454,
  "\u2581extended": 5455,
  "\u2581grave": 5456,
  "\u2581hardships": 5457,
  "\u2581humankind": 5458,
  "\u2581iba": 5459,
  "\u2581influences": 5460,
  "\u2581intense": 5461,
  "\u2581kibwaninine": 5462,
  "\u2581kijimba": 5463,
  "\u2581kuvula": 5464,
  "\u2581kwaluja": 5465,
  "\u2581l": 5466,
  "\u2581lwiso": 5467,
  "\u2581majende": 5468,
  "\u2581male": 5469,
  "\u2581manifested": 5470,
  "\u2581moba": 5471,
  "\u2581muyuke": 5472,
  "\u2581opposite": 5473,
  "\u2581pagan": 5474,
  "\u2581paid": 5475,
  "\u2581permanent": 5476,
  "\u2581rights": 5477,
  "\u2581sayings": 5478,
  "\u2581thankful": 5479,
  "\u2581wamu": 5480,
  "\u2581w\u0101ipangwile": 5481,
  "To": 5482,
  "lomba": 5483,
  "mupele": 5484,
  "mwi": 5485,
  "\u2581Ahaba": 5486,
  "\u2581Bidi": 5487,
  "\u2581Bumo": 5488,
  "\u2581Jon": 5489,
  "\u2581Kanunu": 5490,
  "\u2581Obe": 5491,
  "\u2581Uyukile": 5492,
  "\u2581YA": 5493,
  "\u2581bapyasakane": 5494,
  "\u2581bisumpi": 5495,
  "\u2581botu": 5496,
  "\u2581communicate": 5497,
  "\u2581culture": 5498,
  "\u2581dyonso": 5499,
  "\u2581eagerly": 5500,
  "\u2581existed": 5501,
  "\u2581hated": 5502,
  "\u2581householder": 5503,
  "\u2581impart": 5504,
  "\u2581koneka": 5505,
  "\u2581kwimba": 5506,
  "\u2581lupito": 5507,
  "\u2581mw\u0101longele": 5508,
  "\u2581notes": 5509,
  "\u2581official": 5510,
  "\u2581prais": 5511,
  "\u2581refreshing": 5512,
  "\u2581solid": 5513,
  "\u2581umu": 5514,
  "\u2581waiya": 5515,
  "\u2581whereas": 5516,
  "Monka": 5517,
  "No": 5518,
  "ful": 5519,
  "ion": 5520,
  "nwa": 5521,
  "shintyile": 5522,
  "tupele": 5523,
  "usangelanga": 5524,
  "\u2581120": 5525,
  "\u2581300": 5526,
  "\u2581B\u016aMI": 5527,
  "\u2581Internet": 5528,
  "\u2581Lehaba": 5529,
  "\u2581Nazi": 5530,
  "\u2581THIS": 5531,
  "\u2581ban": 5532,
  "\u2581constant": 5533,
  "\u2581f": 5534,
  "\u2581kebudi": 5535,
  "\u2581kikale": 5536,
  "\u2581kikonge": 5537,
  "\u2581kingidilwa": 5538,
  "\u2581kitabukile": 5539,
  "\u2581kusongwa": 5540,
  "\u2581kuyukanya": 5541,
  "\u2581kwielela": 5542,
  "\u2581lupoto": 5543,
  "\u2581lusalusa": 5544,
  "\u2581mfumwandi": 5545,
  "\u2581misokwe": 5546,
  "\u2581mona": 5547,
  "\u2581murder": 5548,
  "\u2581newly": 5549,
  "\u2581pepi": 5550,
  "\u2581prejudice": 5551,
  "\u2581prize": 5552,
  "\u2581seventh": 5553,
  "\u2581signs": 5554,
  "\u2581thanks": 5555,
  "\u2581utmost": 5556,
  "\u2581wholesome": 5557,
  "Ufwaninwe": 5558,
  "dila": 5559,
  "nd": 5560,
  "sokola": 5561,
  "tonwene": 5562,
  "twa": 5563,
  "\u258126)": 5564,
  "\u258197": 5565,
  "\u2581Bufundiji": 5566,
  "\u2581Busatu": 5567,
  "\u2581HOW": 5568,
  "\u2581Kushintulula": 5569,
  "\u2581Lufu": 5570,
  "\u2581Ngideoni": 5571,
  "\u2581approaching": 5572,
  "\u2581balondanga": 5573,
  "\u2581bifundija": 5574,
  "\u2581bishile": 5575,
  "\u2581bishileshile": 5576,
  "\u2581buleme": 5577,
  "\u2581butangi": 5578,
  "\u2581byotukokeja": 5579,
  "\u2581dikatakata": 5580,
  "\u2581generous": 5581,
  "\u2581intended": 5582,
  "\u2581kipupo": 5583,
  "\u2581kitungwe": 5584,
  "\u2581kwisao": 5585,
  "\u2581miji": 5586,
  "\u2581mulanda": 5587,
  "\u2581mwandi": 5588,
  "\u2581obligation": 5589,
  "\u2581ob\u0101di": 5590,
  "\u2581pursuit": 5591,
  "\u2581tabernacle": 5592,
  "\u2581total": 5593,
  "\u2581touch": 5594,
  "\u2581ulondolola": 5595,
  "Go": 5596,
  "Mus": 5597,
  "Wa": 5598,
  "nt": 5599,
  "\u258120]": 5600,
  "\u2581Azia": 5601,
  "\u2581Bobe": 5602,
  "\u2581Fidishitia": 5603,
  "\u2581baJentaila": 5604,
  "\u2581backing": 5605,
  "\u2581burden": 5606,
  "\u2581byasaka": 5607,
  "\u2581copy": 5608,
  "\u2581customs": 5609,
  "\u2581distant": 5610,
  "\u2581dream": 5611,
  "\u2581encounter": 5612,
  "\u2581finish": 5613,
  "\u2581grant": 5614,
  "\u2581kavutakanya": 5615,
  "\u2581kupana": 5616,
  "\u2581kusangala": 5617,
  "\u2581kwisanswa": 5618,
  "\u2581mwiko": 5619,
  "\u2581noticed": 5620,
  "\u2581satisfied": 5621,
  "\u2581troubled": 5622,
  "\u2581tubayuka": 5623,
  "\u2581tufwijanga": 5624,
  "\u2581ubadilwa": 5625,
  "\u2581up\u0101na": 5626,
  "\u2581voluntary": 5627,
  "\u2581wafu": 5628,
  "\u2581wamona": 5629,
  "Bantu": 5630,
  "F": 5631,
  "angelic": 5632,
  "ar": 5633,
  "good": 5634,
  "ity": 5635,
  "jimije": 5636,
  "kasangela": 5637,
  "lupwile": 5638,
  "mbe": 5639,
  "not": 5640,
  "otudi": 5641,
  "time": 5642,
  "\u258157": 5643,
  "\u2581Asia": 5644,
  "\u2581Babylonian": 5645,
  "\u2581Josiah": 5646,
  "\u2581Ketu": 5647,
  "\u2581Kulonda": 5648,
  "\u2581Mata": 5649,
  "\u2581Rahab": 5650,
  "\u2581Shortly": 5651,
  "\u2581amopo": 5652,
  "\u2581believer": 5653,
  "\u2581bitelelwe": 5654,
  "\u2581cast": 5655,
  "\u2581cherish": 5656,
  "\u2581d": 5657,
  "\u2581depends": 5658,
  "\u2581empower": 5659,
  "\u2581enu": 5660,
  "\u2581hidden": 5661,
  "\u2581keku": 5662,
  "\u2581kwimvwanija": 5663,
  "\u2581luyampe": 5664,
  "\u2581miraculous": 5665,
  "\u2581proceeded": 5666,
  "\u2581skills": 5667,
  "\u2581spouse": 5668,
  "\u2581steadfast": 5669,
  "\u2581trees": 5670,
  "\u2581waku": 5671,
  "\u2581wifunda": 5672,
  "ch": 5673,
  "drew": 5674,
  "tendele": 5675,
  "t\u00e9": 5676,
  "\u258115.)": 5677,
  "\u2581Bamwikeulu": 5678,
  "\u2581Canaan": 5679,
  "\u2581Come": 5680,
  "\u2581Line": 5681,
  "\u2581Phil": 5682,
  "\u2581Yoshia": 5683,
  "\u2581basamba": 5684,
  "\u2581batongelwe": 5685,
  "\u2581befunde": 5686,
  "\u2581bow": 5687,
  "\u2581butyetye": 5688,
  "\u2581creature": 5689,
  "\u2581dust": 5690,
  "\u2581expectation": 5691,
  "\u2581kanunu": 5692,
  "\u2581kiji": 5693,
  "\u2581kukomo": 5694,
  "\u2581kukwatwa": 5695,
  "\u2581kul\u0101dila": 5696,
  "\u2581kweselwa": 5697,
  "\u2581kwibandaula": 5698,
  "\u2581kyumwa": 5699,
  "\u2581mark": 5700,
  "\u2581marked": 5701,
  "\u2581mata": 5702,
  "\u2581proclaim": 5703,
  "\u2581realm": 5704,
  "\u2581rescue": 5705,
  "\u2581tusenswe": 5706,
  "\u2581ukoma": 5707,
  "\u2581urge": 5708,
  "\u2581witutele": 5709,
  "\u2581wondered": 5710,
  "\u2581w\u0101kankamikile": 5711,
  "Kup": 5712,
  "Yoshua": 5713,
  "by": 5714,
  "ketutonona": 5715,
  "lamete": 5716,
  "tendelanga": 5717,
  "un": 5718,
  "\u2581Bandi": 5719,
  "\u2581But\u014dtyi": 5720,
  "\u2581Encyclopedia": 5721,
  "\u2581Gospels": 5722,
  "\u2581J\u00e9hovah": 5723,
  "\u2581Nandi": 5724,
  "\u2581Sodoma": 5725,
  "\u2581Stephen": 5726,
  "\u2581Tulete": 5727,
  "\u2581bakapyana": 5728,
  "\u2581bride": 5729,
  "\u2581cultivating": 5730,
  "\u2581developing": 5731,
  "\u2581factor": 5732,
  "\u2581heads": 5733,
  "\u2581judgments": 5734,
  "\u2581kukokela": 5735,
  "\u2581kusengibwa": 5736,
  "\u2581kwiki": 5737,
  "\u2581kwilombola": 5738,
  "\u2581kwitulengeja": 5739,
  "\u2581kyob\u0101di": 5740,
  "\u2581mitabakano": 5741,
  "\u2581nshikani": 5742,
  "\u2581objective": 5743,
  "\u2581oppression": 5744,
  "\u2581privileged": 5745,
  "\u2581reflecting": 5746,
  "\u2581suggest": 5747,
  "\u2581tempered": 5748,
  "\u2581tukalombola": 5749,
  "\u2581tumwene": 5750,
  "\u2581visits": 5751,
  "\u2581wamwene": 5752,
  "\u2581wingidija": 5753,
  "\u2581w\u0101fwile": 5754,
  "Kadi": 5755,
  "kakukwasha": 5756,
  "pelele": 5757,
  "sapula": 5758,
  "tamine": 5759,
  "v": 5760,
  "\u2581103": 5761,
  "\u258111]": 5762,
  "\u2581130": 5763,
  "\u25812011": 5764,
  "\u2581BWA": 5765,
  "\u2581Ex": 5766,
  "\u2581Fear": 5767,
  "\u2581Heart": 5768,
  "\u2581Kijila": 5769,
  "\u2581Kipwano": 5770,
  "\u2581Mufundiji": 5771,
  "\u2581Pray": 5772,
  "\u2581Sodom": 5773,
  "\u2581Things": 5774,
  "\u2581William": 5775,
  "\u2581Yonso": 5776,
  "\u2581bamfumu": 5777,
  "\u2581burning": 5778,
  "\u2581bwa\u0101di": 5779,
  "\u2581byayo": 5780,
  "\u2581construction": 5781,
  "\u2581convey": 5782,
  "\u2581custom": 5783,
  "\u2581execution": 5784,
  "\u2581kamukaya": 5785,
  "\u2581kishi": 5786,
  "\u2581kukulupidila": 5787,
  "\u2581kwimanija": 5788,
  "\u2581kyendeji": 5789,
  "\u2581list": 5790,
  "\u2581magazines": 5791,
  "\u2581ma\u00f1anza": 5792,
  "\u2581minded": 5793,
  "\u2581mutyetye": 5794,
  "\u2581mutyibi": 5795,
  "\u2581nkyadipo": 5796,
  "\u2581pioneering": 5797,
  "\u2581planet": 5798,
  "\u2581priority": 5799,
  "\u2581qualify": 5800,
  "\u2581shabana": 5801,
  "\u2581threatened": 5802,
  "\u2581tusua": 5803,
  "\u2581twandi": 5804,
  "\u2581ulonge": 5805,
  "\u2581wall": 5806,
  "By": 5807,
  "Happy": 5808,
  "Your": 5809,
  "g": 5810,
  "tumbijanga": 5811,
  "t\u016bdilwe": 5812,
  "ver": 5813,
  "\u2581Faithful": 5814,
  "\u2581Following": 5815,
  "\u2581France": 5816,
  "\u2581Jephthah": 5817,
  "\u2581Leader": 5818,
  "\u2581Lupusa": 5819,
  "\u2581Mubikadi": 5820,
  "\u2581Wandi": 5821,
  "\u2581atala": 5822,
  "\u2581cared": 5823,
  "\u2581desirable": 5824,
  "\u2581distance": 5825,
  "\u2581dyabola": 5826,
  "\u2581empty": 5827,
  "\u2581ended": 5828,
  "\u2581forced": 5829,
  "\u2581itukwasha": 5830,
  "\u2581kantu": 5831,
  "\u2581kiketukwasha": 5832,
  "\u2581kiteokratike": 5833,
  "\u2581kushiya": 5834,
  "\u2581kutelwa": 5835,
  "\u2581kuvilukila": 5836,
  "\u2581la": 5837,
  "\u2581mawi": 5838,
  "\u2581mwiivwanino": 5839,
  "\u2581obeyed": 5840,
  "\u2581obstacles": 5841,
  "\u2581plague": 5842,
  "\u2581plan": 5843,
  "\u2581priesthood": 5844,
  "\u2581proclaimers": 5845,
  "\u2581prophesied": 5846,
  "\u2581rain": 5847,
  "\u2581reflects": 5848,
  "\u2581shortly": 5849,
  "\u2581shoulder": 5850,
  "\u2581stumble": 5851,
  "\u2581suddenly": 5852,
  "\u2581undergo": 5853,
  "W": 5854,
  "ally": 5855,
  "baikala": 5856,
  "kwatyilwa": 5857,
  "twe": 5858,
  "ur": 5859,
  "\u25812008": 5860,
  "\u2581Banabetu": 5861,
  "\u2581K\u0101dipo": 5862,
  "\u2581Maria": 5863,
  "\u2581Mfumu": 5864,
  "\u2581Mizo": 5865,
  "\u2581Mwingidi": 5866,
  "\u2581Pilate": 5867,
  "\u2581Priest": 5868,
  "\u2581South": 5869,
  "\u2581W\u0101sonekele": 5870,
  "\u2581YESU": 5871,
  "\u2581across": 5872,
  "\u2581add": 5873,
  "\u2581air": 5874,
  "\u2581audience": 5875,
  "\u2581balwa": 5876,
  "\u2581basangela": 5877,
  "\u2581basumininwe": 5878,
  "\u2581by\u0101kweshe": 5879,
  "\u2581campaign": 5880,
  "\u2581deeper": 5881,
  "\u2581discovered": 5882,
  "\u2581eternity": 5883,
  "\u2581except": 5884,
  "\u2581expects": 5885,
  "\u2581guilty": 5886,
  "\u2581hundred": 5887,
  "\u2581inspiring": 5888,
  "\u2581kwendeleja": 5889,
  "\u2581lion": 5890,
  "\u2581mulombwela": 5891,
  "\u2581nsambu": 5892,
  "\u2581observes": 5893,
  "\u2581reap": 5894,
  "\u2581reply": 5895,
  "\u2581routine": 5896,
  "\u2581threat": 5897,
  "\u2581tired": 5898,
  "\u2581worker": 5899,
  "\u2581w\u0101lekele": 5900,
  "NGA": 5901,
  "Umbadilo": 5902,
  "jibwe": 5903,
  "l\u0113le": 5904,
  "y\u0101di": 5905,
  "\u25811999": 5906,
  "\u25812009": 5907,
  "\u25812010": 5908,
  "\u258126,": 5909,
  "\u258162": 5910,
  "\u2581Bala": 5911,
  "\u2581Halls": 5912,
  "\u2581Jas": 5913,
  "\u2581Keba": 5914,
  "\u2581Mutwe": 5915,
  "\u2581M\u0101nga": 5916,
  "\u2581Times": 5917,
  "\u2581anena": 5918,
  "\u2581anymore": 5919,
  "\u2581bakomenwe": 5920,
  "\u2581clergy": 5921,
  "\u2581delighted": 5922,
  "\u2581description": 5923,
  "\u2581engag": 5924,
  "\u2581famine": 5925,
  "\u2581hates": 5926,
  "\u2581haughty": 5927,
  "\u2581julunale": 5928,
  "\u2581kakitatyi": 5929,
  "\u2581kekw\u0101dipo": 5930,
  "\u2581looks": 5931,
  "\u2581low": 5932,
  "\u2581lupungu": 5933,
  "\u2581nsakwa": 5934,
  "\u2581passage": 5935,
  "\u2581preserved": 5936,
  "\u2581principal": 5937,
  "\u2581prosperity": 5938,
  "\u2581rais": 5939,
  "\u2581requirement": 5940,
  "\u2581resurrect": 5941,
  "\u2581traveled": 5942,
  "\u2581ushikilwe": 5943,
  "\u2581weeds": 5944,
  "anza": 5945,
  "kulupije": 5946,
  "kuta": 5947,
  "ob\u0101di": 5948,
  "son": 5949,
  "\u258152": 5950,
  "\u25816.)": 5951,
  "\u2581April": 5952,
  "\u2581Batangi": 5953,
  "\u2581Biyampe": 5954,
  "\u2581Kik\u014dkeji": 5955,
  "\u2581Kupwila": 5956,
  "\u2581Wetu": 5957,
  "\u2581addressed": 5958,
  "\u2581assignments": 5959,
  "\u2581bajila": 5960,
  "\u2581balamine": 5961,
  "\u2581bendelele": 5962,
  "\u2581bikola": 5963,
  "\u2581bitanwa": 5964,
  "\u2581bitupubitupu": 5965,
  "\u2581bukekala": 5966,
  "\u2581capable": 5967,
  "\u2581condemned": 5968,
  "\u2581continually": 5969,
  "\u2581dyabo": 5970,
  "\u2581kebayukilepo": 5971,
  "\u2581miss": 5972,
  "\u2581ndyukile": 5973,
  "\u2581nkongo": 5974,
  "\u2581opposed": 5975,
  "\u2581ponsololo": 5976,
  "\u2581property": 5977,
  "\u2581tear": 5978,
  "\u2581welekeja": 5979,
  "\u2581writers": 5980,
  "Aye": 5981,
  "Yel": 5982,
  "butwilwe": 5983,
  "kekalanga": 5984,
  "kendelela": 5985,
  "komeja": 5986,
  "sangedile": 5987,
  "tengelwe": 5988,
  "that": 5989,
  "\u2581BI": 5990,
  "\u2581Dictionary": 5991,
  "\u2581Nabo": 5992,
  "\u2581Pilato": 5993,
  "\u2581Reflect": 5994,
  "\u2581Says": 5995,
  "\u2581Zion": 5996,
  "\u2581babatyijibwe": 5997,
  "\u2581batupondo": 5998,
  "\u2581bat\u014dta": 5999,
  "\u2581bitter": 6000,
  "\u2581bivulevule": 6001,
  "\u2581bobwa": 6002,
  "\u2581bukomokomo": 6003,
  "\u2581bupolapola": 6004,
  "\u2581caught": 6005,
  "\u2581declaration": 6006,
  "\u2581dies": 6007,
  "\u2581dikasa": 6008,
  "\u2581ends": 6009,
  "\u2581examination": 6010,
  "\u2581explanation": 6011,
  "\u2581harsh": 6012,
  "\u2581houses": 6013,
  "\u2581impact": 6014,
  "\u2581kana": 6015,
  "\u2581kingship": 6016,
  "\u2581kipimo": 6017,
  "\u2581kulaya": 6018,
  "\u2581kwibu": 6019,
  "\u2581langa": 6020,
  "\u2581langulukila": 6021,
  "\u2581leader": 6022,
  "\u2581mupe": 6023,
  "\u2581muyule": 6024,
  "\u2581nyekeke": 6025,
  "\u2581popa": 6026,
  "\u2581reputation": 6027,
  "\u2581scholars": 6028,
  "\u2581searching": 6029,
  "\u2581sorrow": 6030,
  "\u2581tuvuluke": 6031,
  "\u2581w\u0101kwete": 6032,
  "\u2581w\u0101t\u016bdile": 6033,
  "13": 6034,
  "butwile": 6035,
  "b\u0101na": 6036,
  "endelela": 6037,
  "kinga": 6038,
  "lo\u00f1anga": 6039,
  "tambwile": 6040,
  "\u0101di": 6041,
  "\u258141.": 6042,
  "\u2581Butyibi": 6043,
  "\u2581Ezela": 6044,
  "\u2581India": 6045,
  "\u2581Jehoshaphat": 6046,
  "\u2581Kola": 6047,
  "\u2581Making": 6048,
  "\u2581Mulume": 6049,
  "\u2581Mvubu": 6050,
  "\u2581Nineva": 6051,
  "\u2581Nki": 6052,
  "\u2581Thousand": 6053,
  "\u2581anxieties": 6054,
  "\u2581asleep": 6055,
  "\u2581bakamona": 6056,
  "\u2581batongwe": 6057,
  "\u2581bat\u014dka": 6058,
  "\u2581biyampepo": 6059,
  "\u2581budyumuku": 6060,
  "\u2581bulemununi": 6061,
  "\u2581crime": 6062,
  "\u2581cup": 6063,
  "\u2581entitled": 6064,
  "\u2581extraordinary": 6065,
  "\u2581faces": 6066,
  "\u2581feature": 6067,
  "\u2581healed": 6068,
  "\u2581keky\u0101dipo": 6069,
  "\u2581kushikwa": 6070,
  "\u2581labor": 6071,
  "\u2581maloa": 6072,
  "\u2581mifwe": 6073,
  "\u2581mumwekelo": 6074,
  "\u2581munonga": 6075,
  "\u2581ngikale": 6076,
  "\u2581priorities": 6077,
  "\u2581scene": 6078,
  "\u2581widely": 6079,
  "07": 6080,
  "L": 6081,
  "Mwana": 6082,
  "jokele": 6083,
  "kekala": 6084,
  "ntanda": 6085,
  "\u2581City": 6086,
  "\u2581Elders": 6087,
  "\u2581Kalunga": 6088,
  "\u2581Mi": 6089,
  "\u2581Miso\u00f1anya": 6090,
  "\u2581Shepherd": 6091,
  "\u2581Trust": 6092,
  "\u2581appealing": 6093,
  "\u2581balombola": 6094,
  "\u2581bound": 6095,
  "\u2581b\u0101pelele": 6096,
  "\u2581captivity": 6097,
  "\u2581center": 6098,
  "\u2581deserve": 6099,
  "\u2581fears": 6100,
  "\u2581foolish": 6101,
  "\u2581friendships": 6102,
  "\u2581gained": 6103,
  "\u2581greed": 6104,
  "\u2581hesitate": 6105,
  "\u2581instruct": 6106,
  "\u2581judged": 6107,
  "\u2581kene": 6108,
  "\u2581kibutwila": 6109,
  "\u2581kitako": 6110,
  "\u2581kumufwija": 6111,
  "\u2581kungi": 6112,
  "\u2581kutabula": 6113,
  "\u2581kutopeka": 6114,
  "\u2581kwibakankamika": 6115,
  "\u2581mans\u00e1": 6116,
  "\u2581memory": 6117,
  "\u2581nashilula": 6118,
  "\u2581pa\u0101nene": 6119,
  "\u2581pictures": 6120,
  "\u2581surrounded": 6121,
  "\u2581tonso": 6122,
  "\u2581tulonga": 6123,
  "\u2581tuvutakanya": 6124,
  "\u2581visible": 6125,
  "\u2581w\u0101imbile": 6126,
  "\u2581y\u014d": 6127,
  "37": 6128,
  "but": 6129,
  "kija": 6130,
  "kulumpe": 6131,
  "nanga": 6132,
  "\u2581BIDI": 6133,
  "\u2581Eventually": 6134,
  "\u2581Find": 6135,
  "\u2581Highlight": 6136,
  "\u2581Korah": 6137,
  "\u2581Me": 6138,
  "\u2581abroad": 6139,
  "\u2581absorb": 6140,
  "\u2581babadilwa": 6141,
  "\u2581bantomboki": 6142,
  "\u2581batyibi": 6143,
  "\u2581broke": 6144,
  "\u2581b\u0101itabije": 6145,
  "\u2581doubts": 6146,
  "\u2581gracious": 6147,
  "\u2581headship": 6148,
  "\u2581kubadikila": 6149,
  "\u2581kudingakanya": 6150,
  "\u2581kusoneka": 6151,
  "\u2581lacking": 6152,
  "\u2581participate": 6153,
  "\u2581played": 6154,
  "\u2581pleasant": 6155,
  "\u2581rejoicing": 6156,
  "\u2581restoration": 6157,
  "\u2581rewarding": 6158,
  "\u2581schedule": 6159,
  "\u2581similarly": 6160,
  "\u2581tent": 6161,
  "\u2581trustworthy": 6162,
  "\u2581village": 6163,
  "\u2581wamone": 6164,
  "\u2581wingidila": 6165,
  "Ngo": 6166,
  "ivwana": 6167,
  "lembele": 6168,
  "\u25812002": 6169,
  "\u2581BANTU": 6170,
  "\u2581Cameron": 6171,
  "\u2581Egyptian": 6172,
  "\u2581Ezra": 6173,
  "\u2581Gal": 6174,
  "\u2581Musapu": 6175,
  "\u2581Numbers": 6176,
  "\u2581Tunangu": 6177,
  "\u2581View": 6178,
  "\u2581Yehoshafata": 6179,
  "\u2581Yude": 6180,
  "\u2581Ziona": 6181,
  "\u2581assembly": 6182,
  "\u2581banonga": 6183,
  "\u2581bibajinji": 6184,
  "\u2581byanena": 6185,
  "\u2581context": 6186,
  "\u2581effectively": 6187,
  "\u2581emotionally": 6188,
  "\u2581kolola": 6189,
  "\u2581lips": 6190,
  "\u2581mfwaninwe": 6191,
  "\u2581mobimwekela": 6192,
  "\u2581mumweke": 6193,
  "\u2581muswe": 6194,
  "\u2581namely": 6195,
  "\u2581prospects": 6196,
  "\u2581reside": 6197,
  "\u2581surface": 6198,
  "\u2581tubamone": 6199,
  "\u2581uketukwasha": 6200,
  "\u2581utamba": 6201,
  "\u2581uy\u016bkile": 6202,
  "\u2581yoba": 6203,
  "Bulopwe": 6204,
  "fwa": 6205,
  "ityilwe": 6206,
  "kitatyi": 6207,
  "mulengeje": 6208,
  "pebwa": 6209,
  "\u2581133": 6210,
  "\u25811950": 6211,
  "\u2581Baal": 6212,
  "\u2581Batumibwa": 6213,
  "\u2581Beletanye": 6214,
  "\u2581Busongi": 6215,
  "\u2581History": 6216,
  "\u2581Majina": 6217,
  "\u2581Mukumbi": 6218,
  "\u2581River": 6219,
  "\u2581Shenu": 6220,
  "\u2581alombola": 6221,
  "\u2581amazing": 6222,
  "\u2581avoided": 6223,
  "\u2581bakaminwe": 6224,
  "\u2581bufudile": 6225,
  "\u2581bwitukwasha": 6226,
  "\u2581byotusakilwa": 6227,
  "\u2581comforted": 6228,
  "\u2581expand": 6229,
  "\u2581experiencing": 6230,
  "\u2581gaining": 6231,
  "\u2581holds": 6232,
  "\u2581imperfections": 6233,
  "\u2581increasing": 6234,
  "\u2581kupempula": 6235,
  "\u2581mapu": 6236,
  "\u2581mfutwa": 6237,
  "\u2581nine": 6238,
  "\u2581peer": 6239,
  "\u2581pity": 6240,
  "\u2581refrain": 6241,
  "\u2581rewards": 6242,
  "\u2581talents": 6243,
  "\u2581tanga": 6244,
  "\u2581translations": 6245,
  "\u2581tubidi": 6246,
  "\u2581twiule": 6247,
  "\u2581utanwa": 6248,
  "\u2581walongele": 6249,
  "\u2581wimanine": 6250,
  "Who": 6251,
  "buswe": 6252,
  "fikija": 6253,
  "kankamikile": 6254,
  "\u2581Besides": 6255,
  "\u2581Binebine": 6256,
  "\u2581Imitate": 6257,
  "\u2581Knorr": 6258,
  "\u2581Les": 6259,
  "\u2581Seed": 6260,
  "\u2581Walk": 6261,
  "\u2581admit": 6262,
  "\u2581arose": 6263,
  "\u2581bilengeja": 6264,
  "\u2581bin\u00e1": 6265,
  "\u2581calm": 6266,
  "\u2581credit": 6267,
  "\u2581deceived": 6268,
  "\u2581diligent": 6269,
  "\u2581feed": 6270,
  "\u2581healing": 6271,
  "\u2581hungry": 6272,
  "\u2581imanine": 6273,
  "\u2581imitating": 6274,
  "\u2581kafwaninwepo": 6275,
  "\u2581kunenena": 6276,
  "\u2581kutwala": 6277,
  "\u2581kwangula": 6278,
  "\u2581kwimika": 6279,
  "\u2581mikate": 6280,
  "\u2581miyule": 6281,
  "\u2581motu": 6282,
  "\u2581nzuba": 6283,
  "\u2581officials": 6284,
  "\u2581pavule": 6285,
  "\u2581quit": 6286,
  "\u2581scale": 6287,
  "\u2581sincerely": 6288,
  "\u2581sold": 6289,
  "\u2581tax": 6290,
  "\u2581temper": 6291,
  "\u2581wafwa": 6292,
  "\u2581w\u0101lamine": 6293,
  "\u2581yao": 6294,
  "budilwe": 6295,
  "esele": 6296,
  "fika": 6297,
  "ino": 6298,
  "londa": 6299,
  "telwa": 6300,
  "vulukanga": 6301,
  "w\u0101": 6302,
  "yukanya": 6303,
  "\u258119]": 6304,
  "\u25812003": 6305,
  "\u258129,": 6306,
  "\u2581Abisalome": 6307,
  "\u2581Become": 6308,
  "\u2581Bendej": 6309,
  "\u2581Byadi": 6310,
  "\u2581Jampani": 6311,
  "\u2581Jude": 6312,
  "\u2581Lukunwa": 6313,
  "\u2581Nabya": 6314,
  "\u2581acquainted": 6315,
  "\u2581associations": 6316,
  "\u2581claimed": 6317,
  "\u2581cold": 6318,
  "\u2581comment": 6319,
  "\u2581continuing": 6320,
  "\u2581copies": 6321,
  "\u2581crushed": 6322,
  "\u2581donations": 6323,
  "\u2581forgiven": 6324,
  "\u2581fourth": 6325,
  "\u2581kamoni": 6326,
  "\u2581kinondanonda": 6327,
  "\u2581kit\u016blo": 6328,
  "\u2581kukesha": 6329,
  "\u2581kukwabo": 6330,
  "\u2581kulemununa": 6331,
  "\u2581kuzumbija": 6332,
  "\u2581kyumba": 6333,
  "\u2581k\u0101di": 6334,
  "\u2581lukeke": 6335,
  "\u2581manwi": 6336,
  "\u2581mut\u014dto": 6337,
  "\u2581prompt": 6338,
  "\u2581rebellious": 6339,
  "\u2581respects": 6340,
  "\u2581sendwe": 6341,
  "\u2581specifically": 6342,
  "\u2581tabenakulo": 6343,
  "\u2581tend": 6344,
  "\u2581terrible": 6345,
  "\u2581thrilling": 6346,
  "\u2581ushikata": 6347,
  "\u2581utengele": 6348,
  "\u2581vain": 6349,
  "\u2581wanenene": 6350,
  "Nanshi": 6351,
  "Pano": 6352,
  "fikijanga": 6353,
  "koma": 6354,
  "komejanga": 6355,
  "kutyile": 6356,
  "pangilwe": 6357,
  "ponene": 6358,
  "tongele": 6359,
  "\u25812006": 6360,
  "\u258130:": 6361,
  "\u258164": 6362,
  "\u2581August": 6363,
  "\u2581Dyese": 6364,
  "\u2581Gilead": 6365,
  "\u2581International": 6366,
  "\u2581Mipya": 6367,
  "\u2581Often": 6368,
  "\u2581Speaking": 6369,
  "\u2581Spiritual": 6370,
  "\u2581Twikale": 6371,
  "\u2581apostate": 6372,
  "\u2581badya": 6373,
  "\u2581bafwa": 6374,
  "\u2581basangelanga": 6375,
  "\u2581biyombo": 6376,
  "\u2581blame": 6377,
  "\u2581brochure": 6378,
  "\u2581bya\u0101longele": 6379,
  "\u2581byotukabandaula": 6380,
  "\u2581b\u0101lombwele": 6381,
  "\u2581dark": 6382,
  "\u2581debt": 6383,
  "\u2581discouragement": 6384,
  "\u2581fish": 6385,
  "\u2581historical": 6386,
  "\u2581ikola": 6387,
  "\u2581ileta": 6388,
  "\u2581immediate": 6389,
  "\u2581kishile": 6390,
  "\u2581kufuta": 6391,
  "\u2581kumulomba": 6392,
  "\u2581kutandabula": 6393,
  "\u2581kwingidijibwa": 6394,
  "\u2581lui": 6395,
  "\u2581makomwa": 6396,
  "\u2581mwanenu": 6397,
  "\u2581ntambo": 6398,
  "\u2581partake": 6399,
  "\u2581reads": 6400,
  "\u2581rendering": 6401,
  "\u2581shand": 6402,
  "\u2581tools": 6403,
  "\u2581ukola": 6404,
  "\u2581widows": 6405,
  ">": 6406,
  "bana": 6407,
  "ce": 6408,
  "endele": 6409,
  "kalakanya": 6410,
  "kebidipo": 6411,
  "ll": 6412,
  "proving": 6413,
  "sumininwe": 6414,
  "zumbijazumbija": 6415,
  "\u2581Boloke": 6416,
  "\u2581Congregation": 6417,
  "\u2581Fidipa": 6418,
  "\u2581Grand": 6419,
  "\u2581Hakai": 6420,
  "\u2581Hope": 6421,
  "\u2581July": 6422,
  "\u2581Meal": 6423,
  "\u2581Service": 6424,
  "\u2581Sha": 6425,
  "\u2581Yak": 6426,
  "\u2581afflicted": 6427,
  "\u2581aged": 6428,
  "\u2581ate": 6429,
  "\u2581babundile": 6430,
  "\u2581contained": 6431,
  "\u2581doctor": 6432,
  "\u2581exercised": 6433,
  "\u2581happening": 6434,
  "\u2581honesty": 6435,
  "\u2581images": 6436,
  "\u2581kudisha": 6437,
  "\u2581kukengila": 6438,
  "\u2581kusanshija": 6439,
  "\u2581kutulumuka": 6440,
  "\u2581kwiubija": 6441,
  "\u2581lift": 6442,
  "\u2581maintained": 6443,
  "\u2581mutyipo": 6444,
  "\u2581myaba": 6445,
  "\u2581printed": 6446,
  "\u2581reasoned": 6447,
  "\u2581refreshment": 6448,
  "\u2581thorough": 6449,
  "\u2581umbedi": 6450,
  "\u2581unfaithful": 6451,
  "\u2581urgent": 6452,
  "\u2581victim": 6453,
  "\u2581witnessed": 6454,
  "elele": 6455,
  "kanya": 6456,
  "mwekeja": 6457,
  "my": 6458,
  "tompa": 6459,
  "\u258128]": 6460,
  "\u2581Above": 6461,
  "\u2581Brooklyn": 6462,
  "\u2581Consequently": 6463,
  "\u2581Evidently": 6464,
  "\u2581Judge": 6465,
  "\u2581Kyo": 6466,
  "\u2581Mwikeulu": 6467,
  "\u2581October": 6468,
  "\u2581apostasy": 6469,
  "\u2581armor": 6470,
  "\u2581ayuke": 6471,
  "\u2581badila": 6472,
  "\u2581bisandi": 6473,
  "\u2581bisonekelwe": 6474,
  "\u2581b\u0101mwene": 6475,
  "\u2581conform": 6476,
  "\u2581dyangi": 6477,
  "\u2581favorably": 6478,
  "\u2581intimate": 6479,
  "\u2581kongola": 6480,
  "\u2581kupituluka": 6481,
  "\u2581kupungila": 6482,
  "\u2581leadership": 6483,
  "\u2581mimweke": 6484,
  "\u2581northern": 6485,
  "\u2581practic": 6486,
  "\u2581price": 6487,
  "\u2581sanctified": 6488,
  "\u2581satisfy": 6489,
  "\u2581spending": 6490,
  "\u2581teenager": 6491,
  "\u2581testimony": 6492,
  "\u2581trip": 6493,
  "\u2581tuk\u014dkele": 6494,
  "\u2581ukwete": 6495,
  "\u2581witukwasha": 6496,
  "\u2581witupele": 6497,
  "\u2581w\u0101ivwene": 6498,
  "\u2581w\u0101lombola": 6499,
  "at": 6500,
  "ation": 6501,
  "lupuka": 6502,
  "mpe": 6503,
  "shinta": 6504,
  "some": 6505,
  "twadi": 6506,
  "\u2581104": 6507,
  "\u2581147": 6508,
  "\u258134,": 6509,
  "\u2581BU": 6510,
  "\u2581Balunda": 6511,
  "\u2581Franse": 6512,
  "\u2581Kifunka": 6513,
  "\u2581Marriage": 6514,
  "\u2581Nebukaneza": 6515,
  "\u2581Reign": 6516,
  "\u2581Tukulupile": 6517,
  "\u2581Which": 6518,
  "\u2581apostates": 6519,
  "\u2581assemblies": 6520,
  "\u2581badness": 6521,
  "\u2581bakimbanga": 6522,
  "\u2581bapelwe": 6523,
  "\u2581bei": 6524,
  "\u2581bikatakata": 6525,
  "\u2581bikokejika": 6526,
  "\u2581byobwanya": 6527,
  "\u2581comfortable": 6528,
  "\u2581errors": 6529,
  "\u2581exemplary": 6530,
  "\u2581helper": 6531,
  "\u2581highlights": 6532,
  "\u2581kufudija": 6533,
  "\u2581kujokejibwa": 6534,
  "\u2581kukanda": 6535,
  "\u2581kumumona": 6536,
  "\u2581kutalaja": 6537,
  "\u2581majika": 6538,
  "\u2581makopo": 6539,
  "\u2581mobukila": 6540,
  "\u2581n\u0101di": 6541,
  "\u2581perfectly": 6542,
  "\u2581positions": 6543,
  "\u2581returning": 6544,
  "\u2581ruled": 6545,
  "\u2581stories": 6546,
  "\u2581striving": 6547,
  "\u2581unbelievers": 6548,
  "\u2581unexpected": 6549,
  "\u2581upela": 6550,
  "\u2581up\u0101nanga": 6551,
  "\u2581utanga": 6552,
  "\u2581yenda": 6553,
  "Muntu": 6554,
  "kanye": 6555,
  "mwe": 6556,
  "tambe": 6557,
  "tenga": 6558,
  "\u25813]": 6559,
  "\u2581Absalom": 6560,
  "\u2581Anna": 6561,
  "\u2581Bo": 6562,
  "\u2581Evening": 6563,
  "\u2581Knowing": 6564,
  "\u2581MIT\u014cTO": 6565,
  "\u2581Maintain": 6566,
  "\u2581Munonga": 6567,
  "\u2581Ngileade": 6568,
  "\u2581Samaria": 6569,
  "\u2581Ubweja": 6570,
  "\u2581accused": 6571,
  "\u2581adopted": 6572,
  "\u2581belonging": 6573,
  "\u2581bikwata\u00f1ene": 6574,
  "\u2581bilula": 6575,
  "\u2581bilupukile": 6576,
  "\u2581bisambila": 6577,
  "\u2581bongojani": 6578,
  "\u2581bululu": 6579,
  "\u2581bup\u0113la": 6580,
  "\u2581byabul\u0113me": 6581,
  "\u2581commissioned": 6582,
  "\u2581completed": 6583,
  "\u2581consult": 6584,
  "\u2581development": 6585,
  "\u2581east": 6586,
  "\u2581ethnic": 6587,
  "\u2581fed": 6588,
  "\u2581hell": 6589,
  "\u2581hoped": 6590,
  "\u2581iron": 6591,
  "\u2581kaimba": 6592,
  "\u2581kamema": 6593,
  "\u2581ketwi": 6594,
  "\u2581kibadikile": 6595,
  "\u2581kimweka": 6596,
  "\u2581kitabo": 6597,
  "\u2581kukuna": 6598,
  "\u2581kusa": 6599,
  "\u2581kutongwa": 6600,
  "\u2581mwa\u0101di": 6601,
  "\u2581patriarch": 6602,
  "\u2581repeated": 6603,
  "\u2581sending": 6604,
  "\u2581shield": 6605,
  "\u2581victims": 6606,
  "\u2581waenda": 6607,
  "\u2581watching": 6608,
  "\u2581wholeheartedly": 6609,
  "MO": 6610,
  "fula": 6611,
  "kudi": 6612,
  "kwe": 6613,
  "londolola": 6614,
  "lwila": 6615,
  "mone": 6616,
  "pwija": 6617,
  "sapwile": 6618,
  "tonga": 6619,
  "\u258127,": 6620,
  "\u258146.": 6621,
  "\u2581Buluji": 6622,
  "\u2581Bwa": 6623,
  "\u2581Christlike": 6624,
  "\u2581Col": 6625,
  "\u2581Haggai": 6626,
  "\u2581Kulupila": 6627,
  "\u2581Nations": 6628,
  "\u2581Ostrali": 6629,
  "\u2581Psalms": 6630,
  "\u2581agreed": 6631,
  "\u2581bankambo": 6632,
  "\u2581billions": 6633,
  "\u2581bituputupu": 6634,
  "\u2581bonsopo": 6635,
  "\u2581color": 6636,
  "\u2581commendation": 6637,
  "\u2581desired": 6638,
  "\u2581disposed": 6639,
  "\u2581equal": 6640,
  "\u2581glorified": 6641,
  "\u2581greatness": 6642,
  "\u2581heal": 6643,
  "\u2581heirs": 6644,
  "\u2581kikoleja": 6645,
  "\u2581kumushipiditu": 6646,
  "\u2581kupangwa": 6647,
  "\u2581kupoteja": 6648,
  "\u2581kutyibila": 6649,
  "\u2581linked": 6650,
  "\u2581mupika": 6651,
  "\u2581musonko": 6652,
  "\u2581paadi": 6653,
  "\u2581pleasures": 6654,
  "\u2581receives": 6655,
  "\u2581ridicule": 6656,
  "\u2581silent": 6657,
  "\u2581tutengele": 6658,
  "\u2581umone": 6659,
  "\u2581ushipiditu": 6660,
  "\u2581weigh": 6661,
  "ED": 6662,
  "ipindi": 6663,
  "kwashanga": 6664,
  "lupulanga": 6665,
  "nwe": 6666,
  "tumbije": 6667,
  "\u2581Any": 6668,
  "\u2581Death": 6669,
  "\u2581Kibajinji": 6670,
  "\u2581Likely": 6671,
  "\u2581Nebuchadnezzar": 6672,
  "\u2581St": 6673,
  "\u2581Truly": 6674,
  "\u2581Yo": 6675,
  "\u2581accompany": 6676,
  "\u2581balonde": 6677,
  "\u2581biya": 6678,
  "\u2581bones": 6679,
  "\u2581bukile": 6680,
  "\u2581bunkasampe": 6681,
  "\u2581chance": 6682,
  "\u2581citizens": 6683,
  "\u2581compromise": 6684,
  "\u2581distressing": 6685,
  "\u2581execute": 6686,
  "\u2581fighting": 6687,
  "\u2581habit": 6688,
  "\u2581highlight": 6689,
  "\u2581keby\u0101dipo": 6690,
  "\u2581kubapu": 6691,
  "\u2581kubweja": 6692,
  "\u2581kutwejibwa": 6693,
  "\u2581lwenu": 6694,
  "\u2581mobe": 6695,
  "\u2581moon": 6696,
  "\u2581mukelenge": 6697,
  "\u2581nearby": 6698,
  "\u2581object": 6699,
  "\u2581otumona": 6700,
  "\u2581partner": 6701,
  "\u2581rock": 6702,
  "\u2581settle": 6703,
  "\u2581sheba": 6704,
  "\u2581stumbling": 6705,
  "\u2581tuke": 6706,
  "\u2581tulombolanga": 6707,
  "\u2581understands": 6708,
  "\u2581valid": 6709,
  "\u2581wiipangule": 6710,
  "\u2581w\u0101sakile": 6711,
  "ROM": 6712,
  "by\u0101lengeje": 6713,
  "ies": 6714,
  "kokela": 6715,
  "mwenwe": 6716,
  "myaka": 6717,
  "nenwa": 6718,
  "sanswe": 6719,
  "sengele": 6720,
  "shala": 6721,
  "songele": 6722,
  "tanwa": 6723,
  "tenwe": 6724,
  "\u25812007": 6725,
  "\u2581400": 6726,
  "\u258168": 6727,
  "\u2581Byotu": 6728,
  "\u2581Empire": 6729,
  "\u2581JOHN": 6730,
  "\u2581Kulangulukila": 6731,
  "\u2581Kwa": 6732,
  "\u2581Loving": 6733,
  "\u2581Mulunda": 6734,
  "\u2581News": 6735,
  "\u2581Use": 6736,
  "\u2581Were": 6737,
  "\u2581adhere": 6738,
  "\u2581admits": 6739,
  "\u2581appointment": 6740,
  "\u2581ba\u0101di": 6741,
  "\u2581bijika": 6742,
  "\u2581birds": 6743,
  "\u2581bwingila": 6744,
  "\u2581byabupeta": 6745,
  "\u2581byokudi": 6746,
  "\u2581by\u016bmi": 6747,
  "\u2581chaste": 6748,
  "\u2581depict": 6749,
  "\u2581dyamba": 6750,
  "\u2581educational": 6751,
  "\u2581enda": 6752,
  "\u2581exciting": 6753,
  "\u2581expose": 6754,
  "\u2581illustrates": 6755,
  "\u2581initial": 6756,
  "\u2581kesha": 6757,
  "\u2581kisambila": 6758,
  "\u2581kitupa": 6759,
  "\u2581kudipo": 6760,
  "\u2581kumvwa\u00f1ana": 6761,
  "\u2581kuzoza": 6762,
  "\u2581kwa\u0101di": 6763,
  "\u2581messages": 6764,
  "\u2581mutonko": 6765,
  "\u2581opinion": 6766,
  "\u2581origin": 6767,
  "\u2581produces": 6768,
  "\u2581shadow": 6769,
  "\u2581sinner": 6770,
  "\u2581uki": 6771,
  "\u2581w\u0113bapele": 6772,
  "ES": 6773,
  "NDA": 6774,
  "Tu": 6775,
  "dyumwine": 6776,
  "fikidile": 6777,
  "kwatakanya": 6778,
  "lombolanga": 6779,
  "ngi": 6780,
  "so\u00f1enye": 6781,
  "\u0112": 6782,
  "\u2581200": 6783,
  "\u25812015": 6784,
  "\u2581607": 6785,
  "\u258163": 6786,
  "\u258175": 6787,
  "\u2581Additional": 6788,
  "\u2581Kutabukidila": 6789,
  "\u2581LU": 6790,
  "\u2581September": 6791,
  "\u2581achieve": 6792,
  "\u2581bafundija": 6793,
  "\u2581bupempudi": 6794,
  "\u2581bwenda": 6795,
  "\u2581capacity": 6796,
  "\u2581claims": 6797,
  "\u2581composed": 6798,
  "\u2581deaf": 6799,
  "\u2581deception": 6800,
  "\u2581deepen": 6801,
  "\u2581defend": 6802,
  "\u2581discussing": 6803,
  "\u2581doctrine": 6804,
  "\u2581ear": 6805,
  "\u2581exchange": 6806,
  "\u2581fled": 6807,
  "\u2581fulfilling": 6808,
  "\u2581illustrated": 6809,
  "\u2581immortal": 6810,
  "\u2581kilotwa": 6811,
  "\u2581kitomeno": 6812,
  "\u2581kufutulula": 6813,
  "\u2581kukidi": 6814,
  "\u2581kwibasapwila": 6815,
  "\u2581kwit\u016bdila": 6816,
  "\u2581level": 6817,
  "\u2581makinga": 6818,
  "\u2581muvwadilo": 6819,
  "\u2581ongoing": 6820,
  "\u2581opinions": 6821,
  "\u2581outlook": 6822,
  "\u2581overwhelmed": 6823,
  "\u2581stands": 6824,
  "\u2581strike": 6825,
  "\u2581twendelelei": 6826,
  "\u2581tw\u0101di": 6827,
  "\u2581utabukile": 6828,
  "\u2581vivid": 6829,
  "\u2581w\u0101jingulwile": 6830,
  "4)": 6831,
  "Why": 6832,
  "etu": 6833,
  "kashilula": 6834,
  "new": 6835,
  "pangile": 6836,
  "tamba": 6837,
  "ukwata\u00f1ene": 6838,
  "vi": 6839,
  "\u00e9moi": 6840,
  "\u258147.": 6841,
  "\u2581Baluki": 6842,
  "\u2581Busantu": 6843,
  "\u2581Lead": 6844,
  "\u2581Long": 6845,
  "\u2581Way": 6846,
  "\u2581Ya": 6847,
  "\u2581agreement": 6848,
  "\u2581application": 6849,
  "\u2581assume": 6850,
  "\u2581au": 6851,
  "\u2581awaiting": 6852,
  "\u2581bulembakane": 6853,
  "\u2581bushintuludi": 6854,
  "\u2581bwi": 6855,
  "\u2581byobalonga": 6856,
  "\u2581conceal": 6857,
  "\u2581delay": 6858,
  "\u2581elements": 6859,
  "\u2581ensure": 6860,
  "\u2581everywhere": 6861,
  "\u2581executed": 6862,
  "\u2581foot": 6863,
  "\u2581foremost": 6864,
  "\u2581judging": 6865,
  "\u2581kanda": 6866,
  "\u2581kilengeja": 6867,
  "\u2581kukingwa": 6868,
  "\u2581kulondwalondwa": 6869,
  "\u2581kushika": 6870,
  "\u2581lawlessness": 6871,
  "\u2581masala": 6872,
  "\u2581mobikadile": 6873,
  "\u2581myuya": 6874,
  "\u2581nkulupile": 6875,
  "\u2581nsa": 6876,
  "\u2581obvious": 6877,
  "\u2581petu": 6878,
  "\u2581river": 6879,
  "\u2581select": 6880,
  "\u2581sole": 6881,
  "\u2581struggling": 6882,
  "\u2581twenda": 6883,
  "\u2581upanga": 6884,
  "\u2581waingile": 6885,
  "\u2581w\u0101dingakenye": 6886,
  "\u2581\u00f1anjilo": 6887,
  "kongakanya": 6888,
  "longi": 6889,
  "longside": 6890,
  "nointed": 6891,
  "sokole": 6892,
  "teakanya": 6893,
  "um": 6894,
  "\u2581Ana": 6895,
  "\u2581KYA": 6896,
  "\u2581Kitobo": 6897,
  "\u2581Kutunduka": 6898,
  "\u2581Longa": 6899,
  "\u2581Mama": 6900,
  "\u2581Mukaji": 6901,
  "\u2581arrival": 6902,
  "\u2581babwenye": 6903,
  "\u2581bamweka": 6904,
  "\u2581bapandulwemo": 6905,
  "\u2581bendanga": 6906,
  "\u2581biloba": 6907,
  "\u2581bishintulula": 6908,
  "\u2581buleta": 6909,
  "\u2581charge": 6910,
  "\u2581commended": 6911,
  "\u2581covered": 6912,
  "\u2581depressed": 6913,
  "\u2581dilobe": 6914,
  "\u2581disposition": 6915,
  "\u2581distinguish": 6916,
  "\u2581elsewhere": 6917,
  "\u2581exhortation": 6918,
  "\u2581exile": 6919,
  "\u2581goats": 6920,
  "\u2581huge": 6921,
  "\u2581hunger": 6922,
  "\u2581imitation": 6923,
  "\u2581improper": 6924,
  "\u2581intelligent": 6925,
  "\u2581kalama": 6926,
  "\u2581kew\u0101dipo": 6927,
  "\u2581kondi": 6928,
  "\u2581kut\u014dkeja": 6929,
  "\u2581kuvudija": 6930,
  "\u2581kyonadi": 6931,
  "\u2581length": 6932,
  "\u2581mafingo": 6933,
  "\u2581mashintwe": 6934,
  "\u2581materially": 6935,
  "\u2581measures": 6936,
  "\u2581media": 6937,
  "\u2581misaka": 6938,
  "\u2581missing": 6939,
  "\u2581mulonge": 6940,
  "\u2581mutupu": 6941,
  "\u2581necessarily": 6942,
  "\u2581nkya": 6943,
  "\u2581proclaiming": 6944,
  "\u2581shame": 6945,
  "\u2581sitting": 6946,
  "\u2581submission": 6947,
  "\u2581texts": 6948,
  "\u2581tongues": 6949,
  "\u2581totally": 6950,
  "\u2581tunenwe": 6951,
  "\u2581waikele": 6952,
  "\u2581wealthy": 6953,
  "\u2581witukankamika": 6954,
  "\u2581w\u0101lailwe": 6955,
  "KA": 6956,
  "TEO": 6957,
  "by\u0101fikile": 6958,
  "fwidile": 6959,
  "imanine": 6960,
  "jingulula": 6961,
  "jo": 6962,
  "kakwasha": 6963,
  "kaleta": 6964,
  "kapempula": 6965,
  "lamine": 6966,
  "of": 6967,
  "ry": 6968,
  "senselela": 6969,
  "ula": 6970,
  "\u00f1eni": 6971,
  "\u25812004": 6972,
  "\u258125,": 6973,
  "\u258143.": 6974,
  "\u258171": 6975,
  "\u2581Buyuki": 6976,
  "\u2581George": 6977,
  "\u2581Happiness": 6978,
  "\u2581Kanada": 6979,
  "\u2581Kulama": 6980,
  "\u2581March": 6981,
  "\u2581Much": 6982,
  "\u2581PSALM": 6983,
  "\u2581Trinity": 6984,
  "\u2581awe": 6985,
  "\u2581bambuji": 6986,
  "\u2581batenwe": 6987,
  "\u2581befunda": 6988,
  "\u2581bikalupuka": 6989,
  "\u2581comparison": 6990,
  "\u2581dijiba": 6991,
  "\u2581dying": 6992,
  "\u2581fields": 6993,
  "\u2581frequently": 6994,
  "\u2581garments": 6995,
  "\u2581gets": 6996,
  "\u2581hide": 6997,
  "\u2581judicial": 6998,
  "\u2581kashinda": 6999,
  "\u2581kitufundija": 7000,
  "\u2581kukaya": 7001,
  "\u2581kuk\u014dka": 7002,
  "\u2581kumwipaya": 7003,
  "\u2581kutonona": 7004,
  "\u2581lubwanya": 7005,
  "\u2581malamuni": 7006,
  "\u2581mwitabije": 7007,
  "\u2581originate": 7008,
  "\u2581replaced": 7009,
  "\u2581rid": 7010,
  "\u2581scientists": 7011,
  "\u2581seeming": 7012,
  "\u2581shobe": 7013,
  "\u2581solution": 7014,
  "\u2581submissive": 7015,
  "\u2581tubulwe": 7016,
  "\u2581unwise": 7017,
  "\u2581waleka": 7018,
  "\u2581weaken": 7019,
  "\u2581wingilwa": 7020,
  "\u2581witabija": 7021,
  "butula": 7022,
  "da": 7023,
  "doubtedly": 7024,
  "fundije": 7025,
  "jimija": 7026,
  "komena": 7027,
  "ky\u0101shilwile": 7028,
  "l\u0113mekele": 7029,
  "ment": 7030,
  "pile": 7031,
  "shintulwila": 7032,
  "swa": 7033,
  "tabukile": 7034,
  "they": 7035,
  "vudile": 7036,
  "yukilwe": 7037,
  "\u258169": 7038,
  "\u2581Betelema": 7039,
  "\u2581En": 7040,
  "\u2581Fid": 7041,
  "\u2581Gold": 7042,
  "\u2581Japan": 7043,
  "\u2581Mabible": 7044,
  "\u2581Nabalu": 7045,
  "\u2581Person": 7046,
  "\u2581WHEN": 7047,
  "\u2581baleta": 7048,
  "\u2581ba\u00f1eni": 7049,
  "\u2581bed": 7050,
  "\u2581bidyoma": 7051,
  "\u2581boloshile": 7052,
  "\u2581bulema": 7053,
  "\u2581butabukile": 7054,
  "\u2581byotusaka": 7055,
  "\u2581by\u0101tene": 7056,
  "\u2581conflicts": 7057,
  "\u2581cooperate": 7058,
  "\u2581deserves": 7059,
  "\u2581diligently": 7060,
  "\u2581emblems": 7061,
  "\u2581guilt": 7062,
  "\u2581homeland": 7063,
  "\u2581inand": 7064,
  "\u2581isangaja": 7065,
  "\u2581kikatakata": 7066,
  "\u2581koka": 7067,
  "\u2581kubandila": 7068,
  "\u2581kudingakanibwa": 7069,
  "\u2581kwitufundija": 7070,
  "\u2581kyabine": 7071,
  "\u2581kyongo": 7072,
  "\u2581load": 7073,
  "\u2581lulamato": 7074,
  "\u2581mfumo": 7075,
  "\u2581perceive": 7076,
  "\u2581petitions": 7077,
  "\u2581portion": 7078,
  "\u2581prior": 7079,
  "\u2581protects": 7080,
  "\u2581sacrificial": 7081,
  "\u2581soldier": 7082,
  "\u2581talenta": 7083,
  "\u2581timely": 7084,
  "\u2581tradition": 7085,
  "\u2581tuto": 7086,
  "\u2581unrepentant": 7087,
  "\u2581w\u0101endele": 7088,
  "\u2581yield": 7089,
  "Mika": 7090,
  "ard": 7091,
  "el": 7092,
  "kilombwela": 7093,
  "kwivwana": 7094,
  "reby": 7095,
  "sha": 7096,
  "\u2581106": 7097,
  "\u2581Baruch": 7098,
  "\u2581Batyibi": 7099,
  "\u2581Bethlehem": 7100,
  "\u2581Caesar": 7101,
  "\u2581Ear": 7102,
  "\u2581Lama": 7103,
  "\u2581Lusangukilo": 7104,
  "\u2581Michael": 7105,
  "\u2581Millions": 7106,
  "\u2581Mpango": 7107,
  "\u2581Mumweno": 7108,
  "\u2581Next": 7109,
  "\u2581Philippi": 7110,
  "\u2581Please": 7111,
  "\u2581Rule": 7112,
  "\u2581Samaritan": 7113,
  "\u2581Three": 7114,
  "\u2581Ves": 7115,
  "\u2581admonished": 7116,
  "\u2581arms": 7117,
  "\u2581atmosphere": 7118,
  "\u2581bipupo": 7119,
  "\u2581bitukwasha": 7120,
  "\u2581botulonga": 7121,
  "\u2581bukula": 7122,
  "\u2581byabine": 7123,
  "\u2581convince": 7124,
  "\u2581deceptive": 7125,
  "\u2581district": 7126,
  "\u2581examining": 7127,
  "\u2581imweka": 7128,
  "\u2581inclination": 7129,
  "\u2581injury": 7130,
  "\u2581kimpengele": 7131,
  "\u2581kubepa": 7132,
  "\u2581kuke": 7133,
  "\u2581kutebwa": 7134,
  "\u2581kuvutakanya": 7135,
  "\u2581leka": 7136,
  "\u2581listed": 7137,
  "\u2581luvumbi": 7138,
  "\u2581mumone": 7139,
  "\u2581mut\u014dtyi": 7140,
  "\u2581myotoka": 7141,
  "\u2581openly": 7142,
  "\u2581pototo": 7143,
  "\u2581reserved": 7144,
  "\u2581solve": 7145,
  "\u2581standpoint": 7146,
  "\u2581stayed": 7147,
  "\u2581sufficient": 7148,
  "\u2581trap": 7149,
  "\u2581unusual": 7150,
  "\u2581walombola": 7151,
  "\u2581wipangula": 7152,
  "3:": 7153,
  "bela": 7154,
  "bikele": 7155,
  "boba": 7156,
  "bulopwe": 7157,
  "k\u014dkeja": 7158,
  "lembelwe": 7159,
  "mukanda": 7160,
  "mutela": 7161,
  "panga": 7162,
  "ponena": 7163,
  "so\u00f1anibwe": 7164,
  "there": 7165,
  "uk\u0113kalanga": 7166,
  "vudila": 7167,
  "za": 7168,
  "\u2581150": 7169,
  "\u258130)": 7170,
  "\u2581Accordingly": 7171,
  "\u2581Ani": 7172,
  "\u2581Bafwaninwe": 7173,
  "\u2581Certainly": 7174,
  "\u2581Egyptians": 7175,
  "\u2581Gentiles": 7176,
  "\u2581IT": 7177,
  "\u2581Kesala": 7178,
  "\u2581Kiteokratike": 7179,
  "\u2581Lusa": 7180,
  "\u2581Milangwe": 7181,
  "\u2581Muyuda": 7182,
  "\u2581Mwi": 7183,
  "\u2581Nabal": 7184,
  "\u2581Near": 7185,
  "\u2581Old": 7186,
  "\u2581Sheol": 7187,
  "\u2581Theocratic": 7188,
  "\u2581advanced": 7189,
  "\u2581ashamed": 7190,
  "\u2581bajike": 7191,
  "\u2581bakabikala": 7192,
  "\u2581balame": 7193,
  "\u2581batanwa": 7194,
  "\u2581beside": 7195,
  "\u2581bul\u0101di": 7196,
  "\u2581bwitu": 7197,
  "\u2581byenu": 7198,
  "\u2581byepelo": 7199,
  "\u2581byoni": 7200,
  "\u2581comforts": 7201,
  "\u2581conducted": 7202,
  "\u2581disobey": 7203,
  "\u2581dyonka": 7204,
  "\u2581emanine": 7205,
  "\u2581highlighted": 7206,
  "\u2581kiyujo": 7207,
  "\u2581konsokonso": 7208,
  "\u2581kuk\u014dkolokwa": 7209,
  "\u2581kumwiula": 7210,
  "\u2581kwesela": 7211,
  "\u2581mwimaniji": 7212,
  "\u2581nywene": 7213,
  "\u2581previously": 7214,
  "\u2581respectful": 7215,
  "\u2581sell": 7216,
  "\u2581site": 7217,
  "\u2581statements": 7218,
  "\u2581tutyetye": 7219,
  "\u2581uketupa": 7220,
  "\u2581ulaile": 7221,
  "\u2581warn": 7222,
  "\u2581weapons": 7223,
  "\u2581wivwananga": 7224,
  "\u2581won": 7225,
  "b\u016bmi": 7226,
  "gave": 7227,
  "joka": 7228,
  "kekalapo": 7229,
  "kwatakanyanga": 7230,
  "sapwidile": 7231,
  "yuke": 7232,
  "\u2581'!": 7233,
  "\u258135:": 7234,
  "\u258148.": 7235,
  "\u258159": 7236,
  "\u258178": 7237,
  "\u2581Efiopya": 7238,
  "\u2581Jericho": 7239,
  "\u2581Kufika": 7240,
  "\u2581Kwishila": 7241,
  "\u2581Mwikadilo": 7242,
  "\u2581Nazala": 7243,
  "\u2581Potu": 7244,
  "\u2581Se": 7245,
  "\u2581Yediko": 7246,
  "\u2581adults": 7247,
  "\u2581bapanopantanda": 7248,
  "\u2581bashidika": 7249,
  "\u2581bende": 7250,
  "\u2581bikata": 7251,
  "\u2581billion": 7252,
  "\u2581blesses": 7253,
  "\u2581bya\u0101nene": 7254,
  "\u2581conquer": 7255,
  "\u2581contemplate": 7256,
  "\u2581cried": 7257,
  "\u2581dedicate": 7258,
  "\u2581disobedient": 7259,
  "\u2581duties": 7260,
  "\u2581endelele": 7261,
  "\u2581fier": 7262,
  "\u2581flood": 7263,
  "\u2581follows": 7264,
  "\u2581generosity": 7265,
  "\u2581gross": 7266,
  "\u2581imbidi": 7267,
  "\u2581kaki": 7268,
  "\u2581kilondololwa": 7269,
  "\u2581kukengidila": 7270,
  "\u2581kukupa": 7271,
  "\u2581kwilekela": 7272,
  "\u2581kwimana": 7273,
  "\u2581kyona": 7274,
  "\u2581leaves": 7275,
  "\u2581lwimanine": 7276,
  "\u2581method": 7277,
  "\u2581mubidi": 7278,
  "\u2581paths": 7279,
  "\u2581prayerful": 7280,
  "\u2581producing": 7281,
  "\u2581publisher": 7282,
  "\u2581rob": 7283,
  "\u2581selected": 7284,
  "\u2581sing": 7285,
  "\u2581survived": 7286,
  "\u2581truthfulness": 7287,
  "\u2581tubalwe": 7288,
  "\u2581tuno": 7289,
  "\u2581turns": 7290,
  "\u2581twepuke": 7291,
  "\u2581udyumuna": 7292,
  "\u2581usumininwe": 7293,
  "\u2581wasonekele": 7294,
  "\u2581wa\u00f1eni": 7295,
  "\u2581wiivwananga": 7296,
  "\u2581witusapwila": 7297,
  "\u2581wituso\u00f1anya": 7298,
  "\u2581w\u0101shilula": 7299,
  "G": 7300,
  "badi": 7301,
  "bwanye": 7302,
  "dicating": 7303,
  "fwene": 7304,
  "ingile": 7305,
  "ish": 7306,
  "ius": 7307,
  "leka": 7308,
  "ling": 7309,
  "longelwe": 7310,
  "nansha": 7311,
  "ro": 7312,
  "selelwe": 7313,
  "t\u016bkijija": 7314,
  "ze": 7315,
  "\u25811930": 7316,
  "\u258131,": 7317,
  "\u2581BIKWABO": 7318,
  "\u2581Babwanya": 7319,
  "\u2581Banabasa": 7320,
  "\u2581End": 7321,
  "\u2581Human": 7322,
  "\u2581Ikalai": 7323,
  "\u2581Kindness": 7324,
  "\u2581Namino": 7325,
  "\u2581Poso": 7326,
  "\u2581Sinai": 7327,
  "\u2581Spain": 7328,
  "\u2581Try": 7329,
  "\u2581Wiipangule": 7330,
  "\u2581arrives": 7331,
  "\u2581bamwenanga": 7332,
  "\u2581banzazangi": 7333,
  "\u2581bikalongeka": 7334,
  "\u2581bimweke": 7335,
  "\u2581bright": 7336,
  "\u2581bumvubumvu": 7337,
  "\u2581bumweke": 7338,
  "\u2581contentment": 7339,
  "\u2581counseled": 7340,
  "\u2581detailed": 7341,
  "\u2581discussions": 7342,
  "\u2581exclusive": 7343,
  "\u2581falling": 7344,
  "\u2581fruitful": 7345,
  "\u2581kimanine": 7346,
  "\u2581kufunkila": 7347,
  "\u2581kuningila": 7348,
  "\u2581kusamba": 7349,
  "\u2581kwikaka": 7350,
  "\u2581kwikulupila": 7351,
  "\u2581kwitukankamika": 7352,
  "\u2581maludiki": 7353,
  "\u2581mentions": 7354,
  "\u2581miba": 7355,
  "\u2581misambo": 7356,
  "\u2581mutumbe": 7357,
  "\u2581nimelo": 7358,
  "\u2581outcry": 7359,
  "\u2581overwhelming": 7360,
  "\u2581quiet": 7361,
  "\u2581services": 7362,
  "\u2581stones": 7363,
  "\u2581suggests": 7364,
  "\u2581supplication": 7365,
  "\u2581supplies": 7366,
  "\u2581tendencies": 7367,
  "\u2581top": 7368,
  "\u2581ukeba": 7369,
  "\u2581uyuke": 7370,
  "\u2581virtue": 7371,
  "\u2581washilwile": 7372,
  "\u2581witupa": 7373,
  "kana": 7374,
  "kankamikanga": 7375,
  "kodi": 7376,
  "mwekela": 7377,
  "ngu": 7378,
  "tuminwe": 7379,
  "tweja": 7380,
  "\u014d": 7381,
  "\u258158": 7382,
  "\u2581Australia": 7383,
  "\u2581Britain": 7384,
  "\u2581Kamweno": 7385,
  "\u2581Kwakamwa": 7386,
  "\u2581Mutyibi": 7387,
  "\u2581Ngal": 7388,
  "\u2581Nineveh": 7389,
  "\u2581Power": 7390,
  "\u2581Sabado": 7391,
  "\u2581Y": 7392,
  "\u2581Year": 7393,
  "\u2581access": 7394,
  "\u2581associating": 7395,
  "\u2581bakapanda": 7396,
  "\u2581bwendele": 7397,
  "\u2581cleanness": 7398,
  "\u2581commend": 7399,
  "\u2581confirm": 7400,
  "\u2581conquered": 7401,
  "\u2581constitute": 7402,
  "\u2581emphasis": 7403,
  "\u2581endless": 7404,
  "\u2581enhance": 7405,
  "\u2581etukwashe": 7406,
  "\u2581exact": 7407,
  "\u2581favorable": 7408,
  "\u2581forefathers": 7409,
  "\u2581honesthearted": 7410,
  "\u2581hoping": 7411,
  "\u2581kudingila": 7412,
  "\u2581kulangila": 7413,
  "\u2581kusangulwa": 7414,
  "\u2581kutentekela": 7415,
  "\u2581kuzozeja": 7416,
  "\u2581kwinjibo": 7417,
  "\u2581k\u012bne": 7418,
  "\u2581limits": 7419,
  "\u2581los": 7420,
  "\u2581mabele": 7421,
  "\u2581marriages": 7422,
  "\u2581minor": 7423,
  "\u2581mulangila": 7424,
  "\u2581musanguke": 7425,
  "\u2581mushintulwila": 7426,
  "\u2581muswidile": 7427,
  "\u2581nkambo": 7428,
  "\u2581pe": 7429,
  "\u2581prominence": 7430,
  "\u2581steal": 7431,
  "\u2581surrounding": 7432,
  "\u2581theme": 7433,
  "\u2581tragedy": 7434,
  "\u2581tragic": 7435,
  "\u2581transform": 7436,
  "\u2581twingila": 7437,
  "\u2581virgins": 7438,
  "\u2581visions": 7439,
  "WE": 7440,
  "bukomo": 7441,
  "bwe": 7442,
  "either": 7443,
  "ingidile": 7444,
  "iya": 7445,
  "jingulwile": 7446,
  "kele": 7447,
  "li": 7448,
  "londele": 7449,
  "tundaila": 7450,
  "tyumukilwe": 7451,
  "ul\u0113mekele": 7452,
  "\u2581146": 7453,
  "\u25812005": 7454,
  "\u2581Again": 7455,
  "\u2581Head": 7456,
  "\u2581Kisonekwa": 7457,
  "\u2581Maker": 7458,
  "\u2581Ngidiki": 7459,
  "\u2581Rutherford": 7460,
  "\u2581Ubulwe": 7461,
  "\u2581adversity": 7462,
  "\u2581amoamo": 7463,
  "\u2581bafikile": 7464,
  "\u2581bafudilwe": 7465,
  "\u2581bikandangobo": 7466,
  "\u2581bubandaudi": 7467,
  "\u2581bufyafya": 7468,
  "\u2581byobasaka": 7469,
  "\u2581centered": 7470,
  "\u2581commercial": 7471,
  "\u2581defense": 7472,
  "\u2581directions": 7473,
  "\u2581empire": 7474,
  "\u2581feared": 7475,
  "\u2581fortify": 7476,
  "\u2581guests": 7477,
  "\u2581heritage": 7478,
  "\u2581idols": 7479,
  "\u2581inclinations": 7480,
  "\u2581indication": 7481,
  "\u2581individually": 7482,
  "\u2581inspiration": 7483,
  "\u2581intentions": 7484,
  "\u2581koloka": 7485,
  "\u2581kupyana": 7486,
  "\u2581kwendele": 7487,
  "\u2581kwijiba": 7488,
  "\u2581kwikinga": 7489,
  "\u2581location": 7490,
  "\u2581majulunale": 7491,
  "\u2581mfindi": 7492,
  "\u2581mobi": 7493,
  "\u2581mukulu": 7494,
  "\u2581neutrality": 7495,
  "\u2581ordered": 7496,
  "\u2581phone": 7497,
  "\u2581phrase": 7498,
  "\u2581pick": 7499,
  "\u2581practiced": 7500,
  "\u2581press": 7501,
  "\u2581proclaimed": 7502,
  "\u2581remembered": 7503,
  "\u2581reminder": 7504,
  "\u2581replace": 7505,
  "\u2581shepherding": 7506,
  "\u2581sowing": 7507,
  "\u2581succumb": 7508,
  "\u2581suitable": 7509,
  "\u2581tutale": 7510,
  "\u2581tute": 7511,
  "\u2581twiba": 7512,
  "\u2581ukwashanga": 7513,
  "\u2581upelwe": 7514,
  "\u2581wear": 7515,
  "\u2581w\u0101bweja": 7516,
  "\u2581w\u0101mupele": 7517,
  "\u2581yobadi": 7518,
  "Angele": 7519,
  "Christ": 7520,
  "Mwikale": 7521,
  "Tata": 7522,
  "from": 7523,
  "fwila": 7524,
  "ha": 7525,
  "monanga": 7526,
  "mwine": 7527,
  "pityije": 7528,
  "sakila": 7529,
  "sanshilwe": 7530,
  "ted": 7531,
  "those": 7532,
  "who": 7533,
  "\u2581BIPANGUJO": 7534,
  "\u2581Babylonians": 7535,
  "\u2581Canada": 7536,
  "\u2581Continue": 7537,
  "\u2581December": 7538,
  "\u2581Div": 7539,
  "\u2581Giving": 7540,
  "\u2581Herod": 7541,
  "\u2581Living": 7542,
  "\u2581P\u0101": 7543,
  "\u2581Shinai": 7544,
  "\u2581Ten": 7545,
  "\u2581Tusa": 7546,
  "\u2581Yenga": 7547,
  "\u2581analyze": 7548,
  "\u2581annual": 7549,
  "\u2581bakulu": 7550,
  "\u2581bat\u016bkanye": 7551,
  "\u2581bengidija": 7552,
  "\u2581b\u0101pelwe": 7553,
  "\u2581civil": 7554,
  "\u2581computer": 7555,
  "\u2581emphasized": 7556,
  "\u2581enjoyment": 7557,
  "\u2581exercises": 7558,
  "\u2581garment": 7559,
  "\u2581grows": 7560,
  "\u2581hair": 7561,
  "\u2581handl": 7562,
  "\u2581host": 7563,
  "\u2581ilonda": 7564,
  "\u2581j": 7565,
  "\u2581kitamba": 7566,
  "\u2581kit\u00e9": 7567,
  "\u2581kuba": 7568,
  "\u2581kulongwa": 7569,
  "\u2581kunenapo": 7570,
  "\u2581kwitaba": 7571,
  "\u2581lut\u014dka": 7572,
  "\u2581malongolodi": 7573,
  "\u2581mitamba": 7574,
  "\u2581mokilombwedilwe": 7575,
  "\u2581mpwilo": 7576,
  "\u2581mut\u016bkanye": 7577,
  "\u2581newspaper": 7578,
  "\u2581occurs": 7579,
  "\u2581originally": 7580,
  "\u2581running": 7581,
  "\u2581safety": 7582,
  "\u2581scribes": 7583,
  "\u2581selfishness": 7584,
  "\u2581surprising": 7585,
  "\u2581television": 7586,
  "\u2581tukimba": 7587,
  "\u2581twifunda": 7588,
  "\u2581types": 7589,
  "\u2581unselfish": 7590,
  "\u2581ya\u0101di": 7591,
  ";...": 7592,
  "KO": 7593,
  "With": 7594,
  "ance": 7595,
  "creasingly": 7596,
  "ctively": 7597,
  "ga": 7598,
  "ibwe": 7599,
  "ite": 7600,
  "kalama": 7601,
  "ludika": 7602,
  "lupulwa": 7603,
  "mbi": 7604,
  "men": 7605,
  "peja": 7606,
  "shintulula": 7607,
  "tama": 7608,
  "tul\u0113mekele": 7609,
  "wingidila": 7610,
  "zi": 7611,
  "\u2581Andrew": 7612,
  "\u2581Bukwashi": 7613,
  "\u2581Divine": 7614,
  "\u2581England": 7615,
  "\u2581Esther": 7616,
  "\u2581JESUS": 7617,
  "\u2581MATTHEW": 7618,
  "\u2581Mean": 7619,
  "\u2581Moab": 7620,
  "\u2581Noele": 7621,
  "\u2581OUR": 7622,
  "\u2581Right": 7623,
  "\u2581Spanish": 7624,
  "\u2581Teacher": 7625,
  "\u2581W\u0101nena": 7626,
  "\u2581backgrounds": 7627,
  "\u2581bears": 7628,
  "\u2581bendelela": 7629,
  "\u2581bipungwa": 7630,
  "\u2581bitabo": 7631,
  "\u2581boldly": 7632,
  "\u2581counted": 7633,
  "\u2581disappointed": 7634,
  "\u2581diteba": 7635,
  "\u2581equipped": 7636,
  "\u2581fift": 7637,
  "\u2581globe": 7638,
  "\u2581implies": 7639,
  "\u2581ketuyukilepo": 7640,
  "\u2581kukatanwa": 7641,
  "\u2581kukwatyila": 7642,
  "\u2581kwituma": 7643,
  "\u2581lamp": 7644,
  "\u2581lean": 7645,
  "\u2581morality": 7646,
  "\u2581mulaye": 7647,
  "\u2581musonge": 7648,
  "\u2581mwino": 7649,
  "\u2581namwene": 7650,
  "\u2581panena": 7651,
  "\u2581peers": 7652,
  "\u2581purposed": 7653,
  "\u2581readers": 7654,
  "\u2581respected": 7655,
  "\u2581saving": 7656,
  "\u2581souled": 7657,
  "\u2581tremendous": 7658,
  "\u2581tushinda": 7659,
  "\u2581tutyetutye": 7660,
  "\u2581unscriptural": 7661,
  "\u2581widespread": 7662,
  "Come": 7663,
  "Kitatyi": 7664,
  "Umb": 7665,
  "ably": 7666,
  "fundijibwe": 7667,
  "konakanya": 7668,
  "lengejanga": 7669,
  "lukunwa": 7670,
  "nangile": 7671,
  "ory": 7672,
  "seed": 7673,
  "shilule": 7674,
  "tananga": 7675,
  "tendela": 7676,
  "tyumuna": 7677,
  "vuija": 7678,
  "working": 7679,
  "\u016bminine": 7680,
  "\u25812016": 7681,
  "\u258189": 7682,
  "\u2581Abigail": 7683,
  "\u2581BE": 7684,
  "\u2581Balume": 7685,
  "\u2581Bipa": 7686,
  "\u2581Deut": 7687,
  "\u2581Drama": 7688,
  "\u2581FOR": 7689,
  "\u2581Kilondololwa": 7690,
  "\u2581Knowledge": 7691,
  "\u2581Kwine": 7692,
  "\u2581Mwendeji": 7693,
  "\u2581Within": 7694,
  "\u2581W\u0101lombwele": 7695,
  "\u2581afterward": 7696,
  "\u2581aim": 7697,
  "\u2581aleta": 7698,
  "\u2581atamba": 7699,
  "\u2581babwanye": 7700,
  "\u2581banene": 7701,
  "\u2581bankunga": 7702,
  "\u2581batala": 7703,
  "\u2581batumama": 7704,
  "\u2581bengidijanga": 7705,
  "\u2581bes\u0101sa": 7706,
  "\u2581bikankamika": 7707,
  "\u2581boys": 7708,
  "\u2581bumutwe": 7709,
  "\u2581bunyongolodi": 7710,
  "\u2581butanda": 7711,
  "\u2581byob\u0101": 7712,
  "\u2581b\u0101shilula": 7713,
  "\u2581catch": 7714,
  "\u2581confirmed": 7715,
  "\u2581conquest": 7716,
  "\u2581correction": 7717,
  "\u2581covering": 7718,
  "\u2581creative": 7719,
  "\u2581crown": 7720,
  "\u2581ende": 7721,
  "\u2581engaged": 7722,
  "\u2581extra": 7723,
  "\u2581feast": 7724,
  "\u2581hears": 7725,
  "\u2581hinder": 7726,
  "\u2581holiness": 7727,
  "\u2581hopes": 7728,
  "\u2581inabana": 7729,
  "\u2581independence": 7730,
  "\u2581jealousy": 7731,
  "\u2581kib\u012bko": 7732,
  "\u2581ki\u00f1anga": 7733,
  "\u2581kubola": 7734,
  "\u2581kufuna": 7735,
  "\u2581kumut\u014dta": 7736,
  "\u2581kuningisha": 7737,
  "\u2581kusokwela": 7738,
  "\u2581memorial": 7739,
  "\u2581milwi": 7740,
  "\u2581mvuyo": 7741,
  "\u2581offended": 7742,
  "\u2581pains": 7743,
  "\u2581preachers": 7744,
  "\u2581rebel": 7745,
  "\u2581rebelled": 7746,
  "\u2581science": 7747,
  "\u2581territories": 7748,
  "\u2581title": 7749,
  "\u2581twe": 7750,
  "\u2581ulombela": 7751,
  "\u2581usekununa": 7752,
  "\u2581w\u0101itabija": 7753,
  "\u2581yenka": 7754,
  "\u2581yob\u0101di": 7755,
  "bila": 7756,
  "bonso": 7757,
  "fikidije": 7758,
  "gainst": 7759,
  "kela": 7760,
  "koleja": 7761,
  "kulupila": 7762,
  "kwikala": 7763,
  "lele": 7764,
  "lombela": 7765,
  "love": 7766,
  "lupukile": 7767,
  "l\u0101la": 7768,
  "mulengeja": 7769,
  "specially": 7770,
  "tn": 7771,
  "tongelwe": 7772,
  "tubwanya": 7773,
  "vuije": 7774,
  "was": 7775,
  "wiifwene": 7776,
  "\u2581Aa": 7777,
  "\u2581Bangidiki": 7778,
  "\u2581Barnabas": 7779,
  "\u2581Chron": 7780,
  "\u2581Had": 7781,
  "\u2581Judges": 7782,
  "\u2581Kana": 7783,
  "\u2581Kumona": 7784,
  "\u2581Kwadi": 7785,
  "\u2581Kwityepeja": 7786,
  "\u2581Mexico": 7787,
  "\u2581NTANDA": 7788,
  "\u2581Nankyo": 7789,
  "\u2581Nathan": 7790,
  "\u2581Need": 7791,
  "\u2581Ngat": 7792,
  "\u2581Red": 7793,
  "\u2581State": 7794,
  "\u2581badly": 7795,
  "\u2581banekenye": 7796,
  "\u2581batanwanga": 7797,
  "\u2581bate": 7798,
  "\u2581bela": 7799,
  "\u2581bevwanije": 7800,
  "\u2581bimanine": 7801,
  "\u2581bunkolwankolwa": 7802,
  "\u2581captive": 7803,
  "\u2581cloud": 7804,
  "\u2581commitment": 7805,
  "\u2581consist": 7806,
  "\u2581current": 7807,
  "\u2581devote": 7808,
  "\u2581earn": 7809,
  "\u2581finished": 7810,
  "\u2581gatherings": 7811,
  "\u2581hardship": 7812,
  "\u2581heartwarming": 7813,
  "\u2581historian": 7814,
  "\u2581ignored": 7815,
  "\u2581imprisoned": 7816,
  "\u2581incident": 7817,
  "\u2581kitelelwe": 7818,
  "\u2581kubala": 7819,
  "\u2581kutyumwina": 7820,
  "\u2581kyoloke": 7821,
  "\u2581ky\u0101lengeje": 7822,
  "\u2581materialism": 7823,
  "\u2581minutes": 7824,
  "\u2581miyoa": 7825,
  "\u2581mufundi": 7826,
  "\u2581neutral": 7827,
  "\u2581ntapani": 7828,
  "\u2581opens": 7829,
  "\u2581overlook": 7830,
  "\u2581pafula": 7831,
  "\u2581participation": 7832,
  "\u2581pieces": 7833,
  "\u2581possibility": 7834,
  "\u2581programs": 7835,
  "\u2581repay": 7836,
  "\u2581richly": 7837,
  "\u2581snare": 7838,
  "\u2581submitt": 7839,
  "\u2581table": 7840,
  "\u2581tumona": 7841,
  "\u2581ukulupilwa": 7842,
  "\u2581visitors": 7843,
  "\u2581w\u0101bwejeje": 7844,
  "\u2581\u0113": 7845,
  "AND": 7846,
  "Mutyima": 7847,
  "bashilula": 7848,
  "de": 7849,
  "ishima": 7850,
  "kutyila": 7851,
  "mene": 7852,
  "put": 7853,
  "sangeje": 7854,
  "shikilwe": 7855,
  "shintulwile": 7856,
  "si": 7857,
  "tyibile": 7858,
  "\u2581600": 7859,
  "\u2581Abikele": 7860,
  "\u2581Albert": 7861,
  "\u2581Avoid": 7862,
  "\u2581BB": 7863,
  "\u2581Caleb": 7864,
  "\u2581Describe": 7865,
  "\u2581Humans": 7866,
  "\u2581IK": 7867,
  "\u2581ISSUE": 7868,
  "\u2581Jew": 7869,
  "\u2581Kukulupila": 7870,
  "\u2581Kwip\u0101na": 7871,
  "\u2581Last": 7872,
  "\u2581Lives": 7873,
  "\u2581Madyese": 7874,
  "\u2581NAMANI": 7875,
  "\u2581Put": 7876,
  "\u2581P\u0101di": 7877,
  "\u2581Suppose": 7878,
  "\u2581Tulangulukilei": 7879,
  "\u2581Wise": 7880,
  "\u2581accident": 7881,
  "\u2581afford": 7882,
  "\u2581appoint": 7883,
  "\u2581basheleshele": 7884,
  "\u2581batanga": 7885,
  "\u2581bus": 7886,
  "\u2581b\u0101fwile": 7887,
  "\u2581characteristics": 7888,
  "\u2581copper": 7889,
  "\u2581deed": 7890,
  "\u2581drive": 7891,
  "\u2581festival": 7892,
  "\u2581flow": 7893,
  "\u2581gladly": 7894,
  "\u2581grieving": 7895,
  "\u2581guarantee": 7896,
  "\u2581hurtful": 7897,
  "\u2581interesting": 7898,
  "\u2581kami": 7899,
  "\u2581kayampe": 7900,
  "\u2581keen": 7901,
  "\u2581kekwadipo": 7902,
  "\u2581kikadile": 7903,
  "\u2581kitompekejo": 7904,
  "\u2581kituntulu": 7905,
  "\u2581kob\u0101di": 7906,
  "\u2581kumuyuka": 7907,
  "\u2581kususulwa": 7908,
  "\u2581kwipa": 7909,
  "\u2581ky": 7910,
  "\u2581k\u0101lekele": 7911,
  "\u2581lweni": 7912,
  "\u2581mpwaninine": 7913,
  "\u2581musakila": 7914,
  "\u2581mw": 7915,
  "\u2581needy": 7916,
  "\u2581neglect": 7917,
  "\u2581otudi": 7918,
  "\u2581pair": 7919,
  "\u2581prayerfully": 7920,
  "\u2581productive": 7921,
  "\u2581project": 7922,
  "\u2581qualifications": 7923,
  "\u2581shako": 7924,
  "\u2581spared": 7925,
  "\u2581symbol": 7926,
  "\u2581topics": 7927,
  "\u2581treacherous": 7928,
  "\u2581viewing": 7929,
  "\u2581walls": 7930,
  "\u2581wela": 7931,
  "\u2581weselanga": 7932,
  "\u2581w\u0101p\u0113ne": 7933,
  "\u2581w\u0101sapwile": 7934,
  "3": 7935,
  "DI": 7936,
  "EMBWA": 7937,
  "Ebiya": 7938,
  "fwijanga": 7939,
  "ipaile": 7940,
  "kanda": 7941,
  "kwatwa": 7942,
  "lupula": 7943,
  "mfulo": 7944,
  "mwana": 7945,
  "mweka": 7946,
  "sangaja": 7947,
  "sangele": 7948,
  "shele": 7949,
  "swile": 7950,
  "tulumukile": 7951,
  "twi": 7952,
  "vwala": 7953,
  "\u25811922": 7954,
  "\u2581Bath": 7955,
  "\u2581Bisaka": 7956,
  "\u2581Boaza": 7957,
  "\u2581Bwandi": 7958,
  "\u2581Christmas": 7959,
  "\u2581Friend": 7960,
  "\u2581January": 7961,
  "\u2581Muzo": 7962,
  "\u2581Nkyadipo": 7963,
  "\u2581Nothing": 7964,
  "\u2581November": 7965,
  "\u2581Re": 7966,
  "\u2581Usaka": 7967,
  "\u2581ages": 7968,
  "\u2581akishida": 7969,
  "\u2581average": 7970,
  "\u2581batamije": 7971,
  "\u2581bibelo": 7972,
  "\u2581bifunkila": 7973,
  "\u2581bikalonga": 7974,
  "\u2581bobadi": 7975,
  "\u2581bufike": 7976,
  "\u2581bumeni": 7977,
  "\u2581bwishile": 7978,
  "\u2581check": 7979,
  "\u2581cultures": 7980,
  "\u2581dilongo": 7981,
  "\u2581disastrous": 7982,
  "\u2581dishonor": 7983,
  "\u2581distracted": 7984,
  "\u2581evangelizers": 7985,
  "\u2581fault": 7986,
  "\u2581fierce": 7987,
  "\u2581foreigners": 7988,
  "\u2581honestly": 7989,
  "\u2581inactive": 7990,
  "\u2581itelelwe": 7991,
  "\u2581kilelo": 7992,
  "\u2581kintupo": 7993,
  "\u2581kumusangaja": 7994,
  "\u2581kun": 7995,
  "\u2581kwilubula": 7996,
  "\u2581kwilundila": 7997,
  "\u2581kwingidijija": 7998,
  "\u2581lukoba": 7999,
  "\u2581lw\u0101lailwe": 8000,
  "\u2581misled": 8001,
  "\u2581noteworthy": 8002,
  "\u2581pantanda": 8003,
  "\u2581parallel": 8004,
  "\u2581perish": 8005,
  "\u2581population": 8006,
  "\u2581propaganda": 8007,
  "\u2581red": 8008,
  "\u2581reflection": 8009,
  "\u2581seated": 8010,
  "\u2581sensitive": 8011,
  "\u2581sentence": 8012,
  "\u2581settled": 8013,
  "\u2581spite": 8014,
  "\u2581spreading": 8015,
  "\u2581street": 8016,
  "\u2581talks": 8017,
  "\u2581tunekenye": 8018,
  "\u2581uletanga": 8019,
  "\u2581undermine": 8020,
  "\u2581wage": 8021,
  "\u2581wages": 8022,
  "\u2581wamanwa": 8023,
  "\u2581weight": 8024,
  "\u2581yielding": 8025,
  "\u2581\u00f1enda": 8026,
  "9": 8027,
  "H": 8028,
  "JA": 8029,
  "bep\u0113ne": 8030,
  "ivwanije": 8031,
  "kankaja": 8032,
  "ketufwaninwepo": 8033,
  "longwa": 8034,
  "long\u0113le": 8035,
  "nekenye": 8036,
  "nine": 8037,
  "nyema": 8038,
  "sakilepo": 8039,
  "teakenye": 8040,
  "tompanga": 8041,
  "t\u016bkija": 8042,
  "\u2581000.": 8043,
  "\u2581112": 8044,
  "\u2581Arthur": 8045,
  "\u2581Bafesheba": 8046,
  "\u2581Giver": 8047,
  "\u2581Heloda": 8048,
  "\u2581Muludiki": 8049,
  "\u2581Nazareth": 8050,
  "\u2581Ur": 8051,
  "\u2581affliction": 8052,
  "\u2581author": 8053,
  "\u2581bakulutuba": 8054,
  "\u2581bore": 8055,
  "\u2581bwana": 8056,
  "\u2581bwifundi": 8057,
  "\u2581byoke": 8058,
  "\u2581b\u0101ile": 8059,
  "\u2581b\u0101mu": 8060,
  "\u2581capital": 8061,
  "\u2581cleanse": 8062,
  "\u2581deliberately": 8063,
  "\u2581diseases": 8064,
  "\u2581dry": 8065,
  "\u2581emphasize": 8066,
  "\u2581fathers": 8067,
  "\u2581generously": 8068,
  "\u2581handled": 8069,
  "\u2581initially": 8070,
  "\u2581kabidye": 8071,
  "\u2581kimpumpu": 8072,
  "\u2581kisanga": 8073,
  "\u2581kufikijija": 8074,
  "\u2581kukambakanya": 8075,
  "\u2581kukankajibwa": 8076,
  "\u2581kumwipangula": 8077,
  "\u2581kundapa": 8078,
  "\u2581kwialamuna": 8079,
  "\u2581kwituletela": 8080,
  "\u2581kwiyuka": 8081,
  "\u2581k\u0113": 8082,
  "\u2581march": 8083,
  "\u2581mukulutuba": 8084,
  "\u2581m\u016bmu": 8085,
  "\u2581obadi": 8086,
  "\u2581operation": 8087,
  "\u2581ordinary": 8088,
  "\u2581permit": 8089,
  "\u2581podi": 8090,
  "\u2581politics": 8091,
  "\u2581reassuring": 8092,
  "\u2581skin": 8093,
  "\u2581tujingulule": 8094,
  "\u2581tutalei": 8095,
  "\u2581twifunde": 8096,
  "\u2581upa": 8097,
  "\u2581watchful": 8098,
  "\u2581worry": 8099,
  "\u2581w\u0113mwenine": 8100,
  "\u2581\u0113kale": 8101,
  "Batyibi": 8102,
  "Malaki": 8103,
  "Ves": 8104,
  "bwenye": 8105,
  "kile": 8106,
  "sakile": 8107,
  "sh": 8108,
  "shila": 8109,
  "tompele": 8110,
  "\u2581105": 8111,
  "\u25814]": 8112,
  "\u2581Anthony": 8113,
  "\u2581Aquila": 8114,
  "\u2581Bakaji": 8115,
  "\u2581Bakumbi": 8116,
  "\u2581Basapudi": 8117,
  "\u2581Boaz": 8118,
  "\u2581Centuries": 8119,
  "\u2581Elihu": 8120,
  "\u2581Gentile": 8121,
  "\u2581Jeroboam": 8122,
  "\u2581Kalebu": 8123,
  "\u2581Kinondanonda": 8124,
  "\u2581Manase": 8125,
  "\u2581Manasseh": 8126,
  "\u2581Men": 8127,
  "\u2581Reading": 8128,
  "\u2581Shitevani": 8129,
  "\u2581Thereafter": 8130,
  "\u2581Up": 8131,
  "\u2581Whom": 8132,
  "\u2581accompanie": 8133,
  "\u2581amukwashe": 8134,
  "\u2581arrive": 8135,
  "\u2581atanwa": 8136,
  "\u2581bapelanga": 8137,
  "\u2581basapulanga": 8138,
  "\u2581befall": 8139,
  "\u2581bikwabokwabo": 8140,
  "\u2581bilupukanga": 8141,
  "\u2581cease": 8142,
  "\u2581cleansed": 8143,
  "\u2581comply": 8144,
  "\u2581declares": 8145,
  "\u2581developments": 8146,
  "\u2581drugs": 8147,
  "\u2581ease": 8148,
  "\u2581explaining": 8149,
  "\u2581fair": 8150,
  "\u2581foretell": 8151,
  "\u2581fresh": 8152,
  "\u2581greedy": 8153,
  "\u2581handed": 8154,
  "\u2581impression": 8155,
  "\u2581instituted": 8156,
  "\u2581isambila": 8157,
  "\u2581kinds": 8158,
  "\u2581kukakwasha": 8159,
  "\u2581kukoka": 8160,
  "\u2581kumunena": 8161,
  "\u2581kwikankamika": 8162,
  "\u2581kwikwasha": 8163,
  "\u2581kyombo": 8164,
  "\u2581lubajinji": 8165,
  "\u2581middle": 8166,
  "\u2581mipotoloke": 8167,
  "\u2581mistaken": 8168,
  "\u2581mob\u0101di": 8169,
  "\u2581mukata": 8170,
  "\u2581mutundaile": 8171,
  "\u2581namone": 8172,
  "\u2581ponadi": 8173,
  "\u2581resentment": 8174,
  "\u2581sorry": 8175,
  "\u2581storm": 8176,
  "\u2581strongly": 8177,
  "\u2581style": 8178,
  "\u2581suggested": 8179,
  "\u2581thanksgiving": 8180,
  "\u2581tubila": 8181,
  "\u2581unnecessary": 8182,
  "\u2581unrighteousness": 8183,
  "\u2581utterance": 8184,
  "\u2581vine": 8185,
  "\u2581vows": 8186,
  "\u2581weekly": 8187,
  "\u2581worthwhile": 8188,
  "\u2581w\u0101bwenye": 8189,
  "\u2581\u00d1im": 8190,
  "Dyese": 8191,
  "ING": 8192,
  "Talapo": 8193,
  "dingakanya": 8194,
  "endelele": 8195,
  "ibumbo": 8196,
  "jingulule": 8197,
  "kengidija": 8198,
  "kumona": 8199,
  "langulukile": 8200,
  "lombolwe": 8201,
  "mulombola": 8202,
  "ndoe": 8203,
  "ngwe": 8204,
  "nyi": 8205,
  "susukile": 8206,
  "tumbija": 8207,
  "tyibe": 8208,
  "tyibila": 8209,
  "vula": 8210,
  "\u0113le": 8211,
  "\u0113mwenine": 8212,
  "\u2581127": 8213,
  "\u2581148": 8214,
  "\u258133)": 8215,
  "\u2581Brezile": 8216,
  "\u2581Brothers": 8217,
  "\u2581Compare": 8218,
  "\u2581Kidi": 8219,
  "\u2581Kusapula": 8220,
  "\u2581K\u016bminina": 8221,
  "\u2581Published": 8222,
  "\u2581Sabbath": 8223,
  "\u2581Suffering": 8224,
  "\u2581Thessalonica": 8225,
  "\u2581Yandi": 8226,
  "\u2581absolutely": 8227,
  "\u2581accurately": 8228,
  "\u2581attracted": 8229,
  "\u2581bakamwena": 8230,
  "\u2581balanguke": 8231,
  "\u2581baludiki": 8232,
  "\u2581bampofu": 8233,
  "\u2581bansongwa": 8234,
  "\u2581behold": 8235,
  "\u2581bengidilanga": 8236,
  "\u2581bit": 8237,
  "\u2581bitomibwa": 8238,
  "\u2581bitulomba": 8239,
  "\u2581bukunga": 8240,
  "\u2581butano": 8241,
  "\u2581clothe": 8242,
  "\u2581corrected": 8243,
  "\u2581entirely": 8244,
  "\u2581hypocrisy": 8245,
  "\u2581island": 8246,
  "\u2581kakabulwe": 8247,
  "\u2581kalasa": 8248,
  "\u2581kalata": 8249,
  "\u2581kebaki": 8250,
  "\u2581keenly": 8251,
  "\u2581keidi": 8252,
  "\u2581kipityile": 8253,
  "\u2581kufya": 8254,
  "\u2581kwitukomeja": 8255,
  "\u2581kwitwa": 8256,
  "\u2581kyoki": 8257,
  "\u2581ky\u0101letele": 8258,
  "\u2581loud": 8259,
  "\u2581magnificent": 8260,
  "\u2581masongi": 8261,
  "\u2581matope": 8262,
  "\u2581minite": 8263,
  "\u2581mupidishitu": 8264,
  "\u2581mutongwe": 8265,
  "\u2581mwadimu": 8266,
  "\u2581owe": 8267,
  "\u2581passages": 8268,
  "\u2581perspective": 8269,
  "\u2581plent": 8270,
  "\u2581praised": 8271,
  "\u2581precise": 8272,
  "\u2581realistic": 8273,
  "\u2581recognition": 8274,
  "\u2581revealing": 8275,
  "\u2581separated": 8276,
  "\u2581sola": 8277,
  "\u2581sow": 8278,
  "\u2581transformed": 8279,
  "\u2581tulombole": 8280,
  "\u2581tumonanga": 8281,
  "\u2581uta": 8282,
  "\u2581wivwanije": 8283,
  "\u2581worshipper": 8284,
  "\u2581w\u0101fikidije": 8285,
  "\u2581yotu": 8286,
  "\u2581\u0101ye": 8287,
  "Kidishitu": 8288,
  "LA": 8289,
  "bulwe": 8290,
  "imvwene": 8291,
  "kapebwa": 8292,
  "kupa": 8293,
  "kupila": 8294,
  "lama": 8295,
  "mufikija": 8296,
  "telwe": 8297,
  "ti": 8298,
  "twala": 8299,
  "t\u014dta": 8300,
  "vudilwe": 8301,
  "ward": 8302,
  "\u2581118": 8303,
  "\u2581121": 8304,
  "\u258127]": 8305,
  "\u258129]": 8306,
  "\u2581Apply": 8307,
  "\u2581Back": 8308,
  "\u2581Edihu": 8309,
  "\u2581Eseta": 8310,
  "\u2581Ezek": 8311,
  "\u2581Fwatakanya": 8312,
  "\u2581ISA": 8313,
  "\u2581Kwingidija": 8314,
  "\u2581Listen": 8315,
  "\u2581Lomba": 8316,
  "\u2581QUESTIONS": 8317,
  "\u2581Thess": 8318,
  "\u2581Third": 8319,
  "\u2581Very": 8320,
  "\u2581announced": 8321,
  "\u2581baikele": 8322,
  "\u2581bal\u0113mekele": 8323,
  "\u2581besonge": 8324,
  "\u2581bishi": 8325,
  "\u2581bitabukile": 8326,
  "\u2581bought": 8327,
  "\u2581bungibungi": 8328,
  "\u2581bushiyena": 8329,
  "\u2581bwipi": 8330,
  "\u2581byalongele": 8331,
  "\u2581b\u012bya": 8332,
  "\u2581complex": 8333,
  "\u2581entering": 8334,
  "\u2581era": 8335,
  "\u2581expectations": 8336,
  "\u2581falsely": 8337,
  "\u2581fruits": 8338,
  "\u2581funeral": 8339,
  "\u2581guides": 8340,
  "\u2581identifie": 8341,
  "\u2581ikalanga": 8342,
  "\u2581imbuo": 8343,
  "\u2581kabalwe": 8344,
  "\u2581kiko": 8345,
  "\u2581kil\u0113ma": 8346,
  "\u2581kitukwasha": 8347,
  "\u2581kongolwa": 8348,
  "\u2581kupwanya": 8349,
  "\u2581kwikalanga": 8350,
  "\u2581kwitulombola": 8351,
  "\u2581k\u014dna": 8352,
  "\u2581liar": 8353,
  "\u2581lupitalo": 8354,
  "\u2581mafilime": 8355,
  "\u2581mbikavu": 8356,
  "\u2581meshileshile": 8357,
  "\u2581mobifwaninwe": 8358,
  "\u2581mulami": 8359,
  "\u2581nato": 8360,
  "\u2581objects": 8361,
  "\u2581observance": 8362,
  "\u2581outset": 8363,
  "\u2581performing": 8364,
  "\u2581pona": 8365,
  "\u2581promoted": 8366,
  "\u2581rebels": 8367,
  "\u2581representatives": 8368,
  "\u2581requests": 8369,
  "\u2581sa": 8370,
  "\u2581suit": 8371,
  "\u2581touching": 8372,
  "\u2581tulwe": 8373,
  "\u2581ukafikidija": 8374,
  "\u2581ukwasha": 8375,
  "\u2581violate": 8376,
  "\u2581welcomed": 8377,
  "\u2581witudyumuna": 8378,
  "\u2581wood": 8379,
  "\u2581worthless": 8380,
  "\u2581w\u0101londele": 8381,
  "\u2581w\u0101soneka": 8382,
  "\u2581w\u0101tenwe": 8383,
  "Dan": 8384,
  "Uno": 8385,
  "butwidilwe": 8386,
  "fundula": 8387,
  "fwijije": 8388,
  "k\u0113kalanga": 8389,
  "lungile": 8390,
  "mbila": 8391,
  "mwekejanga": 8392,
  "nenena": 8393,
  "nji": 8394,
  "pandije": 8395,
  "she": 8396,
  "sokwelwe": 8397,
  "tongela": 8398,
  "tyumukwe": 8399,
  "va": 8400,
  "\u2581101": 8401,
  "\u25811879": 8402,
  "\u25812,000": 8403,
  "\u258124]": 8404,
  "\u2581Akwila": 8405,
  "\u2581Apollos": 8406,
  "\u2581Buludiki": 8407,
  "\u2581Changes": 8408,
  "\u2581Committee": 8409,
  "\u2581Dikumi": 8410,
  "\u2581Everyone": 8411,
  "\u2581Greater": 8412,
  "\u2581Honor": 8413,
  "\u2581June": 8414,
  "\u2581KIDISHITU": 8415,
  "\u2581Kika": 8416,
  "\u2581Kiswa": 8417,
  "\u2581Mbila": 8418,
  "\u2581Mut\u014dtelo": 8419,
  "\u2581Sanhedrin": 8420,
  "\u2581Tela": 8421,
  "\u2581Tusakilwa": 8422,
  "\u2581Umpika": 8423,
  "\u2581Unti": 8424,
  "\u2581Yeloboame": 8425,
  "\u2581arrested": 8426,
  "\u2581bafundi": 8427,
  "\u2581baile": 8428,
  "\u2581batano": 8429,
  "\u2581begun": 8430,
  "\u2581bereaved": 8431,
  "\u2581betwa": 8432,
  "\u2581beulanga": 8433,
  "\u2581bevwana": 8434,
  "\u2581bwitupa": 8435,
  "\u2581byotutanga": 8436,
  "\u2581cells": 8437,
  "\u2581cooperation": 8438,
  "\u2581decisive": 8439,
  "\u2581define": 8440,
  "\u2581deserving": 8441,
  "\u2581desperate": 8442,
  "\u2581difficulty": 8443,
  "\u2581distributed": 8444,
  "\u2581embrace": 8445,
  "\u2581equip": 8446,
  "\u2581evangelizing": 8447,
  "\u2581expresse": 8448,
[...]
