{
  "</s>": 0,
  "<unk>": 1,
  ",": 2,
  ".": 3,
  "\u2581\"": 4,
  "\u2581the": 5,
  "\u2581be": 6,
  "\u2581le": 7,
  "\u2581la": 8,
  "\u2581to": 9,
  "\u2581me": 10,
  "\u2581of": 11,
  "\u2581\u0192e": 12,
  "\u2581si": 13,
  "\u2581and": 14,
  "\u2581\u0256e": 15,
  "\u2581\u014bu": 16,
  "\u2581-": 17,
  ":": 18,
  "\u2581in": 19,
  "?": 20,
  "\u0303": 21,
  "\u2581a": 22,
  "\u2581na": 23,
  "\u2581o": 24,
  "\u2581kple": 25,
  "s": 26,
  "\u2581that": 27,
  "\u2581nu": 28,
  "\u2581dzi": 29,
  "a": 30,
  "\u2581siwo": 31,
  "\u2581nye": 32,
  "\u2581eye": 33,
  "\u2581is": 34,
  "'": 35,
  "e": 36,
  "\u2581ame": 37,
  "\u2581wo": 38,
  "\u2581for": 39,
  "\u2581a\u0256e": 40,
  "\u2581h\u00e3": 41,
  "\u2581Mawu": 42,
  "\u2581Jehovah": 43,
  "\u2581Yehowa": 44,
  "\u2581I": 45,
  "\u2581was": 46,
  "\u2581God": 47,
  "\u2581with": 48,
  "\u2581his": 49,
  "\u2581you": 50,
  "\u2581not": 51,
  "\u2581we": 52,
  "\u2581tso": 53,
  "\u2581on": 54,
  "\u2581as": 55,
  "\u2581sia": 56,
  "\u2581he": 57,
  "\u2581The": 58,
  "\u2581are": 59,
  "\u2581": 60,
  "\u2581'": 61,
  "\u2581have": 62,
  "\u2581e\u0192e": 63,
  "\u2581ta": 64,
  "\u2581it": 65,
  "\u2581will": 66,
  "\u2581\u0256o": 67,
  "\u2581do": 68,
  "\u2581nya": 69,
  "\u2581Le": 70,
  ";": 71,
  "\u2581by": 72,
  "!": 73,
  "\u2581from": 74,
  "wo": 75,
  "\u2581their": 76,
  "\u2581gbl\u0254": 77,
  "\u2581[": 78,
  "\u2581(": 79,
  "\u2581they": 80,
  "\u2581ge\u0256e": 81,
  "\u2581va": 82,
  "\u2581Bible": 83,
  "\u2581Biblia": 84,
  "\u2581n\u0254": 85,
  "\u2581who": 86,
  "\u2581Yesu": 87,
  "\u2581m\u00eda": 88,
  "\u2581can": 89,
  "\u2581ne": 90,
  "\u2581or": 91,
  "\u2581Jesus": 92,
  "\u2581our": 93,
  "\u2581alo": 94,
  "\u2581ene": 95,
  "\u2581this": 96,
  "ing": 97,
  "\u2581kat\u00e3": 98,
  "\u2581edzi": 99,
  "\u2581us": 100,
  "\u2581w\u00f2": 101,
  ")": 102,
  "\u2581gb\u0254": 103,
  "\u2581were": 104,
  "\u2581ke": 105,
  "\u2581all": 106,
  "\u2581m\u00ed": 107,
  "\u2581one": 108,
  "\u2581abe": 109,
  "\u2581had": 110,
  "\u2581m\u0254": 111,
  "\u2581what": 112,
  "\u2581a\u0256ewo": 113,
  "\u2581at": 114,
  "\u2581your": 115,
  "\u2581esi": 116,
  "\u2581ale": 117,
  "\u2581them": 118,
  "\u25811": 119,
  "\u2581him": 120,
  "\u2581wu": 121,
  "\u2581What": 122,
  "\u2581people": 123,
  "\u2581an": 124,
  "\u2581ye": 125,
  "\u2581wo\u0192e": 126,
  "\u2581ate": 127,
  "\u2581In": 128,
  "\u2581eme": 129,
  "\u2581amewo": 130,
  "\u2581Gake": 131,
  "\u2581kp\u0254": 132,
  "\u2581Ne": 133,
  "\u2581fia": 134,
  "\u2581my": 135,
  "\u2581d\u0254": 136,
  "]": 137,
  "\u2581m\u00eda\u0192e": 138,
  "\u2581about": 139,
  "\u2581sr\u0254": 140,
  "\u2581has": 141,
  "\u2581when": 142,
  "\u2581would": 143,
  "\u2581agbe": 144,
  "\u2581\u0256eka": 145,
  "\u2581w\u0254": 146,
  "\u2581ma": 147,
  "\u2581\u014but\u0254": 148,
  "\u2581time": 149,
  "\u2581asi": 150,
  "\u2581yi": 151,
  "\u2581alesi": 152,
  "\u2581but": 153,
  "\u2581gbe": 154,
  "\u2581Nu": 155,
  "\u2581may": 156,
  "\u2581v\u0254": 157,
  "\u2581did": 158,
  "\u2581Esi": 159,
  "\u2581bubu": 160,
  "\u2581siawo": 161,
  "\u2581life": 162,
  "\u2581domet\u0254": 163,
  "\u2581dze": 164,
  "\u2581te": 165,
  "\u2581\u00d0e": 166,
  "\u2581How": 167,
  "\u2581\u0256a": 168,
  "\u2581A": 169,
  "\u2581ku": 170,
  "\u2581dome": 171,
  "\u2581vevie": 172,
  "\u2581so": 173,
  "\u2581se": 174,
  "\u2581more": 175,
  "\u2581those": 176,
  "\u2581He": 177,
  "\u2581e\u014bu": 178,
  "\u2581\u0192o": 179,
  "\u2581some": 180,
  "\u2581also": 181,
  "\u2581\u0256i": 182,
  "\u2581ts\u0254": 183,
  "\u2581her": 184,
  "\u2581de": 185,
  "\u2581ko": 186,
  "\u2581akpa": 187,
  "\u2581n\u025b": 188,
  "\u2581out": 189,
  "\u2581been": 190,
  "\u2581ka": 191,
  "\u2581a\u0256eke": 192,
  "\u2581esia": 193,
  "\u2581\u0263eyi\u0263i": 194,
  "\u2581nyui": 195,
  "\u2581To": 196,
  "\u2581many": 197,
  "\u2581susu": 198,
  "\u2581menye": 199,
  "\u2581It": 200,
  "\u2581amesiwo": 201,
  "\u2581Witnesses": 202,
  "\u2581no": 203,
  "\u2581Aleke": 204,
  "\u2581mele": 205,
  "\u2581kae": 206,
  "\u2581such": 207,
  "\u2581w\u00f2le": 208,
  "\u2581bubuwo": 209,
  "\u2581anyi": 210,
  "\u25812": 211,
  "\u2581l\u0254l\u0254": 212,
  "\u2581up": 213,
  "\u2581\u014bus\u1ebd": 214,
  "\u2581there": 215,
  "\u2581megbe": 216,
  "\u2581nyuie": 217,
  "\u2581how": 218,
  "\u2581an\u0254": 219,
  "\u2581Ke": 220,
  "\u2581anyigba": 221,
  "\u2581help": 222,
  "\u2581said": 223,
  "na": 224,
  "\u2581Israel": 225,
  "\u2581good": 226,
  "\u2581x\u0254": 227,
  "\u2581if": 228,
  "\u2581things": 229,
  "\u2581which": 230,
  "\u2581/": 231,
  "\u2581\u014buti": 232,
  "\u2581axa": 233,
  "\u2581world": 234,
  "\u2581But": 235,
  "\u2581kp\u0254\u0256e\u014bu": 236,
  "\u2581other": 237,
  "\u2581n\u0254n\u0254me": 238,
  "\u2581We": 239,
  "\u2581than": 240,
  "m": 241,
  "\u2581should": 242,
  "\u2581way": 243,
  "\u2581\u014bku": 244,
  "\u2581akpe": 245,
  "\u2581even": 246,
  "\u2581man": 247,
  "\u2581gake": 248,
  "\u2581Ame": 249,
  "\u2581Kristo": 250,
  "\u25815": 251,
  "\u2581Paul": 252,
  "\u2581enye": 253,
  "\u2581hafi": 254,
  "\u2581does": 255,
  "\u2581work": 256,
  "\u2581love": 257,
  "\u2581kpe": 258,
  "\u2581ana": 259,
  "\u2581into": 260,
  "\u2581dzidz\u0254": 261,
  "\u2581Paulo": 262,
  "gb\u0254": 263,
  "\u2581g\u0254me": 264,
  "\u2581these": 265,
  "\u2581nusi": 266,
  "\"": 267,
  "\u2581zi": 268,
  "\u2581gb\u0254gb\u0254": 269,
  "\u2581ele": 270,
  "\u2581tae": 271,
  "\u2581years": 272,
  "\u2581day": 273,
  "\u2581page": 274,
  "b": 275,
  "\u2581go": 276,
  "\u2581could": 277,
  "\u2581elabena": 278,
  "\u2581For": 279,
  "\u2581w\u0254w\u0254": 280,
  "\u2581When": 281,
  "\u2581make": 282,
  "\u2581nam": 283,
  "ed": 284,
  "\u2581children": 285,
  "\u2581esime": 286,
  "\u2581akp\u0254": 287,
  "\u2581g\u0254": 288,
  "\u2581Christian": 289,
  "\u2581she": 290,
  "\u2581Nya": 291,
  "\u2581te\u0192e": 292,
  "\u2581g\u00e3": 293,
  "\u2581aw\u0254": 294,
  "\u2581earth": 295,
  "\u25813": 296,
  "\u2581ya": 297,
  "\u2581Christ": 298,
  "\u2581nyate\u0192e": 299,
  "\u2581\u014bg\u0254": 300,
  "\u2581They": 301,
  "\u2581tsi": 302,
  "\u2581only": 303,
  "\u2581first": 304,
  "\u2581gbegbe": 305,
  "\u2581And": 306,
  "\u2581This": 307,
  "\u258115": 308,
  "ly": 309,
  "\u2581koe": 310,
  "\u2581says": 311,
  "\u2581Why": 312,
  "\u2581vi": 313,
  "\u2581because": 314,
  "\u2581t\u0254": 315,
  "t": 316,
  "\u2581others": 317,
  "\u2581made": 318,
  "\u2581Christians": 319,
  "\u2581family": 320,
  "\u2581li": 321,
  "\u2581Kingdom": 322,
  "\u2581\u0256okui": 323,
  "\u2581Kristot\u0254": 324,
  "\u2581w\u00f2nye": 325,
  "\u2581m\u00edate": 326,
  "\u2581Kristot\u0254wo": 327,
  "\u2581If": 328,
  "\u2581need": 329,
  "\u2581mia": 330,
  "\u2581yewo": 331,
  "\u2581being": 332,
  "...": 333,
  "\u2581s\u0254": 334,
  "\u2581faith": 335,
  "\u2581over": 336,
  "\u2581gome": 337,
  "\u2581\u00d0asefowo": 338,
  "\u2581like": 339,
  "\u2581*": 340,
  "\u2581As": 341,
  "\u2581see": 342,
  "\u2581example": 343,
  "\u2581duk\u0254": 344,
  "\u2581mi": 345,
  "\u2581spirit": 346,
  "the": 347,
  "\u2581then": 348,
  "\u25814": 349,
  "\u2581must": 350,
  "\u2581bo\u014b": 351,
  "\u2581know": 352,
  "\u2581alafa": 353,
  "\u2581mawo": 354,
  "\u2581You": 355,
  "\u2581ava": 356,
  "\u2581come": 357,
  "\u2581agbal\u1ebd": 358,
  "\u2581l\u0254": 359,
  "\u2581Eye": 360,
  "\u2581amesi": 361,
  "\u2581viwo": 362,
  "\u2581N\u0254n\u0254metata": 363,
  "\u2581Esia": 364,
  "\u2581its": 365,
  "\u2581agbagba": 366,
  "\u2581zu": 367,
  "\u2581eve": 368,
  "\u25816": 369,
  "\u2581n\u0254ewo": 370,
  "\u2581well": 371,
  "\u2581Mose": 372,
  "\u258111": 373,
  "\u2581own": 374,
  "\u2581gb\u00e3t\u0254": 375,
  "\u2581take": 376,
  "\u2581bena": 377,
  "\u25817": 378,
  "\u2581just": 379,
  "awo": 380,
  "\u2581before": 381,
  "\u2581congregation": 382,
  "\u2581fu": 383,
  "\u2581eya": 384,
  "\u2581David": 385,
  "\u2581.": 386,
  "\u2022": 387,
  "\u2581after": 388,
  "\u2581vevi": 389,
  "\u2581Be": 390,
  "\u2581spiritual": 391,
  "\u2581true": 392,
  "\u2581become": 393,
  "\u2581Eyata": 394,
  "\u2581\u0191e": 395,
  "\u2581any": 396,
  "\u2581w\u0254m": 397,
  "\u2581now": 398,
  "lawo": 399,
  "\u2581ade": 400,
  "\u2581death": 401,
  "\u2581men": 402,
  "\u2581\u0256esia\u0256e": 403,
  "\u2581w\u0254a": 404,
  "\u2581heart": 405,
  "\u2581parents": 406,
  "\u2581two": 407,
  "\u2581words": 408,
  "\u2581\u014bk\u0254": 409,
  "\u2581new": 410,
  "\u2581mee": 411,
  "\u2581Si": 412,
  "\u2581another": 413,
  "\u2581nenema": 414,
  "\u2581John": 415,
  "E": 416,
  "\u2581xexeame": 417,
  "\u2581n\u0254a": 418,
  "\u258113": 419,
  "\u2581wole": 420,
  "n": 421,
  "d": 422,
  "\u2581very": 423,
  "\u258120": 424,
  "\u2581e\u0256okui": 425,
  "\u2581ones": 426,
  "\u2581much": 427,
  "\u2581wots\u0254": 428,
  "\u2581kura": 429,
  "\u258112": 430,
  "\u2581\u014bkeke": 431,
  "\u2581ga": 432,
  "\u2581through": 433,
  "\u2581afi": 434,
  "\u2581fifia": 435,
  "\u2581give": 436,
  "\u2581That": 437,
  "\u2581Picture": 438,
  "\u2581dz\u0254": 439,
  "\u2581egbea": 440,
  "\u2581Do": 441,
  "\u25811,": 442,
  "\u2581\u028bu": 443,
  "\u2581might": 444,
  "\u2581wow\u0254": 445,
  "sr\u0254": 446,
  "\u2581name": 447,
  "\u2581anye": 448,
  "\u2581most": 449,
  "la": 450,
  "\u2581times": 451,
  "nu": 452,
  "\u2581say": 453,
  "\u2581nuwo": 454,
  "\u2581\u0256o\u0256o": 455,
  "\u2581et\u0254": 456,
  "\u2581kp\u0254m": 457,
  "\u25818": 458,
  "\u2581Me": 459,
  "\u2581So": 460,
  "\u2581home": 461,
  "\u2581person": 462,
  "\u2581study": 463,
  "\u2581x\u0254se": 464,
  "\u2581kp\u0254a": 465,
  "\u2581ats\u0254": 466,
  "\u2581New": 467,
  "\u2581truth": 468,
  "\u2581nyawo": 469,
  "\u2581Eya": 470,
  "\u2581mate": 471,
  "\u2581nan\u0254": 472,
  "\u2581today": 473,
  "\u2581ge\u0256ewo": 474,
  "\u2581where": 475,
  "\u2581a\u0192e": 476,
  "\u2581nusiwo": 477,
  "\u2581One": 478,
  "\u2581found": 479,
  "\u2581\u0256ee": 480,
  "\u2581great": 481,
  "\u2581C": 482,
  "\u2581feel": 483,
  "\u2581ses\u1ebd": 484,
  "\u2581nusr\u0254": 485,
  "\u2581\u014bl\u0254": 486,
  "\u2581m\u00edele": 487,
  "\u2581kpakple": 488,
  "\u2581young": 489,
  "\u2581year": 490,
  "\u2581hena": 491,
  "I": 492,
  "\u2581find": 493,
  "\u258114": 494,
  "\u2581m\u00edaw\u0254": 495,
  "\u2581woate": 496,
  "\u2581afia": 497,
  "\u2581against": 498,
  "l\u0254": 499,
  "\u2581part": 500,
  "\u2581each": 501,
  "\u2581Ele": 502,
  "\u2581Word": 503,
  "\u2581dzesi": 504,
  "\u2581didi": 505,
  "\u2581hamea": 506,
  "\u2581k\u0254": 507,
  "\u2581ge": 508,
  "\u2581blibo": 509,
  "\u2581use": 510,
  "\u2581b\u0254b\u0254e": 511,
  "\u2581\u014au": 512,
  "\u2581book": 513,
  "\u2581brothers": 514,
  "\u2581same": 515,
  "S": 516,
  "\u2581dzi\u0192o": 517,
  "\u2581himself": 518,
  "\u2581woaw\u0254": 519,
  "\u2581\u0192omea": 520,
  "\u2581human": 521,
  "\u2581However": 522,
  "\u25819": 523,
  "\u2581Egbl\u0254": 524,
  "\u2581Satana": 525,
  "i": 526,
  "\u2581Wo": 527,
  "\u2581t\u0254wo": 528,
  "\u2581v\u025b": 529,
  "\u2581Abraham": 530,
  "\u2581Nukae": 531,
  "\u2581Some": 532,
  "\u2581came": 533,
  "\u2581apostle": 534,
  "\u2581never": 535,
  "\u2581Satan": 536,
  "\u2581tr\u0254": 537,
  "\u2581Peter": 538,
  "\u2581keep": 539,
  "\u2581ayi": 540,
  "\u2581bia": 541,
  "\u2581long": 542,
  "\u2581every": 543,
  "\u2581put": 544,
  "\u2581\u014butsu": 545,
  "\u2581though": 546,
  "y": 547,
  "\u2581learn": 548,
  "\u2581get": 549,
  "\u2581g\u00e3t\u0254": 550,
  "\u2581often": 551,
  "\u2581ha": 552,
  "\u2581hi\u00e3": 553,
  "\u2581end": 554,
  "\u2581means": 555,
  "\u2581amegbet\u0254wo": 556,
  "\u2581yeye": 557,
  "\u2581wrote": 558,
  "\u2581under": 559,
  "\u2581\u0263esia\u0263i": 560,
  "\u2581ny\u0254nu": 561,
  "\u2581Yohanes": 562,
  "\u2581used": 563,
  "\u2581upon": 564,
  "\u2581right": 565,
  "\u2581doa": 566,
  "\u2581wo\u0256e": 567,
  "\u2581place": 568,
  "\u2581nana": 569,
  "\u2581too": 570,
  "\u2581agben\u0254n\u0254": 571,
  "\u2581called": 572,
  "\u2581why": 573,
  "\u2581down": 574,
  "t\u0254": 575,
  "\u2581Petro": 576,
  "\u2581a\u0256o": 577,
  "\u2581word": 578,
  "\u2581became": 579,
  "\u2581At": 580,
  "\u2581amegbet\u0254": 581,
  "\u2581show": 582,
  "\u2581Father": 583,
  "\u2581important": 584,
  "\u2581read": 585,
  "\u2581days": 586,
  "\u258121": 587,
  "\u2581back": 588,
  "\u2581among": 589,
  "\u258118": 590,
  "\u2581After": 591,
  "\u2581\u014a\u0254\u014bl\u0254awo": 592,
  "\u2581Is": 593,
  "\u2581want": 594,
  "\u2581away": 595,
  "\u2581worship": 596,
  "\u2581di": 597,
  "\u2581faa": 598,
  "\u25813:": 599,
  "A": 600,
  "\u2581wife": 601,
  "\u2581live": 602,
  "\u2581United": 603,
  "\u2581ado": 604,
  "\u2581course": 605,
  "\u2581O": 606,
  "\u258110": 607,
  "\u2581w\u0254e": 608,
  "),": 609,
  "\u2581oa": 610,
  "\u2581Adam": 611,
  "\u2581tre": 612,
  "\u2581lia": 613,
  "\u2581\u00d0asefo": 614,
  "\u258117": 615,
  "\u2581alea": 616,
  "\u2581let": 617,
  "\u2581men\u0254": 618,
  "\u2581am": 619,
  "\u2581z\u00e3": 620,
  "\u2581M": 621,
  "\u2581faithful": 622,
  "\u2581told": 623,
  "\u2581vovo": 624,
  "\u2581\u0192u": 625,
  "\u2581dzo": 626,
  "\u2581during": 627,
  "\u2581du": 628,
  "\u2581old": 629,
  "\u2581nunya": 630,
  "\u2581began": 631,
  "\u2581vav\u00e3": 632,
  "\u2581ye\u0192e": 633,
  "\u2581child": 634,
  "\u258116": 635,
  "\u258119": 636,
  "\u2581xexe": 637,
  "\u2581three": 638,
  "\u2581gbe\u0192\u00e3": 639,
  "\u2581gbogbo": 640,
  "\u2581kpekpe\u0256e\u014bu": 641,
  "\u2581still": 642,
  "\u2581aleke": 643,
  "\u2581Matthew": 644,
  "\u2581given": 645,
  "\u0256i": 646,
  "\u2581hope": 647,
  "\u2581w\u00f2n\u0254": 648,
  "\u2581E": 649,
  "\u2581Na": 650,
  "\u2581later": 651,
  "\u2581news": 652,
  "\u2581There": 653,
  "\u2581able": 654,
  "\u2581themselves": 655,
  "\u25814.": 656,
  "\u2581century": 657,
  "\u2581mind": 658,
  "\u2581II": 659,
  "\u258125": 660,
  "\u2581wode": 661,
  "\u2581\u014bui": 662,
  "\u25812:": 663,
  "\u2581nuv\u0254": 664,
  "\u2581without": 665,
  "\u2581knowledge": 666,
  "\u2581By": 667,
  "\u2581view": 668,
  "\u2581tsitre": 669,
  "\u2581dea": 670,
  "\u2581siaa": 671,
  "\u2581Mateo": 672,
  "The": 673,
  "\u2581sue": 674,
  "\u2581Then": 675,
  "\u2581mia\u0192e": 676,
  "\u2581living": 677,
  "\u2581peace": 678,
  "\u2581A\u0192et\u0254": 679,
  "\u2581Psalmo": 680,
  "nye": 681,
  "\u2581nyati": 682,
  "\u2581Fia\u0256u\u0192e": 683,
  "\u2581ministry": 684,
  "\u2581\u014butifafa": 685,
  "\u2581kee": 686,
  "\u2581Abe": 687,
  "\u258122": 688,
  "\u2581\u0256e\u0256e": 689,
  "\u2581No": 690,
  "\u2581gave": 691,
  "\u2581Psalm": 692,
  "\u2581States": 693,
  "\u2581gbegbl\u1ebd": 694,
  "\u2581tututu": 695,
  "\u2581Fia": 696,
  "\u2581power": 697,
  "\u2581x\u0254l\u0254": 698,
  "\u2581afisi": 699,
  "\u2581kpli": 700,
  "\u2581holy": 701,
  "\u2581preaching": 702,
  "\u2581father": 703,
  "\u2581doing": 704,
  "\u2581Fia\u0256u\u0192ea": 705,
  "\u2581\u014but\u0254\u014but\u0254": 706,
  "\u25814:": 707,
  "\u2581ko\u014b": 708,
  "\u2581On": 709,
  "\u2581dzilawo": 710,
  "\u2581\u0256ekae": 711,
  "\u2581serve": 712,
  "\u2581service": 713,
  "\u2581B": 714,
  "\u2581Scriptures": 715,
  "\u2581house": 716,
  "asr\u0254": 717,
  "\u2581\u0256em": 718,
  "\u2581\u0192omevi": 719,
  "\u25812.": 720,
  "\u2581She": 721,
  "\u258110.": 722,
  "\u2581set": 723,
  "\u2581disciples": 724,
  "\u2581however": 725,
  "\u2581both": 726,
  "\u2581sub\u0254sub\u0254": 727,
  "\u2581Tso": 728,
  "\u2581godoo": 729,
  "\u2581With": 730,
  "\u2581while": 731,
  "\u2581whom": 732,
  "\u2581always": 733,
  "\u2581mother": 734,
  "\u2581result": 735,
  "\u2581Dzi": 736,
  "\u258110:": 737,
  "\u2581kawoe": 738,
  "\u2581\u0263ema\u0263i": 739,
  "\u2581\u014buw\u00f2": 740,
  "\u2581Yes": 741,
  "\u2581\u0256oa": 742,
  "\u2581\u0256eviwo": 743,
  "\u2581nu\u0256u\u0256u": 744,
  "th": 745,
  "\u2581Many": 746,
  "\u2581\u014butil\u00e3": 747,
  "\u2581w\u00f2gbl\u0254": 748,
  "\u2581\u0192ome": 749,
  "\u2581asked": 750,
  "\u2581fact": 751,
  "\u2581think": 752,
  "\u2581da": 753,
  "\u2581\u014bunye": 754,
  "\u2581Nukatae": 755,
  "\u2581religious": 756,
  "\u014a": 757,
  "\u2581naa": 758,
  "\u2581hand": 759,
  "\u2581m\u0254kp\u0254kp\u0254": 760,
  "\u2581nyate\u0192ea": 761,
  "\u25811:": 762,
  "\u2581took": 763,
  "\u2581\u0256evi": 764,
  "\u2581making": 765,
  "\u2581ete\u0192e": 766,
  "\u2581nuw\u0254na": 767,
  "\u2581woats\u0254": 768,
  "\u2581His": 769,
  "\u2581Emegbe": 770,
  "\u2581King": 771,
  "\u2581dzea": 772,
  "\u2581Nye": 773,
  "\u2581ways": 774,
  "\u2581full": 775,
  "\u2581naneke": 776,
  "\u2581af\u0254ku": 777,
  "\u2581wo\u0256o": 778,
  "\u2581Even": 779,
  "\u2581woman": 780,
  "\u2581\u0256ewoh\u0129": 781,
  "\u258114.": 782,
  "\u2581d\u0254a": 783,
  "\u25818.": 784,
  "\u2581having": 785,
  "\u2581Our": 786,
  "\u2581son": 787,
  "\u2581D": 788,
  "\u2581anya": 789,
  "\u2581mew\u0254": 790,
  "\u2581mili\u0254n": 791,
  "\u258130": 792,
  "\u2581ts\u00e3": 793,
  "\u25817.": 794,
  "\u2581Menye": 795,
  "\u2581wonye": 796,
  "\u2581something": 797,
  "\u2581m\u00edakp\u0254": 798,
  "er": 799,
  "\u2581humans": 800,
  "\u25815.": 801,
  "\u2581nane": 802,
  "\u2581really": 803,
  "\u2581bu": 804,
  "\u2581adze": 805,
  "\u2581Yet": 806,
  "\u2581between": 807,
  "\u2581m\u0254nukp\u0254kp\u0254": 808,
  "\u2581\u014bugble": 809,
  "\u2581marriage": 810,
  "\u2581consider": 811,
  "n\u025b": 812,
  "\u2581article": 813,
  "\u2581My": 814,
  "\u2581Daniel": 815,
  "\u2581Jerusalem": 816,
  "\u2581city": 817,
  "\u2581nuku": 818,
  "\u2581mankind": 819,
  "\u2581together": 820,
  "\u2581loving": 821,
  "\u258113.": 822,
  "\u25816:": 823,
  "\u2581order": 824,
  "\u25819.": 825,
  "\u2581future": 826,
  "\u2581vase\u0256e": 827,
  "\u2581wova": 828,
  "\u2581enu": 829,
  "\u2581mav\u0254": 830,
  "\u2581Lord": 831,
  "\u2581bene": 832,
  "\u2581woakp\u0254": 833,
  "\u258112.": 834,
  "\u2581number": 835,
  "\u2581egbl\u0254": 836,
  "\u2581emegbe": 837,
  "\u2581reason": 838,
  "\u2581purpose": 839,
  "\u2581little": 840,
  "\u2581gb\u0254e": 841,
  "\u2581World": 842,
  "\u2581S": 843,
  "\u2581ak\u0254": 844,
  "\u2581husband": 845,
  "\u2581m\u00edan\u0254": 846,
  "\u2581y\u0254": 847,
  "\u2581food": 848,
  "\u2581\u0256okuiw\u00f2": 849,
  "\u2581gbe\u0256e": 850,
  "\u2581xexea": 851,
  "\u2581someone": 852,
  "\u2581vovovowo": 853,
  "\u2581personal": 854,
  "\u258111.": 855,
  "\u2581gb\u0254na": 856,
  "\u2581again": 857,
  "\u2581mete": 858,
  "\u2581ake": 859,
  "o": 860,
  "\u2581women": 861,
  "\u2581wogbl\u0254": 862,
  "\u2581Son": 863,
  "\u2581servants": 864,
  "\u258115,": 865,
  "\u2581adz\u0254": 866,
  "\u2581yome": 867,
  "\u2581Yerusalem": 868,
  "\u2581kuxi": 869,
  "\u258116.": 870,
  "\u2581From": 871,
  "\u2581Yesaya": 872,
  "\u25813.": 873,
  "\u2581few": 874,
  "\u2581heaven": 875,
  "\u2581nyuiwo": 876,
  "\u2581n\u0254n\u0254": 877,
  "\u2581\u00d0ewoh\u0129": 878,
  "\u258117.": 879,
  "\u2581ema": 880,
  "\u2581Isaiah": 881,
  "ame": 882,
  "\u2581toward": 883,
  "\u0256e\u0256e": 884,
  "\u2581apostolo": 885,
  "\u2581dzesii": 886,
  "\u25816.": 887,
  "\u2581Yudat\u0254wo": 888,
  "\u2581w\u00f2w\u0254": 889,
  "\u2581sii": 890,
  "\u2581care": 891,
  "\u2581E\u0192e": 892,
  "\u2581fellow": 893,
  "\u25aa": 894,
  "\u2581shall": 895,
  "\u2581La": 896,
  "\u2581a\u0256ee": 897,
  "\u2581sin": 898,
  "\u2581afima": 899,
  "\u2581look": 900,
  "\u2581went": 901,
  "\u2581mo": 902,
  "\u2581woa\u0256e": 903,
  "\u2581Kp\u0254": 904,
  "\u2581nus\u0254sr\u0254": 905,
  "\u2581w\u0254na": 906,
  "\u2581questions": 907,
  "\u258123": 908,
  "\u2581magazine": 909,
  "\u2581M\u00eda": 910,
  "\u2581brother": 911,
  "\u2581W\u00f2": 912,
  "\u2581blood": 913,
  "\u2581ame\u0192omea": 914,
  "\u2581joy": 915,
  "\u2581woan\u0254": 916,
  "\u2581problems": 917,
  "\u2581age": 918,
  "\u2581mede": 919,
  "\u2581\u0192\u00e3": 920,
  "\u2581bring": 921,
  "al": 922,
  "\u2581wo\u014bl\u0254": 923,
  "\u2581blema": 924,
  "\u2581sub\u0254sub\u0254d\u0254a": 925,
  "\u2581left": 926,
  "\u2581done": 927,
  "\u2581free": 928,
  "\u2581nufiafia": 929,
  "\u258115.": 930,
  "\u2581Moses": 931,
  "\u2581law": 932,
  "\u2581Kple": 933,
  "\u2581water": 934,
  "....": 935,
  "\u2581af\u0254": 936,
  "\u2581lives": 937,
  "\u2581These": 938,
  "\u2581egb\u0254": 939,
  "\u2581l\u00e9": 940,
  "\u2581gbl\u1ebd": 941,
  "\u2581wodo": 942,
  "\u2581meetings": 943,
  "t\u0254wo": 944,
  "\u2581better": 945,
  "\u2581\u014but\u0254wo": 946,
  "\u2581experience": 947,
  "\u2581hame": 948,
  "\u2581k\u0254k\u0254e": 949,
  "\u2581learned": 950,
  "\u2581ase": 951,
  "\u2581fear": 952,
  "\u2581vav\u00e3t\u0254": 953,
  "\u2581v\u0254v\u0254": 954,
  "\u2581a\u028ba": 955,
  "\u2581kekeake": 956,
  "\u2581Nusi": 957,
  "\u2581off": 958,
  "\u2581Lododowo": 959,
  "\u2581felt": 960,
  "\u2581eg\u0254me": 961,
  "\u2581prayer": 962,
  "\u2581\u014bugbe": 963,
  "\u2581kplii": 964,
  "\u2581Proverbs": 965,
  "\u2581last": 966,
  "\u2581a\u0192eme": 967,
  "\u2581kp\u0254e": 968,
  "\u2581al\u0254": 969,
  "\u2581ever": 970,
  "\u2581sidzedze": 971,
  "\u2581helped": 972,
  "\u2581duk\u0254a": 973,
  "\u2581Watchtower": 974,
  "\u2581saying": 975,
  "\u2581su": 976,
  "\u2581dzie": 977,
  "\u25818,": 978,
  "\u2581known": 979,
  "\u2581n\u0254vi": 980,
  "\u2581needed": 981,
  "\u2581edziedzi": 982,
  "\u2581face": 983,
  "\u2581believe": 984,
  "\u2581different": 985,
  "\u2581following": 986,
  "\u2581since": 987,
  "\u2581M\u0254": 988,
  "\u2581happy": 989,
  "\u2581school": 990,
  "\u2581possible": 991,
  "\u2581friends": 992,
  "\u2581\u014budzedze": 993,
  "\u2581\u014bkume": 994,
  "C": 995,
  "\u2581St": 996,
  "\u2581nukp\u0254susu": 997,
  "\u2581agbl\u0254": 998,
  "Ne": 999,
  "\u2581fiana": 1000,
  "\u2581wisdom": 1001,
  "\u2581duk\u0254wo": 1002,
  "\u2581best": 1003,
  "\u2581cannot": 1004,
  "\u2581nations": 1005,
  "\u2581kp\u0254kp\u0254": 1006,
  "\u2581Center": 1007,
  "\u2581nor": 1008,
  "le": 1009,
  "\u2581xoxo": 1010,
  "\u2581yia": 1011,
  "\u2581body": 1012,
  "\u2581All": 1013,
  "\u2581a\u0256a\u014bu": 1014,
  "\u2581Let": 1015,
  "\u2581matter": 1016,
  "\u2581eyes": 1017,
  "\u2581nava": 1018,
  "\u2581wicked": 1019,
  "\u2581\u0263ea\u0256ewo\u0263i": 1020,
  "\u2581kaka\u0256edzi": 1021,
  "\u2581Zi": 1022,
  "\u2581won\u0254": 1023,
  "\u25813,": 1024,
  "\u2581hard": 1025,
  "c": 1026,
  "\u2581ask": 1027,
  "\u2581relationship": 1028,
  "M": 1029,
  "\u2581Dawid": 1030,
  "\u2581nyuit\u0254": 1031,
  "\u2581\u0263leti": 1032,
  "\u2581az\u0254": 1033,
  "\u2581York": 1034,
  "\u2581conduct": 1035,
  "\u2581far": 1036,
  "\u2581nui": 1037,
  "\u2581teaching": 1038,
  "\u2581near": 1039,
  "\u2581bad": 1040,
  "\u2581meva": 1041,
  "\u2581mekp\u0254": 1042,
  "\u2581thought": 1043,
  "\u2581woawo": 1044,
  "r": 1045,
  "\u2581unto": 1046,
  "\u2581Israelites": 1047,
  "\u2581close": 1048,
  "\u2581gb\u00e3": 1049,
  "\u2581Gbetakp\u0254x\u0254": 1050,
  "\u2581asa": 1051,
  "\u2581members": 1052,
  "\u2581Your": 1053,
  "\u2581understand": 1054,
  "\u2581elders": 1055,
  "\u2581ekema": 1056,
  "\u2581f\u0254": 1057,
  "\u2581m\u00edew\u0254": 1058,
  "\u2581anointed": 1059,
  "\u2581money": 1060,
  "\u2581saw": 1061,
  "\u2581g\u0254mesese": 1062,
  "\u2581counsel": 1063,
  "\u2581suku": 1064,
  "\u2581Edze": 1065,
  "\u2581yourself": 1066,
  "\u2581share": 1067,
  "\u258124:": 1068,
  "\u2581high": 1069,
  "\u2581continue": 1070,
  "\u2581system": 1071,
  "\u2581situation": 1072,
  "\u2581war": 1073,
  "\u2581yet": 1074,
  "\u2581Elabena": 1075,
  "\u2581dead": 1076,
  "\u2581religion": 1077,
  "\u2581\u0256eko": 1078,
  "\u2581sea": 1079,
  "to": 1080,
  "\u2581support": 1081,
  "\u2581s\u0254\u014b": 1082,
  "\u2581edze": 1083,
  "\u2581nuwuwu": 1084,
  "\u2581b\u0254": 1085,
  "\u258140": 1086,
  "\u2581certain": 1087,
  "\u2581meli": 1088,
  "\u2581speak": 1089,
  "\u2581until": 1090,
  "\u2581Greek": 1091,
  "\u2581land": 1092,
  "\u2581\u014butinya": 1093,
  "\u2581Jews": 1094,
  "\u2581language": 1095,
  "\u2581bliboa": 1096,
  "\u2581Samuel": 1097,
  "\u2581Who": 1098,
  "\u2581Enye": 1099,
  "\u2581Timothy": 1100,
  "\u2581Nenema": 1101,
  "\u2581n\u00e0te": 1102,
  "\u2581mean": 1103,
  "\u2581\u0192om": 1104,
  "\u2581\u028b\u025b": 1105,
  "\u2581dziku": 1106,
  "\u2581avoid": 1107,
  "\u2581message": 1108,
  "\u2581righteous": 1109,
  "\u2581Ts\u0254": 1110,
  "\u2581m\u00edawo": 1111,
  "\u2581ax\u0254": 1112,
  "\u2581gbedodo\u0256a": 1113,
  "\u2581answer": 1114,
  "\u2581heavenly": 1115,
  "\u258118.": 1116,
  "\u2581around": 1117,
  "\u2581health": 1118,
  "\u2581cause": 1119,
  "\u2581vovovo": 1120,
  "\u2581Timoteo": 1121,
  "\u2581received": 1122,
  "\u2581Corinthians": 1123,
  "\u2581m\u00edekp\u0254": 1124,
  "\u2581ehi\u00e3": 1125,
  "\u2581ets\u0254me": 1126,
  "\u2581next": 1127,
  "xl\u0254": 1128,
  "\u2581self": 1129,
  "\u25819,": 1130,
  "\u2581Because": 1131,
  "\u2581nyaa": 1132,
  "\u2581Thus": 1133,
  "\u2581nyo": 1134,
  "\u2581w\u00f2anye": 1135,
  "\u2581difficult": 1136,
  "\u2581tame": 1137,
  "\u2581early": 1138,
  "\u2581desire": 1139,
  "\u2581enjoy": 1140,
  "\u2581present": 1141,
  "in": 1142,
  "\u2581loo": 1143,
  "\u2581s\u0254sr\u0254": 1144,
  "\u2581tu": 1145,
  "\u25815,": 1146,
  "\u2581Can": 1147,
  "\u2581eyae": 1148,
  "te": 1149,
  "\u2581gbl\u0254e": 1150,
  "\u2581Although": 1151,
  "\u2581Fofo": 1152,
  "\u2581Korintot\u0254wo": 1153,
  "\u2581baptized": 1154,
  "\u2581\u014butete": 1155,
  "\u2581\u0192omedodo": 1156,
  "\u2581woa": 1157,
  "\u2581Romat\u0254wo": 1158,
  "\u2581ancient": 1159,
  "\u2581esiwo": 1160,
  "\u2581especially": 1161,
  "\u2581brought": 1162,
  "\u2581died": 1163,
  "\u2581at\u0254": 1164,
  "\u2581dim": 1165,
  "Mawu": 1166,
  "\u2581l\u00e3": 1167,
  "\u2581states": 1168,
  "\u2581Az\u0254": 1169,
  "\u2581Luke": 1170,
  "\u2581menya": 1171,
  "\u2581ourselves": 1172,
  "\u2581whole": 1173,
  "\u2581tsoe": 1174,
  "\u2581talk": 1175,
  "\u2581feelings": 1176,
  "si": 1177,
  "\u2581fine": 1178,
  "\u2581Luka": 1179,
  "\u2581Of": 1180,
  "\u2581Ale": 1181,
  "\u2581dom": 1182,
  "\u2581bliboe": 1183,
  "\u2581w\u00f2an\u0254": 1184,
  "\u2581Esime": 1185,
  "\u2581t\u0254gbe": 1186,
  "\u2581sense": 1187,
  "\u25816,": 1188,
  "\u2581going": 1189,
  "\u2581James": 1190,
  "\u2581case": 1191,
  "\u2581Saul": 1192,
  "\u2581giving": 1193,
  "\u2581tame\u0256o\u0256o": 1194,
  "\u2581ses\u0129e": 1195,
  "\u2581kind": 1196,
  "\u2581kuku": 1197,
  "\u2581soon": 1198,
  "\u2581wise": 1199,
  "\u2581medze": 1200,
  "\u2581knew": 1201,
  "\u2581kwasi\u0256a": 1202,
  "\u2581awu": 1203,
  "\u2581respect": 1204,
  "\u2581Bu": 1205,
  "\u2581ew\u0254": 1206,
  "\u258119.": 1207,
  "\u2581wrong": 1208,
  "\u2581along": 1209,
  "yewo\u0192e": 1210,
  "\u2581receive": 1211,
  "\u2581t\u0254x\u025b": 1212,
  "\u2581thus": 1213,
  "\u2581dz\u0254dz\u0254e": 1214,
  "\u2581kpena": 1215,
  "\u2581ahe": 1216,
  "\u2581\u0256okuinye": 1217,
  "\u2581tsitsi": 1218,
  "\u2581king": 1219,
  "\u2581account": 1220,
  "\u2581attention": 1221,
  "\u2581needs": 1222,
  "\u2581Revelation": 1223,
  "\u2581benefit": 1224,
  "\u2581real": 1225,
  "\u2581dzi\u0256u\u0256u": 1226,
  "\u2581sent": 1227,
  "\u0192e": 1228,
  "\u2581Nya\u0256e\u0256efia": 1229,
  "\u2581\u00d0o": 1230,
  "\u2581n\u00e0w\u0254": 1231,
  "\u2581small": 1232,
  "\u2581serving": 1233,
  "\u2581Law": 1234,
  "\u2581Consider": 1235,
  "\u258127": 1236,
  "\u2581tegbee": 1237,
  "\u2581ny\u0254nyr\u0254": 1238,
  "\u2581Society": 1239,
  "\u2581enumake": 1240,
  "\u2581wokp\u0254": 1241,
  "\u258126": 1242,
  "\u2581x\u0254a": 1243,
  "\u2581sure": 1244,
  "\u2581Acts": 1245,
  "\u2581U": 1246,
  "\u2581heard": 1247,
  "\u2581question": 1248,
  "\u2581point": 1249,
  "\u2581wanted": 1250,
  "\u2581Since": 1251,
  "\u2581nothing": 1252,
  "\u2581reading": 1253,
  "\u2581amesiame": 1254,
  "\u2581including": 1255,
  "\u2581me\u0256o": 1256,
  "\u2581thing": 1257,
  "\u2581vi\u0256e": 1258,
  "\u2581s": 1259,
  "\u2581temple": 1260,
  "\u2581\u0256aa": 1261,
  "\u2581Footnote": 1262,
  "\u2581information": 1263,
  "\u2581w\u00f2aw\u0254": 1264,
  "\u2581kpl\u0254e": 1265,
  "\u2581veviet\u0254": 1266,
  "\u2581xl\u0254": 1267,
  "\u2581taught": 1268,
  "\u2581\u014bk\u0254e": 1269,
  "\u2581dz\u0254dz\u0254me": 1270,
  "\u2581kokoko": 1271,
  "\u2581change": 1272,
  "\u2581Agbal\u1ebd": 1273,
  "\u2581turn": 1274,
  "\u2581De": 1275,
  "\u2581four": 1276,
  "\u2581woy\u0254n": 1277,
  "\u2581Are": 1278,
  "\u2581ev\u0254": 1279,
  "\u2581t\u0254tr\u0254": 1280,
  "\u2581W": 1281,
  "\u2581kawo": 1282,
  "\u2581light": 1283,
  "\u2581naw\u0254": 1284,
  "\u2581Creator": 1285,
  "\u2581sub\u0254la": 1286,
  "\u2581likely": 1287,
  "\u2581principles": 1288,
  "\u2581Job": 1289,
  "\u2581zaz\u00e3": 1290,
  "\u2581Those": 1291,
  "\u2581nation": 1292,
  "\u2581Sea": 1293,
  "\u2581\u1ebc": 1294,
  "\u2581Hiob": 1295,
  "\u2581Not": 1296,
  "\u2581ke\u014bke\u014b": 1297,
  "\u2581kpl\u0254": 1298,
  "\u2581provide": 1299,
  "\u2581moved": 1300,
  "\u25814,": 1301,
  "\u2581While": 1302,
  "\u2581according": 1303,
  "\u2581agba": 1304,
  "\u2581group": 1305,
  "Yehowa": 1306,
  "\u2581Does": 1307,
  "\u2581kloe": 1308,
  "\u2581Yuda": 1309,
  "\u2581special": 1310,
  "\u2581P": 1311,
  "\u2581People": 1312,
  "\u2581makes": 1313,
  "\u2581follow": 1314,
  "\u2581suffering": 1315,
  "\u2581\u0256okuiwo": 1316,
  "\u2581evelia": 1317,
  "\u2581taken": 1318,
  "\u2581night": 1319,
  "\u2581married": 1320,
  "\u2581mex\u0254": 1321,
  "\u2581vie": 1322,
  "\u2581teach": 1323,
  "\u2581Sr\u0254": 1324,
  "\u2581kpekpewo": 1325,
  "\u2581lead": 1326,
  "\u2581kpuie": 1327,
  "\u2581seselel\u00e3me": 1328,
  "\u2581Apostolo": 1329,
  "\u2581whether": 1330,
  "\u2581kingdom": 1331,
  "l": 1332,
  "\u2581J": 1333,
  "\u2581thinking": 1334,
  "\u2581asix\u0254x\u0254": 1335,
  "\u2581works": 1336,
  "tsr\u0254": 1337,
  "\u2581Such": 1338,
  "\u2581dz\u0254dz\u0254enyenye": 1339,
  "\u2581trust": 1340,
  "\u2581Romans": 1341,
  "\u2581ati": 1342,
  "\u2581strong": 1343,
  "\u258114,": 1344,
  "\u2581dua": 1345,
  "\u2581dzodzro": 1346,
  "\u2581attitude": 1347,
  "v\u0254": 1348,
  "\u2581Now": 1349,
  "\u2581Roma": 1350,
  "\u2581agbl\u1ebd": 1351,
  "\u2581try": 1352,
  "\u2581therefore": 1353,
  "\u2581nunana": 1354,
  "\u2581prophet": 1355,
  "\u258112:": 1356,
  "\u258120.": 1357,
  "\u2581THE": 1358,
  "\u2581Today": 1359,
  "\u2581tsoa": 1360,
  "\u2581\u0256u": 1361,
  "\u258129": 1362,
  "\u2581atike": 1363,
  "\u258133": 1364,
  "\u2581d\u0254me": 1365,
  "\u2581seen": 1366,
  "\u2581ts\u0254a": 1367,
  "\u2581amea": 1368,
  "\u2581form": 1369,
  "\u2581tsia": 1370,
  "\u2581simply": 1371,
  "\u2581According": 1372,
  "\u2581divine": 1373,
  "\u2581yina": 1374,
  "\u2581nuto": 1375,
  "\u2581taking": 1376,
  "\u2581act": 1377,
  "\u2581hehe": 1378,
  "\u2581past": 1379,
  "\u2581Watch": 1380,
  "\u2581eva": 1381,
  "\u2581country": 1382,
  "\u2581control": 1383,
  "\u2581\u0256oe": 1384,
  "\u2581happiness": 1385,
  "\u2581problem": 1386,
  "\u2581D\u0254w\u0254w\u0254wo": 1387,
  "\u2581asinye": 1388,
  "\u2581teti": 1389,
  "\u2581W\u0254la": 1390,
  "\u2581kindness": 1391,
  "\u2581involved": 1392,
  "\u2581wona": 1393,
  "\u2581ml\u0254eba": 1394,
  "\u2581man\u0254": 1395,
  "\u2581dzila": 1396,
  "\u2581L\u0254": 1397,
  "\u2581false": 1398,
  "\u2581T": 1399,
  "\u2581similar": 1400,
  "\u2581yayra": 1401,
  "\u2581M\u00eda\u0192": 1402,
  "\u2581tell": 1403,
  "\u2581bua": 1404,
  "re": 1405,
  "\u2581wodze": 1406,
  "\u2581\u014bkekea": 1407,
  "\u2581agbal\u1ebda": 1408,
  "\u258131": 1409,
  "\u2581Solomon": 1410,
  "\u258121.": 1411,
  "\u2581d\u0254w\u0254w\u0254": 1412,
  "\u2581An": 1413,
  "\u2581allow": 1414,
  "\u2581pray": 1415,
  "\u2581ga\u0192o\u0192o": 1416,
  "\u258150": 1417,
  "\u2581perfect": 1418,
  "\u2581followers": 1419,
  "\u2581woava": 1420,
  "\u2581certainly": 1421,
  "\u2581vivi": 1422,
  "\u2581a\u0256u": 1423,
  "\u2581nutoa": 1424,
  "\u2581righteousness": 1425,
  "\u2581matters": 1426,
  "\u2581loved": 1427,
  "\u2581nakp\u0254": 1428,
  "\u2581Dur": 1429,
  "\u2581sons": 1430,
  "\u2581comes": 1431,
  "\u2581once": 1432,
  "\u2581May": 1433,
  "\u2581Hebrew": 1434,
  "\u2581Se": 1435,
  "\u2581kp\u0254t\u0254": 1436,
  "\u2581ts\u0254ts\u0254": 1437,
  "\u2581\"[": 1438,
  "\u25812,": 1439,
  "\u2581nyametsotso": 1440,
  "\u2581s\u0254h\u025b": 1441,
  "\u2581sub\u0254sub\u0254ha": 1442,
  "\u2581nute\u0192ew\u0254w\u0254": 1443,
  "\u2581aha": 1444,
  "\u2581kplikplikpli": 1445,
  "\u2581remain": 1446,
  "\u2581\u25a1": 1447,
  "\u2581Joseph": 1448,
  "\u25a1": 1449,
  "\u2581percent": 1450,
  "\u2581resurrection": 1451,
  "\u2581Pictures": 1452,
  "\u2581everlasting": 1453,
  "\u25817,": 1454,
  "\u2581church": 1455,
  "\u2581Alesi": 1456,
  "\u2581ny\u0254nuwo": 1457,
  "\u2581second": 1458,
  "\u2581already": 1459,
  "\u2581clear": 1460,
  "\u2581\u0192oa": 1461,
  "\u2581kplikpaa": 1462,
  "\u2581large": 1463,
  "\u2581individuals": 1464,
  "\u2581coming": 1465,
  "\u2581gives": 1466,
  "\u2581nusianu": 1467,
  "\u258111,": 1468,
  "\u2581Salomo": 1469,
  "\u2581dada": 1470,
  "\u2581gbe\u0192\u00e3\u0256e\u0256ed\u0254a": 1471,
  "\u2581Nyate\u0192ee": 1472,
  "\u2581sacrifice": 1473,
  "\u2581Hall": 1474,
  "\u2581nuw\u0254w\u0254": 1475,
  "\u2581w\u00f2ate": 1476,
  "\u2581d\u0254l\u00e9le": 1477,
  "\u2581further": 1478,
  "\u2581started": 1479,
  "me": 1480,
  "\u2581vevit\u0254": 1481,
  "\u2581gbesiagbe": 1482,
  "\u2581ses\u1ebdwo": 1483,
  "\u2581Maria": 1484,
  "\u2581based": 1485,
  "\u2581mets\u0254": 1486,
  "\u258128": 1487,
  "\u2581written": 1488,
  "\u2581leave": 1489,
  "\u2581shows": 1490,
  "\u2581biabia": 1491,
  "\u2581medidi": 1492,
  "\u2581nudz\u0254dz\u0254": 1493,
  "\u2581n\u0254\u0192e": 1494,
  "\u2581here": 1495,
  "\u2581n\u0254viwo": 1496,
  "\u2581w\u00f2va": 1497,
  "\u2581Would": 1498,
  "\u258124": 1499,
  "\u2581friend": 1500,
  "\u2581sisters": 1501,
  "\u2581w\u00f2dze": 1502,
  "\u2581soul": 1503,
  "dr\u0254": 1504,
  "\u2581Vi": 1505,
  "\u2581aka": 1506,
  "\u2581m\u0254fiame": 1507,
  "lia": 1508,
  "\u2581anyone": 1509,
  "\u2581gb\u0254gbl\u0254": 1510,
  "\u258110,": 1511,
  "\u2581public": 1512,
  "\u2581maw\u0254": 1513,
  "\u2581Gilead": 1514,
  "\u2581truly": 1515,
  "\u2581m\u00eda\u0256o": 1516,
  "\u2581forever": 1517,
  "\u2581call": 1518,
  "\u2581n\u00e0kp\u0254": 1519,
  "\u2581dzem": 1520,
  "\u2581interest": 1521,
  "\u2581longer": 1522,
  "\u2581veve": 1523,
  "\u2581x\u0254x\u0254": 1524,
  "\u2581Amesiwo": 1525,
  "\u2581a\u0256a\u014bu\u0256o\u0256o": 1526,
  "\u2581medo": 1527,
  "\u2581\u0263eyi\u0263iawo": 1528,
  "\u2581apostles": 1529,
  "\u2581evidence": 1530,
  "\u2581die": 1531,
  "\u2581Will": 1532,
  "\u2581F": 1533,
  "\u2581kuxiwo": 1534,
  "\u2581mawusub\u0254sub\u0254": 1535,
  "vi": 1536,
  "\u2581rather": 1537,
  "\u258112,": 1538,
  "\u2581gb\u0254d\u0254d\u0254": 1539,
  "\u2581asiw\u00f2": 1540,
  "\u2581countries": 1541,
  "\u2581\u00e8le": 1542,
  "\u2581Box": 1543,
  "\u2581Germany": 1544,
  "\u2581sheep": 1545,
  "\u2581Rather": 1546,
  "\u2581hea": 1547,
  "\u2581w\u00f2a\u0256e": 1548,
  "\u2581local": 1549,
  "\u2581lost": 1550,
  "\u2581mentioned": 1551,
  "\u2581stand": 1552,
  "\u2581mes\u0254": 1553,
  "\u2581physical": 1554,
  "\u2581\u00e0t": 1555,
  "\u2581history": 1556,
  "\u2581kept": 1557,
  "\u2581\u0256eke": 1558,
  "es": 1559,
  "\u2581nyagbl\u0254\u0256ila": 1560,
  "\u258116,": 1561,
  "\u2581million": 1562,
  "\u2581material": 1563,
  "\u2581promise": 1564,
  "\u2581w\u00f2ts\u0254": 1565,
  "\u2581Jewish": 1566,
  "\u2581\u0256ekaw\u0254w\u0254": 1567,
  "\u2581authority": 1568,
  "\u2581dem": 1569,
  "\u2581Their": 1570,
  "\u2581n\u00e8le": 1571,
  "\u2581dzinye": 1572,
  "\u2581spiritually": 1573,
  "\u2581kaba": 1574,
  "\u2581months": 1575,
  "mate": 1576,
  "\u2581ta\u0256odzinu": 1577,
  "\u2581wonderful": 1578,
  ",...": 1579,
  "\u2581Devil": 1580,
  "\u2581Genesis": 1581,
  "\u2581nute\u0192e": 1582,
  "\u2581provided": 1583,
  "\u2581\u0192\u00e3a": 1584,
  "\u2581l\u00e9a": 1585,
  "\u2581M\u00edat": 1586,
  "\u2581alone": 1587,
  "\u2581Abosam": 1588,
  "\u2581\u0256om": 1589,
  "\u2581me\u0256e": 1590,
  "\u2581prophecy": 1591,
  "\u2581Fifia": 1592,
  "\u2581return": 1593,
  "\u2581showed": 1594,
  "\u2581Africa": 1595,
  "\u2581Egbea": 1596,
  "\u2581qualities": 1597,
  "\u0256iwo": 1598,
  "\u2581born": 1599,
  "\u2581woana": 1600,
  "\u2581meeting": 1601,
  "\u2581wo\u0192o": 1602,
  "\u2581Life": 1603,
  "\u2581w\u00f2\u0256e": 1604,
  "\u2581kpekpe": 1605,
  "\u2581gbl\u0254na": 1606,
  "\u2581organization": 1607,
  "\u2581kpee": 1608,
  "\u2581hands": 1609,
  "\u2581strength": 1610,
  "\u2581greater": 1611,
  "\u2581lived": 1612,
  "\u2581anything": 1613,
  "\u2581m\u00eda\u0256e": 1614,
  "\u2581wote": 1615,
  "\u258123.": 1616,
  "\u2581Tower": 1617,
  "\u2581common": 1618,
  "\u2581tadedeagu": 1619,
  "\u2581Amewo": 1620,
  "\u2581using": 1621,
  "\u2581Mary": 1622,
  "\u2581glory": 1623,
  "\u2581a\u0192o": 1624,
  "\u2581understanding": 1625,
  "\u2581accept": 1626,
  "\u2581m\u00edenye": 1627,
  "\u2581g\u0254medzedze": 1628,
  "\u2581serious": 1629,
  "\u2581w\u00f2ana": 1630,
  "\u2581five": 1631,
  "\u2581nuw\u0254nawo": 1632,
  "\u2581rule": 1633,
  "\u2581Witness": 1634,
  "\u2581dzii": 1635,
  "\u2581gift": 1636,
  "Ame": 1637,
  "\u2581Susu": 1638,
  "\u2581July": 1639,
  "\u2581hear": 1640,
  "You": 1641,
  "\u258137": 1642,
  "\u2581inspired": 1643,
  "\u2581D\u0254": 1644,
  "\u2581comfort": 1645,
  "\u2581hearts": 1646,
  "\u2581m\u00edade": 1647,
  "t\u0254e": 1648,
  "\u2581nadze": 1649,
  "\u2581mel\u0254": 1650,
  "\u2581sister": 1651,
  "\u2581within": 1652,
  "\u2581\u0192u\u0192o\u0192o": 1653,
  "\u258122.": 1654,
  "\u2581slave": 1655,
  "\u2581got": 1656,
  "\u2581meaning": 1657,
  "\u2581az\u00e3": 1658,
  "\u2581perhaps": 1659,
  "\u258132": 1660,
  "\u2581ago": 1661,
  "\u2581effort": 1662,
  "\u2581Ekema": 1663,
  "\u2581abia": 1664,
  "\u2581fully": 1665,
  "\u2581circumstances": 1666,
  "\u2581takpekpe": 1667,
  "\u2581A\u0256e": 1668,
  "\u2581N\u0254vi\u014butsu": 1669,
  "\u2581na\u0256o": 1670,
  "\u2581lu\u028b\u0254": 1671,
  "\u2581Hebrews": 1672,
  "\u2581m\u00edadzro": 1673,
  "\u2581please": 1674,
  "\u2581dedie": 1675,
  "\u2581wow\u0254a": 1676,
  "\u2581nute\u0192ew\u0254la": 1677,
  "\u2581explained": 1678,
  "\u2581gain": 1679,
  "\u2581k\u0254k\u0254ea": 1680,
  "\u2581pain": 1681,
  "\u2581nyatakaka": 1682,
  "\u2581Yudat\u0254": 1683,
  "\u258113,": 1684,
  "\u2581ato": 1685,
  "\u2581toa": 1686,
  "\u2581Catholic": 1687,
  "\u2581\u028b\u0254nudr\u0254": 1688,
  "\u2581nenye": 1689,
  "\u2581kpui": 1690,
  "\u2581congregations": 1691,
  "\u2581wonya": 1692,
  "\u2581gbl\u0254m": 1693,
  "\u2581ami": 1694,
  "\u2581efforts": 1695,
  "\u2581Hebrit\u0254wo": 1696,
  "\u2581heavens": 1697,
  "\u2581Did": 1698,
  "\u2581Mark": 1699,
  "\u2581named": 1700,
  "\u2581yeaw\u0254": 1701,
  "nya": 1702,
  "\u2581Roman": 1703,
  "\u2581Yakobo": 1704,
  "\u2581m\u00eden\u0254": 1705,
  "\u2581promises": 1706,
  "\u2581m\u00edenya": 1707,
  "\u2581n\u0254vi\u014butsu": 1708,
  "\u2581dzidzedze": 1709,
  "\u2581itself": 1710,
  "\u2581a\u0256ewoe": 1711,
  "\u2581dzro": 1712,
  "\u2581everything": 1713,
  "\u2581Gb\u0254gb\u0254": 1714,
  "\u2581Credit": 1715,
  "\u2581Noa": 1716,
  "\u2581N\u0254n\u0254me": 1717,
  "\u2581gbegbee": 1718,
  "\u2581government": 1719,
  "\u2581pioneer": 1720,
  "\u2581sub\u0254lawo": 1721,
  "\u2581keke": 1722,
  "\u2581m\u00edats\u0254": 1723,
  "\u2581s\u1ebd": 1724,
  "\u2581confidence": 1725,
  "\u2581na\u0256e": 1726,
  "\u2581w\u00f2\u0256o": 1727,
  "\u2581g\u00e3wo": 1728,
  "an": 1729,
  "\u2581Mesia": 1730,
  "\u2581nukae": 1731,
  "\u2581speaking": 1732,
  "\u2581w\u00f2na": 1733,
  "\u2581yeyea": 1734,
  "\u2581Yosef": 1735,
  "\u2581witness": 1736,
  "\u2581deep": 1737,
  "\u2581aw\u0254e": 1738,
  "\u2581Ta": 1739,
  "\u2581\u014butik\u0254k\u0254e": 1740,
  "\u2581judgment": 1741,
  "\u2581Like": 1742,
  "\u2581boo": 1743,
  "st": 1744,
  "\u2581e": 1745,
  "\u2581gbegb\u0254gbl\u0254": 1746,
  "Read": 1747,
  "\u2581don": 1748,
  "\u2581poor": 1749,
  "\u2581woade": 1750,
  "\u2581xexl\u1ebdme": 1751,
  "\u2581Internet": 1752,
  "\u2581effect": 1753,
  "\u2581Instead": 1754,
  "\u2581older": 1755,
  "\u2581atsi": 1756,
  "\u2581vava": 1757,
  "\u2581Read": 1758,
  "\u2581dzitsinya": 1759,
  "\u2581held": 1760,
  "\u2581preach": 1761,
  "\u2581w\u0254n\u025b": 1762,
  "\u2581decision": 1763,
  "\u2581doubt": 1764,
  "\u2581powerful": 1765,
  "\u2581France": 1766,
  "\u2581LE": 1767,
  "\u2581woa\u0256o": 1768,
  "\u2581angels": 1769,
  "\u2581flesh": 1770,
  "\u2581yim": 1771,
  "\u2581remember": 1772,
  "\u2581continued": 1773,
  "\u2581deal": 1774,
  "\u2581atso": 1775,
  "\u2581woy\u0254": 1776,
  "\u2581whose": 1777,
  "\u258124.": 1778,
  "\u2581kpe\u0256odzi": 1779,
  "\u2581opportunity": 1780,
  "\u2581Noah": 1781,
  "\u2581f\u0169": 1782,
  "\u2581forth": 1783,
  "\u2581kpo": 1784,
  "\u2581Indeed": 1785,
  "\u2581spoke": 1786,
  "\u2581ets\u0254": 1787,
  "\u2581abl\u0254\u0256e": 1788,
  "\u2581draw": 1789,
  "\u2581SI": 1790,
  "\u2581e\u0256e": 1791,
  "\u2581hab\u0254b\u0254a": 1792,
  "\u2581hold": 1793,
  "\u2581stated": 1794,
  "\u2581Mele": 1795,
  "\u2581prayers": 1796,
  "\u2581True": 1797,
  "\u2581tsitsiwo": 1798,
  "\u2581regarding": 1799,
  "\u2581l\u00e3mes\u1ebd": 1800,
  "\u2581Eve": 1801,
  "gbe": 1802,
  "\u2581\u00c0t": 1803,
  "\u2581Mina": 1804,
  "us": 1805,
  "\u2581Ate": 1806,
  "\u2581m\u00ede\u0256e": 1807,
  "\u2581violence": 1808,
  "\u2581explains": 1809,
  "\u258119,": 1810,
  "\u258170": 1811,
  "\u2581less": 1812,
  "\u2581tea": 1813,
  "\u2581enough": 1814,
  "\u2581head": 1815,
  "\u2581standards": 1816,
  "\u2581value": 1817,
  "\u2581South": 1818,
  "\u2581pages": 1819,
  "\u2581neither": 1820,
  "\u2581l\u00e3me": 1821,
  "\u2581students": 1822,
  "\u2581An\u0254": 1823,
  "\u2581Scriptural": 1824,
  "\u2581kaka": 1825,
  "\u2581helps": 1826,
  "\u2581m\u00edayi": 1827,
  "\u2581Afrika": 1828,
  "\u258122,": 1829,
  "\u2581Still": 1830,
  "\u2581dede": 1831,
  "\u2581walk": 1832,
  "\u2581Agbe": 1833,
  "\u2581Wogbl\u0254": 1834,
  "\u2581mina": 1835,
  "\u2581period": 1836,
  "\u2581area": 1837,
  "\u2581move": 1838,
  "\u2581\u0192omet\u0254wo": 1839,
  "\u2581television": 1840,
  "\u2581published": 1841,
  "\u2581events": 1842,
  "\u2581hen\u0254": 1843,
  "\u258117,": 1844,
  "\u2581nasu": 1845,
  "\u2581served": 1846,
  "\u2581changed": 1847,
  "n\u0254": 1848,
  "\u2581sins": 1849,
  "\u2581\u0194eyi\u0263i": 1850,
  "\u00b7": 1851,
  "\u2581led": 1852,
  "\u2581nyagbl\u0254\u0256i": 1853,
  "eta": 1854,
  "\u2581easy": 1855,
  "\u2581via": 1856,
  "\u2581medi": 1857,
  "\u2581blessing": 1858,
  "\u2581ewo": 1859,
  "\u2581issue": 1860,
  "\u2581several": 1861,
  "\u2581m\u0254nu": 1862,
  ".\"": 1863,
  "\u2581Line": 1864,
  "\u2581eat": 1865,
  "\u2581mese": 1866,
  "\u2581sexual": 1867,
  "\u2581Afi": 1868,
  "\u2581visit": 1869,
  "w\u00f2": 1870,
  "\u2581examples": 1871,
  "\u2581fiaa": 1872,
  "ic": 1873,
  "\u2581loyal": 1874,
  "Kp\u0254": 1875,
  "\u2581Alo": 1876,
  "\u2581seem": 1877,
  "\u2581letter": 1878,
  "\u2581\u028b\u0254nu": 1879,
  "\u2581w\u00f2de": 1880,
  "\u2581Gb\u0254": 1881,
  "\u2581bubuawo": 1882,
  "\u2581accepted": 1883,
  "\u2581imitate": 1884,
  "\u2581t\u0254gbi": 1885,
  "\u2581August": 1886,
  "\u2581families": 1887,
  "\u2581eyama": 1888,
  "\u2581various": 1889,
  "O": 1890,
  "\u2581V": 1891,
  "\u2581nu\u0192o\u0192o": 1892,
  "\u2581affect": 1893,
  "\u2581listen": 1894,
  "\u2581Wo\u0192e": 1895,
  "\u2581honor": 1896,
  "\u2581m\u00edado": 1897,
  "\u2581open": 1898,
  "\u2581modern": 1899,
  "\u2581privilege": 1900,
  "\u25818:": 1901,
  "\u2581available": 1902,
  "\u2581ete": 1903,
  "\u2581offer": 1904,
  "\u2581vital": 1905,
  "\u2581apply": 1906,
  "\u2581millions": 1907,
  "\u2581role": 1908,
  "\u2581seek": 1909,
  "\u2581willing": 1910,
  "\u2581rest": 1911,
  "\u2581Papa": 1912,
  "\u2581above": 1913,
  "\u2581m\u00edede": 1914,
  "\u2581couple": 1915,
  "\u2581write": 1916,
  "\u2581a\u028baw\u0254w\u0254": 1917,
  "\u2581considered": 1918,
  "\u2581\u014bud\u0254": 1919,
  "\u2581happened": 1920,
  "\u2581w\u00f2hi\u00e3": 1921,
  "ve": 1922,
  "\u2581goe": 1923,
  "\u2581prove": 1924,
  "\u2581x\u0254e": 1925,
  "\u2581Most": 1926,
  "\u2581n\u0254n\u0254mea": 1927,
  "\u2581\u014bu\u0256o\u0256o": 1928,
  "\u2581English": 1929,
  "\u2581A\u0256aka": 1930,
  "\u2581eyata": 1931,
  "\u2581xexl\u1ebd": 1932,
  "\u2581dzime": 1933,
  "\u2581w\u00f2kp\u0254": 1934,
  "\u2581\u0256ase": 1935,
  "\u2581ability": 1936,
  "\u2581influence": 1937,
  "\u2581ten": 1938,
  "\u2581Japan": 1939,
  "\u2581June": 1940,
  "\u2581wotu": 1941,
  "God": 1942,
  "\u2581activity": 1943,
  "\u2581class": 1944,
  "\u2581six": 1945,
  "\u2581decisions": 1946,
  "\u2581blessings": 1947,
  "\u2581g\u0254me\u0256ose": 1948,
  "\u2581vav\u00e3wo": 1949,
  "\u2581Hafi": 1950,
  "\u2581activities": 1951,
  "\u2581worldwide": 1952,
  "\u2581described": 1953,
  "\u2581lands": 1954,
  "\u2581tried": 1955,
  "\u2581Hence": 1956,
  "\u2581l\u0254\u0192o": 1957,
  "\u2581megbl\u0254": 1958,
  "\u2581w\u0254nuku": 1959,
  "\u258160": 1960,
  "\u2581moral": 1961,
  "\u2581Etenu\u014b\u0254\u014bl\u0254": 1962,
  "\u2581answers": 1963,
  "\u2581myself": 1964,
  "\u2581m\u00ede\u0256o": 1965,
  "\u2581w\u00f2do": 1966,
  "\u2581xaxa": 1967,
  "Jehovah": 1968,
  "\u2581Arena": 1969,
  "\u2581See": 1970,
  "\u2581else": 1971,
  "\u2581K": 1972,
  "\u2581teachings": 1973,
  "\u2581Duk\u0254": 1974,
  "\u2581working": 1975,
  "\u2581Jeremiah": 1976,
  "\u2581natural": 1977,
  "\u2581woado": 1978,
  "\u2581April": 1979,
  "\u2581field": 1980,
  "\u2581nenemae": 1981,
  "\u2581L": 1982,
  "\u2581n\u0254viny\u0254nu": 1983,
  "\u2581'?": 1984,
  "\u2581advice": 1985,
  "\u2581NU": 1986,
  "\u2581godly": 1987,
  "\u258118,": 1988,
  "\u2581clearly": 1989,
  "\u2581everyone": 1990,
  "\u2581\u028b\u00e3": 1991,
  "\u2581First": 1992,
  "\u2581Or": 1993,
  "\u2581birth": 1994,
  "\u2581maintain": 1995,
  "\u2581s\u0254h\u025bwo": 1996,
  "\u2581w\u00f2akp\u0254": 1997,
  "\u2581books": 1998,
  "\u2581kabakaba": 1999,
  "\u2581Hab\u0254b\u0254a": 2000,
  "\u2581amesiaminawo": 2001,
  "\u2581nyae": 2002,
  "\u2581vodada": 2003,
  "\u2581evil": 2004,
  "\u2581build": 2005,
  "\u2581conscience": 2006,
  "\u2581met": 2007,
  "\u2581promised": 2008,
  "\u2581kukuwo": 2009,
  "\u2581branch": 2010,
  "\u2581clean": 2011,
  "\u2581tom": 2012,
  "\u2581chapter": 2013,
  "\u2581instance": 2014,
  "\u258125.": 2015,
  "\u2581source": 2016,
  "\u2581veviwo": 2017,
  "\u2581a\u0192ea": 2018,
  "\u2581indeed": 2019,
  "\u2581w\u00f2x\u0254": 2020,
  "ness": 2021,
  "\u2581nusiawo": 2022,
  "\u2581regard": 2023,
  "ta": 2024,
  "\u2581\u0191E": 2025,
  "\u2581Ml\u0254eba": 2026,
  "\u2581numekuku": 2027,
  "\u2581single": 2028,
  "\u2581Awake": 2029,
  "\u2581\u014budz\u0254": 2030,
  "\u2581Another": 2031,
  "\u2581evea": 2032,
  "\u2581freedom": 2033,
  "\u2581created": 2034,
  "\u2581Therefore": 2035,
  "\u2581Xawa": 2036,
  "\u2581fe": 2037,
  "\u2581least": 2038,
  "\u2581complete": 2039,
  "\u2581thoughts": 2040,
  "\u2581Ny\u0254": 2041,
  "\u2581al\u00e9": 2042,
  "\u2581meet": 2043,
  "\u2581report": 2044,
  "\u2581appointed": 2045,
  "\u2581Nukata": 2046,
  "\u2581dona": 2047,
  "\u2581anyo": 2048,
  "\u2581offered": 2049,
  "\u2581determined": 2050,
  "Le": 2051,
  "\u2581Eme": 2052,
  "\u2581Europa": 2053,
  "\u2581daughter": 2054,
  "\u2581g\u0254medzedzea": 2055,
  "\u2581Just": 2056,
  "\u2581covenant": 2057,
  "\u2581proved": 2058,
  "\u2581Church": 2059,
  "\u2581actually": 2060,
  "\u2581convention": 2061,
  "\u2581dzikp\u0254la": 2062,
  "\u2581text": 2063,
  "\u2581sewo": 2064,
  "\u2581fia\u0256u\u0192e": 2065,
  "\u258134": 2066,
  "\u2581hours": 2067,
  "\u2581recorded": 2068,
  "\u2581Gbe": 2069,
  "\u2581job": 2070,
  "\u2581thousands": 2071,
  "\u2581appreciate": 2072,
  "\u2581raised": 2073,
  "\u25817]": 2074,
  "\u2581experienced": 2075,
  "\u2581fukpekpe": 2076,
  "\u2581Dr": 2077,
  "\u2581disease": 2078,
  "\u2581carry": 2079,
  "\u2581education": 2080,
  "\u2581practical": 2081,
  "\u2581accurate": 2082,
  "\u2581Egypt": 2083,
  "\u2581Tract": 2084,
  "\u2581position": 2085,
  "or": 2086,
  "\u2581100": 2087,
  "\u2581p\u025bp\u025bp\u025b": 2088,
  "\u2581as\u0254": 2089,
  "\u2581nutome": 2090,
  "\u2581Betel": 2091,
  "\u2581nu\u014bl\u0254\u0256i": 2092,
  "\u2581stay": 2093,
  "\u2581H": 2094,
  "\u2581War": 2095,
  "\u2581learning": 2096,
  "\u2581wants": 2097,
  "\u2581laws": 2098,
  "\u2581edziv\u0254": 2099,
  "\u2581Have": 2100,
  "\u2581atr\u0254": 2101,
  "\u2581reach": 2102,
  "\u2581regular": 2103,
  "\u2581responsibility": 2104,
  "\u2581concern": 2105,
  "\u2581decided": 2106,
  "\u2581suffer": 2107,
  "\u2581Later": 2108,
  "\u2581grow": 2109,
  "\u2581nanye": 2110,
  "\u2581appropriate": 2111,
  "\u2581Egipte": 2112,
  "\u2581dzudz\u0254": 2113,
  "\u2581foretold": 2114,
  "\u2581\u0256u\u0256u": 2115,
  "\u25819:": 2116,
  "\u2581ex\u0254": 2117,
  "\u2581hele": 2118,
  "\u2581nyanya": 2119,
  "\u2581ena": 2120,
  "\u2581praise": 2121,
  "ers": 2122,
  "\u2581ts\u0254tsr\u0254": 2123,
  "\u2581direction": 2124,
  "\u2581kilom": 2125,
  "\u2581subject": 2126,
  "\u2581force": 2127,
  "\u2581gb\u00e3t\u0254wo": 2128,
  "\u2581kp\u0254na": 2129,
  "\u2581en\u0254": 2130,
  "\u2581former": 2131,
  "\u2581l\u025bta": 2132,
  "\u2581training": 2133,
  "\u02b9": 2134,
  "\u2581Gb\u00e3": 2135,
  "\u2581M\u00ed": 2136,
  "\u2581believers": 2137,
  "\u2581returned": 2138,
  "\u2581seven": 2139,
  "\u2581obey": 2140,
  "\u2581Great": 2141,
  "\u2581prison": 2142,
  "\u2581ransom": 2143,
  "\u2581stop": 2144,
  "\u2581dzadz\u025b": 2145,
  "\u2581nu\u0256oanyi": 2146,
  "\u2581Amerika": 2147,
  "\u2581daily": 2148,
  "\u2581helping": 2149,
  "\u2581k\u0254k\u0254": 2150,
  "\u2581precious": 2151,
  "\u2581\u0256ekakpui": 2152,
  "\u2581Ew\u0254": 2153,
  "\u2581earlier": 2154,
  "\u2581fiam": 2155,
  "\u2581appreciation": 2156,
  "\u2581Ete\u0192e": 2157,
  "\u2581September": 2158,
  "\u2581gbe\u0192\u00e3\u0256e\u0256e": 2159,
  "\u2581m\u00edets\u0254": 2160,
  "ka": 2161,
  "\u2581psalmist": 2162,
  "\u2581gbl\u1ebda": 2163,
  "\u2581woanye": 2164,
  "w\u0254w\u0254": 2165,
  "\u2581door": 2166,
  "\u2581attend": 2167,
  "\u2581mefia": 2168,
  "\u2581start": 2169,
  "\u2581Bethel": 2170,
  "\u2581short": 2171,
  "\u25811914": 2172,
  "\u2581action": 2173,
  "\u2581caused": 2174,
  "\u2581office": 2175,
  "d\u0254": 2176,
  "\u2581Asia": 2177,
  "\u2581Holy": 2178,
  "\u2581\u01b2\u0254nu": 2179,
  "\u2581baptism": 2180,
  "\u2581changes": 2181,
  "\u2581anger": 2182,
  "\u2581vlo": 2183,
  "\u2581Coliseum": 2184,
  "\u2581entire": 2185,
  "\u2581\u0256\u0254": 2186,
  "\u2581nublanui": 2187,
  "\u2581places": 2188,
  "\u2581youths": 2189,
  "\u2581amenuveve": 2190,
  "\u2581regularly": 2191,
  "\u2581voice": 2192,
  "\u2581December": 2193,
  "\u2581agbal\u1ebdwo": 2194,
  "\u2581harmony": 2195,
  "\u2581\u0256um": 2196,
  "\u2581m\u00ededo": 2197,
  "\u2581dzi\u0256u\u0256ua": 2198,
  "\u2581\u0256eviawo": 2199,
  "\u2581destruction": 2200,
  "\u2581Australia": 2201,
  "\u2581G\u00e3": 2202,
  "\u2581Nuka": 2203,
  "\u2581results": 2204,
  "\u2581turned": 2205,
  "\u2581throughout": 2206,
  "\u2581Te": 2207,
  "\u2581reasons": 2208,
  "\u2581tsitretsitsi": 2209,
  "\u2581xl\u1ebd": 2210,
  "\u2581speech": 2211,
  "\u2581wowu": 2212,
  "\u2581side": 2213,
  "ne": 2214,
  "\u2581Babilon": 2215,
  "u": 2216,
  "\u2581behind": 2217,
  "\u2581takes": 2218,
  "\u2581sena": 2219,
  "\u2581wox\u0254": 2220,
  "\u2581integrity": 2221,
  "\u2581wokp\u0254a": 2222,
  "\u2581gbedox\u0254a": 2223,
  "\u2581morning": 2224,
  "\u2581earthly": 2225,
  "\u258129.": 2226,
  "\u2581fire": 2227,
  "\u2581un": 2228,
  "\u2581w\u00f2ava": 2229,
  "do": 2230,
  "\u2581miles": 2231,
  "didi": 2232,
  "\u2581seems": 2233,
  "\u2581Woat": 2234,
  "\u2581centuries": 2235,
  "\u2581Ask": 2236,
  "\u258117:": 2237,
  "\u2581Akpata": 2238,
  "\u2581feet": 2239,
  "\u2581\u028bee": 2240,
  "\u258120,": 2241,
  "\u2581reports": 2242,
  "\u2581strengthen": 2243,
  "\u2581Brooklyn": 2244,
  "\u2581languages": 2245,
  "\u2581sa": 2246,
  "\u2581\u25cf": 2247,
  "\u2581Via": 2248,
  "\u2581tree": 2249,
  "\u2581gax\u0254": 2250,
  "\u2581\u0194ea\u0256ewo\u0263i": 2251,
  "\u2581agb\u0254s\u0254s\u0254": 2252,
  "\u2581develop": 2253,
  "\u2581Canada": 2254,
  "\u2581practice": 2255,
  "\u2581priest": 2256,
  "\u2581af\u00e3": 2257,
  "\u2581half": 2258,
  "\u2581l\u00e9m": 2259,
  "\u2581salvation": 2260,
  "\u2581yeyewo": 2261,
  "\u2581building": 2262,
  "\u2581paradise": 2263,
  "\u2581\u0256evia": 2264,
  "\u2581Young": 2265,
  "\u2581beginning": 2266,
  "\u2581hab\u0254b\u0254": 2267,
  "\u2581occasion": 2268,
  "\u2581rich": 2269,
  "\u2581Brother": 2270,
  "\u2581m\u0254\u0256e\u0256ed\u0254a": 2271,
  "\u2581sometimes": 2272,
  "\u2581R": 2273,
  "\u2581adre": 2274,
  "\u2581almost": 2275,
  "\u2581\u028bua": 2276,
  "\u2581encouraged": 2277,
  "\u2581Others": 2278,
  "\u2581l\u00e3wo": 2279,
  "\u2581nanewo": 2280,
  "\u2581AIDS": 2281,
  "\u2581mawud\u0254la": 2282,
  "\u2581added": 2283,
  "\u2581creation": 2284,
  "\u2581getting": 2285,
  "\u2581individual": 2286,
  "\u258128.": 2287,
  "\u2581realize": 2288,
  "\u2581England": 2289,
  "\u2581Helagbe": 2290,
  "\u2581nu\u0192o": 2291,
  "\u2581literature": 2292,
  "\u2581week": 2293,
  "p": 2294,
  "\u2581choose": 2295,
  "\u2581edo": 2296,
  "\u2581wobia": 2297,
  "\u2581\u0263li": 2298,
  "\u2581pressure": 2299,
  "\u258135": 2300,
  "\u2581priests": 2301,
  "\u2581justice": 2302,
  "\u2581missionary": 2303,
  "\u2581X\u0254": 2304,
  "\u2581assignment": 2305,
  "\u2581beliefs": 2306,
  "\u2581crowd": 2307,
  "\u2581elder": 2308,
  "\u2581z\u00e3a": 2309,
  "\u2581kpem": 2310,
  "\u2581sign": 2311,
  "\u2581x\u0254asi": 2312,
  "D": 2313,
  "\u2581nyanyuia": 2314,
  "\u2581nufiafiawo": 2315,
  "\u2581viawo": 2316,
  "\u2581\u0256e\u0256eko": 2317,
  "\u2581fulfillment": 2318,
  "\u2581knows": 2319,
  "\u2581w\u00f2akpe": 2320,
  "\u2581Ka": 2321,
  "\u2581Before": 2322,
  "\u2581Moreover": 2323,
  "\u2581protect": 2324,
  "\u2581t\u1ebd": 2325,
  "\u2581\u0263eyi\u0263ia": 2326,
  "\u2581tells": 2327,
  "\u2581agbagbadzedze": 2328,
  "\u2581nyits\u0254": 2329,
  "\u2581usually": 2330,
  "\u2581exercise": 2331,
  "\u2581interested": 2332,
  "\u2581addition": 2333,
  "\u2581n\u0254n\u0254mewo": 2334,
  "\u2581parent": 2335,
  "\u2581wonder": 2336,
  "\u2581happen": 2337,
  "\u2581proper": 2338,
  "\u2581servant": 2339,
  "\u2581d\u0254e": 2340,
  "\u2581dzena": 2341,
  "\u2581vevesese": 2342,
  "\u2581necessary": 2343,
  "\u2581pay": 2344,
  "\u2581respond": 2345,
  "\u2581positive": 2346,
  "\u2581dutanyanyuigbl\u0254": 2347,
  "\u2581March": 2348,
  "\u2581Wo\u0256e": 2349,
  "\u2581studying": 2350,
  "\u2581w\u00f2te": 2351,
  "\u2581Gakpe": 2352,
  "\u2581Memorial": 2353,
  "\u2581\u0256okuib\u0254b\u0254": 2354,
  "\u2581dzidzeme": 2355,
  "\u2581basis": 2356,
  "\u2581parts": 2357,
  "en": 2358,
  "\u2581allowed": 2359,
  "\u2581discipline": 2360,
  "\u2581include": 2361,
  "\u2581lack": 2362,
  "on": 2363,
  "\u2581animals": 2364,
  "\u2581leaders": 2365,
  "he": 2366,
  "\u2581Mexico": 2367,
  "\u2581state": 2368,
  "\u2581Ave": 2369,
  "\u2581actions": 2370,
  "\u2581followed": 2371,
  "\u2581m\u00ededze": 2372,
  "\u2581abu": 2373,
  "\u2581Marko": 2374,
  "\u2581metsi": 2375,
  "See": 2376,
  "\u2581shown": 2377,
  "\u2581becoming": 2378,
  "\u2581knowing": 2379,
  "\u2581yewoaw\u0254": 2380,
  "\u2581\u0190": 2381,
  "\u2581condition": 2382,
  "ha": 2383,
  "\u2581quickly": 2384,
  "\u2581\u014bg\u0254yiyi": 2385,
  "\u2581\u014butsuwo": 2386,
  "\u2581gakp\u0254t\u0254": 2387,
  "\u2581girl": 2388,
  "\u2581dodokp\u0254": 2389,
  "\u2581m\u00eda\u0192o": 2390,
  "\u2581\u00d0ikeke": 2391,
  "\u2581provides": 2392,
  "\u2581Nevertheless": 2393,
  "\u2581dzix\u0254se": 2394,
  "\u2581either": 2395,
  "\u2581m\u00edesr\u0254": 2396,
  "\u2581w\u00f2\u014bl\u0254": 2397,
  "\u2581yame": 2398,
  "\u2581\u0256ua": 2399,
  "\u258131.": 2400,
  "\u2581October": 2401,
  "\u2581conditions": 2402,
  "\u2581wol\u0254": 2403,
  "\u2581W\u0254": 2404,
  "\u2581Alekee": 2405,
  "\u2581guidance": 2406,
  "\u2581ma\u0256e": 2407,
  "\u2581p\u025b": 2408,
  "\u2581\u0194ema\u0263i": 2409,
  "\u2581g\u0254me\u0256osewo": 2410,
  "\u2581Babylon": 2411,
  "\u2581hegbl\u0254": 2412,
  "\u2581e\u0256o": 2413,
  "\u2581kafukafu": 2414,
  "\u2581Xexeame": 2415,
  "\u2581beyond": 2416,
  "\u2581invited": 2417,
  "\u2581mekp\u0254a": 2418,
  "\u2581traveling": 2419,
  "\u2581gb\u0254gbl\u0254m": 2420,
  "\u2581nuhiahi\u00e3wo": 2421,
  "\u2581ameha": 2422,
  "\u2581medical": 2423,
  "\u2581dziw\u00f2": 2424,
  "\u2581m\u0254\u0256ela": 2425,
  "\u2581feeling": 2426,
  "\u2581revealed": 2427,
  "ti": 2428,
  "\u2581\u014bdi": 2429,
  "\u2581expression": 2430,
  "\u2581\u014aus\u1ebd": 2431,
  "\u2581Perhaps": 2432,
  "\u2581prayed": 2433,
  "\u2581Efesot\u0254wo": 2434,
  "\u2581Ephesians": 2435,
  "\u2581Though": 2436,
  "\u2581afisia": 2437,
  "\u2581ameg\u00e3": 2438,
  "\u2581angel": 2439,
  "\u2581m": 2440,
  "\u2581member": 2441,
  "\u2581ready": 2442,
  "dzi": 2443,
  "\u2581social": 2444,
  "\u2581blessed": 2445,
  "\u2581bum": 2446,
  "\u2581endure": 2447,
  "\u2581m\u00edeva": 2448,
  "We": 2449,
  "\u2581aga": 2450,
  "\u2581challenge": 2451,
  "\u2581fulfilled": 2452,
  "\u2581fut\u0254wo": 2453,
  "\u2581sound": 2454,
  "\u2581looking": 2455,
  "\u2581tiatia": 2456,
  "\u2581More": 2457,
  "\u2581program": 2458,
  "\u2581Where": 2459,
  "\u2581bear": 2460,
  "\u2581n\u00e0n\u0254": 2461,
  "\u2581spend": 2462,
  "\u2581Love": 2463,
  "\u2581benefits": 2464,
  "\u2581g\u0254mee": 2465,
  "\u2581interests": 2466,
  "\u2581noted": 2467,
  "\u2581s\u1ebd\u014bu": 2468,
  "\u2581India": 2469,
  "\u2581expect": 2470,
  "\u2581spent": 2471,
  "\u2581seselel\u00e3mewo": 2472,
  "\u2581sex": 2473,
  "\u2581d\u0254la": 2474,
  "\u2581greatest": 2475,
  "\u2581recent": 2476,
  "\u2581Rome": 2477,
  "\u2581completely": 2478,
  "\u014butsu": 2479,
  "\u2581tribulation": 2480,
  "\u2581vovototo": 2481,
  "\u2581University": 2482,
  "\u2581cases": 2483,
  "\u2581dug\u00e3": 2484,
  "\u2581worked": 2485,
  "Nu": 2486,
  "less": 2487,
  "se": 2488,
  "\u2581\"\"": 2489,
  "\u2581Dzidz\u0254": 2490,
  "\u2581Judah": 2491,
  "\u2581asu": 2492,
  "\u2581d\u0254w\u0254\u0192e": 2493,
  "\u2581reported": 2494,
  "\u2581walking": 2495,
  "\u2581\u014budzedzekp\u0254kp\u0254": 2496,
  "\u2581mawu": 2497,
  "\u2581personality": 2498,
  "\u2581wodzi": 2499,
  "\u2581G": 2500,
  "\u2581Soon": 2501,
  "\u2581nyuia": 2502,
  "\u2581record": 2503,
  "\u2581wow\u0254na": 2504,
  "\u2581xl\u00e3": 2505,
  "\u2581z\u0254": 2506,
  "If": 2507,
  "\u2581alive": 2508,
  "\u2581emotional": 2509,
  "\u2581fruit": 2510,
  "\u2581m\u00edase": 2511,
  "\u2581trials": 2512,
  "\u2581filled": 2513,
  "\u2581\u014bk\u0254a": 2514,
  "\u2581January": 2515,
  "\u2581eventually": 2516,
  "\u2581mena": 2517,
  "It": 2518,
  "\u2581kp\u0254\u0256e\u014bua": 2519,
  "\u2581kuxia": 2520,
  "\u2581v\u0254e": 2521,
  "\u2581dodo": 2522,
  "\u2581fofo": 2523,
  "\u2581fa": 2524,
  "\u258128:": 2525,
  "\u2581political": 2526,
  "\u2581showing": 2527,
  "\u2581acts": 2528,
  "\u2581enjoyed": 2529,
  "\u2581tia": 2530,
  "li": 2531,
  "\u2581Mi": 2532,
  "\u2581kpata": 2533,
  "\u2581month": 2534,
  "\u2581Fofoa": 2535,
  "k": 2536,
  "\u2581Messiah": 2537,
  "\u2581hamemeg\u00e3wo": 2538,
  "\u2581m\u00edese": 2539,
  "\u2581sun": 2540,
  "\u2581woax\u0254": 2541,
  "\u2581yourselves": 2542,
  "\u2581encourage": 2543,
  "\u2581lolo": 2544,
  "\u2581beautiful": 2545,
  "\u2581goal": 2546,
  "\u2581trying": 2547,
  "\u2581Keep": 2548,
  "\u2581negbe": 2549,
  "\u2581woz\u00e3": 2550,
  "ny\u0254nu": 2551,
  "\u2581Brazil": 2552,
  "\u2581Gawu": 2553,
  "\u2581seeking": 2554,
  "\u2581success": 2555,
  "\u2581\u014bugbedodo": 2556,
  "\u2581E\u014blisigbe": 2557,
  "\u2581dzidzenu": 2558,
  "\u2581studies": 2559,
  "\u2581areas": 2560,
  "\u2581passed": 2561,
  "\u2581wotr\u0254": 2562,
  "\u2581mercy": 2563,
  "\u2581Eden": 2564,
  "\u2581b\u0254b\u0254": 2565,
  "\u2581killed": 2566,
  "\u2581men\u0254a": 2567,
  "\u2581third": 2568,
  "\u2581Jacob": 2569,
  "\u2581enemies": 2570,
  "\u2581society": 2571,
  "\u2581vaa": 2572,
  "\u2581wotso": 2573,
  "\u2581About": 2574,
  "\u2581Children": 2575,
  "\u2581encouragement": 2576,
  "is": 2577,
  "ma": 2578,
  "\u2581courage": 2579,
  "\u2581km": 2580,
  "ri": 2581,
  "\u25819]": 2582,
  "\u2581Kp\u0254\u0256e\u014bu": 2583,
  "\u2581arrived": 2584,
  "\u2581quality": 2585,
  "Do": 2586,
  "\u2581g\u0254me\u0256e\u0256e": 2587,
  "\u2581m\u00edasr\u0254": 2588,
  "\u2581lot": 2589,
  "\u2581sick": 2590,
  "\u2581to\u0256o\u0256o": 2591,
  "\u2581IN": 2592,
  "\u2581wua": 2593,
  "\u2581fall": 2594,
  "\u2581m\u00edadze": 2595,
  "\u258116:": 2596,
  "\u2581maml\u025bawo": 2597,
  "\u2581w\u00f2ats\u0254": 2598,
  "\u258118:": 2599,
  "\u2581answered": 2600,
  "be": 2601,
  "\u2581dr\u0254": 2602,
  "\u2581makp\u0254": 2603,
  "\u2581nun\u0254lawo": 2604,
  "\u2581hadede": 2605,
  "\u2581mana": 2606,
  "\u2581outside": 2607,
  "\u2581related": 2608,
  "\u2581progress": 2609,
  "\u2581akp\u0254t\u0254": 2610,
  "\u2581dzra": 2611,
  "\u2581prepared": 2612,
  "\u2581whatever": 2613,
  "\u2581woda": 2614,
  "\u258124,": 2615,
  "\u2581adz\u0254gbe": 2616,
  "\u2581deeply": 2617,
  "\u2581express": 2618,
  "\u2581line": 2619,
  "\u258123]": 2620,
  "\u2581n\u0254via": 2621,
  "\u2581warning": 2622,
  "\u2581youth": 2623,
  "\u2581choice": 2624,
  "\u2581humble": 2625,
  "\u2581\u0256evime": 2626,
  "\u2581imperfect": 2627,
  "\u2581m\u00edanya": 2628,
  "\u00a9": 2629,
  "\u2581m\u00edana": 2630,
  "ra": 2631,
  "da": 2632,
  "Esi": 2633,
  "\u2581N": 2634,
  "\u2581address": 2635,
  "\u2581kpekpeawo": 2636,
  "\u2581agu": 2637,
  "\u2581assigned": 2638,
  "\u2581a\u0256aba": 2639,
  "\u2581City": 2640,
  "\u2581PAGE": 2641,
  "\u2581firm": 2642,
  "\u2581Times": 2643,
  "\u2581ak\u0254nta": 2644,
  "\u2581fofoa": 2645,
  "\u2581American": 2646,
  "\u2581Us": 2647,
  "\u2581Ema": 2648,
  "\u2581Ao": 2649,
  "\u2581desires": 2650,
  "\u2581final": 2651,
  "\u2581hour": 2652,
  "\u2581favor": 2653,
  "\u2581presence": 2654,
  "\u2581Dada": 2655,
  "\u2581security": 2656,
  "\u2581Ps": 2657,
  "\u2581avu": 2658,
  "\u2581m\u00ededi": 2659,
  "\u2581original": 2660,
  "\u2581Eliya": 2661,
  "\u2581ahi\u00e3": 2662,
  "\u2581ground": 2663,
  "\u2581term": 2664,
  "\u2581w": 2665,
  "\u2581Despi": 2666,
  "\u2581Ehi\u00e3": 2667,
  "\u2581contact": 2668,
  "\u2581gbedox\u0254": 2669,
  "\u2581mehi\u00e3": 2670,
  "\u2581nature": 2671,
  "\u2581London": 2672,
  "\u2581explain": 2673,
  "\u2581nume\u0256e\u0256e": 2674,
  "\u2581treatment": 2675,
  "\u2581azu": 2676,
  "\u2581begin": 2677,
  "\u2581wives": 2678,
  "\u2581display": 2679,
  "\u2581AXA": 2680,
  "\u2581believed": 2681,
  "\u2581tamesusu": 2682,
  "\u2581dz\u0254a": 2683,
  "\u2581dina": 2684,
  "\u2581e\u0256any": 2685,
  "\u2581blewu": 2686,
  "\u2581nufiala": 2687,
  "\u2581nusia": 2688,
  "\u2581m\u00edabu": 2689,
  "\u2581ameawo": 2690,
  "\u2581Clearly": 2691,
  "\u2581eveawo": 2692,
  "\u2581protection": 2693,
  "\u2581dzidz\u0254kp\u0254kp\u0254": 2694,
  "\u258145": 2695,
  "\u2581spoken": 2696,
  "\u2581established": 2697,
  "\u2581mawunyakpukpui": 2698,
  "\u2581E\u0256e": 2699,
  "\u2581awo": 2700,
  "\u2581avi": 2701,
  "\u2581m\u00edel\u0254": 2702,
  "\u2581nate": 2703,
  "\u2581prevent": 2704,
  "\u2581tata": 2705,
  "\u2581Russia": 2706,
  "\u2581missionaries": 2707,
  "\u258110]": 2708,
  "\u2581Spain": 2709,
  "\u2581tsitotsito": 2710,
  "\u2581mawud\u0254lawo": 2711,
  "Y": 2712,
  "\u2581Europe": 2713,
  "\u2581Joshua": 2714,
  "\u2581Similarly": 2715,
  "viwo": 2716,
  "\u258121,": 2717,
  "\u2581hamemeg\u00e3": 2718,
  "\u2581w\u00f2tso": 2719,
  "\u2581atu": 2720,
  "\u2581dz\u0254na": 2721,
  "\u2581test": 2722,
  "\u2581yeats\u0254": 2723,
  "\u2581enable": 2724,
  "\u2581magan\u0254": 2725,
  "Mixl\u1ebd": 2726,
  "\u2581Xl\u1ebd": 2727,
  "\u2581music": 2728,
  "\u2581wotsi": 2729,
  "\u2581abuse": 2730,
  "\u2581destroyed": 2731,
  "\u2581xe": 2732,
  "T": 2733,
  "\u258127.": 2734,
  "\u2581apostoloawo": 2735,
  "\u2581ko\u014bue": 2736,
  "\u2581idea": 2737,
  "\u2581miele": 2738,
  "\u2581nyadz\u0254dz\u0254gbal\u1ebd": 2739,
  "\u2581ny\u0254nuvi": 2740,
  "\u2581observed": 2741,
  "\u2581woayi": 2742,
  "\u2581w\u00f2fia": 2743,
  "\u2581boy": 2744,
  "\u2581simple": 2745,
  "\u2581built": 2746,
  "\u2581dzaa": 2747,
  "\u2581ha\u0256e": 2748,
  "\u2581sleep": 2749,
  "\u2581Remember": 2750,
  "\u2581homes": 2751,
  "\u2581nubabla": 2752,
  "\u2581Through": 2753,
  "\u2581m\u0254fiafia": 2754,
  "\u2581teacher": 2755,
  "\u2581unity": 2756,
  "\u2581yea\u0256e": 2757,
  "de": 2758,
  "no": 2759,
  "\u2581immediately": 2760,
  "\u2581major": 2761,
  "\u2581Elijah": 2762,
  "\u2581Nyati": 2763,
  "\u2581School": 2764,
  "\u2581enuenu": 2765,
  "\u2581forward": 2766,
  "\u2581expressed": 2767,
  "\u2581meant": 2768,
  "org": 2769,
  "\u2581risk": 2770,
  "\u2581standing": 2771,
  "\u258165": 2772,
  "\u2581Britain": 2773,
  "\u2581Ga": 2774,
  "\u2581atsy\u0254": 2775,
  "\u2581kluvi": 2776,
  "\u2581Etenu\u014b\u0254\u014bl\u0254wo": 2777,
  "\u2581behavior": 2778,
  "\u2581calls": 2779,
  "\u2581command": 2780,
  "\u2581mental": 2781,
  "\u2581woa\u0192o": 2782,
  "\u258126.": 2783,
  "\u2581Eyae": 2784,
  "\u2581b": 2785,
  "\u2581ny\u0254nua": 2786,
  "\u2581realized": 2787,
  "\u2581sacred": 2788,
  "\u2581teachers": 2789,
  "\u2581dzidzim": 2790,
  "\u2581e\u0192o": 2791,
  "\u2581treat": 2792,
  "\u2581Christianity": 2793,
  "\u2581mah\u00e3": 2794,
  "\u2581\u00d0eko": 2795,
  "\u2581Bl": 2796,
  "\u2581w\u00f2di": 2797,
  "\u2581zua": 2798,
  "\u2581Wo\u0256o": 2799,
  "\u2581business": 2800,
  "\u2581chosen": 2801,
  "\u2581m\u00edal\u00e9": 2802,
  "\u2581general": 2803,
  "\u2581translation": 2804,
  "\u2581wol\u00e9": 2805,
  "\u2581bread": 2806,
  "\u2581relief": 2807,
  "\u2581dedication": 2808,
  "\u2581groups": 2809,
  "\u258126]": 2810,
  "\u2581ahead": 2811,
  "\u2581al\u1ebd": 2812,
  "\u2581publications": 2813,
  "\u2581\u0256edzesi": 2814,
  "\u2581m\u0254wo": 2815,
  "\u2581steps": 2816,
  "\u2581Paradise": 2817,
  "\u2581kings": 2818,
  "\u2581nuxaxa": 2819,
  "\u2581principle": 2820,
  "\u2581suffered": 2821,
  "\u2581cope": 2822,
  "\u2581esiawo": 2823,
  "\u2581faced": 2824,
  "\u2581Hebrigbe": 2825,
  "\u2581developed": 2826,
  "\u2581dzix\u0254sewo": 2827,
  "\u2581fight": 2828,
  "\u2581Ku": 2829,
  "\u2581m\u00edete": 2830,
  "\u2581yeakp\u0254": 2831,
  "\u2581behalf": 2832,
  "\u2581approach": 2833,
  "\u2581carefully": 2834,
  "\u2581nute\u0192ekp\u0254kp\u0254": 2835,
  "\u2581\u014b\u0254dzi": 2836,
  "Nye": 2837,
  "\u258128,": 2838,
  "\u2581cut": 2839,
  "\u2581manya": 2840,
  "\u2581seemed": 2841,
  "\u2581\u0256o\u0192e": 2842,
  "\u2581M\u00edex\u0254": 2843,
  "\u2581articles": 2844,
  "\u2581included": 2845,
  "\u2581woanya": 2846,
  "\u2581wodi": 2847,
  "In": 2848,
  "\u2581Good": 2849,
  "man": 2850,
  "\u2581Hebri": 2851,
  "\u2581kpukpui": 2852,
  "\u2581woakpe": 2853,
  "\u2581Also": 2854,
  "\u2581Yakob": 2855,
  "\u2581hamemetsitsiwo": 2856,
  "\u2581town": 2857,
  "\u2581discuss": 2858,
  "\u2581deto": 2859,
  "\u2581a\u0256i": 2860,
  "\u2581\u014but\u0254e": 2861,
  "\u2581despite": 2862,
  "\u2581mama": 2863,
  "\u2581dedicated": 2864,
  "B": 2865,
  "\u2581keeping": 2866,
  "\u2581overseer": 2867,
  "\u2581wo\u0256ea": 2868,
  "\u2581nyagb\u0254gbl\u0254": 2869,
  "\u2581reflect": 2870,
  "\u2581Yeremya": 2871,
  "\u2581produce": 2872,
  "\u2581Nyui": 2873,
  "\u2581brings": 2874,
  "\u2581gb\u0254gb\u0254a": 2875,
  "\u2581sacrifices": 2876,
  "\u2581yele": 2877,
  "\u258115]": 2878,
  "\u2581Christendom": 2879,
  "\u2581genuine": 2880,
  "\u2581resurrected": 2881,
  "\u2581yeana": 2882,
  "\u2581\u028b\u0254nud\u0254dr\u0254": 2883,
  "\u2581es\u0254": 2884,
  "\u2581eta": 2885,
  "\u2581Wode": 2886,
  "\u2581axe": 2887,
  "\u2581n\u0254viawo": 2888,
  "f": 2889,
  "\u2581f\u0169u": 2890,
  "\u2581November": 2891,
  "\u2581required": 2892,
  "\u2581wobu": 2893,
  "\u2581\u0192omet\u0254": 2894,
  "\u2581eyomedzelawo": 2895,
  "\u2581kekeli": 2896,
  "\u2581nun\u0254la": 2897,
  "\u2581nukatae": 2898,
  "\u2581neighbor": 2899,
  "\u258130.": 2900,
  "\u2581ekp\u0254": 2901,
  "\u2581lose": 2902,
  "\u2581patient": 2903,
  "\u2581State": 2904,
  "\u2581amesiawo": 2905,
  "\u258135.": 2906,
  "\u2581adi": 2907,
  "\u2581goals": 2908,
  "\u2581seed": 2909,
  "\u2581room": 2910,
  "\u2581Greece": 2911,
  "\u2581gbedodo\u0256awo": 2912,
  "\u2581nute\u0192ew\u0254w\u0254t\u0254e": 2913,
  "\u2581woto": 2914,
  "\u2581Hela": 2915,
  "\u2581hati": 2916,
  "\u2581nade": 2917,
  "\u2581persecution": 2918,
  "\u2581although": 2919,
  "\u2581closer": 2920,
  "\u2581increase": 2921,
  "\u2581mava": 2922,
  "\u2581vision": 2923,
  "ga": 2924,
  "\u2581Translation": 2925,
  "\u2581aware": 2926,
  "\u2581contrast": 2927,
  "\u2581anyin\u0254n\u0254": 2928,
  "\u2581egbe": 2929,
  "\u2581workers": 2930,
  "\u2581Wow\u0254": 2931,
  "\u2581Nyagbl\u0254la": 2932,
  "\u2581\u014auti": 2933,
  "z": 2934,
  "\u2581importance": 2935,
  "\u2581Family": 2936,
  "\u2581picture": 2937,
  "\u2581save": 2938,
  "\u2581ada": 2939,
  "\u2581Anyigba": 2940,
  "\u2581attended": 2941,
  "\u2581gb\u0254nye": 2942,
  "\u2581kplim": 2943,
  "\u2581\u0263e": 2944,
  "\u2581amenyenye": 2945,
  "\u2581w\u00f2s\u0254": 2946,
  "\u2581Each": 2947,
  "\u2581loss": 2948,
  "\u2581meyi": 2949,
  "\u2581recognize": 2950,
  "\u2581\u00d0E": 2951,
  "ll": 2952,
  "\u2581nublanuikp\u0254kp\u0254": 2953,
  "h": 2954,
  "\u2581Italy": 2955,
  "\u2581M\u0254\u0256e\u0256e": 2956,
  "\u2581consequences": 2957,
  "\u2581cultivate": 2958,
  "\u2581key": 2959,
  "\u2581mouth": 2960,
  "\u2581practices": 2961,
  "able": 2962,
  "\u2581Va": 2963,
  "\u2581gbea": 2964,
  "\u2581m\u00edegbl\u0254": 2965,
  "\u2581notes": 2966,
  "\u2581tsa": 2967,
  "\u2581woabu": 2968,
  "\u2581experiences": 2969,
  "\u2581m\u00ede\u0192o": 2970,
  "\u2581n\u00e8nye": 2971,
  "\u2581spread": 2972,
  "\u2581finally": 2973,
  "\u2581vo": 2974,
  "\u2581ho": 2975,
  "\u2581seeing": 2976,
  "quite": 2977,
  "\u2581involves": 2978,
  "as": 2979,
  "\u2581Was": 2980,
  "\u2581dzidzenuwo": 2981,
  "ke": 2982,
  "\u2581agree": 2983,
  "\u2581danger": 2984,
  "\u2581refused": 2985,
  "\u2581truths": 2986,
  "\u2581\u0192ua": 2987,
  "\u2581Ecclesiastes": 2988,
  "\u2581Ha": 2989,
  "\u2581affection": 2990,
  "\u2581household": 2991,
  "\u2581illustration": 2992,
  "Let": 2993,
  "\u2581visited": 2994,
  "\u258114;": 2995,
  "\u2581declared": 2996,
  "\u2581gale": 2997,
  "\u2581lalam": 2998,
  "\u2581Ye": 2999,
  "\u2581dedien\u0254n\u0254": 3000,
  "\u2581dzide\u0192o": 3001,
  "\u2581fiae": 3002,
  "\u2581focus": 3003,
  "\u2581\u014butsuvi": 3004,
  "\u258133.": 3005,
  "\u2581ME": 3006,
  "\u2581ses\u1ebde": 3007,
  "\u2581viw\u00f2wo": 3008,
  "\u2581Well": 3009,
  "\u2581baby": 3010,
  "\u2581cities": 3011,
  "\u2581deblibo": 3012,
  "\u2581opposition": 3013,
  "\u258136": 3014,
  "\u2581Lot": 3015,
  "\u2581agban\u0254amedzi": 3016,
  "\u2581devotion": 3017,
  "\u2581g": 3018,
  "\u2581lesson": 3019,
  "\u2581manner": 3020,
  "\u2581nanya": 3021,
  "\u2581opened": 3022,
  "\u2581police": 3023,
  "\u2581rejoice": 3024,
  "\u2581woato": 3025,
  "\u2581Dze": 3026,
  "\u2581February": 3027,
  "\u2581Kristoduk\u0254a": 3028,
  "\u2581Questions": 3029,
  "\u2581forget": 3030,
  "\u2581play": 3031,
  "\u0256e": 3032,
  "\u2581arrangement": 3033,
  "\u2581attending": 3034,
  "\u2581vivivi": 3035,
  "\u2581CA": 3036,
  "\u2581dz\u0254dz\u0254ewo": 3037,
  "\u2581watch": 3038,
  "\u2581woa\u0256u": 3039,
  "g": 3040,
  "ro": 3041,
  "\u2581sub\u0254sub\u0254d\u0254": 3042,
  "\u2581car": 3043,
  "\u2581\u00d0asefoawo": 3044,
  "\u2581amesiamina": 3045,
  "\u2581efia": 3046,
  "\u2581examine": 3047,
  "\u2581dadaa": 3048,
  "\u2581miawo": 3049,
  "\u2581stress": 3050,
  "m\u0254": 3051,
  "\u014butinunya": 3052,
  "\u2581Over": 3053,
  "\u2581flock": 3054,
  "\u2581mats\u0254": 3055,
  "\u2581won\u0254a": 3056,
  "\u2581sharing": 3057,
  "\u2581woadze": 3058,
  "ili\u0254n": 3059,
  "\u2581accounts": 3060,
  "\u2581wof\u0254": 3061,
  "\u2581Pennsylvania": 3062,
  "\u2581Yosua": 3063,
  "\u2581Baal": 3064,
  "\u2581Time": 3065,
  "\u2581imagine": 3066,
  "\u2581m\u00edal\u0254": 3067,
  "\u2581Ny\u0254nu": 3068,
  "\u2581ganyawo": 3069,
  "\u2581judge": 3070,
  "\u2581woagbl\u0254": 3071,
  "vd": 3072,
  "\u2581300": 3073,
  "\u258180": 3074,
  "\u2581ak\u0254fafa": 3075,
  "\u2581convinced": 3076,
  "\u2581instead": 3077,
  "\u2581thou": 3078,
  "ku": 3079,
  "\u2581asking": 3080,
  "\u2581effective": 3081,
  "l\u0254l\u0254": 3082,
  "\u2581ebia": 3083,
  "\u2581gb\u00e3t\u0254a": 3084,
  "\u2581kesin\u0254nuwo": 3085,
  "\u2581publishers": 3086,
  "\u2581sese": 3087,
  "\u2581w\u00f2zu": 3088,
  "di": 3089,
  "\u2581commanded": 3090,
  "\u2581sight": 3091,
  "\u2581thousand": 3092,
  "\u2581dahewo": 3093,
  "\u2581kadodo": 3094,
  "\u2581minister": 3095,
  "He": 3096,
  "\u2581Amesi": 3097,
  "\u2581forgive": 3098,
  "\u2581prepare": 3099,
  "\u2581\u0256ikeke": 3100,
  "\u2581prophets": 3101,
  "\u2581tongue": 3102,
  "\u2581Her": 3103,
  "\u2581drink": 3104,
  "\u2581loyalty": 3105,
  "\u2581sort": 3106,
  "\u2581urged": 3107,
  "\u2581Inc": 3108,
  "\u2581Philippians": 3109,
  "\u2581Should": 3110,
  "\u2581me\u0192o": 3111,
  "\u2581names": 3112,
  "\u2581\u014b\u0254li": 3113,
  "\u2581woase": 3114,
  "\u2581Filipit\u0254wo": 3115,
  "\u2581evening": 3116,
  "\u2581late": 3117,
  "\u2581personally": 3118,
  "\u258116;": 3119,
  "\u2581attack": 3120,
  "\u2581continues": 3121,
  "\u2581drugs": 3122,
  "\u2581fetu": 3123,
  "\u2581limited": 3124,
  "\u2581saved": 3125,
  "\u2581w\u00f2anya": 3126,
  "\u2581yiyim": 3127,
  "\u0256e\u0256ea": 3128,
  "\u2581wota": 3129,
  "H": 3130,
  "mi": 3131,
  "\u258190": 3132,
  "\u2581Really": 3133,
  "\u2581game": 3134,
  "\u2581abi": 3135,
  "\u2581court": 3136,
  "\u2581specific": 3137,
  "\u2581yewoakp\u0254": 3138,
  "\u2581front": 3139,
  "\u2581lie": 3140,
  "\u2581preached": 3141,
  "mong": 3142,
  "\u2581Ena": 3143,
  "\u2581agbenyuin\u0254n\u0254": 3144,
  "\u2581h": 3145,
  "\u2581negative": 3146,
  "\u2581looked": 3147,
  "\u2581existence": 3148,
  "\u2581tututue": 3149,
  "\u2581Alea": 3150,
  "\u2581Go": 3151,
  "\u2581appear": 3152,
  "gbal\u1ebd": 3153,
  "\u258138": 3154,
  "\u2581nyate\u0192enya": 3155,
  "\u2581pass": 3156,
  "\u2581N\u0254": 3157,
  "\u2581easily": 3158,
  "\u2581observe": 3159,
  "P": 3160,
  "\u2581active": 3161,
  "\u2581association": 3162,
  "\u2581remained": 3163,
  "\u2581verse": 3164,
  "\u2581nado": 3165,
  "\u2581obedient": 3166,
  "\u2581reasonable": 3167,
  "\u2581concerned": 3168,
  "\u2581concerning": 3169,
  "\u2581enter": 3170,
  "\u2581warned": 3171,
  "\u2581dzidzime": 3172,
  "\u2581hets\u0254": 3173,
  "\u2581responsible": 3174,
  "\u2581situations": 3175,
  "\u2581\u00e8di": 3176,
  "\u2581Spirit": 3177,
  "\u2581conclusion": 3178,
  "Nus\u0254sr\u0254": 3179,
  "\u25815]": 3180,
  "\u2581ful\u00e9le": 3181,
  "\u2581military": 3182,
  "\u2581\u014autsu": 3183,
  "\u2581causes": 3184,
  "\u2581challenges": 3185,
  "\u2581requires": 3186,
  "\u2581step": 3187,
  "\u258118]": 3188,
  "\u2581hax\u0254set\u0254wo": 3189,
  "\u2581overcome": 3190,
  "\u2581describes": 3191,
  "\u2581goes": 3192,
  "\u2581obedience": 3193,
  "\u2581woal\u00e9": 3194,
  "\u2581Anye": 3195,
  "\u2581dze\u0256o\u0256o": 3196,
  "\u2581growing": 3197,
  "\u2581wine": 3198,
  "\u2581TO": 3199,
  "\u2581sem": 3200,
  "\u2581weeks": 3201,
  "\u2581Con": 3202,
  "\u2581Ruth": 3203,
  "\u2581event": 3204,
  "\u2581nyanyui": 3205,
  "nyawo": 3206,
  "\u2581army": 3207,
  "sub\u0254lawo": 3208,
  "\u2581doctor": 3209,
  "\u2581n\u00e8di": 3210,
  "\u2581takpekpea": 3211,
  "U": 3212,
  "\u2581M\u0254nukp\u0254kp\u0254": 3213,
  "\u2581Wots\u0254": 3214,
  "\u2581\u0256e\u0256i": 3215,
  "\u014butinunyalawo": 3216,
  "\u25811995": 3217,
  "\u2581abolo": 3218,
  "\u2581enyi": 3219,
  "\u2581putt": 3220,
  "\u2581xl\u1ebdm": 3221,
  "\u2581\u0192omewo": 3222,
  "\u2581High": 3223,
  "\u2581humility": 3224,
  "\u2581BIBLE": 3225,
  "\u2581particularly": 3226,
  "\u2581Encyclopedia": 3227,
  "\u2581Only": 3228,
  "\u2581fell": 3229,
  "\u2581newspaper": 3230,
  "\u2581yewonye": 3231,
  "\u2581authorities": 3232,
  "\u2581pioneers": 3233,
  "\u2581points": 3234,
  "\u0256o\u0256o": 3235,
  "\u2581NY": 3236,
  "\u2581air": 3237,
  "\u2581Ezekiel": 3238,
  "\u2581Work": 3239,
  "\u2581basic": 3240,
  "\u2581failed": 3241,
  "\u2581image": 3242,
  "L": 3243,
  "\u2581viewed": 3244,
  "\u2581x\u0254m": 3245,
  "\u2581Kat\u00e3": 3246,
  "\u2581m\u00edebu": 3247,
  "\u2581Two": 3248,
  "\u2581aku": 3249,
  "\u2581pure": 3250,
  "\u2581Mother": 3251,
  "\u2581grateful": 3252,
  "\u2581man\u0254mee": 3253,
  "\u2581m\u00edato": 3254,
  "ation": 3255,
  "\u2581becomes": 3256,
  "\u2581hearing": 3257,
  "\u2581student": 3258,
  "This": 3259,
  "To": 3260,
  "\u2581includes": 3261,
  "\u2581relatives": 3262,
  "2": 3263,
  "est": 3264,
  "\u2581dzi\u014b\u0254": 3265,
  "\u2581sub\u0254sub\u0254hawo": 3266,
  "\u2581s\u0254lemeha": 3267,
  "\u2581affected": 3268,
  "\u2581w\u0254nute\u0192e": 3269,
  "G": 3270,
  "\u2581ede": 3271,
  "\u2581egbegbe": 3272,
  "\u2581fail": 3273,
  "\u2581universe": 3274,
  "\u2581BE": 3275,
  "\u2581a\u0192ewo": 3276,
  "\u258123,": 3277,
  "\u2581Mount": 3278,
  "\u2581Re": 3279,
  "\u2581big": 3280,
  "\u2581\u028bu\u028bu": 3281,
  "\u258112;": 3282,
  "\u2581African": 3283,
  "\u2581gifts": 3284,
  "\u2581m\u00edava": 3285,
  "\u2581values": 3286,
  "\u2581\u0256ase\u0256i\u0256i": 3287,
  "\u2581carried": 3288,
  "\u2581Finally": 3289,
  "\u2581Ma": 3290,
  "\u2581gbe\u0192\u00e3\u0256ela": 3291,
  "\u2581road": 3292,
  "\u2581sincere": 3293,
  "\u25811993": 3294,
  "\u25812000": 3295,
  "\u258155": 3296,
  "\u2581gbagbe": 3297,
  "\u2581Nukp\u0254susu": 3298,
  "\u2581adds": 3299,
  "\u2581delight": 3300,
  "\u2581persons": 3301,
  "\u2581writer": 3302,
  "it": 3303,
  "\u2581kuna": 3304,
  "\u2581nayi": 3305,
  "\u2581woal\u0254": 3306,
  "\u2581w\u00f2l\u0254": 3307,
  "\u2581Latin": 3308,
  "\u2581response": 3309,
  "\u2581\u014b\u0254\u014bl\u0254": 3310,
  "go": 3311,
  "\u2581200": 3312,
  "\u2581Li": 3313,
  "\u2581fi\u1ebd": 3314,
  "\u2581z\u00e3m": 3315,
  "\u2581memama": 3316,
  "\u2581wogbe": 3317,
  "\u2581kpea": 3318,
  "\u2581grew": 3319,
  "and": 3320,
  "tsi": 3321,
  "\u0256o": 3322,
  "\u2581break": 3323,
  "\u2581leading": 3324,
  "\u2581measure": 3325,
  "\u2581Make": 3326,
  "\u2581compassion": 3327,
  "\u2581crime": 3328,
  "\u2581illness": 3329,
  "\u2581poverty": 3330,
  "\u2581religions": 3331,
  "\u2581\u014aU": 3332,
  "\u2581disciple": 3333,
  "\u2581gbeadzi": 3334,
  "\u2581teaches": 3335,
  "atsr\u0254": 3336,
  "\u2581acceptable": 3337,
  "\u2581edz\u0254": 3338,
  "\u2581megale": 3339,
  "\u2581talking": 3340,
  "\u2581improve": 3341,
  "\u2581mawuv\u0254": 3342,
  "\u2581offering": 3343,
  "\u2581xexeme": 3344,
  "\u2581claim": 3345,
  "\u2581note": 3346,
  "\u2581\u0191o": 3347,
  "\u2581Akpe": 3348,
  "\u2581fut\u0254": 3349,
  "\u2581race": 3350,
  "WO": 3351,
  "When": 3352,
  "\u2581Eva": 3353,
  "\u2581akpl\u0254": 3354,
  "\u2581hurt": 3355,
  "\u2581Once": 3356,
  "\u2581Xexeme\u028ba": 3357,
  "\u2581Take": 3358,
  "\u2581maml\u025bt\u0254": 3359,
  "\u2581particular": 3360,
  "\u2581reward": 3361,
  "\u2581a\u0192u": 3362,
  "\u2581successful": 3363,
  "yi": 3364,
  "\u2581blanui": 3365,
  "\u2581oil": 3366,
  "\u2581yewoan\u0254": 3367,
  "\u014butinunyala": 3368,
  "\u2581E\u0256o": 3369,
  "\u2581Ghana": 3370,
  "\u2581X\u0254se": 3371,
  "\u2581a\u0192et\u0254": 3372,
  "\u2581village": 3373,
  "\u2581w\u00f2ade": 3374,
  "\u2581Tr\u0254": 3375,
  "\u2581harm": 3376,
  "\u2581sub\u0254m": 3377,
  "\u2581violent": 3378,
  "\u2581w\u00f2as\u0254": 3379,
  "\u2581worth": 3380,
  "\u2581amount": 3381,
  "\u2581femaxee": 3382,
  "\u2581mayi": 3383,
  "\u2581appeared": 3384,
  "\u2581asrafowo": 3385,
  "\u2581dziw\u00f2lawo": 3386,
  "\u2581probably": 3387,
  "\u2581search": 3388,
  "\u2581K\u0254k\u0254e": 3389,
  "\u2581environment": 3390,
  "\u2581manye": 3391,
  "\u2581quoted": 3392,
  "\u2581tsy\u0254": 3393,
  "\u2581welcome": 3394,
  "\u2581eight": 3395,
  "\u2581reveal": 3396,
  "\u2581valuable": 3397,
  "\u2581\u0256\u0254kta": 3398,
  "\u2581BIBLIA": 3399,
  "\u2581Deuteronomy": 3400,
  "\u2581Paradiso": 3401,
  "\u2581reached": 3402,
  "\u2581dunyahehe": 3403,
  "\u2581foreign": 3404,
  "\u2581Help": 3405,
  "\u2581d\u0254w\u0254la": 3406,
  "\u2581el\u0254": 3407,
  "\u2581referred": 3408,
  "\u2581surely": 3409,
  "\u2581wo\u0256u": 3410,
  "\u2581Kristot\u0254nyenye": 3411,
  "\u2581d\u0254lar": 3412,
  "\u2581eating": 3413,
  "\u2581global": 3414,
  "\u2581kua": 3415,
  "\u2581wars": 3416,
  "\u2581friendship": 3417,
  "\u2581occur": 3418,
  "\u2581strive": 3419,
  "Mi": 3420,
  "There": 3421,
  "\u2581Man": 3422,
  "\u2581elderly": 3423,
  "\u2581fulfill": 3424,
  "\u2581gold": 3425,
  "\u2581gone": 3426,
  "\u2581meda": 3427,
  "\u2581wait": 3428,
  "\u2581Blur": 3429,
  "\u2581Isaac": 3430,
  "\u2581Robert": 3431,
  "\u2581dangerous": 3432,
  "\u2581danye": 3433,
  "\u2581fifi": 3434,
  "\u2581gbegbl\u1ebdwo": 3435,
  "\u2581issues": 3436,
  "\u2581kill": 3437,
  "\u2581presented": 3438,
  "\u258117]": 3439,
  "\u2581ahan\u0254": 3440,
  "\u2581atsu": 3441,
  "\u2581publication": 3442,
  "\u2581tears": 3443,
  "\u2581w\u0254nute\u0192ewo": 3444,
  "&": 3445,
  "\u2581Book": 3446,
  "\u2581Dome": 3447,
  "\u2581Parents": 3448,
  "\u2581extreme": 3449,
  "\u2581forgiveness": 3450,
  "\u2581paradiso": 3451,
  "\u2581writing": 3452,
  "\u2581\u028b\u00e3a": 3453,
  "ar": 3454,
  "\u00d0e": 3455,
  "\u2581merely": 3456,
  "\u2581w\u00f2ku": 3457,
  "\u2581\u0191o\u0192uawo": 3458,
  "all": 3459,
  "\u2581m\u00edex\u0254": 3460,
  "\u2581relative": 3461,
  "\u2581secret": 3462,
  "\u2581Akpa": 3463,
  "\u2581adr\u025bs": 3464,
  "\u2581belief": 3465,
  "\u2581greatly": 3466,
  "\u2581hede": 3467,
  "\u2581normal": 3468,
  "\u2581story": 3469,
  "\u2581understood": 3470,
  "\u2581wobua": 3471,
  "\u2581Under": 3472,
  "\u2581ti": 3473,
  "responsibilities": 3474,
  "\u2581comments": 3475,
  "\u2581listening": 3476,
  "\u2581toe": 3477,
  "\u2581unique": 3478,
  "\u2581Koloset\u0254wo": 3479,
  "\u2581direct": 3480,
  "\u2581encouraging": 3481,
  "\u2581shepherd": 3482,
  "\u2581woyi": 3483,
  "\u25816]": 3484,
  "\u2581Colossians": 3485,
  "\u2581a\u0256atsi": 3486,
  "\u2581reality": 3487,
  "\u2581tsitsim": 3488,
  "\u2581type": 3489,
  "\u2581\u014butsua": 3490,
  "\u25811997": 3491,
  "\u2581Faith": 3492,
  "\u2581energy": 3493,
  "\u2581international": 3494,
  "\u2581nun\u0254amesiwo": 3495,
  "\u2581n\u00e0ts\u0254": 3496,
  "\u2581Nufiafia": 3497,
  "\u2581discussion": 3498,
  "\u2581woatr\u0254": 3499,
  "jw": 3500,
  "\u2581n\u00e0\u0256e": 3501,
  "\u2581tanyae": 3502,
  "\u2581caring": 3503,
  "\u2581confident": 3504,
  "\u2581m\u0254a": 3505,
  "\u2581nyonyo": 3506,
  "\u2581sukua": 3507,
  "\u0263i": 3508,
  "\u2581NW": 3509,
  "\u2581sovereignty": 3510,
  "\u2581History": 3511,
  "\u2581prospect": 3512,
  "\u2581victims": 3513,
  "\u2581manifest": 3514,
  "\u2581re": 3515,
  "\u2581\u00d0k": 3516,
  "\u2581\u014butases\u1ebd": 3517,
  "ry": 3518,
  "\u2581Body": 3519,
  "\u2581German": 3520,
  "\u2581kpovit\u0254wo": 3521,
  "\u2581patience": 3522,
  "\u2581vodadawo": 3523,
  "el": 3524,
  "\u2581magbl\u0254": 3525,
  "\u2581tetekp\u0254": 3526,
  "\u258148": 3527,
  "\u2581Yi": 3528,
  "\u2581guard": 3529,
  "\u2581inside": 3530,
  "like": 3531,
  "\u2581dzinyelawo": 3532,
  "\u2581listed": 3533,
  "\u2581m\u00edeyi": 3534,
  "\u2581duta": 3535,
  "\u2581opening": 3536,
  "\u2581destroy": 3537,
  "\u2581hundreds": 3538,
  "\u2581w\u00f2adze": 3539,
  "\u2581gods": 3540,
  "\u2581purposes": 3541,
  "\u2581w\u00f2a\u0256o": 3542,
  "\u2581\u00d0eviwo": 3543,
  "\u2581Kae": 3544,
  "\u2581eternal": 3545,
  "\u2581minds": 3546,
  "\u2581nusita": 3547,
  "\u2581tame\u0256o\u0256owo": 3548,
  "ko": 3549,
  "4": 3550,
  "\u2581(2)": 3551,
  "\u2581Being": 3552,
  "\u2581careful": 3553,
  "\u2581warm": 3554,
  "\u2581xaxawo": 3555,
  "For": 3556,
  "\u2581(1)": 3557,
  "\u2581Hab\u0254b\u0254": 3558,
  "\u2581Other": 3559,
  "\u2581Tso\u0192e": 3560,
  "\u2581ases\u1ebd": 3561,
  "\u2581due": 3562,
  "\u2581join": 3563,
  "\u2581suewo": 3564,
  "\u2581Sub\u0254sub\u0254": 3565,
  "\u2581klalo": 3566,
  "\u2581produced": 3567,
  "\u2581Kp\u0254a": 3568,
  "\u2581battle": 3569,
  "\u2581endurance": 3570,
  "\u2581fill": 3571,
  "\u2581metr\u0254": 3572,
  "\u2581m\u00edadi": 3573,
  "\u2581troubled": 3574,
  "\u2581yeate": 3575,
  "\u2581Version": 3576,
  "\u2581committed": 3577,
  "\u2581modzaka\u0256e\u0256e": 3578,
  "\u2581popular": 3579,
  "\u2581woaz\u00e3": 3580,
  "\u25811994": 3581,
  "\u2581Exodus": 3582,
  "\u2581Here": 3583,
  "\u2581community": 3584,
  "\u2581conversation": 3585,
  "\u2581cost": 3586,
  "\u2581generation": 3587,
  "\u2581madz\u0254madz\u0254": 3588,
  "\u2581prophecies": 3589,
  "\u2581statement": 3590,
  "\u2581yiyi": 3591,
  "\u2581esiae": 3592,
  "\u2581\u014aku": 3593,
  "ge": 3594,
  "\u2581Soviet": 3595,
  "\u2581a\u0256aka": 3596,
  "\u2581discussed": 3597,
  "\u2581hospital": 3598,
  "\u2581mountain": 3599,
  "\u2581n\u00e0z\u00e3": 3600,
  "ww": 3601,
  "\u2581144,000": 3602,
  "\u2581communication": 3603,
  "\u2581date": 3604,
  "\u2581fofonye": 3605,
  "\u2581increased": 3606,
  "\u2581placed": 3607,
  "\u2581video": 3608,
  "\u2581busy": 3609,
  "\u2581research": 3610,
  "\u2581territory": 3611,
  "\u2581Gbl\u0254": 3612,
  "\u2581react": 3613,
  "\u2581run": 3614,
  "\u2581train": 3615,
  "\u2581uses": 3616,
  "\u2581\u0192o\u0192o": 3617,
  "\u2581Edzi": 3618,
  "\u2581Furthermore": 3619,
  "\u2581Testament": 3620,
  "\u2581creatures": 3621,
  "\u2581main": 3622,
  "\u2581camp": 3623,
  "\u2581effects": 3624,
  "\u2581immorality": 3625,
  "\u2581nax\u0254": 3626,
  "\u2581animal": 3627,
  "\u2581bla": 3628,
  "\u2581population": 3629,
  "\u2581recently": 3630,
  "\u2581w\u00f2e": 3631,
  "\u2581helpful": 3632,
  "\u2581nukunu": 3633,
  "\u2581vidada": 3634,
  "\u2581younger": 3635,
  "\u2581discreet": 3636,
  "\u2581legal": 3637,
  "\u2581pursue": 3638,
  "\u2581w\u00f2nya": 3639,
  "\u2581\u00d0eka": 3640,
  "\u2581Galatians": 3641,
  "\u2581anyigbaa": 3642,
  "\u2581expected": 3643,
  "\u2581metso": 3644,
  "\u2581bi": 3645,
  "\u2581divorce": 3646,
  "\u2581d\u0254wo": 3647,
  "\u2581hekp\u0254": 3648,
  "\u2581lies": 3649,
  "\u2581yean\u0254": 3650,
  "\u2581zeal": 3651,
  "\u2581alakpa": 3652,
  "\u2581chief": 3653,
  "\u2581company": 3654,
  "\u2581decades": 3655,
  "\u2581kpl\u0254a": 3656,
  "lo": 3657,
  "\u2581bringing": 3658,
  "\u2581demons": 3659,
  "\u2581economic": 3660,
  "\u2581factors": 3661,
  "\u2581mekp\u0254e": 3662,
  "\u2581overseers": 3663,
  "\u2581yenye": 3664,
  "\u2581Galatiat\u0254wo": 3665,
  "\u2581hekpe": 3666,
  "\u2581refers": 3667,
  "\u2581tutu": 3668,
  "\u2581wose": 3669,
  "\u2581\u014butega": 3670,
  "\u2581\u0192eawo": 3671,
  "\u258132.": 3672,
  "\u258142": 3673,
  "\u2581Kaka": 3674,
  "\u2581M\u0254kp\u0254kp\u0254": 3675,
  "\u2581growth": 3676,
  "\u2581dzeani": 3677,
  "\u2581dzidzimeviwo": 3678,
  "\u2581\u014bkuwo": 3679,
  "\u2581\u014bugbedodowo": 3680,
  "\u2581commandments": 3681,
  "\u2581gbl\u1ebdm": 3682,
  "\u2581trained": 3683,
  "\u258113]": 3684,
  "\u2581c": 3685,
  "\u2581nats\u0254": 3686,
  "\u2581tsona": 3687,
  "N": 3688,
  "\u2581entered": 3689,
  "\u2581e\u014buti": 3690,
  "\u2581guide": 3691,
  "\u2581sub\u0254": 3692,
  "\u2581towo": 3693,
  "\u2581identify": 3694,
  "\u2581\u00d0asefowoe": 3695,
  "\u2581studied": 3696,
  "\u2581translated": 3697,
  "\u2581w\u00f2ado": 3698,
  "\u2581w\u00f2bia": 3699,
  "\u2581fli": 3700,
  "\u2581organized": 3701,
  "\u2581pleasure": 3702,
  "\u2581secular": 3703,
  "va": 3704,
  "\u2581al\u0254dzed\u0254w\u0254\u0192e": 3705,
  "\u2581dzidodo": 3706,
  "\u2581praying": 3707,
  "\u2581w\u0254w\u0254m": 3708,
  "\u2581kesin\u0254nu": 3709,
  "\u2581nyi": 3710,
  "R": 3711,
  "b\u0254b\u0254": 3712,
  "\u2581Sometimes": 3713,
  "\u2581d\u0254menyonyo": 3714,
  "\u2581process": 3715,
  "\u2581agl\u00e3": 3716,
  "\u2581circuit": 3717,
  "\u2581enemy": 3718,
  "\u2581gbadza": 3719,
  "\u2581\u00d0o\u0256o": 3720,
  "\u2581Without": 3721,
  "w\u0254la": 3722,
  "\u2581amedzro": 3723,
  "\u2581contrary": 3724,
  "\u2581extent": 3725,
  "\u2581hadzidzi": 3726,
  "\u2581instruction": 3727,
  "\u2581mere": 3728,
  "\u2581request": 3729,
  "\u2581afraid": 3730,
  "\u2581yometiti": 3731,
  "\u2581churches": 3732,
  "\u2581likewise": 3733,
  "\u2581menyo": 3734,
  "\u2581k\u0254te": 3735,
  "\u2581Convention": 3736,
  "\u2581immoral": 3737,
  "co": 3738,
  "\u2581Gospel": 3739,
  "\u2581developing": 3740,
  "Spanish": 3741,
  "\u2581appears": 3742,
  "Ts\u0254": 3743,
  "eth": 3744,
  "\u25811990": 3745,
  "\u2581accomplish": 3746,
  "\u2581correct": 3747,
  "\u2581edi": 3748,
  "\u2581n\u0254n\u0254metata": 3749,
  "\u2581Duk\u0254wo": 3750,
  "\u2581En\u0254": 3751,
  "\u2581French": 3752,
  "\u2581dzi\u0256ulanyenye": 3753,
  "\u2581m\u0254z\u0254z\u0254": 3754,
  "9": 3755,
  "\u2581Govern": 3756,
  "\u2581evident": 3757,
  "\u2581gbal\u1ebd": 3758,
  "\u2581he\u0256e": 3759,
  "\u2581powers": 3760,
  "\u2581afisiafi": 3761,
  "\u2581buy": 3762,
  "\u2581letters": 3763,
  "\u2581nuka": 3764,
  "\u2581East": 3765,
  "\u2581aduadu": 3766,
  "\u2581darkness": 3767,
  "\u2581dzidzi": 3768,
  "\u2581kpekpem": 3769,
  "\u2581loves": 3770,
  "\u2581low": 3771,
  "\u2581riches": 3772,
  "\u2581sika": 3773,
  "3": 3774,
  "\u2581Land": 3775,
  "\u2581agbegbegbl\u1ebdn\u0254n\u0254": 3776,
  "\u2581demonstrate": 3777,
  "\u2581garden": 3778,
  "\u2581hamemetsitsi": 3779,
  "\u2581kutri": 3780,
  "\u2581k\u0254nu": 3781,
  "\u2581\u0256o\u0256owo": 3782,
  "il": 3783,
  "nuwo": 3784,
  "\u2581Biblical": 3785,
  "\u2581Matt": 3786,
  "\u2581assured": 3787,
  "\u2581gb\u0254gb\u0254menuwo": 3788,
  "\u2581indicate": 3789,
  "\u2581offspring": 3790,
  "\u2581\u014bus\u1ebdkp\u0254\u0256eamedzi": 3791,
  "ity": 3792,
  "\u258141": 3793,
  "\u2581approval": 3794,
  "\u2581treated": 3795,
  "\u2581contains": 3796,
  "\u2581ny\u0254nyr\u0254x\u0254x\u0254": 3797,
  "\u2581blind": 3798,
  "\u2581drinking": 3799,
  "\u2581heavy": 3800,
  "\u2581worshippers": 3801,
  "\u2581w\u00f2w\u0254a": 3802,
  "6": 3803,
  "My": 3804,
  "ur": 3805,
  "\u2581adzi": 3806,
  "\u2581box": 3807,
  "\u2581copy": 3808,
  "\u2581n\u00e0": 3809,
  "\u2581remains": 3810,
  "\u2581wish": 3811,
  "\u258143": 3812,
  "\u25818]": 3813,
  "\u2581Tim": 3814,
  "\u2581chose": 3815,
  "\u2581dz\u0254dz\u0254m": 3816,
  "\u2581viviti": 3817,
  "\u2581America": 3818,
  "\u2581Me\u0256o": 3819,
  "\u2581Pharisees": 3820,
  "\u2581dzedzeme": 3821,
  "\u2581nuvlow\u0254w\u0254": 3822,
  "at": 3823,
  "\u2581DZI": 3824,
  "\u2581aid": 3825,
  "\u2581nukut\u0254e": 3826,
  "\u2581\u014akeke": 3827,
  "\u2581HIV": 3828,
  "\u2581anxiety": 3829,
  "\u2581non": 3830,
  "\u2581nuw\u0254w\u0254wo": 3831,
  "gbal\u1ebdwo": 3832,
  "\u2581Think": 3833,
  "\u2581akp\u0254e": 3834,
  "\u2581associated": 3835,
  "\u2581formed": 3836,
  "\u2581tohehe": 3837,
  "\u2581\u014a\u0254\u014bl\u0254": 3838,
  "\u2581hatred": 3839,
  "\u2581ruler": 3840,
  "zi": 3841,
  "\u258126,": 3842,
  "\u2581asrafo": 3843,
  "\u2581delivered": 3844,
  "\u2581eyome": 3845,
  "\u2581mature": 3846,
  "\u2581m\u00edagbl\u0254": 3847,
  "\u2581m\u00edekp\u0254e": 3848,
  "\u2581survive": 3849,
  "\u2581\u014bukpe": 3850,
  "\u2581neighbors": 3851,
  "\u2581promote": 3852,
  "\u2581views": 3853,
  "\u2581white": 3854,
  "\u2581worshipers": 3855,
  "\u2581advantage": 3856,
  "\u2581send": 3857,
  "\u2581seriously": 3858,
  "ion": 3859,
  "sub\u0254sub\u0254": 3860,
  "\u2581beloved": 3861,
  "\u2581financial": 3862,
  "\u2581governments": 3863,
  "\u2581healthy": 3864,
  "\u2581impressed": 3865,
  "\u2581x\u0254\u014bk\u0254": 3866,
  "\u2581Michael": 3867,
  "\u2581ab\u0254": 3868,
  "\u2581evidently": 3869,
  "\u2581hedo": 3870,
  "\u2581nunyala": 3871,
  "\u2581womekp\u0254": 3872,
  "x\u0254": 3873,
  "\u2581AME": 3874,
  "\u2581Nations": 3875,
  "\u2581amadede": 3876,
  "\u2581decide": 3877,
  "\u2581distress": 3878,
  "\u2581essential": 3879,
  "\u2581w\u00f2se": 3880,
  "tu": 3881,
  "\u2581119": 3882,
  "\u2581OF": 3883,
  "\u2581depression": 3884,
  "\u2581easier": 3885,
  "\u2581exist": 3886,
  "\u2581\u0263eyi\u0263iwo": 3887,
  "\u2581Its": 3888,
  "\u2581assist": 3889,
  "\u2581biam": 3890,
  "\u2581cover": 3891,
  "\u2581susuwo": 3892,
  "What": 3893,
  "\u0256inyenye": 3894,
  "\u2581Nyate\u0192e": 3895,
  "\u2581conclude": 3896,
  "\u2581drug": 3897,
  "\u2581eyi": 3898,
  "\u2581wealth": 3899,
  "\u2581applied": 3900,
  "\u2581d\u0254w\u0254lawo": 3901,
  "\u2581ts\u025b": 3902,
  "Xl\u1ebd": 3903,
  "\u25811996": 3904,
  "\u2581Hitler": 3905,
  "\u2581W\u00f2le": 3906,
  "\u2581bubui": 3907,
  "\u2581cancer": 3908,
  "\u2581difference": 3909,
  "\u2581dzi\u0256u\u0256uwo": 3910,
  "\u2581d\u0254l\u00e9lea": 3911,
  "\u2581emotions": 3912,
  "\u2581meta": 3913,
  "\u2581fruitage": 3914,
  "\u2581insight": 3915,
  "\u2581consideration": 3916,
  "\u2581forms": 3917,
  "\u2581joined": 3918,
  "\u2581mae": 3919,
  "\u2581m\u00edi": 3920,
  "\u2581throne": 3921,
  "\u2581trouble": 3922,
  "\u2581ts\u0254e": 3923,
  "ba": 3924,
  "\u2581Nyaa": 3925,
  "\u2581hundred": 3926,
  "\u2581rejected": 3927,
  "\u2581subjects": 3928,
  "\u2581\u0263a\u0263la": 3929,
  "\u2581V\u0254": 3930,
  "\u2581girls": 3931,
  "\u2581n\u00e0\u0256o": 3932,
  "ia": 3933,
  "\u2581Yeye": 3934,
  "\u2581\u0256e\u0256efia": 3935,
  "\u2581agb\u0254": 3936,
  "\u2581discovered": 3937,
  "\u2581forces": 3938,
  "\u2581magazines": 3939,
  "\u2581xa": 3940,
  "\u2581Nublanuit\u0254e": 3941,
  "\u2581dzima\u0256i": 3942,
  "\u2581invitation": 3943,
  "\u2581ve": 3944,
  "\u2581Kings": 3945,
  "\u2581Un": 3946,
  "\u2581dziehe": 3947,
  "\u2581n\u0254lawo": 3948,
  "\u2581resist": 3949,
  "\u2581satisfaction": 3950,
  "\u2581wide": 3951,
  "\u2581Ebia": 3952,
  "\u2581notice": 3953,
  "\u2581sword": 3954,
  "\u2581yewole": 3955,
  "\u2581Hav": 3956,
  "\u2581designed": 3957,
  "\u2581island": 3958,
  "\u2581wofia": 3959,
  "\u258131]": 3960,
  "\u2581numame": 3961,
  "\u2581waiting": 3962,
  "\u2581Fofonye": 3963,
  "\u2581Gb\u00e3t\u0254": 3964,
  "\u2581hem": 3965,
  "\u2581severe": 3966,
  "\u2581trial": 3967,
  "\u2581\u0194eka\u0263ie": 3968,
  "\u2581International": 3969,
  "\u2581bibi": 3970,
  "\u2581gathered": 3971,
  "\u2581husbands": 3972,
  "\u258129,": 3973,
  "\u2581News": 3974,
  "\u2581YOU": 3975,
  "\u2581higher": 3976,
  "\u2581m\u00edehi\u00e3": 3977,
  "\u2581womete": 3978,
  "\u2581w\u0254nukuwo": 3979,
  "\u2581Kuxi": 3980,
  "\u2581setting": 3981,
  "\u2581trees": 3982,
  "\u2581worse": 3983,
  "\u2581zealous": 3984,
  "\u2581Imagine": 3985,
  "\u2581agbee": 3986,
  "\u2581ahaw\u0254": 3987,
  "\u2581esub\u0254lawo": 3988,
  "\u2581pride": 3989,
  "\u2581speaks": 3990,
  "\u2581Wole": 3991,
  "\u2581aside": 3992,
  "\u2581fiawo": 3993,
  "um": 3994,
  "w": 3995,
  "\u258121]": 3996,
  "\u2581ah\u0254h\u0254": 3997,
  "\u2581aspects": 3998,
  "\u2581n\u0254n\u0254meawo": 3999,
  "\u2581sought": 4000,
  "\u2581woz\u00e3na": 4001,
  "\u2581atsia\u0192u": 4002,
  "\u2581dzi\u0256ula": 4003,
  "\u2581m\u0254fiamewo": 4004,
  "fia": 4005,
  "\u2581Mia": 4006,
  "\u2581Rut": 4007,
  "\u2581daughters": 4008,
  "\u2581k\u0254dzi": 4009,
  "\u2581nufialawo": 4010,
  "\u2581viw\u00f2a": 4011,
  "\u2581Answer": 4012,
  "\u2581Isak": 4013,
  "\u2581create": 4014,
  "tso": 4015,
  "\u2581Xezekiel": 4016,
  "\u2581count": 4017,
  "\u2581he\u0256o": 4018,
  "\u2581master": 4019,
  "\u2581mebia": 4020,
  "\u2581responded": 4021,
  "\u2581wokpl\u0254": 4022,
  "\u2581soldiers": 4023,
  "\u2581united": 4024,
  "\u258124]": 4025,
  "\u2581dodzidz\u0254name": 4026,
  "\u2581d\u0254medzoe": 4027,
  "\u2581te\u0192ea": 4028,
  "\u2581Spanish": 4029,
  "\u2581cry": 4030,
  "\u2581dealing": 4031,
  "\u2581dzadzra\u0256o": 4032,
  "\u2581receiving": 4033,
  "\u2581Katolikot\u0254wo": 4034,
  "\u2581Suku": 4035,
  "\u2581anyiehe": 4036,
  "\u2581hath": 4037,
  "\u2581nyabiase": 4038,
  "\u2581wue": 4039,
  "\u2581nufiame": 4040,
  "\u2581opportunities": 4041,
  "\u2581rise": 4042,
  "\u2581shared": 4043,
  "\u2581sit": 4044,
  "ive": 4045,
  "\u2581Day": 4046,
  "\u2581across": 4047,
  "\u2581agb\u0254s\u0254s\u0254me": 4048,
  "\u2581alakpasub\u0254sub\u0254": 4049,
  "\u2581god": 4050,
  "\u2581ideas": 4051,
  "\u2581nug\u0254mesese": 4052,
  "\u2581wokpe": 4053,
  "kp\u0254t\u0254": 4054,
  "\u2581Amos": 4055,
  "\u2581Ana": 4056,
  "\u2581Health": 4057,
  "\u2581Naomi": 4058,
  "\u2581appearance": 4059,
  "\u2581bless": 4060,
  "\u2581recognized": 4061,
  "\u2581daa": 4062,
  "\u2581slaves": 4063,
  "\u2581E\u014bl\u0254": 4064,
  "\u2581Nazi": 4065,
  "\u2581closely": 4066,
  "\u2581facts": 4067,
  "\u25811999": 4068,
  "\u2581HADZIDZI": 4069,
  "\u2581Katoliko": 4070,
  "\u2581deliver": 4071,
  "\u2581escape": 4072,
  "\u2581nakpe": 4073,
  "\u2581t\u0254t\u0254": 4074,
  "\u2581Mat": 4075,
  "\u2581Mixl\u1ebd": 4076,
  "\u2581Sarah": 4077,
  "\u2581billion": 4078,
  "\u2581emee": 4079,
  "\u2581harvest": 4080,
  "nyenye": 4081,
  "\u0254": 4082,
  "\u2581Earth": 4083,
  "\u2581SONGS": 4084,
  "\u2581enya": 4085,
  "\u2581telling": 4086,
  "EACH": 4087,
  "\u2581400": 4088,
  "\u2581Numekuku": 4089,
  "\u2581Teach": 4090,
  "\u2581entertainment": 4091,
  "\u2581\u0256ia": 4092,
  "\u2581Both": 4093,
  "\u2581beneficial": 4094,
  "\u2581brain": 4095,
  "\u2581constantly": 4096,
  "\u2581meal": 4097,
  "\u2581vi\u014butsu": 4098,
  "\u2581(3)": 4099,
  "\u2581Amekae": 4100,
  "\u2581Give": 4101,
  "\u2581inhabitants": 4102,
  "\u2581lasting": 4103,
  "\u2581ma\u0256o": 4104,
  "\u2581woka": 4105,
  "\u2581Edo": 4106,
  "\u2581a\u0256a\u014budzela": 4107,
  "\u2581n\u0254na": 4108,
  "\u2581sedede": 4109,
  "\u2581vifofo": 4110,
  "\u2581womenya": 4111,
  "\u2581writes": 4112,
  "gan\u0254": 4113,
  "\u2581Bubu": 4114,
  "\u2581Israelite": 4115,
  "\u2581al\u1ebdwo": 4116,
  "\u2581d\u0254w\u0254w\u0254wo": 4117,
  "\u2581Af\u0254ku": 4118,
  "\u2581feels": 4119,
  "\u2581occurred": 4120,
  "\u2581stood": 4121,
  "\u2581\u0256ena": 4122,
  "\u258134.": 4123,
  "\u2581concluded": 4124,
  "\u2581doctors": 4125,
  "\u2581w\u00f2yi": 4126,
  "\u2581S\u0254h\u025bwo": 4127,
  "\u2581alcohol": 4128,
  "\u2581lay": 4129,
  "\u2581sub\u0254sub\u0254m": 4130,
  "\u2581w\u00f2\u0192o": 4131,
  "\u2581Don": 4132,
  "\u2581Every": 4133,
  "\u2581G\u0254mesese": 4134,
  "\u2581Regard": 4135,
  "\u2581honest": 4136,
  "\u2581Note": 4137,
  "\u2581a\u028b\u00e3": 4138,
  "\u2581joyful": 4139,
  "\u2581providing": 4140,
  "\u2581safe": 4141,
  "\u2581series": 4142,
  "\u2581\u014bugbledede": 4143,
  "\u25811998": 4144,
  "\u2581af\u0254\u0256e\u0256e": 4145,
  "\u2581drawn": 4146,
  "\u2581fi": 4147,
  "\u2581handle": 4148,
  "\u2581indicates": 4149,
  "\u2581stopped": 4150,
  "woe": 4151,
  "\u2581Amegbet\u0254": 4152,
  "\u2581Bia": 4153,
  "\u2581Wona": 4154,
  "\u2581m\u00edagbl\u0254e": 4155,
  "\u2581\u00c0di": 4156,
  "\u2581Ets\u0254": 4157,
  "\u2581George": 4158,
  "\u2581Tsi": 4159,
  "\u2581adzro": 4160,
  "\u2581center": 4161,
  "\u2581k\u0254\u0192e": 4162,
  "\u2581leaving": 4163,
  "\u2581list": 4164,
  "\u2581wokp\u0254e": 4165,
  "\u2581Russell": 4166,
  "\u2581fast": 4167,
  "\u2581fish": 4168,
  "\u2581released": 4169,
  "\u2581adz\u0254gbe\u0256e\u0256e": 4170,
  "\u2581duto\u0192o": 4171,
  "\u2581impossible": 4172,
  "\u2581pattern": 4173,
  "\u2581raise": 4174,
  "\u2581science": 4175,
  "\u2581sinful": 4176,
  "\u2581\u0256en\u025b": 4177,
  "\u258125,": 4178,
  "\u2581bearing": 4179,
  "\u2581waters": 4180,
  "mee": 4181,
  "w\u0254": 4182,
  "\u2581Heb": 4183,
  "\u2581adults": 4184,
  "Ele": 4185,
  "\u2581Meva": 4186,
  "\u2581National": 4187,
  "\u2581a\u0256\u0254": 4188,
  "\u2581expressions": 4189,
  "\u2581megbl\u1ebd": 4190,
  "\u2581ministers": 4191,
  "\u2581n\u00e0de": 4192,
  "\u2581performed": 4193,
  "\u2581woz\u00e3a": 4194,
  "\u2581North": 4195,
  "\u2581Readers": 4196,
  "\u2581lessons": 4197,
  "\u2581miat": 4198,
  "\u2581succeed": 4199,
  "\u2581weak": 4200,
  "All": 4201,
  "F": 4202,
  "\u2581Fiawo": 4203,
  "\u2581Hakpala": 4204,
  "\u2581endeavor": 4205,
  "\u2581slow": 4206,
  "\u2581journey": 4207,
  "\u2581mighty": 4208,
  "\u2581moving": 4209,
  "\u2581nute\u0192ew\u0254lawo": 4210,
  "\u2581connection": 4211,
  "\u2581deeds": 4212,
  "\u2581madze": 4213,
  "\u2581obtain": 4214,
  "\u2581vast": 4215,
  "\u25811992": 4216,
  "\u2581Evelia": 4217,
  "\u2581attendance": 4218,
  "\u2581conflict": 4219,
  "\u2581describe": 4220,
  "\u2581directed": 4221,
  "\u2581dzre": 4222,
  "\u2581hakpala": 4223,
  "\u2581total": 4224,
  "\u25811919": 4225,
  "\u258127,": 4226,
  "\u2581fearing": 4227,
  "\u2581mountains": 4228,
  "\u2581spouse": 4229,
  "\u2581sua": 4230,
  "\u2581woke": 4231,
  "\u2581wum": 4232,
  "\u258146": 4233,
  "\u2581M\u00edekp\u0254": 4234,
  "\u2581agbea": 4235,
  "\u2581agble": 4236,
  "\u2581forced": 4237,
  "\u2581perform": 4238,
  "\u2581Could": 4239,
  "\u2581Mekp\u0254": 4240,
  "\u2581a\u028batso": 4241,
  "\u2581outstanding": 4242,
  "\u2581vevienyenye": 4243,
  "\u2581\u0256ets\u0254leme": 4244,
  "nus\u0254sr\u0254": 4245,
  "\u2581Sara": 4246,
  "\u2581k\u0254mpiuta": 4247,
  "\u2581m\u00edey\u0254": 4248,
  "\u2581n\u00e0nya": 4249,
  "\u2581Rom": 4250,
  "\u2581balanced": 4251,
  "\u2581separate": 4252,
  "\u2581struggle": 4253,
  "\u2581s\u0254leme": 4254,
  "pe": 4255,
  "\u2581conventions": 4256,
  "\u2581d\u0254lawo": 4257,
  "\u2581gbugb\u0254": 4258,
  "\u2581surprise": 4259,
  "\u2581taflatse": 4260,
  "by": 4261,
  "\u258112]": 4262,
  "\u2581Pet": 4263,
  "\u2581Wokp\u0254": 4264,
  "\u2581ill": 4265,
  "\u2581reveals": 4266,
  "\u2581\u0194edze\u0192e": 4267,
  "\u2581Woy\u0254": 4268,
  "\u2581faithfully": 4269,
  "\u2581wedding": 4270,
  "ni": 4271,
  "\u258116]": 4272,
  "\u2581Men\u0254": 4273,
  "\u2581Mew\u0254": 4274,
  "\u2581av\u0254": 4275,
  "\u2581habits": 4276,
  "\u2581k\u0254k\u0254ewo": 4277,
  "\u2581wickedness": 4278,
  "ling": 4279,
  "\u2581Asa": 4280,
  "\u2581Ede": 4281,
  "\u2581Ezra": 4282,
  "\u2581Has": 4283,
  "\u2581dealings": 4284,
  "\u2581dzox\u0254x\u0254": 4285,
  "\u2581mel\u00e9": 4286,
  "\u2581nono": 4287,
  "\u2581carrying": 4288,
  "\u2581temptation": 4289,
  "\u2581travel": 4290,
  "\u2581undeserved": 4291,
  "\u2581freely": 4292,
  "\u2581meto": 4293,
  "\u2581vidz\u0129": 4294,
  "\u258124;": 4295,
  "\u2581Afika": 4296,
  "\u2581M\u00edele": 4297,
  "\u2581William": 4298,
  "\u2581diseases": 4299,
  "\u2581heed": 4300,
  "\u2581n\u00e0se": 4301,
  "\u2581relates": 4302,
  "\u2581ses\u1ebdm": 4303,
  "\u2581yes": 4304,
  "\u25811991": 4305,
  "\u2581China": 4306,
  "\u2581refuge": 4307,
  "\u2581scriptures": 4308,
  "\u2581verses": 4309,
  "\u2581w\u00f2ayi": 4310,
  "dzro": 4311,
  "hether": 4312,
  "\u2581directly": 4313,
  "\u2581megava": 4314,
  "\u2581m\u00edanye": 4315,
  "\u2581superior": 4316,
  "1": 4317,
  "\u258119;": 4318,
  "\u258139": 4319,
  "\u2581Columbia": 4320,
  "\u2581Di": 4321,
  "\u2581WHAT": 4322,
  "\u2581d\u0254m": 4323,
  "\u2581gogo": 4324,
  "\u2581marry": 4325,
  "gb\u0254gb\u0254": 4326,
  "\u2581Hekp": 4327,
  "\u2581enyo": 4328,
  "\u2581manyo": 4329,
  "l\u00e9": 4330,
  "un": 4331,
  "\u2581entitled": 4332,
  "\u2581nu\u014bububu": 4333,
  "\u2581refer": 4334,
  "\u2581tamebubu": 4335,
  "\u2581v\u0254sa": 4336,
  "\u2581yewoa\u0256e": 4337,
  "SIWO": 4338,
  "\u2581Ireland": 4339,
  "\u2581abundance": 4340,
  "\u2581bed": 4341,
  "\u2581ended": 4342,
  "\u2581fia\u0256u\u0192ea": 4343,
  "\u2581m\u00edew\u0254na": 4344,
  "\u2581nu\u014b\u0254\u014bl\u0254": 4345,
  "\u2581render": 4346,
  "\u2581unable": 4347,
  "\u2581Farao": 4348,
  "\u2581damage": 4349,
  "\u2581mie": 4350,
  "\u2581none": 4351,
  "\u2581pointed": 4352,
  "\u2581armies": 4353,
  "\u2581bodies": 4354,
  "\u2581companions": 4355,
  "\u2581granted": 4356,
  "\u2581nyaselawo": 4357,
  "\u2581require": 4358,
  "\u2581tr\u0254na": 4359,
  "\u2581\u014bk\u0254wo": 4360,
  "\u2581assembly": 4361,
  "\u2581boys": 4362,
  "\u2581dwell": 4363,
  "\u2581\u014butetewo": 4364,
  "\u2581Nubabla": 4365,
  "\u2581adz\u0254ge": 4366,
  "\u2581axl\u1ebd": 4367,
  "\u2581nyigba": 4368,
  "\u2581Agben\u0254n\u0254": 4369,
  "\u2581Likewise": 4370,
  "\u2581hate": 4371,
  "\u2581keeps": 4372,
  "\u2581rain": 4373,
  "\u2581rules": 4374,
  "\u2581walked": 4375,
  "ary": 4376,
  "\u2581Yona": 4377,
  "\u2581aboyo": 4378,
  "\u2581grown": 4379,
  "\u2581scholars": 4380,
  "\u2581wok\u0254": 4381,
  "\u2581w\u00f2azu": 4382,
  "\u2581Paris": 4383,
  "\u2581Peace": 4384,
  "\u2581kat\u00e3e": 4385,
  "\u2581mebu": 4386,
  "\u2581witnessing": 4387,
  "\u25813]": 4388,
  "\u2581Edz\u0254": 4389,
  "\u2581majority": 4390,
  "\u2581m\u00eda\u0256u": 4391,
  "\u2581recalls": 4392,
  "\u2581sees": 4393,
  "\u2581terms": 4394,
  "\u2581t\u0254dzi\u028bu": 4395,
  "ment": 4396,
  "\u25812,000": 4397,
  "\u2581ay\u0254": 4398,
  "\u2581cast": 4399,
  "\u2581lying": 4400,
  "\u2581woafia": 4401,
  "\u25812001": 4402,
  "\u2581Beach": 4403,
  "\u2581Farisit\u0254wo": 4404,
  "\u2581Mosaic": 4405,
  "\u2581indicated": 4406,
  "\u2581strengthened": 4407,
  "ph": 4408,
  "vo": 4409,
  "\u2581Nunya": 4410,
  "\u2581assistance": 4411,
  "\u2581asub\u0254": 4412,
  "\u2581calling": 4413,
  "\u2581herself": 4414,
  "\u2581listened": 4415,
  "\u2581nabu": 4416,
  "\u2581national": 4417,
  "\u2581z\u0254z\u0254": 4418,
  "Wo": 4419,
  "\u2581Eyome": 4420,
  "\u2581Pharaoh": 4421,
  "\u2581Yayra": 4422,
  "\u2581couples": 4423,
  "\u2581kesin\u0254t\u0254": 4424,
  "\u2581m\u00edax\u0254": 4425,
  "\u2581wogbugb\u0254": 4426,
  "ya": 4427,
  "\u2581Kaka\u0256edzi": 4428,
  "\u2581applying": 4429,
  "\u2581contribute": 4430,
  "\u2581significant": 4431,
  "\u2581wokp\u0254na": 4432,
  "\u2581yeanya": 4433,
  "\u2581Republic": 4434,
  "\u2581West": 4435,
  "\u2581Wu": 4436,
  "\u2581gb\u0254dz\u0254e": 4437,
  "\u2581peaceful": 4438,
  "\u2581style": 4439,
  "\u2581wind": 4440,
  "\u2581Blema": 4441,
  "\u2581European": 4442,
  "\u2581Nisan": 4443,
  "\u2581dzoe": 4444,
  "\u2581reference": 4445,
  "\u2581tua": 4446,
  "\u2581Cor": 4447,
  "\u2581copies": 4448,
  "\u2581gli": 4449,
  "\u2581miracles": 4450,
  "\u2581moment": 4451,
  "\u2581m\u00edakpe": 4452,
  "\u2581nudidi": 4453,
  "\u2581\u0192ukpo": 4454,
  "out": 4455,
  "\u2581adzra": 4456,
  "\u2581atia": 4457,
  "\u2581culture": 4458,
  "\u2581nyagbl\u0254\u0256ia": 4459,
  "\u2581prophetic": 4460,
  "\u2581ruin": 4461,
  "\u2581thank": 4462,
  "\u2581\u014aku\u0256odzia": 4463,
  "kpe": 4464,
  "\u2581angry": 4465,
  "\u2581belong": 4466,
  "\u2581details": 4467,
  "\u2581didim": 4468,
  "\u2581gbe\u0192\u00e3e": 4469,
  "\u2581ts\u0254ts\u0254ke": 4470,
  "\u2581\u014autifafa": 4471,
  "\u2581\u014bd\u0254": 4472,
  "A\u0192et\u0254": 4473,
  "\u2581FL": 4474,
  "\u2581Study": 4475,
  "\u2581highly": 4476,
  "\u2581mian\u0254": 4477,
  "\u2581nine": 4478,
  "\u2581replied": 4479,
  "\u2581z\u0254h\u025b": 4480,
  "\u2581cares": 4481,
  "\u2581dam": 4482,
  "\u2581tona": 4483,
  "\u2581wild": 4484,
  "\u2581agbagbadzedzewo": 4485,
  "\u2581paid": 4486,
  "\u2581pleased": 4487,
  "\u2581sukuvi": 4488,
  "\u2581w\u00f2to": 4489,
  "\u2581Asi": 4490,
  "\u2581parable": 4491,
  "\u2581widow": 4492,
  "W\u00f2": 4493,
  "\u2581Union": 4494,
  "\u2581critical": 4495,
  "\u2581dear": 4496,
  "\u2581kpe\u0256e\u014but\u0254": 4497,
  "\u2581official": 4498,
  "\u2581supply": 4499,
  "\u2581\u0256eka\u0256eka": 4500,
  "ch": 4501,
  "\u2581T\u0254tr\u0254": 4502,
  "\u2581causing": 4503,
  "\u2581exactly": 4504,
  "\u2581leads": 4505,
  "\u2581\u0256i\u0256i": 4506,
  "nd": 4507,
  "\u2581Never": 4508,
  "\u2581construction": 4509,
  "\u2581nearby": 4510,
  "\u2581ought": 4511,
  "\u2581rulership": 4512,
  "\u2581satisfying": 4513,
  "\u2581solution": 4514,
  "\u2581stone": 4515,
  "5": 4516,
  "ce": 4517,
  "\u25811950": 4518,
  "\u2581Court": 4519,
  "\u2581bui": 4520,
  "\u2581cold": 4521,
  "\u2581injustice": 4522,
  "\u2581seawo": 4523,
  "\u2581stick": 4524,
  "\u014bkeke": 4525,
  "\u2581Students": 4526,
  "\u2581agreed": 4527,
  "\u2581titina": 4528,
  "\u2581\u00d0evi": 4529,
  "we": 4530,
  "\u2581TV": 4531,
  "\u2581background": 4532,
  "\u2581determine": 4533,
  "\u2581illustrate": 4534,
  "\u2581kindly": 4535,
  "\u2581requirements": 4536,
  "\u2581resolve": 4537,
  "\u2581victim": 4538,
  "Amesi": 4539,
  "Be": 4540,
  "\u2581dia": 4541,
  "\u2581goodness": 4542,
  "\u2581laid": 4543,
  "\u2581me\u0256ea": 4544,
  "\u2581mistakes": 4545,
  "\u2581natr\u0254": 4546,
  "\u2581n\u00e8": 4547,
  "\u2581wo\u0256oe": 4548,
  "\u2581yomedzelawo": 4549,
  "\u2581Charles": 4550,
  "\u2581Gideon": 4551,
  "\u2581S\u0254h\u025b": 4552,
  "\u2581cells": 4553,
  "\u2581dzima\u0256itsitsi": 4554,
  "\u2581wogbl\u1ebd": 4555,
  "\u2581yewoate": 4556,
  "alo": 4557,
  "\u2581Sadly": 4558,
  "\u2581hew\u0254": 4559,
  "\u2581minutes": 4560,
  "\u2581reject": 4561,
  "\u2581w\u00f2ax\u0254": 4562,
  "\u2581M\u00edenya": 4563,
  "\u2581Sunday": 4564,
  "\u2581Vi\u0256e": 4565,
  "\u2581apart": 4566,
  "\u2581didime": 4567,
  "\u2581dzon\u0254ameme": 4568,
  "\u2581gb\u0254dz\u0254gb\u0254dz\u0254wo": 4569,
  "\u2581kluviwo": 4570,
  "\u2581tum": 4571,
  "\u2581wogbl\u0254na": 4572,
  "\u25811945": 4573,
  "\u2581Efia": 4574,
  "\u2581Xexe": 4575,
  "\u2581compared": 4576,
  "\u2581e\u014bl\u0254": 4577,
  "\u2581involve": 4578,
  "\u2581mas\u0254mas\u0254": 4579,
  "\u2581nukp\u0254susuwo": 4580,
  "\u2581\u0256etugbi": 4581,
  "\u258120]": 4582,
  "\u2581NYA": 4583,
  "\u2581asieke": 4584,
  "\u2581gb\u00e3t\u0254awo": 4585,
  "\u2581m\u00edabia": 4586,
  "\u2581nutowo": 4587,
  "\u2581proof": 4588,
  "\u2581tena": 4589,
  "du": 4590,
  "ton": 4591,
  "\u2581Abel": 4592,
  "\u2581M\u00ede": 4593,
  "\u2581gb\u0254w\u00f2": 4594,
  "\u2581media": 4595,
  "\u2581sake": 4596,
  "\u2581susui": 4597,
  "ho": 4598,
  "\u2581Yeremiya": 4599,
  "\u2581dz\u0254m": 4600,
  "\u2581finding": 4601,
  "\u2581gomekp\u0254kp\u0254": 4602,
  "\u2581happens": 4603,
  "\u2581heartfelt": 4604,
  "\u2581meka": 4605,
  "\u2581\u014bg\u0254e": 4606,
  "\u2581Da": 4607,
  "\u2581Thessalonians": 4608,
  "\u2581art": 4609,
  "\u2581engage": 4610,
  "\u2581m\u0254z\u0254la": 4611,
  "\u2581potential": 4612,
  "\u2581rights": 4613,
  "\u2581sickness": 4614,
  "\u2581wo\u0256oa": 4615,
  "\u2581Jonah": 4616,
  "\u2581Sodom": 4617,
  "\u2581difficulties": 4618,
  "\u2581fukpekpewo": 4619,
  "\u2581mado": 4620,
  "\u2581natsi": 4621,
  "\u2581wilderness": 4622,
  "\u2581womew\u0254": 4623,
  "\u2581worthy": 4624,
  "Min\u0254": 4625,
  "\u258172": 4626,
  "\u2581beauty": 4627,
  "\u2581brochure": 4628,
  "\u2581remarkable": 4629,
  "\u2581skills": 4630,
  "\u2581\u0192le": 4631,
  "Compare": 4632,
  "ish": 4633,
  "\u0192ea": 4634,
  "\u2581Visit": 4635,
  "\u2581eager": 4636,
  "\u2581fornication": 4637,
  "\u2581mebua": 4638,
  "\u2581scientists": 4639,
  "\u2581touched": 4640,
  "ism": 4641,
  "\u2581firmly": 4642,
  "\u2581meditate": 4643,
  "\u2581sus\u0254eawo": 4644,
  "\u258144.": 4645,
  "\u2581Learn": 4646,
  "\u2581dzidzedzet\u0254e": 4647,
  "\u2581nak\u0254": 4648,
  "\u2581average": 4649,
  "\u2581compare": 4650,
  "\u2581considering": 4651,
  "\u2581factor": 4652,
  "\u2581m\u00edena": 4653,
  "\u2581privileges": 4654,
  "\u2581tanya": 4655,
  "\u2581tender": 4656,
  "\u2581500": 4657,
  "\u2581Duk\u0254a": 4658,
  "\u2581glorious": 4659,
  "\u2581stars": 4660,
  "\u2581woaf\u0254": 4661,
  "Ke": 4662,
  "\u258166": 4663,
  "\u2581Nyate\u0192ea": 4664,
  "\u2581esub\u0254la": 4665,
  "\u2581identified": 4666,
  "\u2581provisions": 4667,
  "\u2581\u0256o\u0256oa": 4668,
  "os": 4669,
  "\u2581Amekawoe": 4670,
  "\u2581Kura": 4671,
  "\u2581Tesalonikat\u0254wo": 4672,
  "\u2581didiwo": 4673,
  "\u2581dzrom": 4674,
  "\u2581klo": 4675,
  "\u2581occasions": 4676,
  "am": 4677,
  "gbegbe": 4678,
  "\u2581Am": 4679,
  "\u2581Esiawo": 4680,
  "\u2581Look": 4681,
  "\u2581Surely": 4682,
  "\u2581accomplished": 4683,
  "\u2581mothers": 4684,
  "\u2581physically": 4685,
  "\u2581rebellion": 4686,
  "\u2581wonaa": 4687,
  "\u2581\u028b\u0129": 4688,
  "\u2581Micah": 4689,
  "\u2581Yuniv\u025bsiti": 4690,
  "\u2581afa": 4691,
  "\u2581al\u0254dzed\u0254w\u0254\u0192ea": 4692,
  "\u2581d\u0254w\u0254\u0256ui": 4693,
  "\u2581woawu": 4694,
  "\u2581\u0256okuit\u0254didi": 4695,
  "son": 4696,
  "\u2581Christmas": 4697,
  "\u2581adultery": 4698,
  "\u2581instructions": 4699,
  "\u2581kesin\u0254t\u0254wo": 4700,
  "\u2581upright": 4701,
  "They": 4702,
  "\u2581Dzia": 4703,
  "\u2581dzigb\u0254\u0256i": 4704,
  "\u2581d\u0254d\u0254": 4705,
  "\u2581ekpe": 4706,
  "\u2581foundation": 4707,
  "\u2581kekl\u1ebd": 4708,
  "\u2581nuxexl\u1ebd": 4709,
  "\u2581serves": 4710,
  "\u2581successfully": 4711,
  "\u2581writings": 4712,
  "\u2581yewoana": 4713,
  "\u2581Helat\u0254wo": 4714,
  "\u2581bond": 4715,
  "\u2581determination": 4716,
  "\u2581discernment": 4717,
  "\u2581gbe\u0256eka": 4718,
  "\u2581hamewo": 4719,
  "\u2581inhabited": 4720,
  "\u2581male": 4721,
  "\u2581marvelous": 4722,
  "\u2581reminded": 4723,
  "\u2581weight": 4724,
  "\u2581yewoats\u0254": 4725,
  "\u2581Assembly": 4726,
  "\u2581M\u00e8ga": 4727,
  "\u2581Simon": 4728,
  "\u2581Truth": 4729,
  "\u2581cell": 4730,
  "\u2581constant": 4731,
  "\u2581dz\u0254gbev\u0254": 4732,
  "\u2581gba\u0256egbe": 4733,
  "\u2581silver": 4734,
  "\u2581straight": 4735,
  "\u2581traveled": 4736,
  "\u2581vidzidzi": 4737,
  "K": 4738,
  "\u2581Bill": 4739,
  "\u2581Dzila": 4740,
  "\u2581additional": 4741,
  "\u2581madzemadzee": 4742,
  "\u2581m\u00edeka": 4743,
  "\u2581nu\u014bl\u0254\u0256iwo": 4744,
  "\u2581pagan": 4745,
  "\u2581per": 4746,
  "\u2581region": 4747,
  "\u2581relationships": 4748,
  "\u2581\u0191ome": 4749,
  "\u2581\u0263ea\u0256e\u0263i": 4750,
  "\u25812002": 4751,
  "\u2581inheritance": 4752,
  "\u2581yea\u0256o": 4753,
  "\u25814]": 4754,
  "\u2581G\u00e3t\u0254": 4755,
  "\u2581Nigeria": 4756,
  "\u2581altar": 4757,
  "\u2581foot": 4758,
  "\u2581lo": 4759,
  "\u2581z\u0254na": 4760,
  "\u2581atsr\u0254": 4761,
  "\u2581ave": 4762,
  "\u2581sr\u00e3": 4763,
  "\u2581treasure": 4764,
  "\u2581woadi": 4765,
  "\u2581woatu": 4766,
  "\u2581Ministry": 4767,
  "\u2581Nehemiah": 4768,
  "\u2581comforting": 4769,
  "\u2581indefinite": 4770,
  "\u2581nyagbl\u0254\u0256ilawo": 4771,
  "\u2581woawoe": 4772,
  "\u2581Kpekpe\u0256e\u014bu": 4773,
  "\u2581N\u0254viny\u0254nu": 4774,
  "\u2581customs": 4775,
  "\u2581n\u00e8\u0256o": 4776,
  "\u2581pre": 4777,
  "\u2581wozu": 4778,
  "\u258131,": 4779,
  "\u2581Mixa": 4780,
  "\u2581clothing": 4781,
  "\u2581dzidz\u0254t\u0254e": 4782,
  "\u2581huge": 4783,
  "\u2581rate": 4784,
  "\u2581secure": 4785,
  "\u2581souls": 4786,
  "\u2581vovovoawo": 4787,
  "\u028bu": 4788,
  "\u2581l\u00e9le": 4789,
  "\u2581resulted": 4790,
  "\u2581t\u1ebde": 4791,
  "\u2581visiting": 4792,
  "\u2581viw\u00f2": 4793,
  "\u2581Armageddon": 4794,
  "\u2581sad": 4795,
  "\u2581\u014butil\u00e3menuwo": 4796,
  "\u2581Enya": 4797,
  "\u2581S\u0254lemeha": 4798,
  "\u2581level": 4799,
  "\u2581n\u00e0di": 4800,
  "\u2581site": 4801,
  "\u2581surprised": 4802,
  "\u2581yeakpe": 4803,
  "w\u00f2a": 4804,
  "\u2581Ekp\u0254": 4805,
  "\u2581amehehe": 4806,
  "\u2581apparently": 4807,
  "\u2581arranged": 4808,
  "\u2581clergy": 4809,
  "\u2581exists": 4810,
  "\u2581increasing": 4811,
  "\u2581nase": 4812,
  "\u2581path": 4813,
  "\u2581primary": 4814,
  "\u2581top": 4815,
  "ist": 4816,
  "sr\u00e3": 4817,
  "\u2581Ta\u0256odzinu": 4818,
  "\u2581UN": 4819,
  "\u2581ahana": 4820,
  "\u2581balance": 4821,
  "\u2581capital": 4822,
  "\u2581remove": 4823,
  "w\u0254lawo": 4824,
  "\u2581Elisa": 4825,
  "\u2581W\u0254w\u0254": 4826,
  "\u2581Zion": 4827,
  "\u2581ark": 4828,
  "\u2581dzidzi\u0256edzi": 4829,
  "\u2581private": 4830,
  "\u2581variety": 4831,
  "\u2581y\u0254a": 4832,
  "Look": 4833,
  "\u014bu": 4834,
  "\u2581Often": 4835,
  "\u2581gb\u0254dz\u0254gb\u0254dz\u0254": 4836,
  "\u2581nen\u0254": 4837,
  "\u2581\u014ak\u0254": 4838,
  "\u2581burden": 4839,
  "\u2581houses": 4840,
  "\u2581m\u00edatsi": 4841,
  "\u2581nanyo": 4842,
  "\u2581tax": 4843,
  "\u2581w\u0254la": 4844,
  "\u258119]": 4845,
  "\u25812010": 4846,
  "\u258144": 4847,
  "\u2581Accra": 4848,
  "\u2581Gbedodo\u0256a": 4849,
  "\u2581corruption": 4850,
  "\u2581z\u0254z\u0254m": 4851,
  "\u2581Dictionary": 4852,
  "\u2581Kristmas": 4853,
  "\u2581appreciated": 4854,
  "\u2581dignity": 4855,
  "\u2581dzedze": 4856,
  "\u2581mawunya": 4857,
  "\u2581midst": 4858,
  "\u2581touch": 4859,
  "\u2581w\u0254lawo": 4860,
  "\u2581yaa": 4861,
  "\u2581\u0263edze\u0192e": 4862,
  "Jesus": 4863,
  "\u258130,": 4864,
  "\u2581Long": 4865,
  "\u2581Nuwo": 4866,
  "\u2581dzimet\u0254tr\u0254": 4867,
  "\u2581innocent": 4868,
  "\u2581maml\u025ba": 4869,
  "\u2581plant": 4870,
  "\u2581relations": 4871,
  "\u2581rulers": 4872,
  "\u2581susua": 4873,
  "\u2581task": 4874,
  "\u2581thy": 4875,
  "\u2581witnesses": 4876,
  "ver": 4877,
  "\u258134,": 4878,
  "\u2581Dad": 4879,
  "\u2581Kpe": 4880,
  "\u2581atikev\u0254": 4881,
  "\u2581influenced": 4882,
  "\u2581tsitretsitsia": 4883,
  "\u2581wome\u0256e": 4884,
  "\u2581wot\u0254": 4885,
  "\u2581Korinto": 4886,
  "\u2581Nu\u0256u\u0256u": 4887,
  "\u2581Wobu": 4888,
  "\u2581abandoned": 4889,
  "\u2581d\u0254w\u0254na": 4890,
  "\u2581street": 4891,
  "\u2581useful": 4892,
  "\u2581weapons": 4893,
  "\u2581woatsi": 4894,
  "\u2581\u0256okuisi": 4895,
  "dze": 4896,
  "\u2581Titus": 4897,
  "\u2581d\u0254l\u00e9kui": 4898,
  "\u2581motivated": 4899,
  "\u2581ship": 4900,
  "\u2581song": 4901,
  "\u2581spirituality": 4902,
  "\u2581wotia": 4903,
  "mo": 4904,
  "\u2581Didi": 4905,
  "\u2581Samaria": 4906,
  "\u2581ahedada": 4907,
  "\u2581anxious": 4908,
  "\u2581aspect": 4909,
  "\u2581conducted": 4910,
  "\u2581signs": 4911,
  "\u2581sinned": 4912,
  "\u2581woada": 4913,
  "\u258122;": 4914,
  "\u2581Heights": 4915,
  "\u2581allows": 4916,
  "\u2581declare": 4917,
  "\u2581sus\u0254": 4918,
  "As": 4919,
  "\u2581Nyatakaka": 4920,
  "\u2581Second": 4921,
  "\u2581affairs": 4922,
  "\u2581agbo": 4923,
  "\u2581audience": 4924,
  "\u2581grief": 4925,
  "\u2581numerous": 4926,
  "\u258127]": 4927,
  "\u2581Du": 4928,
  "\u2581LA": 4929,
  "\u2581konyi": 4930,
  "\u2581mienye": 4931,
  "\u2581m\u00ededzro": 4932,
  "\u2581provision": 4933,
  "\u2581punishment": 4934,
  "\u2581tetekp\u0254wo": 4935,
  "\u2581threat": 4936,
  "Esia": 4937,
  "Menye": 4938,
  "mele": 4939,
  "\u2581edzilawo": 4940,
  "\u2581inner": 4941,
  "\u2581planet": 4942,
  "How": 4943,
  "\u2581Rd": 4944,
  "\u2581anymore": 4945,
  "\u2581gb\u0254gb\u0254menu\u0256u\u0256u": 4946,
  "\u2581medz\u0254": 4947,
  "\u2581quick": 4948,
  "\u2581woku": 4949,
  "BY": 4950,
  "SR\u0186": 4951,
  "n\u0254n\u0254": 4952,
  "\u2581Gbe\u0256eka": 4953,
  "\u2581familiar": 4954,
  "\u2581methods": 4955,
  "\u2581officials": 4956,
  "\u2581smoking": 4957,
  "\u2581\u014butigbal\u1ebd": 4958,
  "\u2581Harmagedon": 4959,
  "\u2581Hosea": 4960,
  "\u2581Mo": 4961,
  "\u2581Wodo": 4962,
  "\u2581abundant": 4963,
  "\u2581dzidzimevi": 4964,
  "\u2581m\u00edel\u00e9": 4965,
  "\u2581release": 4966,
  "\u258149": 4967,
  "\u25814;": 4968,
  "\u2581Out": 4969,
  "\u2581adult": 4970,
  "\u2581attitudes": 4971,
  "\u2581concerns": 4972,
  "\u2581offers": 4973,
  "\u2581rendered": 4974,
  "\u2581sold": 4975,
  "\u2581trip": 4976,
  "\u2581vam": 4977,
  "\u2581wo\u0192oa": 4978,
  "8": 4979,
  "\u2581Eventually": 4980,
  "\u2581Sukua": 4981,
  "\u2581selfish": 4982,
  "\u2581t\u0254e": 4983,
  "\u2581z\u00e3na": 4984,
  "tic": 4985,
  "\u2581TX": 4986,
  "\u2581conscious": 4987,
  "\u2581p": 4988,
  "\u2581tribes": 4989,
  "\u2581Almighty": 4990,
  "\u2581advance": 4991,
  "\u2581dahe": 4992,
  "\u2581dangers": 4993,
  "\u2581doctrine": 4994,
  "\u2581klass": 4995,
  "\u2581n\u00e0na": 4996,
  "\u2581plans": 4997,
  "\u2581stake": 4998,
  "dodo": 4999,
  "\u2581acted": 5000,
  "\u2581clothes": 5001,
  "\u2581development": 5002,
  "\u2581m\u00edaz\u00e3": 5003,
  "\u2581sat": 5004,
  "\u2581turning": 5005,
  "ine": 5006,
  "vention": 5007,
  "\u2581El": 5008,
  "\u2581Explain": 5009,
  "\u2581Flood": 5010,
  "\u2581Nyagbl\u0254\u0256ila": 5011,
  "\u2581River": 5012,
  "\u2581ahasiw\u0254w\u0254": 5013,
  "\u2581glad": 5014,
  "\u2581kluvinyenye": 5015,
  "\u2581opposite": 5016,
  "\u2581phone": 5017,
  "\u2581radio": 5018,
  "bu": 5019,
  "\u25811970": 5020,
  "\u2581Compare": 5021,
  "\u2581Whatever": 5022,
  "\u2581d\u0254wuame": 5023,
  "\u2581failure": 5024,
  "\u2581madeblibowo": 5025,
  "zu": 5026,
  "\u2581Dzi\u0256u\u0256ua": 5027,
  "\u2581Kain": 5028,
  "\u2581ahakp\u0254": 5029,
  "\u2581approached": 5030,
  "\u2581hell": 5031,
  "\u2581hiahi\u00e3": 5032,
  "\u2581remaining": 5033,
  "\u2581scholar": 5034,
  "\u2581wuwu": 5035,
  "ant": 5036,
  "za": 5037,
  "\u2581Cain": 5038,
  "\u2581Rutherford": 5039,
  "\u2581Wo\u014bl\u0254": 5040,
  "\u2581lododo": 5041,
  "\u2581nu\u014bl\u0254\u0256ia": 5042,
  "\u2581refuse": 5043,
  "\u2581skin": 5044,
  "great": 5045,
  "ian": 5046,
  "\u25811940": 5047,
  "\u25812011": 5048,
  "\u2581Recall": 5049,
  "\u2581amegbet\u0254\u0192omea": 5050,
  "\u2581bound": 5051,
  "\u2581career": 5052,
  "\u2581caught": 5053,
  "\u2581shepherds": 5054,
  "\u2581\u014buta": 5055,
  "gakp\u0254t\u0254": 5056,
  "\u2581150": 5057,
  "\u2581Exl\u1ebdlawo": 5058,
  "\u2581Woawo": 5059,
  "\u2581blibomademade": 5060,
  "\u2581foto": 5061,
  "\u2581manyamanya": 5062,
  "\u2581nute\u0256eamedzi": 5063,
  "\u2581tem": 5064,
  "\u2581tribe": 5065,
  "g\u00e3": 5066,
  "\u2581Service": 5067,
  "\u2581arise": 5068,
  "\u2581demonstrated": 5069,
  "\u2581fit": 5070,
  "\u2581kum": 5071,
  "\u2581woahe": 5072,
  "Keep": 5073,
  "\u2581adzo": 5074,
  "\u2581bel\u00e9le": 5075,
  "\u2581broken": 5076,
  "\u2581claimed": 5077,
  "\u2581corrupt": 5078,
  "\u2581suicide": 5079,
  "\u2581\u00c8\u0256o": 5080,
  "\u2581\u014b\u0254": 5081,
  "wu": 5082,
  "\u2581Joel": 5083,
  "\u2581Know": 5084,
  "\u2581Tu": 5085,
  "\u2581af\u0254wo": 5086,
  "\u2581discern": 5087,
  "\u2581mention": 5088,
  "\u2581ruling": 5089,
  "\u2581services": 5090,
  "\u2581\u0192ewuivi": 5091,
  "\u2581Poland": 5092,
  "\u2581chapters": 5093,
  "\u2581kpl\u0254la": 5094,
  "\u2581labor": 5095,
  "\u2581reasoning": 5096,
  "\u2581suggestions": 5097,
  "\u2581w\u00f2tsi": 5098,
  "\u2581yeax\u0254": 5099,
  "\u2581\u00c0kp\u0254": 5100,
  "\u2581\u014bkui": 5101,
  "ate": 5102,
  "\u00e9": 5103,
  "\u2581Enyo": 5104,
  "\u2581N\u0254vi": 5105,
  "\u2581grasp": 5106,
  "\u2581nal\u00e9": 5107,
  "\u2581nya\u0192o\u0256eamenu": 5108,
  "\u2581painful": 5109,
  "\u2581reaction": 5110,
  "\u2581\u028b\u0254tru": 5111,
  "Yesu": 5112,
  "\u2581Elisha": 5113,
  "\u2581arrested": 5114,
  "\u2581commission": 5115,
  "\u2581exposed": 5116,
  "\u2581root": 5117,
  "\u2581telefon": 5118,
  "\u2581w\u00f2n\u0254a": 5119,
  "\u2581w\u00f2tr\u0254": 5120,
  "our": 5121,
  "\u2581ears": 5122,
  "\u2581nadz\u0254": 5123,
  "\u2581w\u00f2agbl\u0254": 5124,
  "Nya": 5125,
  "\u0192o": 5126,
  "\u2581British": 5127,
  "\u2581Esther": 5128,
  "\u2581Pentecost": 5129,
  "\u2581Religion": 5130,
  "\u2581Upon": 5131,
  "\u2581covered": 5132,
  "\u2581dwelling": 5133,
  "\u2581reaching": 5134,
  "\u2581speaker": 5135,
  "\u2581spirits": 5136,
  "\u2581tamesusuwo": 5137,
  "\u2581wohe": 5138,
  "ies": 5139,
  "\u2581Caesar": 5140,
  "\u2581Persia": 5141,
  "\u2581Protestant": 5142,
  "\u2581fathers": 5143,
  "\u2581nudz\u0254dz\u0254wo": 5144,
  "\u2581observes": 5145,
  "7": 5146,
  "ul": 5147,
  "\u2581Luther": 5148,
  "\u2581commit": 5149,
  "\u2581content": 5150,
  "\u2581domee": 5151,
  "\u2581dream": 5152,
  "\u2581fefe": 5153,
  "\u2581fiazikpui": 5154,
  "\u2581mal\u0254": 5155,
  "\u2581rock": 5156,
  "\u2581suddenly": 5157,
  "\u2581sukuviawo": 5158,
  "\u2581w\u00f2a\u0256u": 5159,
  ",\"": 5160,
  "ivic": 5161,
  "\u258111]": 5162,
  "\u25812009": 5163,
  "\u2581Knorr": 5164,
  "\u2581Thomas": 5165,
  "\u2581diet": 5166,
  "\u2581district": 5167,
  "\u2581excellent": 5168,
  "\u2581hew\u0254a": 5169,
  "\u2581holding": 5170,
  "\u2581otherwise": 5171,
  "\u2581repentance": 5172,
  "\u2581yewoakpe": 5173,
  "\u2581yra": 5174,
  "\u2581\u014aui": 5175,
  "\u2581\u014bl\u0254la": 5176,
  "\u2581\u0192oe": 5177,
  "\u2581\u028bli": 5178,
  "fa": 5179,
  "\u2581differ": 5180,
  "\u2581focused": 5181,
  "\u2581restored": 5182,
  "\u2581willingly": 5183,
  "\u2581w\u00f2w\u0254na": 5184,
  "\u2581\u014bukekl\u1ebd": 5185,
  "sub\u0254la": 5186,
  "\u0256it\u0254": 5187,
  "\u2581Biabia": 5188,
  "\u2581Menya": 5189,
  "\u2581Tito": 5190,
  "\u2581fewu": 5191,
  "\u2581lolome": 5192,
  "\u2581possess": 5193,
  "\u2581price": 5194,
  "\u2581represent": 5195,
  "\u2581resources": 5196,
  "\u2581wall": 5197,
  "\u2581wipe": 5198,
  "\u25812012": 5199,
  "\u2581Anyi": 5200,
  "\u2581Sovereign": 5201,
  "\u2581akogo": 5202,
  "\u2581harmful": 5203,
  "\u2581motivate": 5204,
  "\u2581sinners": 5205,
  "\u2581wrath": 5206,
  "for": 5207,
  "\u2581AKPA": 5208,
  "\u2581Dzi\u0256uha": 5209,
  "\u2581apostolowo": 5210,
  "\u2581lovers": 5211,
  "\u2581qualified": 5212,
  "\u2581river": 5213,
  "\u2581supported": 5214,
  "\u2581survey": 5215,
  "\u2581writers": 5216,
  "\u2581\u0256\u0254ktawo": 5217,
  "but": 5218,
  "pa": 5219,
  "\u2581Esau": 5220,
  "\u2581Septuagint": 5221,
  "\u2581gratitude": 5222,
  "\u2581hair": 5223,
  "\u2581nudidiwo": 5224,
  "\u2581nunye": 5225,
  "\u2581\u0256e\u0256ekp\u0254kp\u0254": 5226,
  "ng": 5227,
  "\u2581ahasi": 5228,
  "\u2581ahosi": 5229,
  "\u2581atam": 5230,
  "\u2581d\u0254w\u0254nu": 5231,
  "\u2581encourages": 5232,
  "\u2581generally": 5233,
  "\u2581megali": 5234,
  "\u2581noticed": 5235,
  "\u2581plan": 5236,
  "\u2581won": 5237,
  "\u2581\u0194eto\u0256o\u0192e": 5238,
  "\u2581\u0263lidodo": 5239,
  "\u2581Bubuwo": 5240,
  "\u2581Dzilawo": 5241,
  "\u2581Halls": 5242,
  "\u2581Scripture": 5243,
  "\u2581S\u0254": 5244,
  "\u2581associate": 5245,
  "\u2581deaf": 5246,
  "\u2581gb\u0254dz\u0254": 5247,
  "\u2581invisible": 5248,
  "\u2581kpekpea": 5249,
  "\u2581m\u00edada": 5250,
  "\u2581rely": 5251,
  "\u2581se\u0256o\u0192e": 5252,
  "\u2581w\u00f2gbl\u1ebd": 5253,
  "one": 5254,
  "\u2581III": 5255,
  "\u2581L\u00e9": 5256,
  "\u2581Promised": 5257,
  "\u2581begotten": 5258,
  "\u2581computer": 5259,
  "\u2581cross": 5260,
  "\u2581involving": 5261,
  "\u2581naku": 5262,
  "\u2581plague": 5263,
  "\u2581suggest": 5264,
  "age": 5265,
  "ck": 5266,
  "\u2581Abram": 5267,
  "\u2581Philip": 5268,
  "\u2581disaster": 5269,
  "\u2581gather": 5270,
  "\u2581gbedasi": 5271,
  "\u2581reduce": 5272,
  "\u2581\u014bud\u0254w\u0254w\u0254": 5273,
  "\u2581Yudea": 5274,
  "\u2581adegbe": 5275,
  "\u2581gathering": 5276,
  "\u2581godo": 5277,
  "\u2581gradually": 5278,
  "\u2581miaw\u0254": 5279,
  "\u2581principal": 5280,
  "\u2581sinu": 5281,
  "\u2581estimated": 5282,
  "\u2581mam\u00e3": 5283,
  "\u2581n\u00e0gbl\u0254": 5284,
  "\u2581removed": 5285,
  "dzedze": 5286,
  "\u25812008": 5287,
  "\u2581E\u0192o": 5288,
  "\u2581M\u00edetr\u0254": 5289,
  "\u2581NE": 5290,
  "\u2581assignments": 5291,
  "\u2581played": 5292,
  "\u2581wein": 5293,
  "\u2581w\u0254d\u0254\u0256eamedzi": 5294,
  "\u2581\u0256\u0254\u0256\u0254\u0256o": 5295,
  "k\u0254": 5296,
  "\u25811980": 5297,
  "\u2581Pentekoste": 5298,
  "\u2581gali": 5299,
  "\u2581m\u00edakp\u0254e": 5300,
  "\u2581na\u0256u": 5301,
  "\u2581store": 5302,
  "\u2581van\u025b": 5303,
  "\u2581viewpoint": 5304,
  "\u2581wod\u0254": 5305,
  "\u2581w\u00f2afia": 5306,
  "\u2581w\u0254\u0263i": 5307,
  "\u2581xexemenunya": 5308,
  "\u2581\u014bu\u028ba\u028b\u00e3": 5309,
  "\u258175": 5310,
  "\u2581Nufiala": 5311,
  "\u2581Says": 5312,
  "\u2581Wova": 5313,
  "\u2581anukware\u0256i\u0256i": 5314,
  "\u2581dust": 5315,
  "\u2581d\u0254n\u0254": 5316,
  "\u2581megan\u0254": 5317,
  "\u2581m\u00ededa": 5318,
  "\u2581nuvevi": 5319,
  "\u2581\u0263eawokat\u00e3\u0263i": 5320,
  "\u258111201": 5321,
  "\u2581Further": 5322,
  "\u2581Richard": 5323,
  "\u2581al\u1ebdkpl\u0254la": 5324,
  "\u2581hatsotso": 5325,
  "\u2581leaves": 5326,
  "\u2581nato": 5327,
  "\u2581struck": 5328,
  "\u2581t\u0254sisi": 5329,
  "\u2581woazu": 5330,
  "\u2581y\u0254y\u0254": 5331,
  "\u2581\u014bkekeawo": 5332,
  "\u2581Nathan": 5333,
  "\u2581Shortly": 5334,
  "\u2581blanuil\u00e9le": 5335,
  "\u2581degree": 5336,
  "\u2581reputation": 5337,
  "\u2581tsu": 5338,
  "\u2581wondered": 5339,
  "\u2581Way": 5340,
  "\u2581etsi": 5341,
  "\u2581except": 5342,
  "\u2581invite": 5343,
  "\u2581located": 5344,
  "\u2581tend": 5345,
  "\u2581thereafter": 5346,
  "men": 5347,
  "\u2581Anyo": 5348,
  "\u2581Human": 5349,
  "\u2581San": 5350,
  "\u2581assures": 5351,
  "\u2581companion": 5352,
  "\u2581gbedasia": 5353,
  "\u2581hardly": 5354,
  "\u2581kafu": 5355,
  "\u2581n\u00e0do": 5356,
  "\u2581standard": 5357,
  "\u2581t\u0254a": 5358,
  "\u2581visits": 5359,
  "\u2581warns": 5360,
  "\u2581\u028buu": 5361,
  "ru": 5362,
  "\u2581Chronicles": 5363,
  "\u2581dzikp\u0254lawo": 5364,
  "\u2581maml\u025b": 5365,
  "\u2581mas\u0254mas\u0254wo": 5366,
  "\u2581moon": 5367,
  "\u2581quit": 5368,
  "\u2581represented": 5369,
  "\u2581victory": 5370,
  "\u2581\u014bl\u0254e": 5371,
  "\u258139.": 5372,
  "\u2581760,": 5373,
  "\u2581Fear": 5374,
  "\u2581Journal": 5375,
  "\u2581attempt": 5376,
  "\u2581gava": 5377,
  "\u2581nyametsotsowo": 5378,
  "\u2581n\u00e0yi": 5379,
  "\u2581persecuted": 5380,
  "\u2581properly": 5381,
  "\u2581recall": 5382,
  "\u2581terrible": 5383,
  "\u2581\u014augbedodonyigba": 5384,
  "\u2581Egiptet\u0254wo": 5385,
  "\u2581Medi": 5386,
  "\u2581beast": 5387,
  "\u2581birds": 5388,
  "\u2581healing": 5389,
  "\u2581nunyalawo": 5390,
  "\u2581nyagbl\u0254\u0256iwo": 5391,
  "\u2581nyate\u0192enyenye": 5392,
  "adr\u0254": 5393,
  "kp\u0254": 5394,
  "rs": 5395,
  "\u2581Following": 5396,
  "\u2581Gentiles": 5397,
  "\u2581Medo": 5398,
  "\u2581NYATI": 5399,
  "\u2581Nutome": 5400,
  "\u2581afterward": 5401,
  "\u2581kutsetse": 5402,
  "\u2581meaningful": 5403,
  "\u2581mild": 5404,
  "\u2581mu": 5405,
  "\u2581scene": 5406,
  "\u2581stories": 5407,
  "\u2581w\u00f2kp\u0254a": 5408,
  "agbe": 5409,
  "\u2581Eli": 5410,
  "\u2581Nenemae": 5411,
  "\u2581Russian": 5412,
  "\u2581Tsi\u0256\u0254\u0256\u0254a": 5413,
  "\u2581chance": 5414,
  "\u2581female": 5415,
  "\u2581fighting": 5416,
  "\u2581meku": 5417,
  "\u2581prominent": 5418,
  "\u2581readily": 5419,
  "\u2581thanks": 5420,
  "\u2581w\u00f2bu": 5421,
  "ci": 5422,
  "\u2581mildness": 5423,
  "\u2581possibly": 5424,
  "Edze": 5425,
  "\u258137.": 5426,
  "\u2581COVER": 5427,
  "\u2581Medze": 5428,
  "\u2581Messianic": 5429,
  "\u2581complex": 5430,
  "\u2581dark": 5431,
  "\u2581egbl\u0254m": 5432,
  "\u2581historian": 5433,
  "\u2581property": 5434,
  "\u2581proud": 5435,
  "\u2581ten\u0254n\u0254": 5436,
  "\u2581tradition": 5437,
  "ous": 5438,
  "\u258151": 5439,
  "\u2581Amesiame": 5440,
  "\u2581Sidzedze": 5441,
  "\u2581distance": 5442,
  "\u2581d\u0254n\u0254wo": 5443,
  "\u2581pressures": 5444,
  "\u2581project": 5445,
  "\u2581w\u00f2atr\u0254": 5446,
  "\u2581approved": 5447,
  "\u2581dzinu": 5448,
  "\u2581finished": 5449,
  "\u2581size": 5450,
  "\u25813,000": 5451,
  "\u258156": 5452,
  "\u2581Corinth": 5453,
  "\u2581Kor": 5454,
  "\u2581Switzerland": 5455,
  "\u2581courageous": 5456,
  "\u2581employment": 5457,
  "\u2581yeyee": 5458,
  "\u2581Jonathan": 5459,
  "\u2581Lazaro": 5460,
  "\u2581Welcome": 5461,
  "\u2581Zechariah": 5462,
  "\u2581arrangements": 5463,
  "\u2581broke": 5464,
  "\u2581error": 5465,
  "\u2581ethnic": 5466,
  "\u2581exert": 5467,
  "\u2581havi": 5468,
  "\u2581literally": 5469,
  "\u2581yewoa\u0256o": 5470,
  "\u2581\u014ag\u0254": 5471,
  "\u2581\u028b\u00e3e": 5472,
  "\u25811930": 5473,
  "\u2581Henry": 5474,
  "\u2581Josephus": 5475,
  "\u2581Name": 5476,
  "\u2581Nukawoe": 5477,
  "\u2581calm": 5478,
  "\u2581charge": 5479,
  "\u2581kpoo": 5480,
  "\u2581repeatedly": 5481,
  "\u2581sang": 5482,
  "\u2581species": 5483,
  "\u2581widely": 5484,
  "\u2581\u014aus\u1ebdkat\u00e3t\u0254": 5485,
  "ty": 5486,
  "\u2581Kronika": 5487,
  "\u2581Martha": 5488,
  "\u2581Netherlands": 5489,
  "\u2581Nudz\u0254dz\u0254": 5490,
  "\u2581Te\u0192e": 5491,
  "\u2581abilities": 5492,
  "\u2581arms": 5493,
  "\u2581miakp\u0254": 5494,
  "\u2581n\u0254m": 5495,
  "\u2581passing": 5496,
  "\u2581permanent": 5497,
  "\u2581\u00e8w\u0254": 5498,
  "d\u0254la": 5499,
  "nyi": 5500,
  "\u258110;": 5501,
  "\u2581Aaron": 5502,
  "\u2581black": 5503,
  "\u2581differences": 5504,
  "\u2581finish": 5505,
  "\u2581fleshly": 5506,
  "\u2581patients": 5507,
  "\u2581possessions": 5508,
  "\u2581ran": 5509,
  "\u2581scientific": 5510,
  "\u2581wots\u0254e": 5511,
  "\u2581xea": 5512,
  "\u2581\u0192omeviwo": 5513,
  "\u2581\u25c6": 5514,
  "483,": 5515,
  "bo": 5516,
  "\u25811960": 5517,
  "\u258153": 5518,
  "\u2581Him": 5519,
  "\u2581Numekula": 5520,
  "\u2581brief": 5521,
  "\u2581buna": 5522,
  "\u2581civil": 5523,
  "\u2581season": 5524,
  "\u2581sub\u0254sub\u0254hakpl\u0254": 5525,
  "\u2581tufafa": 5526,
  "\u2581yeava": 5527,
  "\u2581\u0256ewoe": 5528,
  "ah": 5529,
  "will": 5530,
  "\u2581Efeso": 5531,
  "\u2581Nunana": 5532,
  "\u2581a\u028bu": 5533,
  "\u2581hot": 5534,
  "\u2581mav\u0254mav\u0254": 5535,
  "\u2581outcome": 5536,
  "\u2581pioneering": 5537,
  "\u2581printed": 5538,
  "\u2581rightly": 5539,
  "Nusi": 5540,
  "\u25811939": 5541,
  "\u2581607": 5542,
  "\u2581admits": 5543,
  "\u2581begins": 5544,
  "\u2581commandment": 5545,
  "\u2581completed": 5546,
  "\u2581deliverance": 5547,
  "\u2581fiafia": 5548,
  "\u2581repentant": 5549,
  "\u2581stayed": 5550,
  "\u2581unclean": 5551,
  "Mia\u0192e": 5552,
  "ca": 5553,
  "so": 5554,
  "tra": 5555,
  "\u2581Biana": 5556,
  "\u2581Tututu": 5557,
  "\u2581add": 5558,
  "\u2581attacks": 5559,
  "\u2581didi\u0192e": 5560,
  "\u2581discouraged": 5561,
  "\u2581eku": 5562,
  "\u2581pornography": 5563,
  "\u2581remind": 5564,
  "\u2581trade": 5565,
  "\u2581t\u0254sisia": 5566,
  "W": 5567,
  "\u2581agl\u00e3dzedze": 5568,
  "\u2581fam": 5569,
  "\u2581literal": 5570,
  "\u2581manyomanyo": 5571,
  "\u2581nunyiame": 5572,
  "\u2581reflected": 5573,
  "\u2581routine": 5574,
  "\u2581safety": 5575,
  "\u2581wosi": 5576,
  "M\u00eda": 5577,
  "\u2581Philippines": 5578,
  "\u2581Sanhedrin": 5579,
  "\u2581custom": 5580,
  "\u2581dzi\u0192owo": 5581,
  "\u2581ew\u0254w\u0254": 5582,
  "\u2581guilty": 5583,
  "\u2581intense": 5584,
  "\u2581numbers": 5585,
  "\u2581professor": 5586,
  "\u2581suet\u0254": 5587,
  "\u2581talks": 5588,
  "\u2581tobacco": 5589,
  "\u2581viny\u0254nu": 5590,
  "\u2581womede": 5591,
  "\u2581zimen\u0254la": 5592,
  "\u2581Doing": 5593,
  "\u2581Ex\u0254": 5594,
  "\u2581Pilato": 5595,
  "\u2581Wonya": 5596,
  "\u2581asks": 5597,
  "\u2581d\u0254w\u0254nawo": 5598,
  "\u2581endured": 5599,
  "\u2581ignore": 5600,
  "\u2581leader": 5601,
  "\u2581memory": 5602,
  "\u2581m\u0254\u0256elawo": 5603,
  "\u2581n\u00e0dze": 5604,
  "\u2581pleasant": 5605,
  "Mina": 5606,
  "ting": 5607,
  "\u2581accompany": 5608,
  "\u2581admonition": 5609,
  "\u2581akpedada": 5610,
  "\u2581al\u1ebdha": 5611,
  "\u2581atmosphere": 5612,
  "\u2581brotherhood": 5613,
  "\u2581faithfulness": 5614,
  "\u2581ke\u014b": 5615,
  "\u2581l\u00e3menugbagbevi": 5616,
  "\u2581mine": 5617,
  "\u2581n\u00e8kp\u0254": 5618,
  "\u2581paying": 5619,
  "\u2581suggests": 5620,
  "sh": 5621,
  "\u2581asit\u0254tr\u0254": 5622,
  "\u2581below": 5623,
  "\u2581exercising": 5624,
  "\u2581impact": 5625,
  "\u2581iron": 5626,
  "\u2581tsitretsi\u0256e\u014bu": 5627,
  "\u2581woma": 5628,
  "\u2581w\u00f2kpe": 5629,
  "\u2581\u0256okuidzi\u0256u\u0256u": 5630,
  "\u258125]": 5631,
  "\u2581awake": 5632,
  "\u2581displayed": 5633,
  "\u2581opinion": 5634,
  "\u2581quiet": 5635,
  "\u2581referring": 5636,
  "\u2581schools": 5637,
  "\u2581sitting": 5638,
  "ever": 5639,
  "\u2581Civi": 5640,
  "\u2581Death": 5641,
  "\u2581a\u0256aba\u0192o\u0192o": 5642,
  "\u2581blame": 5643,
  "\u2581condemned": 5644,
  "\u2581contain": 5645,
  "\u2581m\u00edetsi": 5646,
  "\u2581tests": 5647,
  "\u2581threatened": 5648,
  "\u2581trusted": 5649,
  "\u2581A\u0256a\u014bu\u0256o\u0256o": 5650,
  "\u2581Wonye": 5651,
  "\u2581agbal\u1ebd\u014bl\u0254la": 5652,
  "\u2581ekp\u0254a": 5653,
  "\u2581madi": 5654,
  "\u2581mark": 5655,
  "\u2581temporary": 5656,
  "\u2581\u00e8kp\u0254": 5657,
  "\u258154": 5658,
  "\u2581Tae": 5659,
  "\u2581dek\u0254nu": 5660,
  "\u2581dodokp\u0254wo": 5661,
  "\u2581establish": 5662,
  "\u2581facing": 5663,
  "\u2581president": 5664,
  "\u2581reign": 5665,
  "\u2581surface": 5666,
  "\u2581wear": 5667,
  "\u2581wodzra": 5668,
  "\u2581\u01b2u": 5669,
  "\u2581JEHOVAH": 5670,
  "\u2581Show": 5671,
  "\u2581Table": 5672,
  "\u2581aba": 5673,
  "\u2581anyigbamama": 5674,
  "\u2581empty": 5675,
  "\u2581hameawo": 5676,
  "\u2581modest": 5677,
  "\u2581nukp\u0254kp\u0254": 5678,
  "\u2581prisoners": 5679,
  "\u2581reliable": 5680,
  "\u2581running": 5681,
  "\u2581traditional": 5682,
  "\u2581union": 5683,
  "\u2581woay\u0254": 5684,
  "\u2581w\u00f2y\u0254": 5685,
  "\u2581\u0263ea": 5686,
  "\u2581Early": 5687,
  "\u2581Lazarus": 5688,
  "\u2581L\u00e3mes\u1ebd": 5689,
  "\u2581ehati": 5690,
  "\u2581grain": 5691,
  "\u2581northern": 5692,
  "\u2581nusitae": 5693,
  "\u2581wholesome": 5694,
  "\u2581\u00e8nya": 5695,
  "\u2581Enumake": 5696,
  "\u2581Get": 5697,
  "\u2581amedzrowo": 5698,
  "\u2581communicate": 5699,
  "\u2581dress": 5700,
  "\u2581everywhere": 5701,
  "\u2581remnant": 5702,
  "\u2581\u0256eka\u0256ekawo": 5703,
  "tr\u0254": 5704,
  "\u258136.": 5705,
  "\u2581Dan": 5706,
  "\u2581Magazine": 5707,
  "\u2581Photo": 5708,
  "\u2581Takpekpe": 5709,
  "\u2581appeal": 5710,
  "\u2581b\u0254a": 5711,
  "\u2581experts": 5712,
  "\u2581instructed": 5713,
  "\u2581m\u0254kp\u0254kp\u0254a": 5714,
  "\u2581na\u0192o": 5715,
  "\u2581ordered": 5716,
  "\u2581team": 5717,
  "\u2581tr\u0254a": 5718,
  "\u2581watching": 5719,
  "\u2581Happy": 5720,
  "\u2581Lewi": 5721,
  "\u2581Malachi": 5722,
  "\u2581acknowledge": 5723,
  "\u2581amehawo": 5724,
  "\u2581descendants": 5725,
  "\u2581kp\u0254\u0256e\u014buwo": 5726,
  "\u2581medicine": 5727,
  "\u2581scripture": 5728,
  "\u2581Granted": 5729,
  "\u2581Mex\u0254": 5730,
  "\u2581atama": 5731,
  "\u2581choices": 5732,
  "\u2581klosalo": 5733,
  "\u2581k\u0254a": 5734,
  "\u2581magbl\u1ebd": 5735,
  "\u2581ts\u0254m": 5736,
  "\u2581w\u00f2he": 5737,
  "\u2581\u014bl\u0254m": 5738,
  "\u2581\u0194esia\u0263i": 5739,
  "kpa": 5740,
  "susui": 5741,
  "\u0256e\u014bunyagb\u0254gbl\u0254": 5742,
  "\u2581California": 5743,
  "\u2581Dziehe": 5744,
  "\u2581anukware": 5745,
  "\u2581a\u0192le": 5746,
  "\u2581divided": 5747,
  "\u2581edzii": 5748,
  "\u2581enelia": 5749,
  "\u2581gbagbewo": 5750,
  "\u2581humbly": 5751,
  "\u2581nal\u0254": 5752,
  "\u2581nyatakakawo": 5753,
  "\u2581obligation": 5754,
  "\u2581red": 5755,
  "\u2581ta\u0256odzinuwo": 5756,
  "\u2581tome": 5757,
  "\u2581unless": 5758,
  "\u2581welfare": 5759,
  "\u2581Britannica": 5760,
  "\u2581Gospels": 5761,
  "\u2581Within": 5762,
  "\u2581belongs": 5763,
  "\u2581famous": 5764,
  "\u2581generous": 5765,
  "\u2581max\u0254": 5766,
  "\u2581n\u00e0\u0192o": 5767,
  "\u2581sukudede": 5768,
  "via": 5769,
  "\u2581Concern": 5770,
  "\u2581Western": 5771,
  "\u2581acting": 5772,
  "\u2581alert": 5773,
  "\u2581dying": 5774,
  "\u2581inherit": 5775,
  "\u2581kukuawo": 5776,
  "\u2581woagbugb\u0254": 5777,
  "\u2581wots\u0254na": 5778,
  "\u258138.": 5779,
  "\u2581Megbl\u0254": 5780,
  "\u2581ameg\u00e3wo": 5781,
  "\u2581atra\u0256ii": 5782,
  "\u2581photo": 5783,
  "\u2581thankful": 5784,
  "\u2581torture": 5785,
  "\u2581woxe": 5786,
  "\u2581w\u00f2dz\u0254e": 5787,
  "ig": 5788,
  "\u25811,000": 5789,
  "\u2581Up": 5790,
  "\u2581Veviet\u0254": 5791,
  "\u2581Wodze": 5792,
  "\u2581challenging": 5793,
  "\u2581claims": 5794,
  "\u2581contained": 5795,
  "\u2581extended": 5796,
  "\u2581forgiving": 5797,
  "\u2581gets": 5798,
  "\u2581merciful": 5799,
  "\u2581model": 5800,
  "\u2581reap": 5801,
  "\u2581shed": 5802,
  "\u2581sustain": 5803,
  "\u2581te\u0192e\u0256o\u0256o": 5804,
  "\u2581\u0256etugbui": 5805,
  "LA": 5806,
  "\u2581Besides": 5807,
  "\u2581accord": 5808,
  "\u2581degbe": 5809,
  "\u2581dza": 5810,
  "\u2581etr\u0254": 5811,
  "\u2581frequently": 5812,
  "\u2581habit": 5813,
  "\u2581preced": 5814,
  "\u2581pursuing": 5815,
  "\u2581readers": 5816,
  "\u2581smoke": 5817,
  "\u2581tear": 5818,
  "\u2581theme": 5819,
  "\u2581\u014but\u0254\u014but\u0254e": 5820,
  "\u2581Ukraine": 5821,
  "\u2581assurance": 5822,
  "\u2581camps": 5823,
  "\u2581figurative": 5824,
  "\u2581gbedeasi": 5825,
  "\u2581grave": 5826,
  "\u2581mourning": 5827,
  "\u2581nukunuwo": 5828,
  "\u2581w\u0254nublanui": 5829,
  "No": 5830,
  "\u2581Which": 5831,
  "\u2581atikew\u0254w\u0254": 5832,
  "\u2581depends": 5833,
  "\u2581emevava": 5834,
  "\u2581emotionally": 5835,
  "\u2581images": 5836,
  "\u2581middle": 5837,
  "\u2581obtained": 5838,
  "\u2581translations": 5839,
  "\u2581w\u00f2nana": 5840,
  "\u2581w\u00f2wu": 5841,
  "\u2581\u00e0kp\u0254": 5842,
  "\u2581\u014be": 5843,
  "\u2581Athens": 5844,
  "\u2581Hannah": 5845,
  "\u2581Ko": 5846,
  "\u2581access": 5847,
  "\u2581domenyinu": 5848,
  "\u2581existed": 5849,
  "\u2581historical": 5850,
  "\u2581k\u0254t\u025b": 5851,
  "\u2581megate": 5852,
  "\u2581moves": 5853,
  "\u2581m\u00e3": 5854,
  "\u2581w\u00f2a\u0192o": 5855,
  "\u2581w\u00f2dz\u0254": 5856,
  "\u2581yeado": 5857,
  "\u2581Moab": 5858,
  "\u2581N\u00e0\u0256": 5859,
  "\u2581dzroa": 5860,
  "\u2581meat": 5861,
  "\u2581m\u00edatr\u0254": 5862,
  "\u2581m\u00edexl\u1ebd": 5863,
  "\u2581review": 5864,
  "\u2581w\u00f2ato": 5865,
  "?\"": 5866,
  "land": 5867,
  "que": 5868,
  "\u258117;": 5869,
  "\u2581Enoch": 5870,
  "\u2581YEHOWA": 5871,
  "\u2581limit": 5872,
  "\u2581nuclear": 5873,
  "\u2581n\u00e0bu": 5874,
  "\u2581products": 5875,
  "\u2581takpekpewo": 5876,
  "\u2581woaxe": 5877,
  "ter": 5878,
  "xaxa": 5879,
  "\u2581Sia": 5880,
  "\u2581depressed": 5881,
  "\u2581flee": 5882,
  "\u2581guilt": 5883,
  "\u2581items": 5884,
  "\u2581miraculous": 5885,
  "\u2581nas\u1ebd": 5886,
  "\u2581protected": 5887,
  "\u2581ses\u1ebdna": 5888,
  "\u2581wisely": 5889,
  "\u2581\u014butas\u1ebdnuw\u0254w\u0254": 5890,
  "\u2581120": 5891,
  "\u25812003": 5892,
  "\u2581AS": 5893,
  "\u2581asa\u0256a": 5894,
  "\u2581biaa": 5895,
  "\u2581inclined": 5896,
  "\u2581marked": 5897,
  "\u2581mass": 5898,
  "\u2581n\u00e8susu": 5899,
  "\u014butsuwo": 5900,
  "\u2581Come": 5901,
  "\u2581El\u0254": 5902,
  "\u2581Kenya": 5903,
  "\u2581Organization": 5904,
  "\u2581Vevi": 5905,
  "\u2581abandon": 5906,
  "\u2581bun\u025b": 5907,
  "\u2581burning": 5908,
  "\u2581cared": 5909,
  "\u2581drew": 5910,
  "\u2581dzon\u0254amemet\u0254e": 5911,
  "\u2581dz\u0254dz\u0254": 5912,
  "\u2581pleasing": 5913,
  "\u2581yomedzela": 5914,
  "im": 5915,
  "\u0192u": 5916,
  "\u2581Et\u0254": 5917,
  "\u2581Stephen": 5918,
  "\u2581WHO": 5919,
  "\u2581adopted": 5920,
  "\u2581azi": 5921,
  "\u2581burned": 5922,
  "\u2581commands": 5923,
  "\u2581fourth": 5924,
  "\u2581fun": 5925,
  "\u2581limitations": 5926,
  "\u2581restore": 5927,
  "\u2581slavery": 5928,
  "\u2581theocratic": 5929,
  "\u2581w\u00f2l\u00e9": 5930,
  "\u2581Marriage": 5931,
  "\u2581Men": 5932,
  "\u2581Nufialag\u00e3": 5933,
  "\u2581Report": 5934,
  "\u2581ahade": 5935,
  "\u2581devoted": 5936,
  "\u2581de\u014bg\u0254": 5937,
  "\u2581kpekpeme": 5938,
  "\u2581royal": 5939,
  "\u2581shortly": 5940,
  "\u2581sorts": 5941,
  "l\u00e3": 5942,
  "\u258152": 5943,
  "\u2581Ben": 5944,
  "\u2581Danye": 5945,
  "\u2581Pilate": 5946,
  "\u2581Source": 5947,
  "\u2581agbal\u1ebdnyala": 5948,
  "\u2581cruel": 5949,
  "\u2581footnote": 5950,
  "\u2581m\u00edekp\u0254na": 5951,
  "\u2581nyuiw\u0254w\u0254": 5952,
  "\u2581solid": 5953,
  "\u2581womele": 5954,
  "\u25811943": 5955,
  "\u2581Ete": 5956,
  "\u2581Martin": 5957,
  "\u2581Ocean": 5958,
  "\u2581Professor": 5959,
  "\u2581Worship": 5960,
  "\u2581annual": 5961,
  "\u2581concentration": 5962,
  "\u2581cried": 5963,
  "\u2581dry": 5964,
  "\u2581f\u0254ma\u0256ima\u0256i": 5965,
  "\u2581headquarters": 5966,
  "\u2581kp\u0254n\u025b": 5967,
  "\u2581listeners": 5968,
  "\u2581lowly": 5969,
  "\u2581researchers": 5970,
  "\u2581tempted": 5971,
  "\u2581wohi\u00e3": 5972,
  "\u2581\u0191omea": 5973,
  "\u2581Congregation": 5974,
  "\u2581Galilea": 5975,
  "\u2581Grand": 5976,
  "\u2581Hezekiah": 5977,
  "\u2581Old": 5978,
  "\u2581agban\u0254amedziwo": 5979,
  "\u2581atamanono": 5980,
  "\u2581context": 5981,
  "\u2581elements": 5982,
  "\u2581feed": 5983,
  "\u2581foolish": 5984,
  "\u2581gbl\u1ebdna": 5985,
  "\u2581gbogbowo": 5986,
  "\u2581grand": 5987,
  "\u2581lower": 5988,
  "\u2581murder": 5989,
  "\u2581ny\u0254": 5990,
  "\u2581spending": 5991,
  "\u2581woatso": 5992,
  "\u2581yii": 5993,
  "\u2581\u00d0a": 5994,
  ">": 5995,
  "su": 5996,
  "\u2581Ya": 5997,
  "\u2581ayra": 5998,
  "\u2581fears": 5999,
  "\u2581hidden": 6000,
  "\u2581initiative": 6001,
  "\u2581ma\u0192o": 6002,
  "\u2581me\u014bl\u0254": 6003,
  "\u2581paper": 6004,
  "\u2581possession": 6005,
  "\u2581summer": 6006,
  "\u2581walls": 6007,
  "\u2581yeayi": 6008,
  "\u2581Emenyawo": 6009,
  "\u2581FOR": 6010,
  "\u2581Notice": 6011,
  "\u2581Three": 6012,
  "\u2581Wo\u0192o": 6013,
  "\u2581accepting": 6014,
  "\u2581agreement": 6015,
  "\u2581aseye": 6016,
  "\u2581drawing": 6017,
  "\u2581ese": 6018,
  "\u2581lovingly": 6019,
  "\u2581patiently": 6020,
  "\u2581satisfied": 6021,
  "\u2581tiae": 6022,
  "\u2581traits": 6023,
  "\u2581worker": 6024,
  "\u2581z\u0254m": 6025,
  "\u2581\u0192u\u0192lu": 6026,
  "dzo": 6027,
  "ze": 6028,
  "\u258111;": 6029,
  "\u2581Absalom": 6030,
  "\u2581Dz\u0254dz\u0254me": 6031,
  "\u2581Maleaxi": 6032,
  "\u2581dzidzedzekp\u0254kp\u0254": 6033,
  "\u2581gained": 6034,
  "\u2581spite": 6035,
  "\u2581strengthening": 6036,
  "\u2581texts": 6037,
  "\u2581tim": 6038,
  "ful": 6039,
  "\u2581associates": 6040,
  "\u2581biae": 6041,
  "\u2581conflicts": 6042,
  "\u2581equal": 6043,
  "\u2581h\u0254": 6044,
  "\u2581koko": 6045,
  "\u2581mits\u0254": 6046,
  "\u2581n\u0254viny\u0254nuwo": 6047,
  "\u2581opposers": 6048,
  "\u2581primarily": 6049,
  "\u2581siawoe": 6050,
  "\u2581w\u0254nawo": 6051,
  "ER": 6052,
  "fi": 6053,
  "\u2581Ephesus": 6054,
  "\u2581Lamb": 6055,
  "\u2581Master": 6056,
  "\u2581al\u1ebdawo": 6057,
  "\u2581d\u0254w\u0254\u0192ea": 6058,
  "\u2581fundamental": 6059,
  "\u2581m\u00edez\u00e3": 6060,
  "\u2581newly": 6061,
  "\u2581north": 6062,
  "\u2581object": 6063,
  "\u2581preparing": 6064,
  "\u2581replaced": 6065,
  "\u2581soil": 6066,
  "\u2581w\u00f2z\u00e3": 6067,
  "\u2581Catholics": 6068,
  "\u2581Sabat": 6069,
  "\u2581Woz\u00e3": 6070,
  "\u2581acknowledged": 6071,
  "\u2581mek\u0254": 6072,
  "\u2581m\u00edatu": 6073,
  "\u2581raising": 6074,
  "\u2581ungodly": 6075,
  "\u2581win": 6076,
  "\u2581w\u00f2da": 6077,
  "\u2581x\u0254asiwo": 6078,
  "adzisub\u0254sub\u0254d\u0254a": 6079,
  "id": 6080,
  "\u2581Herodes": 6081,
  "\u2581Hope": 6082,
  "\u2581Korea": 6083,
  "\u2581Year": 6084,
  "\u2581fallen": 6085,
  "\u2581fui": 6086,
  "\u2581makumaku": 6087,
  "\u2581programs": 6088,
  "\u2581tsonuwo": 6089,
  "\u2581\u028b\u0254": 6090,
  "Mele": 6091,
  "\u0192o\u0192o": 6092,
  "\u2581Sam": 6093,
  "\u2581childhood": 6094,
  "\u2581conviction": 6095,
  "\u2581fields": 6096,
  "\u2581lododoa": 6097,
  "\u2581nyenye": 6098,
  "\u2581testimony": 6099,
  "\u2581v\u0254v\u0254li": 6100,
  "\u2581weaknesses": 6101,
  "\u2581\u014bus\u1ebde": 6102,
  "not": 6103,
  "\u2581Passover": 6104,
  "\u2581benefited": 6105,
  "\u2581distant": 6106,
  "\u2581ememe": 6107,
  "\u2581etame": 6108,
  "\u2581games": 6109,
  "\u2581hadome": 6110,
  "\u2581motives": 6111,
  "\u2581nazu": 6112,
  "\u2581nenie": 6113,
  "\u2581origin": 6114,
  "\u2581partner": 6115,
  "\u2581plants": 6116,
  "\u2581scale": 6117,
  "\u2581xam": 6118,
  "\u2581yame\u028bu": 6119,
  "V": 6120,
  "\u2581Atike": 6121,
  "\u2581A\u028ba": 6122,
  "\u2581Babylonian": 6123,
  "\u2581Fu": 6124,
  "\u2581Please": 6125,
  "\u2581attain": 6126,
  "\u2581dzram": 6127,
  "\u2581gena": 6128,
  "\u2581harsh": 6129,
  "\u2581hebia": 6130,
  "\u2581isolated": 6131,
  "\u2581judges": 6132,
  "\u2581m\u00edekpe": 6133,
  "\u2581reply": 6134,
  "\u2581suggested": 6135,
  "\u2581tired": 6136,
  "\u2581warfare": 6137,
  "\u2581worldly": 6138,
  "\u2581\u00e8bu": 6139,
  "\u2581Alexander": 6140,
  "\u2581Museum": 6141,
  "\u2581Ro": 6142,
  "\u2581dzin\u0254ame\u0192o": 6143,
  "\u2581heyi": 6144,
  "\u2581interesting": 6145,
  "\u2581mez\u00e3": 6146,
  "\u2581south": 6147,
  "\u2581surgery": 6148,
  "\u2581widespread": 6149,
  "\u25811941": 6150,
  "\u2581Aron": 6151,
  "\u2581Contents": 6152,
  "\u2581Edi": 6153,
  "\u2581Galilee": 6154,
  "\u2581Much": 6155,
  "\u2581admitted": 6156,
  "\u2581aged": 6157,
  "\u2581eliminate": 6158,
  "\u2581imperfection": 6159,
  "\u2581inherited": 6160,
  "\u2581losing": 6161,
  "\u2581philosophy": 6162,
  "\u2581pictures": 6163,
  "\u2581tat\u0254": 6164,
  "\u2581t\u0254gbui": 6165,
  "\u2581\u0256i\u0192o\u0192o": 6166,
  "J": 6167,
  "\u0256ekae": 6168,
  "\u258161": 6169,
  "\u2581Dzidz\u0254t\u0254e": 6170,
  "\u2581Ge": 6171,
  "\u2581Me\u0256e": 6172,
  "\u2581M\u00edawo": 6173,
  "\u2581asiwo": 6174,
  "\u2581behold": 6175,
  "\u2581nafia": 6176,
  "\u2581nudzodzrowo": 6177,
  "\u2581songs": 6178,
  "\u2581supposed": 6179,
  "\u2581unrighteous": 6180,
  "\u2581\u00d0i": 6181,
  "\u2581\u0256okuib\u0254b\u0254t\u0254e": 6182,
  "\u2581campaign": 6183,
  "\u2581ez\u00e3": 6184,
  "\u2581meb\u0254": 6185,
  "\u2581ministeri": 6186,
  "\u2581m\u0254z\u0254lawo": 6187,
  "\u2581n\u00e8w\u0254": 6188,
  "\u2581\u00e8de": 6189,
  "pi": 6190,
  "\u2581Amesiawo": 6191,
  "\u2581Nexemya": 6192,
  "\u2581Nyabiabia": 6193,
  "\u2581Nyagbl\u0254\u0256i": 6194,
  "\u2581Spiritual": 6195,
  "\u2581Tyndale": 6196,
  "\u2581Wobia": 6197,
  "\u2581calamity": 6198,
  "\u2581intended": 6199,
  "\u2581station": 6200,
  "\u2581surrounded": 6201,
  "\u2581table": 6202,
  "\u2581thrown": 6203,
  "\u2581weakness": 6204,
  "ccompanied": 6205,
  "\u2581Eyi": 6206,
  "\u2581Moscow": 6207,
  "\u2581Wox\u0254": 6208,
  "\u2581d": 6209,
  "\u2581extend": 6210,
  "\u2581glorify": 6211,
  "\u2581heads": 6212,
  "\u2581perfection": 6213,
  "\u2581preserve": 6214,
  "\u2581stronger": 6215,
  "\u2581symptoms": 6216,
  "\u2581vana": 6217,
  "\u2581visitors": 6218,
  "\u2581\u00e8": 6219,
  "\u2581\u0192ukpoa": 6220,
  "\u2581\u0256\u0254a": 6221,
  "nt": 6222,
  "\u2581AND": 6223,
  "\u2581Anna": 6224,
  "\u2581A\u0192e": 6225,
  "\u2581Leviticus": 6226,
  "\u2581Red": 6227,
  "\u2581Sinai": 6228,
  "\u2581Yoh": 6229,
  "\u2581check": 6230,
  "\u2581dzigb\u0254gb\u0254": 6231,
  "\u2581d\u0254met\u0254tr\u0254": 6232,
  "\u2581enjoying": 6233,
  "\u2581looks": 6234,
  "\u2581necessarily": 6235,
  "\u2581nu\u0192oa": 6236,
  "\u2581turns": 6237,
  "\u2581urges": 6238,
  "\u2581vivisese": 6239,
  "fe": 6240,
  "\u2581Nyuie": 6241,
  "\u2581ahom": 6242,
  "\u2581crisis": 6243,
  "\u2581executed": 6244,
  "\u2581gbedeasia": 6245,
  "\u2581length": 6246,
  "\u2581mexl\u1ebd": 6247,
  "\u2581yewoanya": 6248,
  "d\u0254a": 6249,
  "ted": 6250,
  "z\u00e3": 6251,
  "\u0192ewo": 6252,
  "\u2581Draw": 6253,
  "\u2581jealousy": 6254,
  "\u2581m\u00edetr\u0254": 6255,
  "\u2581saith": 6256,
  "\u2581singing": 6257,
  "\u2581sub\u0254sub\u0254d\u0254w\u0254la": 6258,
  "\u2581survived": 6259,
  "\u2581w\u00f2naa": 6260,
  "AN": 6261,
  "Kristo": 6262,
  "with": 6263,
  "\u2581Austria": 6264,
  "\u2581Ge\u0256e": 6265,
  "\u2581Nabal": 6266,
  "\u2581Orthodox": 6267,
  "\u2581ag\u0254": 6268,
  "\u2581cure": 6269,
  "\u2581e\u014bui": 6270,
  "\u2581gbe\u0192\u00e3\u0256elawo": 6271,
  "\u2581kp\u0254kpl\u0254": 6272,
  "\u2581location": 6273,
  "\u2581meek": 6274,
  "\u2581n\u00e8ts\u0254": 6275,
  "\u2581pregnant": 6276,
  "\u2581returning": 6277,
  "\u2581teenager": 6278,
  "\u2581tsitretsi\u0256e\u014bula": 6279,
  "\u2581Amegbet\u0254vi": 6280,
  "\u2581Mawud\u0254la": 6281,
  "\u2581Prov": 6282,
  "\u2581Things": 6283,
  "\u2581alekee": 6284,
  "\u2581a\u028baw\u0254nu": 6285,
  "\u2581ble": 6286,
  "\u2581citizens": 6287,
  "\u2581dzome\u014b\u0254li": 6288,
  "\u2581hex\u0254": 6289,
  "\u2581milk": 6290,
  "\u2581officer": 6291,
  "\u2581prejudice": 6292,
  "\u2581womets\u0254": 6293,
  "\u2581worry": 6294,
  "\u2581\u0192omevie": 6295,
  "\u2581\u0192uta": 6296,
  "amewo": 6297,
  "op": 6298,
  "\u2581Car": 6299,
  "\u2581Kwasi\u0256agbe": 6300,
  "\u2581THIS": 6301,
  "\u2581a\u0192elikawo": 6302,
  "\u2581et\u0254x\u025be": 6303,
  "\u2581explanation": 6304,
  "\u2581nuwuwua": 6305,
  "\u2581n\u00e0sr\u0254": 6306,
  "\u2581poured": 6307,
  "\u2581storm": 6308,
  "hawo": 6309,
  "of": 6310,
  "\u2581Abigail": 6311,
  "\u2581Dzi\u0256u\u0256u": 6312,
  "\u2581MA": 6313,
  "\u2581baa": 6314,
  "\u2581dzi\u0256ulawo": 6315,
  "\u2581ends": 6316,
  "\u2581miracle": 6317,
  "\u2581significance": 6318,
  "\u2581sports": 6319,
  "-": 6320,
  "Ale": 6321,
  "\u2581Albert": 6322,
  "\u2581M\u00edexl\u1ebd": 6323,
  "\u2581accident": 6324,
  "\u2581disasters": 6325,
  "\u2581kinds": 6326,
  "\u2581maintaining": 6327,
  "\u2581nudzodzro": 6328,
  "\u2581reads": 6329,
  "\u2581rejoicing": 6330,
  "\u2581space": 6331,
  "\u2581srafowo": 6332,
  "\u2581wobe": 6333,
  "\u2581w\u00f2anyo": 6334,
  "AL": 6335,
  "ns": 6336,
  "\u2581Jordan": 6337,
  "\u2581Nyadz\u0254dz\u0254gbal\u1ebd": 6338,
  "\u2581Prayer": 6339,
  "\u2581Y": 6340,
  "\u2581comment": 6341,
  "\u2581figure": 6342,
  "\u2581finds": 6343,
  "\u2581healed": 6344,
  "\u2581hunger": 6345,
  "\u2581market": 6346,
  "\u2581n\u00e0to": 6347,
  "\u2581recreation": 6348,
  "\u2581throw": 6349,
  "\u2581t\u0254x\u025bwo": 6350,
  "\u2581\u0192ewuiviwo": 6351,
  "\u258140.": 6352,
  "\u2581KP\u0186": 6353,
  "\u2581Making": 6354,
  "\u2581a\u014bl\u0254": 6355,
  "\u2581believing": 6356,
  "\u2581bubudede": 6357,
  "\u2581debt": 6358,
  "\u2581d\u0254n\u0254a": 6359,
  "\u2581guided": 6360,
  "\u2581identity": 6361,
  "\u2581income": 6362,
  "\u2581konyifafa": 6363,
  "\u2581m\u00e8": 6364,
  "\u2581silent": 6365,
  "\u2581\u0192eme": 6366,
  "\u2581\u0263eto\u0256o\u0192e": 6367,
  "\u2581Unlike": 6368,
  "\u2581Woa": 6369,
  "\u2581af\u0254kuwo": 6370,
  "\u2581agbal\u1ebdawo": 6371,
  "\u2581hospitality": 6372,
  "\u2581me\u0256i": 6373,
  "\u2581m\u00e0te": 6374,
  "\u2581searching": 6375,
  "\u2581sexually": 6376,
  "\u2581s\u00e3s\u00e3s\u00e3": 6377,
  "\u2581w\u00f2doa": 6378,
  "\u2581yewoadze": 6379,
  "x": 6380,
  "\u258114]": 6381,
  "\u2581Daily": 6382,
  "\u2581Ene": 6383,
  "\u2581bitter": 6384,
  "\u2581gagbl\u0254": 6385,
  "\u2581mezu": 6386,
  "\u2581serpent": 6387,
  "\u2581woadzi": 6388,
  "\u2581wood": 6389,
  "ON": 6390,
  "ad": 6391,
  "anyigba": 6392,
  "ized": 6393,
  "y\u0254": 6394,
  "\u2581Close": 6395,
  "\u2581Es\u0254": 6396,
  "\u2581Evidently": 6397,
  "\u2581IS": 6398,
  "\u2581Sweden": 6399,
  "\u2581Vevie": 6400,
  "\u2581author": 6401,
  "\u2581beat": 6402,
  "\u2581capable": 6403,
  "\u2581description": 6404,
  "\u2581feature": 6405,
  "\u2581hit": 6406,
  "\u2581mekpe": 6407,
  "\u2581mid": 6408,
  "\u2581seventh": 6409,
  "\u2581wodona": 6410,
  "dz\u0254": 6411,
  "\u2581Al": 6412,
  "\u2581Jean": 6413,
  "\u2581Living": 6414,
  "\u2581accused": 6415,
  "\u2581a\u028bli": 6416,
  "\u2581current": 6417,
  "\u2581dies": 6418,
  "\u2581d\u0254dasi": 6419,
  "\u2581features": 6420,
  "\u2581messages": 6421,
  "\u2581planning": 6422,
  "\u2581subjection": 6423,
  "\u2581supplies": 6424,
  "\u2581woasub\u0254": 6425,
  "\u2581woy\u0254a": 6426,
  "tutu": 6427,
  "v": 6428,
  "z\u0254": 6429,
  "\u2581145": 6430,
  "\u2581Katolikot\u0254": 6431,
  "\u2581Mede": 6432,
  "\u2581Z\u00e3": 6433,
  "\u2581drive": 6434,
  "\u2581ear": 6435,
  "\u2581fresh": 6436,
  "\u2581happening": 6437,
  "\u2581hatiwo": 6438,
  "\u2581introduced": 6439,
  "\u2581kolia": 6440,
  "\u2581k\u0254nuwo": 6441,
  "\u2581mehe": 6442,
  "\u2581paragraph": 6443,
  "\u2581respected": 6444,
  "\u2581tested": 6445,
  "\u2581w\u0254\u0192e": 6446,
  "\u014bus\u1ebd": 6447,
  "\u2581Babilont\u0254wo": 6448,
  "\u2581Child": 6449,
  "\u2581Palm": 6450,
  "\u2581aka\u0256i": 6451,
  "\u2581illustrations": 6452,
  "\u2581naz\u00e3": 6453,
  "\u2581repeated": 6454,
  "\u2581tafev\u0254sa": 6455,
  "\u2581types": 6456,
  "\u2581wow\u0254e": 6457,
  "\u2581wo\u028bu": 6458,
  "ED": 6459,
  "\u2581Judea": 6460,
  "\u2581a\u0256a\u014bu\u0256o\u0256owo": 6461,
  "\u2581eneawo": 6462,
  "\u2581gate": 6463,
  "\u2581hax\u0254set\u0254": 6464,
  "\u2581idolatry": 6465,
  "\u2581kpa": 6466,
  "\u2581mistake": 6467,
  "\u2581nuhiahi\u00e3": 6468,
  "\u2581operation": 6469,
  "\u2581proceeded": 6470,
  "\u2581streets": 6471,
  "\u2581volunteers": 6472,
  "\u2581wol\u00e9a": 6473,
  "\u2581w\u00f2ahi\u00e3": 6474,
  "\u2581w\u00f2\u0256ea": 6475,
  "\u2581\u00e8\u0256o": 6476,
  "\u2581\u014bus\u1ebdm": 6477,
  "\u2581Kwasi\u0256a": 6478,
  "\u2581Lod": 6479,
  "\u2581dzi\u0256eleame\u0192o": 6480,
  "\u2581m\u00edasub\u0254": 6481,
  "\u2581nyany\u025b": 6482,
  "\u2581nyemenya": 6483,
  "\u2581sets": 6484,
  "\u2581sub\u0254a": 6485,
  "\u2581wonyi": 6486,
  "\u2581\u014au\u0256o\u0256o": 6487,
  "\u2581\u014bu\u0256o\u0256oa": 6488,
  "01": 6489,
  "ki": 6490,
  "\u258147": 6491,
  "\u2581Adz\u0254": 6492,
  "\u2581Again": 6493,
  "\u2581Back": 6494,
  "\u2581End": 6495,
  "\u2581enana": 6496,
  "\u2581kena": 6497,
  "\u2581movement": 6498,
  "\u2581proverb": 6499,
  "\u2581tabernacle": 6500,
  "\u2581talked": 6501,
  "\u2581tendency": 6502,
  "\u2581upbuilding": 6503,
  "\u2581yeadze": 6504,
  "\u2581HOW": 6505,
  "\u2581Millions": 6506,
  "\u2581Use": 6507,
  "\u2581co": 6508,
  "\u2581extra": 6509,
  "\u2581gobi": 6510,
  "\u2581heva": 6511,
  "\u2581k\u0254k\u0254wo": 6512,
  "\u2581lifestyle": 6513,
  "\u2581makpe": 6514,
  "\u2581medina": 6515,
  "\u2581menyae": 6516,
  "\u2581opposed": 6517,
  "\u2581possibility": 6518,
  "\u2581refreshing": 6519,
  "\u2581solve": 6520,
  "\u2581unusual": 6521,
  "\u2581\u0256i\u0256im": 6522,
  "\u2581\u0263la": 6523,
  "amenya": 6524,
  "bi": 6525,
  "\u25812004": 6526,
  "\u2581Herod": 6527,
  "\u2581Mawunyakpukpui": 6528,
  "\u2581Mese": 6529,
  "\u2581Pro": 6530,
  "\u2581afternoon": 6531,
  "\u2581anti": 6532,
  "\u2581capacity": 6533,
  "\u2581director": 6534,
  "\u2581hel\u00e9": 6535,
  "\u2581infected": 6536,
  "\u2581marital": 6537,
  "\u2581mienya": 6538,
  "\u2581nun\u0254lag\u00e3": 6539,
  "\u2581nyagbe": 6540,
  "\u2581remembered": 6541,
  "\u2581whereas": 6542,
  "\u2581wrongdoing": 6543,
  "\u2581\u0256\u0254\u028bu": 6544,
  "ir": 6545,
  "\u2581Akp\u0254": 6546,
  "\u2581Gal": 6547,
  "\u2581IT": 6548,
  "\u2581Nana": 6549,
  "\u2581acquire": 6550,
  "\u2581ba": 6551,
  "\u2581compassionate": 6552,
  "\u2581dzikp\u0254kp\u0254": 6553,
  "\u2581dzitsitsi": 6554,
  "\u2581method": 6555,
  "\u2581nun\u0254amesi": 6556,
  "\u2581nyanu": 6557,
  "\u2581rewarded": 6558,
  "\u2581schedule": 6559,
  "\u2581telephone": 6560,
  "\u2581y\u0254do": 6561,
  "\u2581\u0194leti": 6562,
  "ol": 6563,
  "that": 6564,
  "\u25812013": 6565,
  "\u2581NA": 6566,
  "\u2581begun": 6567,
  "\u2581delighted": 6568,
  "\u2581forest": 6569,
  "\u2581greed": 6570,
  "\u2581heal": 6571,
  "\u2581kem": 6572,
  "\u2581n\u0254vi\u014butsuwo": 6573,
  "\u2581profound": 6574,
  "\u2581residents": 6575,
  "\u2581southern": 6576,
  "\u2581tsina": 6577,
  "\u2581typical": 6578,
  "\u2581wo\u0256\u0254": 6579,
  "\u2581w\u00f2ahe": 6580,
  "\u2581xoxoxo": 6581,
  "\u2581yewoax\u0254": 6582,
  "m\u0254nu": 6583,
  "\u2581Nusia": 6584,
  "\u2581Years": 6585,
  "\u2581a\u0256a": 6586,
  "\u2581kansa": 6587,
  "\u2581load": 6588,
  "\u2581mawusosro\u0256a": 6589,
  "\u2581m\u00e0": 6590,
  "\u2581publicly": 6591,
  "\u2581totally": 6592,
  "\u2581Af\u0254": 6593,
  "\u2581Hame": 6594,
  "\u2581Marta": 6595,
  "\u2581Next": 6596,
  "\u2581Sue": 6597,
  "\u2581Vav\u00e3e": 6598,
  "\u2581Won\u0254": 6599,
  "\u2581Zephaniah": 6600,
  "\u2581coast": 6601,
  "\u2581dzi\u0256u\u0256umeg\u00e3wo": 6602,
  "\u2581reminds": 6603,
  "\u2581sinima": 6604,
  "\u2581vevii": 6605,
  "\u2581x\u0254set\u0254wo": 6606,
  "\u2581\u014bl\u0254a": 6607,
  "\u2581\u014butinya\u014bl\u0254la": 6608,
  "Aleke": 6609,
  "gi": 6610,
  "\u2581Heart": 6611,
  "\u2581View": 6612,
  "\u2581Women": 6613,
  "\u2581engaged": 6614,
  "\u2581ha\u0192o\u0192o": 6615,
  "\u2581jobs": 6616,
  "\u2581kukua": 6617,
  "\u2581playing": 6618,
  "\u2581se\u0192o\u0192o": 6619,
  "\u2581symbolic": 6620,
  "\u2581wo\u0256ena": 6621,
  "\u2581wui": 6622,
  "\u2581\u00c8": 6623,
  "\u2581\u0192ow\u00f2": 6624,
  "600": 6625,
  "ING": 6626,
  "gba": 6627,
  "\u2581Anyiehe": 6628,
  "\u2581Barnaba": 6629,
  "\u2581Empire": 6630,
  "\u2581Mea": 6631,
  "\u2581N\u00e0": 6632,
  "\u2581Tete": 6633,
  "\u2581Trinity": 6634,
  "\u2581a\u028bak\u0254": 6635,
  "\u2581demands": 6636,
  "\u2581informed": 6637,
  "\u2581kpl\u0254m": 6638,
  "\u2581realm": 6639,
  "\u2581sentence": 6640,
  "\u2581yew\u0254": 6641,
  "his": 6642,
  "kp\u0254kp\u0254": 6643,
  "lu": 6644,
  "v\u0254v\u0254": 6645,
  "\u258129]": 6646,
  "\u2581Kaisaro": 6647,
  "\u2581Naneke": 6648,
  "\u2581Portugal": 6649,
  "\u2581Washington": 6650,
  "\u2581Wote": 6651,
  "\u2581Yonatan": 6652,
  "\u2581commonly": 6653,
  "\u2581dzesiwo": 6654,
  "\u2581elabe": 6655,
  "\u2581etso": 6656,
  "\u2581miew\u0254": 6657,
  "\u2581nuw\u00f2": 6658,
  "\u2581sitso\u0192e": 6659,
  "\u2581stones": 6660,
  "\u2581sufficient": 6661,
  "\u2581w\u00f2al\u00e9": 6662,
  "\u2581\u0256ale": 6663,
  "t\u0254awo": 6664,
  "\u258110,000": 6665,
  "\u2581Egyptian": 6666,
  "\u2581Ex": 6667,
  "\u2581Jew": 6668,
  "\u2581Xana": 6669,
  "\u2581Xexea": 6670,
  "\u2581breast": 6671,
  "\u2581contributed": 6672,
  "\u2581creature": 6673,
  "\u2581dodom": 6674,
  "\u2581d\u0254menyot\u0254e": 6675,
  "\u2581enaa": 6676,
  "\u2581humankind": 6677,
  "\u2581k\u0254\u0192ea": 6678,
  "\u2581mew\u00f2": 6679,
  "\u2581nuawo": 6680,
  "\u2581traditions": 6681,
  "\u2581wosusu": 6682,
  "\u2581w\u00f2ka": 6683,
  "\u2581\u0256e\u0256ekoe": 6684,
  "ler": 6685,
  "\u25811947": 6686,
  "\u258183": 6687,
  "\u2581Nazit\u0254wo": 6688,
  "\u2581addressed": 6689,
  "\u2581a\u014be": 6690,
  "\u2581dzimenyawo": 6691,
  "\u2581entrusted": 6692,
  "\u2581killing": 6693,
  "\u2581mesu": 6694,
  "\u2581m\u0254nukp\u0254kp\u0254a": 6695,
  "\u2581outlook": 6696,
  "\u2581participate": 6697,
  "\u2581relate": 6698,
  "\u2581sacrificing": 6699,
  "\u2581t\u0254mel\u00e3": 6700,
  "\u2581universal": 6701,
  "\u2581yeade": 6702,
  "\u2581\u014autinya": 6703,
  "\u2581\u0256aw\u0254": 6704,
  "ag": 6705,
  "ble": 6706,
  "rd": 6707,
  "\u2581N\u00e0w\u0254": 6708,
  "\u2581Stadium": 6709,
  "\u2581adzame": 6710,
  "\u2581applies": 6711,
  "\u2581changing": 6712,
  "\u2581color": 6713,
  "\u2581dzin\u0254ame\u0192ot\u0254e": 6714,
  "\u2581execution": 6715,
  "\u2581gan\u0254": 6716,
  "\u2581mail": 6717,
  "\u2581memam\u00e3": 6718,
  "\u2581multitude": 6719,
  "\u2581previously": 6720,
  "\u2581sededewo": 6721,
  "\u2581\u014a\u0254li": 6722,
  "Why": 6723,
  "ina": 6724,
  "xe": 6725,
  "\u2581E\u014bu": 6726,
  "\u2581Viewpoint": 6727,
  "\u2581amewuwu": 6728,
  "\u2581bride": 6729,
  "\u2581floor": 6730,
  "\u2581fruits": 6731,
  "\u2581haviwo": 6732,
  "\u2581matr\u0254": 6733,
  "\u2581metal": 6734,
  "\u2581minded": 6735,
  "\u2581nyoa": 6736,
  "\u2581ruled": 6737,
  "\u2581yayrawo": 6738,
  "\u2581yuniv\u025bsiti": 6739,
  "\u2581\u014bugbet\u0254": 6740,
  "\u2581Ahab": 6741,
  "\u2581Committee": 6742,
  "\u2581Jude": 6743,
  "\u2581Katolikoha": 6744,
  "\u2581Vatican": 6745,
  "\u2581V\u0254v\u0254": 6746,
  "\u2581Wisdom": 6747,
  "\u2581kutrikuku": 6748,
  "\u2581nukata": 6749,
  "\u2581portion": 6750,
  "\u2581safeguard": 6751,
  "\u2581sukuviwo": 6752,
  "\u2581ta\u0256odzinue": 6753,
  "\u2581twice": 6754,
  "\u2581t\u0254tr\u0254m": 6755,
  "\u2581Agbal\u1ebdnyala": 6756,
  "\u2581Nufiame": 6757,
  "\u2581Rwanda": 6758,
  "\u2581agbad\u0254": 6759,
  "\u2581approaching": 6760,
  "\u2581eto": 6761,
  "\u2581holds": 6762,
  "\u2581lion": 6763,
  "\u2581m\u00edeto": 6764,
  "\u2581naz\u00e3bubu": 6765,
  "\u2581nyate\u0192ee": 6766,
  "\u2581peer": 6767,
  "\u2581peers": 6768,
  "\u2581previous": 6769,
  "\u2581repent": 6770,
  "\u2581s\u00e3": 6771,
  "\u2581tsim": 6772,
  "\u2581Veteran": 6773,
  "\u2581agbeme\u014bkeke": 6774,
  "\u2581aha\u0256e": 6775,
  "\u2581arose": 6776,
  "\u2581asitsatsa": 6777,
  "\u2581discussions": 6778,
  "\u2581eternity": 6779,
  "\u2581faces": 6780,
  "\u2581go\u014bgo\u014b": 6781,
  "\u2581obeying": 6782,
  "\u2581sigaret": 6783,
  "\u2581sources": 6784,
  "\u2581tafea": 6785,
  "\u2581treasures": 6786,
  "\u2581\u0256im": 6787,
  "tsu": 6788,
  "\u258100": 6789,
  "\u258142.": 6790,
  "\u2581A\u0256a\u014bu": 6791,
  "\u2581E\u0256a": 6792,
  "\u2581L\u00e3": 6793,
  "\u2581disobedience": 6794,
  "\u2581sasas\u00e3": 6795,
  "\u2581strangers": 6796,
  "\u2581tafe": 6797,
  "\u2581w\u00f2nyea": 6798,
  "\u2581\u0263letiviwo": 6799,
  "\u2581Dzo": 6800,
  "\u2581Mav\u0254": 6801,
  "\u2581Ur": 6802,
  "\u2581adopt": 6803,
  "\u2581cup": 6804,
  "\u2581gota": 6805,
  "\u2581k\u0254na": 6806,
  "\u2581lips": 6807,
  "\u2581mawuwo": 6808,
  "\u2581m\u00e8ga": 6809,
  "\u2581naka": 6810,
  "\u2581\u0256okuits\u0254ts\u0254sav\u0254": 6811,
  "By": 6812,
  "x\u0254x\u0254": 6813,
  "\u2581M\u00edew\u0254": 6814,
  "\u2581SIA": 6815,
  "\u2581central": 6816,
  "\u2581conversations": 6817,
  "\u2581fault": 6818,
  "\u2581mates": 6819,
  "\u2581m\u00edets\u0254a": 6820,
  "\u2581reside": 6821,
  "\u2581suesue": 6822,
  "\u2581vain": 6823,
  "\u2581y\u0254e": 6824,
  "\u2581\u0256o\u0256oe": 6825,
  "\u25811946": 6826,
  "\u2581afflicted": 6827,
  "\u2581awuwo": 6828,
  "\u2581d\u0254menyo": 6829,
  "\u2581nas\u0254": 6830,
  "\u2581noa": 6831,
  "\u2581nyate\u0192et\u0254": 6832,
  "\u2581plenty": 6833,
  "\u2581rewarding": 6834,
  "\u2581upset": 6835,
  "\u2581visible": 6836,
  "\u2581\u00d0ikekeman\u0254mee": 6837,
  "ber": 6838,
  "io": 6839,
  "\u2581Hena": 6840,
  "\u2581adrelia": 6841,
  "\u2581arrival": 6842,
  "\u2581dzix\u0254x\u0254se": 6843,
  "\u2581educational": 6844,
  "\u2581gax\u0254a": 6845,
  "\u2581regardless": 6846,
  "\u2581wo\u0256i": 6847,
  "\u2581\u028buwo": 6848,
  "pp": 6849,
  "\u2581Far": 6850,
  "\u2581Hamea": 6851,
  "\u2581Knowledge": 6852,
  "\u2581Mom": 6853,
  "\u2581Nuxl\u0254": 6854,
  "\u2581asleep": 6855,
  "\u2581bibiwo": 6856,
  "\u2581desirable": 6857,
  "\u2581dzedzem": 6858,
  "\u2581gomen\u0254amesi": 6859,
  "\u2581natso": 6860,
  "\u2581preserved": 6861,
  "bia": 6862,
  "keep": 6863,
  "per": 6864,
  "yanyuigb\u0254gbl\u0254d\u0254a": 6865,
  "\u0256u": 6866,
  "\u2581G\u0254me\u0256e\u0256e": 6867,
  "\u2581Habakkuk": 6868,
  "\u2581Little": 6869,
  "\u2581Published": 6870,
  "\u2581Ts\u00e3": 6871,
  "\u2581dutan": 6872,
  "\u2581fitting": 6873,
  "\u2581heat": 6874,
  "\u2581judged": 6875,
  "\u2581larger": 6876,
  "\u2581likened": 6877,
  "\u2581limits": 6878,
  "\u2581meditation": 6879,
  "\u2581nawu": 6880,
  "\u2581rage": 6881,
  "\u2581rescue": 6882,
  "\u2581seeming": 6883,
  "\u2581symbol": 6884,
  "\u2581w\u00f2gb\u0254": 6885,
  "\u2581(4)": 6886,
  "\u2581Avoid": 6887,
  "\u2581Mekp\u0254e": 6888,
  "\u2581VA": 6889,
  "\u2581bubut\u0254e": 6890,
  "\u2581choosing": 6891,
  "\u2581difficulty": 6892,
  "\u2581disorder": 6893,
  "\u2581dzadz\u025bnyenye": 6894,
  "\u2581d\u0254l\u00e9kuiwo": 6895,
  "\u2581evolution": 6896,
  "\u2581kekem": 6897,
  "\u2581loud": 6898,
  "\u2581trusting": 6899,
  "gb\u0254gb\u0254memenyenye": 6900,
  "if": 6901,
  "po": 6902,
  "\u0256a": 6903,
  "\u2581Amegbet\u0254wo": 6904,
  "\u2581Italian": 6905,
  "\u2581asrafod\u0254": 6906,
  "\u2581biana": 6907,
  "\u2581dek\u0254nuwo": 6908,
  "\u2581depend": 6909,
  "\u2581earnestly": 6910,
  "\u2581foods": 6911,
  "\u2581gbal\u1ebda": 6912,
  "\u2581m\u00edatsri": 6913,
  "\u2581m\u00edaw\u0254e": 6914,
  "\u2581reminders": 6915,
  "\u2581sending": 6916,
  "\u2581woaw\u0254e": 6917,
  "Miyi": 6918,
  "\u2581700": 6919,
  "\u2581Agbal\u1ebd\u014bl\u0254la": 6920,
  "\u2581Ets\u0254me": 6921,
  "\u2581Tame\u0256o\u0256o": 6922,
  "\u2581bought": 6923,
  "\u2581dzata": 6924,
  "\u2581egbe\u014bkekea": 6925,
  "\u2581ganye": 6926,
  "\u2581n\u00e8se": 6927,
  "\u2581openly": 6928,
  "\u2581satisfy": 6929,
  "\u2581systems": 6930,
  "\u2581tragedy": 6931,
  "\u0256ia": 6932,
  "\u2581100,000": 6933,
  "\u2581County": 6934,
  "\u2581D\u0254w\u0254\u0192e": 6935,
  "\u2581Tenuvi": 6936,
  "\u2581admit": 6937,
  "\u2581ages": 6938,
  "\u2581amedzidzedze": 6939,
  "\u2581ensure": 6940,
  "\u2581famine": 6941,
  "\u2581fled": 6942,
  "\u2581h\u025b": 6943,
  "\u2581journal": 6944,
  "\u2581nuwu\u0263i": 6945,
  "\u2581regret": 6946,
  "\u2581wheat": 6947,
  "\u2581woaka": 6948,
  "\u2581woaku": 6949,
  "\u2581\u014buf\u0254ke": 6950,
  "KAE": 6951,
  "gatsi": 6952,
  "\u2581fought": 6953,
  "\u2581nukuwo": 6954,
  "\u2581papa": 6955,
  "\u2581toto": 6956,
  "\u2581to\u0256olawo": 6957,
  "\u2581tsatsam": 6958,
  "\u2581t\u0254gbuiwo": 6959,
  "\u2581\u00c0": 6960,
  "\u2581\u0263letivi": 6961,
  "\u2581\u1ebd": 6962,
  "nyewo": 6963,
  "\u2581Barnabas": 6964,
  "\u2581DO": 6965,
  "\u2581Eastern": 6966,
  "\u2581Ester": 6967,
  "\u2581atiwo": 6968,
  "\u2581dana": 6969,
  "\u2581dzodzo": 6970,
  "\u2581emenyawo": 6971,
  "\u2581ey\u0254": 6972,
  "\u2581gamen\u0254la": 6973,
  "\u2581handed": 6974,
  "\u2581kp\u0254t\u0254na": 6975,
  "\u2581m\u00edaka": 6976,
  "\u2581m\u0254\u0256e\u0256e": 6977,
  "\u2581obvious": 6978,
  "\u2581paradisonyigba": 6979,
  "\u2581sorrow": 6980,
  "\u2581s\u0254lemehawo": 6981,
  "\u2581tsom": 6982,
  "\u2581woabia": 6983,
  "\u2581yea\u0192o": 6984,
  "\u2581GA": 6985,
  "\u2581Josiah": 6986,
  "\u2581Science": 6987,
  "\u2581defense": 6988,
  "\u2581desired": 6989,
  "\u2581driving": 6990,
  "\u2581examination": 6991,
  "\u2581ga\u0256o": 6992,
  "\u2581hungry": 6993,
  "\u2581m\u00edenyae": 6994,
  "\u2581oppression": 6995,
  "\u2581prophesied": 6996,
  "\u2581sayings": 6997,
  "\u2581w\u00f2agbl\u1ebd": 6998,
  "\u2581HAVE": 6999,
  "\u2581Interestingly": 7000,
  "\u2581Vovototo": 7001,
  "\u2581abroad": 7002,
  "\u2581anyigba\u028bu\u028bu": 7003,
  "\u2581elsewhere": 7004,
  "\u2581priesthood": 7005,
  "\u2581sell": 7006,
  "\u2581tent": 7007,
  "\u2581yewoayi": 7008,
  "e\u0192e": 7009,
  "\u25811988": 7010,
  "\u2581600": 7011,
  "\u2581Aw\u0254": 7012,
  "\u2581KPLE": 7013,
  "\u2581Ki": 7014,
  "\u2581Kpe\u0256odzi": 7015,
  "\u2581Meda": 7016,
  "\u2581Were": 7017,
  "\u2581ad\u0254": 7018,
  "\u2581defend": 7019,
  "\u2581dzadzra\u0256o\u0256i": 7020,
  "\u2581ekp\u0254e": 7021,
  "\u2581experiencing": 7022,
  "\u2581fafa": 7023,
  "\u2581grant": 7024,
  "\u2581influences": 7025,
  "\u2581mawunyakpukpuia": 7026,
  "\u2581m\u00edaz\u0254": 7027,
  "\u2581w\u00f2atsi": 7028,
  "\u2581y\u0254m": 7029,
  "\u2581\u0263i": 7030,
  "\u25811935": 7031,
  "\u2581Lakes": 7032,
  "\u2581Xizkiya": 7033,
  "\u2581adjust": 7034,
  "\u2581ak\u0254ntabubu": 7035,
  "\u2581announced": 7036,
  "\u2581ata": 7037,
  "\u2581credit": 7038,
  "\u2581immortal": 7039,
  "\u2581m\u0254xenu": 7040,
  "\u2581periods": 7041,
  "\u2581pieces": 7042,
  "\u2581reasoned": 7043,
  "\u2581refugees": 7044,
  "\u2581shame": 7045,
  "\u2581title": 7046,
  "\u2581vinyewo": 7047,
  "\u2581virtual": 7048,
  "\u2581vivivo": 7049,
  "\u2581yekp\u0254": 7050,
  "\u2581\u014butinu": 7051,
  "\u2581\u0256an\u0254": 7052,
  "gben\u0254n\u0254": 7053,
  "sa": 7054,
  "\u2581Association": 7055,
  "\u2581Co": 7056,
  "\u2581Kanaan": 7057,
  "\u2581Kristot\u0254woe": 7058,
  "\u2581Mets\u0254": 7059,
  "\u2581Near": 7060,
  "\u2581Right": 7061,
  "\u2581agbal\u1ebdvi": 7062,
  "\u2581equipped": 7063,
  "\u2581hide": 7064,
  "\u2581politics": 7065,
  "\u2581prefer": 7066,
  "\u2581wotea": 7067,
  "\u2581\u0191omedodo": 7068,
  "\u2581\u0194ea\u0256e\u0263i": 7069,
  "d\u0254d\u0254": 7070,
  "les": 7071,
  "letting": 7072,
  "\u2581Gbe\u0256e": 7073,
  "\u2581K\u0254k\u0254eawo": 7074,
  "\u2581achieve": 7075,
  "\u2581ats\u0254e": 7076,
  "\u2581comfortable": 7077,
  "\u2581covering": 7078,
  "\u2581criminal": 7079,
  "\u2581ew\u0254m": 7080,
  "\u2581exchange": 7081,
  "\u2581gbadzaa": 7082,
  "\u2581hated": 7083,
  "\u2581hoped": 7084,
  "\u2581host": 7085,
  "\u2581imprisoned": 7086,
  "\u2581k\u0254k\u0254enyenye": 7087,
  "\u2581s\u1ebdna": 7088,
  "Who": 7089,
  "dzudz\u0254madzudz\u0254e": 7090,
  "\u2581Ann": 7091,
  "\u2581Wow\u0254a": 7092,
  "\u2581agate": 7093,
  "\u2581asii": 7094,
  "\u2581keteke": 7095,
  "\u2581missing": 7096,
  "\u2581prosperity": 7097,
  "\u2581similarly": 7098,
  "\u2581sisi": 7099,
  "\u2581wow\u0254n\u025b": 7100,
  "ally": 7101,
  "ase\u0256e": 7102,
  "ye": 7103,
  "\u258133:": 7104,
  "\u2581D\u0254l\u00e9le": 7105,
  "\u2581Latingbe": 7106,
  "\u2581Numekugbal\u1ebd": 7107,
  "\u2581akpee": 7108,
  "\u2581deaths": 7109,
  "\u2581impression": 7110,
  "\u2581n\u00e0bia": 7111,
  "\u2581objective": 7112,
  "\u2581professional": 7113,
  "\u2581round": 7114,
  "\u2581sincerely": 7115,
  "\u2581technology": 7116,
  "\u2581tongues": 7117,
  "\u2581ts\u025bwo": 7118,
  "\u2581weigh": 7119,
  "\u2581worst": 7120,
  "\u2581w\u00f2nyo": 7121,
  "\u2581\u014autsua": 7122,
  "Z": 7123,
  "\u028bli": 7124,
  "\u2581Certainly": 7125,
  "\u2581Frank": 7126,
  "\u2581SAN": 7127,
  "\u2581al\u0254me": 7128,
  "\u2581badness": 7129,
  "\u2581chronic": 7130,
  "\u2581declaring": 7131,
  "\u2581design": 7132,
  "\u2581discussing": 7133,
  "\u2581eagerly": 7134,
  "\u2581inspiring": 7135,
  "\u2581pick": 7136,
  "\u2581practiced": 7137,
  "\u2581resolved": 7138,
  "\u2581scribes": 7139,
  "\u2581teenagers": 7140,
  "\u2581tsitsit\u0254": 7141,
  "S\u0186": 7142,
  "ated": 7143,
  "\u2581Department": 7144,
  "\u2581Easter": 7145,
  "\u2581GP": 7146,
  "\u2581Need": 7147,
  "\u2581Woaw\u0254": 7148,
  "\u2581depth": 7149,
  "\u2581doors": 7150,
  "\u2581errors": 7151,
  "\u2581expectations": 7152,
  "\u2581gb\u0254gb\u0254y\u0254y\u0254": 7153,
  "\u2581lines": 7154,
  "\u2581morally": 7155,
  "\u2581nublanuit\u0254e": 7156,
  "\u2581nunanawo": 7157,
  "\u2581objects": 7158,
  "\u2581observing": 7159,
  "\u2581occurs": 7160,
  "atted": 7161,
  "initi": 7162,
  "ster": 7163,
  "\u2581Gabriel": 7164,
  "\u2581Mar": 7165,
  "\u2581Sub\u0254sub\u0254ha": 7166,
  "\u2581Try": 7167,
  "\u2581ame\u0192omevi": 7168,
  "\u2581boat": 7169,
  "\u2581d\u0254mefafa": 7170,
  "\u2581exciting": 7171,
  "\u2581mew\u0254na": 7172,
  "\u2581nya\u028bi\u028bli": 7173,
  "\u2581permission": 7174,
  "\u2581printing": 7175,
  "\u2581trakt": 7176,
  "\u2581tsitsiawo": 7177,
  "\u2581waste": 7178,
  "\u2581witnessed": 7179,
  "\u2581\u00e8se": 7180,
  "T\u0186WO": 7181,
  "ameha": 7182,
  "dede": 7183,
  "kpekpe": 7184,
  "\u258132]": 7185,
  "\u258162": 7186,
  "\u2581Geneva": 7187,
  "\u2581Karen": 7188,
  "\u2581Xabakuk": 7189,
  "\u2581acquainted": 7190,
  "\u2581amesin\u0254n\u0254": 7191,
  "\u2581ametia": 7192,
  "\u2581application": 7193,
  "\u2581assume": 7194,
  "\u2581east": 7195,
  "\u2581firstborn": 7196,
  "\u2581linked": 7197,
  "\u2581nyatia": 7198,
  "\u2581tse": 7199,
  "\u2581urge": 7200,
  "\u2581wealthy": 7201,
  "\u2581weather": 7202,
  "\u2581woxl\u1ebd": 7203,
  "\u2581yoke": 7204,
  "\u2581\u00c8nya": 7205,
  "gate": 7206,
  "\u0256e\u0256efia": 7207,
  "\u25811918": 7208,
  "\u2581D\u0254w": 7209,
  "\u2581Kpl\u0254la": 7210,
  "\u2581PALM": 7211,
  "\u2581demand": 7212,
  "\u2581detail": 7213,
  "\u2581d\u0254l\u00e9kuia": 7214,
  "\u2581gb\u0254gb\u0254menuw\u0254w\u0254": 7215,
  "\u2581lacking": 7216,
  "\u2581na\u028b\u00e3": 7217,
  "\u2581numedzodzro": 7218,
  "\u2581n\u00e3": 7219,
  "\u2581sno": 7220,
  "\u2581surprising": 7221,
  "com": 7222,
  "dzudz\u0254": 7223,
  "ley": 7224,
  "other": 7225,
  "\u25811951": 7226,
  "\u2581Germania": 7227,
  "\u2581Henox": 7228,
  "\u2581Judaism": 7229,
  "\u2581Kpl\u0254": 7230,
  "\u2581abusive": 7231,
  "\u2581bus": 7232,
  "\u2581deeper": 7233,
  "\u2581farm": 7234,
  "\u2581friendly": 7235,
  "\u2581injury": 7236,
  "\u2581vinye": 7237,
  "\u2581Ava": 7238,
  "\u2581CITY": 7239,
  "\u2581IV": 7240,
  "\u2581Middle": 7241,
  "\u2581Toronto": 7242,
  "\u2581Truly": 7243,
  "\u2581anukwaret\u0254e": 7244,
  "\u2581conform": 7245,
  "\u2581considerable": 7246,
  "\u2581f\u0254e": 7247,
  "\u2581grandparents": 7248,
  "\u2581haa": 7249,
  "\u2581helper": 7250,
  "\u2581m\u00edenyi": 7251,
  "\u2581nu\u0256usi": 7252,
  "\u2581range": 7253,
  "\u2581settled": 7254,
  "\u2581statements": 7255,
  "Your": 7256,
  "\u258128]": 7257,
  "\u2581Above": 7258,
  "\u2581Nyametsotso": 7259,
  "\u2581Teokrasi": 7260,
  "\u2581Zefanya": 7261,
  "\u2581a\u028baa": 7262,
  "\u2581babla": 7263,
  "\u2581crowds": 7264,
  "\u2581domedome": 7265,
  "\u2581dzikudodo": 7266,
  "\u2581eka": 7267,
  "\u2581entirely": 7268,
  "\u2581facilities": 7269,
  "\u2581goats": 7270,
  "\u2581largest": 7271,
  "\u2581l\u00e3mes\u1ebdnyawo": 7272,
  "\u2581miekp\u0254": 7273,
  "\u2581n\u00e0va": 7274,
  "\u2581passage": 7275,
  "\u2581wome": 7276,
  "\u2581w\u0254naa": 7277,
  "\u2581\u00d0\u0254kta": 7278,
  "\u2581\u014bkekewo": 7279,
  "\u2581\u0191u": 7280,
  "Fia\u0256u\u0192egbe\u0192\u00e3\u0256ela": 7281,
  "\u25811958": 7282,
  "\u258173": 7283,
  "\u2581Any": 7284,
  "\u2581Dzi\u0256ula": 7285,
  "\u2581M\u00ede\u0256e": 7286,
  "\u2581Sabbath": 7287,
  "\u2581Yosiya": 7288,
  "\u2581Z": 7289,
  "\u2581anxieties": 7290,
  "\u2581ban": 7291,
  "\u2581friendships": 7292,
  "\u2581measures": 7293,
  "\u2581n\u0254vinyeny\u0254nu": 7294,
  "\u2581pursuit": 7295,
  "\u2581records": 7296,
  "\u2581senses": 7297,
  "\u2581strange": 7298,
  "\u2581takp\u0254kp\u0254": 7299,
  "\u2581woadzra": 7300,
  "\u2581x\u0254set\u0254": 7301,
  "ance": 7302,
  "good": 7303,
  "j": 7304,
  "kpl\u0254": 7305,
  "\u014butil\u00e3": 7306,
  "\u2581Additionally": 7307,
  "\u2581Everyone": 7308,
  "\u2581Jerome": 7309,
  "\u2581Learning": 7310,
  "\u2581adjustments": 7311,
  "\u2581bright": 7312,
  "\u2581buildings": 7313,
  "\u2581crying": 7314,
  "\u2581d\u0254w\u0254\u0192eg\u00e3": 7315,
  "\u2581ehe": 7316,
  "\u2581et\u0254x\u025b": 7317,
  "\u2581gbe\u0256i\u0256i": 7318,
  "\u2581gb\u0254gb\u0254me": 7319,
  "\u2581hehee": 7320,
  "\u2581hel\u0129hel\u0129": 7321,
  "\u2581keli": 7322,
  "\u2581neglect": 7323,
  "\u2581produces": 7324,
  "\u2581v\u0254samlekpui": 7325,
  "Go": 7326,
  "\u2581Dzi\u0192o": 7327,
  "\u2581Dzi\u0256ulag\u00e3": 7328,
  "\u2581Faithful": 7329,
  "\u2581Judas": 7330,
  "\u2581Mawusub\u0254sub\u0254": 7331,
  "\u2581Nuw\u0254w\u0254": 7332,
  "\u2581assemblies": 7333,
  "\u2581b\u0254mb": 7334,
  "\u2581despair": 7335,
  "\u2581doubts": 7336,
  "\u2581effectively": 7337,
  "\u2581fed": 7338,
  "\u2581\u00e8ts\u0254": 7339,
  "ld": 7340,
  "ts\u0254": 7341,
  "\u258145.": 7342,
  "\u2581Canaan": 7343,
  "\u2581Hi\u00e3": 7344,
  "\u2581ashamed": 7345,
  "\u2581comforted": 7346,
  "\u2581encounter": 7347,
  "\u2581gbe\u0192\u00e3\u0256e\u0256ed\u0254": 7348,
  "\u2581ge\u0256ewoe": 7349,
  "\u2581hehenana": 7350,
  "\u2581press": 7351,
  "\u2581proclaimers": 7352,
  "\u2581rebellious": 7353,
  "\u2581resort": 7354,
  "\u2581tanyenye": 7355,
  "\u2581tiny": 7356,
  "\u2581vavalawo": 7357,
  "\u2581\u0192omedodoa": 7358,
  "\u25811953": 7359,
  "\u2581DE": 7360,
  "\u2581Joy": 7361,
  "\u2581Judge": 7362,
  "\u2581Last": 7363,
  "\u2581amama\u0256e\u0256enuw\u0254na": 7364,
  "\u2581dzi\u0256u\u0263i": 7365,
  "\u2581gagl\u00e3gbe": 7366,
  "\u2581gbolo": 7367,
  "\u2581hates": 7368,
  "\u2581increasingly": 7369,
  "\u2581islands": 7370,
  "\u2581kaka\u0256edzit\u0254e": 7371,
  "\u2581lu": 7372,
  "\u2581materials": 7373,
  "\u2581nyaawo": 7374,
  "\u2581outset": 7375,
  "\u2581ses\u1ebdt\u0254": 7376,
  "\u2581staff": 7377,
  "\u2581wodina": 7378,
  "\u2581\u014akul\u00e9le": 7379,
  "abe": 7380,
  "et": 7381,
  "\u2581Dead": 7382,
  "\u2581Map": 7383,
  "\u2581eses\u1ebdna": 7384,
  "\u2581feeding": 7385,
  "\u2581fofowo": 7386,
  "\u2581governing": 7387,
  "\u2581green": 7388,
  "\u2581hetr\u0254": 7389,
  "\u2581makp\u0254makp\u0254": 7390,
  "\u2581n\u00e8nya": 7391,
  "\u2581piece": 7392,
  "\u2581producing": 7393,
  "\u2581realistic": 7394,
  "\u2581woti": 7395,
  "\u2581w\u0254ad\u00e3": 7396,
  "\u2581xoxoa": 7397,
  "IA": 7398,
  "ten": 7399,
  "\u2581103": 7400,
  "\u2581Judges": 7401,
  "\u2581Nu\u014bl\u0254\u0256i": 7402,
  "\u2581Wodi": 7403,
  "\u2581Yeyea": 7404,
  "\u2581abla": 7405,
  "\u2581avoided": 7406,
  "\u2581disappointed": 7407,
  "\u2581dzodzrowo": 7408,
  "\u2581kame": 7409,
  "\u2581nyemete": 7410,
  "\u2581parental": 7411,
  "\u2581represents": 7412,
  "\u2581sharp": 7413,
  "\u2581s\u0254na": 7414,
  "\u2581tagb\u0254": 7415,
  "\u2581vow": 7416,
  "\u2581w\u00f2ase": 7417,
  "\u2581zealously": 7418,
  "mu": 7419,
  "siwo": 7420,
  "\u2581Assembl": 7421,
  "\u2581Neva": 7422,
  "\u2581d\u0254l\u00e9lewo": 7423,
  "\u2581gambling": 7424,
  "\u2581immediate": 7425,
  "\u2581miss": 7426,
  "\u2581post": 7427,
  "\u2581stands": 7428,
  "\u2581strongly": 7429,
  "\u2581tragic": 7430,
  "\u2581t\u0254nye": 7431,
  "\u2581woagbl\u1ebd": 7432,
  "ff": 7433,
  "ps": 7434,
  "\u2581Knowing": 7435,
  "\u2581Ohio": 7436,
  "\u2581Power": 7437,
  "\u2581advancement": 7438,
  "\u2581af\u0254kua": 7439,
  "\u2581aha\u0256o": 7440,
  "\u2581climate": 7441,
  "\u2581commented": 7442,
  "\u2581cultures": 7443,
  "\u2581discover": 7444,
  "\u2581expressing": 7445,
  "\u2581fulfilling": 7446,
  "\u2581minor": 7447,
  "\u2581motive": 7448,
  "\u2581m\u00ede\u028bu": 7449,
  "\u2581notsi": 7450,
  "\u2581n\u00e8de": 7451,
  "\u2581rewards": 7452,
  "\u2581shine": 7453,
  "\u2581soldier": 7454,
  "\u2581sole": 7455,
  "\u2581strike": 7456,
  "\u2581tsonu": 7457,
  "\u2581unknown": 7458,
  "\u2581vevit\u0254wo": 7459,
  "\u2581vuv\u0254\u014b\u0254li": 7460,
  "L\u0254": 7461,
  "mawu": 7462,
  "sub\u0254sub\u0254hakpl\u0254la": 7463,
  "ts\u0254ts\u0254": 7464,
  "\u2581Ameka": 7465,
  "\u2581Bethlehem": 7466,
  "\u2581GB\u0186": 7467,
  "\u2581Insight": 7468,
  "\u2581Sermon": 7469,
  "\u2581Supreme": 7470,
  "\u2581Titina": 7471,
  "\u2581Todzimawunya": 7472,
  "\u2581drama": 7473,
  "\u2581hopes": 7474,
  "\u2581judicial": 7475,
  "\u2581l\u00e3megbegbl\u1ebd": 7476,
  "\u2581meantime": 7477,
  "\u2581meke": 7478,
  "\u2581movevi\u0256o\u0256ot\u0254e": 7479,
  "\u2581nagbl\u0254": 7480,
  "\u2581narrow": 7481,
  "\u2581privileged": 7482,
  "\u2581tsidzadza": 7483,
  "\u2581wain": 7484,
  "\u2581x\u0254na": 7485,
  "\u258163": 7486,
  "\u2581Mete": 7487,
  "\u2581Ruler": 7488,
  "\u2581billions": 7489,
  "\u2581edziv\u0254wo": 7490,
  "\u2581evee": 7491,
  "\u2581grace": 7492,
  "\u2581illustrated": 7493,
  "\u2581kplu": 7494,
  "\u2581manifested": 7495,
  "\u2581marriages": 7496,
  "\u2581nudz\u0254dz\u0254a": 7497,
  "\u2581peaceable": 7498,
  "\u2581sounds": 7499,
  "\u2581tokun\u0254wo": 7500,
  "\u2581ts\u0254na": 7501,
  "NA": 7502,
  "\u25811944": 7503,
  "\u25811952": 7504,
  "\u2581Belgium": 7505,
  "\u2581Courtesy": 7506,
  "\u2581appealing": 7507,
  "\u2581babies": 7508,
  "\u2581compromise": 7509,
  "\u2581earnest": 7510,
  "\u2581era": 7511,
  "\u2581festival": 7512,
  "\u2581globe": 7513,
  "\u2581namely": 7514,
  "\u2581n\u00e0l\u0254": 7515,
  "\u2581teenage": 7516,
  "\u2581winter": 7517,
  "ent": 7518,
  "gu": 7519,
  "hi": 7520,
  "ie": 7521,
  "\u25811938": 7522,
  "\u25811942": 7523,
  "\u2581Trust": 7524,
  "\u2581agben\u0254\u0192e": 7525,
  "\u2581brethren": 7526,
  "\u2581empire": 7527,
  "\u2581grows": 7528,
  "\u2581g\u00e3nyenye": 7529,
  "\u2581highest": 7530,
  "\u2581ignored": 7531,
  "\u2581m\u00eda\u014bl\u0254": 7532,
  "\u2581m\u0254z\u0254z\u0254a": 7533,
  "\u2581obeyed": 7534,
  "\u2581offerings": 7535,
  "\u2581prospects": 7536,
  "\u2581reflects": 7537,
  "\u2581rendering": 7538,
  "\u2581respects": 7539,
  "\u2581tete": 7540,
  "\u2581vloe": 7541,
  "\u2581willingness": 7542,
  "\u2581w\u00f2atso": 7543,
  "\u2581\u0192onye": 7544,
  "610": 7545,
  "\u2581Library": 7546,
  "\u2581Likely": 7547,
  "\u2581Mebia": 7548,
  "\u2581Ten": 7549,
  "\u2581agben\u0254\u0263i": 7550,
  "\u2581bones": 7551,
  "\u2581earn": 7552,
  "\u2581egbl\u1ebd": 7553,
  "\u2581exact": 7554,
  "\u2581gbe\u0256egbe\u0256e": 7555,
  "\u2581meditating": 7556,
  "\u2581memories": 7557,
  "\u2581nagbl\u1ebd": 7558,
  "\u2581obstacles": 7559,
  "\u2581priority": 7560,
  "\u2581rid": 7561,
  "\u2581sorry": 7562,
  "\u2581stage": 7563,
  "\u2581submit": 7564,
  "\u2581te\u0192en\u0254la": 7565,
  "\u2581woa\u014bl\u0254": 7566,
  "\u2581yeagbl\u0254": 7567,
  "\u2581\u014bl\u0254lawo": 7568,
  "\u2581\u0192omegben\u0254n\u0254": 7569,
  "\u2581\u028b\u0254nui": 7570,
  "IN": 7571,
  "mel\u0254": 7572,
  "new": 7573,
  "sk": 7574,
  "s\u0254": 7575,
  "\u0263eyi\u0263i": 7576,
  "\u25811989": 7577,
  "\u258164": 7578,
  "\u258197": 7579,
  "\u2581Happiness": 7580,
  "\u2581Rachel": 7581,
  "\u2581Yordan": 7582,
  "\u2581ama": 7583,
  "\u2581amazing": 7584,
  "\u2581az\u0254li": 7585,
  "\u2581biabiawo": 7586,
  "\u2581comparison": 7587,
  "\u2581dzi\u014b\u0254wo": 7588,
  "\u2581fat": 7589,
  "\u2581idols": 7590,
  "\u2581neutral": 7591,
  "\u2581production": 7592,
  "\u2581status": 7593,
  "\u2581surrounding": 7594,
  "\u2581thoroughly": 7595,
  "\u2581unexpected": 7596,
  "\u2581weekly": 7597,
  "\u2581wonana": 7598,
  "\u2581w\u00f2sus\u0254": 7599,
  "LE": 7600,
  "\u2581ESI": 7601,
  "\u2581Institute": 7602,
  "\u2581MAWU": 7603,
  "\u2581Su": 7604,
  "\u2581Wots\u0254a": 7605,
  "\u2581awudodo": 7606,
  "\u2581character": 7607,
  "\u2581dzodzodzoe": 7608,
  "\u2581edition": 7609,
  "\u2581gaining": 7610,
  "\u2581garments": 7611,
  "\u2581maintained": 7612,
  "\u2581n\u00e8n\u0254": 7613,
  "\u2581uphold": 7614,
  "\u2581w\u00f2w\u0254e": 7615,
  "keke": 7616,
  "ner": 7617,
  "susu": 7618,
  "tsy\u0254": 7619,
  "\u2581Modern": 7620,
  "\u2581NYE": 7621,
  "\u2581Numbers": 7622,
  "\u2581TSO": 7623,
  "\u2581WHEN": 7624,
  "\u2581Zaxarya": 7625,
  "\u2581a\u028baw\u0254w\u0254wo": 7626,
  "\u2581de\u014bg\u0254wo": 7627,
  "\u2581ezu": 7628,
  "\u2581gbogboawo": 7629,
  "\u2581honesty": 7630,
  "\u2581kingdoms": 7631,
  "\u2581lifetime": 7632,
  "\u2581maku": 7633,
  "\u2581nyabiabia": 7634,
  "\u2581ny\u0254nuviwo": 7635,
  "\u2581presents": 7636,
  "\u2581promotes": 7637,
  "\u2581sky": 7638,
  "\u2581temper": 7639,
  "\u2581tr\u0254m": 7640,
  "\u2581xl\u00e3e": 7641,
  "\u2581\u014b\u0254\u014bl\u0254dzesi": 7642,
  "\u25811955": 7643,
  "\u25812006": 7644,
  "\u2581Ancient": 7645,
  "\u2581bi\u00e3": 7646,
  "\u2581board": 7647,
  "\u2581distributed": 7648,
  "\u2581double": 7649,
  "\u2581dzid\u0254": 7650,
  "\u2581dzimax\u0254set\u0254wo": 7651,
  "\u2581edea": 7652,
  "\u2581enduring": 7653,
  "\u2581expensive": 7654,
  "\u2581hall": 7655,
  "\u2581ho\u028bi\u028bli": 7656,
  "\u2581organizations": 7657,
  "\u2581overwhelming": 7658,
  "\u2581reduced": 7659,
  "\u2581survival": 7660,
  "\u2581widows": 7661,
  "\u2581woak\u0254": 7662,
  "\u2581woa\u0256i": 7663,
  "\u2581w\u0254w\u0254e": 7664,
  "\u2581\u014butinuwo": 7665,
  "\u2581\u0256asr\u00e3": 7666,
  "Me": 7667,
  "\u2581Agbal\u1ebda": 7668,
  "\u2581Barak": 7669,
  "\u2581Become": 7670,
  "\u2581Chinese": 7671,
  "\u2581Japanese": 7672,
  "\u2581Star": 7673,
  "\u2581blibodede": 7674,
  "\u2581commercial": 7675,
  "\u2581concept": 7676,
  "\u2581dating": 7677,
  "\u2581dzide\u0192ot\u0254e": 7678,
  "\u2581dzima\u0256itsitsiwo": 7679,
  "\u2581engaging": 7680,
  "\u2581modesty": 7681,
  "\u2581m\u00eda\u0256ee": 7682,
  "\u2581separated": 7683,
  "\u2581supporting": 7684,
  "\u2581wo\u014bl\u0254e": 7685,
  "\u2581yedi": 7686,
  "\u2581\u014bus\u1ebdkat\u00e3t\u0254": 7687,
  "lin": 7688,
  "nunana": 7689,
  "\u2581Al\u1ebdvi": 7690,
  "\u2581Nun\u0254lag\u00e3": 7691,
  "\u2581ahado": 7692,
  "\u2581classes": 7693,
  "\u2581dug\u00e3wo": 7694,
  "\u2581expects": 7695,
  "\u2581fiadu": 7696,
  "\u2581hardships": 7697,
  "\u2581hurtful": 7698,
  "\u2581kamedede": 7699,
  "\u2581maturity": 7700,
  "\u2581mawufia\u0256u\u0192e": 7701,
  "\u2581pa": 7702,
  "\u2581priorities": 7703,
  "\u2581product": 7704,
  "\u2581sides": 7705,
  "\u2581spring": 7706,
  "\u2581wotona": 7707,
  "\u2581z\u0254a": 7708,
  "\u2581\u0256una": 7709,
  ",000,000": 7710,
  "ny\u0254nuwo": 7711,
  "\u2581110": 7712,
  "\u25812005": 7713,
  "\u2581ABE": 7714,
  "\u2581Agba": 7715,
  "\u2581Meanwhile": 7716,
  "\u2581agbl\u0254e": 7717,
  "\u2581atsy\u00e3": 7718,
  "\u2581bank": 7719,
  "\u2581deceived": 7720,
  "\u2581g\u0254me\u0256oanyi": 7721,
  "\u2581initial": 7722,
  "\u2581kp\u0254\u0256e\u014bui": 7723,
  "\u2581loose": 7724,
  "\u2581outcry": 7725,
  "\u2581patriarch": 7726,
  "\u2581plain": 7727,
  "\u2581resident": 7728,
  "\u2581taste": 7729,
  "\u2581taxes": 7730,
  "\u2581urgency": 7731,
  "\u2581woakp\u0254e": 7732,
  "\u2581yeasub\u0254": 7733,
  "\u2581\u028bi\u028bli": 7734,
  "amesiwo": 7735,
  "\u25811986": 7736,
  "\u2581Mr": 7737,
  "\u2581OH": 7738,
  "\u2581Sydney": 7739,
  "\u2581Taflatse": 7740,
  "\u2581arrive": 7741,
  "\u2581bo\u014bue": 7742,
  "\u2581declaration": 7743,
  "\u2581delegates": 7744,
  "\u2581dzim": 7745,
  "\u2581d\u0254dz\u1ebd": 7746,
  "\u2581endless": 7747,
  "\u2581kak\u025b": 7748,
  "\u2581k\u0254kuti": 7749,
  "\u2581magate": 7750,
  "\u2581nu\u0256oanyia": 7751,
  "\u2581remote": 7752,
  "\u2581shoulder": 7753,
  "\u2581star": 7754,
  "\u2581tomefafa": 7755,
  "\u2581w\u00f2gbe": 7756,
  "\u2581yewoav": 7757,
  "Happy": 7758,
  "fu": 7759,
  "red": 7760,
  "\u014buti": 7761,
  "\u2581En": 7762,
  "\u2581Orthod\u0254ks": 7763,
  "\u2581Religious": 7764,
  "\u2581Syria": 7765,
  "\u2581commitment": 7766,
  "\u2581madeblibo": 7767,
  "\u2581noise": 7768,
  "\u2581nutata": 7769,
  "\u2581sing": 7770,
  "\u2581starting": 7771,
  "\u2581tanye": 7772,
  "\u2581tutu\u0256o": 7773,
  "\u2581wo\u0256ee": 7774,
  "\u2581w\u00f2kp\u0254e": 7775,
  "gainst": 7776,
  "tor": 7777,
  "\u25811949": 7778,
  "\u2581Divine": 7779,
  "\u2581Mehi\u00e3": 7780,
  "\u2581cloud": 7781,
  "\u2581continually": 7782,
  "\u2581courageously": 7783,
  "\u2581ease": 7784,
  "\u2581extraordinary": 7785,
  "\u2581flood": 7786,
  "\u2581handling": 7787,
  "\u2581kilo": 7788,
  "\u2581legba": 7789,
  "\u2581mase": 7790,
  "\u2581mewu": 7791,
  "\u2581m\u00ededina": 7792,
  "\u2581native": 7793,
  "\u2581nenem": 7794,
  "\u2581n\u00e0l\u00e9": 7795,
  "\u2581translators": 7796,
  "\u2581vidz\u0129wo": 7797,
  "\u2581yease": 7798,
  "Mekp\u0254": 7799,
  "Zi": 7800,
  "gram": 7801,
  "\u25811985": 7802,
  "\u2581Andrew": 7803,
  "\u2581Rev": 7804,
  "\u2581af\u0254kpa": 7805,
  "\u2581attempts": 7806,
  "\u2581badly": 7807,
  "\u2581branches": 7808,
  "\u2581manuscripts": 7809,
  "\u2581mas\u0254": 7810,
  "\u2581m\u00edaku": 7811,
  "\u2581nake": 7812,
  "\u2581nyametsotsoa": 7813,
  "\u2581opinions": 7814,
  "\u2581positions": 7815,
  "\u2581receives": 7816,
  "\u2581\u00d0ekakpui": 7817,
  "ating": 7818,
  "laawo": 7819,
  "viawo": 7820,
  "\u2581Amen": 7821,
  "\u2581Elders": 7822,
  "\u2581Neither": 7823,
  "\u2581Persian": 7824,
  "\u2581Reading": 7825,
  "\u2581Rose": 7826,
  "\u2581Seed": 7827,
  "\u2581Tom": 7828,
  "\u2581ameka": 7829,
  "\u2581armed": 7830,
  "\u2581base": 7831,
  "\u2581celebration": 7832,
  "\u2581domestic": 7833,
  "\u2581dzigb\u0254\u0256it\u0254e": 7834,
  "\u2581feast": 7835,
  "\u2581flight": 7836,
  "\u2581improved": 7837,
  "\u2581kakam": 7838,
  "\u2581medzudz\u0254": 7839,
  "\u2581nyuit\u0254wo": 7840,
  "\u2581requirement": 7841,
  "\u2581shape": 7842,
  "\u2581unbelieving": 7843,
  "\u2581valid": 7844,
  "\u2581virtue": 7845,
  "\u2581w\u00f2\u0256u": 7846,
  "\u2581Akpatawo": 7847,
  "\u2581Art": 7848,
  "\u2581Ekpe": 7849,
  "\u2581Mate": 7850,
  "\u2581Milton": 7851,
  "\u2581Nu\u014bl\u0254\u0256ia": 7852,
  "\u2581WAS": 7853,
  "\u2581agb\u00e3": 7854,
  "\u2581aging": 7855,
  "\u2581ali": 7856,
  "\u2581correction": 7857,
  "\u2581dramatic": 7858,
  "\u2581e\u0256oe": 7859,
  "\u2581loyally": 7860,
  "\u2581pregnancy": 7861,
  "\u2581roof": 7862,
  "\u2581specifically": 7863,
  "\u2581spreading": 7864,
  "\u2581whenever": 7865,
  "\u2581wox\u0254e": 7866,
  "\u2581w\u00f2aku": 7867,
  "\u2581yewoase": 7868,
  "70": 7869,
  "was": 7870,
  "\u25812007": 7871,
  "\u258132,": 7872,
  "\u2581Elizabeth": 7873,
  "\u2581Habel": 7874,
  "\u2581Mi\u0256o": 7875,
  "\u2581alilikpo": 7876,
  "\u2581a\u0256a\u014bu\u0256o\u0256oa": 7877,
  "\u2581code": 7878,
  "\u2581deserve": 7879,
  "\u2581diligent": 7880,
  "\u2581expectation": 7881,
  "\u2581explaining": 7882,
  "\u2581gbegbl\u1ebdm": 7883,
  "\u2581nu\u014bl\u0254la": 7884,
  "\u2581permit": 7885,
  "\u2581tufafat\u0254e": 7886,
  "\u2581warnings": 7887,
  "\u2581wishes": 7888,
  "\u2581\u00e0kp\u0254e": 7889,
  "day": 7890,
  "kpo": 7891,
  "tz": 7892,
  "\u2581A\u0256ewo": 7893,
  "\u2581Central": 7894,
  "\u2581Ever": 7895,
  "\u2581Nuw\u0254na": 7896,
  "\u2581T\u0254": 7897,
  "\u2581afford": 7898,
  "\u2581asitsala": 7899,
  "\u2581distinguish": 7900,
  "\u2581document": 7901,
  "\u2581d\u0254w\u0254\u0192ewo": 7902,
  "\u2581exile": 7903,
  "\u2581falling": 7904,
  "\u2581fuf\u0254f\u0254": 7905,
  "\u2581funeral": 7906,
  "\u2581hoping": 7907,
  "\u2581ideal": 7908,
  "\u2581m\u00ede\u0256oe": 7909,
  "\u2581m\u0254nukp\u0254kp\u0254wo": 7910,
  "\u2581nugbegbl\u1ebdw\u0254w\u0254": 7911,
  "\u2581preparation": 7912,
  "\u2581salt": 7913,
  "\u2581trustworthy": 7914,
  "\u2581urgent": 7915,
  "der": 7916,
  "\u25811931": 7917,
  "\u2581Drama": 7918,
  "\u2581Jos\u00e9": 7919,
  "\u2581Kasia": 7920,
  "\u2581Levites": 7921,
  "\u2581a\u0256aka\u028bua": 7922,
  "\u2581cultivating": 7923,
  "\u2581forgotten": 7924,
  "\u2581made\u014bg\u0254wo": 7925,
  "\u2581meals": 7926,
  "\u2581miw\u0254": 7927,
  "\u2581m\u00edebia": 7928,
  "\u2581n\u00e8sena": 7929,
  "\u2581overwhelmed": 7930,
  "\u2581perish": 7931,
  "\u2581reproach": 7932,
  "\u2581saving": 7933,
  "\u2581somewhat": 7934,
  "\u2581sukuhatiwo": 7935,
  "\u2581tools": 7936,
  "\u2581tract": 7937,
  "\u2581unfaithful": 7938,
  "\u2581w\u00f2w\u0254n\u025b": 7939,
  "\u2581w\u00f2\u0256i": 7940,
  "gra": 7941,
  "ial": 7942,
  "\u258186": 7943,
  "\u2581Ar": 7944,
  "\u2581Fransegbe": 7945,
  "\u2581Nyawo": 7946,
  "\u2581Park": 7947,
  "\u2581Review": 7948,
  "\u2581Theocratic": 7949,
  "\u2581bow": 7950,
  "\u2581consult": 7951,
  "\u2581continuing": 7952,
  "\u2581deception": 7953,
  "\u2581destructive": 7954,
  "\u2581duties": 7955,
  "\u2581everyday": 7956,
  "\u2581hedze": 7957,
  "\u2581industry": 7958,
  "\u2581resentment": 7959,
  "\u2581woli": 7960,
  "\u2581\u00e0di": 7961,
  "LAND": 7962,
  "ME": 7963,
  "gatr\u0254": 7964,
  "ik": 7965,
  "res": 7966,
  "\u00e1": 7967,
  "\u258157": 7968,
  "\u2581JUN": 7969,
  "\u2581Real": 7970,
  "\u2581earthquake": 7971,
  "\u2581hi\u00e3t\u0254wo": 7972,
  "\u2581hypocrisy": 7973,
  "\u2581intelligent": 7974,
  "\u2581mido": 7975,
  "\u2581nunyat\u0254e": 7976,
  "\u2581originally": 7977,
  "\u2581perfectly": 7978,
  "\u2581sites": 7979,
  "\u2581\u014autinya\u014bl\u0254la": 7980,
  "\u25811948": 7981,
  "\u2581Consequently": 7982,
  "\u2581Food": 7983,
  "\u2581Medical": 7984,
  "\u2581Nane": 7985,
  "\u2581Teaching": 7986,
  "\u2581absolutely": 7987,
  "\u2581agbledela": 7988,
  "\u2581attractive": 7989,
  "\u2581farmers": 7990,
  "\u2581fiag\u00e3": 7991,
  "\u2581fiery": 7992,
  "\u2581forgiven": 7993,
  "\u2581settle": 7994,
  "\u2581suitable": 7995,
  "\u2581transfusions": 7996,
  "\u2581tremendous": 7997,
  "\u2581wash": 7998,
  "\u2581yewoade": 7999,
  "\u2581\u014bku\u0256o\u0256o": 8000,
  "ac": 8001,
  "there": 8002,
  "\u2581130": 8003,
  "\u2581Bay": 8004,
  "\u2581Filipo": 8005,
  "\u2581Lines": 8006,
  "\u2581Saturday": 8007,
  "\u2581Tak": 8008,
  "\u2581Tokyo": 8009,
  "\u2581Wogbl\u0254na": 8010,
  "\u2581ab\u0254b\u0254": 8011,
  "\u2581amazed": 8012,
  "\u2581amekae": 8013,
  "\u2581as\u1ebd": 8014,
  "\u2581devastating": 8015,
  "\u2581grass": 8016,
  "\u2581hawo": 8017,
  "\u2581kpl\u0254lawo": 8018,
  "\u2581mesena": 8019,
  "\u2581m\u00ede\u0256u": 8020,
  "\u2581refreshment": 8021,
  "\u2581shut": 8022,
  "\u2581thereby": 8023,
  "\u2581tsotso": 8024,
  "\u2581yea\u0256i": 8025,
  "\u2581\u0256ona": 8026,
  "11": 8027,
  "ors": 8028,
  "ron": 8029,
  "ut": 8030,
  "\u2581Answers": 8031,
  "\u2581Megbe": 8032,
  "\u2581Office": 8033,
  "\u2581Priest": 8034,
  "\u2581Web": 8035,
  "\u2581angelic": 8036,
  "\u2581atitsoga": 8037,
  "\u2581dz\u0254e": 8038,
  "\u2581emphasized": 8039,
  "\u2581flow": 8040,
  "\u2581follows": 8041,
  "\u2581funds": 8042,
  "\u2581funyafunya": 8043,
  "\u2581gatherings": 8044,
  "\u2581party": 8045,
  "\u2581permitted": 8046,
  "\u2581pounds": 8047,
  "\u2581prize": 8048,
  "\u2581qualify": 8049,
  "\u2581repair": 8050,
  "\u2581replace": 8051,
  "\u2581restoration": 8052,
  "\u2581sensitive": 8053,
[...]
