{
  "</s>": 0,
  "<unk>": 1,
  ".": 2,
  ",": 3,
  "\u2581a": 4,
  "\u2581go": 5,
  "\u2581ba": 6,
  "\u2581le": 7,
  "\u2581e": 8,
  "\u2581\"": 9,
  "\u2581the": 10,
  "\u2581ka": 11,
  "\u2581o": 12,
  "\u2581to": 13,
  "\u2581of": 14,
  "\u2581ya": 15,
  "\u2581ne": 16,
  "\u2581mo": 17,
  "\u2581and": 18,
  "\u2581gore": 19,
  "\u2581se": 20,
  "\u2581di": 21,
  "\u2581-": 22,
  "\u2581ke": 23,
  "\u2581re": 24,
  "\u2581in": 25,
  "?": 26,
  "\u2581ga": 27,
  ":": 28,
  "s": 29,
  "\u2581that": 30,
  "\u2581tse": 31,
  "\u2581tsa": 32,
  "\u2581fa": 33,
  "\u2581sa": 34,
  "\u2581wa": 35,
  "\u2581is": 36,
  "\u2581bo": 37,
  "\u2581kwa": 38,
  "'": 39,
  "\u2581nna": 40,
  "\u2581for": 41,
  "\u2581mme": 42,
  "\u2581tla": 43,
  "\u2581jwa": 44,
  "ng": 45,
  "\u2581neng": 46,
  "\u2581batho": 47,
  "\u2581be": 48,
  "\u2581was": 49,
  "\u2581with": 50,
  "\u2581Jehovah": 51,
  "\u2581la": 52,
  "\u2581Modimo": 53,
  "\u2581God": 54,
  "\u2581Jehofa": 55,
  "\u2581his": 56,
  "\u2581yo": 57,
  "\u2581you": 58,
  "\u2581dira": 59,
  "\u2581not": 60,
  "\u2581na": 61,
  "\u2581jalo": 62,
  "\u2581I": 63,
  "\u2581as": 64,
  "\u2581on": 65,
  "\u2581gagwe": 66,
  "\u2581The": 67,
  "\u2581are": 68,
  "\u2581we": 69,
  "\u2581bone": 70,
  "\u2581Go": 71,
  "\u2581have": 72,
  "\u2581": 73,
  "\u2581it": 74,
  "\u2581he": 75,
  "\u2581fela": 76,
  "\u2581will": 77,
  "\u2581A": 78,
  "\u2581'": 79,
  "\u2581Ka": 80,
  "\u2581ntse": 81,
  "\u2581by": 82,
  "\u2581thata": 83,
  "\u2581[": 84,
  "\u2581from": 85,
  "!": 86,
  "\u2581their": 87,
  "\u2581me": 88,
  ";": 89,
  "\u2581one": 90,
  "\u2581(": 91,
  "\u2581Ke": 92,
  "\u2581they": 93,
  "\u2581Bible": 94,
  "\u2581or": 95,
  "\u2581lo": 96,
  "\u2581can": 97,
  "\u2581who": 98,
  "\u2581this": 99,
  "\u2581Fa": 100,
  "\u2581dilo": 101,
  "\u2581Jesus": 102,
  "\u2581Jesu": 103,
  "\u2581mongwe": 104,
  "\u2581our": 105,
  "\u2581rona": 106,
  "\u2581O": 107,
  "a": 108,
  "\u2581tsela": 109,
  "\u2581gone": 110,
  "\u2581jo": 111,
  "\u2581yone": 112,
  "\u2581were": 113,
  ")": 114,
  "\u2581jaana": 115,
  "\u2581at": 116,
  "\u2581us": 117,
  "\u2581what": 118,
  "\u2581ntlha": 119,
  "ing": 120,
  "\u2581all": 121,
  "\u2581your": 122,
  "\u2581do": 123,
  "\u2581had": 124,
  "\u2581jaaka": 125,
  "\u2581an": 126,
  "\u2581motho": 127,
  "\u2581jang": 128,
  "\u2581nako": 129,
  "\u2581What": 130,
  "\u2581In": 131,
  "\u25811": 132,
  "\u2581people": 133,
  "\u2581them": 134,
  "\u2581bangwe": 135,
  "\u2581Le": 136,
  "\u2581Baebele": 137,
  "\u2581eno": 138,
  "\u2581has": 139,
  "\u2581pele": 140,
  "]": 141,
  "\u2581eo": 142,
  "\u2581him": 143,
  "\u2581tshwanetse": 144,
  "\u2581about": 145,
  "\u2581Mo": 146,
  "\u2581would": 147,
  "\u2581ile": 148,
  "\u2581my": 149,
  "\u2581eng": 150,
  "\u2581bona": 151,
  "\u2581when": 152,
  "\u2581Mme": 153,
  "\u2581bile": 154,
  "\u2581time": 155,
  "\u2581tswa": 156,
  "\u2581molemo": 157,
  "\u2581may": 158,
  "\u2581kana": 159,
  "\u2581but": 160,
  "\u2581nngwe": 161,
  "\u2581nne": 162,
  "\u2581gago": 163,
  "\u2581Ba": 164,
  "\u2581E": 165,
  "\u2581leng": 166,
  "\u2581dingwaga": 167,
  "\u2581life": 168,
  "\u2581did": 169,
  "\u2581How": 170,
  "\u2581so": 171,
  "\u2581dingwe": 172,
  "\u2581ene": 173,
  "\u2581more": 174,
  "\u2581some": 175,
  "\u2581teng": 176,
  "\u2581those": 177,
  "\u2581/": 178,
  "\u2581Re": 179,
  "\u2581sengwe": 180,
  "\u2581also": 181,
  "\u2581thusa": 182,
  "\u2581nang": 183,
  "\u2581itse": 184,
  "\u2581boammaaruri": 185,
  "\u2581He": 186,
  "\u2581been": 187,
  "\u2581bua": 188,
  "\u2581her": 189,
  "\u2581out": 190,
  "\u2581It": 191,
  "\u2581gape": 192,
  "\u2581kgotsa": 193,
  "\u2581seno": 194,
  "\u2581such": 195,
  "\u2581many": 196,
  "\u2581lefatshe": 197,
  "\u2581bolela": 198,
  "\u2581dirisa": 199,
  "\u2581lwa": 200,
  "\u2581seo": 201,
  "\u2581bontsha": 202,
  "\u2581gonne": 203,
  "\u2581up": 204,
  "\u2581there": 205,
  "\u2581no": 206,
  "\u2581kgona": 207,
  "\u2581batla": 208,
  "\u2581tota": 209,
  "\u2581Witnesses": 210,
  "\u2581kafa": 211,
  "\u2581Basupi": 212,
  "\u2581how": 213,
  "\u2581bana": 214,
  "\u2581world": 215,
  "\u2581sentle": 216,
  "\u2581tsone": 217,
  "\u2581other": 218,
  "\u2581if": 219,
  "\u2581good": 220,
  "\u2581But": 221,
  "\u2581than": 222,
  "\u2581help": 223,
  "\u2581botshelo": 224,
  "\u2581botlhokwa": 225,
  "\u2581said": 226,
  "\u2581even": 227,
  "\u2581tsebe": 228,
  "b": 229,
  "\u2581ra": 230,
  "\u2581lefatsheng": 231,
  "\u2581should": 232,
  "\u2581way": 233,
  "\u2581tiro": 234,
  "\u2581things": 235,
  "\u2581does": 236,
  "\u2581page": 237,
  "\u2581these": 238,
  "\u2581work": 239,
  "\"": 240,
  "\u2581into": 241,
  "\u2581Paul": 242,
  "\u2581Bakeresete": 243,
  "\u2581man": 244,
  "\u2581which": 245,
  "\u2581We": 246,
  "\u25812": 247,
  "\u2581bantsi": 248,
  "\u2581Paulo": 249,
  "ed": 250,
  "\u2581tseno": 251,
  "\u2581years": 252,
  "\u2581could": 253,
  "\u2581moo": 254,
  "\u2581godimo": 255,
  "\u2581love": 256,
  "E": 257,
  "\u2581Christian": 258,
  "\u2581rata": 259,
  "\u2581madi": 260,
  "\u2581day": 261,
  "\u2581simolola": 262,
  "\u2581ithuta": 263,
  "\u2581This": 264,
  "\u2581dirang": 265,
  "\u2581When": 266,
  "\u2581she": 267,
  "\u2581make": 268,
  "\u2581They": 269,
  "\u2581earth": 270,
  "\u2581tsotlhe": 271,
  "\u2581children": 272,
  "\u2581letsatsi": 273,
  "...": 274,
  "\u2581first": 275,
  "\u2581says": 276,
  "\u2581feta": 277,
  "t": 278,
  "\u2581akanya": 279,
  "\u2581For": 280,
  "\u2581Why": 281,
  "\u2581Christ": 282,
  "\u258115": 283,
  "\u2581Keresete": 284,
  "\u2581Ga": 285,
  "e": 286,
  "\u2581because": 287,
  "ly": 288,
  "\u2581only": 289,
  "\u2581nnang": 290,
  "\u2581Kingdom": 291,
  "\u2581Christians": 292,
  "\u2581others": 293,
  "\u2581dintsi": 294,
  "\u2581sena": 295,
  "\u2581family": 296,
  "\u2581ntseng": 297,
  "\u2581morago": 298,
  "\u2581over": 299,
  "\u2581lorato": 300,
  "\u2581being": 301,
  "\u2581mafoko": 302,
  "\u2581If": 303,
  "\u25813:": 304,
  "\u2581made": 305,
  "\u2581As": 306,
  "the": 307,
  "\u2581Bogosi": 308,
  "\u2581tlhalosa": 309,
  "\u2581must": 310,
  "\u2581its": 311,
  "\u2581need": 312,
  "\u2581tsaya": 313,
  "\u2581*": 314,
  "\u2581like": 315,
  "\u2581botlhe": 316,
  "\u2581Batho": 317,
  "\u2581jaanong": 318,
  "\u2581then": 319,
  "\u2581example": 320,
  "\u2581You": 321,
  "\u2581spirit": 322,
  "\u2581Se": 323,
  "\u25812:": 324,
  "\u2581see": 325,
  "\u2581bong": 326,
  "\u2581faith": 327,
  "\u2581tshela": 328,
  "\u2581moya": 329,
  "ka": 330,
  "\u2581C": 331,
  "\u2581kgone": 332,
  "\u2581And": 333,
  "\u2581just": 334,
  "\u2581know": 335,
  "\u2581tlase": 336,
  "\u2581tlhoka": 337,
  "\u2581pelo": 338,
  "\u2581well": 339,
  "\u2581Setshwantsho": 340,
  "\u2581yang": 341,
  "\u25814:": 342,
  "\u2581seng": 343,
  "\u2581lengwe": 344,
  "\u25815": 345,
  "\u2581tshwanang": 346,
  "\u2581take": 347,
  "\u2581come": 348,
  "\u2581lone": 349,
  "\u2581mmogo": 350,
  "\u25811:": 351,
  "\u2581own": 352,
  "\u2581lona": 353,
  "\u2581now": 354,
  "\u2581true": 355,
  "\u2581new": 356,
  "\u2581tseo": 357,
  "\u2581become": 358,
  "\u2581before": 359,
  "\u2581parents": 360,
  "\u2581after": 361,
  "\u2581botlhoko": 362,
  "\u2581dumela": 363,
  "\u2581any": 364,
  "\u2581spiritual": 365,
  "\u2581congregation": 366,
  "\u2581bao": 367,
  "\u2581lelapa": 368,
  "\u2581lemoga": 369,
  "\u2581two": 370,
  "\u2581sekai": 371,
  "\u2581sone": 372,
  "\u2581monna": 373,
  "\u2581John": 374,
  "\u2581sepe": 375,
  "\u2581death": 376,
  "\u2581words": 377,
  "\u2581leka": 378,
  "\u2581botlhale": 379,
  "\u2581men": 380,
  "\u2581naya": 381,
  "\u2581mosadi": 382,
  "\u2581gompieno": 383,
  "\u2581Picture": 384,
  "\u2581mathata": 385,
  "d": 386,
  "\u2581direla": 387,
  "\u2581New": 388,
  "\u2581ones": 389,
  "\u2581another": 390,
  "\u2581very": 391,
  "\u2581much": 392,
  "\u2581heart": 393,
  "\u2581most": 394,
  "\u25816:": 395,
  "\u2581maemo": 396,
  "n": 397,
  "\u2581tumelo": 398,
  "\u2581batsadi": 399,
  "\u2581metlha": 400,
  "\u2581tsamaya": 401,
  "\u2581So": 402,
  "\u2581through": 403,
  "\u2581tshwanetseng": 404,
  "\u2581Lefa": 405,
  "o": 406,
  "A": 407,
  "\u2581kwala": 408,
  "\u2581Gape": 409,
  "\u2581bolelela": 410,
  "\u2581person": 411,
  "le": 412,
  "\u2581give": 413,
  "\u2581tswelela": 414,
  "\u25811,": 415,
  "\u2581\u25a1": 416,
  "\u2581times": 417,
  "\u2581siameng": 418,
  "\u2581name": 419,
  "\u2581maatla": 420,
  "\u2581amogela": 421,
  "\u2581today": 422,
  "\u2581That": 423,
  "\u25817": 424,
  "\u2581dire": 425,
  "\u2581bodumedi": 426,
  "\u2581year": 427,
  "\u2581utlwa": 428,
  "\u2581say": 429,
  "\u2581selo": 430,
  "\u2581One": 431,
  "\u2581might": 432,
  "\u2581where": 433,
  "S": 434,
  "\u2581study": 435,
  "\u2581setse": 436,
  "\u2581tle": 437,
  "\u2581tswang": 438,
  "\u2581dinako": 439,
  "\u2581book": 440,
  "\u2581B": 441,
  "\u2581fitlha": 442,
  "\u2581leina": 443,
  "\u2581found": 444,
  "\u2581leno": 445,
  "\u2581kgolo": 446,
  "\u2581great": 447,
  "\u2581truth": 448,
  "\u2581yotlhe": 449,
  "\u2581home": 450,
  "\u2581feel": 451,
  "\u2581human": 452,
  "\u2581young": 453,
  "\u25818": 454,
  "I": 455,
  "\u2581ditiro": 456,
  "\u2581part": 457,
  "\u2581ise": 458,
  "\u00f1": 459,
  "\u2581ikutlwa": 460,
  "\u2581Bokeresete": 461,
  "\u2581semoya": 462,
  "\u2581find": 463,
  "\u2581Bibela": 464,
  "\u2581dijo": 465,
  "\u2022": 466,
  "\u2581ruri": 467,
  "\u2581bala": 468,
  "\u2581To": 469,
  "\u2581ruta": 470,
  "\u2581each": 471,
  "\u2581gantsi": 472,
  "\u2581reng": 473,
  "\u2581kae": 474,
  "\u2581use": 475,
  "\u258114": 476,
  "\u2581lotlhe": 477,
  "\u2581ano": 478,
  "\u2581Seno": 479,
  "Ke": 480,
  "\u258120": 481,
  "\u2581bogologolo": 482,
  "\u2581maleban": 483,
  "\u2581against": 484,
  "\u2581ileng": 485,
  "\u2581same": 486,
  "\u2581Some": 487,
  "\u2581get": 488,
  "\u2581foo": 489,
  "\u2581himself": 490,
  "\u2581often": 491,
  "\u2581wena": 492,
  "\u2581rera": 493,
  "\u25813": 494,
  "\u2581However": 495,
  "\u2581Word": 496,
  "\u2581raya": 497,
  "\u2581farologaneng": 498,
  "\u2581mangwe": 499,
  "\u2581long": 500,
  "\u2581Do": 501,
  "\u2581David": 502,
  "\u2581used": 503,
  "\u2581never": 504,
  "\u2581gongwe": 505,
  "\u2581ngwaga": 506,
  "\u2581means": 507,
  "\u2581apostle": 508,
  "\u2581though": 509,
  "\u2581ope": 510,
  "\u2581Luke": 511,
  "\u2581put": 512,
  "\u2581Di": 513,
  "\u2581too": 514,
  "\u2581brothers": 515,
  "\u2581phuthego": 516,
  "\u2581United": 517,
  "\u2581Peter": 518,
  "\u2581ngwana": 519,
  "\u2581Israel": 520,
  "\u2581akaretsa": 521,
  "\u2581keep": 522,
  "\u2581Satane": 523,
  "\u2581place": 524,
  "\u2581upon": 525,
  "C": 526,
  "\u2581supa": 527,
  "\u2581every": 528,
  "\u2581why": 529,
  "\u2581wrote": 530,
  "\u2581maikutlo": 531,
  "\u2581Lefoko": 532,
  "\u2581end": 533,
  "\u2581bogolo": 534,
  "\u2581At": 535,
  "\u2581karolo": 536,
  "\u2581Kwa": 537,
  "\u2581bano": 538,
  "\u2581called": 539,
  "\u2581under": 540,
  "\u2581right": 541,
  "\u2581boitshepo": 542,
  "\u2581Satan": 543,
  "\u258110": 544,
  "\u2581leba": 545,
  "\u2581Is": 546,
  "\u2581tshwanela": 547,
  "\u2581leo": 548,
  "\u2581bonala": 549,
  "\u2581became": 550,
  "\u2581learn": 551,
  "\u2581ea": 552,
  "\u2581back": 553,
  "\u2581came": 554,
  "\u2581kgang": 555,
  "\u2581gare": 556,
  "\u2581down": 557,
  "\u2581want": 558,
  "\u2581among": 559,
  "\u2581efe": 560,
  "\u2581course": 561,
  "\u2581show": 562,
  "\u2581ono": 563,
  "\u2581After": 564,
  "\u2581swa": 565,
  "\u2581Tota": 566,
  "go": 567,
  "\u258112": 568,
  "\u2581fetileng": 569,
  "\u2581days": 570,
  "\u2581important": 571,
  "\u2581thuto": 572,
  "\u2581worship": 573,
  "\u2581word": 574,
  "\u2581motlhofo": 575,
  "\u2581yono": 576,
  "\u2581during": 577,
  "\u2581live": 578,
  "\u2581read": 579,
  "\u2581old": 580,
  "\u2581Petere": 581,
  "\u2581Matthew": 582,
  "\u2581away": 583,
  "\u2581still": 584,
  "\u2581century": 585,
  "\u2581There": 586,
  "\u2581ditsela": 587,
  "\u2581wife": 588,
  "\u2581Father": 589,
  "The": 590,
  "\u2581koo": 591,
  "y": 592,
  "\u2581dirwa": 593,
  "\u2581news": 594,
  "\u2581Morago": 595,
  "\u2581itumelela": 596,
  "\u2581later": 597,
  "la": 598,
  "na": 599,
  "\u2581Mathaio": 600,
  "\u2581States": 601,
  "\u2581banna": 602,
  "\u2581ao": 603,
  "\u2581Ee": 604,
  "\u2581three": 605,
  "\u2581themselves": 606,
  "\u258111": 607,
  "tlheng": 608,
  "\u258117": 609,
  "\u2581kopa": 610,
  "\u2581told": 611,
  "\u2581kagiso": 612,
  "\u2581view": 613,
  "\u2581dikgang": 614,
  "\u2581began": 615,
  "\u2581tlhaloganya": 616,
  "\u2581basha": 617,
  "\u2581child": 618,
  "\u2581bonako": 619,
  "\u2581tlotla": 620,
  "\u2581Johane": 621,
  "\u2581Tsa": 622,
  "Go": 623,
  "\u25816": 624,
  "\u2581hope": 625,
  "\u25814": 626,
  "\u2581mind": 627,
  "\u2581peace": 628,
  "\u2581No": 629,
  "\u2581mafelo": 630,
  "\u2581ratang": 631,
  "\u2581without": 632,
  "\u2581Tse": 633,
  "\u2581tsholofelo": 634,
  "\u2581let": 635,
  "\u2581mantsi": 636,
  "\u258112:": 637,
  "),": 638,
  "\u2581siamang": 639,
  "\u2581By": 640,
  "\u2581knowledge": 641,
  "\u2581bosula": 642,
  "\u2581faithful": 643,
  "\u2581lefa": 644,
  "\u2581however": 645,
  "\u2581Dafide": 646,
  "\u2581given": 647,
  "\u2581am": 648,
  "\u2581Pesalema": 649,
  "\u2581metsi": 650,
  "\u2581living": 651,
  "\u2581ye": 652,
  "\u2581With": 653,
  "\u258119": 654,
  "\u25814.": 655,
  "\u2581Psalm": 656,
  "\u2581boemo": 657,
  "\u2581basadi": 658,
  "\u2581dife": 659,
  "\u2581On": 660,
  "\u2581power": 661,
  "\u2581buka": 662,
  "\u2581puo": 663,
  "\u2581tlogela": 664,
  "\u2581setlhogo": 665,
  "\u2581fact": 666,
  "\u2581ntlo": 667,
  "ba": 668,
  "re": 669,
  "\u2581kgakololo": 670,
  "felong": 671,
  "\u2581She": 672,
  "\u2581able": 673,
  "\u2581pedi": 674,
  "er": 675,
  "\u2581latelang": 676,
  "\u2581Then": 677,
  "\u2581service": 678,
  "\u2581gaufi": 679,
  "\u2581doing": 680,
  "\u2581Dikwalo": 681,
  "\u2581kaga": 682,
  "\u2581seabe": 683,
  "\u2581set": 684,
  "\u2581house": 685,
  "\u25812.": 686,
  "\u2581preaching": 687,
  "\u2581while": 688,
  "\u2581ministry": 689,
  "O": 690,
  "\u2581loso": 691,
  "\u2581direga": 692,
  "\u2581holy": 693,
  "\u2581World": 694,
  "\u258110:": 695,
  "\u2581fetang": 696,
  "\u2581both": 697,
  "\u25819": 698,
  "\u2581ditsala": 699,
  "\u2581Scriptures": 700,
  "\u2581jono": 701,
  "\u2581bakaulengwe": 702,
  "\u2581tlhole": 703,
  "\u2581tsena": 704,
  "\u2581puso": 705,
  "m": 706,
  "\u258111:": 707,
  "\u2581Many": 708,
  "\u2581gave": 709,
  "\u2581ntsha": 710,
  "\u2581tloga": 711,
  "\u2581bontsi": 712,
  "\u2581Baebeleng": 713,
  "....": 714,
  "\u2581tlile": 715,
  "\u2581father": 716,
  "\u2581eleng": 717,
  "\u2581bosupi": 718,
  "\u2581serve": 719,
  "\u2581ja": 720,
  "\u2581ikanyegang": 721,
  "\u2581lebaka": 722,
  "\u2581religious": 723,
  "\u2581Yes": 724,
  "\u2581always": 725,
  "\u2581His": 726,
  "\u2581gaisa": 727,
  "\u2581between": 728,
  "\u2581bothata": 729,
  "\u2581motlha": 730,
  "\u258125": 731,
  "\u2581Yet": 732,
  "\u2581thusang": 733,
  "\u258110.": 734,
  "\u2581making": 735,
  "\u2581jone": 736,
  "\u2581mankind": 737,
  "\u2581mmatota": 738,
  "\u25815:": 739,
  "\u25aa": 740,
  "\u2581Baiseraele": 741,
  "\u2581Iseraele": 742,
  "\u2581really": 743,
  "\u2581rapela": 744,
  "\u2581mother": 745,
  "\u2581disciples": 746,
  "\u2581King": 747,
  "\u2581result": 748,
  "\u2581think": 749,
  "\u2581mmele": 750,
  "\u2581lefelo": 751,
  "\u2581asked": 752,
  "\u2581batlang": 753,
  "\u2581melao": 754,
  "\u258124": 755,
  "\u2581tshwanelwa": 756,
  "\u25815.": 757,
  "\u258113:": 758,
  "\u2581something": 759,
  "\u2581dirisiwa": 760,
  "\u2581mmalwa": 761,
  "\u2581full": 762,
  "\u2581Even": 763,
  "\u258114.": 764,
  "\u2581botshelong": 765,
  "\u2581otlhe": 766,
  "\u2581barutwa": 767,
  "\u2581ways": 768,
  "\u2581legodimong": 769,
  "\u2581hand": 770,
  "\u2581phuthegong": 771,
  "\u2581tlhokang": 772,
  "th": 773,
  "\u2581Gone": 774,
  "\u2581having": 775,
  "\u2581Mokeresete": 776,
  "\u2581woman": 777,
  "\u2581mogopolo": 778,
  "\u2581whom": 779,
  "\u2581humans": 780,
  "\u2581kitso": 781,
  "\u25818.": 782,
  "\u2581dirile": 783,
  "\u2581order": 784,
  "\u2581little": 785,
  "\u2581kete": 786,
  "\u2581reason": 787,
  "\u2581Kgosi": 788,
  "\u2581took": 789,
  "\u2581Our": 790,
  "\u2581From": 791,
  "\u2581araba": 792,
  "\u2581marriage": 793,
  "\u2581few": 794,
  "\u2581setlhopha": 795,
  "\u2581number": 796,
  "\u258113.": 797,
  "\u2581problems": 798,
  "\u2581Jerusalem": 799,
  "\u2581food": 800,
  "\u258111.": 801,
  "\u2581kgonang": 802,
  "\u2581sekao": 803,
  "\u2581tshedimosetso": 804,
  "\u25817.": 805,
  "\u2581My": 806,
  "\u2581loving": 807,
  "\u258122": 808,
  "\u2581blood": 809,
  "\u2581bobedi": 810,
  "\u2581mang": 811,
  "\u2581Isaiah": 812,
  "\u2581Isaia": 813,
  "\u2581ntwa": 814,
  "\u2581water": 815,
  "\u2581Moshe": 816,
  "al": 817,
  "\u2581tirong": 818,
  "\u2581city": 819,
  "\u2581phoso": 820,
  "\u258113": 821,
  "\u2581consider": 822,
  "\u258112.": 823,
  "\u2581thulaganyo": 824,
  "\u2581purpose": 825,
  "te": 826,
  "\u2581kotsi": 827,
  "\u2581botlalo": 828,
  "\u2581future": 829,
  "\u2581Watchtower": 830,
  "\u2581women": 831,
  "\u258115,": 832,
  "mo": 833,
  "\u2581personal": 834,
  "\u2581together": 835,
  "\u2581dipotso": 836,
  "\u2581lefoko": 837,
  "\u2581toward": 838,
  "\u2581Jaa": 839,
  "\u2581oketsegileng": 840,
  "\u258130": 841,
  "\u2581Son": 842,
  "\u2581article": 843,
  "\u258118": 844,
  "\u2581Diane": 845,
  "\u2581someone": 846,
  "\u2581tletseng": 847,
  "\u2581These": 848,
  "\u2581son": 849,
  "\u25819.": 850,
  "\u2581husband": 851,
  "\u2581servants": 852,
  "\u2581look": 853,
  "\u2581U": 854,
  "\u2581batlhanka": 855,
  "\u2581since": 856,
  "\u2581neela": 857,
  "\u2581off": 858,
  "\u2581bathong": 859,
  "\u2581dithuto": 860,
  "\u2581tshwara": 861,
  "\u2581Bajuda": 862,
  "\u2581care": 863,
  "\u2581oa": 864,
  "\u25813.": 865,
  "\u2581bofelo": 866,
  "\u258117.": 867,
  "\u2581oo": 868,
  "\u2581tshwana": 869,
  "\u2581lives": 870,
  "\u2581lenyalo": 871,
  "\u2581buang": 872,
  "\u2581dingwageng": 873,
  "\u2581maaka": 874,
  "\u2581questions": 875,
  "\u2581bidiwang": 876,
  "\u2581better": 877,
  "\u2581again": 878,
  "\u25816.": 879,
  "r": 880,
  "\u2581lebega": 881,
  "\u2581dinageng": 882,
  "\u2581dimilione": 883,
  "\u258123": 884,
  "\u2581lekgolo": 885,
  "\u2581molato": 886,
  "\u2581Proverbs": 887,
  "\u2581left": 888,
  "\u2581molao": 889,
  "\u258116.": 890,
  "\u2581different": 891,
  "\u2581botoka": 892,
  "\u2581bolwetse": 893,
  "\u258115.": 894,
  "\u2581last": 895,
  "\u2581school": 896,
  "\u2581age": 897,
  "\u2581experience": 898,
  "\u2581Nna": 899,
  "\u2581kitla": 900,
  "\u2581nations": 901,
  "\u2581bring": 902,
  "\u2581free": 903,
  "\u2581tlhoko": 904,
  "\u2581boitumelo": 905,
  "\u2581All": 906,
  "\u2581mokgwa": 907,
  "\u2581joy": 908,
  "\u2581Gore": 909,
  "\u2581known": 910,
  "\u2581thuso": 911,
  "\u2581sin": 912,
  "\u258116": 913,
  "\u2581fellow": 914,
  "\u2581000": 915,
  "\u2581fear": 916,
  "\u2581Jerusalema": 917,
  "\u25818,": 918,
  "\u2581Sa": 919,
  "\u2581friends": 920,
  "\u2581needed": 921,
  "\u2581brother": 922,
  "\u2581learned": 923,
  "\u2581done": 924,
  "\u2581sele": 925,
  "\u2581latela": 926,
  "\u2581botsa": 927,
  "\u2581heaven": 928,
  "\u2581following": 929,
  "\u2581cannot": 930,
  "\u2581prayer": 931,
  "in": 932,
  "\u25818:": 933,
  "\u2581ever": 934,
  "\u2581meetings": 935,
  "\u2581epe": 936,
  "\u2581Lefatshe": 937,
  "\u2581Moses": 938,
  "\u2581religion": 939,
  "\u2581system": 940,
  "\u2581Modimong": 941,
  "\u2581mogolo": 942,
  "\u2581Bo": 943,
  "\u2581itumela": 944,
  "\u2581moaposetoloi": 945,
  "\u2581possible": 946,
  "\u2581happy": 947,
  "\u2581yoo": 948,
  "\u2581felt": 949,
  "\u2581self": 950,
  "\u2581hard": 951,
  "\u2581ebile": 952,
  "\u2581money": 953,
  "\u2581tlhotlheletsa": 954,
  "\u2581yourself": 955,
  "\u25813,": 956,
  "\u2581elders": 957,
  "ga": 958,
  "\u2581matter": 959,
  "\u2581S": 960,
  "\u2581ama": 961,
  "\u2581senya": 962,
  "\u2581believe": 963,
  "\u2581face": 964,
  "\u2581thought": 965,
  "\u2581bontshang": 966,
  "\u2581kaya": 967,
  "\u2581far": 968,
  "\u2581best": 969,
  "\u2581boleo": 970,
  "\u2581rileng": 971,
  "\u2581Tsela": 972,
  "\u2581war": 973,
  "\u2581gana": 974,
  "\u2581Your": 975,
  "\u2581nakong": 976,
  "\u2581Corinthians": 977,
  "\u2581body": 978,
  "\u2581Me": 979,
  "\u2581York": 980,
  "\u2581helped": 981,
  "\u2581tlaa": 982,
  "\u2581dikgolo": 983,
  "\u25819:": 984,
  "\u2581gakologelwa": 985,
  "\u2581bad": 986,
  "\u2581Thus": 987,
  "\u2581went": 988,
  "\u2581wisdom": 989,
  "\u2581naga": 990,
  "\u2581counsel": 991,
  "se": 992,
  "\u2581high": 993,
  "c": 994,
  "\u2581pelaelo": 995,
  "\u2581moragonyana": 996,
  "\u2581semoyeng": 997,
  "\u2581tlhokomela": 998,
  "\u2581mekgwa": 999,
  "\u2581law": 1000,
  "\u2581mabaka": 1001,
  "\u2581nor": 1002,
  "\u2581eyes": 1003,
  "\u2581reetsa": 1004,
  "\u2581Watch": 1005,
  "\u2581Greek": 1006,
  "\u2581relationship": 1007,
  "\u2581present": 1008,
  "\u2581teaching": 1009,
  "\u2581early": 1010,
  "\u2581Society": 1011,
  "\u2581kopana": 1012,
  "\u2581boitsholo": 1013,
  "\u2581around": 1014,
  "\u2581Revelation": 1015,
  "\u2581Motho": 1016,
  "\u2581Can": 1017,
  "\u2581ntle": 1018,
  "\u2581ancient": 1019,
  "\u2581Fela": 1020,
  "\u2581bongwe": 1021,
  "\u2581Tower": 1022,
  "\u2581boela": 1023,
  "\u2581boikaelelo": 1024,
  "\u2581gae": 1025,
  "\u2581land": 1026,
  "\u2581situation": 1027,
  "\u2581wicked": 1028,
  "\u2581members": 1029,
  "\u2581fine": 1030,
  "\u2581Timothy": 1031,
  "\u2581ask": 1032,
  "\u2581dikarolo": 1033,
  "\u2581close": 1034,
  "\u2581Ntlha": 1035,
  "\u2581tweng": 1036,
  "ne": 1037,
  "l": 1038,
  "\u258118.": 1039,
  "\u2581language": 1040,
  "\u2581heavenly": 1041,
  "di": 1042,
  "\u2581kobamelo": 1043,
  "\u2581next": 1044,
  "\u2581until": 1045,
  "\u2581batle": 1046,
  "\u2581mean": 1047,
  "\u2581Lord": 1048,
  "\u2581support": 1049,
  "\u2581santse": 1050,
  "\u2581share": 1051,
  "\u2581anointed": 1052,
  "\u2581segolo": 1053,
  "\u2581cause": 1054,
  "\u2581continue": 1055,
  "\u2581tlhoma": 1056,
  "\u2581answer": 1057,
  "\u2581gotlhelele": 1058,
  "\u2581s": 1059,
  "\u2581Timotheo": 1060,
  "\u2581Because": 1061,
  "\u2581along": 1062,
  "\u2581enjoy": 1063,
  "\u2581u": 1064,
  "\u2581tlhola": 1065,
  "Fa": 1066,
  "\u2581maswe": 1067,
  "\u2581palo": 1068,
  "\u2581talk": 1069,
  "\u2581health": 1070,
  "\u2581righteous": 1071,
  "\u2581tshwetso": 1072,
  "\u2581saying": 1073,
  "\u2581boloka": 1074,
  "\u2581mofuta": 1075,
  "\u2581bagolwane": 1076,
  "\u2581Israelites": 1077,
  "\u2581Who": 1078,
  "\u2581understand": 1079,
  "\u2581yet": 1080,
  "\u2581dibuka": 1081,
  "\u2581kind": 1082,
  "\u2581Gantsi": 1083,
  "\u2581aga": 1084,
  "\u2581James": 1085,
  "\u2581small": 1086,
  "\u2581thus": 1087,
  "\u2581certain": 1088,
  "\u2581especially": 1089,
  "\u2581nageng": 1090,
  "\u2581Let": 1091,
  "\u2581message": 1092,
  "\u2581kelotlhoko": 1093,
  "\u2581kolobediwa": 1094,
  "\u25819,": 1095,
  "\u2581going": 1096,
  "\u2581ikanyega": 1097,
  "\u2581Mafoko": 1098,
  "\u2581Akanya": 1099,
  "\u2581Baroma": 1100,
  "\u2581dirileng": 1101,
  "\u2581joo": 1102,
  "\u2581baptized": 1103,
  "lo": 1104,
  "\u2581molaetsa": 1105,
  "\u2581gola": 1106,
  "\u2581T": 1107,
  "\u2581dead": 1108,
  "\u2581case": 1109,
  "\u2581Be": 1110,
  "\u2581itumedisang": 1111,
  "\u2581Jews": 1112,
  "\u2581feelings": 1113,
  "\u2581Bakorintha": 1114,
  "\u2581boikepo": 1115,
  "\u2581malatsi": 1116,
  "\u2581avoid": 1117,
  "\u2581lobaka": 1118,
  "\u2581kgatlhanong": 1119,
  "\u2581felela": 1120,
  "\u2581fitlhela": 1121,
  "\u2581diragala": 1122,
  "\u2581sekaseka": 1123,
  "\u2581Since": 1124,
  "\u2581conduct": 1125,
  "\u2581Of": 1126,
  "\u2581states": 1127,
  "\u2581mosola": 1128,
  "\u2581Abraham": 1129,
  "\u2581fetola": 1130,
  "\u2581brought": 1131,
  "\u2581respect": 1132,
  "\u2581Jwa": 1133,
  "\u2581attention": 1134,
  "\u2581difficult": 1135,
  "\u2581light": 1136,
  "\u2581king": 1137,
  "\u2581including": 1138,
  "\u2581desire": 1139,
  "\u2581soon": 1140,
  "\u2581speak": 1141,
  "\u2581bogosi": 1142,
  "\u2581giving": 1143,
  "\u2581tshiamo": 1144,
  "\u2581control": 1145,
  "\u2581real": 1146,
  "\u2581tharo": 1147,
  "\u2581sense": 1148,
  "\u25816,": 1149,
  "\u2581tshimologong": 1150,
  "\u25815,": 1151,
  "\u2581point": 1152,
  "\u2581monate": 1153,
  "\u2581whole": 1154,
  "\u2581change": 1155,
  "\u2581kamano": 1156,
  "\u2581saw": 1157,
  "\u2581Are": 1158,
  "\u2581ema": 1159,
  "\u2581oketsa": 1160,
  "\u2581babedi": 1161,
  "\u2581kalafi": 1162,
  "\u2581M": 1163,
  "\u2581Although": 1164,
  "\u2581needs": 1165,
  "\u2581wrong": 1166,
  "\u2581Creator": 1167,
  "\u2581information": 1168,
  "\u2581Acts": 1169,
  "\u2581lebana": 1170,
  "to": 1171,
  "\u2581Roma": 1172,
  "\u2581form": 1173,
  "\u2581received": 1174,
  "\u2581masisi": 1175,
  "\u2581died": 1176,
  "\u2581dipokanong": 1177,
  "\u2581question": 1178,
  "\u2581four": 1179,
  "\u258120.": 1180,
  "\u2581Bangwe": 1181,
  "\u2581mororo": 1182,
  "\u2581lekgolong": 1183,
  "\u2581tlhokega": 1184,
  "\u2581lead": 1185,
  "\u2581etela": 1186,
  "\u2581dirisana": 1187,
  "\u258121:": 1188,
  "\u2581ha": 1189,
  "\u2581Adam": 1190,
  "\u258119.": 1191,
  "\u2581tila": 1192,
  "\u2581Not": 1193,
  "\u2581ourselves": 1194,
  "\u2581kwantle": 1195,
  "\u2581natla": 1196,
  "\u2581account": 1197,
  "\u2581laola": 1198,
  "\u25814,": 1199,
  "\u2581bidiwa": 1200,
  "\u2581Ditshwantsho": 1201,
  "\u2581wise": 1202,
  "\u258127": 1203,
  "\u2581turn": 1204,
  "\u2581Law": 1205,
  "\u2581thing": 1206,
  "\u2581kile": 1207,
  "\u2581Mmopi": 1208,
  "\u2581makes": 1209,
  "\u2581Moaposetoloi": 1210,
  "\u2581segolobogolo": 1211,
  "\u2581kgethegileng": 1212,
  "\u2581kgosi": 1213,
  "\u2581Today": 1214,
  "\u2581benefit": 1215,
  "\u2581problem": 1216,
  "\u2581provide": 1217,
  "\u2581suffering": 1218,
  "i": 1219,
  "\u2581Job": 1220,
  "\u2581special": 1221,
  "\u2581taken": 1222,
  "\u2581bokgoni": 1223,
  "\u2581simply": 1224,
  "\u2581dumalana": 1225,
  "\u2581Consider": 1226,
  "\u2581While": 1227,
  "\u2581wanted": 1228,
  "\u2581sekolo": 1229,
  "\u2581Such": 1230,
  "\u2581nation": 1231,
  "\u2581sure": 1232,
  "\u2581group": 1233,
  "\u2581matlho": 1234,
  "\u2581Romans": 1235,
  "\u2581rate": 1236,
  "\u2581tlholego": 1237,
  "\u258121": 1238,
  "\u2581try": 1239,
  "\u2581likely": 1240,
  "\u2581Molao": 1241,
  "\u2581nothing": 1242,
  "\u258118:": 1243,
  "\u2581ditshwantsho": 1244,
  "\u2581seen": 1245,
  "\u2581serving": 1246,
  "\u2581ko": 1247,
  "\u2581divine": 1248,
  "\u2581set\u0161haba": 1249,
  "\u2581Lo": 1250,
  "\u2581Those": 1251,
  "\u2581follow": 1252,
  "\u2581Does": 1253,
  "\u2581principles": 1254,
  "\u2581masole": 1255,
  "\u2581Dr": 1256,
  "\u2581knew": 1257,
  "\u2581Dilo": 1258,
  "\u2581receive": 1259,
  "\u2581An": 1260,
  "\u2581false": 1261,
  "\u2581reading": 1262,
  "\u2581sent": 1263,
  "\u258114,": 1264,
  "\u2581taught": 1265,
  "nyana": 1266,
  "\u2581night": 1267,
  "\u2581temple": 1268,
  "\u2581kgato": 1269,
  "\u2581selekanyo": 1270,
  "\u2581tlhagisa": 1271,
  "\u2581large": 1272,
  "\u2581whether": 1273,
  "\u2581People": 1274,
  "\u2581taking": 1275,
  "\u2581mosha": 1276,
  "\u2581Jakobe": 1277,
  "\u2581KA": 1278,
  "\u2581THE": 1279,
  "\u2581trust": 1280,
  "\u2581involved": 1281,
  "\u2581Ruri": 1282,
  "\u258126": 1283,
  "\u2581thinking": 1284,
  "\u2581bereka": 1285,
  "tlhakanelodikobo": 1286,
  "\u2581dinonofo": 1287,
  "\u2581tlang": 1288,
  "\u2581strong": 1289,
  "\u2581tlhopha": 1290,
  "\u2581boikutlo": 1291,
  "\u2581moved": 1292,
  "\u2581kingdom": 1293,
  "\u2581sireletsa": 1294,
  "\u2581Morena": 1295,
  "\u2581setlhabelo": 1296,
  "\u2581letla": 1297,
  "\u2581Gompieno": 1298,
  "\u2581boifa": 1299,
  "\u258131": 1300,
  "\u2581country": 1301,
  "ma": 1302,
  "\u258121.": 1303,
  "\u2581attitude": 1304,
  "\u2581Ditiro": 1305,
  "\u258116:": 1306,
  "\u2581once": 1307,
  "\u2581happiness": 1308,
  "\u2581bopelonomi": 1309,
  "\u2581percent": 1310,
  "\u2581tsala": 1311,
  "\u2581fetoga": 1312,
  "\u2581Adame": 1313,
  "\u2581similar": 1314,
  "\u2581Motswedi": 1315,
  "\u2581baka": 1316,
  "\u2581Jaanong": 1317,
  "\u2581Jobe": 1318,
  "\u2581here": 1319,
  "\u2581According": 1320,
  "\u2581act": 1321,
  "\u2581according": 1322,
  "\u2581Dur": 1323,
  "\u2581kgaolo": 1324,
  "\u2581kindness": 1325,
  "\u2581tshwanelang": 1326,
  "\u2581Bona": 1327,
  "\u2581married": 1328,
  "\u00b7": 1329,
  "\u2581diphologolo": 1330,
  "\u2581past": 1331,
  "\u2581further": 1332,
  "\u2581tshwarwa": 1333,
  "\u258111,": 1334,
  "\u2581heard": 1335,
  "\u2581works": 1336,
  "\u2581ditiragalo": 1337,
  "\u2581matters": 1338,
  "\u2581dilong": 1339,
  "\u2581Credit": 1340,
  "\u2581teach": 1341,
  "\u2581certainly": 1342,
  "\u2581marapo": 1343,
  "\u25812,": 1344,
  "\u2581coming": 1345,
  "\u2581Daniel": 1346,
  "\u2581maiteko": 1347,
  "\u2581tell": 1348,
  "\u2581mefuta": 1349,
  "\u258140": 1350,
  "\u2581tsenya": 1351,
  "\u2581Buka": 1352,
  "\u25817,": 1353,
  "\u2581comes": 1354,
  "\u2581prophet": 1355,
  "\u2581righteousness": 1356,
  "\u2581fenya": 1357,
  "\u2581Now": 1358,
  "\u2581kgakala": 1359,
  "\u2581balatedi": 1360,
  "\u2581Afrika": 1361,
  "\u2581utlwisa": 1362,
  "\u2581countries": 1363,
  "ke": 1364,
  "\u258112,": 1365,
  "\u2581mengwe": 1366,
  "\u2581tlhomamisa": 1367,
  "\u2581history": 1368,
  "\u2581melaometheo": 1369,
  "\u2581pelong": 1370,
  "\u2581tseleng": 1371,
  "\u2581Segerika": 1372,
  "\u2581physical": 1373,
  "\u2581tlhogo": 1374,
  "\u2581already": 1375,
  "\u2581call": 1376,
  "\u2581dirisang": 1377,
  "\u2581near": 1378,
  "\u2581soul": 1379,
  "\u2581followers": 1380,
  "\u2581started": 1381,
  "\u2581shows": 1382,
  "\u2581evidence": 1383,
  "es": 1384,
  "\u2581based": 1385,
  "\u2581GO": 1386,
  "\u2581diragatsa": 1387,
  "\u2581second": 1388,
  "\u2581Hebrew": 1389,
  "\u2581Catholic": 1390,
  "\u2581bolaya": 1391,
  "\u2581perfect": 1392,
  "\u2581clear": 1393,
  "\u2581gives": 1394,
  "\u2581everlasting": 1395,
  "Ga": 1396,
  "\u2581bogale": 1397,
  "\u2581obamela": 1398,
  "\u2581allow": 1399,
  "\u2581Pictures": 1400,
  "\u2581organization": 1401,
  "\u2581million": 1402,
  "\u258116,": 1403,
  "\u2581tlwaelegileng": 1404,
  "\u2581local": 1405,
  "\u2581gatelela": 1406,
  "\u258110,": 1407,
  "\u2581ikobela": 1408,
  "\u2581itumedisa": 1409,
  "\u2581nnile": 1410,
  "\u2581material": 1411,
  "\u2581maloko": 1412,
  "\u2581kwadilweng": 1413,
  "\u2581anyone": 1414,
  "\u2581Their": 1415,
  "\u2581interest": 1416,
  "\u258150": 1417,
  "\u2581busa": 1418,
  "\u2581longer": 1419,
  "\u2581nka": 1420,
  "\u2581sacrifice": 1421,
  "\u2581Africa": 1422,
  "\u2581Genesis": 1423,
  "\u2581resurrection": 1424,
  "\u2581kgololesego": 1425,
  "\u2581thato": 1426,
  "\u2581setshwantsho": 1427,
  "\u2581leave": 1428,
  "\u2581motse": 1429,
  "\u2581Genesise": 1430,
  "\u2581pray": 1431,
  "\u2581maikutlong": 1432,
  "\u2581public": 1433,
  "\u2581Life": 1434,
  "\u2581May": 1435,
  "\u2581Will": 1436,
  "\u2581Gongwe": 1437,
  "\u2581alone": 1438,
  "\u2581malapa": 1439,
  "\u2581government": 1440,
  "\u2581Morwa": 1441,
  "\u2581itshwara": 1442,
  "\u2581La": 1443,
  "\u2581therefore": 1444,
  "\u2581Jewish": 1445,
  "\u2581sons": 1446,
  "\u2581rather": 1447,
  "\u2581rule": 1448,
  "\u2581sekae": 1449,
  "\u2581Rather": 1450,
  "\u2581Solomon": 1451,
  "\u2581ikanya": 1452,
  "\u2581lebelela": 1453,
  "\u2581truly": 1454,
  "\u2581Would": 1455,
  "\u2581dintlha": 1456,
  "\u2581Bahebera": 1457,
  "\u2581individuals": 1458,
  "\u2581return": 1459,
  "\u2581kgothatsa": 1460,
  "\u2581loved": 1461,
  "\u2581diphoso": 1462,
  "\u258133": 1463,
  "\u2581tshelang": 1464,
  "\u258128": 1465,
  "\u2581nonotsha": 1466,
  "ra": 1467,
  "\u2581remain": 1468,
  "\u2581ipotsa": 1469,
  "\u2581common": 1470,
  "\u2581motlhanka": 1471,
  "\u2581nwa": 1472,
  "\u25817:": 1473,
  "\u2581newa": 1474,
  "\u2581lost": 1475,
  "\u2581mentioned": 1476,
  "\u2581months": 1477,
  "\u2581perhaps": 1478,
  "\u2581tsamaiso": 1479,
  "\u2581Tshenolo": 1480,
  "\u2581dipuo": 1481,
  "\u2581F": 1482,
  "\u2581church": 1483,
  "\u2581apostles": 1484,
  "\u2581bosakhutleng": 1485,
  "\u2581J": 1486,
  "or": 1487,
  "\u2581friend": 1488,
  "\u2581ntsi": 1489,
  "\u2581nt\u0161ha": 1490,
  "\u2581Seo": 1491,
  "\u2581showed": 1492,
  "\u2581authority": 1493,
  "\u2581fetsa": 1494,
  "\u2581prophecy": 1495,
  "\u2581Hebrews": 1496,
  "\u2581within": 1497,
  "\u2581Eleruri": 1498,
  "\u2581thapelo": 1499,
  "\u2581gakgamatsang": 1500,
  "\u2581ago": 1501,
  "\u2581diragadiwa": 1502,
  "\u2581die": 1503,
  "\u2581stand": 1504,
  "\u2581Roman": 1505,
  "\u2581bolawa": 1506,
  "\u2581R": 1507,
  "\u2581fully": 1508,
  "\u2581using": 1509,
  "\u2581lesome": 1510,
  "\u2581serious": 1511,
  "\u2581sheep": 1512,
  "\u2581itself": 1513,
  "\u2581kileng": 1514,
  "\u2581nonofileng": 1515,
  "\u2581Mongwe": 1516,
  "\u2581dirilweng": 1517,
  "\u2581phepa": 1518,
  "\u2581lesha": 1519,
  "\u2581bosheng": 1520,
  "\u2581sekolong": 1521,
  "\u2581diphetogo": 1522,
  "\u2581five": 1523,
  ",...": 1524,
  "\u2581ditshwetso": 1525,
  "\u2581ntlong": 1526,
  "\u2581tsewa": 1527,
  "\u2581Batsadi": 1528,
  "bo": 1529,
  "\u2581meeting": 1530,
  "\u2581losika": 1531,
  "\u2581tirelo": 1532,
  "\u2581anything": 1533,
  "\u2581kgathalesege": 1534,
  "\u258113,": 1535,
  "\u258122.": 1536,
  "\u2581born": 1537,
  "\u2581written": 1538,
  "\u2581qualities": 1539,
  "\u258123.": 1540,
  "\u2581Tora": 1541,
  "\u2581Tebelo": 1542,
  "\u2581meaning": 1543,
  "\u2581greater": 1544,
  "\u2581Line": 1545,
  "\u2581provided": 1546,
  "\u2581dikgwedi": 1547,
  "\u2581keletso": 1548,
  "\u2581magazine": 1549,
  "tse": 1550,
  "\u2581Witness": 1551,
  "\u2581spiritually": 1552,
  "\u2581Rre": 1553,
  "\u2581godileng": 1554,
  "\u2581akanye": 1555,
  "\u2581lived": 1556,
  "\u2581itseng": 1557,
  "\u2581tshiamelo": 1558,
  "\u2581accept": 1559,
  "ro": 1560,
  "\u2581bodireding": 1561,
  "You": 1562,
  "\u2581slave": 1563,
  "\u2581nama": 1564,
  "\u2581True": 1565,
  "\u258137": 1566,
  "\u2581thuse": 1567,
  "\u2581khutleng": 1568,
  "\u2581bukeng": 1569,
  "\u2581kept": 1570,
  "\u2581kgothaletsa": 1571,
  "\u2581Devil": 1572,
  "\u2581K": 1573,
  "\u2581inspired": 1574,
  "\u2581Solomone": 1575,
  "\u2581pioneer": 1576,
  "\u2581forever": 1577,
  "\u2581maikaelelo": 1578,
  "\u2581Jang": 1579,
  "\u2581shall": 1580,
  "\u2581Box": 1581,
  "\u2581dipelo": 1582,
  "\u2581explains": 1583,
  "\u2581nonofo": 1584,
  "\u2581Joseph": 1585,
  "\u2581got": 1586,
  "\u2581magolo": 1587,
  "\u2581area": 1588,
  "\u2581eletsa": 1589,
  "\u2581anaanela": 1590,
  "\u2581D": 1591,
  "\u2581Moragonyana": 1592,
  "\u2581molekane": 1593,
  "\u2581diokobatsi": 1594,
  "\u2581sisters": 1595,
  "\u2581Spain": 1596,
  "\u2581gakolola": 1597,
  "\u2581effort": 1598,
  "\u2581wonderful": 1599,
  "\u2581explained": 1600,
  "\u2581dirwang": 1601,
  "\u2581nokeng": 1602,
  "\u2581W": 1603,
  "\u2581taolo": 1604,
  "\u2581laela": 1605,
  "\u2581held": 1606,
  "\u2581Mosupi": 1607,
  "\u2581strength": 1608,
  "\u2581bitsa": 1609,
  "\u2581understanding": 1610,
  "\u2581lesedi": 1611,
  "\u2581heavens": 1612,
  "\u2581Indeed": 1613,
  "\u2581bosigo": 1614,
  "\u2581modern": 1615,
  "\u2581fano": 1616,
  "Lebokoso": 1617,
  "\u2581sister": 1618,
  "\u2581letlhakoreng": 1619,
  "\u2581millions": 1620,
  "\u2581youths": 1621,
  "\u2581potso": 1622,
  "\u2581diaparo": 1623,
  "\u2581ineela": 1624,
  "\u2581Mary": 1625,
  "Modimo": 1626,
  "\u2581bonwa": 1627,
  "\u2581II": 1628,
  "\u2581atlega": 1629,
  "\u2581itshokela": 1630,
  "\u2581promise": 1631,
  "\u2581etsa": 1632,
  "\u2581bonang": 1633,
  "\u2581speaking": 1634,
  "\u2581effect": 1635,
  "\u2581boa": 1636,
  "\u2581fedisa": 1637,
  "\u2581maemong": 1638,
  "\u2581congregations": 1639,
  "\u2581dumelang": 1640,
  "T": 1641,
  "\u2581hearts": 1642,
  "\u2581pages": 1643,
  "\u2581less": 1644,
  "\u2581deep": 1645,
  "\u2581Aborahame": 1646,
  "\u2581South": 1647,
  "\u2581circumstances": 1648,
  "\u2581everything": 1649,
  "\u2581Kafa": 1650,
  "\u2581gain": 1651,
  "\u2581continued": 1652,
  "\u2581older": 1653,
  "\u258119,": 1654,
  "\u2581tlhaloganyo": 1655,
  "\u2581efforts": 1656,
  "\u2581hands": 1657,
  "\u2581leboga": 1658,
  "\u2581powerful": 1659,
  "\u2581enough": 1660,
  "\u2581tiragalo": 1661,
  "\u2581Mogolo": 1662,
  "\u2581named": 1663,
  "\u2581tlhoafalo": 1664,
  "\u258117,": 1665,
  "\u2581Yuropa": 1666,
  "\u2581baagi": 1667,
  "\u258129": 1668,
  "\u2581kotsing": 1669,
  "\u258124.": 1670,
  "\u2581Nako": 1671,
  "\u2581kgolegelong": 1672,
  "\u2581boene": 1673,
  "\u02b9": 1674,
  "\u2581issue": 1675,
  "\u2581seem": 1676,
  "\u2581regarding": 1677,
  "\u2581Daniele": 1678,
  "\u2581oketsega": 1679,
  "me": 1680,
  "\u2581Bana": 1681,
  "\u2581hear": 1682,
  "\u2581Mark": 1683,
  "\u2581utlwalang": 1684,
  "ri": 1685,
  "\u2581Pele": 1686,
  "\u2581kwalela": 1687,
  "\u2581tseye": 1688,
  "\u2581Like": 1689,
  "\u2581events": 1690,
  "\u2581pain": 1691,
  "\u2581deal": 1692,
  "\u2581ebong": 1693,
  "\u2581botho": 1694,
  "\u2581tloditsweng": 1695,
  "\u2581Diabolo": 1696,
  "\u2581Sehebera": 1697,
  "\u2581isagwe": 1698,
  "\u2581violence": 1699,
  "\u258132": 1700,
  "\u2581judgment": 1701,
  "\u2581witness": 1702,
  "\u2581malwetse": 1703,
  "\u2581dit\u0161haba": 1704,
  "\u2581Great": 1705,
  "\u2581doubt": 1706,
  "\u2581Internet": 1707,
  "\u2581dinaga": 1708,
  "\u2581honor": 1709,
  "\u2581\u25cf": 1710,
  "\u2581bonolo": 1711,
  "\u2581spoke": 1712,
  "\u2581bega": 1713,
  "\u2581English": 1714,
  "\u2581fitlhelela": 1715,
  "\u2581Basha": 1716,
  "\u2581baaposetoloi": 1717,
  "\u2581kaelo": 1718,
  "\u2581Did": 1719,
  "\u2581gift": 1720,
  "Mo": 1721,
  "an": 1722,
  "\u2581poor": 1723,
  "\u2581families": 1724,
  "\u2581dirise": 1725,
  "\u2581godly": 1726,
  "\u2581lelapeng": 1727,
  "\u2581please": 1728,
  "\u2581goroga": 1729,
  "\u2581stated": 1730,
  "\u2581swetsa": 1731,
  "\u2581kereke": 1732,
  "u": 1733,
  "\u2581farologana": 1734,
  "\u2581visit": 1735,
  "\u2581senngwa": 1736,
  "\u2581baya": 1737,
  "\u2581don": 1738,
  "ers": 1739,
  "\u2581tletse": 1740,
  "\u2581freedom": 1741,
  "\u2581above": 1742,
  "\u2581utlwala": 1743,
  "\u2581Hence": 1744,
  "\u2581boitshwaro": 1745,
  "\u2581amanang": 1746,
  "\u2581easy": 1747,
  "\u2581open": 1748,
  "\u2581hold": 1749,
  "\u2581bue": 1750,
  "\u2581natural": 1751,
  "\u2581period": 1752,
  "\u2581whose": 1753,
  "\u2581masetlapelo": 1754,
  "wa": 1755,
  "\u2581glory": 1756,
  "\u2581remember": 1757,
  "\u2581Instead": 1758,
  "\u2581forth": 1759,
  "\u2581Most": 1760,
  "\u2581comfort": 1761,
  "\u2581bonalang": 1762,
  "\u2581value": 1763,
  "ta": 1764,
  "\u2581led": 1765,
  "\u2581several": 1766,
  "\u2581afe": 1767,
  "\u2581gagw\u00e8": 1768,
  "\u2581moral": 1769,
  "\u2581Dira": 1770,
  "\u2581matshelo": 1771,
  "\u2581various": 1772,
  "\u2581move": 1773,
  "\u2581standards": 1774,
  "\u2581nnela": 1775,
  "\u2581ten": 1776,
  "\u2581Noa": 1777,
  "\u2581konokono": 1778,
  "\u2581role": 1779,
  "\u2581promises": 1780,
  "no": 1781,
  "\u2581published": 1782,
  "\u2581bodiredi": 1783,
  "\u2581kgabagare": 1784,
  "\u2581Eng": 1785,
  "\u2581opportunity": 1786,
  "\u2581tshwenyega": 1787,
  "NG": 1788,
  "\u258122,": 1789,
  "\u2581prayers": 1790,
  "\u2581helps": 1791,
  "\u2581beke": 1792,
  "\u2581ma": 1793,
  "\u2581isa": 1794,
  "\u2581pego": 1795,
  "\u2581activity": 1796,
  "\u2581amega": 1797,
  "\u2581Monna": 1798,
  "\u2581sexual": 1799,
  "\u258170": 1800,
  "\u2581Letsatsi": 1801,
  "\u2581boikokobetso": 1802,
  "\u2581nn\u00e8": 1803,
  "\u2581AIDS": 1804,
  "\u2581diperesente": 1805,
  "\u2581letter": 1806,
  "\u2581available": 1807,
  "\u2581maikarabelo": 1808,
  "\u2581akanyang": 1809,
  "\u2581kgatlhang": 1810,
  "\u2581Tla": 1811,
  "\u2581blessing": 1812,
  "\u2581matswela": 1813,
  "\u2581bomodimo": 1814,
  "\u2581Botshelo": 1815,
  "\u2581Noah": 1816,
  "\u2581diatla": 1817,
  "\u2581See": 1818,
  "\u2581Joshua": 1819,
  "\u2581boporofeti": 1820,
  "\u2581changed": 1821,
  "\u2581head": 1822,
  "\u2581vital": 1823,
  "\u2581tried": 1824,
  "Lo": 1825,
  "\u2581baengele": 1826,
  "\u2581six": 1827,
  "\u2581bagolo": 1828,
  "\u2581students": 1829,
  "\u2581thibela": 1830,
  "\u2581affect": 1831,
  "\u2581class": 1832,
  "\u2581yoa": 1833,
  "\u2581rre": 1834,
  "\u2581Dingwaga": 1835,
  "\u2581influence": 1836,
  "\u2581setlhogong": 1837,
  "\u2581thousands": 1838,
  "\u2581confidence": 1839,
  "\u2581seka": 1840,
  "\u2581accepted": 1841,
  "\u2581considered": 1842,
  "\u2581masego": 1843,
  "\u2581happened": 1844,
  "\u2581text": 1845,
  "\u2581Another": 1846,
  "\u2581prove": 1847,
  "\u2581draw": 1848,
  "\u2581bomang": 1849,
  "\u2581lands": 1850,
  "\u2581akanyetsa": 1851,
  "\u2581boikanyegi": 1852,
  "\u2581field": 1853,
  "\u2581kgatlhegela": 1854,
  "\u2581listen": 1855,
  "\u2581selegodimo": 1856,
  "\u2581described": 1857,
  "\u2581jotlhe": 1858,
  "\u2581working": 1859,
  "\u2581examples": 1860,
  "\u2581Mokaulengwe": 1861,
  "\u2581melemo": 1862,
  "\u2581birth": 1863,
  "\u2581Bala": 1864,
  "\u2581offer": 1865,
  "\u2581apply": 1866,
  "\u2581Still": 1867,
  "\u2581answers": 1868,
  "\u2581single": 1869,
  "\u2581ela": 1870,
  "\u2581worldwide": 1871,
  "\u2581covenant": 1872,
  "us": 1873,
  "\u258125.": 1874,
  "\u2581Awake": 1875,
  "\u2581served": 1876,
  "God": 1877,
  "\u2581kgopolo": 1878,
  "\u2581P": 1879,
  "\u2581Russia": 1880,
  "\u2581activities": 1881,
  "\u2581actually": 1882,
  "\u2581hours": 1883,
  "\u2581Egepeto": 1884,
  "\u2581Na": 1885,
  "\u2581baswi": 1886,
  "\u2581Scriptural": 1887,
  "\u258118,": 1888,
  "\u2581Jeremiah": 1889,
  "Re": 1890,
  "\u2581mmeleng": 1891,
  "U": 1892,
  "be": 1893,
  "\u2581First": 1894,
  "\u2581palelwa": 1895,
  "\u2581else": 1896,
  "\u2581Australia": 1897,
  "\u2581Church": 1898,
  "\u2581everyone": 1899,
  "\u2581books": 1900,
  "\u2581itekanetseng": 1901,
  "\u2581mmino": 1902,
  "\u2581preach": 1903,
  "\u2581privilege": 1904,
  "\u2581War": 1905,
  "\u2581clean": 1906,
  "\u2581siame": 1907,
  "\u2581feteletseng": 1908,
  "\u2581boima": 1909,
  "\u2581indeed": 1910,
  "\u2581miles": 1911,
  "\u2581source": 1912,
  "\u2581fitlhelwa": 1913,
  "\u2581rest": 1914,
  "\u2581ikutlwe": 1915,
  "\u2581created": 1916,
  "\u2581decision": 1917,
  "ko": 1918,
  "\u2581proved": 1919,
  "pa": 1920,
  "\u2581Babylon": 1921,
  "\u2581dinku": 1922,
  "\u2581angels": 1923,
  "\u2581least": 1924,
  "\u2581loyal": 1925,
  "\u2581Or": 1926,
  "\u2581ability": 1927,
  "\u2581myself": 1928,
  "\u2581disease": 1929,
  "\u2581position": 1930,
  "\u2581makasine": 1931,
  "\u2581Hall": 1932,
  "\u2581couple": 1933,
  "\u2581willing": 1934,
  "\u2581chapter": 1935,
  "\u2581de": 1936,
  "\u2581flesh": 1937,
  "\u2581former": 1938,
  "\u2581advice": 1939,
  "\u2581branch": 1940,
  "\u2581instance": 1941,
  "\u2581mm\u00e8": 1942,
  "\u2581Babelona": 1943,
  "\u2581Boammaaruri": 1944,
  "\u2581blessings": 1945,
  "\u2581walk": 1946,
  "eng": 1947,
  "\u2581Read": 1948,
  "\u2581tlotlo": 1949,
  "\u2581clearly": 1950,
  "\u2581gangwe": 1951,
  "\u2581bofe": 1952,
  "\u2581seek": 1953,
  "\u2581bopelokgale": 1954,
  "\u2581reka": 1955,
  "\u2581eme": 1956,
  "\u2581ditlhong": 1957,
  "\u2581job": 1958,
  "ic": 1959,
  "\u258124:": 1960,
  "\u2581Nnyaa": 1961,
  "\u2581office": 1962,
  "Jehovah": 1963,
  "\u258134": 1964,
  "\u2581Bontsi": 1965,
  "\u2581buisana": 1966,
  "\u2581responsibility": 1967,
  "\u2581solegela": 1968,
  "\u2581tswelele": 1969,
  "\u2581laws": 1970,
  "\u2581maintain": 1971,
  "\u2581teachings": 1972,
  "\u258160": 1973,
  "\u2581April": 1974,
  "\u2581feet": 1975,
  "\u2581learning": 1976,
  "\u2581Mesia": 1977,
  "\u2581kalo": 1978,
  "\u2581legolo": 1979,
  "\u2581foretold": 1980,
  "\u2581meet": 1981,
  "g": 1982,
  "\u2581Tract": 1983,
  "\u2581banyalani": 1984,
  "\u2581political": 1985,
  "\u2581eat": 1986,
  "\u2581sins": 1987,
  "\u2581tempele": 1988,
  "\u2581education": 1989,
  "\u25817]": 1990,
  "\u2581Just": 1991,
  "\u2581Selo": 1992,
  "\u2581force": 1993,
  "\u2581met": 1994,
  "\u2581lekaneng": 1995,
  "\u2581destruction": 1996,
  "\u2581almost": 1997,
  "\u2581entire": 1998,
  "\u2581itumetse": 1999,
  "\u2581accurate": 2000,
  "\u2581centuries": 2001,
  "\u2581animals": 2002,
  "\u258120,": 2003,
  "\u2581ransom": 2004,
  "\u2581tlhamalalo": 2005,
  "ness": 2006,
  "\u2581write": 2007,
  "\u2581motseng": 2008,
  "\u2581report": 2009,
  "\u2581carry": 2010,
  "\u2581dithulaganyo": 2011,
  "\u2581nosi": 2012,
  "\u2581half": 2013,
  "\u2581tshwanelo": 2014,
  "ve": 2015,
  "\u2581baithuti": 2016,
  "\u2581thoughts": 2017,
  "\u2581appropriate": 2018,
  "\u2581100": 2019,
  "\u2581neither": 2020,
  "\u2581Mokgatlho": 2021,
  "\u2581thoko": 2022,
  "kutlwelobotlhoko": 2023,
  "\u2581Later": 2024,
  "\u2581places": 2025,
  "\u2581solegelwa": 2026,
  "\u2581tlhomameng": 2027,
  "\u2581Jeremane": 2028,
  "ll": 2029,
  "\u2581dikilometara": 2030,
  "\u2581mpho": 2031,
  "\u2581molelo": 2032,
  "\u2581Samuel": 2033,
  "\u2581bokgaitsadi": 2034,
  "\u2581convention": 2035,
  "\u2581start": 2036,
  "\u2581Asia": 2037,
  "\u2581boikarabelo": 2038,
  "\u2581complete": 2039,
  "\u2581Bethele": 2040,
  "\u2581regular": 2041,
  "\u2581subject": 2042,
  "\u2581tlhotlhelediwa": 2043,
  "\u2581appointed": 2044,
  "\u2581feletseng": 2045,
  "\u2581imitate": 2046,
  "\u2581motsadi": 2047,
  "\u2581reach": 2048,
  "\u2581baptism": 2049,
  "\u2581lebang": 2050,
  "\u2581parent": 2051,
  "\u258117:": 2052,
  "\u2581promised": 2053,
  "\u2581recorded": 2054,
  "\u2581earlier": 2055,
  "\u2581Mm\u00e8": 2056,
  "\u2581dikobo": 2057,
  "\u2581Egypt": 2058,
  "\u2581medimo": 2059,
  "\u2581rarabolola": 2060,
  "\u2581changes": 2061,
  "\u2581short": 2062,
  "\u2581bakang": 2063,
  "\u2581ditsebe": 2064,
  "\u2581Ela": 2065,
  "\u2581Christendom": 2066,
  "\u2581grow": 2067,
  "\u2581justice": 2068,
  "\u2581crowd": 2069,
  "\u2581takes": 2070,
  "\u2581Tsogang": 2071,
  "\u2581seems": 2072,
  "\u2581getting": 2073,
  "\u2581bojalwa": 2074,
  "\u2581gope": 2075,
  "\u2581harmony": 2076,
  "\u2581Jeremia": 2077,
  "\u2581results": 2078,
  "\u2581stop": 2079,
  "ha": 2080,
  "\u2581regard": 2081,
  "\u2581tsosa": 2082,
  "\u2581Bethel": 2083,
  "\u2581setseng": 2084,
  "\u2581anger": 2085,
  "\u2581lenyalong": 2086,
  "\u2581concern": 2087,
  "\u2581direction": 2088,
  "\u2581barongwa": 2089,
  "\u2581creation": 2090,
  "\u2581throughout": 2091,
  "\u2581tlala": 2092,
  "\u2581umaka": 2093,
  "\u2581Pego": 2094,
  "\u2581appreciation": 2095,
  "\u2581tlhaloganye": 2096,
  "\u2581offered": 2097,
  "\u2581esi": 2098,
  "\u2581American": 2099,
  "\u2581building": 2100,
  "\u2581ikaegile": 2101,
  "\u2581Kgabagare": 2102,
  "\u2581daughter": 2103,
  "\u2581lewatle": 2104,
  "\u2581sometimes": 2105,
  "\u2581solofetsa": 2106,
  "\u2581Have": 2107,
  "\u2581develop": 2108,
  "\u2581usually": 2109,
  "\u2581Ntwa": 2110,
  "\u2581reasons": 2111,
  "\u2581experienced": 2112,
  "\u2581Eve": 2113,
  "\u2581seven": 2114,
  "\u2581tshegetsa": 2115,
  "\u2581diketekete": 2116,
  "\u2581shown": 2117,
  "\u2581side": 2118,
  "\u2581earthly": 2119,
  "\u2581decisions": 2120,
  "\u2581isagweng": 2121,
  "\u2581decided": 2122,
  "\u2581believers": 2123,
  "\u2581Ma": 2124,
  "\u2581duela": 2125,
  "\u2581stay": 2126,
  "\u2581Canada": 2127,
  "\u2581Efa": 2128,
  "\u2581wants": 2129,
  "\u2581G": 2130,
  "\u2581twe": 2131,
  "\u2581botsogo": 2132,
  "Ka": 2133,
  "\u2581caused": 2134,
  "\u2581dikgatiso": 2135,
  "\u2581attend": 2136,
  "\u2581Footnote": 2137,
  "\u2581build": 2138,
  "\u2581ditlhogo": 2139,
  "\u2581practice": 2140,
  "\u2581\"\"": 2141,
  "\u2581kgwebo": 2142,
  "\u2581km": 2143,
  "\u2581mabedi": 2144,
  "\u2581ithutang": 2145,
  "\u2581returned": 2146,
  "\u2581Josefa": 2147,
  "\u2581girl": 2148,
  "\u2581conscience": 2149,
  "\u2581September": 2150,
  "\u2581necessary": 2151,
  "\u2581salvation": 2152,
  "\u2581tlhokegang": 2153,
  "sa": 2154,
  "\u2581bokao": 2155,
  "\u2581letsatsing": 2156,
  "\u2581h\u00e8la": 2157,
  "\u2581rraagwe": 2158,
  "\u2581proper": 2159,
  "\u2581rich": 2160,
  "\u2581parts": 2161,
  "\u2581basis": 2162,
  "\u2581'?": 2163,
  "\u2581determined": 2164,
  "Bala": 2165,
  "Read": 2166,
  "\u2581baruti": 2167,
  "\u2581morning": 2168,
  "\u2581psalmist": 2169,
  "\u2581Lebaka": 2170,
  "\u2581appreciate": 2171,
  "\u2581romela": 2172,
  "\u2581training": 2173,
  "\u2581social": 2174,
  "k": 2175,
  "\u2581Therefore": 2176,
  "\u2581botsalano": 2177,
  "\u2581interested": 2178,
  "\u2581dumele": 2179,
  "\u2581state": 2180,
  "\u2581added": 2181,
  "\u2581golola": 2182,
  "\u2581leaders": 2183,
  "\u2581occasion": 2184,
  "\u2581m": 2185,
  "\u2581tree": 2186,
  "\u2581turned": 2187,
  "\u2581door": 2188,
  "\u2581pay": 2189,
  "\u2581daily": 2190,
  "en": 2191,
  "\u2581boga": 2192,
  "\u2581action": 2193,
  "Moreover": 2194,
  "\u2581rotlhe": 2195,
  "\u2581December": 2196,
  "\u2581Tiro": 2197,
  "\u2581rotloetsa": 2198,
  "\u2581sex": 2199,
  "\u00a9": 2200,
  "\u2581fulfillment": 2201,
  "\u2581Rona": 2202,
  "\u2581Yehofa": 2203,
  "\u2581exercise": 2204,
  "\u2581literature": 2205,
  "\u2581namana": 2206,
  "\u2581tlhano": 2207,
  "\u2581elder": 2208,
  "\u2581raised": 2209,
  "\u2581prison": 2210,
  "\u2581legae": 2211,
  "\u2581sotlhe": 2212,
  "\u2581tirelong": 2213,
  "\u2581praise": 2214,
  "\u258129.": 2215,
  "\u2581eseng": 2216,
  "\u2581Holy": 2217,
  "\u2581More": 2218,
  "\u2581itsise": 2219,
  "\u2581regularly": 2220,
  "\u2581suffer": 2221,
  "\u2581wonder": 2222,
  "\u2581kgwedi": 2223,
  "\u2581Katoliki": 2224,
  "\u2581Nevertheless": 2225,
  "\u2581Though": 2226,
  "\u2581dithoto": 2227,
  "\u2581diura": 2228,
  "\u2581lebane": 2229,
  "\u2581morwa": 2230,
  "\u2581tlhalosiwa": 2231,
  "\u2581kwadilwe": 2232,
  "\u2581maitemogelo": 2233,
  "\u2581evil": 2234,
  "\u2581behind": 2235,
  "\u2581H": 2236,
  "\u2581phatlalatsa": 2237,
  "\u2581sea": 2238,
  "\u2581tells": 2239,
  "\u2581individual": 2240,
  "\u2581youth": 2241,
  "\u2581un": 2242,
  "\u2581Rraagwe": 2243,
  "Ba": 2244,
  "\u2581Further": 2245,
  "\u2581tlhaga": 2246,
  "\u2581itsegeng": 2247,
  "\u2581kgannyeng": 2248,
  "\u2581paradise": 2249,
  "ge": 2250,
  "\u2581Before": 2251,
  "\u2581latlhegelwa": 2252,
  "\u2581include": 2253,
  "\u2581helping": 2254,
  "\u2581MO": 2255,
  "\u2581Others": 2256,
  "\u2581lack": 2257,
  "\u2581sesha": 2258,
  "\u2581Mosadi": 2259,
  "\u2581precious": 2260,
  "\u2581seemo": 2261,
  "\u2581Setlhopha": 2262,
  "\u2581itshwarela": 2263,
  "\u2581baakanya": 2264,
  "\u2581India": 2265,
  "\u2581knows": 2266,
  "\u2581bokhutlo": 2267,
  "\u2581tshaba": 2268,
  "\u2581Gago": 2269,
  "\u2581allowed": 2270,
  "st": 2271,
  "\u2581bolelang": 2272,
  "\u2581saense": 2273,
  "\u2581tshimo": 2274,
  "\u2581week": 2275,
  "\u2581tlisa": 2276,
  "\u2581atamela": 2277,
  "\u2581program": 2278,
  "\u2581practical": 2279,
  "\u2581moporofeti": 2280,
  "\u2581nayang": 2281,
  "\u2581fire": 2282,
  "\u2581kgonega": 2283,
  "\u2581August": 2284,
  "\u2581Dintlha": 2285,
  "\u2581katlholo": 2286,
  "\u2581Gonne": 2287,
  "\u2581dirisiwang": 2288,
  "\u2581lebeletse": 2289,
  "\u2581medical": 2290,
  "\u2581pressure": 2291,
  "\u2581Yo": 2292,
  "\u2581ditlhopha": 2293,
  "\u2581beginning": 2294,
  "\u2581gololwa": 2295,
  "\u2581Lorato": 2296,
  "\u2581diteko": 2297,
  "\u2581encouraged": 2298,
  "\u2581nakwana": 2299,
  "\u2581ralala": 2300,
  "\u2581Morwawe": 2301,
  "\u2581sign": 2302,
  "\u2581Young": 2303,
  "\u2581lebala": 2304,
  "\u2581legaeng": 2305,
  "\u2581Brother": 2306,
  "\u2581integrity": 2307,
  "\u2581missionary": 2308,
  "\u2581wela": 2309,
  "\u2581conditions": 2310,
  "\u2581Footnotes": 2311,
  "\u2581October": 2312,
  "\u2581obey": 2313,
  "R": 2314,
  "\u2581becoming": 2315,
  "\u2581bokoa": 2316,
  "\u2581feeling": 2317,
  "\u2581languages": 2318,
  "\u2581senola": 2319,
  "\u2581motheo": 2320,
  "\u2581speech": 2321,
  "\u2581Gagwe": 2322,
  "\u2581Ephesians": 2323,
  "\u2581respond": 2324,
  "\u2581N": 2325,
  "\u2581personality": 2326,
  "\u2581tlhasela": 2327,
  "\u2581megopolo": 2328,
  "\u2581About": 2329,
  "\u2581ofe": 2330,
  "\u2581sebaka": 2331,
  "\u2581kgolagano": 2332,
  "\u2581amogele": 2333,
  "\u2581fokotsa": 2334,
  "\u2581line": 2335,
  "\u2581makgolokgolo": 2336,
  "\u2581mmotlana": 2337,
  "\u2581baba": 2338,
  "We": 2339,
  "\u2581addition": 2340,
  "\u2581tshono": 2341,
  "\u2581realize": 2342,
  "\u2581assignment": 2343,
  "\u2581condition": 2344,
  "\u258124,": 2345,
  "\u2581Kana": 2346,
  "\u2581hisitori": 2347,
  "\u2581followed": 2348,
  "\u2581itsege": 2349,
  "B": 2350,
  "\u2581areas": 2351,
  "\u2581ngaka": 2352,
  "\u2581noted": 2353,
  "\u2581tshiamiso": 2354,
  "\u2581protect": 2355,
  "\u2581Perhaps": 2356,
  "\u2581thubakanyo": 2357,
  "\u2581either": 2358,
  "\u2581goga": 2359,
  "\u2581happen": 2360,
  "\u2581record": 2361,
  "\u2581\"[": 2362,
  "\u2581member": 2363,
  "\u2581sale": 2364,
  "\u2581tlhomamisega": 2365,
  "\u2581Ask": 2366,
  "\u2581Mexico": 2367,
  "\u2581Europe": 2368,
  "\u2581beyond": 2369,
  "\u2581segofatsa": 2370,
  "less": 2371,
  "\u2581Children": 2372,
  "is": 2373,
  "\u2581kopanela": 2374,
  "\u2581sun": 2375,
  "\u2581Puso": 2376,
  "\u2581cases": 2377,
  "\u2581baeteledipele": 2378,
  "\u2581dithapelo": 2379,
  "\u2581mmaagwe": 2380,
  "\u2581akgela": 2381,
  "\u2581tsayang": 2382,
  "\u2581buiwa": 2383,
  "\u2581challenge": 2384,
  "\u2581rulaganya": 2385,
  "\u2581trying": 2386,
  "\u2581tsoga": 2387,
  "\u2581March": 2388,
  "\u2581loleele": 2389,
  "\u2581discipline": 2390,
  "\u2581segompieno": 2391,
  "\u2581quickly": 2392,
  "\u2581tl": 2393,
  "si": 2394,
  "\u2581recent": 2395,
  "\u2581Rara": 2396,
  "\u2581positive": 2397,
  "\u2581sound": 2398,
  "\u2581Moya": 2399,
  "\u2581invited": 2400,
  "\u258123]": 2401,
  "\u2581Kwantle": 2402,
  "\u2581amang": 2403,
  ").": 2404,
  "\u2581diphuthego": 2405,
  "\u2581mate": 2406,
  "\u258128.": 2407,
  "\u2581music": 2408,
  "\u2581St": 2409,
  "\u2581greatest": 2410,
  "\u2581Setlhogo": 2411,
  "\u2581amana": 2412,
  "\u2581maungo": 2413,
  "It": 2414,
  "\u2581tsholofetso": 2415,
  "\u2581showing": 2416,
  "\u2581reports": 2417,
  "\u2581Love": 2418,
  "\u2581Messiah": 2419,
  "\u2581nature": 2420,
  "\u2581choose": 2421,
  "\u2581dikgato": 2422,
  "\u2581looking": 2423,
  "\u2581studying": 2424,
  "\u2581ditshedi": 2425,
  "\u2581eleruri": 2426,
  "\u2581provides": 2427,
  "D": 2428,
  "\u2581Brooklyn": 2429,
  "\u2581beautiful": 2430,
  "\u2581thusiwa": 2431,
  "Jehofa": 2432,
  "he": 2433,
  "\u2581emotional": 2434,
  "hotlheleditsweng": 2435,
  "\u2581gontsi": 2436,
  "man": 2437,
  "\u2581society": 2438,
  "\u2581Where": 2439,
  "\u2581tsamaye": 2440,
  "\u2581tsholwa": 2441,
  "\u2581Judah": 2442,
  "\u2581L": 2443,
  "\u2581Samuele": 2444,
  "\u2581tlhotlheletso": 2445,
  "\u2581mmulatsela": 2446,
  "\u2581thekololo": 2447,
  "\u2581ditemana": 2448,
  "\u2581expression": 2449,
  "\u2581voice": 2450,
  "\u2581boraro": 2451,
  "\u2581tlhatlhanya": 2452,
  "\u2581expect": 2453,
  "\u2581priest": 2454,
  "\u2581seeking": 2455,
  "\u2581walking": 2456,
  "\u2581buiwang": 2457,
  "\u2581segakolodi": 2458,
  "\u2581actions": 2459,
  "\u2581arrived": 2460,
  "\u2581enjoyed": 2461,
  "\u2581ketla": 2462,
  "Bona": 2463,
  "\u25819]": 2464,
  "\u2581related": 2465,
  "\u258128:": 2466,
  "\u2581Mareko": 2467,
  "\u2581outside": 2468,
  "\u2581tshele": 2469,
  "\u2581worked": 2470,
  "\u2581Soon": 2471,
  "\u2581tlhomamisetsa": 2472,
  "If": 2473,
  "\u2581ditaelo": 2474,
  "\u2581January": 2475,
  "\u2581seatla": 2476,
  "\u2581completely": 2477,
  "\u2581lot": 2478,
  "\u2581tlhomologileng": 2479,
  "\u258131.": 2480,
  "P": 2481,
  "\u2581guidance": 2482,
  "\u2581mogolwane": 2483,
  "\u2581eventually": 2484,
  "\u2581tokafatsa": 2485,
  "\u258121,": 2486,
  "\u2581loeto": 2487,
  "\u2581bokhutlong": 2488,
  "\u2581ikutlwang": 2489,
  "\u2581baboledi": 2490,
  "\u2581dipego": 2491,
  "\u2581maleo": 2492,
  "\u2581priests": 2493,
  "\u2581begin": 2494,
  "\u2581spend": 2495,
  "\u2581strengthen": 2496,
  "\u2581devotion": 2497,
  "\u2581fulfilled": 2498,
  "\u2581original": 2499,
  "\u2581spent": 2500,
  "\u2581ready": 2501,
  "\u2581quality": 2502,
  "\u2581LE": 2503,
  "\u2581bopa": 2504,
  "\u2581Paradise": 2505,
  "\u2581beliefs": 2506,
  "\u2581interests": 2507,
  "\u2581nthusa": 2508,
  "\u2581business": 2509,
  "\u2581Saul": 2510,
  "\u2581benefits": 2511,
  "\u2581filled": 2512,
  "\u2581mental": 2513,
  "\u2581BA": 2514,
  "tsa": 2515,
  "\u2581amogelwa": 2516,
  "\u2581dikhumo": 2517,
  "\u2581endure": 2518,
  "\u2581presence": 2519,
  "\u2581security": 2520,
  "\u2581merafe": 2521,
  "\u2581simple": 2522,
  "\u2581June": 2523,
  "\u2581ground": 2524,
  "\u2581prayed": 2525,
  "\u2581Brazil": 2526,
  "\u2581lekala": 2527,
  "it": 2528,
  "\u2581built": 2529,
  "M": 2530,
  "\u2581acts": 2531,
  "\u2581warning": 2532,
  "\u2581Christianity": 2533,
  "\u2581major": 2534,
  "\u2581bopelotelele": 2535,
  "L": 2536,
  "\u2581paradaise": 2537,
  "\u2581temana": 2538,
  "\u2581thataro": 2539,
  "\u2581general": 2540,
  "\u2581alive": 2541,
  "\u2581studies": 2542,
  "\u2581month": 2543,
  "\u2581rapelela": 2544,
  "\u2581bonya": 2545,
  "\u2581traveling": 2546,
  "f": 2547,
  "\u2581final": 2548,
  "\u2581mokaulengwe": 2549,
  "\u2581Keep": 2550,
  "\u2581kutlwano": 2551,
  "\u2581Italy": 2552,
  "\u2581City": 2553,
  "po": 2554,
  "\u2581Rome": 2555,
  "\u2581Thuto": 2556,
  "\u2581persons": 2557,
  "\u2581idea": 2558,
  "\u2581reported": 2559,
  "\u2581tribulation": 2560,
  "\u2581emela": 2561,
  "\u2581ntlhayang": 2562,
  "\u2581Molemo": 2563,
  "\u2581killed": 2564,
  "as": 2565,
  "\u2581success": 2566,
  "\u2581gopola": 2567,
  "\u258120:": 2568,
  "\u2581badiri": 2569,
  "\u2581fall": 2570,
  "\u2581third": 2571,
  "\u2581express": 2572,
  "\u2581knowing": 2573,
  "\u2581progress": 2574,
  "\u2581lekwalo": 2575,
  "\u2581School": 2576,
  "\u2581behavior": 2577,
  "\u2581calls": 2578,
  "\u2581encourage": 2579,
  "\u2581tlhokafala": 2580,
  "\u2581Ne": 2581,
  "\u258126.": 2582,
  "\u2581July": 2583,
  "\u2581blessed": 2584,
  "\u2581developed": 2585,
  "we": 2586,
  "\u2581baobamedi": 2587,
  "\u2581sick": 2588,
  "\u2581sacred": 2589,
  "\u2581setlhare": 2590,
  "\u2581bear": 2591,
  "pe": 2592,
  "\u2581direlang": 2593,
  "\u2581IN": 2594,
  "\u2581Times": 2595,
  "\u2581explain": 2596,
  "\u2581homes": 2597,
  "\u2581ithute": 2598,
  "\u2581tlosa": 2599,
  "\u25811.": 2600,
  "\u258110]": 2601,
  "h": 2602,
  "\u258115]": 2603,
  "\u258128,": 2604,
  "\u2581dirilwe": 2605,
  "\u2581Remember": 2606,
  "\u2581Juda": 2607,
  "\u2581groups": 2608,
  "\u2581treatment": 2609,
  "See": 2610,
  "\u2581Gakologelwa": 2611,
  "\u2581goal": 2612,
  "\u2581kaela": 2613,
  "\u2581whatever": 2614,
  "\u2581Similarly": 2615,
  "\u2581dintwa": 2616,
  "\u2581dirwe": 2617,
  "\u2581makgetlo": 2618,
  "\u2581mo\u00f1we": 2619,
  "\u2581humble": 2620,
  "\u2581prevent": 2621,
  "\u258165": 2622,
  "\u2581Germany": 2623,
  "\u2581favor": 2624,
  "\u2581b\u014dn\u00e8": 2625,
  "\u2581loa": 2626,
  "\u2581passed": 2627,
  "\u2581test": 2628,
  "\u2581taelo": 2629,
  "fa": 2630,
  "\u258130.": 2631,
  "\u2581bolelwa": 2632,
  "\u2581nyala": 2633,
  "\u2581enemies": 2634,
  "\u2581expressed": 2635,
  "\u2581Dikwalong": 2636,
  "In": 2637,
  "\u2581picture": 2638,
  "\u2581sala": 2639,
  "\u258145": 2640,
  "\u2581established": 2641,
  "\u2581lebile": 2642,
  "\u2581matlo": 2643,
  "\u2581meant": 2644,
  "\u2581Kereke": 2645,
  "\u2581kutlo": 2646,
  "\u2581imperfect": 2647,
  "\u2581address": 2648,
  "\u2581bokete": 2649,
  "\u2581bontshe": 2650,
  "\u2581deeply": 2651,
  "\u2581abuse": 2652,
  "\u2581boy": 2653,
  "\u2581revealed": 2654,
  "\u2581babulatsela": 2655,
  "\u2581keeping": 2656,
  "\u2581term": 2657,
  "\u2581History": 2658,
  "\u2581trials": 2659,
  "\u2581g\u014dna": 2660,
  "ya": 2661,
  "\u2581Encyclopedia": 2662,
  "\u2581dinnye": 2663,
  "Do": 2664,
  "\u2581gatisitsweng": 2665,
  "on": 2666,
  "\u2581Also": 2667,
  "\u2581Amerika": 2668,
  "\u2581patient": 2669,
  "\u2581contact": 2670,
  "\u2581firm": 2671,
  "\u2581protection": 2672,
  "\u2581w": 2673,
  "\u2581itshupa": 2674,
  "\u2581assigned": 2675,
  "\u2581tshelela": 2676,
  "\u2581missionaries": 2677,
  "\u2581servant": 2678,
  "\u2581tlhatlhoba": 2679,
  "\u2581farologane": 2680,
  "\u2581maina": 2681,
  "\u2581rutang": 2682,
  "For": 2683,
  "\u25814;": 2684,
  "\u2581Boitshepo": 2685,
  "\u2581Tswa": 2686,
  "\u2581mercy": 2687,
  "\u2581tsogo": 2688,
  "\u2581wives": 2689,
  "N": 2690,
  "\u2581Well": 2691,
  "\u2581bodutu": 2692,
  "\u2581ditlhapi": 2693,
  "\u2581encouragement": 2694,
  "\u2581tsamayang": 2695,
  "\u2581courage": 2696,
  "\u2581yourselves": 2697,
  "\u2581tlhakanela": 2698,
  "\u2581choice": 2699,
  "\u2581destroyed": 2700,
  "\u2581sefe": 2701,
  "\u2581tshameka": 2702,
  "\u2581dedicated": 2703,
  "\u2581fruit": 2704,
  "\u2581produce": 2705,
  "\u2581tlhoke": 2706,
  "\u2581November": 2707,
  "\u2581bofelong": 2708,
  "\u2581fudugela": 2709,
  "\u2581risk": 2710,
  "\u2581dikarabo": 2711,
  "\u2581lotso": 2712,
  "\u2581ditlhare": 2713,
  "\u2581balekane": 2714,
  "\u2581required": 2715,
  "more": 2716,
  "\u2581desires": 2717,
  "\u2581koloi": 2718,
  "\u2581robala": 2719,
  "\u2581angel": 2720,
  "\u2581seemed": 2721,
  "\u2581kgalalelo": 2722,
  "\u2581falola": 2723,
  "\u2581observed": 2724,
  "\u2581tsosiwa": 2725,
  "\u2581disha": 2726,
  "\u2581prepared": 2727,
  "\u2581Despi": 2728,
  "\u2581Jacob": 2729,
  "\u2581Version": 2730,
  "\u2581opela": 2731,
  "\u2581Time": 2732,
  "\u2581bolelelwa": 2733,
  "\u2581reye": 2734,
  "\u2581room": 2735,
  "\u2581play": 2736,
  "\u2581workers": 2737,
  "p": 2738,
  "\u2581kabelo": 2739,
  "\u2581teacher": 2740,
  "li": 2741,
  "\u2581articles": 2742,
  "\u2581town": 2743,
  "\u2581tshwantshetso": 2744,
  "ation": 2745,
  "\u2581Soviet": 2746,
  "\u2581increase": 2747,
  "\u2581relief": 2748,
  "\u258126]": 2749,
  "\u258136": 2750,
  "\u2581Abo": 2751,
  "\u2581lela": 2752,
  "\u2581lwala": 2753,
  "\u2581bararo": 2754,
  "\u2581drugs": 2755,
  "\u2581lehatshe": 2756,
  "\u2581boidiidi": 2757,
  "\u2581car": 2758,
  "\u2581legodimo": 2759,
  "\u2581mokwalo": 2760,
  "\u2581hour": 2761,
  "\u2581ahead": 2762,
  "\u2581cities": 2763,
  "\u2581household": 2764,
  "\u2581molemolemo": 2765,
  "\u2581tlhomiwa": 2766,
  "lwa": 2767,
  "\u2581command": 2768,
  "\u2581standing": 2769,
  "\u2581DI": 2770,
  "\u2581dikgopolo": 2771,
  "\u2581dipokano": 2772,
  "\u2581diregang": 2773,
  "\u2581lentswe": 2774,
  "\u2581nnye": 2775,
  "\u2581matlhong": 2776,
  "\u2581publication": 2777,
  "\u2581treat": 2778,
  "\u2581utlwe": 2779,
  "\u2581Maria": 2780,
  "\u2581Ya": 2781,
  "\u2581cut": 2782,
  "\u2581finally": 2783,
  "\u2581Clearly": 2784,
  "\u2581Her": 2785,
  "\u2581although": 2786,
  "\u2581bolo": 2787,
  "\u2581itlhokomolosa": 2788,
  "\u2581included": 2789,
  "\u2581key": 2790,
  "\u2581\u25c6": 2791,
  "\u2581Each": 2792,
  "org": 2793,
  "Let": 2794,
  "\u2581Good": 2795,
  "\u2581dedication": 2796,
  "\u2581lobopo": 2797,
  "\u2581realized": 2798,
  "\u258122:": 2799,
  "\u2581basic": 2800,
  "\u2581bogisiwa": 2801,
  "\u2581brings": 2802,
  "\u2581kings": 2803,
  "\u2581cope": 2804,
  "\u2581godisa": 2805,
  "\u258125]": 2806,
  "\u2581Saulo": 2807,
  "\u2581Should": 2808,
  "\u2581mokgatlho": 2809,
  "\u2581affection": 2810,
  "\u2581Us": 2811,
  "\u2581steps": 2812,
  "\u2581forward": 2813,
  "\u2581gomotsa": 2814,
  "\u2581itsiwe": 2815,
  "\u2581overseer": 2816,
  "\u2581dikai": 2817,
  "\u2581tshimong": 2818,
  "\u2581Esekiele": 2819,
  "\u2581Through": 2820,
  "\u2581genuine": 2821,
  "\u2581existence": 2822,
  "\u2581simologa": 2823,
  "\u2581Ezekiel": 2824,
  "\u2581flock": 2825,
  "\u2581sleep": 2826,
  "\u2581stress": 2827,
  "\u258127.": 2828,
  "\u2581authorities": 2829,
  "\u2581carefully": 2830,
  "\u2581suffered": 2831,
  "\u2581lemoge": 2832,
  "\u2581quite": 2833,
  "\u2581Lefokong": 2834,
  "\u2581didirisiwa": 2835,
  "\u2581goes": 2836,
  "\u2581publishers": 2837,
  "\u2581tlogele": 2838,
  "\u2581Gilead": 2839,
  "\u2581publications": 2840,
  "\u2581despite": 2841,
  "\u2581experiences": 2842,
  "\u2581ikaega": 2843,
  "\u2581resurrected": 2844,
  "\u2581boipelo": 2845,
  "\u2581contrast": 2846,
  "\u2581dipe": 2847,
  "G": 2848,
  "\u2581declared": 2849,
  "\u2581tlileng": 2850,
  "\u2581unity": 2851,
  "\u2581importance": 2852,
  "able": 2853,
  "\u2581kake": 2854,
  "\u2581persecution": 2855,
  "\u2581tshola": 2856,
  "\u258114;": 2857,
  "\u2581bosha": 2858,
  "\u2581ditlamorago": 2859,
  "\u2581kwalwa": 2860,
  "\u258190": 2861,
  "\u2581TSEBE": 2862,
  "\u2581Yohane": 2863,
  "Le": 2864,
  "\u2581Was": 2865,
  "\u2581approach": 2866,
  "\u2581direng": 2867,
  "\u2581fight": 2868,
  "\u2581ntlheng": 2869,
  "\u2581PAGE": 2870,
  "\u2581growing": 2871,
  "\u2581itumele": 2872,
  "\u2581nearly": 2873,
  "\u2581spread": 2874,
  "\u2581aware": 2875,
  "\u2581dinao": 2876,
  "\u2581molaong": 2877,
  "\u2581neighbor": 2878,
  "\u2581fatshe": 2879,
  "\u2581telele": 2880,
  "\u2581Tumelo": 2881,
  "\u2581instead": 2882,
  "\u2581vision": 2883,
  "\u2581bula": 2884,
  "\u2581dikgosi": 2885,
  "\u258117]": 2886,
  "\u2581ditso": 2887,
  "\u2581Borwa": 2888,
  "\u2581China": 2889,
  "\u2581involves": 2890,
  "\u2581universe": 2891,
  "\u2581Dipotso": 2892,
  "\u2581ditsholofetso": 2893,
  "\u2581gakgamatse": 2894,
  "\u2581kakaretso": 2895,
  "\u2581teachers": 2896,
  "1": 2897,
  "\u2581dipatlisiso": 2898,
  "\u2581principle": 2899,
  "\u2581Book": 2900,
  "\u2581Family": 2901,
  "],": 2902,
  "\u258135": 2903,
  "\u258135.": 2904,
  "\u2581kopanong": 2905,
  "\u2581200": 2906,
  "\u2581Moreri": 2907,
  "\u2581loss": 2908,
  "\u2581military": 2909,
  "\u2581umakilweng": 2910,
  "\u2581badumedi": 2911,
  "\u2581faced": 2912,
  "\u2581reflect": 2913,
  "\u2581sort": 2914,
  "\u2581immediately": 2915,
  "\u2581Translation": 2916,
  "\u2581chosen": 2917,
  "\u2581thelebishene": 2918,
  "\u2581Bafilipi": 2919,
  "\u2581Fora": 2920,
  "\u2581particularly": 2921,
  "\u2581pelokgale": 2922,
  "\u2581Philippians": 2923,
  "\u2581Tshenol\u014d": 2924,
  "\u2581responsible": 2925,
  "\u2581tlhalosang": 2926,
  "\u258133.": 2927,
  "\u2581KE": 2928,
  "\u2581air": 2929,
  "\u2581late": 2930,
  "\u2581discuss": 2931,
  "\u2581mekwalo": 2932,
  "\u2581metsing": 2933,
  "\u2581National": 2934,
  "\u2581active": 2935,
  "\u2581dingaka": 2936,
  "\u2581recognize": 2937,
  "He": 2938,
  "\u2581behalf": 2939,
  "\u2581pioneers": 2940,
  "co": 2941,
  "\u2581visited": 2942,
  "do": 2943,
  "\u2581Seesemane": 2944,
  "\u2581claim": 2945,
  "\u2581mekgele": 2946,
  "z": 2947,
  "\u2581TSA": 2948,
  "\u2581practices": 2949,
  "\u2581consequences": 2950,
  "\u2581dibetsa": 2951,
  "\u2581race": 2952,
  "\u2581Japane": 2953,
  "\u2581believed": 2954,
  "\u2581bolaodi": 2955,
  "\u2581bokone": 2956,
  "\u2581intsha": 2957,
  "\u2581mokwadi": 2958,
  "\u2581attended": 2959,
  "\u2581bontle": 2960,
  "\u2581itshoka": 2961,
  "\u2581Inc": 2962,
  "\u2581Sea": 2963,
  "\u2581big": 2964,
  "\u2581YA": 2965,
  "\u2581tshwenyegile": 2966,
  "\u2581Ecclesiastes": 2967,
  "\u2581February": 2968,
  "\u2581dikotsi": 2969,
  "\u2581diragalang": 2970,
  "\u2581eating": 2971,
  "\u2581Only": 2972,
  "\u2581minister": 2973,
  "\u2581molebedi": 2974,
  "\u2581spoken": 2975,
  "\u2581step": 2976,
  "\u2581Testament": 2977,
  "\u2581dikete": 2978,
  "\u258180": 2979,
  "\u2581isiwa": 2980,
  "\u2581conclusion": 2981,
  "\u258116;": 2982,
  "\u2581supang": 2983,
  "\u2581kgatlha": 2984,
  "\u2581tlhalosetsa": 2985,
  "\u2581translation": 2986,
  "\u2581pure": 2987,
  "\u2581tsenngwa": 2988,
  "\u2581event": 2989,
  "\u2581limited": 2990,
  "\u2581meya": 2991,
  "\u2581continues": 2992,
  "\u2581easily": 2993,
  "\u2581neye": 2994,
  "\u258118]": 2995,
  "\u2581danger": 2996,
  "\u2581writer": 2997,
  "\u2581African": 2998,
  "\u2581ntweng": 2999,
  "\u2581modumo": 3000,
  "\u2581Nations": 3001,
  "\u2581itirela": 3002,
  "\u2581opened": 3003,
  "\u2581truths": 3004,
  "\u2581tshwaneng": 3005,
  "\u2581concerned": 3006,
  "\u2581goals": 3007,
  "\u2581metshameko": 3008,
  "\u2581morafe": 3009,
  "\u2581500": 3010,
  "\u2581arrangement": 3011,
  "\u2581baby": 3012,
  "\u2581boneng": 3013,
  "\u2581karabo": 3014,
  "\u2581mosong": 3015,
  "\u2581verse": 3016,
  "\u2581illustration": 3017,
  "\u2581ratana": 3018,
  "\u2581appear": 3019,
  "\u2581manner": 3020,
  "\u2581doctor": 3021,
  "\u2581causes": 3022,
  "\u2581mouth": 3023,
  "\u2581ngwageng": 3024,
  "H": 3025,
  "\u2581c": 3026,
  "\u2581notes": 3027,
  "\u2581America": 3028,
  "\u2581reasonable": 3029,
  "\u2581viewed": 3030,
  "\u2581warned": 3031,
  "\u2581watch": 3032,
  "ry": 3033,
  "\u2581TSE": 3034,
  "\u2581atlhola": 3035,
  "\u2581bolesome": 3036,
  "\u2581thousand": 3037,
  "\u2581Baefeso": 3038,
  "\u2581pelenyana": 3039,
  "\u2581sacrifices": 3040,
  "\u2581answered": 3041,
  "\u2581mararo": 3042,
  "\u2581save": 3043,
  "\u2581Mount": 3044,
  "\u2581makgolo": 3045,
  "\u2581negative": 3046,
  "\u2581opposition": 3047,
  "\u2581Sengwe": 3048,
  "\u2581baeng": 3049,
  "\u2581dumalane": 3050,
  "\u2581Jalo": 3051,
  "\u2581solofela": 3052,
  "\u2581mmolelela": 3053,
  "\u2581points": 3054,
  "tla": 3055,
  "\u2581crime": 3056,
  "\u2581economic": 3057,
  "\u2581gods": 3058,
  "\u2581tekatekano": 3059,
  "\u2581Over": 3060,
  "\u2581asking": 3061,
  "\u2581ditirong": 3062,
  "\u2581animal": 3063,
  "\u2581urged": 3064,
  "\u2581sight": 3065,
  "\u2581je": 3066,
  "\u2581mosimane": 3067,
  "\u2581road": 3068,
  "\u2581gale": 3069,
  "\u2581names": 3070,
  ".)": 3071,
  "\u2581boineelo": 3072,
  "\u2581front": 3073,
  "\u2581mentsi": 3074,
  "\u2581agree": 3075,
  "\u2581leading": 3076,
  "\u2581weeks": 3077,
  "\u2581carried": 3078,
  "\u2581lose": 3079,
  "4": 3080,
  "ti": 3081,
  "\u2581Lelapa": 3082,
  "\u2581SE": 3083,
  "\u2581moengele": 3084,
  "\u2581population": 3085,
  "\u2581pula": 3086,
  "].": 3087,
  "\u2581closer": 3088,
  "\u2581cultivate": 3089,
  "\u2581seed": 3090,
  "\u2581International": 3091,
  "\u2581global": 3092,
  "\u2581makgetlho": 3093,
  "\u2581becomes": 3094,
  "\u2581elderly": 3095,
  "\u2581evening": 3096,
  "\u2581examine": 3097,
  "\u2581tlwaelegang": 3098,
  "\u2581display": 3099,
  "\u2581refused": 3100,
  "\u2581looked": 3101,
  "\u2581requires": 3102,
  "\u2581toropong": 3103,
  "\u2581association": 3104,
  "\u2581attending": 3105,
  "\u2581France": 3106,
  "\u2581Japan": 3107,
  "\u2581forget": 3108,
  "\u2581due": 3109,
  "\u2581baperesiti": 3110,
  "\u2581drink": 3111,
  "\u2581probably": 3112,
  "de": 3113,
  "\u2581pelotelele": 3114,
  "\u2581sharing": 3115,
  "\u2581Man": 3116,
  "\u2581mosetsana": 3117,
  "\u2581observe": 3118,
  "\u2581effective": 3119,
  "\u2581image": 3120,
  "\u2581leswe": 3121,
  "\u2581tlhotlheletsang": 3122,
  "\u25815;": 3123,
  "\u2581akantsha": 3124,
  "\u2581divorce": 3125,
  "\u2581eye": 3126,
  "\u2581rejoice": 3127,
  "\u2581seeing": 3128,
  "\u2581sekepe": 3129,
  "\u2581tongue": 3130,
  "\u2581values": 3131,
  "ar": 3132,
  "ion": 3133,
  "\u2581police": 3134,
  "\u258138": 3135,
  "\u2581kopano": 3136,
  "\u2581lesson": 3137,
  "\u2581Elijah": 3138,
  "\u2581adds": 3139,
  "\u2581dikeletso": 3140,
  "\u2581religions": 3141,
  "\u25815]": 3142,
  "\u2581imagine": 3143,
  "\u2581matsapa": 3144,
  "\u2581rerela": 3145,
  "\u2581tshwane": 3146,
  "\u2581Ene": 3147,
  "\u2581failed": 3148,
  "\u2581personally": 3149,
  "\u258112;": 3150,
  "\u2581ditumelo": 3151,
  "\u2581modimo": 3152,
  "\u2581reached": 3153,
  "\u2581tlhomilweng": 3154,
  "\u2581kgoneng": 3155,
  "\u2581ganetsa": 3156,
  "\u2581relatives": 3157,
  "\u2581Two": 3158,
  "\u2581dimpho": 3159,
  "\u2581itumetseng": 3160,
  "\u2581theilweng": 3161,
  "\u2581convinced": 3162,
  "\u2581includes": 3163,
  "\u258155": 3164,
  "\u2581Among": 3165,
  "\u2581extreme": 3166,
  "This": 3167,
  "fi": 3168,
  "\u2581Elija": 3169,
  "\u2581Ereka": 3170,
  "\u2581accounts": 3171,
  "\u2581akantse": 3172,
  "\u2581mahala": 3173,
  "\u2581specific": 3174,
  "ki": 3175,
  "\u2581fail": 3176,
  "\u2581talking": 3177,
  "\u2581break": 3178,
  "\u2581tsebeng": 3179,
  "\u2581babusi": 3180,
  "\u2581note": 3181,
  "\u2581particular": 3182,
  "\u2581tsene": 3183,
  "\u258123,": 3184,
  "\u2581High": 3185,
  "\u2581lie": 3186,
  "\u2581village": 3187,
  "\u2581boikanyego": 3188,
  "\u2581worth": 3189,
  "\u2581latlha": 3190,
  "\u2581swe": 3191,
  "\u2581affected": 3192,
  "\u2581boteng": 3193,
  "\u2581kgatelelo": 3194,
  "\u2581Here": 3195,
  "\u2581diphelelo": 3196,
  "\u2581environment": 3197,
  "\u2581inside": 3198,
  "\u2581Really": 3199,
  "\u2581aba": 3200,
  "\u2581Banna": 3201,
  "\u2581Labokeresete": 3202,
  "\u2581leloko": 3203,
  "\u2581Bodumedi": 3204,
  "\u2581Body": 3205,
  "\u2581Botlhaba": 3206,
  "\u2581University": 3207,
  "\u2581borwa": 3208,
  "\u2581belief": 3209,
  "\u2581merely": 3210,
  "\u2581search": 3211,
  "\u2581State": 3212,
  "\u2581tsia": 3213,
  "\u2581leitlho": 3214,
  "\u2581guard": 3215,
  "\u2581maswabi": 3216,
  "\u2581matshwenyego": 3217,
  "\u2581Marea": 3218,
  "\u2581bokebekwa": 3219,
  "\u2581neelwa": 3220,
  "\u2581tlhaselwa": 3221,
  "\u2581Finally": 3222,
  "\u2581hundreds": 3223,
  "\u2581obedient": 3224,
  "\u2581popular": 3225,
  "\u2581situations": 3226,
  "el": 3227,
  "\u2581ithutile": 3228,
  "\u2581loyalty": 3229,
  "\u2581morwawe": 3230,
  "\u2581relative": 3231,
  "\u2581eight": 3232,
  "\u2581Other": 3233,
  "\u2581attack": 3234,
  "\u2581kgatiso": 3235,
  "\u2581energy": 3236,
  "\u2581focus": 3237,
  "\u2581prophecies": 3238,
  "\u2581wars": 3239,
  "\u2581writing": 3240,
  "ce": 3241,
  "\u2581German": 3242,
  "\u2581amount": 3243,
  "mi": 3244,
  "\u2581cotlhe": 3245,
  "\u2581prepare": 3246,
  "\u2581type": 3247,
  "\u2581rategang": 3248,
  "\u2581tlamela": 3249,
  "2": 3250,
  "putting": 3251,
  "\u00e9": 3252,
  "\u2581unique": 3253,
  "\u2581Once": 3254,
  "\u2581army": 3255,
  "\u2581Bagolwane": 3256,
  "\u2581Robert": 3257,
  "\u2581remained": 3258,
  "and": 3259,
  "\u2581bread": 3260,
  "\u2581concerning": 3261,
  "\u2581dangerous": 3262,
  "\u2581p": 3263,
  "\u2581overcome": 3264,
  "\u2581drug": 3265,
  "\u2581response": 3266,
  "\u25813;": 3267,
  "\u2581Pennsylvania": 3268,
  "\u2581describes": 3269,
  "ia": 3270,
  "\u2581poifo": 3271,
  "\u25811990": 3272,
  "\u2581Biblical": 3273,
  "\u2581apara": 3274,
  "\u2581reality": 3275,
  "\u2581research": 3276,
  "\u2581violent": 3277,
  "\u2581Leina": 3278,
  "\u2581occur": 3279,
  "3": 3280,
  "\u2581moruti": 3281,
  "\u2581issues": 3282,
  "ur": 3283,
  "\u2581quoted": 3284,
  "\u2581amogelang": 3285,
  "\u2581court": 3286,
  "\u2581iphitlhela": 3287,
  "\u2581judge": 3288,
  "\u2581process": 3289,
  "\u2581bontshiwa": 3290,
  "\u2581gifts": 3291,
  "\u2581oil": 3292,
  "\u2581purposes": 3293,
  "\u2581FA": 3294,
  "\u2581eternal": 3295,
  "\u2581run": 3296,
  "\u2581Its": 3297,
  "\u2581date": 3298,
  "\u2581improve": 3299,
  "\u2581obedience": 3300,
  "\u014d": 3301,
  "\u2581hearing": 3302,
  "\u2581ikemiseditse": 3303,
  "\u2581preached": 3304,
  "\u2581dil\u014d": 3305,
  "\u2581Health": 3306,
  "\u2581Kgotsa": 3307,
  "\u2581robedi": 3308,
  "When": 3309,
  "yo": 3310,
  "\u2581humility": 3311,
  "\u2581motsoko": 3312,
  "\u2581Exodus": 3313,
  "\u2581letlhoo": 3314,
  "9": 3315,
  "Bapisa": 3316,
  "\u2581NW": 3317,
  "\u2581delight": 3318,
  "\u2581grew": 3319,
  "\u2581tshwerwe": 3320,
  "\u2581Blur": 3321,
  "\u2581creatures": 3322,
  "\u2581international": 3323,
  "\u2581normal": 3324,
  "\u2581fish": 3325,
  "Compare": 3326,
  "so": 3327,
  "\u2581dimakasine": 3328,
  "\u2581seoposengwe": 3329,
  "\u2581temogo": 3330,
  "\u2581alcohol": 3331,
  "\u2581Parents": 3332,
  "\u2581forgive": 3333,
  "\u2581harm": 3334,
  "\u2581produced": 3335,
  "\u2581saved": 3336,
  "\u258132.": 3337,
  "\u2581acceptable": 3338,
  "\u2581endurance": 3339,
  "\u2581lebe": 3340,
  "\u2581measure": 3341,
  "\u2581makasineng": 3342,
  "\u2581wine": 3343,
  "\u2581Deuteronomy": 3344,
  "\u25816]": 3345,
  "\u2581greatly": 3346,
  "\u2581expected": 3347,
  "\u2581victims": 3348,
  "\u2581shepherd": 3349,
  "There": 3350,
  "\u2581Duteronome": 3351,
  "\u2581fill": 3352,
  "\u2581mmala": 3353,
  "\u2581rile": 3354,
  "\u2581foreign": 3355,
  "\u2581fodisa": 3356,
  "\u2581tshwantshetsa": 3357,
  "\u2581factors": 3358,
  "\u2581join": 3359,
  "\u2581malatsing": 3360,
  "\u2581sehuba": 3361,
  "\u2581successful": 3362,
  "\u2581senyang": 3363,
  "\u2581drinking": 3364,
  "\u2581enter": 3365,
  "\u2581presented": 3366,
  "\u2581careful": 3367,
  "\u2581community": 3368,
  "\u2581ditlhabelo": 3369,
  "\u2581itekanela": 3370,
  "\u2581secret": 3371,
  "\u2581England": 3372,
  "\u2581Totatota": 3373,
  "\u2581boleele": 3374,
  "\u2581discussion": 3375,
  "\u2581communication": 3376,
  "\u2581mere": 3377,
  "\u2581pelonomi": 3378,
  "\u2581poverty": 3379,
  "\u2581story": 3380,
  "\u2581student": 3381,
  "\u2581tsietsa": 3382,
  "\u2581valuable": 3383,
  "\u2581Aberahame": 3384,
  "\u2581Bagalatia": 3385,
  "\u2581commanded": 3386,
  "\u2581growth": 3387,
  "\u2581tikologo": 3388,
  "\u2581Under": 3389,
  "\u2581cost": 3390,
  "\u2581nonofile": 3391,
  "\u2581reward": 3392,
  "\u2581appeared": 3393,
  "\u2581Being": 3394,
  "\u2581Galatians": 3395,
  "\u2581challenges": 3396,
  "\u2581suleng": 3397,
  "\u2581consideration": 3398,
  "\u2581dinaledi": 3399,
  "\u2581laletsa": 3400,
  "\u2581powers": 3401,
  "\u2581Colossians": 3402,
  "\u2581dikereke": 3403,
  "\u2581lekana": 3404,
  "\u2581Questions": 3405,
  "\u2581copy": 3406,
  "\u2581molomo": 3407,
  "\u2581mountain": 3408,
  "\u2581semolao": 3409,
  "\u2581bringing": 3410,
  "\u2581simolotse": 3411,
  "\u2581surely": 3412,
  "\u2581toropo": 3413,
  "\u2581Bakolosa": 3414,
  "\u2581ekete": 3415,
  "\u2581magodimo": 3416,
  "\u2581warm": 3417,
  "\u2581direct": 3418,
  "\u2581prophets": 3419,
  "pi": 3420,
  "\u2581lobelo": 3421,
  "\u2581placed": 3422,
  "\u2581tlhokege": 3423,
  "\u2581bope": 3424,
  "\u2581extent": 3425,
  "\u2581tsenang": 3426,
  "\u2581Teng": 3427,
  "\u2581nyalana": 3428,
  "\u2581(1)": 3429,
  "\u2581Earth": 3430,
  "\u2581matshwao": 3431,
  "\u2581welcome": 3432,
  "\u258142": 3433,
  "\u2581exist": 3434,
  "\u2581referred": 3435,
  "\u2581Laolang": 3436,
  "\u2581bakwadi": 3437,
  "\u2581effects": 3438,
  "ive": 3439,
  "\u2581forgiveness": 3440,
  "\u2581itshekileng": 3441,
  "\u2581territory": 3442,
  "\u2581minds": 3443,
  "\u2581Holong": 3444,
  "\u2581illness": 3445,
  "\u2581kill": 3446,
  "\u2581tempeleng": 3447,
  "\u2581bannye": 3448,
  "\u2581tlhagiso": 3449,
  "\u2581dipuso": 3450,
  "\u2581disciple": 3451,
  "\u2581forms": 3452,
  "\u2581grateful": 3453,
  "\u2581legal": 3454,
  "\u2581newspaper": 3455,
  "Me": 3456,
  "est": 3457,
  "\u2581Bophirima": 3458,
  "\u2581Without": 3459,
  "\u2581prospect": 3460,
  "\u2581secular": 3461,
  "\u2581comments": 3462,
  "\u2581gold": 3463,
  "\u2581leha": 3464,
  "\u2581listening": 3465,
  "\u2581sovereignty": 3466,
  "ism": 3467,
  "\u2581poloko": 3468,
  "\u2581sincere": 3469,
  "\u2581statement": 3470,
  "F": 3471,
  "\u2581Ditiragalo": 3472,
  "\u2581Ekesodo": 3473,
  "\u2581bophara": 3474,
  "il": 3475,
  "\u2581friendship": 3476,
  "\u2581katlego": 3477,
  "\u2581dithaba": 3478,
  "\u2581reveal": 3479,
  "\u2581tswe": 3480,
  "\u258113]": 3481,
  "\u2581itekanelang": 3482,
  "\u2581mabapi": 3483,
  "da": 3484,
  "\u258125,": 3485,
  "\u2581godile": 3486,
  "\u2581trees": 3487,
  "\u2581(2)": 3488,
  "\u2581boitlosobodutu": 3489,
  "\u2581correct": 3490,
  "\u2581heavy": 3491,
  "\u2581train": 3492,
  "\u2581Help": 3493,
  "\u2581laolang": 3494,
  "\u2581main": 3495,
  "\u2581non": 3496,
  "\u2581busy": 3497,
  "\u2581fell": 3498,
  "\u2581helpful": 3499,
  "\u2581set\u0161habeng": 3500,
  "\u2581wait": 3501,
  "\u2581worshipers": 3502,
  "\u2581Day": 3503,
  "\u2581Faith": 3504,
  "\u2581Judea": 3505,
  "\u2581bolwetsi": 3506,
  "\u2581nnyaa": 3507,
  "\u2581Mother": 3508,
  "\u2581appears": 3509,
  "\u2581compassion": 3510,
  "\u2581rialo": 3511,
  "ni": 3512,
  "ww": 3513,
  "\u2581bopelotshetlha": 3514,
  "\u2581island": 3515,
  "\u2581recently": 3516,
  "\u2581increased": 3517,
  "\u2581kayang": 3518,
  "\u2581god": 3519,
  "\u2581tlhokomelo": 3520,
  "w": 3521,
  "\u2581Bibeleng": 3522,
  "\u2581Mokwadi": 3523,
  "\u2581Sometimes": 3524,
  "\u2581itumelele": 3525,
  "\u2581listed": 3526,
  "\u2581tshipi": 3527,
  "\u2581Govern": 3528,
  "\u2581indicate": 3529,
  "\u2581letlelela": 3530,
  "\u2581sule": 3531,
  "\u2581\u00e8na": 3532,
  "ity": 3533,
  "\u2581caring": 3534,
  "\u2581pass": 3535,
  "\u2581forces": 3536,
  "\u25811914": 3537,
  "\u2581battle": 3538,
  "\u2581neile": 3539,
  "\u2581ntshiwa": 3540,
  "\u2581Elisha": 3541,
  "\u2581lekgetlho": 3542,
  "\u2581masome": 3543,
  "\u2581anxiety": 3544,
  "\u2581dikakanyo": 3545,
  "\u2581diragetseng": 3546,
  "\u2581discussed": 3547,
  "\u2581popo": 3548,
  "\u258148": 3549,
  "\u2581boitekanelo": 3550,
  "\u2581white": 3551,
  "\u2581younger": 3552,
  "\u2581ineetseng": 3553,
  "\u2581pursue": 3554,
  "\u2581survive": 3555,
  "\u2581Latin": 3556,
  "\u2581botsala": 3557,
  "\u2581direle": 3558,
  "\u2581gatela": 3559,
  "\u2581tlotle": 3560,
  "\u2581demons": 3561,
  "\u2581uses": 3562,
  "\u00e8": 3563,
  "\u2581encouraging": 3564,
  "\u2581Botlhe": 3565,
  "\u2581governments": 3566,
  "\u2581sesupo": 3567,
  "\u2581hundred": 3568,
  "\u2581hurt": 3569,
  "\u2581ipelela": 3570,
  "\u2581lies": 3571,
  "\u2581mokgele": 3572,
  "\u2581translated": 3573,
  "\u2581tshotse": 3574,
  "\u2581Memorial": 3575,
  "\u2581Take": 3576,
  "\u2581phepafalo": 3577,
  "\u2581remains": 3578,
  "\u2581Ruth": 3579,
  "\u2581Tshwanetse": 3580,
  "\u2581etelela": 3581,
  "\u2581galefa": 3582,
  "\u2581garden": 3583,
  "\u2581motlotlo": 3584,
  "\u2581overseers": 3585,
  "\u2581rekisa": 3586,
  "\u2581thanolo": 3587,
  "\u2581conversation": 3588,
  "\u2581evident": 3589,
  "\u2581immoral": 3590,
  "\u2581letters": 3591,
  "\u2581teaches": 3592,
  "\u2581tlwaelo": 3593,
  "\u2581dinonyane": 3594,
  "\u2581kgakgamatso": 3595,
  "\u2581kobamelong": 3596,
  "\u2581lono": 3597,
  "\u2581De": 3598,
  "\u2581Hitler": 3599,
  "\u2581generation": 3600,
  "\u2581request": 3601,
  "Y": 3602,
  "\u2581financial": 3603,
  "\u2581humanegileng": 3604,
  "\u2581series": 3605,
  "\u2581wide": 3606,
  "like": 3607,
  "\u2581associated": 3608,
  "\u2581gakgamatsa": 3609,
  "\u2581immorality": 3610,
  "\u2581instruction": 3611,
  "\u2581kago": 3612,
  "\u2581lebegang": 3613,
  "gi": 3614,
  "\u2581cover": 3615,
  "\u2581offering": 3616,
  "\u2581William": 3617,
  "\u2581leke": 3618,
  "\u2581dipolotiki": 3619,
  "\u2581gatisa": 3620,
  "\u2581opening": 3621,
  "responsibilities": 3622,
  "\u2581appearance": 3623,
  "\u2581dikgakgamatso": 3624,
  "\u2581higher": 3625,
  "\u2581kgwetlho": 3626,
  "\u2581react": 3627,
  "\u2581hospital": 3628,
  "\u2581organized": 3629,
  "\u2581Make": 3630,
  "\u2581Michael": 3631,
  "\u2581decades": 3632,
  "\u2581developing": 3633,
  "\u2581magazines": 3634,
  "Di": 3635,
  "ul": 3636,
  "\u2581Rata": 3637,
  "\u2581nyelela": 3638,
  "\u25818]": 3639,
  "\u2581ape": 3640,
  "\u2581atereseng": 3641,
  "\u2581monnye": 3642,
  "Se": 3643,
  "\u2581Thata": 3644,
  "\u2581bothokgami": 3645,
  "\u2581lere": 3646,
  "\u2581company": 3647,
  "\u2581konela": 3648,
  "\u2581atlege": 3649,
  "\u2581tumelong": 3650,
  "\u2581Ra": 3651,
  "\u2581advantage": 3652,
  "\u2581bofefo": 3653,
  "\u2581camp": 3654,
  "\u2581churches": 3655,
  "\u2581depression": 3656,
  "\u2581tlhwatlhwakgolo": 3657,
  "\u2581mopesalema": 3658,
  "\u2581batlodiwa": 3659,
  "\u2581scientists": 3660,
  "\u2581understood": 3661,
  "\u2581dikgotlhang": 3662,
  "\u2581dintle": 3663,
  "\u2581patience": 3664,
  "\u2581trained": 3665,
  "\u2581aid": 3666,
  "\u2581likewise": 3667,
  "\u2581motshegare": 3668,
  "\u2581Union": 3669,
  "\u2581confident": 3670,
  "\u2581low": 3671,
  "\u2581pleasure": 3672,
  "\u2581total": 3673,
  "\u2581seriously": 3674,
  "\u2581tseela": 3675,
  "\u2581George": 3676,
  "\u2581darkness": 3677,
  "\u2581utlwile": 3678,
  "\u2581Isaac": 3679,
  "\u2581Land": 3680,
  "\u2581kankere": 3681,
  "\u2581boferefere": 3682,
  "\u2581guide": 3683,
  "\u2581matlhagatlhaga": 3684,
  "\u2581occurred": 3685,
  "\u2581rain": 3686,
  "\u2581strive": 3687,
  "\u2581tsweetswee": 3688,
  "\u2581utlwang": 3689,
  "\u2581wealth": 3690,
  "\u2581writes": 3691,
  "\u2581Gileade": 3692,
  "\u2581agiwa": 3693,
  "\u2581discovered": 3694,
  "\u2581emotions": 3695,
  "\u2581manifest": 3696,
  "ca": 3697,
  "\u2581circuit": 3698,
  "\u2581escape": 3699,
  "\u2581metse": 3700,
  "\u258143": 3701,
  "\u2581Botsa": 3702,
  "\u2581Russell": 3703,
  "\u2581balebedi": 3704,
  "\u2581Dikgosi": 3705,
  "\u2581London": 3706,
  "\u2581distress": 3707,
  "\u2581mmu": 3708,
  "\u2581East": 3709,
  "\u2581across": 3710,
  "\u2581baakanyetsa": 3711,
  "\u2581bogagapa": 3712,
  "\u2581tears": 3713,
  "all": 3714,
  "\u2581TO": 3715,
  "\u2581Un": 3716,
  "\u2581offspring": 3717,
  "K": 3718,
  "\u2581create": 3719,
  "\u2581designed": 3720,
  "\u2581discreet": 3721,
  "\u258126,": 3722,
  "\u2581boitshegang": 3723,
  "\u2581dikoloi": 3724,
  "\u2581evidently": 3725,
  "\u2581views": 3726,
  "\u2581Eno": 3727,
  "\u2581approval": 3728,
  "\u2581basetsana": 3729,
  "ru": 3730,
  "\u2581buy": 3731,
  "\u2581vast": 3732,
  "\u2581Gospel": 3733,
  "\u2581essential": 3734,
  "\u2581fulfill": 3735,
  "\u2581impressed": 3736,
  "\u2581Dingwe": 3737,
  "\u2581applied": 3738,
  "\u2581waters": 3739,
  "\u2581mature": 3740,
  "\u2581mogopolong": 3741,
  "\u2581neighbors": 3742,
  "\u2581treated": 3743,
  "\u2581dimetara": 3744,
  "\u2581ikaeletse": 3745,
  "\u2581wild": 3746,
  "\u2581Kgang": 3747,
  "\u2581Kopaneng": 3748,
  "\u2581dealing": 3749,
  "\u2581ruler": 3750,
  "\u2581wish": 3751,
  "My": 3752,
  "\u258116]": 3753,
  "\u2581refers": 3754,
  "\u2581seriti": 3755,
  "\u2581tlwaelegile": 3756,
  "\u2581troubled": 3757,
  "\u2581accomplish": 3758,
  "\u2581dikeledi": 3759,
  "\u2581girls": 3760,
  "\u2581setso": 3761,
  "\u2581Jaana": 3762,
  "\u2581Makasine": 3763,
  "\u2581tlola": 3764,
  "\u2581Paradaise": 3765,
  "\u2581diragalela": 3766,
  "\u2581slaves": 3767,
  "\u2581studied": 3768,
  "\u2581Baithuti": 3769,
  "\u2581contains": 3770,
  "\u2581destroy": 3771,
  "\u2581facts": 3772,
  "\u2581telling": 3773,
  "20": 3774,
  "\u2581easier": 3775,
  "\u2581kgaogana": 3776,
  "\u2581Bakaulengwe": 3777,
  "\u2581feleletsa": 3778,
  "\u2581formed": 3779,
  "\u2581hatred": 3780,
  "\u2581healthy": 3781,
  "\u2581setting": 3782,
  "\u2581European": 3783,
  "\u2581describe": 3784,
  "\u2581husbands": 3785,
  "\u2581indicates": 3786,
  "\u2581romelwa": 3787,
  "\u2581zeal": 3788,
  "\u2581ideas": 3789,
  "\u2581molem\u014d": 3790,
  "\u2581superior": 3791,
  "\u2581Eastern": 3792,
  "\u2581boaka": 3793,
  "\u2581dingwao": 3794,
  "\u2581jewa": 3795,
  "\u2581kgaolong": 3796,
  "\u2581magae": 3797,
  "\u2581ntshe": 3798,
  "\u2581Lefatsheng": 3799,
  "\u2581box": 3800,
  "\u2581center": 3801,
  "\u2581concluded": 3802,
  "\u2581kgaitsadi": 3803,
  "\u2581dikologa": 3804,
  "\u2581simolole": 3805,
  "tlha": 3806,
  "\u2581boifang": 3807,
  "\u2581clergy": 3808,
  "\u2581committed": 3809,
  "\u2581Bapisa": 3810,
  "\u2581Madi": 3811,
  "\u2581inhabitants": 3812,
  "\u2581national": 3813,
  "\u2581tlhobaela": 3814,
  "\u2581Compare": 3815,
  "\u258141": 3816,
  "\u2581bale": 3817,
  "\u2581joined": 3818,
  "\u2581tumalanong": 3819,
  "\u2581Pharisees": 3820,
  "\u2581insight": 3821,
  "\u2581mmusi": 3822,
  "\u2581Rraarona": 3823,
  "\u2581adults": 3824,
  "\u2581letlalo": 3825,
  "\u2581makoa": 3826,
  "\u2581science": 3827,
  "\u2581300": 3828,
  "\u2581Both": 3829,
  "\u25811919": 3830,
  "\u2581blind": 3831,
  "\u2581enemy": 3832,
  "\u2581recognized": 3833,
  "\u2581basimane": 3834,
  "\u2581conclude": 3835,
  "\u2581notice": 3836,
  "\u2581entertainment": 3837,
  "\u2581hisitoring": 3838,
  "\u2581responded": 3839,
  "\u2581beneficial": 3840,
  "\u2581contrary": 3841,
  "\u2581itlhophela": 3842,
  "\u2581matshelong": 3843,
  "\u2581modisa": 3844,
  "\u2581praying": 3845,
  "\u2581promote": 3846,
  "\u2581Greece": 3847,
  "\u2581Boritane": 3848,
  "\u2581entered": 3849,
  "\u2581itaya": 3850,
  "\u2581kopane": 3851,
  "lwe": 3852,
  "\u2581Karolo": 3853,
  "\u2581bapisiwa": 3854,
  "\u2581ikanyege": 3855,
  "\u2581itekanetse": 3856,
  "\u2581sotla": 3857,
  "\u2581tlhomile": 3858,
  "\u2581waiting": 3859,
  "\u2581Kagiso": 3860,
  "\u2581joyful": 3861,
  "\u2581loo": 3862,
  "\u2581simologile": 3863,
  "\u2581fruitage": 3864,
  "\u2581species": 3865,
  "\u25811993": 3866,
  "\u2581chose": 3867,
  "\u2581count": 3868,
  "\u2581trial": 3869,
  "\u2581X": 3870,
  "\u2581difference": 3871,
  "\u2581dikago": 3872,
  "\u2581speaks": 3873,
  "\u2581Christmas": 3874,
  "What": 3875,
  "\u2581Mosha": 3876,
  "\u2581abela": 3877,
  "\u2581brain": 3878,
  "\u2581pono": 3879,
  "\u2581tshwere": 3880,
  "\u2581drawn": 3881,
  "\u2581trouble": 3882,
  "\u2581BAEBELE": 3883,
  "\u2581belaela": 3884,
  "\u2581witnessing": 3885,
  "\u258139": 3886,
  "\u2581BIBLE": 3887,
  "\u2581gatisiwa": 3888,
  "\u2581invitation": 3889,
  "\u2581tsamaisa": 3890,
  "\u2581UN": 3891,
  "\u2581bolele": 3892,
  "\u2581bonno": 3893,
  "\u2581goodness": 3894,
  "\u2581mapodise": 3895,
  "\u2581ngongorega": 3896,
  "\u2581severe": 3897,
  "\u2581subjects": 3898,
  "\u258146": 3899,
  "\u2581Work": 3900,
  "\u2581lwantsha": 3901,
  "\u2581rights": 3902,
  "7": 3903,
  "un": 3904,
  "\u2581baagelani": 3905,
  "\u2581cry": 3906,
  "\u2581gololesegile": 3907,
  "\u2581peo": 3908,
  "\u2581solofetse": 3909,
  "\u2581Orthodox": 3910,
  "\u2581Tlhalosa": 3911,
  "\u2581WA": 3912,
  "\u2581closely": 3913,
  "\u2581demonstrate": 3914,
  "\u2581kgala": 3915,
  "\u2581mogote": 3916,
  "\u2581assured": 3917,
  "tswe": 3918,
  "\u2581Poland": 3919,
  "\u2581dilwana": 3920,
  "\u2581leaving": 3921,
  "kwa": 3922,
  "\u2581TV": 3923,
  "\u2581afraid": 3924,
  "\u2581aside": 3925,
  "\u2581nntse": 3926,
  "\u25811995": 3927,
  "\u2581gathered": 3928,
  "\u2581humileng": 3929,
  "\u2581ikonomi": 3930,
  "\u2581send": 3931,
  "\u2581dibeke": 3932,
  "\u2581impossible": 3933,
  "\u2581moving": 3934,
  "\u2581doctors": 3935,
  "\u2581satisfaction": 3936,
  "\u2581worse": 3937,
  "\u2581Ngwaga": 3938,
  "\u2581boikhutso": 3939,
  "\u2581ruin": 3940,
  "x": 3941,
  "\u2581outstanding": 3942,
  "\u2581riches": 3943,
  "\u2581surprise": 3944,
  "\u2581thank": 3945,
  "\u2581tuelo": 3946,
  "\u2581bodies": 3947,
  "\u2581lasting": 3948,
  "\u2581list": 3949,
  "\u2581meal": 3950,
  "\u2581nyatsa": 3951,
  "\u2581Kings": 3952,
  "\u2581safe": 3953,
  "tlhaketlhakeng": 3954,
  "\u2581West": 3955,
  "\u2581decide": 3956,
  "\u25811991": 3957,
  "\u2581tshiamololo": 3958,
  "\u2581tshwantsha": 3959,
  "\u258121]": 3960,
  "\u2581Basadi": 3961,
  "\u2581harvest": 3962,
  "\u2581honest": 3963,
  "\u2581French": 3964,
  "\u2581rejected": 3965,
  "\u2581shared": 3966,
  "Batho": 3967,
  "\u2581travel": 3968,
  "\u25811997": 3969,
  "\u2581Peace": 3970,
  "\u2581mountains": 3971,
  "\u2581utlwela": 3972,
  "\u258131]": 3973,
  "\u2581pattern": 3974,
  "\u2581sit": 3975,
  "vi": 3976,
  "\u2581bobone": 3977,
  "\u2581diha": 3978,
  "\u2581soldiers": 3979,
  "\u2581Mma": 3980,
  "\u2581OF": 3981,
  "\u2581akaretsang": 3982,
  "\u2581badiredi": 3983,
  "\u2581connection": 3984,
  "\u2581gaetsho": 3985,
  "\u2581ura": 3986,
  "at": 3987,
  "ian": 3988,
  "\u2581Dit\u0161haba": 3989,
  "\u2581News": 3990,
  "\u2581Sekolo": 3991,
  "\u2581boboko": 3992,
  "\u2581constantly": 3993,
  "\u2581style": 3994,
  "\u2581bet\u0161ha": 3995,
  "\u2581loves": 3996,
  "\u2581senka": 3997,
  "\u2581rise": 3998,
  "\u2581Has": 3999,
  "\u2581Imagine": 4000,
  "\u2581beauty": 4001,
  "son": 4002,
  "\u2581Keresemose": 4003,
  "\u2581bapisa": 4004,
  "\u2581diseases": 4005,
  "\u2581lemogile": 4006,
  "ine": 4007,
  "\u2581sinful": 4008,
  "\u2581ill": 4009,
  "\u2581released": 4010,
  "\u2581tlhaela": 4011,
  "\u2581119": 4012,
  "\u258129,": 4013,
  "\u2581potologo": 4014,
  "\u2581receiving": 4015,
  "\u2581rua": 4016,
  "\u2581sephiri": 4017,
  "\u2581unable": 4018,
  "\u2581united": 4019,
  "\u2581Phuthego": 4020,
  "\u2581fast": 4021,
  "\u2581Engelane": 4022,
  "\u2581Ruta": 4023,
  "\u2581majority": 4024,
  "\u2581providing": 4025,
  "\u25812000": 4026,
  "\u2581assist": 4027,
  "\u2581kgoreletsa": 4028,
  "\u2581separate": 4029,
  "\u2581site": 4030,
  "\u2581tlhokomele": 4031,
  "ment": 4032,
  "\u2581habits": 4033,
  "\u2581ministers": 4034,
  "\u2581commandments": 4035,
  "\u2581directly": 4036,
  "\u2581kgabaganya": 4037,
  "\u2581segosi": 4038,
  "\u2581Boikaelelo": 4039,
  "\u2581YOU": 4040,
  "\u2581feels": 4041,
  "\u2581lenaaneng": 4042,
  "\u2581makgoba": 4043,
  "\u2581perform": 4044,
  "\u2581pointed": 4045,
  "\u2581resist": 4046,
  "\u2581stopped": 4047,
  "\u2581yes": 4048,
  "um": 4049,
  "\u2581losong": 4050,
  "\u2581Could": 4051,
  "\u258133:": 4052,
  "\u2581bless": 4053,
  "\u2581magaeng": 4054,
  "\u2581Note": 4055,
  "\u2581Spanish": 4056,
  "\u25811914,": 4057,
  "\u2581balanced": 4058,
  "\u2581capital": 4059,
  "\u2581emisa": 4060,
  "\u2581kerekeng": 4061,
  "\u2581makwalo": 4062,
  "\u2581ntlhantlha": 4063,
  "\u258134.": 4064,
  "\u2581Think": 4065,
  "\u2581chief": 4066,
  "\u2581daughters": 4067,
  "\u2581kotlhao": 4068,
  "\u2581rayang": 4069,
  "\u2581aspects": 4070,
  "\u2581obtain": 4071,
  "\u2581Bone": 4072,
  "\u2581Every": 4073,
  "\u2581development": 4074,
  "\u2581dibopiwa": 4075,
  "\u2581dikgoka": 4076,
  "\u2581fetile": 4077,
  "\u2581gapa": 4078,
  "\u2581heed": 4079,
  "\u2581master": 4080,
  "\u2581Hav": 4081,
  "\u2581puong": 4082,
  "\u2581recalls": 4083,
  "\u2581disele": 4084,
  "\u2581ditekanyetso": 4085,
  "\u2581expressions": 4086,
  "\u2581metsotso": 4087,
  "\u2581mmotsa": 4088,
  "\u2581beine": 4089,
  "\u2581directed": 4090,
  "\u2581rutiwa": 4091,
  "\u2581seyo": 4092,
  "\u2581tlhomamisegile": 4093,
  "\u2581top": 4094,
  "\u2581ikwatlhaya": 4095,
  "\u2581rules": 4096,
  "\u2581Lewatle": 4097,
  "\u2581delivered": 4098,
  "\u2581details": 4099,
  "\u2581lekawana": 4100,
  "\u2581render": 4101,
  "one": 4102,
  "\u258112]": 4103,
  "\u25811992": 4104,
  "\u2581Sunday": 4105,
  "\u2581masalela": 4106,
  "\u2581simololang": 4107,
  "tha": 4108,
  "\u258129]": 4109,
  "\u2581000.": 4110,
  "\u2581fearing": 4111,
  "\u2581pagan": 4112,
  "\u2581paid": 4113,
  "\u2581patlisiso": 4114,
  "\u2581senkgwe": 4115,
  "\u2581carrying": 4116,
  "\u2581forced": 4117,
  "\u2581highly": 4118,
  "\u2581maoto": 4119,
  "\u2581mothong": 4120,
  "All": 4121,
  "ch": 4122,
  "\u2581Ireland": 4123,
  "\u2581abelwa": 4124,
  "\u2581bareetsi": 4125,
  "\u2581culture": 4126,
  "\u2581pre": 4127,
  "\u2581reveals": 4128,
  "\u2581zealous": 4129,
  "\u2581etang": 4130,
  "\u2581hate": 4131,
  "\u2581North": 4132,
  "\u2581Yone": 4133,
  "\u2581cold": 4134,
  "\u2581madumedi": 4135,
  "\u2581television": 4136,
  "\u2581(3)": 4137,
  "\u2581British": 4138,
  "\u2581Regard": 4139,
  "\u2581conflict": 4140,
  "\u2581tlhaloso": 4141,
  "pesalema": 4142,
  "\u2581leads": 4143,
  "\u2581prophetic": 4144,
  "\u2581sekaseke": 4145,
  "\u2581gouta": 4146,
  "\u2581magareng": 4147,
  "\u2581opportunities": 4148,
  "\u2581pride": 4149,
  "\u2581sword": 4150,
  "\u2581eotlhe": 4151,
  "\u2581moithuti": 4152,
  "\u2581baikepi": 4153,
  "\u2581lwela": 4154,
  "\u2581raise": 4155,
  "\u2581relates": 4156,
  "\u2581average": 4157,
  "\u2581bearing": 4158,
  "\u2581berekang": 4159,
  "\u2581identify": 4160,
  "\u2581lekgotla": 4161,
  "\u2581lewatleng": 4162,
  "\u2581Charles": 4163,
  "\u258130,": 4164,
  "\u2581Answer": 4165,
  "\u2581laolwa": 4166,
  "fe": 4167,
  "ton": 4168,
  "\u2581cancer": 4169,
  "\u2581forest": 4170,
  "\u2581iketleeleditse": 4171,
  "\u2581terms": 4172,
  "\u2581Mathata": 4173,
  "\u2581Sarah": 4174,
  "\u2581gotlhe": 4175,
  "\u2581ranola": 4176,
  "\u2581setshwantshong": 4177,
  "\u2581tlatsa": 4178,
  "\u2581Jo": 4179,
  "\u2581calling": 4180,
  "\u2581granted": 4181,
  "out": 4182,
  "\u258119;": 4183,
  "\u2581Batla": 4184,
  "\u2581Thulaganyo": 4185,
  "\u2581boperofeti": 4186,
  "\u2581level": 4187,
  "\u2581replied": 4188,
  "tu": 4189,
  "\u2581boys": 4190,
  "\u2581dikgannyeng": 4191,
  "\u2581dimela": 4192,
  "\u2581ithutileng": 4193,
  "\u2581Spirit": 4194,
  "\u2581abundance": 4195,
  "\u2581boleng": 4196,
  "\u2581dealings": 4197,
  "\u2581skills": 4198,
  "\u2581lay": 4199,
  "\u2581thapisa": 4200,
  "\u2581deliver": 4201,
  "\u2581mpolelela": 4202,
  "\u2581require": 4203,
  "ela": 4204,
  "\u2581background": 4205,
  "\u2581doctrine": 4206,
  "\u2581galaletsa": 4207,
  "\u2581potential": 4208,
  "\u2581sekasekeng": 4209,
  "\u2581Israelite": 4210,
  "\u2581indicated": 4211,
  "\u2581rulers": 4212,
  "\u2581yalo": 4213,
  "\u2581Britain": 4214,
  "\u2581Surely": 4215,
  "\u2581arabela": 4216,
  "\u2581boele": 4217,
  "\u2581anama": 4218,
  "\u2581causing": 4219,
  "\u2581per": 4220,
  "\u2581verses": 4221,
  "\u2581Dictionary": 4222,
  "\u2581Look": 4223,
  "\u2581boswa": 4224,
  "\u2581buelela": 4225,
  "\u2581dikepe": 4226,
  "\u2581succeed": 4227,
  "\u2581tshwaregile": 4228,
  "\u2581attendance": 4229,
  "\u2581maitseboa": 4230,
  "\u2581journey": 4231,
  "\u2581rute": 4232,
  "\u2581cell": 4233,
  "\u2581copies": 4234,
  "\u2581ipolaya": 4235,
  "\u2581siama": 4236,
  "\u2581sought": 4237,
  "\u2581Ministry": 4238,
  "\u2581herself": 4239,
  "6": 4240,
  "\u25811994": 4241,
  "\u2581Ditih\u014d": 4242,
  "\u2581conventions": 4243,
  "\u2581gaisang": 4244,
  "\u2581moment": 4245,
  "\u2581skin": 4246,
  "\u2581struggle": 4247,
  "\u2581undeserved": 4248,
  "\u2581balaodi": 4249,
  "\u2581black": 4250,
  "\u2581wind": 4251,
  "\u2581Holo": 4252,
  "\u2581beloved": 4253,
  "\u2581mighty": 4254,
  "\u2581Jude": 4255,
  "\u2581assistance": 4256,
  "\u2581grown": 4257,
  "\u2581throne": 4258,
  "\u2581KWA": 4259,
  "\u2581Morwalela": 4260,
  "\u2581Nngwe": 4261,
  "\u2581bolelele": 4262,
  "\u2581construction": 4263,
  "\u2581critical": 4264,
  "\u2581itumediseng": 4265,
  "\u258124;": 4266,
  "\u258127,": 4267,
  "\u2581glorious": 4268,
  "\u2581handle": 4269,
  "\u2581kgonege": 4270,
  "\u2581tsibogela": 4271,
  "\u2581Thessalonians": 4272,
  "\u2581ereka": 4273,
  "\u2581lebale": 4274,
  "\u2581letsomane": 4275,
  "\u2581official": 4276,
  "\u2581tshoganyetso": 4277,
  "jw": 4278,
  "\u2581billion": 4279,
  "\u2581applying": 4280,
  "\u2581damage": 4281,
  "\u2581ended": 4282,
  "\u2581faithfully": 4283,
  "\u2581pateletsa": 4284,
  "\u2581weight": 4285,
  "5": 4286,
  "\u2581apparently": 4287,
  "\u2581belong": 4288,
  "\u2581birds": 4289,
  "\u2581dipalo": 4290,
  "\u2581exactly": 4291,
  "\u2581Britannica": 4292,
  "\u2581rwala": 4293,
  "\u2581temptation": 4294,
  "\u2581V": 4295,
  "\u2581armies": 4296,
  "\u2581entitled": 4297,
  "\u2581Human": 4298,
  "\u2581Isake": 4299,
  "\u2581huge": 4300,
  "\u2581marvelous": 4301,
  "\u2581sees": 4302,
  "\u2581endeavor": 4303,
  "\u2581souls": 4304,
  "\u2581wickedness": 4305,
  "\u2581Teach": 4306,
  "\u2581dumeleng": 4307,
  "\u2581nearby": 4308,
  "\u2581solution": 4309,
  "\u2581Ha": 4310,
  "\u2581gu": 4311,
  "\u2581lying": 4312,
  "\u2581male": 4313,
  "\u2581Armageddon": 4314,
  "\u2581Never": 4315,
  "\u2581adult": 4316,
  "\u2581compare": 4317,
  "\u2581khutshwane": 4318,
  "\u2581performed": 4319,
  "\u2581radio": 4320,
  "\u2581region": 4321,
  "\u2581song": 4322,
  "lela": 4323,
  "\u2581Bothata": 4324,
  "\u2581Nka": 4325,
  "\u2581peaceful": 4326,
  "\u2581victim": 4327,
  "batho": 4328,
  "kgolo": 4329,
  "\u2581Botlhokwa": 4330,
  "\u2581Tim": 4331,
  "\u2581dikgwetlho": 4332,
  "\u2581foot": 4333,
  "\u2581ofising": 4334,
  "\u2581tlhotlheletsega": 4335,
  "\u2581HIV": 4336,
  "\u2581Organization": 4337,
  "\u2581Puo": 4338,
  "\u2581Readers": 4339,
  "\u2581contribute": 4340,
  "\u2581nine": 4341,
  "ck": 4342,
  "\u2581freely": 4343,
  "\u2581inhabited": 4344,
  "\u2581lwalang": 4345,
  "\u2581minutes": 4346,
  "\u2581stars": 4347,
  "\u258122;": 4348,
  "\u258140:": 4349,
  "\u2581Religion": 4350,
  "\u2581identified": 4351,
  "\u2581kaelwa": 4352,
  "\u2581moletlo": 4353,
  "\u2581reference": 4354,
  "\u2581significant": 4355,
  "\u25813]": 4356,
  "\u2581Columbia": 4357,
  "\u2581Out": 4358,
  "\u2581Trinity": 4359,
  "\u2581cells": 4360,
  "\u2581stick": 4361,
  "\u2581scriptures": 4362,
  "\u2581anamisa": 4363,
  "\u2581balang": 4364,
  "\u2581otlhaya": 4365,
  "\u2581raraaneng": 4366,
  "\u2581atamalane": 4367,
  "\u2581constant": 4368,
  "\u2581keteka": 4369,
  "\u2581patelesega": 4370,
  "\u2581sickness": 4371,
  "\u2581Republic": 4372,
  "\u2581apart": 4373,
  "\u2581badisa": 4374,
  "\u2581boitshoko": 4375,
  "\u2581resulted": 4376,
  "\u2581senyega": 4377,
  "\u2581sesole": 4378,
  "\u2581boikgapo": 4379,
  "\u2581determine": 4380,
  "\u2581ipaakanyetsa": 4381,
  "leng": 4382,
  "\u2581supply": 4383,
  "\u2581GA": 4384,
  "\u2581fornication": 4385,
  "\u2581kgotlatshekelo": 4386,
  "\u2581molaomotheo": 4387,
  "\u2581proof": 4388,
  "\u2581Often": 4389,
  "\u2581diragalelwa": 4390,
  "\u2581factor": 4391,
  "\u2581leta": 4392,
  "\u2581plant": 4393,
  "\u2581scholars": 4394,
  "\u2581sekgala": 4395,
  "\u2581Don": 4396,
  "\u2581bakwa": 4397,
  "\u2581lekanang": 4398,
  "\u2581lekwa": 4399,
  "\u2581melaetsa": 4400,
  "\u2581phepafetse": 4401,
  "\u2581phetogo": 4402,
  "\u2581satisfying": 4403,
  "\u2581Mosaic": 4404,
  "\u2581River": 4405,
  "\u2581threat": 4406,
  "\u2581Likewise": 4407,
  "\u2581botswerere": 4408,
  "\u2581couples": 4409,
  "\u2581diphuthegong": 4410,
  "\u2581diragaletseng": 4411,
  "\u2581finding": 4412,
  "\u2581thusitse": 4413,
  "\u2581tlisetsa": 4414,
  "os": 4415,
  "\u258144": 4416,
  "\u2581Pharaoh": 4417,
  "\u2581angry": 4418,
  "\u2581illustrate": 4419,
  "\u2581ipitsa": 4420,
  "\u2581ipolela": 4421,
  "\u2581mebele": 4422,
  "\u2581scientific": 4423,
  "ty": 4424,
  "\u2581boomo": 4425,
  "\u2581dipelong": 4426,
  "\u2581happens": 4427,
  "\u2581ipha": 4428,
  "\u2581letsogo": 4429,
  "\u2581price": 4430,
  "hether": 4431,
  "\u2581Sara": 4432,
  "\u2581companions": 4433,
  "\u2581involve": 4434,
  "\u2581utswa": 4435,
  "\u2581Nazi": 4436,
  "\u2581balance": 4437,
  "\u2581gakgamala": 4438,
  "\u2581phefo": 4439,
  "\u2581totatota": 4440,
  "\u25814]": 4441,
  "\u2581Encyclop\u00e6dia": 4442,
  "\u2581motlakase": 4443,
  "\u2581physically": 4444,
  "\u2581refer": 4445,
  "\u2581street": 4446,
  "\u2581worshippers": 4447,
  "ho": 4448,
  "\u2581Naomi": 4449,
  "\u2581borongwa": 4450,
  "\u2581generally": 4451,
  "\u2581ila": 4452,
  "\u2581injustice": 4453,
  "\u2581lefe": 4454,
  "\u2581failure": 4455,
  "\u2581lessons": 4456,
  "\u2581tshepa": 4457,
  "\u2581Museum": 4458,
  "\u2581size": 4459,
  "\u2581Eden": 4460,
  "\u2581bojotlhe": 4461,
  "\u2581exists": 4462,
  "\u2581morongwa": 4463,
  "rs": 4464,
  "\u2581clothing": 4465,
  "\u2581weak": 4466,
  "\u2581El": 4467,
  "\u2581compared": 4468,
  "\u2581kindly": 4469,
  "\u2581marry": 4470,
  "\u2581phepafatsa": 4471,
  "\u2581relationships": 4472,
  "\u2581Paris": 4473,
  "\u2581ditshwanelo": 4474,
  "\u2581gabedi": 4475,
  "\u2581kgobega": 4476,
  "\u2581photo": 4477,
  "\u2581rulership": 4478,
  "\u2581stood": 4479,
  "\u2581tlhalosiwang": 4480,
  "\u2581Cor": 4481,
  "\u2581kgotsofatsang": 4482,
  "\u2581losing": 4483,
  "\u2581slow": 4484,
  "\u2581thulaganyong": 4485,
  "\u2581upright": 4486,
  "\u258144.": 4487,
  "\u2581Efangele": 4488,
  "\u2581Lekgotla": 4489,
  "\u2581Lemororo": 4490,
  "\u2581Students": 4491,
  "\u2581letle": 4492,
  "\u2581privileges": 4493,
  "\u2581remarkable": 4494,
  "\u2581successfully": 4495,
  "\u2581boletse": 4496,
  "\u2581ditlhaka": 4497,
  "\u2581stake": 4498,
  "\u2581witnesses": 4499,
  "Yo": 4500,
  "\u2581Thusa": 4501,
  "\u2581assembly": 4502,
  "\u2581kgatlhego": 4503,
  "\u2581mistakes": 4504,
  "\u2581planet": 4505,
  "\u2581tile": 4506,
  "ir": 4507,
  "\u2581lekgetlo": 4508,
  "\u2581listened": 4509,
  "\u2581variety": 4510,
  "lu": 4511,
  "\u2581below": 4512,
  "\u2581engage": 4513,
  "\u2581reject": 4514,
  "\u2581setlhopheng": 4515,
  "\u2581Learn": 4516,
  "\u2581Pet": 4517,
  "\u2581bed": 4518,
  "\u2581pusong": 4519,
  "\u2581surface": 4520,
  "\u2581additional": 4521,
  "\u2581botlhaba": 4522,
  "\u2581gatelelwa": 4523,
  "\u2581instructions": 4524,
  "\u2581mmaba": 4525,
  "\u2581mono": 4526,
  "\u2581primary": 4527,
  "\u2581ditshiamelo": 4528,
  "\u2581increasing": 4529,
  "\u2581keeps": 4530,
  "\u2581lebogela": 4531,
  "\u2581task": 4532,
  "\u2581tender": 4533,
  "\u2581Itse": 4534,
  "\u2581dipina": 4535,
  "\u2581tshelwa": 4536,
  "\u2581widow": 4537,
  "\u2581Palo": 4538,
  "\u2581lefifi": 4539,
  "\u2581Pelo": 4540,
  "\u2581Thabeng": 4541,
  "\u2581halofo": 4542,
  "\u2581lekang": 4543,
  "\u2581stone": 4544,
  "\u2581strengthened": 4545,
  "\u2581conscious": 4546,
  "\u2581none": 4547,
  "\u2581straight": 4548,
  "\u2581surprised": 4549,
  "\u2581Tsholofelo": 4550,
  "\u2581bodumeding": 4551,
  "\u2581cares": 4552,
  "\u2581lebege": 4553,
  "\u2581mekgatlho": 4554,
  "\u2581sad": 4555,
  "\u2581tshosang": 4556,
  "\u2581Almighty": 4557,
  "\u2581Ruthe": 4558,
  "\u2581agreed": 4559,
  "\u2581chance": 4560,
  "\u2581indefinite": 4561,
  "\u2581Faro": 4562,
  "\u2581barwa": 4563,
  "\u2581tshwarang": 4564,
  "\u2581walked": 4565,
  "\u2581baneng": 4566,
  "\u2581claimed": 4567,
  "\u2581gakgamadiwa": 4568,
  "\u2581weapons": 4569,
  "\u2581wedding": 4570,
  "\u2581Titus": 4571,
  "\u2581accomplished": 4572,
  "\u2581arranged": 4573,
  "\u2581refuge": 4574,
  "They": 4575,
  "\u2581SA": 4576,
  "\u2581Truth": 4577,
  "\u2581difficulties": 4578,
  "\u2581kgatlhiwa": 4579,
  "\u2581latlhela": 4580,
  "\u2581mantle": 4581,
  "\u2581north": 4582,
  "\u2581silver": 4583,
  "\u2581tlhokomologa": 4584,
  "\u258166": 4585,
  "\u2581abandoned": 4586,
  "\u2581bolayang": 4587,
  "\u2581dikgwa": 4588,
  "\u2581remnant": 4589,
  "\u2581writings": 4590,
  "\u2581Matt": 4591,
  "\u2581WHAT": 4592,
  "\u2581customs": 4593,
  "\u2581firmly": 4594,
  "\u2581phologolo": 4595,
  "\u2581baswing": 4596,
  "\u2581inner": 4597,
  "\u2581leaves": 4598,
  "\u2581opposite": 4599,
  "\u2581requirements": 4600,
  "ist": 4601,
  "\u258120]": 4602,
  "\u258134,": 4603,
  "\u2581Service": 4604,
  "\u2581maano": 4605,
  "\u2581newang": 4606,
  "\u2581pogo": 4607,
  "ci": 4608,
  "neng": 4609,
  "\u2581Mor\u00e8na": 4610,
  "\u2581dwell": 4611,
  "\u2581lehatshi\u00f1": 4612,
  "\u2581150": 4613,
  "\u2581Bogosing": 4614,
  "\u2581Vatican": 4615,
  "\u2581dintsintsi": 4616,
  "\u2581kgaotse": 4617,
  "\u2581busetsa": 4618,
  "\u2581considering": 4619,
  "\u2581fedisiwa": 4620,
  "\u2581fetole": 4621,
  "\u2581advance": 4622,
  "\u2581affairs": 4623,
  "\u2581dikhemikale": 4624,
  "\u2581fetolwa": 4625,
  "\u2581harmful": 4626,
  "\u2581trip": 4627,
  "\u2581worldly": 4628,
  "\u2581Study": 4629,
  "\u2581determination": 4630,
  "\u2581iketleeditse": 4631,
  "\u2581resolve": 4632,
  "\u2581selfish": 4633,
  "\u2581tsamaisana": 4634,
  "\u2581wetsa": 4635,
  "ted": 4636,
  "\u258172": 4637,
  "\u2581selefera": 4638,
  "\u2581treasure": 4639,
  "\u2581tsetsweng": 4640,
  "\u2581babotlana": 4641,
  "\u2581duelela": 4642,
  "\u2581molwetse": 4643,
  "\u2581nyeletsa": 4644,
  "\u2581provisions": 4645,
  "\u2581relations": 4646,
  "\u2581rendered": 4647,
  "\u2581Sontaga": 4648,
  "\u2581lefufa": 4649,
  "\u2581roba": 4650,
  "\u25811999": 4651,
  "\u2581Ko": 4652,
  "\u2581miracles": 4653,
  "\u2581occasions": 4654,
  "\u2581patients": 4655,
  "\u2581secure": 4656,
  "\u2581traveled": 4657,
  "\u258111]": 4658,
  "\u2581RE": 4659,
  "\u2581Says": 4660,
  "\u2581anymore": 4661,
  "\u2581busang": 4662,
  "\u2581caught": 4663,
  "\u2581dear": 4664,
  "\u2581ditshenyegelo": 4665,
  "\u2581fetogile": 4666,
  "\u2581iketlo": 4667,
  "\u2581ntshetsa": 4668,
  "\u2581president": 4669,
  "\u2581Am": 4670,
  "\u2581Jonah": 4671,
  "\u2581botlhole": 4672,
  "\u2581lesego": 4673,
  "\u2581longwe": 4674,
  "\u2581lovers": 4675,
  "\u2581nitame": 4676,
  "\u2581private": 4677,
  "\u2581tsweletse": 4678,
  "\u2581visiting": 4679,
  "ies": 4680,
  "\u2581Bill": 4681,
  "\u2581atamalana": 4682,
  "\u2581boloke": 4683,
  "\u2581estimated": 4684,
  "\u2581kgoba": 4685,
  "\u2581tikologong": 4686,
  "\u2581tsere": 4687,
  "\u2581deeds": 4688,
  "\u2581meneelo": 4689,
  "\u2581model": 4690,
  "\u2581reminded": 4691,
  "\u2581seemong": 4692,
  "\u2581sennye": 4693,
  "\u2581tend": 4694,
  "\u2581covered": 4695,
  "\u2581kgweetsa": 4696,
  "\u2581lesea": 4697,
  "\u2581remove": 4698,
  "\u2581sefofane": 4699,
  "As": 4700,
  "\u258119]": 4701,
  "\u2581logolo": 4702,
  "\u2581Diholo": 4703,
  "\u2581Photo": 4704,
  "\u2581communicate": 4705,
  "\u2581dangers": 4706,
  "\u2581gaabo": 4707,
  "\u2581neilwe": 4708,
  "\u2581remaining": 4709,
  "8": 4710,
  "ngwe": 4711,
  "\u2581Jona": 4712,
  "\u2581Wa": 4713,
  "\u2581bonaleng": 4714,
  "\u2581innocent": 4715,
  "\u2581lobake": 4716,
  "\u2581theme": 4717,
  "\u2581bodihedi": 4718,
  "\u2581complex": 4719,
  "\u2581mildness": 4720,
  "\u2581plan": 4721,
  "\u2581sefatlhego": 4722,
  "\u2581fuduga": 4723,
  "\u2581lapeng": 4724,
  "\u2581provision": 4725,
  "\u2581red": 4726,
  "\u2581tlhabisa": 4727,
  "mmogo": 4728,
  "\u2581San": 4729,
  "\u2581Visit": 4730,
  "\u2581noka": 4731,
  "great": 4732,
  "\u258131,": 4733,
  "\u2581Sadly": 4734,
  "\u2581bonwe": 4735,
  "\u2581emelana": 4736,
  "\u2581familiar": 4737,
  "\u2581houses": 4738,
  "\u2581le\u00f1": 4739,
  "\u2581fit": 4740,
  "\u2581mpa": 4741,
  "\u2581rock": 4742,
  "\u2581sekete": 4743,
  "\u2581useful": 4744,
  "\u25811914.": 4745,
  "\u2581Araba": 4746,
  "\u2581Bar": 4747,
  "\u2581dikakantsho": 4748,
  "\u2581i": 4749,
  "\u2581schools": 4750,
  "\u2581tlhatswegile": 4751,
  "\u2581tshwaya": 4752,
  "\u2581Mika": 4753,
  "\u2581anxious": 4754,
  "\u2581heartfelt": 4755,
  "\u2581kutlobotlhoko": 4756,
  "\u2581megare": 4757,
  "\u2581numerous": 4758,
  "\u2581spouse": 4759,
  "ting": 4760,
  "\u2581Eventually": 4761,
  "\u2581Micah": 4762,
  "\u2581abundant": 4763,
  "\u2581alafa": 4764,
  "\u2581montle": 4765,
  "\u2581pleased": 4766,
  "\u2581Botlhale": 4767,
  "\u2581moperesiti": 4768,
  "\u2581ofisi": 4769,
  "\u2581tshwenngwa": 4770,
  "\u2581wilderness": 4771,
  "\u2581\u014dna": 4772,
  "Jesus": 4773,
  "\u2581appreciated": 4774,
  "\u2581motswedi": 4775,
  "\u2581worthy": 4776,
  "ig": 4777,
  "va": 4778,
  "\u2581ark": 4779,
  "\u2581kgomotso": 4780,
  "\u2581kope": 4781,
  "\u2581meno": 4782,
  "\u2581mention": 4783,
  "\u2581pina": 4784,
  "\u2581serves": 4785,
  "\u258149": 4786,
  "\u2581Institute": 4787,
  "\u2581exposed": 4788,
  "\u2581lalediwa": 4789,
  "\u2581masha": 4790,
  "Look": 4791,
  "\u2581bonale": 4792,
  "\u2581punishment": 4793,
  "\u2581Dirisa": 4794,
  "\u2581Second": 4795,
  "\u2581disaster": 4796,
  "\u2581district": 4797,
  "\u2581ranotsweng": 4798,
  "\u2581restored": 4799,
  "\u2581scene": 4800,
  "\u2581turning": 4801,
  "\u258129:": 4802,
  "\u2581images": 4803,
  "\u2581itira": 4804,
  "\u2581officials": 4805,
  "\u2581tsenwa": 4806,
  "\u2581accompany": 4807,
  "\u2581bahumanegi": 4808,
  "\u2581boeleele": 4809,
  "\u2581brochure": 4810,
  "\u2581discernment": 4811,
  "\u2581loleme": 4812,
  "\u2581won": 4813,
  "\u2581Kgaitsadi": 4814,
  "\u2581Thomas": 4815,
  "\u2581atmosphere": 4816,
  "\u2581balwetse": 4817,
  "\u2581fokotsega": 4818,
  "\u2581path": 4819,
  "\u2581spirituality": 4820,
  "\u2581attitudes": 4821,
  "\u2581basupi": 4822,
  "\u2581bond": 4823,
  "\u2581bosigong": 4824,
  "\u2581content": 4825,
  "\u2581offers": 4826,
  "\u2581possess": 4827,
  "im": 4828,
  "\u2581Neng": 4829,
  "\u2581maitseo": 4830,
  "\u2581methods": 4831,
  "\u2581mowa": 4832,
  "\u2581observes": 4833,
  "\u2581rebellion": 4834,
  "\u2581smoking": 4835,
  "\u2581tsalwa": 4836,
  "\u2581writers": 4837,
  "\u2581maje": 4838,
  "\u2581malwetsi": 4839,
  "\u2581swela": 4840,
  "\u2581tlhalo": 4841,
  "\u2581Batlhanka": 4842,
  "\u2581boammaaruring": 4843,
  "\u2581dikwalo": 4844,
  "\u2581influenced": 4845,
  "\u2581nopola": 4846,
  "\u2581represent": 4847,
  "\u2581sake": 4848,
  "\u2581shepherds": 4849,
  "\u2581tlhagafalo": 4850,
  "\u2581wall": 4851,
  "\u2581400": 4852,
  "\u2581Death": 4853,
  "\u2581dipolelo": 4854,
  "\u2581letshwao": 4855,
  "\u2581pictures": 4856,
  "\u2581refuse": 4857,
  "\u2581release": 4858,
  "\u2581root": 4859,
  "\u2581touch": 4860,
  "\u2581wipe": 4861,
  "dilo": 4862,
  "for": 4863,
  "id": 4864,
  "\u2581Flood": 4865,
  "\u2581Maemo": 4866,
  "\u2581Tharonngwe": 4867,
  "\u2581declare": 4868,
  "\u2581degree": 4869,
  "\u2581dignity": 4870,
  "\u2581hair": 4871,
  "tso": 4872,
  "v": 4873,
  "\u2581Bakatoliki": 4874,
  "\u2581Mothatayotlhe": 4875,
  "\u2581clothes": 4876,
  "\u2581enabl": 4877,
  "\u2581foundation": 4878,
  "\u2581gogela": 4879,
  "\u2581invisible": 4880,
  "\u2581mading": 4881,
  "\u2581numbers": 4882,
  "\u2581Rutherford": 4883,
  "\u2581Sekao": 4884,
  "\u2581river": 4885,
  "\u25811996": 4886,
  "\u2581banni": 4887,
  "\u2581hardly": 4888,
  "\u2581Whatever": 4889,
  "\u2581aspect": 4890,
  "\u2581audience": 4891,
  "\u2581jala": 4892,
  "\u2581mild": 4893,
  "\u2581tshware": 4894,
  "ling": 4895,
  "\u258100": 4896,
  "\u2581Alexander": 4897,
  "\u2581represented": 4898,
  "\u2581BY": 4899,
  "\u2581Bafarasai": 4900,
  "\u2581Mokgwa": 4901,
  "\u2581Thanolo": 4902,
  "\u2581bodiwa": 4903,
  "\u2581grief": 4904,
  "\u2581laid": 4905,
  "\u2581motlholagadi": 4906,
  "\u2581reaction": 4907,
  "\u2581services": 4908,
  "\u2581tshabela": 4909,
  "\u2581SONGS": 4910,
  "\u2581Wena": 4911,
  "\u2581buileng": 4912,
  "\u2581khutsafalo": 4913,
  "\u2581nuklea": 4914,
  "\u2581qualified": 4915,
  "men": 4916,
  "\u2581Dad": 4917,
  "\u2581dark": 4918,
  "\u2581midst": 4919,
  "\u2581plans": 4920,
  "\u2581resources": 4921,
  "\u2581suddenly": 4922,
  "\u2581tharabololo": 4923,
  "\u2581comforting": 4924,
  "\u2581meditate": 4925,
  "\u2581properly": 4926,
  "\u2581reaching": 4927,
  "\u2581tlhomela": 4928,
  "ary": 4929,
  "botlhokwatlhokwa": 4930,
  "pha": 4931,
  "\u2581Hosea": 4932,
  "\u2581Leka": 4933,
  "\u2581broken": 4934,
  "\u2581diragetse": 4935,
  "\u2581gradually": 4936,
  "\u2581ipotse": 4937,
  "\u2581obligation": 4938,
  "\u2581puisano": 4939,
  "\u2581Western": 4940,
  "\u2581chapters": 4941,
  "\u2581plants": 4942,
  "\u2581tshwenya": 4943,
  "\u2581Badit\u0161haba": 4944,
  "\u2581Gerika": 4945,
  "\u2581adultery": 4946,
  "\u2581co": 4947,
  "\u2581quit": 4948,
  "\u2581suggest": 4949,
  "\u258175": 4950,
  "\u2581trade": 4951,
  "\u2581bontshitse": 4952,
  "\u2581historian": 4953,
  "\u2581najo": 4954,
  "\u2581store": 4955,
  "\u2581tsenela": 4956,
  "\u2581Pentekosete": 4957,
  "\u2581attempt": 4958,
  "\u2581bophirima": 4959,
  "\u2581burden": 4960,
  "\u2581grand": 4961,
  "\u2581tax": 4962,
  "ane": 4963,
  "\u25811988": 4964,
  "\u2581Leba": 4965,
  "\u2581itshireletsa": 4966,
  "\u2581maeto": 4967,
  "\u2581solegelwe": 4968,
  "\u2581speaker": 4969,
  "\u2581theilwe": 4970,
  "\u2581traditional": 4971,
  "-": 4972,
  "\u2581allows": 4973,
  "\u2581bokaulengwe": 4974,
  "\u2581bopiwa": 4975,
  "\u2581career": 4976,
  "\u2581computer": 4977,
  "\u2581distance": 4978,
  "\u2581holding": 4979,
  "\u2581signs": 4980,
  "ns": 4981,
  "\u2581Bokone": 4982,
  "\u2581begins": 4983,
  "\u2581conducted": 4984,
  "\u2581dress": 4985,
  "\u2581motivated": 4986,
  "\u2581pitlagano": 4987,
  "dimilionemilione": 4988,
  "\u2581Russian": 4989,
  "\u2581involving": 4990,
  "\u2581ought": 4991,
  "but": 4992,
  "\u2581mathateng": 4993,
  "\u2581morutabana": 4994,
  "\u2581painful": 4995,
  "\u2581possibly": 4996,
  "nya": 4997,
  "\u2581Get": 4998,
  "\u2581Nehemia": 4999,
  "\u2581demonstrated": 5000,
  "\u2581fetoge": 5001,
  "\u2581literally": 5002,
  "\u2581standard": 5003,
  "nd": 5004,
  "\u258139.": 5005,
  "\u2581Give": 5006,
  "\u2581Jonathan": 5007,
  "\u2581asks": 5008,
  "\u2581boitsholong": 5009,
  "\u2581differ": 5010,
  "\u2581eager": 5011,
  "\u2581played": 5012,
  "\u2581scholar": 5013,
  "\u2581tumileng": 5014,
  "ile": 5015,
  "\u2581lepe": 5016,
  "\u2581mothers": 5017,
  "\u2581pogiso": 5018,
  "\u2581teko": 5019,
  "\u2581tseelwa": 5020,
  "\u2581tseneletseng": 5021,
  "\u258110;": 5022,
  "\u2581Sovereign": 5023,
  "\u2581WHO": 5024,
  "\u2581concerns": 5025,
  "\u2581dust": 5026,
  "\u2581kgatlhegele": 5027,
  "\u2581nyalwa": 5028,
  "\u2581suggestions": 5029,
  "if": 5030,
  "\u258135:": 5031,
  "\u2581Korintha": 5032,
  "\u2581Recall": 5033,
  "\u2581fleshly": 5034,
  "\u2581gobatsa": 5035,
  "\u2581healing": 5036,
  "\u2581nuclear": 5037,
  "\u2581sedirisiwa": 5038,
  "hi": 5039,
  "\u2581Segopotso": 5040,
  "\u2581approached": 5041,
  "\u2581dikologileng": 5042,
  "\u2581fiwa": 5043,
  "\u2581ineele": 5044,
  "\u2581kgotsofatsa": 5045,
  "\u2581pressures": 5046,
  "\u2581space": 5047,
  "\u2581suicide": 5048,
  "\u2581tlhalose": 5049,
  "\u2581Lot": 5050,
  "\u2581Men": 5051,
  "\u2581Nehemiah": 5052,
  "\u2581Sinai": 5053,
  "\u2581arise": 5054,
  "\u2581baemedi": 5055,
  "\u2581ditoropong": 5056,
  "\u2581reeditse": 5057,
  "\u2581akgola": 5058,
  "\u2581arrested": 5059,
  "\u2581baleofi": 5060,
  "\u2581reputation": 5061,
  "\u2581sinned": 5062,
  "\u2581commission": 5063,
  "\u2581tshenyo": 5064,
  "\u2581tshimologo": 5065,
  "\u2581associate": 5066,
  "\u2581bobulatsela": 5067,
  "\u2581dream": 5068,
  "\u2581moagelani": 5069,
  "\u2581sports": 5070,
  "du": 5071,
  "ja": 5072,
  "\u2581habit": 5073,
  "How": 5074,
  "\u2581144": 5075,
  "\u2581Boporofeti": 5076,
  "\u2581Pentecost": 5077,
  "\u2581begotten": 5078,
  "\u2581completed": 5079,
  "\u2581leofa": 5080,
  "\u2581medingwana": 5081,
  "\u25811945": 5082,
  "\u2581Boitumelo": 5083,
  "\u2581Maleba": 5084,
  "\u2581kgoro": 5085,
  "\u2581mmona": 5086,
  "\u2581parable": 5087,
  "\u2581polelo": 5088,
  "\u2581quick": 5089,
  "\u2581soil": 5090,
  "\u2581warns": 5091,
  "\u2581Ebu": 5092,
  "\u2581Switzerland": 5093,
  "\u2581boitemogelo": 5094,
  "\u2581bokhutshwane": 5095,
  "\u2581dit\u0161habeng": 5096,
  "\u2581dwelling": 5097,
  "\u2581hot": 5098,
  "\u2581leineng": 5099,
  "\u2581located": 5100,
  "\u2581molaodi": 5101,
  "\u2581tribes": 5102,
  "\u2581plague": 5103,
  "\u2581struck": 5104,
  "\u2581thereafter": 5105,
  "\u258130:": 5106,
  "\u2581Bag": 5107,
  "\u2581Knorr": 5108,
  "\u2581Nigeria": 5109,
  "\u2581famous": 5110,
  "\u2581ikgolaganya": 5111,
  "\u2581prominent": 5112,
  "\u2581reasoning": 5113,
  "\u2581ruling": 5114,
  "\u2581Korea": 5115,
  "\u2581Promised": 5116,
  "\u2581amiwa": 5117,
  "\u2581female": 5118,
  "\u2581gathering": 5119,
  "\u2581kgothatsang": 5120,
  "\u2581kopiwa": 5121,
  "\u2581kopo": 5122,
  "\u2581recall": 5123,
  "\u2581torture": 5124,
  "ie": 5125,
  "\u2581Early": 5126,
  "\u2581boshula": 5127,
  "\u2581corruption": 5128,
  "\u2581ears": 5129,
  "\u2581intense": 5130,
  "\u2581ipela": 5131,
  "\u2581removed": 5132,
  "\u2581subjection": 5133,
  "\u2581tlhaola": 5134,
  "\u2581Court": 5135,
  "\u2581Him": 5136,
  "\u2581Upon": 5137,
  "\u2581arms": 5138,
  "\u2581ngwao": 5139,
  "\u2581supported": 5140,
  "Keep": 5141,
  "tic": 5142,
  "\u2581Philip": 5143,
  "\u2581differences": 5144,
  "\u2581dirisiwe": 5145,
  "\u2581noticed": 5146,
  "\u2581otherwise": 5147,
  "\u2581repeatedly": 5148,
  "\u2581touched": 5149,
  "\u2581tsenelela": 5150,
  "\u258137.": 5151,
  "\u2581California": 5152,
  "\u2581Porofesa": 5153,
  "\u2581Thapelo": 5154,
  "\u2581bopelotlhomogi": 5155,
  "\u2581ikobele": 5156,
  "\u2581kgaoganya": 5157,
  "\u2581Math": 5158,
  "\u2581Ps": 5159,
  "\u2581acted": 5160,
  "\u2581barutisi": 5161,
  "\u2581charge": 5162,
  "\u2581masea": 5163,
  "\u2581middle": 5164,
  "\u2581potlana": 5165,
  "\u2581reetse": 5166,
  "\u258147": 5167,
  "\u2581Caesar": 5168,
  "\u2581Name": 5169,
  "\u2581bakwang": 5170,
  "\u2581bobotlana": 5171,
  "\u2581ineetse": 5172,
  "\u2581khomputara": 5173,
  "\u2581labor": 5174,
  "\u2581sebete": 5175,
  "\u2581ship": 5176,
  "\u2581Halls": 5177,
  "\u2581annual": 5178,
  "\u2581depressed": 5179,
  "\u2581letlotlo": 5180,
  "\u2581reflected": 5181,
  "\u2581sinners": 5182,
  "\u2581Chronicles": 5183,
  "\u2581Messianic": 5184,
  "\u2581buile": 5185,
  "\u2581dikao": 5186,
  "\u2581exercising": 5187,
  "\u2581fenye": 5188,
  "\u2581tlhwatlhwa": 5189,
  "\u2581visits": 5190,
  "\u2581BO": 5191,
  "\u2581Bajuta": 5192,
  "\u2581Center": 5193,
  "\u2581Grand": 5194,
  "\u2581agang": 5195,
  "\u2581discern": 5196,
  "\u2581etetse": 5197,
  "\u2581experts": 5198,
  "\u2581gets": 5199,
  "\u2581modiredi": 5200,
  "\u2581season": 5201,
  "\u2581tradition": 5202,
  "\u2581Kgakololo": 5203,
  "\u2581Lwa": 5204,
  "\u2581cross": 5205,
  "\u2581dijalo": 5206,
  "\u2581games": 5207,
  "\u2581tlhaloganyang": 5208,
  "\u2581607": 5209,
  "\u2581Ebile": 5210,
  "\u2581Heights": 5211,
  "\u2581Please": 5212,
  "\u2581altar": 5213,
  "\u2581beela": 5214,
  "\u2581bound": 5215,
  "\u2581kgothatso": 5216,
  "\u2581lenaane": 5217,
  "\u2581memory": 5218,
  "\u2581palama": 5219,
  "\u2581paying": 5220,
  "\u2581principal": 5221,
  "ate": 5222,
  "\u25811998": 5223,
  "\u2581Henry": 5224,
  "\u2581acting": 5225,
  "\u2581brief": 5226,
  "\u2581frequently": 5227,
  "\u2581safety": 5228,
  "\u2581sold": 5229,
  "su": 5230,
  "\u2581JEHOVAH": 5231,
  "\u2581Ta": 5232,
  "\u2581credit": 5233,
  "\u2581error": 5234,
  "\u2581nyetseng": 5235,
  "\u2581ponatshegelo": 5236,
  "\u2581taletso": 5237,
  "ous": 5238,
  "\u25812011": 5239,
  "\u2581600": 5240,
  "\u2581Ngwana": 5241,
  "\u2581Shortly": 5242,
  "\u2581Tito": 5243,
  "\u2581baporofeti": 5244,
  "\u2581bopolotiki": 5245,
  "\u2581inheritance": 5246,
  "\u2581neilweng": 5247,
  "\u2581wear": 5248,
  "\u2581add": 5249,
  "\u2581khutla": 5250,
  "\u2581medicine": 5251,
  "\u2581outcome": 5252,
  "\u2581pleasant": 5253,
  "\u2581products": 5254,
  "\u2581property": 5255,
  "\u2581routine": 5256,
  "\u25812008": 5257,
  "\u258138.": 5258,
  "\u2581Besides": 5259,
  "\u2581admits": 5260,
  "\u2581art": 5261,
  "\u2581rely": 5262,
  "\u2581spite": 5263,
  "\u2581viewpoint": 5264,
  "J": 5265,
  "ye": 5266,
  "\u2581bonwang": 5267,
  "\u2581calm": 5268,
  "\u2581dipitse": 5269,
  "\u2581guilty": 5270,
  "\u2581kgothadiwa": 5271,
  "\u2581kolobeditsweng": 5272,
  "\u2581moperofeti": 5273,
  "\u2581motivate": 5274,
  "\u2581reduce": 5275,
  "\u2581afterward": 5276,
  "\u2581bolong": 5277,
  "\u2581color": 5278,
  "\u2581custom": 5279,
  "\u2581dry": 5280,
  "\u2581greed": 5281,
  "\u2581itsholelo": 5282,
  "\u2581itumedise": 5283,
  "\u2581pega": 5284,
  "\u2581summer": 5285,
  "\u2581wholesome": 5286,
  "\u2581Nnang": 5287,
  "\u2581ratiwa": 5288,
  "\u2581tlotlomatsa": 5289,
  "\u2581union": 5290,
  "\u2581widely": 5291,
  "sh": 5292,
  "\u2581Happy": 5293,
  "\u2581Lote": 5294,
  "\u2581Yang": 5295,
  "\u2581isang": 5296,
  "\u2581literal": 5297,
  "Gonne": 5298,
  "\u2581northern": 5299,
  "\u2581origin": 5300,
  "\u258111;": 5301,
  "\u2581Bogologolo": 5302,
  "\u2581Richard": 5303,
  "\u2581abilities": 5304,
  "\u2581excellent": 5305,
  "\u2581pokano": 5306,
  "\u2581running": 5307,
  "\u2581team": 5308,
  "\u2581tetla": 5309,
  "\u2581victory": 5310,
  "lang": 5311,
  "tsi": 5312,
  "vo": 5313,
  "\u25812001": 5314,
  "\u258140.": 5315,
  "\u25819;": 5316,
  "\u2581FOR": 5317,
  "\u2581Pacific": 5318,
  "\u2581Report": 5319,
  "\u2581bon\u00e8": 5320,
  "\u2581sukiri": 5321,
  "\u2581temporary": 5322,
  "\u2581NE": 5323,
  "\u2581companion": 5324,
  "\u2581endured": 5325,
  "\u2581fighting": 5326,
  "\u2581interesting": 5327,
  "\u2581tshwerweng": 5328,
  "bi": 5329,
  "\u2581120": 5330,
  "\u258151": 5331,
  "\u2581Ditlhogo": 5332,
  "\u2581amegang": 5333,
  "\u2581phone": 5334,
  "\u2581visitors": 5335,
  "\u2581Temana": 5336,
  "\u2581broke": 5337,
  "\u2581burning": 5338,
  "\u2581dithabeng": 5339,
  "\u2581ditshono": 5340,
  "\u2581gratitude": 5341,
  "\u2581maitlhomo": 5342,
  "\u2581passing": 5343,
  "\u2581professor": 5344,
  "our": 5345,
  "\u25812010": 5346,
  "\u2581Journal": 5347,
  "\u2581Old": 5348,
  "\u2581appeal": 5349,
  "\u2581assignments": 5350,
  "\u2581bopelotshweu": 5351,
  "\u2581cast": 5352,
  "\u2581corrupt": 5353,
  "\u2581features": 5354,
  "\u2581invite": 5355,
  "\u2581nke": 5356,
  "\u2581wondered": 5357,
  "Be": 5358,
  "\u2581Scripture": 5359,
  "\u2581badimona": 5360,
  "\u2581boat": 5361,
  "\u2581deliverance": 5362,
  "\u2581disa": 5363,
  "\u2581ditlogolwana": 5364,
  "\u2581kgetsi": 5365,
  "\u2581lower": 5366,
  "\u2581repentant": 5367,
  "\u2581survey": 5368,
  "\u2581tlhoafetseng": 5369,
  "\u2581Lasaro": 5370,
  "\u2581Ro": 5371,
  "\u2581amegile": 5372,
  "\u2581belongs": 5373,
  "\u2581boe": 5374,
  "\u2581finish": 5375,
  "\u2581glad": 5376,
  "\u2581gono": 5377,
  "\u2581lefela": 5378,
  "\u2581moso": 5379,
  "\u2581smoke": 5380,
  "\u2581Bagerika": 5381,
  "\u2581Ithute": 5382,
  "\u2581Kgotlatshekelo": 5383,
  "\u2581Up": 5384,
  "\u2581courageous": 5385,
  "\u2581metswedi": 5386,
  "\u2581permanent": 5387,
  "\u2581readily": 5388,
  "\u2581Corinth": 5389,
  "\u2581Explain": 5390,
  "\u2581arrangements": 5391,
  "\u2581encourages": 5392,
  "\u2581mark": 5393,
  "\u2581theocratic": 5394,
  "\u2581Solofeditsweng": 5395,
  "\u2581Sweden": 5396,
  "\u2581Tshela": 5397,
  "\u2581finished": 5398,
  "\u2581pa": 5399,
  "\u2581repentance": 5400,
  "\u2581table": 5401,
  "AL": 5402,
  "motlhanka": 5403,
  "\u258117;": 5404,
  "\u2581contain": 5405,
  "\u2581fitlhe": 5406,
  "\u2581focused": 5407,
  "\u2581gather": 5408,
  "\u2581opinion": 5409,
  "\u2581rightly": 5410,
  "\u2581setulong": 5411,
  "\u2581tribe": 5412,
  "\u2581tsalana": 5413,
  "\u2581t\u0161haka": 5414,
  "Motho": 5415,
  "ver": 5416,
  "\u2581Within": 5417,
  "\u2581divided": 5418,
  "\u2581ganediwa": 5419,
  "\u2581ministeri": 5420,
  "\u2581sephatlo": 5421,
  "\u2581tlotlegang": 5422,
  "\u2581tshotswe": 5423,
  "za": 5424,
  "\u2581Dikarabo": 5425,
  "\u2581Lona": 5426,
  "\u2581access": 5427,
  "\u2581camps": 5428,
  "\u2581dirisediwa": 5429,
  "\u2581except": 5430,
  "\u2581kanaanelo": 5431,
  "\u2581pioneering": 5432,
  "\u2581threatened": 5433,
  "ina": 5434,
  "\u258136.": 5435,
  "\u2581Bosupi": 5436,
  "\u2581Fear": 5437,
  "\u2581Josephus": 5438,
  "\u2581Loso": 5439,
  "\u2581Tirelo": 5440,
  "\u2581aname": 5441,
  "\u2581dying": 5442,
  "\u2581establish": 5443,
  "\u2581guilt": 5444,
  "\u2581mogala": 5445,
  "\u2581previous": 5446,
  "\u2581printed": 5447,
  "\u2581project": 5448,
  "\u25811950": 5449,
  "\u2581AND": 5450,
  "\u2581Doing": 5451,
  "\u2581Lazarus": 5452,
  "\u2581diranta": 5453,
  "\u2581etse": 5454,
  "\u2581fetotswe": 5455,
  "\u2581gopotsa": 5456,
  "\u2581letlelelwa": 5457,
  "\u2581moeteledipele": 5458,
  "\u2581possessions": 5459,
  "\u2581sepolotiki": 5460,
  "\u2581simololwa": 5461,
  "\u2581symptoms": 5462,
  "\u2581taolong": 5463,
  "\u2581terrible": 5464,
  "\u25812009": 5465,
  "\u2581Kgaolo": 5466,
  "\u2581Professor": 5467,
  "\u2581condemned": 5468,
  "\u2581empty": 5469,
  "\u2581morwalo": 5470,
  "\u2581phutha": 5471,
  "\u2581tlhamaletseng": 5472,
  "\u2581willingly": 5473,
  "\u2581Privat": 5474,
  "\u2581Septuagint": 5475,
  "\u2581Zechariah": 5476,
  "\u2581ethnic": 5477,
  "\u2581felelang": 5478,
  "\u2581g": 5479,
  "\u2581lebanang": 5480,
  "\u2581Following": 5481,
  "\u2581Source": 5482,
  "\u2581ban\u00e8": 5483,
  "\u2581happening": 5484,
  "\u2581ipona": 5485,
  "\u2581modest": 5486,
  "\u2581sotliwa": 5487,
  "\u2581tlhaloganyong": 5488,
  "\u2581tswela": 5489,
  "\u2581claims": 5490,
  "\u2581ran": 5491,
  "\u2581ranolwa": 5492,
  "\u2581tswelelang": 5493,
  "\u2581Know": 5494,
  "\u2581referring": 5495,
  "\u2581reliable": 5496,
  "\u2581Esther": 5497,
  "\u2581Granted": 5498,
  "\u2581Maatla": 5499,
  "\u2581approved": 5500,
  "\u2581brotherhood": 5501,
  "\u2581ignore": 5502,
  "\u2581mass": 5503,
  "\u2581spirits": 5504,
  "19": 5505,
  "ever": 5506,
  "land": 5507,
  "\u2581Courtesy": 5508,
  "\u2581accepting": 5509,
  "\u2581civil": 5510,
  "\u2581hepisang": 5511,
  "\u2581meaningful": 5512,
  "\u2581mofine": 5513,
  "\u2581persecuted": 5514,
  "\u2581tlwaetse": 5515,
  "\u2581unclean": 5516,
  "\u2581Child": 5517,
  "\u2581Concern": 5518,
  "\u2581Sejuda": 5519,
  "\u2581attacks": 5520,
  "\u2581bosupa": 5521,
  "\u2581ditoro": 5522,
  "\u2581everywhere": 5523,
  "\u2581extended": 5524,
  "\u2581fields": 5525,
  "\u2581items": 5526,
  "\u2581replaced": 5527,
  "\u2581walls": 5528,
  "\u2581Cain": 5529,
  "\u2581Motlha": 5530,
  "\u2581boyone": 5531,
  "\u2581duelwa": 5532,
  "\u2581fourth": 5533,
  "\u2581grave": 5534,
  "\u2581lekgetho": 5535,
  "\u2581masimologo": 5536,
  "\u2581reign": 5537,
  "\u2581scale": 5538,
  "\u2581win": 5539,
  "\u2581Efeso": 5540,
  "\u2581Passover": 5541,
  "\u2581blame": 5542,
  "\u2581displayed": 5543,
  "\u2581eletsang": 5544,
  "\u2581gatisitswe": 5545,
  "\u2581ikatisa": 5546,
  "\u2581ngomoga": 5547,
  "\u2581wisely": 5548,
  "com": 5549,
  "\u25811740": 5550,
  "\u2581Japanese": 5551,
  "\u2581Melao": 5552,
  "\u2581direlwang": 5553,
  "\u2581gonnye": 5554,
  "\u2581kolobetso": 5555,
  "\u2581looks": 5556,
  "\u2581phimola": 5557,
  "\u2581proud": 5558,
  "\u2581remind": 5559,
  "\u2581stories": 5560,
  "\u2581texts": 5561,
  "\u25811970": 5562,
  "\u2581Come": 5563,
  "\u2581Krugersdorp": 5564,
  "\u2581dikhopi": 5565,
  "\u2581fun": 5566,
  "\u2581kampeng": 5567,
  "\u2581lokwalo": 5568,
  "\u2581ordered": 5569,
  "\u2581unless": 5570,
  "will": 5571,
  "\u258124]": 5572,
  "\u258154": 5573,
  "\u2581Banyalani": 5574,
  "\u2581Way": 5575,
  "\u2581admitted": 5576,
  "\u2581afternoon": 5577,
  "\u2581bomorwa": 5578,
  "\u2581depends": 5579,
  "\u2581enjoying": 5580,
  "\u2581initiative": 5581,
  "\u2581talks": 5582,
  "\u2581tlhaolele": 5583,
  "W": 5584,
  "kga": 5585,
  "tlho": 5586,
  "\u2581botshel\u014d": 5587,
  "\u2581ikanyang": 5588,
  "\u2581isolated": 5589,
  "\u2581quiet": 5590,
  "shi": 5591,
  "\u2581descendants": 5592,
  "\u2581diet": 5593,
  "\u2581lemogiwa": 5594,
  "\u2581moon": 5595,
  "\u2581suggests": 5596,
  "\u2581welfare": 5597,
  "ad": 5598,
  "\u25811939": 5599,
  "\u2581alert": 5600,
  "\u2581difofane": 5601,
  "\u2581magodimong": 5602,
  "\u2581moriri": 5603,
  "\u2581resulting": 5604,
  "LE": 5605,
  "\u2581Catholics": 5606,
  "\u2581bosetlhogo": 5607,
  "\u2581coast": 5608,
  "\u2581dibomo": 5609,
  "\u2581merciful": 5610,
  "\u2581paper": 5611,
  "que": 5612,
  "\u258111201": 5613,
  "\u2581Hope": 5614,
  "\u2581IT": 5615,
  "\u2581acknowledge": 5616,
  "\u2581aged": 5617,
  "\u2581b\u014dna": 5618,
  "\u2581faithfulness": 5619,
  "\u2581ijesa": 5620,
  "\u2581marked": 5621,
  "\u2581neileng": 5622,
  "\u2581segofadiwa": 5623,
  "\u258152": 5624,
  "\u2581BATHO": 5625,
  "\u2581agreement": 5626,
  "\u2581equal": 5627,
  "\u2581evolution": 5628,
  "\u2581logong": 5629,
  "\u2581spending": 5630,
  "\u2581translations": 5631,
  "nt": 5632,
  "\u25812002": 5633,
  "\u2581Mang": 5634,
  "\u2581concentration": 5635,
  "\u2581elements": 5636,
  "\u2581fallen": 5637,
  "\u2581fathers": 5638,
  "\u2581primarily": 5639,
  "\u2581researchers": 5640,
  "2067,": 5641,
  "ster": 5642,
  "\u2581Dafite": 5643,
  "\u2581Empire": 5644,
  "\u2581Lenaane": 5645,
  "\u2581Year": 5646,
  "\u2581accord": 5647,
  "\u2581bosa": 5648,
  "\u2581facing": 5649,
  "\u2581gambling": 5650,
  "\u2581khumo": 5651,
  "\u2581songs": 5652,
  "hu": 5653,
  "\u25811940": 5654,
  "\u2581Bathesalonika": 5655,
  "\u2581Malaki": 5656,
  "\u2581Three": 5657,
  "\u2581bitsang": 5658,
  "\u2581bobe": 5659,
  "\u2581ditlhabi": 5660,
  "\u2581employment": 5661,
  "\u2581gained": 5662,
  "\u2581historical": 5663,
  "\u2581instructed": 5664,
  "\u2581ipusolosetsa": 5665,
  "\u2581tlotliwa": 5666,
  "\u2581tshwarwe": 5667,
  "\u2581tsietso": 5668,
  "Jesu": 5669,
  "\u2581Austria": 5670,
  "\u2581assures": 5671,
  "\u2581boikgogomoso": 5672,
  "\u2581citizens": 5673,
  "\u2581commands": 5674,
  "\u2581dipelaelo": 5675,
  "\u2581drawing": 5676,
  "\u2581emotionally": 5677,
  "\u2581feature": 5678,
  "\u2581kgatelopele": 5679,
  "\u2581newly": 5680,
  "\u2581thanks": 5681,
  "ish": 5682,
  "\u2581NY": 5683,
  "\u2581adopted": 5684,
  "\u2581beng": 5685,
  "\u2581commit": 5686,
  "\u2581discouraged": 5687,
  "\u2581distant": 5688,
  "\u2581gaeno": 5689,
  "\u2581latele": 5690,
  "\u2581lejwa": 5691,
  "\u2581watching": 5692,
  "not": 5693,
  "\u2581Nathan": 5694,
  "\u2581burned": 5695,
  "\u2581direlwa": 5696,
  "\u2581phenyo": 5697,
  "\u2581solid": 5698,
  "atted": 5699,
  "\u2581Kaine": 5700,
  "\u2581Kgopolo": 5701,
  "\u2581Mojuda": 5702,
  "\u2581childhood": 5703,
  "\u2581fundamental": 5704,
  "\u2581limit": 5705,
  "\u2581mail": 5706,
  "\u2581morutwa": 5707,
  "\u2581royal": 5708,
  "my": 5709,
  "\u2581associates": 5710,
  "\u2581devoted": 5711,
  "\u2581existed": 5712,
  "\u2581inclined": 5713,
  "\u2581malapeng": 5714,
  "\u2581menagane": 5715,
  "\u2581motshameko": 5716,
  "\u2581prejudice": 5717,
  "\u2581reap": 5718,
  "\u2581wood": 5719,
  "\u25811918": 5720,
  "\u258156": 5721,
  "\u25816;": 5722,
  "\u2581JEHOFA": 5723,
  "\u2581Maina": 5724,
  "\u2581Malachi": 5725,
  "\u2581feed": 5726,
  "\u2581mannye": 5727,
  "\u2581mma": 5728,
  "\u2581pabalesego": 5729,
  "\u2581stayed": 5730,
  "\u258161": 5731,
  "\u2581Bakereseteng": 5732,
  "\u2581Leng": 5733,
  "\u2581Rotlhe": 5734,
  "\u2581Show": 5735,
  "\u2581Vi": 5736,
  "\u2581beast": 5737,
  "\u2581boife": 5738,
  "\u2581contained": 5739,
  "\u2581ditseleng": 5740,
  "\u2581idolatry": 5741,
  "\u2581iron": 5742,
  "\u2581letlhakore": 5743,
  "\u2581maitshwarelo": 5744,
  "\u2581streets": 5745,
  "\u2581tests": 5746,
  "\u2581thobo": 5747,
  "\u2581traits": 5748,
  "To": 5749,
  "\u2581Al": 5750,
  "\u2581Dikgang": 5751,
  "\u2581Tseno": 5752,
  "\u2581cared": 5753,
  "\u2581context": 5754,
  "\u2581ditshenekegi": 5755,
  "\u2581fears": 5756,
  "\u2581introduced": 5757,
  "\u2581kgolegelo": 5758,
  "\u2581sustain": 5759,
  "No": 5760,
  "\u2581Medical": 5761,
  "\u2581Metswedi": 5762,
  "\u2581reads": 5763,
  "\u2581widespread": 5764,
  "of": 5765,
  "\u2581Marriage": 5766,
  "\u2581Patlisiso": 5767,
  "\u2581admonition": 5768,
  "\u2581movement": 5769,
  "\u2581moves": 5770,
  "\u2581ngaparela": 5771,
  "\u2581unusual": 5772,
  "con": 5773,
  "ph": 5774,
  "\u2581Noka": 5775,
  "\u2581Welcome": 5776,
  "\u2581akanyetse": 5777,
  "\u2581amogetse": 5778,
  "\u2581dikopano": 5779,
  "\u2581finds": 5780,
  "\u2581heat": 5781,
  "\u2581rapele": 5782,
  "\u2581review": 5783,
  "\u2581thutong": 5784,
  "\u2581Jean": 5785,
  "\u2581Ukraine": 5786,
  "\u2581bomoya": 5787,
  "\u2581cruel": 5788,
  "\u2581kgaolwa": 5789,
  "\u2581lepalepana": 5790,
  "\u2581programs": 5791,
  "\u2581restore": 5792,
  "\u2581tobacco": 5793,
  "\u2581Mogolwane": 5794,
  "\u2581Y": 5795,
  "\u2581disetwa": 5796,
  "\u2581gomodiwa": 5797,
  "\u2581pornography": 5798,
  "\u2581raising": 5799,
  "\u2581southern": 5800,
  "\u2581traditions": 5801,
  "gen": 5802,
  "\u25811980": 5803,
  "\u2581setulo": 5804,
  "\u2581sireletsang": 5805,
  "\u2581solofeditsweng": 5806,
  "\u2581trusted": 5807,
  "\u2581Minor": 5808,
  "\u2581boroko": 5809,
  "\u2581deaf": 5810,
  "\u2581dihele": 5811,
  "\u2581enable": 5812,
  "\u2581lemororo": 5813,
  "\u2581ntshang": 5814,
  "\u2581tear": 5815,
  "Bo": 5816,
  "ut": 5817,
  "\u2581leader": 5818,
  "\u2581miraculous": 5819,
  "\u2581mourning": 5820,
  "\u2581visible": 5821,
  "ele": 5822,
  "\u2581Babylonian": 5823,
  "\u2581Karabo": 5824,
  "\u2581Kitso": 5825,
  "\u2581Martha": 5826,
  "\u2581Red": 5827,
  "\u2581letetse": 5828,
  "\u2581makgapha": 5829,
  "\u2581nnaya": 5830,
  "\u2581serapa": 5831,
  "\u2581shortly": 5832,
  "\u2581sorts": 5833,
  "ant": 5834,
  "io": 5835,
  "\u258153": 5836,
  "\u2581Moporofeti": 5837,
  "\u2581Moscow": 5838,
  "\u2581Pes": 5839,
  "\u2581malaria": 5840,
  "\u2581mebileng": 5841,
  "\u2581officer": 5842,
  "\u2581playing": 5843,
  "\u2581south": 5844,
  "\u2581144,000": 5845,
  "\u25812004": 5846,
  "\u2581Association": 5847,
  "\u2581Lotlhe": 5848,
  "\u2581Mediterranean": 5849,
  "\u2581karo": 5850,
  "\u2581pokanong": 5851,
  "\u2581readers": 5852,
  "ud": 5853,
  "\u2581Bao": 5854,
  "\u2581Dirang": 5855,
  "\u2581Science": 5856,
  "\u2581figurative": 5857,
  "\u2581letlha": 5858,
  "\u2581mebedi": 5859,
  "\u2581media": 5860,
  "\u2581messages": 5861,
  "\u2581terena": 5862,
  "\u2581tlhome": 5863,
  "Nna": 5864,
  "lin": 5865,
  "\u2581Bosheng": 5866,
  "\u2581Living": 5867,
  "\u2581Malatsi": 5868,
  "\u2581Women": 5869,
  "\u2581capable": 5870,
  "\u2581grain": 5871,
  "\u2581humbly": 5872,
  "\u2581inherit": 5873,
  "\u2581largest": 5874,
  "\u2581madimona": 5875,
  "\u2581nonofa": 5876,
  "\u2581object": 5877,
  "\u2581sitting": 5878,
  "\u2581tsididi": 5879,
  "\u2581universal": 5880,
  "\u2581utlwale": 5881,
  "fo": 5882,
  "tseng": 5883,
  "\u2581Abel": 5884,
  "\u2581Baal": 5885,
  "\u2581Congregation": 5886,
  "\u2581Martin": 5887,
  "\u2581baitsesaense": 5888,
  "\u2581felelwa": 5889,
  "\u2581missing": 5890,
  "\u2581philosophy": 5891,
  "\u2581tlogetse": 5892,
  "LA": 5893,
  "\u2581Paradaiseng": 5894,
  "\u2581bulela": 5895,
  "\u2581description": 5896,
  "\u2581disasters": 5897,
  "\u2581ditaolo": 5898,
  "\u2581itewa": 5899,
  "\u2581suggested": 5900,
  "\u2581tlhagolela": 5901,
  "\u2581virtual": 5902,
  "\u2581wrath": 5903,
  "Mme": 5904,
  "\u2581Anna": 5905,
  "\u2581dikotla": 5906,
  "\u2581direge": 5907,
  "\u2581impact": 5908,
  "\u2581mebala": 5909,
  "\u2581reply": 5910,
  "\u2581rerwa": 5911,
  "\u2581returning": 5912,
  "\u2581tlhongwa": 5913,
  "ING": 5914,
  "LO": 5915,
  "mp": 5916,
  "\u25812003": 5917,
  "\u2581Lefelo": 5918,
  "\u2581Netherlands": 5919,
  "\u2581apere": 5920,
  "\u2581disitse": 5921,
  "\u2581feleng": 5922,
  "\u2581hutsafala": 5923,
  "\u2581pursuing": 5924,
  "\u2581survived": 5925,
  "\u2581systems": 5926,
  "\u2581tlelaseng": 5927,
  "\u2581tlhogong": 5928,
  "Ma": 5929,
  "ol": 5930,
  "\u258114]": 5931,
  "\u2581Much": 5932,
  "\u2581accident": 5933,
  "\u2581acknowledged": 5934,
  "\u2581awake": 5935,
  "\u2581bakanoki": 5936,
  "\u2581debt": 5937,
  "\u2581imperfection": 5938,
  "\u2581kgonne": 5939,
  "\u2581letsopa": 5940,
  "\u2581leuba": 5941,
  "\u2581man\u00e8": 5942,
  "\u2581preparing": 5943,
  "\u2581protected": 5944,
  "\u2581selelo": 5945,
  "\u2581thankful": 5946,
  "\u2581thapiso": 5947,
  "diwa": 5948,
  "\u2581Bontsha": 5949,
  "\u2581Millions": 5950,
  "\u2581abandon": 5951,
  "\u2581creature": 5952,
  "\u2581explanation": 5953,
  "\u2581harsh": 5954,
  "\u2581headquarters": 5955,
  "\u2581income": 5956,
  "\u2581maintaining": 5957,
  "\u2581thaba": 5958,
  "\u2581Ditsala": 5959,
  "\u2581baganetsi": 5960,
  "\u2581bogisa": 5961,
  "\u2581calamity": 5962,
  "\u2581holds": 5963,
  "\u2581lines": 5964,
  "\u2581megolo": 5965,
  "\u2581obtained": 5966,
  "\u2581seatleng": 5967,
  "\u2581sephiring": 5968,
  "\u2581symbolic": 5969,
  "\u2581winter": 5970,
  "with": 5971,
  "\u25811987": 5972,
  "\u25812005": 5973,
  "\u2581Ben": 5974,
  "\u2581Lesha": 5975,
  "\u2581Lontone": 5976,
  "\u2581accompanied": 5977,
  "\u2581bolokwa": 5978,
  "\u2581heads": 5979,
  "\u2581necessarily": 5980,
  "\u2581rulagantsweng": 5981,
  "\u2581slavery": 5982,
  "\u2581tlhaba": 5983,
  "\u2581weaknesses": 5984,
  "&": 5985,
  "ff": 5986,
  "\u2581rateng": 5987,
  "\u2581satisfied": 5988,
  "\u2581senama": 5989,
  "\u2581singing": 5990,
  "\u2581Joel": 5991,
  "\u2581assurance": 5992,
  "\u2581batlisisa": 5993,
  "\u2581bohutsana": 5994,
  "\u2581changing": 5995,
  "\u2581contributed": 5996,
  "\u2581design": 5997,
  "\u2581grasp": 5998,
  "\u2581kgopisa": 5999,
  "\u2581murder": 6000,
  "\u2581robetse": 6001,
  "\u2581selefatshe": 6002,
  "gile": 6003,
  "ized": 6004,
  "\u2581Pa": 6005,
  "\u2581Worship": 6006,
  "\u2581believing": 6007,
  "\u2581bewa": 6008,
  "\u2581botshwarwa": 6009,
  "\u2581conflicts": 6010,
  "\u2581ikanye": 6011,
  "\u2581kinds": 6012,
  "\u2581n": 6013,
  "\u2581pako": 6014,
  "\u2581solve": 6015,
  "\u2581tiny": 6016,
  "\u2581Stephen": 6017,
  "\u2581Tlolaganyo": 6018,
  "\u2581executed": 6019,
  "\u2581generous": 6020,
  "\u2581hell": 6021,
  "\u2581kgolwane": 6022,
  "\u2581lawlessness": 6023,
  "\u2581maduo": 6024,
  "\u2581marang": 6025,
  "\u2581metal": 6026,
  "\u2581mmontsha": 6027,
  "\u2581tlosiwa": 6028,
  "his": 6029,
  "\u2581Isa": 6030,
  "\u2581Nt\u0161ha": 6031,
  "\u2581islands": 6032,
  "\u2581lowly": 6033,
  "\u2581magolegwa": 6034,
  "\u2581tlhoile": 6035,
  "\u2581video": 6036,
  "\u2581wrongdoing": 6037,
  "\u2581Naga": 6038,
  "\u2581barutabana": 6039,
  "\u2581disorder": 6040,
  "\u2581forgiving": 6041,
  "\u2581ikhutsa": 6042,
  "\u2581kopanya": 6043,
  "\u2581laelwa": 6044,
  "\u2581metseng": 6045,
  "\u2581prisoners": 6046,
  "\u2581sang": 6047,
  "\u2581tshwenyegileng": 6048,
  "V": 6049,
  "\u2581Est": 6050,
  "\u2581Luther": 6051,
  "\u2581Table": 6052,
  "\u2581botlhano": 6053,
  "\u2581diretswe": 6054,
  "\u2581ear": 6055,
  "\u2581length": 6056,
  "\u2581lobakanyana": 6057,
  "\u2581lovingly": 6058,
  "\u2581peers": 6059,
  "\u2581repeated": 6060,
  "\u2581scripture": 6061,
  "\u2581tlhokometse": 6062,
  "ku": 6063,
  "\u2581Egyptian": 6064,
  "\u2581central": 6065,
  "\u2581morwadie": 6066,
  "\u2581preced": 6067,
  "\u2581sekgwa": 6068,
  "\u2581shed": 6069,
  "\u2581sources": 6070,
  "ite": 6071,
  "\u2581Baale": 6072,
  "\u2581Ephesus": 6073,
  "\u2581balwa": 6074,
  "\u2581kitlang": 6075,
  "\u2581mistake": 6076,
  "\u2581sets": 6077,
  "\u2581symbol": 6078,
  "\u2581tsamaisong": 6079,
  "\u2581Island": 6080,
  "\u2581Sekolong": 6081,
  "\u2581Viewpoint": 6082,
  "\u2581jobs": 6083,
  "\u2581journal": 6084,
  "\u2581khopi": 6085,
  "\u2581modiri": 6086,
  "\u2581mookamedi": 6087,
  "\u2581partner": 6088,
  "\u2581realm": 6089,
  "\u2581surgery": 6090,
  "bu": 6091,
  "nye": 6092,
  "\u2581Ana": 6093,
  "\u2581challenging": 6094,
  "\u2581inherited": 6095,
  "\u2581itlhaganelela": 6096,
  "\u2581nko": 6097,
  "\u2581polelwana": 6098,
  "\u2581range": 6099,
  "ana": 6100,
  "ise": 6101,
  "\u25811943": 6102,
  "\u2581View": 6103,
  "\u2581bodiheding": 6104,
  "\u2581campaign": 6105,
  "\u2581choices": 6106,
  "\u2581humankind": 6107,
  "\u2581kgothalediwa": 6108,
  "\u2581limitations": 6109,
  "\u2581location": 6110,
  "\u2581ngwedi": 6111,
  "\u2581surrounded": 6112,
  "\u2581Bakorinthe": 6113,
  "\u2581Lamb": 6114,
  "\u2581diretseng": 6115,
  "\u2581fenngwa": 6116,
  "\u2581figure": 6117,
  "\u2581hidden": 6118,
  "\u2581maikano": 6119,
  "\u2581nae": 6120,
  "\u2581proverb": 6121,
  "\u2581rejoicing": 6122,
  "\u2581tlhatloga": 6123,
  "\u258132:": 6124,
  "\u2581Eo": 6125,
  "\u2581Moatlhodi": 6126,
  "\u2581batleng": 6127,
  "\u2581bolelwang": 6128,
  "\u2581commonly": 6129,
  "\u2581drew": 6130,
  "\u2581galalelang": 6131,
  "\u2581larger": 6132,
  "\u2581lebisa": 6133,
  "\u2581marital": 6134,
  "\u2581phaposing": 6135,
  "\u2581supplies": 6136,
  "\u2581tempted": 6137,
  "\u2581tired": 6138,
  "\u2581Mong": 6139,
  "\u2581Te": 6140,
  "\u2581balega": 6141,
  "\u2581batshabi": 6142,
  "\u2581boitshediso": 6143,
  "\u2581bolawe": 6144,
  "\u2581extend": 6145,
  "\u2581illustrations": 6146,
  "\u2581lentle": 6147,
  "\u2581mafura": 6148,
  "\u2581opposed": 6149,
  "ER": 6150,
  "kana": 6151,
  "\u2581Baegepeto": 6152,
  "\u2581Tsweetswee": 6153,
  "\u2581Use": 6154,
  "\u2581Washington": 6155,
  "\u2581Which": 6156,
  "\u2581check": 6157,
  "\u2581eliminate": 6158,
  "\u2581letswai": 6159,
  "\u2581pregnant": 6160,
  "\u2581previously": 6161,
  "\u2581upbuilding": 6162,
  "\u2581urges": 6163,
  "18": 6164,
  "au": 6165,
  "that": 6166,
  "\u2581COVER": 6167,
  "\u2581engaged": 6168,
  "\u2581fresh": 6169,
  "\u2581immortal": 6170,
  "\u2581lekalekaneng": 6171,
  "\u2581load": 6172,
  "\u2581market": 6173,
  "\u2581throw": 6174,
  "\u2581tsofetseng": 6175,
  "\u2581worker": 6176,
  "by": 6177,
  "tswa": 6178,
  "\u2581Notice": 6179,
  "\u2581bolelelang": 6180,
  "\u2581dikabelo": 6181,
  "\u2581identity": 6182,
  "\u2581intended": 6183,
  "\u2581pleasing": 6184,
  "\u2581Bodiredi": 6185,
  "\u2581Kobamelo": 6186,
  "\u2581borout\u0161hara": 6187,
  "\u2581footnote": 6188,
  "\u2581golang": 6189,
  "\u2581kgobegile": 6190,
  "\u2581manyalo": 6191,
  "\u2581mariga": 6192,
  "\u2581matlong": 6193,
  "\u2581mmung": 6194,
  "\u2581thrown": 6195,
  "\u2581tshwenyang": 6196,
  "\u2581Back": 6197,
  "\u2581Hesekia": 6198,
  "\u2581Modern": 6199,
  "\u2581Prayer": 6200,
  "\u2581flee": 6201,
  "\u2581gagametseng": 6202,
  "\u2581judges": 6203,
  "\u2581koketsego": 6204,
  "\u2581leano": 6205,
  "\u2581permission": 6206,
  "\u2581polokesego": 6207,
  "\u2581technology": 6208,
  "\u2581tendency": 6209,
  "\u2581tsogile": 6210,
  "\u2581Interestingly": 6211,
  "\u2581bride": 6212,
  "\u2581comment": 6213,
  "\u2581dies": 6214,
  "\u2581foolish": 6215,
  "\u2581mine": 6216,
  "\u2581sewelo": 6217,
  "\u2581thibelwa": 6218,
  "\u2581Again": 6219,
  "\u2581Esau": 6220,
  "\u2581Lenyalo": 6221,
  "\u2581Next": 6222,
  "\u2581Spiritual": 6223,
  "\u2581compassionate": 6224,
  "\u2581difficulty": 6225,
  "\u2581ends": 6226,
  "\u2581kgonegang": 6227,
  "\u2581possession": 6228,
  "\u2581supe": 6229,
  "\u2581145": 6230,
  "\u2581Galilee": 6231,
  "\u2581Truly": 6232,
  "\u2581crisis": 6233,
  "\u2581depend": 6234,
  "\u2581dikampeng": 6235,
  "\u2581noga": 6236,
  "\u2581proceeded": 6237,
  "\u2581significance": 6238,
  "\u2581turns": 6239,
  "\u2581types": 6240,
  "\u2581warfare": 6241,
  "\u2581Aaron": 6242,
  "\u2581Hezekiah": 6243,
  "\u2581Library": 6244,
  "\u2581acquire": 6245,
  "\u2581amazing": 6246,
  "\u2581dikolo": 6247,
  "\u2581ditokololo": 6248,
  "\u2581extra": 6249,
  "\u2581huma": 6250,
  "\u2581motives": 6251,
  "\u2581unrighteous": 6252,
  "\u2581worry": 6253,
  "ditse": 6254,
  "gu": 6255,
  "\u2581Dijo": 6256,
  "\u2581End": 6257,
  "\u2581Review": 6258,
  "\u2581dikakgelo": 6259,
  "\u2581fruits": 6260,
  "\u2581makgwakgwa": 6261,
  "\u2581pick": 6262,
  "\u2581sexually": 6263,
  "\u2581tsofala": 6264,
  "\u25811985": 6265,
  "\u2581Andrew": 6266,
  "\u2581bogareng": 6267,
  "\u2581botshabelo": 6268,
  "\u2581floor": 6269,
  "\u2581moneelo": 6270,
  "\u2581possibility": 6271,
  "\u2581relate": 6272,
  "\u2581tsiediwa": 6273,
  "\u2581Gospels": 6274,
  "\u2581Li": 6275,
  "\u2581Pilate": 6276,
  "\u2581approaching": 6277,
  "\u2581mebuso": 6278,
  "\u2581miracle": 6279,
  "\u2581preserve": 6280,
  "\u2581sat": 6281,
  "\u2581seaparo": 6282,
  "\u2581selemo": 6283,
  "\u2581tlhama": 6284,
  "tlhotlheleditswe": 6285,
  "\u2581Archive": 6286,
  "\u2581Edene": 6287,
  "\u2581boingotlo": 6288,
  "\u2581bonela": 6289,
  "\u2581botsone": 6290,
  "\u2581ima": 6291,
  "\u2581method": 6292,
  "\u2581opposers": 6293,
  "\u2581umakiwa": 6294,
  "\u2581Ditsela": 6295,
  "\u2581Little": 6296,
  "\u2581Tsaya": 6297,
  "\u2581author": 6298,
  "\u2581drive": 6299,
  "\u2581loetong": 6300,
  "\u2581thunya": 6301,
  "\u2581tlhomilwe": 6302,
  "\u2581tlhophang": 6303,
  "motho": 6304,
  "zi": 6305,
  "\u2581Jordan": 6306,
  "\u2581capacity": 6307,
  "\u2581searching": 6308,
  "\u2581similarly": 6309,
  "\u2581tshenyego": 6310,
  ",\"": 6311,
  "\u2581Nne": 6312,
  "\u2581Ntse": 6313,
  "\u2581addressed": 6314,
  "\u2581conviction": 6315,
  "\u2581cup": 6316,
  "\u2581educational": 6317,
  "\u2581lapile": 6318,
  "\u2581schedule": 6319,
  "\u2581strengthening": 6320,
  "\u2581sufficient": 6321,
  "keng": 6322,
  "les": 6323,
  "\u2581Abele": 6324,
  "\u2581Baefesia": 6325,
  "\u2581Kenya": 6326,
  "\u2581dikopanong": 6327,
  "\u2581discussions": 6328,
  "\u2581dithunya": 6329,
  "\u2581killing": 6330,
  "\u2581meat": 6331,
  "\u2581oli": 6332,
  "\u2581patiently": 6333,
  "\u2581teenager": 6334,
  "\u2581tlhabiwa": 6335,
  "\u2581attain": 6336,
  "\u2581batsofe": 6337,
  "\u2581beat": 6338,
  "\u2581cure": 6339,
  "\u2581demands": 6340,
  "\u2581fola": 6341,
  "\u2581rewarded": 6342,
  "\u25811986": 6343,
  "\u2581Asa": 6344,
  "\u2581Tiragalo": 6345,
  "\u2581diragale": 6346,
  "\u2581execution": 6347,
  "\u2581lobopong": 6348,
  "\u2581tlhatlogela": 6349,
  "\u2581Protestant": 6350,
  "\u2581Si": 6351,
  "\u2581Yesu": 6352,
  "\u2581boheitane": 6353,
  "\u2581dikgakololo": 6354,
  "\u2581empire": 6355,
  "\u2581okaoka": 6356,
  "\u2581ritibetse": 6357,
  "\u2581tshwenyege": 6358,
  "\u2581whereas": 6359,
  "\u2581Things": 6360,
  "\u2581Web": 6361,
  "\u2581Years": 6362,
  "\u2581bitter": 6363,
  "\u2581glorify": 6364,
  "\u2581matlakala": 6365,
  "\u2581paka": 6366,
  "\u2581perfection": 6367,
  "\u2581respected": 6368,
  "q": 6369,
  "\u2581Bua": 6370,
  "\u2581boleletse": 6371,
  "\u2581bookelong": 6372,
  "\u2581hunger": 6373,
  "\u2581listeners": 6374,
  "\u2581pharologanyo": 6375,
  "\u2581robongwe": 6376,
  "\u2581ruled": 6377,
  "\u2581tlotlang": 6378,
  "ley": 6379,
  "\u25811930": 6380,
  "\u2581Age": 6381,
  "\u2581Evidently": 6382,
  "\u2581Leviticus": 6383,
  "\u2581bolokang": 6384,
  "\u2581demand": 6385,
  "\u2581lips": 6386,
  "\u2581loratong": 6387,
  "\u2581sireletsegile": 6388,
  "\u2581tlwaela": 6389,
  "\u2581Avoid": 6390,
  "\u2581Lefitiko": 6391,
  "\u2581benefited": 6392,
  "\u2581boeletsa": 6393,
  "\u2581current": 6394,
  "\u2581etele": 6395,
  "\u2581serpent": 6396,
  "\u2581tsewang": 6397,
  "\u2581Bolwetse": 6398,
  "\u2581Diteng": 6399,
  "\u2581Philippines": 6400,
  "\u2581Trust": 6401,
  "\u2581Unlike": 6402,
  "\u2581climate": 6403,
  "\u2581ditlhobolo": 6404,
  "\u2581entirely": 6405,
  "\u2581friendly": 6406,
  "\u2581mid": 6407,
  "\u2581pieces": 6408,
  "\u2581senye": 6409,
  "\u2581teenagers": 6410,
  "RA": 6411,
  "ler": 6412,
  "ter": 6413,
  "\u2581bola": 6414,
  "\u2581ditsebeng": 6415,
  "\u2581equipped": 6416,
  "\u2581linked": 6417,
  "\u2581operation": 6418,
  "\u2581residents": 6419,
  "\u2581telephone": 6420,
  "\u2581tsholetswe": 6421,
  "ner": 6422,
  "\u258118;": 6423,
  "\u2581Committee": 6424,
  "\u2581achieve": 6425,
  "\u2581commercial": 6426,
  "\u2581e\u014dna": 6427,
  "\u2581kgokafalo": 6428,
  "\u2581reminds": 6429,
  "\u2581title": 6430,
  "\u2581tlhokomelang": 6431,
  "\u2581Portugal": 6432,
  "\u2581Tharabololo": 6433,
  "\u2581crowds": 6434,
  "\u2581faces": 6435,
  "\u2581judicial": 6436,
  "\u2581meek": 6437,
  "\u2581tlisiwa": 6438,
  "\u2581ungodly": 6439,
  "sha": 6440,
  "\u2581Contents": 6441,
  "\u2581Gare": 6442,
  "\u2581Making": 6443,
  "\u2581buildings": 6444,
  "\u2581commandment": 6445,
  "\u2581fitting": 6446,
  "\u2581injury": 6447,
  "\u2581lebokoso": 6448,
  "\u2581obeying": 6449,
  "\u2581refreshing": 6450,
  "\u00e3o": 6451,
  "\u2581DIPINA": 6452,
  "\u2581Dead": 6453,
  "\u2581Finland": 6454,
  "\u2581kgaogane": 6455,
  "\u2581laole": 6456,
  "\u2581morutisi": 6457,
  "\u2581outlook": 6458,
  "\u2581rulaganyetsa": 6459,
  "\u2581totally": 6460,
  "\u25812]": 6461,
  "\u2581AS": 6462,
  "\u2581Co": 6463,
  "\u2581Mar": 6464,
  "\u2581Mmusi": 6465,
  "\u2581boikanngo": 6466,
  "\u2581criminal": 6467,
  "\u2581delighted": 6468,
  "\u2581dijini": 6469,
  "\u2581mokoro": 6470,
  "\u2581politics": 6471,
  "\u2581siametse": 6472,
  "\u2581theory": 6473,
  "\u2581upset": 6474,
  "\u2581weather": 6475,
  "chi": 6476,
  "pp": 6477,
  "\u2581Frank": 6478,
  "\u2581Sekai": 6479,
  "\u2581Tsala": 6480,
  "\u2581babatlisisi": 6481,
  "\u2581itumeletse": 6482,
  "\u2581tested": 6483,
  "\u2581waste": 6484,
  "lele": 6485,
  "op": 6486,
  "\u2581Lines": 6487,
  "\u2581Merafe": 6488,
  "\u2581bakiwa": 6489,
  "\u2581elsewhere": 6490,
  "\u2581f": 6491,
  "\u2581guided": 6492,
  "\u2581kwadile": 6493,
  "\u2581lekane": 6494,
  "\u2581mae": 6495,
  "\u2581nameng": 6496,
  "\u2581poured": 6497,
  "\u2581station": 6498,
  "\u2581tlhokomelwa": 6499,
  "\u2581tshosetsa": 6500,
  "ac": 6501,
  "et": 6502,
  "\u2581000,": 6503,
  "\u258115;": 6504,
  "\u2581Dan": 6505,
  "\u2581admit": 6506,
  "\u2581covering": 6507,
  "\u2581dintweng": 6508,
  "\u2581diragalelang": 6509,
  "\u2581illustrated": 6510,
  "\u2581latofatsa": 6511,
  "\u2581moja": 6512,
  "\u2581publicly": 6513,
  "\u2581setlhaketlhake": 6514,
  "\u2581testimony": 6515,
  "\u2581Gen": 6516,
  "\u2581Herod": 6517,
  "\u2581atlholelwa": 6518,
  "\u2581boleong": 6519,
  "\u2581gomotsang": 6520,
  "\u2581rutwa": 6521,
  "\u2581Creation": 6522,
  "\u2581IS": 6523,
  "\u2581Mekgwa": 6524,
  "\u2581Tsebe": 6525,
  "\u2581amogelwe": 6526,
  "\u2581begun": 6527,
  "\u2581dikgoreletsi": 6528,
  "\u2581director": 6529,
  "\u2581examination": 6530,
  "\u2581founo": 6531,
  "\u2581koafala": 6532,
  "\u2581periods": 6533,
  "\u2581rewarding": 6534,
  "\u2581Certainly": 6535,
  "\u2581morwalela": 6536,
  "\u2581ratile": 6537,
  "\u2581stronger": 6538,
  "\u2581tlhophilweng": 6539,
  "\u2581w\u00e8na": 6540,
  "16": 6541,
  "\u2581Maikutlo": 6542,
  "\u2581Master": 6543,
  "\u2581applies": 6544,
  "\u2581galefile": 6545,
  "\u2581hit": 6546,
  "\u2581profound": 6547,
  "\u2581seventh": 6548,
  "\u2581twice": 6549,
  "\u2581Dithuto": 6550,
  "\u2581Kgolo": 6551,
  "\u2581Komiti": 6552,
  "\u2581Losika": 6553,
  "\u2581Maloko": 6554,
  "\u2581Samaria": 6555,
  "\u2581Sefania": 6556,
  "\u2581kaelang": 6557,
  "ros": 6558,
  "utlwelobotlhoko": 6559,
  "\u25811935": 6560,
  "\u25812012": 6561,
  "\u2581Elizabeth": 6562,
  "\u2581Need": 6563,
  "\u2581Zephaniah": 6564,
  "\u2581fetofetoga": 6565,
  "\u2581latlhelwa": 6566,
  "\u2581nyelediwa": 6567,
  "\u2581satisfy": 6568,
  "\u2581talked": 6569,
  "\u2581thusitseng": 6570,
  "Why": 6571,
  "ah": 6572,
  "am": 6573,
  "ber": 6574,
  "phe": 6575,
  "\u25811941": 6576,
  "\u2581Central": 6577,
  "\u2581Hannah": 6578,
  "\u2581Kgolagano": 6579,
  "\u2581Near": 6580,
  "\u2581ikanyegeng": 6581,
  "\u2581lekwalong": 6582,
  "\u2581reside": 6583,
  "\u2581stands": 6584,
  "\u2581thatathata": 6585,
  "\u25812,000": 6586,
  "\u2581Art": 6587,
  "\u2581En": 6588,
  "\u2581itshwarele": 6589,
  "\u2581jealousy": 6590,
  "\u2581records": 6591,
  "\u2581recreation": 6592,
  "\u2581solofeditse": 6593,
  "j": 6594,
  "\u2581Constantine": 6595,
  "\u2581Ngaka": 6596,
  "\u2581Pictorial": 6597,
  "\u2581arrival": 6598,
  "\u2581dumedisa": 6599,
  "\u2581esale": 6600,
  "\u2581hema": 6601,
  "\u2581informed": 6602,
  "\u2581kganetso": 6603,
  "\u2581kwadileng": 6604,
  "\u2581limits": 6605,
  "\u2581portion": 6606,
  "\u2581regardless": 6607,
  "\u2581teenage": 6608,
  "\u2581tshogile": 6609,
  "age": 6610,
  "\u2581Judge": 6611,
  "\u2581Metlha": 6612,
  "\u2581Selatine": 6613,
  "\u2581eternity": 6614,
  "\u2581masimo": 6615,
  "\u2581sentence": 6616,
  "\u25812483": 6617,
  "\u2581Etelwa": 6618,
  "\u2581Jehu": 6619,
  "\u2581accused": 6620,
  "\u2581exchange": 6621,
  "\u2581hopes": 6622,
  "\u2581itumelelang": 6623,
  "\u2581latelela": 6624,
  "\u2581letile": 6625,
  "\u2581loago": 6626,
  "\u2581weakness": 6627,
  "tlhe\u00f1": 6628,
  "\u2581Dinaga": 6629,
  "\u2581Map": 6630,
  "\u2581Right": 6631,
  "\u2581application": 6632,
  "\u2581mabela": 6633,
  "\u2581mosepele": 6634,
  "\u2581obvious": 6635,
  "\u2581sacrificing": 6636,
  "\u2581tlhophiwa": 6637,
  "\u2581Siberia": 6638,
  "\u2581enables": 6639,
  "\u2581hospitality": 6640,
  "\u2581plenty": 6641,
  "Near": 6642,
  "ance": 6643,
  "\u2581Department": 6644,
  "\u2581Wisdom": 6645,
  "\u2581forests": 6646,
  "\u2581gogang": 6647,
  "\u2581mates": 6648,
  "\u2581pampiri": 6649,
  "\u2581prosperity": 6650,
  "\u2581tlhapa": 6651,
  "\u2581volunteers": 6652,
  "70": 6653,
  "ent": 6654,
  "wi": 6655,
  "\u2581Insight": 6656,
  "\u2581botsuolodi": 6657,
  "\u2581celebration": 6658,
  "\u2581diphuka": 6659,
  "\u2581dirisitse": 6660,
  "\u2581feletse": 6661,
  "\u2581fepa": 6662,
  "\u2581practiced": 6663,
  "\u2581roma": 6664,
  "\u2581sekgweng": 6665,
  "\u2581staff": 6666,
  "\u2581survival": 6667,
  "Nnang": 6668,
  "\u2581Albert": 6669,
  "\u2581Any": 6670,
  "\u2581Middle": 6671,
  "\u2581discussing": 6672,
  "\u2581hutsafetse": 6673,
  "\u2581lefifing": 6674,
  "\u2581neelang": 6675,
  "\u2581urge": 6676,
  "By": 6677,
  "\u2581700": 6678,
  "\u2581Ithuta": 6679,
  "\u2581Were": 6680,
  "\u2581ban": 6681,
  "\u2581beile": 6682,
  "\u2581card": 6683,
  "\u2581famine": 6684,
  "\u2581gagamalela": 6685,
  "\u2581kopanyeletsa": 6686,
  "\u2581leungo": 6687,
  "\u2581participate": 6688,
  "\u2581pogisetso": 6689,
  "\u2581prefer": 6690,
  "\u2581resort": 6691,
  "\u2581sending": 6692,
  "\u2581silent": 6693,
  "\u2581tshireletso": 6694,
  "\u2581tumalano": 6695,
  "\u2581witnessed": 6696,
  "sta": 6697,
  "\u2581Denmark": 6698,
  "\u2581Diefangele": 6699,
  "\u2581Thaba": 6700,
  "\u2581busediwa": 6701,
  "\u2581cwa": 6702,
  "\u2581east": 6703,
  "\u2581fopholetsa": 6704,
  "\u2581immediate": 6705,
  "\u2581imprisoned": 6706,
  "\u2581itshedisa": 6707,
  "\u2581kopanang": 6708,
  "\u2581lapolosa": 6709,
  "\u2581occurs": 6710,
  "\u2581remembered": 6711,
  "\u2581trusting": 6712,
  "Who": 6713,
  "tsha": 6714,
  "\u2581Answers": 6715,
  "\u2581HOW": 6716,
  "\u2581baatlhodi": 6717,
  "\u2581bokgakaleng": 6718,
  "\u2581milk": 6719,
  "\u2581namola": 6720,
  "\u2581professional": 6721,
  "\u2581setho": 6722,
  "ful": 6723,
  "tshe": 6724,
  "\u25812007": 6725,
  "\u258142.": 6726,
  "\u258164": 6727,
  "\u2581Tsotlhe": 6728,
  "\u2581bomm\u00e8": 6729,
  "\u2581bones": 6730,
  "\u2581declaring": 6731,
  "\u2581ensure": 6732,
  "\u2581feditse": 6733,
  "\u2581fopholediwa": 6734,
  "\u2581gatelelang": 6735,
  "\u2581inspiring": 6736,
  "\u2581iponela": 6737,
  "\u2581itlosa": 6738,
  "\u2581materials": 6739,
  "\u2581matlhano": 6740,
  "\u2581tlhaloganngwa": 6741,
  "Your": 6742,
  "\u2581Direla": 6743,
  "\u2581Hu": 6744,
  "\u2581Learning": 6745,
  "\u2581MA": 6746,
  "\u2581Part": 6747,
  "\u2581ages": 6748,
  "\u2581announced": 6749,
  "\u2581fought": 6750,
  "\u2581star": 6751,
  "\u2581tsamaisanang": 6752,
  "\u2581tshosa": 6753,
  "\u2581BE": 6754,
  "\u2581Council": 6755,
  "\u2581Ja": 6756,
  "\u2581Pope": 6757,
  "\u2581THIS": 6758,
  "\u2581dibe": 6759,
  "\u2581dikgaolo": 6760,
  "\u2581double": 6761,
  "\u2581dumelwa": 6762,
  "\u2581effectively": 6763,
  "\u2581hoped": 6764,
  "\u2581itshware": 6765,
  "\u2581lokwalodikgang": 6766,
  "\u2581meletlo": 6767,
  "\u2581romele": 6768,
  "\u2581tlhatswa": 6769,
  "\u2581tsositsweng": 6770,
  "l\u014d": 6771,
  "\u2581Bakor": 6772,
  "\u2581Chinese": 6773,
  "\u2581Enoch": 6774,
  "\u2581bekeng": 6775,
  "\u2581character": 6776,
  "\u2581concept": 6777,
  "\u2581dumalanang": 6778,
  "\u2581green": 6779,
  "\u2581mabele": 6780,
  "\u2581mafatlha": 6781,
  "\u2581morally": 6782,
  "\u2581objects": 6783,
  "\u2581prize": 6784,
  "\u2581romelela": 6785,
  "\u2581sebopiwa": 6786,
  "\u2581structure": 6787,
  "\u2581tlhagafetseng": 6788,
  "ated": 6789,
  "ria": 6790,
  "\u2581hide": 6791,
  "\u2581salt": 6792,
  "\u2581siametseng": 6793,
  "\u2581statements": 6794,
  "\u2581tshwantshiwa": 6795,
  "\u2581tsuologela": 6796,
  "\u2581yoke": 6797,
  "ED": 6798,
  "\u2581Baboledi": 6799,
  "\u2581Last": 6800,
  "\u2581Reng": 6801,
  "\u2581TLA": 6802,
  "\u2581bosaitekanelang": 6803,
  "\u2581dithanolo": 6804,
  "\u2581era": 6805,
  "\u2581exact": 6806,
  "\u2581expensive": 6807,
  "\u2581lifestyle": 6808,
  "\u2581menate": 6809,
  "\u2581mpotsa": 6810,
  "\u2581tlhomame": 6811,
  "are": 6812,
  "ern": 6813,
  "letting": 6814,
  "\u2581Gentiles": 6815,
  "\u2581Rwanda": 6816,
  "\u2581bopilwe": 6817,
  "\u2581fe": 6818,
  "\u2581feteletsa": 6819,
  "\u2581handed": 6820,
  "\u2581raela": 6821,
  "\u2581separated": 6822,
  "\u2581Barutwa": 6823,
  "\u2581Draw": 6824,
  "\u2581Page": 6825,
  "\u2581bus": 6826,
  "\u2581dollars": 6827,
  "\u2581intelligent": 6828,
  "\u2581kakanyo": 6829,
  "\u2581kgatlhegang": 6830,
  "\u2581lebaneng": 6831,
  "\u2581letsapa": 6832,
  "\u2581moyeng": 6833,
  "\u2581preserved": 6834,
  "\u2581printing": 6835,
  "che": 6836,
  "\u2581Baatlhodi": 6837,
  "\u2581Eli": 6838,
  "\u2581Enoke": 6839,
  "\u2581Kwana": 6840,
  "\u2581Sam": 6841,
  "\u2581acquainted": 6842,
  "\u2581game": 6843,
  "\u2581impression": 6844,
  "TH": 6845,
  "mu": 6846,
  "\u2581(4)": 6847,
  "\u2581Babadi": 6848,
  "\u2581Divine": 6849,
  "\u2581Mmusomogolo": 6850,
  "\u2581bape": 6851,
  "\u2581belaele": 6852,
  "\u2581hungry": 6853,
  "\u2581infected": 6854,
  "\u2581latter": 6855,
  "\u2581obamelang": 6856,
  "\u2581pegong": 6857,
  "\u2581producing": 6858,
  "\u2581speed": 6859,
  "\u2581storm": 6860,
  "\u2581Ann": 6861,
  "\u2581JWA": 6862,
  "\u2581Malapa": 6863,
  "\u2581Metsi": 6864,
  "\u2581dikamano": 6865,
  "\u2581exert": 6866,
  "\u2581expectations": 6867,
  "\u2581humanegile": 6868,
  "\u2581ikemisetsa": 6869,
  "\u2581prophesied": 6870,
  "\u2581repent": 6871,
  "\u2581spring": 6872,
  "\u2581strange": 6873,
  "\u2581tongues": 6874,
  "keep": 6875,
  "tion": 6876,
  "\u2581Mopapa": 6877,
  "\u2581bank": 6878,
  "\u2581bosole": 6879,
  "\u2581busiwa": 6880,
  "\u2581doors": 6881,
  "\u2581fofa": 6882,
  "\u2581itima": 6883,
  "\u2581mmolaya": 6884,
  "\u2581narrow": 6885,
  "\u2581nonotshang": 6886,
  "\u2581obamele": 6887,
  "\u2581Dipalo": 6888,
  "\u2581Haramagedona": 6889,
  "\u2581Ten": 6890,
  "\u2581afflicted": 6891,
  "\u2581d": 6892,
  "\u2581dating": 6893,
  "\u2581despair": 6894,
  "\u2581expressing": 6895,
  "\u2581fishing": 6896,
  "\u2581ho": 6897,
  "\u2581host": 6898,
  "\u2581koafatsa": 6899,
  "\u2581mokete": 6900,
  "\u2581polanete": 6901,
  "\u2581sotlwa": 6902,
  "\u00e1": 6903,
  "\u2581103": 6904,
  "\u2581facilities": 6905,
  "\u2581farm": 6906,
  "\u2581fitlhelele": 6907,
  "\u2581lesole": 6908,
  "\u2581production": 6909,
  "\u2581sireletse": 6910,
  "\u2581worst": 6911,
  "ally": 6912,
  "\u2581Balefi": 6913,
  "\u2581Try": 6914,
  "\u2581atamalaneng": 6915,
  "\u2581beilwe": 6916,
  "\u2581deeper": 6917,
  "\u2581kopang": 6918,
  "\u2581lehuma": 6919,
  "\u2581masomosomo": 6920,
  "\u2581privileged": 6921,
  "\u2581racial": 6922,
  "\u2581sole": 6923,
  "\u2581tshiam\u014d": 6924,
  "AR": 6925,
  "\u2581Additionally": 6926,
  "\u2581anxieties": 6927,
  "\u2581barati": 6928,
  "\u2581bogodimo": 6929,
  "\u2581cultures": 6930,
  "\u2581dirisitsweng": 6931,
  "\u2581ditlwaelo": 6932,
  "\u2581driving": 6933,
  "\u2581hated": 6934,
  "\u2581itetla": 6935,
  "\u2581manobonobo": 6936,
  "\u2581m\u014dea": 6937,
  "\u2581surprising": 6938,
  "ard": 6939,
  "\u258183": 6940,
  "\u2581Ho": 6941,
  "\u2581Jonathane": 6942,
  "\u2581Mom": 6943,
  "\u2581akanngwa": 6944,
  "\u2581amogelwang": 6945,
  "\u2581bopileng": 6946,
  "\u2581bought": 6947,
  "\u2581conform": 6948,
  "\u2581defense": 6949,
  "\u2581desirable": 6950,
  "\u2581destructive": 6951,
  "\u2581detail": 6952,
  "\u2581ithaopela": 6953,
  "\u2581kgalemela": 6954,
  "\u2581mmuso": 6955,
  "\u2581plain": 6956,
  "\u2581proclaimers": 6957,
  "\u2581prospects": 6958,
  "\u2581ta": 6959,
  "\u2581tokafala": 6960,
  "\u25812006": 6961,
  "\u2581Babatlisisi": 6962,
  "\u2581LA": 6963,
  "\u2581Zealand": 6964,
  "\u2581considerable": 6965,
  "\u2581dipolelelopele": 6966,
  "\u2581diragatse": 6967,
  "\u2581te": 6968,
  "\u2581tlhabologang": 6969,
  "\u2581tsamaela": 6970,
  "\u2581tshegediwa": 6971,
  "\u2581tshoga": 6972,
  "\u2581welwa": 6973,
  "der": 6974,
  "ten": 6975,
  "tle": 6976,
  "\u2581Boemo": 6977,
  "\u2581Elders": 6978,
  "\u2581Hungary": 6979,
  "\u2581Nisan": 6980,
  "\u2581Zion": 6981,
  "\u2581apaya": 6982,
  "\u2581bright": 6983,
  "\u2581dikgomo": 6984,
  "\u2581ditlhamane": 6985,
  "\u2581fault": 6986,
  "\u2581itsisiwe": 6987,
  "\u2581neele": 6988,
  "\u2581nyenya": 6989,
  "\u2581pollution": 6990,
  "\u2581sell": 6991,
  "\u2581tona": 6992,
  "\u2581utlwisiwa": 6993,
  "new": 6994,
  "red": 6995,
  "she": 6996,
  "\u2581Far": 6997,
  "\u2581Heart": 6998,
  "\u2581bereke": 6999,
  "\u2581cried": 7000,
  "\u2581dipolotiking": 7001,
  "\u2581domestic": 7002,
  "\u2581entrusted": 7003,
  "\u2581heal": 7004,
  "\u2581ikaelela": 7005,
  "\u2581itseela": 7006,
  "\u2581lema": 7007,
  "\u2581matsogo": 7008,
  "\u2581onto": 7009,
  "\u2581sekoloto": 7010,
  "\u2581thabeng": 7011,
  "\u2581thibelang": 7012,
  "\u2581tlhapi": 7013,
  "\u2581tshwarelwa": 7014,
  "\u2581utlweng": 7015,
  "\u2581virtue": 7016,
  "\u2581Food": 7017,
  "\u2581dibilione": 7018,
  "\u2581dikaelo": 7019,
  "\u2581duelang": 7020,
  "\u2581endless": 7021,
  "\u2581gobala": 7022,
  "\u2581grandparents": 7023,
  "\u2581ititeile": 7024,
  "\u2581kgatlhegelang": 7025,
  "\u2581manuscripts": 7026,
  "\u2581paletswe": 7027,
  "\u2581party": 7028,
  "\u2581presents": 7029,
  "\u2581produces": 7030,
  "\u2581t": 7031,
  "\u2581tshegofatso": 7032,
  "lefatshe": 7033,
  "tsweng": 7034,
  "\u258128]": 7035,
  "\u2581Dibaebele": 7036,
  "\u2581exciting": 7037,
  "\u2581itsiweng": 7038,
  "\u2581nonotshiwa": 7039,
  "\u2581popego": 7040,
  "\u2581solofeditseng": 7041,
  "\u2581status": 7042,
  "\u2581surrounding": 7043,
  "\u2581tragedy": 7044,
  "\u2581tsenye": 7045,
  "\u2581Babilone": 7046,
  "\u2581Close": 7047,
  "\u2581Index": 7048,
  "\u2581Meanwhile": 7049,
  "\u2581Tom": 7050,
  "\u2581aterese": 7051,
  "\u2581b": 7052,
  "\u2581diretse": 7053,
  "\u2581globe": 7054,
  "\u2581leje": 7055,
  "\u2581mentle": 7056,
  "\u2581namely": 7057,
  "\u2581sand": 7058,
  "\u2581senolwa": 7059,
  "\u2581settled": 7060,
  "\u2581suitable": 7061,
  "\u2581tent": 7062,
  "\u2581ungwa": 7063,
  "letsatsi": 7064,
  "mme": 7065,
  "pelo": 7066,
  "time": 7067,
  "\u258173": 7068,
  "\u2581Herode": 7069,
  "\u2581Likely": 7070,
  "\u2581Nisane": 7071,
  "\u2581Pi": 7072,
  "\u2581boamarure": 7073,
  "\u2581comfortable": 7074,
  "\u2581influences": 7075,
  "\u2581lebelelwa": 7076,
  "\u2581merafeng": 7077,
  "\u2581miss": 7078,
  "\u2581openly": 7079,
  "\u2581oppression": 7080,
  "\u2581temaneng": 7081,
  "\u2581\u00f1we": 7082,
  "sis": 7083,
  "\u258145.": 7084,
  "\u2581Office": 7085,
  "\u2581avoided": 7086,
  "\u2581botsalo": 7087,
  "\u2581choosing": 7088,
  "\u2581eagerly": 7089,
  "\u2581likened": 7090,
  "\u2581loapi": 7091,
  "\u2581mafatsheng": 7092,
  "\u2581minded": 7093,
  "\u2581newe": 7094,
  "\u2581post": 7095,
  "\u2581product": 7096,
  "\u2581realistic": 7097,
  "\u2581resolved": 7098,
  "\u2581shoulder": 7099,
  "pho": 7100,
  "res": 7101,
  "\u2581Ancient": 7102,
  "\u2581Hana": 7103,
  "\u2581Tila": 7104,
  "\u2581attractive": 7105,
  "\u2581batlhano": 7106,
  "\u2581discover": 7107,
  "\u2581earnestly": 7108,
  "\u2581experiencing": 7109,
  "\u2581industry": 7110,
  "\u2581mashi": 7111,
  "\u2581mmoledi": 7112,
  "\u2581native": 7113,
  "\u2581observing": 7114,
  "\u2581press": 7115,
  "\u2581remote": 7116,
  "\u2581thoromo": 7117,
  "\u2581transfusions": 7118,
  "17": 7119,
  "boidiidi": 7120,
  "rd": 7121,
  "\u2581Boikutlo": 7122,
  "\u2581Everyone": 7123,
  "\u2581Lekwalo": 7124,
  "\u2581adopt": 7125,
  "\u2581assume": 7126,
  "\u2581baitshepi": 7127,
  "\u2581boboatsatsi": 7128,
  "\u2581duties": 7129,
  "\u2581madirelo": 7130,
  "\u2581tlhomamo": 7131,
  "\u2581tshupelo": 7132,
  "\u2581typical": 7133,
  "ger": 7134,
  "ze": 7135,
  "\u2581Amazon": 7136,
  "\u2581Con": 7137,
  "\u2581Happiness": 7138,
  "\u2581Kanana": 7139,
  "\u2581araka": 7140,
  "\u2581baithaopi": 7141,
  "\u2581fled": 7142,
  "\u2581healed": 7143,
  "\u2581lacking": 7144,
  "\u2581passage": 7145,
  "\u2581pursuit": 7146,
  "\u2581rescue": 7147,
  "\u2581tlogang": 7148,
  "\u2581vain": 7149,
  "ating": 7150,
  "gela": 7151,
  "ists": 7152,
  "und": 7153,
  "\u2581(\"": 7154,
  "\u25811946": 7155,
  "\u25811989,": 7156,
  "\u2581Prov": 7157,
  "\u2581Sabata": 7158,
  "\u2581Thuso": 7159,
  "\u2581Tyndale": 7160,
  "\u2581flood": 7161,
  "\u2581increasingly": 7162,
  "\u2581masika": 7163,
  "\u2581moatlhodi": 7164,
  "\u2581nopotsweng": 7165,
  "\u2581objective": 7166,
  "\u2581strike": 7167,
  "tra": 7168,
  "\u258162": 7169,
  "\u2581Italian": 7170,
  "\u2581Maitseboa": 7171,
  "\u2581Sabbath": 7172,
  "\u2581Sone": 7173,
  "\u2581badness": 7174,
  "\u2581compromise": 7175,
  "\u2581dipaka": 7176,
  "\u2581friendships": 7177,
  "\u2581ipeela": 7178,
  "\u2581paragraph": 7179,
  "\u2581tragic": 7180,
  "ron": 7181,
  "\u2581Judas": 7182,
  "\u2581basiami": 7183,
  "\u2581batswakwa": 7184,
  "\u2581dipuong": 7185,
  "\u2581highest": 7186,
  "\u2581memories": 7187,
  "\u2581piece": 7188,
  "\u2581reetsang": 7189,
  "\u2581treasures": 7190,
  "\u2581wealthy": 7191,
  "RI": 7192,
  "lia": 7193,
  "line": 7194,
  "\u2581Legale": 7195,
  "\u2581Su": 7196,
  "\u2581anamisiwa": 7197,
  "\u2581babalesegile": 7198,
  "\u2581bomolemo": 7199,
  "\u2581conversations": 7200,
  "\u2581defend": 7201,
  "\u2581depth": 7202,
  "\u2581fifth": 7203,
  "\u2581grant": 7204,
  "\u2581moemedi": 7205,
  "\u2581phatsima": 7206,
  "\u2581sky": 7207,
  "\u2581submit": 7208,
  "RE": 7209,
  "moya": 7210,
  "per": 7211,
  "\u2581110": 7212,
  "\u2581Above": 7213,
  "\u2581Asiria": 7214,
  "\u2581Berlin": 7215,
  "\u2581DNA": 7216,
  "\u2581Motse": 7217,
  "\u2581Power": 7218,
  "\u2581governing": 7219,
  "\u2581kg": 7220,
  "\u2581kgatlhisang": 7221,
  "\u2581kwale": 7222,
  "\u2581manifested": 7223,
  "\u2581organizations": 7224,
  "\u2581sounds": 7225,
  "\u2581thoroughly": 7226,
  "\u2581weekly": 7227,
  "dy": 7228,
  "ong": 7229,
  "\u258127]": 7230,
  "\u2581Arone": 7231,
  "\u2581Fano": 7232,
  "\u2581Jah": 7233,
  "\u2581Long": 7234,
  "\u2581bareri": 7235,
  "\u2581bolokwe": 7236,
  "\u2581desired": 7237,
  "\u2581encounter": 7238,
  "\u2581fat": 7239,
  "\u2581foods": 7240,
  "\u2581milione": 7241,
  "\u2581morwarraagwe": 7242,
  "\u2581peer": 7243,
  "\u2581rendering": 7244,
  "\u2581respects": 7245,
  "ot": 7246,
  "\u2581Ex": 7247,
  "\u2581Sodom": 7248,
  "\u2581Tlhokomela": 7249,
  "\u2581armed": 7250,
  "\u2581boifisang": 7251,
  "\u2581boleletswe": 7252,
  "\u2581dikarolwana": 7253,
  "\u2581measures": 7254,
  "\u2581nwe": 7255,
  "\u2581originally": 7256,
  "\u2581represents": 7257,
  "\u2581seeds": 7258,
  "\u2581sensitive": 7259,
  "\u2581sincerely": 7260,
  "\u2581tlhagang": 7261,
  "\u2581tsietsang": 7262,
  "dinku": 7263,
  "\u2581Dipego": 7264,
  "\u2581Home": 7265,
  "\u2581Judges": 7266,
  "\u2581Matswela": 7267,
  "\u2581Research": 7268,
  "\u2581Ru": 7269,
  "\u2581adjust": 7270,
  "\u2581pelotshetlha": 7271,
  "\u2581reproach": 7272,
  "\u2581safeguard": 7273,
  "\u2581selegae": 7274,
  "\u2581shame": 7275,
  "\u2581starting": 7276,
  "\u2581taste": 7277,
  ">": 7278,
  "lelo": 7279,
  "mma": 7280,
  "\u258163": 7281,
  "\u258197": 7282,
  "\u2581Kgato": 7283,
  "\u2581Tesetamente": 7284,
  "\u2581atlholwa": 7285,
  "\u2581balela": 7286,
  "\u2581bontlhanngwe": 7287,
  "\u2581chronic": 7288,
  "\u2581ideal": 7289,
  "\u2581mantswe": 7290,
  "\u2581marriages": 7291,
  "\u2581mmitsa": 7292,
  "\u2581ntshitse": 7293,
  "\u2581pelotlhomogi": 7294,
  "\u2581pharologano": 7295,
  "\u2581rage": 7296,
  "\u2581regret": 7297,
  "\u2581setshwano": 7298,
  "\u2581stones": 7299,
  "\u2581tlhobolo": 7300,
  "\u2581tshegetsang": 7301,
  "\u2581university": 7302,
  "pu": 7303,
  "\u00e8la": 7304,
  "\u2581800": 7305,
  "\u2581Belgium": 7306,
  "\u2581Sermon": 7307,
  "\u2581arrive": 7308,
  "\u2581conducting": 7309,
  "\u2581fologa": 7310,
  "\u2581idols": 7311,
  "\u2581meantime": 7312,
  "\u2581ngomola": 7313,
  "\u2581nonyane": 7314,
  "\u2581pitse": 7315,
  "\u2581tlhatlhobiwa": 7316,
  "diwe": 7317,
  "\u2581Mogodimodimo": 7318,
  "\u2581Molaodi": 7319,
  "\u2581Tshedimosetso": 7320,
  "\u2581alcoholic": 7321,
  "\u2581feeding": 7322,
  "\u2581goats": 7323,
  "\u2581kgaotsa": 7324,
  "\u2581matlhare": 7325,
  "\u2581patelediwa": 7326,
  "\u2581setswerere": 7327,
  "\u2581strangers": 7328,
  "\u2581tlhala": 7329,
  "\u2581unknown": 7330,
  "ran": 7331,
  "\u25811947": 7332,
  "\u2581250": 7333,
  "\u2581Bethlehem": 7334,
  "\u2581Lu": 7335,
  "\u2581Mmapa": 7336,
  "\u2581dibukeng": 7337,
  "\u2581dikgong": 7338,
  "\u2581distributed": 7339,
  "\u2581dramatic": 7340,
  "\u2581iteka": 7341,
  "\u2581levels": 7342,
  "\u2581motive": 7343,
  "\u2581motseletsele": 7344,
  "\u2581senses": 7345,
  "there": 7346,
  "\u2581Dia": 7347,
  "\u2581Dipatlisiso": 7348,
  "\u2581bi": 7349,
  "\u2581bokgakala": 7350,
  "\u2581equipment": 7351,
  "\u2581humile": 7352,
  "\u2581itshupile": 7353,
  "\u2581kgo": 7354,
  "\u2581letsholo": 7355,
  "\u2581nthusitse": 7356,
  "\u2581shape": 7357,
  "day": 7358,
  "\u2581(19": 7359,
  "\u258132,": 7360,
  "\u2581Joh": 7361,
  "\u2581Joy": 7362,
  "\u2581Simon": 7363,
  "\u2581bidio": 7364,
  "\u2581bogare": 7365,
  "\u2581continuing": 7366,
  "\u2581disobedience": 7367,
  "\u2581lady": 7368,
  "\u2581lion": 7369,
  "\u2581reduced": 7370,
  "\u2581scribes": 7371,
  "\u2581stage": 7372,
  "\u2581tsosolosa": 7373,
  "Dilo": 7374,
  "\u2581Ezra": 7375,
  "\u2581Jersey": 7376,
  "\u2581Modisa": 7377,
  "\u2581Molaomotheo": 7378,
  "\u2581Numbers": 7379,
  "\u2581bird": 7380,
  "\u2581bomorwarraagwe": 7381,
  "\u2581catch": 7382,
  "\u2581minor": 7383,
  "\u2581namolo": 7384,
  "\u2581outset": 7385,
  "\u2581phatsimang": 7386,
  "\u2581sirelediwa": 7387,
  "IN": 7388,
  "om": 7389,
  "\u25810": 7390,
  "\u25811944": 7391,
  "\u258133,": 7392,
  "\u2581Amos": 7393,
  "\u2581Jos\u00e9": 7394,
  "\u2581Published": 7395,
  "\u2581errors": 7396,
  "\u2581farologanya": 7397,
  "\u2581festival": 7398,
  "\u2581fulfilling": 7399,
  "\u2581helper": 7400,
  "\u2581tlhoa": 7401,
  "\u2581tshwanelegang": 7402,
  "\u2581unexpected": 7403,
  "letseng": 7404,
  "\u2581Education": 7405,
  "\u2581Molaetsa": 7406,
  "\u2581apparent": 7407,
  "\u2581borataro": 7408,
  "\u2581cloud": 7409,
  "\u2581con": 7410,
  "\u2581dirisane": 7411,
  "\u2581diriseng": 7412,
  "\u2581ditlhaloso": 7413,
  "\u2581kgotlhang": 7414,
  "\u2581loneliness": 7415,
  "\u2581positions": 7416,
  "\u2581rewards": 7417,
  "\u2581risks": 7418,
  "\u2581sayings": 7419,
  "\u2581temper": 7420,
  "\u2581willingness": 7421,
  "let": 7422,
  "\u25811942": 7423,
  "\u2581Assembly": 7424,
  "\u2581adjustments": 7425,
  "\u2581babies": 7426,
  "\u2581earn": 7427,
  "\u2581initial": 7428,
  "\u2581leretse": 7429,
  "\u2581otlhaiwa": 7430,
  "\u2581owner": 7431,
  "\u2581reflects": 7432,
  "\u2581sing": 7433,
  "\u2581valid": 7434,
  "SE": 7435,
  "fu": 7436,
  "\u2581Live": 7437,
  "\u2581Ntlo": 7438,
  "\u2581attracted": 7439,
  "\u2581exile": 7440,
  "\u2581molemeng": 7441,
  "\u2581permitted": 7442,
  "\u2581supposed": 7443,
  "\u2581tsholetsa": 7444,
  "ex": 7445,
  "\u2581Athens": 7446,
  "\u2581Daily": 7447,
  "\u2581Molaodimogolo": 7448,
  "\u2581Naya": 7449,
  "\u2581Siria": 7450,
  "\u2581afford": 7451,
  "\u2581ashamed": 7452,
  "\u2581atametse": 7453,
  "\u2581bakiwang": 7454,
  "\u2581commented": 7455,
  "\u2581fisa": 7456,
  "\u2581follows": 7457,
  "\u2581latofadiwa": 7458,
  "\u2581motsemogolo": 7459,
  "\u2581reasoned": 7460,
  "\u2581route": 7461,
  "\u2581strongly": 7462,
  "\u2581thapelong": 7463,
  "\u2581thubega": 7464,
  "\u2581warnings": 7465,
  "Happy": 7466,
  "cy": 7467,
  "ov": 7468,
  "\u2581Canaan": 7469,
  "\u2581Molaong": 7470,
  "\u2581Religious": 7471,
  "\u2581Self": 7472,
  "\u2581expectation": 7473,
  "\u2581infant": 7474,
  "\u2581matlotlo": 7475,
  "\u2581mothusi": 7476,
  "\u2581nyalane": 7477,
  "\u2581practicing": 7478,
  "\u2581survivors": 7479,
  "\u2581wheat": 7480,
  "\u2581zealously": 7481,
  "\u25811951": 7482,
  "\u25812013": 7483,
  "\u2581Dikopano": 7484,
  "\u2581Dit": 7485,
  "\u2581Susan": 7486,
  "\u2581Tsone": 7487,
  "\u2581WHEN": 7488,
  "\u2581anti": 7489,
  "\u2581builweng": 7490,
  "\u2581dikebekwa": 7491,
  "\u2581diphatsa": 7492,
  "\u2581emetse": 7493,
  "\u2581honesty": 7494,
  "\u2581kaele": 7495,
  "\u2581maitsholo": 7496,
  "\u2581makgwafo": 7497,
  "\u2581op\u00e8": 7498,
  "\u2581perfectly": 7499,
  "\u2581publisher": 7500,
  "\u2581rapidly": 7501,
  "\u2581rid": 7502,
  "\u2581segolwane": 7503,
  "\u2581setshedi": 7504,
  "\u2581tabernacle": 7505,
  "\u2581tshwaretswe": 7506,
  "bone": 7507,
  "\u2581Banasi": 7508,
  "\u2581Barnabas": 7509,
  "\u2581Potso": 7510,
  "\u2581Seed": 7511,
  "\u2581Siameng": 7512,
  "\u2581arabiwa": 7513,
  "\u2581flowers": 7514,
  "\u2581ignored": 7515,
  "\u2581kamoreng": 7516,
  "\u2581lift": 7517,
  "\u2581maintained": 7518,
  "\u2581nnetse": 7519,
  "\u2581recognition": 7520,
  "\u2581taboga": 7521,
  "ical": 7522,
  "ji": 7523,
  "ny": 7524,
  "\u2581Atlantic": 7525,
  "\u2581Karen": 7526,
  "\u2581Peresia": 7527,
  "\u2581Studies": 7528,
  "\u2581asleep": 7529,
  "\u2581borre": 7530,
  "\u2581bowena": 7531,
  "\u2581declaration": 7532,
  "\u2581dintsho": 7533,
  "\u2581ditshupo": 7534,
  "\u2581gagabo": 7535,
  "\u2581itsalanya": 7536,
  "\u2581lotshitshing": 7537,
  "\u2581reminders": 7538,
  "\u2581tlhakatlhakano": 7539,
  "ology": 7540,
  "\u2581Against": 7541,
  "\u2581Josia": 7542,
  "\u2581Ruler": 7543,
  "\u2581advanced": 7544,
  "\u2581firstborn": 7545,
  "\u2581ikuela": 7546,
  "\u2581judged": 7547,
  "\u2581lifetime": 7548,
  "\u2581mabakeng": 7549,
  "\u2581masomesome": 7550,
  "\u2581melelwane": 7551,
  "\u2581mosi": 7552,
  "\u2581obstacles": 7553,
  "\u2581roof": 7554,
  "\u2581sorrow": 7555,
  "\u2581tropical": 7556,
  "\u2581tsuologa": 7557,
  "ditswe": 7558,
  "je": 7559,
  "\u25811958": 7560,
  "\u258168": 7561,
  "\u2581Amose": 7562,
  "\u2581Dutch": 7563,
  "\u2581Esethere": 7564,
  "\u2581Habakkuk": 7565,
  "\u2581Real": 7566,
  "\u2581Search": 7567,
  "\u2581amanya": 7568,
  "\u2581babadi": 7569,
  "\u2581cooperation": 7570,
  "\u2581diatleng": 7571,
  "\u2581dipodi": 7572,
  "\u2581doubts": 7573,
  "\u2581du": 7574,
  "\u2581echo": 7575,
  "\u2581engaging": 7576,
  "\u2581extraordinary": 7577,
  "\u2581gararo": 7578,
  "\u2581ithata": 7579,
  "\u2581leleka": 7580,
  "\u2581loud": 7581,
  "\u2581overwhelming": 7582,
  "\u2581refreshment": 7583,
  "\u2581tl\u00e8": 7584,
  "\u2581traffic": 7585,
  "\u2581tshwanelega": 7586,
  "Lokwalodikgang": 7587,
  "\u2581139": 7588,
  "\u258186": 7589,
  "\u2581Baengele": 7590,
  "\u2581Jew": 7591,
  "\u2581Mmatota": 7592,
  "\u2581Mozambique": 7593,
  "\u2581Ohio": 7594,
  "\u2581appealing": 7595,
  "\u2581billions": 7596,
  "\u2581botsofe": 7597,
  "\u2581chemical": 7598,
  "\u2581deaths": 7599,
  "\u2581fair": 7600,
  "\u2581opinions": 7601,
  "\u2581sides": 7602,
  "\u2581somewhat": 7603,
  "\u2581supporting": 7604,
  "\u2581tlhomamisege": 7605,
  "other": 7606,
  "\u258143.": 7607,
  "\u2581Ever": 7608,
  "\u2581HAVE": 7609,
  "\u2581Ki": 7610,
  "\u2581abusive": 7611,
  "\u2581generations": 7612,
  "\u2581handling": 7613,
  "\u2581hardships": 7614,
  "\u2581horse": 7615,
  "\u2581intimate": 7616,
  "\u2581merogo": 7617,
  "\u2581nyetsweng": 7618,
  "\u2581phirima": 7619,
  "\u2581tempered": 7620,
  "\u2581tlhago": 7621,
  "\u2581uphold": 7622,
  "\u25811989": 7623,
  "\u2581Habakuke": 7624,
  "\u2581extensive": 7625,
  "\u2581kingdoms": 7626,
  "\u2581loga": 7627,
  "\u2581makhubu": 7628,
  "\u2581marataro": 7629,
  "\u2581meditation": 7630,
  "\u2581nabo": 7631,
  "\u2581parental": 7632,
  "\u2581patriarch": 7633,
  "\u2581peaceable": 7634,
  "\u2581permit": 7635,
  "\u2581refugees": 7636,
  "\u2581rekisiwa": 7637,
  "\u2581snow": 7638,
  "\u2581supiwa": 7639,
  "\u25811948": 7640,
  "\u2581Josiah": 7641,
  "\u2581Lewatleng": 7642,
  "\u2581arose": 7643,
  "\u2581boiteko": 7644,
  "\u2581deadly": 7645,
  "\u2581dinaka": 7646,
  "\u2581fele": 7647,
  "\u2581immortality": 7648,
  "\u2581molomong": 7649,
  "\u2581neglect": 7650,
  "\u2581rebellious": 7651,
  "\u2581replace": 7652,
  "\u2581soldier": 7653,
  "lelang": 7654,
  "\u25811953": 7655,
  "\u258132]": 7656,
  "\u2581Car": 7657,
  "\u2581Especially": 7658,
  "\u2581Motlhanka": 7659,
  "\u2581baakanngwa": 7660,
  "\u2581ditlhako": 7661,
  "\u2581gaining": 7662,
  "\u2581kgotsofalela": 7663,
  "\u2581offerings": 7664,
  "\u2581overwhelmed": 7665,
  "\u2581spreading": 7666,
  "\u2581sweng": 7667,
  "lwang": 7668,
  "\u25811938": 7669,
  "\u2581Baeteledipele": 7670,
  "\u2581Dibuka": 7671,
  "\u2581belongings": 7672,
  "\u2581blue": 7673,
  "\u2581cooperate": 7674,
  "\u2581grass": 7675,
  "\u2581ikokobeditseng": 7676,
  "\u2581mojeng": 7677,
  "\u2581outcry": 7678,
  "\u2581taxes": 7679,
  "sen": 7680,
  "\u2581Consequently": 7681,
  "\u2581Judase": 7682,
  "\u2581Mr": 7683,
  "\u2581badly": 7684,
  "\u2581borona": 7685,
  "\u2581continually": 7686,
  "\u2581devastating": 7687,
  "\u2581frustration": 7688,
  "\u2581ganetsana": 7689,
  "\u2581hoping": 7690,
  "\u2581improved": 7691,
  "\u2581kgomo": 7692,
  "\u2581lekgoba": 7693,
  "\u2581lonely": 7694,
  "\u2581nnele": 7695,
  "\u2581pounds": 7696,
  "\u2581reserved": 7697,
  "\u2581seaka": 7698,
  "\u2581shine": 7699,
  "\u2581steal": 7700,
  "\u2581unbeliev": 7701,
  "letsa": 7702,
  "\u25811955": 7703,
  "\u2581Codex": 7704,
  "\u2581Elihu": 7705,
  "\u2581Judaism": 7706,
  "\u2581Moreneng": 7707,
  "\u2581amanngwa": 7708,
  "\u2581atlegileng": 7709,
  "\u2581base": 7710,
  "\u2581cease": 7711,
  "\u2581classes": 7712,
  "\u2581delegates": 7713,
  "\u2581ditlolo": 7714,
  "\u2581duty": 7715,
  "\u2581earnest": 7716,
  "\u2581gas": 7717,
  "\u2581immune": 7718,
  "\u2581itshwarelwa": 7719,
  "\u2581meals": 7720,
  "\u2581prime": 7721,
  "\u2581settle": 7722,
  "\u2581tima": 7723,
  "Ruri": 7724,
  "good": 7725,
  "mogolo": 7726,
  "sch": 7727,
  "\u25811960": 7728,
  "\u2581Barenabase": 7729,
  "\u2581Da": 7730,
  "\u2581Faithful": 7731,
  "\u2581Happily": 7732,
  "\u2581Je": 7733,
  "\u2581Knowledge": 7734,
  "\u2581Lesedi": 7735,
  "\u2581Sodoma": 7736,
  "\u2581branches": 7737,
  "\u2581cultural": 7738,
  "\u2581deserve": 7739,
  "\u2581ditirelo": 7740,
  "\u2581enduring": 7741,
  "\u2581explaining": 7742,
  "\u2581kolobediwe": 7743,
  "\u2581masaitseweng": 7744,
  "\u2581matlhotlhapelo": 7745,
  "\u2581promotes": 7746,
  "\u2581roads": 7747,
  "\u2581villages": 7748,
  "ld": 7749,
  "\u2581104": 7750,
  "\u25811952": 7751,
  "\u258157": 7752,
  "\u2581Indian": 7753,
  "\u2581adding": 7754,
  "\u2581bosaengkae": 7755,
  "\u2581bow": 7756,
  "\u2581comparison": 7757,
  "\u2581dibaesekopo": 7758,
  "\u2581dithutong": 7759,
  "\u2581dula": 7760,
  "\u2581esteem": 7761,
  "\u2581flight": 7762,
  "\u2581independence": 7763,
  "\u2581itshokele": 7764,
  "\u2581laolwang": 7765,
  "\u2581planning": 7766,
  "\u2581requirement": 7767,
  "\u2581rure": 7768,
  "\u2581seemingly": 7769,
  "\u2581swelwa": 7770,
  "\u2581tsereng": 7771,
  "\u2581tshekamelo": 7772,
  "\u2581valley": 7773,
  "disfellowshipped": 7774,
  "nna": 7775,
  "\u2581Ar": 7776,
  "\u2581Mosetsana": 7777,
  "\u2581Supreme": 7778,
  "\u2581bogosing": 7779,
  "\u2581fed": 7780,
  "\u2581gololesega": 7781,
  "\u2581grows": 7782,
  "\u2581highlight": 7783,
  "\u2581hurtful": 7784,
  "\u2581largely": 7785,
  "\u2581pope": 7786,
  "\u2581proclaimed": 7787,
  "\u2581raelesega": 7788,
  "istic": 7789,
  "\u2581Moperesiti": 7790,
  "\u2581Post": 7791,
  "\u2581Theocratic": 7792,
  "\u2581Volume": 7793,
  "\u2581abo": 7794,
  "\u2581anaanelang": 7795,
  "\u2581attempts": 7796,
  "\u2581flow": 7797,
  "\u2581lorole": 7798,
  "\u2581mokgweetsi": 7799,
  "\u2581namane": 7800,
  "\u2581pampitshana": 7801,
  "\u2581pregnancy": 7802,
  "\u2581sharp": 7803,
  "\u2581thibetswe": 7804,
  "50": 7805,
  "\u2581Joredane": 7806,
  "\u2581Knowing": 7807,
  "\u2581Nebuchadnezzar": 7808,
  "\u2581Press": 7809,
  "\u2581bottom": 7810,
  "\u2581cycle": 7811,
  "\u2581favorite": 7812,
  "\u2581kgotsofalo": 7813,
  "\u2581latelwa": 7814,
  "\u2581obeyed": 7815,
  "\u2581thrilling": 7816,
  "pele": 7817,
  "\u2581Sekaseka": 7818,
  "\u2581Yearbook": 7819,
  "\u2581banned": 7820,
  "\u2581digakolodi": 7821,
  "\u2581dithoromo": 7822,
  "\u2581edition": 7823,
  "\u2581emphasized": 7824,
  "\u2581fetela": 7825,
  "\u2581fiery": 7826,
  "\u2581lookwane": 7827,
  "\u2581mentally": 7828,
  "\u2581rarabololwa": 7829,
  "\u2581tlo": 7830,
  "\u2581towns": 7831,
  "\u2581tsenyang": 7832,
  "\u2581urgent": 7833,
  "MA": 7834,
  "proving": 7835,
  "\u2581SETLHOGO": 7836,
  "\u2581Samaritan": 7837,
  "\u2581defined": 7838,
  "\u2581dikatlholo": 7839,
  "\u2581favorable": 7840,
  "\u2581fedise": 7841,
  "\u2581gossip": 7842,
  "\u2581korong": 7843,
  "\u2581lefokong": 7844,
  "\u2581mainly": 7845,
  "\u2581modikologo": 7846,
  "\u2581poresidente": 7847,
  "\u2581rarely": 7848,
  "\u2581stream": 7849,
  "\u2581tlhagisang": 7850,
  "\u2581transfusion": 7851,
  "\u2581utlwane": 7852,
  "ide": 7853,
  "l\u00e8": 7854,
  "\u25811975": 7855,
  "\u258198": 7856,
  "\u2581Botshelong": 7857,
  "\u2581Papa": 7858,
  "\u2581Pe": 7859,
  "\u2581Persian": 7860,
  "\u2581Turkey": 7861,
  "\u2581Yakobe": 7862,
  "\u2581amounts": 7863,
  "\u2581bopile": 7864,
  "\u2581code": 7865,
  "\u2581damaged": 7866,
  "\u2581doctrines": 7867,
  "\u2581emang": 7868,
  "\u2581fete": 7869,
  "\u2581garments": 7870,
  "\u2581kgaoganngwa": 7871,
  "\u2581kgatlhwa": 7872,
  "\u2581loose": 7873,
  "\u2581mopapa": 7874,
  "\u2581ships": 7875,
  "\u2581strict": 7876,
  "\u2581wediwa": 7877,
  "ag": 7878,
  "\u2581Lake": 7879,
  "\u2581Moiseraele": 7880,
  "\u2581Scientists": 7881,
  "\u2581bears": 7882,
  "\u2581begwa": 7883,
  "\u2581bosi": 7884,
  "\u2581courageously": 7885,
  "\u2581distinguish": 7886,
  "\u2581felele": 7887,
  "\u2581hates": 7888,
  "\u2581ikwatlhaela": 7889,
  "\u2581leokwane": 7890,
  "\u2581mesifa": 7891,
  "\u2581poifomodimo": 7892,
  "\u2581smaller": 7893,
  "\u2581thereby": 7894,
  "\u2581trustworthy": 7895,
  "\u2581tsofetse": 7896,
  "kgapetsakgapetsa": 7897,
  "mela": 7898,
  "ure": 7899,
  "\u2581'!": 7900,
  "\u25811983": 7901,
  "\u2581Athena": 7902,
  "\u2581Bogare": 7903,
  "\u2581Ge": 7904,
  "\u2581crying": 7905,
  "\u2581diligent": 7906,
  "\u2581disappointed": 7907,
  "\u2581flying": 7908,
  "\u2581judgments": 7909,
  "\u2581mosetsanyana": 7910,
  "\u2581namagadi": 7911,
  "\u2581ordinary": 7912,
  "\u2581priority": 7913,
  "\u2581receives": 7914,
  "\u2581tlhabana": 7915,
  "\u2581tremendous": 7916,
  "nia": 7917,
  "now": 7918,
  "\u2581Drama": 7919,
  "\u2581Egyptians": 7920,
  "\u2581Obviously": 7921,
  "\u2581Plato": 7922,
  "\u2581Po": 7923,
  "\u2581Sydney": 7924,
  "\u2581actual": 7925,
  "\u2581assemblies": 7926,
  "\u2581diretsweng": 7927,
  "\u2581eta": 7928,
  "\u2581falling": 7929,
  "\u2581maru": 7930,
  "\u2581pelotshweu": 7931,
  "\u2581qualify": 7932,
  "\u2581rivers": 7933,
  "\u2581tsosang": 7934,
  "\u2581viewing": 7935,
  "\u2581weigh": 7936,
  "\u2581widows": 7937,
  "\u2581wishes": 7938,
  "\u2581AWAKE": 7939,
  "\u2581Become": 7940,
  "\u2581Bolumo": 7941,
  "\u2581Future": 7942,
  "\u2581Maiteko": 7943,
  "\u2581Maratha": 7944,
  "\u2581bomo": 7945,
  "\u2581confirmed": 7946,
  "\u2581expose": 7947,
  "\u2581loyally": 7948,
  "\u2581neutral": 7949,
  "\u2581sweet": 7950,
  "\u2581tlogelwa": 7951,
  "nte": 7952,
  "phi": 7953,
  "\u25811922": 7954,
  "\u2581Fe": 7955,
  "\u2581Tshwanetseng": 7956,
  "\u2581addiction": 7957,
  "\u2581consist": 7958,
  "\u2581ditlhaketlhake": 7959,
  "\u2581drop": 7960,
  "\u2581ease": 7961,
  "\u2581falls": 7962,
  "\u2581founded": 7963,
  "\u2581function": 7964,
  "\u2581illustrates": 7965,
  "\u2581tlhaelang": 7966,
  "\u2581tlhophe": 7967,
  "\u2581tools": 7968,
  "\u2581tshoganetso": 7969,
  "60": 7970,
  "fela": 7971,
  "\u2581Diphetogo": 7972,
  "\u2581Gileate": 7973,
  "\u2581Ni": 7974,
  "\u2581baperofeti": 7975,
  "\u2581bontshitswe": 7976,
  "\u2581conquered": 7977,
  "\u2581ditlhobaelo": 7978,
  "\u2581farmers": 7979,
  "\u2581leroborobo": 7980,
  "\u2581pleasures": 7981,
  "\u2581ponatshegelong": 7982,
  "\u2581proves": 7983,
  "\u2581raea": 7984,
  "\u2581rare": 7985,
  "\u2581section": 7986,
  "\u2581sep\u00e8": 7987,
  "\u2581swang": 7988,
  "\u2581umakiwang": 7989,
  "\u2581Bethelehema": 7990,
  "\u2581Ghana": 7991,
  "\u2581broad": 7992,
  "\u2581dinoka": 7993,
  "\u2581filling": 7994,
  "\u2581formerly": 7995,
  "\u2581gakgametse": 7996,
  "\u2581incident": 7997,
  "\u2581kgaola": 7998,
  "\u2581morwaake": 7999,
  "\u2581paths": 8000,
  "\u2581priesthood": 8001,
  "\u2581restoration": 8002,
  "\u2581sudden": 8003,
  "\u2581tlwaelana": 8004,
  "\u2581whenever": 8005,
  "ations": 8006,
  "ize": 8007,
  "\u2581Kgololesego": 8008,
  "\u2581TSOGA": 8009,
  "\u2581Tsamaya": 8010,
  "\u2581Words": 8011,
  "\u2581accurately": 8012,
  "\u2581border": 8013,
  "\u2581deny": 8014,
  "\u2581earthquakes": 8015,
  "\u2581feast": 8016,
  "\u2581itumedisiwa": 8017,
  "\u2581saving": 8018,
  "\u2581seipato": 8019,
  "\u2581slowly": 8020,
  "\u2581specifically": 8021,
  "\u2581teens": 8022,
  "\u2581transmitted": 8023,
  "\u2581tsholwe": 8024,
  "Z": 8025,
  "mon": 8026,
  "ow": 8027,
  "was": 8028,
  "\u25811931": 8029,
  "\u2581Amogela": 8030,
  "\u2581Jerome": 8031,
  "\u2581Mofuta": 8032,
  "\u2581NASA": 8033,
  "\u2581Pilato": 8034,
  "\u2581Valley": 8035,
  "\u2581abroad": 8036,
  "\u2581aloga": 8037,
  "\u2581arabe": 8038,
  "\u2581arrest": 8039,
  "\u2581boikgodiso": 8040,
  "\u2581creating": 8041,
  "\u2581creative": 8042,
  "\u2581cultivating": 8043,
  "\u2581khumanego": 8044,
  "\u2581kids": 8045,
  "\u2581mosimanyana": 8046,
  "\u2581tebelelo": 8047,
  "\u2581tons": 8048,
  "\u2581virus": 8049,
  "\u2581wearing": 8050,
  "letse": 8051,
  "\u2581Actually": 8052,
  "\u2581Du": 8053,
  "\u2581consult": 8054,
  "\u2581desert": 8055,
  "\u2581ditoropo": 8056,
  "\u2581emperor": 8057,
  "\u2581filweng": 8058,
  "\u2581insects": 8059,
  "\u2581itlhoboga": 8060,
  "\u2581ma\u00f1": 8061,
  "\u2581prior": 8062,
  "\u2581productive": 8063,
  "\u2581thrilled": 8064,
  "\u2581tshabe": 8065,
  "\u2581tshepo": 8066,
  "gang": 8067,
  "up": 8068,
  "\u2581Levites": 8069,
  "\u2581Tlhoka": 8070,
  "\u2581[\"": 8071,
  "\u2581baitlami": 8072,
  "\u2581bojang": 8073,
  "\u2581detailed": 8074,
  "\u2581forgotten": 8075,
  "\u2581ganetsang": 8076,
  "\u2581independent": 8077,
  "\u2581preparation": 8078,
  "\u2581priorities": 8079,
  "\u2581rapid": 8080,
  "\u2581tlhomileng": 8081,
  "\u2581tokololo": 8082,
  "ach": 8083,
  "they": 8084,
  "tlo": 8085,
  "\u258195": 8086,
  "\u2581Gu": 8087,
  "\u2581Set\u0161haba": 8088,
  "\u2581gakololwa": 8089,
  "\u2581hypocrisy": 8090,
  "\u2581ipolelela": 8091,
  "\u2581khampani": 8092,
  "\u2581lebeletswe": 8093,
  "\u2581mesha": 8094,
  "\u2581movies": 8095,
  "\u2581porofesa": 8096,
  "\u2581roots": 8097,
  "\u2581se\u00f1": 8098,
  "14": 8099,
  "AN": 8100,
  "Morena": 8101,
  "\u2581130": 8102,
  "\u2581Baruti": 8103,
  "\u2581Blood": 8104,
  "\u2581Louis": 8105,
  "\u2581Mu": 8106,
  "\u2581aim": 8107,
  "\u2581clay": 8108,
  "\u2581gane": 8109,
  "\u2581kgotsofetse": 8110,
  "\u2581latlhegelwe": 8111,
  "\u2581manage": 8112,
  "\u2581megopolong": 8113,
  "\u2581modesty": 8114,
  "\u2581stumble": 8115,
  "\u2581tsewe": 8116,
  "\u2581womb": 8117,
  "dira": 8118,
  "\u25811949": 8119,
  "\u258141.": 8120,
  "\u2581Moengele": 8121,
  "\u2581Shepherd": 8122,
  "\u2581Watching": 8123,
  "\u2581advancement": 8124,
  "\u2581batsading": 8125,
  "\u2581breaking": 8126,
  "\u2581dikilogerama": 8127,
  "\u2581document": 8128,
  "\u2581driver": 8129,
  "\u2581joyfully": 8130,
  "\u2581mokgweleo": 8131,
  "\u2581normally": 8132,
  "\u2581pity": 8133,
  "\u2581sepitla": 8134,
  "\u2581smile": 8135,
  "Jaanong": 8136,
  "Seno": 8137,
  "ung": 8138,
  "\u258169": 8139,
  "\u2581Baptist": 8140,
  "\u2581Kgona": 8141,
  "\u2581Language": 8142,
  "\u2581Nebukadenesare": 8143,
  "\u2581Pro": 8144,
  "\u2581Teacher": 8145,
  "\u2581Tokyo": 8146,
  "\u2581akareletsa": 8147,
  "\u2581costs": 8148,
  "\u2581fedile": 8149,
  "\u2581fetse": 8150,
  "\u2581lapa": 8151,
  "\u2581rose": 8152,
  "\u2581tract": 8153,
  "\u2581tshwanelege": 8154,
  "ions": 8155,
  "\u2581Australian": 8156,
  "\u2581Baporotesetanta": 8157,
  "\u2581Light": 8158,
  "\u2581Thero": 8159,
  "\u2581Yugoslavia": 8160,
  "\u2581alongside": 8161,
  "\u2581decade": 8162,
  "\u2581enjoyable": 8163,
  "\u2581exercised": 8164,
  "\u2581funeral": 8165,
  "\u2581gopotse": 8166,
  "\u2581managed": 8167,
  "\u2581naturally": 8168,
  "\u2581phemelo": 8169,
  "\u2581resurrect": 8170,
  "\u2581shield": 8171,
  "\u2581tlhagelela": 8172,
  "\u2581tlhomang": 8173,
  "\u2581tshwarega": 8174,
  "\u25811974": 8175,
  "\u2581Control": 8176,
  "\u2581Freedom": 8177,
  "\u2581Heb": 8178,
  "\u2581Islands": 8179,
  "\u2581Tlhogo": 8180,
  "\u2581associations": 8181,
  "\u2581crown": 8182,
  "\u2581everyday": 8183,
  "\u2581morality": 8184,
  "\u2581promoted": 8185,
  "\u2581rape": 8186,
  "\u2581resentment": 8187,
  "\u2581rulagantswe": 8188,
  "\u2581sites": 8189,
  "\u2581tlhalositsweng": 8190,
  "\u2581urgency": 8191,
  "\u2581Park": 8192,
  "\u2581Rachel": 8193,
  "\u2581Segopotsong": 8194,
  "\u2581Sentle": 8195,
  "\u2581Wall": 8196,
  "\u2581alafiwa": 8197,
  "\u2581apostate": 8198,
  "\u2581arrange": 8199,
  "\u2581awe": 8200,
  "\u2581believer": 8201,
  "\u2581dibidio": 8202,
  "\u2581dikgetsi": 8203,
  "\u2581fixed": 8204,
  "\u2581greedy": 8205,
  "\u2581latelana": 8206,
  "\u2581moagi": 8207,
  "\u2581preachers": 8208,
  "\u2581rulaganngwa": 8209,
  "\u2581sekaenyana": 8210,
  "\u2581tshwarwang": 8211,
  "\u2581upper": 8212,
  "thi": 8213,
  "\u2581Moeteledipele": 8214,
  "\u2581arm": 8215,
  "\u2581boobabedi": 8216,
  "\u2581centered": 8217,
  "\u2581dikgatelelo": 8218,
  "\u2581dumalaneng": 8219,
  "\u2581filosofi": 8220,
  "\u2581householder": 8221,
  "\u2581ipolelang": 8222,
  "\u2581matshosetsi": 8223,
  "\u2581selling": 8224,
  "\u2581span": 8225,
  "\u2581striking": 8226,
  "\u2581tsentswe": 8227,
  "\u2581vessels": 8228,
  "\u25ab": 8229,
  "gra": 8230,
  "put": 8231,
  "\u2581Bad": 8232,
  "\u2581DO": 8233,
  "\u2581Saturday": 8234,
  "\u2581angelic": 8235,
  "\u2581baesekele": 8236,
  "\u2581contribution": 8237,
  "\u2581fuel": 8238,
  "\u2581funds": 8239,
  "\u2581kopanngwa": 8240,
  "\u2581lekoko": 8241,
  "\u2581lonaka": 8242,
  "\u2581mophato": 8243,
  "\u2581pro": 8244,
  "\u2581regards": 8245,
  "\u2581round": 8246,
  "etsa": 8247,
  "\u2581Calvin": 8248,
  "\u2581Koo": 8249,
  "\u2581Masole": 8250,
  "\u2581bokgobeng": 8251,
  "\u2581bolokiwa": 8252,
  "\u2581connected": 8253,
  "\u2581ditone": 8254,
  "\u2581fever": 8255,
  "\u2581fierce": 8256,
  "\u2581ikarabelela": 8257,
  "\u2581ithaopa": 8258,
  "\u2581kgotsofala": 8259,
  "\u2581kitsong": 8260,
  "\u2581mela": 8261,
  "\u2581miraculously": 8262,
  "\u2581oldest": 8263,
  "\u2581physician": 8264,
  "\u2581resident": 8265,
  "\u2581stating": 8266,
  "Now": 8267,
  "ial": 8268,
  "\u258159": 8269,
  "\u2581Gideon": 8270,
  "\u2581Morutisi": 8271,
  "\u2581absolutely": 8272,
  "\u2581criticism": 8273,
  "\u2581crushed": 8274,
  "\u2581fisiwa": 8275,
  "\u2581fitlhegileng": 8276,
  "\u2581guarantee": 8277,
  "\u2581kga": 8278,
  "\u2581kgaratlhela": 8279,
  "\u2581legs": 8280,
  "\u2581maturity": 8281,
  "\u2581mentions": 8282,
  "\u2581mosiami": 8283,
  "\u2581motlhware": 8284,
  "\u2581noise": 8285,
  "\u2581oketsegile": 8286,
  "\u2581pursuits": 8287,
  "\u2581sebui": 8288,
  "\u2581sorry": 8289,
  "\u2581tlhakanya": 8290,
  "\u2581tlhaselo": 8291,
  "\u2581tlhomamise": 8292,
  "\u2581transferred": 8293,
  "\u2581tshwaiwa": 8294,
  "\u2581unfaithful": 8295,
  "em": 8296,
  "\u25811984": 8297,
  "\u2581GOD": 8298,
  "\u2581Isagwe": 8299,
  "\u2581JAAKA": 8300,
  "\u2581Thailand": 8301,
  "\u2581bapa": 8302,
  "\u2581bolokile": 8303,
  "\u2581communities": 8304,
  "\u2581containing": 8305,
  "\u2581dikgwebo": 8306,
  "\u2581disappointment": 8307,
  "\u2581ditshika": 8308,
  "\u2581ikgolaganye": 8309,
  "\u2581iphe": 8310,
  "\u2581magnificent": 8311,
  "\u2581repair": 8312,
  "\u2581safely": 8313,
  "\u2581simolotseng": 8314,
  "\u2581thibele": 8315,
  "\u2581toro": 8316,
  "\u2581wings": 8317,
  ");": 8318,
  "?...": 8319,
  "kela": 8320,
  "nta": 8321,
  "\u2581Afterward": 8322,
  "\u2581Evening": 8323,
  "\u2581Rose": 8324,
  "\u2581associating": 8325,
  "\u2581ate": 8326,
  "\u2581baitse": 8327,
  "\u2581bit": 8328,
  "\u2581correction": 8329,
  "\u2581crops": 8330,
  "\u2581duele": 8331,
  "\u2581emelang": 8332,
  "\u2581gang": 8333,
  "\u2581height": 8334,
  "\u2581kapoko": 8335,
  "\u2581kgoreletsang": 8336,
  "\u2581kokelong": 8337,
  "\u2581mpontsha": 8338,
  "\u2581tlhomogela": 8339,
  "\u2581wash": 8340,
  "\u2581waves": 8341,
  "%": 8342,
  "\u2581Bi": 8343,
  "\u2581Galalea": 8344,
  "\u2581Modiri": 8345,
  "\u2581M\u014dea": 8346,
  "\u2581Sekete": 8347,
  "\u2581breast": 8348,
  "\u2581combined": 8349,
  "\u2581ditlhagiso": 8350,
  "\u2581dutse": 8351,
  "\u2581makoko": 8352,
  "\u2581maotwana": 8353,
  "\u2581molelong": 8354,
  "\u2581nakonyana": 8355,
  "\u2581ruileng": 8356,
  "\u2581stressed": 8357,
  "\u2581utlwana": 8358,
  "\u2581vow": 8359,
  "tz": 8360,
  "\u2581Albania": 8361,
  "\u2581BOTSHELO": 8362,
  "\u2581Cape": 8363,
  "\u2581Golden": 8364,
  "\u2581Hi": 8365,
  "\u2581Hisitori": 8366,
  "\u2581Kotsi": 8367,
  "\u2581Mangwe": 8368,
  "\u2581amazed": 8369,
  "\u2581ditlhogong": 8370,
  "\u2581expects": 8371,
  "\u2581ganang": 8372,
  "\u2581happily": 8373,
  "\u2581loaping": 8374,
  "\u2581metshamekong": 8375,
  "\u2581representatives": 8376,
  "\u2581thelebisheneng": 8377,
  "\u2581unwise": 8378,
  "\u2581version": 8379,
  "bo\u00f1": 8380,
  "fer": 8381,
  "\u2581Arthur": 8382,
  "\u2581Bababelona": 8383,
  "\u2581Malawi": 8384,
  "\u2581alternative": 8385,
  "\u2581baranodi": 8386,
  "\u2581dikgoro": 8387,
  "\u2581jokwe": 8388,
  "\u2581online": 8389,
  "\u2581scattered": 8390,
  "den": 8391,
  "tlileng": 8392,
  "weng": 8393,
  "\u00ed": 8394,
  "\u25811956": 8395,
  "\u2581Common": 8396,
  "\u2581Cyrus": 8397,
  "\u2581Ju": 8398,
  "\u2581Sekarea": 8399,
  "\u2581adima": 8400,
  "\u2581bajanala": 8401,
  "\u2581bakilweng": 8402,
  "\u2581commitment": 8403,
  "\u2581expert": 8404,
  "\u2581fitlhetse": 8405,
  "\u2581formal": 8406,
  "\u2581gatherings": 8407,
  "\u2581gentle": 8408,
  "\u2581haughty": 8409,
  "\u2581ice": 8410,
  "\u2581k": 8411,
  "\u2581kokomana": 8412,
  "\u2581letsela": 8413,
  "\u2581makgetho": 8414,
  "\u2581materially": 8415,
  "\u2581rapelele": 8416,
  "\u2581session": 8417,
  "\u2581thaelo": 8418,
  "\u2581tlhobaelo": 8419,
  "\u2581tshwantshediwa": 8420,
  "13": 8421,
  "IC": 8422,
  "ris": 8423,
[...]
