{
  "</s>": 0,
  "<unk>": 1,
  ".": 2,
  ",": 3,
  "\u2581the": 4,
  "\u2581a": 5,
  "\u2581to": 6,
  "'": 7,
  "s": 8,
  "?": 9,
  "\u2581-": 10,
  "\u2581of": 11,
  "\u2581I": 12,
  "\u2581and": 13,
  "\u2581se": 14,
  "\u2581you": 15,
  "\u2581": 16,
  "m": 17,
  "y": 18,
  "\u2581in": 19,
  "\u2581v": 20,
  "\u2581na": 21,
  "!": 22,
  "a": 23,
  "t": 24,
  "\u2581s": 25,
  "\u2581je": 26,
  ":": 27,
  "\u2581is": 28,
  "-": 29,
  "\u2581(": 30,
  "\u2581that": 31,
  "u": 32,
  "\u2581for": 33,
  "...": 34,
  "\u2581\u017ee": 35,
  "\u2581it": 36,
  "i": 37,
  "e": 38,
  "ch": 39,
  "\u2581do": 40,
  "\u2581o": 41,
  ")": 42,
  "\u2581on": 43,
  "\u2581be": 44,
  "\u2581A": 45,
  "\u2581k": 46,
  "\u2581z": 47,
  "\u2581with": 48,
  "\u2581\"": 49,
  "\u2581pro": 50,
  "\u2581by": 51,
  "o": 52,
  "ho": 53,
  "\u2581jsem": 54,
  "\u2581V": 55,
  "\u00e1": 56,
  "\u2581this": 57,
  "\u2581S": 58,
  "\u2581za": 59,
  "\u2581You": 60,
  "\u2581not": 61,
  "\u2581The": 62,
  "\u2581are": 63,
  "\u2581have": 64,
  "\u2581me": 65,
  "\u0161": 66,
  "ing": 67,
  "n": 68,
  "\u2581si": 69,
  "\u2581was": 70,
  "\u2581To": 71,
  "\u2581your": 72,
  "d": 73,
  "te": 74,
  "\u2581po": 75,
  "\u2581No": 76,
  "\u2581or": 77,
  "\u2581we": 78,
  "\u2581as": 79,
  "re": 80,
  "\u2581ne": 81,
  "\u00ed": 82,
  "\u2581co": 83,
  "\u2581Ne": 84,
  "\u2581my": 85,
  "\u2581tak": 86,
  "\u011b": 87,
  "\u2581can": 88,
  "\u2581It": 89,
  "\u00e9": 90,
  "\u2581from": 91,
  "\u2581O": 92,
  "\u2581nebo": 93,
  "me": 94,
  "ed": 95,
  "ou": 96,
  "\u2581at": 97,
  "ka": 98,
  "\u2581know": 99,
  "\u2581He": 100,
  "\u2581B": 101,
  "\u2581Je": 102,
  ";": 103,
  "\u2581he": 104,
  "\u2581all": 105,
  "\u2581Po": 106,
  "\u00fd": 107,
  "ly": 108,
  "\u2581What": 109,
  "\u2581ve": 110,
  "em": 111,
  "\u2581u": 112,
  "\u2581Co": 113,
  "\u2581go": 114,
  "S": 115,
  "\u2581what": 116,
  "k": 117,
  "\u2581L": 118,
  "\u2581We": 119,
  "\u2581mi": 120,
  "\u2581K": 121,
  "\u2581an": 122,
  "\u2581out": 123,
  "\u2581od": 124,
  "\u25811": 125,
  "\u2581H": 126,
  "\u2581And": 127,
  "mi": 128,
  "\u2581C": 129,
  "b": 130,
  "h": 131,
  "\u2581ale": 132,
  "\u2581don": 133,
  "\u2581up": 134,
  "\u2581will": 135,
  "\u2581just": 136,
  "\u2581jako": 137,
  "er": 138,
  "\u2581about": 139,
  "\u2581vy": 140,
  "\u2581D": 141,
  "\u2581like": 142,
  "/": 143,
  "li": 144,
  "\u2581T": 145,
  "\u2581P": 146,
  "\u2581jsou": 147,
  "\u2581m\u011b": 148,
  "l": 149,
  "\u2581p": 150,
  "\u2581one": 151,
  "\u2581here": 152,
  "\u2581i": 153,
  "\u2581they": 154,
  "\u016f": 155,
  "\u2581get": 156,
  "hle": 157,
  "\u2581b\u00fdt": 158,
  "\u2581no": 159,
  "na": 160,
  "\u25812": 161,
  "\u2581F": 162,
  "n\u011b": 163,
  "\u2581so": 164,
  "ll": 165,
  "c": 166,
  "\u2581but": 167,
  "\u2581M": 168,
  "ve": 169,
  "\u2581jsi": 170,
  "\u2581there": 171,
  "\u2581In": 172,
  "j": 173,
  "ah": 174,
  "ce": 175,
  "\u2581right": 176,
  "\u2581him": 177,
  "n\u00ed": 178,
  "\u2581Z": 179,
  "\u2581did": 180,
  "\u2581Do": 181,
  "\u2581Na": 182,
  "it": 183,
  "ej": 184,
  "\u2581U": 185,
  "\u2581her": 186,
  "ku": 187,
  "in": 188,
  "\u2581shall": 189,
  "\u2581ho": 190,
  "\u2581b": 191,
  "\u2581if": 192,
  "ne": 193,
  "\u2581which": 194,
  "\u2581kter\u00e9": 195,
  "\u2581has": 196,
  "ky": 197,
  "\u010d": 198,
  "\u2581_": 199,
  "\u2581tu": 200,
  "\"": 201,
  "\u2581jsme": 202,
  "\u2581got": 203,
  "\u2581This": 204,
  "\u2581his": 205,
  "or": 206,
  "\u2581That": 207,
  ".\"": 208,
  "\u2581aby": 209,
  "v": 210,
  "\u25813": 211,
  "\u2581jak": 212,
  "\u2581Article": 213,
  "_": 214,
  "\u2581been": 215,
  "\u2581were": 216,
  "\u2581jste": 217,
  "\u2581would": 218,
  "\u2581time": 219,
  "al": 220,
  "\u2581Ale": 221,
  "\u2581ti": 222,
  "\u2581Za": 223,
  "\u2581want": 224,
  "\u2581Oh": 225,
  "\u2581So": 226,
  "\u2581who": 227,
  "\u2581should": 228,
  "z": 229,
  "\u2581think": 230,
  "\u2581Jo": 231,
  "\u2581more": 232,
  "\u2581p\u0159i": 233,
  "\u2581them": 234,
  "\u2581Ye": 235,
  "\u2581ze": 236,
  "en": 237,
  "\u2581us": 238,
  "\u2581other": 239,
  "\u2581ty": 240,
  "\u2581E": 241,
  "\u2581J": 242,
  "\u2581kdy\u017e": 243,
  "\u2581byl": 244,
  "le": 245,
  "p": 246,
  "\u2581our": 247,
  "BAR": 248,
  "\u2581But": 249,
  "\u2581jen": 250,
  "\u2581she": 251,
  "\u2581their": 252,
  "la": 253,
  "A": 254,
  "va": 255,
  "\u2581now": 256,
  "\u2581\u010d": 257,
  "\u2581.": 258,
  "\u2581had": 259,
  "\u2581N": 260,
  "C": 261,
  "\u2581ne\u017e": 262,
  "\u2581Regulation": 263,
  "\u2581t": 264,
  "\u2581let": 265,
  "\u2581f": 266,
  "\u2581some": 267,
  "\u2581bude": 268,
  "\u00edm": 269,
  "\u25814": 270,
  "\u2581Pro": 271,
  "on": 272,
  "n\u00e1": 273,
  "\u2581j\u00e1": 274,
  "\u2581when": 275,
  "\u2581see": 276,
  "mu": 277,
  "\u2581any": 278,
  "\u2581back": 279,
  "\u2581Tak": 280,
  "\u2581may": 281,
  "\u2581nen\u00ed": 282,
  "\u2581W": 283,
  "ni": 284,
  "\u2581Well": 285,
  "ci": 286,
  "\u2581toho": 287,
  "\u2581could": 288,
  "\u2581R": 289,
  "\u2581J\u00e1": 290,
  "je": 291,
  "r": 292,
  "\u2581need": 293,
  "\u2581into": 294,
  "\u25815": 295,
  "\u2581u\u017e": 296,
  "\u2581going": 297,
  "\u2581m\u00e1": 298,
  "\u2581real": 299,
  "\u2581t\u011b": 300,
  "\u017e": 301,
  "\u2581Vy": 302,
  "\u2581jeho": 303,
  "\u2581does": 304,
  "\u2581good": 305,
  "\u2581na\u0159\u00edzen\u00ed": 306,
  "\u2581G": 307,
  "nna": 308,
  "\u2581European": 309,
  "\u2581down": 310,
  "),": 311,
  "H": 312,
  "ry": 313,
  ").": 314,
  "\u2581tam": 315,
  "no": 316,
  "\u2581only": 317,
  "\u2581p\u0159ed": 318,
  "\u2581than": 319,
  "B": 320,
  "to": 321,
  "\u2581take": 322,
  "\u2581h": 323,
  "\u2581Jak": 324,
  "ov\u00e9": 325,
  "\u2581Commission": 326,
  "\u2581byla": 327,
  "\u2581If": 328,
  "\u2581ten": 329,
  "g": 330,
  "es": 331,
  "\u2581bylo": 332,
  "be": 333,
  "\u2581n\u011bco": 334,
  "\u2581mus\u00ed": 335,
  "\u2581its": 336,
  "st": 337,
  "\u2581They": 338,
  "\u2581Ja": 339,
  "D": 340,
  "\u2581kter\u00fd": 341,
  "\u2581She": 342,
  "\u2581tom": 343,
  "ES": 344,
  "\u2581tad": 345,
  "\u2581m": 346,
  "\u258110": 347,
  "el": 348,
  "\u2581way": 349,
  "\u2581n\u00e1m": 350,
  "\u2581m\u016f\u017ee": 351,
  "\u2581All": 352,
  "\u2581over": 353,
  "\u2581v\u00e1m": 354,
  "\u2581man": 355,
  "\u2581how": 356,
  "\u2581v\u00e1s": 357,
  "dy": 358,
  "ov\u00e1": 359,
  "\u2581c": 360,
  "um": 361,
  "\u2581dne": 362,
  "\u2581How": 363,
  "\u2581make": 364,
  "\u2581Ano": 365,
  "\u2581bych": 366,
  "EC": 367,
  "\u2581where": 368,
  "de": 369,
  "\u2581people": 370,
  "ny": 371,
  "il": 372,
  "\u2581ji": 373,
  "at": 374,
  "\u2581also": 375,
  "\u017ee": 376,
  "\u2581'": 377,
  "T": 378,
  "\u2581podle": 379,
  "n\u00e9": 380,
  "\u2581come": 381,
  "\u2581...": 382,
  "\u2581de": 383,
  "\u2581ago": 384,
  "\u2581say": 385,
  "\u25816": 386,
  "\u2581Member": 387,
  "\u2581then": 388,
  "\u2581two": 389,
  "\u2581n\u00e1s": 390,
  "\u2581Yes": 391,
  "\u2581these": 392,
  "\u2581There": 393,
  "\u2581My": 394,
  "\u2581For": 395,
  "\u00ed\u0161": 396,
  "\u2581God": 397,
  "\u00e1m": 398,
  "\u2581first": 399,
  "\u2581kter\u00e1": 400,
  "da": 401,
  "\u2581t\u00edm": 402,
  "\u2581those": 403,
  "\u010f": 404,
  "\u2581Ta": 405,
  "\u2581mu": 406,
  "ie": 407,
  "M": 408,
  "is": 409,
  "\u2581years": 410,
  "si": 411,
  "\u2581e": 412,
  "\u2581very": 413,
  "\u2581new": 414,
  "\u2581said": 415,
  "f": 416,
  "nu": 417,
  "po": 418,
  "\u2581a\u017e": 419,
  "\u2581[": 420,
  "us": 421,
  "\u2581P\u0159ed": 422,
  "\u2581information": 423,
  "ace": 424,
  "\u2581tell": 425,
  "\u2581something": 426,
  "\u2581must": 427,
  "\u2581jejich": 428,
  "]": 429,
  "\u2581Dob\u0159e": 430,
  "\u2581Komise": 431,
  "\u2581d": 432,
  "ovat": 433,
  "\u2581use": 434,
  "n\u00fd": 435,
  "lo": 436,
  "\u2581mo": 437,
  "\u2581te\u010f": 438,
  "\u2581pokud": 439,
  "an": 440,
  "x": 441,
  "ir": 442,
  "\u2581Why": 443,
  "\u2581work": 444,
  "\u2581too": 445,
  "\u2581pod": 446,
  "\u2581Ty": 447,
  "\u2581re": 448,
  "ko": 449,
  "\u2581Pro\u010d": 450,
  "di": 451,
  "ek": 452,
  "\u2581under": 453,
  "\u2581day": 454,
  "\u2581gu": 455,
  "\u2581P\u0159i": 456,
  "\u2581well": 457,
  "\u2581off": 458,
  "N": 459,
  "ra": 460,
  "\u2581m\u00e1m": 461,
  "uck": 462,
  "th": 463,
  "\u2581g": 464,
  "\u2581mean": 465,
  "nou": 466,
  "\u2581such": 467,
  "\u2581States": 468,
  "\u00e1\u0161": 469,
  "\u2581Let": 470,
  "\u2581made": 471,
  "\u2581after": 472,
  "\u2581even": 473,
  "\u2581am": 474,
  "P": 475,
  "\u2581Go": 476,
  "\u2581odst": 477,
  "pt": 478,
  "\u2581before": 479,
  "ta": 480,
  "\u2581little": 481,
  "I": 482,
  "\u2581l": 483,
  "\u2581help": 484,
  "\u2581tomu": 485,
  "ovi": 486,
  "\u2581mezi": 487,
  "\u2581never": 488,
  "2": 489,
  "\u2581Car": 490,
  "\u25811.": 491,
  "\u2581Come": 492,
  "uje": 493,
  "\u2581ke": 494,
  "\u2581sv\u00e9": 495,
  "K": 496,
  "ech": 497,
  "\u2581Re": 498,
  "\u2581Cha": 499,
  "\u2581because": 500,
  "\u25817": 501,
  "\u0159e": 502,
  "\u2581Thank": 503,
  "\u2581je\u0161t\u011b": 504,
  "ment": 505,
  "cr": 506,
  "\u2581big": 507,
  "\u2581nic": 508,
  "\u2581look": 509,
  "\u2581EU": 510,
  "\u2581love": 511,
  "ic": 512,
  "\u2581tak\u00e9": 513,
  "\u2581life": 514,
  "\u2581Don": 515,
  "\u2581much": 516,
  "\u2581Evropsk\u00e9": 517,
  "\u2581Tak\u017ee": 518,
  "\u2581Jsem": 519,
  "\u2581w": 520,
  "\u2581t\u00e9to": 521,
  "\u2581Council": 522,
  "E": 523,
  "\u2581year": 524,
  "\u0148": 525,
  "\u2581used": 526,
  "\u2581\u010dl": 527,
  "\u2581ani": 528,
  "\u2581An": 529,
  "\u0165": 530,
  "by": 531,
  "\u2581bez": 532,
  "\u0159i": 533,
  "V": 534,
  "\u2581find": 535,
  "\u2581On": 536,
  "\u2581doing": 537,
  "\u2581x": 538,
  "\u2581Pokud": 539,
  "\u00fdch": 540,
  "\u25818": 541,
  "\u016f\u017e": 542,
  "man": 543,
  "lu": 544,
  "\u2581Mysl\u00ed": 545,
  "\u2581thing": 546,
  "w": 547,
  "O": 548,
  "\u2581Union": 549,
  "\u2581p\u0159e": 550,
  "\u2581kde": 551,
  "\u2581m\u011bl": 552,
  "ti": 553,
  "\u2581Men": 554,
  "\u258120": 555,
  "\u2581pak": 556,
  "\u2581proto\u017ee": 557,
  "\u2581jde": 558,
  "EU": 559,
  "\u2581roz": 560,
  "F": 561,
  "\u2581Jen": 562,
  "\u2581De": 563,
  "\u2581tohoto": 564,
  "\u2581last": 565,
  "\u2581v\u0161echny": 566,
  "\u2581ta": 567,
  "\u2581Now": 568,
  "\u2581why": 569,
  "\u2581still": 570,
  "se": 571,
  "\u2581moc": 572,
  "\u010de": 573,
  "ers": 574,
  "\u2581Where": 575,
  "\u2581hotel": 576,
  "\u0159": 577,
  "ur": 578,
  "\u2581m\u00edt": 579,
  "\u2581Is": 580,
  "l\u00ed": 581,
  "\u2581through": 582,
  "\u2581\u0160": 583,
  "\u2581dal\u0161\u00ed": 584,
  "\u2581Kdy\u017e": 585,
  "crip": 586,
  "\u2581kdo": 587,
  "\u2581give": 588,
  "\u2581home": 589,
  "ty": 590,
  "ster": 591,
  "\u2581&": 592,
  "\u2581Java": 593,
  "\u2581place": 594,
  "\u2581Model": 595,
  "ost": 596,
  "\u2581\u010c": 597,
  "\u2581Ro": 598,
  "et": 599,
  "\u2581most": 600,
  "Z": 601,
  "\u0159\u00ed": 602,
  "\u2581Mr": 603,
  "\u2581between": 604,
  "\u2581name": 605,
  "\u2581\u010cl\u00e1nek": 606,
  ",\"": 607,
  "\u2581dob\u0159e": 608,
  "\u2581night": 609,
  "ejte": 610,
  "\u2581Who": 611,
  "\u2581Ch": 612,
  "\u2581U\u017e": 613,
  "\u2581Od": 614,
  "\u2581j\u00ed": 615,
  "\u2581v\u00edce": 616,
  "\u25819": 617,
  "\u2581products": 618,
  "\u2581ob": 619,
  "\u258112": 620,
  "\u2581Ve": 621,
  "\u2581long": 622,
  "ba": 623,
  "\u2581/": 624,
  "\u2581Just": 625,
  "\u2581same": 626,
  "up": 627,
  "\u258115": 628,
  "\u00e1t": 629,
  "\u258118": 630,
  "\u2581Jeho": 631,
  "\u2581Look": 632,
  "\u2581As": 633,
  "\u2581support": 634,
  "\u2581d\u011bl\u00e1": 635,
  "\u2581following": 636,
  "\u2581set": 637,
  "\u2581\u0161": 638,
  "\u2581pane": 639,
  "\u2581den": 640,
  "\u2581part": 641,
  "\u2581byly": 642,
  "uj": 643,
  "\u2581again": 644,
  "c\u00ed": 645,
  "ze": 646,
  "\u2581kdy": 647,
  "\u2581being": 648,
  "kou": 649,
  "\u2581m\u016fj": 650,
  "\u2581world": 651,
  "\u2581May": 652,
  "ec": 653,
  "ck": 654,
  "\u2581Mo": 655,
  "raz": 656,
  "ide": 657,
  "ar": 658,
  "\u2581rozhodnut\u00ed": 659,
  "\u2581sorry": 660,
  "\u2581sure": 661,
  "\u2581v\u0161echno": 662,
  "R": 663,
  "\u2581own": 664,
  "\u2581souladu": 665,
  "\u2581Your": 666,
  "as": 667,
  "\u266a": 668,
  "\u258130": 669,
  "\u2581M\u00e1m": 670,
  "\u2581Ho": 671,
  "\u2581Video": 672,
  "ad": 673,
  "rad": 674,
  "ant": 675,
  "\u2581away": 676,
  "\u2581data": 677,
  "\u2581Our": 678,
  "\u2581three": 679,
  "\u2581Are": 680,
  "W": 681,
  "\u2581Not": 682,
  "L": 683,
  "\u2581opat\u0159en\u00ed": 684,
  "\u2581velmi": 685,
  "\u2581Community": 686,
  "\u2581things": 687,
  "\u2581case": 688,
  "\u2581anything": 689,
  "\u2581tebe": 690,
  "G": 691,
  "\u2581r\u00e1d": 692,
  "ov\u00e1n\u00ed": 693,
  "J": 694,
  "co": 695,
  "\u2581Annex": 696,
  "\u2581When": 697,
  "\u2581call": 698,
  "\u010d\u00ed": 699,
  "\u2581jo": 700,
  "amp": 701,
  "\u2581around": 702,
  "\u2581Mus\u00ed": 703,
  "\u2581informace": 704,
  "\u2581thought": 705,
  "\u2581better": 706,
  "\u2581without": 707,
  "\u2581put": 708,
  "\u2581nej": 709,
  "\u2581\u0159\u00edct": 710,
  "\u2581months": 711,
  "\u2581each": 712,
  "\u2581talk": 713,
  "\u2581pre": 714,
  "uh": 715,
  "\u2581La": 716,
  "\u2581great": 717,
  "\u2581kte\u0159\u00ed": 718,
  "\u2581pro\u010d": 719,
  "\u2581State": 720,
  "\u2581p\u0159\u00edpad\u011b": 721,
  "\u2581order": 722,
  "ma": 723,
  "v\u011b": 724,
  "\u2581New": 725,
  "\u2581Rady": 726,
  "\u2581many": 727,
  "\u2581accordance": 728,
  "\u2581nikdy": 729,
  "ke": 730,
  "\u2581car": 731,
  "\u0161\u00ed": 732,
  "\u2581proto": 733,
  "\u2581maj\u00ed": 734,
  "\u2581m\u011bla": 735,
  "\u2581found": 736,
  "\u2581number": 737,
  "d\u011bl": 738,
  "\u2581v\u0161ech": 739,
  "ro": 740,
  "\u2581within": 741,
  "un": 742,
  "\u00fdm": 743,
  "\u2581Se": 744,
  "\u2581every": 745,
  "\u2581point": 746,
  "\u2581Directive": 747,
  "\u2581Bo": 748,
  "\u2581THE": 749,
  "\u2581budou": 750,
  "\u2581system": 751,
  "\u2581proti": 752,
  "the": 753,
  "\u2581Can": 754,
  "\u2581j\u00edt": 755,
  "ol": 756,
  "\u2581roce": 757,
  "\u2581money": 758,
  "\u2581\u0159ekl": 759,
  "\u2581market": 760,
  "est": 761,
  "\u2581po\u0159\u00e1dku": 762,
  "\u2581always": 763,
  "\u2581oblasti": 764,
  "ina": 765,
  "ter": 766,
  "\u2581told": 767,
  "my": 768,
  "\u2581mohou": 769,
  "\u2581Good": 770,
  "\u2581both": 771,
  "\u2581measures": 772,
  "\u2581per": 773,
  "\u2581days": 774,
  "\u2581la": 775,
  "\u2581Dr": 776,
  "zer": 777,
  "\u2581Y": 778,
  "\u2581t\u011bchto": 779,
  "ru": 780,
  "\u2581p\u00e1r": 781,
  "ov": 782,
  "\u2581pouze": 783,
  "\u2581free": 784,
  "\u2581another": 785,
  "\u2581old": 786,
  "\u2581\u0159\u00edk\u00e1": 787,
  "\u2581Mo\u017en\u00e1": 788,
  "t\u011b": 789,
  "\u258111": 790,
  "bo": 791,
  "\u25812.": 792,
  "\u2581tento": 793,
  "\u2581kind": 794,
  "\u2581jim": 795,
  "ov\u00fd": 796,
  "one": 797,
  "mluv": 798,
  "ian": 799,
  "\u2581Al": 800,
  "\u2581please": 801,
  "\u2581might": 802,
  "\u2581l\u00edto": 803,
  "ket": 804,
  "\u2581m\u00e1\u0161": 805,
  "ton": 806,
  "kra": 807,
  "rt": 808,
  "\u2581believe": 809,
  "\u2581Le": 810,
  "\u2581EUR": 811,
  "\u2581st\u00e1ty": 812,
  "ju": 813,
  "\u2581means": 814,
  "\u2581jestli": 815,
  "\u2581\u010dlensk\u00fd": 816,
  "\u2581best": 817,
  "am": 818,
  "\u2581lot": 819,
  "v\u00ed": 820,
  "\u2581\u010di": 821,
  "\u2581\u017eivot": 822,
  "\u2581ever": 823,
  "\u2581nem\u00e1": 824,
  "d\u011b": 825,
  "\u2581Be": 826,
  "\u2581won": 827,
  "ul": 828,
  "tu": 829,
  "\u2581course": 830,
  "\u2581nev\u00ed": 831,
  "\u258119": 832,
  "id": 833,
  "son": 834,
  "\u2581prvn\u00ed": 835,
  "\u2581bys": 836,
  "\u2581Get": 837,
  "\u2581n\u00ed": 838,
  "\u2581pros\u00edm": 839,
  "uta": 840,
  "and": 841,
  "\u2581keep": 842,
  "\u2581regard": 843,
  "\u2581II": 844,
  "\u2581Per": 845,
  "\u2581girl": 846,
  "\u2581house": 847,
  "\u2581Did": 848,
  "\u2581D\u00edk": 849,
  "\u2581nad": 850,
  "j\u00ed": 851,
  "\u2581chlap": 852,
  "\u2581Articles": 853,
  "\u0161i": 854,
  "ish": 855,
  "able": 856,
  "ha": 857,
  "\u2581done": 858,
  "\u2581Ten": 859,
  "\u2581provided": 860,
  "\u2581Kdo": 861,
  "\u2581Part": 862,
  "\u2581dva": 863,
  "\u2581game": 864,
  "\u2581v\u0161ak": 865,
  "\u2581va\u0161e": 866,
  "\u2581Mar": 867,
  "\u2581roku": 868,
  "\u2581feel": 869,
  "\u2581stop": 870,
  "\u2581end": 871,
  "\u2581Spole\u010denstv\u00ed": 872,
  "\u2581area": 873,
  "\u2581Ra": 874,
  "du": 875,
  "\u2581d\u011blat": 876,
  "\u2581\u010das": 877,
  "bychom": 878,
  "\u2581un": 879,
  "\u2581jej\u00ed": 880,
  "\u258113": 881,
  "tel": 882,
  "\u2581referred": 883,
  "\u2581room": 884,
  "\u2581v\u011bci": 885,
  "\u2581p\u0159\u00ed": 886,
  "\u2581jeden": 887,
  "\u010dka": 888,
  "\u2581particular": 889,
  "\u2581Ma": 890,
  "\u2581r": 891,
  "\u258116": 892,
  "b\u00ed": 893,
  "\u2581P\u0159e": 894,
  "\u2581ohledem": 895,
  "\u2581zejm\u00e9na": 896,
  "00": 897,
  "\u2581everything": 898,
  "3": 899,
  "\u2581TV": 900,
  "\u2581\u010dl\u00e1nku": 901,
  "\u2581already": 902,
  "\u2581n": 903,
  "\u258114": 904,
  "\u2581tyto": 905,
  "\u2581pr": 906,
  "\u2581abych": 907,
  "\u2581nothing": 908,
  "\u2581svou": 909,
  "oval": 910,
  "\u2581Kde": 911,
  "vo": 912,
  "os": 913,
  "ard": 914,
  "\u00e1ch": 915,
  "\u2581Decision": 916,
  "ber": 917,
  "\u2581trochu": 918,
  "ila": 919,
  "\u2581Please": 920,
  "aj": 921,
  "\u2581*": 922,
  "\u2581care": 923,
  "\u2581left": 924,
  "\u2581pr\u00e1ce": 925,
  "\u2581t\u00e9": 926,
  "\u2581Ko": 927,
  "ist": 928,
  "\u2581Hle": 929,
  "1": 930,
  "val": 931,
  "ran": 932,
  "ies": 933,
  "\u2581Then": 934,
  "\u2581show": 935,
  "\u2581m\u00edsto": 936,
  "men": 937,
  "\u2581family": 938,
  "\u2581available": 939,
  "mat": 940,
  "\u2581Nen\u00ed": 941,
  "en\u00ed": 942,
  "\u2581v\u011bst": 943,
  "\u2581Search": 944,
  "\u2581di": 945,
  "\u2581Te\u010f": 946,
  "\u2581ano": 947,
  "\u2581Czech": 948,
  "body": 949,
  "ang": 950,
  "sk\u00e9": 951,
  "\u2581period": 952,
  "ot": 953,
  "ut": 954,
  "\u2581ud\u011blat": 955,
  "sk\u00e1": 956,
  "\u2581spole\u010dnosti": 957,
  "\u2581hand": 958,
  "\u2581n\u011bkdo": 959,
  "\u2581came": 960,
  "\u2581m\u00e1te": 961,
  "ji": 962,
  "U": 963,
  "ation": 964,
  "\u25810": 965,
  "ex": 966,
  "\u2581bit": 967,
  "do": 968,
  "ine": 969,
  "\u2581asi": 970,
  "\u2581velk\u00fd": 971,
  "v\u016fli": 972,
  "ow": 973,
  "\u2581mohl": 974,
  "ud": 975,
  "\u2581together": 976,
  "\u2581body": 977,
  "\u00f3r": 978,
  "\u2581jin\u00e9": 979,
  "\u2581person": 980,
  "\u00e1l": 981,
  "voje": 982,
  "\u2581public": 983,
  "ick": 984,
  "\u2581sm\u011brnice": 985,
  "\u2581against": 986,
  "\u2581stay": 987,
  "\u2581kterou": 988,
  "bil": 989,
  "\u2581m\u00e1me": 990,
  "\u2581M\u011bl": 991,
  "tra": 992,
  "\u2581100": 993,
  "\u2581ma": 994,
  "\u2581rok": 995,
  "ovou": 996,
  "\u2581v\u00edc": 997,
  "pe": 998,
  "\u258117": 999,
  "10": 1000,
  "\u2581byli": 1001,
  "\u00edte": 1002,
  "\u2581ud\u011blal": 1003,
  "\u2581X": 1004,
  "\u2581(1)": 1005,
  "uji": 1006,
  "\u2581po\u0159\u00e1d": 1007,
  "od": 1008,
  "len": 1009,
  "v\u00e1": 1010,
  "\u2581pomoc": 1011,
  "\u2581z\u00e1klad\u011b": 1012,
  "v\u016fj": 1013,
  "\u2581wanted": 1014,
  "\u2581during": 1015,
  "\u2581ji\u017e": 1016,
  "ach": 1017,
  "\u2581water": 1018,
  "ov\u00fdch": 1019,
  "\u2581m\u016f\u017eete": 1020,
  "\u2581Ex": 1021,
  "line": 1022,
  "\u2581t\u0159eba": 1023,
  "za": 1024,
  "d\u00e1n\u00ed": 1025,
  "\u0161el": 1026,
  "\u2581high": 1027,
  "\u2581Sa": 1028,
  "ale": 1029,
  "ate": 1030,
  "Y": 1031,
  "\u2581+": 1032,
  "\u2581Pane": 1033,
  "\u2581za\u0159\u00edzen\u00ed": 1034,
  "\u2581wrong": 1035,
  "ri": 1036,
  "\u2581ex": 1037,
  "\u2581r\u00e1mci": 1038,
  "\u258125": 1039,
  "\u2581Board": 1040,
  "\u2581pr\u00e1ci": 1041,
  "\u2581product": 1042,
  "\u258124": 1043,
  "\u2581Forum": 1044,
  "rows": 1045,
  "hl": 1046,
  "ver": 1047,
  "\u2581today": 1048,
  "\u2581Or": 1049,
  "del": 1050,
  "\u2581next": 1051,
  "\u2581coming": 1052,
  "\u2581different": 1053,
  "\u2581p\u0159es": 1054,
  "\u2581bad": 1055,
  "\u2581stalo": 1056,
  "\u2581na\u0161e": 1057,
  "\u2581whole": 1058,
  "\u2581Toto": 1059,
  "ity": 1060,
  "\u2581leave": 1061,
  "\u2581m\u011bli": 1062,
  "\u2581services": 1063,
  "\u2581Proto\u017ee": 1064,
  "\u2581\u0159\u00edzen\u00ed": 1065,
  "\u2581Byl": 1066,
  "\u2581budu": 1067,
  "\u2581including": 1068,
  "\u258150": 1069,
  "\u2581mnou": 1070,
  "mo": 1071,
  "\u2581obdob\u00ed": 1072,
  "\u2581Chci": 1073,
  "\u2581working": 1074,
  "X": 1075,
  "\u2581second": 1076,
  "per": 1077,
  "age": 1078,
  "\u2581while": 1079,
  "\u2581aid": 1080,
  "\u2581sebe": 1081,
  "\u2581business": 1082,
  "\u2581One": 1083,
  "\u2581vlastn\u00ed": 1084,
  "mail": 1085,
  "\u2581Nej": 1086,
  "\u2581happened": 1087,
  "\u2581date": 1088,
  "\u2581nez": 1089,
  "\u2581sv\u00e9ho": 1090,
  "\u2581ka\u017ed\u00fd": 1091,
  "\u2581least": 1092,
  "\u2581someone": 1093,
  "ia": 1094,
  "\u2581dost": 1095,
  "bu": 1096,
  "\u2581At": 1097,
  "\u2581financial": 1098,
  "\u2581ye": 1099,
  "\u2581countries": 1100,
  "\u00e1\u017e": 1101,
  "ible": 1102,
  "\u2581hear": 1103,
  "\u2581conditions": 1104,
  "ok": 1105,
  "\u2581Registrace": 1106,
  "\u2581Na\u0161e": 1107,
  "\u2581hol": 1108,
  "\u2581spolu": 1109,
  "\u2581Class": 1110,
  "\u2581John": 1111,
  "\u2581enough": 1112,
  "\u2581necessary": 1113,
  "\u00e9ho": 1114,
  "let": 1115,
  "kr": 1116,
  "\u2581#": 1117,
  "\u2581tomto": 1118,
  "\u2581sh": 1119,
  "\u258131": 1120,
  "ion": 1121,
  "\u2581tedy": 1122,
  "\u2581control": 1123,
  "\u2581te": 1124,
  "\u2581kter\u00fdm": 1125,
  "\u2581dnes": 1126,
  "\u2581v\u0161ichni": 1127,
  "\u2581nebude": 1128,
  "\u2581having": 1129,
  "\u2581understand": 1130,
  "\u2581called": 1131,
  "\u2581important": 1132,
  "\u258121": 1133,
  "\u2581until": 1134,
  "\u2581dead": 1135,
  "jdu": 1136,
  "\u2581Europe": 1137,
  "\u2581prs": 1138,
  "ili": 1139,
  "\u2581hry": 1140,
  "hr": 1141,
  "\u2581application": 1142,
  "\u2581nejsou": 1143,
  "\u2581since": 1144,
  "\u2581Members": 1145,
  "\u2581prohl\u00ed\u017ee": 1146,
  "\u2581certain": 1147,
  "ele": 1148,
  "ov\u011b": 1149,
  "\u2581mg": 1150,
  "\u2581OF": 1151,
  "\u25813.": 1152,
  "pravdu": 1153,
  "\u2581possible": 1154,
  "\u2581bo": 1155,
  "\u2581price": 1156,
  "ified": 1157,
  "ska": 1158,
  "\u2581map": 1159,
  "\u2581Here": 1160,
  "ung": 1161,
  "\u2581national": 1162,
  "\u2581mo\u017en\u00e1": 1163,
  "com": 1164,
  "\u2581lid\u00ed": 1165,
  "\u2581change": 1166,
  "d\u00ed": 1167,
  "\u2581friend": 1168,
  "n\u011bte": 1169,
  "\u2581looking": 1170,
  "\u2581children": 1171,
  "\u2581uveden\u00e9": 1172,
  "\u2581Har": 1173,
  "\u2581hard": 1174,
  "\u2581ask": 1175,
  "\u2581else": 1176,
  "\u2581Nic": 1177,
  "\u2581fine": 1178,
  "\u2581Events": 1179,
  "\u2581n\u011bj": 1180,
  "ED": 1181,
  "\u00e1ln\u00ed": 1182,
  "\u2581start": 1183,
  "\u2581far": 1184,
  "\u2581kill": 1185,
  "\u2581online": 1186,
  "\u2581mil": 1187,
  "\u2581talking": 1188,
  "\u2581Parliament": 1189,
  "\u2581level": 1190,
  "\u2581risk": 1191,
  "\u2581went": 1192,
  "\u2581Pros\u00edm": 1193,
  "\u2581lidi": 1194,
  "\u2581Me": 1195,
  "osti": 1196,
  "\u2581men": 1197,
  "\u2581Register": 1198,
  "\u2581skv\u011bl": 1199,
  "\u2581country": 1200,
  "fe": 1201,
  "\u2581taken": 1202,
  "\u2581v\u011bd\u011bt": 1203,
  "\u25814.": 1204,
  "\u2581Bude": 1205,
  "\u2581Ha": 1206,
  "\u2581trying": 1207,
  "\u2581Pod": 1208,
  "\u2581sv\u016fj": 1209,
  "vol": 1210,
  "\u2581bar": 1211,
  "\u2581report": 1212,
  "\u2581rules": 1213,
  "ge": 1214,
  "\u2581getting": 1215,
  "\u2581open": 1216,
  "ler": 1217,
  "\u2581\u010cl\u00e1nky": 1218,
  "\u2581father": 1219,
  "\u2581view": 1220,
  "\u2581byste": 1221,
  "\u2581disabled": 1222,
  "\u2581service": 1223,
  "\u2581non": 1224,
  "\u2581St": 1225,
  "\u2581Republic": 1226,
  "\u2581Partners": 1227,
  "\u2581nepo": 1228,
  "\u2581file": 1229,
  "\u2581head": 1230,
  "uj\u00ed": 1231,
  "op": 1232,
  "\u2581minut": 1233,
  "\u2581nich": 1234,
  "\u2581neza": 1235,
  "\u2581took": 1236,
  "\u2581paragraph": 1237,
  "ker": 1238,
  "\u2581vypnut": 1239,
  "pad\u00e1": 1240,
  "\u2581live": 1241,
  "\u2581\u010clenov\u00e9": 1242,
  "\u2581b\u011bhem": 1243,
  "ary": 1244,
  "\u2581Man": 1245,
  "\u2581test": 1246,
  "\u2581blood": 1247,
  "sky": 1248,
  "\u2581Any": 1249,
  "ak": 1250,
  "\u2581v\u010detn\u011b": 1251,
  "\u2581Survey": 1252,
  "yl": 1253,
  "its": 1254,
  "\u2581Trval": 1255,
  "\u2581t\u0159i": 1256,
  "\u2581chci": 1257,
  "\u2581chce\u0161": 1258,
  "\u2581dobr\u00fd": 1259,
  "\u2581third": 1260,
  "\u2581job": 1261,
  "\u2581neu": 1262,
  "ven": 1263,
  "\u2581unie": 1264,
  "\u2581tebou": 1265,
  "\u2581mysl\u00edm": 1266,
  "ner": 1267,
  "\u2581Gu": 1268,
  "\u2581Because": 1269,
  "\u2581close": 1270,
  "\u2581few": 1271,
  "\u2581mother": 1272,
  "\u2581pokoj": 1273,
  "\u2581Di": 1274,
  "\u2581hell": 1275,
  "llo": 1276,
  "\u2581company": 1277,
  "hu": 1278,
  "pr": 1279,
  "\u2581small": 1280,
  "\u2581trhu": 1281,
  "ob": 1282,
  "jde": 1283,
  "lf": 1284,
  "pa": 1285,
  "\u010dek": 1286,
  "\u2581li": 1287,
  "\u2581nejlep\u0161\u00ed": 1288,
  "mm": 1289,
  "tty": 1290,
  "\u2581zem\u011b": 1291,
  "EEC": 1292,
  "\u00e1n": 1293,
  "\u2581Tabul": 1294,
  "\u2581seen": 1295,
  "\u2581Of": 1296,
  "\u2581With": 1297,
  "\u2581mind": 1298,
  "ling": 1299,
  "\u2581lid\u00e9": 1300,
  "\u2581saw": 1301,
  "\u2581p\u0159\u00edmo": 1302,
  "\u2581power": 1303,
  "\u2581t\u00fdkaj\u00edc\u00ed": 1304,
  "\u2581mm": 1305,
  "ill": 1306,
  "\u25812010": 1307,
  "\u2581account": 1308,
  "ps": 1309,
  "\u2581Some": 1310,
  "\u2581play": 1311,
  "nout": 1312,
  "\u2581Home": 1313,
  "k\u00e1": 1314,
  "\u2581yet": 1315,
  "\u2581mo\u017en\u00e9": 1316,
  "\u2581nepodporuje": 1317,
  "\u2581Mi": 1318,
  "\u2581kdyby": 1319,
  "\u00e1k": 1320,
  "\u258122": 1321,
  "\u2581Mil": 1322,
  "4": 1323,
  "mysl\u00ed\u0161": 1324,
  "\u2581stanov\u00ed": 1325,
  "part": 1326,
  "\u2581da": 1327,
  "\u2581By": 1328,
  "\u2022": 1329,
  "EHS": 1330,
  "\u2581Right": 1331,
  "\u2581nem\u016f\u017ee": 1332,
  "\u2581Having": 1333,
  "\u2581wait": 1334,
  "\u2581d\u011bti": 1335,
  "p\u00ed": 1336,
  "\u2581m\u011bs\u00edci": 1337,
  "\u2581authorities": 1338,
  "\u2581try": 1339,
  "\u2581Ba": 1340,
  "\u2581yourself": 1341,
  "\u2581Con": 1342,
  "less": 1343,
  "\u2581son": 1344,
  "ance": 1345,
  "\u2581pravdu": 1346,
  "+": 1347,
  "\u2581using": 1348,
  "\u2581Da": 1349,
  "\u2581taking": 1350,
  "\u2581noc": 1351,
  "\u2581cht\u011bl": 1352,
  "\u2581st\u00e1t": 1353,
  "\u2581fun": 1354,
  "\u2581remember": 1355,
  "d\u00edvej": 1356,
  "\u2581zde": 1357,
  "\u2581nice": 1358,
  "\u2581\u017e\u00e1dn\u00e9": 1359,
  "\u2581Nev\u00edm": 1360,
  "l\u00e1": 1361,
  "r\u00e1t": 1362,
  "ala": 1363,
  "use": 1364,
  "30": 1365,
  "\u2581type": 1366,
  "aci": 1367,
  "\u2581(2)": 1368,
  "\u2581question": 1369,
  "\u2581boy": 1370,
  "\u2581bring": 1371,
  "\u2581force": 1372,
  "\u2581d\u011bje": 1373,
  "\u2581See": 1374,
  "\u2581full": 1375,
  "ice": 1376,
  "\u2581n\u011bjak\u00e9": 1377,
  "\u2581Sp": 1378,
  "ac\u00ed": 1379,
  "\u2581v\u011bc": 1380,
  "ova": 1381,
  "vi": 1382,
  "19": 1383,
  "\u2581special": 1384,
  "\u2581ja": 1385,
  "\u2581school": 1386,
  "\u2581human": 1387,
  "tan": 1388,
  "actually": 1389,
  "\u2581Nebo": 1390,
  "ack": 1391,
  "\u2581matter": 1392,
  "\u2581ki": 1393,
  "sk\u00fd": 1394,
  "n\u011bj\u0161\u00ed": 1395,
  "ren": 1396,
  "\u2581stejn\u011b": 1397,
  "\u2581budeme": 1398,
  "\u2581Jako": 1399,
  "ell": 1400,
  "\u2581n\u00edm": 1401,
  "\u2581production": 1402,
  "vy": 1403,
  "\u2581meet": 1404,
  "les": 1405,
  "\u2581pen": 1406,
  "kem": 1407,
  "\u2581given": 1408,
  "\u258140": 1409,
  "pel": 1410,
  "\u2581tv\u016fj": 1411,
  "\u00edme": 1412,
  "\u2581idea": 1413,
  "\u2581side": 1414,
  "\u2581times": 1415,
  "\u2581once": 1416,
  "\u2581heart": 1417,
  "\u2581wife": 1418,
  "\u2581\u00fa": 1419,
  "\u2581problem": 1420,
  "\u2581syst\u00e9mu": 1421,
  "\u2581Ob": 1422,
  "\u2581Jan": 1423,
  "\u2581znamen\u00e1": 1424,
  "\u2581\u0158ekl": 1425,
  "\u2581law": 1426,
  "\u2581less": 1427,
  "chod": 1428,
  "\u2581Kar": 1429,
  "\u2581mn\u011b": 1430,
  "\u2581Ti": 1431,
  "\u2581bude\u0161": 1432,
  "\u2581toto": 1433,
  "\u010dku": 1434,
  "\u2581\u0159\u00edkal": 1435,
  "\u2581baby": 1436,
  "\u25812005": 1437,
  "ure": 1438,
  "\u2581slu\u017eby": 1439,
  "\u2581dlouho": 1440,
  "\u2581vid\u011bt": 1441,
  "om": 1442,
  "The": 1443,
  "\u2581list": 1444,
  "\u2581Hotel": 1445,
  "\u25812006": 1446,
  "ent": 1447,
  "ness": 1448,
  "\u2581pou\u017eit\u00ed": 1449,
  "\u25812004": 1450,
  "\u2581nevy": 1451,
  "\u2581War": 1452,
  "\u2581kon": 1453,
  "\u2581hodin": 1454,
  "\u2581ode": 1455,
  "ris": 1456,
  "\u2581requirements": 1457,
  "\u2581Have": 1458,
  "\u2581woman": 1459,
  "vin": 1460,
  "zi": 1461,
  "und": 1462,
  "\u2581\u0159ek": 1463,
  "\u2581Ar": 1464,
  "\u2581co\u017e": 1465,
  "der": 1466,
  "\u2581Chce": 1467,
  "\u2581Jsou": 1468,
  "\u2581concerned": 1469,
  "\u2581Ji": 1470,
  "\u2581friends": 1471,
  "ley": 1472,
  "\u2581t\u011bch": 1473,
  "vah": 1474,
  "\u2581jednou": 1475,
  "\u2581st\u00e1le": 1476,
  "\u2581tato": 1477,
  "\u2581hope": 1478,
  "\u2581B\u016fh": 1479,
  "\u2581\u0158ek": 1480,
  "nej": 1481,
  "\u25812008": 1482,
  "\u2581m\u00e9": 1483,
  "\u016fm": 1484,
  "\u2581p\u00edsm": 1485,
  "\u2581roky": 1486,
  "\u2581ready": 1487,
  "\u2581Committee": 1488,
  "\u2581Tento": 1489,
  "\u2581heard": 1490,
  "\u2581pr\u00e1v\u011b": 1491,
  "\u2581t\u0159et\u00ed": 1492,
  "ive": 1493,
  "\u2581v\u016fbec": 1494,
  "\u2581Te": 1495,
  "\u2581znovu": 1496,
  "\u2581vid\u011bl": 1497,
  "\u2581s\u00e1m": 1498,
  "hodn\u011b": 1499,
  "t\u00ed": 1500,
  "\u2581Nem\u00e1": 1501,
  "\u2581common": 1502,
  "r\u00e1": 1503,
  "\u2581v\u0161e": 1504,
  "\u258123": 1505,
  "\u2581therefore": 1506,
  "nice": 1507,
  "\u2581food": 1508,
  "\u017e\u00ed": 1509,
  "\u2581able": 1510,
  "\u2581interest": 1511,
  "\u010dn\u00ed": 1512,
  "\u2581provide": 1513,
  "\u2581minutes": 1514,
  "\u2581Jesus": 1515,
  "\u2581These": 1516,
  "\u2581zp\u00e1tky": 1517,
  "\u2581light": 1518,
  "\u2581saying": 1519,
  "\u2581knew": 1520,
  "\u2581prost\u011b": 1521,
  "\u2581budete": 1522,
  "\u2581Roz": 1523,
  "\u2581Ka": 1524,
  "\u2581dostat": 1525,
  "\u2581pen\u00edze": 1526,
  "\u2581vzhledem": 1527,
  "\u2581ensure": 1528,
  "\u2581dv\u011b": 1529,
  "\u2581nov\u00e9": 1530,
  "\u2581basis": 1531,
  "\u2581podm\u00ednky": 1532,
  "\u2581Jde": 1533,
  "\u2581plan": 1534,
  "\u2581dom\u016f": 1535,
  "\u2581informac\u00ed": 1536,
  "night": 1537,
  "\u2581phone": 1538,
  "anna": 1539,
  "\u2581development": 1540,
  "\u2581d\u00e1l": 1541,
  "\u2581tuto": 1542,
  "\u2581Hi": 1543,
  "\u2581\u010d\u00e1sti": 1544,
  "\u2581p\u0159\u00edloze": 1545,
  "\u2581line": 1546,
  "\u2581Treaty": 1547,
  "vat": 1548,
  "\u2581ve\u010der": 1549,
  "\u2581El": 1550,
  "\u2581appropriate": 1551,
  "\u2581dobu": 1552,
  "\u2581zda": 1553,
  "n\u00ed\u017e": 1554,
  "he": 1555,
  "\u2581les": 1556,
  "ock": 1557,
  "\u2581velk\u00e1": 1558,
  "ts": 1559,
  "\u2581\u017eeny": 1560,
  "\u2581d\u011b": 1561,
  "rb": 1562,
  "\u2581says": 1563,
  "\u2581respect": 1564,
  "sta\u0148": 1565,
  "\u2581mluvit": 1566,
  "\u2581Wait": 1567,
  "\u2581posledn\u00ed": 1568,
  "\u2581needs": 1569,
  "\u2581move": 1570,
  "land": 1571,
  "\u2581provisions": 1572,
  "\u2581auto": 1573,
  "kon": 1574,
  "\u2581lze": 1575,
  "kr\u00e1t": 1576,
  "k\u016f": 1577,
  "\u2581Ver": 1578,
  "\u2581Unie": 1579,
  "ami": 1580,
  "mer": 1581,
  ":00": 1582,
  "\u2581group": 1583,
  "\u2581lep\u0161\u00ed": 1584,
  "\u2581Real": 1585,
  "\u2581Pa": 1586,
  "n\u00edm": 1587,
  "\u2581v\u00e1\u0161": 1588,
  "\u2581mimo": 1589,
  "uk": 1590,
  "\u2581Mus\u00edm": 1591,
  "\u2581zemi": 1592,
  "bal": 1593,
  "\u2581program": 1594,
  "eb": 1595,
  "\u2581M\u00e1": 1596,
  "\u2581face": 1597,
  "\u2581apply": 1598,
  "\u2581week": 1599,
  "\u2581pan": 1600,
  "\u2581met": 1601,
  "end": 1602,
  "\u2581later": 1603,
  "pro": 1604,
  "las": 1605,
  "\u2581fact": 1606,
  "\u2581\u017de": 1607,
  "\u2581mast": 1608,
  "\u2581form": 1609,
  "nie": 1610,
  "\u2581sp": 1611,
  "\u2581air": 1612,
  "nes": 1613,
  "\u2581jenom": 1614,
  "\u2581nes": 1615,
  "\u2581OJ": 1616,
  "\u2581bed": 1617,
  "\u2581v\u00e1\u017en\u011b": 1618,
  "\u2581jm\u00e9no": 1619,
  "\u2581value": 1620,
  "\u2581whether": 1621,
  "\u2581Jasn": 1622,
  "\u2581ml": 1623,
  "\u2581probl\u00e9m": 1624,
  "\u2581j": 1625,
  "ub": 1626,
  "\u2581based": 1627,
  "\u2581Sam": 1628,
  "\u00f3": 1629,
  "ab": 1630,
  "\u2581Tato": 1631,
  "\u2581young": 1632,
  "\u2581dobr\u00e9": 1633,
  "room": 1634,
  "ujte": 1635,
  "ana": 1636,
  "\u2581run": 1637,
  "\u2581myslel": 1638,
  "\u2581hours": 1639,
  "\u011bkuji": 1640,
  "\u2581true": 1641,
  "\u2581Agreement": 1642,
  "\u2581four": 1643,
  "\u25812009": 1644,
  "\u2581moment": 1645,
  "\u2581je\u017e": 1646,
  "\u2581st\u00e1t\u016f": 1647,
  "\u2581games": 1648,
  "\u2581amount": 1649,
  "?\"": 1650,
  "\u2581morning": 1651,
  "\u2581N\u00e1": 1652,
  "iv": 1653,
  "\u2581a\u0165": 1654,
  "\u2581\u00fadaje": 1655,
  "\u2581December": 1656,
  "\u2581chce": 1657,
  "\u2581cut": 1658,
  "\u2581specific": 1659,
  "\u2581decision": 1660,
  "\u2581Bar": 1661,
  "Po": 1662,
  "lin": 1663,
  "\u25812007": 1664,
  "\u2581making": 1665,
  "we": 1666,
  "\u2581Servi": 1667,
  "\u2581patients": 1668,
  "\u2581President": 1669,
  "\u2581Nikdy": 1670,
  "\u2581abys": 1671,
  "\u2581guess": 1672,
  "\u2581mohla": 1673,
  "\u2581Byla": 1674,
  "ral": 1675,
  "lat": 1676,
  "\u2581city": 1677,
  "l\u00e9": 1678,
  "\u2581nem": 1679,
  "\u2581mu\u017e": 1680,
  "\u2581video": 1681,
  "\u2581sv\u00fdch": 1682,
  "\u2581killed": 1683,
  "\u2581pry\u010d": 1684,
  "OK": 1685,
  "\u2581photo": 1686,
  "\u2581access": 1687,
  "\u2581Advisory": 1688,
  "mlouv\u00e1m": 1689,
  "tek": 1690,
  "\u2581n\u011b": 1691,
  "\u2581zbo\u017e\u00ed": 1692,
  "out": 1693,
  "\u0161t\u011b": 1694,
  "\u2581M\u016fj": 1695,
  "\u2581sound": 1696,
  "\u2581security": 1697,
  "lon": 1698,
  "\u2581Sk": 1699,
  "\u2581t\u00edmto": 1700,
  "\u2581zdarma": 1701,
  "\u2581fire": 1702,
  "\u2581\u00da\u0159": 1703,
  "\u2581cannot": 1704,
  "\u2581applicable": 1705,
  "\u2581br": 1706,
  "\u2581jedno": 1707,
  "go": 1708,
  "\u2581Show": 1709,
  "sa": 1710,
  "\u25815.": 1711,
  "ap": 1712,
  "\u2581office": 1713,
  "\u258127": 1714,
  "all": 1715,
  "\u2581His": 1716,
  "\u2581III": 1717,
  "ful": 1718,
  "\u0148te": 1719,
  "n\u00fdch": 1720,
  "\u2581mno\u017estv\u00ed": 1721,
  "\u2581zase": 1722,
  "\u2581Bu": 1723,
  "\u2581zem\u00ed": 1724,
  "sh": 1725,
  "\u2581above": 1726,
  "\u2581tob\u011b": 1727,
  "\u2581d\u00edt\u011b": 1728,
  "\u2581En": 1729,
  "\u2581Jste": 1730,
  "sta": 1731,
  "\u2581Mysl": 1732,
  "prav": 1733,
  "\u2581D\u011bl": 1734,
  "her": 1735,
  "\u2581activities": 1736,
  "way": 1737,
  "\u2581Cht\u011bl": 1738,
  "\u2581v\u017edy": 1739,
  "\u2581death": 1740,
  "ali": 1741,
  "\u010di": 1742,
  "\u2581Bylo": 1743,
  "\u2581film": 1744,
  "\u258128": 1745,
  "\u2581m\u016f\u017e": 1746,
  "\u2581dob\u011b": 1747,
  "ence": 1748,
  "\u2581five": 1749,
  "6": 1750,
  "\u2581alone": 1751,
  "\u2581natural": 1752,
  "\u2581subject": 1753,
  "\u2581org\u00e1ny": 1754,
  "\u258126": 1755,
  "ning": 1756,
  "\u2581Mohl": 1757,
  "\u2581party": 1758,
  "\u2581further": 1759,
  "\u2581Ke": 1760,
  "\u2581ko": 1761,
  "sko": 1762,
  "\u2581Bo\u017ee": 1763,
  "ight": 1764,
  "\u2581abychom": 1765,
  "\u2581become": 1766,
  "\u2581zvl\u00e1\u0161tn\u00ed": 1767,
  "hled": 1768,
  "\u2581Am": 1769,
  "v\u00fd": 1770,
  "\u2581prost\u0159ed\u00ed": 1771,
  "\u2581mohli": 1772,
  "\u2581Komisi": 1773,
  "ily": 1774,
  "\u2581Br": 1775,
  "\u2581Park": 1776,
  "\u2581uveden\u00fdch": 1777,
  "\u2581million": 1778,
  "\u2581economic": 1779,
  "\u2581Ed": 1780,
  "\u2581page": 1781,
  "l\u00fd": 1782,
  "01": 1783,
  "lan": 1784,
  "\u2581p\u0159esn\u011b": 1785,
  "\u2581dispozici": 1786,
  "\u2581turn": 1787,
  "\u2581die": 1788,
  "About": 1789,
  "\u2581m\u011bsta": 1790,
  "io": 1791,
  "\u2581protection": 1792,
  "\u2581host": 1793,
  "ug": 1794,
  "\u2581treatment": 1795,
  "\u2581Take": 1796,
  "\u2581M\u00e1me": 1797,
  "\u2581Su": 1798,
  "\u2581Will": 1799,
  "kus": 1800,
  "\u2581past": 1801,
  "lit": 1802,
  "\u2581hra": 1803,
  "\u2581soon": 1804,
  "z\u00ed": 1805,
  "\u2581Dad": 1806,
  "\u2581d\u00e1t": 1807,
  "\u2581sv\u00fdm": 1808,
  "\u2581Michael": 1809,
  "\u2581either": 1810,
  "\u2581lo": 1811,
  "\u2581mus\u00edme": 1812,
  "20": 1813,
  "tri": 1814,
  "\u2581bath": 1815,
  "ting": 1816,
  "c\u00edch": 1817,
  "\u010fte": 1818,
  "\u2581However": 1819,
  "\u2581Char": 1820,
  "\u2581ud\u011bl\u00e1": 1821,
  "\u2581dvou": 1822,
  "\u2581deal": 1823,
  "ger": 1824,
  "\u25812013": 1825,
  "\u2581p\u0159\u00edstup": 1826,
  "\u2581ostatn\u00ed": 1827,
  "min": 1828,
  "bor": 1829,
  "ct": 1830,
  "\u2581\u010d\u00edslo": 1831,
  "\u2581pay": 1832,
  "\u2581weeks": 1833,
  "\u2581stran\u011b": 1834,
  "tr": 1835,
  "\u2581Un": 1836,
  "\u2581Every": 1837,
  "\u2581thereof": 1838,
  "):": 1839,
  "\u2581d\u00edky": 1840,
  "\u2581Dan": 1841,
  "\u2581podpory": 1842,
  "\u2581United": 1843,
  "\u2581syst\u00e9m": 1844,
  "\u2581total": 1845,
  "\u2581relevant": 1846,
  "\u2581\u00fadaj\u016f": 1847,
  "\u2581rovn\u011b\u017e": 1848,
  "\u2581mluv\u00ed": 1849,
  "\u2581n\u011bkdy": 1850,
  "ca": 1851,
  "\u2581hned": 1852,
  "ery": 1853,
  "50": 1854,
  "\u2581amended": 1855,
  "\u2581parlamentu": 1856,
  "\u2581n\u011bjak\u00fd": 1857,
  "ag": 1858,
  "\u2581naj\u00edt": 1859,
  "\u2581\u017e\u00e1dn\u00fd": 1860,
  "\u2581finan\u010dn\u00ed": 1861,
  "\u2581energy": 1862,
  "\u2581Je\u0161t\u011b": 1863,
  "tky": 1864,
  "\u2581wants": 1865,
  "ig": 1866,
  "\u2581gone": 1867,
  "\u2581myself": 1868,
  "\u2581syn": 1869,
  "bi": 1870,
  "\u2581clear": 1871,
  "\u2581serious": 1872,
  "\u2581Like": 1873,
  "den": 1874,
  "\u0161la": 1875,
  "\u2581M\u016f\u017ee": 1876,
  "\u2581m\u011blo": 1877,
  "\u2581lost": 1878,
  "\u2581Ga": 1879,
  "\u2581check": 1880,
  "ause": 1881,
  "\u2581Proto": 1882,
  "\u25812011": 1883,
  "day": 1884,
  "\u2581Ste": 1885,
  "\u25812014": 1886,
  "ier": 1887,
  "ft": 1888,
  "pad": 1889,
  "\u2581Podle": 1890,
  "Ne": 1891,
  "stal": 1892,
  "\u2581procedure": 1893,
  "\u2581anyone": 1894,
  "\u2581inter": 1895,
  "\u2581makes": 1896,
  "\u2581mnoho": 1897,
  "\u2581sv\u011bt": 1898,
  "\u2581v\u0161em": 1899,
  "\u2581odv\u011btv\u00ed": 1900,
  "for": 1901,
  "av": 1902,
  "\u2581After": 1903,
  "\u2581Lo": 1904,
  "\u2581stock": 1905,
  "\u2581read": 1906,
  "\u2581l\u00ed": 1907,
  "\u2581jednoho": 1908,
  "\u2581transport": 1909,
  "\u2581cha": 1910,
  "\u2581sv\u011bt\u011b": 1911,
  "\u2581prices": 1912,
  "net": 1913,
  "\u2581nebyl": 1914,
  "\u2581Hu": 1915,
  "5": 1916,
  "\u2581cel\u00fd": 1917,
  "\u2581Ani": 1918,
  "\u2581late": 1919,
  "\u2581podporu": 1920,
  "\u2581Ca": 1921,
  "\u2581pr\u00e1vn\u00ed": 1922,
  "\u2581rights": 1923,
  "\u2581hlavn\u00ed": 1924,
  "\u2581results": 1925,
  "\u2581zp\u016fsobem": 1926,
  "\u2581gave": 1927,
  "\u2581quality": 1928,
  "Q": 1929,
  "\u2581le": 1930,
  "\u2581Star": 1931,
  "\u2581hair": 1932,
  "\u2581ro": 1933,
  "ong": 1934,
  "\u2581sob\u011b": 1935,
  "\u2581situation": 1936,
  "rky": 1937,
  "\u2581Jsme": 1938,
  "\u2581exactly": 1939,
  "\u2581beautiful": 1940,
  "\u00e1n\u00ed": 1941,
  "\u25812012": 1942,
  "\u2581spole\u010dnost": 1943,
  "\u258129": 1944,
  "\u2581door": 1945,
  "\u2581policy": 1946,
  "\u2581n\u011bm": 1947,
  "\u2581reason": 1948,
  "port": 1949,
  "\u2581park": 1950,
  "\u2581happy": 1951,
  "of": 1952,
  "race": 1953,
  "stav": 1954,
  "\u2581chv\u00edli": 1955,
  "\u2581st\u00e1tu": 1956,
  "\u2581health": 1957,
  "ph": 1958,
  "\u2581key": 1959,
  "wi": 1960,
  "\u2581tv\u00e9": 1961,
  "\u2581vypad\u00e1": 1962,
  "8": 1963,
  "\u2581jin\u00fdch": 1964,
  "\u2581others": 1965,
  "\u2581required": 1966,
  "res": 1967,
  "\u2581Pre": 1968,
  "\u2581Her": 1969,
  "\u2581single": 1970,
  "\u2581\u010dlov\u011bk": 1971,
  "\u2581half": 1972,
  "\u2581Ben": 1973,
  "\u2581anti": 1974,
  "\u2581chcete": 1975,
  "\u2581v\u011bt\u0161\u00ed": 1976,
  "\u2581r\u00e1no": 1977,
  "ii": 1978,
  "\u2581contact": 1979,
  "\u2581m\u011bly": 1980,
  "\u258160": 1981,
  "\u2581thinking": 1982,
  "\u2581Book": 1983,
  "\u2581par": 1984,
  "mate": 1985,
  "ous": 1986,
  "\u2581doktor": 1987,
  "\u2581National": 1988,
  "\u2581rest": 1989,
  "ovala": 1990,
  "ik": 1991,
  "pan": 1992,
  "\u2581sent": 1993,
  "pen": 1994,
  "\u2581women": 1995,
  "\u2581future": 1996,
  "\u2581couple": 1997,
  "\u2581team": 1998,
  "\u2581Christ": 1999,
  "our": 2000,
  "\u2581slu\u017eeb": 2001,
  "amar\u00e1": 2002,
  "\u2581(3)": 2003,
  "\u2581brother": 2004,
  "\u2581word": 2005,
  "\u2581Opravdu": 2006,
  "str": 2007,
  "\u2581general": 2008,
  "\u2581nikdo": 2009,
  "ama": 2010,
  "\u2581hit": 2011,
  "\u2581bod": 2012,
  "ron": 2013,
  "\u2581dis": 2014,
  "nost": 2015,
  "hy": 2016,
  "\u2581authority": 2017,
  "\u2581management": 2018,
  "\u2581prosince": 2019,
  "han": 2020,
  "\u2581Dal\u0161\u00ed": 2021,
  "\u2581\u010d\u00e1st": 2022,
  "\u2581uveden\u00e9ho": 2023,
  "\u2581hurt": 2024,
  "\u2581state": 2025,
  "\u2581000": 2026,
  "sp": 2027,
  "\u2581abyste": 2028,
  "\u2581blow": 2029,
  "iny": 2030,
  "war": 2031,
  "\u2581design": 2032,
  "\u2581m\u00edst\u011b": 2033,
  "\u2581example": 2034,
  "\u2581town": 2035,
  "\u2581project": 2036,
  "\u2581hodnocen\u00ed": 2037,
  "\u2581n\u00e1": 2038,
  "\u2581walk": 2039,
  "\u2581n\u011bkoho": 2040,
  "\u2581po\u017eadavky": 2041,
  "\u2581trade": 2042,
  "\u2581site": 2043,
  "\u258108": 2044,
  "oz": 2045,
  "\u2581laid": 2046,
  "OJ": 2047,
  "ja": 2048,
  "last": 2049,
  "ena": 2050,
  "\u2581international": 2051,
  "\u2581black": 2052,
  "\u2581zpr\u00e1vy": 2053,
  "\u2581d\u00e1m": 2054,
  "\u2581considered": 2055,
  "\u2581pr\u00e1va": 2056,
  "\u2581doctor": 2057,
  "\u2581sv\u00e9m": 2058,
  "\u2581front": 2059,
  "\u2581cel\u00e9": 2060,
  "luck": 2061,
  "\u00edch": 2062,
  "fa": 2063,
  "con": 2064,
  "\u2581=": 2065,
  "\u2581\u017eivota": 2066,
  "\u2581ur\u010dit": 2067,
  "til": 2068,
  "\u2581thank": 2069,
  "\u2581y": 2070,
  "\u2581present": 2071,
  "\u2581Asi": 2072,
  "\u2581strany": 2073,
  "Pro": 2074,
  "\u2581month": 2075,
  "\u2581Tu": 2076,
  "\u25816.": 2077,
  "\u2581P\u0159\u00ed": 2078,
  "ovan\u00e9": 2079,
  "\u2581June": 2080,
  "vl\u00e1d": 2081,
  "\u2581kg": 2082,
  "hal": 2083,
  "\u2581Lord": 2084,
  "\u2581inside": 2085,
  "\u2581n\u00e1\u0161": 2086,
  "\u2581concerning": 2087,
  "\u2581dal": 2088,
  "\u016fv": 2089,
  "sk": 2090,
  "\u2581nena": 2091,
  "\u2581\u0159ekla": 2092,
  "\u2581mal\u00e9": 2093,
  "\u2581\u010dem": 2094,
  "\u2581probably": 2095,
  "pon": 2096,
  "\u2581text": 2097,
  "\u2581ba": 2098,
  "\u2581Moj": 2099,
  "pu": 2100,
  "\u2581Kr": 2101,
  "uj\u00edc\u00ed": 2102,
  "\u258105": 2103,
  "\u2581known": 2104,
  "\u2581Pak": 2105,
  "\u2581star\u0161\u00ed": 2106,
  "\u2581m\u016f\u017ee\u0161": 2107,
  "\u2581Ju": 2108,
  "zz": 2109,
  "zen": 2110,
  "gen": 2111,
  "\u2581costs": 2112,
  "ela": 2113,
  "\u2581legal": 2114,
  "\u010dit": 2115,
  "\u2581yes": 2116,
  "koliv": 2117,
  "\u2581V\u0161ichni": 2118,
  ");": 2119,
  "\u2581dny": 2120,
  "\u2581From": 2121,
  "\u2581rychle": 2122,
  "pi": 2123,
  "\u2581established": 2124,
  "\u2581jedna": 2125,
  "\u2581Na\u0159\u00edzen\u00ed": 2126,
  "\u2581p\u0159\u00edli\u0161": 2127,
  "\u2581More": 2128,
  "ovali": 2129,
  "rd": 2130,
  "\u2581process": 2131,
  "\u2581ceny": 2132,
  "\u2581easy": 2133,
  "\u2581Dobr\u00e1": 2134,
  "\u2581according": 2135,
  "\u2581asked": 2136,
  "\u2581vz": 2137,
  "skou": 2138,
  "aj\u00ed": 2139,
  "ble": 2140,
  "\u2581double": 2141,
  "\u2581du": 2142,
  "\u2581Tell": 2143,
  "\u2581everyone": 2144,
  "\u2581mo\u017enost": 2145,
  "\u2581Gra": 2146,
  "\u2581doby": 2147,
  "35": 2148,
  "\u2581jednu": 2149,
  "\u2581ni": 2150,
  "nik": 2151,
  "\u2581offer": 2152,
  "EL": 2153,
  "Re": 2154,
  "\u2581Paul": 2155,
  "\u2581Dnes": 2156,
  "\u2581V\u00fd": 2157,
  "\u2581dostane": 2158,
  "\u2581Stop": 2159,
  "\u2581na\u0161\u00ed": 2160,
  "\u2581David": 2161,
  "dek": 2162,
  "\u2581nyn\u00ed": 2163,
  "\u25812016": 2164,
  "\u2581en": 2165,
  "\u2581pot\u0159eby": 2166,
  "\u2581Frank": 2167,
  "\u2581Air": 2168,
  "led": 2169,
  "\u2581va\u0161\u00ed": 2170,
  "kal": 2171,
  "ff": 2172,
  "ten": 2173,
  "\u2581happen": 2174,
  "illa": 2175,
  "\u2581social": 2176,
  "\u2581\u017eena": 2177,
  "\u00e1d": 2178,
  "\u2581Internet": 2179,
  "\u2581Hol": 2180,
  "\u0161e": 2181,
  "sud": 2182,
  "cz": 2183,
  "\u2581dal\u0161\u00edch": 2184,
  "\u2581dokud": 2185,
  "\u2581book": 2186,
  "\u2581comes": 2187,
  "\u2581stuff": 2188,
  "\u2581R\u00e1d": 2189,
  "\u2581sta": 2190,
  "\u2581ga": 2191,
  "ga": 2192,
  "\u2581prost\u0159ednictv\u00edm": 2193,
  "\u2581\u00fapln\u011b": 2194,
  "\u2581wish": 2195,
  "\u2581additional": 2196,
  "\u2581main": 2197,
  "\u2581pe": 2198,
  "sti": 2199,
  "\u2581\u0158\u00edka": 2200,
  "gra": 2201,
  "AL": 2202,
  "\u2581v\u00fd\u0161e": 2203,
  "\u2581nach\u00e1z\u00ed": 2204,
  "\u2581potom": 2205,
  "\u2581zp\u011bt": 2206,
  "st\u011b": 2207,
  "\u2581companies": 2208,
  "\u2581knows": 2209,
  "nd": 2210,
  "\u2581truth": 2211,
  "dl": 2212,
  "n\u00edk": 2213,
  "\u2581nedo": 2214,
  "cen": 2215,
  "\u25812003": 2216,
  "\u2581Pra": 2217,
  "\u2581m\u00e9ho": 2218,
  "\u2581V\u0161ech": 2219,
  "\u2581center": 2220,
  "\u2581pomoci": 2221,
  "\u2581started": 2222,
  "\u2581outside": 2223,
  "div": 2224,
  "\u2581pravda": 2225,
  "0": 2226,
  "ac": 2227,
  "rat": 2228,
  "rovna": 2229,
  "\u2581Em": 2230,
  "ujeme": 2231,
  "tro": 2232,
  "unt": 2233,
  "12": 2234,
  "rk": 2235,
  "\u2581pacient\u016f": 2236,
  "\u2581rate": 2237,
  "\u2581child": 2238,
  "\u2581cen": 2239,
  "\u2581San": 2240,
  "\u2581pravidla": 2241,
  "\u2581words": 2242,
  "\u2581sex": 2243,
  "muset": 2244,
  "vid": 2245,
  "h\u00e1": 2246,
  "\u2581local": 2247,
  "\u2581nov\u00fd": 2248,
  "\u00a9": 2249,
  "\u2581tax": 2250,
  "\u2581programu": 2251,
  "\u2581Sta": 2252,
  "\u2581fight": 2253,
  "\u2581slova": 2254,
  "\u2581though": 2255,
  "\u2581\u00fa\u010dely": 2256,
  "\u2581celou": 2257,
  "eu": 2258,
  "\u2581equipment": 2259,
  "\u2581kom": 2260,
  "\u2581snad": 2261,
  "\u2581safety": 2262,
  "\u2581eyes": 2263,
  "\u2581produkty": 2264,
  "\u2581Max": 2265,
  "vej": 2266,
  "\u2581safe": 2267,
  "\u2581platnost": 2268,
  "pat": 2269,
  "\u2581Kdyby": 2270,
  "\u2581kids": 2271,
  "\u2581v\u011bd\u011bl": 2272,
  "\u2581competent": 2273,
  "e\u0161": 2274,
  "\u2581Free": 2275,
  "\u2581zpr\u00e1vu": 2276,
  "\u0161t": 2277,
  "\u0159it": 2278,
  "\u2581hands": 2279,
  "\u2581Bez": 2280,
  "\u2581pomoc\u00ed": 2281,
  "\u2581systems": 2282,
  "\u2581n\u011bkolik": 2283,
  "vil": 2284,
  "bra": 2285,
  "\u2581Mor": 2286,
  "\u2581M\u00e1te": 2287,
  "\u2581enter": 2288,
  "mysl": 2289,
  "\u2581personal": 2290,
  "\u2581sto": 2291,
  "bij": 2292,
  "\u258107": 2293,
  "\u2581news": 2294,
  "\u2581st": 2295,
  "\u2581jin\u00e9ho": 2296,
  "\u2581Va\u0161e": 2297,
  "\u2581model": 2298,
  "\u2581Whereas": 2299,
  "\u2581n\u011bkter\u00e9": 2300,
  "red": 2301,
  "\u2581directly": 2302,
  "su": 2303,
  "\u2581ran": 2304,
  "\u2581Ru": 2305,
  "\u2581dog": 2306,
  "ette": 2307,
  "\u2581war": 2308,
  "\u2581hold": 2309,
  "\u2581living": 2310,
  "\u2581worry": 2311,
  "\u2581goods": 2312,
  "\u2581short": 2313,
  "\u2581building": 2314,
  "\u2581chance": 2315,
  "\u2581Pan": 2316,
  "\u2581trh": 2317,
  "\u2581upon": 2318,
  "\u010dil": 2319,
  "\u2581\u010dinnosti": 2320,
  "\u2581$": 2321,
  "\u2581otec": 2322,
  "\u2581sna\u017e\u00ed": 2323,
  "\u00c1": 2324,
  "\u2581d\u016fle\u017eit\u00e9": 2325,
  "\u2581c\u00edlem": 2326,
  "\u2581shot": 2327,
  "ER": 2328,
  "\u2581Min": 2329,
  "kov": 2330,
  "\u2581\u20ac": 2331,
  "\u2581January": 2332,
  "\u2581ustanoven\u00ed": 2333,
  "aw": 2334,
  "\u017ei": 2335,
  "\u25812000": 2336,
  "n\u00e9ho": 2337,
  "\u2581p\u0159\u00edlohy": 2338,
  "\u2581Prague": 2339,
  "\u2581Ri": 2340,
  "\u2581brought": 2341,
  "\u2581pan\u00ed": 2342,
  "ilo": 2343,
  "\u2581kolem": 2344,
  "\u2581Kam": 2345,
  "\u2581eat": 2346,
  "nn": 2347,
  "\u2581behind": 2348,
  "25": 2349,
  "book": 2350,
  "\u2581police": 2351,
  "\u2581Ah": 2352,
  "\u2581supposed": 2353,
  "job": 2354,
  "\u2581floor": 2355,
  "\u2581position": 2356,
  "\u2581produkt\u016f": 2357,
  "\u2581private": 2358,
  "\u2581post": 2359,
  "15": 2360,
  "\u2581action": 2361,
  "\u2581pl\u00e1n": 2362,
  "ever": 2363,
  "\u2581photograph": 2364,
  "\u25812015": 2365,
  "nom": 2366,
  "\u2581druh\u00e9": 2367,
  "rod": 2368,
  "\u00da\u0159": 2369,
  "\u2581Mom": 2370,
  "\u2581establishing": 2371,
  "og": 2372,
  "sy": 2373,
  "friend": 2374,
  "\u2581Tel": 2375,
  "\u2581kr\u00e1s": 2376,
  "roz": 2377,
  "\u2581Du": 2378,
  "\u2581listen": 2379,
  "\u2581super": 2380,
  "kaz": 2381,
  "dal": 2382,
  "erry": 2383,
  "\u2581mu\u017ee": 2384,
  "\u2581p\u0159i\u0161el": 2385,
  "04": 2386,
  "\u2581due": 2387,
  "c\u00edt\u00ed": 2388,
  "\u2581basic": 2389,
  "hra": 2390,
  "\u2581cases": 2391,
  "\u2581pocit": 2392,
  "mp": 2393,
  "lic": 2394,
  "\u2581persons": 2395,
  "i\u010d": 2396,
  "ov\u00e9ho": 2397,
  "\u2581America": 2398,
  "\u00e1r": 2399,
  "im": 2400,
  "\u2581minute": 2401,
  "\u2581kam": 2402,
  "\u00edk": 2403,
  "\u2581request": 2404,
  "\u00edt": 2405,
  "\u2581fakt": 2406,
  "\u2581Si": 2407,
  "\u2581technical": 2408,
  "\u2581News": 2409,
  "\u2581experience": 2410,
  "\u2581\u010dasu": 2411,
  "\u2581tomorrow": 2412,
  "hem": 2413,
  "var": 2414,
  "tal": 2415,
  "a\u010dn\u00ed": 2416,
  "\u2581hodnoty": 2417,
  "To": 2418,
  "\u2581\u010dlensk\u00e9": 2419,
  "i\u010dky": 2420,
  "\u2581implementation": 2421,
  "\u2581skupiny": 2422,
  "\u2581red": 2423,
  "gt": 2424,
  "\u2581pa": 2425,
  "\u2581v\u00edte": 2426,
  "\u2581looks": 2427,
  "\u258110.": 2428,
  "\u2581min": 2429,
  "\u2581Peter": 2430,
  "p\u00ed\u0161": 2431,
  "\u2581meeting": 2432,
  "\u2581vol": 2433,
  "\u2581m\u011bs\u00edce": 2434,
  "\u2581zp\u016fsob": 2435,
  "\u2581table": 2436,
  "slouchej": 2437,
  "\u2581srdce": 2438,
  "\u2581[1],": 2439,
  "\u2581\u00fa\u010delem": 2440,
  "nul": 2441,
  "\u2581almost": 2442,
  "05": 2443,
  "\u2581Pot\u0159eb": 2444,
  "\u2581standard": 2445,
  "\u2581six": 2446,
  "11": 2447,
  "\u2581music": 2448,
  "\u2581travel": 2449,
  "$": 2450,
  "\u2581200": 2451,
  "\u2581sebou": 2452,
  "%": 2453,
  "\u2581led": 2454,
  "\u2581m\u011bn\u00ed": 2455,
  "\u2581p\u0159\u00edslu\u0161n\u00e9": 2456,
  "\u2581Listen": 2457,
  "\u2581AND": 2458,
  "\u2581Win": 2459,
  "!\"": 2460,
  "\u2581July": 2461,
  "\u2581nap\u0159\u00edklad": 2462,
  "\u2581current": 2463,
  "\u2581field": 2464,
  "\u2581include": 2465,
  "\u00fdmi": 2466,
  "que": 2467,
  "\u2581effect": 2468,
  "st\u0159el": 2469,
  "\u2581related": 2470,
  "\u2581\u017e": 2471,
  "gu": 2472,
  "bl\u00e1z": 2473,
  "\u2581content": 2474,
  "\u2581vz\u00edt": 2475,
  "\u2581d\u00e1": 2476,
  "\u2581Court": 2477,
  "\u2581TO": 2478,
  "\u2581address": 2479,
  "\u258106": 2480,
  "\u2581code": 2481,
  "\u2581industry": 2482,
  "\u2581story": 2483,
  "so": 2484,
  "\u2581P\u00e1n": 2485,
  "\u2581takov\u00e9": 2486,
  "hose": 2487,
  "\u2581telefon": 2488,
  "\u2581hot": 2489,
  "\u2581jej": 2490,
  "\u2581n\u011bkter\u00fdch": 2491,
  "\u010dky": 2492,
  "\u2581dohody": 2493,
  "\u2581v\u00e1mi": 2494,
  "\u2581\u0159e\u0161en\u00ed": 2495,
  "\u2581pot\u0159ebuje": 2496,
  "\u2581class": 2497,
  "\u2581jin\u00fd": 2498,
  "\u2581land": 2499,
  "\u2581Ze": 2500,
  "i\u010dka": 2501,
  "\u2581Mat": 2502,
  "\u2581n\u00e1pad": 2503,
  "\u2581spou": 2504,
  "\u2581opinion": 2505,
  "\u2581evidence": 2506,
  "7": 2507,
  "\u2581France": 2508,
  "\u2581Vid\u00ed": 2509,
  "\u00edvejte": 2510,
  "lov": 2511,
  "\u2581Other": 2512,
  "\u00e1\u0159": 2513,
  "\u2581Che": 2514,
  "\u2581\u00farovni": 2515,
  "\u2581km": 2516,
  "\u2581apartment": 2517,
  "\u2581Give": 2518,
  "\u2581Red": 2519,
  "\u2581velk\u00e9": 2520,
  "ile": 2521,
  "\u2581nebylo": 2522,
  "\u2581October": 2523,
  "\u2581large": 2524,
  "stane": 2525,
  "\u2581longer": 2526,
  "\u2581zdrav\u00ed": 2527,
  "\u2581nejsem": 2528,
  "\u2581Tyto": 2529,
  "\u2581interested": 2530,
  "\u2581Sha": 2531,
  "lice": 2532,
  "\u2581top": 2533,
  "\u2581jinak": 2534,
  "din": 2535,
  "\u2581scar": 2536,
  "\u2581areas": 2537,
  "\u2581Ni": 2538,
  "\u2581bank": 2539,
  "\u2581nebyla": 2540,
  "\u2581cm": 2541,
  "\u2581con": 2542,
  "\u2581result": 2543,
  "\u2581City": 2544,
  "\u2581v\u017edycky": 2545,
  "\u2581star": 2546,
  "nit": 2547,
  "\u2581members": 2548,
  "\u2581Photo": 2549,
  "ste": 2550,
  "\u2581po\u010det": 2551,
  "2,": 2552,
  "ss": 2553,
  "\u2581seznam": 2554,
  "wa": 2555,
  "\u25812002": 2556,
  "\u2581drive": 2557,
  "\u2581weight": 2558,
  "\u2581sleep": 2559,
  "\u2581\u010dl\u00e1nek": 2560,
  "\u2581doma": 2561,
  "\u2581al": 2562,
  "\u2581fotografie": 2563,
  "old": 2564,
  "\u2581obraz": 2565,
  "rah": 2566,
  "\u2581husband": 2567,
  "\u2581cost": 2568,
  "\u258110:": 2569,
  "lou": 2570,
  "\u2581below": 2571,
  "ast": 2572,
  "\u2581increase": 2573,
  "st\u00ed": 2574,
  "pil": 2575,
  "\u2581programme": 2576,
  "mon": 2577,
  "gg": 2578,
  "\u2581cover": 2579,
  "quite": 2580,
  "13": 2581,
  "ise": 2582,
  "\u2581Fa": 2583,
  "\u2581Luc": 2584,
  "XX": 2585,
  "\u2581figure": 2586,
  "\u2581\u010dervna": 2587,
  "\u2581pick": 2588,
  "tic": 2589,
  "\u2581Nothing": 2590,
  "shi": 2591,
  "\u2581d\u00e1le": 2592,
  "\u2581similar": 2593,
  "\u2581paper": 2594,
  "sk\u00e9ho": 2595,
  "\u2581fa": 2596,
  "nosti": 2597,
  "\u2581maximum": 2598,
  "\u2581pozd\u011bji": 2599,
  "\u2581points": 2600,
  "\u2581v\u011bc\u00ed": 2601,
  "\u25817.": 2602,
  "\u2581M\u016f\u017eete": 2603,
  "mar": 2604,
  "\u2581import": 2605,
  "\u2581Aby": 2606,
  "ike": 2607,
  "\u2581drink": 2608,
  "\u2581send": 2609,
  "\u2581m\u00edsta": 2610,
  "ore": 2611,
  "ovan\u00fd": 2612,
  "\u2581Martin": 2613,
  "k\u00e9": 2614,
  "\u2581trust": 2615,
  "\u0159\u00e1d": 2616,
  "iz": 2617,
  "ita": 2618,
  "\u2581bu": 2619,
  "star": 2620,
  "\u2581n\u00e1mi": 2621,
  "ING": 2622,
  "\u2581covered": 2623,
  "*": 2624,
  "dr": 2625,
  "\u2581purpose": 2626,
  "ther": 2627,
  "\u2581Vid\u011bl": 2628,
  "fer": 2629,
  "\u2581jedn\u00e9": 2630,
  "\u2581break": 2631,
  "\u2581vlastn\u011b": 2632,
  "\u2581along": 2633,
  "\u2581m\u011bs\u00edc\u016f": 2634,
  "\u2581V\u0161echny": 2635,
  "vr": 2636,
  "\u2581export": 2637,
  "\u2581watch": 2638,
  "\u2581p\u00e1n": 2639,
  "\u2581probl\u00e9my": 2640,
  "\u2581pi": 2641,
  "\u2581reference": 2642,
  "\u00fa": 2643,
  "\u2581English": 2644,
  "ham": 2645,
  "\u2581Wa": 2646,
  "EN": 2647,
  "obrazit": 2648,
  "\u2581tr": 2649,
  "\u2581ha": 2650,
  "vnit\u0159": 2651,
  "\u2581animals": 2652,
  "\u2581\u0161t\u011bst\u00ed": 2653,
  "low": 2654,
  "\u2581Art": 2655,
  "\u2581goes": 2656,
  "ix": 2657,
  "\u0161li": 2658,
  "\u2581cena": 2659,
  "\u2581nechce": 2660,
  "kov\u00e9": 2661,
  "\u2581Contact": 2662,
  "\u2581individual": 2663,
  "\u0159ekl": 2664,
  "sk\u00fdch": 2665,
  "\u2581March": 2666,
  "\u2581Je\u017e\u00ed\u0161": 2667,
  "\u2581speak": 2668,
  "\u2581nesm\u00ed": 2669,
  "14": 2670,
  "\u00e9r": 2671,
  "\u2581nab\u00edz\u00ed": 2672,
  "Co": 2673,
  "\u2581na\u0159\u00edzen\u00edm": 2674,
  "\u2581vy\u0161\u0161\u00ed": 2675,
  "\u2581age": 2676,
  "ino": 2677,
  "\u2581credit": 2678,
  "\u2581pracovn\u00ed": 2679,
  "\u2581message": 2680,
  "gi": 2681,
  "\u2581needed": 2682,
  "\u2581white": 2683,
  "\u2581\u00fazem\u00ed": 2684,
  "\u2581among": 2685,
  "16": 2686,
  "\u2581str": 2687,
  "tn\u00ed": 2688,
  "\u2581works": 2689,
  "\u2581Wien": 2690,
  "\u2581pat\u0159\u00ed": 2691,
  "ki": 2692,
  "\u2581Nikd": 2693,
  "\u2581International": 2694,
  "br": 2695,
  "\u2581cel\u00e9m": 2696,
  "\u2581near": 2697,
  "03": 2698,
  "\u2581research": 2699,
  "\u2581\u00da": 2700,
  "\u2581size": 2701,
  "\u2581buy": 2702,
  "\u2581cooperation": 2703,
  "\u2581300": 2704,
  "\u2581spole\u010denstv\u00ed": 2705,
  "\u2581sv\u011bta": 2706,
  "\u2581share": 2707,
  "ole": 2708,
  "\u2581software": 2709,
  "lez": 2710,
  "\u2581dostal": 2711,
  "\u2581tolik": 2712,
  "ors": 2713,
  "d\u00e1": 2714,
  "stv\u00ed": 2715,
  "\u2581effects": 2716,
  "\u2581final": 2717,
  "d\u011blal": 2718,
  "sil": 2719,
  "\u258135": 2720,
  "\u2581problems": 2721,
  "\u258190": 2722,
  "\u2581okol\u00ed": 2723,
  "form": 2724,
  "ros": 2725,
  "ert": 2726,
  "\u2581low": 2727,
  "\u2581Z\u00e1": 2728,
  "jezd": 2729,
  "\u010dko": 2730,
  "ez": 2731,
  "\u2581carried": 2732,
  "\u2581sub": 2733,
  "\u2581Budu": 2734,
  "\u2581v\u00fdrobky": 2735,
  "\u2581Great": 2736,
  "\u2581mou": 2737,
  "\u2581p\u011bt": 2738,
  "\u25819.": 2739,
  "\u2581died": 2740,
  "nal": 2741,
  "\u2581va\u0161i": 2742,
  "\u2581sense": 2743,
  "\u2581na\u0161ich": 2744,
  "\u2581material": 2745,
  "\u2581A\u017e": 2746,
  "\u2581daughter": 2747,
  "\u2581pot\u0159ebu": 2748,
  "\u2581Mon": 2749,
  "\u258180": 2750,
  "\u2581mal": 2751,
  "\u00e1v\u00e1": 2752,
  "\u2581kur": 2753,
  "hop": 2754,
  "\u2581answer": 2755,
  "\u25812018": 2756,
  "\u2581mass": 2757,
  "mal": 2758,
  "\u2581stand": 2759,
  "ated": 2760,
  "\u2581cht\u011bla": 2761,
  "\u2581takov\u00fd": 2762,
  "cy": 2763,
  "\u2581lose": 2764,
  "\u2581uvid\u00ed": 2765,
  "qui": 2766,
  "razil": 2767,
  "\u2581d\u016fm": 2768,
  "\u2581bl": 2769,
  "\u2581tried": 2770,
  "\u2581ubytov\u00e1n\u00ed": 2771,
  "\u2581noci": 2772,
  "\u2581Dobr\u00fd": 2773,
  "ally": 2774,
  "\u2581musel": 2775,
  "\u2581pr\u00e1vo": 2776,
  "\u2581t\u011bmto": 2777,
  "ved": 2778,
  "\u25818.": 2779,
  "\u2581typu": 2780,
  "\u2581nov\u00e9ho": 2781,
  "\u2581himself": 2782,
  "\u2581save": 2783,
  "\u2581z\u00e1\u0159\u00ed": 2784,
  "lar": 2785,
  "n\u00fdm": 2786,
  "\u2581several": 2787,
  "\u2581Tur": 2788,
  "\u00e1me": 2789,
  "rand": 2790,
  "\u2581nemus\u00ed": 2791,
  "17": 2792,
  "\u2581sama": 2793,
  "era": 2794,
  "\u2581m\u00ed": 2795,
  "\u2581rooms": 2796,
  "viz": 2797,
  "\u2581study": 2798,
  "des": 2799,
  "24": 2800,
  "\u2581parents": 2801,
  "\u2581nimi": 2802,
  "\u2581offers": 2803,
  "\u011bj\u0161\u00ed": 2804,
  "\u2581General": 2805,
  "\u2581zlato": 2806,
  "\u2581received": 2807,
  "\u2581\u010derno": 2808,
  "\u2581animal": 2809,
  "\u2581obchodn\u00ed": 2810,
  "get": 2811,
  "\u2581jak\u00e9": 2812,
  "\u2581South": 2813,
  "\u2581April": 2814,
  "\u2581Pe": 2815,
  "\u2581Mal": 2816,
  "byt": 2817,
  "\u2581Tri": 2818,
  "\u2581adopted": 2819,
  "\u2581nechat": 2820,
  "\u2581Mrs": 2821,
  "\u2581Does": 2822,
  "\u2581return": 2823,
  "\u2581act": 2824,
  "\u2581hate": 2825,
  "\u2581hr\u00e1t": 2826,
  "18": 2827,
  "\u2581sweet": 2828,
  "\u2581purposes": 2829,
  "\u2581prov\u00e1d\u011bn\u00ed": 2830,
  "\u2581Jack": 2831,
  "\u2581York": 2832,
  "nky": 2833,
  "ari": 2834,
  "\u2581Ber": 2835,
  "\u2581pou\u017e\u00edt": 2836,
  "\u2581September": 2837,
  "\u2581IV": 2838,
  "\u2581pen\u011bz": 2839,
  "\u2581terms": 2840,
  "\u2581located": 2841,
  "\u2581n\u00e1klady": 2842,
  "\u2581agent": 2843,
  "n\u011bn\u00ed": 2844,
  "\u2581Christian": 2845,
  "\u2581gas": 2846,
  "000": 2847,
  "\u2581granted": 2848,
  "\u2581p\u0159ijde": 2849,
  "\u2581questions": 2850,
  "ear": 2851,
  "\u2581box": 2852,
  "\u2581podm\u00ednek": 2853,
  "\u2581tri": 2854,
  "nic": 2855,
  "\u2581lety": 2856,
  "don": 2857,
  "\u2581zobrazen\u00ed": 2858,
  "b\u011b": 2859,
  "\u2581pursuan": 2860,
  "\u2581afraid": 2861,
  "\u2581letech": 2862,
  "\u2581Super": 2863,
  "ator": 2864,
  "\u2581normal": 2865,
  "ese": 2866,
  "ick\u00e9": 2867,
  "mus": 2868,
  "\u2581replaced": 2869,
  "\u2581spole\u010dnost\u00ed": 2870,
  "\u2581mine": 2871,
  "\u2581chyt": 2872,
  "\u2581training": 2873,
  "\u2581nutn\u00e9": 2874,
  "\u2581Mis": 2875,
  "\u2581girls": 2876,
  "\u2581r\u016fzn\u00fdch": 2877,
  "80": 2878,
  "\u2581st\u00e1tech": 2879,
  "top": 2880,
  "kla": 2881,
  "\u2581wear": 2882,
  "\u2581vr\u00e1t\u00ed": 2883,
  "\u2581osob": 2884,
  "\u2581operation": 2885,
  "fr": 2886,
  "\u2581vehicle": 2887,
  "\u2581history": 2888,
  "\u2581World": 2889,
  "\u2581\u010dasto": 2890,
  "\u258104": 2891,
  "\u2581m\u00e9n\u011b": 2892,
  "lor": 2893,
  "lik": 2894,
  "\u2581500": 2895,
  "\u2581v\u00fdboru": 2896,
  "tre": 2897,
  "\u2581A\u0165": 2898,
  "\u25812001": 2899,
  "\u2581lead": 2900,
  "\u258132": 2901,
  "\u2581povolen\u00ed": 2902,
  "40": 2903,
  "gar": 2904,
  "\u2581space": 2905,
  "\u2581d\u011blal": 2906,
  "\u2581mus\u00edte": 2907,
  "eck": 2908,
  "vis": 2909,
  "\u2581ned\u011bl": 2910,
  "\u2581Even": 2911,
  "\u2581murder": 2912,
  "\u2581vody": 2913,
  "bit": 2914,
  "\u258145": 2915,
  "\u2581t\u00fddny": 2916,
  "vl": 2917,
  "\u2581dat": 2918,
  "\u2581mas": 2919,
  "\u2581skin": 2920,
  "HIS": 2921,
  "\u2581jasn\u011b": 2922,
  "loup": 2923,
  "\u2581Pr\u00e1v\u011b": 2924,
  "lep": 2925,
  "\u2581cross": 2926,
  "gas": 2927,
  "eno": 2928,
  "rek": 2929,
  "\u2581perfect": 2930,
  "\u2581parts": 2931,
  "c\u016f": 2932,
  "stra\u0161": 2933,
  "\u2581paid": 2934,
  "\u2581sea": 2935,
  "\u2581Bohu": 2936,
  "\u2581st\u00e1tn\u00ed": 2937,
  "bro": 2938,
  "\u25812017": 2939,
  "\u2581ka\u017ed\u00e9": 2940,
  "\u010c": 2941,
  "dr\u017e": 2942,
  "\u2581waiting": 2943,
  "tter": 2944,
  "\u2581bomb": 2945,
  "\u2581Chcete": 2946,
  "\u2581pull": 2947,
  "dat": 2948,
  "tor": 2949,
  "\u2581agreement": 2950,
  "\u2581lives": 2951,
  "\u2581imports": 2952,
  "\u2581stoj\u00ed": 2953,
  "\u2581n\u011bjak": 2954,
  "\u2581soubor": 2955,
  "rn": 2956,
  "\u2581Um": 2957,
  "\u2581base": 2958,
  "j\u00edmav": 2959,
  "\u2581dnem": 2960,
  "vu": 2961,
  "\u2581sector": 2962,
  "\u2581M\u011bla": 2963,
  "bar": 2964,
  "\u2581t\u00fdm": 2965,
  "inu": 2966,
  "\u2581des": 2967,
  "\u2581November": 2968,
  "izace": 2969,
  "cker": 2970,
  "\u2581\u010dervence": 2971,
  "fi": 2972,
  "\u2581anymore": 2973,
  "\u2581mar": 2974,
  "\u2581range": 2975,
  "\u2581added": 2976,
  "pl": 2977,
  "\u2581Two": 2978,
  "\u2581p\u016fjde": 2979,
  "\u2581earth": 2980,
  "int": 2981,
  "can": 2982,
  "jdeme": 2983,
  "\u2581Read": 2984,
  "\u2581First": 2985,
  "\u2581konce": 2986,
  "\u2581\u010dty\u0159i": 2987,
  "bl": 2988,
  "\u2581v\u00fdsledky": 2989,
  "\u2581pracuje": 2990,
  "\u2581p\u0159\u00edtel": 2991,
  "\u2581capital": 2992,
  "\u010den": 2993,
  "\u2581energie": 2994,
  "\u2581Ka\u017ed\u00fd": 2995,
  "ch\u00e1z\u00ed": 2996,
  "volal": 2997,
  "\u2581government": 2998,
  "\u2581d\u016fvod": 2999,
  "pp": 3000,
  "ep": 3001,
  "\u2581na\u0161eho": 3002,
  "\u2581Would": 3003,
  "how": 3004,
  "\u2581active": 3005,
  "time": 3006,
  "\u2581machine": 3007,
  "\u2581running": 3008,
  "\u2581partner": 3009,
  "\u2581zn\u00ed": 3010,
  "\u2581responsible": 3011,
  "\u2581str\u00e1nky": 3012,
  "\u00e9m": 3013,
  "\u2581USA": 3014,
  "\u2581Journal": 3015,
  "\u2581nezbytn\u00e9": 3016,
  "\u2581Boha": 3017,
  "\u2581Jist\u011b": 3018,
  "\u2581dose": 3019,
  "klid": 3020,
  "\u2581parties": 3021,
  "pak": 3022,
  "see": 3023,
  "\u2581issue": 3024,
  "\u2581restaur": 3025,
  "dle": 3026,
  "\u2581ad": 3027,
  "\u2581neo": 3028,
  "\u2581Praha": 3029,
  "jet": 3030,
  "ov\u00fdm": 3031,
  "ox": 3032,
  "\u2581Germany": 3033,
  "n\u00edch": 3034,
  "\u2581road": 3035,
  "vel": 3036,
  "\u2581(4)": 3037,
  "\u2581planet": 3038,
  "\u2581kter\u00fdch": 3039,
  "\u2581whatever": 3040,
  "\u2581mnohem": 3041,
  "\u2581takes": 3042,
  "\u2581sit": 3043,
  "king": 3044,
  "\u2581included": 3045,
  "\u2581nich\u017e": 3046,
  "\u258136": 3047,
  "dar": 3048,
  "\u2581ECB": 3049,
  "\u2581Pr": 3050,
  "\u2581often": 3051,
  "rs": 3052,
  "\u2581gun": 3053,
  "\u2581EEA": 3054,
  "\u25811,": 3055,
  "t\u00e9": 3056,
  "\u2581Bank": 3057,
  "\u2581telling": 3058,
  "\u2581skute\u010dnosti": 3059,
  "\u2581Vol": 3060,
  "\u258112.": 3061,
  "02": 3062,
  "\u2581follow": 3063,
  "\u2581House": 3064,
  "\u2581Central": 3065,
  "\u2581V\u00e1m": 3066,
  "\u2581ledna": 3067,
  "\u2581t\u00fdden": 3068,
  "\u2581server": 3069,
  "\u2581bud": 3070,
  "\u2581entire": 3071,
  "dejte": 3072,
  "erie": 3073,
  "\u2581capacity": 3074,
  "\u2581kol": 3075,
  "\u2581Pal": 3076,
  "py": 3077,
  "\u2581Group": 3078,
  "\u2581dokonce": 3079,
  "\u2581trouble": 3080,
  "\u2581alespo\u0148": 3081,
  "33": 3082,
  "nech": 3083,
  "\u2581stane": 3084,
  "\u258133": 3085,
  "\u2581dolar\u016f": 3086,
  "\u2581win": 3087,
  "ovac\u00ed": 3088,
  "\u2581Val": 3089,
  "\u2581domu": 3090,
  "\u2581protect": 3091,
  "\u2581nep\u0159i": 3092,
  "\u2581p\u0159\u00edpravku": 3093,
  "\u2581ra": 3094,
  "\u2581American": 3095,
  "\u2581applied": 3096,
  "\u2581nechal": 3097,
  "hi": 3098,
  "\u2581mat": 3099,
  "zo": 3100,
  "\u2581t\u011blo": 3101,
  "\u2581facilities": 3102,
  "\u258101": 3103,
  "\u2581changes": 3104,
  "\u2581EHP": 3105,
  "\u2581osoby": 3106,
  "\u2581bi": 3107,
  "\u2581entry": 3108,
  "\u2581Kingdom": 3109,
  "\u2581procedures": 3110,
  "\u2581Apart": 3111,
  "\u2581married": 3112,
  "\u2581YOU": 3113,
  "\u2581criteria": 3114,
  "\u2581souvislosti": 3115,
  "cum": 3116,
  "45": 3117,
  "itch": 3118,
  "ax": 3119,
  "\u2581stanoven\u00e9": 3120,
  "\u2581Gar": 3121,
  "\u2581continue": 3122,
  "\u2581foot": 3123,
  "ica": 3124,
  "\u258115.": 3125,
  "van": 3126,
  "\u2581provides": 3127,
  "stup": 3128,
  "\u2581n\u00e1vrh": 3129,
  "tion": 3130,
  "IT": 3131,
  "sek": 3132,
  "\u2581levels": 3133,
  "s\u00ed": 3134,
  "\u2581Par": 3135,
  "zen\u00ed": 3136,
  "\u2581zn\u00e1m": 3137,
  "\u2581minimum": 3138,
  "\u2581specified": 3139,
  "\u2581smrti": 3140,
  "\u2581hour": 3141,
  "\u25811/": 3142,
  "\u2581sou\u010d\u00e1st\u00ed": 3143,
  "\u2581klub": 3144,
  "\u2581Kontakt": 3145,
  "\u2581oni": 3146,
  "\u2581slovo": 3147,
  "\u2581strong": 3148,
  "\u2581seems": 3149,
  "\u2581Hod": 3150,
  "\u2581zm\u011bny": 3151,
  "vad": 3152,
  "vou": 3153,
  "ij": 3154,
  "kov\u00fd": 3155,
  "\u2581l\u00e1tky": 3156,
  "\u2581Tro": 3157,
  "\u2581postel": 3158,
  "\u2581addition": 3159,
  "\u2581event": 3160,
  "\u2581v\u00fdrobk\u016f": 3161,
  "06": 3162,
  "\u2581learn": 3163,
  "\u2581Official": 3164,
  "\u2581US": 3165,
  "\u2581p\u0159\u00edpad": 3166,
  "\u2581oil": 3167,
  "\u2581region": 3168,
  "\u2581\u0158\u00edk\u00e1": 3169,
  "ments": 3170,
  "\u2581m\u011bsto": 3171,
  "ize": 3172,
  "\u2581p\u0159edpisy": 3173,
  "zd": 3174,
  "ism": 3175,
  "\u2581mohlo": 3176,
  "rant": 3177,
  "\u2581step": 3178,
  "\u2581bezpe\u010dnosti": 3179,
  "\u2581Name": 3180,
  "\u2581Sea": 3181,
  "\u2581section": 3182,
  "\u2581forget": 3183,
  "\u2581Sir": 3184,
  "sel": 3185,
  "\u2581Mark": 3186,
  "\u2581nature": 3187,
  "\u2581\u0159\u00edjna": 3188,
  "\u2581choice": 3189,
  "j\u00edm\u00e1": 3190,
  "\u2581klid": 3191,
  "\u2581v\u00fd\u0161i": 3192,
  "\u2581z\u00edskat": 3193,
  "\u2581involved": 3194,
  "\u2581rather": 3195,
  "\u2581stejn\u00e9": 3196,
  "IA": 3197,
  "\u2581assessment": 3198,
  "rak": 3199,
  "ben": 3200,
  "\u2581cool": 3201,
  "\u2581Samoz\u0159ejm\u011b": 3202,
  "ens": 3203,
  "ns": 3204,
  "\u2581r\u016fzn\u00e9": 3205,
  "In": 3206,
  "jak": 3207,
  "\u2581zab\u00edt": 3208,
  "rit": 3209,
  "\u2581Only": 3210,
  "\u2581early": 3211,
  "@": 3212,
  "\u2581intended": 3213,
  "\u2581Q": 3214,
  "nut\u00ed": 3215,
  "59": 3216,
  "23": 3217,
  "\u2581fast": 3218,
  "\u2581Tam": 3219,
  "\u2581accommodation": 3220,
  "\u2581nem\u011bl": 3221,
  "\u2581ohledn\u011b": 3222,
  "\u2581hor": 3223,
  "\u2581skute\u010dn\u011b": 3224,
  "tiv": 3225,
  "\u25811:": 3226,
  "set": 3227,
  "\u2581rad": 3228,
  "\u2581Play": 3229,
  "\u2581krom\u011b": 3230,
  "hot": 3231,
  "\u2581Shi": 3232,
  "\u2581cause": 3233,
  "\u2581dar": 3234,
  "tka": 3235,
  "vit": 3236,
  "\u2581zcela": 3237,
  "j\u00edt": 3238,
  "\u2581ones": 3239,
  "ru\u010d": 3240,
  "\u2581values": 3241,
  "\u010din": 3242,
  "\u2581bus": 3243,
  "\u2581listed": 3244,
  "\u2581pain": 3245,
  "\u2581ka\u017ed\u00e9ho": 3246,
  "31": 3247,
  "\u2581Mag": 3248,
  "\u2581miss": 3249,
  "\u2581matka": 3250,
  "PR": 3251,
  "\u2581boj": 3252,
  "\u2581performance": 3253,
  "run": 3254,
  "\u2581sk": 3255,
  "\u2581vhodn\u00e9": 3256,
  "\u2581eye": 3257,
  "\u2581V\u017edy": 3258,
  "\u2581Gal": 3259,
  "\u2581Which": 3260,
  "\u2581complete": 3261,
  "\u2581alive": 3262,
  "ser": 3263,
  "\u2581projects": 3264,
  "\u2581member": 3265,
  "\u2581p\u0159edt\u00edm": 3266,
  "\u2581property": 3267,
  "\u2581forward": 3268,
  "ip": 3269,
  "\u2581blo": 3270,
  "\u2581payment": 3271,
  "\u2581vr\u00e1tit": 3272,
  "\u2581Nem\u016f\u017ee": 3273,
  "az": 3274,
  "Na": 3275,
  "\u2581Kdy": 3276,
  "vod": 3277,
  "\u2581investment": 3278,
  "\u00e1z": 3279,
  "\u2581obsahuje": 3280,
  "\u2581search": 3281,
  "\u2581pl\u00e1\u017e": 3282,
  "\u258111.": 3283,
  "1,": 3284,
  "\u2581investigation": 3285,
  "\u0161t\u00ed": 3286,
  "\u2581waste": 3287,
  "28": 3288,
  "\u2581centrum": 3289,
  "\u2581ground": 3290,
  "\u2581wonder": 3291,
  "\u2581submitted": 3292,
  "\u2581cestu": 3293,
  "\u2581p\u016fl": 3294,
  "\u2581thanks": 3295,
  "\u2581French": 3296,
  "\u2581(\"": 3297,
  "\u2581EUROPEAN": 3298,
  "\u2581defined": 3299,
  "\u2581sister": 3300,
  "\u2581politiky": 3301,
  "\u2581fixed": 3302,
  "\u2581duty": 3303,
  "\u2581visit": 3304,
  "\u2581leg": 3305,
  "ald": 3306,
  "\u2581mature": 3307,
  "\u2581\u017e\u00e1dost": 3308,
  "07": 3309,
  "\u2581sign": 3310,
  "\u2581institutions": 3311,
  "\u2581held": 3312,
  "burg": 3313,
  "\u2581ruce": 3314,
  "\u2581kolik": 3315,
  "\u25810,": 3316,
  "\u2581daleko": 3317,
  "\u2581People": 3318,
  "\u2581German": 3319,
  "hrad": 3320,
  "\u0161ku": 3321,
  "\u2581materials": 3322,
  "\u2581N\u011bkd": 3323,
  "\u2581Kat": 3324,
  "\u2581political": 3325,
  "\u2581pot\u00e9": 3326,
  "\u2581z\u00e1jem": 3327,
  "\u2581fair": 3328,
  "ada": 3329,
  "\u2581unit": 3330,
  "\u2581Pi": 3331,
  "\u2581James": 3332,
  "\u2581p\u0159\u00edb\u011bh": 3333,
  "\u2581views": 3334,
  "You": 3335,
  "\u2581analysis": 3336,
  "\u2581dobr\u00e1": 3337,
  "\u2581dam": 3338,
  "\u2581pokoje": 3339,
  "\u2581worked": 3340,
  "gan": 3341,
  "\u2581va\u0161eho": 3342,
  "jte": 3343,
  "ric": 3344,
  "\u2581smlouvy": 3345,
  "\u2581rates": 3346,
  "\u2581M\u016f\u017eeme": 3347,
  "\u2581Sna\u017e": 3348,
  "\u2581jedn\u00e1n\u00ed": 3349,
  "rej": 3350,
  "hl\u00e1s": 3351,
  "\u2581role": 3352,
  "\u2581feeling": 3353,
  "mil": 3354,
  "Do": 3355,
  "\u2581p\u0159ece": 3356,
  "ink": 3357,
  "\u2581\u0161patn\u00e9": 3358,
  "\u2581Bo\u017e\u00ed": 3359,
  "vka": 3360,
  "\u2581decided": 3361,
  "\u2581Tom": 3362,
  "\u2581t\u011b\u017ek\u00e9": 3363,
  "\u2581ochranu": 3364,
  "\u2581series": 3365,
  "IN": 3366,
  "08": 3367,
  "\u2581jest": 3368,
  "\u2581otce": 3369,
  "\u2581Mac": 3370,
  "\u2581however": 3371,
  "9": 3372,
  "21": 3373,
  "\u0159\u00edk": 3374,
  "\u2581rezerv": 3375,
  "\u258170": 3376,
  "\u2581Check": 3377,
  "\u2581jist\u00fd": 3378,
  "\u2581competition": 3379,
  "\u2581detail": 3380,
  "\u2581higher": 3381,
  "\u2581bratr": 3382,
  "\u2581n\u011bjakou": 3383,
  "\u2581Neu": 3384,
  "\u2581prov\u00e1d\u011bc\u00ed": 3385,
  "\u2581Ab": 3386,
  "ord": 3387,
  "sah": 3388,
  "\u2581web": 3389,
  "\u2581Airport": 3390,
  "\u2581organizace": 3391,
  "stra": 3392,
  "\u2581prost\u0159edky": 3393,
  "\u2581created": 3394,
  "\u2581mouth": 3395,
  "34": 3396,
  "pamatuj": 3397,
  "\u2581rozum\u00ed": 3398,
  "ite": 3399,
  "own": 3400,
  "\u2581\u017e\u00edt": 3401,
  "\u2581enjoy": 3402,
  "\u010dan": 3403,
  "\u2581pressure": 3404,
  "lick": 3405,
  "\u2581p\u0159\u00edrodn\u00ed": 3406,
  "\u2581Keep": 3407,
  "ks": 3408,
  "\u2581pr\u00e1v": 3409,
  "\u2581EN": 3410,
  "\u2581themselves": 3411,
  "\u2581p\u0159\u00edpadech": 3412,
  "\u2581review": 3413,
  "\u2581na\u0161i": 3414,
  "\u2581cest\u011b": 3415,
  "\u2581seem": 3416,
  "\u2581rozsahu": 3417,
  "\u0160": 3418,
  "\u2581prvn\u00edm": 3419,
  "29": 3420,
  "\u2581spr\u00e1vn\u00e9": 3421,
  "ign": 3422,
  "ivo": 3423,
  "\u2581licence": 3424,
  "\u2581listopadu": 3425,
  "\u25811999": 3426,
  "\u2581zaji\u0161t\u011bn\u00ed": 3427,
  "t\u0159\u00ed": 3428,
  "\u2581language": 3429,
  "voj": 3430,
  "\u2581jak\u00fd": 3431,
  "\u2581ob\u011b": 3432,
  "lot": 3433,
  "wo": 3434,
  "\u2581\u0159ekne": 3435,
  "\u2581bu\u010f": 3436,
  "\u2581kr\u00e1l": 3437,
  "\u2581allow": 3438,
  "\u2581z\u016fstat": 3439,
  "\u2581hru": 3440,
  "\u2581zv\u00ed\u0159at": 3441,
  "\u2581Gre": 3442,
  "Je": 3443,
  "\u2581vozidla": 3444,
  "hr\u00e1l": 3445,
  "\u2581relating": 3446,
  "\u2581internet": 3447,
  "some": 3448,
  "\u2581z\u00e1kladn\u00ed": 3449,
  "\u2581China": 3450,
  "dies": 3451,
  "\u2581jejich\u017e": 3452,
  "\u2581P\u0159esn\u011b": 3453,
  "dej": 3454,
  "\u2581Kom": 3455,
  "\u2581original": 3456,
  "\u2581especially": 3457,
  "atel": 3458,
  "\u2581designed": 3459,
  "\u2581ahead": 3460,
  "\u2581Special": 3461,
  "\u2581increased": 3462,
  "nem": 3463,
  "klad": 3464,
  "\u2581environment": 3465,
  "\u2581mysl\u00edte": 3466,
  "haj": 3467,
  "\u2581jich": 3468,
  "ire": 3469,
  "\u2581sun": 3470,
  "\u2581jm\u00e9nem": 3471,
  "\u2581funkce": 3472,
  "48": 3473,
  "kin": 3474,
  "\u2581fall": 3475,
  "\u2581Des": 3476,
  "\u2581z\u00edtra": 3477,
  "\u2581across": 3478,
  "\u2581budget": 3479,
  "49": 3480,
  "\u2581various": 3481,
  "ony": 3482,
  "\u2581maxim\u00e1ln\u00ed": 3483,
  "\u2581mezin\u00e1rodn\u00ed": 3484,
  "\u2581\u00b0": 3485,
  "\u2581dr": 3486,
  "\u2581Pot\u0159ebuje": 3487,
  "lie": 3488,
  "\u2581Help": 3489,
  "\u2581m\u011bst\u011b": 3490,
  "\u2581Ostatn\u00ed": 3491,
  "\u2581art": 3492,
  "\u2581vys": 3493,
  "\u2581extra": 3494,
  "if": 3495,
  "\u2581obchod": 3496,
  "ating": 3497,
  "i\u0161t\u011b": 3498,
  "\u2581Kon": 3499,
  "\u2581r\u00e1di": 3500,
  "vedl": 3501,
  "\u2581nevid\u011bl": 3502,
  "\u2581limit": 3503,
  "\u2581ostatn\u00edch": 3504,
  "\u2581Wi": 3505,
  "\u2581Since": 3506,
  "\u2581mu\u017ei": 3507,
  "\u2581ok": 3508,
  "xi": 3509,
  "\u2581regards": 3510,
  "v\u00e9": 3511,
  "\u258134": 3512,
  "\u2581situace": 3513,
  "\u2581playing": 3514,
  "ial": 3515,
  "\u2581details": 3516,
  "56": 3517,
  "60": 3518,
  "\u2581leti\u0161t\u011b": 3519,
  "Ch": 3520,
  "plat": 3521,
  "ux": 3522,
  "\u010das": 3523,
  "\u2581informa\u010dn\u00ed": 3524,
  "\u2581mne": 3525,
  "\u2581bod\u011b": 3526,
  "\u2581Total": 3527,
  "\u2581dn\u00ed": 3528,
  "kat": 3529,
  "\u2581HAS": 3530,
  "\u2581V\u00edce": 3531,
  "\u2581poly": 3532,
  "ball": 3533,
  "\u2581Den": 3534,
  "\u2581programy": 3535,
  "\u2581charge": 3536,
  "\u2581Mer": 3537,
  "\u2581n\u011bkolika": 3538,
  "39": 3539,
  "\u2581spojen\u00ed": 3540,
  "ld": 3541,
  "\u2581Han": 3542,
  "\u2581stupid": 3543,
  "\u2581obchodu": 3544,
  "\u2581pu": 3545,
  "\u2581Rychl": 3546,
  "\u2581Kolik": 3547,
  "\u2581typ": 3548,
  "\u2581sport": 3549,
  "\u2581equal": 3550,
  "\u2581fish": 3551,
  "\u2581situaci": 3552,
  "\u2581function": 3553,
  "\u2581Cor": 3554,
  "\u2581tisk": 3555,
  "\u2581takto": 3556,
  "\u2581resources": 3557,
  "\u2581bodu": 3558,
  "rom": 3559,
  "car": 3560,
  "\u2581Stejn": 3561,
  "t\u016f": 3562,
  "\u2581IN": 3563,
  "\u2581d\u011bl": 3564,
  "\u2581PRO": 3565,
  "\u2581West": 3566,
  "kov\u00e1": 3567,
  "uff": 3568,
  "\u258102": 3569,
  "\u2581spolupr\u00e1ci": 3570,
  "\u2581Kur": 3571,
  "ovan\u00e1": 3572,
  "\u2581org\u00e1n": 3573,
  "\u2581smyslu": 3574,
  "\u2581touch": 3575,
  "\u2581February": 3576,
  "ata": 3577,
  "\u2581solution": 3578,
  "\u2581events": 3579,
  "\u2581\u0161et\u0159en\u00ed": 3580,
  "\u258116.": 3581,
  "\u2581god": 3582,
  "\u2581ani\u017e": 3583,
  "\u2581Sly\u0161el": 3584,
  "\u2581everybody": 3585,
  "\u2581n\u00e1rodn\u00ed": 3586,
  "\u2581activity": 3587,
  "\u2581Bal": 3588,
  "ans": 3589,
  "\u2581mysl\u00ed": 3590,
  "3,": 3591,
  "26": 3592,
  "\u2581Log": 3593,
  "\u2581clean": 3594,
  "right": 3595,
  "\u2581kv\u011btna": 3596,
  "\u2581dve\u0159e": 3597,
  "\u2581p\u0159edpis\u016f": 3598,
  "\u2581euro": 3599,
  "\u2581vede": 3600,
  "ose": 3601,
  "\u2581allowed": 3602,
  "\u2581promise": 3603,
  "No": 3604,
  "\u258100": 3605,
  "\u2581Brussels": 3606,
  "\u2581Tra": 3607,
  "hez": 3608,
  "ON": 3609,
  "\u2581disease": 3610,
  "\u2581Add": 3611,
  "\u2581dinner": 3612,
  "jdete": 3613,
  "ries": 3614,
  "\u2581b\u0159ezna": 3615,
  "\u2581\u017e\u00e1dn\u00e1": 3616,
  "\u2581ot\u00e1zky": 3617,
  "\u2581George": 3618,
  "\u2581whose": 3619,
  "\u2581Marie": 3620,
  "\u2581containing": 3621,
  "\u2581documents": 3622,
  "ski": 3623,
  "\u2581effective": 3624,
  "\u2581giving": 3625,
  "j\u0161\u00ed": 3626,
  "\u2581\u010dlensk\u00e9ho": 3627,
  "\u00e1ln\u011b": 3628,
  "\u2581currently": 3629,
  "\u2581vid\u00edm": 3630,
  "\u2581Dar": 3631,
  "\u2581Ad": 3632,
  "af": 3633,
  "\u2581standards": 3634,
  "\u2581cesty": 3635,
  "\u2581direct": 3636,
  "\u2581d\u00e1v\u00e1": 3637,
  "\u2581supply": 3638,
  "\u2581jist\u011b": 3639,
  "\u2581t\u0159\u00ed": 3640,
  "where": 3641,
  "\u2581nech\u00e1": 3642,
  "\u2581mon": 3643,
  "\u2581measure": 3644,
  "\u2581cenu": 3645,
  "\u2581rodiny": 3646,
  "tisk": 3647,
  "\u2581\u0161koly": 3648,
  "\u2581o\u010di": 3649,
  "\u2581nov\u00fdch": 3650,
  "urbation": 3651,
  "\u2581obsah": 3652,
  "\u2581Lu": 3653,
  "\u2581\u017e\u00e1dosti": 3654,
  "pal": 3655,
  "22": 3656,
  "\u2581\u00fa\u017e": 3657,
  "ress": 3658,
  "\u2581major": 3659,
  "\u2581dom\u00e1c\u00ed": 3660,
  "\u2581movi": 3661,
  "art": 3662,
  "kop": 3663,
  "\u2581k\u0159es\u0165an": 3664,
  "\u2581stav": 3665,
  "\u2581hled\u00e1": 3666,
  "\u2581Krom\u011b": 3667,
  "\u2581d\u011bt\u00ed": 3668,
  "\u2581pou\u017e\u00edv\u00e1": 3669,
  "ola": 3670,
  "\u2581(1": 3671,
  "\u2581vid\u00ed": 3672,
  "\u2581types": 3673,
  "\u2581nejv\u011bt\u0161\u00ed": 3674,
  "\u2581d\u016fvodu": 3675,
  "\u2581transfer": 3676,
  "\u2581\u010d\u00edsla": 3677,
  "\u2581lev": 3678,
  "eg": 3679,
  "\u2581zajistit": 3680,
  "\u2581connection": 3681,
  "\u2581card": 3682,
  "\u2581changed": 3683,
  "bo\u017e": 3684,
  "\u00e1tor": 3685,
  "\u2581Smlouvy": 3686,
  "\u2581Channel": 3687,
  "\u2581Adam": 3688,
  "vor": 3689,
  "bud": 3690,
  "\u2581leaving": 3691,
  "amoz\u0159ejm\u011b": 3692,
  "\u2581hodiny": 3693,
  "tom": 3694,
  "\u2581proud": 3695,
  "\u2581Gi": 3696,
  "\u2581student": 3697,
  "\u2581boys": 3698,
  "kol": 3699,
  "\u258114.": 3700,
  "\u2581spole\u010dn\u00e9": 3701,
  "kt": 3702,
  "dding": 3703,
  "\u2581fr": 3704,
  "\u2581v\u00fdbor": 3705,
  "\u2581vra\u017ed": 3706,
  "bb": 3707,
  "\u2581plat\u00ed": 3708,
  "\u2581gra": 3709,
  "\u2581Smlouvu": 3710,
  "\u2581Ph": 3711,
  "\u2581kW": 3712,
  "\u2581cold": 3713,
  "\u2581North": 3714,
  "\u2581ship": 3715,
  "\u2581lidem": 3716,
  "\u2581koho": 3717,
  "pis": 3718,
  "\u2581Auto": 3719,
  "rov": 3720,
  "\u2581average": 3721,
  "\u2581\u010clensk\u00e9": 3722,
  "ious": 3723,
  "\u2581hrd": 3724,
  "\u2581pozd\u011b": 3725,
  "\u2581uvnit\u0159": 3726,
  "\u25812019": 3727,
  "r\u00e1n": 3728,
  "\u2581prohl\u00e1\u0161en\u00ed": 3729,
  "\u2581AS": 3730,
  "\u2581shoot": 3731,
  "\u2581Nem\u011bl": 3732,
  "leg": 3733,
  "\u258112:": 3734,
  "\u2581follows": 3735,
  "v\u011b\u0159il": 3736,
  "\u2581computer": 3737,
  "\u2581exchange": 3738,
  "\u2581sn\u00ed\u017een\u00ed": 3739,
  "\u2581kr\u00e1lovstv\u00ed": 3740,
  "\u2581High": 3741,
  "nov": 3742,
  "\u2581Hra": 3743,
  "\u2581framework": 3744,
  "\u2581simple": 3745,
  "\u258131.": 3746,
  "\u2581court": 3747,
  "unk": 3748,
  "\u2581staff": 3749,
  "38": 3750,
  "stu": 3751,
  "\u0159el": 3752,
  "ete": 3753,
  "\u2581hospod\u00e1\u0159sk\u00e9": 3754,
  "\u2581airport": 3755,
  "\u2581spole\u010dn\u011b": 3756,
  "\u2581website": 3757,
  "\u2581significant": 3758,
  "\u2581Rada": 3759,
  "\u2581Popis": 3760,
  "\u2581nebo\u0165": 3761,
  "\u2581\u017eivot\u011b": 3762,
  "\u258148": 3763,
  "\u2581\u010dek\u00e1": 3764,
  "\u2581Ur\u010dit": 3765,
  "\u2581mor": 3766,
  "ura": 3767,
  "\u258113.": 3768,
  "\u2581feet": 3769,
  "gy": 3770,
  "\u2581docela": 3771,
  "\u2581d\u00ed": 3772,
  "47": 3773,
  "ani": 3774,
  "\u2581plant": 3775,
  "\u2581Son": 3776,
  "\u2581knowledge": 3777,
  "p\u016f": 3778,
  "ey": 3779,
  "dd": 3780,
  "k\u00fd": 3781,
  "70": 3782,
  "INT": 3783,
  "\u2581till": 3784,
  "\u2581osobn\u00ed": 3785,
  "\u2581IT": 3786,
  "\u2581por": 3787,
  "\u2581internal": 3788,
  "\u2581sick": 3789,
  "\u2581station": 3790,
  "\u2581man\u017eel": 3791,
  "\u2581400": 3792,
  "nut": 3793,
  "\u2581zpr\u00e1va": 3794,
  "\u2581Spojen\u00e9": 3795,
  "\u2581dol\u016f": 3796,
  "\u2581except": 3797,
  "\u2581pozor": 3798,
  "rot": 3799,
  "\u0161\u0165": 3800,
  "\u2581mnoha": 3801,
  "\u2581published": 3802,
  "\u2581rozvoj": 3803,
  "lem": 3804,
  "\u2581cell": 3805,
  "\u2581inform": 3806,
  "\u2581Cla": 3807,
  "\u2581stavu": 3808,
  "jo": 3809,
  "55": 3810,
  "\u2581mo\u0159e": 3811,
  "\u2581itself": 3812,
  "ere": 3813,
  "\u2581Tre": 3814,
  "\u2581sugar": 3815,
  "k\u00e1ch": 3816,
  "k\u00e1m": 3817,
  "\u2581dream": 3818,
  "\u2581approved": 3819,
  "ev": 3820,
  "\u2581motor": 3821,
  "\u2581print": 3822,
  "\u2581naposledy": 3823,
  "sen": 3824,
  "\u2581\u017een": 3825,
  "\u2581bodies": 3826,
  "dlo": 3827,
  "36": 3828,
  "ves": 3829,
  "\u2581Daniel": 3830,
  "US": 3831,
  "\u2581self": 3832,
  "\u2581Nice": 3833,
  "volat": 3834,
  "\u2581st\u0159edn\u00ed": 3835,
  "\u2581zdroj\u016f": 3836,
  "\u2581dubna": 3837,
  "\u258175": 3838,
  "nde": 3839,
  "\u2581poprv\u00e9": 3840,
  "\u2581producers": 3841,
  "\u2581l\u00edb\u00ed": 3842,
  "\u2581August": 3843,
  "\u2581n\u00e1klad\u016f": 3844,
  "\u2581nev": 3845,
  "rist": 3846,
  "\u2581v\u016f\u010di": 3847,
  "\u2581smysl": 3848,
  "\u2581Paris": 3849,
  "ind": 3850,
  "\u2581oba": 3851,
  "ging": 3852,
  "nka": 3853,
  "a\u017e": 3854,
  "\u2581\u0161el": 3855,
  "27": 3856,
  "\u2581star\u00fd": 3857,
  "\u2581Dam": 3858,
  "\u2581centr\u00e1ln\u00ed": 3859,
  "\u2581jednotliv\u00fd": 3860,
  "\u2581technology": 3861,
  "\u2581Pen": 3862,
  "\u2581kept": 3863,
  "\u2581slu": 3864,
  "\u2581happens": 3865,
  "\u2581p\u0159ekvap": 3866,
  "\u2581milion\u016f": 3867,
  "\u2581origin": 3868,
  "\u2581gentle": 3869,
  "\u2581document": 3870,
  "\u2581attention": 3871,
  "\u2581dn\u016f": 3872,
  "\u2581Rozhodnut\u00ed": 3873,
  "\u2581lie": 3874,
  "d\u00e1le": 3875,
  "\u2581Hold": 3876,
  "\u2581coffee": 3877,
  "\u2581welcome": 3878,
  "\u2581cel": 3879,
  "\u2581deep": 3880,
  "\u2581zm\u011bnit": 3881,
  "\u2581re\u017eimu": 3882,
  "\u2581nor": 3883,
  "\u2581t\u011bm": 3884,
  "\u2581asking": 3885,
  "\u2581150": 3886,
  "BI": 3887,
  "\u2581zbra\u0148": 3888,
  "\u2581fully": 3889,
  "rou": 3890,
  "\u2581Watch": 3891,
  "\u2581kiss": 3892,
  "\u2581hv\u011bzd": 3893,
  "\u2581d\u016fvod\u016fm": 3894,
  "\u2581fotografii": 3895,
  "\u2581hodnota": 3896,
  "\u2581immediately": 3897,
  "\u2581Put": 3898,
  "\u2581processing": 3899,
  "\u2581hlavy": 3900,
  "\u2581plus": 3901,
  "\u2581pod\u00e1n\u00ed": 3902,
  "\u2581Street": 3903,
  "\u2581tro": 3904,
  "ici": 3905,
  "\u2581D\u00e1m": 3906,
  "\u2581pr\u016fb\u011bhu": 3907,
  "tin": 3908,
  "\u2581republika": 3909,
  "\u2581Douf\u00e1": 3910,
  "lek": 3911,
  "\u2581log": 3912,
  "v\u011b\u0159\u00ed": 3913,
  "ory": 3914,
  "\u2581Nes": 3915,
  "\u2581completely": 3916,
  "\u2581Dal": 3917,
  "\u2581Vi": 3918,
  "\u2581Jeden": 3919,
  "\u2581c\u00edle": 3920,
  "\u2581\u010cesk": 3921,
  "\u2581sort": 3922,
  "pust\u00ed": 3923,
  "fil": 3924,
  "\u2581ADOPT": 3925,
  "\u2581Was": 3926,
  "uf": 3927,
  "en\u00fd": 3928,
  "ika": 3929,
  "\u2581sales": 3930,
  "har": 3931,
  "\u2581CO": 3932,
  "\u2581realize": 3933,
  "chutn": 3934,
  "\u00f3n": 3935,
  "\u2581schv\u00e1len\u00ed": 3936,
  "yn": 3937,
  "\u2581Cal": 3938,
  "\u2581projekt": 3939,
  "\u2581pri": 3940,
  "\u2581sly\u0161el": 3941,
  "ship": 3942,
  "\u2581status": 3943,
  "\u2581Make": 3944,
  "istick\u00e9": 3945,
  "ew": 3946,
  "\u2581zem\u0159el": 3947,
  "\u2581felt": 3948,
  "\u2581write": 3949,
  "\u2581strach": 3950,
  "\u2581studies": 3951,
  "\u2581nejm\u00e9n\u011b": 3952,
  "\u2581impact": 3953,
  "\u2581zat\u00edmco": 3954,
  "\u2581piece": 3955,
  "\u2581agricultural": 3956,
  "Mar": 3957,
  "nil": 3958,
  "RO": 3959,
  "\u2581Prvn\u00ed": 3960,
  "\u2581network": 3961,
  "\u2581pl\u00e1nu": 3962,
  "\u2581fishing": 3963,
  "word": 3964,
  "\u258117.": 3965,
  "\u2581cl": 3966,
  "\u2581\u0161est": 3967,
  "\u2581became": 3968,
  "\u0161ky": 3969,
  "\u2581items": 3970,
  "\u2581growth": 3971,
  "=": 3972,
  "ized": 3973,
  "\u258111:": 3974,
  "\u2581publication": 3975,
  "\u2581ochrany": 3976,
  "\u2581Information": 3977,
  "\u2581groups": 3978,
  "\u2581p\u0159edev\u0161\u00edm": 3979,
  "\u2581jedn\u00edm": 3980,
  "\u2581contract": 3981,
  "\u2581club": 3982,
  "ect": 3983,
  "\u2581vzal": 3984,
  "\u2581pracovat": 3985,
  "\u2581daily": 3986,
  "\u2581nep\u0159e": 3987,
  "\u2581brzy": 3988,
  "\u2581kancel\u00e1\u0159": 3989,
  "st\u0159ik": 3990,
  "\u2581ko\u0161": 3991,
  "\u2581prostor": 3992,
  "ona": 3993,
  "\u2581j\u00eddlo": 3994,
  "\u2581P\u0158IJAL": 3995,
  "\u2581Mad": 3996,
  "\u2581rokem": 3997,
  "dro": 3998,
  "\u2581reported": 3999,
  "09": 4000,
  "\u2581kter\u00e9ho": 4001,
  "\u258103": 4002,
  "\u2581del": 4003,
  "\u2581\u0161patn\u011b": 4004,
  "verything": 4005,
  "\u2581necht\u011bl": 4006,
  "\u2581mal\u00fd": 4007,
  "\u2581potential": 4008,
  "\u00e1ny": 4009,
  "\u2581akce": 4010,
  "\u2581carry": 4011,
  "\u2581do\u0161lo": 4012,
  "\u2581vehicles": 4013,
  "\u2581approval": 4014,
  "\u2581dvojit": 4015,
  "\u2581Eli": 4016,
  "\u2581Fe": 4017,
  "\u2581tat": 4018,
  "\u2581\u017d": 4019,
  "\u2581milk": 4020,
  "ava": 4021,
  "\u2581turned": 4022,
  "\u2581numbers": 4023,
  "\u2581SA": 4024,
  "ture": 4025,
  "\u2581bezpe\u010dnostn\u00ed": 4026,
  "ane": 4027,
  "\u258139": 4028,
  "\u2581letter": 4029,
  "stru": 4030,
  "\u2581board": 4031,
  "\u2581method": 4032,
  "\u2581moci": 4033,
  "\u2581proposal": 4034,
  "\u2581prodej": 4035,
  "IS": 4036,
  "\u2581medical": 4037,
  "\u2581monitoring": 4038,
  "\u2581v\u00fdvoj": 4039,
  "\u2581financov\u00e1n\u00ed": 4040,
  "\u2581\u010dlov\u011bka": 4041,
  "\u2581color": 4042,
  "\u2581l\u00e1tek": 4043,
  "\u2581grand": 4044,
  "myslel": 4045,
  "\u2581p\u0159ij\u00edt": 4046,
  "cu": 4047,
  "\u2581Grand": 4048,
  "\u2581Jak\u00fd": 4049,
  "\u2581EC": 4050,
  "\u2581[1]": 4051,
  "\u2581vyu\u017eit\u00ed": 4052,
  "46": 4053,
  "44": 4054,
  "\u2581konec": 4055,
  "stant": 4056,
  "\u2581Str": 4057,
  "hlav": 4058,
  "DA": 4059,
  "\u2581secret": 4060,
  "\u2581Dr\u017e": 4061,
  "\u2581(18": 4062,
  "asy": 4063,
  "\u2581VI": 4064,
  "\u2581Bas": 4065,
  "\u2581location": 4066,
  "OT": 4067,
  "\u2581record": 4068,
  "\u2581pla": 4069,
  "\u2581celkov\u00e9": 4070,
  "\u2581kap": 4071,
  "well": 4072,
  "tes": 4073,
  "OR": 4074,
  "stan": 4075,
  "\u2581issued": 4076,
  "\u2581finally": 4077,
  "\u2581picture": 4078,
  "\u2581obl\u00edben": 4079,
  "\u2581reach": 4080,
  "\"?": 4081,
  "\u2581kitchen": 4082,
  "\u2581nav\u00edc": 4083,
  "\u2581prost\u0159edk\u016f": 4084,
  "itu": 4085,
  "\u2581Could": 4086,
  "\u2581reports": 4087,
  "sle": 4088,
  "\u2581Back": 4089,
  "/2006": 4090,
  "\u2581p\u016fvodu": 4091,
  "\u2581ni\u017e\u0161\u00ed": 4092,
  "\u2581za\u010d\u00edt": 4093,
  "\u2581fear": 4094,
  "\u2581pl": 4095,
  "\u2581weather": 4096,
  "\u2581ES": 4097,
  "dan": 4098,
  "\u2581pou\u017e\u00edv\u00e1n\u00ed": 4099,
  "en\u00e9": 4100,
  "\u2581dance": 4101,
  "\u2581straight": 4102,
  "\u2581Tour": 4103,
  "eme": 4104,
  "\u2581che": 4105,
  "\u00b0": 4106,
  "\u2581difficult": 4107,
  "\u2581lower": 4108,
  "ee": 4109,
  "\u2581ohledu": 4110,
  "\u017edycky": 4111,
  "\u2581lady": 4112,
  "\u2581z\u00e1jmu": 4113,
  "\u2581Up": 4114,
  "\u2581centre": 4115,
  "\u2581reasons": 4116,
  "\u2581Sal": 4117,
  "hat": 4118,
  "What": 4119,
  "\u2581annual": 4120,
  "\u2581explain": 4121,
  "\u2581relationship": 4122,
  "\u2581worth": 4123,
  "rin": 4124,
  "\u2581\u017eivotn\u00ed": 4125,
  "\u2581official": 4126,
  "omb": 4127,
  "\u2581operations": 4128,
  "\u2581speed": 4129,
  "\u2581projektu": 4130,
  "\u2581ter": 4131,
  "\u2581attack": 4132,
  "\u2581pr\u00e1vn\u00edch": 4133,
  "\u2581Say": 4134,
  "\u2581rozd\u00edl": 4135,
  "\u2581mluvil": 4136,
  "\u2581d\u0159\u00edve": 4137,
  "\u2581agree": 4138,
  "\u2581cht\u00edt": 4139,
  "ru\u0161": 4140,
  "\u2581detailed": 4141,
  "\u2581beginning": 4142,
  "\u2581units": 4143,
  "\u2581aplikace": 4144,
  "k\u00e1n\u00ed": 4145,
  "\u2581pod\u00edvat": 4146,
  "\u2581round": 4147,
  "gie": 4148,
  "\u2581souboru": 4149,
  "\u2581fungov\u00e1n\u00ed": 4150,
  "-2": 4151,
  "\u2581obvykle": 4152,
  "\u2581meaning": 4153,
  "\u258138": 4154,
  "ett": 4155,
  "\u2581cook": 4156,
  "\u2581ve\u0159ejn\u00e9": 4157,
  "\u2581seznamu": 4158,
  "\u0161le": 4159,
  "lo\u017eit": 4160,
  "t\u00e9m\u011b\u0159": 4161,
  "side": 4162,
  "\u2581anyway": 4163,
  "ium": 4164,
  "fu": 4165,
  "\u2581create": 4166,
  "\u2581konci": 4167,
  "4,": 4168,
  "\u2581decide": 4169,
  "\u2581d\u0159\u00edv": 4170,
  "izz": 4171,
  "\u2581peace": 4172,
  "\u2581wall": 4173,
  "ella": 4174,
  "\u2581str\u00e1nka": 4175,
  "\u2581finan\u010dn\u00edch": 4176,
  "\u2581holding": 4177,
  "CH": 4178,
  "\u2581moving": 4179,
  "\u2581Ter": 4180,
  "\u2581T\u00edm": 4181,
  "ugh": 4182,
  "/2004": 4183,
  "\u2581Father": 4184,
  "\u2581hospital": 4185,
  "off": 4186,
  "\u2581education": 4187,
  "\u2581V\u00e1s": 4188,
  "\u2581Datum": 4189,
  "shop": 4190,
  "nebo": 4191,
  "\u258137": 4192,
  "\u2581ka\u017edou": 4193,
  "\")": 4194,
  "\u2581pole": 4195,
  "ano": 4196,
  "\u2581podobn\u00e9": 4197,
  "\u2581osoba": 4198,
  "\u2581\u0161p": 4199,
  "\u2581associated": 4200,
  "ujete": 4201,
  "\u2581V\u00fdbor": 4202,
  "\u2581determined": 4203,
  "\u2581wine": 4204,
  "n\u00edho": 4205,
  "\u2581stolet\u00ed": 4206,
  "\u2581budov": 4207,
  "1/": 4208,
  "\u2581glass": 4209,
  "\u2581applications": 4210,
  "\u2581kter\u00e9m": 4211,
  "\u2581Last": 4212,
  "\u2581sami": 4213,
  "\u2581condition": 4214,
  "cent": 4215,
  "\u2581Captain": 4216,
  "\u2581fat": 4217,
  "\u2581syst\u00e9my": 4218,
  "\u2581Foto": 4219,
  "\u2581Toilet": 4220,
  "\u2581Bi": 4221,
  "\u2581CI": 4222,
  "\u2581podpora": 4223,
  "\u2581jasn\u00e9": 4224,
  "\u2581\u010d\u00edm": 4225,
  "\u258119.": 4226,
  "\u2581Mel": 4227,
  "q": 4228,
  "\u2581hlavu": 4229,
  "90": 4230,
  "\u2581spolupr\u00e1ce": 4231,
  "\u010det": 4232,
  "ef": 4233,
  "hodil": 4234,
  "\u2581Fi": 4235,
  "iff": 4236,
  "We": 4237,
  "\u2581nebudu": 4238,
  "\u2581nahrazuje": 4239,
  "\u2581expected": 4240,
  "\u2581term": 4241,
  "\u2581rodi\u010de": 4242,
  "tah": 4243,
  "\u2581greater": 4244,
  "\u2581Therefore": 4245,
  "\u2581sale": 4246,
  "\u2581legislation": 4247,
  "\u2581category": 4248,
  "\u2581lo\u010f": 4249,
  "\u2581n\u00e1sleduj\u00edc\u00ed": 4250,
  "\u2581Agency": 4251,
  "\u2581soci\u00e1ln\u00ed": 4252,
  "you": 4253,
  "\u2581whom": 4254,
  "zky": 4255,
  "\u2581mad": 4256,
  "ovy": 4257,
  "\u2581jeho\u017e": 4258,
  "\u2581zjistit": 4259,
  "\u2581sold": 4260,
  "\u2581Done": 4261,
  "ms": 4262,
  "zhledem": 4263,
  "\u2581pot": 4264,
  "ctor": 4265,
  "\u2581minim\u00e1ln\u00ed": 4266,
  "zy": 4267,
  "\u0161ek": 4268,
  "TI": 4269,
  "\u2581para": 4270,
  "\u2581calls": 4271,
  "\u2581pass": 4272,
  "\u2581unless": 4273,
  "onu": 4274,
  "\u2581meat": 4275,
  "\u2581professional": 4276,
  "\u2581sometimes": 4277,
  "\u2581ur\u010dit\u00e9": 4278,
  "\u2581shut": 4279,
  "\u2581ch": 4280,
  "CE": 4281,
  "\u2581University": 4282,
  "\u2581Er": 4283,
  "\u2581Private": 4284,
  "\u0161ka": 4285,
  "\u2581species": 4286,
  "lav": 4287,
  "ring": 4288,
  "eri": 4289,
  "\u2581radio": 4290,
  "rie": 4291,
  "pus": 4292,
  "\u2581choose": 4293,
  "ull": 4294,
  "any": 4295,
  "\u2581mrtv\u00fd": 4296,
  "\u2581v\u011b\u0159it": 4297,
  "\u2581um\u00ed": 4298,
  "\u2581brain": 4299,
  "\u010dn\u011b": 4300,
  "\u2581spole\u010dn\u00e9ho": 4301,
  "\u2581compilation": 4302,
  "\u00eds": 4303,
  "\u2581Shu": 4304,
  "\u2581likely": 4305,
  "\u2581Musel": 4306,
  "\u2581spirit": 4307,
  "\u2581p\u0159\u00edtelkyn": 4308,
  "\u2581vstupuje": 4309,
  "\u258121.": 4310,
  "\u2581TOTO": 4311,
  "\u2581consider": 4312,
  "\u2581calling": 4313,
  "\u2581tra": 4314,
  "\u2581zv\u00fd\u0161en\u00ed": 4315,
  "\u2581loss": 4316,
  "\u2581Vz": 4317,
  "\u2581banky": 4318,
  "\u2581fruit": 4319,
  "\u00c5": 4320,
  "\u2581Evropsk\u00e1": 4321,
  "\u2581cht\u011bj\u00ed": 4322,
  "\u2581issues": 4323,
  "\u2581l\u00e9pe": 4324,
  "org": 4325,
  "sed": 4326,
  "-1": 4327,
  "\u2581Robert": 4328,
  "\u2581n\u011bkde": 4329,
  "air": 4330,
  "\u2581throw": 4331,
  "fo": 4332,
  "padl": 4333,
  "\u2581Map": 4334,
  "\u2581marketing": 4335,
  "\u2581administration": 4336,
  "\u2581nepro": 4337,
  "\u2581skoro": 4338,
  "vice": 4339,
  "\u2581nejen": 4340,
  "\u2581towards": 4341,
  "\u2581Call": 4342,
  "\u2581Ann": 4343,
  "zu": 4344,
  "\u2581[...]": 4345,
  "\u2581bezpe\u010dnost": 4346,
  "\u2581hlad": 4347,
  "\u2581zn\u011bn\u00ed": 4348,
  "are": 4349,
  "57": 4350,
  "\u2581existing": 4351,
  "kovi": 4352,
  "\u2581p\u0159\u00edpadn\u011b": 4353,
  "\u2581v\u00fdb\u011br": 4354,
  "\u2581writing": 4355,
  "\u2581street": 4356,
  "\u2581glad": 4357,
  "\u2581zpracov\u00e1n\u00ed": 4358,
  "\u2581tehdy": 4359,
  "rop": 4360,
  "\u2581v\u00fdrobce": 4361,
  "vez": 4362,
  "\u2581blue": 4363,
  "\u2581catch": 4364,
  "\u2581practice": 4365,
  "\u2581Fine": 4366,
  "Ob": 4367,
  "elmi": 4368,
  "ram": 4369,
  "board": 4370,
  "\u258118.": 4371,
  "\u2581jedin\u00fd": 4372,
  "GE": 4373,
  "\u2581d\u016fsledku": 4374,
  "omething": 4375,
  "\u2581Africa": 4376,
  "\u2581fresh": 4377,
  "\u2581Today": 4378,
  "\u2581source": 4379,
  "ants": 4380,
  "\u2581territory": 4381,
  "\u2581dear": 4382,
  "5/": 4383,
  "rz": 4384,
  "\u2581train": 4385,
  "\u2581\u010cesk\u00e9": 4386,
  "\u2581pra": 4387,
  "\u00ddCH": 4388,
  "\u2581mentioned": 4389,
  "sion": 4390,
  "\u2581nov\u00e1": 4391,
  "uch": 4392,
  "\u2581cesta": 4393,
  "\u2581vr\u00e1til": 4394,
  "\u2581Kap": 4395,
  "\u2581nab\u00eddky": 4396,
  "\u2581honey": 4397,
  "\u258120.": 4398,
  "\u2581odstavci": 4399,
  "sled": 4400,
  "ret": 4401,
  "\u2581shows": 4402,
  "\u2581omezen\u00ed": 4403,
  "\u2581av\u0161ak": 4404,
  "\u2581Bur": 4405,
  "\u2581poslal": 4406,
  "\u2581cit": 4407,
  "\u2581version": 4408,
  "58": 4409,
  "\u258143": 4410,
  "\u2581]": 4411,
  "nce": 4412,
  "\u2581velkou": 4413,
  "\u2581limited": 4414,
  "\u00edn": 4415,
  "\u00edv\u00e1": 4416,
  "nova": 4417,
  "\u2581scene": 4418,
  "\u2581spend": 4419,
  "\u2581description": 4420,
  "\u2581centra": 4421,
  "\u2581benefit": 4422,
  "\u2581markets": 4423,
  "\u2581Cat": 4424,
  "\u2581produced": 4425,
  "\u258122.": 4426,
  "\u2581built": 4427,
  "\u2581Mas": 4428,
  "\u2581kontroly": 4429,
  "\u2581Os": 4430,
  "\u258109": 4431,
  "\u00ec": 4432,
  "\u2581prepared": 4433,
  "sis": 4434,
  "\u2581substances": 4435,
  "\u2581interesting": 4436,
  "\u2581Send": 4437,
  "\u2581thus": 4438,
  "85": 4439,
  "\u2581construction": 4440,
  "\u2581funds": 4441,
  "\u2581seven": 4442,
  "rna": 4443,
  "dni": 4444,
  "RE": 4445,
  "\u2581v\u011bstn\u00edku": 4446,
  "\u2581velice": 4447,
  "\u2581zem\u00edch": 4448,
  "ng": 4449,
  "stat": 4450,
  "\u2581v\u011bzen\u00ed": 4451,
  "\u2581provozu": 4452,
  "\u2581consumption": 4453,
  "\u2581stran": 4454,
  "32": 4455,
  "\u2581Richard": 4456,
  "\u2581Nor": 4457,
  "l\u00edd": 4458,
  "\u2581amending": 4459,
  "\u2581dv\u011bma": 4460,
  "\u2581van": 4461,
  "\u2581caught": 4462,
  "\u2581za\u010dal": 4463,
  "\u2581assistance": 4464,
  "ET": 4465,
  "\u2581Mic": 4466,
  "\u2581\u00fa\u010dinky": 4467,
  "p\u011bt": 4468,
  "\u2581Evropa": 4469,
  "\u2581Pamatuj": 4470,
  "\u2581Iron": 4471,
  "\u2581m\u00edst": 4472,
  "kryt": 4473,
  "\u2581Pan\u00ed": 4474,
  "\u2581central": 4475,
  "\u2581postupy": 4476,
  "\u2581rodina": 4477,
  "\u2581window": 4478,
  "\u2581Chapter": 4479,
  "\u2581Description": 4480,
  "jd\u011bte": 4481,
  "\u2581100%": 4482,
  "\u2581Ya": 4483,
  "\u010den\u00ed": 4484,
  "padlo": 4485,
  "\u2581zalo\u017een\u00ed": 4486,
  "\u2581ozn\u00e1men\u00ed": 4487,
  "\u2581opportunity": 4488,
  "\u2581poor": 4489,
  "\u00f3l": 4490,
  "lap": 4491,
  "\u2581d\u00edvk": 4492,
  "\u2581republiky": 4493,
  "\u2581rock": 4494,
  "en\u00e1": 4495,
  "\u2581\u0161anci": 4496,
  "\u2581vysok\u00e9": 4497,
  "anda": 4498,
  "\u2581programmes": 4499,
  "\u2581guarantee": 4500,
  "\u2581restaurant": 4501,
  "\u2581vlasy": 4502,
  "\u2581obli\u010dej": 4503,
  "\u2581cash": 4504,
  "gon": 4505,
  "\u258110%": 4506,
  "rus": 4507,
  "pustil": 4508,
  "\u2581born": 4509,
  "51": 4510,
  "\u2581\u017d\u00e1dn\u00e9": 4511,
  "\u2581druh\u016f": 4512,
  "tick\u00e9": 4513,
  "\u2581pot\u0159ebovat": 4514,
  "\u2581stanovit": 4515,
  "term": 4516,
  "\u2581p\u0159edstavuje": 4517,
  "\u2581laying": 4518,
  "ov\u00e1n": 4519,
  "\u2581approach": 4520,
  "bou": 4521,
  "\u2581Del": 4522,
  "\u2581fault": 4523,
  "\u2581jasn\u00fd": 4524,
  "\u2581druh\u00fd": 4525,
  "\u2581machines": 4526,
  "ities": 4527,
  "\u2581potravin": 4528,
  "\u2581fell": 4529,
  "\u2581modern": 4530,
  "dob": 4531,
  "\u2581hod": 4532,
  "\u2581kdybys": 4533,
  "\u2581regarding": 4534,
  "TM": 4535,
  "\u2581starting": 4536,
  "\u2581Bruselu": 4537,
  "\u25812,": 4538,
  "\u2581org\u00e1n\u016f": 4539,
  "\u2581st\u016fl": 4540,
  "\u2581difference": 4541,
  "75": 4542,
  "\u2581Bra": 4543,
  "\u2581info": 4544,
  "\u2581written": 4545,
  "\u2581existuje": 4546,
  "\u2581scheme": 4547,
  "54": 4548,
  "\u2581looked": 4549,
  "\u2581nakonec": 4550,
  "hel": 4551,
  "\u2581organisation": 4552,
  "\u2581posledn\u00edch": 4553,
  "\u2581Jestli\u017ee": 4554,
  "\u2581Services": 4555,
  "\u2581pohled": 4556,
  "\u2581Doktor": 4557,
  "42": 4558,
  "\u2581COMMISSION": 4559,
  "\u2581Implementing": 4560,
  "zdrav": 4561,
  "\u2581nejde": 4562,
  "\u2581vybaven\u00ed": 4563,
  "kur": 4564,
  "\u2581notice": 4565,
  "\u2581Port": 4566,
  "\u017d": 4567,
  "\u2581nelze": 4568,
  "\u2581patient": 4569,
  "AT": 4570,
  "\u258142": 4571,
  "\u2581wood": 4572,
  "\u2581nad\u00e1le": 4573,
  "\u2581autor": 4574,
  "\u258130.": 4575,
  "\u25812:": 4576,
  "\u2581flat": 4577,
  "\u2581Mu": 4578,
  "41": 4579,
  "AN": 4580,
  "\u2581expenditure": 4581,
  "\u2581z\u00e1vod": 4582,
  "\u2581za\u010d\u00edn\u00e1": 4583,
  "\u2581v\u011bt\u0161ina": 4584,
  "\u2581assets": 4585,
  "tis": 4586,
  "u\u017e": 4587,
  "\u2581View": 4588,
  "\u2581Light": 4589,
  "\u2581\u00fanora": 4590,
  "id\u00edme": 4591,
  "\u2581sil": 4592,
  "\u2581stanoven\u00ed": 4593,
  "\u2581XXX": 4594,
  "\u2581oblast": 4595,
  "ade": 4596,
  "\u2581m\u00fdm": 4597,
  "\u2581stage": 4598,
  "\u2581toilet": 4599,
  "\u2581[2]": 4600,
  "\u2581Inter": 4601,
  "3/": 4602,
  "\u2581samo": 4603,
  "\u2581voice": 4604,
  "nesl": 4605,
  "\u2581Year": 4606,
  "\u2581acid": 4607,
  "\u2581Out": 4608,
  "boha": 4609,
  "t\u00edm": 4610,
  "\u2581customs": 4611,
  "\u2581\u0159\u00edkat": 4612,
  "\u258187": 4613,
  "lev": 4614,
  "\u2581pou\u017e\u00edvat": 4615,
  "\u2581via": 4616,
  "\u2581crisis": 4617,
  "san": 4618,
  "mont": 4619,
  "tur": 4620,
  "ison": 4621,
  "\u2581CD": 4622,
  "\u2581tvou": 4623,
  "ato": 4624,
  "els": 4625,
  "\u2581king": 4626,
  "\u2581Most": 4627,
  "rea": 4628,
  "mod": 4629,
  "\u2581ru": 4630,
  "akt": 4631,
  "\u2581nahoru": 4632,
  "ization": 4633,
  "\u2581insurance": 4634,
  "\u2581Act": 4635,
  "\u2581happening": 4636,
  "\u2581instruments": 4637,
  "\u2581places": 4638,
  "\u2581missing": 4639,
  "\u2581operating": 4640,
  "\u2581sad": 4641,
  "\u011bn\u00ed": 4642,
  "\u2581OP": 4643,
  "\u2581methods": 4644,
  "\u2581sklad": 4645,
  "\u2581regional": 4646,
  "r\u00e9": 4647,
  "\u00e1rn\u00ed": 4648,
  "\u2581mohly": 4649,
  "ius": 4650,
  "\u2581p\u0159ijet\u00ed": 4651,
  "\u2581s\u00edt\u011b": 4652,
  "\u2581ve\u0161ker\u00e9": 4653,
  "\u2581jako\u017e": 4654,
  "\u2581feed": 4655,
  "It": 4656,
  "vede": 4657,
  "99": 4658,
  "work": 4659,
  "\u2581receive": 4660,
  "ank": 4661,
  "\u2581administrative": 4662,
  "\u2581Black": 4663,
  "\u017eel": 4664,
  "\u2581rizika": 4665,
  "z\u00e1": 4666,
  "\u2581kot": 4667,
  "\u2581pictures": 4668,
  "ort": 4669,
  "\u2581Mari": 4670,
  "ash": 4671,
  "\u2581remain": 4672,
  "\u2581race": 4673,
  "\u2581etc": 4674,
  "\u2581substance": 4675,
  "37": 4676,
  "\u2581v\u00edme": 4677,
  "\u258149": 4678,
  "\u2581novou": 4679,
  "ical": 4680,
  "\u2581[2],": 4681,
  "\u2581Ros": 4682,
  "\u2581(5)": 4683,
  "\u2581instituce": 4684,
  "\u2581faith": 4685,
  "ara": 4686,
  "/2005": 4687,
  "\u2581subparagraph": 4688,
  "ni\u010d": 4689,
  "\u2581According": 4690,
  "\u2581positive": 4691,
  "0,000": 4692,
  "\u2581\u010dinnost": 4693,
  "rav": 4694,
  "\u2581podnik": 4695,
  "\u2581Chinese": 4696,
  "\u2581Ser": 4697,
  "\u2581t\u011bla": 4698,
  "\u2581n\u00e1stroje": 4699,
  "\u2581pool": 4700,
  "\u2581n\u00e1dhern": 4701,
  "\u2581v\u00fdrobku": 4702,
  "\u2581Informace": 4703,
  "\u2581dark": 4704,
  "\u2581seeing": 4705,
  "\u2581Post": 4706,
  "95": 4707,
  "nc": 4708,
  "\u2581EVROPSK": 4709,
  "\u2581takov\u00e9ho": 4710,
  "\u2581clearly": 4711,
  "\u2581Economic": 4712,
  "\u258144": 4713,
  "\u2581spr\u00e1vn\u011b": 4714,
  "\u2581commercial": 4715,
  "\u2581loved": 4716,
  "\u2581celn\u00ed": 4717,
  "\u2581Evrop\u011b": 4718,
  "\u2581Posledn\u00ed": 4719,
  "\u2581nos": 4720,
  "\u2581druh": 4721,
  "\u2581Mluv": 4722,
  "lam": 4723,
  "\u00a1": 4724,
  "lid": 4725,
  "raz\u00ed": 4726,
  "\u2581st\u0159el": 4727,
  "\u2581vozidel": 4728,
  "nici": 4729,
  "2/": 4730,
  "ib": 4731,
  "\u2581naprosto": 4732,
  "\u2581particularly": 4733,
  "\u2581Authority": 4734,
  "\u2581Location": 4735,
  "\u2581NA": 4736,
  "\u2581usually": 4737,
  "\u2581syst\u00e9m\u016f": 4738,
  "ovan\u00fdch": 4739,
  "\u2581Mont": 4740,
  "\u2581p\u0159i\u0161la": 4741,
  "\u2581quiet": 4742,
  "\u2581Stra": 4743,
  "\u2581m\u00edstn\u00ed": 4744,
  "ovo": 4745,
  "\u2581trip": 4746,
  "over": 4747,
  "\u258141": 4748,
  "\u2581shown": 4749,
  "\u2581Chi": 4750,
  "\u2581spodn\u00ed": 4751,
  "\u2581op\u011bt": 4752,
  "pot\u0159eb": 4753,
  "\u25811).": 4754,
  "\u2581foreign": 4755,
  "\u2581smart": 4756,
  "\u2581denn\u011b": 4757,
  "43": 4758,
  "\u2581communication": 4759,
  "\u2581note": 4760,
  "\u2581simply": 4761,
  "n\u00e1\u0161\u00ed": 4762,
  "\u2581v\u010dera": 4763,
  "zor": 4764,
  "log": 4765,
  "TS": 4766,
  "zna\u010d": 4767,
  "\u2581pln\u011b": 4768,
  "\u2581storage": 4769,
  "\u2581King": 4770,
  "got": 4771,
  "\u2581Stay": 4772,
  "\u2581ways": 4773,
  "\u2581ID": 4774,
  "\u2581meant": 4775,
  "\u2581takov\u00e1": 4776,
  "\u2581sna\u017eil": 4777,
  "\u2581Try": 4778,
  "\u2581osv\u011bd\u010den\u00ed": 4779,
  "asse": 4780,
  "\u2581tis\u00edc": 4781,
  "\u2581b\u011b\u017e": 4782,
  "\u2581actions": 4783,
  "\u2581jednotky": 4784,
  "\u2581nebyly": 4785,
  "au": 4786,
  "\u2581na\u0161li": 4787,
  "\u2581adopt": 4788,
  "\u2581Jim": 4789,
  "\u2581Prac": 4790,
  "\u2581vedle": 4791,
  "\u2581gives": 4792,
  "\u2581avoid": 4793,
  "\u2581evening": 4794,
  "\u2581heading": 4795,
  "\u2581sv\u00fdmi": 4796,
  "\u2581IP": 4797,
  "\u2581vztahuje": 4798,
  "\u2581kapit\u00e1n": 4799,
  "\u2581multi": 4800,
  "\u2581kone\u010dn\u011b": 4801,
  "\u2581evropsk\u00e9": 4802,
  "\u2581dangerous": 4803,
  "\u2581jen\u017e": 4804,
  "\u2581Next": 4805,
  "\u2581Office": 4806,
  "\u2581amazing": 4807,
  "\u2581unto": 4808,
  "\u2581ve\u0159ejnosti": 4809,
  "\u2581Section": 4810,
  "\u2581contains": 4811,
  "\u2581previous": 4812,
  "\u2581ruku": 4813,
  "\u2581Never": 4814,
  "\u2581p\u0159ijmout": 4815,
  "\u2581podniku": 4816,
  "\u2581green": 4817,
  "\u2581worse": 4818,
  "\u2581provision": 4819,
  "\u2581Points": 4820,
  "pin": 4821,
  "\u2581neod": 4822,
  "ken": 4823,
  "\u2581instead": 4824,
  "\u2581described": 4825,
  "\u2581hr\u00e1\u010d": 4826,
  "\u2581podniky": 4827,
  "\u2581<": 4828,
  "\u2581ride": 4829,
  "\u258155": 4830,
  "\u2581p\u0159i\u010dem\u017e": 4831,
  "\u2581expect": 4832,
  "\u2581Mc": 4833,
  "ped": 4834,
  "\u2581environmental": 4835,
  "\u2581Sub": 4836,
  "\u2581baz": 4837,
  "\u2581syna": 4838,
  "\u2581prior": 4839,
  "\u2581pr\u00e1dlo": 4840,
  "\u2581pap\u00edr": 4841,
  "\u2581\u010dl\u00e1nkem": 4842,
  "\u2581\u010demu": 4843,
  "\u2581pou\u017eiteln\u00e9": 4844,
  "st\u0159e": 4845,
  "\u2581vliv": 4846,
  "\u2581produkt": 4847,
  "r\u016f": 4848,
  "\u2581mis": 4849,
  "eli": 4850,
  "\u2581sou\u010dasn\u00e9": 4851,
  "\u2581ur\u010den\u00ed": 4852,
  "lle": 4853,
  "\u2581improve": 4854,
  "made": 4855,
  "AR": 4856,
  "\u2581Christmas": 4857,
  "\u2581wedding": 4858,
  "\u2581prostoru": 4859,
  "\u2581\u00farove\u0148": 4860,
  "\u2581odpov\u00eddaj\u00edc\u00ed": 4861,
  "\u2581count": 4862,
  "\u2581odpov\u011b\u010f": 4863,
  "DE": 4864,
  "\u2581implementing": 4865,
  "po\u010d": 4866,
  "\u2581star\u00e9": 4867,
  "\u2581pod\u00edl": 4868,
  "\u2581response": 4869,
  "\u2581media": 4870,
  "\u2581user": 4871,
  "\u2581Charles": 4872,
  "aster": 4873,
  "\u2581stroje": 4874,
  "\u2581Budeme": 4875,
  "\u2581jist\u00e1": 4876,
  "\u2581\u0161patn\u00fd": 4877,
  "\u2581n\u011bmu": 4878,
  "\u2581global": 4879,
  "\u2581middle": 4880,
  "dia": 4881,
  "ick\u00e1": 4882,
  "\u2581nem\u011bla": 4883,
  "AC": 4884,
  "tov": 4885,
  "\u2581pou\u017eije": 4886,
  "\u2581zd\u00e1": 4887,
  "\u00e8": 4888,
  "\u2581beauty": 4889,
  "\u258125.": 4890,
  "\u2581handle": 4891,
  "\u2581jin\u00fdm": 4892,
  "\u2581track": 4893,
  "\u2581toti\u017e": 4894,
  "\u2581decisions": 4895,
  "\u2581umo\u017e\u0148uje": 4896,
  "\u2581codes": 4897,
  "\u2581smrt": 4898,
  "\u2581mlad": 4899,
  "\u2581ryb": 4900,
  "d\u00e1v\u00e1": 4901,
  "\u2581KOMISE": 4902,
  "\u2581civil": 4903,
  "\u2581London": 4904,
  "bre": 4905,
  "sl": 4906,
  "\u2581certainly": 4907,
  "\u017eil": 4908,
  "bel": 4909,
  "6,": 4910,
  "\u2581pom\u016f\u017ee": 4911,
  "cam": 4912,
  "\u2581accept": 4913,
  "\u2581hub": 4914,
  "\u2581binding": 4915,
  "dne": 4916,
  "\u2581Jedna": 4917,
  "\u2581pokus": 4918,
  "\u2581recommended": 4919,
  "\u2581celkem": 4920,
  "\u2581Open": 4921,
  "\u2581sv\u00e9mu": 4922,
  "\u2581Green": 4923,
  "\u2581deset": 4924,
  "\u2581babe": 4925,
  "IC": 4926,
  "\u2581v\u00fdroby": 4927,
  "Fi": 4928,
  "\u2581DNA": 4929,
  "\u2581vod": 4930,
  "\u2581technick\u00e9": 4931,
  "\u2581k\u00f3d": 4932,
  "Pa": 4933,
  "por": 4934,
  "\u2581t\u00e9\u017e": 4935,
  "\u2581chod\u00ed": 4936,
  "\u2581\u0161la": 4937,
  "\u2581treated": 4938,
  "\u2581uses": 4939,
  "\u2581riziko": 4940,
  "pre": 4941,
  "\u2581dom\u011b": 4942,
  "\u2581nu": 4943,
  "\u2581klik": 4944,
  "\u2581V\u011bd\u011bl": 4945,
  "\u2581hang": 4946,
  "\u2581Dobr\u00e9": 4947,
  "\u2581users": 4948,
  "\u2581image": 4949,
  "\u2581pokra\u010dovat": 4950,
  "tud": 4951,
  "\u2581Hit": 4952,
  "stin": 4953,
  "\u2581med": 4954,
  "\u2581worrie": 4955,
  "\u2581East": 4956,
  "This": 4957,
  "\u2581quickly": 4958,
  "\u2581po\u010dtu": 4959,
  "\u2581stanoven\u00fdch": 4960,
  "dem": 4961,
  "trat": 4962,
  "\u2581men\u0161\u00ed": 4963,
  "\u2581Zd\u00e1": 4964,
  "\u2581authorisation": 4965,
  "\u2581za\u010dne": 4966,
  "LE": 4967,
  "\u2581n\u00e1hod": 4968,
  "\u2581engine": 4969,
  "\u2581dovozn\u00ed": 4970,
  "\u2581FOR": 4971,
  "\u2581druhou": 4972,
  "\u2581org\u00e1nu": 4973,
  "\u2581jestli\u017ee": 4974,
  "98": 4975,
  "\u2581\u010dinnost\u00ed": 4976,
  "\u2581duties": 4977,
  "gli": 4978,
  "ID": 4979,
  "\u2581correct": 4980,
  "\u2581Van": 4981,
  "mluvil": 4982,
  "\u2581plans": 4983,
  "vala": 4984,
  "\u2581poskytuje": 4985,
  "ene": 4986,
  "\u2581pomohl": 4987,
  "\u2581Data": 4988,
  "\u2581Jak\u00e9": 4989,
  "ction": 4990,
  "\u2581kar": 4991,
  "\u2581n\u00e1zor": 4992,
  "\u2581krit\u00e9ria": 4993,
  "hnout": 4994,
  "\u0161lo": 4995,
  "\u2581jmenuje": 4996,
  "\u2581chyba": 4997,
  "\u2581otherwise": 4998,
  "\u2581m\u00fdch": 4999,
  "\u2581citizens": 5000,
  "\u2581dress": 5001,
  "\u2581finish": 5002,
  "\u2581cast": 5003,
  "\u2581store": 5004,
  "\u2581skupina": 5005,
  "\u2581mam": 5006,
  "\u2581ball": 5007,
  "\u2581Bath": 5008,
  "\u2581styl": 5009,
  "\u2581\u0161\u0165astn": 5010,
  "\u2581zah\u00e1jen\u00ed": 5011,
  "ic\u00ed": 5012,
  "\u2581n\u00e1v\u0161t\u011bv": 5013,
  "\u2581registered": 5014,
  "trh": 5015,
  "act": 5016,
  "\u2581Petr": 5017,
  "gram": 5018,
  "\u258165": 5019,
  "\u2581kategorie": 5020,
  "\u2581Three": 5021,
  "\u2581agreed": 5022,
  "\u2581Cena": 5023,
  "\u2581t\u00fdk\u00e1": 5024,
  "\u2581prezident": 5025,
  "\u2581principle": 5026,
  "\u2581Italy": 5027,
  "\u2581v\u00fdzkum": 5028,
  "\u2581postup": 5029,
  "\u2581mohu": 5030,
  "atur": 5031,
  "\u2581Dohody": 5032,
  "\u2581viz": 5033,
  "\u2581posouzen\u00ed": 5034,
  "\u2581Heat": 5035,
  "\u2581dry": 5036,
  "\u2581Centre": 5037,
  "ump": 5038,
  "ford": 5039,
  "mes": 5040,
  "pie": 5041,
  "\u2581society": 5042,
  "\u2581obtained": 5043,
  "\u2581ztratil": 5044,
  "\u2581metr\u016f": 5045,
  "\u2581hlediska": 5046,
  "\u00edc\u00ed": 5047,
  "\u2581Use": 5048,
  "alog": 5049,
  "tle": 5050,
  "\u2581jump": 5051,
  "\u2581device": 5052,
  "than": 5053,
  "\u2581principles": 5054,
  "\u2581Dva": 5055,
  "\u2581po\u010d\u00edta\u010d": 5056,
  "\u2581\u010dlensk\u00fdm": 5057,
  "\u258129.": 5058,
  "\u2581steel": 5059,
  "\u2581prevent": 5060,
  "ses": 5061,
  "lup": 5062,
  "2.": 5063,
  "\u2581krev": 5064,
  "\u2581draw": 5065,
  "\u2581v\u011bku": 5066,
  "gr": 5067,
  "\u2581zdroje": 5068,
  "ult": 5069,
  "kup": 5070,
  "ista": 5071,
  "\u2581Table": 5072,
  "\u2581popular": 5073,
  "\u2581Key": 5074,
  "\u2581mo\u017enosti": 5075,
  "bus": 5076,
  "\u2581trans": 5077,
  "\u2581c\u00edl": 5078,
  "\u2581\u0161kole": 5079,
  "\u2581stal": 5080,
  "bin": 5081,
  "row": 5082,
  "\u2581responsibility": 5083,
  "\u2581vnitrost\u00e1tn\u00ed": 5084,
  "\u2581vztah": 5085,
  "\u2581Sto": 5086,
  "\u2581quick": 5087,
  "m\u00fd\u0161l": 5088,
  "\u2581objectives": 5089,
  "cel": 5090,
  "\u2581Far": 5091,
  "\u2581favour": 5092,
  "\u2581progress": 5093,
  "\u2581ring": 5094,
  "\u2581tests": 5095,
  "\u2581zajist\u00ed": 5096,
  "\u2581customers": 5097,
  "zel": 5098,
  "\u2581poskytov\u00e1n\u00ed": 5099,
  "\u258150%": 5100,
  "\u2581Trans": 5101,
  "ula": 5102,
  "test": 5103,
  "\u2581conditioning": 5104,
  "\u2581combination": 5105,
  "\u2581volume": 5106,
  "\u2581beat": 5107,
  "\u2581podnik\u016f": 5108,
  "nk": 5109,
  "fin": 5110,
  "\u2581pravidel": 5111,
  "p\u0159\u00ed": 5112,
  "\u2581p\u011bti": 5113,
  "\u2581\u017e\u00e1dnou": 5114,
  "\u2581n\u00ed\u017e": 5115,
  "dol": 5116,
  "\u2581\u00fa\u010det": 5117,
  "pit": 5118,
  "\u2581vzd\u011bl\u00e1v\u00e1n\u00ed": 5119,
  "\u2581kole": 5120,
  "\u2581nim": 5121,
  "lex": 5122,
  "\u2581matters": 5123,
  "\u2581kontrolu": 5124,
  "\u2581zat\u00edm": 5125,
  "fekt": 5126,
  "\u2581m\u011bs\u00edc": 5127,
  "lis": 5128,
  "ria": 5129,
  "anu": 5130,
  "\u2581surface": 5131,
  "\u2581et": 5132,
  "\u2581seat": 5133,
  "\u2581hospod\u00e1\u0159stv\u00ed": 5134,
  "\u2581boss": 5135,
  "\u2581pana": 5136,
  "\u2581eight": 5137,
  "He": 5138,
  "\u2581Service": 5139,
  "\u0161\u00edm": 5140,
  "\u2581obsahuj\u00edc\u00ed": 5141,
  "\u2581rukou": 5142,
  "\u2581smell": 5143,
  "\u2581electronic": 5144,
  "\u2581opened": 5145,
  "\u2581DE": 5146,
  "\u2581soubor\u016f": 5147,
  "\u2581com": 5148,
  "rick": 5149,
  "pet": 5150,
  "\u2581bio": 5151,
  "\u2581Nez": 5152,
  "mas": 5153,
  "field": 5154,
  "\u0158": 5155,
  "\u2581bag": 5156,
  "ovna": 5157,
  "\u2581ka\u017ed\u00e9m": 5158,
  "\u2581odej\u00edt": 5159,
  "\u2581standing": 5160,
  "MS": 5161,
  "\u2581rodinu": 5162,
  "olej": 5163,
  "\u2581Report": 5164,
  "\u2581unique": 5165,
  "\u2581Wil": 5166,
  "\u00f8": 5167,
  "key": 5168,
  "\u0161en\u00ed": 5169,
  "\u2581okam\u017eit\u011b": 5170,
  "\u2581moved": 5171,
  "\u2581includes": 5172,
  "\u2581Bru": 5173,
  "\u2581ovoce": 5174,
  "\u2581behalf": 5175,
  "\u2581ro\u010dn\u00ed": 5176,
  "ted": 5177,
  "\u258123.": 5178,
  "De": 5179,
  "\u2581contribution": 5180,
  "\u2581build": 5181,
  "\u2581pun\u010doch": 5182,
  "\u2581spent": 5183,
  "eur": 5184,
  "\u2581Code": 5185,
  "dou": 5186,
  "\u2581dosa\u017een\u00ed": 5187,
  "\u2581comments": 5188,
  "\u2581Dur": 5189,
  "\u2581sledov\u00e1n\u00ed": 5190,
  "\u2581pozornost": 5191,
  "\u2581bot": 5192,
  "\u2581exceeding": 5193,
  "\u2581za\u010d\u00e1tku": 5194,
  "\u2581Nu": 5195,
  "\u2581Such": 5196,
  "lub": 5197,
  "52": 5198,
  "\u2581Ltd": 5199,
  "\u2581cream": 5200,
  "kle": 5201,
  "stav\u00ed": 5202,
  "6/": 5203,
  "\u2581email": 5204,
  "uz": 5205,
  "\u2581Dis": 5206,
  "\u2581negative": 5207,
  "\u2581nehod": 5208,
  "\u2581totally": 5209,
  "male": 5210,
  "\u2581require": 5211,
  "\u2581\u017eije": 5212,
  "met": 5213,
  "\u2581mission": 5214,
  "\u2581dopravy": 5215,
  "\u2581napsal": 5216,
  "\u2581reviews": 5217,
  "\u00c9": 5218,
  "\u2581Sil": 5219,
  "\u2581lid": 5220,
  "eptat": 5221,
  "\u2581hu": 5222,
  "\u2581strana": 5223,
  "72": 5224,
  "\u2581wrote": 5225,
  "\u2581authorised": 5226,
  "\u2581v\u00fdvozn\u00ed": 5227,
  "\u2581compliance": 5228,
  "elle": 5229,
  "\u2581produktu": 5230,
  "\u2581odtud": 5231,
  "Con": 5232,
  "\u2581seconds": 5233,
  "zpom\u00edn\u00e1": 5234,
  "\u2581rod": 5235,
  "\u2581form\u011b": 5236,
  "\u2581rule": 5237,
  "\u2581vlastnosti": 5238,
  "\u2581m\u00e9m": 5239,
  "ati": 5240,
  "\u2581Stud": 5241,
  "\u2581Find": 5242,
  "\u2581americk\u00e9": 5243,
  "an\u00e9": 5244,
  "\u2581(2": 5245,
  "hr\u00e1t": 5246,
  "\u2581circumstances": 5247,
  "TA": 5248,
  "\u2581accounts": 5249,
  "\u2581Day": 5250,
  "\u2581Kategorie": 5251,
  "isti": 5252,
  "nika": 5253,
  "\u2581drop": 5254,
  "\u2581svoji": 5255,
  "\u2581\u010dase": 5256,
  "unch": 5257,
  "\u2581materi\u00e1l": 5258,
  "\u010dk\u00e1": 5259,
  "\u2581certificate": 5260,
  "\u2581p\u0159\u00e1tel\u00e9": 5261,
  "slov": 5262,
  "\u2581benefits": 5263,
  "\u2581surprise": 5264,
  "ml": 5265,
  "cal": 5266,
  "\u2581terr": 5267,
  "mann": 5268,
  "\u2581owner": 5269,
  "\u2581mag": 5270,
  "\u2581properties": 5271,
  "\u2581ANNEX": 5272,
  "\u2581arrangements": 5273,
  "\u2581target": 5274,
  "\u2581tre": 5275,
  "\u2581moji": 5276,
  "\u2581followed": 5277,
  "par": 5278,
  "\u2581up\u0159\u00edmn": 5279,
  "\u258146": 5280,
  "\u2581bl\u00edzko": 5281,
  "qu": 5282,
  "\u2581Over": 5283,
  "\u2581crime": 5284,
  "pra": 5285,
  "non": 5286,
  "\u2581Israel": 5287,
  "\u2581kick": 5288,
  "\u258185": 5289,
  "\u2581PO": 5290,
  "\u2581Time": 5291,
  "\u2581UN": 5292,
  "AD": 5293,
  "\u2581century": 5294,
  "\u2581properly": 5295,
  "\u2581miluje": 5296,
  "\u2581driving": 5297,
  "\u2581dob": 5298,
  "\u2581Before": 5299,
  "ches": 5300,
  "kovat": 5301,
  "\u2581um\u011bn\u00ed": 5302,
  "\u2581military": 5303,
  "kor": 5304,
  "\u2581mu\u017e\u016f": 5305,
  "\u2581Op": 5306,
  "\u2581indicated": 5307,
  "\u2581modern\u00ed": 5308,
  "\u2581lines": 5309,
  "ue": 5310,
  "\u2581developed": 5311,
  "\u2581providing": 5312,
  "\u2581v\u00fdkon": 5313,
  "\u2581Press": 5314,
  "\u2581mal\u00e1": 5315,
  "\u2581Ge": 5316,
  "padne": 5317,
  "ima": 5318,
  "\u2581Russian": 5319,
  "\u00edr": 5320,
  "\u2581zahrnuje": 5321,
  "\u2581William": 5322,
  "\u2581n\u00ed\u017ee": 5323,
  "\u00f6": 5324,
  "\u2581otev\u0159\u00edt": 5325,
  "78": 5326,
  "\u2581p\u0159ibli\u017en\u011b": 5327,
  "ater": 5328,
  "\u2581tablet": 5329,
  "\u2581Slovakia": 5330,
  "\u2581Should": 5331,
  "liv": 5332,
  "o\u017e": 5333,
  "l\u00edk": 5334,
  "\u2581economy": 5335,
  "\u2581m\u00e1lo": 5336,
  "nor": 5337,
  "tar": 5338,
  "\u2581reduce": 5339,
  ",000": 5340,
  "tem": 5341,
  "\u2581Euro": 5342,
  "\u2581obligations": 5343,
  "\u2581jedn\u00e1": 5344,
  "\u2581physical": 5345,
  "53": 5346,
  "\u2581P\u0158\u00cdLOHA": 5347,
  "\u2581separate": 5348,
  "\u2581Nyn\u00ed": 5349,
  "jdou": 5350,
  "\u2581summer": 5351,
  "\u2581REGULATION": 5352,
  "\u2581V\u0161e": 5353,
  "\u2581Autor": 5354,
  "\u2581garden": 5355,
  "\u2581kamer": 5356,
  "\u2581rich": 5357,
  "\u2581doporu\u010den\u00ed": 5358,
  "\u2581evil": 5359,
  "\u2581develop": 5360,
  "\u2581technologie": 5361,
  "\u2581rezervace": 5362,
  "\u2581opening": 5363,
  "\u258147": 5364,
  "thing": 5365,
  "\u2581t\u00fddne": 5366,
  "\u2581Actually": 5367,
  "\u2581250": 5368,
  "nete": 5369,
  "\u2581\u010cl": 5370,
  "dr\u017e\u00ed": 5371,
  "\u2581article": 5372,
  "\u2581cat": 5373,
  "\u2581drug": 5374,
  "\u2581Tak\u00e9": 5375,
  "\u2581Zdrav": 5376,
  "ott": 5377,
  "\u2581taj": 5378,
  "\u2581Earth": 5379,
  "\u2581rating": 5380,
  "\u2581balance": 5381,
  "\u2581booking": 5382,
  "\u2581sell": 5383,
  "eti": 5384,
  "\u2581popis": 5385,
  "\u2581povinnosti": 5386,
  "\u2581Director": 5387,
  "\u2581imagine": 5388,
  "\u2581neud\u011blal": 5389,
  "\u2581channel": 5390,
  "\u2581Fra": 5391,
  "d\u00e1v": 5392,
  "\u2581college": 5393,
  "eng": 5394,
  "\u2581ot\u00e1zku": 5395,
  "\u2581z\u00e1rove\u0148": 5396,
  "\u2581vote": 5397,
  "\u2581mysli": 5398,
  "\u2581collection": 5399,
  "\u2581prach": 5400,
  "zn\u00e1m": 5401,
  "\u2581CZ": 5402,
  "76": 5403,
  "\u2581join": 5404,
  "ule": 5405,
  "year": 5406,
  "\u2581soul": 5407,
  "\u2581reading": 5408,
  "9/": 5409,
  "\u2581Land": 5410,
  "\u2581K\u00f3d": 5411,
  "ern": 5412,
  "\u258184": 5413,
  "\u2581Pla": 5414,
  "\u2581injection": 5415,
  "\u2581hlas": 5416,
  "\u2581Hor": 5417,
  "\u2581Mur": 5418,
  "\u2581press": 5419,
  "\u2581elements": 5420,
  "\u25814-": 5421,
  "\u2581names": 5422,
  "\u2581sice": 5423,
  "pdf": 5424,
  "\u2581Number": 5425,
  "\u2581files": 5426,
  "brat": 5427,
  "graph": 5428,
  "\u2581sperma": 5429,
  "\u2581uvedeny": 5430,
  "mobil": 5431,
  "88": 5432,
  "\u2581context": 5433,
  "ym": 5434,
  "\u2581tv\u00e9ho": 5435,
  "\u2581chod": 5436,
  "\u2581Joint": 5437,
  "\u2581lidsk\u00e9": 5438,
  "\u2581extreme": 5439,
  "\u2581dne\u0161n\u00ed": 5440,
  "\u2581p\u0159\u00edstupu": 5441,
  "\u2581Box": 5442,
  "\u2581~": 5443,
  "n\u00edci": 5444,
  "\u2581Bre": 5445,
  "\u2581taste": 5446,
  "\u2581add": 5447,
  "\u2581overall": 5448,
  "\u2581zv\u00ed\u0159ata": 5449,
  "rup": 5450,
  "vaz": 5451,
  "\u2581Motor": 5452,
  "\u2581wonderful": 5453,
  "\u2581Telefon": 5454,
  "osa": 5455,
  "\u2581jok": 5456,
  "\u2581studie": 5457,
  "\u25811998": 5458,
  "\u2581um\u011bl": 5459,
  "r\u00e9n": 5460,
  "\u2581komise": 5461,
  "\u2581heat": 5462,
  "\u2581\u010cesk\u00e1": 5463,
  "\u2581norm\u00e1ln\u00ed": 5464,
  "sk\u00fdm": 5465,
  "ians": 5466,
  "\u2581pal": 5467,
  "\u2581tv\u00e1": 5468,
  "\u2581proveden\u00ed": 5469,
  "\u2581Big": 5470,
  "\u2581prison": 5471,
  "p\u0159ed": 5472,
  "\u2581v\u00fdrobn\u00ed": 5473,
  "\u2581ve\u010de\u0159i": 5474,
  "\u2581begin": 5475,
  "\u2581procesu": 5476,
  "\u2581huge": 5477,
  "\u2581external": 5478,
  "berg": 5479,
  "\u2581z\u00e1kon": 5480,
  "\u2581sitting": 5481,
  "\u2581essential": 5482,
  "\u2581p\u0159\u00edpravek": 5483,
  "\u2581wide": 5484,
  "\u2581RE": 5485,
  "8/": 5486,
  "t\u00e1hnout": 5487,
  "\u2581caused": 5488,
  "\u2581Neza": 5489,
  "\u2581ras": 5490,
  "\u2581\u0159\u00edkaj\u00ed": 5491,
  "EK": 5492,
  "\u2581\u0159editel": 5493,
  "\u2581favorit": 5494,
  "\u2581metr": 5495,
  "\u2581laugh": 5496,
  "\u2581Fish": 5497,
  "\u2581forms": 5498,
  "\u2581Love": 5499,
  "hole": 5500,
  "\u2581tajemstv\u00ed": 5501,
  "pustit": 5502,
  "\u2581l\u00e9\u010dby": 5503,
  "\u2581novin": 5504,
  "\u2581m\u00edstnosti": 5505,
  "65": 5506,
  "\u2581Price": 5507,
  "\u2581chov\u00e1n\u00ed": 5508,
  "\u2581strategy": 5509,
  "\u2581Kor": 5510,
  "\u2581odstavce": 5511,
  "\u2581church": 5512,
  "\u2581Lid": 5513,
  "\u2581billion": 5514,
  "ick\u00fd": 5515,
  "\u2581dovoz": 5516,
  "ook": 5517,
  "kli": 5518,
  "\u2581System": 5519,
  "\u2581bought": 5520,
  "\u2581vztahu": 5521,
  "\u2581Jm\u00e9no": 5522,
  "\u2581z\u00e1vazn\u00e9": 5523,
  "eln\u00e9": 5524,
  "\u2581entered": 5525,
  "\u2581v\u00fdstav": 5526,
  "\u2581components": 5527,
  "\u2581myslet": 5528,
  "\u2581Bu\u010f": 5529,
  "\u2581Author": 5530,
  "\u2581Remember": 5531,
  "\u258151": 5532,
  "\u2581oblastech": 5533,
  "ille": 5534,
  "\u2581koupit": 5535,
  "\u2581sam\u00e9": 5536,
  "\u2581nemaj\u00ed": 5537,
  "prost": 5538,
  "\u2581snadno": 5539,
  "\u2581distance": 5540,
  "ologie": 5541,
  "\u2581stick": 5542,
  "\u2581Common": 5543,
  "\u2581\u00da\u0159edn\u00edm": 5544,
  "esti": 5545,
  "\u258128.": 5546,
  "IP": 5547,
  "\u2581suit": 5548,
  "vig": 5549,
  "\u2581students": 5550,
  "\u2581lying": 5551,
  "nap\u0159": 5552,
  "pol": 5553,
  "zkou\u0161": 5554,
  "\u2581\u00fa\u0159ad": 5555,
  "\u2581bolest": 5556,
  "\u2581interests": 5557,
  "\u2581sp\u00e1t": 5558,
  "pln\u011b": 5559,
  "col": 5560,
  "OD": 5561,
  "\u2581Text": 5562,
  "ome": 5563,
  "\u2581shower": 5564,
  "\u2581va\u0161ich": 5565,
  "\u2581temperature": 5566,
  "\u2581boat": 5567,
  "\u2581\u010dty\u0159": 5568,
  "\u2581watching": 5569,
  "\u2581radost": 5570,
  "\u258188": 5571,
  "\u2581v\u00fdjimkou": 5572,
  "igh": 5573,
  "v\u00e1n\u00ed": 5574,
  "\u2581manufacturer": 5575,
  "\u2581Roman": 5576,
  "\u2581mistake": 5577,
  "91": 5578,
  "abel": 5579,
  "\u2581zastavit": 5580,
  "\u2581latest": 5581,
  "e\u0148": 5582,
  "\u2581z\u00e1klad": 5583,
  "hne": 5584,
  "\u2581mail": 5585,
  "\u2581Italian": 5586,
  "\u00ae": 5587,
  "\u2581pilot": 5588,
  "n\u00fdmi": 5589,
  "ept": 5590,
  "97": 5591,
  "\u2581metal": 5592,
  "\u2581Development": 5593,
  "icky": 5594,
  "\u2581p\u0159edsedaj\u00edc\u00ed": 5595,
  "\u2581tomuto": 5596,
  "\u2581d\u016fvod\u016f": 5597,
  "\u2581kdo\u017e": 5598,
  "cor": 5599,
  "\u2581speci\u00e1ln\u00ed": 5600,
  "mark": 5601,
  "0,": 5602,
  "\u2581jin\u00e1": 5603,
  "\u2581hodinu": 5604,
  "\u2581od\u016fvodn\u011bn\u00ed": 5605,
  "\u2581White": 5606,
  "dom": 5607,
  "bili": 5608,
  "\u2581dle": 5609,
  "LA": 5610,
  "\u2581investi\u010dn\u00ed": 5611,
  "\u2581reduction": 5612,
  "but": 5613,
  "ons": 5614,
  "\u2581MA": 5615,
  "\u2581pravd\u011bpodobn\u011b": 5616,
  "\u2581comply": 5617,
  "\u2581regular": 5618,
  "\u2581kop": 5619,
  "cie": 5620,
  "\u2581Game": 5621,
  "\u2581p\u016fvodn\u00ed": 5622,
  "\u2581relation": 5623,
  "head": 5624,
  "\u2581Follow": 5625,
  "hla": 5626,
  "\u2581obou": 5627,
  "wan": 5628,
  "\u2581Doctor": 5629,
  "\u2581takovou": 5630,
  "\u2581dovozu": 5631,
  "\u2581sly\u0161\u00ed": 5632,
  "\u017eiv": 5633,
  "\u2581statement": 5634,
  "light": 5635,
  "\u2581Hair": 5636,
  "ero": 5637,
  "\u2581possibility": 5638,
  "\u2581tv\u00e1\u0159": 5639,
  "\u2581oslav": 5640,
  "\u25813:": 5641,
  "\u2581CN": 5642,
  "\u2581bezpe\u010d\u00ed": 5643,
  "94": 5644,
  "\u2581cu": 5645,
  "100": 5646,
  "\u2581p\u0159\u00edslu\u0161n\u00fdch": 5647,
  "\u2581showed": 5648,
  "\u2581Date": 5649,
  "\u2581focus": 5650,
  "\u2581pot\u0159ebujeme": 5651,
  "\u2581Nemus\u00ed": 5652,
  "dam": 5653,
  "\u2581Wal": 5654,
  "dali": 5655,
  "\u2581rady": 5656,
  "\u2581n\u011bm\u017e": 5657,
  "plet": 5658,
  "\u2581Rok": 5659,
  "\u258126.": 5660,
  "\u2581Typ": 5661,
  "\u2581oble\u010den\u00ed": 5662,
  "ico": 5663,
  "OS": 5664,
  "\u2581zased\u00e1n\u00ed": 5665,
  "68": 5666,
  "\u2581zbran\u011b": 5667,
  "\u2581presented": 5668,
  "4/": 5669,
  "\u2581Protocol": 5670,
  "\u2581lidmi": 5671,
  "elcome": 5672,
  "\u2581funkci": 5673,
  "\u2581Once": 5674,
  "ney": 5675,
  "t\u0159e": 5676,
  "\u2581amounts": 5677,
  "\u2581Var": 5678,
  "\u2581objective": 5679,
  "\u2581jednom": 5680,
  "\u2581pracovn\u00edch": 5681,
  "\u2581sc": 5682,
  "9,": 5683,
  "hen": 5684,
  "\u2581Ji\u017en\u00ed": 5685,
  "\u2581Comp": 5686,
  "\u2581camp": 5687,
  "\u2581p\u0159\u00edle\u017eitost": 5688,
  "\u2581projekt\u016f": 5689,
  "\u2581v\u011bd": 5690,
  "\u2581aktiv": 5691,
  "\u2581klient": 5692,
  "\u2581policie": 5693,
  "\u2581slib": 5694,
  "\u2581nobody": 5695,
  "\u2581profile": 5696,
  "\u2581accident": 5697,
  "\u2581movement": 5698,
  "\u2581square": 5699,
  "\u2581p\u0159ipraven": 5700,
  "\u2581\u0159ad\u011b": 5701,
  "\u2581vl\u00e1dy": 5702,
  "\u2581uvedeno": 5703,
  "\u2581600": 5704,
  "\u2581release": 5705,
  "\u2581d\u00e1vky": 5706,
  "\u2581Games": 5707,
  "\u2581z\u00e1pas": 5708,
  "\u2581wind": 5709,
  "\u2581sight": 5710,
  "\u2581closer": 5711,
  "\u2581Ireland": 5712,
  "\u2581anywhere": 5713,
  "\u2581select": 5714,
  "slou\u017e\u00ed": 5715,
  "\u2581p\u0159\u00edpravky": 5716,
  "rid": 5717,
  "\u2581zjist\u00ed": 5718,
  "\u2581package": 5719,
  "\u2581nem\u016f\u017eeme": 5720,
  "\u2581identification": 5721,
  "kl": 5722,
  "\u2581advice": 5723,
  "\u2581Lid\u00e9": 5724,
  "\u203a": 5725,
  "\u2581features": 5726,
  "\u2581damage": 5727,
  "\u2581rostlin": 5728,
  "\u2581finished": 5729,
  "\u2581Cas": 5730,
  "\u2581nap\u0159": 5731,
  "\u2581domestic": 5732,
  "\u2581nev\u011bd\u011bl": 5733,
  "pi\u0161te": 5734,
  "\u2581\u010deho": 5735,
  "tul": 5736,
  "\u2581institution": 5737,
  "\u2581p\u0159\u00edtele": 5738,
  "....": 5739,
  "64": 5740,
  "\u2581d\u011bkuji": 5741,
  "\u2581Financial": 5742,
  "\u2581saved": 5743,
  "gh": 5744,
  "\u2581Jej\u00ed": 5745,
  "pla": 5746,
  "vali": 5747,
  "agne": 5748,
  "ovn\u00ed": 5749,
  "\u258156": 5750,
  "\u2581B\u011bh": 5751,
  "ester": 5752,
  "m\u00edn": 5753,
  "\u2581Santa": 5754,
  "\u2581veden\u00ed": 5755,
  "\u2581Vlastn\u00ed": 5756,
  "\u2581Nebyl": 5757,
  "\u2581dopad": 5758,
  "\u2581length": 5759,
  "\u258152": 5760,
  "NA": 5761,
  "\u2581doubt": 5762,
  "\u2581subjekty": 5763,
  "\u2581Fund": 5764,
  "\u2581120": 5765,
  "dry": 5766,
  "\u2581recent": 5767,
  "\u2581definitely": 5768,
  "\u2581svatb": 5769,
  "cl": 5770,
  "\u2581Convention": 5771,
  "\u2581sedm": 5772,
  "\u2581p\u0159\u00ed\u0161t\u00ed": 5773,
  "\u2581setting": 5774,
  "\u2581Area": 5775,
  "oo": 5776,
  "\u2581birth": 5777,
  "\u2581mlad\u00fd": 5778,
  "\u2581representative": 5779,
  "\u2581path": 5780,
  "\u2581Under": 5781,
  "adu": 5782,
  "\u258124.": 5783,
  "ega": 5784,
  "\u2581Evropsk\u00fd": 5785,
  "\u2581articles": 5786,
  "\u2581began": 5787,
  "\u2581ot\u00e1zka": 5788,
  "\u2581sm\u011brem": 5789,
  "\u2581souvisej\u00edc\u00ed": 5790,
  "\u2581dobrou": 5791,
  "\u2581nemohl": 5792,
  "\u2581t\u011bmi": 5793,
  "\u2581audit": 5794,
  "\u2581reality": 5795,
  "\u2581nejvy\u0161\u0161\u00ed": 5796,
  "\u2581Mary": 5797,
  "\u2581gold": 5798,
  "\u0161tina": 5799,
  "\u2581rozhodnut\u00edm": 5800,
  "rka": 5801,
  "\u2581Nepo": 5802,
  "\u2581ice": 5803,
  "\u2581sledovat": 5804,
  "\u2581therapy": 5805,
  "\u2581beyond": 5806,
  "\u2581flight": 5807,
  "\u2581throughout": 5808,
  "ative": 5809,
  "\u2581proposed": 5810,
  "\u2581talked": 5811,
  "zv": 5812,
  "\u2581vessels": 5813,
  "anta": 5814,
  "ique": 5815,
  "\u2581direction": 5816,
  "\u2581uniform": 5817,
  "\u2581careful": 5818,
  "\u2581Best": 5819,
  "\u2581org": 5820,
  "\u2581Joseph": 5821,
  "\u2581\u017eivotn\u00edho": 5822,
  "\u2581hraje": 5823,
  "\u2581download": 5824,
  "\u2581odkaz": 5825,
  "\u2581images": 5826,
  "pas": 5827,
  "\u2581operace": 5828,
  "hand": 5829,
  "nos": 5830,
  "\u2581outdoor": 5831,
  "\u2581plants": 5832,
  "\u2581domov": 5833,
  "\u2581Blue": 5834,
  "\u2581IS": 5835,
  "AM": 5836,
  "rik": 5837,
  "\u2581prvn\u00edho": 5838,
  "\u2581lodi": 5839,
  "\u2581Louis": 5840,
  "\u2581dos\u00e1hnout": 5841,
  "\u2581Security": 5842,
  "\u2581v\u00fdznam": 5843,
  "\u2581Leti\u0161t\u011b": 5844,
  "\u2581Tru": 5845,
  "\u2581centru": 5846,
  "\u2581reduced": 5847,
  "\u2581broke": 5848,
  "\u2581port": 5849,
  "\u2581killer": 5850,
  "\u2581z\u00e1stupce": 5851,
  "\u2581Window": 5852,
  "\u2581nebudou": 5853,
  "\u2581policies": 5854,
  "\u2581prove": 5855,
  "\u2581>": 5856,
  "dn\u00ed": 5857,
  "\u2581Think": 5858,
  "\u2581fix": 5859,
  "\u2581placed": 5860,
  "\u2581broken": 5861,
  "cia": 5862,
  "eni": 5863,
  "\u2581aspo\u0148": 5864,
  "\u2581gen": 5865,
  "\u2581hodnotu": 5866,
  "\u2581forever": 5867,
  "ston": 5868,
  "\u2581Bor": 5869,
  "\u2581suck": 5870,
  "\u2581gift": 5871,
  "\u2581zlep\u0161en\u00ed": 5872,
  "\u2581Kal": 5873,
  "\u2581accepted": 5874,
  "\u2581sly\u0161et": 5875,
  "ple": 5876,
  "sk\u00e9m": 5877,
  "\u2581Nejlep\u0161\u00ed": 5878,
  "\u2581datum": 5879,
  "\u2581complex": 5880,
  "\u2581Byli": 5881,
  "Pr": 5882,
  "TO": 5883,
  "\u2581Co\u017e": 5884,
  "\u2581prov\u00e1d\u00ed": 5885,
  "\u2581kan\u00e1l": 5886,
  "\u2581Ant": 5887,
  "\u2581odd\u011blen\u00ed": 5888,
  "\u2581(6)": 5889,
  "\u2581cla": 5890,
  "\u2581concluded": 5891,
  "ov\u00e1ny": 5892,
  "ril": 5893,
  "\u2581busy": 5894,
  "\u2581Management": 5895,
  "\u2581jej\u00edm": 5896,
  "\u2581materi\u00e1l\u016f": 5897,
  "\u258127.": 5898,
  "\u2581nebe": 5899,
  "ras": 5900,
  "\u2581krve": 5901,
  "\u2581n\u00e1mo\u0159n\u00ed": 5902,
  "\u2581hodnot": 5903,
  "\u2581troj": 5904,
  "\u2581notes": 5905,
  "\u2581aware": 5906,
  "bral": 5907,
  "\u2581grant": 5908,
  "b\u011bh": 5909,
  "\u2581suitable": 5910,
  "\u2581imp": 5911,
  "\u2581jazyk": 5912,
  "\\": 5913,
  "\u00e1\u0159e": 5914,
  "\u2581appreciate": 5915,
  "wood": 5916,
  "\u2581establish": 5917,
  "\u2581Res": 5918,
  "\u2581structure": 5919,
  "\u2581v\u00e9st": 5920,
  "\u2581Juli": 5921,
  "rl": 5922,
  "\u2581p\u0159ipojen\u00ed": 5923,
  "\u2581parking": 5924,
  "\u2581hudb": 5925,
  "\u2581quantities": 5926,
  "CZK": 5927,
  "EM": 5928,
  "\u2581former": 5929,
  "\u2581SE": 5930,
  "77": 5931,
  "ova\u010d": 5932,
  "house": 5933,
  "\u2581ed": 5934,
  "\u2581dok\u00e1\u017ee": 5935,
  "\u2581jinou": 5936,
  "enny": 5937,
  "\u2581nese": 5938,
  "\u2581NA\u0158\u00cdZEN\u00cd": 5939,
  "\u2581metody": 5940,
  "\u2581vnit\u0159n\u00ed": 5941,
  "oll": 5942,
  "p\u0159e": 5943,
  "\u2581Place": 5944,
  "\u2581flow": 5945,
  "\u2581stopped": 5946,
  "\u2581gal": 5947,
  "\u2581laws": 5948,
  "\u2581DO": 5949,
  "lt": 5950,
  "\u00e1ci": 5951,
  "\u2581ne\u017e\u00e1douc\u00ed": 5952,
  "\u2581Social": 5953,
  "\u2581dvakr\u00e1t": 5954,
  "\u010dte": 5955,
  "\u25811000": 5956,
  "\u2581Fakt": 5957,
  "\u2581Mir": 5958,
  "\u2581sv\u011btlo": 5959,
  "\u2581n\u011b\u017e": 5960,
  "\u2581producer": 5961,
  "\u0161et": 5962,
  "\u2581jedin\u00e1": 5963,
  "\u2581jin\u00fdmi": 5964,
  "\u2581requested": 5965,
  "methyl": 5966,
  "\u2581Product": 5967,
  "\u2581dostala": 5968,
  "\u2581laskav": 5969,
  "reak": 5970,
  "\u2581pregnant": 5971,
  "\u2581Evropy": 5972,
  "eller": 5973,
  "66": 5974,
  "\u2581item": 5975,
  "\u2581miles": 5976,
  "\u2581actual": 5977,
  "\u2581employment": 5978,
  "\u2581Russia": 5979,
  "\u2581books": 5980,
  "oper": 5981,
  "\u2581n\u00e1zev": 5982,
  "\u2581nohy": 5983,
  "\u2581agreements": 5984,
  "sv\u011bt": 5985,
  "87": 5986,
  "Plus": 5987,
  "\u2581\u00favahu": 5988,
  "\u2581compared": 5989,
  "\u2581v\u0161echna": 5990,
  "amer": 5991,
  "\u2581konkr\u00e9tn\u00ed": 5992,
  "\u2581payments": 5993,
  "iteln\u00e9": 5994,
  "\u2581breakfast": 5995,
  "f\u00e9r": 5996,
  "pod": 5997,
  "96": 5998,
  "\u2581magic": 5999,
  "\u2581Rad\u011b": 6000,
  "\u25813,": 6001,
  "\u2581Cel": 6002,
  "\u2581closed": 6003,
  "\u2581famo": 6004,
  "\u2581freedom": 6005,
  "\u258154": 6006,
  "\u00e1tu": 6007,
  "\u2581Angel": 6008,
  "\u2581island": 6009,
  "\u2581Po\u010det": 6010,
  "\u2581p\u0159i\u0161li": 6011,
  "\u2581st\u00e1t\u011b": 6012,
  "\u2581net": 6013,
  "\u2581uplat\u0148ov\u00e1n\u00ed": 6014,
  "\u2581acting": 6015,
  "\u2581Geo": 6016,
  "\u2581highly": 6017,
  "oj": 6018,
  "\u2581existence": 6019,
  "\u2581osobn\u00edch": 6020,
  "\u2581d\u016fkaz": 6021,
  "\u2581narozen": 6022,
  "\u2581kl\u00ed\u010d": 6023,
  "\u2581Unii": 6024,
  "\u2581families": 6025,
  "\u2581facilit": 6026,
  "\u2581ME": 6027,
  "\u2581z\u00e1kladn\u00edho": 6028,
  "\u2581none": 6029,
  "\u0148uje": 6030,
  "\u2581Clean": 6031,
  "\u2581er": 6032,
  "\u2581village": 6033,
  "\u2581walking": 6034,
  "\u2581bear": 6035,
  "\u2581teacher": 6036,
  "\u2581mark": 6037,
  "\u2581uv\u00e1d\u00ed": 6038,
  "\u2581kal": 6039,
  "\u2581clothes": 6040,
  "\u2581risks": 6041,
  "vn\u00ed": 6042,
  "\u2581excit": 6043,
  "DF": 6044,
  "\u017eit": 6045,
  "\u2581uveden\u00e1": 6046,
  "\u2581Mother": 6047,
  "\u2581master": 6048,
  "\u2581nebezpe\u010d\u00ed": 6049,
  "\u2581shop": 6050,
  "\u2581pln\u011bn\u00ed": 6051,
  "\u2581kvality": 6052,
  "e\u010d": 6053,
  "uri": 6054,
  "\u2581fuel": 6055,
  "asa": 6056,
  "\u2581pod\u011b": 6057,
  "\u2581score": 6058,
  "\u2581region\u00e1ln\u00ed": 6059,
  "\u2581While": 6060,
  "\u2581Anti": 6061,
  "\u2581stanice": 6062,
  "\u2581disk": 6063,
  "\u2581st\u00e1l": 6064,
  "rog": 6065,
  "\u2581equipped": 6066,
  "\u2581vezme": 6067,
  "\u2581\u0161lo": 6068,
  "\u2581strategie": 6069,
  "\u2581firmy": 6070,
  "n\u00edku": 6071,
  "\u2581birthday": 6072,
  "wel": 6073,
  "\u2581regions": 6074,
  "\u2581Potom": 6075,
  "\u2581skon\u010d\u00ed": 6076,
  "\u2581z\u00e1kona": 6077,
  "\u25812005.": 6078,
  "5,": 6079,
  "\u2581Zde": 6080,
  "\u2581Leave": 6081,
  "de\u0161el": 6082,
  "HO": 6083,
  "\u2581serve": 6084,
  "\u2581population": 6085,
  "\u2581Oo": 6086,
  "-3": 6087,
  "\u258153": 6088,
  "\u2581indeed": 6089,
  "\u2581vysoce": 6090,
  "\u2581marriage": 6091,
  "\u2581chodit": 6092,
  "s\u00edla": 6093,
  "u\u0161": 6094,
  "\u2581sob": 6095,
  "\u2581killing": 6096,
  "\u2581equivalent": 6097,
  "\u2581\u0159\u00edci": 6098,
  "\u2581sufficient": 6099,
  "\u2581transmission": 6100,
  "\u2581neither": 6101,
  "\u2581\u00fa\u010detn\u00ed": 6102,
  "\u2581enable": 6103,
  "\u2581po\u010das\u00ed": 6104,
  "\u2581T\u0159i": 6105,
  "\u017easn": 6106,
  "\u2581workers": 6107,
  "\u2581scope": 6108,
  "\u2581proces": 6109,
  "bul": 6110,
  "press": 6111,
  "\u2581drugs": 6112,
  "\u2581t\u011bmito": 6113,
  "\u2581undertaking": 6114,
  "\u2581favor": 6115,
  "\u2581List": 6116,
  "\u2581p\u0159edstav": 6117,
  "\u2581achieve": 6118,
  "\u2581skute\u010dn\u00fd": 6119,
  "\u2581dcer": 6120,
  "\u2581Pri": 6121,
  "menu": 6122,
  "\u2581vid\u011bli": 6123,
  "\u2581MI": 6124,
  "hlu": 6125,
  "\u2581Move": 6126,
  "\u2581nem\u00e1me": 6127,
  "\u2581internetu": 6128,
  "back": 6129,
  "\u258113:": 6130,
  "\u2581vyd\u00e1n\u00ed": 6131,
  "\u2581rozpo\u010dtu": 6132,
  "\u2581zlo\u010din": 6133,
  "pul": 6134,
  "cer": 6135,
  "\u2581extension": 6136,
  "eth": 6137,
  "razit": 6138,
  "\u2581zdravotn\u00ed": 6139,
  "\u2581soudu": 6140,
  "\u25812006.": 6141,
  "\u2581quantity": 6142,
  "\u2581strength": 6143,
  "\u2581\u010dekat": 6144,
  "stro": 6145,
  "l\u00e1k": 6146,
  "\u2581\u017d\u00e1dn\u00fd": 6147,
  "\u2581Mezin\u00e1rodn\u00ed": 6148,
  "\u2581click": 6149,
  "\u2581Food": 6150,
  "\u2581Safety": 6151,
  "\u2581India": 6152,
  "praven": 6153,
  "\u2581boj\u00ed": 6154,
  "\u2581contain": 6155,
  "\u2581Spain": 6156,
  "\u2581v\u011b\u0159\u00ed": 6157,
  "mel": 6158,
  "\u2581vybrat": 6159,
  "pek": 6160,
  "\u2581soud": 6161,
  "rst": 6162,
  "\u2581claim": 6163,
  "\u2581dala": 6164,
  "\u2581\u010dlensk\u00e9m": 6165,
  "\u2581completed": 6166,
  "k\u00e1zal": 6167,
  "place": 6168,
  "\u2581mr": 6169,
  "\u2581Nedo": 6170,
  "\u2581autobus": 6171,
  "\u2581perhaps": 6172,
  "\u2581toys": 6173,
  "\u2581expert": 6174,
  "jm": 6175,
  "\u2581Lot": 6176,
  "\u2581tea": 6177,
  "\u2581Turn": 6178,
  "61": 6179,
  "\u2581program\u016f": 6180,
  "\u2581evaluation": 6181,
  "\u2581v\u00fdhled": 6182,
  "\u2581band": 6183,
  "\u2581lunch": 6184,
  "0/": 6185,
  "\u2581ISO": 6186,
  "\u2581dcera": 6187,
  "\u2581vyhl\u00e1\u0161en\u00ed": 6188,
  "\u2581Hlavn\u00ed": 6189,
  "7/": 6190,
  "ville": 6191,
  "\u2581sta\u010d\u00ed": 6192,
  "\u2581M\u00edsto": 6193,
  "\u2581nikoho": 6194,
  "mile": 6195,
  "\u2581sv\u011btla": 6196,
  "C\u00edt\u00ed": 6197,
  "\u2581kapit\u00e1lu": 6198,
  "\u2581pln\u00e9": 6199,
  "\u2581obsahu": 6200,
  "\u2581doba": 6201,
  "urs": 6202,
  "92": 6203,
  "\u2581states": 6204,
  "v\u011bd\u011bl": 6205,
  "\u2581dostali": 6206,
  "\u2581industrial": 6207,
  "\u2581tired": 6208,
  "CO": 6209,
  "ovatel": 6210,
  "\u2581Rom": 6211,
  "\u2581Poland": 6212,
  "erhaps": 6213,
  "\u2581partners": 6214,
  "\u2581vytvo\u0159it": 6215,
  "\u2581zn\u00e1t": 6216,
  "\u2581d\u011blaj\u00ed": 6217,
  "\u2581dal\u0161\u00edho": 6218,
  "\u00d3": 6219,
  "\u2581demand": 6220,
  "\u2581undertakings": 6221,
  "\u2581ozna\u010den\u00ed": 6222,
  "\u2581tree": 6223,
  "\u2581hmotnosti": 6224,
  "\u2581terrible": 6225,
  "\u2581ideal": 6226,
  "\u2581Flat": 6227,
  "\u2581spot": 6228,
  "\u2581Law": 6229,
  "\u2581cel\u00e9ho": 6230,
  "\u2581client": 6231,
  "\u2581applicant": 6232,
  "\u2581p\u0159edstavit": 6233,
  "\u2581iron": 6234,
  "ude": 6235,
  "rma": 6236,
  "PS": 6237,
  "nat": 6238,
  "pes": 6239,
  "stein": 6240,
  "\u2581sa": 6241,
  "\u2581stanoven\u00e1": 6242,
  "\u2581v\u0161eho": 6243,
  "\u2581tr\u017en\u00ed": 6244,
  "\u2581offered": 6245,
  "\u2581t\u00fddn\u016f": 6246,
  "\u2581bl\u00edzkosti": 6247,
  "\u2581teen": 6248,
  "\u2581st\u00e1t\u016fm": 6249,
  "\u2581joint": 6250,
  "\u2581reached": 6251,
  "\u2581Maria": 6252,
  "\u2581firm": 6253,
  "\u2581dan\u011b": 6254,
  "\u2581p\u0159\u00edjem": 6255,
  "\u2581krevn\u00ed": 6256,
  "ST": 6257,
  "\u2581contracts": 6258,
  "\u2581Sara": 6259,
  "\u2581limits": 6260,
  "\u2581acts": 6261,
  "dis": 6262,
  "\u2581honor": 6263,
  ".1": 6264,
  "\u2581Minister": 6265,
  "\u2581submit": 6266,
  "\u2581scientific": 6267,
  "\u2581podob\u011b": 6268,
  "\u2581Nov\u00e9": 6269,
  "ists": 6270,
  "lig": 6271,
  "rno": 6272,
  "\u2581Amerika": 6273,
  "\u2581vyp": 6274,
  "\u2581distribution": 6275,
  "\u2581Health": 6276,
  "\u2581pr\u016f": 6277,
  "sum": 6278,
  "\u2581Party": 6279,
  "\u2581named": 6280,
  "\u2581ch\u00e1p": 6281,
  "\u2581traffic": 6282,
  "ota": 6283,
  "\u2581song": 6284,
  "slal": 6285,
  "\u2581guests": 6286,
  "\u2581establishment": 6287,
  "\u2581talent": 6288,
  "\u2581v\u00fdrobu": 6289,
  "\u2581nemysl\u00ed": 6290,
  "\u2581es": 6291,
  "\u2581earlier": 6292,
  "\u2581cht\u011bli": 6293,
  "\u2581cel\u00e1": 6294,
  "\u2581poskytnout": 6295,
  "\u2581d\u016fkazy": 6296,
  "\u2581trest": 6297,
  "antn\u00ed": 6298,
  "\u2581ulici": 6299,
  "81": 6300,
  "ward": 6301,
  "\u2581entity": 6302,
  "itn\u00ed": 6303,
  "\u2581tem": 6304,
  "\u2581maintenance": 6305,
  "\u2581pravomoci": 6306,
  "\u2581n\u011bjak\u00e1": 6307,
  "\u2581osm": 6308,
  "\u2581tlak": 6309,
  "\u2581Ham": 6310,
  "\u2581planning": 6311,
  "tov\u00e1n\u00ed": 6312,
  "-4": 6313,
  "\u2581balen\u00ed": 6314,
  "\u2581V\u011bt\u0161in": 6315,
  "\u2581sestra": 6316,
  "\u2581connected": 6317,
  "\u2581c\u00edl\u016f": 6318,
  "\u2581prov\u00e9st": 6319,
  "\u2581ud\u011blali": 6320,
  "\u2581\u010dl\u00e1nky": 6321,
  "\u2581Main": 6322,
  "\u2581witness": 6323,
  "\u2581Ger": 6324,
  "ping": 6325,
  "\u2581Him": 6326,
  "\u2581chceme": 6327,
  "vovi": 6328,
  "rate": 6329,
  "\u2581prosp\u011bch": 6330,
  "\u2581Syn": 6331,
  "cop": 6332,
  "\u2581community": 6333,
  "\u2581link": 6334,
  "\u2581ide\u00e1ln\u00ed": 6335,
  "\u2581Availability": 6336,
  "\u2581Spr\u00e1vn": 6337,
  "\u2581plane": 6338,
  "\u2581fly": 6339,
  "\u2581identified": 6340,
  "\u2581dr\u017eet": 6341,
  "\u2581calculated": 6342,
  "\u2581notification": 6343,
  "\u2581rozhodn\u011b": 6344,
  "\u2581spr\u00e1vn\u00ed": 6345,
  "\u2581\u0161aty": 6346,
  "\u2581vyu\u017e\u00edt": 6347,
  "Kon": 6348,
  "\u2581voda": 6349,
  "84": 6350,
  "\u2581debt": 6351,
  "\u258161": 6352,
  "\u2581setk\u00e1n\u00ed": 6353,
  "\u2581ourselves": 6354,
  "sku": 6355,
  "\u2581schopnost": 6356,
  "\u2581hidden": 6357,
  "\u2581Prav": 6358,
  "\u2581rain": 6359,
  "t\u00fd": 6360,
  "\u2581oblast\u00ed": 6361,
  "\u2581cars": 6362,
  "\u2581records": 6363,
  "\u2581banks": 6364,
  "\u2581St\u00e1l": 6365,
  "\u2581pot\u0159eba": 6366,
  "\u00cd": 6367,
  "\u2581dobro": 6368,
  "zar": 6369,
  "bran": 6370,
  "hodit": 6371,
  "nstru": 6372,
  "\u2581\u010dlen": 6373,
  "\u2581Rod": 6374,
  "\u2581n\u00e1vrhu": 6375,
  "\u258172": 6376,
  "\u2581clinical": 6377,
  "\u2581fighting": 6378,
  "\u2581n\u011bho": 6379,
  "OP": 6380,
  "ough": 6381,
  "\u2581Mus": 6382,
  "oid": 6383,
  "\u2581prodeje": 6384,
  "\u2581Acc": 6385,
  "\u2581neck": 6386,
  "nstant": 6387,
  "\u2581passed": 6388,
  "86": 6389,
  "\u2581Nebude": 6390,
  "\u2581Lin": 6391,
  "\u2581steal": 6392,
  "Ma": 6393,
  "\u258195": 6394,
  "chyt": 6395,
  "\u2581Opat\u0159en\u00ed": 6396,
  "\u2581extent": 6397,
  "\u2581stroj": 6398,
  "\u2581ability": 6399,
  "fill": 6400,
  "79": 6401,
  "m\u00edt": 6402,
  "LL": 6403,
  "iel": 6404,
  "\u2581N\u011bmecko": 6405,
  "\u2581orders": 6406,
  "\u2581unii": 6407,
  "\u2581v\u0161emi": 6408,
  "nsk\u00e9": 6409,
  "\u2581advantage": 6410,
  "dra": 6411,
  "\u2581gener\u00e1ln\u00ed": 6412,
  "\u2581poji\u0161t\u011bn\u00ed": 6413,
  "\u2581dostupn\u00e9": 6414,
  "\u2581Us": 6415,
  "\u2581po\u017eadavk\u016f": 6416,
  "ming": 6417,
  "\u2581sing": 6418,
  "\u2581Master": 6419,
  "\u2581hyper": 6420,
  "\u258198": 6421,
  "asn\u00e9": 6422,
  "\u2581stejn\u00fd": 6423,
  "\u2581yesterday": 6424,
  "\u2581Sho": 6425,
  "hard": 6426,
  "\u2581starost": 6427,
  "\u2581pod\u00e1v\u00e1n\u00ed": 6428,
  "\u2581excellent": 6429,
  "\u2581financing": 6430,
  "\u2581allows": 6431,
  "\u2581takov\u00fdch": 6432,
  "\u2581reporting": 6433,
  "\u2581P\u0159\u00edloha": 6434,
  "\u2581Mart": 6435,
  "\u2581velikosti": 6436,
  "\u2581Boj": 6437,
  "\u2581treat": 6438,
  "\u2581organisations": 6439,
  "\u2581purchase": 6440,
  "not": 6441,
  "gal": 6442,
  "\u2581screw": 6443,
  "\u2581sou\u010dasn\u011b": 6444,
  "\u2581vy\u017eaduje": 6445,
  "\u2581Line": 6446,
  "\u2581symbol": 6447,
  "\u2581reakce": 6448,
  "\u2581organizaci": 6449,
  "\u2581tender": 6450,
  "\u25815%": 6451,
  "j\u00edmal": 6452,
  "\u2581sekund": 6453,
  "\u011bt": 6454,
  "\u2581selected": 6455,
  "\u2581Chu": 6456,
  "\u2581fe": 6457,
  "2)": 6458,
  "\u2581independent": 6459,
  "\u2581signed": 6460,
  "\u2581Plan": 6461,
  "67": 6462,
  "\u2581worst": 6463,
  "\u2581Sh": 6464,
  "\u2581swear": 6465,
  "screen": 6466,
  "\u2581N\u011bkdy": 6467,
  "ogle": 6468,
  "\u2581Film": 6469,
  "\u2581determine": 6470,
  "\u2581presence": 6471,
  "\u2581missed": 6472,
  "\u2581z\u016fstane": 6473,
  "\u2581tele": 6474,
  "zem": 6475,
  "\u2581umo\u017en\u00ed": 6476,
  "\u2581vedouc\u00ed": 6477,
  "ov\u00fdmi": 6478,
  "\u2581aktivn\u00ed": 6479,
  "mo\u017e": 6480,
  "\u2581registration": 6481,
  "\u2581operator": 6482,
  "\u2581Road": 6483,
  "\u2581steps": 6484,
  "\u2581testing": 6485,
  "\u2581Another": 6486,
  "\u2581Spole\u010dnost": 6487,
  "\u2581wake": 6488,
  "\u2581cancer": 6489,
  "\u2581vzduchu": 6490,
  "rr": 6491,
  "\u25814:": 6492,
  "cin": 6493,
  "\u2581postaven\u00ed": 6494,
  "\u2581cheap": 6495,
  "\u2581exposure": 6496,
  "zn\u00ed": 6497,
  "\u2581Zvl\u00e1\u0161tn\u00ed": 6498,
  "\u2581opi": 6499,
  "\u2581slow": 6500,
  "\u2581played": 6501,
  "\u2581devices": 6502,
  "\u2581jak\u00e9koli": 6503,
  "500": 6504,
  "\u2581Nav\u00edc": 6505,
  "\u2581star\u00e1": 6506,
  "\u2581hundred": 6507,
  "\u2581Cap": 6508,
  "\u2581pracoval": 6509,
  "\u2581Li": 6510,
  "nec": 6511,
  "\u2581Francie": 6512,
  "\u2581learned": 6513,
  "\u2581calm": 6514,
  "\u00e1no": 6515,
  "\u2581kostel": 6516,
  "\u2581SAFE": 6517,
  "\u2581stranu": 6518,
  "\u2581neuv\u011b\u0159": 6519,
  "\u2581skupin": 6520,
  "\u2581characteristics": 6521,
  "ov\u00e1na": 6522,
  "\u2581Australia": 6523,
  "\u2581Tar": 6524,
  "erson": 6525,
  "ath": 6526,
  "oni": 6527,
  "\u2581ski": 6528,
  "\u258158": 6529,
  "\u2581cen\u011b": 6530,
  "\u2581dr\u017e\u00ed": 6531,
  "SA": 6532,
  "\u2581bojovat": 6533,
  "\u2581easily": 6534,
  "\u2581v\u0161ude": 6535,
  "cul": 6536,
  "\u2581rybolovu": 6537,
  "\u2581Wall": 6538,
  "8,": 6539,
  "\u2581zbytek": 6540,
  "\u2581skute\u010dnost": 6541,
  "\u2581\u00fasil\u00ed": 6542,
  "\u2581\u0159adu": 6543,
  "TRO": 6544,
  "MA": 6545,
  "\u2581agency": 6546,
  "\u2581powers": 6547,
  "iness": 6548,
  "\u2581po\u010dkat": 6549,
  "Mo": 6550,
  "\u2581grow": 6551,
  "\u2581Euratom": 6552,
  "\u2581touto": 6553,
  "\u2581Although": 6554,
  "\u2581v\u00fdzkumu": 6555,
  "tak": 6556,
  "\u2581\u0159\u00eddit": 6557,
  "aid": 6558,
  "\u2581t\u00fdmu": 6559,
  "\u2581victim": 6560,
  "zapome\u0148": 6561,
  "\u2581sm\u011brnici": 6562,
  "}": 6563,
  "lus": 6564,
  "\u2581lack": 6565,
  "\u2581priority": 6566,
  "\u2581uk\u00e1zat": 6567,
  "PL": 6568,
  "\u2581BE": 6569,
  "\u2581\u010din\u00ed": 6570,
  "\u2581failure": 6571,
  "\u2581Sur": 6572,
  "\u2581masa": 6573,
  "view": 6574,
  "nechte": 6575,
  "\u2581sample": 6576,
  "\u2581delivery": 6577,
  "amin": 6578,
  "t\u00e1hl": 6579,
  "\u2581jej\u00edho": 6580,
  "ov\u00e1no": 6581,
  "\u2581valid": 6582,
  "n\u00edky": 6583,
  "\u2581cukru": 6584,
  "tz": 6585,
  "bav\u00ed": 6586,
  "\u2581dokument": 6587,
  "eta": 6588,
  "ase": 6589,
  "proti": 6590,
  "\u2581budovy": 6591,
  "\u258120%": 6592,
  "\u2581hor\u0161\u00ed": 6593,
  "\u2581driver": 6594,
  "\u2581exercise": 6595,
  "lob": 6596,
  "\u2581ruin": 6597,
  "73": 6598,
  "\u2581hall": 6599,
  "\u2581lock": 6600,
  "\u2581ve\u0159ejn\u00fdch": 6601,
  "\u2581Thomas": 6602,
  "\u2581manner": 6603,
  "free": 6604,
  "\u258192": 6605,
  "\u2581roze": 6606,
  "\u2581[3]": 6607,
  "kar": 6608,
  "\u2581cells": 6609,
  "\u2581lived": 6610,
  ".00": 6611,
  "\u2581twice": 6612,
  "including": 6613,
  "\u2581Fu": 6614,
  "\u00e1ky": 6615,
  "\u2581battle": 6616,
  "\u2581Bad": 6617,
  "\u2581800": 6618,
  "\u2581Program": 6619,
  "\u2581Wh": 6620,
  "\u2581p\u0159edem": 6621,
  "Jak": 6622,
  "sad\u00ed": 6623,
  "\u2581lov": 6624,
  "ned": 6625,
  "\u2581discount": 6626,
  "\u2581druhy": 6627,
  "fl": 6628,
  "\u2581vytvo\u0159en\u00ed": 6629,
  "\u2581sexual": 6630,
  "\u2581copy": 6631,
  "\u2581m\u011b\u0159en\u00ed": 6632,
  "\u2581excuse": 6633,
  "\u2581leading": 6634,
  "\u2581camera": 6635,
  "\u2581fool": 6636,
  "\u2581v\u00e1lky": 6637,
  "\u2581Lan": 6638,
  "p\u011b": 6639,
  "\u2581hledat": 6640,
  "\u2581refund": 6641,
  "ativn\u00ed": 6642,
  "\u2581horse": 6643,
  "\u2581krok": 6644,
  "\u2581arm": 6645,
  "\u2581Spanish": 6646,
  "\u2581drah": 6647,
  "\u2581dohromady": 6648,
  ".12.": 6649,
  "\u2581technologi\u00ed": 6650,
  "\u2581s\u00edly": 6651,
  "\u2581Jakub": 6652,
  "rub": 6653,
  "\u2581\u03bc": 6654,
  "ida": 6655,
  "\u2581Camp": 6656,
  "knout": 6657,
  "\u2581idi": 6658,
  "\u2581tv\u00fdm": 6659,
  "\u2581tvrd\u00ed": 6660,
  "\u2581hide": 6661,
  "\u2581emergency": 6662,
  "\u2581helped": 6663,
  "v\u011bt": 6664,
  "\u2581drunk": 6665,
  "\u2581bull": 6666,
  "89": 6667,
  "\u2581ideas": 6668,
  "ister": 6669,
  "II": 6670,
  "\u2581n\u00e1sleduj\u00edc\u00edch": 6671,
  "\u2581Pomoc": 6672,
  "\u2581dates": 6673,
  "lash": 6674,
  "\u2581hlavn\u011b": 6675,
  "SE": 6676,
  "\u2581na\u0161em": 6677,
  "\u2581agentury": 6678,
  "\u2581Host": 6679,
  "\u2581atd": 6680,
  "\u2581plochou": 6681,
  "\u2581tools": 6682,
  "\u2581guest": 6683,
  "sty": 6684,
  "\u25811994": 6685,
  "\u2581sv\u00e1": 6686,
  "\u2581Mezi": 6687,
  "\u2581znamen\u00ed": 6688,
  "\u2581ur\u010den\u00e9": 6689,
  "\u2581poli": 6690,
  "vac\u00ed": 6691,
  "\u2581postup\u016f": 6692,
  "\u2581p\u0159edn\u00ed": 6693,
  "\u2581dirt": 6694,
  "\u2581style": 6695,
  "\u2581verze": 6696,
  "\u2581officer": 6697,
  "\u2581\u00fa\u0159adu": 6698,
  "ys": 6699,
  "oma": 6700,
  "\u2581zapomn\u011bl": 6701,
  "\u2581Type": 6702,
  "\u2581nem\u011bli": 6703,
  "\u0441": 6704,
  "\u2581zam\u011bstnanc\u016f": 6705,
  "\u25811997": 6706,
  "Czech": 6707,
  "pomn\u011bl": 6708,
  "AS": 6709,
  "\u2581Pet": 6710,
  "\u258193": 6711,
  "\u2581zbran\u00ed": 6712,
  "All": 6713,
  "\u2581kr\u00e1sn\u00e9": 6714,
  "\u2581advance": 6715,
  "los": 6716,
  "\u2581drog": 6717,
  "\u2581kup": 6718,
  "FA": 6719,
  "\u2581hra\u010dky": 6720,
  "ejme": 6721,
  "\u2581u\u010ditel": 6722,
  "\u2581douf\u00e1m": 6723,
  "win": 6724,
  "\u2581cui": 6725,
  "\u2581str\u00e1nku": 6726,
  "\u2581(3": 6727,
  "\u2581vl\u00e1da": 6728,
  "n\u00e9m": 6729,
  "\u2581Mohu": 6730,
  "sto": 6731,
  "\u2581maso": 6732,
  "\u2581Nemohl": 6733,
  "\u2581entirety": 6734,
  "\u2581medi": 6735,
  "\u017een": 6736,
  "ody": 6737,
  "pov\u011bd": 6738,
  "\u2581Products": 6739,
  "\u2581Pat": 6740,
  "\u2581skute\u010dn\u00e9": 6741,
  "\u2581practical": 6742,
  "\u2581Jun": 6743,
  "dn": 6744,
  "m\u00edr": 6745,
  "\u2581strange": 6746,
  "\u2581originating": 6747,
  "\u2581olej": 6748,
  "\u2581Rob": 6749,
  "\u2581za\u010dala": 6750,
  "\u2581m\u011bst": 6751,
  "69": 6752,
  "\u2581destroy": 6753,
  "SS": 6754,
  "\u2581kraj": 6755,
  "\u2581Oba": 6756,
  "\u2581riding": 6757,
  "\u2581medicinal": 6758,
  "\u2581funguje": 6759,
  "l\u00edbil": 6760,
  "\u2581zobraz": 6761,
  "\u2581raise": 6762,
  "\u2581discuss": 6763,
  "\u2581zku\u0161enosti": 6764,
  "lov\u00e1": 6765,
  "fir": 6766,
  "\u2581bere": 6767,
  "\u2581hi": 6768,
  "\u2581stanovisko": 6769,
  "\u2581generation": 6770,
  "\u2581availability": 6771,
  "jev": 6772,
  "\u00e1v\u00e1n\u00ed": 6773,
  "-2-": 6774,
  "ante": 6775,
  "list": 6776,
  "\u2581customer": 6777,
  "slouch\u00e1": 6778,
  "\u2581\u010d\u00e1st\u00ed": 6779,
  "bot": 6780,
  "\u2581Still": 6781,
  ".11.": 6782,
  "\u2581zne": 6783,
  "\u2581affect": 6784,
  "\u2581nech\u00e1p": 6785,
  "\u2581zvyk": 6786,
  "\u2581srpna": 6787,
  "\u2581prejudice": 6788,
  "tory": 6789,
  "\u2581match": 6790,
  "\u2581nine": 6791,
  "\u2581accordingly": 6792,
  "\u2581republice": 6793,
  "\u2581Sound": 6794,
  "\u2581najednou": 6795,
  "\u2581thousand": 6796,
  "\u2581Jednou": 6797,
  "\u2581pleasure": 6798,
  "\u2581\u010cas": 6799,
  "sexu": 6800,
  "\u2581Zem\u011b": 6801,
  "\u2581odpov\u00edd\u00e1": 6802,
  "\u2581v\u00fdkonu": 6803,
  "padat": 6804,
  "\u2581sout\u011b\u017ee": 6805,
  "\u2581signs": 6806,
  "\u2581Pozor": 6807,
  "ivn\u00ed": 6808,
  "tact": 6809,
  "tika": 6810,
  "\u2581kost": 6811,
  "\u2581\u00farovn\u011b": 6812,
  "\u2581Egypt": 6813,
  "\u2581performed": 6814,
  "\u2581season": 6815,
  "\u2581platnosti": 6816,
  "\u2581fit": 6817,
  "\u2581falling": 6818,
  "\u258166": 6819,
  "rem": 6820,
  "\u2581Parties": 6821,
  "\u2581bod\u016f": 6822,
  "\u2581th": 6823,
  "\u2581platby": 6824,
  "\u2581Pol": 6825,
  "cho": 6826,
  "\u2581importance": 6827,
  "\u2581max": 6828,
  "\u2581weapons": 6829,
  "\u2581ON": 6830,
  "\u2581Public": 6831,
  "\u2581sazby": 6832,
  "\u2581Bel": 6833,
  "\u2581Has": 6834,
  "\u2581resolution": 6835,
  "cem": 6836,
  "\u2581Face": 6837,
  "\u2581putting": 6838,
  "\u2581Hall": 6839,
  "\u2581Spojen\u00fd": 6840,
  "sch": 6841,
  "\u2581Without": 6842,
  "\u2581tough": 6843,
  "\u2581exist": 6844,
  "\u2581bratra": 6845,
  "\u2581sout\u011b\u017e": 6846,
  "eh": 6847,
  "\u2581successful": 6848,
  "\u2581postupem": 6849,
  "Read": 6850,
  "\u2581t\u00e9ma": 6851,
  "\u2581\u010dlen\u016f": 6852,
  "\u2581Chla": 6853,
  "che": 6854,
  "\u2581Sign": 6855,
  "\u2581trick": 6856,
  "\u2581arrival": 6857,
  "\u2581nerv": 6858,
  "psat": 6859,
  "\u2581mention": 6860,
  "\u2581projekty": 6861,
  "\u2581screen": 6862,
  "ngel": 6863,
  "\u2581telefonu": 6864,
  "\u2581arm\u00e1d": 6865,
  "\u2581maintain": 6866,
  "\u2581operational": 6867,
  "\u2581mod": 6868,
  "\u2581Life": 6869,
  "Vy": 6870,
  "\u2581rozhodl": 6871,
  "\u2581krize": 6872,
  "\u2581n\u00e1stroj\u016f": 6873,
  "\u2581Test": 6874,
  "\u2581srovn\u00e1n\u00ed": 6875,
  "\u2581Severn\u00ed": 6876,
  "\u2581probl\u00e9m\u016f": 6877,
  "7,": 6878,
  "anti": 6879,
  "a\u010d": 6880,
  "\u25811992": 6881,
  "va\u017e": 6882,
  "\u2581v\u00fdlet": 6883,
  "\u2581Qui": 6884,
  "\u2581option": 6885,
  "\u2581marry": 6886,
  "\u2581pot\u0159ebn\u00e9": 6887,
  "\u2581jakou": 6888,
  "\u2581Sm\u011brnice": 6889,
  "\u2581r\u016fst": 6890,
  "\u25814,": 6891,
  "200": 6892,
  "\u2581jobs": 6893,
  "\u258169": 6894,
  "\u2581vstupu": 6895,
  "RA": 6896,
  "lay": 6897,
  "\u2581stud": 6898,
  "\u2581insulin": 6899,
  "\u2581p\u0159edseda": 6900,
  "\u2581options": 6901,
  "\u258164": 6902,
  "\u2581tvo\u0159\u00ed": 6903,
  "polog": 6904,
  "ost\u00ed": 6905,
  "\u2581postav": 6906,
  "att": 6907,
  "ering": 6908,
  "\u2581factors": 6909,
  "\u2581klima": 6910,
  "\u2581kv\u011btin": 6911,
  "tivn\u00ed": 6912,
  "cc": 6913,
  "enti": 6914,
  "82": 6915,
  "\u2581emis\u00ed": 6916,
  "\u2581keeping": 6917,
  "\u2581cup": 6918,
  "\u2581c\u00edtil": 6919,
  "\u2581proof": 6920,
  "\u2581nep\u0159\u00e1tel": 6921,
  "\u2581object": 6922,
  "420": 6923,
  "\u2581objekt": 6924,
  "olog": 6925,
  "\u2581Company": 6926,
  "\u2581Gold": 6927,
  "\u2581Download": 6928,
  "\u258163": 6929,
  "600": 6930,
  "\u2581lu": 6931,
  "\u2581adresu": 6932,
  "\u2581operators": 6933,
  "\u2581monitor": 6934,
  "\u2581stability": 6935,
  "\u2581z\u00e1sady": 6936,
  "{": 6937,
  "\u2581comfortable": 6938,
  "cott": 6939,
  "t\u00e1\u010den\u00ed": 6940,
  "\u2581initial": 6941,
  "\u2581N\u00e1zev": 6942,
  "vent": 6943,
  "\u2581UK": 6944,
  "\u2581budoucnost": 6945,
  "\u2581poz": 6946,
  "\u00e1vat": 6947,
  "\u2581s\u00edlu": 6948,
  "\u2581vstup": 6949,
  "\u2581impossible": 6950,
  "\u2581checks": 6951,
  "ife": 6952,
  "cept": 6953,
  "\u2581benz\u00edn": 6954,
  "\u2581Sometimes": 6955,
  "\u2581VII": 6956,
  "\u2581categories": 6957,
  "\u2581v\u00fdsledk\u016f": 6958,
  "\u258157": 6959,
  "\u2581absolutely": 6960,
  "ick\u00fdch": 6961,
  "\u2581requires": 6962,
  "\u2581fondu": 6963,
  "2018": 6964,
  "\u2581Mol": 6965,
  "\u2581aim": 6966,
  "\u2581SPOLE\u010cENSTV\u00cd": 6967,
  "\u2581objevil": 6968,
  "\u0159en\u00ed": 6969,
  "Otev\u0159": 6970,
  "\u2581vodu": 6971,
  "\u2581spiritual": 6972,
  "\u2581kontakt": 6973,
  "\u2581clo": 6974,
  "\u2581injek\u010dn\u00ed": 6975,
  "iti": 6976,
  "box": 6977,
  "n\u016f": 6978,
  "\u2581Sch": 6979,
  "\u2581notified": 6980,
  "\u2581mo\u017eno": 6981,
  "\u2581charges": 6982,
  "\u2581du\u0161e": 6983,
  "\u2581meetings": 6984,
  "-5": 6985,
  "\u2581Jedno": 6986,
  "\u2581border": 6987,
  "umb": 6988,
  "\u2581c\u00edti": 6989,
  "\u2581identify": 6990,
  "\u2581Ren": 6991,
  "\u2581zru\u0161en\u00ed": 6992,
  "\u2581regulations": 6993,
  "\u2581sources": 6994,
  "fen": 6995,
  "\u2581instrument": 6996,
  "\u2581concern": 6997,
  "\u2581Satellite": 6998,
  "\u2581Tan": 6999,
  "\u2581druh\u00e9ho": 7000,
  "\u2581afternoon": 7001,
  "\u2581v\u00fddaj\u016f": 7002,
  "\u2581ju": 7003,
  "\u2581patr": 7004,
  "\u2581Word": 7005,
  "\u2581pohyb": 7006,
  "\u2581T\u0159eba": 7007,
  "\u2581zpr\u00e1v": 7008,
  "\u2581lay": 7009,
  "\u2581zm\u011bnu": 7010,
  "\u2581Zpr\u00e1va": 7011,
  "hlas": 7012,
  "\u2581observed": 7013,
  "\u2581bib": 7014,
  "\u2581powerful": 7015,
  "\u2581\u0161esti": 7016,
  "\u2581p\u0159\u00edslu\u0161n\u00fd": 7017,
  "\u2581LED": 7018,
  "\u2581evropsk\u00fdch": 7019,
  "\u2581bast": 7020,
  "\u2581truck": 7021,
  "vz": 7022,
  "\u2581RO": 7023,
  "\u2581exceed": 7024,
  "\u2581expressed": 7025,
  "\u2581p\u0159\u00e1tel": 7026,
  "\u2581Satan": 7027,
  "\u2581tool": 7028,
  "\u2581success": 7029,
  "\u2581warm": 7030,
  "\u2581investice": 7031,
  "\u2581gall": 7032,
  "\u258159": 7033,
  "\u2581n\u011bk\u00fdm": 7034,
  "\u2581Fire": 7035,
  "\u2581medicine": 7036,
  "\u2581register": 7037,
  "\u2581Transport": 7038,
  "\u2581blind": 7039,
  "\u2581paragraphs": 7040,
  "oli": 7041,
  "\u2581rise": 7042,
  ".10.": 7043,
  "\u2581proper": 7044,
  "\u2581crew": 7045,
  "\u2581l\u00e1ska": 7046,
  "vet": 7047,
  "lock": 7048,
  "\u2581skon\u010dil": 7049,
  "iro": 7050,
  "\u2581velikost": 7051,
  "\u2581Velikost": 7052,
  "\u2581povinnost": 7053,
  "\u2581N\u00e1rodn\u00ed": 7054,
  "\u2581selection": 7055,
  "\u2581Rose": 7056,
  "\u2581slovy": 7057,
  "cle": 7058,
  "\u2581ukazuje": 7059,
  "\u2581druhu": 7060,
  "pracuj": 7061,
  "\u2581Jean": 7062,
  "\u2581feels": 7063,
  "ania": 7064,
  "stock": 7065,
  "\u2581Holy": 7066,
  "vle\u010den": 7067,
  "\u2581command": 7068,
  "\u2581t\u0159e": 7069,
  "\u2581\u010d\u00e1stky": 7070,
  "\u2581jedin\u00e9": 7071,
  "\u2581pr\u016fmyslu": 7072,
  "\u2581kola": 7073,
  "\u2581eligible": 7074,
  "OW": 7075,
  "\u2581emissions": 7076,
  "KY": 7077,
  "\u2581provoz": 7078,
  "\u0159i\u010d": 7079,
  "\u2581bedroom": 7080,
  "\u2581dohodu": 7081,
  "ement": 7082,
  "\u2581\u0159ekli": 7083,
  "\u2581zachr\u00e1nit": 7084,
  "ov\u00e9m": 7085,
  "\u2581teach": 7086,
  "\u25811995": 7087,
  "r\u00e1\u017e": 7088,
  "\u2581army": 7089,
  "\u2581rozkaz": 7090,
  "\u2581rozvoje": 7091,
  "\u2581nemocnice": 7092,
  "\u2581zm\u011bn\u011b": 7093,
  "71": 7094,
  "83": 7095,
  "\u00e1ty": 7096,
  "\u2581symptoms": 7097,
  "\u2581\u0161kol": 7098,
  "\u2581hmotnostn\u00edch": 7099,
  "\u2581mobile": 7100,
  "alo": 7101,
  "\u2581chyst": 7102,
  "\u25811996": 7103,
  "\u2581po\u0159adu": 7104,
  "UT": 7105,
  "\u2581nemoc": 7106,
  "\u2581suggest": 7107,
  "ektor": 7108,
  "\u2581nastaven\u00ed": 7109,
  "\u2581recently": 7110,
  "\u0161it": 7111,
  "\u2581opravdov": 7112,
  "hood": 7113,
  "\u2581adoption": 7114,
  "v\u010detn\u011b": 7115,
  "\u2581produce": 7116,
  "iku": 7117,
  "\u2581elektro": 7118,
  "koli": 7119,
  "TC": 7120,
  "oke": 7121,
  "\u2581sake": 7122,
  "v\u00e9st": 7123,
  "\u2581Jedn\u00e1": 7124,
  "ology": 7125,
  "\u2581j\u00edst": 7126,
  "\u2581honest": 7127,
  "\u2581z\u00e1znam": 7128,
  "\u2581roh": 7129,
  "\u2581sky": 7130,
  "\u2581cheat": 7131,
  "\u2581memory": 7132,
  "\u2581Nicm\u00e9n\u011b": 7133,
  "\u2581(0)": 7134,
  "\u2581Wo": 7135,
  "\u2581brothers": 7136,
  "\u2581pat": 7137,
  "lom": 7138,
  "jem": 7139,
  "\u2581N\u011bkter\u00e9": 7140,
  "ovalo": 7141,
  "\u2581jednoduch\u00e9": 7142,
  "\u2581hranice": 7143,
  "\u2581dojde": 7144,
  "\u2581pages": 7145,
  "\u2581\u00fa\u010dinn\u00e9": 7146,
  "Al": 7147,
  "FE": 7148,
  "\u2581older": 7149,
  "\u2581dan\u00e9": 7150,
  "dnodu\u0161e": 7151,
  "ini": 7152,
  "\u2581arms": 7153,
  "\u0159ez": 7154,
  "ado": 7155,
  "itter": 7156,
  "obraz": 7157,
  "\u2581dopravn\u00ed": 7158,
  "LY": 7159,
  "\u2581l\u00e9ta": 7160,
  "ations": 7161,
  "\u2581corresponding": 7162,
  "\u2581waters": 7163,
  "organ": 7164,
  "\u2581tight": 7165,
  "\u2581climate": 7166,
  "gran": 7167,
  "\u2581finan\u010dn\u00edho": 7168,
  "\u2581aktu\u00e1ln\u00ed": 7169,
  "\u2581odpov\u011bdi": 7170,
  "FF": 7171,
  "Text": 7172,
  "\u2581medium": 7173,
  "\u2581pot\u0159ebujete": 7174,
  "\u2581zahrani\u010dn\u00ed": 7175,
  "kon\u010d": 7176,
  "\u2581entities": 7177,
  "\u2581Nevy": 7178,
  "\u2581penetration": 7179,
  "\u2581slov": 7180,
  "zet": 7181,
  "\u2581Finally": 7182,
  "\u2581exporting": 7183,
  "\u2581useful": 7184,
  "\u2581ihned": 7185,
  "\u2581potkal": 7186,
  "\u2581Tim": 7187,
  "\u2581rizik": 7188,
  "\u2581panel": 7189,
  "\u2581p\u016fj\u010d": 7190,
  "\u25812005,": 7191,
  "\u2581troub": 7192,
  "\u2581hearing": 7193,
  "\u2581nevid\u00ed": 7194,
  "\u2581brand": 7195,
  "\u2581na\u017eivu": 7196,
  "\u2581nejste": 7197,
  "\u016fbec": 7198,
  "\u2581odborn\u00e9": 7199,
  "v\u011br": 7200,
  "\u2581sexu\u00e1ln\u00ed": 7201,
  "\u2581resulting": 7202,
  "\u2581lidsk\u00fdch": 7203,
  "\u2581nejv\u00edce": 7204,
  "\u2581jak\u00e1": 7205,
  "\u2581zkou\u0161ky": 7206,
  "LO": 7207,
  "\u2581Ray": 7208,
  "\u25811990": 7209,
  "\u2581suppose": 7210,
  "\u2581pas": 7211,
  "\u2581tun": 7212,
  "\u2581Washington": 7213,
  "rack": 7214,
  "\u2581z\u00e1le\u017e\u00ed": 7215,
  "\u2581str\u00e1nk\u00e1ch": 7216,
  "\u2581sports": 7217,
  "\u2581File": 7218,
  "\u2581typy": 7219,
  "\u2581h\u0159": 7220,
  "rob": 7221,
  "\u2581approximately": 7222,
  "\u2581wild": 7223,
  "\u2581starosti": 7224,
  "\u2581Josef": 7225,
  "\u2581Ki": 7226,
  "\u2581Aktu": 7227,
  "\u2581burn": 7228,
  "has": 7229,
  "tron": 7230,
  "\u2581dosp\u011bl": 7231,
  "\u2581facial": 7232,
  "\u2581electric": 7233,
  "\u2581Slu\u017eby": 7234,
  "\u2581\u0161ance": 7235,
  "nia": 7236,
  "kyn\u011b": 7237,
  "kan": 7238,
  "\u258174": 7239,
  "\u2581dosud": 7240,
  "\u2581push": 7241,
  "\u2581appear": 7242,
  "\u2581dogs": 7243,
  "ovu": 7244,
  "\u2581m\u00edru": 7245,
  "74": 7246,
  "\u2581remains": 7247,
  "\u2581t\u0159\u00eddy": 7248,
  "\u2581titul": 7249,
  "\u2581menu": 7250,
  "\u2581n\u00e1vrhy": 7251,
  "\u2581minulosti": 7252,
  "\u2581conduct": 7253,
  "\u2581zachr\u00e1nil": 7254,
  "r\u00e1n\u00ed": 7255,
  "\u2581Dne": 7256,
  "\u2581OSN": 7257,
  "\u2581jednotliv\u00e9": 7258,
  "\u2581p\u0159\u00edpad\u016f": 7259,
  "\u2581title": 7260,
  "\u2581zm\u011bn": 7261,
  "\u2581protected": 7262,
  "\u2581relax": 7263,
  "\u2581Human": 7264,
  "\u2581mikro": 7265,
  "\u2581Standard": 7266,
  "\u2581developing": 7267,
  "\u2581vlak": 7268,
  "\u2581p\u0159\u00e1n\u00ed": 7269,
  "\u2581bohu": 7270,
  "\u2581arrest": 7271,
  "For": 7272,
  "chyb": 7273,
  "\u2581kancel\u00e1\u0159e": 7274,
  "ya": 7275,
  "VE": 7276,
  "\u2581Ru\u010dn\u00ed": 7277,
  "nder": 7278,
  "\u2581confirmed": 7279,
  "\u2581\u017eil": 7280,
  "\u2581Conditions": 7281,
  "\u2581Witnesses": 7282,
  "\u2581hop": 7283,
  "\u2581employees": 7284,
  "yan": 7285,
  "0000": 7286,
  "\u2581Sol": 7287,
  "\u2581zem\u011bd\u011blstv\u00ed": 7288,
  "\u25812008.": 7289,
  "\u2581no\u010dn\u00ed": 7290,
  "\u2581hr\u00e1l": 7291,
  "IL": 7292,
  "\u2581kus": 7293,
  "\u2581mate": 7294,
  "vers": 7295,
  "\u2581pova\u017euje": 7296,
  "\u2581informed": 7297,
  "ls": 7298,
  "\u0159ka": 7299,
  "\u2581vypadal": 7300,
  "\u2581narozen\u00ed": 7301,
  "ense": 7302,
  "\u2581Water": 7303,
  "\u2581fil": 7304,
  "\").": 7305,
  "\u2581nemovitosti": 7306,
  "\u2581Many": 7307,
  "\u2581flash": 7308,
  "\u2581wound": 7309,
  "\u2581v\u00fddaje": 7310,
  "ised": 7311,
  "\u2581infrastructure": 7312,
  "ono": 7313,
  "ates": 7314,
  "ck\u00e9": 7315,
  "RI": 7316,
  "\u2581achieved": 7317,
  "\u2581Med": 7318,
  "2016": 7319,
  "\u2581Dokonce": 7320,
  "l\u00edbit": 7321,
  "\u2581subjekt\u016f": 7322,
  "\u2581p\u0159esto": 7323,
  "\u2581dali": 7324,
  "\u2581zmizel": 7325,
  "\u2581sm\u011brnic\u00ed": 7326,
  "\u2581conclusion": 7327,
  "\u2581injury": 7328,
  "\u2581Long": 7329,
  "\u2581trh\u016f": 7330,
  "\u2581severe": 7331,
  "\u2581vegetables": 7332,
  "\u2581Gen": 7333,
  "HI": 7334,
  "ien": 7335,
  "\u2581Exp": 7336,
  "\u25811991": 7337,
  "st\u0159\u00ed": 7338,
  "\u2581obchodn\u00edch": 7339,
  "\u2581Cast": 7340,
  "\u2581growing": 7341,
  "\u2581Snad": 7342,
  "\u2581tep": 7343,
  "oc": 7344,
  "\u2581p\u0159\u00edpadu": 7345,
  "\u25812007.": 7346,
  "\u2581clock": 7347,
  "\u2581cestovn\u00ed": 7348,
  "vid\u011bl": 7349,
  "ban": 7350,
  "\u2581tattoo": 7351,
  "\u2581participation": 7352,
  "\u2581aircraft": 7353,
  "\u2581dl": 7354,
  "sin": 7355,
  "\u2581cards": 7356,
  "\u2581nuclear": 7357,
  "\u2581naho\u0159e": 7358,
  "\u2581voln\u00fd": 7359,
  "\u2581raw": 7360,
  "\u2581\u010d\u00e1stka": 7361,
  "\u25812006,": 7362,
  "\u2581materi\u00e1lu": 7363,
  "\u010dkou": 7364,
  "\u2581Language": 7365,
  "\u2581Henry": 7366,
  "\u2581bottom": 7367,
  "\u2581Island": 7368,
  "\u2581Ali": 7369,
  "\u2581affected": 7370,
  "ickou": 7371,
  "\u2581planned": 7372,
  "\u2581Old": 7373,
  "\u2581pom\u00e1h\u00e1": 7374,
  "v\u011bdom": 7375,
  "\u2581zjistil": 7376,
  "\u2581knihy": 7377,
  "MP": 7378,
  "\u2581zlom": 7379,
  "\u2581Komis\u00ed": 7380,
  "\u2581alfa": 7381,
  "\u2581p\u0159\u00edpravu": 7382,
  "\u2581virus": 7383,
  "\u2581v\u011bdom\u00ed": 7384,
  "\u011bl": 7385,
  "\u2581man\u017eelky": 7386,
  "\u2581knock": 7387,
  "\u2581kon\u010d\u00ed": 7388,
  "OL": 7389,
  "\u2581primary": 7390,
  "inter": 7391,
  "\u2581roli": 7392,
  "folk": 7393,
  "\u2581klidu": 7394,
  "93": 7395,
  "\u2581promised": 7396,
  "\u2581obligation": 7397,
  "gue": 7398,
  "\u2581Access": 7399,
  "\u2581ochran\u011b": 7400,
  "leh": 7401,
  "\u2581criminal": 7402,
  "\u2581zlo": 7403,
  "\u2581clients": 7404,
  "volen": 7405,
  "Za": 7406,
  "mot": 7407,
  "IM": 7408,
  "\u2581v\u00fdrob\u011b": 7409,
  "\u2581ur\u010dit\u00fdch": 7410,
  "\u2581blame": 7411,
  "\u2581emotion": 7412,
  "\u2581budoucnosti": 7413,
  "\u25812-": 7414,
  "\u2581holiday": 7415,
  "\u2581mainly": 7416,
  "\u2581reserved": 7417,
  "\u2581sleeping": 7418,
  "\u2581Nem\u016f\u017eeme": 7419,
  "\u2581zn\u00e1m\u00e9": 7420,
  "\u2581feelings": 7421,
  "\u2581COMMUNITIES": 7422,
  "\u2581onemocn\u011bn\u00ed": 7423,
  "\u2581Gall": 7424,
  "wer": 7425,
  "tta": 7426,
  "\u2581lawyer": 7427,
  "\u2581Jedin": 7428,
  "\u2581dohledu": 7429,
  "stavit": 7430,
  "\u2581restrukturaliza": 7431,
  "\u2581carrying": 7432,
  "kg": 7433,
  "\u2581character": 7434,
  "\u2581highest": 7435,
  "\u2581chemical": 7436,
  "\u2581mo\u017enost\u00ed": 7437,
  "\u2581snadn\u00e9": 7438,
  "slav": 7439,
  "cas": 7440,
  "\u2581knowing": 7441,
  "ware": 7442,
  "cky": 7443,
  "\u2581trial": 7444,
  "\u2581whereas": 7445,
  "\u2581Clar": 7446,
  "\u2581dal\u0161\u00edm": 7447,
  "\u2581willing": 7448,
  "kami": 7449,
  "\u2581income": 7450,
  "\u2581creation": 7451,
  "\u2581declaration": 7452,
  "\u2581Ameri": 7453,
  "\u2581Government": 7454,
  "\u2581owe": 7455,
  "\u2581zvuk": 7456,
  "\u2581cultural": 7457,
  "\u2581kabel": 7458,
  "rac": 7459,
  "\u2581requirement": 7460,
  "\u2581polo\u017eky": 7461,
  "\u2581r\u016fstu": 7462,
  "\u2581Business": 7463,
  "\u2581president": 7464,
  "\u2581traditional": 7465,
  "\u2581\u010dekal": 7466,
  "\u2581heavy": 7467,
  "\u2581pacient": 7468,
  "\u2581p\u0159\u00edrod\u011b": 7469,
  "\u2581shopping": 7470,
  "\u2581weekend": 7471,
  "\u2581installation": 7472,
  "\u2581vyd\u011bl": 7473,
  "\u2581Staff": 7474,
  "\u2581vynikaj\u00edc\u00ed": 7475,
  "\u2581loves": 7476,
  "\u2581functions": 7477,
  "cen\u00ed": 7478,
  "\u2581policii": 7479,
  "\u2581Para": 7480,
  "\u2581argument": 7481,
  "\u2581entitled": 7482,
  "\u2581hotov": 7483,
  "\u2581125": 7484,
  "\u2581route": 7485,
  "\u25815:": 7486,
  "host": 7487,
  "UN": 7488,
  "\u2581Rome": 7489,
  "\u2581ukon\u010den\u00ed": 7490,
  "\u2581Pavel": 7491,
  "boj": 7492,
  "cial": 7493,
  "rab": 7494,
  "\u2581claims": 7495,
  "\u2581musela": 7496,
  "\u2581barvy": 7497,
  "\u2581Die": 7498,
  "\u2581lod\u00ed": 7499,
  "\u2581podstat\u011b": 7500,
  "n\u011bme": 7501,
  "\u2581efforts": 7502,
  "\u2581organizac\u00ed": 7503,
  "\u2581prav\u00e9": 7504,
  "\u2581z\u00edskal": 7505,
  "\u2581fellow": 7506,
  "\u2581although": 7507,
  "\u2581pil": 7508,
  "\u2581slunce": 7509,
  "\u2581refer": 7510,
  "\u2581v\u011bt\u0161inou": 7511,
  "\u2581weapon": 7512,
  "\u2581majority": 7513,
  "\u2581d\u00edt\u011bte": 7514,
  "registr": 7515,
  "\u2581amendments": 7516,
  "\u2581Pa\u0159\u00ed\u017e": 7517,
  "\u2581recovery": 7518,
  "................": 7519,
  "\u2581hereby": 7520,
  "\u2581t\u011ble": 7521,
  "\u2581proceedings": 7522,
  "pyr": 7523,
  "\u2581ned\u00e1": 7524,
  "\u2581applies": 7525,
  "\u2581players": 7526,
  "\u2581river": 7527,
  "\u2581managed": 7528,
  "\u2581klient\u016f": 7529,
  "-10": 7530,
  "\u2581roz\u0161\u00ed\u0159en\u00ed": 7531,
  "\u2581anal\u00fdzy": 7532,
  "\u2581nevz": 7533,
  "\u2581aplikaci": 7534,
  "\u2581voln\u00e9": 7535,
  "\u2581implemented": 7536,
  "\u2581pobytu": 7537,
  "\u2581Trade": 7538,
  "lo\u017eil": 7539,
  "\u2581deserve": 7540,
  "\u2581pump": 7541,
  "erge": 7542,
  "\u2581invited": 7543,
  "\u2581judgment": 7544,
  "tit": 7545,
  "\u2581meta": 7546,
  "enstv\u00ed": 7547,
  "\u2581DVD": 7548,
  "\u2581op": 7549,
  "\u2581Evropsko": 7550,
  "\u2581jm\u00e9na": 7551,
  "\u2581n\u00e1stroj": 7552,
  "tick\u00e1": 7553,
  "\u2581escape": 7554,
  "\u2581Functioning": 7555,
  "\u2581draft": 7556,
  "\u2581nad\u0161en": 7557,
  "\u2581br\u00e1t": 7558,
  "\u2581heaven": 7559,
  "ars": 7560,
  "\u2581man\u017eelstv\u00ed": 7561,
  "\u2581destination": 7562,
  "\u2581v\u00edkend": 7563,
  "TV": 7564,
  "oko": 7565,
  "\u2581Tr": 7566,
  "\u2581stated": 7567,
  "\u2581stone": 7568,
  "\u2581cestou": 7569,
  "\u2581raised": 7570,
  "\u2581re\u017eim": 7571,
  "bol": 7572,
  "\u2581psy": 7573,
  "\u2581challenge": 7574,
  "\u2581nab\u00eddka": 7575,
  "\u2581speaking": 7576,
  "\u2581Power": 7577,
  "\u2581mountain": 7578,
  "\u2581pieces": 7579,
  "\u2581eating": 7580,
  "\u2581zone": 7581,
  "rian": 7582,
  "\u2581Royal": 7583,
  "\u2581103": 7584,
  "\u2581Austria": 7585,
  "-20": 7586,
  "\u00fc": 7587,
  "\u2581\u017eiv": 7588,
  "RR": 7589,
  "dala": 7590,
  "\u2581Navigation": 7591,
  "\u2581hid": 7592,
  "ray": 7593,
  "\u2581nutno": 7594,
  "\u2581n\u011bkte\u0159\u00ed": 7595,
  "\u2581receiving": 7596,
  "lak": 7597,
  "kusit": 7598,
  "\u2581str\u00e1nek": 7599,
  "\u2581vn\u011bj\u0161\u00ed": 7600,
  "d\u00e1n": 7601,
  "\u2581regulation": 7602,
  "\u2581Also": 7603,
  "\u2581rozhodnout": 7604,
  "a\u010dky": 7605,
  "\u2581KN": 7606,
  "\u2581empty": 7607,
  "\u2581Zn\u00e1m": 7608,
  "\u2581Ms": 7609,
  "ifikace": 7610,
  "\u2581pohybu": 7611,
  "\u2581pot\u0159eboval": 7612,
  "\u2581goal": 7613,
  "\u2581science": 7614,
  "tou": 7615,
  "\u2581Bene": 7616,
  "believ": 7617,
  "\u2581\u0159\u00edd\u00ed": 7618,
  "\u2581prav": 7619,
  "\u2581denn\u00ed": 7620,
  "\u25812020": 7621,
  "\u2581signal": 7622,
  "\u2581efficiency": 7623,
  "\u2581south": 7624,
  "\u2581Materi\u00e1l": 7625,
  "astic": 7626,
  "\u2581pure": 7627,
  "v\u00edra": 7628,
  "\u2581prvky": 7629,
  "2009": 7630,
  "\u2581dohod": 7631,
  "\u2581o\u010d\u00ed": 7632,
  "/2008": 7633,
  "aught": 7634,
  "\u25812004,": 7635,
  "\u2581spread": 7636,
  "\u2581addressed": 7637,
  "stvo": 7638,
  "\u2581truly": 7639,
  "ective": 7640,
  "\u2581p\u016fsob\u00ed": 7641,
  "\u2581career": 7642,
  ".1.": 7643,
  "nsk\u00e1": 7644,
  "\u2581V\u00fdboru": 7645,
  "\u2581ni\u010dem": 7646,
  "\u2581gang": 7647,
  "l\u00e1m": 7648,
  "\u2581vnitrost\u00e1tn\u00edch": 7649,
  "\u2581Support": 7650,
  "\u2581tube": 7651,
  "\u2581Gir": 7652,
  "\u2581dni": 7653,
  "\u25812009.": 7654,
  "\u2581l\u00e1sku": 7655,
  "\u2581Print": 7656,
  "\u2581enemy": 7657,
  "\u2581deseti": 7658,
  "serv": 7659,
  "\u2581effort": 7660,
  "\u2581stanovena": 7661,
  "ovaly": 7662,
  "rol": 7663,
  "\u2581vy\u0161et\u0159ov\u00e1n\u00ed": 7664,
  "\u2581vlastn\u00edm": 7665,
  "iky": 7666,
  "\u2581Quick": 7667,
  "\u2581regionu": 7668,
  "\u2581akci": 7669,
  "\u2581cap": 7670,
  "cream": 7671,
  "\u2581secure": 7672,
  "v\u0159\u00edt": 7673,
  "\u2581Club": 7674,
  "lad": 7675,
  "\u2581facility": 7676,
  "\u2581pl\u00e1ny": 7677,
  "\u2581Close": 7678,
  "robot": 7679,
  "\u2581\u017e\u00e1d\u00e1": 7680,
  "\u2581pet": 7681,
  "based": 7682,
  "\u2581Research": 7683,
  "\u2581Association": 7684,
  "\u2581Soudn\u00ed": 7685,
  "\u2581me\u010d": 7686,
  "\u2581Nov\u00fd": 7687,
  "\u2581rada": 7688,
  "bon": 7689,
  "denn\u00ed": 7690,
  "\u2581referen\u010dn\u00ed": 7691,
  "\u2581controls": 7692,
  "\u2581und": 7693,
  "\u2581mo\u017en\u00fd": 7694,
  "\u2581promote": 7695,
  "\u2581strip": 7696,
  "DS": 7697,
  "\u25812007,": 7698,
  "\u2581tape": 7699,
  "\u2581srdci": 7700,
  "zn\u00e1v\u00e1": 7701,
  "\u2581apart": 7702,
  "P\u0159idat": 7703,
  "\u2581Center": 7704,
  "\u2581delivered": 7705,
  "\u2581comfort": 7706,
  "\u2581z\u00e1v\u011bru": 7707,
  "\u2581r\u00e1mec": 7708,
  "v\u00e1d\u00ed": 7709,
  "\u2581Kone\u010dn\u011b": 7710,
  "n\u00edk\u016f": 7711,
  "\u00e9mu": 7712,
  "\u2581transactions": 7713,
  "\u258191": 7714,
  "\u2581stanoveny": 7715,
  "\u2581format": 7716,
  "\u2581mrz": 7717,
  "\u2581buildings": 7718,
  "\u2581teaching": 7719,
  "\u2581Viz": 7720,
  "via": 7721,
  "\u2581conversation": 7722,
  "\u2581odstavec": 7723,
  "\u2581variety": 7724,
  "\u2581sm\u00ed": 7725,
  "ions": 7726,
  "\u2581disorders": 7727,
  "\u2581\u010desk\u00e9": 7728,
  "\u2581bottle": 7729,
  "\u2581thou": 7730,
  "\u2581Jak\u00e1": 7731,
  "\u0161\u0165astn\u00fd": 7732,
  "\u2581judge": 7733,
  "\u2581ob\u011bti": 7734,
  "\u2581lies": 7735,
  "pic": 7736,
  "\u2581button": 7737,
  "\u2581player": 7738,
  "zin": 7739,
  "\u2581greatest": 7740,
  "\u2581objem": 7741,
  "ont": 7742,
  "\u2581perform": 7743,
  "\u2581subjekt": 7744,
  "\u2581preparation": 7745,
  "\u2581dostupn\u00e1": 7746,
  "\u2581uveden\u00fd": 7747,
  "\u2581Mobile": 7748,
  "\u2581cukr": 7749,
  "\u2581spoke": 7750,
  "\u2581firem": 7751,
  "\u2581v\u011b\u0159\u00edm": 7752,
  "\u2581Review": 7753,
  "\u258186": 7754,
  "\u2581theory": 7755,
  "\u2581\u010dern\u00fd": 7756,
  "\u011bkte\u0159\u00ed": 7757,
  "zal": 7758,
  "\u258167": 7759,
  "len\u00ed": 7760,
  "\u2581postupu": 7761,
  "\u2581l\u00e9ky": 7762,
  "\u2581contained": 7763,
  "\u2581Department": 7764,
  "adi": 7765,
  "\u2581z\u00edsk\u00e1": 7766,
  "\u2581Bus": 7767,
  "\u2581Asia": 7768,
  "ulations": 7769,
  "\u2581solutions": 7770,
  "Or": 7771,
  "\u2581angry": 7772,
  "TE": 7773,
  "\u2581l\u00e1sky": 7774,
  "\u2581p\u0159estat": 7775,
  "\u2581Ag": 7776,
  "\u2581var": 7777,
  "\u2581Lev": 7778,
  "oth": 7779,
  "ener": 7780,
  "\u2581policejn\u00ed": 7781,
  "\u2581dying": 7782,
  "\u2581prefer": 7783,
  "\u2581tasks": 7784,
  "\u2581k\u00f3dy": 7785,
  "\u2581leaves": 7786,
  "\u2581electricity": 7787,
  "\u2581v\u00fdrobc\u016f": 7788,
  "\u2581easier": 7789,
  "[": 7790,
  "cha": 7791,
  "adla": 7792,
  "\u2581concerns": 7793,
  "losing": 7794,
  "\u2581pozm\u011bn\u011bn\u00e9": 7795,
  "\u2581stala": 7796,
  "d\u00e1me": 7797,
  "\u2581Agent": 7798,
  "\u2581n\u011bkomu": 7799,
  "\u2581nejv\u00fd\u0161e": 7800,
  "\u2581Dovol": 7801,
  "\u2581ban": 7802,
  "\u2581failed": 7803,
  "~": 7804,
  "\u2581p\u0159itom": 7805,
  "itan": 7806,
  "\u2581z\u00e1vazky": 7807,
  "r\u00e1z": 7808,
  "\u2581k\u016f\u017ee": 7809,
  "\u2581rad\u011bji": 7810,
  "\u258168": 7811,
  "\u2581conference": 7812,
  "\u2581sin": 7813,
  "\u2581pochyb": 7814,
  "63": 7815,
  "\u2581uprost\u0159ed": 7816,
  "\u2581Registration": 7817,
  "\u2581skills": 7818,
  "\u2581vyu\u017e\u00edv\u00e1n\u00ed": 7819,
  "\u2581accessible": 7820,
  "\u2581applying": 7821,
  "\u2581It\u00e1lie": 7822,
  "And": 7823,
  "\u2581mlad\u00e9": 7824,
  "\u2581jakmile": 7825,
  "\u2581cry": 7826,
  "\u258162": 7827,
  "\u2581situated": 7828,
  "ovn\u00edk": 7829,
  "\u2581recorded": 7830,
  "Tak": 7831,
  "\u2581funding": 7832,
  "\u2581Kl\u00ed\u010dov": 7833,
  "\u2581d\u00e1vno": 7834,
  "\u2581finding": 7835,
  "\u2581Bio": 7836,
  "\u2581osobu": 7837,
  "\u2581n\u011b\u010de": 7838,
  "VA": 7839,
  "gel": 7840,
  "hav": 7841,
  "\u2581printer": 7842,
  "\u2581tablets": 7843,
  "\u2581\u00fakol": 7844,
  ".6.": 7845,
  "ito": 7846,
  "\u2581carbon": 7847,
  "\u2581plynu": 7848,
  "\u2581returned": 7849,
  "-6": 7850,
  "\u2581VIII": 7851,
  "\u2581taught": 7852,
  "\u2581smluvn\u00ed": 7853,
  "\u0438": 7854,
  "\u2581north": 7855,
  "\u2581culture": 7856,
  "padnout": 7857,
  "\u2581agents": 7858,
  "start": 7859,
  "\u2581impress": 7860,
  "\u2581prepare": 7861,
  "\u2581load": 7862,
  "nsk\u00fd": 7863,
  "\u2581zdroj": 7864,
  "ange": 7865,
  "\u2581p\u00e9\u010de": 7866,
  "\u2581informaci": 7867,
  "\u2581pln\u00fd": 7868,
  "\u2581siln\u00fd": 7869,
  "\u2581instituc\u00ed": 7870,
  "\u2581sites": 7871,
  "nih": 7872,
  "\u2581corner": 7873,
  "\u2581Hospodin": 7874,
  ".7.": 7875,
  "\u2581opustil": 7876,
  "\u2581kategorii": 7877,
  "\u2581block": 7878,
  "\u2581z\u00e1znamy": 7879,
  "yr": 7880,
  "\u25816:": 7881,
  "\u2581p\u016fsobnosti": 7882,
  "\u2581Job": 7883,
  "\u2581Madam": 7884,
  "enci": 7885,
  "\u2581Stockholm": 7886,
  "\u2581Stock": 7887,
  "gre": 7888,
  "\u2581Fri": 7889,
  "\u2581Celkem": 7890,
  "\u2581pit\u00ed": 7891,
  "\u2581drinking": 7892,
  "\u2581continued": 7893,
  "\u2581factor": 7894,
  "\u2581Ne\u017e": 7895,
  "\u2581snow": 7896,
  "\u2581examination": 7897,
  "\u2581107": 7898,
  "\u2581ple": 7899,
  "\u2581D\u011bti": 7900,
  "\u2581profit": 7901,
  "\u258182": 7902,
  "\u2581kontrol": 7903,
  "\u2581stejnou": 7904,
  "\u2581whi": 7905,
  "\u2581\u0159e\u010deno": 7906,
  "\u2581tud\u00ed\u017e": 7907,
  "\u2581female": 7908,
  "fully": 7909,
  "rez": 7910,
  "\u2581kolo": 7911,
  "\u2581roof": 7912,
  "zka": 7913,
  "\u2581karty": 7914,
  "cov\u00e9": 7915,
  "\u2581graf": 7916,
  "\u00e1\u0159i": 7917,
  "\u2581Mu\u017e": 7918,
  "\u2581jeliko\u017e": 7919,
  "\u2581absence": 7920,
  "\u2581p\u0159\u00edstroje": 7921,
  "\u2581schopnosti": 7922,
  "\u2581pokyny": 7923,
  "\u2581remove": 7924,
  "\u2581vysokou": 7925,
  "MM": 7926,
  "\u2581drawn": 7927,
  "\u2581str\u00e1\u017e": 7928,
  "\u0159\u00edk\u00e1": 7929,
  "\u2581pou\u017e\u00edvaj\u00ed": 7930,
  "\u2581influence": 7931,
  "TP": 7932,
  "\u2581Canada": 7933,
  "ality": 7934,
  "\u2581Indeed": 7935,
  "\u2581capable": 7936,
  "\u2581debate": 7937,
  "\u2581vision": 7938,
  "koupil": 7939,
  "\u2581micro": 7940,
  "\u2581Michel": 7941,
  "\u2581okolnost\u00ed": 7942,
  "\u2581Maj\u00ed": 7943,
  "\u2581flying": 7944,
  "\u2581Ode": 7945,
  "\u2581energii": 7946,
  "\u2581ov\u0161em": 7947,
  "\u2581harm": 7948,
  "\u258177": 7949,
  "\u2581Greek": 7950,
  "\u2581sv\u011btov\u00e9": 7951,
  "RC": 7952,
  "\u2581normy": 7953,
  "\u2581produkce": 7954,
  "\u2581GmbH": 7955,
  "l\u00e1t": 7956,
  "\u2581Rest": 7957,
  "ds": 7958,
  "\u2581zadn\u00ed": 7959,
  "\u2581controlled": 7960,
  "cet": 7961,
  "rozen": 7962,
  "AP": 7963,
  "\u2581Justice": 7964,
  "\u2581110": 7965,
  "\u2581flu": 7966,
  "\u2581showing": 7967,
  "ancy": 7968,
  "\u2581fill": 7969,
  "\u2581WE": 7970,
  "\u2581Bet": 7971,
  "\u2581\u00fasp\u011bch": 7972,
  "\u2581horn\u00ed": 7973,
  "\u2581sheet": 7974,
  "\u2581prov\u00e1d\u011bt": 7975,
  "\u2581kvalitn\u00ed": 7976,
  "eau": 7977,
  "\u2581n\u00e1hrady": 7978,
  "hr\u00e1v\u00e1": 7979,
  "\u2581rid": 7980,
  "\u2581Yorku": 7981,
  "\u2581dohoda": 7982,
  "\u2581malou": 7983,
  "\u2581Sc": 7984,
  "\u2581s\u00edt\u00ed": 7985,
  "\u2581NO": 7986,
  "\u2581hled\u00e1n\u00ed": 7987,
  "valit": 7988,
  "\u2581degree": 7989,
  "klo": 7990,
  "v\u017edy": 7991,
  "\u2581Children": 7992,
  "\u2581seek": 7993,
  "\u2581zaj\u00edmav\u00e9": 7994,
  "\u2581forgive": 7995,
  "\u2581vztahuj\u00ed": 7996,
  "li\u017e": 7997,
  "\u2581kr\u00e1sn\u00fd": 7998,
  "\u2581flowers": 7999,
  "\u2581temporary": 8000,
  "aff": 8001,
  "\u2581PL": 8002,
  "\u2581dostate\u010dn\u011b": 8003,
  "\u2581introduced": 8004,
  "\u2581Hand": 8005,
  "\u2581j\u00edzd": 8006,
  "\u2581odpoledne": 8007,
  "\u2581Mluvil": 8008,
  "\u2581vybral": 8009,
  "\u2581der": 8010,
  "\u2581sou\u010d\u00e1st": 8011,
  "\u2581stuck": 8012,
  "\u2581dopis": 8013,
  "\u2581sp\u00ed\u0161e": 8014,
  "\u2581Sun": 8015,
  "try": 8016,
  "ori": 8017,
  "\u2581task": 8018,
  "\u00fdt": 8019,
  "sur": 8020,
  "\u2581digital": 8021,
  "\u2581m\u00edry": 8022,
  "rev": 8023,
  "\u2581male": 8024,
  "\u2581Neo": 8025,
  "cit": 8026,
  "\u2581checked": 8027,
  "\u2581vzorku": 8028,
  "\u2581flag": 8029,
  "\u2581filmu": 8030,
  "\u2581neighbor": 8031,
  "mit": 8032,
  "\u2581smoke": 8033,
  "\u2581healthy": 8034,
  "\u2581appears": 8035,
  "bis": 8036,
  "rok": 8037,
  "matic": 8038,
  "\u25813-": 8039,
  "RU": 8040,
  "\u2581st\u0159e": 8041,
  "\u2581dokumenty": 8042,
  "\u2581\u0159e\u010d": 8043,
  "\u2581D\u00edv": 8044,
  "\u2581jail": 8045,
  "\u2581Phil": 8046,
  "\u2581el": 8047,
  "\u2581listening": 8048,
  "\u2581Celkov\u00e9": 8049,
  "\u2581obviously": 8050,
  "\u2581hlav\u011b": 8051,
  "\u2581kter\u00fdmi": 8052,
  "link": 8053,
  "\u2581humans": 8054,
  "\u2581guard": 8055,
  "\u2581machinery": 8056,
  "\u2581contribute": 8057,
  "h\u00e1n\u00ed": 8058,
  "Di": 8059,
  "\u2581app": 8060,
  "having": 8061,
  "tick\u00fd": 8062,
  "ets": 8063,
  "\u2581spojen\u00e9": 8064,
  "\u25812010.": 8065,
  "\u2581neznamen\u00e1": 8066,
  "\u2581hospod\u00e1\u0159sk\u00e9ho": 8067,
  "\u2581po\u017e\u00e1dat": 8068,
  "\u2581bigger": 8069,
  "\u2581Saturday": 8070,
  "knut\u00ed": 8071,
  "\u2581mrtv\u00e1": 8072,
  "\u2581z\u00e1kladn\u00edch": 8073,
  "\u0159ad": 8074,
  "\u2581n\u00e1zvem": 8075,
  "\u2581Gran": 8076,
  "\u2581\u010dl\u00e1nk\u016f": 8077,
  "\u2581d\u00e9lka": 8078,
  "\u2581justice": 8079,
  "\u2581nejhor\u0161\u00ed": 8080,
  "\u2581painting": 8081,
  "\u2581worship": 8082,
  "\u2581pill": 8083,
  "\u2581Programme": 8084,
  "\u2581nedok\u00e1\u017e": 8085,
  "\u2581vzala": 8086,
  "like": 8087,
  "lo\u017e\u00ed": 8088,
  "\u2581Jejich": 8089,
  "\u2581dnech": 8090,
  "\u2581fotbal": 8091,
  "\u2581danger": 8092,
  "\u2581protokolu": 8093,
  "\u2581kontroln\u00ed": 8094,
  "\u2581za\u0159azen\u00ed": 8095,
  "bavil": 8096,
  "staven\u00ed": 8097,
  "\u2581Albert": 8098,
  "\u2581ancient": 8099,
  "\u2581happ": 8100,
  "\u2581Um\u00edst\u011bn\u00ed": 8101,
  "\u2581vessel": 8102,
  "800": 8103,
  "\u2581Sweden": 8104,
  "\u2581partnerstv\u00ed": 8105,
  "\u2581Z\u00e1kladn\u00ed": 8106,
  "\u2581chyb\u00ed": 8107,
  "\u2581Both": 8108,
  "\u2581\u0159\u00e1d": 8109,
  "\u2581regulatory": 8110,
  "\u2581Saint": 8111,
  "\u2581quit": 8112,
  "\u2581p\u0159edpokladu": 8113,
  "\u2581intervention": 8114,
  "\u258173": 8115,
  "\u2581Energy": 8116,
  "\u2581understanding": 8117,
  "\u2581zl\u00e9": 8118,
  "\u2581zpr\u00e1v\u011b": 8119,
  "yo": 8120,
  "\u2581indicate": 8121,
  "\u2581dve\u0159\u00ed": 8122,
  "2011": 8123,
  "\u2581facts": 8124,
  "\u2581DPH": 8125,
  "phi": 8126,
  "\u2581v\u00fdrobek": 8127,
  "\u2581zabezpe\u010den\u00ed": 8128,
  "\"),": 8129,
  "\u2581Maz": 8130,
  "TH": 8131,
  "\u2581tariff": 8132,
  "\u2581thy": 8133,
  "\u2581p\u0159\u00edloha": 8134,
  "\u2581Hard": 8135,
  "\u2581IU": 8136,
  "\u2581okolo": 8137,
  "62": 8138,
  "\u25815,": 8139,
  "max": 8140,
  "\u2581mono": 8141,
  "\u2581nikom": 8142,
  "ites": 8143,
  "\u2581Vstup": 8144,
  "ME": 8145,
  "\u2581jack": 8146,
  "\u2581released": 8147,
  "\u2581D\u00e1le": 8148,
  "\u2581provisional": 8149,
  "\u2581Title": 8150,
  "wen": 8151,
  "\u2581Five": 8152,
  "ition": 8153,
  "\u2581swallow": 8154,
  "opravd": 8155,
  "\u2581\u00fapravy": 8156,
  "\u2581hran": 8157,
  "\u2581%": 8158,
  "\u2581plastic": 8159,
  "\u2581restructuring": 8160,
  "\u2581subjektu": 8161,
  "\u258178": 8162,
  "dla": 8163,
  "\u2581multiple": 8164,
  "nt": 8165,
  "\u2581hudebn\u00ed": 8166,
  "\u2581vrchol": 8167,
  "\u2581background": 8168,
  "\u2581consumer": 8169,
  "\u2581osobn\u011b": 8170,
  "\u00edky": 8171,
  "\u2581fant": 8172,
  "\u2581shoes": 8173,
  "CI": 8174,
  "nz": 8175,
  "bere": 8176,
  "\u2581Merc": 8177,
  "\u2581alcohol": 8178,
  "\u2581concentration": 8179,
  "\u2581occur": 8180,
  "kladatel": 8181,
  "pers": 8182,
  "\u2581miloval": 8183,
  "\u2581Geographic": 8184,
  "\u2581opportunities": 8185,
  "\u2581laser": 8186,
  "aki": 8187,
  "liness": 8188,
  "\u2581forces": 8189,
  "nov\u00e9": 8190,
  "\u2581Too": 8191,
  "\u25812011.": 8192,
  "\u2581okam\u017eiku": 8193,
  "\u2581stars": 8194,
  "\u2581rychlost": 8195,
  "\u258196": 8196,
  "\u2581department": 8197,
  "\u258181": 8198,
  "Software": 8199,
  "\u00e2": 8200,
  "\u2581estate": 8201,
  "van\u00fd": 8202,
  "sadil": 8203,
  "\u2581selling": 8204,
  "\u2581dra": 8205,
  "cell": 8206,
  "\u2581deliver": 8207,
  "\u2581poslat": 8208,
  "\u2581hal": 8209,
  "\u00e1ly": 8210,
  "\u2581p\u0159evod": 8211,
  "\u2581anal\u00fdzu": 8212,
  "\u2581podpo\u0159e": 8213,
  "\u2581languages": 8214,
  "\u2581Value": 8215,
  "\u2581lift": 8216,
  "\u2581sustainable": 8217,
  "\u2581alternative": 8218,
  "\u2581pracovn\u00edk\u016f": 8219,
  "\u2581Honey": 8220,
  "\u2581chv\u00edle": 8221,
  "\u2581Evropsk\u00fdm": 8222,
  "\u2581hungry": 8223,
  "\u2581Kr\u00e1l": 8224,
  "\u2581vysv\u011btlit": 8225,
  "\u2581tj": 8226,
  "\u2581kruh": 8227,
  "\u2581vte\u0159in": 8228,
  ".3.": 8229,
  "\u2581slip": 8230,
  "\u2581frequency": 8231,
  "\u2581ve\u0161ker": 8232,
  "\u2581d\u011bv\u010d": 8233,
  "\u2581shape": 8234,
  "\u2581realit": 8235,
  "\u2581(7)": 8236,
  "\u2581hook": 8237,
  "\u2581d\u011btmi": 8238,
  "\u2581shock": 8239,
  "\u2581increasing": 8240,
  "\u2581z\u00e1le\u017eitosti": 8241,
  "\u2581farm": 8242,
  "\u2581update": 8243,
  "aze": 8244,
  "\u2581p\u0159ijel": 8245,
  "\u2581satellite": 8246,
  "\u2581z\u00e1sob": 8247,
  "CAS": 8248,
  "\u2581st\u00e1vaj\u00edc\u00ed": 8249,
  "sazen": 8250,
  "\u2581pobyt": 8251,
  "had": 8252,
  "\u2581staying": 8253,
  "\u2581pravideln\u011b": 8254,
  "\u2581\u00d7": 8255,
  "\u2581identity": 8256,
  "\u2581kor": 8257,
  "\u2581Indian": 8258,
  "\u2581mode": 8259,
  "\u2581percentage": 8260,
  "\u2581Case": 8261,
  "ety": 8262,
  "\u2581\u00fa\u010dinnosti": 8263,
  "EA": 8264,
  "\u2581admit": 8265,
  "mor": 8266,
  "\u2581biggest": 8267,
  "\u2581committed": 8268,
  "\u2581sectors": 8269,
  "\u258179": 8270,
  "\u2581l\u00e9\u010den": 8271,
  "ich": 8272,
  "\u2581pap\u00edry": 8273,
  "\u2581Thus": 8274,
  "\u2581dot\u010den\u00fd": 8275,
  "\u2581p\u0159ich\u00e1z\u00ed": 8276,
  "\u2581breath": 8277,
  "\u2581chr\u00e1nit": 8278,
  "\u2581Run": 8279,
  "\u2581dok\u00e1zal": 8280,
  "illy": 8281,
  "\u2581stress": 8282,
  "\u2581odpor": 8283,
  "uma": 8284,
  "liv\u00fd": 8285,
  "\u2581paying": 8286,
  "\u2581cities": 8287,
  "\u2581hovor": 8288,
  "\u2581108": 8289,
  "\u2581implement": 8290,
  "\u2581zem\u011bd\u011blsk\u00fdch": 8291,
  "1.": 8292,
  "m\u011bl": 8293,
  "\u2581Telephone": 8294,
  "nese": 8295,
  "\u2581d\u011bl\u00e1me": 8296,
  "\u2581stanoviskem": 8297,
  "\u2581existuj\u00ed": 8298,
  "\u2581zem\u011bd\u011blsk\u00e9": 8299,
  "voz": 8300,
  "\u2581phase": 8301,
  "\u2581experiment": 8302,
  "\u2581zv\u00fd\u0161it": 8303,
  "\u2581generace": 8304,
  "bod": 8305,
  "lah": 8306,
  "\u2581jist": 8307,
  "\u2581surgery": 8308,
  "-15": 8309,
  "\u2581School": 8310,
  "\u2581uveden\u00fdm": 8311,
  "\u2581akc\u00ed": 8312,
  "\u2581bringing": 8313,
  "\u2581pretend": 8314,
  "qua": 8315,
  "\u2581nejpozd\u011bji": 8316,
  "\u2581destroyed": 8317,
  "eff": 8318,
  "\u2581Direct": 8319,
  "\u2581Regulations": 8320,
  "\u25811234/2007": 8321,
  "\u2581uk\u00e1zal": 8322,
  "\u2581invitation": 8323,
  "\u2581reasonable": 8324,
  "\u2581largest": 8325,
  "\u2581standardn\u00ed": 8326,
  "UB": 8327,
  "\u2581surveillance": 8328,
  "\u2581remind": 8329,
  "\u2581\u010dist\u00e9": 8330,
  "DC": 8331,
  "\u2581protest": 8332,
  "St": 8333,
  "\u2581p\u0159eje": 8334,
  "\u2581Brook": 8335,
  "\u2581zaveden\u00ed": 8336,
  "\u2581Ana": 8337,
  "\u2581kr\u00e1tk\u00e9": 8338,
  "PA": 8339,
  "\u2581touh": 8340,
  "ndre": 8341,
  "\u2581plav": 8342,
  "\u2581soft": 8343,
  "\u2581seed": 8344,
  "\u2581slou\u017e\u00ed": 8345,
  "\u2581jak\u00fdm": 8346,
  "\u2581politick\u00e9": 8347,
  "jedna": 8348,
  "\u2581prac\u00ed": 8349,
  "\u2581Moreover": 8350,
  "\u2581Prince": 8351,
  "\u2581odpov\u011bdnost": 8352,
  "park": 8353,
  "\u2581parku": 8354,
  "\u2581THAT": 8355,
  "\u2581Rozhod": 8356,
  "arry": 8357,
  "bur": 8358,
  "\u258176": 8359,
  "\u2581Barb": 8360,
  "\u2581pozici": 8361,
  "\u2581Additional": 8362,
  "uze": 8363,
  "\u2581usual": 8364,
  "\u2581dvora": 8365,
  "\u2581gasoline": 8366,
  "\u2581rodin\u011b": 8367,
  "\u2581database": 8368,
  "\u2581spokojen": 8369,
  "EUR": 8370,
  "\u2581vzh\u016fru": 8371,
  "\u2581exception": 8372,
  "kon\u010dil": 8373,
  "\u2581ensuring": 8374,
  "\u25811993": 8375,
  "d\u016f": 8376,
  "\u2581zm\u011bna": 8377,
  "\u2581turns": 8378,
  "\u2581ud\u00e1losti": 8379,
  "9.": 8380,
  "\u2581Pouze": 8381,
  "\u00b6": 8382,
  "\u258194": 8383,
  "\u00dd": 8384,
  "\u2581Four": 8385,
  "\u2581slavn": 8386,
  "\u2581inspection": 8387,
  "\u2581mel": 8388,
  "\u2581ot\u00e1zek": 8389,
  "tori": 8390,
  "\u2581mal\u00fdch": 8391,
  "\u2581180": 8392,
  "\u2581Jew": 8393,
  "\u2581d\u00edvat": 8394,
  "\u2581Seznam": 8395,
  "\u2581Croatia": 8396,
  "\u2581breast": 8397,
  "\u2581\u010dleny": 8398,
  "\u2581Previous": 8399,
  "nek": 8400,
  "\u2581form\u00e1t": 8401,
  "\u25812004.": 8402,
  "page": 8403,
  "\u2581height": 8404,
  "\u2581guns": 8405,
  "hnal": 8406,
  "\u2581guidelines": 8407,
  "\u2581(1),": 8408,
  "\u2581anebo": 8409,
  "\u2581z\u00e1sadn\u00ed": 8410,
  "2012": 8411,
  "\u2581pozitivn\u00ed": 8412,
  "\u2581pododstavec": 8413,
  "\u2581hole": 8414,
  "\u2581vlastnictv\u00ed": 8415,
  "\u2581Category": 8416,
  "chi": 8417,
  "\u2581poskytnut\u00ed": 8418,
  "\u2581podporuje": 8419,
  "\u2581arrived": 8420,
  "\u2581poznal": 8421,
  "\u2581spr\u00e1vy": 8422,
  "\u2581fee": 8423,
  "ch\u00e1zet": 8424,
  "ekce": 8425,
  "\u2581Eva": 8426,
  "jan": 8427,
  "\u2581objedn\u00e1vk": 8428,
  "\u2581p\u0159\u00edslu\u0161n\u00fdm": 8429,
  "\u2581pot\u00ed\u017ee": 8430,
  "\u00e4": 8431,
  "\u2581v\u00fdrobci": 8432,
  "\u2581conformity": 8433,
  "\u2581jednotka": 8434,
  "fan": 8435,
  "\u2581Jul": 8436,
  "\u2581negotiations": 8437,
  "\u2581element": 8438,
  "\u2581Indi": 8439,
  "\u2581odpad": 8440,
  "\u2581nervous": 8441,
  "\u2581le\u017e\u00ed": 8442,
  "\u2581starts": 8443,
  "kes": 8444,
  "-8": 8445,
  "\u2581ROZHODNUT\u00cd": 8446,
  "\u2581instructions": 8447,
  "\u2581unaven": 8448,
  "\u2581Region": 8449,
  "\u2581p\u0159\u00edsp\u011bvek": 8450,
  "\u2581percent": 8451,
  "\u2581v\u00fdvoje": 8452,
  "\u2581duch": 8453,
  "\u2581politiku": 8454,
  "\u2581n\u00e1sil\u00ed": 8455,
  "rix": 8456,
  "state": 8457,
  "\u2581supported": 8458,
  "\u2581confidence": 8459,
  "isse": 8460,
  "\u2581Non": 8461,
  "\u2581dlouh\u00e9": 8462,
  "\u2581Bill": 8463,
  "\u2581currency": 8464,
  "\u2581SO": 8465,
  "\u2581shares": 8466,
  "\u2581\u010dlenem": 8467,
  "\u2581oleje": 8468,
  "\u2581\u017eelezni\u010dn\u00ed": 8469,
  "\u2581association": 8470,
  "\u2581boot": 8471,
  "TY": 8472,
  "\u2581p\u0159edpisu": 8473,
  "\u2581surprised": 8474,
  "\u2581vedlej\u0161\u00ed": 8475,
  "\u2581Furthermore": 8476,
  "sob": 8477,
  "ush": 8478,
  "moc": 8479,
  "\u2581definition": 8480,
  "\u2581jednat": 8481,
  "\u2581ob\u011b\u0165": 8482,
  "\u2581herself": 8483,
  "\u2581seemed": 8484,
  "maj": 8485,
  "\u2581Little": 8486,
  "\u2581funkc\u00ed": 8487,
  "\u2581nevinn": 8488,
  "\u2581scale": 8489,
  "m\u00e9n": 8490,
  "\u2581v\u00edt\u011bz": 8491,
  "pnout": 8492,
  "\u010dn\u00e1": 8493,
  "\u2581druh\u00e1": 8494,
  "\u2581Fin": 8495,
  "ges": 8496,
  "\u2581materi\u00e1ly": 8497,
  "lech": 8498,
  "\u2581assigned": 8499,
  "vaj\u00ed": 8500,
  "ute": 8501,
  "eck\u00e9": 8502,
  "\u2581Yet": 8503,
  "\u2581vyv\u00e1\u017eej\u00edc\u00ed": 8504,
  "\u2581victims": 8505,
  "\u2581n\u00e1zoru": 8506,
  "\u2581bare": 8507,
  "c\u00edm": 8508,
  "isto": 8509,
  "\u2581Ukraine": 8510,
  "ability": 8511,
  "\u2581zm\u011bn\u00ed": 8512,
  "\u2581output": 8513,
  "\u2581v\u00fdznamn\u00e9": 8514,
  "\u2581u\u017e\u00edv\u00e1n\u00ed": 8515,
  "\u2581crash": 8516,
  "\u258125%": 8517,
  "\u2581Radio": 8518,
  "\u2581British": 8519,
  "\u258171": 8520,
  "\u2581oceli": 8521,
  "\u2581hat": 8522,
  "\u2581\u0161kola": 8523,
  "\u2581hlavn\u00edch": 8524,
  "ira": 8525,
  "\u2581Nejd\u0159\u00edv": 8526,
  ".2.": 8527,
  "\u2581l\u00e9\u010db\u011b": 8528,
  "\u2581neexistuje": 8529,
  "\u2581fet": 8530,
  "pou\u0161t\u00ed": 8531,
  "\u2581p\u0159\u00edpravk\u016f": 8532,
  "\u2581fields": 8533,
  "\u2581technologies": 8534,
  "\u2581z\u00e1vislosti": 8535,
  "\u2581considers": 8536,
  "town": 8537,
  "\u2581practices": 8538,
  "radi": 8539,
  "\u2581display": 8540,
  "pine": 8541,
  "ist\u00e9": 8542,
  "\u2581schopen": 8543,
  "\u2581pack": 8544,
  "\u2581obecn\u00e9": 8545,
  "\u2581v\u00fdrobn\u00edho": 8546,
  "\u2581cent": 8547,
  "\u2581banka": 8548,
  "\u2581bolesti": 8549,
  "\u2581Ask": 8550,
  "etin": 8551,
  "\u2581relations": 8552,
  "\u2581licences": 8553,
  "\u2581error": 8554,
  "\u2581Control": 8555,
  "\u2581hypo": 8556,
  "\u2581nejd\u0159\u00edv": 8557,
  "\u2581Facilities": 8558,
  "\u2581fi": 8559,
  "\u2581udr\u017eet": 8560,
  "\u2581Mimo": 8561,
  "\u2581dohled": 8562,
  "General": 8563,
  "zem\u00ed": 8564,
  "\u0161ti": 8565,
  "\u2581Head": 8566,
  "\u2581classification": 8567,
  "itt": 8568,
  "\u2581(2),": 8569,
  "\u2581rozhodne": 8570,
  "pec": 8571,
  "\u2581visitors": 8572,
  "\u2581v\u011bk": 8573,
  "2015": 8574,
  "\u2581objektu": 8575,
  "\u2581Top": 8576,
  "\u2581jednotek": 8577,
  "\u2581mezin\u00e1rodn\u00edch": 8578,
  "\u2581nezbytn\u00e1": 8579,
  "name": 8580,
  "\u2581opatr": 8581,
  "\u2581sur": 8582,
  "\u2581\u0159ady": 8583,
  "\u016e": 8584,
  "\u2581Romania": 8585,
  "\u2581dr\u017e": 8586,
  "2004": 8587,
  "\u2581z\u0159ejm\u011b": 8588,
  "\u2581zach\u00e1zen\u00ed": 8589,
  "\u2581organization": 8590,
  "\u2581becomes": 8591,
  "rica": 8592,
  "ovka": 8593,
  "\u2581extended": 8594,
  "ta\u010d\u00ed": 8595,
  "\u2581chain": 8596,
  "m\u011bst": 8597,
  "\u2581experts": 8598,
  "\u2581pt\u00e1": 8599,
  "\u2581vlastn\u00edho": 8600,
  "fotograf": 8601,
  "\u2581sta\u017een\u00ed": 8602,
  "\u2581onto": 8603,
  "vr\u00e1t\u00ed": 8604,
  "\u0159e\u010dt\u011bte": 8605,
  "\u2581Nap\u0159\u00edklad": 8606,
  "inky": 8607,
  "\u2581filled": 8608,
  "\u2581appointed": 8609,
  "\u2581loan": 8610,
  "\u2581p\u0159edm\u011btem": 8611,
  "kl\u00e1": 8612,
  ".5.": 8613,
  "\u2581processes": 8614,
  "\u2581ve\u0159ejn\u00e9ho": 8615,
  "\u2581express": 8616,
  "\u0161ly": 8617,
  "\u2581nebudeme": 8618,
  "\u2581tvrzen\u00ed": 8619,
  "\u2581sand": 8620,
  "\u2581periods": 8621,
  "nis": 8622,
  "\u2581dovolit": 8623,
  "\u2581sektoru": 8624,
  "\u0161iml": 8625,
  "asn\u00fd": 8626,
  "izing": 8627,
  "\u2581skupin\u011b": 8628,
  "\u2581Brz": 8629,
  "uba": 8630,
  "\u2581stopy": 8631,
  "zna": 8632,
  "Pod": 8633,
  "\u2581joy": 8634,
  "\u2581calculation": 8635,
  "\u2581aspects": 8636,
  "\u2581sc\u00e9n": 8637,
  "aj\u00edc\u00ed": 8638,
  "\u2581trvat": 8639,
  "law": 8640,
  "-1-": 8641,
  "\u2581profesor": 8642,
  "iva": 8643,
  "\u2581figures": 8644,
  "\u2581nab\u00eddku": 8645,
  "\u2581rare": 8646,
  "HA": 8647,
  "bie": 8648,
  "\u00ed\u0159": 8649,
  "v\u00e1t": 8650,
  "\u2581chosen": 8651,
  "\u00cb": 8652,
  "ora": 8653,
  "sia": 8654,
  "\u2581pochopit": 8655,
  "\u2581poskytuj\u00ed": 8656,
  "\u2581l\u00e9\u010div\u00fd": 8657,
  "\u2581offering": 8658,
  "\u2581pou\u017eij\u00ed": 8659,
  "n\u011bj\u0161\u00edch": 8660,
  "\u2581nearly": 8661,
  "\u2581Chief": 8662,
  "\u2581fond": 8663,
  "\u2581pozice": 8664,
  "eny": 8665,
  "tr\u017e": 8666,
  "\u2581slu\u017ebu": 8667,
  "that": 8668,
  "\u2581combined": 8669,
  "\u2581picked": 8670,
  "\u2581promotion": 8671,
  "\u2581st\u00e1tem": 8672,
  "\u2581Greece": 8673,
  "erious": 8674,
  "\u2581v\u00fdvozu": 8675,
  "\u2581tlust": 8676,
  "\u2581d\u00edv\u00e1": 8677,
  "\u2581Communities": 8678,
  "z\u00f3n": 8679,
  "\u2581legs": 8680,
  "\u2581foto": 8681,
  "\u2581possibly": 8682,
  "jedn\u00e1": 8683,
  "\u2581Work": 8684,
  "\u2581alb": 8685,
  "\u00f3zn\u00ed": 8686,
  "\u2581powder": 8687,
  "NO": 8688,
  "\u2581Step": 8689,
  "\u2581z\u016fst\u00e1v\u00e1": 8690,
  "\u2581postaven": 8691,
  "\u2581delay": 8692,
  "\u2581postar\u00e1": 8693,
  "\u2581Beau": 8694,
  "\u2581lamp": 8695,
  "\u010dce": 8696,
  "\u2581author": 8697,
  "\u2581seeking": 8698,
  "\u2581connect": 8699,
  "\u2581\u00fa\u010dast": 8700,
  "\u2581fan": 8701,
  "\u2581bezpe\u010dn\u00e9": 8702,
  "\u2581believed": 8703,
  "/2007": 8704,
  "\u2581dollars": 8705,
  "\u2581podvod": 8706,
  "\u2581jinde": 8707,
  "\u2581zpravodaj": 8708,
  "\u2581P\u0159ehled": 8709,
  "\u2581Prov\u00e1d\u011bc\u00ed": 8710,
  "\u2581winter": 8711,
  "\u2581Others": 8712,
  "uit": 8713,
  "rg": 8714,
  "\u2581adjustment": 8715,
  "nan": 8716,
  "\u2581wet": 8717,
  "olu": 8718,
  "\u2581Netherlands": 8719,
  "\u2581vytvo\u0159il": 8720,
  "\u2581linked": 8721,
  "fit": 8722,
  "\u2581served": 8723,
  "\u2581Com": 8724,
  "\u2581heads": 8725,
  "\u2581obsahovat": 8726,
  "MI": 8727,
  "st\u00e1v\u00e1": 8728,
  "\u2581Institute": 8729,
  "RS": 8730,
  "\u2581historii": 8731,
  "\u2581comment": 8732,
  "\u2581expozice": 8733,
  "PO": 8734,
  "\u258189": 8735,
  "\u2581zem\u0159e": 8736,
  "\u2581manage": 8737,
  "TER": 8738,
  "\u2581learning": 8739,
  "\u2581sign\u00e1l": 8740,
  "z\u00e1le\u017e\u00ed": 8741,
  "\u2581j\u00eddel": 8742,
  "\u2581miliard": 8743,
  "\u2581Stan": 8744,
  "ident": 8745,
  "2000": 8746,
  "\u2581bullet": 8747,
  "\u2581neust\u00e1le": 8748,
  "\u2581Tedy": 8749,
  "\u2581jej\u00edch": 8750,
  "\u2581Break": 8751,
  "\u2581Stav": 8752,
  "\u2581presentation": 8753,
  "itel": 8754,
  "\u2581everywhere": 8755,
  "Ex": 8756,
  "otev\u0159": 8757,
  "\u2581committee": 8758,
  "\u2581p\u00ed\u0161e": 8759,
  "\u2581threat": 8760,
  "\u2581noise": 8761,
  "opat": 8762,
  "\u2581pop": 8763,
  "\u2581v\u00fdsledek": 8764,
  "\u2581Berlin": 8765,
  "\u2581column": 8766,
  "\u2581Order": 8767,
  "ovanou": 8768,
  "\u2581P\u00e1na": 8769,
  "\u2581loans": 8770,
  "dumping": 8771,
  "\u2581Cr": 8772,
  "\u2581processed": 8773,
  "\u2581\u2264": 8774,
  "\u2581leader": 8775,
  "\u2581nemohou": 8776,
  "\u2581\u0159e": 8777,
  "\u2581souvisej\u00edc\u00edch": 8778,
  "\u2581kter\u00e9mu": 8779,
  "\u2581schopni": 8780,
  "\u2581Kol": 8781,
  "\u2581ge": 8782,
  "\u2581nap\u011bt\u00ed": 8783,
  "jist\u00ed": 8784,
  "\u2581circle": 8785,
  "hin": 8786,
  "\u2581spot\u0159ebn\u00ed": 8787,
  "\u2581adverse": 8788,
  "\u2581spring": 8789,
  "\u2581136": 8790,
  "\u2581profesion\u00e1ln\u00ed": 8791,
  "\u2581vyhled\u00e1v\u00e1n\u00ed": 8792,
  "\u0159\u00eddit": 8793,
  "\u2581p\u0159edchoz\u00ed": 8794,
  "\u2581knihovn": 8795,
  "padaj\u00ed": 8796,
  "\u2581kapitoly": 8797,
  "\u2581Budou": 8798,
  "N\u00cd": 8799,
  "\u2581Fer": 8800,
[...]
