{
  "</s>": 0,
  "<unk>": 1,
  ",": 2,
  ".": 3,
  "\u2581ia": 4,
  "\u2581be": 5,
  "\u2581\"": 6,
  "\u2581the": 7,
  "\u2581idia": 8,
  "\u2581to": 9,
  "\u2581of": 10,
  "\u2581ena": 11,
  ":": 12,
  "\u2581ese": 13,
  "\u2581bona": 14,
  "?": 15,
  "\u2581and": 16,
  "\u2581-": 17,
  "\u2581ita": 18,
  "\u2581do": 19,
  "\u2581in": 20,
  "\u2581a": 21,
  "\u2581taudia": 22,
  "\u2581lasi": 23,
  "\u2581dekenai": 24,
  "\u2581that": 25,
  "\u2581ai": 26,
  "s": 27,
  "\u2581ta": 28,
  "\u2581unai": 29,
  "\u2581henia": 30,
  "'": 31,
  "\u2581diba": 32,
  "\u2581is": 33,
  "\u2581edia": 34,
  "\u2581oi": 35,
  "\u2581Jehovah": 36,
  "\u2581Iehova": 37,
  "\u2581totona": 38,
  "\u2581noho": 39,
  "\u2581dainai": 40,
  "\u2581for": 41,
  "\u2581we": 42,
  "\u2581karaia": 43,
  "\u2581Dirava": 44,
  "\u2581lau": 45,
  "\u2581his": 46,
  "\u2581God": 47,
  "\u2581amo": 48,
  "\u2581(": 49,
  "\u2581abia": 50,
  "\u2581with": 51,
  "\u2581Unai": 52,
  "\u2581gwau": 53,
  "\u2581neganai": 54,
  "\u2581you": 55,
  "\u2581on": 56,
  "\u2581mai": 57,
  "\u2581not": 58,
  "\u2581was": 59,
  "\u2581haida": 60,
  "\u2581bamona": 61,
  "\u2581bada": 62,
  "\u2581kara": 63,
  "\u2581he": 64,
  "\u2581laloa": 65,
  "\u2581will": 66,
  "\u2581as": 67,
  "\u2581lalonai": 68,
  "\u2581": 69,
  "\u2581ura": 70,
  "\u2581I": 71,
  "\u2581have": 72,
  "\u2581are": 73,
  "\u2581karana": 74,
  "\u2581tauna": 75,
  "\u2581hereva": 76,
  "\u2581Iesu": 77,
  "\u2581our": 78,
  "\u2581'": 79,
  "\u2581gaukara": 80,
  "\u25811": 81,
  "\u2581Jesus": 82,
  "\u2581To": 83,
  "\u2581namo": 84,
  "\u2581it": 85,
  "\u2581ibounai": 86,
  "ing": 87,
  "\u2581The": 88,
  "\u2581momo": 89,
  "\u2581us": 90,
  ";": 91,
  "\u2581can": 92,
  ")": 93,
  "\u2581by": 94,
  "\u2581Baibel": 95,
  "\u2581from": 96,
  "\u2581hahedinaraia": 97,
  "\u2581their": 98,
  "\u2581who": 99,
  "\u2581taunimanima": 100,
  "\u2581What": 101,
  "!": 102,
  "\u2581dahaka": 103,
  "\u2581gaudia": 104,
  "\u2581lao": 105,
  "\u2581ida": 106,
  "\u2581they": 107,
  "\u2581durua": 108,
  "\u2581danu": 109,
  "\u2581what": 110,
  "\u2581dala": 111,
  "\u2581mauri": 112,
  "\u2581Bible": 113,
  "\u2581umui": 114,
  "\u2581sibona": 115,
  "\u2581ma": 116,
  "\u2581nega": 117,
  "\u2581namona": 118,
  "\u2581or": 119,
  "\u2581Ia": 120,
  "\u2581momokani": 121,
  "\u2581this": 122,
  "\u2581[": 123,
  "\u2581iseda": 124,
  "\u2581gwauraia": 125,
  "\u2581badina": 126,
  "\u2581him": 127,
  "\u2581all": 128,
  "\u2581inai": 129,
  "\u2581your": 130,
  "\u2581How": 131,
  "\u2581were": 132,
  "\u2581had": 133,
  "\u2581iena": 134,
  "\u2581dika": 135,
  "\u2581anina": 136,
  "\u2581vara": 137,
  "\u2581them": 138,
  "\u25812": 139,
  "\u2581one": 140,
  "\u2581at": 141,
  "\u2581people": 142,
  "\u2581Keristani": 143,
  "\u2581In": 144,
  "\u2581itaia": 145,
  "\u2581did": 146,
  "\u2581edena": 147,
  "a": 148,
  "\u2581an": 149,
  "\u2581about": 150,
  "\u2581badinaia": 151,
  "\u2581when": 152,
  "\u2581herevalaia": 153,
  "\u2581tanobada": 154,
  "\u2581would": 155,
  "\u2581has": 156,
  "\u2581lalokau": 157,
  "\u2581may": 158,
  "\u2581hesiai": 159,
  "\u2581moale": 160,
  "\u2581gau": 161,
  "\u2581time": 162,
  "\u2581davaria": 163,
  "\u2581abidadama": 164,
  "\u2581dalana": 165,
  "\u2581those": 166,
  "\u2581life": 167,
  "\u2581gauna": 168,
  "\u2581my": 169,
  "\u2581hadibaia": 170,
  "\u2581badana": 171,
  "\u2581Dahaka": 172,
  "\u2581but": 173,
  "\u2581kamonai": 174,
  "]": 175,
  "\u2581murinai": 176,
  "\u2581Ena": 177,
  "\u2581so": 178,
  "\u25814": 179,
  "\u2581ruma": 180,
  "\u2581Edena": 181,
  "\u2581namonamo": 182,
  "\u2581He": 183,
  "\u2581help": 184,
  "\u2581Idia": 185,
  "\u2581lagani": 186,
  "\u2581how": 187,
  "\u2581eiava": 188,
  "\u2581page": 189,
  "\u2581mase": 190,
  "\u2581naria": 191,
  "\u2581A": 192,
  "\u25816": 193,
  "\u2581Bema": 194,
  "\u2581Paulo": 195,
  "\u2581vadaeni": 196,
  "\u2581lou": 197,
  "\u2581Paul": 198,
  "\u2581hagoadaia": 199,
  "\u25815": 200,
  "\u2581love": 201,
  "\u2581We": 202,
  "\u2581egu": 203,
  "\u2581bema": 204,
  "\u2581good": 205,
  "\u2581dae": 206,
  "\u2581some": 207,
  "b": 208,
  "\u2581also": 209,
  "\u2581should": 210,
  "\u2581me": 211,
  "\u2581haroro": 212,
  "\u2581tadikaka": 213,
  "\u2581o": 214,
  "\u25813": 215,
  "\u2022": 216,
  "\u2581out": 217,
  "\u2581lauma": 218,
  "\u2581Ita": 219,
  "ed": 220,
  "\u2581goada": 221,
  "\u2581tahua": 222,
  "\u2581her": 223,
  "\u2581tomadiho": 224,
  "\u2581hegeregerena": 225,
  "\u2581idauidau": 226,
  "\u2581such": 227,
  "e": 228,
  "\u2581more": 229,
  "\u2581Bona": 230,
  "\u2581bese": 231,
  "\u2581things": 232,
  "\"": 233,
  "\u2581Kingdom": 234,
  "\u2581gaukaralaia": 235,
  "\u2581does": 236,
  "\u2581lalona": 237,
  "\u2581hanamoa": 238,
  "\u2581been": 239,
  "\u2581way": 240,
  "\u2581ladana": 241,
  "\u2581emu": 242,
  "\u2581herevadia": 243,
  "\u2581Christian": 244,
  "\u258115": 245,
  "\u2581Why": 246,
  "\u2581up": 247,
  "\u2581work": 248,
  "\u2581Oi": 249,
  "\u2581sivarai": 250,
  "\u2581hebou": 251,
  "\u2581Christians": 252,
  "\u2581duahia": 253,
  "\u2581make": 254,
  "\u2581spirit": 255,
  "\u2581if": 256,
  "\u2581It": 257,
  "\u2581/": 258,
  "\u2581karadia": 259,
  "\u2581many": 260,
  "\u2581havaraia": 261,
  "\u2581herevana": 262,
  "\u2581maoromaoro": 263,
  "\u2581no": 264,
  "\u2581Christ": 265,
  "\u2581hidi": 266,
  "\u25817": 267,
  "\u2581said": 268,
  "\u2581day": 269,
  "\u2581dibaia": 270,
  "\u2581others": 271,
  "\u2581lalohadai": 272,
  "\u2581world": 273,
  "\u2581Witnes": 274,
  "\u2581could": 275,
  "\u2581Israela": 276,
  "\u2581When": 277,
  "\u2581Witnesses": 278,
  "\u2581even": 279,
  "\u2581there": 280,
  "\u2581Keriso": 281,
  "\u2581other": 282,
  "\u2581guriguri": 283,
  "\u2581faith": 284,
  "\u2581need": 285,
  "\u2581spiritual": 286,
  "\u2581man": 287,
  "\u258111": 288,
  "\u2581Picture": 289,
  "\u2581congregation": 290,
  "\u2581natudia": 291,
  "ly": 292,
  "\u2581namodia": 293,
  "\u2581hari": 294,
  "\u2581hegeregere": 295,
  "\u2581Do": 296,
  "\u2581earth": 297,
  "\u2581hakaua": 298,
  "\u2581hanaihanai": 299,
  "\u2581tau": 300,
  "\u2581first": 301,
  "\u2581Basileia": 302,
  "\u2581example": 303,
  "the": 304,
  "\u2581these": 305,
  "\u2581Lau": 306,
  "\u2581atoa": 307,
  "\u2581negai": 308,
  "\u2581than": 309,
  "\u2581must": 310,
  "\u25818": 311,
  "\u2581Lagani": 312,
  "\u2581negana": 313,
  "\u2581into": 314,
  "\u2581For": 315,
  "\u2581They": 316,
  "\u2581hadikaia": 317,
  "\u258110": 318,
  "E": 319,
  "\u2581King": 320,
  "\u2581torea": 321,
  "\u2581As": 322,
  "\u2581kahana": 323,
  "tolo": 324,
  "\u2581she": 325,
  "\u2581which": 326,
  "\u2581years": 327,
  "\u2581because": 328,
  "\u2581But": 329,
  "\u2581This": 330,
  "\u258113": 331,
  "\u2581being": 332,
  "\u2581Danu": 333,
  "\u2581dadaraia": 334,
  "\u25811,": 335,
  "\u2581heart": 336,
  "\u2581guna": 337,
  "\u258112": 338,
  "\u2581natuna": 339,
  "\u2581If": 340,
  "\u2581helaga": 341,
  "\u25819": 342,
  "\u2581family": 343,
  "\u2581made": 344,
  "\u2581raka": 345,
  "\u2581eda": 346,
  "\u2581kongrigeisen": 347,
  "\u2581children": 348,
  "\u2581kerere": 349,
  "\u2581hahine": 350,
  "\u2581hekwakwanai": 351,
  "\u2581dina": 352,
  "\u2581taravatu": 353,
  "\u2581see": 354,
  "\u2581matamata": 355,
  "\u2581tano": 356,
  "\u2581ones": 357,
  "\u2581only": 358,
  "\u2581headava": 359,
  "\u2581You": 360,
  "\u2581know": 361,
  "\u2581words": 362,
  "\u2581guba": 363,
  "\u2581tuari": 364,
  "\u2581gari": 365,
  "\u2581Satani": 366,
  "\u2581like": 367,
  "\u2581rakatania": 368,
  "\u2581true": 369,
  "\u2581Hari": 370,
  "\u2581hahediba": 371,
  "\u2581come": 372,
  "\u258114": 373,
  "\u2581reana": 374,
  "\u2581Oibe": 375,
  "\u2581take": 376,
  "\u2581stadi": 377,
  "\u2581Namona": 378,
  "\u2581herea": 379,
  "\u2581heduru": 380,
  "\u2581gabu": 381,
  "\u2581Lohiabada": 382,
  "\u2581then": 383,
  "\u2581over": 384,
  "\u2581sina": 385,
  "\u2581become": 386,
  "\u2581hedinarai": 387,
  "\u2581sisiba": 388,
  "\u2581David": 389,
  "\u2581kudouna": 390,
  "\u2581adavana": 391,
  "\u2581Inai": 392,
  "\u2581gado": 393,
  "\u2581Davida": 394,
  "\u2581*": 395,
  "\u2581own": 396,
  "\u2581gaukarana": 397,
  "\u2581Word": 398,
  "\u2581siahu": 399,
  "\u2581C": 400,
  "\u2581well": 401,
  "\u2581lalo": 402,
  "\u2581Hereva": 403,
  "\u2581says": 404,
  "\u2581taihu": 405,
  "\u2581give": 406,
  "\u2581Momokani": 407,
  "\u2581might": 408,
  "\u258117": 409,
  "\u2581moni": 410,
  "\u2581dekena": 411,
  "\u2581tamona": 412,
  "\u258116": 413,
  "\u2581before": 414,
  "\u2581E": 415,
  "\u2581rua": 416,
  "\u2581gwauhamata": 417,
  "\u2581Nega": 418,
  "\u2581hamaoroa": 419,
  "\u2581John": 420,
  "\u258120": 421,
  "\u2581brothers": 422,
  "\u2581truth": 423,
  "\u2581hekwarahi": 424,
  "\u2581dalanai": 425,
  "\u2581harorolaia": 426,
  "\u2581Satan": 427,
  "...": 428,
  "\u2581kahirakahira": 429,
  "\u2581Tauna": 430,
  "\u2581dagedage": 431,
  "\u2581men": 432,
  "\u2581king": 433,
  "\u2581henanadai": 434,
  "\u2581Hegeregere": 435,
  "\u2581haheitalai": 436,
  "\u2581auka": 437,
  "\u2581aonega": 438,
  "\u2581henidia": 439,
  "\u2581death": 440,
  "\u2581idau": 441,
  "\u2581keep": 442,
  "\u2581And": 443,
  "\u2581ore": 444,
  "\u2581That": 445,
  "\u2581tama": 446,
  "\u2581moalelaia": 447,
  "\u2581koua": 448,
  "\u2581today": 449,
  "\u2581new": 450,
  "\u2581now": 451,
  "\u2581peroveta": 452,
  "\u2581apostle": 453,
  "\u2581Iuda": 454,
  "\u258118": 455,
  "\u2581just": 456,
  "\u2581another": 457,
  "\u2581gabuna": 458,
  "\u2581show": 459,
  "\u2581hisihisi": 460,
  "\u2581after": 461,
  "\u2581through": 462,
  "\u2581its": 463,
  "\u258119": 464,
  "\u2581name": 465,
  "\u2581study": 466,
  "\u2581Israel": 467,
  "\u2581emui": 468,
  "\u2581times": 469,
  "\u2581faithful": 470,
  "\u2581great": 471,
  "\u2581ministry": 472,
  "\u2581siri": 473,
  "d": 474,
  "\u2581any": 475,
  "\u2581bena": 476,
  "\u2581lohia": 477,
  "\u2581hebogahisi": 478,
  "\u2581Reana": 479,
  "\u2581tauanina": 480,
  "\u2581very": 481,
  "\u2581maoro": 482,
  "\u2581two": 483,
  "\u2581hahenamo": 484,
  "\u2581Edia": 485,
  "\u2581person": 486,
  "\u2581kohu": 487,
  "\u2581ela": 488,
  "\u2581e": 489,
  "\u2581against": 490,
  "\u2581part": 491,
  "\u2581koikoi": 492,
  "\u2581much": 493,
  "\u2581elda": 494,
  "\u2581Iena": 495,
  "\u2581parents": 496,
  "\u2581himself": 497,
  "\u2581why": 498,
  "\u2581young": 499,
  "\u2581learn": 500,
  "\u2581put": 501,
  "\u2581Peter": 502,
  "\u2581matamaia": 503,
  "\u2581Badina": 504,
  "\u2581aniani": 505,
  "\u2581find": 506,
  "\u2581Salamo": 507,
  "\u2581holy": 508,
  "\u2581Father": 509,
  "seda": 510,
  "\u2581haidaua": 511,
  "\u25813:": 512,
  "\u2581Kara": 513,
  "\u2581wrote": 514,
  "\u2581badadia": 515,
  "\u2581gorere": 516,
  "\u2581However": 517,
  "\u258122": 518,
  "\u2581Petero": 519,
  "\u2581news": 520,
  "\u2581means": 521,
  "\u2581worship": 522,
  "\u2581manau": 523,
  "\u258121": 524,
  "\u2581B": 525,
  "\u2581preaching": 526,
  "\u2581Taunimanima": 527,
  "\u2581buka": 528,
  "\u2581orea": 529,
  "\u2581use": 530,
  "\u2581badu": 531,
  "\u2581important": 532,
  "I": 533,
  "\u2581ginigunana": 534,
  "\u2581feel": 535,
  "\u2581say": 536,
  "\u2581where": 537,
  "\u2581S": 538,
  "\u2581haraga": 539,
  "\u2581oiemu": 540,
  "\u2581upon": 541,
  "\u2581apos": 542,
  "na": 543,
  "\u2581One": 544,
  "\u2581found": 545,
  "\u2581disciples": 546,
  "Lau": 547,
  "\u2581each": 548,
  "\u2581course": 549,
  "\u2581stadilaia": 550,
  "\u2581toana": 551,
  "\u25812.": 552,
  "\u2581let": 553,
  "\u258124": 554,
  "\u2581mind": 555,
  "\u2581word": 556,
  "\u2581Tamana": 557,
  "\u2581maino": 558,
  "\u2581service": 559,
  "\u2581bapatiso": 560,
  "\u2581end": 561,
  "\u2581hope": 562,
  "\u2581mani": 563,
  "\u2581right": 564,
  "\u2581So": 565,
  "\u2581Ioane": 566,
  "\u2581serve": 567,
  "\u2581though": 568,
  "\u2581consider": 569,
  "Umui": 570,
  "\u2581hamomokania": 571,
  "\u2581hanaia": 572,
  "\u258115,": 573,
  "\u258125": 574,
  "\u2581Roma": 575,
  "\u2581lalohisihisi": 576,
  "gu": 577,
  "\u2581most": 578,
  "\u2581place": 579,
  "\u2581siaia": 580,
  "\u2581Taudia": 581,
  "\u2581servants": 582,
  "\u2581tohotohoa": 583,
  "\u2581dubu": 584,
  "Dirava": 585,
  "\u2581ways": 586,
  "\u2581laloatao": 587,
  "i": 588,
  "\u2581long": 589,
  "\u2581never": 590,
  "\u2581gabeai": 591,
  "\u2581Ma": 592,
  "\u2581same": 593,
  "\u2581Mose": 594,
  "\u2581view": 595,
  "\u2581vareai": 596,
  "\u2581human": 597,
  "\u2581want": 598,
  "\u2581read": 599,
  "\u2581davana": 600,
  "\u258110.": 601,
  "\u2581Lasi": 602,
  "\u2581Herevadia": 603,
  "\u2581After": 604,
  "\u2581emai": 605,
  "\u2581habadaia": 606,
  "\u2581days": 607,
  "\u2581every": 608,
  "\u2581under": 609,
  "\u2581dikadia": 610,
  "\u2581matauraia": 611,
  "\u2581daudau": 612,
  "\u2581loving": 613,
  "\u2581among": 614,
  "\u2581giroa": 615,
  "\u2581given": 616,
  "\u2581wife": 617,
  "\u2581used": 618,
  "\u2581At": 619,
  "\u2581too": 620,
  "\u25814.": 621,
  "\u2581haere": 622,
  "\u2581doing": 623,
  "\u2581go": 624,
  "\u2581By": 625,
  "y": 626,
  "\u2581told": 627,
  "\u2581Scriptures": 628,
  "\u2581fellow": 629,
  "\u2581gini": 630,
  ".)": 631,
  "\u2581Some": 632,
  "\u2581Psalm": 633,
  "\u2581anointed": 634,
  "\u2581toreisi": 635,
  "\u2581With": 636,
  "\u2581haheauka": 637,
  "\u2581became": 638,
  "\u25818.": 639,
  "\u2581hoa": 640,
  "t": 641,
  "\u2581lalopararalaia": 642,
  "\u2581book": 643,
  "\u2581came": 644,
  "\u2581noia": 645,
  "\u2581mamoe": 646,
  "\u2581Apos": 647,
  "\u2581ani": 648,
  "\u2581home": 649,
  "\u2581Our": 650,
  "\u2581set": 651,
  "\u258112.": 652,
  "\u2581during": 653,
  "\u2581New": 654,
  "\u2581T": 655,
  "\u2581kwalimu": 656,
  "\u2581maduna": 657,
  "\u2581toi": 658,
  "\u2581horoa": 659,
  "\u2581away": 660,
  "\u2581hetura": 661,
  "\u2581gimaia": 662,
  "\u2581Hall": 663,
  "\u258117.": 664,
  "\u2581gave": 665,
  "\u25819.": 666,
  "\u2581back": 667,
  "\u2581Natuna": 668,
  "\u2581heau": 669,
  "\u25817.": 670,
  "\u2581making": 671,
  "\u258114.": 672,
  "\u2581whom": 673,
  "\u2581power": 674,
  "\u258113.": 675,
  "\u2581year": 676,
  "\u258123": 677,
  "\u2581am": 678,
  "\u2581haorea": 679,
  "\u2581prayer": 680,
  "\u2581live": 681,
  "\u2581Yes": 682,
  "\u2581maorona": 683,
  "\u2581peace": 684,
  "\u2581knowledge": 685,
  "\u258111.": 686,
  "\u258116.": 687,
  "\u2581haginia": 688,
  "\u2581down": 689,
  "\u25815.": 690,
  "\u258130": 691,
  "\u2581hemami": 692,
  "\u2581bring": 693,
  "\u2581Emu": 694,
  "\u2581personal": 695,
  "\u2581joy": 696,
  "\u2581get": 697,
  "\u2581able": 698,
  "\u2581themselves": 699,
  "\u2581Matthew": 700,
  "\u2581later": 701,
  "\u2581His": 702,
  "\u2581huanai": 703,
  "\u25813,": 704,
  "\u2581Son": 705,
  "Read": 706,
  "\u2581bukana": 707,
  "\u2581elders": 708,
  "\u2581hanua": 709,
  "\u2581full": 710,
  "\u2581often": 711,
  "\u2581reason": 712,
  "\u2581veria": 713,
  "\u2581article": 714,
  "\u2581Moses": 715,
  "\u258115.": 716,
  "\u2581biagua": 717,
  "\u2581Mataio": 718,
  "\u2581dokona": 719,
  "\u2581began": 720,
  "\u2581dikana": 721,
  "\u2581regard": 722,
  "\u2581On": 723,
  "\u2581kehoa": 724,
  "\u2581living": 725,
  "\u25816,": 726,
  "\u2581mamia": 727,
  "\u2581order": 728,
  "\u25816.": 729,
  "\u2581house": 730,
  "\u25815,": 731,
  "\u2581counsel": 732,
  "\u2581marriage": 733,
  "\u2581meetings": 734,
  "\u2581No": 735,
  "\u2581always": 736,
  "\u2581Is": 737,
  "\u2581Bena": 738,
  "\u2581brother": 739,
  "\u2581R": 740,
  "\u2581humans": 741,
  "\u2581still": 742,
  "\u2581Israelites": 743,
  "\u258127": 744,
  "\u2581Tanobada": 745,
  "\u2581toward": 746,
  "\u258128": 747,
  "\u2581painia": 748,
  "\u2581questions": 749,
  "\u2581three": 750,
  "\u2581daladia": 751,
  "\u2581old": 752,
  "\u25813.": 753,
  "\u258133": 754,
  "\u25819,": 755,
  "\u2581hagugurua": 756,
  "\u2581result": 757,
  "\u2581Jerusalem": 758,
  "\u2581Ierusalema": 759,
  "\u2581ourselves": 760,
  "\u2581sin": 761,
  "\u2581Mani": 762,
  "\u2581hand": 763,
  "\u2581vairanai": 764,
  "\u2581Footnote": 765,
  "\u2581Taravatu": 766,
  "\u2581fact": 767,
  "\u2581however": 768,
  "\u2581tamana": 769,
  "\u2581called": 770,
  "The": 771,
  "S": 772,
  "\u2581Aonega": 773,
  "\u2581wicked": 774,
  "\u2581oreana": 775,
  "\u2581gwauatao": 776,
  "\u2581Iobu": 777,
  "\u2581laloparara": 778,
  "\u2581century": 779,
  "\u2581Yet": 780,
  "\u2581There": 781,
  "\u2581son": 782,
  "\u2581without": 783,
  "\u2581Heberu": 784,
  "\u2581share": 785,
  "\u2581hamauria": 786,
  "\u2581purpose": 787,
  "\u2581face": 788,
  "\u2581took": 789,
  "\u25818,": 790,
  "\u2581She": 791,
  "\u2581Diravana": 792,
  "\u2581father": 793,
  "\u2581having": 794,
  "\u2581wisdom": 795,
  "C": 796,
  "\u2581relationship": 797,
  "\u2581support": 798,
  "Salamo": 799,
  "\u2581think": 800,
  "\u2581tatau": 801,
  "\u2581heaven": 802,
  "\u2581Then": 803,
  "\u2581asked": 804,
  "\u2581harihari": 805,
  "\u2581heavenly": 806,
  "\u2581message": 807,
  "\u2581Let": 808,
  "\u2581sikuli": 809,
  "\u2581while": 810,
  "\u2581kava": 811,
  "\u2581Gabeai": 812,
  "\u2581gunalaia": 813,
  "\u2581helped": 814,
  "\u2581both": 815,
  "\u2581experience": 816,
  "\u2581matamatana": 817,
  "\u2581halaoa": 818,
  "\u2581vadivadi": 819,
  "\u258114,": 820,
  "\u2581Pictures": 821,
  "\u2581something": 822,
  "\u2581benefit": 823,
  "\u25814,": 824,
  "\u2581Abraham": 825,
  "\u2581Mai": 826,
  "\u2581Job": 827,
  "\u2581close": 828,
  "\u2581conduct": 829,
  "\u2581needed": 830,
  "\u2581future": 831,
  "\u2581Aberahamo": 832,
  "\u2581teaching": 833,
  "\u2581goevagoeva": 834,
  "\u2581mankind": 835,
  "\u2581continue": 836,
  "\u2581kindness": 837,
  "\u2581Many": 838,
  "\u2581Isaia": 839,
  "\u2581diho": 840,
  "\u2581Isaiah": 841,
  "\u2581together": 842,
  "\u2581ginidae": 843,
  "\u2581look": 844,
  "\u2581fine": 845,
  "\u258129": 846,
  "\u2581nanadaia": 847,
  "\u2581From": 848,
  "\u2581Greek": 849,
  "\u2581husband": 850,
  "dia": 851,
  "\u2581ask": 852,
  "\u2581henunai": 853,
  "\u2581vaira": 854,
  "\u25817,": 855,
  "\u2581Even": 856,
  "\u2581Vadaeni": 857,
  "\u2581serving": 858,
  "\u2581Lauma": 859,
  "\u2581maragi": 860,
  "\u258118.": 861,
  "\u2581kongregesen": 862,
  "\u2581Ai": 863,
  "al": 864,
  "\u2581child": 865,
  "\u2581baptized": 866,
  "\u2581righteous": 867,
  "\u2581kekeni": 868,
  "Lohiabada": 869,
  "\u2581Korinto": 870,
  "\u2581avoid": 871,
  "\u258126": 872,
  "\u2581eyes": 873,
  "\u2581boubou": 874,
  "\u2581fear": 875,
  "\u2581W": 876,
  "\u2581ania": 877,
  "\u2581turadia": 878,
  "\u2581attitude": 879,
  "\u2581magasin": 880,
  "\u2581kokia": 881,
  "\u258131": 882,
  "\u2581Tadikaka": 883,
  "\u2581done": 884,
  "\u2581Watchtower": 885,
  "\u2581dabua": 886,
  "\u258110,": 887,
  "\u2581woman": 888,
  "\u2581hahetoho": 889,
  "\u2581dogoatao": 890,
  "\u2581learned": 891,
  "\u2581possible": 892,
  "\u2581turana": 893,
  "\u2581Lord": 894,
  "\u2581desire": 895,
  "\u2581between": 896,
  "\u2581Haida": 897,
  "\u2581hamaoromaoroa": 898,
  "\u2581really": 899,
  "\u2581Timoteo": 900,
  "\u2581guguru": 901,
  "\u2581manoka": 902,
  "\u2581nations": 903,
  "\u258119.": 904,
  "\u2581namba": 905,
  "\u258111,": 906,
  "\u258112,": 907,
  "\u2581tura": 908,
  "\u25812,": 909,
  "\u2581goevadae": 910,
  "\u2581someone": 911,
  "\u2581understand": 912,
  "\u2581felt": 913,
  "\u2581hahemaoro": 914,
  "\u2581Timothy": 915,
  "\u2581lauegu": 916,
  "\u258140": 917,
  "\u2581best": 918,
  "\u2581lives": 919,
  "\u2581matana": 920,
  "\u2581following": 921,
  "\u2581isi": 922,
  "\u2581present": 923,
  "\u2581matter": 924,
  "ther": 925,
  "\u2581dibura": 926,
  "\u2581language": 927,
  "\u2581korikorina": 928,
  "\u2581hamatamaia": 929,
  "\u2581happy": 930,
  "\u2581members": 931,
  "\u2581tell": 932,
  "\u2581sinana": 933,
  "\u2581halasia": 934,
  "\u2581hamasea": 935,
  "\u2581Consider": 936,
  "\u2581hard": 937,
  "\u2581bad": 938,
  "\u2581receive": 939,
  "n": 940,
  "\u2581Law": 941,
  "\u2581sisina": 942,
  "hose": 943,
  "\u2581ranu": 944,
  "\u2581attention": 945,
  "\u2581gabudia": 946,
  "\u2581aneru": 947,
  "\u2581care": 948,
  "....": 949,
  "\u2581Luke": 950,
  "\u2581city": 951,
  "\u2581gavamani": 952,
  "\u2581giving": 953,
  "\u2581All": 954,
  "\u258113,": 955,
  "\u2581answer": 956,
  "\u2581Namo": 957,
  "\u2581Henia": 958,
  "\u2581last": 959,
  "\u2581system": 960,
  "\u2581speak": 961,
  "\u2581moved": 962,
  "\u2581prophet": 963,
  "\u2581Because": 964,
  "\u2581law": 965,
  "\u2581wise": 966,
  "\u2581herevahereva": 967,
  "\u2581cannot": 968,
  "\u2581self": 969,
  "\u2581ever": 970,
  "\u2581remain": 971,
  "\u2581follow": 972,
  "\u2581sheep": 973,
  "\u2581situation": 974,
  "\u2581These": 975,
  "\u258116,": 976,
  "\u2581Helaga": 977,
  "\u2581Luka": 978,
  "\u2581lead": 979,
  "\u2581boiria": 980,
  "\u2581Ta": 981,
  "\u2581Adamu": 982,
  "\u2581sense": 983,
  "\u2581respect": 984,
  "\u2581slave": 985,
  "\u258132": 986,
  "\u2581mother": 987,
  "\u2581karoa": 988,
  "\u2581again": 989,
  "\u2581followers": 990,
  "\u2581spiritually": 991,
  "\u2581bamoa": 992,
  "\u2581Acts": 993,
  "\u2581dobu": 994,
  "\u2581daekau": 995,
  "\u2581few": 996,
  "\u2581sure": 997,
  "\u2581hamoalea": 998,
  "\u2581siahuna": 999,
  "\u2581yet": 1000,
  "\u2581D": 1001,
  "\u2581left": 1002,
  "\u2581mean": 1003,
  "\u2581trust": 1004,
  "\u2581buruka": 1005,
  "\u2581food": 1006,
  "\u2581haboua": 1007,
  "\u2581hereaia": 1008,
  "\u2581goadagoada": 1009,
  "\u2581act": 1010,
  "\u2581enjoy": 1011,
  "\u2581account": 1012,
  "\u2581certain": 1013,
  "\u2581korikori": 1014,
  "\u2581Read": 1015,
  "\u258137": 1016,
  "\u2581Who": 1017,
  "\u2581went": 1018,
  "\u258112:": 1019,
  "\u2581Herevana": 1020,
  "\u2581different": 1021,
  "\u2581Diba": 1022,
  "\u2581needs": 1023,
  "\u2581received": 1024,
  "\u2581pray": 1025,
  "o": 1026,
  "\u2581yourself": 1027,
  "\u2581Proverbs": 1028,
  "\u2581au": 1029,
  "\u2581temple": 1030,
  "\u2581Of": 1031,
  "\u2581along": 1032,
  "\u2581number": 1033,
  "\u2581Adam": 1034,
  "\u2581Corinthians": 1035,
  "\u2581Your": 1036,
  "\u2581haheaukalaia": 1037,
  "\u2581helaro": 1038,
  "\u2581rau": 1039,
  "\u2581sisters": 1040,
  "\u2581tubu": 1041,
  "\u2581utua": 1042,
  "\u2581apostles": 1043,
  "\u2581kind": 1044,
  "\u2581off": 1045,
  "\u2581sacrifice": 1046,
  "\u2581Although": 1047,
  "\u2581Jews": 1048,
  "\u2581imitate": 1049,
  "\u2581negea": 1050,
  "\u2581Solomon": 1051,
  "\u2581feelings": 1052,
  "\u2581unuseniai": 1053,
  "\u2581case": 1054,
  "\u2581land": 1055,
  "\u2581maragina": 1056,
  "\u2581saying": 1057,
  "\u2581light": 1058,
  "\u2581knew": 1059,
  "\u2581next": 1060,
  "\u2581near": 1061,
  "\u2581strong": 1062,
  "ia": 1063,
  "\u2581Sivarai": 1064,
  "\u2581Solomona": 1065,
  "\u2581Dina": 1066,
  "\u2581little": 1067,
  "\u2581religious": 1068,
  "\u2581point": 1069,
  "\u2581problems": 1070,
  "\u2581women": 1071,
  "\u2581righteousness": 1072,
  "\u2581teach": 1073,
  "\u258110:": 1074,
  "\u258120.": 1075,
  "\u2581imana": 1076,
  "\u2581resurrection": 1077,
  "\u2581tanikiu": 1078,
  "\u2581reading": 1079,
  "\u2581saw": 1080,
  "\u2581Thus": 1081,
  "\u2581nor": 1082,
  "\u2581Daniel": 1083,
  "\u2581free": 1084,
  "\u2581individuals": 1085,
  "\u2581early": 1086,
  "\u2581famili": 1087,
  "\u2581principles": 1088,
  "\u2581blood": 1089,
  "\u2581far": 1090,
  "\u2581animal": 1091,
  "\u2581nation": 1092,
  "\u2581Badana": 1093,
  "\u2581daika": 1094,
  "\u2581thus": 1095,
  "\u258117,": 1096,
  "\u2581NW": 1097,
  "\u2581World": 1098,
  "\u2581thinking": 1099,
  "\u2581goeva": 1100,
  "\u2581matters": 1101,
  "\u2581Gau": 1102,
  "\u2581James": 1103,
  "\u2581especially": 1104,
  "\u258121.": 1105,
  "\u2581since": 1106,
  "\u2581Noho": 1107,
  "\u2581qualities": 1108,
  "\u2581hahanaia": 1109,
  "\u2581likely": 1110,
  "\u2581works": 1111,
  "A": 1112,
  "\u2581sons": 1113,
  "\u2581false": 1114,
  "\u2581known": 1115,
  "uch": 1116,
  "\u2581brought": 1117,
  "\u2581provide": 1118,
  "\u2581My": 1119,
  "\u2581More": 1120,
  "\u2581Scriptural": 1121,
  "\u2581allow": 1122,
  "\u2581wrong": 1123,
  "Oi": 1124,
  "\u2581question": 1125,
  "\u2581mero": 1126,
  "\u2581turn": 1127,
  "\u2581friends": 1128,
  "\u2581kingdom": 1129,
  "\u2581everlasting": 1130,
  "\u2581huahua": 1131,
  "\u2581O": 1132,
  "\u2581better": 1133,
  "\u2581whole": 1134,
  "\u2581difficult": 1135,
  "\u2581prayers": 1136,
  "\u2581huaia": 1137,
  "\u2581hahinena": 1138,
  "\u2581Devil": 1139,
  "\u2581cause": 1140,
  "\u2581ginigunadia": 1141,
  "\u2581laulaulaia": 1142,
  "\u2581thought": 1143,
  "\u2581hegaegae": 1144,
  "\u2581mahuta": 1145,
  "Sal": 1146,
  "\u2581Can": 1147,
  "\u258134": 1148,
  "\u2581ancient": 1149,
  "\u2581suffering": 1150,
  "\u2581until": 1151,
  "\u2581age": 1152,
  "\u2581hadokoa": 1153,
  "\u2581un": 1154,
  "AU": 1155,
  "emu": 1156,
  "\u2581perfect": 1157,
  "\u2581prophecy": 1158,
  "\u2581real": 1159,
  "\u258119,": 1160,
  "\u2581gives": 1161,
  "\u2581kota": 1162,
  "\u258118,": 1163,
  "\u2581noinoi": 1164,
  "\u2581Romans": 1165,
  "\u2581gift": 1166,
  "\u2581Mauri": 1167,
  "\u2581Rather": 1168,
  "\u2581body": 1169,
  "\u2581taking": 1170,
  "\u2581maragidia": 1171,
  "\u2581Are": 1172,
  "\u2581Joseph": 1173,
  "\u2581sister": 1174,
  "\u2581whe": 1175,
  "\u2581rara": 1176,
  "\u2581Iosepa": 1177,
  "\u2581blessings": 1178,
  "\u2581hadaia": 1179,
  "\u2581Anina": 1180,
  "\u2581hereadaena": 1181,
  "\u2581loaloa": 1182,
  "\u2581strength": 1183,
  "\u2581believe": 1184,
  "\u2581material": 1185,
  "\u2581May": 1186,
  "\u2581N": 1187,
  "\u2581Since": 1188,
  "\u2581comes": 1189,
  "\u2581edeede": 1190,
  "\u2581shows": 1191,
  "\u2581special": 1192,
  "\u2581examples": 1193,
  "\u2581Noa": 1194,
  "\u2581circumstances": 1195,
  "\u2581married": 1196,
  "\u2581Hadibaia": 1197,
  "\u2581certainly": 1198,
  "\u2581lalodiai": 1199,
  "\u2581privilege": 1200,
  "\u2581heard": 1201,
  "\u2581taught": 1202,
  "Aonega": 1203,
  "egu": 1204,
  "\u2581helai": 1205,
  "\u2581divine": 1206,
  "\u2581matabodaga": 1207,
  "\u2581inspired": 1208,
  "\u2581diari": 1209,
  "\u2581hebouhebou": 1210,
  "\u2581laloaboio": 1211,
  "\u2581Apokalupo": 1212,
  "\u2581similar": 1213,
  "\u2581witness": 1214,
  "\u2581makes": 1215,
  "\u2581dikadika": 1216,
  "\u2581hemataurai": 1217,
  "\u2581loyal": 1218,
  "\u2581truly": 1219,
  "\u2581besena": 1220,
  "\u2581revareva": 1221,
  "\u2581laulau": 1222,
  "\u2581involved": 1223,
  "\u2581mentioned": 1224,
  "\u2581organization": 1225,
  "\u2581provided": 1226,
  "\u2581glory": 1227,
  "\u2581high": 1228,
  "\u2581moru": 1229,
  "\u2581hairai": 1230,
  "\u2581prove": 1231,
  "\u2581maintain": 1232,
  "\u258123.": 1233,
  "\u2581Revelation": 1234,
  "mai": 1235,
  "\u2581Be": 1236,
  "hile": 1237,
  "\u2581fully": 1238,
  "\u2581going": 1239,
  "\u2581sent": 1240,
  "\u2581draw": 1241,
  "\u2581metau": 1242,
  "\u2581dead": 1243,
  "\u2581Daniela": 1244,
  "\u2581hegegemadai": 1245,
  "\u2581P": 1246,
  "\u2581talk": 1247,
  "\u2581understanding": 1248,
  "\u2581clear": 1249,
  "\u2581around": 1250,
  "\u2581Not": 1251,
  "\u2581Like": 1252,
  "\u2581accept": 1253,
  "\u2581loved": 1254,
  "\u2581preach": 1255,
  "\u2581Noah": 1256,
  "\u2581(1": 1257,
  "\u2581Memorial": 1258,
  "\u2581believers": 1259,
  "\u2581school": 1260,
  "\u2581Havaraia": 1261,
  "\u2581comfort": 1262,
  "\u2581blessing": 1263,
  "\u2581maurina": 1264,
  "\u2581iboudiai": 1265,
  "\u2581Abia": 1266,
  "\u2581negadiai": 1267,
  "\u2581States": 1268,
  "\u2581soon": 1269,
  "\u2581return": 1270,
  "\u2581carry": 1271,
  "\u2581coming": 1272,
  "\u2581pioneer": 1273,
  "\u2581decisions": 1274,
  "\u2581congregations": 1275,
  "\u2581including": 1276,
  "\u2581Ruma": 1277,
  "\u2581Today": 1278,
  "\u2581heheni": 1279,
  "\u2581states": 1280,
  "espite": 1281,
  "\u2581Babulonia": 1282,
  "\u2581wanted": 1283,
  "\u2581mailaia": 1284,
  "\u2581parara": 1285,
  "\u2581died": 1286,
  "\u2581Betele": 1287,
  "\u2581milioni": 1288,
  "Bema": 1289,
  "\u2581seen": 1290,
  "\u2581stand": 1291,
  "See": 1292,
  "\u2581sibodia": 1293,
  "\u2581confidence": 1294,
  "\u2581integrity": 1295,
  "\u2581Does": 1296,
  "\u2581hearts": 1297,
  "\u2581honor": 1298,
  "\u2581thing": 1299,
  "\u2581Would": 1300,
  "\u2581effort": 1301,
  "\u2581wonderful": 1302,
  "\u2581meeting": 1303,
  "\u2581happiness": 1304,
  "\u2581ruaosi": 1305,
  "\u258122.": 1306,
  "lalo": 1307,
  "\u2581Hebrews": 1308,
  "\u2581PAGE": 1309,
  "\u2581Gima": 1310,
  "\u2581apply": 1311,
  "\u2581change": 1312,
  "\u2581interest": 1313,
  "\u2581Hakaua": 1314,
  "er": 1315,
  "st": 1316,
  "\u2581daradara": 1317,
  "\u2581strengthen": 1318,
  "\u2581dagi": 1319,
  "Unai": 1320,
  "\u2581boiboi": 1321,
  "\u2581taken": 1322,
  "\u2581Dekenai": 1323,
  "\u2581nothing": 1324,
  "\u2581Saulo": 1325,
  "godly": 1326,
  "\u2581hunia": 1327,
  "\u2581greater": 1328,
  "\u2581night": 1329,
  "You": 1330,
  "\u2581Gaukara": 1331,
  "\u2581control": 1332,
  "\u2581money": 1333,
  "\u2581based": 1334,
  "\u2581opportunity": 1335,
  "\u2581appointed": 1336,
  "\u2581Ibounai": 1337,
  "\u2581evidence": 1338,
  "\u2581Heva": 1339,
  "\u2581hekokoroku": 1340,
  "Do": 1341,
  "\u2581showed": 1342,
  "\u2581standards": 1343,
  "\u2581vital": 1344,
  "\u2581s": 1345,
  "\u2581Aigupito": 1346,
  "\u2581authority": 1347,
  "\u2581shall": 1348,
  "\u2581haboioa": 1349,
  "\u2581lalotamona": 1350,
  "),": 1351,
  "\u2581H": 1352,
  "\u2581effect": 1353,
  "\u2581hegaegaelaia": 1354,
  "\u2581kerehai": 1355,
  "\u2581small": 1356,
  "\u2581move": 1357,
  "\u2581remember": 1358,
  "\u2581serious": 1359,
  "Jehovah": 1360,
  "\u2581haerelaia": 1361,
  "\u2581THE": 1362,
  "\u2581kept": 1363,
  "\u2581therefore": 1364,
  "\u2581loulou": 1365,
  "\u2581deep": 1366,
  "\u2581doria": 1367,
  "\u2581iharuana": 1368,
  "\u2581Eiava": 1369,
  "\u2581Kohorona": 1370,
  "\u2581try": 1371,
  "\u2581ane": 1372,
  "\u2581dinana": 1373,
  "\u2581forever": 1374,
  "\u2581Society": 1375,
  "\u2581July": 1376,
  "\u2581psalmist": 1377,
  "\u2581second": 1378,
  "\u2581Watch": 1379,
  "\u2581heavens": 1380,
  "\u2581latanai": 1381,
  "\u2581Bethel": 1382,
  "\u2581hanuaboi": 1383,
  "\u2581lalokauna": 1384,
  "\u2581efforts": 1385,
  "\u2581group": 1386,
  "\u2581Creator": 1387,
  "\u2581ransom": 1388,
  "\u2581Buka": 1389,
  "\u2581kwarana": 1390,
  "\u2581conscience": 1391,
  "\u2581doubt": 1392,
  "\u2581biaguna": 1393,
  "\u2581Maria": 1394,
  "\u2581speaking": 1395,
  "\u2581Dala": 1396,
  "\u2581anyone": 1397,
  ",...": 1398,
  "\u2581Still": 1399,
  "\u2581direction": 1400,
  "\u2581according": 1401,
  "\u2581appreciation": 1402,
  "\u2581meaning": 1403,
  "\u2581baptism": 1404,
  "ai": 1405,
  "\u2581past": 1406,
  "\u2581sivaraina": 1407,
  "\u2581four": 1408,
  "\u2581judgment": 1409,
  "ted": 1410,
  "\u2581misinari": 1411,
  "\u2581Hence": 1412,
  "\u2581rule": 1413,
  "\u2581Heb": 1414,
  "\u2581Indeed": 1415,
  "\u2581Haroro": 1416,
  "\u2581Ieremia": 1417,
  "\u2581Mark": 1418,
  "\u2581field": 1419,
  "\u2581value": 1420,
  "\u2581water": 1421,
  "\u2581Stadi": 1422,
  "\u2581toho": 1423,
  "\u2581appreciate": 1424,
  "\u2581determined": 1425,
  "\u2581information": 1426,
  "\u2581spoke": 1427,
  "Genese": 1428,
  "\u2581Tower": 1429,
  "\u2581helps": 1430,
  "\u2581older": 1431,
  "\u2581using": 1432,
  "\u2581Mesia": 1433,
  "\u2581praise": 1434,
  "\u2581promise": 1435,
  "\u2581covenant": 1436,
  "\u2581heboudia": 1437,
  "\u2581willing": 1438,
  "\u2581health": 1439,
  "\u2581large": 1440,
  "\u2581listen": 1441,
  "\u2581earthly": 1442,
  "\u2581Iamesi": 1443,
  "\u2581Diabolo": 1444,
  "\u2581bukadia": 1445,
  "\u2581Dur": 1446,
  "\u2581leave": 1447,
  "\u2581physical": 1448,
  "\u2581hold": 1449,
  "\u2581public": 1450,
  "\u2581religion": 1451,
  "\u2581hahisia": 1452,
  "\u2581respond": 1453,
  "\u2581roho": 1454,
  "\u2581decision": 1455,
  "\u2581Saul": 1456,
  "\u2581flesh": 1457,
  "\u2581seek": 1458,
  "\u2581deal": 1459,
  "\u2581offer": 1460,
  "over": 1461,
  "\u25811914": 1462,
  "\u2581Instead": 1463,
  "\u2581already": 1464,
  "\u2581gain": 1465,
  "\u2581served": 1466,
  "\u2581ogogami": 1467,
  "\u2581written": 1468,
  "\u2581Jeremiah": 1469,
  "\u2581once": 1470,
  "\u2581taim": 1471,
  "\u2581walk": 1472,
  "\u2581powerful": 1473,
  "\u2581sins": 1474,
  "\u2581Karana": 1475,
  "ting": 1476,
  "\u2581lost": 1477,
  "\u2581experienced": 1478,
  "\u2581momokanina": 1479,
  "\u2581recorded": 1480,
  "in": 1481,
  "\u2581Will": 1482,
  "\u2581affect": 1483,
  "\u2581courage": 1484,
  "\u258124.": 1485,
  "\u2581Their": 1486,
  "\u2581Efeso": 1487,
  "\u2581pararalaia": 1488,
  "\u2581Samuela": 1489,
  "\u2581hua": 1490,
  "\u2581lived": 1491,
  "\u2581trials": 1492,
  "\u2581varavara": 1493,
  "\u2581within": 1494,
  "\u2581hepapahuahu": 1495,
  "\u2581here": 1496,
  "\u2581instance": 1497,
  "\u2581Mary": 1498,
  "\u2581activities": 1499,
  "\u2581hoia": 1500,
  "\u2581please": 1501,
  "\u2581precious": 1502,
  "\u258150": 1503,
  "\u2581anything": 1504,
  "\u2581tohoa": 1505,
  "less": 1506,
  "\u2581Hebrew": 1507,
  "\u2581guidance": 1508,
  "\u2581angels": 1509,
  "\u2581letter": 1510,
  "\u2581nadi": 1511,
  "\u258120,": 1512,
  "\u2581Gilead": 1513,
  "\u2581hear": 1514,
  "\u2581promises": 1515,
  "\u2581role": 1516,
  "\u2581war": 1517,
  "\u2581complete": 1518,
  "\u2581oda": 1519,
  "\u2581rather": 1520,
  "Isaia": 1521,
  "\u2581vairana": 1522,
  "\u2581mamina": 1523,
  "\u2581matamatadia": 1524,
  "\u2581English": 1525,
  "\u2581harmony": 1526,
  "\u2581Mat": 1527,
  "\u2581durudia": 1528,
  "\u2581stated": 1529,
  "\u258135": 1530,
  "Iehova": 1531,
  "\u2581BE": 1532,
  "\u2581Judah": 1533,
  "\u2581thoughts": 1534,
  "\u2581igui": 1535,
  "\u2581couple": 1536,
  "\u2581further": 1537,
  "\u2581gunanai": 1538,
  "\u2581foretold": 1539,
  "\u2581momokanidia": 1540,
  "\u2581perhaps": 1541,
  "\u2581responsibility": 1542,
  "\u2581salvation": 1543,
  "\u2581soul": 1544,
  "\u2581Guna": 1545,
  "\u2581gwauhamatalaia": 1546,
  "\u2581local": 1547,
  "\u2581Lalokau": 1548,
  "\u2581ful": 1549,
  "\u2581Laloa": 1550,
  "\u2581Therefore": 1551,
  "\u2581country": 1552,
  "\u2581dirava": 1553,
  "\u2581na": 1554,
  "\u2581119": 1555,
  "\u2581considered": 1556,
  "\u2581hesiku": 1557,
  "th": 1558,
  "\u2581elder": 1559,
  "\u2581got": 1560,
  "\u2581York": 1561,
  "\u2581hands": 1562,
  "\u2581promised": 1563,
  "God": 1564,
  "\u2581August": 1565,
  "\u2581Sal": 1566,
  "\u2581happened": 1567,
  "\u2581illustration": 1568,
  "\u2581obey": 1569,
  "\u2581reasons": 1570,
  "\u2581stiuden": 1571,
  "\u2581events": 1572,
  "\u2581Karaia": 1573,
  "\u2581adavaia": 1574,
  "\u2581continued": 1575,
  "\u258122,": 1576,
  "\u2581clean": 1577,
  "\u2581People": 1578,
  "\u2581display": 1579,
  "\u2581pablisa": 1580,
  "\u2581started": 1581,
  "\u2581Jewish": 1582,
  "\u2581(2": 1583,
  "\u2581Did": 1584,
  "\u2581hahelaga": 1585,
  "\u2581accepted": 1586,
  "\u2581imperfect": 1587,
  "\u2581assignment": 1588,
  "\u2581pages": 1589,
  "\u258124:": 1590,
  "\u2581Eve": 1591,
  "\u2581Now": 1592,
  "\u2581concern": 1593,
  "\u2581Sibona": 1594,
  "\u2581ability": 1595,
  "\u2581available": 1596,
  "\u2581chapter": 1597,
  "\u2581born": 1598,
  "\u2581endure": 1599,
  "\u2581actions": 1600,
  "\u2581hahegani": 1601,
  "\u2581class": 1602,
  "\u2581head": 1603,
  "\u2581Tau": 1604,
  "\u2581helping": 1605,
  "\u2581wants": 1606,
  "\u2581Genesis": 1607,
  "\u2581gadara": 1608,
  "\u2581longer": 1609,
  "\u258138": 1610,
  "\u2581ANE": 1611,
  "\u2581Tim": 1612,
  "\u2581ahuna": 1613,
  "\u2581meet": 1614,
  "\u2581proved": 1615,
  "\u2581form": 1616,
  "\u2581friend": 1617,
  "\u2581SONGS": 1618,
  "\u2581alaia": 1619,
  "\u2581clearly": 1620,
  "\u2581parabole": 1621,
  "\u2581position": 1622,
  "\u2581regular": 1623,
  "\u2581call": 1624,
  "\u2581Egypt": 1625,
  "\u2581lahi": 1626,
  "\u2581everything": 1627,
  "\u2581express": 1628,
  "\u2581reflect": 1629,
  "\u2581visit": 1630,
  "\u2581100": 1631,
  "\u2581reach": 1632,
  "\u2581teachings": 1633,
  "\u2581force": 1634,
  "\u2581Matt": 1635,
  "\u2581forth": 1636,
  "\u2581simply": 1637,
  "\u2581Hesi": 1638,
  "\u2581issue": 1639,
  "\u2581palani": 1640,
  "\u2581build": 1641,
  "\u2581led": 1642,
  "and": 1643,
  "\u2581True": 1644,
  "\u2581boubouna": 1645,
  "\u2581fulfillment": 1646,
  "\u2581program": 1647,
  "\u2581servant": 1648,
  "\u2581seven": 1649,
  "\u2581idaunegai": 1650,
  "\u2581Momo": 1651,
  "\u2581Pet": 1652,
  "\u2581tabekau": 1653,
  "\u258170": 1654,
  "\u2581kererena": 1655,
  "\u2581lalomamina": 1656,
  "\u2581action": 1657,
  "\u258160": 1658,
  "\u258125.": 1659,
  "\u2581Haere": 1660,
  "\u2581toretore": 1661,
  "\u2581Genese": 1662,
  "\u2581showing": 1663,
  "\u2581training": 1664,
  "\u2581attend": 1665,
  "\u2581explained": 1666,
  "\u2581offered": 1667,
  "\u2581Gaudia": 1668,
  "\u2581Just": 1669,
  "\u2581kaivakuku": 1670,
  "\u2581hemarai": 1671,
  "\u2581motuka": 1672,
  "\u2581aena": 1673,
  "\u2581indeed": 1674,
  "\u2581proper": 1675,
  "\u2581enemies": 1676,
  "\u2581influence": 1677,
  "\u2581provides": 1678,
  "\u2581tribulation": 1679,
  "\u2581Matamata": 1680,
  "\u2581daily": 1681,
  "\u2581regularly": 1682,
  "\u2581seeking": 1683,
  "Aon": 1684,
  "\u2581First": 1685,
  "\u2581Have": 1686,
  "\u2581brens": 1687,
  "\u2581inua": 1688,
  "\u2581occasion": 1689,
  "\u2581L": 1690,
  "\u2581Tama": 1691,
  "\u2581hora": 1692,
  "\u2581kahanai": 1693,
  "\u2581whose": 1694,
  "\u2581Bada": 1695,
  "\u2581branch": 1696,
  "\u2581subject": 1697,
  "\u2581alone": 1698,
  "\u2581stay": 1699,
  "\u2581crowd": 1700,
  "\u2581Abidadama": 1701,
  "\u2581Bese": 1702,
  "\u2581Jacob": 1703,
  "\u2581advice": 1704,
  "Gen": 1705,
  "\u2581An": 1706,
  "\u2581cultivate": 1707,
  "\u2581else": 1708,
  "\u258136": 1709,
  "\u2581tok": 1710,
  "\u2581warning": 1711,
  "\u2581Ps": 1712,
  "\u2581lalohekwarahi": 1713,
  "\u258145": 1714,
  "\u2581hutuma": 1715,
  "\u2581open": 1716,
  "\u2581various": 1717,
  "\u2581encouragement": 1718,
  "elia": 1719,
  "\u2581Life": 1720,
  "\u2581worldwide": 1721,
  "\u2581d": 1722,
  "\u2581mercy": 1723,
  "\u2581raised": 1724,
  "\u258121,": 1725,
  "\u2581Brother": 1726,
  "\u2581Haheitalai": 1727,
  "\u2581Roman": 1728,
  "\u2581U": 1729,
  "\u2581Witness": 1730,
  "\u2581interests": 1731,
  "\u2581Love": 1732,
  "\u2581die": 1733,
  "\u2581bear": 1734,
  "\u2581moral": 1735,
  "\u2581helarona": 1736,
  "\u2581described": 1737,
  "\u2581desires": 1738,
  "\u2581grow": 1739,
  "\u2581modern": 1740,
  "\u2581M": 1741,
  "\u2581activity": 1742,
  "\u2581K": 1743,
  "\u2581expression": 1744,
  "\u2581focus": 1745,
  "\u2581ten": 1746,
  "\u2581voice": 1747,
  "\u2581Dalana": 1748,
  "\u2581develop": 1749,
  "\u2581muramura": 1750,
  "\u2581creation": 1751,
  "\u2581knows": 1752,
  "\u2581koia": 1753,
  "\u2581laws": 1754,
  "\u2581taravatudia": 1755,
  "\u2581Elda": 1756,
  "\u2581start": 1757,
  "\u2581blessed": 1758,
  "\u2581held": 1759,
  "\u2581humble": 1760,
  "\u2581perovetalaia": 1761,
  "\u2581practical": 1762,
  "\u2581history": 1763,
  "\u2581sacrifices": 1764,
  "\u25819)": 1765,
  "\u2581behalf": 1766,
  "\u2581devotion": 1767,
  "\u2581easy": 1768,
  "\u2581rest": 1769,
  "\u2581Messiah": 1770,
  "\u2581humility": 1771,
  "\u2581Dubu": 1772,
  "\u2581convention": 1773,
  "\u2581itself": 1774,
  "\u2581negadia": 1775,
  "\u2581ororo": 1776,
  "\u2581speech": 1777,
  "\u2581Mareko": 1778,
  "\u2581encourage": 1779,
  "\u2581takes": 1780,
  "Inai": 1781,
  "\u2581basileia": 1782,
  "\u2581encouraged": 1783,
  "\u2581period": 1784,
  "idia": 1785,
  "\u2581Samuel": 1786,
  "\u2581Tuari": 1787,
  "\u2581laga": 1788,
  "\u2581sacred": 1789,
  "\u2581daidia": 1790,
  "\u2581prayed": 1791,
  "\u2581single": 1792,
  "\u2581Headava": 1793,
  "\u2581goals": 1794,
  "\u2581students": 1795,
  "\u2581freedom": 1796,
  "\u25816)": 1797,
  "\u2581common": 1798,
  "\u2581named": 1799,
  "\u2581unity": 1800,
  "\u2581months": 1801,
  "\u2581dedication": 1802,
  "\u2581fulfilled": 1803,
  "m": 1804,
  "\u2581lalohadaina": 1805,
  "\u2581source": 1806,
  "\u2581answers": 1807,
  "\u2581command": 1808,
  "\u2581lesson": 1809,
  "to": 1810,
  "\u2581Sikuli": 1811,
  "\u2581earlier": 1812,
  "\u2581working": 1813,
  "\u2581Babylon": 1814,
  "\u2581See": 1815,
  "\u2581dava": 1816,
  "\u258128.": 1817,
  "\u2581neither": 1818,
  "\u2581choose": 1819,
  "\u2581ruhaia": 1820,
  "\u2581walking": 1821,
  "\u258111)": 1822,
  "\u2581June": 1823,
  "\u2581Kongrigeisen": 1824,
  "\u2581Totona": 1825,
  "\u2581boio": 1826,
  "\u2581gabena": 1827,
  "\u2581problem": 1828,
  "\u2581everyone": 1829,
  "\u2581goal": 1830,
  "\u2581positive": 1831,
  "\u2581shepherd": 1832,
  "\u2581According": 1833,
  "\u25815)": 1834,
  "\u2581Or": 1835,
  "\u2581changed": 1836,
  "\u2581destruction": 1837,
  "\u2581entire": 1838,
  "\u2581hedavari": 1839,
  "\u2581include": 1840,
  "\u258110)": 1841,
  "\u25813)": 1842,
  "\u2581Later": 1843,
  "\u2581Us": 1844,
  "\u2581Elia": 1845,
  "\u2581Great": 1846,
  "\u2581persecution": 1847,
  "\u2581Most": 1848,
  "\u2581Sam": 1849,
  "\u2581hahegeregerea": 1850,
  "\u258124,": 1851,
  "\u258141": 1852,
  "\u2581Tomadiho": 1853,
  "\u2581allowed": 1854,
  "\u2581benefits": 1855,
  "\u2581flock": 1856,
  "\u2581goadalaia": 1857,
  "\u2581quality": 1858,
  "\u2581Moale": 1859,
  "\u2581favor": 1860,
  "\u2581shown": 1861,
  "\u2581Though": 1862,
  "\u2581basis": 1863,
  "\u2581becoming": 1864,
  "\u2581France": 1865,
  "\u2581Iosua": 1866,
  "\u2581Similarly": 1867,
  "\u2581above": 1868,
  "\u2581arrangement": 1869,
  "\u2581challenge": 1870,
  "\u2581publications": 1871,
  "\u2581Africa": 1872,
  "\u2581Translation": 1873,
  "\u2581faced": 1874,
  "\u2581firm": 1875,
  "\u2581uma": 1876,
  "\u2581invited": 1877,
  "\u2581lohiaia": 1878,
  "\u2581tried": 1879,
  "\u2581Henanadai": 1880,
  "\u2581addition": 1881,
  "\u2581discipline": 1882,
  "\u2581realize": 1883,
  "\u2581results": 1884,
  "\u2581Joshua": 1885,
  "\u2581Keep": 1886,
  "\u2581actually": 1887,
  "\u2581enable": 1888,
  "\u2581genuine": 1889,
  "\u2581join": 1890,
  "\u2581office": 1891,
  "\u2581Ura": 1892,
  "\u2581ahead": 1893,
  "\u2581sovereignty": 1894,
  "\u2581Holy": 1895,
  "w": 1896,
  "\u2581area": 1897,
  "\u2581met": 1898,
  "\u2581paradise": 1899,
  "\u2581yourselves": 1900,
  "\u25817)": 1901,
  "\u2581Bamona": 1902,
  "\u2581Germany": 1903,
  "\u2581ago": 1904,
  "\u2581justice": 1905,
  "\u2581ready": 1906,
  "\u2581IA": 1907,
  "\u2581languages": 1908,
  "\u258129.": 1909,
  "\u2581United": 1910,
  "\u2581expect": 1911,
  "\u2581gunana": 1912,
  "\u2581taitai": 1913,
  "\u2581Before": 1914,
  "\u2581greatest": 1915,
  "\u2581halusia": 1916,
  "\u2581helagana": 1917,
  "\u2581idauna": 1918,
  "\u2581wives": 1919,
  "\u2581guia": 1920,
  "\u2581learning": 1921,
  "\u2581protect": 1922,
  "\u2581Another": 1923,
  "\u2581knowing": 1924,
  "mo": 1925,
  "\u25814)": 1926,
  "\u2581birth": 1927,
  "\u2581daughter": 1928,
  "\u2581disciple": 1929,
  "\u2581exercise": 1930,
  "\u2581Kor": 1931,
  "\u2581brings": 1932,
  "\u2581lo": 1933,
  "If": 1934,
  "\u2581alive": 1935,
  "\u2581examine": 1936,
  "\u2581importance": 1937,
  "\u2581personally": 1938,
  "\u2581Uni": 1939,
  "\u2581personality": 1940,
  "\u2581seem": 1941,
  "\u2581throughout": 1942,
  "kara": 1943,
  "\u2581idaudia": 1944,
  "\u2581individual": 1945,
  "\u2581priests": 1946,
  "\u2581\u25aa": 1947,
  "\u2581Awake": 1948,
  "\u2581Iakobo": 1949,
  "\u2581dedicated": 1950,
  "\u2581government": 1951,
  "\u2581lalometau": 1952,
  "\u2581aria": 1953,
  "\u2581assigned": 1954,
  "\u2581explains": 1955,
  "\u2581rich": 1956,
  "\u2581turned": 1957,
  "\u2581J": 1958,
  "\u2581demonstrate": 1959,
  "\u2581progress": 1960,
  "\u2581bogahisihisi": 1961,
  "\u2581deeply": 1962,
  "\u2581mate": 1963,
  "\u2581steps": 1964,
  "\u2581strive": 1965,
  "ni": 1966,
  "\u2581Isa": 1967,
  "\u2581discreet": 1968,
  "\u2581test": 1969,
  "ever": 1970,
  "\u2581anger": 1971,
  "\u2581lalohadailaia": 1972,
  "\u2581lands": 1973,
  "\u2581missionary": 1974,
  "\u2581pain": 1975,
  "\u2581taga": 1976,
  "\u2581worshippers": 1977,
  "\u258165": 1978,
  "\u2581Eden": 1979,
  "\u2581goadana": 1980,
  "\u2581siti": 1981,
  "\u2581truths": 1982,
  "\u2581approach": 1983,
  "\u2581changes": 1984,
  "\u2581stop": 1985,
  "\u25818)": 1986,
  "\u2581Laloatao": 1987,
  "\u2581October": 1988,
  "\u2581Oreana": 1989,
  "\u2581happen": 1990,
  "\u2581Ephesians": 1991,
  "\u2581door": 1992,
  "\u2581matahakani": 1993,
  "\u2581published": 1994,
  "\u2581rejoice": 1995,
  "\u2581vabu": 1996,
  "\u2581appropriate": 1997,
  "\u2581myself": 1998,
  "\u2581acts": 1999,
  "\u2581badinai": 2000,
  "\u2581keeping": 2001,
  "\u2581opposition": 2002,
  "\u2581F": 2003,
  "\u2581Others": 2004,
  "\u2581interested": 2005,
  "\u2581kings": 2006,
  "\u2581lalodia": 2007,
  "\u2581Remember": 2008,
  "\u2581expressed": 2009,
  "\u2581five": 2010,
  "\u258131.": 2011,
  "\u2581Peroveta": 2012,
  "\u2581maorodia": 2013,
  "\u2581sexual": 2014,
  "\u2581beyond": 2015,
  "\u2581general": 2016,
  "\u2581Mamoe": 2017,
  "\u2581challenges": 2018,
  "\u2581created": 2019,
  "\u2581davalai": 2020,
  "\u2581foa": 2021,
  "\u2581Filipi": 2022,
  "\u2581loyalty": 2023,
  "\u2581poor": 2024,
  "\u2581several": 2025,
  "\u2581studying": 2026,
  "Iobu": 2027,
  "\u258123,": 2028,
  "\u2581Ginigunana": 2029,
  "\u2581added": 2030,
  "\u2581building": 2031,
  "\u2581practice": 2032,
  "\u2581six": 2033,
  "c": 2034,
  "\u2581angel": 2035,
  "\u2581evil": 2036,
  "\u2581garina": 2037,
  "\u2581Cor": 2038,
  "\u2581TO": 2039,
  "\u2581enough": 2040,
  "\u2581kavakava": 2041,
  "\u2581tausen": 2042,
  "\u2581Idaunegai": 2043,
  "\u2581gabua": 2044,
  "\u2581resurrected": 2045,
  "\u2581returned": 2046,
  "\u2581Ioa": 2047,
  "\u2581Perhaps": 2048,
  "\u2581final": 2049,
  "\u2581obedience": 2050,
  "\u2581observe": 2051,
  "\u2581urged": 2052,
  "\u2581behind": 2053,
  "\u2581line": 2054,
  "\u2581literature": 2055,
  "\u2581presence": 2056,
  "\u2581protection": 2057,
  "\u2581text": 2058,
  "\u258133.": 2059,
  "\u2581accounts": 2060,
  "\u2581less": 2061,
  "\u2581Evan": 2062,
  "\u2581endurance": 2063,
  "\u2581families": 2064,
  "\u2581sign": 2065,
  "\u2581choice": 2066,
  "\u2581short": 2067,
  "\u2581tree": 2068,
  "\u2581whatever": 2069,
  "\u2581Further": 2070,
  "\u2581dabu": 2071,
  "\u2581manifest": 2072,
  "\u2581places": 2073,
  "\u2581prepare": 2074,
  "\u2581recognize": 2075,
  "\u2581Unuseniai": 2076,
  "\u2581ema": 2077,
  "\u2581Dainai": 2078,
  "\u2581merona": 2079,
  "\u2581traveling": 2080,
  "\u2581'?": 2081,
  "\u2581hadoa": 2082,
  "\u2581hahelagaia": 2083,
  "\u2581w": 2084,
  "\u2581September": 2085,
  "\u2581caused": 2086,
  "able": 2087,
  "\u2581fruit": 2088,
  "\u2581heudahanai": 2089,
  "\u2581involves": 2090,
  "\u2581necessary": 2091,
  "\u2581related": 2092,
  "\u2581Through": 2093,
  "\u2581quickly": 2094,
  "\u2581affection": 2095,
  "\u2581leaders": 2096,
  "be": 2097,
  "\u2581aware": 2098,
  "\u2581contrast": 2099,
  "es": 2100,
  "\u00b7": 2101,
  "\u2581bisinesi": 2102,
  "\u2581kopina": 2103,
  "\u258117)": 2104,
  "\u2581association": 2105,
  "\u2581books": 2106,
  "\u2581condition": 2107,
  "\u2581kekero": 2108,
  "\u2581looking": 2109,
  "\u2581sound": 2110,
  "\u2581School": 2111,
  "\u2581eat": 2112,
  "\u2581hamarerea": 2113,
  "\u2581opening": 2114,
  "\u2581suffer": 2115,
  "\u2581treat": 2116,
  "\u2581Elijah": 2117,
  "\u2581manadalaia": 2118,
  "\u2581millions": 2119,
  "out": 2120,
  "\u258128,": 2121,
  "\u2581decided": 2122,
  "\u2581koikoidia": 2123,
  "\u2581Questions": 2124,
  "\u2581iduhu": 2125,
  "\u2581revealed": 2126,
  "evertheless": 2127,
  "\u2581OI": 2128,
  "\u2581explain": 2129,
  "ta": 2130,
  "\u2581ENA": 2131,
  "\u258114)": 2132,
  "\u2581enjoyed": 2133,
  "\u2581kereredia": 2134,
  "\u2581record": 2135,
  "on": 2136,
  "\u2581(1)": 2137,
  "\u2581Tano": 2138,
  "\u2581paraoa": 2139,
  "\u2581tanona": 2140,
  "\u2581beibi": 2141,
  "\u2581closer": 2142,
  "\u2581(2)": 2143,
  "\u2581priest": 2144,
  "\u2581spoken": 2145,
  "\u2581student": 2146,
  "\u2581taoni": 2147,
  "\u2581Naria": 2148,
  "\u2581beginning": 2149,
  "\u2581offering": 2150,
  "\u2581seed": 2151,
  "\u25812)": 2152,
  "\u2581gima": 2153,
  "\u2581lack": 2154,
  "\u2581sharing": 2155,
  "\u2581zeal": 2156,
  "\u2581samania": 2157,
  "\u2581success": 2158,
  "\u258155": 2159,
  "\u2581[\"": 2160,
  "\u2581iduara": 2161,
  "\u2581oreadia": 2162,
  "\u2581pressure": 2163,
  "Isa": 2164,
  "tanobada": 2165,
  "\u2581Body": 2166,
  "\u2581delight": 2167,
  "\u2581forward": 2168,
  "\u2581gunadia": 2169,
  "\u2581obedient": 2170,
  "\u2581duahiduahi": 2171,
  "\u2581member": 2172,
  "\u2581miusiki": 2173,
  "\u2581sekit": 2174,
  "\u258135.": 2175,
  "\u2581Iharuana": 2176,
  "\u2581eventually": 2177,
  "\u2581hereana": 2178,
  "\u2581image": 2179,
  "\u2581Govern": 2180,
  "\u2581doketa": 2181,
  "\u2581effective": 2182,
  "\u2581neighbor": 2183,
  "\u2581send": 2184,
  "\u2581worked": 2185,
  "\u2581accurate": 2186,
  "\u258112)": 2187,
  "\u2581pure": 2188,
  "\u2581articles": 2189,
  "\u2581filled": 2190,
  "\u258142": 2191,
  "\u2581confident": 2192,
  "\u2581education": 2193,
  "\u2581pioneers": 2194,
  "\u2581situations": 2195,
  "org": 2196,
  "\u2581Clearly": 2197,
  "\u2581Line": 2198,
  "\u2581inuinu": 2199,
  "\u2581overseer": 2200,
  "\u2581Dika": 2201,
  "\u2581compassion": 2202,
  "\u2581memero": 2203,
  "\u2581thousands": 2204,
  "\u2581week": 2205,
  "\u2581April": 2206,
  "\u2581Siahu": 2207,
  "\u2581asking": 2208,
  "\u2581begin": 2209,
  "\u2581carefully": 2210,
  "\u2581resist": 2211,
  "\u2581wonder": 2212,
  "\u258148": 2213,
  "\u2581chosen": 2214,
  "\u2581completely": 2215,
  "\u2581followed": 2216,
  "\u2581fruitage": 2217,
  "\u2581standing": 2218,
  "\u2581Pennsylvania": 2219,
  "\u2581elderly": 2220,
  "\u2581publishers": 2221,
  "ach": 2222,
  "\u2581\"[": 2223,
  "\u2581spent": 2224,
  "\u2581vision": 2225,
  "\u2581discuss": 2226,
  "\u2581hoihoilaia": 2227,
  "\u2581December": 2228,
  "\u258143": 2229,
  "\u2581Hosea": 2230,
  "\u2581fall": 2231,
  "\u2581fight": 2232,
  "\u2581hitolo": 2233,
  "\u2581reward": 2234,
  "\u2581declared": 2235,
  "\u2581hahemauri": 2236,
  "Let": 2237,
  "\u2581guard": 2238,
  "\u2581reveal": 2239,
  "\u2581side": 2240,
  "\u2581violence": 2241,
  "\u2581conditions": 2242,
  "\u2581imagine": 2243,
  "\u2581job": 2244,
  "\u2581natural": 2245,
  "\u2581trying": 2246,
  "ness": 2247,
  "\u2581forgiveness": 2248,
  "\u2581sort": 2249,
  "\u2581Asa": 2250,
  "\u2581fail": 2251,
  "\u2581kastom": 2252,
  "\u2581pursue": 2253,
  "\u2581Natudia": 2254,
  "\u2581getting": 2255,
  "\u2581han": 2256,
  "\u2581hariharibada": 2257,
  "\u2581laganidia": 2258,
  "\u2581meant": 2259,
  "\u2581picture": 2260,
  "\u2581rumana": 2261,
  "\u2581sometimes": 2262,
  "\u2581specific": 2263,
  "\u2581Toana": 2264,
  "\u2581arrived": 2265,
  "\u2581hagoevaia": 2266,
  "\u258113)": 2267,
  "\u2581Daudau": 2268,
  "\u2581ekspiriens": 2269,
  "\u2581grateful": 2270,
  "\u2581bouboulaia": 2271,
  "\u2581overseers": 2272,
  "\u258118)": 2273,
  "\u2581feeling": 2274,
  "\u2581ginigabena": 2275,
  "\u2581hamaorodia": 2276,
  "\u2581territory": 2277,
  "\u2581experiences": 2278,
  "\u258126.": 2279,
  "\u2581Rome": 2280,
  "\u2581prepared": 2281,
  "\u2581write": 2282,
  "\u2581beautiful": 2283,
  "\u2581teachers": 2284,
  "\u2581tore": 2285,
  "\u2581valuable": 2286,
  "\u2581verse": 2287,
  "\u2581Kolose": 2288,
  "\u2581Mase": 2289,
  "\u2581ataiai": 2290,
  "\u2581forget": 2291,
  "\u2581friendship": 2292,
  "\u2581kikilaia": 2293,
  "\u2581parent": 2294,
  "\u2581quit": 2295,
  "\u2581Matamanai": 2296,
  "\u2581church": 2297,
  "\u2581included": 2298,
  "\u2581karaharaga": 2299,
  "\u2581react": 2300,
  "\u25aa": 2301,
  "\u25811)": 2302,
  "\u2581Study": 2303,
  "\u2581encouraging": 2304,
  "\u2581fire": 2305,
  "\u2581required": 2306,
  "\u2581surely": 2307,
  "\u2581teacher": 2308,
  "\u2581teritori": 2309,
  "\u2581Aon": 2310,
  "\u2581aukadia": 2311,
  "\u2581key": 2312,
  "\u2581morning": 2313,
  "\u2581response": 2314,
  "\u2581urana": 2315,
  "We": 2316,
  "dred": 2317,
  "\u258130.": 2318,
  "\u2581Europe": 2319,
  "\u2581South": 2320,
  "\u2581beliefs": 2321,
  "\u2581Brooklyn": 2322,
  "\u2581Kahirakahira": 2323,
  "\u2581least": 2324,
  "\u2581matahanai": 2325,
  "\u02b9": 2326,
  "\u2581state": 2327,
  "\u2581gageva": 2328,
  "\u2581hours": 2329,
  "\u2581overcome": 2330,
  "\u2581requires": 2331,
  "\u2581Where": 2332,
  "\u2581centuries": 2333,
  "\u2581cope": 2334,
  "\u2581lose": 2335,
  "\u2581patience": 2336,
  "\u2581sincere": 2337,
  "\u2581zealous": 2338,
  "\u2581assist": 2339,
  "\u2581manner": 2340,
  "\u2581acceptable": 2341,
  "\u2581destroyed": 2342,
  "\u2581dokonai": 2343,
  "\u2581passed": 2344,
  "\u2581seems": 2345,
  "\u2581watch": 2346,
  "P": 2347,
  "\u2581Gen": 2348,
  "\u2581Samaria": 2349,
  "\u2581approval": 2350,
  "\u2581evening": 2351,
  "\u2581noholaia": 2352,
  "\u2581simple": 2353,
  "To": 2354,
  "\u2581Idau": 2355,
  "\u2581warned": 2356,
  "Taunimanima": 2357,
  "\u2581auna": 2358,
  "\u2581commanded": 2359,
  "\u2581former": 2360,
  "\u2581hebamo": 2361,
  "\u2581note": 2362,
  "\u2581praying": 2363,
  "\u2581realized": 2364,
  "\u2581tai": 2365,
  "\u2581foreign": 2366,
  "\u2581pay": 2367,
  "\u2581aiemai": 2368,
  "\u2581destroy": 2369,
  "\u2581hairaina": 2370,
  "\u2581remind": 2371,
  "us": 2372,
  "\u2581Hanaihanai": 2373,
  "\u2581boga": 2374,
  "\u2581tongue": 2375,
  "ic": 2376,
  "ita": 2377,
  "\u2581areas": 2378,
  "\u2581forgive": 2379,
  "responsibilities": 2380,
  "\u2581Durua": 2381,
  "\u2581G": 2382,
  "\u2581opesi": 2383,
  "\u2581preached": 2384,
  "\u2581relatives": 2385,
  "It": 2386,
  "\u2581St": 2387,
  "\u2581answered": 2388,
  "\u2581calls": 2389,
  "\u2581goevadaena": 2390,
  "\u2581practices": 2391,
  "\u2581concerned": 2392,
  "\u2581invitation": 2393,
  "\u2581opened": 2394,
  "\u25811919": 2395,
  "\u2581dagina": 2396,
  "\u2581fulfill": 2397,
  "\u2581includes": 2398,
  "\u2581maumau": 2399,
  "\u2581taravatua": 2400,
  "\u2581undeserved": 2401,
  "\u258115)": 2402,
  "\u2581Mexico": 2403,
  "\u2581Young": 2404,
  "\u2581attending": 2405,
  "\u2581step": 2406,
  "In": 2407,
  "ox": 2408,
  "taunimanima": 2409,
  "\u2581Good": 2410,
  "\u2581March": 2411,
  "\u2581conclusion": 2412,
  "\u2581Lohia": 2413,
  "\u2581contribute": 2414,
  "\u2581feet": 2415,
  "\u2581limited": 2416,
  "\u2581noted": 2417,
  "\u2581studies": 2418,
  "\u2581Explain": 2419,
  "\u2581aspects": 2420,
  "\u2581aukana": 2421,
  "\u2581guide": 2422,
  "\u2581honu": 2423,
  "\u2581prison": 2424,
  "\u2581remained": 2425,
  "\u258126,": 2426,
  "\u2581Daika": 2427,
  "\u2581accomplish": 2428,
  "\u2581concerning": 2429,
  "\u2581kudou": 2430,
  "\u2581minister": 2431,
  "\u2581points": 2432,
  "\u2581tisa": 2433,
  "\u258123]": 2434,
  "\u2581circuit": 2435,
  "\u2581outside": 2436,
  "\u2581wik": 2437,
  "\u2581Lao": 2438,
  "\u2581countries": 2439,
  "\u2581discussed": 2440,
  "\u2581enter": 2441,
  "\u2581household": 2442,
  "\u2581lai": 2443,
  "\u2581listening": 2444,
  "\u2581master": 2445,
  "\u2581reasonable": 2446,
  "\u2581understood": 2447,
  "He": 2448,
  "\u2581Gwauhamata": 2449,
  "\u2581High": 2450,
  "\u2581Mika": 2451,
  "\u2581Mount": 2452,
  "\u2581travel": 2453,
  "\u2581Guriguri": 2454,
  "\u2581Soon": 2455,
  "\u2581bread": 2456,
  "\u2581immorality": 2457,
  "\u2581mental": 2458,
  "\u2581Canada": 2459,
  "\u2581consideration": 2460,
  "\u2581evident": 2461,
  "\u2581heartfelt": 2462,
  "\u2581negative": 2463,
  "\u2581workers": 2464,
  "like": 2465,
  "\u258146": 2466,
  "\u2581bubua": 2467,
  "\u2581parts": 2468,
  "\u2581Prov": 2469,
  "\u2581nature": 2470,
  "\u2581Levi": 2471,
  "\u2581Philippians": 2472,
  "\u2581bless": 2473,
  "\u2581either": 2474,
  "\u2581failed": 2475,
  "\u2581hedibagani": 2476,
  "\u2581manada": 2477,
  "\u2581(3)": 2478,
  "\u2581consequences": 2479,
  "\u2581politikol": 2480,
  "\u2581prevent": 2481,
  "\u2581prophets": 2482,
  "la": 2483,
  "\u2581attended": 2484,
  "\u2581commandments": 2485,
  "\u2581faithfully": 2486,
  "\u2581tanodia": 2487,
  "\u2581wait": 2488,
  "u": 2489,
  "\u2581spend": 2490,
  "\u2581tubuna": 2491,
  "\u258118]": 2492,
  "\u2581danger": 2493,
  "\u2581oibe": 2494,
  "\u2581opportunities": 2495,
  "\u2581security": 2496,
  "maoro": 2497,
  "\u258110]": 2498,
  "\u2581davara": 2499,
  "\u2581insight": 2500,
  "\u2581month": 2501,
  "\u2581youth": 2502,
  "\u2581Dibaia": 2503,
  "\u2581Japan": 2504,
  "\u2581Ruth": 2505,
  "\u2581bearing": 2506,
  "\u2581break": 2507,
  "\u2581companions": 2508,
  "\u2581girl": 2509,
  "Nega": 2510,
  "\u2581Farisea": 2511,
  "\u2581deeds": 2512,
  "\u2581hour": 2513,
  "\u2581Hebou": 2514,
  "\u2581besedia": 2515,
  "\u2581extent": 2516,
  "\u2581offspring": 2517,
  "\u2581request": 2518,
  "\u2581seemed": 2519,
  "\u2581uses": 2520,
  "h": 2521,
  "\u2581Esekiela": 2522,
  "\u2581original": 2523,
  "\u2581Paradise": 2524,
  "\u2581miles": 2525,
  "est": 2526,
  "\u2581hedinaraia": 2527,
  "\u2581lessons": 2528,
  "\u2581prospect": 2529,
  "\u2581satisfaction": 2530,
  "\u2581About": 2531,
  "\u2581January": 2532,
  "\u2581event": 2533,
  "\u2581kaia": 2534,
  "\u2581loves": 2535,
  "\u2581sea": 2536,
  "\u2581suffered": 2537,
  "an": 2538,
  "l": 2539,
  "\u2581Give": 2540,
  "\u2581assured": 2541,
  "\u2581convinced": 2542,
  "\u2581seeing": 2543,
  "\u258115]": 2544,
  "\u2581Being": 2545,
  "\u2581Guba": 2546,
  "\u2581active": 2547,
  "\u2581caring": 2548,
  "\u2581ground": 2549,
  "\u2581harvest": 2550,
  "\u2581third": 2551,
  "\u2581wine": 2552,
  "\u2581Australia": 2553,
  "\u2581Imagine": 2554,
  "\u2581Taihu": 2555,
  "\u2581gifts": 2556,
  "\u2581minds": 2557,
  "\u2581prophecies": 2558,
  "\u2581tanobadana": 2559,
  "\u2581Lalonai": 2560,
  "\u2581Was": 2561,
  "\u2581ala": 2562,
  "\u2581basic": 2563,
  "\u2581distress": 2564,
  "\u2581temptation": 2565,
  "more": 2566,
  "\u2581continues": 2567,
  "\u2581greatly": 2568,
  "\u2581riches": 2569,
  "\u2581sick": 2570,
  "\u2581viewed": 2571,
  "\u2581goodness": 2572,
  "\u2581sinful": 2573,
  "\u2581visited": 2574,
  "\u2581Also": 2575,
  "\u2581Rom": 2576,
  "\u2581immediately": 2577,
  "\u2581Kamonai": 2578,
  "\u2581Over": 2579,
  "\u2581built": 2580,
  "\u2581observed": 2581,
  "\u2581sight": 2582,
  "\u2581uhe": 2583,
  "Deuteronomi": 2584,
  "all": 2585,
  "\u2581Only": 2586,
  "\u2581Should": 2587,
  "\u2581careful": 2588,
  "\u2581Colossians": 2589,
  "\u2581hapararaia": 2590,
  "\u2581sivaraidia": 2591,
  "\u2581term": 2592,
  "\u2581town": 2593,
  "\u2581universe": 2594,
  "\u2581waiting": 2595,
  "Emu": 2596,
  "\u2581army": 2597,
  "\u2581eight": 2598,
  "\u2581illustrate": 2599,
  "\u2581siridia": 2600,
  "do": 2601,
  "ually": 2602,
  "\u2581Kin": 2603,
  "\u2581play": 2604,
  "\u2581presented": 2605,
  "\u2581secular": 2606,
  "\u2581ubua": 2607,
  "sel": 2608,
  "\u00a9": 2609,
  "\u2581Faith": 2610,
  "\u2581Micah": 2611,
  "\u2581November": 2612,
  "\u2581million": 2613,
  "\u2581principle": 2614,
  "\u2581strengthened": 2615,
  "\u2581144,000": 2616,
  "\u2581Recall": 2617,
  "\u2581War": 2618,
  "\u2581almo": 2619,
  "\u2581assure": 2620,
  "\u2581battle": 2621,
  "\u2581golo": 2622,
  "\u2581missionaries": 2623,
  "For": 2624,
  "This": 2625,
  "\u2581Ed": 2626,
  "\u2581becomes": 2627,
  "\u2581comments": 2628,
  "\u2581referred": 2629,
  "When": 2630,
  "tik": 2631,
  "\u2581Ezekiel": 2632,
  "\u2581Isaac": 2633,
  "\u2581boy": 2634,
  "\u2581direct": 2635,
  "\u2581helulu": 2636,
  "\u2581outstanding": 2637,
  "\u2581witnessing": 2638,
  "en": 2639,
  "uduna": 2640,
  "\u25812012": 2641,
  "\u258126]": 2642,
  "\u258127,": 2643,
  "\u2581Ruta": 2644,
  "\u2581darkness": 2645,
  "\u2581established": 2646,
  "\u2581reaia": 2647,
  "\u2581train": 2648,
  "\u2581Hua": 2649,
  "\u2581Make": 2650,
  "\u2581affected": 2651,
  "\u2581attack": 2652,
  "\u2581fill": 2653,
  "\u2581half": 2654,
  "\u2581mouth": 2655,
  "\u2581prophetic": 2656,
  "\u2581purposes": 2657,
  "\u2581report": 2658,
  "\u2581save": 2659,
  "\u2581subjects": 2660,
  "aragraf": 2661,
  "\u25812010": 2662,
  "\u2581Naomi": 2663,
  "\u2581Well": 2664,
  "\u2581kilomita": 2665,
  "\u2581refused": 2666,
  "\u2581sekea": 2667,
  "\u258144": 2668,
  "\u258151": 2669,
  "\u2581Land": 2670,
  "\u2581dealings": 2671,
  "\u2581trained": 2672,
  "\u2581America": 2673,
  "\u2581Her": 2674,
  "\u2581busy": 2675,
  "\u2581dinadia": 2676,
  "\u2581helpful": 2677,
  "\u2581increase": 2678,
  "\u2581Center": 2679,
  "\u2581Gauna": 2680,
  "\u2581beloved": 2681,
  "\u2581expressions": 2682,
  "\u2581hanai": 2683,
  "\u2581homes": 2684,
  "\u2581husbands": 2685,
  "\u2581idea": 2686,
  "\u2581political": 2687,
  "\u258129,": 2688,
  "\u2581Tahua": 2689,
  "\u2581contact": 2690,
  "\u2581existence": 2691,
  "\u2581immoral": 2692,
  "\u2581pleasure": 2693,
  "\u2581Galatia": 2694,
  "\u2581Russell": 2695,
  "\u2581although": 2696,
  "\u2581carried": 2697,
  "\u2581discussion": 2698,
  "\u2581gogoa": 2699,
  "\u2581hariharilaia": 2700,
  "\u2581relates": 2701,
  "\u2581slaves": 2702,
  "\u2581statement": 2703,
  "\u2581Hahine": 2704,
  "\u2581Tesalonika": 2705,
  "\u2581wedding": 2706,
  "\u2581Christendom": 2707,
  "\u2581Nehemiah": 2708,
  "\u2581Students": 2709,
  "\u2581Think": 2710,
  "\u2581atikol": 2711,
  "\u2581emotional": 2712,
  "\u2581endeavor": 2713,
  "\u2581issues": 2714,
  "\u2581measure": 2715,
  "\u2581raise": 2716,
  "\u2581relief": 2717,
  "\u2581represent": 2718,
  "Idia": 2719,
  "\u258139": 2720,
  "\u2581Nehemia": 2721,
  "\u2581kekenina": 2722,
  "\u2581mature": 2723,
  "\u2581olive": 2724,
  "\u2581produce": 2725,
  "\u2581responded": 2726,
  "\u25812009": 2727,
  "\u2581Asia": 2728,
  "\u2581IN": 2729,
  "\u2581aside": 2730,
  "\u2581eye": 2731,
  "\u2581growth": 2732,
  "\u2581guria": 2733,
  "\u2581mildness": 2734,
  "\u2581pattern": 2735,
  "IDIA": 2736,
  "Ia": 2737,
  "\u2581Isako": 2738,
  "\u2581enemy": 2739,
  "\u2581mama": 2740,
  "\u2581relative": 2741,
  "\u258125,": 2742,
  "\u2581Israelite": 2743,
  "\u2581Kerisendom": 2744,
  "\u2581Note": 2745,
  "\u2581deliver": 2746,
  "\u2581easily": 2747,
  "\u2581lot": 2748,
  "\u2581provisions": 2749,
  "mong": 2750,
  "\u25812011": 2751,
  "\u2581agree": 2752,
  "\u2581drawn": 2753,
  "\u2581matamanai": 2754,
  "Kara": 2755,
  "Tau": 2756,
  "\u2581Hahedinaraia": 2757,
  "\u2581creatures": 2758,
  "\u2581looked": 2759,
  "\u2581pride": 2760,
  "\u258116)": 2761,
  "\u2581Farao": 2762,
  "\u2581Gospel": 2763,
  "\u2581ami": 2764,
  "\u2581badabada": 2765,
  "\u2581meditate": 2766,
  "\u258132.": 2767,
  "\u2581Hav": 2768,
  "\u2581Hekwakwanai": 2769,
  "\u2581Maoromaoro": 2770,
  "\u2581chose": 2771,
  "\u2581conversation": 2772,
  "\u2581daba": 2773,
  "\u2581determination": 2774,
  "\u2581instead": 2775,
  "\u2581privileges": 2776,
  "\u2581race": 2777,
  "\u2581refers": 2778,
  "\u2581widow": 2779,
  "ba": 2780,
  "\u2581Ask": 2781,
  "\u2581buklet": 2782,
  "\u2581mere": 2783,
  "\u2581particular": 2784,
  "\u2581particularly": 2785,
  "\u2581sun": 2786,
  "\u2581appear": 2787,
  "\u2581hatorea": 2788,
  "\u2581hisiu": 2789,
  "\u2581late": 2790,
  "O": 2791,
  "\u2581Really": 2792,
  "\u2581demoni": 2793,
  "\u2581gadona": 2794,
  "\u2581km": 2795,
  "\u2581lie": 2796,
  "\u2581promote": 2797,
  "\u2581saved": 2798,
  "\u2581trial": 2799,
  "\u25811,000": 2800,
  "\u258119)": 2801,
  "\u258190": 2802,
  "\u2581Look": 2803,
  "\u2581claim": 2804,
  "\u2581closely": 2805,
  "\u2581cut": 2806,
  "\u2581directed": 2807,
  "\u2581loss": 2808,
  "\u2581room": 2809,
  "\u2581taihuna": 2810,
  "\u2581youths": 2811,
  "okra": 2812,
  "\u258112;": 2813,
  "\u2581England": 2814,
  "\u2581energy": 2815,
  "\u2581indicated": 2816,
  "\u2581instruction": 2817,
  "\u2581judge": 2818,
  "\u2581pass": 2819,
  "\u2581Help": 2820,
  "\u2581Russia": 2821,
  "\u2581Under": 2822,
  "\u2581gabunai": 2823,
  "\u2581klas": 2824,
  "\u2581kontribusen": 2825,
  "\u2581magu": 2826,
  "\u2581notice": 2827,
  "\u2581willingly": 2828,
  "Esodo": 2829,
  "\u2581Deuteronomi": 2830,
  "\u2581evidently": 2831,
  "\u2581finally": 2832,
  "\u2581hanamodia": 2833,
  "\u2581hearing": 2834,
  "\u2581ripoti": 2835,
  "\u2581uaina": 2836,
  "\u2581unique": 2837,
  "\u2581Enoka": 2838,
  "\u2581Esau": 2839,
  "\u2581daughters": 2840,
  "\u2581front": 2841,
  "\u2581makohia": 2842,
  "\u2581rejected": 2843,
  "\u2581succeed": 2844,
  "\u2581Robert": 2845,
  "\u2581Sarah": 2846,
  "\u2581anxiety": 2847,
  "\u2581commission": 2848,
  "\u2581doko": 2849,
  "\u2581due": 2850,
  "\u2581grup": 2851,
  "\u2581leading": 2852,
  "\u2581mountain": 2853,
  "\u2581younger": 2854,
  "ve": 2855,
  "\u25812000": 2856,
  "\u258130,": 2857,
  "\u2581BAIBEL": 2858,
  "\u2581Deuteronomy": 2859,
  "\u2581Enoch": 2860,
  "\u2581involve": 2861,
  "\u2581joyful": 2862,
  "\u2581likewise": 2863,
  "Iesu": 2864,
  "What": 2865,
  "re": 2866,
  "\u2581appeared": 2867,
  "\u2581correct": 2868,
  "\u2581scriptures": 2869,
  "\u2581verses": 2870,
  "\u2581warm": 2871,
  "Mosaic": 2872,
  "it": 2873,
  "\u2581Negana": 2874,
  "\u2581Nisan": 2875,
  "\u2581applied": 2876,
  "\u2581hospital": 2877,
  "\u2581identify": 2878,
  "\u2581killed": 2879,
  "\u2581salamo": 2880,
  "\u2581spread": 2881,
  "\u2581successful": 2882,
  "\u2581teaches": 2883,
  "\u2581tender": 2884,
  "ould": 2885,
  "\u2581Hanamoa": 2886,
  "\u2581bouti": 2887,
  "\u2581contains": 2888,
  "\u2581entered": 2889,
  "\u2581korikoridia": 2890,
  "\u2581refuge": 2891,
  "j": 2892,
  "\u2581Brazil": 2893,
  "\u2581Student": 2894,
  "\u2581animals": 2895,
  "\u2581conclude": 2896,
  "\u2581gods": 2897,
  "\u2581indicate": 2898,
  "\u2581medu": 2899,
  "\u2581motumotu": 2900,
  "\u2581printaia": 2901,
  "\u2581receiving": 2902,
  "\u2581vain": 2903,
  "ena": 2904,
  "\u258117]": 2905,
  "\u2581adds": 2906,
  "\u2581auri": 2907,
  "\u2581essential": 2908,
  "\u2581groups": 2909,
  "\u2581kindly": 2910,
  "\u2581road": 2911,
  "\u2581telling": 2912,
  "Laulau": 2913,
  "r": 2914,
  "\u25819]": 2915,
  "\u2581Answer": 2916,
  "\u2581advantage": 2917,
  "\u2581harm": 2918,
  "\u2581improve": 2919,
  "\u2581kamepa": 2920,
  "\u2581noga": 2921,
  "\u2581OF": 2922,
  "\u2581Pharaoh": 2923,
  "\u2581boromakau": 2924,
  "\u2581entertainment": 2925,
  "\u2581heed": 2926,
  "\u2581monina": 2927,
  "\u2581primary": 2928,
  "\u2581recent": 2929,
  "\u2581Badinaia": 2930,
  "\u2581Dagedage": 2931,
  "\u2581IEHOVA": 2932,
  "\u2581Lota": 2933,
  "\u2581Spirit": 2934,
  "\u2581applying": 2935,
  "\u2581cases": 2936,
  "\u2581communication": 2937,
  "\u2581delivered": 2938,
  "\u2581demons": 2939,
  "\u2581main": 2940,
  "\u2581pour": 2941,
  "\u2581shepherds": 2942,
  "\u2581tadina": 2943,
  "\u2581type": 2944,
  "\u25812008": 2945,
  "\u2581Apok": 2946,
  "\u2581Internet": 2947,
  "\u2581MA": 2948,
  "\u2581developed": 2949,
  "\u2581engage": 2950,
  "\u2581goes": 2951,
  "\u2581inside": 2952,
  "\u2581legal": 2953,
  "\u2581responsible": 2954,
  "\u2581Take": 2955,
  "\u2581eternal": 2956,
  "\u2581henaoa": 2957,
  "\u2581lies": 2958,
  "\u2581maua": 2959,
  "\u2581reject": 2960,
  "\u2581resolve": 2961,
  "\u2581search": 2962,
  "\u2581secret": 2963,
  "\u2581setting": 2964,
  "\u2581toa": 2965,
  "\u2581vaitani": 2966,
  "Eso": 2967,
  "\u258134,": 2968,
  "\u2581Sea": 2969,
  "\u2581bond": 2970,
  "\u2581box": 2971,
  "\u2581inheritance": 2972,
  "or": 2973,
  "\u2581Ororo": 2974,
  "\u2581Pharisees": 2975,
  "\u2581aid": 2976,
  "\u2581business": 2977,
  "\u2581kwara": 2978,
  "\u2581regena": 2979,
  "si": 2980,
  "\u2581Galatians": 2981,
  "\u2581considering": 2982,
  "\u2581meal": 2983,
  "\u2581merely": 2984,
  "nega": 2985,
  "\u25812013": 2986,
  "\u2581DO": 2987,
  "\u2581Family": 2988,
  "\u2581Horoa": 2989,
  "\u2581aspect": 2990,
  "\u2581drink": 2991,
  "\u2581speaks": 2992,
  "\u2581weak": 2993,
  "\u2581Has": 2994,
  "\u2581acted": 2995,
  "\u2581connection": 2996,
  "\u2581hahonua": 2997,
  "\u2581hakaudia": 2998,
  "\u2581ofesi": 2999,
  "\u2581tarapu": 3000,
  "Ai": 3001,
  "\u2581Basileiana": 3002,
  "\u2581Lot": 3003,
  "\u2581amount": 3004,
  "\u2581contrary": 3005,
  "\u2581dealing": 3006,
  "\u2581garden": 3007,
  "\u2581murina": 3008,
  "\u2581translated": 3009,
  "\u2581worshipers": 3010,
  "\u258120)": 3011,
  "\u2581Christianity": 3012,
  "\u2581City": 3013,
  "\u2581STADI": 3014,
  "\u2581conventions": 3015,
  "\u2581dear": 3016,
  "\u2581expected": 3017,
  "\u2581habits": 3018,
  "\u2581letters": 3019,
  "\u2581reality": 3020,
  "\u2581rulership": 3021,
  "\u2581translation": 3022,
  "\u2581views": 3023,
  "My": 3024,
  "mamoe": 3025,
  "ww": 3026,
  "\u2581Gal": 3027,
  "\u2581Likewise": 3028,
  "\u2581Siv": 3029,
  "\u2581describes": 3030,
  "\u2581discern": 3031,
  "\u2581habadua": 3032,
  "\u2581histori": 3033,
  "\u2581occur": 3034,
  "\u2581thank": 3035,
  "\u2581145": 3036,
  "\u2581Church": 3037,
  "\u2581February": 3038,
  "\u2581Gwauraia": 3039,
  "\u2581beneficial": 3040,
  "\u2581lalomanoka": 3041,
  "\u2581lasting": 3042,
  "\u2581magazine": 3043,
  "\u2581paragraph": 3044,
  "\u2581spirituality": 3045,
  "\u2581Pentecost": 3046,
  "\u2581declare": 3047,
  "\u2581garana": 3048,
  "\u2581grew": 3049,
  "\u2581kudima": 3050,
  "\u2581listened": 3051,
  "\u2581metairametaira": 3052,
  "\u2581placed": 3053,
  "\u2581recognized": 3054,
  "\u2581sees": 3055,
  "\u258121)": 3056,
  "\u2581Messianic": 3057,
  "\u2581hakapua": 3058,
  "\u2581ihatoina": 3059,
  "\u2581social": 3060,
  "\u2581yes": 3061,
  "N": 3062,
  "\u2581bamodia": 3063,
  "\u2581cities": 3064,
  "\u2581mighty": 3065,
  "\u2581parable": 3066,
  "\u2581provision": 3067,
  "\u2581treasure": 3068,
  "\u2581Nazi": 3069,
  "\u2581Sara": 3070,
  "\u2581Teach": 3071,
  "\u2581arise": 3072,
  "\u2581constantly": 3073,
  "\u2581decide": 3074,
  "\u2581freely": 3075,
  "\u2581gathered": 3076,
  "\u2581honest": 3077,
  "\u2581powers": 3078,
  "\u2581requirements": 3079,
  "\u2581society": 3080,
  "\u2581wealth": 3081,
  "\u2581\u25c6": 3082,
  "Pentekoste": 3083,
  "mauri": 3084,
  "\u258134.": 3085,
  "\u25817]": 3086,
  "\u258180": 3087,
  "\u2581Katolik": 3088,
  "\u2581Once": 3089,
  "\u2581fearing": 3090,
  "\u2581figurative": 3091,
  "\u2581names": 3092,
  "\u2581providing": 3093,
  "\u2581reached": 3094,
  "\u2581seriously": 3095,
  "\u2581weeks": 3096,
  "Jesus": 3097,
  "sene": 3098,
  "\u2581Aaron": 3099,
  "\u2581Parents": 3100,
  "\u2581Sovereign": 3101,
  "\u2581TAUDIA": 3102,
  "\u2581assistance": 3103,
  "\u2581de": 3104,
  "\u2581determine": 3105,
  "\u2581handle": 3106,
  "\u2581hetoana": 3107,
  "\u2581major": 3108,
  "\u2581p": 3109,
  "\u2581publication": 3110,
  "\u2581reminders": 3111,
  "\u2581studied": 3112,
  "Keriso": 3113,
  "hereva": 3114,
  "\u258122)": 3115,
  "\u2581Rev": 3116,
  "\u2581don": 3117,
  "\u2581grasp": 3118,
  "\u2581murimuri": 3119,
  "\u2581naridia": 3120,
  "\u2581paradaiso": 3121,
  "\u2581patient": 3122,
  "\u2581performed": 3123,
  "\u2581reveals": 3124,
  "\u2581wish": 3125,
  "\u2581worth": 3126,
  "Keep": 3127,
  "\u2581Children": 3128,
  "\u2581Exodus": 3129,
  "\u2581Promised": 3130,
  "\u2581Work": 3131,
  "\u2581botaia": 3132,
  "\u2581cares": 3133,
  "\u2581miro": 3134,
  "\u258149": 3135,
  "\u2581Bapatiso": 3136,
  "\u2581Duahia": 3137,
  "\u2581Goada": 3138,
  "\u2581Regard": 3139,
  "\u2581hanuana": 3140,
  "\u2581lalogoada": 3141,
  "\u2581refer": 3142,
  "\u2581shared": 3143,
  "mu": 3144,
  "\u2581Bl": 3145,
  "\u2581Drama": 3146,
  "\u2581decades": 3147,
  "\u2581motivate": 3148,
  "\u2581superior": 3149,
  "hesiai": 3150,
  "\u2581Britain": 3151,
  "\u2581hagania": 3152,
  "\u2581hahedokilaia": 3153,
  "\u2581kakana": 3154,
  "\u2581music": 3155,
  "\u2581pepapepa": 3156,
  "\u2581perform": 3157,
  "\u2581sinavai": 3158,
  "he": 3159,
  "\u25811950": 3160,
  "\u2581Book": 3161,
  "\u2581courageous": 3162,
  "\u2581hurt": 3163,
  "\u2581lulua": 3164,
  "\u2581mataganigani": 3165,
  "\u2581r": 3166,
  "\u2581reminded": 3167,
  "\u2581sword": 3168,
  "\u2581united": 3169,
  "All": 3170,
  "\u2581address": 3171,
  "\u2581faiv": 3172,
  "\u2581gaukaradia": 3173,
  "\u2581hehuni": 3174,
  "\u2581hida": 3175,
  "\u2581kwadogi": 3176,
  "Hadibaia": 3177,
  "\u258131,": 3178,
  "\u2581accomplished": 3179,
  "\u2581afraid": 3180,
  "\u2581deliverance": 3181,
  "\u2581gold": 3182,
  "\u2581oromana": 3183,
  "\u2581tears": 3184,
  "\u2581writing": 3185,
  "Abata": 3186,
  "\u2581Box": 3187,
  "\u2581Siri": 3188,
  "\u2581abidia": 3189,
  "\u2581assurance": 3190,
  "\u2581concerns": 3191,
  "\u2581corrupt": 3192,
  "\u2581dangerous": 3193,
  "\u2581impressed": 3194,
  "\u2581instructions": 3195,
  "\u2581maka": 3196,
  "\u2581military": 3197,
  "\u2581qualified": 3198,
  "\u2581BIBLE": 3199,
  "\u2581bisi": 3200,
  "\u2581calling": 3201,
  "\u2581committed": 3202,
  "\u2581court": 3203,
  "\u2581cover": 3204,
  "\u2581eating": 3205,
  "\u2581inhabitants": 3206,
  "\u2581stake": 3207,
  "\u2581strengthening": 3208,
  "\u2581struggle": 3209,
  "\u2581wickedness": 3210,
  "\u2581Sekaraia": 3211,
  "\u2581adultery": 3212,
  "\u2581bogana": 3213,
  "\u2581daradaralaia": 3214,
  "\u2581focused": 3215,
  "\u2581gadaralaia": 3216,
  "\u2581gratitude": 3217,
  "\u2581hani": 3218,
  "\u2581ministeri": 3219,
  "\u2581wilderness": 3220,
  "ISH": 3221,
  "redit": 3222,
  "\u25815]": 3223,
  "\u2581Knorr": 3224,
  "\u2581Manau": 3225,
  "\u2581Namonamo": 3226,
  "\u2581drinking": 3227,
  "\u2581escape": 3228,
  "\u2581faithfulness": 3229,
  "\u2581neighbors": 3230,
  "\u2581Abel": 3231,
  "\u2581Greece": 3232,
  "\u2581Hisihisi": 3233,
  "\u2581Never": 3234,
  "\u2581Zechariah": 3235,
  "\u2581associated": 3236,
  "\u2581edeseniai": 3237,
  "\u2581gwauhamatana": 3238,
  "\u2581leads": 3239,
  "\u2581path": 3240,
  "\u2581ruler": 3241,
  "\u2581wide": 3242,
  "\u258166": 3243,
  "\u2581Credit": 3244,
  "\u2581Finally": 3245,
  "\u2581Italy": 3246,
  "\u2581Readers": 3247,
  "\u2581Two": 3248,
  "\u2581authorities": 3249,
  "\u2581daiutu": 3250,
  "\u2581eager": 3251,
  "\u2581lay": 3252,
  "\u2581manu": 3253,
  "\u2581pleased": 3254,
  "\u2581touched": 3255,
  "is": 3256,
  "\u2581Habakuku": 3257,
  "\u2581Hahediba": 3258,
  "\u2581Whe": 3259,
  "\u2581challenging": 3260,
  "\u2581differ": 3261,
  "\u2581difference": 3262,
  "\u2581moving": 3263,
  "\u2581sang": 3264,
  "\u2581serves": 3265,
  "\u2581values": 3266,
  "\u2581viewpoint": 3267,
  "great": 3268,
  "\u258153": 3269,
  "\u2581Aneru": 3270,
  "\u2581Both": 3271,
  "\u2581Cain": 3272,
  "\u2581Ko": 3273,
  "\u2581Nathan": 3274,
  "\u2581USED": 3275,
  "\u2581ark": 3276,
  "\u2581ought": 3277,
  "\u2581remains": 3278,
  "\u2581ruling": 3279,
  "\u2581talking": 3280,
  "\u2581Hesekaia": 3281,
  "\u2581demonstrated": 3282,
  "\u2581discouraged": 3283,
  "\u2581occasions": 3284,
  "\u2581throne": 3285,
  "\u2581upright": 3286,
  "\u258127.": 3287,
  "\u2581ENGL": 3288,
  "\u2581Kaino": 3289,
  "\u2581Version": 3290,
  "\u2581gone": 3291,
  "\u2581k": 3292,
  "\u2581rebellion": 3293,
  "\u2581run": 3294,
  "\u2581story": 3295,
  "\u2581treinini": 3296,
  "\u2581walked": 3297,
  "\u2581Elisaia": 3298,
  "\u2581Hebogahisi": 3299,
  "\u2581WHAT": 3300,
  "\u2581awake": 3301,
  "\u2581big": 3302,
  "\u2581car": 3303,
  "\u2581critical": 3304,
  "\u2581factors": 3305,
  "\u2581pioneering": 3306,
  "\u2581raraia": 3307,
  "\u2581satisfying": 3308,
  "\u2581sought": 3309,
  "\u2581survive": 3310,
  "\u2581Arona": 3311,
  "\u2581BH\u011f": 3312,
  "\u2581Ecclesiastes": 3313,
  "\u2581Moni": 3314,
  "\u2581Pasova": 3315,
  "\u2581blind": 3316,
  "\u2581comforting": 3317,
  "\u2581forces": 3318,
  "\u2581illustrations": 3319,
  "\u2581kopi": 3320,
  "\u2581rely": 3321,
  "\u2581selfish": 3322,
  "as": 3323,
  "\u258121]": 3324,
  "\u258144.": 3325,
  "\u2581Abela": 3326,
  "\u2581Esodo": 3327,
  "\u2581II": 3328,
  "\u2581Tract": 3329,
  "\u2581count": 3330,
  "\u2581fell": 3331,
  "\u2581ministers": 3332,
  "\u2581modest": 3333,
  "\u2581separate": 3334,
  "\u2581stick": 3335,
  "\u2581udaia": 3336,
  "\u2581Habakkuk": 3337,
  "\u2581Iosaia": 3338,
  "\u2581Kings": 3339,
  "\u2581Ladana": 3340,
  "\u2581Second": 3341,
  "\u2581YOU": 3342,
  "\u2581extend": 3343,
  "\u2581granted": 3344,
  "\u2581illness": 3345,
  "\u2581produced": 3346,
  "\u2581thousand": 3347,
  "\u258139.": 3348,
  "\u2581Amosa": 3349,
  "\u2581Hezekiah": 3350,
  "\u2581admonition": 3351,
  "\u2581chief": 3352,
  "\u2581exert": 3353,
  "\u2581glorious": 3354,
  "\u2581humbly": 3355,
  "\u2581laolao": 3356,
  "\u2581opposers": 3357,
  "\u2581pursuing": 3358,
  "\u2581umana": 3359,
  "\u2581altar": 3360,
  "\u2581ariara": 3361,
  "\u2581growing": 3362,
  "\u2581occurred": 3363,
  "\u2581organized": 3364,
  "\u2581paradaisona": 3365,
  "\u2581reasoning": 3366,
  "\u2581Sunday": 3367,
  "\u2581Tanona": 3368,
  "\u2581abundant": 3369,
  "\u2581indefinite": 3370,
  "\u2581meaningful": 3371,
  "\u2581mistakes": 3372,
  "\u2581pepa": 3373,
  "\u2581taravatuna": 3374,
  "Assembl": 3375,
  "\u2581Assembly": 3376,
  "\u2581Sad": 3377,
  "\u2581attendance": 3378,
  "\u2581conviction": 3379,
  "\u2581easier": 3380,
  "\u2581heai": 3381,
  "\u2581huria": 3382,
  "\u2581marry": 3383,
  "\u2581normal": 3384,
  "\u2581patana": 3385,
  "\u2581reports": 3386,
  "\u2581unuseni": 3387,
  "one": 3388,
  "\u2581300": 3389,
  "\u2581Aramagedono": 3390,
  "\u2581Esther": 3391,
  "\u2581appreciated": 3392,
  "\u2581details": 3393,
  "\u2581dohore": 3394,
  "\u2581indicates": 3395,
  "\u2581meamea": 3396,
  "\u2581remaining": 3397,
  "\u2581reported": 3398,
  "\u2581Gabu": 3399,
  "\u2581Kanana": 3400,
  "\u2581Ministry": 3401,
  "\u2581background": 3402,
  "\u2581chapters": 3403,
  "\u2581hebouna": 3404,
  "\u2581reaching": 3405,
  "\u2581treated": 3406,
  "There": 3407,
  "ti": 3408,
  "\u2581Armageddon": 3409,
  "\u2581Asuria": 3410,
  "\u2581Daidia": 3411,
  "\u2581Hagoadaia": 3412,
  "\u2581abundance": 3413,
  "\u2581goevana": 3414,
  "\u2581pointed": 3415,
  "\u2581sinned": 3416,
  "edia": 3417,
  "\u2581compared": 3418,
  "\u2581gorerena": 3419,
  "\u2581grown": 3420,
  "\u2581midst": 3421,
  "\u2581persecuted": 3422,
  "\u2581persons": 3423,
  "\u2581pura": 3424,
  "eit": 3425,
  "\u2581Him": 3426,
  "\u2581Malachi": 3427,
  "\u2581Toretore": 3428,
  "\u2581appears": 3429,
  "\u2581god": 3430,
  "\u2581hatred": 3431,
  "\u2581leaving": 3432,
  "\u2581palai": 3433,
  "\u2581reflected": 3434,
  "\u2581repentant": 3435,
  "\u2581sinners": 3436,
  "\u2581straight": 3437,
  "\u2581Am": 3438,
  "\u2581ESE": 3439,
  "\u2581Flood": 3440,
  "\u2581STUDY": 3441,
  "\u2581directly": 3442,
  "\u2581emotions": 3443,
  "\u2581fleshly": 3444,
  "\u2581hamaragia": 3445,
  "\u2581ideas": 3446,
  "\u2581peaceful": 3447,
  "\u2581German": 3448,
  "\u2581Un": 3449,
  "\u2581journey": 3450,
  "\u2581kuku": 3451,
  "\u2581probabl": 3452,
  "\u2581reference": 3453,
  "\u2581repentance": 3454,
  "\u2581stopped": 3455,
  "ive": 3456,
  "\u2581Elisha": 3457,
  "\u2581Malaki": 3458,
  "\u2581apparently": 3459,
  "\u2581approached": 3460,
  "\u2581arrangements": 3461,
  "\u2581believed": 3462,
  "\u2581edeseni": 3463,
  "\u2581feels": 3464,
  "\u2581heabidae": 3465,
  "\u2581mild": 3466,
  "\u2581pleas": 3467,
  "\u2581process": 3468,
  "\u2581reaction": 3469,
  "\u2581resulted": 3470,
  "\u2581severe": 3471,
  "Y": 3472,
  "\u258112]": 3473,
  "\u25811999": 3474,
  "\u258123)": 3475,
  "\u2581Biaguna": 3476,
  "\u2581HAIDA": 3477,
  "\u2581Iona": 3478,
  "\u2581Rutherford": 3479,
  "\u2581Surely": 3480,
  "\u2581burukadia": 3481,
  "\u2581hamanokaia": 3482,
  "\u2581huina": 3483,
  "\u2581inner": 3484,
  "\u2581mem": 3485,
  "\u2581pagan": 3486,
  "\u2581treatment": 3487,
  "\u2581worthy": 3488,
  "\u2581writer": 3489,
  "\u2581Amos": 3490,
  "\u2581Catholic": 3491,
  "\u2581Doing": 3492,
  "\u2581Josiah": 3493,
  "\u2581Thessalonians": 3494,
  "\u2581Vanegai": 3495,
  "\u2581begotten": 3496,
  "\u2581belong": 3497,
  "\u2581motivated": 3498,
  "\u2581render": 3499,
  "\u2581rendered": 3500,
  "\u2581sihari": 3501,
  "\u2581welcome": 3502,
  "\u2581witnesses": 3503,
  "iena": 3504,
  "\u2581Paradaiso": 3505,
  "\u2581Time": 3506,
  "\u2581cry": 3507,
  "\u2581descendants": 3508,
  "\u2581exist": 3509,
  "\u2581hadibadia": 3510,
  "\u2581hosi": 3511,
  "\u2581increased": 3512,
  "\u2581listeners": 3513,
  "\u2581lovingly": 3514,
  "\u2581panisia": 3515,
  "\u2581tribe": 3516,
  "\u2581brotherhood": 3517,
  "\u2581facts": 3518,
  "\u2581formed": 3519,
  "\u2581hate": 3520,
  "\u2581kwadogina": 3521,
  "\u2581moment": 3522,
  "\u2581proof": 3523,
  "\u2581proud": 3524,
  "\u2581successfully": 3525,
  "\u2581theocratic": 3526,
  "\u2581ITA": 3527,
  "\u2581Joel": 3528,
  "\u2581acknowledge": 3529,
  "\u2581medical": 3530,
  "\u2581national": 3531,
  "\u2581referring": 3532,
  "\u2581remarkable": 3533,
  "\u2581require": 3534,
  "\u2581rumadia": 3535,
  "\u2581ungodly": 3536,
  "\u258154": 3537,
  "\u2581appearance": 3538,
  "\u2581endured": 3539,
  "\u2581forms": 3540,
  "\u2581grief": 3541,
  "\u2581hahinedia": 3542,
  "\u2581kirikirilaia": 3543,
  "\u2581sake": 3544,
  "Ita": 3545,
  "ese": 3546,
  "\u258116]": 3547,
  "\u2581200": 3548,
  "\u2581Harihari": 3549,
  "\u2581Here": 3550,
  "\u2581advance": 3551,
  "\u2581extreme": 3552,
  "\u2581guided": 3553,
  "\u2581gurigurilaia": 3554,
  "\u2581henaohenao": 3555,
  "\u2581lata": 3556,
  "\u2581marvelous": 3557,
  "\u2581merciful": 3558,
  "\u2581pris": 3559,
  "ous": 3560,
  "\u2581JEHOVAH": 3561,
  "\u2581Maino": 3562,
  "\u2581Nations": 3563,
  "\u2581allows": 3564,
  "\u2581choices": 3565,
  "\u2581difficulties": 3566,
  "\u2581forgiving": 3567,
  "\u2581masini": 3568,
  "\u2581obtain": 3569,
  "\u2581sex": 3570,
  "\u2581significant": 3571,
  "\u2581tubudia": 3572,
  "\u2581waters": 3573,
  "How": 3574,
  "\u2581Show": 3575,
  "\u2581Worship": 3576,
  "\u2581adavadia": 3577,
  "\u2581island": 3578,
  "\u2581lagatoi": 3579,
  "\u2581maintaining": 3580,
  "\u2581mirodia": 3581,
  "\u2581sit": 3582,
  "\u2581thereafter": 3583,
  "Ieremia": 3584,
  "ty": 3585,
  "\u258124)": 3586,
  "\u2581Notice": 3587,
  "\u2581Other": 3588,
  "\u2581Passover": 3589,
  "\u2581anxious": 3590,
  "\u2581behavior": 3591,
  "\u2581deaf": 3592,
  "\u2581hagaria": 3593,
  "\u2581pre": 3594,
  "\u2581pulisi": 3595,
  "\u2581secure": 3596,
  "\u2581tadikakana": 3597,
  "\u2581HEREVA": 3598,
  "\u2581Jonah": 3599,
  "\u2581additional": 3600,
  "\u2581assignments": 3601,
  "\u2581describe": 3602,
  "\u2581injustice": 3603,
  "\u2581outcome": 3604,
  "\u2581patiently": 3605,
  "\u2581recall": 3606,
  "\u2581recreation": 3607,
  "\u2581taria": 3608,
  "\u2581trouble": 3609,
  "\u258172": 3610,
  "\u258173": 3611,
  "\u2581Davaria": 3612,
  "\u2581abilities": 3613,
  "\u2581commit": 3614,
  "\u2581couples": 3615,
  "\u2581displayed": 3616,
  "\u2581fit": 3617,
  "\u2581fornication": 3618,
  "\u2581invisible": 3619,
  "\u2581m": 3620,
  "\u2581non": 3621,
  "\u2581preced": 3622,
  "\u2581Efe": 3623,
  "\u2581Go": 3624,
  "\u2581ava": 3625,
  "\u2581hasiahua": 3626,
  "\u2581heavy": 3627,
  "\u2581keru": 3628,
  "\u2581kompiuta": 3629,
  "\u2581relations": 3630,
  "\u2581violent": 3631,
  "ikol": 3632,
  "\u2581East": 3633,
  "\u2581George": 3634,
  "\u2581Upon": 3635,
  "\u2581arranged": 3636,
  "\u2581finding": 3637,
  "\u2581mention": 3638,
  "\u2581possessions": 3639,
  "\u2581rarana": 3640,
  "k": 3641,
  "\u2581Learn": 3642,
  "\u2581Trac": 3643,
  "\u2581alcohol": 3644,
  "\u2581belongs": 3645,
  "\u2581community": 3646,
  "\u2581fitting": 3647,
  "\u2581highly": 3648,
  "\u2581lying": 3649,
  "\u2581quoted": 3650,
  "\u2581replied": 3651,
  "\u2581royal": 3652,
  "\u2581shed": 3653,
  "\u2581sivarailaia": 3654,
  "\u2581union": 3655,
  "day": 3656,
  "egerege": 3657,
  "\u2581Aberamo": 3658,
  "\u2581Arena": 3659,
  "\u2581Kohu": 3660,
  "\u2581abuse": 3661,
  "\u2581acting": 3662,
  "\u2581company": 3663,
  "\u2581conflict": 3664,
  "\u2581dress": 3665,
  "\u2581exercising": 3666,
  "\u2581firmly": 3667,
  "\u2581hamasedia": 3668,
  "\u2581numerous": 3669,
  "\u2581refuse": 3670,
  "\u2581released": 3671,
  "\u2581sleep": 3672,
  "\u2581solid": 3673,
  "\u2581standard": 3674,
  "\u2581Bukadia": 3675,
  "\u2581Gospels": 3676,
  "\u2581Sina": 3677,
  "\u2581Titus": 3678,
  "\u2581Vaira": 3679,
  "\u2581approved": 3680,
  "\u2581excellent": 3681,
  "\u2581limitations": 3682,
  "\u2581lowly": 3683,
  "\u2581methods": 3684,
  "\u2581represented": 3685,
  "\u2581rise": 3686,
  "\u2581sacrificing": 3687,
  "\u2581slow": 3688,
  "\u2581song": 3689,
  "\u2581stress": 3690,
  "\u2581task": 3691,
  "\u2581unclean": 3692,
  "\u2581upbuilding": 3693,
  "\u2581vast": 3694,
  "\u2581visiting": 3695,
  "other": 3696,
  "\u2581Ahaba": 3697,
  "\u2581Heduru": 3698,
  "\u2581Poland": 3699,
  "\u2581career": 3700,
  "\u2581drama": 3701,
  "\u2581environment": 3702,
  "\u2581guri": 3703,
  "\u2581influenced": 3704,
  "\u2581international": 3705,
  "\u2581model": 3706,
  "\u2581readily": 3707,
  "Namona": 3708,
  "keep": 3709,
  "\u258183": 3710,
  "\u2581Biblical": 3711,
  "\u2581balanced": 3712,
  "\u2581camp": 3713,
  "\u2581glorify": 3714,
  "\u2581haria": 3715,
  "\u2581kill": 3716,
  "\u2581meditation": 3717,
  "\u2581physically": 3718,
  "\u2581rightly": 3719,
  "\u2581saut": 3720,
  "\u2581spe": 3721,
  "\u2581supported": 3722,
  "\u2581taia": 3723,
  "\u2581tempted": 3724,
  "\u2581white": 3725,
  "dina": 3726,
  "\u258136.": 3727,
  "\u2581Halls": 3728,
  "\u2581Jonathan": 3729,
  "\u2581Spain": 3730,
  "\u2581TV": 3731,
  "\u2581advancement": 3732,
  "\u2581assembly": 3733,
  "\u2581associate": 3734,
  "\u2581benefited": 3735,
  "\u2581copy": 3736,
  "\u2581designed": 3737,
  "\u2581inclined": 3738,
  "\u2581ladanai": 3739,
  "\u2581lista": 3740,
  "\u2581pressures": 3741,
  "for": 3742,
  "\u2581French": 3743,
  "\u2581LAGANI": 3744,
  "\u2581apart": 3745,
  "\u2581exactly": 3746,
  "\u2581facing": 3747,
  "\u2581financial": 3748,
  "\u2581gathering": 3749,
  "\u2581healthy": 3750,
  "\u2581involv": 3751,
  "\u2581moves": 3752,
  "\u2581offers": 3753,
  "\u2581oho": 3754,
  "\u2581research": 3755,
  "\u2581rulers": 3756,
  "\u2581silver": 3757,
  "\u2581103": 3758,
  "\u2581Helagadia": 3759,
  "\u2581begins": 3760,
  "\u2581compare": 3761,
  "\u2581dignity": 3762,
  "\u2581dwelling": 3763,
  "\u2581g": 3764,
  "\u2581med": 3765,
  "\u2581pepana": 3766,
  "\u2581stood": 3767,
  "\u2581wain": 3768,
  "\u2581Chronicles": 3769,
  "\u2581Day": 3770,
  "\u2581Ephesus": 3771,
  "\u2581Hahelaga": 3772,
  "\u2581Histori": 3773,
  "\u2581Lalo": 3774,
  "\u2581Master": 3775,
  "\u2581adorahi": 3776,
  "\u2581discernment": 3777,
  "\u2581entitled": 3778,
  "\u2581generation": 3779,
  "\u2581herself": 3780,
  "\u2581kiri": 3781,
  "\u2581motives": 3782,
  "\u2581review": 3783,
  "\u2581saiens": 3784,
  "\u2581village": 3785,
  "\u2581weaknesses": 3786,
  "As": 3787,
  "\u2581Abram": 3788,
  "\u2581Illustrate": 3789,
  "\u2581Sepanaia": 3790,
  "\u2581Vara": 3791,
  "\u2581abandoned": 3792,
  "\u2581abata": 3793,
  "\u2581armies": 3794,
  "\u2581associates": 3795,
  "\u2581global": 3796,
  "\u2581identified": 3797,
  "\u2581inhabited": 3798,
  "\u2581makaia": 3799,
  "\u2581oil": 3800,
  "\u2581properly": 3801,
  "\u2581risk": 3802,
  "\u2581vanegai": 3803,
  "iemai": 3804,
  "\u258152": 3805,
  "\u2581607": 3806,
  "\u2581Had": 3807,
  "\u2581London": 3808,
  "\u2581cost": 3809,
  "\u2581drag": 3810,
  "\u2581impossible": 3811,
  "\u2581re": 3812,
  "\u2581souls": 3813,
  "\u2581tribes": 3814,
  "\u2581turning": 3815,
  "Be": 3816,
  "Had": 3817,
  "ma": 3818,
  "\u2581Ane": 3819,
  "\u2581Eph": 3820,
  "\u2581Mother": 3821,
  "\u2581Service": 3822,
  "\u2581audience": 3823,
  "\u2581concluded": 3824,
  "\u2581employment": 3825,
  "\u2581idolatry": 3826,
  "\u2581literal": 3827,
  "\u2581matamana": 3828,
  "\u258161": 3829,
  "\u2581Eseta": 3830,
  "\u2581Following": 3831,
  "\u2581alert": 3832,
  "\u2581attitudes": 3833,
  "\u2581babalau": 3834,
  "\u2581bae": 3835,
  "\u2581construction": 3836,
  "\u2581distrik": 3837,
  "\u2581edukeisen": 3838,
  "\u2581familiar": 3839,
  "\u2581modesty": 3840,
  "\u2581obeying": 3841,
  "\u2581relate": 3842,
  "\u2581remnant": 3843,
  "\u2581repeatedly": 3844,
  "\u2581rules": 3845,
  "\u2581safeguard": 3846,
  "\u2581temporary": 3847,
  "\u2581tests": 3848,
  "with": 3849,
  "\u25812,000": 3850,
  "\u2581Tamona": 3851,
  "\u2581accepting": 3852,
  "\u2581belief": 3853,
  "\u2581ill": 3854,
  "\u2581possession": 3855,
  "\u2581reign": 3856,
  "\u2581trusted": 3857,
  "\u2581useful": 3858,
  "\u2581visits": 3859,
  "\u2581worse": 3860,
  "\u258128]": 3861,
  "\u2581Wik": 3862,
  "\u2581dwell": 3863,
  "\u2581effects": 3864,
  "\u2581entrusted": 3865,
  "\u2581magazines": 3866,
  "\u2581meditating": 3867,
  "\u2581noticed": 3868,
  "\u2581potential": 3869,
  "\u2581sickness": 3870,
  "\u2581sustain": 3871,
  "\u2581unrighteous": 3872,
  "\u2581vaia": 3873,
  "Deu": 3874,
  "Hari": 3875,
  "\u2581Ahab": 3876,
  "\u2581Davara": 3877,
  "\u2581Hannah": 3878,
  "\u2581Orea": 3879,
  "\u2581Zephaniah": 3880,
  "\u2581fast": 3881,
  "\u2581hatamonaia": 3882,
  "\u2581instructed": 3883,
  "\u2581none": 3884,
  "\u2581orena": 3885,
  "\u2581remove": 3886,
  "\u2581writings": 3887,
  "rb": 3888,
  "\u2581American": 3889,
  "\u2581Blu": 3890,
  "\u2581Lalohadai": 3891,
  "\u2581Revarevadia": 3892,
  "\u2581confront": 3893,
  "\u2581drawing": 3894,
  "\u2581foundation": 3895,
  "\u2581generous": 3896,
  "\u2581identity": 3897,
  "\u2581maturity": 3898,
  "\u2581notes": 3899,
  "\u2581season": 3900,
  "\u2581supply": 3901,
  "\u2581120": 3902,
  "\u2581Gado": 3903,
  "\u2581Hana": 3904,
  "\u2581balance": 3905,
  "\u2581gaigai": 3906,
  "\u2581happens": 3907,
  "\u2581mountains": 3908,
  "\u2581niuspepa": 3909,
  "\u2581troubled": 3910,
  "\u2581uiti": 3911,
  "\u2581victory": 3912,
  "\u258147": 3913,
  "\u2581Corinth": 3914,
  "\u2581Name": 3915,
  "\u2581Shortly": 3916,
  "\u2581asks": 3917,
  "\u2581buy": 3918,
  "\u2581encourages": 3919,
  "\u2581error": 3920,
  "\u2581gradually": 3921,
  "\u2581hagegea": 3922,
  "\u2581hundreds": 3923,
  "\u2581madi": 3924,
  "\u2581pornography": 3925,
  "\u2581restored": 3926,
  "\u2581spot": 3927,
  "Look": 3928,
  "man": 3929,
  "\u2581Committee": 3930,
  "\u2581Galilea": 3931,
  "\u2581Sometimes": 3932,
  "\u2581atodia": 3933,
  "\u2581commands": 3934,
  "\u2581divorce": 3935,
  "\u2581exists": 3936,
  "\u2581holding": 3937,
  "\u2581nanigosi": 3938,
  "\u2581plans": 3939,
  "\u2581surprise": 3940,
  "\u2581treasures": 3941,
  "\u2581turia": 3942,
  "T": 3943,
  "They": 3944,
  "le": 3945,
  "will": 3946,
  "\u2581Every": 3947,
  "\u2581disease": 3948,
  "\u2581kontraka": 3949,
  "\u2581load": 3950,
  "\u2581mareremarere": 3951,
  "\u2581nine": 3952,
  "\u2581regu": 3953,
  "\u2581siliva": 3954,
  "\u2581soldiers": 3955,
  "\u2581trusting": 3956,
  "\u2581tulu": 3957,
  "\u2581unbeliev": 3958,
  "\u2581vidio": 3959,
  "\u2581wrongdoing": 3960,
  "Daniela": 3961,
  "\u2581Charles": 3962,
  "\u2581Gari": 3963,
  "\u2581Lo": 3964,
  "\u2581Tito": 3965,
  "\u2581Unlike": 3966,
  "\u2581angry": 3967,
  "\u2581conversations": 3968,
  "\u2581firstborn": 3969,
  "\u2581invite": 3970,
  "\u2581kohudia": 3971,
  "\u2581pablik": 3972,
  "\u2581paragraphs": 3973,
  "\u2581percent": 3974,
  "\u2581sad": 3975,
  "\u2581songs": 3976,
  "\u2581subjection": 3977,
  "\u2581terms": 3978,
  "\u2581Happy": 3979,
  "\u2581Levitiko": 3980,
  "\u2581apost": 3981,
  "\u2581bero": 3982,
  "\u2581bilioni": 3983,
  "\u2581causing": 3984,
  "\u2581companion": 3985,
  "\u2581dream": 3986,
  "\u2581glad": 3987,
  "\u2581governments": 3988,
  "\u2581hakoikoia": 3989,
  "\u2581hepapahuahulaia": 3990,
  "\u2581limit": 3991,
  "\u2581majority": 3992,
  "\u2581natu": 3993,
  "\u2581passing": 3994,
  "\u2581recently": 3995,
  "\u2581scripture": 3996,
  "\u2581series": 3997,
  "\u2581wrath": 3998,
  "D": 3999,
  "Gau": 4000,
  "\u258119]": 4001,
  "\u25812001": 4002,
  "\u2581Bala": 4003,
  "\u2581DAHAKA": 4004,
  "\u2581Elihu": 4005,
  "\u2581Kudouna": 4006,
  "\u2581Mar": 4007,
  "\u2581economic": 4008,
  "\u2581miraculous": 4009,
  "\u2581private": 4010,
  "\u2581suggestions": 4011,
  "\u2581Anna": 4012,
  "\u2581Martha": 4013,
  "\u2581SAL": 4014,
  "\u2581Zion": 4015,
  "\u2581calamity": 4016,
  "\u2581date": 4017,
  "\u2581ended": 4018,
  "\u2581gather": 4019,
  "\u2581ima": 4020,
  "\u2581muvi": 4021,
  "\u2581recalls": 4022,
  "\u2581religions": 4023,
  "\u2581root": 4024,
  "\u2581scene": 4025,
  "\u2581wind": 4026,
  "\u2581zealously": 4027,
  "gau": 4028,
  "\u2581Haheauka": 4029,
  "\u2581IS": 4030,
  "\u2581Jordan": 4031,
  "\u2581Kongregesen": 4032,
  "\u2581Levites": 4033,
  "\u2581Man": 4034,
  "\u2581Way": 4035,
  "\u2581abandon": 4036,
  "\u2581baine": 4037,
  "\u2581biagudia": 4038,
  "\u2581brief": 4039,
  "\u2581corruption": 4040,
  "\u2581finish": 4041,
  "\u2581gabedia": 4042,
  "\u2581hamauridia": 4043,
  "\u2581resources": 4044,
  "\u2581routine": 4045,
  "\u258129)": 4046,
  "\u2581Scripture": 4047,
  "\u2581accord": 4048,
  "\u2581applies": 4049,
  "\u2581burukana": 4050,
  "\u2581causes": 4051,
  "\u2581district": 4052,
  "\u2581meek": 4053,
  "\u2581official": 4054,
  "\u2581otherwise": 4055,
  "\u2581quick": 4056,
  "\u2581surprised": 4057,
  "\u2581Lou": 4058,
  "\u2581adjustments": 4059,
  "\u2581affairs": 4060,
  "\u2581air": 4061,
  "\u2581attacks": 4062,
  "\u2581baby": 4063,
  "\u2581campaign": 4064,
  "\u2581ekalesia": 4065,
  "\u2581gabudiai": 4066,
  "\u2581householder": 4067,
  "\u2581preparing": 4068,
  "\u2581preserve": 4069,
  "\u2581significance": 4070,
  "\u2581tendency": 4071,
  "\u2581wheat": 4072,
  "\u2581writes": 4073,
  "\u258125)": 4074,
  "\u2581Answered": 4075,
  "\u2581Its": 4076,
  "\u2581Ohio": 4077,
  "\u2581Out": 4078,
  "\u2581geia": 4079,
  "\u2581inherit": 4080,
  "\u2581leta": 4081,
  "\u2581perfection": 4082,
  "\u2581prize": 4083,
  "\u2581refreshing": 4084,
  "\u2581relationships": 4085,
  "\u2581shine": 4086,
  "\u2581variety": 4087,
  "\u2581welfare": 4088,
  "guba": 4089,
  "ver": 4090,
  "\u2581500": 4091,
  "\u2581BONA": 4092,
  "\u2581Dr": 4093,
  "\u2581Granted": 4094,
  "\u2581bodies": 4095,
  "\u2581declaring": 4096,
  "\u2581higher": 4097,
  "\u2581hospitality": 4098,
  "\u2581sorts": 4099,
  "\u2581trip": 4100,
  "ish": 4101,
  "\u25818]": 4102,
  "\u2581Galilee": 4103,
  "\u2581MAURI": 4104,
  "\u2581Ororona": 4105,
  "\u2581commandment": 4106,
  "\u2581flee": 4107,
  "\u2581imperfection": 4108,
  "\u2581maumauraia": 4109,
  "\u2581possess": 4110,
  "\u2581region": 4111,
  "\u2581Lessons": 4112,
  "\u2581Peace": 4113,
  "\u2581Rahaba": 4114,
  "\u2581State": 4115,
  "\u2581choosing": 4116,
  "\u2581constant": 4117,
  "\u2581enduring": 4118,
  "\u2581features": 4119,
  "\u2581hidden": 4120,
  "\u2581laid": 4121,
  "\u2581list": 4122,
  "\u2581newly": 4123,
  "\u2581protected": 4124,
  "\u2581spirits": 4125,
  "\u2581stone": 4126,
  "\u2581store": 4127,
  "Ier": 4128,
  "ful": 4129,
  "\u2581Baal": 4130,
  "\u2581Judea": 4131,
  "\u2581Lamb": 4132,
  "\u2581Latin": 4133,
  "\u2581enjoying": 4134,
  "\u2581initiative": 4135,
  "\u2581paid": 4136,
  "\u2581peleini": 4137,
  "\u2581possibly": 4138,
  "\u2581release": 4139,
  "\u2581resolved": 4140,
  "\u2581signs": 4141,
  "\u2581wisely": 4142,
  "00": 4143,
  "ation": 4144,
  "drew": 4145,
  "\u258142.": 4146,
  "\u2581Ana": 4147,
  "\u2581Eventually": 4148,
  "\u2581Hahetoho": 4149,
  "\u2581Heart": 4150,
  "\u2581Spiritual": 4151,
  "\u2581abitorehai": 4152,
  "\u2581acquire": 4153,
  "\u2581comment": 4154,
  "\u2581communicate": 4155,
  "\u2581courageously": 4156,
  "\u2581devoted": 4157,
  "\u2581differences": 4158,
  "\u2581extended": 4159,
  "\u2581ladadia": 4160,
  "\u2581likened": 4161,
  "\u2581paying": 4162,
  "\u2581ponografi": 4163,
  "\u2581primarily": 4164,
  "\u2581removed": 4165,
  "\u2581rewarded": 4166,
  "\u2581struck": 4167,
  "\u2581t": 4168,
  "\u2581torture": 4169,
  "\u2581trees": 4170,
  "\u2581wild": 4171,
  "Basileia": 4172,
  "by": 4173,
  "inai": 4174,
  "no": 4175,
  "\u2581Bukana": 4176,
  "\u2581Dan": 4177,
  "\u2581FOR": 4178,
  "\u2581Lalona": 4179,
  "\u2581adjust": 4180,
  "\u2581appeal": 4181,
  "\u2581attain": 4182,
  "\u2581boldness": 4183,
  "\u2581center": 4184,
  "\u2581conscious": 4185,
  "\u2581grand": 4186,
  "\u2581gwauraidia": 4187,
  "\u2581hel": 4188,
  "\u2581ignore": 4189,
  "\u2581miracles": 4190,
  "\u2581ofesa": 4191,
  "\u2581pesen": 4192,
  "\u2581rights": 4193,
  "\u2581ruin": 4194,
  "\u2581scholar": 4195,
  "\u2581traits": 4196,
  "\u2581weakness": 4197,
  "Tanobada": 4198,
  "\u2581Hebouhebou": 4199,
  "\u2581Paris": 4200,
  "\u2581culture": 4201,
  "\u2581eagerly": 4202,
  "\u2581houses": 4203,
  "\u2581lebulebu": 4204,
  "\u2581patriarch": 4205,
  "\u2581prominent": 4206,
  "\u2581promotes": 4207,
  "\u2581pursuits": 4208,
  "\u2581stars": 4209,
  "\u2581thankful": 4210,
  "\u2581uda": 4211,
  "\u2581worldly": 4212,
  "his": 4213,
  "\u2581Badadia": 4214,
  "\u2581Grand": 4215,
  "\u2581North": 4216,
  "\u2581dubuna": 4217,
  "\u2581earnestly": 4218,
  "\u2581harmful": 4219,
  "\u2581hundred": 4220,
  "\u2581inherited": 4221,
  "\u2581kwatua": 4222,
  "\u2581proclaimers": 4223,
  "\u2581serpent": 4224,
  "\u2581sori": 4225,
  "\u2581total": 4226,
  "\u2581urgency": 4227,
  "\u2581wholesome": 4228,
  "\u2581wondered": 4229,
  "hekwarahilaia": 4230,
  "point": 4231,
  "\u2581Almighty": 4232,
  "\u2581Concern": 4233,
  "\u2581Ti": 4234,
  "\u2581basileiana": 4235,
  "\u2581broke": 4236,
  "\u2581conquer": 4237,
  "\u2581intense": 4238,
  "\u2581moalena": 4239,
  "\u2581morally": 4240,
  "\u2581observing": 4241,
  "\u2581sat": 4242,
  "\u2581soil": 4243,
  "\u2581win": 4244,
  "\u2581worker": 4245,
  "ers": 4246,
  "\u25811918": 4247,
  "\u258156": 4248,
  "\u2581AMO": 4249,
  "\u2581Ataiai": 4250,
  "\u2581Congregation": 4251,
  "\u2581Gideon": 4252,
  "\u2581India": 4253,
  "\u2581Iudea": 4254,
  "\u2581Philip": 4255,
  "\u2581Source": 4256,
  "\u2581across": 4257,
  "\u2581brochure": 4258,
  "\u2581context": 4259,
  "\u2581copies": 4260,
  "\u2581create": 4261,
  "\u2581dangers": 4262,
  "\u2581depends": 4263,
  "\u2581disaster": 4264,
  "\u2581execution": 4265,
  "\u2581mates": 4266,
  "\u2581pablikeisen": 4267,
  "\u2581property": 4268,
  "\u2581qualify": 4269,
  "\u2581reproach": 4270,
  "\u2581safe": 4271,
  "\u2581siks": 4272,
  "\u2581submit": 4273,
  "\u2581talks": 4274,
  "\u2581willingness": 4275,
  "ne": 4276,
  "\u258128)": 4277,
  "\u258132,": 4278,
  "\u258140.": 4279,
  "\u2581IESU": 4280,
  "\u2581Madi": 4281,
  "\u2581Me": 4282,
  "\u2581Michael": 4283,
  "\u2581Nineva": 4284,
  "\u2581Yearbook": 4285,
  "\u2581beauty": 4286,
  "\u2581believing": 4287,
  "\u2581customs": 4288,
  "\u2581ears": 4289,
  "\u2581hahekwakwanaia": 4290,
  "\u2581healing": 4291,
  "\u2581senses": 4292,
  "\u2581shortly": 4293,
  "\u2581speaker": 4294,
  "\u2581tabernacle": 4295,
  "Ena": 4296,
  "M": 4297,
  "da": 4298,
  "ermon": 4299,
  "kau": 4300,
  "not": 4301,
  "unai": 4302,
  "\u2581COVER": 4303,
  "\u2581Elders": 4304,
  "\u2581Ex": 4305,
  "\u2581Grik": 4306,
  "\u2581Hahenamo": 4307,
  "\u2581Hamauria": 4308,
  "\u2581Iam": 4309,
  "\u2581Inc": 4310,
  "\u2581conducted": 4311,
  "\u2581degree": 4312,
  "\u2581failure": 4313,
  "\u2581goadadia": 4314,
  "\u2581literally": 4315,
  "\u2581oredia": 4316,
  "\u2581painful": 4317,
  "\u2581pleasant": 4318,
  "\u2581rosia": 4319,
  "\u2581sayings": 4320,
  "\u2581writers": 4321,
  "disfellowshipped": 4322,
  "our": 4323,
  "\u2581Neganai": 4324,
  "\u2581abroad": 4325,
  "\u2581agreed": 4326,
  "\u2581clergy": 4327,
  "\u2581empty": 4328,
  "\u2581governing": 4329,
  "\u2581leader": 4330,
  "\u2581lips": 4331,
  "\u2581privileged": 4332,
  "\u2581residents": 4333,
  "\u2581tadikakadia": 4334,
  "\u2581vow": 4335,
  "Israela": 4336,
  "\u25813,000": 4337,
  "\u258131)": 4338,
  "\u2581Ave": 4339,
  "\u2581Ezra": 4340,
  "\u2581Stephen": 4341,
  "\u2581Truth": 4342,
  "\u2581anedia": 4343,
  "\u2581bodaga": 4344,
  "\u2581clothing": 4345,
  "\u2581content": 4346,
  "\u2581custom": 4347,
  "\u2581discovered": 4348,
  "\u2581divided": 4349,
  "\u2581encounter": 4350,
  "\u2581engag": 4351,
  "\u2581hardships": 4352,
  "\u2581lifestyle": 4353,
  "\u2581nearby": 4354,
  "\u2581peaceable": 4355,
  "\u2581poverty": 4356,
  "\u2581printed": 4357,
  "\u2581repent": 4358,
  "\u2581rogorogo": 4359,
  "\u2581skills": 4360,
  "\u2581stayed": 4361,
  "\u2581tomadihona": 4362,
  "\u2581universal": 4363,
  "\u2581utmost": 4364,
  "\u2581wars": 4365,
  "\u2581wipe": 4366,
  "p": 4367,
  "urb": 4368,
  "\u2581ARTICLES": 4369,
  "\u2581Court": 4370,
  "\u2581Earth": 4371,
  "\u2581Gold": 4372,
  "\u2581Hanuaboi": 4373,
  "\u2581Ionatana": 4374,
  "\u2581Leader": 4375,
  "\u2581Leviticus": 4376,
  "\u2581ba": 4377,
  "\u2581bitter": 4378,
  "\u2581cared": 4379,
  "\u2581depend": 4380,
  "\u2581earnest": 4381,
  "\u2581expand": 4382,
  "\u2581expects": 4383,
  "\u2581exposed": 4384,
  "\u2581foolish": 4385,
  "\u2581hadiaria": 4386,
  "\u2581hamorua": 4387,
  "\u2581hatubua": 4388,
  "\u2581idibana": 4389,
  "\u2581innocent": 4390,
  "\u2581j": 4391,
  "\u2581loyally": 4392,
  "\u2581matakepulu": 4393,
  "\u2581motive": 4394,
  "\u2581partner": 4395,
  "\u2581rewarding": 4396,
  "\u2581sets": 4397,
  "\u2581ti": 4398,
  "\u2581urges": 4399,
  "\u2581volantia": 4400,
  "Hereva": 4401,
  "go": 4402,
  "\u258197": 4403,
  "\u2581Banaba": 4404,
  "\u2581Gabuna": 4405,
  "\u2581Making": 4406,
  "\u2581beast": 4407,
  "\u2581belongings": 4408,
  "\u2581damage": 4409,
  "\u2581distance": 4410,
  "\u2581expectation": 4411,
  "\u2581finds": 4412,
  "\u2581hoihoi": 4413,
  "\u2581joyfully": 4414,
  "\u2581kone": 4415,
  "\u2581ori": 4416,
  "\u2581piksa": 4417,
  "\u2581seventh": 4418,
  "\u2581slavery": 4419,
  "\u2581uphold": 4420,
  "\u2581warns": 4421,
  "\u258111]": 4422,
  "\u2581Dadaraia": 4423,
  "\u2581Gavamani": 4424,
  "\u2581Koikoi": 4425,
  "\u2581Lasaro": 4426,
  "\u2581Ur": 4427,
  "\u2581aksiden": 4428,
  "\u2581audia": 4429,
  "\u2581burden": 4430,
  "\u2581burn": 4431,
  "\u2581depth": 4432,
  "\u2581doctor": 4433,
  "\u2581establish": 4434,
  "\u2581finished": 4435,
  "\u2581hanuadia": 4436,
  "\u2581kahu": 4437,
  "\u2581kurokuro": 4438,
  "\u2581mo": 4439,
  "\u2581objective": 4440,
  "\u2581obstacles": 4441,
  "\u2581offerings": 4442,
  "\u2581played": 4443,
  "\u2581rain": 4444,
  "\u2581searching": 4445,
  "Iena": 4446,
  "hisihisi": 4447,
  "side": 4448,
  "\u2581Pilato": 4449,
  "\u2581Toretoredia": 4450,
  "\u2581accompany": 4451,
  "\u2581calm": 4452,
  "\u2581defend": 4453,
  "\u2581gagae": 4454,
  "\u2581gori": 4455,
  "\u2581heagi": 4456,
  "\u2581matanai": 4457,
  "\u2581plan": 4458,
  "\u2581raising": 4459,
  "\u2581reliable": 4460,
  "\u2581reputation": 4461,
  "\u2581silent": 4462,
  "\u2581singing": 4463,
  "\u2581terona": 4464,
  "\u25812003": 4465,
  "\u258132]": 4466,
  "\u258158": 4467,
  "\u2581Pilistia": 4468,
  "\u2581Things": 4469,
  "\u2581absorb": 4470,
  "\u2581attempt": 4471,
  "\u2581crowds": 4472,
  "\u2581delighted": 4473,
  "\u2581developing": 4474,
  "\u2581fundamental": 4475,
  "\u2581gwarume": 4476,
  "\u2581haheitalaia": 4477,
  "\u2581marked": 4478,
  "\u2581miraculously": 4479,
  "\u2581proceeded": 4480,
  "\u2581reap": 4481,
  "\u2581symbolic": 4482,
  "but": 4483,
  "laloa": 4484,
  "ry": 4485,
  "\u2581110": 4486,
  "\u2581LAU": 4487,
  "\u2581Lazarus": 4488,
  "\u2581Prayer": 4489,
  "\u2581Tohotohoa": 4490,
  "\u2581completed": 4491,
  "\u2581dibagania": 4492,
  "\u2581east": 4493,
  "\u2581feature": 4494,
  "\u2581intended": 4495,
  "\u2581miracle": 4496,
  "\u2581officials": 4497,
  "\u2581temptations": 4498,
  "\u2581threatened": 4499,
  "900": 4500,
  "tauanina": 4501,
  "te": 4502,
  "\u25812014": 4503,
  "\u258157": 4504,
  "\u2581Gideona": 4505,
  "\u2581Karen": 4506,
  "\u2581Kora": 4507,
  "\u2581Parasa": 4508,
  "\u2581Rahab": 4509,
  "\u2581Reflect": 4510,
  "\u2581Tauanina": 4511,
  "\u2581William": 4512,
  "\u2581acquainted": 4513,
  "\u2581add": 4514,
  "\u2581adopt": 4515,
  "\u2581bound": 4516,
  "\u2581cast": 4517,
  "\u2581caught": 4518,
  "\u2581detail": 4519,
  "\u2581distant": 4520,
  "\u2581highlights": 4521,
  "\u2581kapusi": 4522,
  "\u2581listed": 4523,
  "\u2581lovers": 4524,
  "\u2581male": 4525,
  "\u2581mine": 4526,
  "\u2581permanent": 4527,
  "\u2581prais": 4528,
  "\u2581principal": 4529,
  "\u2581punishment": 4530,
  "\u2581pursuit": 4531,
  "\u2581rini": 4532,
  "\u2581surrounded": 4533,
  "\u2581telefon": 4534,
  "\u2581tired": 4535,
  "\u2581touch": 4536,
  "ary": 4537,
  "ion": 4538,
  "ment": 4539,
  "\u258126)": 4540,
  "\u258127)": 4541,
  "\u258191": 4542,
  "\u2581Davana": 4543,
  "\u2581Esera": 4544,
  "\u2581Fili": 4545,
  "\u2581Ioridane": 4546,
  "\u2581Phil": 4547,
  "\u2581Sanhedrin": 4548,
  "\u2581Spanish": 4549,
  "\u2581Toi": 4550,
  "\u2581aged": 4551,
  "\u2581commendation": 4552,
  "\u2581compassionate": 4553,
  "\u2581doubts": 4554,
  "\u2581exciting": 4555,
  "\u2581fallen": 4556,
  "\u2581gained": 4557,
  "\u2581habit": 4558,
  "\u2581marital": 4559,
  "\u2581ranuna": 4560,
  "\u2581represents": 4561,
  "\u2581takisi": 4562,
  "Badina": 4563,
  "\u258131]": 4564,
  "\u2581Bren": 4565,
  "\u2581Buruka": 4566,
  "\u2581Gorere": 4567,
  "\u2581Karadia": 4568,
  "\u2581Komiti": 4569,
  "\u2581NWT": 4570,
  "\u2581Origen": 4571,
  "\u2581approaching": 4572,
  "\u2581churches": 4573,
  "\u2581cold": 4574,
  "\u2581description": 4575,
  "\u2581disobedience": 4576,
  "\u2581foot": 4577,
  "\u2581headquarters": 4578,
  "\u2581heads": 4579,
  "\u2581influences": 4580,
  "\u2581kariota": 4581,
  "\u2581kau": 4582,
  "\u2581police": 4583,
  "\u2581priority": 4584,
  "\u2581returning": 4585,
  "\u2581schedule": 4586,
  "\u2581warnings": 4587,
  "\u2581yoke": 4588,
  "Go": 4589,
  "Your": 4590,
  "\u2581THIS": 4591,
  "\u2581assemblies": 4592,
  "\u2581believer": 4593,
  "\u2581bow": 4594,
  "\u2581burning": 4595,
  "\u2581capital": 4596,
  "\u2581effectively": 4597,
  "\u2581ginigini": 4598,
  "\u2581lokua": 4599,
  "\u2581manifested": 4600,
  "\u2581opposite": 4601,
  "\u2581profound": 4602,
  "\u2581regret": 4603,
  "\u2581rescue": 4604,
  "\u2581strangers": 4605,
  "\u2581widows": 4606,
  "\u2581104": 4607,
  "\u2581150": 4608,
  "\u2581DIRAVA": 4609,
  "\u2581Long": 4610,
  "\u2581West": 4611,
  "\u2581acknowledged": 4612,
  "\u2581atai": 4613,
  "\u2581bed": 4614,
  "\u2581contain": 4615,
  "\u2581covered": 4616,
  "\u2581cultivating": 4617,
  "\u2581friendships": 4618,
  "\u2581increasing": 4619,
  "\u2581observes": 4620,
  "\u2581publicly": 4621,
  "\u2581satisfied": 4622,
  "\u2581tested": 4623,
  "\u2581thanks": 4624,
  "\u2581visible": 4625,
  "ton": 4626,
  "\u25811930": 4627,
  "\u258186": 4628,
  "\u2581Jas": 4629,
  "\u2581Ten": 4630,
  "\u2581V": 4631,
  "\u2581application": 4632,
  "\u2581covering": 4633,
  "\u2581desirable": 4634,
  "\u2581factor": 4635,
  "\u2581grain": 4636,
  "\u2581guilty": 4637,
  "\u2581heatu": 4638,
  "\u2581judges": 4639,
  "\u2581kamonaia": 4640,
  "\u2581miss": 4641,
  "\u2581mistake": 4642,
  "\u2581momoru": 4643,
  "\u2581northern": 4644,
  "\u2581priesthood": 4645,
  "\u2581spouse": 4646,
  "\u2581temper": 4647,
  "\u2581voluntary": 4648,
  "\u2581wall": 4649,
  "No": 4650,
  "ies": 4651,
  "ra": 4652,
  "\u25811998": 4653,
  "\u25812002": 4654,
  "\u258125]": 4655,
  "\u2581Barnabas": 4656,
  "\u2581Col": 4657,
  "\u2581Creation": 4658,
  "\u2581Ireland": 4659,
  "\u2581Ki": 4660,
  "\u2581Kol": 4661,
  "\u2581Map": 4662,
  "\u2581Raka": 4663,
  "\u2581addressed": 4664,
  "\u2581continually": 4665,
  "\u2581crime": 4666,
  "\u2581kingdoms": 4667,
  "\u2581length": 4668,
  "\u2581looks": 4669,
  "\u2581nihi": 4670,
  "\u2581pictures": 4671,
  "\u2581rendering": 4672,
  "\u2581stronger": 4673,
  "\u2581stumble": 4674,
  "Happy": 4675,
  "\u2581139": 4676,
  "\u2581Above": 4677,
  "\u2581Babylonian": 4678,
  "\u2581Canaan": 4679,
  "\u2581Jephthah": 4680,
  "\u2581Kerere": 4681,
  "\u2581Tatau": 4682,
  "\u2581Thousand": 4683,
  "\u2581broken": 4684,
  "\u2581discouragement": 4685,
  "\u2581dust": 4686,
  "\u2581executed": 4687,
  "\u2581lamepa": 4688,
  "\u2581oppose": 4689,
  "\u2581opposed": 4690,
  "\u2581rejoicing": 4691,
  "\u2581reply": 4692,
  "\u2581ruled": 4693,
  "\u2581shoulder": 4694,
  "By": 4695,
  "MBER": 4696,
  "bese": 4697,
  "good": 4698,
  "\u25813]": 4699,
  "\u2581Caesar": 4700,
  "\u2581Convention": 4701,
  "\u2581Dibura": 4702,
  "\u2581Find": 4703,
  "\u2581Hidi": 4704,
  "\u2581Korea": 4705,
  "\u2581Priest": 4706,
  "\u2581Tamagu": 4707,
  "\u2581admonished": 4708,
  "\u2581anxieties": 4709,
  "\u2581cross": 4710,
  "\u2581diligent": 4711,
  "\u2581except": 4712,
  "\u2581experiencing": 4713,
  "\u2581footnote": 4714,
  "\u2581grave": 4715,
  "\u2581helper": 4716,
  "\u2581huge": 4717,
  "\u2581labor": 4718,
  "\u2581mourning": 4719,
  "\u2581quiet": 4720,
  "\u2581texts": 4721,
  "\u2581thrown": 4722,
  "\u2581whereas": 4723,
  "hari": 4724,
  "ll": 4725,
  "ri": 4726,
  "um": 4727,
  "\u25811997": 4728,
  "\u2581Come": 4729,
  "\u2581Suria": 4730,
  "\u2581Table": 4731,
  "\u2581annual": 4732,
  "\u2581backing": 4733,
  "\u2581bo": 4734,
  "\u2581bride": 4735,
  "\u2581declaration": 4736,
  "\u2581disasters": 4737,
  "\u2581haberoa": 4738,
  "\u2581hekure": 4739,
  "\u2581helagadia": 4740,
  "\u2581low": 4741,
  "\u2581mini": 4742,
  "\u2581panisi": 4743,
  "\u2581preserved": 4744,
  "\u2581site": 4745,
  "\u2581steadfast": 4746,
  "\u2581threat": 4747,
  "\u2581toretoredia": 4748,
  "\u2581130": 4749,
  "\u2581Abesaloma": 4750,
  "\u2581Faithful": 4751,
  "\u2581Intanet": 4752,
  "\u2581MAT": 4753,
  "\u2581Natana": 4754,
  "\u2581Philippines": 4755,
  "\u2581await": 4756,
  "\u2581doctrine": 4757,
  "\u2581grant": 4758,
  "\u2581kampa": 4759,
  "\u2581lion": 4760,
  "\u2581ordered": 4761,
  "\u2581passage": 4762,
  "\u2581reflecting": 4763,
  "\u2581rewards": 4764,
  "\u2581saini": 4765,
  "\u2581suddenly": 4766,
  "\u2581tuarina": 4767,
  "\u2581warfare": 4768,
  "ar": 4769,
  "ga": 4770,
  "lauma": 4771,
  "\u2581400": 4772,
  "\u2581Anibou": 4773,
  "\u2581Jon": 4774,
  "\u2581Namodia": 4775,
  "\u2581News": 4776,
  "\u2581Republic": 4777,
  "\u2581contained": 4778,
  "\u2581expectations": 4779,
  "\u2581hedikwota": 4780,
  "\u2581inspiring": 4781,
  "\u2581iron": 4782,
  "\u2581mass": 4783,
  "\u2581paragraf": 4784,
  "\u2581sediual": 4785,
  "\u2581sold": 4786,
  "\u2581stories": 4787,
  "\u2581witnessed": 4788,
  "K": 4789,
  "U": 4790,
  "di": 4791,
  "some": 4792,
  "that": 4793,
  "\u2581133": 4794,
  "\u258129]": 4795,
  "\u2581Additional": 4796,
  "\u2581Any": 4797,
  "\u2581Besides": 4798,
  "\u2581Contents": 4799,
  "\u2581Encyclopedia": 4800,
  "\u2581Idauidau": 4801,
  "\u2581Korah": 4802,
  "\u2581Moaba": 4803,
  "\u2581Pilate": 4804,
  "\u2581Polish": 4805,
  "\u2581Pray": 4806,
  "\u2581River": 4807,
  "\u2581Says": 4808,
  "\u2581Web": 4809,
  "\u2581donations": 4810,
  "\u2581feed": 4811,
  "\u2581fulfilling": 4812,
  "\u2581highlight": 4813,
  "\u2581imitating": 4814,
  "\u2581impact": 4815,
  "\u2581laganina": 4816,
  "\u2581psalm": 4817,
  "\u2581sinado": 4818,
  "\u2581tax": 4819,
  "\u2581wear": 4820,
  "at": 4821,
  "el": 4822,
  "\u2581Daba": 4823,
  "\u2581Eli": 4824,
  "\u2581Fear": 4825,
  "\u2581Iehu": 4826,
  "\u2581Itaia": 4827,
  "\u2581Jude": 4828,
  "\u2581Theocratic": 4829,
  "\u2581Three": 4830,
  "\u2581adres": 4831,
  "\u2581appealing": 4832,
  "\u2581badness": 4833,
  "\u2581biru": 4834,
  "\u2581continuing": 4835,
  "\u2581emotionally": 4836,
  "\u2581examination": 4837,
  "\u2581existed": 4838,
  "\u2581favorably": 4839,
  "\u2581haoda": 4840,
  "\u2581headship": 4841,
  "\u2581judicial": 4842,
  "\u2581murder": 4843,
  "\u2581proclaim": 4844,
  "\u2581prompt": 4845,
  "\u2581reads": 4846,
  "\u2581sitting": 4847,
  "\u2581spending": 4848,
  "\u2581victim": 4849,
  "\u2581witnes": 4850,
  "SA": 4851,
  "\u2581(4)": 4852,
  "\u258113]": 4853,
  "\u25811935": 4854,
  "\u25816]": 4855,
  "\u2581Hereadaena": 4856,
  "\u2581Highlight": 4857,
  "\u2581History": 4858,
  "\u2581Maintain": 4859,
  "\u2581Manase": 4860,
  "\u2581Mean": 4861,
  "\u2581Painia": 4862,
  "\u2581Sinana": 4863,
  "\u2581Trust": 4864,
  "\u2581Walk": 4865,
  "\u2581Wisdom": 4866,
  "\u2581conform": 4867,
  "\u2581ha": 4868,
  "\u2581hahemaraia": 4869,
  "\u2581hated": 4870,
  "\u2581holds": 4871,
  "\u2581hure": 4872,
  "\u2581laiona": 4873,
  "\u2581mark": 4874,
  "\u2581obligation": 4875,
  "\u2581obtained": 4876,
  "\u2581opinion": 4877,
  "\u2581popular": 4878,
  "\u2581refreshment": 4879,
  "\u2581scholars": 4880,
  "\u2581thrilling": 4881,
  "\u2581watching": 4882,
  "G": 4883,
  "angelic": 4884,
  "we": 4885,
  "\u2581Egyptian": 4886,
  "\u2581Herod": 4887,
  "\u2581Heroda": 4888,
  "\u2581Shepherd": 4889,
  "\u2581Testament": 4890,
  "\u2581accused": 4891,
  "\u2581afterward": 4892,
  "\u2581associations": 4893,
  "\u2581capable": 4894,
  "\u2581captivity": 4895,
  "\u2581disposition": 4896,
  "\u2581faces": 4897,
  "\u2581gaining": 4898,
  "\u2581heal": 4899,
  "\u2581intimate": 4900,
  "\u2581ist": 4901,
  "\u2581judgments": 4902,
  "\u2581malana": 4903,
  "\u2581mavaru": 4904,
  "\u2581method": 4905,
  "\u2581obeyed": 4906,
  "\u2581pick": 4907,
  "\u2581reflects": 4908,
  "\u2581refrain": 4909,
  "\u2581respects": 4910,
  "\u2581running": 4911,
  "\u2581sisibana": 4912,
  "\u2581street": 4913,
  "\u2581tempered": 4914,
  "Dahaka": 4915,
  "Num": 4916,
  "\u258162": 4917,
  "\u2581Cameron": 4918,
  "\u2581Get": 4919,
  "\u2581Jehu": 4920,
  "\u2581Samson": 4921,
  "\u2581charge": 4922,
  "\u2581cherish": 4923,
  "\u2581everywhere": 4924,
  "\u2581harsh": 4925,
  "\u2581healed": 4926,
  "\u2581kala": 4927,
  "\u2581lacking": 4928,
  "\u2581laulaudia": 4929,
  "\u2581namely": 4930,
  "\u2581object": 4931,
  "\u2581presentation": 4932,
  "\u2581project": 4933,
  "\u2581publisher": 4934,
  "\u2581striving": 4935,
  "\u2581suggest": 4936,
  "\u2581tend": 4937,
  "\u2581valid": 4938,
  "Lagani": 4939,
  "Who": 4940,
  "ational": 4941,
  "\u25812004": 4942,
  "\u2581Ben": 4943,
  "\u2581Draw": 4944,
  "\u2581Eso": 4945,
  "\u2581IB": 4946,
  "\u2581Minor": 4947,
  "\u2581Next": 4948,
  "\u2581Ones": 4949,
  "\u2581Seed": 4950,
  "\u2581Were": 4951,
  "\u2581admit": 4952,
  "\u2581adults": 4953,
  "\u2581appointment": 4954,
  "\u2581avoided": 4955,
  "\u2581bus": 4956,
  "\u2581comforted": 4957,
  "\u2581condemned": 4958,
  "\u2581contributed": 4959,
  "\u2581convey": 4960,
  "\u2581dahua": 4961,
  "\u2581heiriheiri": 4962,
  "\u2581maintained": 4963,
  "\u2581minutes": 4964,
  "\u2581officer": 4965,
  "\u2581participate": 4966,
  "\u2581prophesied": 4967,
  "\u2581rock": 4968,
  "\u2581sitoa": 4969,
  "\u2581tent": 4970,
  "\u2581tongues": 4971,
  "\u2581urge": 4972,
  "\u25811941": 4973,
  "\u2581Etiopia": 4974,
  "\u2581Evidently": 4975,
  "\u2581Guinea": 4976,
  "\u2581Human": 4977,
  "\u2581Judas": 4978,
  "\u2581Kwalimu": 4979,
  "\u2581Maua": 4980,
  "\u2581Purpose": 4981,
  "\u2581Simon": 4982,
  "\u2581Times": 4983,
  "\u2581Toreisi": 4984,
  "\u2581University": 4985,
  "\u2581accompanie": 4986,
  "\u2581confirm": 4987,
  "\u2581dark": 4988,
  "\u2581deserve": 4989,
  "\u2581discussions": 4990,
  "\u2581equipped": 4991,
  "\u2581gets": 4992,
  "\u2581hametaua": 4993,
  "\u2581kekenidia": 4994,
  "\u2581repeated": 4995,
  "\u2581shepherding": 4996,
  "\u2581telephone": 4997,
  "\u2581testimony": 4998,
  "37": 4999,
  "Baibel": 5000,
  "west": 5001,
  "\u258163": 5002,
  "\u2581Gentiles": 5003,
  "\u2581Haga": 5004,
  "\u2581amazing": 5005,
  "\u2581basi": 5006,
  "\u2581computer": 5007,
  "\u2581eternity": 5008,
  "\u2581explanation": 5009,
  "\u2581forgiven": 5010,
  "\u2581gabediai": 5011,
  "\u2581haerelaidia": 5012,
  "\u2581isolated": 5013,
  "\u2581kingship": 5014,
  "\u2581priorities": 5015,
  "\u2581remembered": 5016,
  "\u2581restore": 5017,
  "\u2581similarly": 5018,
  "\u2581timely": 5019,
  "\u2581trein": 5020,
  "\u2581undergo": 5021,
  "\u2581wholeheartedly": 5022,
  "ka": 5023,
  "\u2581Dictionary": 5024,
  "\u2581Ghana": 5025,
  "\u2581Herea": 5026,
  "\u2581Know": 5027,
  "\u2581Marriage": 5028,
  "\u2581comfortable": 5029,
  "\u2581deeper": 5030,
  "\u2581desired": 5031,
  "\u2581development": 5032,
  "\u2581discussing": 5033,
  "\u2581du": 5034,
  "\u2581exercised": 5035,
  "\u2581haughty": 5036,
  "\u2581humankind": 5037,
  "\u2581interesting": 5038,
  "\u2581memory": 5039,
  "\u2581north": 5040,
  "\u2581overwhelmed": 5041,
  "\u2581table": 5042,
  "\u2581throw": 5043,
  "\u2581top": 5044,
  "\u2581weeds": 5045,
  "oi": 5046,
  "\u2581AND": 5047,
  "\u2581GAUDIA": 5048,
  "\u2581Namba": 5049,
  "\u2581Sodom": 5050,
  "\u2581View": 5051,
  "\u2581credit": 5052,
  "\u2581cup": 5053,
  "\u2581deceived": 5054,
  "\u2581deepen": 5055,
  "\u2581edition": 5056,
  "\u2581educational": 5057,
  "\u2581ends": 5058,
  "\u2581favorable": 5059,
  "\u2581hates": 5060,
  "\u2581hoped": 5061,
  "\u2581imprisoned": 5062,
  "\u2581instruct": 5063,
  "\u2581leadership": 5064,
  "\u2581materially": 5065,
  "\u2581mita": 5066,
  "\u2581restoration": 5067,
  "\u2581talents": 5068,
  "\u2581theme": 5069,
  "\u2581unexpected": 5070,
  "\u2581urgent": 5071,
  "\u2581widely": 5072,
  "\u2581won": 5073,
  "AL": 5074,
  "ling": 5075,
  "\u25811943": 5076,
  "\u25811990": 5077,
  "\u2581AI": 5078,
  "\u2581Aniani": 5079,
  "\u2581Consequently": 5080,
  "\u2581Dae": 5081,
  "\u2581Dead": 5082,
  "\u2581HOW": 5083,
  "\u2581Ieriko": 5084,
  "\u2581Josephus": 5085,
  "\u2581Near": 5086,
  "\u2581Num": 5087,
  "\u2581Often": 5088,
  "\u2581Speaking": 5089,
  "\u2581Ukraine": 5090,
  "\u2581apostates": 5091,
  "\u2581arrival": 5092,
  "\u2581atmosphere": 5093,
  "\u2581boys": 5094,
  "\u2581defense": 5095,
  "\u2581ear": 5096,
  "\u2581fears": 5097,
  "\u2581fled": 5098,
  "\u2581goats": 5099,
  "\u2581illustrates": 5100,
  "\u2581images": 5101,
  "\u2581initial": 5102,
  "\u2581minded": 5103,
  "\u2581peer": 5104,
  "\u2581portion": 5105,
  "\u2581preachers": 5106,
  "\u2581prosperity": 5107,
  "\u2581receives": 5108,
  "\u2581shame": 5109,
  "\u2581sincerely": 5110,
  "\u2581surface": 5111,
  "\u2581tools": 5112,
  "Keristani": 5113,
  "Satani": 5114,
  "ity": 5115,
  "\u25811945": 5116,
  "\u258124]": 5117,
  "\u258138.": 5118,
  "\u258171": 5119,
  "\u2581Baruku": 5120,
  "\u2581Dad": 5121,
  "\u2581Serving": 5122,
  "\u2581bones": 5123,
  "\u2581commissioned": 5124,
  "\u2581hahairaia": 5125,
  "\u2581hamiroa": 5126,
  "\u2581happening": 5127,
  "\u2581historian": 5128,
  "\u2581honesty": 5129,
  "\u2581imperfections": 5130,
  "\u2581plague": 5131,
  "\u2581practicing": 5132,
  "\u2581rebellious": 5133,
  "\u2581requirement": 5134,
  "\u2581sanctified": 5135,
  "\u2581style": 5136,
  "\u2581suggested": 5137,
  "\u2581thorough": 5138,
  "\u2581unbelievers": 5139,
  "kam": 5140,
  "\u2581Become": 5141,
  "\u2581Gunalaia": 5142,
  "\u2581Hope": 5143,
  "\u2581INAI": 5144,
  "\u2581Imitate": 5145,
  "\u2581Jehoshaphat": 5146,
  "\u2581Joy": 5147,
  "\u2581Manasseh": 5148,
  "\u2581Numera": 5149,
  "\u2581Sodoma": 5150,
  "\u2581Truly": 5151,
  "\u2581adopted": 5152,
  "\u2581apostasy": 5153,
  "\u2581armor": 5154,
  "\u2581asleep": 5155,
  "\u2581correction": 5156,
  "\u2581creature": 5157,
  "\u2581debt": 5158,
  "\u2581diadi": 5159,
  "\u2581eliminate": 5160,
  "\u2581engaged": 5161,
  "\u2581equal": 5162,
  "\u2581fields": 5163,
  "\u2581judged": 5164,
  "\u2581laumana": 5165,
  "\u2581level": 5166,
  "\u2581plant": 5167,
  "\u2581reasoned": 5168,
  "\u2581reside": 5169,
  "\u2581selected": 5170,
  "\u2581siaidia": 5171,
  "\u2581sorrow": 5172,
  "\u2581teenager": 5173,
  "\u2581unfaithful": 5174,
  "13": 5175,
  "\u25812006": 5176,
  "\u2581Again": 5177,
  "\u2581Bataseba": 5178,
  "\u2581Henunai": 5179,
  "\u2581Trinity": 5180,
  "\u2581Which": 5181,
  "\u2581apostate": 5182,
  "\u2581arrive": 5183,
  "\u2581boat": 5184,
  "\u2581central": 5185,
  "\u2581chance": 5186,
  "\u2581crushed": 5187,
  "\u2581empire": 5188,
  "\u2581fathers": 5189,
  "\u2581fish": 5190,
  "\u2581highlighted": 5191,
  "\u2581mid": 5192,
  "\u2581openly": 5193,
  "\u2581previously": 5194,
  "\u2581satisfy": 5195,
  "\u2581settled": 5196,
  "\u2581singul": 5197,
  "\u2581stones": 5198,
  "\u2581terrible": 5199,
  "\u2581thrilled": 5200,
  "Levitiko": 5201,
  "Photo": 5202,
  "TE": 5203,
  "boio": 5204,
  "doubtedly": 5205,
  "im": 5206,
  "mase": 5207,
  "\u2581105": 5208,
  "\u258137,": 5209,
  "\u258138,": 5210,
  "\u2581Absalom": 5211,
  "\u2581Baruch": 5212,
  "\u2581Empire": 5213,
  "\u2581Harorona": 5214,
  "\u2581Judge": 5215,
  "\u2581Netherlands": 5216,
  "\u2581Sheol": 5217,
  "\u2581Use": 5218,
  "\u2581arms": 5219,
  "\u2581arose": 5220,
  "\u2581assume": 5221,
  "\u2581clothes": 5222,
  "\u2581compromise": 5223,
  "\u2581cooperate": 5224,
  "\u2581diaridiari": 5225,
  "\u2581garments": 5226,
  "\u2581handed": 5227,
  "\u2581hoalaia": 5228,
  "\u2581honesthearted": 5229,
  "\u2581illustrated": 5230,
  "\u2581immediate": 5231,
  "\u2581kadi": 5232,
  "\u2581komiti": 5233,
  "\u2581lepera": 5234,
  "\u2581nius": 5235,
  "\u2581partake": 5236,
  "\u2581perfectly": 5237,
  "\u2581positions": 5238,
  "\u2581spite": 5239,
  "\u2581stumbling": 5240,
  "\u2581wel": 5241,
  "tubu": 5242,
  "\u2581Bill": 5243,
  "\u2581Hahemauri": 5244,
  "\u2581Knowing": 5245,
  "\u2581badibadinai": 5246,
  "\u2581disappointed": 5247,
  "\u2581exchange": 5248,
  "\u2581fed": 5249,
  "\u2581guilt": 5250,
  "\u2581handling": 5251,
  "\u2581harana": 5252,
  "\u2581heritage": 5253,
  "\u2581hesitate": 5254,
  "\u2581pei": 5255,
  "\u2581remote": 5256,
  "\u2581shield": 5257,
  "\u2581specifically": 5258,
  "\u2581television": 5259,
  "\u2581totally": 5260,
  "\u2581virtue": 5261,
  "\u2581weekly": 5262,
  "\u2581weigh": 5263,
  "Iosua": 5264,
  "ablisa": 5265,
  "\u2581Au": 5266,
  "\u2581Christlike": 5267,
  "\u2581Henry": 5268,
  "\u2581IT": 5269,
  "\u2581Iehosapata": 5270,
  "\u2581Nineveh": 5271,
  "\u2581Right": 5272,
  "\u2581agreement": 5273,
  "\u2581anymore": 5274,
  "\u2581claimed": 5275,
  "\u2581daradoko": 5276,
  "\u2581depressed": 5277,
  "\u2581disposed": 5278,
  "\u2581duties": 5279,
  "\u2581exemplary": 5280,
  "\u2581exile": 5281,
  "\u2581generosity": 5282,
  "\u2581gracious": 5283,
  "\u2581guhi": 5284,
  "\u2581haloua": 5285,
  "\u2581prospects": 5286,
  "\u2581realm": 5287,
  "\u2581revarevana": 5288,
  "\u2581sheba": 5289,
  "\u2581turns": 5290,
  "\u2581unwise": 5291,
  "Esekiela": 5292,
  "Lauma": 5293,
  "isinari": 5294,
  "sen": 5295,
  "\u25811960": 5296,
  "\u258159": 5297,
  "\u2581DALANA": 5298,
  "\u2581Haggai": 5299,
  "\u2581Mareta": 5300,
  "\u2581Motu": 5301,
  "\u2581Much": 5302,
  "\u2581Nebukanesa": 5303,
  "\u2581Red": 5304,
  "\u2581WHEN": 5305,
  "\u2581blesses": 5306,
  "\u2581dehoro": 5307,
  "\u2581distinguish": 5308,
  "\u2581elements": 5309,
  "\u2581emphasized": 5310,
  "\u2581errors": 5311,
  "\u2581fresh": 5312,
  "\u2581gladly": 5313,
  "\u2581gurigurina": 5314,
  "\u2581heagilaia": 5315,
  "\u2581hide": 5316,
  "\u2581maragimaragi": 5317,
  "\u2581origin": 5318,
  "\u2581outlook": 5319,
  "\u2581programs": 5320,
  "\u2581ridicule": 5321,
  "\u2581river": 5322,
  "\u2581select": 5323,
  "\u2581sole": 5324,
  "\u2581solution": 5325,
  "\u2581standpoint": 5326,
  "\u2581televisen": 5327,
  "\u2581tradition": 5328,
  "\u2581visitors": 5329,
  "ahemaoro": 5330,
  "ern": 5331,
  "hutuma": 5332,
  "vari": 5333,
  "\u258164": 5334,
  "\u258189": 5335,
  "\u258194": 5336,
  "\u2581Coliseum": 5337,
  "\u2581Evening": 5338,
  "\u2581Filipo": 5339,
  "\u2581Meal": 5340,
  "\u2581Reading": 5341,
  "\u2581Teacher": 5342,
  "\u2581Up": 5343,
  "\u2581Within": 5344,
  "\u2581admits": 5345,
  "\u2581backgrounds": 5346,
  "\u2581belonging": 5347,
  "\u2581citizens": 5348,
  "\u2581commended": 5349,
  "\u2581conquered": 5350,
  "\u2581contribution": 5351,
  "\u2581delay": 5352,
  "\u2581depict": 5353,
  "\u2581exhortation": 5354,
  "\u2581foremost": 5355,
  "\u2581gatherings": 5356,
  "\u2581glorified": 5357,
  "\u2581greatness": 5358,
  "\u2581homeland": 5359,
  "\u2581koikoina": 5360,
  "\u2581messages": 5361,
  "\u2581newspaper": 5362,
  "\u2581pity": 5363,
  "\u2581price": 5364,
  "\u2581ran": 5365,
  "\u2581tear": 5366,
  "\u2581uru": 5367,
  "\u2581vivid": 5368,
  "EDIA": 5369,
  "se": 5370,
  "\u25811931": 5371,
  "\u25811947": 5372,
  "\u25811995": 5373,
  "\u258184": 5374,
  "\u2581BH\u1e21": 5375,
  "\u2581Ear": 5376,
  "\u2581European": 5377,
  "\u2581Garana": 5378,
  "\u2581Kahana": 5379,
  "\u2581Light": 5380,
  "\u2581Philippi": 5381,
  "\u2581Reign": 5382,
  "\u2581Ruler": 5383,
  "\u2581Sek": 5384,
  "\u2581afflicted": 5385,
  "\u2581announced": 5386,
  "\u2581ariana": 5387,
  "\u2581ashamed": 5388,
  "\u2581awaiting": 5389,
  "\u2581chaste": 5390,
  "\u2581considerable": 5391,
  "\u2581deceptive": 5392,
  "\u2581elsewhere": 5393,
  "\u2581evolusen": 5394,
  "\u2581extraordinary": 5395,
  "\u2581format": 5396,
  "\u2581frequently": 5397,
  "\u2581hair": 5398,
  "\u2581hamakohia": 5399,
  "\u2581hell": 5400,
  "\u2581historical": 5401,
  "\u2581hypocrisy": 5402,
  "\u2581iunivesiti": 5403,
  "\u2581middle": 5404,
  "\u2581phone": 5405,
  "\u2581playing": 5406,
  "\u2581prayerful": 5407,
  "\u2581raro": 5408,
  "\u2581respectful": 5409,
  "\u2581sinner": 5410,
  "\u2581volunteers": 5411,
  "Numera": 5412,
  "ainmen": 5413,
  "\u258137.": 5414,
  "\u2581Certainly": 5415,
  "\u2581Close": 5416,
  "\u2581Jericho": 5417,
  "\u2581Jew": 5418,
  "\u2581La": 5419,
  "\u2581Malawi": 5420,
  "\u2581Nebuchadnezzar": 5421,
  "\u2581Richard": 5422,
  "\u2581TANO": 5423,
  "\u2581appoint": 5424,
  "\u2581arrested": 5425,
  "\u2581awe": 5426,
  "\u2581begun": 5427,
  "\u2581commend": 5428,
  "\u2581distributed": 5429,
  "\u2581henanadailaia": 5430,
  "\u2581idols": 5431,
  "\u2581location": 5432,
  "\u2581producing": 5433,
  "\u2581prov": 5434,
  "\u2581safety": 5435,
  "\u2581services": 5436,
  "\u2581succumb": 5437,
  "\u2581sufficient": 5438,
  "\u2581types": 5439,
  "\u2581understands": 5440,
  "\u2581uro": 5441,
  "\u2581witi": 5442,
  "Come": 5443,
  "ably": 5444,
  "fom": 5445,
  "iseda": 5446,
  "vd": 5447,
  "\u2581Albert": 5448,
  "\u2581Articles": 5449,
  "\u2581Back": 5450,
  "\u2581Dokonai": 5451,
  "\u2581GOD": 5452,
  "\u2581Goliata": 5453,
  "\u2581Knowledge": 5454,
  "\u2581Numbers": 5455,
  "\u2581Put": 5456,
  "\u2581afford": 5457,
  "\u2581blame": 5458,
  "\u2581bright": 5459,
  "\u2581civil": 5460,
  "\u2581comparison": 5461,
  "\u2581dedicate": 5462,
  "\u2581execute": 5463,
  "\u2581explaining": 5464,
  "\u2581forefathers": 5465,
  "\u2581gross": 5466,
  "\u2581intentions": 5467,
  "\u2581linked": 5468,
  "\u2581losing": 5469,
  "\u2581minor": 5470,
  "\u2581peers": 5471,
  "\u2581planning": 5472,
  "\u2581resurrect": 5473,
  "\u2581richly": 5474,
  "\u2581sisia": 5475,
  "\u2581somewhat": 5476,
  "\u2581souled": 5477,
  "\u2581vamu": 5478,
  "\u2581viewing": 5479,
  "ED": 5480,
  "EGU": 5481,
  "Momokani": 5482,
  "NW": 5483,
  "Vadaeni": 5484,
  "Why": 5485,
  "specially": 5486,
  "\u25811914.": 5487,
  "\u25811958": 5488,
  "\u25812007": 5489,
  "\u258141,": 5490,
  "\u258168": 5491,
  "\u2581Antioch": 5492,
  "\u2581Brothers": 5493,
  "\u2581El": 5494,
  "\u2581Iepeta": 5495,
  "\u2581Likely": 5496,
  "\u2581Millions": 5497,
  "\u2581Point": 5498,
  "\u2581Ponti": 5499,
  "\u2581Re": 5500,
  "\u2581Sandra": 5501,
  "\u2581Siona": 5502,
  "\u2581Stadium": 5503,
  "\u2581Years": 5504,
  "\u2581achieve": 5505,
  "\u2581associating": 5506,
  "\u2581birds": 5507,
  "\u2581capacity": 5508,
  "\u2581concentration": 5509,
  "\u2581diligently": 5510,
  "\u2581dying": 5511,
  "\u2581emblems": 5512,
  "\u2581ensure": 5513,
  "\u2581herahera": 5514,
  "\u2581host": 5515,
  "\u2581i": 5516,
  "\u2581keen": 5517,
  "\u2581konstraksen": 5518,
  "\u2581measures": 5519,
  "\u2581memories": 5520,
  "\u2581neutrality": 5521,
  "\u2581population": 5522,
  "\u2581possibility": 5523,
  "\u2581press": 5524,
  "\u2581projects": 5525,
  "\u2581red": 5526,
  "\u2581reidio": 5527,
  "\u2581soldier": 5528,
  "\u2581storm": 5529,
  "\u2581submission": 5530,
  "\u2581surrounding": 5531,
  "\u2581territories": 5532,
  "\u2581unscriptural": 5533,
  "dika": 5534,
  "laki": 5535,
  "lalohisihisilaia": 5536,
  "lalokau": 5537,
  "noho": 5538,
  "son": 5539,
  "\u2581112": 5540,
  "\u2581147": 5541,
  "\u25811922": 5542,
  "\u25812005": 5543,
  "\u2581CA": 5544,
  "\u2581Continue": 5545,
  "\u2581Deu": 5546,
  "\u2581Don": 5547,
  "\u2581Loving": 5548,
  "\u2581Need": 5549,
  "\u2581Pur": 5550,
  "\u2581Sinavai": 5551,
  "\u2581Thereafter": 5552,
  "\u2581Turana": 5553,
  "\u2581access": 5554,
  "\u2581admitted": 5555,
  "\u2581advanced": 5556,
  "\u2581cried": 5557,
  "\u2581deception": 5558,
  "\u2581evan": 5559,
  "\u2581exact": 5560,
  "\u2581examining": 5561,
  "\u2581extra": 5562,
  "\u2581famine": 5563,
  "\u2581gwadaia": 5564,
  "\u2581inspiration": 5565,
  "\u2581kaukau": 5566,
  "\u2581limits": 5567,
  "\u2581located": 5568,
  "\u2581mentions": 5569,
  "\u2581ongoing": 5570,
  "\u2581practiced": 5571,
  "\u2581productive": 5572,
  "\u2581protects": 5573,
  "\u2581recognition": 5574,
  "\u2581settle": 5575,
  "\u2581thereby": 5576,
  "\u2581uncleanness": 5577,
  "\u2581unrepentant": 5578,
  "\u2581wealthy": 5579,
  "\u2581weight": 5580,
  "Oibe": 5581,
  "ist": 5582,
  "\u2581127": 5583,
  "\u25811946": 5584,
  "\u25811956": 5585,
  "\u2581Bethlehem": 5586,
  "\u2581Ese": 5587,
  "\u2581Haidaua": 5588,
  "\u2581Helen": 5589,
  "\u2581Men": 5590,
  "\u2581Rau": 5591,
  "\u2581Rd": 5592,
  "\u2581Wise": 5593,
  "\u2581cloud": 5594,
  "\u2581consist": 5595,
  "\u2581contributions": 5596,
  "\u2581current": 5597,
  "\u2581earn": 5598,
  "\u2581expose": 5599,
  "\u2581hagoadadia": 5600,
  "\u2581hunger": 5601,
  "\u2581imitation": 5602,
  "\u2581missing": 5603,
  "\u2581murimurinai": 5604,
  "\u2581necessarily": 5605,
  "\u2581obvious": 5606,
  "\u2581originate": 5607,
  "\u2581participation": 5608,
  "\u2581rebels": 5609,
  "\u2581sing": 5610,
  "\u2581station": 5611,
  "\u2581struggling": 5612,
  "\u2581survived": 5613,
  "\u2581symbol": 5614,
  "\u2581tui": 5615,
  "\u2581yield": 5616,
  "Mauri": 5617,
  "Now": 5618,
  "of": 5619,
  "satauro": 5620,
  "sikuli": 5621,
  "\u258114]": 5622,
  "\u25814]": 5623,
  "\u258178": 5624,
  "\u2581COR": 5625,
  "\u2581Chron": 5626,
  "\u2581Goliath": 5627,
  "\u2581Lloyd": 5628,
  "\u2581Psalms": 5629,
  "\u2581accident": 5630,
  "\u2581billions": 5631,
  "\u2581catch": 5632,
  "\u2581check": 5633,
  "\u2581clay": 5634,
  "\u2581counseled": 5635,
  "\u2581detailed": 5636,
  "\u2581dibagani": 5637,
  "\u2581drive": 5638,
  "\u2581falling": 5639,
  "\u2581fourth": 5640,
  "\u2581handled": 5641,
  "\u2581hungry": 5642,
  "\u2581impart": 5643,
  "\u2581impression": 5644,
  "\u2581improper": 5645,
  "\u2581jobs": 5646,
  "\u2581judging": 5647,
  "\u2581leaves": 5648,
  "\u2581opinions": 5649,
  "\u2581oversight": 5650,
  "\u2581pidia": 5651,
  "\u2581post": 5652,
  "\u2581prayerfully": 5653,
  "\u2581prejudice": 5654,
  "\u2581ravana": 5655,
  "\u2581ruhadia": 5656,
  "\u2581sait": 5657,
  "\u2581saving": 5658,
  "\u2581strike": 5659,
  "\u2581suitable": 5660,
  "\u2581supplies": 5661,
  "\u2581twice": 5662,
  "\u2581victims": 5663,
  "\u2581video": 5664,
  "Dan": 5665,
  "Spanish": 5666,
  "my": 5667,
  "new": 5668,
  "pp": 5669,
  "there": 5670,
  "\u25811000": 5671,
  "\u25811996": 5672,
  "\u258135,": 5673,
  "\u258147.": 5674,
  "\u2581Arthur": 5675,
  "\u2581Cyril": 5676,
  "\u2581Describe": 5677,
  "\u2581Gaukaralaia": 5678,
  "\u2581Hanua": 5679,
  "\u2581Learning": 5680,
  "\u2581Living": 5681,
  "\u2581Teaching": 5682,
  "\u2581Year": 5683,
  "\u2581b": 5684,
  "\u2581childhood": 5685,
  "\u2581crown": 5686,
  "\u2581cruel": 5687,
  "\u2581devote": 5688,
  "\u2581dies": 5689,
  "\u2581dishonor": 5690,
  "\u2581enjoyable": 5691,
  "\u2581exclusive": 5692,
  "\u2581fier": 5693,
  "\u2581fighting": 5694,
  "\u2581fortify": 5695,
  "\u2581fruits": 5696,
  "\u2581greed": 5697,
  "\u2581happily": 5698,
  "\u2581heartwarming": 5699,
  "\u2581hevaseha": 5700,
  "\u2581lawlessness": 5701,
  "\u2581mauana": 5702,
  "\u2581neglect": 5703,
  "\u2581printa": 5704,
  "\u2581printing": 5705,
  "\u2581proclaiming": 5706,
  "\u2581raskol": 5707,
  "\u2581reserved": 5708,
  "\u2581seeming": 5709,
  "\u2581spreading": 5710,
  "\u2581stands": 5711,
  "\u2581submitt": 5712,
  "\u2581supplication": 5713,
  "\u2581trustworthy": 5714,
  "\u2581weaken": 5715,
  "Tamana": 5716,
  "idau": 5717,
  "nointed": 5718,
  "ona": 5719,
  "siahu": 5720,
  "\u25811939": 5721,
  "\u258148.": 5722,
  "\u258175": 5723,
  "\u2581AS": 5724,
  "\u2581DIBA": 5725,
  "\u2581Dinana": 5726,
  "\u2581Gimaia": 5727,
  "\u2581Hitler": 5728,
  "\u2581Iesebele": 5729,
  "\u2581Kindness": 5730,
  "\u2581LALOA": 5731,
  "\u2581Negai": 5732,
  "\u2581Rule": 5733,
  "\u2581Samantha": 5734,
  "\u2581San": 5735,
  "\u2581Saturday": 5736,
  "\u2581depression": 5737,
  "\u2581developments": 5738,
  "\u2581enhance": 5739,
  "\u2581evolution": 5740,
  "\u2581globe": 5741,
  "\u2581hinder": 5742,
  "\u2581islands": 5743,
  "\u2581items": 5744,
  "\u2581loud": 5745,
  "\u2581marere": 5746,
  "\u2581moon": 5747,
  "\u2581neutral": 5748,
  "\u2581offended": 5749,
  "\u2581parallel": 5750,
  "\u2581paths": 5751,
  "\u2581proclaimed": 5752,
  "\u2581readers": 5753,
  "\u2581repay": 5754,
  "\u2581replaced": 5755,
  "\u2581rob": 5756,
  "\u2581scale": 5757,
  "\u2581stating": 5758,
  "\u2581suggests": 5759,
  "\u2581symbolized": 5760,
  "\u2581tract": 5761,
  "\u2581udu": 5762,
  "\u2581walls": 5763,
  "\u2581warn": 5764,
  "Mai": 5765,
  "aonega": 5766,
  "dicating": 5767,
  "kskius": 5768,
  "laia": 5769,
  "men": 5770,
  "rami": 5771,
  "\u2581Cyprus": 5772,
  "\u2581Egyptians": 5773,
  "\u2581Ella": 5774,
  "\u2581HENIA": 5775,
  "\u2581Jim": 5776,
  "\u2581Jos\u00e9": 5777,
  "\u2581LIFE": 5778,
  "\u2581Lucaris": 5779,
  "\u2581Person": 5780,
  "\u2581Regardless": 5781,
  "\u2581SIVARAI": 5782,
  "\u2581Swahili": 5783,
  "\u2581Tak": 5784,
  "\u2581WA": 5785,
  "\u2581anerudia": 5786,
  "\u2581araia": 5787,
  "\u2581centered": 5788,
  "\u2581cleanness": 5789,
  "\u2581distressing": 5790,
  "\u2581games": 5791,
  "\u2581hadiburaia": 5792,
  "\u2581operation": 5793,
  "\u2581palaka": 5794,
  "\u2581prior": 5795,
  "\u2581spared": 5796,
  "\u2581unusual": 5797,
  "Dina": 5798,
  "King": 5799,
  "NA": 5800,
  "Siri": 5801,
  "either": 5802,
  "gave": 5803,
  "they": 5804,
  "\u25811953": 5805,
  "\u258127]": 5806,
  "\u2581Angl": 5807,
  "\u2581Department": 5808,
  "\u2581Diari": 5809,
  "\u2581Edition": 5810,
  "\u2581Friend": 5811,
  "\u2581baege": 5812,
  "\u2581bears": 5813,
  "\u2581convince": 5814,
  "\u2581enjoyment": 5815,
  "\u2581feared": 5816,
  "\u2581flood": 5817,
  "\u2581foreigners": 5818,
  "\u2581guests": 5819,
  "\u2581hurtful": 5820,
  "\u2581incident": 5821,
  "\u2581kosi": 5822,
  "\u2581petitions": 5823,
  "\u2581plain": 5824,
  "\u2581pleasures": 5825,
  "\u2581produces": 5826,
  "\u2581prominence": 5827,
  "\u2581sedira": 5828,
  "\u2581sensitive": 5829,
  "\u2581sentence": 5830,
  "\u2581separated": 5831,
  "\u2581silence": 5832,
  "\u2581sowing": 5833,
  "\u2581statements": 5834,
  "\u2581taiana": 5835,
  "\u2581trap": 5836,
  "&": 5837,
  "Sedira": 5838,
  "gaukara": 5839,
  "\u2581111": 5840,
  "\u25811944": 5841,
  "\u2581Accordingly": 5842,
  "\u2581Bath": 5843,
  "\u2581Boasi": 5844,
  "\u2581Centre": 5845,
  "\u2581China": 5846,
  "\u2581Cultivat": 5847,
  "\u2581Dalanai": 5848,
  "\u2581Dokona": 5849,
  "\u2581Jezebel": 5850,
  "\u2581KARA": 5851,
  "\u2581Kaisara": 5852,
  "\u2581Kekeni": 5853,
  "\u2581Nabala": 5854,
  "\u2581Please": 5855,
  "\u2581Sabati": 5856,
  "\u2581Tes": 5857,
  "\u2581Thessalonica": 5858,
  "\u2581adhere": 5859,
  "\u2581bore": 5860,
  "\u2581bought": 5861,
  "\u2581complex": 5862,
  "\u2581composed": 5863,
  "\u2581disobedient": 5864,
  "\u2581garment": 5865,
  "\u2581grows": 5866,
  "\u2581hardship": 5867,
  "\u2581hereadae": 5868,
  "\u2581honestly": 5869,
  "\u2581hoping": 5870,
  "\u2581indication": 5871,
  "\u2581informed": 5872,
  "\u2581koura": 5873,
  "\u2581lean": 5874,
  "\u2581multitude": 5875,
  "\u2581objects": 5876,
  "\u2581offense": 5877,
  "\u2581pati": 5878,
  "\u2581perceive": 5879,
  "\u2581pieces": 5880,
  "\u2581qualifications": 5881,
  "\u2581reminder": 5882,
  "\u2581repented": 5883,
  "\u2581representatives": 5884,
  "\u2581respecting": 5885,
  "\u2581sainia": 5886,
  "\u2581schools": 5887,
  "\u2581scrolls": 5888,
  "\u2581surprising": 5889,
  "\u2581unselfish": 5890,
  "BER": 5891,
  "Mataio": 5892,
  "Mika": 5893,
  "creasingly": 5894,
  "ctively": 5895,
  "gainst": 5896,
  "id": 5897,
  "ko": 5898,
  "oketa": 5899,
  "va": 5900,
  "who": 5901,
  "\u25811952": 5902,
  "\u2581Caleb": 5903,
  "\u2581Deut": 5904,
  "\u2581EDEN": 5905,
  "\u2581Gwau": 5906,
  "\u2581Laulau": 5907,
  "\u2581Published": 5908,
  "\u2581Visit": 5909,
  "\u2581arrives": 5910,
  "\u2581average": 5911,
  "\u2581deserves": 5912,
  "\u2581dry": 5913,
  "\u2581emphasis": 5914,
  "\u2581emphasize": 5915,
  "\u2581evangelizers": 5916,
  "\u2581hanuaboina": 5917,
  "\u2581hears": 5918,
  "\u2581heirs": 5919,
  "\u2581inclination": 5920,
  "\u2581intelligent": 5921,
  "\u2581media": 5922,
  "\u2581owner": 5923,
  "\u2581praised": 5924,
  "\u2581respected": 5925,
  "\u2581sell": 5926,
  "\u2581synagogue": 5927,
  "\u2581title": 5928,
  "\u2581weapons": 5929,
  "\u2581welcomed": 5930,
  "\u2581worry": 5931,
  "\u25cf": 5932,
  "Guba": 5933,
  "With": 5934,
  "ism": 5935,
  "kohu": 5936,
  "tau": 5937,
  "\u2581148": 5938,
  "\u258130)": 5939,
  "\u2581Athens": 5940,
  "\u2581Frank": 5941,
  "\u2581Habadaia": 5942,
  "\u2581Head": 5943,
  "\u2581Herevalaia": 5944,
  "\u2581Kaleba": 5945,
  "\u2581Moalelaia": 5946,
  "\u2581Moscow": 5947,
  "\u2581Nabal": 5948,
  "\u2581Power": 5949,
  "\u2581Sinai": 5950,
  "\u2581TAUNIMANIMA": 5951,
  "\u2581Try": 5952,
  "\u2581adversity": 5953,
  "\u2581bisop": 5954,
  "\u2581boldly": 5955,
  "\u2581comforts": 5956,
  "\u2581difficulty": 5957,
  "\u2581distressed": 5958,
  "\u2581endless": 5959,
  "\u2581fig": 5960,
  "\u2581immortal": 5961,
  "\u2581initially": 5962,
  "\u2581koudia": 5963,
  "\u2581mata": 5964,
  "\u2581materialism": 5965,
  "\u2581milk": 5966,
  "\u2581permission": 5967,
  "\u2581profess": 5968,
  "\u2581rebel": 5969,
  "\u2581sessions": 5970,
  "\u2581southern": 5971,
  "\u2581spai": 5972,
  "\u2581summer": 5973,
  "\u2581talked": 5974,
  "\u2581truthfulness": 5975,
  "H": 5976,
  "Ios": 5977,
  "Lev": 5978,
  "ical": 5979,
  "king": 5980,
  "while": 5981,
  "working": 5982,
  "\u2581'!": 5983,
  "\u25812015": 5984,
  "\u258192": 5985,
  "\u2581Alex": 5986,
  "\u2581Andrew": 5987,
  "\u2581Avoid": 5988,
  "\u2581Easter": 5989,
  "\u2581Everyone": 5990,
  "\u2581Giving": 5991,
  "\u2581HAERE": 5992,
  "\u2581Islands": 5993,
  "\u2581Jersey": 5994,
  "\u2581Karaharaga": 5995,
  "\u2581Lalohisihisi": 5996,
  "\u2581Pay": 5997,
  "\u2581Rebekah": 5998,
  "\u2581Sabbath": 5999,
  "\u2581behold": 6000,
  "\u2581captive": 6001,
  "\u2581consult": 6002,
  "\u2581curse": 6003,
  "\u2581deed": 6004,
  "\u2581entering": 6005,
  "\u2581equip": 6006,
  "\u2581exhorted": 6007,
  "\u2581famous": 6008,
  "\u2581fault": 6009,
  "\u2581fruitful": 6010,
  "\u2581gavana": 6011,
  "\u2581halaodia": 6012,
  "\u2581holiness": 6013,
  "\u2581introduced": 6014,
  "\u2581ko": 6015,
  "\u2581lalomaino": 6016,
  "\u2581loose": 6017,
  "\u2581occasionally": 6018,
  "\u2581occurs": 6019,
  "\u2581outset": 6020,
  "\u2581parabolena": 6021,
  "\u2581passages": 6022,
  "\u2581periods": 6023,
  "\u2581promoted": 6024,
  "\u2581radio": 6025,
  "\u2581scribes": 6026,
  "\u2581selfishness": 6027,
  "\u2581shadow": 6028,
  "\u2581strange": 6029,
  "\u2581stretch": 6030,
  "\u2581tendencies": 6031,
  "\u2581tragic": 6032,
  "\u2581translations": 6033,
  "\u2581valley": 6034,
  "\u2581worthwhile": 6035,
  "BADA": 6036,
  "Christ": 6037,
  "Taravatu": 6038,
  "utuma": 6039,
  "\u2581101": 6040,
  "\u2581118": 6041,
  "\u25811955": 6042,
  "\u258130]": 6043,
  "\u2581600": 6044,
  "\u2581Alive": 6045,
  "\u2581Betelehema": 6046,
  "\u2581Boaz": 6047,
  "\u2581Branch": 6048,
  "\u2581California": 6049,
  "\u2581Christine": 6050,
  "\u2581Hoa": 6051,
  "\u2581Korenelio": 6052,
  "\u2581LASI": 6053,
  "\u2581Leads": 6054,
  "\u2581Paradaisona": 6055,
  "\u2581Persian": 6056,
  "\u2581Real": 6057,
  "\u2581Suppose": 6058,
  "\u2581TA": 6059,
  "\u2581Uru": 6060,
  "\u2581burned": 6061,
  "\u2581commented": 6062,
  "\u2581commercial": 6063,
  "\u2581complaint": 6064,
  "\u2581directions": 6065,
  "\u2581ease": 6066,
  "\u2581empathy": 6067,
  "\u2581expresse": 6068,
  "\u2581farm": 6069,
  "\u2581feeding": 6070,
  "\u2581flow": 6071,
  "\u2581fond": 6072,
  "\u2581friendly": 6073,
  "\u2581hodahoda": 6074,
  "\u2581ignored": 6075,
  "\u2581overwhelming": 6076,
  "\u2581propaganda": 6077,
  "\u2581range": 6078,
  "\u2581staying": 6079,
  "\u2581steal": 6080,
  "\u2581supposed": 6081,
  "ING": 6082,
  "Namo": 6083,
  "abidadama": 6084,
  "g": 6085,
  "ian": 6086,
  "netheless": 6087,
  "ward": 6088,
  "was": 6089,
  "\u2581Cornelius": 6090,
  "\u2581Divine": 6091,
  "\u2581Elizabeth": 6092,
  "\u2581JOHN": 6093,
  "\u2581Matamatana": 6094,
  "\u2581Portugal": 6095,
  "\u2581Very": 6096,
  "\u2581adapt": 6097,
  "\u2581analyze": 6098,
  "\u2581discourse": 6099,
  "\u2581era": 6100,
  "\u2581facilities": 6101,
  "\u2581follows": 6102,
  "\u2581funeral": 6103,
  "\u2581girls": 6104,
  "\u2581haba": 6105,
  "\u2581herevalaidia": 6106,
  "\u2581hopes": 6107,
  "\u2581independence": 6108,
  "\u2581magnificent": 6109,
  "\u2581metauna": 6110,
  "\u2581nadua": 6111,
  "\u2581permitted": 6112,
  "\u2581preacher": 6113,
  "\u2581proverb": 6114,
  "\u2581recalled": 6115,
  "\u2581requests": 6116,
  "\u2581schoolmates": 6117,
  "\u2581seated": 6118,
  "\u2581snare": 6119,
  "\u2581solve": 6120,
  "\u2581strongly": 6121,
  "\u2581submissive": 6122,
  "\u2581taste": 6123,
  "\u2581utterance": 6124,
  "AMO": 6125,
  "LAIA": 6126,
  "moale": 6127,
  "rew": 6128,
  "seed": 6129,
  "\u2581Asaph": 6130,
  "\u2581Christmas": 6131,
  "\u2581Greater": 6132,
  "\u2581Happiness": 6133,
  "\u2581Index": 6134,
  "\u2581Lev": 6135,
  "\u2581Listen": 6136,
  "\u2581Moab": 6137,
  "\u2581Mom": 6138,
  "\u2581Prophecy": 6139,
  "\u2581Vabu": 6140,
  "\u2581Whom": 6141,
  "\u2581boiridia": 6142,
  "\u2581characters": 6143,
  "\u2581claims": 6144,
  "\u2581code": 6145,
  "\u2581comply": 6146,
  "\u2581constitute": 6147,
  "\u2581cooperation": 6148,
  "\u2581corrected": 6149,
  "\u2581drugs": 6150,
  "\u2581empowered": 6151,
  "\u2581gaukaralaidia": 6152,
  "\u2581graduates": 6153,
  "\u2581identifie": 6154,
  "\u2581individually": 6155,
  "\u2581ipidi": 6156,
  "\u2581jealousy": 6157,
  "\u2581lifetime": 6158,
  "\u2581mail": 6159,
  "\u2581masemase": 6160,
  "\u2581missed": 6161,
  "\u2581pata": 6162,
  "\u2581permit": 6163,
  "\u2581philosophy": 6164,
  "\u2581pidipidi": 6165,
  "\u2581realistic": 6166,
  "\u2581resident": 6167,
  "\u2581responding": 6168,
  "\u2581se": 6169,
  "\u2581stage": 6170,
  "\u2581steward": 6171,
  "\u2581talent": 6172,
  "\u2581thoroughly": 6173,
  "\u2581transformed": 6174,
  "\u2581unnecessary": 6175,
  "\u2581varo": 6176,
  "\u2581voices": 6177,
  "\u2581watchful": 6178,
  "0,000": 6179,
  "UA": 6180,
  "ftn": 6181,
  "love": 6182,
  "those": 6183,
  "tries": 6184,
  "\u2581106": 6185,
  "\u258120]": 6186,
  "\u2581Antioka": 6187,
  "\u2581Babylonians": 6188,
  "\u2581Gentile": 6189,
  "\u2581Island": 6190,
  "\u2581Lebanon": 6191,
  "\u2581PS": 6192,
  "\u2581Septuagint": 6193,
  "\u2581Serve": 6194,
  "\u2581Sinagu": 6195,
  "\u2581Stiuden": 6196,
  "\u2581Thess": 6197,
  "\u2581ages": 6198,
  "\u2581awaits": 6199,
  "\u2581contentment": 6200,
  "\u2581counted": 6201,
  "\u2581deliberately": 6202,
  "\u2581drug": 6203,
  "\u2581entirely": 6204,
  "\u2581evangelizer": 6205,
  "\u2581evangelizing": 6206,
  "\u2581exalted": 6207,
  "\u2581falsely": 6208,
  "\u2581inclinations": 6209,
  "\u2581injury": 6210,
  "\u2581longtime": 6211,
  "\u2581needy": 6212,
  "\u2581oppression": 6213,
  "\u2581outcry": 6214,
  "\u2581overlook": 6215,
  "\u2581party": 6216,
  "\u2581pasto": 6217,
  "\u2581performing": 6218,
  "\u2581reassuring": 6219,
  "\u2581replace": 6220,
  "\u2581sharp": 6221,
  "\u2581starting": 6222,
  "\u2581thanksgiving": 6223,
  "\u2581tragedy": 6224,
  "\u2581warmly": 6225,
  "\u2581wearing": 6226,
  "?...": 6227,
  "lagani": 6228,
  "nt": 6229,
  "\u25811991": 6230,
  "\u25811994": 6231,
  "\u258145.": 6232,
  "\u25815.)": 6233,
  "\u258177": 6234,
  "\u2581Alexander": 6235,
  "\u2581Barr": 6236,
  "\u2581Benjamin": 6237,
  "\u2581Honor": 6238,
  "\u2581Library": 6239,
  "\u2581Myanmar": 6240,
  "\u2581Nasareta": 6241,
  "\u2581Portuguese": 6242,
  "\u2581Rico": 6243,
  "\u2581Samaritan": 6244,
  "\u2581Seeing": 6245,
  "\u2581Third": 6246,
  "\u2581Tuvalu": 6247,
  "\u2581Vadivadi": 6248,
  "\u2581arriving": 6249,
  "\u2581art": 6250,
  "\u2581attracted": 6251,
  "\u2581ban": 6252,
  "\u2581board": 6253,
  "\u2581cease": 6254,
  "\u2581changing": 6255,
  "\u2581classmates": 6256,
  "\u2581cleanse": 6257,
  "\u2581containing": 6258,
  "\u2581contemplate": 6259,
  "\u2581dabai": 6260,
  "\u2581diarina": 6261,
  "\u2581discover": 6262,
  "\u2581distracted": 6263,
  "\u2581founded": 6264,
  "\u2581funds": 6265,
  "\u2581gentle": 6266,
  "\u2581guarantee": 6267,
  "\u2581hit": 6268,
  "\u2581hot": 6269,
  "\u2581kontrakana": 6270,
  "\u2581leiti": 6271,
  "\u2581loea": 6272,
  "\u2581mothers": 6273,
  "\u2581opens": 6274,
  "\u2581orders": 6275,
  "\u2581resentment": 6276,
  "\u2581sitaelo": 6277,
  "\u2581sow": 6278,
  "\u2581staff": 6279,
  "\u2581tool": 6280,
  "Ese": 6281,
  "ROM": 6282,
  "cal": 6283,
  "pe": 6284,
  "ura": 6285,
  "\u2581121": 6286,
  "\u2581146": 6287,
  "\u258169": 6288,
  "\u2581African": 6289,
  "\u2581Asapa": 6290,
  "\u2581Care": 6291,
  "\u2581Clovis": 6292,
  "\u2581Goevadae": 6293,
  "\u2581Kwarana": 6294,
  "\u2581Matauraia": 6295,
  "\u2581NY": 6296,
  "\u2581Nazareth": 6297,
  "\u2581Nikodemo": 6298,
  "\u2581Photo": 6299,
  "\u2581Tom": 6300,
  "\u2581Unti": 6301,
  "\u2581black": 6302,
  "\u2581cells": 6303,
  "\u2581cleansed": 6304,
  "\u2581collect": 6305,
  "\u2581color": 6306,
  "\u2581dignified": 6307,
  "\u2581disasta": 6308,
  "\u2581doctrines": 6309,
  "\u2581driver": 6310,
  "\u2581embrace": 6311,
  "\u2581feast": 6312,
  "\u2581female": 6313,
  "\u2581golden": 6314,
  "\u2581implies": 6315,
  "\u2581inactive": 6316,
  "\u2581kamokau": 6317,
  "\u2581memorial": 6318,
  "\u2581morality": 6319,
  "\u2581numbers": 6320,
  "\u2581offices": 6321,
  "\u2581outright": 6322,
  "\u2581phrase": 6323,
  "\u2581protective": 6324,
  "\u2581revealing": 6325,
  "\u2581sides": 6326,
  "\u2581skin": 6327,
  "\u2581steiseni": 6328,
  "\u2581th": 6329,
  "\u2581traditions": 6330,
  "\u2581vairai": 6331,
  "Roma": 6332,
  "age": 6333,
  "let": 6334,
  "now": 6335,
  "ro": 6336,
  "x": 6337,
  "\u2581(\"": 6338,
  "\u25811938": 6339,
  "\u25811970": 6340,
  "\u25811980": 6341,
  "\u2581Apply": 6342,
  "\u2581Assyria": 6343,
  "\u2581Austria": 6344,
  "\u2581Gaukarana": 6345,
  "\u2581Hekokoroku": 6346,
  "\u2581ISSUE": 6347,
  "\u2581Little": 6348,
  "\u2581Meeting": 6349,
  "\u2581Nicodemus": 6350,
  "\u2581Nothing": 6351,
  "\u2581PET": 6352,
  "\u2581Park": 6353,
  "\u2581Pu": 6354,
  "\u2581Sivaraina": 6355,
  "\u2581Switzerland": 6356,
  "\u2581Thomas": 6357,
  "\u2581adult": 6358,
  "\u2581aim": 6359,
  "\u2581brain": 6360,
  "\u2581camps": 6361,
  "\u2581character": 6362,
  "\u2581destination": 6363,
  "\u2581disappointment": 6364,
  "\u2581duty": 6365,
  "\u2581envy": 6366,
  "\u2581ethnic": 6367,
  "\u2581extensive": 6368,
  "\u2581figure": 6369,
  "\u2581formerly": 6370,
  "\u2581greedy": 6371,
  "\u2581keenly": 6372,
  "\u2581lift": 6373,
  "\u2581maoromaorona": 6374,
  "\u2581misled": 6375,
  "\u2581mistaken": 6376,
  "\u2581oath": 6377,
  "\u2581pains": 6378,
  "\u2581perish": 6379,
  "\u2581preparation": 6380,
  "\u2581provinsi": 6381,
  "\u2581repair": 6382,
  "\u2581size": 6383,
  "\u2581souli": 6384,
  "\u2581succeeded": 6385,
  "\u2581tamaka": 6386,
  "\u2581thorn": 6387,
  "\u2581topics": 6388,
  "\u2581tremendous": 6389,
  "\u2581vary": 6390,
  "\u2581wholehearted": 6391,
  "\u2581yearn": 6392,
  "B": 6393,
  "Guna": 6394,
  "LSO": 6395,
  "R": 6396,
  "ch": 6397,
  "hure": 6398,
  "\u2581102": 6399,
  "\u25811993": 6400,
  "\u258122]": 6401,
  "\u2581Actually": 6402,
  "\u2581Assyrian": 6403,
  "\u2581Boubou": 6404,
  "\u2581Daladia": 6405,
  "\u2581HAVE": 6406,
  "\u2581Hans": 6407,
  "\u2581Heau": 6408,
  "\u2581International": 6409,
  "\u2581JUL": 6410,
  "\u2581MEMORI": 6411,
  "\u2581Mankind": 6412,
  "\u2581Praise": 6413,
  "\u2581SEP": 6414,
  "\u2581Training": 6415,
  "\u2581Turkey": 6416,
  "\u2581Volume": 6417,
  "\u2581absolutely": 6418,
  "\u2581bit": 6419,
  "\u2581buried": 6420,
  "\u2581coast": 6421,
  "\u2581disobey": 6422,
  "\u2581fails": 6423,
  "\u2581idiba": 6424,
  "\u2581impress": 6425,
  "\u2581iunives": 6426,
  "\u2581kinds": 6427,
  "\u2581lamp": 6428,
  "\u2581lines": 6429,
  "\u2581moia": 6430,
  "\u2581moments": 6431,
  "\u2581originally": 6432,
  "\u2581outlined": 6433,
  "\u2581planned": 6434,
  "\u2581rekodi": 6435,
  "\u2581representative": 6436,
  "\u2581resort": 6437,
  "\u2581rid": 6438,
  "\u2581spiritism": 6439,
  "\u2581sports": 6440,
  "\u2581status": 6441,
  "\u2581tarapua": 6442,
  "\u2581touching": 6443,
  "\u2581vine": 6444,
  "\u2581widespread": 6445,
  "\u2581worshipped": 6446,
  "\u2581worshipper": 6447,
  "\u2581yielding": 6448,
  "9": 6449,
  "Our": 6450,
  "ance": 6451,
  "hahine": 6452,
  "pereisen": 6453,
  "\u25811940": 6454,
  "\u25811949": 6455,
  "\u2581Abigaila": 6456,
  "\u2581BADA": 6457,
  "\u2581Civi": 6458,
  "\u2581Death": 6459,
  "\u2581Example": 6460,
  "\u2581Herevahereva": 6461,
  "\u2581Ida": 6462,
  "\u2581Interesting": 6463,
  "\u2581Last": 6464,
  "\u2581Maoro": 6465,
  "\u2581NEGA": 6466,
  "\u2581Self": 6467,
  "\u2581Stefano": 6468,
  "\u2581Storrs": 6469,
  "\u2581acquired": 6470,
  "\u2581bonds": 6471,
  "\u2581conflicts": 6472,
  "\u2581contemporaries": 6473,
  "\u2581cultures": 6474,
  "\u2581define": 6475,
  "\u2581delightful": 6476,
  "\u2581demands": 6477,
  "\u2581directing": 6478,
  "\u2581diseases": 6479,
  "\u2581dogae": 6480,
  "\u2581exclaimed": 6481,
  "\u2581exercises": 6482,
  "\u2581fierce": 6483,
  "\u2581figuratively": 6484,
  "\u2581forbidden": 6485,
  "\u2581gunaguna": 6486,
  "\u2581heat": 6487,
  "\u2581jealous": 6488,
  "\u2581kerukeru": 6489,
  "\u2581kwini": 6490,
  "\u2581lofty": 6491,
  "\u2581mob": 6492,
  "\u2581perspective": 6493,
  "\u2581planet": 6494,
  "\u2581recommended": 6495,
  "\u2581records": 6496,
  "\u2581rigi": 6497,
  "\u2581roof": 6498,
  "\u2581sanctify": 6499,
  "\u2581seeds": 6500,
  "\u2581smile": 6501,
  "\u2581sources": 6502,
  "\u2581treacherous": 6503,
  "\u2581upset": 6504,
  "\u2581virgins": 6505,
  "940": 6506,
  "Buka": 6507,
  "ally": 6508,
  "eji": 6509,
  "f": 6510,
  "\u2581Apparently": 6511,
  "\u2581Archives": 6512,
  "\u2581Aria": 6513,
  "\u2581Cleveland": 6514,
  "\u2581Eccl": 6515,
  "\u2581Education": 6516,
  "\u2581Eric": 6517,
  "\u2581Evelyn": 6518,
  "\u2581Hamana": 6519,
  "\u2581Heights": 6520,
  "\u2581Ier": 6521,
  "\u2581Jaracz": 6522,
  "\u2581Judges": 6523,
  "\u2581Macedonia": 6524,
  "\u2581Maduna": 6525,
  "\u2581NOHO": 6526,
  "\u2581Revareva": 6527,
  "\u2581Vaia": 6528,
  "\u2581apparent": 6529,
  "\u2581arrest": 6530,
  "\u2581characteristics": 6531,
  "\u2581conquest": 6532,
  "\u2581demanding": 6533,
  "\u2581deserving": 6534,
  "\u2581exquisite": 6535,
  "\u2581festival": 6536,
  "\u2581forgotten": 6537,
  "\u2581gavamanina": 6538,
  "\u2581larger": 6539,
  "\u2581observance": 6540,
  "\u2581palanilaia": 6541,
  "\u2581pepe": 6542,
  "\u2581perceptive": 6543,
  "\u2581plenty": 6544,
  "\u2581portions": 6545,
  "\u2581prime": 6546,
  "\u2581rata": 6547,
  "\u2581regulations": 6548,
  "\u2581stressed": 6549,
  "\u2581suit": 6550,
  "\u2581surroundings": 6551,
  "\u2581team": 6552,
  "\u2581thief": 6553,
  "\u2581waited": 6554,
  "\u2581yeartext": 6555,
  "F": 6556,
  "ce": 6557,
  "eiava": 6558,
  "erto": 6559,
  "ious": 6560,
  "ncient": 6561,
  "put": 6562,
  "\u25811992": 6563,
  "\u2581Akwila": 6564,
  "\u2581Apolo": 6565,
  "\u2581Bulgaria": 6566,
  "\u2581Earlier": 6567,
  "\u2581MY": 6568,
  "\u2581Nadi": 6569,
  "\u2581Neh": 6570,
  "\u2581PSALM": 6571,
  "\u2581Profes": 6572,
  "\u2581Ripoti": 6573,
  "\u2581Seek": 6574,
  "\u2581abstain": 6575,
  "\u2581abusive": 6576,
  "\u2581afternoon": 6577,
  "\u2581amazed": 6578,
  "\u2581befall": 6579,
  "\u2581below": 6580,
  "\u2581bold": 6581,
  "\u2581confirmed": 6582,
  "\u2581considerate": 6583,
  "\u2581coping": 6584,
  "\u2581creative": 6585,
  "\u2581cure": 6586,
  "\u2581daudauna": 6587,
  "\u2581desperate": 6588,
  "\u2581dipatmen": 6589,
  "\u2581drop": 6590,
  "\u2581fixed": 6591,
  "\u2581isena": 6592,
  "\u2581kohoro": 6593,
  "\u2581longing": 6594,
  "\u2581mataurai": 6595,
  "\u2581materialistic": 6596,
  "\u2581native": 6597,
  "\u2581necessities": 6598,
  "\u2581noteworthy": 6599,
  "\u2581persistent": 6600,
  "\u2581presents": 6601,
  "\u2581prisoners": 6602,
  "\u2581progressively": 6603,
  "\u2581refugees": 6604,
  "\u2581rei": 6605,
  "\u2581renewed": 6606,
  "\u2581sacrificial": 6607,
  "\u2581secretary": 6608,
  "\u2581senisia": 6609,
  "\u2581striking": 6610,
  "\u2581stuck": 6611,
  "\u2581typical": 6612,
  "\u2581unrighteousness": 6613,
  "Dala": 6614,
  "Heberu": 6615,
  "dorahi": 6616,
  "eiti": 6617,
  "enturies": 6618,
  "harihari": 6619,
  "human": 6620,
  "ur": 6621,
  "\u2581116": 6622,
  "\u25811957": 6623,
  "\u258133)": 6624,
  "\u2581AU": 6625,
  "\u2581Ethiopian": 6626,
  "\u2581Madagascar": 6627,
  "\u2581Mal": 6628,
  "\u2581Old": 6629,
  "\u2581Sinavaina": 6630,
  "\u2581Stand": 6631,
  "\u2581adjusted": 6632,
  "\u2581cell": 6633,
  "\u2581cited": 6634,
  "\u2581declares": 6635,
  "\u2581decree": 6636,
  "\u2581deny": 6637,
  "\u2581disastrous": 6638,
  "\u2581doors": 6639,
  "\u2581element": 6640,
  "\u2581enthusiasm": 6641,
  "\u2581fat": 6642,
  "\u2581floor": 6643,
  "\u2581forsake": 6644,
  "\u2581fought": 6645,
  "\u2581freed": 6646,
  "\u2581hisihisina": 6647,
  "\u2581independent": 6648,
  "\u2581instituted": 6649,
  "\u2581kibi": 6650,
  "\u2581lamb": 6651,
  "\u2581luludia": 6652,
  "\u2581meat": 6653,
  "\u2581oela": 6654,
  "\u2581rage": 6655,
  "\u2581reflection": 6656,
  "\u2581romantic": 6657,
  "\u2581shut": 6658,
  "\u2581smoking": 6659,
  "\u2581survival": 6660,
  "\u2581taihudia": 6661,
  "\u2581ultimately": 6662,
  "\u2581weighty": 6663,
  "\u2581wood": 6664,
  "700": 6665,
  "AIO": 6666,
  "Is": 6667,
  "Ruta": 6668,
  "anina": 6669,
  "format": 6670,
  "gadi": 6671,
  "lways": 6672,
  "ublication": 6673,
  "\u25811942": 6674,
  "\u25814.)": 6675,
  "\u2581Abigail": 6676,
  "\u2581Alexandria": 6677,
  "\u2581Blessings": 6678,
  "\u2581Far": 6679,
  "\u2581Fine": 6680,
  "\u2581Giver": 6681,
  "\u2581Goga": 6682,
  "\u2581Harorolaia": 6683,
  "\u2581Jah": 6684,
  "\u2581Matabodaga": 6685,
  "\u2581Middle": 6686,
  "\u2581Prisikila": 6687,
  "\u2581Ralph": 6688,
  "\u2581Rebeka": 6689,
  "\u2581Vol": 6690,
  "\u2581absolute": 6691,
  "\u2581accomplishing": 6692,
  "\u2581accusations": 6693,
  "\u2581arrange": 6694,
  "\u2581belonged": 6695,
  "\u2581billion": 6696,
  "\u2581classes": 6697,
  "\u2581dadabaia": 6698,
  "\u2581fineral": 6699,
  "\u2581fun": 6700,
  "\u2581hekwarahilaia": 6701,
  "\u2581hereadia": 6702,
  "\u2581huana": 6703,
  "\u2581interfere": 6704,
  "\u2581inviting": 6705,
  "\u2581komu": 6706,
  "\u2581latter": 6707,
  "\u2581mentally": 6708,
  "\u2581merit": 6709,
  "\u2581ordinary": 6710,
  "\u2581photo": 6711,
  "\u2581priceless": 6712,
  "\u2581safely": 6713,
  "\u2581sanctification": 6714,
  "\u2581smoke": 6715,
  "\u2581south": 6716,
  "\u2581spring": 6717,
  "\u2581sustained": 6718,
  "\u2581tasks": 6719,
  "\u2581teibolo": 6720,
  "\u2581tomb": 6721,
  "\u2581violate": 6722,
  "\u2581visions": 6723,
  "\u2581vows": 6724,
  "\u2581weighed": 6725,
  "36,": 6726,
  "At": 6727,
  "CD": 6728,
  "GUST": 6729,
  "Where": 6730,
  "pa": 6731,
  "\u258110,000": 6732,
  "\u258110.)": 6733,
  "\u258196": 6734,
  "\u2581Albania": 6735,
  "\u2581Aquila": 6736,
  "\u2581Badu": 6737,
  "\u2581Columbia": 6738,
  "\u2581Ecuador": 6739,
  "\u2581Gabriel": 6740,
  "\u2581Gog": 6741,
  "\u2581Idaunega": 6742,
  "\u2581Karl": 6743,
  "\u2581LAO": 6744,
  "\u2581LU": 6745,
  "\u2581Makedonia": 6746,
  "\u2581Manoka": 6747,
  "\u2581Miriam": 6748,
  "\u2581Savior": 6749,
  "\u2581Tanikiu": 6750,
  "\u2581advantages": 6751,
  "\u2581alkahol": 6752,
  "\u2581badly": 6753,
  "\u2581base": 6754,
  "\u2581booklet": 6755,
  "\u2581branches": 6756,
  "\u2581c": 6757,
  "\u2581confidently": 6758,
  "\u2581daiutuna": 6759,
  "\u2581definitely": 6760,
  "\u2581demand": 6761,
  "\u2581discerned": 6762,
  "\u2581driving": 6763,
  "\u2581firsthand": 6764,
  "\u2581flag": 6765,
  "\u2581hamatamataia": 6766,
  "\u2581horse": 6767,
  "\u2581iniseniai": 6768,
  "\u2581lady": 6769,
  "\u2581mapu": 6770,
  "\u2581march": 6771,
  "\u2581meantime": 6772,
  "\u2581movement": 6773,
  "\u2581oneself": 6774,
  "\u2581onward": 6775,
  "\u2581owe": 6776,
  "\u2581persevere": 6777,
  "\u2581piece": 6778,
  "\u2581presiden": 6779,
  "\u2581previous": 6780,
  "\u2581progressed": 6781,
  "\u2581sacrificed": 6782,
  "\u2581scattered": 6783,
  "\u2581scientists": 6784,
  "\u2581session": 6785,
  "\u2581severely": 6786,
  "\u2581splendor": 6787,
  "\u2581undermine": 6788,
  "\u2581university": 6789,
  "\u2581upper": 6790,
  "\u2581wishes": 6791,
  "2": 6792,
  "800": 6793,
  "dala": 6794,
  "every": 6795,
  "from": 6796,
  "ner": 6797,
  "oroko": 6798,
  "ulama": 6799,
  "\u25812016": 6800,
  "\u25815,000": 6801,
  "\u25817,000": 6802,
  "\u2581Follow": 6803,
  "\u2581HEB": 6804,
  "\u2581Haman": 6805,
  "\u2581Hela\u011fa": 6806,
  "\u2581Ieroboama": 6807,
  "\u2581Karo": 6808,
  "\u2581MATTHEW": 6809,
  "\u2581Museum": 6810,
  "\u2581NAMO": 6811,
  "\u2581Obviously": 6812,
  "\u2581Ocean": 6813,
  "\u2581Tubu": 6814,
  "\u2581Y": 6815,
  "\u2581answering": 6816,
  "\u2581appreciative": 6817,
  "\u2581attractive": 6818,
  "\u2581author": 6819,
  "\u2581bapatisoa": 6820,
  "\u2581committ": 6821,
  "\u2581condemn": 6822,
  "\u2581confess": 6823,
  "\u2581darana": 6824,
  "\u2581devour": 6825,
  "\u2581examined": 6826,
  "\u2581fearful": 6827,
  "\u2581fon": 6828,
  "\u2581generously": 6829,
  "\u2581grieving": 6830,
  "\u2581happier": 6831,
  "\u2581hebouhebouna": 6832,
  "\u2581incense": 6833,
  "\u2581invites": 6834,
  "\u2581marriages": 6835,
  "\u2581ponder": 6836,
  "\u2581pregnant": 6837,
  "\u2581ramuna": 6838,
  "\u2581recommend": 6839,
  "\u2581rentaia": 6840,
  "\u2581scroll": 6841,
  "\u2581sleeping": 6842,
  "\u2581span": 6843,
  "\u2581strife": 6844,
  "\u2581temporarily": 6845,
  "\u2581till": 6846,
  "\u2581vicious": 6847,
  "\u2581wages": 6848,
  "\u2581watched": 6849,
  ",000,000": 6850,
  "Edena": 6851,
  "From": 6852,
  "L": 6853,
  "Maino": 6854,
  "Malaki": 6855,
  "bada": 6856,
  "ford": 6857,
  "ng": 6858,
  "this": 6859,
  "\u2581100,000": 6860,
  "\u258112.)": 6861,
  "\u25811920": 6862,
  "\u25816,000": 6863,
  "\u25817.)": 6864,
  "\u2581Age": 6865,
  "\u2581Association": 6866,
  "\u2581Char": 6867,
  "\u2581Chinese": 6868,
  "\u2581DIBAIA": 6869,
  "\u2581Days": 6870,
  "\u2581End": 6871,
  "\u2581Franz": 6872,
  "\u2581Hospital": 6873,
  "\u2581Levite": 6874,
  "\u2581Lines": 6875,
  "\u2581Maker": 6876,
  "\u2581Meditat": 6877,
  "\u2581Memero": 6878,
  "\u2581Na": 6879,
  "\u2581Publications": 6880,
  "\u2581SEDIUAL": 6881,
  "\u2581SPANISH": 6882,
  "\u2581Syria": 6883,
  "\u2581Welcome": 6884,
  "\u2581Yourself": 6885,
  "\u2581apartment": 6886,
  "\u2581ate": 6887,
  "\u2581auxiliary": 6888,
  "\u2581cancer": 6889,
  "\u2581caution": 6890,
  "\u2581chariot": 6891,
  "\u2581concludes": 6892,
  "\u2581decisive": 6893,
  "\u2581devastating": 6894,
  "\u2581donation": 6895,
  "\u2581educated": 6896,
  "\u2581falls": 6897,
  "\u2581hadihoa": 6898,
  "\u2581healthful": 6899,
  "\u2581imply": 6900,
  "\u2581instill": 6901,
  "\u2581korema": 6902,
  "\u2581kwaradia": 6903,
  "\u2581meals": 6904,
  "\u2581paripari": 6905,
  "\u2581portray": 6906,
  "\u2581prefer": 6907,
  "\u2581recogniz": 6908,
  "\u2581references": 6909,
  "\u2581refresh": 6910,
  "\u2581sikele": 6911,
  "\u2581star": 6912,
  "\u2581strict": 6913,
  "\u2581tracts": 6914,
  "\u2581transferred": 6915,
  "\u2581truthful": 6916,
  "\u2581unbeliever": 6917,
  "\u2581vengeance": 6918,
  "\u2581womb": 6919,
  "\u2581worthless": 6920,
  "Iuda": 6921,
  "New": 6922,
  "V": 6923,
  "ant": 6924,
  "de": 6925,
  "durua": 6926,
  "ekero": 6927,
  "hadibaia": 6928,
  "ight": 6929,
  "ium": 6930,
  "nd": 6931,
  "rina": 6932,
  "un": 6933,
  "\u2581136": 6934,
  "\u25811951": 6935,
  "\u258167": 6936,
  "\u25818.)": 6937,
  "\u2581Adava": 6938,
  "\u2581Amo": 6939,
  "\u2581Beach": 6940,
  "\u2581Everlasting": 6941,
  "\u2581HEREVADIA": 6942,
  "\u2581Hagugurua": 6943,
  "\u2581Kenya": 6944,
  "\u2581Mari": 6945,
  "\u2581PABLISA": 6946,
  "\u2581Patterson": 6947,
  "\u2581Priscilla": 6948,
  "\u2581Russian": 6949,
  "\u2581Si": 6950,
  "\u2581Sila": 6951,
  "\u2581Susan": 6952,
  "\u2581Uria": 6953,
  "\u2581abiatorehai": 6954,
  "\u2581alienat": 6955,
  "\u2581aru": 6956,
  "\u2581assembled": 6957,
  "\u2581assign": 6958,
  "\u2581attribute": 6959,
  "\u2581cultural": 6960,
  "\u2581defeat": 6961,
  "\u2581desiring": 6962,
  "\u2581dramatic": 6963,
  "\u2581employer": 6964,
  "\u2581foretell": 6965,
  "\u2581grooming": 6966,
  "\u2581guides": 6967,
  "\u2581immense": 6968,
  "\u2581immortality": 6969,
  "\u2581inexperienced": 6970,
  "\u2581korosi": 6971,
  "\u2581legally": 6972,
  "\u2581memerodia": 6973,
  "\u2581metal": 6974,
  "\u2581murmuring": 6975,
  "\u2581politics": 6976,
  "\u2581psalms": 6977,
  "\u2581rejoiced": 6978,
  "\u2581remembrance": 6979,
  "\u2581requested": 6980,
  "\u2581singleness": 6981,
  "\u2581sower": 6982,
  "\u2581suppose": 6983,
  "\u2581teenage": 6984,
  "\u2581transform": 6985,
  "\u2581unmarried": 6986,
  "\u2581vigilant": 6987,
  "\u2581villages": 6988,
  "\u2581volume": 6989,
  "\u2581wanting": 6990,
  "\u2581worshipp": 6991,
  "\u2581wrongdoer": 6992,
  "CTO": 6993,
  "Eureka": 6994,
  "Maua": 6995,
  "Ta": 6996,
  "garana": 6997,
  "\u2581115": 6998,
  "\u25811971": 6999,
  "\u2581Agripa": 7000,
  "\u2581Baptizer": 7001,
  "\u2581Bear": 7002,
  "\u2581Gini": 7003,
  "\u2581Happily": 7004,
  "\u2581Har": 7005,
  "\u2581Harana": 7006,
  "\u2581Hedibagani": 7007,
  "\u2581JESUS": 7008,
  "\u2581Jo\u00e3o": 7009,
  "\u2581Moder": 7010,
  "\u2581Olive": 7011,
  "\u2581Philistines": 7012,
  "\u2581Pierce": 7013,
  "\u2581Shar": 7014,
  "\u2581Story": 7015,
  "\u2581accurately": 7016,
  "\u2581aloud": 7017,
  "\u2581arm": 7018,
  "\u2581basikele": 7019,
  "\u2581cleansing": 7020,
  "\u2581creating": 7021,
  "\u2581deit": 7022,
  "\u2581delegates": 7023,
  "\u2581demanded": 7024,
  "\u2581demonstrates": 7025,
  "\u2581derive": 7026,
  "\u2581discerning": 7027,
  "\u2581distractions": 7028,
  "\u2581dressed": 7029,
  "\u2581drift": 7030,
  "\u2581emperor": 7031,
  "\u2581fift": 7032,
  "\u2581hall": 7033,
  "\u2581hid": 7034,
  "\u2581hospitable": 7035,
  "\u2581intimacy": 7036,
  "\u2581kokoa": 7037,
  "\u2581lacked": 7038,
  "\u2581liar": 7039,
  "\u2581lifesaving": 7040,
  "\u2581manokamanoka": 7041,
  "\u2581manuscripts": 7042,
  "\u2581misunderstand": 7043,
  "\u2581naturally": 7044,
  "\u2581participating": 7045,
  "\u2581penia": 7046,
  "\u2581persecute": 7047,
  "\u2581purposed": 7048,
  "\u2581rare": 7049,
  "\u2581reacted": 7050,
  "\u2581recover": 7051,
  "\u2581relied": 7052,
  "\u2581senisi": 7053,
  "\u2581strayed": 7054,
  "\u2581streets": 7055,
  "\u2581virgin": 7056,
  "8": 7057,
  "W": 7058,
  "io": 7059,
  "ke": 7060,
  "power": 7061,
  "\u25811,500": 7062,
  "\u25811879": 7063,
  "\u258142,": 7064,
  "\u258145,": 7065,
  "\u25816.)": 7066,
  "\u2581Agrippa": 7067,
  "\u2581Ark": 7068,
  "\u2581Famili": 7069,
  "\u2581Full": 7070,
  "\u2581Haran": 7071,
  "\u2581Humans": 7072,
  "\u2581Humility": 7073,
  "\u2581Jean": 7074,
  "\u2581Kim": 7075,
  "\u2581Murina": 7076,
  "\u2581Must": 7077,
  "\u2581Naboto": 7078,
  "\u2581ON": 7079,
  "\u2581Proclaimer": 7080,
  "\u2581Silas": 7081,
  "\u2581Simona": 7082,
  "\u2581Song": 7083,
  "\u2581adding": 7084,
  "\u2581affliction": 7085,
  "\u2581bitterness": 7086,
  "\u2581burial": 7087,
  "\u2581challenged": 7088,
  "\u2581cling": 7089,
  "\u2581collection": 7090,
  "\u2581concept": 7091,
  "\u2581covetousness": 7092,
  "\u2581crucial": 7093,
  "\u2581despair": 7094,
  "\u2581double": 7095,
  "\u2581honored": 7096,
  "\u2581hostile": 7097,
  "\u2581journal": 7098,
  "\u2581loneliness": 7099,
  "\u2581marrying": 7100,
  "\u2581matauraidia": 7101,
  "\u2581miri": 7102,
  "\u2581misleading": 7103,
  "\u2581operate": 7104,
  "\u2581praises": 7105,
  "\u2581president": 7106,
  "\u2581professor": 7107,
  "\u2581promot": 7108,
  "\u2581pursued": 7109,
  "\u2581reduce": 7110,
  "\u2581revarevadia": 7111,
  "\u2581rooms": 7112,
  "\u2581seat": 7113,
  "\u2581somehow": 7114,
  "\u2581space": 7115,
  "\u2581spies": 7116,
  "\u2581thinks": 7117,
  "\u2581treinia": 7118,
  "\u2581unreasonable": 7119,
  "\u2581weeping": 7120,
  "BY": 7121,
  "KE": 7122,
  "Mani": 7123,
  "May": 7124,
  "ah": 7125,
  "ard": 7126,
  "edar": 7127,
  "eferring": 7128,
  "maino": 7129,
  "namo": 7130,
  "sibona": 7131,
  "their": 7132,
  "\u258115.)": 7133,
  "\u258116.)": 7134,
  "\u258117.)": 7135,
  "\u258135)": 7136,
  "\u2581ARTICLE": 7137,
  "\u2581Amen": 7138,
  "\u2581Anania": 7139,
  "\u2581Antonio": 7140,
  "\u2581Dekena": 7141,
  "\u2581Hedinarai": 7142,
  "\u2581Into": 7143,
  "\u2581Jer": 7144,
  "\u2581Jeroboam": 7145,
  "\u2581Language": 7146,
  "\u2581Louis": 7147,
  "\u2581MAI": 7148,
  "\u2581Nero": 7149,
  "\u2581Rejoice": 7150,
  "\u2581Sydney": 7151,
  "\u2581Together": 7152,
  "\u2581Tura": 7153,
  "\u2581Understandabl": 7154,
  "\u2581Union": 7155,
  "\u2581actual": 7156,
  "\u2581banika": 7157,
  "\u2581blow": 7158,
  "\u2581bondage": 7159,
  "\u2581carrie": 7160,
  "\u2581contend": 7161,
  "\u2581davaridia": 7162,
  "\u2581deceive": 7163,
  "\u2581discusse": 7164,
  "\u2581dishonest": 7165,
  "\u2581disisen": 7166,
  "\u2581disown": 7167,
  "\u2581dread": 7168,
  "\u2581elevated": 7169,
  "\u2581formal": 7170,
  "\u2581futnout": 7171,
  "\u2581governor": 7172,
  "\u2581inform": 7173,
  "\u2581intently": 7174,
  "\u2581kensa": 7175,
  "\u2581lahina": 7176,
  "\u2581merchant": 7177,
  "\u2581permits": 7178,
  "\u2581punish": 7179,
  "\u2581rapidly": 7180,
  "\u2581regain": 7181,
  "\u2581remembers": 7182,
  "\u2581restrain": 7183,
  "\u2581seri": 7184,
  "\u2581sexually": 7185,
  "\u2581shy": 7186,
  "\u2581skilled": 7187,
  "\u2581snow": 7188,
  "\u2581speed": 7189,
  "\u2581spoil": 7190,
  "\u2581stumbled": 7191,
  "\u2581tenderly": 7192,
  "\u2581threaten": 7193,
  "\u2581torment": 7194,
  "\u2581towns": 7195,
  "\u2581transgressions": 7196,
  "\u2581volunteer": 7197,
  "\u2581weather": 7198,
  "\u2581winds": 7199,
  "01": 7200,
  "201": 7201,
  "4": 7202,
  "6": 7203,
  "LO": 7204,
  "Make": 7205,
  "Siahu": 7206,
  "dok": 7207,
  "et": 7208,
  "gin": 7209,
  "ley": 7210,
  "manau": 7211,
  "ris": 7212,
  "upreme": 7213,
  "\u258113.)": 7214,
  "\u258114.)": 7215,
  "\u25811974": 7216,
  "\u258132)": 7217,
  "\u258134)": 7218,
  "\u258144,": 7219,
  "\u2581Apollos": 7220,
  "\u2581DEKENAI": 7221,
  "\u2581District": 7222,
  "\u2581Guide": 7223,
  "\u2581Halaoa": 7224,
  "\u2581Intern": 7225,
  "\u2581Jesse": 7226,
  "\u2581KARANA": 7227,
  "\u2581Marcus": 7228,
  "\u2581PUBLISHERS": 7229,
  "\u2581Pid": 7230,
  "\u2581Professor": 7231,
  "\u2581ROM": 7232,
  "\u2581Relate": 7233,
  "\u2581Sisiba": 7234,
  "\u2581Steve": 7235,
  "\u2581Worldwide": 7236,
  "\u2581anena": 7237,
  "\u2581approachable": 7238,
  "\u2581arises": 7239,
  "\u2581aukaia": 7240,
  "\u2581banned": 7241,
  "\u2581ceremony": 7242,
  "\u2581derived": 7243,
  "\u2581design": 7244,
  "\u2581dis": 7245,
  "\u2581dominant": 7246,
  "\u2581embraced": 7247,
  "\u2581exalt": 7248,
  "\u2581fair": 7249,
  "\u2581favored": 7250,
  "\u2581favorite": 7251,
  "\u2581festivals": 7252,
  "\u2581gimadia": 7253,
  "\u2581guidelines": 7254,
  "\u2581hairaidia": 7255,
  "\u2581hauraia": 7256,
  "\u2581horses": 7257,
  "\u2581inferior": 7258,
  "\u2581link": 7259,
  "\u2581mission": 7260,
  "\u2581motivation": 7261,
  "\u2581platform": 7262,
  "\u2581plays": 7263,
  "\u2581prey": 7264,
  "\u2581reduced": 7265,
  "\u2581rejecting": 7266,
  "\u2581respectfully": 7267,
  "\u2581route": 7268,
  "\u2581searched": 7269,
  "\u2581si": 7270,
  "\u2581starts": 7271,
  "\u2581stream": 7272,
  "\u2581surviving": 7273,
  "\u2581threats": 7274,
  "\u2581unjust": 7275,
  "\u2581valued": 7276,
  "\u2581verb": 7277,
  "\u2581zone": 7278,
  "35": 7279,
  "bael": 7280,
  "were": 7281,
  "\u25811948": 7282,
  "\u2581250": 7283,
  "\u2581APOS": 7284,
  "\u2581Amono": 7285,
  "\u2581Atoa": 7286,
  "\u2581Bay": 7287,
  "\u2581Britannica": 7288,
  "\u2581British": 7289,
  "\u2581Comfort": 7290,
  "\u2581Dipatmen": 7291,
  "\u2581Ever": 7292,
  "\u2581Gunaguna": 7293,
  "\u2581Hairai": 7294,
  "\u2581Ieserele": 7295,
  "\u2581Jan": 7296,
  "\u2581Jenny": 7297,
  "\u2581Kakakakana": 7298,
  "\u2581Morodekai": 7299,
  "\u2581None": 7300,
  "\u2581Saiens": 7301,
  "\u2581Salvation": 7302,
  "\u2581Sarai": 7303,
  "\u2581Servant": 7304,
  "\u2581Una": 7305,
  "\u2581anguish": 7306,
  "\u2581believes": 7307,
  "\u2581broad": 7308,
  "\u2581cleaning": 7309,
  "\u2581clouds": 7310,
  "\u2581commitment": 7311,
  "\u2581connected": 7312,
  "\u2581despised": 7313,
  "\u2581destructive": 7314,
  "\u2581enthroned": 7315,
  "\u2581entrance": 7316,
  "\u2581expensive": 7317,
  "\u2581flight": 7318,
  "\u2581follower": 7319,
  "\u2581frustration": 7320,
  "\u2581la": 7321,
  "\u2581maniuskrip": 7322,
  "\u2581materials": 7323,
  "\u2581nursing": 7324,
  "\u2581pace": 7325,
  "\u2581pair": 7326,
  "\u2581perceived": 7327,
  "\u2581permanently": 7328,
  "\u2581persist": 7329,
  "\u2581plasma": 7330,
  "\u2581princes": 7331,
  "\u2581reconciled": 7332,
  "\u2581rere": 7333,
  "\u2581rooted": 7334,
  "\u2581sal": 7335,
  "\u2581science": 7336,
  "\u2581sirina": 7337,
  "\u2581sorry": 7338,
  "\u2581stable": 7339,
  "\u2581stranger": 7340,
  "\u2581struggled": 7341,
  "\u2581tamadia": 7342,
  "\u2581target": 7343,
  "\u2581trade": 7344,
  "\u2581tribulations": 7345,
  "\u2581wrongdoers": 7346,
  "5": 7347,
  "Babulonia": 7348,
  "ETO": 7349,
  "Edia": 7350,
  "Everyone": 7351,
  "Hahine": 7352,
  "IA": 7353,
  "That": 7354,
  "UNAI": 7355,
  "am": 7356,
  "born": 7357,
  "hebogahisi": 7358,
  "lo": 7359,
  "ol": 7360,
  "so": 7361,
  "uji": 7362,
  "\u00e3o": 7363,
  "\u25811934": 7364,
  "\u25811963": 7365,
  "\u25813.)": 7366,
  "\u258133,": 7367,
  "\u258141.": 7368,
  "\u2581AN": 7369,
  "\u2581Along": 7370,
  "\u2581Answers": 7371,
  "\u2581Colossae": 7372,
  "\u2581Compare": 7373,
  "\u2581De": 7374,
  "\u2581Ful": 7375,
  "\u2581Haiti": 7376,
  "\u2581Hamatamaia": 7377,
  "\u2581Hiri": 7378,
  "\u2581Insight": 7379,
  "\u2581Judaism": 7380,
  "\u2581Marion": 7381,
  "\u2581Midiana": 7382,
  "\u2581Ne": 7383,
  "\u2581Provider": 7384,
  "\u2581Rachel": 7385,
  "\u2581Rights": 7386,
  "\u2581Tok": 7387,
  "\u2581Universal": 7388,
  "\u2581abound": 7389,
  "\u2581accepts": 7390,
  "\u2581alien": 7391,
  "\u2581almighty": 7392,
  "\u2581awareness": 7393,
  "\u2581calamities": 7394,
  "\u2581calf": 7395,
  "\u2581copper": 7396,
  "\u2581crush": 7397,
  "\u2581crying": 7398,
  "\u2581cutting": 7399,
  "\u2581describ": 7400,
  "\u2581devastated": 7401,
  "\u2581doctors": 7402,
  "\u2581equipment": 7403,
  "\u2581esteem": 7404,
  "\u2581function": 7405,
  "\u2581gate": 7406,
  "\u2581hahodi": 7407,
  "\u2581hai": 7408,
  "\u2581height": 7409,
  "\u2581helt": 7410,
  "\u2581ho": 7411,
  "\u2581hodoa": 7412,
  "\u2581impell": 7413,
  "\u2581incite": 7414,
  "\u2581income": 7415,
  "\u2581lonely": 7416,
  "\u2581mutual": 7417,
  "\u2581normally": 7418,
  "\u2581partial": 7419,
  "\u2581peva": 7420,
  "\u2581queen": 7421,
  "\u2581reasonableness": 7422,
  "\u2581rebelled": 7423,
  "\u2581rightful": 7424,
  "\u2581roll": 7425,
  "\u2581sentenced": 7426,
  "\u2581sentiments": 7427,
  "\u2581simplify": 7428,
  "\u2581sitisen": 7429,
  "\u2581sounds": 7430,
  "\u2581survivors": 7431,
  "\u2581testify": 7432,
  "\u2581wash": 7433,
  "\u2581washed": 7434,
  "\u2581worst": 7435,
  "Gun": 7436,
  "Ma": 7437,
  "Mase": 7438,
  "Sekaraia": 7439,
  "Tauanina": 7440,
  "UKA": 7441,
  "Whoever": 7442,
  "amo": 7443,
  "anic": 7444,
  "erega": 7445,
  "ge": 7446,
  "kudouna": 7447,
  "likeisen": 7448,
  "rs": 7449,
  "taravatu": 7450,
  "tic": 7451,
  "time": 7452,
  "\u2581(201": 7453,
  "\u25812.)": 7454,
  "\u2581Anne": 7455,
  "\u2581Auka": 7456,
  "\u2581Bas": 7457,
  "\u2581Benefit": 7458,
  "\u2581Certain": 7459,
  "\u2581Child": 7460,
  "\u2581Eastern": 7461,
  "\u2581Friday": 7462,
  "\u2581Jezreel": 7463,
  "\u2581Klein": 7464,
  "\u2581Matahanai": 7465,
  "\u2581Members": 7466,
  "\u2581Mero": 7467,
  "\u2581Monday": 7468,
  "\u2581WE": 7469,
  "\u2581Writing": 7470,
  "\u2581adjustment": 7471,
  "\u2581aging": 7472,
  "\u2581ap": 7473,
  "\u2581attacked": 7474,
  "\u2581beat": 7475,
  "\u2581buildings": 7476,
  "\u2581celebrate": 7477,
  "\u2581combined": 7478,
  "\u2581correctly": 7479,
  "\u2581covers": 7480,
  "\u2581criminal": 7481,
  "\u2581cured": 7482,
  "\u2581damaging": 7483,
  "\u2581desert": 7484,
  "\u2581duahidia": 7485,
  "\u2581employed": 7486,
  "\u2581err": 7487,
  "\u2581existing": 7488,
  "\u2581fellowship": 7489,
  "\u2581gunika": 7490,
  "\u2581hypocritical": 7491,
  "\u2581imitators": 7492,
  "\u2581intent": 7493,
  "\u2581io": 7494,
  "\u2581joys": 7495,
  "\u2581kisi": 7496,
  "\u2581l": 7497,
  "\u2581liken": 7498,
  "\u2581listens": 7499,
  "\u2581mixed": 7500,
  "\u2581petition": 7501,
  "\u2581plat": 7502,
  "\u2581pleases": 7503,
  "\u2581port": 7504,
  "\u2581pr": 7505,
  "\u2581presumptuous": 7506,
  "\u2581product": 7507,
  "\u2581promptly": 7508,
  "\u2581prosperous": 7509,
  "\u2581refus": 7510,
  "\u2581rege": 7511,
  "\u2581relying": 7512,
  "\u2581ride": 7513,
  "\u2581sinagoga": 7514,
  "\u2581sinou": 7515,
  "\u2581sites": 7516,
  "\u2581skill": 7517,
  "\u2581subtle": 7518,
  "\u2581sweet": 7519,
  "\u2581systems": 7520,
  "\u2581tiny": 7521,
  "\u2581uncertain": 7522,
  "\u2581vessel": 7523,
  "\u2581victorious": 7524,
  ">": 7525,
  "After": 7526,
  "Continue": 7527,
  "Luka": 7528,
  "Nehemia": 7529,
  "Tadikaka": 7530,
  "critical": 7531,
  "gui": 7532,
  "ial": 7533,
  "il": 7534,
  "tuari": 7535,
  "use": 7536,
  "\u258198": 7537,
  "\u258199": 7538,
  "\u2581AIDS": 7539,
  "\u2581Ananias": 7540,
  "\u2581Benin": 7541,
  "\u2581En": 7542,
  "\u2581Hadikaia": 7543,
  "\u2581Hegaegae": 7544,
  "\u2581Integrity": 7545,
  "\u2581Joan": 7546,
  "\u2581Mordecai": 7547,
  "\u2581Murinai": 7548,
  "\u2581Naboth": 7549,
  "\u2581Orthodox": 7550,
  "\u2581Otherwise": 7551,
  "\u2581QUESTIONS": 7552,
  "\u2581Religion": 7553,
  "\u2581SUBJECT": 7554,
  "\u2581Standard": 7555,
  "\u2581Strong": 7556,
  "\u2581Taiwan": 7557,
  "\u2581aneruna": 7558,
  "\u2581approaches": 7559,
  "\u2581attempts": 7560,
  "\u2581begged": 7561,
  "\u2581besides": 7562,
  "\u2581bomu": 7563,
  "\u2581conclusions": 7564,
  "\u2581conscientious": 7565,
  "\u2581convincing": 7566,
  "\u2581courtyard": 7567,
  "\u2581crisis": 7568,
  "\u2581delivering": 7569,
  "\u2581discourage": 7570,
  "\u2581distorted": 7571,
  "\u2581distribution": 7572,
  "\u2581dominated": 7573,
  "\u2581emphasizes": 7574,
  "\u2581escaped": 7575,
  "\u2581exhorts": 7576,
  "\u2581expelled": 7577,
  "\u2581faults": 7578,
  "\u2581focuse": 7579,
  "\u2581goat": 7580,
  "\u2581haganidia": 7581,
  "\u2581hagugurudia": 7582,
  "\u2581haheaua": 7583,
  "\u2581harmonize": 7584,
  "\u2581headed": 7585,
  "\u2581hiding": 7586,
  "\u2581idaunega": 7587,
  "\u2581justify": 7588,
  "\u2581kemena": 7589,
  "\u2581manudia": 7590,
  "\u2581mirror": 7591,
  "\u2581mislead": 7592,
  "\u2581mold": 7593,
  "\u2581movies": 7594,
  "\u2581muster": 7595,
  "\u2581obligations": 7596,
  "\u2581offend": 7597,
  "\u2581onto": 7598,
  "\u2581pavapava": 7599,
  "\u2581persuaded": 7600,
  "\u2581pillar": 7601,
  "\u2581planted": 7602,
  "\u2581pointing": 7603,
  "\u2581ranks": 7604,
  "\u2581rescued": 7605,
  "\u2581retain": 7606,
  "\u2581revelation": 7607,
  "\u2581rohoroho": 7608,
  "\u2581scenes": 7609,
  "\u2581secondary": 7610,
  "\u2581selling": 7611,
  "\u2581ship": 7612,
  "\u2581supportive": 7613,
  "\u2581tactfully": 7614,
  "\u2581tenth": 7615,
  "\u2581tomorrow": 7616,
  "\u2581tour": 7617,
  "\u2581uhena": 7618,
  "\u2581uindo": 7619,
  "\u2581weapon": 7620,
  "39": 7621,
  "483,": 7622,
  "Amosa": 7623,
  "Have": 7624,
  "Just": 7625,
  "gifts": 7626,
  "little": 7627,
  "long": 7628,
  "ory": 7629,
  "ung": 7630,
  "uti": 7631,
  "\u2581123": 7632,
  "\u2581Ahuna": 7633,
  "\u2581Barber": 7634,
  "\u2581Belgium": 7635,
  "\u2581Cyrus": 7636,
  "\u2581Hora": 7637,
  "\u2581Koua": 7638,
  "\u2581Matana": 7639,
  "\u2581Methodius": 7640,
  "\u2581Mikaela": 7641,
  "\u2581Natural": 7642,
  "\u2581Organization": 7643,
  "\u2581Ranu": 7644,
  "\u2581Suddenly": 7645,
  "\u2581Suffering": 7646,
  "\u2581Tis": 7647,
  "\u2581UN": 7648,
  "\u2581Unuseni": 7649,
  "\u2581adversities": 7650,
  "\u2581alike": 7651,
  "\u2581authoriz": 7652,
  "\u2581charges": 7653,
  "\u2581chooses": 7654,
  "\u2581concealed": 7655,
  "\u2581constructed": 7656,
  "\u2581denied": 7657,
  "\u2581digara": 7658,
  "\u2581eit": 7659,
  "\u2581eyewitnesses": 7660,
  "\u2581financially": 7661,
  "\u2581fishing": 7662,
  "\u2581fleeing": 7663,
  "\u2581foretells": 7664,
  "\u2581greeting": 7665,
  "\u2581harder": 7666,
  "\u2581hat": 7667,
  "\u2581hellfire": 7668,
  "\u2581hevasehalaia": 7669,
  "\u2581honorable": 7670,
  "\u2581infant": 7671,
  "\u2581joint": 7672,
  "\u2581lahedo": 7673,
  "\u2581laud": 7674,
  "\u2581leaven": 7675,
  "\u2581locations": 7676,
  "\u2581lure": 7677,
  "\u2581maketi": 7678,
  "\u2581match": 7679,
  "\u2581medicine": 7680,
  "\u2581meekness": 7681,
  "\u2581ministering": 7682,
  "\u2581neglected": 7683,
  "\u2581officers": 7684,
  "\u2581orderly": 7685,
  "\u2581overlooked": 7686,
  "\u2581paper": 7687,
  "\u2581prevail": 7688,
  "\u2581profesa": 7689,
  "\u2581progressive": 7690,
  "\u2581protecting": 7691,
  "\u2581reliance": 7692,
  "\u2581reproof": 7693,
  "\u2581reverence": 7694,
  "\u2581roots": 7695,
  "\u2581sale": 7696,
  "\u2581sanctuary": 7697,
  "\u2581teens": 7698,
  "\u2581testing": 7699,
  "\u2581ultimate": 7700,
  "\u2581unknown": 7701,
  "\u2581warmth": 7702,
  "\u2581waste": 7703,
  "Daika": 7704,
  "Harihari": 7705,
  "Lalokau": 7706,
  "istrik": 7707,
  "ius": 7708,
  "make": 7709,
  "nated": 7710,
  "olo": 7711,
  "ru": 7712,
  "wept": 7713,
  "ze": 7714,
  "\u2581135": 7715,
  "\u25811933": 7716,
  "\u25811961": 7717,
  "\u258174": 7718,
  "\u258179": 7719,
  "\u2581ABIA": 7720,
  "\u2581Crete": 7721,
  "\u2581Dabua": 7722,
  "\u2581Davarana": 7723,
  "\u2581EMU": 7724,
  "\u2581Fellow": 7725,
  "\u2581Goeva": 7726,
  "\u2581Hanaia": 7727,
  "\u2581KERIS": 7728,
  "\u2581KOR": 7729,
  "\u2581Lai": 7730,
  "\u2581Lett": 7731,
  "\u2581Loaloa": 7732,
  "\u2581Ministeri": 7733,
  "\u2581Mov": 7734,
  "\u2581Mozambique": 7735,
  "\u2581Ogogami": 7736,
  "\u2581Oto": 7737,
  "\u2581Pat": 7738,
  "\u2581Potifara": 7739,
  "\u2581Ro": 7740,
  "\u2581Scott": 7741,
  "\u2581Toronto": 7742,
  "\u2581accountable": 7743,
  "\u2581alcoholic": 7744,
  "\u2581bibina": 7745,
  "\u2581breath": 7746,
  "\u2581card": 7747,
  "\u2581channel": 7748,
  "\u2581climate": 7749,
  "\u2581comprehend": 7750,
  "\u2581contents": 7751,
  "\u2581deceased": 7752,
  "\u2581decid": 7753,
  "\u2581defined": 7754,
  "\u2581descendant": 7755,
  "\u2581diravana": 7756,
  "\u2581displays": 7757,
  "\u2581displeasing": 7758,
  "\u2581distribute": 7759,
  "\u2581disturbed": 7760,
  "\u2581doana": 7761,
  "\u2581enmity": 7762,
  "\u2581entity": 7763,
  "\u2581excel": 7764,
  "\u2581failing": 7765,
  "\u2581fellowman": 7766,
  "\u2581fortified": 7767,
  "\u2581gates": 7768,
  "\u2581hahekau": 7769,
  "\u2581hardworking": 7770,
  "\u2581ignorance": 7771,
  "\u2581ki": 7772,
  "\u2581muramurana": 7773,
  "\u2581neiba": 7774,
  "\u2581oppressive": 7775,
  "\u2581perseverance": 7776,
  "\u2581questioned": 7777,
  "\u2581rakatanidia": 7778,
  "\u2581raurau": 7779,
  "\u2581reache": 7780,
  "\u2581repeat": 7781,
  "\u2581resemble": 7782,
  "\u2581shape": 7783,
  "\u2581sixth": 7784,
  "\u2581teenagers": 7785,
  "\u2581timing": 7786,
  "\u2581tire": 7787,
  "\u2581tobacco": 7788,
  "\u2581traffic": 7789,
  "\u2581tubua": 7790,
  "\u2581uttered": 7791,
  "\u2581waves": 7792,
  "\u2581wings": 7793,
  "Bese": 7794,
  "CH": 7795,
  "EEK": 7796,
  "Even": 7797,
  "URA": 7798,
  "diba": 7799,
  "ela": 7800,
  "ha": 7801,
  "naria": 7802,
  "vara": 7803,
  "\u2581(5)": 7804,
  "\u2581111,": 7805,
  "\u25811928": 7806,
  "\u25811975": 7807,
  "\u258143,": 7808,
  "\u258146.": 7809,
  "\u2581Anyone": 7810,
  "\u2581Assyrians": 7811,
  "\u2581Bethelites": 7812,
  "\u2581CAN": 7813,
  "\u2581Carol": 7814,
  "\u2581Complete": 7815,
  "\u2581Conventions": 7816,
  "\u2581GAUNA": 7817,
  "\u2581Gary": 7818,
  "\u2581Guard": 7819,
  "\u2581HARI": 7820,
  "\u2581Hamomokania": 7821,
  "\u2581Ioela": 7822,
  "\u2581Malagasy": 7823,
  "\u2581Med": 7824,
  "\u2581Mede": 7825,
  "\u2581OUR": 7826,
  "\u2581Philistine": 7827,
  "\u2581Report": 7828,
  "\u2581Review": 7829,
  "\u2581Tony": 7830,
  "\u2581Uma": 7831,
  "\u2581Yan": 7832,
  "\u2581accordingly": 7833,
  "\u2581border": 7834,
  "\u2581bull": 7835,
  "\u2581cherished": 7836,
  "\u2581cleanliness": 7837,
  "\u2581confusion": 7838,
  "\u2581contacted": 7839,
  "\u2581darea": 7840,
  "\u2581defeated": 7841,
  "\u2581distinction": 7842,
  "\u2581earthquake": 7843,
  "\u2581ensnare": 7844,
  "\u2581exhibit": 7845,
  "\u2581expend": 7846,
  "\u2581generations": 7847,
  "\u2581gubana": 7848,
  "\u2581guiding": 7849,
  "\u2581haboudia": 7850,
  "\u2581haginidia": 7851,
  "\u2581hakererea": 7852,
  "\u2581harbor": 7853,
  "\u2581hereadaedia": 7854,
  "\u2581humbled": 7855,
  "\u2581implied": 7856,
  "\u2581impressive": 7857,
  "\u2581intellectual": 7858,
  "\u2581intention": 7859,
  "\u2581koria": 7860,
  "\u2581marvel": 7861,
  "\u2581misery": 7862,
  "\u2581nights": 7863,
  "\u2581obediently": 7864,
  "\u2581occupied": 7865,
  "\u2581organizational": 7866,
  "\u2581organize": 7867,
  "\u2581penalty": 7868,
  "\u2581posed": 7869,
  "\u2581pune": 7870,
  "\u2581racial": 7871,
  "\u2581relevant": 7872,
  "\u2581restraint": 7873,
  "\u2581rohorohona": 7874,
  "\u2581scientific": 7875,
  "\u2581scope": 7876,
  "\u2581section": 7877,
  "\u2581shock": 7878,
  "\u2581sown": 7879,
  "\u2581suicide": 7880,
  "\u2581torn": 7881,
  "\u2581trace": 7882,
  "\u2581unacceptable": 7883,
  "\u2581wake": 7884,
  "17": 7885,
  "AN": 7886,
  "DIA": 7887,
  "Mose": 7888,
  "Pay": 7889,
  "TANI": 7890,
  "UNE": 7891,
  "apua": 7892,
  "ate": 7893,
  "au": 7894,
  "came": 7895,
  "hearted": 7896,
  "li": 7897,
  "rich": 7898,
  "thing": 7899,
  "\u258121.)": 7900,
  "\u2581Allen": 7901,
  "\u2581Amy": 7902,
  "\u2581Atena": 7903,
  "\u2581Columbus": 7904,
  "\u2581Emmanuel": 7905,
  "\u2581Gomora": 7906,
  "\u2581Haheaukalaia": 7907,
  "\u2581Iboudiai": 7908,
  "\u2581Marc": 7909,
  "\u2581Millenni": 7910,
  "\u2581Ore": 7911,
  "\u2581Pharisee": 7912,
  "\u2581Preaching": 7913,
  "\u2581Respect": 7914,
  "\u2581Sisera": 7915,
  "\u2581Studies": 7916,
  "\u2581Syrian": 7917,
  "\u2581admonishes": 7918,
  "\u2581adverse": 7919,
  "\u2581advised": 7920,
  "\u2581aright": 7921,
  "\u2581armed": 7922,
  "\u2581attached": 7923,
  "\u2581awaken": 7924,
  "\u2581band": 7925,
  "\u2581beg": 7926,
  "\u2581compelled": 7927,
  "\u2581counsels": 7928,
  "\u2581demonstration": 7929,
  "\u2581diravadia": 7930,
  "\u2581director": 7931,
  "\u2581disloyal": 7932,
  "\u2581disrupt": 7933,
  "\u2581en": 7934,
  "\u2581excessive": 7935,
  "\u2581flocks": 7936,
  "\u2581grass": 7937,
  "\u2581grounds": 7938,
  "\u2581guards": 7939,
  "\u2581hostility": 7940,
  "\u2581infancy": 7941,
  "\u2581insist": 7942,
  "\u2581kakakaka": 7943,
  "\u2581kesi": 7944,
  "\u2581kopukopu": 7945,
  "\u2581kumia": 7946,
  "\u2581lifted": 7947,
  "\u2581market": 7948,
  "\u2581negedia": 7949,
  "\u2581oblig": 7950,
  "\u2581owned": 7951,
  "\u2581pepadia": 7952,
  "\u2581per": 7953,
  "\u2581prevented": 7954,
  "\u2581prospective": 7955,
  "\u2581provoked": 7956,
  "\u2581religiously": 7957,
  "\u2581remarks": 7958,
  "\u2581restricted": 7959,
  "\u2581sadness": 7960,
  "\u2581seize": 7961,
  "\u2581stimulate": 7962,
  "\u2581stir": 7963,
  "\u2581stupid": 7964,
  "\u2581survey": 7965,
  "\u2581tempt": 7966,
  "\u2581tim": 7967,
  "\u2581tone": 7968,
  "\u2581undue": 7969,
  "\u2581unite": 7970,
  "\u2581withstand": 7971,
  "Hosea": 7972,
  "Ioane": 7973,
  "One": 7974,
  "body": 7975,
  "bona": 7976,
  "dokona": 7977,
  "have": 7978,
  "ific": 7979,
  "ina": 7980,
  "lalona": 7981,
  "\u2581128": 7982,
  "\u25811932": 7983,
  "\u25811982": 7984,
  "\u25811987": 7985,
  "\u258147,": 7986,
  "\u258195": 7987,
  "\u2581Alice": 7988,
  "\u2581BAMONA": 7989,
  "\u2581Ba": 7990,
  "\u2581Biagua": 7991,
  "\u2581Canaanite": 7992,
  "\u2581Courage": 7993,
  "\u2581Endurance": 7994,
  "\u2581Four": 7995,
  "\u2581Gift": 7996,
  "\u2581Gwen": 7997,
  "\u2581HAKA": 7998,
  "\u2581HENANADAI": 7999,
  "\u2581Hemataurai": 8000,
  "\u2581Ihatoina": 8001,
  "\u2581Ins": 8002,
  "\u2581Japanese": 8003,
  "\u2581Ke": 8004,
  "\u2581Lake": 8005,
  "\u2581Macmillan": 8006,
  "\u2581Maorona": 8007,
  "\u2581Maragidia": 8008,
  "\u2581Megan": 8009,
  "\u2581Mesiana": 8010,
  "\u2581Persia": 8011,
  "\u2581Personal": 8012,
  "\u2581Quebec": 8013,
  "\u2581Reach": 8014,
  "\u2581Rehoboam": 8015,
  "\u2581Shirley": 8016,
  "\u2581Silvia": 8017,
  "\u2581Sin": 8018,
  "\u2581TAUNA": 8019,
  "\u2581Tertullian": 8020,
  "\u2581Thanks": 8021,
  "\u2581Vine": 8022,
  "\u2581advancing": 8023,
  "\u2581appreciatively": 8024,
  "\u2581arguments": 8025,
  "\u2581attentive": 8026,
  "\u2581certainty": 8027,
  "\u2581charged": 8028,
  "\u2581commander": 8029,
  "\u2581complained": 8030,
  "\u2581consistent": 8031,
  "\u2581consumed": 8032,
  "\u2581cultivated": 8033,
  "\u2581deadly": 8034,
  "\u2581deserved": 8035,
  "\u2581detestable": 8036,
  "\u2581dictionary": 8037,
  "\u2581document": 8038,
  "\u2581dominate": 8039,
  "\u2581emotion": 8040,
  "\u2581encountered": 8041,
  "\u2581exceptional": 8042,
  "\u2581excited": 8043,
  "\u2581excuse": 8044,
  "\u2581fame": 8045,
  "\u2581fold": 8046,
  "\u2581fuel": 8047,
  "\u2581gabana": 8048,
  "\u2581gara": 8049,
  "\u2581ginigabedia": 8050,
  "\u2581grandmother": 8051,
  "\u2581honey": 8052,
  "\u2581imagination": 8053,
  "\u2581imagined": 8054,
  "\u2581impaled": 8055,
  "\u2581improved": 8056,
  "\u2581instrument": 8057,
  "\u2581introduce": 8058,
  "\u2581issued": 8059,
  "\u2581killing": 8060,
  "\u2581legs": 8061,
  "\u2581manslayer": 8062,
  "\u2581newborn": 8063,
  "\u2581numbered": 8064,
  "\u2581positively": 8065,
  "\u2581prophesy": 8066,
  "\u2581proselytes": 8067,
  "\u2581regarded": 8068,
  "\u2581sand": 8069,
  "\u2581schooling": 8070,
  "\u2581shift": 8071,
  "\u2581shocked": 8072,
  "\u2581siblings": 8073,
  "\u2581stability": 8074,
  "\u2581sudden": 8075,
  "\u2581technology": 8076,
  "\u2581thirst": 8077,
  "\u2581thorns": 8078,
  "\u2581topic": 8079,
  "\u2581una": 8080,
  "\u2581unlike": 8081,
  "\u2581va": 8082,
  "\u2581vulnerable": 8083,
  "\u2581wage": 8084,
  "\u2581walks": 8085,
  "\u2581wave": 8086,
  "\u2581wayward": 8087,
  "\u2581weakened": 8088,
  "\u2581west": 8089,
  "\u2581\u011fau": 8090,
  "70": 8091,
  "Jairo": 8092,
  "Ruma": 8093,
  "Take": 8094,
  "Tuari": 8095,
  "because": 8096,
  "ble": 8097,
  "nel": 8098,
  "okua": 8099,
  "ran": 8100,
  "sivarai": 8101,
  "take": 8102,
  "\u2581124": 8103,
  "\u2581Accept": 8104,
  "\u2581Angels": 8105,
  "\u2581Attention": 8106,
  "\u2581Baptism": 8107,
  "\u2581Everything": 8108,
  "\u2581Festival": 8109,
  "\u2581Ge": 8110,
  "\u2581Hades": 8111,
  "\u2581Jehoash": 8112,
  "\u2581MOMO": 8113,
  "\u2581Mountain": 8114,
  "\u2581Parabole": 8115,
  "\u2581Pro": 8116,
  "\u2581Protestan": 8117,
  "\u2581Search": 8118,
  "\u2581Set": 8119,
  "\u2581Uriah": 8120,
  "\u2581Virginia": 8121,
  "\u2581Worth": 8122,
  "\u2581aids": 8123,
  "\u2581ancestors": 8124,
  "\u2581behave": 8125,
  "\u2581bereaved": 8126,
  "\u2581chariots": 8127,
  "\u2581commonly": 8128,
  "\u2581components": 8129,
  "\u2581conceal": 8130,
  "\u2581concentrate": 8131,
  "\u2581correspond": 8132,
  "\u2581dairekta": 8133,
  "\u2581dawn": 8134,
  "\u2581dearly": 8135,
  "\u2581diagnos": 8136,
  "\u2581differently": 8137,
  "\u2581digu": 8138,
  "\u2581divos": 8139,
  "\u2581doniki": 8140,
  "\u2581entertain": 8141,
  "\u2581exhausted": 8142,
  "\u2581greet": 8143,
  "\u2581hadikadia": 8144,
  "\u2581hahenamodia": 8145,
  "\u2581hearers": 8146,
  "\u2581honors": 8147,
  "\u2581ignoring": 8148,
  "\u2581iniseni": 8149,
  "\u2581injustices": 8150,
  "\u2581inten": 8151,
  "\u2581intensely": 8152,
  "\u2581kwadia": 8153,
  "\u2581lame": 8154,
  "\u2581lowliness": 8155,
  "\u2581manage": 8156,
  "\u2581matakani": 8157,
  "\u2581mirona": 8158,
  "\u2581misuse": 8159,
  "\u2581mortal": 8160,
  "\u2581narrow": 8161,
  "\u2581neighborhood": 8162,
  "\u2581oppos": 8163,
  "\u2581overtake": 8164,
  "\u2581pa": 8165,
  "\u2581packed": 8166,
  "\u2581pictured": 8167,
  "\u2581pronounc": 8168,
  "\u2581rearing": 8169,
  "\u2581reassured": 8170,
  "\u2581rebuilt": 8171,
  "\u2581reluctant": 8172,
  "\u2581resting": 8173,
  "\u2581roar": 8174,
  "\u2581seeks": 8175,
  "\u2581seketere": 8176,
  "\u2581shun": 8177,
  "\u2581sky": 8178,
  "\u2581slander": 8179,
  "\u2581soft": 8180,
  "\u2581sto": 8181,
  "\u2581strictly": 8182,
  "\u2581subsequent": 8183,
  "\u2581tower": 8184,
  "\u2581understandable": 8185,
  "\u2581unprecedented": 8186,
  "\u2581unu": 8187,
  "\u2581utter": 8188,
  "\u2581window": 8189,
  "LE": 8190,
  "Lord": 8191,
  "Rau": 8192,
  "davana": 8193,
  "der": 8194,
  "holy": 8195,
  "ie": 8196,
  "mi": 8197,
  "mple": 8198,
  "opportune": 8199,
  "sh": 8200,
  "\u25811981": 8201,
  "\u2581Act": 8202,
  "\u2581Afterward": 8203,
  "\u2581Bad": 8204,
  "\u2581Brethren": 8205,
  "\u2581Car": 8206,
  "\u2581Codex": 8207,
  "\u2581Dennis": 8208,
  "\u2581GAUKARA": 8209,
  "\u2581Gaius": 8210,
  "\u2581Gett": 8211,
  "\u2581Gomorrah": 8212,
  "\u2581Grace": 8213,
  "\u2581ISA": 8214,
  "\u2581Judean": 8215,
  "\u2581Los": 8216,
  "\u2581Louise": 8217,
  "\u2581Lusitera": 8218,
  "\u2581Lystra": 8219,
  "\u2581MATT": 8220,
  "\u2581Miguel": 8221,
  "\u2581Obedience": 8222,
  "\u2581Office": 8223,
  "\u2581Pa": 8224,
  "\u2581Paula": 8225,
  "\u2581Rehoboama": 8226,
  "\u2581Rock": 8227,
  "\u2581Rose": 8228,
  "\u2581Taia": 8229,
  "\u2581Them": 8230,
  "\u2581Tokyo": 8231,
  "\u2581Walter": 8232,
  "\u2581acquir": 8233,
  "\u2581astray": 8234,
  "\u2581attachment": 8235,
  "\u2581beasts": 8236,
  "\u2581block": 8237,
  "\u2581burdensome": 8238,
  "\u2581circumcision": 8239,
  "\u2581combat": 8240,
  "\u2581communi": 8241,
  "\u2581consume": 8242,
  "\u2581conversion": 8243,
  "\u2581depart": 8244,
  "\u2581directs": 8245,
  "\u2581domestics": 8246,
  "\u2581donor": 8247,
  "\u2581doubtless": 8248,
  "\u2581dozen": 8249,
  "\u2581drove": 8250,
  "\u2581earthquakes": 8251,
  "\u2581eksasais": 8252,
  "\u2581empower": 8253,
  "\u2581fare": 8254,
  "\u2581fewer": 8255,
  "\u2581foreshadowed": 8256,
  "\u2581frequent": 8257,
  "\u2581futile": 8258,
  "\u2581grandfather": 8259,
  "\u2581hagagevaia": 8260,
  "\u2581holide": 8261,
  "\u2581hotel": 8262,
  "\u2581kamelo": 8263,
  "\u2581kilogram": 8264,
  "\u2581kwakikwaki": 8265,
  "\u2581leisure": 8266,
  "\u2581mereki": 8267,
  "\u2581oldest": 8268,
  "\u2581organizations": 8269,
  "\u2581oversee": 8270,
  "\u2581portrayed": 8271,
  "\u2581prisoner": 8272,
  "\u2581products": 8273,
  "\u2581punished": 8274,
  "\u2581quotations": 8275,
  "\u2581rebuild": 8276,
  "\u2581sain": 8277,
  "\u2581sisima": 8278,
  "\u2581smooth": 8279,
  "\u2581sum": 8280,
  "\u2581supreme": 8281,
  "\u2581sworn": 8282,
  "\u2581synagogues": 8283,
  "\u2581tactics": 8284,
  "\u2581translators": 8285,
  "\u2581underscore": 8286,
  "\u2581unduly": 8287,
  "\u2581unseen": 8288,
  "\u2581upbringing": 8289,
  "\u2581vacation": 8290,
  "\u2581vavana": 8291,
  "\u2581vindicati": 8292,
  "7": 8293,
  "Because": 8294,
  "Greek": 8295,
  "Gunalaia": 8296,
  "Ierusalema": 8297,
  "Many": 8298,
  "These": 8299,
  "dmittedly": 8300,
  "ik": 8301,
  "kee": 8302,
  "koikoi": 8303,
  "many": 8304,
  "matana": 8305,
  "nari": 8306,
  "rom": 8307,
  "tano": 8308,
  "ul": 8309,
  "well": 8310,
  "z": 8311,
  "\u25811937": 8312,
  "\u2581Allan": 8313,
  "\u2581Andrea": 8314,
  "\u2581Ant\u00f4nio": 8315,
  "\u2581Barak": 8316,
  "\u2581Century": 8317,
  "\u2581Commandments": 8318,
  "\u2581Con": 8319,
  "\u2581DAINAI": 8320,
  "\u2581Emperor": 8321,
  "\u2581Encourage": 8322,
  "\u2581Eunice": 8323,
  "\u2581Ezek": 8324,
  "\u2581Five": 8325,
  "\u2581Fred": 8326,
  "\u2581Gaio": 8327,
  "\u2581Harold": 8328,
  "\u2581Helaro": 8329,
  "\u2581Hepapahuahu": 8330,
  "\u2581Maps": 8331,
  "\u2581Mar\u00eda": 8332,
  "\u2581Mind": 8333,
  "\u2581Mountains": 8334,
  "\u2581Potiphar": 8335,
  "\u2581Queen": 8336,
  "\u2581Secret": 8337,
  "\u2581Share": 8338,
  "\u2581Shulammite": 8339,
  "\u2581Siti": 8340,
  "\u2581TOTONA": 8341,
  "\u2581TX": 8342,
  "\u2581Than": 8343,
  "\u2581WHY": 8344,
  "\u2581Women": 8345,
  "\u2581anointing": 8346,
  "\u2581appealed": 8347,
  "\u2581appropriately": 8348,
  "\u2581beside": 8349,
  "\u2581betray": 8350,
  "\u2581blameless": 8351,
  "\u2581committee": 8352,
  "\u2581curious": 8353,
  "\u2581demon": 8354,
  "\u2581di": 8355,
  "\u2581disregard": 8356,
  "\u2581divide": 8357,
  "\u2581domestic": 8358,
  "\u2581electronic": 8359,
  "\u2581farmer": 8360,
  "\u2581fashioned": 8361,
  "\u2581gray": 8362,
  "\u2581hanina": 8363,
  "\u2581heautania": 8364,
  "\u2581heavily": 8365,
  "\u2581hemamina": 8366,
  "\u2581incomparable": 8367,
  "\u2581introduction": 8368,
  "\u2581itotohi": 8369,
  "\u2581keepers": 8370,
  "\u2581liked": 8371,
  "\u2581lower": 8372,
  "\u2581magnify": 8373,
  "\u2581map": 8374,
  "\u2581partaking": 8375,
  "\u2581passion": 8376,
  "\u2581pastor": 8377,
  "\u2581preserving": 8378,
  "\u2581purchase": 8379,
  "\u2581reassure": 8380,
  "\u2581refusal": 8381,
  "\u2581regions": 8382,
  "\u2581rose": 8383,
  "\u2581shelter": 8384,
  "\u2581shocking": 8385,
  "\u2581solemn": 8386,
  "\u2581soundness": 8387,
  "\u2581stepp": 8388,
  "\u2581tenderness": 8389,
  "\u2581thieves": 8390,
  "\u2581traditional": 8391,
  "\u2581transfiguration": 8392,
  "\u2581transmitted": 8393,
  "\u2581transportation": 8394,
  "\u2581treila": 8395,
  "\u2581troops": 8396,
  "\u2581troubles": 8397,
  "\u2581unjustly": 8398,
  "\u2581unlikely": 8399,
  "\u2581unworthy": 8400,
  "\u2581vessels": 8401,
  "\u2581weaker": 8402,
  "\u2581winter": 8403,
  "\u2581yoked": 8404,
  "3,500": 8405,
  "Babylon": 8406,
  "HAT": 8407,
  "ONG": 8408,
  "are": 8409,
  "ez": 8410,
  "people": 8411,
  "scended": 8412,
  "set": 8413,
  "\u00e9": 8414,
  "\u2581141": 8415,
  "\u258119.)": 8416,
  "\u25811925": 8417,
  "\u25811977": 8418,
  "\u25811978": 8419,
  "\u25811979": 8420,
  "\u258146,": 8421,
  "\u2581ABOUT": 8422,
  "\u2581Andr\u00e9": 8423,
  "\u2581Atai": 8424,
  "\u2581Augustine": 8425,
  "\u2581Bernard": 8426,
  "\u2581Carmen": 8427,
  "\u2581Epafra": 8428,
  "\u2581Ephraim": 8429,
  "\u2581False": 8430,
  "\u2581Friends": 8431,
  "\u2581Health": 8432,
  "\u2581Heudahanai": 8433,
  "\u2581Immediately": 8434,
  "\u2581Isabel": 8435,
  "\u2581JW": 8436,
  "\u2581Jack": 8437,
  "\u2581Lahi": 8438,
  "\u2581Laodikea": 8439,
  "\u2581Martin": 8440,
  "\u2581Max": 8441,
  "\u2581Metau": 8442,
  "\u2581Milton": 8443,
  "\u2581Miusiki": 8444,
  "\u2581NEW": 8445,
  "\u2581Offer": 8446,
  "\u2581Palestine": 8447,
  "\u2581Part": 8448,
  "\u2581Pulisi": 8449,
  "\u2581ROMA": 8450,
  "\u2581Rahela": 8451,
  "\u2581Sadukea": 8452,
  "\u2581Sign": 8453,
  "\u2581Strengthen": 8454,
  "\u2581Valley": 8455,
  "\u2581Van": 8456,
  "\u2581Washington": 8457,
  "\u2581accommodations": 8458,
  "\u2581addressing": 8459,
  "\u2581attempted": 8460,
  "\u2581attendant": 8461,
  "\u2581avail": 8462,
  "\u2581bank": 8463,
  "\u2581burdens": 8464,
  "\u2581burst": 8465,
  "\u2581courts": 8466,
  "\u2581designated": 8467,
  "\u2581despise": 8468,
  "\u2581disciplined": 8469,
  "\u2581divisions": 8470,
  "\u2581drunk": 8471,
  "\u2581enabl": 8472,
  "\u2581equivalent": 8473,
  "\u2581fa": 8474,
  "\u2581flaoaflaoa": 8475,
  "\u2581footsteps": 8476,
  "\u2581gambling": 8477,
  "\u2581graduated": 8478,
  "\u2581helpless": 8479,
  "\u2581hiriria": 8480,
  "\u2581householders": 8481,
  "\u2581hurled": 8482,
  "\u2581ideal": 8483,
  "\u2581intend": 8484,
  "\u2581invaluable": 8485,
  "\u2581joyous": 8486,
  "\u2581kahadia": 8487,
  "\u2581kouti": 8488,
  "\u2581lasted": 8489,
  "\u2581logical": 8490,
  "\u2581lord": 8491,
  "\u2581nain": 8492,
  "\u2581nice": 8493,
  "\u2581observers": 8494,
  "\u2581obviously": 8495,
  "\u2581persuade": 8496,
  "\u2581pose": 8497,
  "\u2581pretend": 8498,
  "\u2581procedures": 8499,
  "\u2581proclaimer": 8500,
  "\u2581purchased": 8501,
  "\u2581receptive": 8502,
  "\u2581regrets": 8503,
  "\u2581regulating": 8504,
  "\u2581researchers": 8505,
  "\u2581rising": 8506,
  "\u2581rod": 8507,
  "\u2581round": 8508,
  "\u2581strikes": 8509,
  "\u2581stronghold": 8510,
  "\u2581symbolize": 8511,
  "\u2581tauanidia": 8512,
  "\u2581throwing": 8513,
  "\u2581tolerate": 8514,
[...]
