{
  "</s>": 0,
  "<unk>": 1,
  ".": 2,
  ",": 3,
  "\u0326": 4,
  "\u2581\"": 5,
  "\u2581eo": 6,
  "\u2581the": 7,
  "\u2581in": 8,
  "\u2581an": 9,
  "\u2581im": 10,
  "\u2581to": 11,
  "\u2581ko": 12,
  "\u2581of": 13,
  "\u2581ilo": 14,
  ":": 15,
  "?": 16,
  "\u2581ro": 17,
  "\u2581and": 18,
  "\u2581ear": 19,
  "\u2581-": 20,
  "\u2581\u00f1an": 21,
  "\u2581bwe": 22,
  "\u2581ej": 23,
  "\u2581a": 24,
  "\u2581Jehovah": 25,
  "\u2581that": 26,
  "s": 27,
  "\u2581men": 28,
  "\u2581rej": 29,
  "o": 30,
  "\u2581kin": 31,
  "\u2581(": 32,
  "k": 33,
  "\u2581ju\u00f5n": 34,
  "'": 35,
  "\u2581is": 36,
  "\u2581Anij": 37,
  "\u2581rar": 38,
  "\u2581for": 39,
  "\u2581we": 40,
  "\u2581God": 41,
  "\u2581": 42,
  "\u2581jen": 43,
  "\u2581his": 44,
  "m": 45,
  "\u2581Jesus": 46,
  "\u2581kar": 47,
  "\u2581be": 48,
  "\u2581\u00f1\u00f5n": 49,
  "\u2581ad": 50,
  "\u2581w\u00f5t": 51,
  "\u2581with": 52,
  "\u2581you": 53,
  "\u2581not": 54,
  "\u2581me": 55,
  ";": 56,
  "\u2581will": 57,
  "\u2581Jeova": 58,
  "\u2581ba": 59,
  "\u2581ri": 60,
  "\u2581e": 61,
  "\u2581k\u00f5n": 62,
  "\u2581was": 63,
  ")": 64,
  "\u2581as": 65,
  "\u2581jab": 66,
  "\u2581armij": 67,
  "\u2581he": 68,
  "\u2581have": 69,
  "\u2581ak": 70,
  "\u2581are": 71,
  "\u2581air": 72,
  "\u2581on": 73,
  "\u2581w\u00e3wen": 74,
  "\u2581jej": 75,
  "\u2581Bible": 76,
  "\u2581jerbal": 77,
  "\u2581k\u00f5m": 78,
  "\u2581our": 79,
  "\u2581jet": 80,
  "\u2581it": 81,
  "\u2581mour": 82,
  "\u25811": 83,
  "\u2581kein": 84,
  "\u2581ke": 85,
  "\u2581us": 86,
  "an": 87,
  "\u2581I": 88,
  "\u2581'": 89,
  "ing": 90,
  "\u2581The": 91,
  "\u2581can": 92,
  "\u2581by": 93,
  "\u2581m": 94,
  "\u2581kwalok": 95,
  "\u2581en": 96,
  "\u2581What": 97,
  "\u2581from": 98,
  "\u2581juon": 99,
  "\u2581their": 100,
  "\u2581b\u00f5k": 101,
  "\u2581who": 102,
  "\u2581what": 103,
  "\u2581they": 104,
  "\u2581katak": 105,
  "!": 106,
  "\u2581Ilo": 107,
  "\u2581do": 108,
  "\u2581Ta": 109,
  "\u2581maro\u00f1": 110,
  "\u2581ien": 111,
  "\u2581Paul": 112,
  "\u2581Ri": 113,
  "\u2581or": 114,
  "\u2581nan": 115,
  "\u2581am": 116,
  "\u2581aikwij": 117,
  "\u2581this": 118,
  "\u2581einw\u00f5t": 119,
  "e": 120,
  "\u2581l": 121,
  "\u2581j\u00e3n": 122,
  "\u2581all": 123,
  "\u2581make": 124,
  "\u2581Christian": 125,
  "\u2581How": 126,
  "\u2581[": 127,
  "\u2581him": 128,
  "n": 129,
  "\u2581ta": 130,
  "\u2581armej": 131,
  "\u2581your": 132,
  "\u2581kij": 133,
  "\u2581\u00f1e": 134,
  "\u2581them": 135,
  "\u2581ir": 136,
  "\u2581people": 137,
  "\u2581ren": 138,
  "\u2581kwal": 139,
  "\u00f5n": 140,
  "\u2581one": 141,
  "\u2581did": 142,
  "\u2581In": 143,
  "\u2581were": 144,
  "\u2581em": 145,
  "\u2581had": 146,
  "\u2581bar": 147,
  "\u2581aer": 148,
  "\u2581at": 149,
  "\u2581t\u00f5mak": 150,
  "\u2581yokwe": 151,
  "\u2581lo": 152,
  "\u2581has": 153,
  "\u2581about": 154,
  "\u2581dri": 155,
  "\u2581emaro\u00f1": 156,
  "\u2581ar": 157,
  "\u2581when": 158,
  "\u2581would": 159,
  "\u2581ibben": 160,
  "a": 161,
  "\u2581Ewi": 162,
  "\u2581may": 163,
  "\u2581aolep": 164,
  "aan": 165,
  "\u2581enaj": 166,
  "\u2581k\u00f5j": 167,
  "\u2581life": 168,
  "\u2581otemjej": 169,
  "\u25813": 170,
  "\u2581those": 171,
  "\u2581el\u00f5\u00f1": 172,
  "\u2581time": 173,
  "\u2581lal": 174,
  "\u25812": 175,
  "\u2581Christ": 176,
  "\u2581w\u00e3ween": 177,
  "\u2581kake": 178,
  "\u00f5m": 179,
  "\u2581jikin": 180,
  "\u2581but": 181,
  "\u2581iien": 182,
  "\u2581congregation": 183,
  "\u2581ejjab": 184,
  "\u2581menin": 185,
  "\u2581so": 186,
  "\u2581em\u00f5n": 187,
  "\u2581jipa\u00f1": 188,
  "\u2581aikuj": 189,
  "\u2581lemnak": 190,
  "\u2581kabu\u00f1": 191,
  "]": 192,
  "\u2581Israel": 193,
  "\u2581E": 194,
  "\u2581enaaj": 195,
  "\u2581bed": 196,
  "\u2581Ear": 197,
  "\u2581He": 198,
  "\u2581how": 199,
  "\u2581B\u00f5tab": 200,
  "\u2581elap": 201,
  "ak": 202,
  "\u2581ran": 203,
  "\u2581ipp\u00e3n": 204,
  "\u2581help": 205,
  "\u2581ion": 206,
  "\u2581naan": 207,
  "\u2581jar": 208,
  "\u2581love": 209,
  "\u2581a\u00f5": 210,
  "\u2581bareinw\u00f5t": 211,
  "\u2581should": 212,
  "\u2581my": 213,
  "\u2581Etke": 214,
  "\"": 215,
  "\u2581naj": 216,
  "\u2581k\u00f5mman": 217,
  "l": 218,
  "\u2581er": 219,
  "\u2581Baib\u00f5l": 220,
  "\u2581el": 221,
  "\u2581good": 222,
  "\u2581some": 223,
  "ane": 224,
  "\u2581UBS": 225,
  "\u2581jemaro\u00f1": 226,
  "\u2581does": 227,
  "ap": 228,
  "b": 229,
  "\u2581kien": 230,
  "\u2581out": 231,
  "\u00e3": 232,
  "\u2581walok": 233,
  "\u2581Ej": 234,
  "\u2581also": 235,
  "\u2581Why": 236,
  "\u2581We": 237,
  "\u2581Jijej": 238,
  "\u2581things": 239,
  "in": 240,
  "\u2581such": 241,
  "\u2581jit\u00f5b": 242,
  "\u2581Ak": 243,
  "\u2581more": 244,
  "\u2581way": 245,
  "\u2581Christians": 246,
  "\u2581Dri": 247,
  "\u2581remaro\u00f1": 248,
  "\u258110": 249,
  "ed": 250,
  "el": 251,
  "\u2581been": 252,
  "\u2581family": 253,
  "\u2581Ke": 254,
  "\u2581spirit": 255,
  "\u2581Im": 256,
  "\u2581her": 257,
  "\u2581itok": 258,
  "\u2581ew\u00f5r": 259,
  "\u2581A": 260,
  "4:": 261,
  "\u2581world": 262,
  "\u2581up": 263,
  "\u2581jiba\u00f1": 264,
  "\u2581if": 265,
  "\u2022": 266,
  "\u2581many": 267,
  "\u258115": 268,
  "\u2581faith": 269,
  "\u25817": 270,
  "\u2581no": 271,
  "\u2581work": 272,
  "\u2581lale": 273,
  "\u2581man": 274,
  "\u258111": 275,
  "\u25812:": 276,
  "5:": 277,
  "\u2581ejelok": 278,
  "\u2581day": 279,
  "\u2581It": 280,
  "\u2581ie": 281,
  "\u2581said": 282,
  "\u2581rejjab": 283,
  "\u2581earth": 284,
  "\u2581Kingdom": 285,
  "\u2581etan": 286,
  "\u2581even": 287,
  "\u2581konono": 288,
  "\u258112": 289,
  "\u2581Satan": 290,
  "\u2581katakin": 291,
  "\u2581need": 292,
  "\u258113": 293,
  "ani": 294,
  "\u2581kom": 295,
  "\u2581When": 296,
  "\u2581je": 297,
  "\u25818": 298,
  "\u2581others": 299,
  "\u2581could": 300,
  "the": 301,
  "\u2581other": 302,
  "6:": 303,
  "\u2581lelok": 304,
  "\u2581there": 305,
  "\u2581yi\u00f5": 306,
  "\u25815": 307,
  "\u2581w\u00f5r": 308,
  "\u2581mol": 309,
  "ly": 310,
  "\u2581David": 311,
  "\u2581jo\u00f1an": 312,
  "\u2581ewi": 313,
  "\u2581these": 314,
  "\u2581aili\u00f1": 315,
  "\u2581must": 316,
  "\u2581ela\u00f1e": 317,
  "\u2581than": 318,
  "\u2581lukkuun": 319,
  "\u25814": 320,
  "\u2581into": 321,
  "\u2581jel": 322,
  "\u2581Kennan": 323,
  "\u2581spiritual": 324,
  "\u25811,": 325,
  "\u2581example": 326,
  "\u25816": 327,
  "\u2581For": 328,
  "\u2581\u00d1an": 329,
  "\u2581\u00d1": 330,
  "\u258114": 331,
  "\u25819": 332,
  "\u2581k\u00f5nan": 333,
  "\u2581wal": 334,
  "\u2581first": 335,
  "\u2581rein": 336,
  "\u2581renaj": 337,
  "ool": 338,
  "\u2581They": 339,
  "\u00f5": 340,
  "\u2581which": 341,
  "\u2581Men": 342,
  "\u2581because": 343,
  "\u2581Moses": 344,
  "\u2581If": 345,
  "\u2581Ju\u00f5n": 346,
  "\u2581But": 347,
  "\u2581As": 348,
  "\u2581mij": 349,
  "\u2581Jen": 350,
  "\u2581Peter": 351,
  "\u2581m\u00f5n\u00f5n\u00f5": 352,
  "\u2581p\u00e3d": 353,
  "\u2581iar": 354,
  "\u2581being": 355,
  "\u2581Witnesses": 356,
  "\u2581Jis\u00f5s": 357,
  "\u2581page": 358,
  "\u2581l\u00f5l": 359,
  "\u2581children": 360,
  "\u2581This": 361,
  "\u2581Me\u00f1e": 362,
  "\u2581lukkun": 363,
  "\u2581letok": 364,
  "\u2581kile": 365,
  "\u2581re": 366,
  "\u2581k\u00f5mmane": 367,
  "\u2581ikijen": 368,
  "\u2581oktak": 369,
  "\u2581(1": 370,
  "\u2581kaki": 371,
  "\u2581jino": 372,
  "\u2581ones": 373,
  "\u2581kate": 374,
  "E": 375,
  "\u2581made": 376,
  "\u2581heart": 377,
  "\u2581know": 378,
  "\u2581book": 379,
  "\u2581John": 380,
  "\u2581K\u00f5n": 381,
  "\u2581iben": 382,
  "\u2581kajit\u00f5k": 383,
  "\u2581tiljek": 384,
  "\u2581karejar": 385,
  "\u2581true": 386,
  "\u2581nana": 387,
  "\u2581words": 388,
  "\u2581emwij": 389,
  "\u2581You": 390,
  "\u258117": 391,
  "\u2581tokjen": 392,
  "\u2581years": 393,
  "\u2581tel": 394,
  "\u2581k\u00f5r\u00e3": 395,
  "\u2581come": 396,
  "\u2581she": 397,
  "\u2581kwoj": 398,
  "\u2581like": 399,
  "a\u00f1\u00f1e": 400,
  "\u2581Jerusalem": 401,
  "\u2581mel": 402,
  "\u2581me\u00f1e": 403,
  "\u2581Nan": 404,
  "\u2581only": 405,
  "\u2581kejb\u00e3rok": 406,
  "\u2581see": 407,
  "\u2581unin": 408,
  "\u2581jiro\u00f1": 409,
  "\u2581bwebwenato": 410,
  "\u2581nejin": 411,
  "\u2581ajiri": 412,
  "\u2581Inem": 413,
  "\u258120": 414,
  "\u2581Kin": 415,
  "\u2581\u00e3inw\u00f5t": 416,
  "\u2581etal": 417,
  "\u2581news": 418,
  "\u2581take": 419,
  "\u2581jabdew\u00f5t": 420,
  "\u2581ian": 421,
  "\u2581renaaj": 422,
  "\u2581become": 423,
  "\u2581mokta": 424,
  "\u2581k\u00f5m\u00f5n": 425,
  "\u2581jel\u00e3": 426,
  "\u2581Ro": 427,
  "\u2581then": 428,
  "\u2581says": 429,
  "\u2581own": 430,
  "...": 431,
  "\u2581And": 432,
  "\u2581k\u00f5nke": 433,
  "\u2581Word": 434,
  "\u2581over": 435,
  "\u2581Bareinw\u00f5t": 436,
  "\u2581kanan": 437,
  "\u2581kalikar": 438,
  "\u2581An": 439,
  "\u2581today": 440,
  "\u2581etale": 441,
  "\u2581death": 442,
  "\u2581give": 443,
  "\u2581kajerbal": 444,
  "\u2581might": 445,
  "\u00f5j": 446,
  "\u2581kinke": 447,
  "\u2581Korint": 448,
  "\u2581kajur": 449,
  "\u2581ii\u00f5": 450,
  "\u2581jeje": 451,
  "\u2581wanjo\u00f1ok": 452,
  "\u2581before": 453,
  "\u258121": 454,
  "\u2581kar\u00f5k": 455,
  "\u2581well": 456,
  "\u2581peij": 457,
  "\u2581jerawiwi": 458,
  "\u258118": 459,
  "\u2581Ela\u00f1e": 460,
  "\u2581Aili\u00f1": 461,
  "\u2581Jon": 462,
  "\u2581kwelok": 463,
  "\u2581*": 464,
  "\u2581aolepen": 465,
  "\u258119": 466,
  "\u2581name": 467,
  "\u2581keep": 468,
  "\u2581rot": 469,
  "\u2581emol": 470,
  "\u2581renana": 471,
  "\u2581Ko": 472,
  "\u2581Sam": 473,
  "\u2581ruo": 474,
  "\u2581yuk": 475,
  "\u2581Jej": 476,
  "\u2581melele": 477,
  "\u2581doon": 478,
  "\u2581its": 479,
  "\u2581show": 480,
  "\u2581truth": 481,
  "\u2581just": 482,
  "\u2581through": 483,
  "\u2581apostle": 484,
  "\u2581now": 485,
  "\u2581ekkar": 486,
  "\u2581Eo": 487,
  "\u2581great": 488,
  "\u2581ro\u00f1jake": 489,
  "\u2581iaan": 490,
  "ae": 491,
  "\u2581raan": 492,
  "\u2581That": 493,
  "\u2581e\u00f1jake": 494,
  "\u2581ial": 495,
  "\u2581new": 496,
  "\u2581ijo": 497,
  "\u2581kajin": 498,
  "\u2581Do": 499,
  "\u2581faithful": 500,
  "I": 501,
  "\u2581another": 502,
  "\u2581Rom": 503,
  "\u2581study": 504,
  "d": 505,
  "\u2581kajjit\u00f5k": 506,
  "\u2581times": 507,
  "Matu": 508,
  "\u2581brothers": 509,
  "\u2581after": 510,
  "\u2581any": 511,
  "\u2581To": 512,
  "\u2581Job": 513,
  "\u2581kw\u00f5j": 514,
  "\u2581holy": 515,
  "\u2581kwe": 516,
  "\u2581King": 517,
  "\u258122": 518,
  "\u2581why": 519,
  "\u2581against": 520,
  "\u2581liki": 521,
  "\u2581C": 522,
  "\u2581person": 523,
  "\u2581don": 524,
  "\u2581Rej": 525,
  "\u2581Abraham": 526,
  "\u2581himself": 527,
  "\u2581Jet": 528,
  "\u2581worship": 529,
  "\u2581part": 530,
  "\u2581kajjojo": 531,
  "\u2581jela": 532,
  "\u2581Piter": 533,
  "\u2581learn": 534,
  "\u2581means": 535,
  "\u25812.": 536,
  "apl": 537,
  "\u2581El\u00f5\u00f1": 538,
  "\u2581El": 539,
  "\u2581wrote": 540,
  "\u2581Pija": 541,
  "\u2581eklejia": 542,
  "\u2581ber": 543,
  "\u2581bok": 544,
  "\u2581rem": 545,
  "\u2581parents": 546,
  "\u2581melelen": 547,
  "\u25813:": 548,
  "\u258124:": 549,
  "\u2581much": 550,
  "\u2581put": 551,
  "\u25813,": 552,
  "\u2581/": 553,
  "win": 554,
  "\u2581find": 555,
  "\u2581ij": 556,
  "\u2581meletlet": 557,
  "\u2581feel": 558,
  "\u25819,": 559,
  "\u2581kalor": 560,
  "\u2581human": 561,
  "\u2581ministry": 562,
  "\u2581Adam": 563,
  "\u2581upon": 564,
  "\u2581iroij": 565,
  "\u2581read": 566,
  "\u2581jinen": 567,
  "\u2581very": 568,
  "\u2581word": 569,
  "\u2581Father": 570,
  "\u2581aba\u00f1": 571,
  "\u2581use": 572,
  "\u2581end": 573,
  "\u2581lemnok": 574,
  "\u2581Baibel": 575,
  "\u2581important": 576,
  "\u2581mej": 577,
  "\u2581say": 578,
  "\u2581two": 579,
  "\u2581(2": 580,
  "\u2581Psalm": 581,
  "\u2581kam": 582,
  "ar": 583,
  "\u2581erom": 584,
  "lok": 585,
  "\u2581waanjo\u00f1ak": 586,
  "\u2581However": 587,
  "\u2581disciples": 588,
  "\u2581mind": 589,
  "\u2581course": 590,
  "\u2581elder": 591,
  "\u2581jejjab": 592,
  "\u2581hope": 593,
  "\u2581young": 594,
  "\u2581un": 595,
  "\u2581w\u00f5nmanlok": 596,
  "we": 597,
  "\u2581joij": 598,
  "\u2581jib\u00f5\u00f1": 599,
  "\u2581each": 600,
  "\u2581likit": 601,
  "\u2581though": 602,
  "\u2581jumae": 603,
  "ilo": 604,
  "\u258115,": 605,
  "\u258110.": 606,
  "\u2581jeramm\u00f5n": 607,
  "\u2581t\u00f5l": 608,
  "\u2581Einw\u00f5t": 609,
  "Sam": 610,
  "ro": 611,
  "\u2581kamol": 612,
  "\u2581preaching": 613,
  "\u2581let": 614,
  "\u2581view": 615,
  "Dri": 616,
  "\u2581Matthew": 617,
  "\u2581ki\u00f5": 618,
  "le": 619,
  "\u258125": 620,
  "\u2581ael\u00f5\u00f1": 621,
  "\u2581jilek": 622,
  "\u2581jidik": 623,
  "\u2581m\u00f5ttan": 624,
  "\u2581So": 625,
  "\u25816,": 626,
  "\u2581Solomon": 627,
  "\u25815,": 628,
  "\u2581servants": 629,
  "\u2581i\u00f5": 630,
  "\u2581place": 631,
  "\u2581consider": 632,
  "\u2581rem\u00f5n": 633,
  "\u2581Emol": 634,
  "\u2581ways": 635,
  "\u2581Jerbal": 636,
  "\u2581bokake": 637,
  "\u25814.": 638,
  "\u2581One": 639,
  "\u2581long": 640,
  "\u2581right": 641,
  "\u258114,": 642,
  "\u258123": 643,
  "\u2581peace": 644,
  "\u2581jemen": 645,
  "\u2581Matu": 646,
  "\u2581ejja": 647,
  "\u2581jinoin": 648,
  "\u2581k\u00f5tlok": 649,
  "\u2581Rar": 650,
  "\u2581ekajet": 651,
  "\u25811:": 652,
  "\u2581Setan": 653,
  "\u2581most": 654,
  "\u2581iman": 655,
  "\u2581under": 656,
  "\u2581never": 657,
  "\u2581days": 658,
  "\u2581ejjel": 659,
  "\u2581anointed": 660,
  "\u2581found": 661,
  "\u2581loe": 662,
  "\u2581Isaiah": 663,
  "\u2581iumin": 664,
  "\u2581Picture": 665,
  "\u2581Iroij": 666,
  "\u2581i": 667,
  "\u2581aor\u00f5k": 668,
  "\u2581same": 669,
  "\u2581lel": 670,
  "okta": 671,
  "\u2581l\u00f5\u00f1": 672,
  "\u2581rainin": 673,
  "en": 674,
  "\u2581temple": 675,
  "\u2581among": 676,
  "\u2581every": 677,
  "\u2581ila\u00f1": 678,
  "\u2581jokwe": 679,
  "\u2581want": 680,
  "\u258128": 681,
  "\u2581ekk\u00e3": 682,
  "\u2581Innem": 683,
  "\u2581knowledge": 684,
  "\u2581kwojarjar": 685,
  "\u25814,": 686,
  "\u2581doing": 687,
  "\u2581Daniel": 688,
  "\u2581kautiej": 689,
  "\u2581Timote": 690,
  "\u2581service": 691,
  "\u2581Hibru": 692,
  "\u2581serve": 693,
  "\u2581etke": 694,
  "\u258112.": 695,
  "\u2581too": 696,
  "\u2581Katak": 697,
  "\u2581where": 698,
  "\u2581uak": 699,
  "\u2581etto": 700,
  "\u2581T": 701,
  "\u25818,": 702,
  "\u2581given": 703,
  "\u2581lap": 704,
  "\u2581kakabilek": 705,
  "\u2581loving": 706,
  "\u2581fellow": 707,
  "\u2581set": 708,
  "\u258113.": 709,
  "\u2581S": 710,
  "\u2581go": 711,
  "\u25817.": 712,
  "\u2581K\u00f5nnaan": 713,
  "\u258114.": 714,
  "\u2581ioon": 715,
  "\u25817,": 716,
  "\u2581power": 717,
  "\u2581M": 718,
  "\u2581By": 719,
  "\u2581jejjet": 720,
  "\u2581kain": 721,
  "\u25818.": 722,
  "\u2581king": 723,
  "\u2581baj": 724,
  "\u2581katok": 725,
  "\u258115.": 726,
  "\u258116.": 727,
  "\u2581Scriptures": 728,
  "\u258117.": 729,
  "\u2581kwon": 730,
  "\u2581Some": 731,
  "\u2581ami": 732,
  "\u2581kim": 733,
  "al": 734,
  "\u0303": 735,
  "\u2581away": 736,
  "\u25819.": 737,
  "\u2581whom": 738,
  "\u2581baam": 739,
  "\u2581bring": 740,
  "\u2581eddo": 741,
  "\u2581live": 742,
  "\u2581ajri": 743,
  "\u2581lio": 744,
  "\u2581humans": 745,
  "\u25815.": 746,
  "\u2581themselves": 747,
  "\u2581bebe": 748,
  "\u2581used": 749,
  "t": 750,
  "\u2581belele": 751,
  "\u2581jerbale": 752,
  "\u2581Son": 753,
  "\u258111.": 754,
  "\u2581B": 755,
  "\u2581K\u0169rjin": 756,
  "\u2581jatid": 757,
  "\u2581b\u00f5ktok": 758,
  "\u2581told": 759,
  "\u2581brother": 760,
  "ke": 761,
  "\u2581full": 762,
  "\u2581living": 763,
  "\u2581jeid": 764,
  "\u2581kokkure": 765,
  "\u2581making": 766,
  "\u2581back": 767,
  "\u2581kamolol": 768,
  "\u25812,": 769,
  "\u258111,": 770,
  "\u2581Israelites": 771,
  "\u2581enana": 772,
  "\u258110,": 773,
  "\u2581NW": 774,
  "\u2581jo\u00f1ok": 775,
  "\u2581Am": 776,
  "\u2581ainem\u00f5n": 777,
  "Read": 778,
  "\u2581sin": 779,
  "aanl": 780,
  "\u2581gave": 781,
  "\u2581Yes": 782,
  "\u2581Juon": 783,
  "\u258116:": 784,
  "\u2581during": 785,
  "\u2581became": 786,
  "\u2581down": 787,
  "\u2581k\u00f5m\u00f5ne": 788,
  "\u2581personal": 789,
  "\u2581Kwon": 790,
  "\u2581No": 791,
  "\u2581sheep": 792,
  "\u2581prayer": 793,
  "\u2581al": 794,
  "\u2581At": 795,
  "\u2581eindein": 796,
  "\u2581jolok": 797,
  "\u2581Timothy": 798,
  "\u258112,": 799,
  "raam": 800,
  "\u2581With": 801,
  "\u2581mankind": 802,
  "\u2581jukjuk": 803,
  "\u2581(1)": 804,
  "\u2581Kien": 805,
  "\u2581jelet": 806,
  "\u2581reja\u00f1": 807,
  "\u2581purpose": 808,
  "\u2581wife": 809,
  "\u2581After": 810,
  "\u2581Is": 811,
  "\u2581kabit": 812,
  "\u2581came": 813,
  "\u2581century": 814,
  "\u25816.": 815,
  "\u2581toward": 816,
  "\u2581His": 817,
  "\u2581Devil": 818,
  "\u2581alikar": 819,
  "\u2581kab": 820,
  "\u2581home": 821,
  "\u2581lor": 822,
  "ein": 823,
  "\u2581Our": 824,
  "\u2581article": 825,
  "\u2581get": 826,
  "\u2581k\u00f5jparok": 827,
  "\u2581reason": 828,
  "\u2581elikin": 829,
  "\u2581buru": 830,
  "\u2581tarinae": 831,
  "\u2581erreo": 832,
  "\u2581komin": 833,
  "\u2581counsel": 834,
  "\u258113,": 835,
  "\u2581Noah": 836,
  "\u2581elders": 837,
  "\u2581pepe": 838,
  "Jon": 839,
  "\u2581often": 840,
  "\u2581jenaaj": 841,
  "\u2581joy": 842,
  "\u2581year": 843,
  "\u2581\u00f1ane": 844,
  "\u2581order": 845,
  "\u2581result": 846,
  "\u2581lok": 847,
  "\u258116,": 848,
  "\u2581nae": 849,
  "\u2581bwid": 850,
  "\u2581Mark": 851,
  "\u2581New": 852,
  "\u2581able": 853,
  "\u2581wicked": 854,
  "\u2581Samuel": 855,
  "\u2581E\u00f1in": 856,
  "\u2581jutak": 857,
  "\u25813.": 858,
  "\u2581ka": 859,
  "\u2581Kraist": 860,
  "\u2581ourselves": 861,
  "\u2581heavenly": 862,
  "\u2581mweo": 863,
  "\u2581questions": 864,
  "The": 865,
  "\u2581Kar": 866,
  "\u2581jim": 867,
  "\u258133": 868,
  "\u2581buruen": 869,
  "\u2581(2)": 870,
  "\u2581Nejin": 871,
  "\u2581apa\u00f1": 872,
  "\u2581jem": 873,
  "\u2581m\u00f5ke": 874,
  "\u2581hand": 875,
  "\u2581heaven": 876,
  "\u2581future": 877,
  "\u2581On": 878,
  "\u2581Aet": 879,
  "\u2581Yet": 880,
  "\u2581tokelik": 881,
  "\u2581dron": 882,
  "\u2581fact": 883,
  "\u2581Devid": 884,
  "\u2581leo": 885,
  "\u2581marriage": 886,
  "\u2581jako": 887,
  "\u2581later": 888,
  "\u2581still": 889,
  "\u2581kajoor": 890,
  "\u2581kejatdikdik": 891,
  "\u2581elaptata": 892,
  "\u2581illu": 893,
  "\u2581kii\u00f5": 894,
  "ij": 895,
  "\u2581e\u00f5": 896,
  "ur": 897,
  "\u2581enjel": 898,
  "\u2581without": 899,
  "\u2581old": 900,
  "\u2581conduct": 901,
  "\u2581house": 902,
  "\u2581kallimur": 903,
  "\u2581tok": 904,
  "\u2581eaor\u00f5k": 905,
  "\u2581kijenmij": 906,
  "\u2581ena\u00f1in": 907,
  "\u258119,": 908,
  "\u258126": 909,
  "i": 910,
  "\u2581having": 911,
  "\u2581Even": 912,
  "\u2581always": 913,
  "\u2581called": 914,
  "\u2581jorr\u00e3n": 915,
  "\u2581w\u00f5nm": 916,
  "\u2581w\u00f5n": 917,
  "\u2581ebeben": 918,
  "\u2581wisdom": 919,
  "\u2581ett\u00e3": 920,
  "\u2581im\u00f5n": 921,
  "\u2581k\u00f5tan": 922,
  "\u2581Kristian": 923,
  "\u2581kaalikkar": 924,
  "\u2581Let": 925,
  "\u2581etetal": 926,
  "\u2581however": 927,
  "\u2581face": 928,
  "\u2581\"?": 929,
  "\u2581Luke": 930,
  "\u2581nations": 931,
  "\u2581Revelation": 932,
  "\u2581naaj": 933,
  "Riit": 934,
  "\u2581benefit": 935,
  "\u2581son": 936,
  "\u2581elaplok": 937,
  "\u2581jimwe": 938,
  "\u2581began": 939,
  "\u2581mijak": 940,
  "\u2581et": 941,
  "\u2581jol": 942,
  "\u2581laplok": 943,
  "\u2581think": 944,
  "\u2581meetings": 945,
  "\u2581Naan": 946,
  "\u2581righteous": 947,
  "\u2581both": 948,
  "\u2581jenaj": 949,
  "\u258118.": 950,
  "\u2581school": 951,
  "\u2581kitien": 952,
  "\u2581relationship": 953,
  "\u2581experience": 954,
  "\u258117,": 955,
  "\u2581teaching": 956,
  "\u2581ek\u00e3l": 957,
  "\u2581kindness": 958,
  "\u2581three": 959,
  "\u2581close": 960,
  "\u2581father": 961,
  "\u2581kamelele": 962,
  "\u2581Bwe": 963,
  "\u2581jilu": 964,
  "\u2581system": 965,
  "\u2581Ij": 966,
  "\u2581Then": 967,
  "\u2581Iar": 968,
  "\u2581Jeje": 969,
  "\u2581message": 970,
  "\u2581na\u00f1inmij": 971,
  "\u2581needed": 972,
  "\u2581Law": 973,
  "y": 974,
  "\u2581L": 975,
  "\u2581itoklimo": 976,
  "\u2581ekoba": 977,
  "\u2581share": 978,
  ".)": 979,
  "oor": 980,
  "\u2581inem": 981,
  "\u2581ask": 982,
  "\u2581done": 983,
  "\u2581support": 984,
  "\u2581la\u00f1li\u00f1": 985,
  "\u2581O": 986,
  "\u2581ro\u00f1": 987,
  "\u2581nebar": 988,
  "\u2581Hebrew": 989,
  "\u2581There": 990,
  "\u2581melejo\u00f1": 991,
  "\u2581something": 992,
  "\u2581bin": 993,
  "\u2581money": 994,
  "\u258130": 995,
  "\u2581fine": 996,
  "\u2581child": 997,
  "\u2581really": 998,
  "\u2581law": 999,
  "\u2581kakk\u00f5l": 1000,
  "\u2581Many": 1001,
  "\u2581anjo": 1002,
  "\u2581James": 1003,
  "\u2581b\u00f5d": 1004,
  "\u2581avoid": 1005,
  "\u2581lives": 1006,
  "\u2581continue": 1007,
  "\u2581Lord": 1008,
  "\u2581wat\u00f5k": 1009,
  "\u2581Luk": 1010,
  "\u2581look": 1011,
  "\u2581bwil\u00f5\u00f1": 1012,
  "\u2581alen": 1013,
  "\u2581indio": 1014,
  "\u258119.": 1015,
  "\u258127": 1016,
  "\u2581fear": 1017,
  "on": 1018,
  "\u2581k\u00f5jerbal": 1019,
  "\u2581attitude": 1020,
  "\u2581belen": 1021,
  "\u2581kw\u00f5n": 1022,
  "\u2581pioneer": 1023,
  "\u2581Read": 1024,
  "\u2581together": 1025,
  "C": 1026,
  "\u2581Jemaro\u00f1": 1027,
  "\u2581Jew": 1028,
  "\u2581jabrew\u00f5t": 1029,
  "\u2581kallim": 1030,
  "\u2581burueir": 1031,
  "\u2581pokake": 1032,
  "\u2581k\u00e3let": 1033,
  "\u2581while": 1034,
  "\u2581eyes": 1035,
  "\u2581mejen": 1036,
  "\u2581someone": 1037,
  "\u2581k\u00f5kkar": 1038,
  "\u2581Aiseia": 1039,
  "\u2581possible": 1040,
  "\u2581ennan": 1041,
  "\u2581helped": 1042,
  "\u2581took": 1043,
  "\u25814)": 1044,
  "\u2581mean": 1045,
  "\u2581n": 1046,
  "\u2581kalaplok": 1047,
  "\u2581k\u00f5mel": 1048,
  "anm": 1049,
  "\u2581erro": 1050,
  "\u2581Jeremiah": 1051,
  "\u2581Saul": 1052,
  "\u2581kamakit": 1053,
  "\u2581Jab\u00f5n": 1054,
  "\u2581between": 1055,
  "\u2581kememej": 1056,
  "S": 1057,
  "\u2581matter": 1058,
  "\u2581woman": 1059,
  "\u2581desire": 1060,
  "\u2581husband": 1061,
  "\u2581last": 1062,
  "\u2581utiej": 1063,
  "\u2581W\u00e3wen": 1064,
  "\u2581asked": 1065,
  "\u2581w\u00e3nik": 1066,
  "\u2581retiljek": 1067,
  "\u2581\u00f1a": 1068,
  "\u2581Greek": 1069,
  "\u2581prophet": 1070,
  "Luk": 1071,
  "\u2581Watchtower": 1072,
  "\u2581emmakit": 1073,
  "\u2581present": 1074,
  "\u2581uan": 1075,
  "\u258132": 1076,
  "\u2581following": 1077,
  "\u2581Eokwe": 1078,
  "\u2581letter": 1079,
  "\u2581point": 1080,
  "\u258118,": 1081,
  "\u2581She": 1082,
  "\u2581sense": 1083,
  "\u258110)": 1084,
  "\u2581Consider": 1085,
  "\u2581W": 1086,
  "\u2581Judah": 1087,
  "ther": 1088,
  "\u2581Kinke": 1089,
  "\u258140": 1090,
  "\u258129": 1091,
  "\u2581En": 1092,
  "\u2581free": 1093,
  "\u2581ium": 1094,
  "\u2581riiti": 1095,
  "\u258124": 1096,
  "\u2581la\u00f1": 1097,
  "hose": 1098,
  "\u2581Who": 1099,
  "\u2581tell": 1100,
  "\u2581cannot": 1101,
  "\u2581w\u00e3ppen": 1102,
  "\u2581land": 1103,
  "\u2581attention": 1104,
  "\u2581understand": 1105,
  "\u2581Babylon": 1106,
  "\u2581Corinthians": 1107,
  "\u2581account": 1108,
  "\u2581answer": 1109,
  "\u2581kwomaro\u00f1": 1110,
  "\u2581lead": 1111,
  "\u2581kumi": 1112,
  "\u25818)": 1113,
  "\u2581learned": 1114,
  "\u2581Epes\u00f5s": 1115,
  "\u2581These": 1116,
  "\u258116": 1117,
  "\u2581followers": 1118,
  "\u2581nor": 1119,
  "\u2581relap": 1120,
  "\u2581best": 1121,
  "\u2581Em": 1122,
  "\u2581certain": 1123,
  "\u2581Jews": 1124,
  "\u2581giving": 1125,
  "\u2581enjoy": 1126,
  "\u2581From": 1127,
  "\u2581city": 1128,
  "\u2581k\u00f5mm\u00f5n": 1129,
  "\u2581situation": 1130,
  "\u258112:": 1131,
  "\u2581Because": 1132,
  "\u2581k\u00f5mmani": 1133,
  "\u2581Elap": 1134,
  "\u2581follow": 1135,
  "\u2581kajejjet": 1136,
  "\u2581self": 1137,
  "\u2581care": 1138,
  "\u2581Kwoj": 1139,
  "\u2581chapter": 1140,
  "\u2581bad": 1141,
  "\u2581elukkuun": 1142,
  "\u2581ever": 1143,
  "\u2581e\u00f1tan": 1144,
  "\u2581Riit": 1145,
  "\u2581happy": 1146,
  "\u2581jerkakbiji": 1147,
  "\u2581kadkad": 1148,
  "\u2581receive": 1149,
  "\u2581World": 1150,
  "\u2581Ejjab": 1151,
  "\u2581members": 1152,
  "\u2581ibelakin": 1153,
  "\u2581yet": 1154,
  "\u2581baptais": 1155,
  "\u2581\u00e3t": 1156,
  "\u2581Joshua": 1157,
  "\u2581kilen": 1158,
  "\u2581speak": 1159,
  "\u2581Ew\u00f5r": 1160,
  "\u2581slave": 1161,
  "\u2581wise": 1162,
  "\u2581righteousness": 1163,
  "\u258120.": 1164,
  "\u2581jo\u00f1ak": 1165,
  "\u2581W\u00f5n": 1166,
  "\u2581act": 1167,
  "\u2581remain": 1168,
  "\u258137": 1169,
  "\u2581saying": 1170,
  "\u2581thus": 1171,
  "\u2581everlasting": 1172,
  "\u2581Armij": 1173,
  "\u2581b\u00f5len": 1174,
  "\u2581apostles": 1175,
  "\u2581nation": 1176,
  "\u2581resurrection": 1177,
  "\u2581tarin": 1178,
  "eo": 1179,
  "\u2581err\u00e3": 1180,
  "\u2581Romans": 1181,
  "\u2581sure": 1182,
  "\u2581pija": 1183,
  "\u2581spiritually": 1184,
  "\u2581Ael\u00f5\u00f1": 1185,
  "\u2581Aolep": 1186,
  "\u2581ik\u00f5ta": 1187,
  "\u2581k\u00f5nnaan": 1188,
  "\u2581case": 1189,
  "\u2581sacrifice": 1190,
  "\u2581iloan": 1191,
  "\u258121.": 1192,
  "\u2581itulal": 1193,
  "A": 1194,
  "\u2581Of": 1195,
  "\u2581b\u00f5jrak": 1196,
  "\u2581serving": 1197,
  "\u2581felt": 1198,
  "\u2581Acts": 1199,
  "\u2581kitibuj": 1200,
  "\u2581yourself": 1201,
  "\u00f5ttan": 1202,
  "\u258114)": 1203,
  "\u2581kijejeto": 1204,
  "\u2581food": 1205,
  "\u258111)": 1206,
  "\u2581All": 1207,
  "\u2581hard": 1208,
  "\u2581\u00d1\u00f5n": 1209,
  "\u2581religious": 1210,
  "\u2581burom\u00f5j": 1211,
  "kjen": 1212,
  "\u258112)": 1213,
  "\u2581respect": 1214,
  "\u258117)": 1215,
  "\u2581J": 1216,
  "\u2581b\u00f5tab": 1217,
  "\u2581kind": 1218,
  "\u2581imitate": 1219,
  "\u2581trust": 1220,
  "\u2581Elikin": 1221,
  "\u2581ekar": 1222,
  "Jerbal": 1223,
  "\u2581Thus": 1224,
  "\u2581remol": 1225,
  "\u2581eor": 1226,
  "\u25815)": 1227,
  "\u2581different": 1228,
  "\u2581ibbeir": 1229,
  "\u2581problems": 1230,
  "\u2581false": 1231,
  "\u2581l\u00f5ke": 1232,
  "\u2581aikwiji": 1233,
  "\u2581kir": 1234,
  "\u2581mother": 1235,
  "\u2581suffering": 1236,
  "\u2581prophecy": 1237,
  "\u2581works": 1238,
  "\u2581needs": 1239,
  "\u2581inebata": 1240,
  "\u25819)": 1241,
  "\u2581again": 1242,
  "\u2581Egypt": 1243,
  "\u2581teach": 1244,
  "Jehovah": 1245,
  "\u2581divine": 1246,
  "\u2581far": 1247,
  "\u2581language": 1248,
  "\u2581women": 1249,
  "\u2581better": 1250,
  "\u2581Bar": 1251,
  "\u2581K\u0169raij": 1252,
  "\u2581pray": 1253,
  "\u2581ek\u00f5n": 1254,
  "\u2581kal": 1255,
  "\u2581l\u00f5\u00f1li\u00f1": 1256,
  "\u25813)": 1257,
  "\u2581wrong": 1258,
  "aj": 1259,
  "\u2581kingdom": 1260,
  "\u2581ene": 1261,
  "\u2581ipp\u00e3er": 1262,
  "\u2581Ezekiel": 1263,
  "\u2581whole": 1264,
  "\u258120,": 1265,
  "\u2581tok\u00e3lik": 1266,
  "\u258116)": 1267,
  "\u2581cause": 1268,
  "\u2581question": 1269,
  "\u2581Joseph": 1270,
  "\u2581individuals": 1271,
  "\u2581j\u00e3\u00e3n": 1272,
  "\u2581known": 1273,
  "ak\u0169t": 1274,
  "\u2581number": 1275,
  "\u2581thinking": 1276,
  "\u2581Proverbs": 1277,
  "\u2581turn": 1278,
  "\u258113)": 1279,
  "\u2581matters": 1280,
  "\u2581Lale": 1281,
  "\u2581baptized": 1282,
  "\u2581body": 1283,
  "\u2581provide": 1284,
  "\u2581brought": 1285,
  "\u2581m\u00f5\u00f1\u00e3": 1286,
  "\u2581k\u00f5tl": 1287,
  "\u2581kajeo\u00f1": 1288,
  "\u2581ijin": 1289,
  "\u2581real": 1290,
  "\u258131": 1291,
  "\u2581ancient": 1292,
  "\u2581kanuij": 1293,
  "uch": 1294,
  "\u2581feelings": 1295,
  "\u2581near": 1296,
  "\u2581Kii\u00f1": 1297,
  "\u2581indeeo": 1298,
  "\u2581k\u00f5l": 1299,
  "\u2581perfect": 1300,
  "\u2581knew": 1301,
  "\u2581jouj": 1302,
  "lukkuun": 1303,
  "\u2581eliktata": 1304,
  "\u258115)": 1305,
  "\u2581qualities": 1306,
  "\u2581allow": 1307,
  "\u2581likely": 1308,
  "\u2581off": 1309,
  "\u2581r\u0169kal": 1310,
  "\u2581few": 1311,
  "\u2581especially": 1312,
  "\u2581iomin": 1313,
  "\u2581B\u00f5len": 1314,
  "\u2581buk\u00f5t": 1315,
  "\u2581Ejelok": 1316,
  "\u2581principles": 1317,
  "\u2581jaar": 1318,
  "\u2581million": 1319,
  "\u2581Messiah": 1320,
  "\u2581Your": 1321,
  "\u2581strong": 1322,
  "Jenesis": 1323,
  "\u25817)": 1324,
  "naaj": 1325,
  "\u2581left": 1326,
  "\u2581sister": 1327,
  "\u2581Kamelele": 1328,
  "\u2581pen": 1329,
  "\u2581sons": 1330,
  "oore": 1331,
  "\u2581R": 1332,
  "\u2581early": 1333,
  "\u2581k\u00f5m\u00f5nm\u00f5n": 1334,
  "\u2581light": 1335,
  "\u2581vision": 1336,
  "\u2581Can": 1337,
  "\u2581Scriptural": 1338,
  "\u2581went": 1339,
  "\u2581inepata": 1340,
  "\u2581dead": 1341,
  "\u2581examples": 1342,
  "\u2581reading": 1343,
  "\u2581jit\u00f5\u00f1lok": 1344,
  "\u2581korijer": 1345,
  "\u2581Eve": 1346,
  "\u2581k\u00f5nono": 1347,
  "\u2581difficult": 1348,
  "\u2581jeblak": 1349,
  "\u2581jemlokin": 1350,
  "\u2581organization": 1351,
  "\u2581Does": 1352,
  "\u2581ilju": 1353,
  "\u2581since": 1354,
  "\u2581believe": 1355,
  "\u2581jelmae": 1356,
  "\u2581open": 1357,
  "\u2581happiness": 1358,
  "\u2581inspired": 1359,
  "kkure": 1360,
  "\u2581Creator": 1361,
  "\u2581t\u00f5brak": 1362,
  "\u2581Although": 1363,
  "\u2581kaje": 1364,
  "\u2581k\u00f5ra": 1365,
  "\u2581next": 1366,
  "Jab\u00f5n": 1367,
  "\u2581kw\u00f5maro\u00f1": 1368,
  "\u2581Ebream": 1369,
  "\u2581Ikijen": 1370,
  "\u2581little": 1371,
  "\u2581glory": 1372,
  "\u2581s": 1373,
  "\u2581prayers": 1374,
  "\u2581moved": 1375,
  "\u2581Rather": 1376,
  "\u2581Ekkar": 1377,
  "\u2581ibbed": 1378,
  "\u2581D": 1379,
  "\u2581covenant": 1380,
  "\u2581gift": 1381,
  "\u2581jel\u00e3lokjen": 1382,
  "\u2581kanaan": 1383,
  "\u2581along": 1384,
  "\u2581i\u00f1tan": 1385,
  "\u2581More": 1386,
  "\u2581hearts": 1387,
  "\u2581iair": 1388,
  "\u2581t\u00f5re": 1389,
  "\u2581gives": 1390,
  "\u2581saw": 1391,
  "\u2581shows": 1392,
  "\u2581similar": 1393,
  "\u2581el\u00f5\u00f1lok": 1394,
  "er": 1395,
  "naj": 1396,
  "\u2581lomor": 1397,
  "\u2581received": 1398,
  "\u2581aibujuij": 1399,
  "\u2581taking": 1400,
  "\u2581taught": 1401,
  "\u2581mweiuk": 1402,
  "\u2581m\u00f5n": 1403,
  "\u2581coming": 1404,
  "\u2581whe": 1405,
  "\u2581draw": 1406,
  "\u2581nejiir": 1407,
  "\u2581kakajur": 1408,
  "\u2581Kein": 1409,
  "\u2581leen": 1410,
  "\u2581strength": 1411,
  "\u2581regard": 1412,
  "\u2581KO": 1413,
  "\u2581priest": 1414,
  "\u2581Would": 1415,
  "\u2581truly": 1416,
  "\u2581certainly": 1417,
  "\u2581thought": 1418,
  "\u2581until": 1419,
  "\u2581kaor\u00f5k": 1420,
  "\u2581loi": 1421,
  "\u2581r\u0169tto": 1422,
  "\u2581bedbed": 1423,
  "\u2581comes": 1424,
  "\u258122,": 1425,
  "\u2581circumstances": 1426,
  "\u00f5k": 1427,
  "\u2581rule": 1428,
  "\u2581mare": 1429,
  "\u2581iion": 1430,
  "\u2581involved": 1431,
  "\u2581manit": 1432,
  "\u2581nuknuk": 1433,
  "\u2581\u00e3indein": 1434,
  "....": 1435,
  "\u2581kennan": 1436,
  "\u2581Since": 1437,
  "\u2581confidence": 1438,
  "\u2581kaju\u00f5n": 1439,
  "\u2581likao": 1440,
  "\u2581kajerbale": 1441,
  "\u25812)": 1442,
  "\u2581Are": 1443,
  "\u2581ankil": 1444,
  "\u2581blessings": 1445,
  "\u2581Today": 1446,
  "\u2581eoon": 1447,
  "\u2581states": 1448,
  "\u2581wonderful": 1449,
  "\u258123.": 1450,
  "\u2581Hebrews": 1451,
  "\u2581kajjio\u00f1": 1452,
  "\u2581maintain": 1453,
  "\u2581\u00e3likin": 1454,
  "\u2581heavens": 1455,
  "\u2581kainem\u00f5n": 1456,
  "\u25816)": 1457,
  "\u2581makes": 1458,
  "\u2581K": 1459,
  "\u2581Mour": 1460,
  "\u2581loved": 1461,
  "\u2581material": 1462,
  "\u2581thing": 1463,
  "\u2581Jit\u00f5b": 1464,
  "\u2581age": 1465,
  "\u2581Ad": 1466,
  "\u2581jum": 1467,
  "\u2581k\u00f5m\u00f5ni": 1468,
  "\u2581sisters": 1469,
  "\u2581forever": 1470,
  "\u2581r\u00f5ja\u00f1": 1471,
  "\u2581shall": 1472,
  "\u2581moktata": 1473,
  "Lale": 1474,
  "\u2581Like": 1475,
  "\u2581k\u00e3\u00e3l\u00f5t": 1476,
  "\u2581buk": 1477,
  "\u2581Elijah": 1478,
  "\u2581believers": 1479,
  "\u2581ejamin": 1480,
  "\u2581loyal": 1481,
  "\u2581soul": 1482,
  "\u2581promise": 1483,
  "\u2581\u25a1": 1484,
  "\u25811)": 1485,
  "\u2581comfort": 1486,
  "\u2581eban": 1487,
  "\u2581b\u00f5prae": 1488,
  "\u2581privilege": 1489,
  "\u2581aen": 1490,
  "\u2581emaan": 1491,
  "\u2581understanding": 1492,
  "\u258122.": 1493,
  "\u2581Lemnak": 1494,
  "\u2581ekwojarjar": 1495,
  "\u25a1": 1496,
  "\u2581Yokwe": 1497,
  "\u2581high": 1498,
  "\u2581jamin": 1499,
  "\u2581promises": 1500,
  "\u2581Jemen": 1501,
  "\u2581fully": 1502,
  "\u2581therefore": 1503,
  "\u2581witness": 1504,
  "\u2581friends": 1505,
  "\u2581provided": 1506,
  "\u2581Emaro\u00f1": 1507,
  "\u2581Not": 1508,
  "\u2581clear": 1509,
  "\u2581kun": 1510,
  "\u2581Mary": 1511,
  "\u2581e\u00f1taan": 1512,
  "\u2581evidence": 1513,
  "\u2581soon": 1514,
  "\u2581judgment": 1515,
  "\u2581going": 1516,
  "\u2581likjap": 1517,
  "\u2581blood": 1518,
  "\u2581b\u00f5ke": 1519,
  "\u2581seen": 1520,
  "\u2581honor": 1521,
  "hile": 1522,
  "\u258121,": 1523,
  "\u2581jodikdik": 1524,
  "\u2581ransom": 1525,
  "\u2581apply": 1526,
  "\u2581died": 1527,
  "\u2581kalek": 1528,
  "\u2581decisions": 1529,
  "\u258124,": 1530,
  "\u2581change": 1531,
  "\u2581epaake": 1532,
  "\u2581accept": 1533,
  "\u2581information": 1534,
  "See": 1535,
  "\u2581blessing": 1536,
  "\u2581control": 1537,
  "lukkun": 1538,
  "\u2581bujen": 1539,
  "\u2581k\u00f5ttar": 1540,
  "\u2581prove": 1541,
  "kin": 1542,
  "\u2581overseer": 1543,
  "\u2581effect": 1544,
  "\u2581koba": 1545,
  "\u2581kwo": 1546,
  "\u2581stand": 1547,
  "\u2581authority": 1548,
  "\u2581gain": 1549,
  "\u2581including": 1550,
  "\u2581vital": 1551,
  "espite": 1552,
  "\u2581keememej": 1553,
  "\u2581preach": 1554,
  "\u2581try": 1555,
  "\u2581heard": 1556,
  "\u2581powerful": 1557,
  "\u2581around": 1558,
  "\u2581dolul": 1559,
  "\u2581Menin": 1560,
  "\u2581integrity": 1561,
  "\u2581drio": 1562,
  "Komin": 1563,
  "\u2581according": 1564,
  "\u2581religion": 1565,
  "\u2581paradise": 1566,
  "\u2581rel": 1567,
  "\u2581seek": 1568,
  "\u2581jorr\u00e3\u00e3n": 1569,
  "\u2581sent": 1570,
  "mij": 1571,
  "\u2581flesh": 1572,
  "\u2581married": 1573,
  "\u2581earthly": 1574,
  "\u2581strengthen": 1575,
  "\u2581beran": 1576,
  "\u2581meaning": 1577,
  "\u2581nothing": 1578,
  "\u2581Jab": 1579,
  "\u2581showed": 1580,
  "\u2581greater": 1581,
  "\u2581regarding": 1582,
  "\u2581call": 1583,
  "\u2581kabwe": 1584,
  "Aiseia": 1585,
  "You": 1586,
  "godly": 1587,
  "\u2581Genesis": 1588,
  "\u2581THE": 1589,
  "men": 1590,
  "\u2581Be": 1591,
  "\u2581Rome": 1592,
  "\u2581war": 1593,
  "\u2581bwij": 1594,
  "\u2581further": 1595,
  "\u2581doulul": 1596,
  "\u2581return": 1597,
  "\u258123,": 1598,
  "\u2581past": 1599,
  "\u2581Reveles": 1600,
  "\u2581remember": 1601,
  "\u2581doubt": 1602,
  "\u2581e\u00f1in": 1603,
  "\u2581makitkit": 1604,
  "\u2581mentioned": 1605,
  "\u2581tiriamokake": 1606,
  "\u2581deep": 1607,
  "\u2581karuo": 1608,
  "oolol": 1609,
  "\u2581IN": 1610,
  "\u2581psalmist": 1611,
  "\u2581special": 1612,
  "\u2581salvation": 1613,
  "\u2581tokj\u00e3n": 1614,
  "\u2581kijir\u00e3t": 1615,
  "\u2581interest": 1616,
  "\u2581Kwalok": 1617,
  "\u2581kalmenlokjen": 1618,
  "\u2581pein": 1619,
  "\u2581ebak": 1620,
  "\u2581kijenmej": 1621,
  "\u2581iiooni": 1622,
  "\u2581anyone": 1623,
  "\u2581helps": 1624,
  "kwar": 1625,
  "\u2581foretold": 1626,
  "\u2581taken": 1627,
  "\u2581wa": 1628,
  "\u2581wanted": 1629,
  "\u2581My": 1630,
  "\u2581fulfillment": 1631,
  "\u2581mat\u00f5rt\u00f5r": 1632,
  "\u2581written": 1633,
  "\u2581ibwiljin": 1634,
  "\u2581opportunity": 1635,
  "\u2581anij": 1636,
  "\u2581serious": 1637,
  "r": 1638,
  "\u2581debij": 1639,
  "Bwe": 1640,
  "\u2581b\u0169rom": 1641,
  "\u2581standards": 1642,
  "\u2581'?": 1643,
  "\u2581appreciation": 1644,
  "\u2581ebin": 1645,
  "\u2581ipp\u00e3d": 1646,
  "\u2581irooj": 1647,
  "\u2581promised": 1648,
  "\u2581sins": 1649,
  "\u2581A\u00f5": 1650,
  "\u2581kw\u00f5naaj": 1651,
  "\u2581shepherd": 1652,
  "\u258118)": 1653,
  "\u2581Jenesis": 1654,
  "\u2581buru\u00f5d": 1655,
  "\u2581kea\u00f1": 1656,
  "\u2581water": 1657,
  "\u2581respond": 1658,
  "\u2581appointed": 1659,
  "\u2581based": 1660,
  "\u2581b\u0169ruon": 1661,
  "\u2581effort": 1662,
  "\u2581move": 1663,
  "\u2581efforts": 1664,
  "\u2581kept": 1665,
  "\u2581jo\u00f1\u00f5n": 1666,
  "\u2581Jewish": 1667,
  "\u2581Still": 1668,
  "\u2581deal": 1669,
  "\u2581etiljek": 1670,
  "\u2581uk\u00f5t": 1671,
  "\u2581angels": 1672,
  "\u2581praise": 1673,
  "nooj": 1674,
  "\u2581direction": 1675,
  "\u2581jimor": 1676,
  "\u2581recorded": 1677,
  "\u2581Instead": 1678,
  "\u2581night": 1679,
  "\u2581peptaij": 1680,
  "\u2581events": 1681,
  "\u2581jikuul": 1682,
  "\u2581walk": 1683,
  "\u00f5\u00f1\u00e3": 1684,
  "\u258120)": 1685,
  "\u2581value": 1686,
  "\u2581Jemes": 1687,
  "\u2581jein": 1688,
  "\u2581kabo": 1689,
  "\u2581naetan": 1690,
  "\u258128,": 1691,
  "\u2581m\u00f5kaj": 1692,
  "\u2581Hence": 1693,
  "\u2581magazine": 1694,
  "\u2581please": 1695,
  "\u2581jemlok": 1696,
  "\u2581lomoren": 1697,
  "\u2581class": 1698,
  "\u2581iioon": 1699,
  "\u2581raor\u00f5k": 1700,
  "un": 1701,
  "\u2581perhaps": 1702,
  "\u2581maan": 1703,
  "\u258116;": 1704,
  "\u2581physical": 1705,
  "\u2581affect": 1706,
  "\u2581listen": 1707,
  "\u2581once": 1708,
  "\u2581second": 1709,
  ",...": 1710,
  "God": 1711,
  "\u2581hold": 1712,
  "\u2581speaking": 1713,
  "\u2581tribulation": 1714,
  "\u2581role": 1715,
  "\u2581\u00c3likin": 1716,
  "\u2581determined": 1717,
  "\u2581willing": 1718,
  "\u2581wujleplok": 1719,
  "\u2581Indeed": 1720,
  "\u258119)": 1721,
  "\u2581iturin": 1722,
  "\u2581already": 1723,
  "\u2581Rainin": 1724,
  "\u258124.": 1725,
  "\u2581bere": 1726,
  "\u2581health": 1727,
  "over": 1728,
  "\u2581Footnote": 1729,
  "\u2581May": 1730,
  "\u2581einlok": 1731,
  "\u2581keidi": 1732,
  "\u2581Kwe": 1733,
  "\u2581Their": 1734,
  "\u2581appreciate": 1735,
  "\u2581kakememej": 1736,
  "\u2581p\u00e3leen": 1737,
  "\u2581congregations": 1738,
  "\u2581Did": 1739,
  "\u2581119": 1740,
  "\u2581K\u00f5m": 1741,
  "\u2581k\u00f5manman": 1742,
  "\u2581spoke": 1743,
  "\u2581Kememej": 1744,
  "\u2581harmony": 1745,
  "\u2581field": 1746,
  "\u258145": 1747,
  "\u2581ukwelok": 1748,
  "\u2581offer": 1749,
  "\u2581report": 1750,
  "\u2581simply": 1751,
  "tok": 1752,
  "\u2581forth": 1753,
  "\u2581responsibility": 1754,
  "\u2581thoughts": 1755,
  "\u2581Galetia": 1756,
  "\u2581Will": 1757,
  "\u2581Ien": 1758,
  "\u2581rather": 1759,
  "\u2581ekajur": 1760,
  "\u2581obey": 1761,
  "are": 1762,
  "or": 1763,
  "\u2581trials": 1764,
  "\u25aa": 1765,
  "\u2581Tim": 1766,
  "\u2581talk": 1767,
  "\u2581baamle": 1768,
  "\u2581courage": 1769,
  "\u2581illustration": 1770,
  "\u2581older": 1771,
  "\u2581decision": 1772,
  "\u2581guidance": 1773,
  "\u2581within": 1774,
  "\u2581meeting": 1775,
  "\u2581servant": 1776,
  "\u2581conscience": 1777,
  "\u00e3nl": 1778,
  "\u2581leave": 1779,
  "\u2581ritto": 1780,
  "\u00b7": 1781,
  "\u2581lotak": 1782,
  "\u2581r": 1783,
  "Kwon": 1784,
  "\u2581Exodus": 1785,
  "\u2581hands": 1786,
  "\u2581imperfect": 1787,
  "\u2581t\u00f5bar": 1788,
  "\u2581aor\u00f5kin": 1789,
  "\u2581large": 1790,
  "\u00f5kaj": 1791,
  "\u2581baptism": 1792,
  "\u2581everything": 1793,
  "\u2581kanniek": 1794,
  "\u2581lost": 1795,
  "n\u00f5m": 1796,
  "\u2581m\u00e3l\u00f5tl\u00f5t": 1797,
  "\u2581na\u00f1inmej": 1798,
  "J": 1799,
  "\u2581four": 1800,
  "\u2581influence": 1801,
  "Anij": 1802,
  "\u2581Pilippai": 1803,
  "\u2581Society": 1804,
  "\u2581display": 1805,
  "\u2581instance": 1806,
  "\u2581using": 1807,
  "\u2581tellok": 1808,
  "\u2581True": 1809,
  "\u2581ek\u00e3\u00e3l": 1810,
  "\u2581Kij": 1811,
  "\u2581endure": 1812,
  "dri": 1813,
  "\u2581beek": 1814,
  "\u2581jatin": 1815,
  "\u2581mere": 1816,
  "\u2581Christendom": 1817,
  "\u2581build": 1818,
  "\u2581justice": 1819,
  "\u2581Irooj": 1820,
  "\u2581hear": 1821,
  "\u2581jilik": 1822,
  "\u2581longer": 1823,
  "\u2581nejier": 1824,
  "\u2581rejetake": 1825,
  "\u2581Kom": 1826,
  "\u2581kii\u00f1": 1827,
  "Rom": 1828,
  "\u2581Lot": 1829,
  "\u2581happened": 1830,
  "\u2581precious": 1831,
  "\u2581Pictures": 1832,
  "\u2581k\u00f5tt\u00e3ik": 1833,
  "\u2581ukot": 1834,
  "\u2581Jacob": 1835,
  "\u2581P": 1836,
  "\u2581form": 1837,
  "\u2581kijeek": 1838,
  "\u2581il\u00f5\u00f1": 1839,
  "\u2581mercy": 1840,
  "st": 1841,
  "\u2581Alikar": 1842,
  "\u2581complete": 1843,
  "\u2581crowd": 1844,
  "\u2581kakapil\u00f5k": 1845,
  "\u2581riit": 1846,
  "\u2581week": 1847,
  "\u2581actions": 1848,
  "\u2581anything": 1849,
  "\u2581destruction": 1850,
  "\u2581Dur": 1851,
  "\u2581clearly": 1852,
  "\u2581lik\u0169t": 1853,
  "\u2581ejimwe": 1854,
  "\u2581fulfilled": 1855,
  "\u2581koutiej": 1856,
  "\u2581small": 1857,
  "\u2581thousand": 1858,
  "\u2581Therefore": 1859,
  "\u2581here": 1860,
  "\u2581stated": 1861,
  "\u2581wants": 1862,
  "mo": 1863,
  "\u2581Jo\u00f1an": 1864,
  "\u2581activities": 1865,
  "\u2581experienced": 1866,
  "\u2581Noa": 1867,
  "\u2581clean": 1868,
  "\u2581considered": 1869,
  "\u2581friend": 1870,
  "\u2581reasons": 1871,
  "\u2581aet": 1872,
  "\u2581proved": 1873,
  "\u2581public": 1874,
  "\u2581Tessalonika": 1875,
  "\u258123)": 1876,
  "\u2581bojak": 1877,
  "\u2581whose": 1878,
  "\u2581Komin": 1879,
  "\u2581ability": 1880,
  "\u2581jelalokjen": 1881,
  "\u2581tol": 1882,
  "\u2581den": 1883,
  "\u2581unity": 1884,
  "\u258121)": 1885,
  "\u2581atartar": 1886,
  "\u2581concern": 1887,
  "\u2581innem": 1888,
  "\u2581Micah": 1889,
  "\u2581lived": 1890,
  "ju\u00f5n": 1891,
  "\u2581bo\u00f1": 1892,
  "\u2581kamaro\u00f1": 1893,
  "\u258125.": 1894,
  "\u2581ikijjeen": 1895,
  "\u2581head": 1896,
  "\u2581kadkadin": 1897,
  "pel": 1898,
  "\u2581aerro": 1899,
  "\u2581history": 1900,
  "\u2581jeorlok": 1901,
  "\u2581l\u0169\u00f1": 1902,
  "\u2581group": 1903,
  "\u2581Bwebwenato": 1904,
  "\u2581Ki\u00f1": 1905,
  "\u2581Kwomaro\u00f1": 1906,
  "\u2581action": 1907,
  "\u2581express": 1908,
  "th": 1909,
  "\u2581creation": 1910,
  "\u2581itself": 1911,
  "),": 1912,
  "\u2581dik": 1913,
  "\u2581warning": 1914,
  "\u2581showing": 1915,
  "\u2581Re": 1916,
  "\u25811914": 1917,
  "\u2581alone": 1918,
  "\u2581burukuk": 1919,
  "\u2581Book": 1920,
  "\u2581available": 1921,
  "Kom": 1922,
  "\u2581Hall": 1923,
  "\u2581Armej": 1924,
  "\u2581Kolosse": 1925,
  "\u2581ewor": 1926,
  "to": 1927,
  "\u2581jo": 1928,
  "\u2581ra": 1929,
  "\u2581reflect": 1930,
  "\u2581ippa": 1931,
  "\u2581Now": 1932,
  "\u2581ek\u00f5nan": 1933,
  "\u2581led": 1934,
  "\u2581appropriate": 1935,
  "\u2581k\u00f5tmene": 1936,
  "\u258136": 1937,
  "\u2581Tokelik": 1938,
  "\u2581die": 1939,
  "\u2581m\u00f5t\u00f5n": 1940,
  "\u2581meet": 1941,
  "\u2581desires": 1942,
  "\u2581modern": 1943,
  "\u2581oran": 1944,
  "Im": 1945,
  "\u2581grow": 1946,
  "O": 1947,
  "\u2581position": 1948,
  "\u2581indeed": 1949,
  "\u2581walking": 1950,
  "\u2581Translation": 1951,
  "\u2581answers": 1952,
  "\u2581enemies": 1953,
  "\u2581Or": 1954,
  "\u2581rek\u00f5n": 1955,
  "\u2581People": 1956,
  "\u2581issue": 1957,
  "\u2581w\u00f5n\u00e3n": 1958,
  "\u2581EO": 1959,
  "\u2581mae": 1960,
  "\u258138": 1961,
  "\u2581kabu\u00f1buruen": 1962,
  "anl": 1963,
  "\u2581First": 1964,
  "\u2581bukwon": 1965,
  "\u2581ijoko": 1966,
  "\u2581n\u00f5bar": 1967,
  "\u2581wor": 1968,
  "\u2581Tokjen": 1969,
  "\u2581wijki": 1970,
  "amin": 1971,
  "\u2581anemkwoj": 1972,
  "\u2581couple": 1973,
  "\u2581k\u00f5jerbale": 1974,
  "\u2581proper": 1975,
  "\u2581ibeir": 1976,
  "\u2581laws": 1977,
  "\u2581sam": 1978,
  "\u2581helping": 1979,
  "\u2581practical": 1980,
  "\u2581rest": 1981,
  "\u2581Watch": 1982,
  "\u2581According": 1983,
  "\u2581bear": 1984,
  "\u2581daily": 1985,
  "\u2581described": 1986,
  "\u2581kae": 1987,
  "\u2581provides": 1988,
  "\u2581tellokin": 1989,
  "\u2581wan": 1990,
  "\u2581Ju": 1991,
  "\u2581carry": 1992,
  "\u2581knows": 1993,
  "\u2581else": 1994,
  "\u2581humble": 1995,
  "\u2581kajeramm\u00f5n": 1996,
  "\u2581neither": 1997,
  "\u2581seeking": 1998,
  "weo": 1999,
  "\u2581an\u00f5ke": 2000,
  "\u2581Just": 2001,
  "\u2581ell\u00e3": 2002,
  "\u2581raised": 2003,
  "\u2581voice": 2004,
  "\u2581Love": 2005,
  "\u2581Matt": 2006,
  "\u2581ekajete": 2007,
  "\u2581kab\u00f5jrak": 2008,
  "\u2581ainikien": 2009,
  "\u2581ejaake": 2010,
  "\u2581k\u00f5jatdikdik": 2011,
  "\u2581sacrifices": 2012,
  "\u2581teachings": 2013,
  "\u2581remotlok": 2014,
  "\u258170": 2015,
  "\u2581business": 2016,
  "\u2581em\u00f5nlok": 2017,
  "\u2581Gospel": 2018,
  "\u2581focus": 2019,
  "\u2581kai\u00f1i": 2020,
  "\u2581accurate": 2021,
  "\u2581expression": 2022,
  "\u2581presence": 2023,
  "\u2581rijjil\u00f5k": 2024,
  "\u02b9": 2025,
  "\u258134": 2026,
  "\u2581Un": 2027,
  "\u2581regular": 2028,
  "\u2581regularly": 2029,
  "\u2581ukok": 2030,
  "\u258126,": 2031,
  "\u2581blessed": 2032,
  "\u2581bwir": 2033,
  "\u2581illok": 2034,
  "\u2581visit": 2035,
  "aptata": 2036,
  "\u2581ine": 2037,
  "\u2581accepted": 2038,
  "\u2581continued": 2039,
  "\u2581worldwide": 2040,
  "\u2581bo": 2041,
  "\u2581W\u00f5t": 2042,
  "\u2581reach": 2043,
  "\u2581takes": 2044,
  "\u2581T\u00f5mak": 2045,
  "\u2581created": 2046,
  "\u2581force": 2047,
  "\u2581easy": 2048,
  "\u2581explained": 2049,
  "\u258128.": 2050,
  "\u2581jilkinlok": 2051,
  "\u2581cultivate": 2052,
  "\u2581Jar": 2053,
  "\u2581Uak": 2054,
  "\u2581awa": 2055,
  "\u2581behalf": 2056,
  "\u2581develop": 2057,
  "\u2581ejejjet": 2058,
  "\u2581got": 2059,
  "\u2581jeran": 2060,
  "\u2581offered": 2061,
  "ri": 2062,
  "\u2581basis": 2063,
  "\u2581sovereignty": 2064,
  "\u2581Roman": 2065,
  "\u2581d": 2066,
  "\u2581evil": 2067,
  "\u2581kakajoor": 2068,
  "\u2581quality": 2069,
  "jer\u00e3": 2070,
  "\u2581Similarly": 2071,
  "\u2581sacred": 2072,
  "oktata": 2073,
  "\u2581Have": 2074,
  "\u2581PAGE": 2075,
  "\u2581jo\u00f1oul": 2076,
  "\u2581kakien": 2077,
  "\u2581mij\u00f5k": 2078,
  "\u2581pages": 2079,
  "\u2581ennaan": 2080,
  "\u2581exercise": 2081,
  "\u2581pidodo": 2082,
  "\u2581served": 2083,
  "\u2581humility": 2084,
  "\u2581k\u00f5mm\u00f5ne": 2085,
  "\u2581meanw\u00f5d": 2086,
  "\u2581nuuj": 2087,
  "\u2581encourage": 2088,
  "\u2581happen": 2089,
  "\u2581kallip": 2090,
  "\u2581occasion": 2091,
  "\u2581problem": 2092,
  "\u2581b\u0169ruod": 2093,
  "\u2581eindrein": 2094,
  "\u2581freedom": 2095,
  "\u2581mweie": 2096,
  "\u2581nej\u00f5m": 2097,
  "\u2581speech": 2098,
  "\u2581Ki\u00f5": 2099,
  "\u2581Paradise": 2100,
  "\u2581kalimur": 2101,
  "\u2581kauwatata": 2102,
  "\u2581lesson": 2103,
  "ja\u00f1in": 2104,
  "\u2581Bethel": 2105,
  "\u2581acts": 2106,
  "\u2581advice": 2107,
  "\u2581kiki": 2108,
  "\u2581millions": 2109,
  "\u2581moral": 2110,
  "\u2581shown": 2111,
  "\u2581Tower": 2112,
  "\u2581everyone": 2113,
  "\u2581genuine": 2114,
  "\u2581k\u00f5ketak": 2115,
  "\u2581Great": 2116,
  "\u2581Tok\u00e3lik": 2117,
  "\u2581benefits": 2118,
  "\u2581born": 2119,
  "\u2581ia": 2120,
  "\u2581jime": 2121,
  "\u2581jipa\u00f1e": 2122,
  "\u2581kebak": 2123,
  "\u2581keini": 2124,
  "\u2581single": 2125,
  "\u2581activity": 2126,
  "\u2581binmour": 2127,
  "\u2581interests": 2128,
  "\u2581common": 2129,
  "\u2581luji": 2130,
  "\u2581ejaak": 2131,
  "\u2581individual": 2132,
  "\u2581knowing": 2133,
  "\u2581resurrected": 2134,
  "\u258129.": 2135,
  "\u2581devotion": 2136,
  "\u2581greatest": 2137,
  "\u2581lolok": 2138,
  "\u2581York": 2139,
  "\u2581yourselves": 2140,
  "\u2581earlier": 2141,
  "\u2581encouragement": 2142,
  "\u2581flock": 2143,
  "\u2581jibad\u00f5k": 2144,
  "\u2581training": 2145,
  "\u2581Kw\u00f5j": 2146,
  "\u2581Life": 2147,
  "\u2581discipline": 2148,
  "\u2581ago": 2149,
  "\u2581period": 2150,
  "\u2581priests": 2151,
  "Emwij": 2152,
  "\u258150": 2153,
  "\u258160": 2154,
  "\u2581actually": 2155,
  "\u2581choose": 2156,
  "\u2581jejel": 2157,
  "\u2581kobalok": 2158,
  "\u2581prayed": 2159,
  "\u2581anger": 2160,
  "\u2581expect": 2161,
  "\u2581l\u00f5maro": 2162,
  "\u2581becoming": 2163,
  "\u2581changed": 2164,
  "\u2581personality": 2165,
  "\u2581\u00e3liktata": 2166,
  "\u2581See": 2167,
  "\u2581firm": 2168,
  "\u258122)": 2169,
  "\u2581command": 2170,
  "\u2581faced": 2171,
  "\u2581jibadbad": 2172,
  "\u2581missionary": 2173,
  "\u2581positive": 2174,
  "\u2581rich": 2175,
  "\u2581various": 2176,
  "\u2581Ena\u00f1in": 2177,
  "\u2581Ps": 2178,
  "\u2581kea": 2179,
  "\u2581kunair": 2180,
  "\u2581persecution": 2181,
  "aakin": 2182,
  "\u258139": 2183,
  "\u2581Ephesians": 2184,
  "\u2581above": 2185,
  "\u2581b\u00f5t\u00f5kt\u00f5k": 2186,
  "\u2581keeping": 2187,
  "\u2581kwojkwoj": 2188,
  "\u2581wives": 2189,
  "kanuij": 2190,
  "\u2581Rein": 2191,
  "\u2581aikuji": 2192,
  "\u2581leaders": 2193,
  "\u2581Ejjel": 2194,
  "\u2581kings": 2195,
  "\u2581parable": 2196,
  "\u2581protect": 2197,
  "\u2581sexual": 2198,
  "ting": 2199,
  "\u2581Kajit\u00f5k": 2200,
  "\u2581m\u00f5k": 2201,
  "\u2581record": 2202,
  "\u2581start": 2203,
  "\u2581suffer": 2204,
  "\u2581traveling": 2205,
  "\u2581disciple": 2206,
  "\u2581kwonaj": 2207,
  "\u2581Ejjabto": 2208,
  "\u2581Govern": 2209,
  "\u2581challenge": 2210,
  "\u2581importance": 2211,
  "\u2581mate": 2212,
  "\u2581stay": 2213,
  "\u2581Kor": 2214,
  "\u2581alive": 2215,
  "\u2581behind": 2216,
  "\u2581country": 2217,
  "\u2581dedication": 2218,
  "\u2581poor": 2219,
  "\u258125,": 2220,
  "\u2581b\u00f5ro": 2221,
  "\u2581include": 2222,
  "\u2581kamakoko": 2223,
  "\u2581peran": 2224,
  "\u2581ready": 2225,
  "\u2581source": 2226,
  "\u2581Keep": 2227,
  "\u2581ippam": 2228,
  "\u2581realize": 2229,
  "\u2581ahead": 2230,
  "\u2581b\u00f5ran": 2231,
  "\u2581drein": 2232,
  "\u2581examine": 2233,
  "\u2581Ekk\u00e3": 2234,
  "\u2581bu\u00f1": 2235,
  "\u2581entire": 2236,
  "\u2581seed": 2237,
  "\u2581tokjeir": 2238,
  "like": 2239,
  "\u2581Most": 2240,
  "\u2581beyond": 2241,
  "\u2581started": 2242,
  "\u2581joko": 2243,
  "\u2581key": 2244,
  "\u2581results": 2245,
  "Reveles": 2246,
  "\u2581arrangement": 2247,
  "\u2581okt\u00f5k": 2248,
  "\u2581personally": 2249,
  "\u2581subject": 2250,
  "\u2581Kabu\u00f1": 2251,
  "\u2581Kain": 2252,
  "\u2581allowed": 2253,
  "\u258129,": 2254,
  "\u2581Remember": 2255,
  "\u2581ekk\u00f5l": 2256,
  "\u2581enable": 2257,
  "\u2581seem": 2258,
  "\u2581Though": 2259,
  "\u2581jejj": 2260,
  "\u2581jodrikdrik": 2261,
  "\u2581revealed": 2262,
  "\u2581Habakkuk": 2263,
  "\u2581Nehemiah": 2264,
  "\u2581RiIsrael": 2265,
  "\u2581dedicated": 2266,
  "\u2581uwaak": 2267,
  "\u2581working": 2268,
  "\u258144": 2269,
  "\u2581Lal": 2270,
  "\u2581enbwin": 2271,
  "\u2581kabwil\u00f5\u00f1l\u00f5\u00f1": 2272,
  "\u258131.": 2273,
  "\u2581brings": 2274,
  "\u2581gold": 2275,
  "\u2581jei": 2276,
  "\u2581addition": 2277,
  "\u2581bread": 2278,
  "\u2581tried": 2279,
  "\u2581iaaer": 2280,
  "\u2581line": 2281,
  "\u2581short": 2282,
  "\u2581lands": 2283,
  "\u2581AL": 2284,
  "\u2581em\u00f5ntata": 2285,
  "\u2581expressed": 2286,
  "\u2581government": 2287,
  "\u2581kam\u00f5n\u00f5n\u00f5": 2288,
  "\u2581meram": 2289,
  "\u2581minister": 2290,
  "\u2581t\u00f5prak": 2291,
  "\u00f1": 2292,
  "\u2581Isaac": 2293,
  "\u2581assignment": 2294,
  "\u2581jem\u00e3n": 2295,
  "\u2581sign": 2296,
  "\u2581steps": 2297,
  "\u2581Us": 2298,
  "\u2581karejaran": 2299,
  "\u2581published": 2300,
  "\u2581choice": 2301,
  "\u2581final": 2302,
  "\u2581iba": 2303,
  "If": 2304,
  "\u258124)": 2305,
  "\u2581Amos": 2306,
  "\u2581PEI": 2307,
  "\u2581kajeo\u00f1e": 2308,
  "\u2581write": 2309,
  "\u2581discreet": 2310,
  "\u2581explains": 2311,
  "\u2581protection": 2312,
  "\u258127,": 2313,
  "\u2581dren": 2314,
  "\u2581jaje": 2315,
  "\u2581Catholic": 2316,
  "\u2581endurance": 2317,
  "\u2581obedience": 2318,
  "\u2581obedient": 2319,
  "\u2581urged": 2320,
  "\u2581convention": 2321,
  "\u2581families": 2322,
  "\u2581loyalty": 2323,
  "\u2581Ijipt": 2324,
  "\u2581building": 2325,
  "Mark": 2326,
  "kwaar": 2327,
  "\u2581pain": 2328,
  "\u2581throughout": 2329,
  "\u2581Clearly": 2330,
  "\u2581changes": 2331,
  "\u2581test": 2332,
  "\u2581Kw\u00f5n": 2333,
  "\u2581languages": 2334,
  "\u2581rejoice": 2335,
  "\u2581strive": 2336,
  "\u2581wine": 2337,
  "\u2581goal": 2338,
  "\u2581learning": 2339,
  "\u2581observe": 2340,
  "less": 2341,
  "\u2581alikkar": 2342,
  "\u2581angel": 2343,
  "\u2581drebij": 2344,
  "\u2581necessary": 2345,
  "\u2581t\u00f5rinae": 2346,
  "\u2581whatever": 2347,
  "\u2581worshippers": 2348,
  "\u2581\u00c3inw\u00f5t": 2349,
  "\u2581Further": 2350,
  "\u2581Later": 2351,
  "Ilo": 2352,
  "jen": 2353,
  "\u2581Reveles\u00f5n": 2354,
  "\u2581demonstrate": 2355,
  "\u2581jel\u00f5t": 2356,
  "\u2581named": 2357,
  "\u2581wonder": 2358,
  "\u2581Jema": 2359,
  "\u2581sort": 2360,
  "\u2581practice": 2361,
  "\u2581Perhaps": 2362,
  "\u2581contribute": 2363,
  "\u2581kejatrikrik": 2364,
  "\u2581local": 2365,
  "\u2581stop": 2366,
  "\u2581Brother": 2367,
  "\u2581approach": 2368,
  "\u2581contrast": 2369,
  "\u2581involves": 2370,
  "\u2581jut\u00f5k": 2371,
  "\u2581lol": 2372,
  "\u2581Mokta": 2373,
  "\u2581added": 2374,
  "\u2581attend": 2375,
  "\u2581condition": 2376,
  "Exodus": 2377,
  "\u2581Lo": 2378,
  "\u2581aur\u00f5k": 2379,
  "\u258127.": 2380,
  "\u2581eat": 2381,
  "\u2581edik": 2382,
  "\u2581reward": 2383,
  "\u2581weepp\u00e3n": 2384,
  "\u258135": 2385,
  "\u2581forgive": 2386,
  "\u2581fruit": 2387,
  "\u2581manifest": 2388,
  "\u2581natural": 2389,
  "\u258134,": 2390,
  "\u2581daughter": 2391,
  "\u2581standing": 2392,
  "\u258126.": 2393,
  "\u2581Nevertheless": 2394,
  "\u2581Through": 2395,
  "\u2581encouraged": 2396,
  "\u2581favor": 2397,
  "\u2581rek\u00e3l": 2398,
  "\u2581wia": 2399,
  "\u2581Kronikel": 2400,
  "\u2581jebta": 2401,
  "\u2581less": 2402,
  "\u2581Joel": 2403,
  "\u2581Pentecost": 2404,
  "\u2581deeply": 2405,
  "\u2581enough": 2406,
  "\u2581fall": 2407,
  "\u2581picture": 2408,
  "\u2581uwaan": 2409,
  "\u2581Body": 2410,
  "\u2581ebwer": 2411,
  "\u2581fire": 2412,
  "\u2581lack": 2413,
  "\u2581ten": 2414,
  "\u2581Holy": 2415,
  "\u2581\u00d1a": 2416,
  "\u258128)": 2417,
  "\u2581beleir": 2418,
  "\u2581ekabwil\u00f5\u00f1l\u00f5\u00f1": 2419,
  "\u258133.": 2420,
  "\u258141": 2421,
  "\u2581forgiveness": 2422,
  "\u2581publications": 2423,
  "\u2581p\u00e3lele": 2424,
  "\u2581la\u00f1l\u00f5\u00f1": 2425,
  "\u2581prophets": 2426,
  "\u2581treat": 2427,
  "\u2581Unin": 2428,
  "\u2581kajekdon": 2429,
  "\u2581remij": 2430,
  "\u2581truths": 2431,
  "\u2581t\u0169riam": 2432,
  "Job": 2433,
  "\u2581recognize": 2434,
  "\u258143": 2435,
  "\u2581birth": 2436,
  "\u2581b\u0169rueer": 2437,
  "\u2581jiip": 2438,
  "\u2581Another": 2439,
  "\u2581Ekajet": 2440,
  "\u2581Ran": 2441,
  "\u2581caused": 2442,
  "\u2581ejako": 2443,
  "\u2581kabel": 2444,
  "\u2581nej\u0169m": 2445,
  "\u2581opposition": 2446,
  "\u2581related": 2447,
  "Do": 2448,
  "anit": 2449,
  "\u258142": 2450,
  "\u2581B\u00f5k": 2451,
  "\u2581I\u00f5": 2452,
  "\u2581completely": 2453,
  "\u2581r\u0169karejar": 2454,
  "\u2581Others": 2455,
  "\u2581Tol": 2456,
  "\u2581k\u00f5ta": 2457,
  "\u2581meloklok": 2458,
  "\u2581turned": 2459,
  "\u2581Africa": 2460,
  "\u2581Jejjab": 2461,
  "\u2581Sarah": 2462,
  "\u2581fulfill": 2463,
  "\u2581held": 2464,
  "\u2581violence": 2465,
  "adm": 2466,
  "dikdik": 2467,
  "\u2581Before": 2468,
  "\u2581affection": 2469,
  "\u2581k\u00f5kajoor": 2470,
  "out": 2471,
  "ren": 2472,
  "\u2581English": 2473,
  "\u2581Im\u00f5niaro\u00f1ro\u00f1": 2474,
  "\u2581KATAK": 2475,
  "\u2581Messaia": 2476,
  "\u2581goals": 2477,
  "\u2581pojak": 2478,
  "Jen": 2479,
  "\u2581bainier": 2480,
  "\u2581ILO": 2481,
  "\u2581chosen": 2482,
  "\u2581ejmour": 2483,
  "\u2581etton": 2484,
  "\u2581kajimwe": 2485,
  "\u2581progress": 2486,
  "ik": 2487,
  "\u2581Rev": 2488,
  "\u2581Witness": 2489,
  "\u2581asking": 2490,
  "\u2581aware": 2491,
  "\u2581delight": 2492,
  "\u2581neighbor": 2493,
  "\u2581w": 2494,
  "\u2581jilkintok": 2495,
  "\u2581original": 2496,
  "\u2581studying": 2497,
  "\u2581uake": 2498,
  "\u2581W\u00e3ween": 2499,
  "\u2581destroyed": 2500,
  "\u2581el\u00f5\u00f1l": 2501,
  "\u2581filled": 2502,
  "\u2581interested": 2503,
  "\u2581jemeir": 2504,
  "\u2581overseers": 2505,
  "\u2581pure": 2506,
  "\u2581thousands": 2507,
  "\u2581States": 2508,
  "\u2581declared": 2509,
  "\u258125)": 2510,
  "\u2581Kwo": 2511,
  "\u2581Pharaoh": 2512,
  "\u2581accounts": 2513,
  "\u2581five": 2514,
  "\u2581inem\u00f5n": 2515,
  "\u2581jekl": 2516,
  "\u2581jepl": 2517,
  "\u2581mejenkajjik": 2518,
  "\u2581react": 2519,
  "\u2581sound": 2520,
  "akoko": 2521,
  "aro": 2522,
  "\u2581Mekarta": 2523,
  "\u2581image": 2524,
  "\u2581returned": 2525,
  "\u2581spoken": 2526,
  "\u2581zeal": 2527,
  "\u2581Cor": 2528,
  "\u2581bu\u00f1t": 2529,
  "\u2581confident": 2530,
  "\u2581einju\u00f5n": 2531,
  "\u2581kajerbali": 2532,
  "\u2581myself": 2533,
  "\u2581effective": 2534,
  "\u2581parent": 2535,
  "Let": 2536,
  "\u2581emen": 2537,
  "\u2581fail": 2538,
  "\u2581quickly": 2539,
  "\u2581success": 2540,
  "Jeova": 2541,
  "\u2581Mount": 2542,
  "\u2581United": 2543,
  "\u2581beginning": 2544,
  "\u2581conditions": 2545,
  "\u2581discuss": 2546,
  "\u2581Jonah": 2547,
  "\u2581association": 2548,
  "\u2581ledik": 2549,
  "\u2581m\u00f5\u00f1a": 2550,
  "\u2581seven": 2551,
  "\u2581Iv": 2552,
  "\u2581Meri": 2553,
  "\u2581door": 2554,
  "\u2581Kw\u00f5maro\u00f1": 2555,
  "\u2581meant": 2556,
  "\u2581offering": 2557,
  "\u2581Josep": 2558,
  "\u2581Ruth": 2559,
  "\u2581centuries": 2560,
  "\u2581itoitak": 2561,
  "\u2581kajirere": 2562,
  "\u2581kakajurlok": 2563,
  "\u2581ne": 2564,
  "\u2581Kim": 2565,
  "\u2581box": 2566,
  "\u2581closer": 2567,
  "\u2581tree": 2568,
  "\u2581eja\u00f1in": 2569,
  "\u2581fruitage": 2570,
  "\u2581pursue": 2571,
  "\u2581Zechariah": 2572,
  "\u2581eutiej": 2573,
  "\u2581forward": 2574,
  "\u2581getting": 2575,
  "\u2581p": 2576,
  "\u2581School": 2577,
  "\u2581books": 2578,
  "\u2581former": 2579,
  "\u2581prepare": 2580,
  "\u2581students": 2581,
  "\u258111;": 2582,
  "\u2581aitwer\u00f5k": 2583,
  "\u2581begin": 2584,
  "\u2581ein": 2585,
  "\u2581places": 2586,
  "\u2581situations": 2587,
  "\u2581enbwinin": 2588,
  "\u2581state": 2589,
  "ach": 2590,
  "\u2581144,000": 2591,
  "\u2581compassion": 2592,
  "\u2581lajrak": 2593,
  "\u2581rebin": 2594,
  "\u2581territory": 2595,
  "\u2581eventually": 2596,
  "\u2581followed": 2597,
  "\u2581looking": 2598,
  "\u2581requires": 2599,
  "antata": 2600,
  "\u2581100": 2601,
  "\u2581SONGS": 2602,
  "\u2581destroy": 2603,
  "\u2581ilal": 2604,
  "\u2581ilowaan": 2605,
  "\u2581m\u00f5ttair": 2606,
  "\u2581pere": 2607,
  "\u2581sometimes": 2608,
  "\u2581Family": 2609,
  "\u2581guard": 2610,
  "\u2581jin\u00f5": 2611,
  "\u2581reban": 2612,
  "\u2581b\u00f5ki": 2613,
  "\u2581kajit\u00f5kin": 2614,
  "\u2581pay": 2615,
  "\u2581pressure": 2616,
  "\u2581tiriamo": 2617,
  "\u2581Mel": 2618,
  "\u2581bukw\u00f5n": 2619,
  "\u2581bu\u00f1buruen": 2620,
  "\u2581i\u00f1jake": 2621,
  "\u2581jokane": 2622,
  "\u2581neen": 2623,
  "\u2581required": 2624,
  "\u2581surely": 2625,
  "\u2581watch": 2626,
  "kun": 2627,
  "\u2581elderly": 2628,
  "\u2581kam\u00f5n\u00f5n\u00f5ik": 2629,
  "\u2581commanded": 2630,
  "\u2581forget": 2631,
  "\u2581kwaloke": 2632,
  "\u2581met": 2633,
  "\u2581pukot": 2634,
  "\u2581response": 2635,
  "In": 2636,
  "\u2581Where": 2637,
  "\u2581acceptable": 2638,
  "\u2581challenges": 2639,
  "\u2581ejel": 2640,
  "\u2581kajutak": 2641,
  "\u2581Hezekiah": 2642,
  "\u2581Memorial": 2643,
  "\u2581included": 2644,
  "\u2581manner": 2645,
  "\u2581program": 2646,
  "\u2581specific": 2647,
  "\u2581teachers": 2648,
  "\u2581warned": 2649,
  "\u2581etali": 2650,
  "\u2581jabaw\u00f5t": 2651,
  "\u2581ken": 2652,
  "\u2581trying": 2653,
  "\u258135.": 2654,
  "\u2581Explain": 2655,
  "\u2581Make": 2656,
  "\u2581calls": 2657,
  "\u2581eaibujuij": 2658,
  "Jemes": 2659,
  "\u2581Jaab": 2660,
  "\u2581ejej": 2661,
  "\u2581failed": 2662,
  "\u2581ijjibed": 2663,
  "\u2581includes": 2664,
  "\u2581kalbuj": 2665,
  "\u2581rek\u00f5nan": 2666,
  "\u2581rittolok": 2667,
  "\u2581r\u0169tt\u00f5mak": 2668,
  "\u2581sharing": 2669,
  "We": 2670,
  "\u258148": 2671,
  "\u2581ebbeer": 2672,
  "\u2581education": 2673,
  "\u2581eoktak": 2674,
  "\u2581fight": 2675,
  "\u2581na": 2676,
  "\u2581wiaik": 2677,
  "ki": 2678,
  "\u258130.": 2679,
  "\u2581ebar": 2680,
  "\u2581ejim": 2681,
  "\u2581niknik": 2682,
  "\u2581undeserved": 2683,
  "\u2581b\u00f5klikit": 2684,
  "\u2581conclusion": 2685,
  "\u2581jeramel": 2686,
  "\u2581eddek": 2687,
  "\u2581loan": 2688,
  "\u2581note": 2689,
  "\u2581Ar": 2690,
  "\u2581area": 2691,
  "\u2581Malachi": 2692,
  "\u2581b\u00f5rokuk": 2693,
  "\u2581kajju": 2694,
  "\u2581prepared": 2695,
  "\u2581remind": 2696,
  "\u2581reveal": 2697,
  "aak": 2698,
  "responsibilities": 2699,
  "\u2581overcome": 2700,
  "\u2581side": 2701,
  "Eo": 2702,
  "He": 2703,
  "\u258129)": 2704,
  "\u2581Ecclesiastes": 2705,
  "\u2581moko": 2706,
  "\u2581prospect": 2707,
  "\u2581r\u0169kkapit": 2708,
  "\u258147": 2709,
  "\u2581commandments": 2710,
  "\u2581consequences": 2711,
  "\u2581kobaik": 2712,
  "\u2581negative": 2713,
  "\u2581prevent": 2714,
  "\u2581throne": 2715,
  "\u00f5jn": 2716,
  "\u2581jit\u00f5\u00f1": 2717,
  "\u2581lose": 2718,
  "\u2581nature": 2719,
  "\u2581ni\u00f1ni\u00f1": 2720,
  "\u2581U": 2721,
  "\u2581ankilaan": 2722,
  "\u2581dike": 2723,
  "\u2581household": 2724,
  "\u2581karmijeteik": 2725,
  "\u2581offspring": 2726,
  "\u2581Tel": 2727,
  "\u2581universe": 2728,
  "\u2581ett\u00f5r": 2729,
  "\u2581immorality": 2730,
  "\u2581ki\u00f1": 2731,
  "aaj": 2732,
  "\u2581Awake": 2733,
  "\u2581Hosea": 2734,
  "\u2581grateful": 2735,
  "\u2581preached": 2736,
  "\u2581student": 2737,
  "\u2581explain": 2738,
  "\u2581zealous": 2739,
  "\u2581accomplish": 2740,
  "\u2581enjoyed": 2741,
  "\u2581office": 2742,
  "\u2581security": 2743,
  "mpel": 2744,
  "\u2581Baal": 2745,
  "\u2581J\u00e3n": 2746,
  "\u2581feeling": 2747,
  "\u2581kak\u00f5rmol": 2748,
  "\u2581limaro": 2749,
  "\u2581lolokjen": 2750,
  "\u2581patience": 2751,
  "\u2581tongue": 2752,
  "kl": 2753,
  "weiuk": 2754,
  "\u2581b\u00f5tata": 2755,
  "\u2581ibbam": 2756,
  "\u2581jiljilimju\u00f5n": 2757,
  "\u2581job": 2758,
  "\u2581kakije": 2759,
  "\u2581mental": 2760,
  "\u2581verse": 2761,
  "es": 2762,
  "\u2581Grik": 2763,
  "\u2581Kwojarjar": 2764,
  "\u2581RiJu": 2765,
  "\u2581enter": 2766,
  "\u2581ikkure": 2767,
  "\u2581mwil": 2768,
  "\u2581practices": 2769,
  "\u2581saved": 2770,
  "\u2581valuable": 2771,
  "\u2581concerned": 2772,
  "\u2581encouraging": 2773,
  "\u2581jek\u00f5nan": 2774,
  "\u258149": 2775,
  "\u2581kauwe": 2776,
  "\u2581master": 2777,
  "\u2581sinful": 2778,
  "\u2581consideration": 2779,
  "\u2581insight": 2780,
  "\u2581political": 2781,
  "\u2581seems": 2782,
  "\u2581bless": 2783,
  "\u2581hour": 2784,
  "\u2581kijir\u00e3te": 2785,
  "\u2581months": 2786,
  "ever": 2787,
  "\u2581Etan": 2788,
  "\u2581Europe": 2789,
  "\u2581concerning": 2790,
  "\u2581iioone": 2791,
  "\u2581jema": 2792,
  "\u2581jorran": 2793,
  "\u2581kemelele": 2794,
  "\u2581prophecies": 2795,
  "\u2581Study": 2796,
  "\u2581race": 2797,
  "\u2581redik": 2798,
  "\u2581several": 2799,
  "ad": 2800,
  "\u2581Internet": 2801,
  "\u2581TO": 2802,
  "\u2581carefully": 2803,
  "\u2581extent": 2804,
  "\u2581imagine": 2805,
  "\u2581jerkakpeje": 2806,
  "\u2581j\u00e3ne": 2807,
  "\u2581m\u00f5ttad": 2808,
  "\u2581passed": 2809,
  "\u2581buru\u00f5m": 2810,
  "\u2581bu\u00f1bu\u00f1": 2811,
  "\u2581experiences": 2812,
  "\u2581jek\u00f5n": 2813,
  "\u2581jit\u00f5\u00f1l": 2814,
  "\u2581jolet": 2815,
  "\u2581kaibujuij": 2816,
  "\u2581rewan": 2817,
  "\u2581Questions": 2818,
  "\u2581approval": 2819,
  "\u2581opened": 2820,
  "\u2581Really": 2821,
  "\u2581assigned": 2822,
  "\u2581prophetic": 2823,
  "\u2581simple": 2824,
  "\u2581six": 2825,
  "\u2581Eden": 2826,
  "\u2581gospel": 2827,
  "\u2581kabu\u00f1b\u0169ruon": 2828,
  "\u2581makoko": 2829,
  "\u2581riches": 2830,
  "It": 2831,
  "\u2581articles": 2832,
  "\u2581eobrak": 2833,
  "\u2581friendship": 2834,
  "\u2581kajim": 2835,
  "\u2581suffered": 2836,
  "\u2581t\u00f5par": 2837,
  "\u258131,": 2838,
  "\u2581Enoch": 2839,
  "\u2581Ezra": 2840,
  "\u2581K\u00f5manman": 2841,
  "\u2581active": 2842,
  "\u2581deeds": 2843,
  "\u2581epen": 2844,
  "\u2581guide": 2845,
  "\u2581k\u00f5mar": 2846,
  "\u2581percent": 2847,
  "\u2581\u00f1\u00e3\u00e3t": 2848,
  "\u258127)": 2849,
  "\u2581assist": 2850,
  "\u2581invited": 2851,
  "\u2581ladik": 2852,
  "\u2581mejatoto": 2853,
  "\u2581member": 2854,
  "\u2581parts": 2855,
  "\u2581ranin": 2856,
  "org": 2857,
  "\u2581Deuteronomy": 2858,
  "\u2581Germany": 2859,
  "\u2581answered": 2860,
  "\u2581basic": 2861,
  "\u2581heartfelt": 2862,
  "\u2581jilkinl": 2863,
  "\u2581le": 2864,
  "\u2581purposes": 2865,
  "\u2581sea": 2866,
  "\u2581sincere": 2867,
  "Iar": 2868,
  "ness": 2869,
  "\u2581Elisha": 2870,
  "\u2581Iumin": 2871,
  "\u2581evident": 2872,
  "\u2581praying": 2873,
  "\u2581term": 2874,
  "\u2581aspects": 2875,
  "\u2581fill": 2876,
  "\u2581iju": 2877,
  "\u2581rew\u00e3nik": 2878,
  "ary": 2879,
  "\u2581Soon": 2880,
  "\u2581Teach": 2881,
  "\u2581jidrik": 2882,
  "\u2581jineir": 2883,
  "\u2581jinointata": 2884,
  "\u2581temptation": 2885,
  "This": 2886,
  "\u2581Armageddon": 2887,
  "\u2581Philippians": 2888,
  "\u2581branch": 2889,
  "\u2581convinced": 2890,
  "\u2581ejjabto": 2891,
  "\u2581established": 2892,
  "\u2581noted": 2893,
  "\u2581silver": 2894,
  "\u2581workers": 2895,
  "\u25811919": 2896,
  "\u2581Aaron": 2897,
  "\u2581Abram": 2898,
  "\u2581F": 2899,
  "\u2581ban": 2900,
  "\u2581least": 2901,
  "\u2581outside": 2902,
  "\u2581paragraph": 2903,
  "\u2581rekajur": 2904,
  "\u2581youth": 2905,
  "\u258131)": 2906,
  "\u2581Duteronomi": 2907,
  "\u2581Was": 2908,
  "\u2581all\u00f5\u00f1": 2909,
  "\u2581decided": 2910,
  "\u2581evening": 2911,
  "\u2581faithfully": 2912,
  "\u2581gifts": 2913,
  "\u2581jet\u00f5b": 2914,
  "\u2581save": 2915,
  "\u258130,": 2916,
  "\u2581attack": 2917,
  "\u2581beliefs": 2918,
  "\u2581eokwe": 2919,
  "\u2581principle": 2920,
  "\u2581resist": 2921,
  "Matthew": 2922,
  "\u2581jemlok\u00f5n": 2923,
  "\u2581kimro": 2924,
  "\u2581kw\u00f5jarjar": 2925,
  "\u2581realized": 2926,
  "\u2581spend": 2927,
  "b\u0169rom": 2928,
  "\u2581France": 2929,
  "\u2581Jeremaia": 2930,
  "\u2581appear": 2931,
  "\u2581beautiful": 2932,
  "\u2581kareel": 2933,
  "\u2581minds": 2934,
  "\u2581sight": 2935,
  "\u2581worked": 2936,
  "Ij": 2937,
  "more": 2938,
  "\u2581becomes": 2939,
  "\u2581jeban": 2940,
  "\u2581jebar": 2941,
  "\u2581loves": 2942,
  "],": 2943,
  "ej": 2944,
  "\u2581Colossians": 2945,
  "\u2581b\u00f5klok": 2946,
  "\u2581dealings": 2947,
  "\u2581et\u00e3": 2948,
  "\u2581lessons": 2949,
  "\u2581listening": 2950,
  "\u2581reppen": 2951,
  "\u2581uses": 2952,
  "\u2581youths": 2953,
  "\u2581K\u00f5r\u00e3": 2954,
  "\u2581Should": 2955,
  "\u2581break": 2956,
  "\u2581circuit": 2957,
  "\u2581lore": 2958,
  "\u2581secular": 2959,
  "\u2581seeing": 2960,
  "\u2581wait": 2961,
  "\u2581Recall": 2962,
  "\u2581bukot": 2963,
  "\u2581companions": 2964,
  "\u2581cope": 2965,
  "\u2581either": 2966,
  "\u2581eoro\u00f1": 2967,
  "\u2581feet": 2968,
  "\u2581general": 2969,
  "\u2581publishers": 2970,
  "Jesus": 2971,
  "\u2581Also": 2972,
  "\u2581caring": 2973,
  "\u2581kobal": 2974,
  "\u2581\"[": 2975,
  "\u2581(3)": 2976,
  "\u258132.": 2977,
  "\u2581karkar": 2978,
  "\u2581otemjelok": 2979,
  "\u2581reasonable": 2980,
  "\u2581reutiej": 2981,
  "\u258166": 2982,
  "\u2581High": 2983,
  "\u2581bearing": 2984,
  "\u2581ebake": 2985,
  "\u2581ground": 2986,
  "\u2581jurake": 2987,
  "\u2581m\u00e3lejjo\u00f1": 2988,
  "\u2581spent": 2989,
  "\u2581step": 2990,
  "ip": 2991,
  "\u00e3l": 2992,
  "\u2581Je": 2993,
  "\u2581assured": 2994,
  "\u2581discussed": 2995,
  "Duteronomi": 2996,
  "\u2581danger": 2997,
  "\u2581promote": 2998,
  "\u2581request": 2999,
  "\u2581teaches": 3000,
  "\u2581viewed": 3001,
  "When": 3002,
  "\u2581Kings": 3003,
  "\u2581bidodo": 3004,
  "\u2581etao": 3005,
  "\u2581kalimjek": 3006,
  "\u2581observed": 3007,
  "\u2581play": 3008,
  "Mosaic": 3009,
  "\u2581JEHOVAH": 3010,
  "\u2581Land": 3011,
  "\u2581babu": 3012,
  "\u2581battle": 3013,
  "\u2581delo\u00f1": 3014,
  "\u2581ekkeini": 3015,
  "\u2581ijjino": 3016,
  "\u2581k\u00f5niek": 3017,
  "\u2581sick": 3018,
  "\u258115]": 3019,
  "\u2581Think": 3020,
  "\u2581eaor\u00f5ktata": 3021,
  "\u2581k\u00f5mmanwa": 3022,
  "\u2581occur": 3023,
  "\u2581room": 3024,
  "ran": 3025,
  "\u2581alli\u00f1": 3026,
  "\u2581provisions": 3027,
  "Ela\u00f1e": 3028,
  "\u2581dek\u00e3": 3029,
  "\u2581illustrate": 3030,
  "\u2581karmijete": 3031,
  "\u2581limited": 3032,
  "\u2581mouth": 3033,
  "\u2581third": 3034,
  "\u2581turin": 3035,
  "\u258151": 3036,
  "\u2581Faith": 3037,
  "\u2581Only": 3038,
  "\u2581akwelap": 3039,
  "\u2581although": 3040,
  "\u2581uno": 3041,
  "\u2581church": 3042,
  "\u2581creatures": 3043,
  "\u2581eka": 3044,
  "\u2581event": 3045,
  "\u2581existence": 3046,
  "\u2581jijet": 3047,
  "\u2581prison": 3048,
  "\u2581Good": 3049,
  "\u2581Kwal": 3050,
  "\u2581Prov": 3051,
  "\u2581increase": 3052,
  "\u2581jekdon": 3053,
  "\u2581jit\u00f5b\u00f5n": 3054,
  "\u2581kajilu": 3055,
  "\u2581obrak": 3056,
  "\u2581opportunities": 3057,
  "Mat": 3058,
  "wawa": 3059,
  "\u2581Ask": 3060,
  "\u2581affected": 3061,
  "\u2581b\u00f5t\u00f5kt\u00f5kin": 3062,
  "\u2581karreoik": 3063,
  "\u2581mon": 3064,
  "\u2581referred": 3065,
  "\u2581train": 3066,
  "\u2581Canaan": 3067,
  "\u2581Imagine": 3068,
  "\u2581Nisan": 3069,
  "\u2581animals": 3070,
  "\u2581boy": 3071,
  "\u2581cut": 3072,
  "\u2581emotional": 3073,
  "\u2581kajjien": 3074,
  "\u2581Being": 3075,
  "\u2581Katakin": 3076,
  "\u2581beloved": 3077,
  "\u2581greatly": 3078,
  "\u2581irak": 3079,
  "\u2581jeer": 3080,
  "\u2581rejetak": 3081,
  "\u2581reritto": 3082,
  "\u2581unjen": 3083,
  "\u2581waloktok": 3084,
  "\u258126)": 3085,
  "\u2581Well": 3086,
  "\u2581claim": 3087,
  "\u2581rijjel\u00f5k": 3088,
  "\u2581uwe": 3089,
  "\u2581careful": 3090,
  "\u2581deliver": 3091,
  "\u2581ealikar": 3092,
  "\u2581killed": 3093,
  "\u2581outstanding": 3094,
  "\u2581particular": 3095,
  "\u2581pattern": 3096,
  "\u2581produce": 3097,
  "\u2581statement": 3098,
  "\u2581Give": 3099,
  "\u2581K\u00f5j": 3100,
  "\u2581k\u0169r": 3101,
  "\u2581lej": 3102,
  "\u2581subjects": 3103,
  "\u2581Answer": 3104,
  "\u2581Jordan": 3105,
  "\u2581Note": 3106,
  "\u2581Sodom": 3107,
  "\u2581address": 3108,
  "\u2581buki": 3109,
  "\u2581continues": 3110,
  "\u2581del": 3111,
  "\u2581evidently": 3112,
  "\u2581harvest": 3113,
  "\u2581helpful": 3114,
  "\u2581idea": 3115,
  "\u2581jekdo": 3116,
  "\u2581kabellok": 3117,
  "\u2581kaddek": 3118,
  "\u2581k\u00f5tm\u00e3ne": 3119,
  "\u2581points": 3120,
  "all": 3121,
  "ial": 3122,
  "\u2581areas": 3123,
  "\u2581assure": 3124,
  "\u2581distress": 3125,
  "\u2581marok": 3126,
  "\u2581ankilan": 3127,
  "\u2581built": 3128,
  "\u2581countries": 3129,
  "\u2581deliverance": 3130,
  "\u2581direct": 3131,
  "\u2581essential": 3132,
  "\u2581foreign": 3133,
  "\u2581jibwe": 3134,
  "\u2581pleasure": 3135,
  "\u2581responsible": 3136,
  "\u2581river": 3137,
  "\u2581text": 3138,
  "\u2581uwaake": 3139,
  "ak\u0169tk\u0169t": 3140,
  "j": 3141,
  "\u2581army": 3142,
  "\u2581leading": 3143,
  "\u2581slaves": 3144,
  "\u2581wat\u00f5ke": 3145,
  "].": 3146,
  "\u2581Ijo": 3147,
  "\u2581bwil": 3148,
  "\u2581m\u00f5jno": 3149,
  "\u2581reilok": 3150,
  "\u2581represent": 3151,
  "\u2581requirements": 3152,
  "emaro\u00f1": 3153,
  "\u2581heed": 3154,
  "\u2581instruction": 3155,
  "\u2581powers": 3156,
  "\u2581refers": 3157,
  "\u2581teacher": 3158,
  "\u2581worshipers": 3159,
  "us": 3160,
  "\u2581Kwojkwoj": 3161,
  "\u2581Mol": 3162,
  "\u2581Yuk": 3163,
  "\u2581ja\u00f1": 3164,
  "\u2581m\u00f5k\u00f5j": 3165,
  "K": 3166,
  "\u258118]": 3167,
  "\u25812011": 3168,
  "\u2581Heb": 3169,
  "\u2581boub": 3170,
  "\u2581doctor": 3171,
  "\u2581eternal": 3172,
  "\u2581joyful": 3173,
  "\u2581Aikwij": 3174,
  "\u2581Ephesus": 3175,
  "\u2581agree": 3176,
  "\u2581arrived": 3177,
  "\u2581identify": 3178,
  "\u2581kejbarok": 3179,
  "\u2581reality": 3180,
  "k\u00f5n": 3181,
  "\u2581bedw\u00f5t": 3182,
  "\u2581drawn": 3183,
  "\u2581d\u00e3n": 3184,
  "\u2581enemy": 3185,
  "\u2581half": 3186,
  "\u2581ilikin": 3187,
  "\u2581immoral": 3188,
  "\u2581literature": 3189,
  "\u2581oil": 3190,
  "\u2581pioneers": 3191,
  "\u2581remained": 3192,
  "\u2581society": 3193,
  "\u2581understood": 3194,
  "\u2581welcome": 3195,
  "aaer": 3196,
  "est": 3197,
  "im": 3198,
  "\u2581Israelite": 3199,
  "\u2581Jikin": 3200,
  "\u2581Kw": 3201,
  "\u2581goes": 3202,
  "\u2581goodness": 3203,
  "\u2581kwot": 3204,
  "\u2581likewise": 3205,
  "\u2581pass": 3206,
  "\u2581pride": 3207,
  "\u2581relief": 3208,
  "ba": 3209,
  "\u2581Bok": 3210,
  "\u2581Kii\u00f5": 3211,
  "\u2581carried": 3212,
  "\u2581due": 3213,
  "\u2581easily": 3214,
  "\u2581ekjap": 3215,
  "\u2581eye": 3216,
  "\u2581gods": 3217,
  "\u2581measure": 3218,
  "\u2581particularly": 3219,
  "\u2581sun": 3220,
  "jel": 3221,
  "\u2581Kw\u00f5jkw\u00f5j": 3222,
  "\u2581War": 3223,
  "\u2581connection": 3224,
  "\u2581expressions": 3225,
  "\u2581girl": 3226,
  "\u2581satisfaction": 3227,
  "\u2581w\u00f5jke": 3228,
  "abdew\u00f5t": 3229,
  "\u2581Ibwijleplep": 3230,
  "\u2581Jude": 3231,
  "\u2581anemkw\u00f5j": 3232,
  "\u2581closely": 3233,
  "\u2581endeavor": 3234,
  "\u2581lie": 3235,
  "\u2581r\u00f5n": 3236,
  "\u2581translated": 3237,
  "\u258110]": 3238,
  "\u2581Under": 3239,
  "\u2581Zephaniah": 3240,
  "\u2581energy": 3241,
  "\u2581jimjera": 3242,
  "\u2581mildness": 3243,
  "\u2581relatives": 3244,
  "\u2581responded": 3245,
  "\u2581unique": 3246,
  "\u2581AN": 3247,
  "\u2581attending": 3248,
  "\u2581morning": 3249,
  "\u2581r\u0169t\u00f5l": 3250,
  "Ro": 3251,
  "\u2581almo": 3252,
  "\u2581darkness": 3253,
  "\u2581drink": 3254,
  "\u2581eneo": 3255,
  "\u2581instead": 3256,
  "\u2581presented": 3257,
  "\u2581relative": 3258,
  "\u2581Haggai": 3259,
  "\u2581Young": 3260,
  "\u2581eaur\u00f5k": 3261,
  "\u2581iber": 3262,
  "\u2581jinoe": 3263,
  "\u2581kalikkar": 3264,
  "\u2581k\u00f5jerbali": 3265,
  "\u2581manlok": 3266,
  "\u2581succeed": 3267,
  "\u258133)": 3268,
  "\u2581About": 3269,
  "\u2581Ka": 3270,
  "\u2581discernment": 3271,
  "\u2581husbands": 3272,
  "\u2581refused": 3273,
  "antin": 3274,
  "ic": 3275,
  "\u2581Brooklyn": 3276,
  "\u2581Eindein": 3277,
  "\u2581Em\u00f5n": 3278,
  "\u2581hours": 3279,
  "\u2581kanemkwoj": 3280,
  "\u2581kow\u00f5nmanlok": 3281,
  "\u2581weak": 3282,
  "L": 3283,
  "\u00d1": 3284,
  "\u2581Judea": 3285,
  "\u2581Titus": 3286,
  "\u2581anxiety": 3287,
  "\u2581buru\u00f5": 3288,
  "\u2581conclude": 3289,
  "\u2581demons": 3290,
  "\u2581kwojjab": 3291,
  "\u2581peba": 3292,
  "\u2581studies": 3293,
  "\u2581ark": 3294,
  "\u2581glorious": 3295,
  "\u2581judge": 3296,
  "\u2581kapo": 3297,
  "\u258132,": 3298,
  "\u2581Ajiri": 3299,
  "\u2581ioir": 3300,
  "\u2581kajeo\u00f1we": 3301,
  "\u2581kalbuuj": 3302,
  "\u2581loss": 3303,
  "\u2581privileges": 3304,
  "\u2581Congregation": 3305,
  "\u2581Corinth": 3306,
  "\u2581Pit": 3307,
  "\u2581entertainment": 3308,
  "\u2581indicate": 3309,
  "\u2581l\u00f5ta": 3310,
  "\u2581month": 3311,
  "\u2581seemed": 3312,
  "\u2581strengthened": 3313,
  "\u2581successful": 3314,
  "\u2581t\u00f5ll": 3315,
  "ir": 3316,
  "\u2581Galatians": 3317,
  "\u2581Promised": 3318,
  "\u2581akwel": 3319,
  "\u2581aside": 3320,
  "\u2581meditate": 3321,
  "\u2581mountain": 3322,
  "\u2581rekwojarjar": 3323,
  "w": 3324,
  "\u2581applying": 3325,
  "\u2581aspect": 3326,
  "\u2581cases": 3327,
  "\u2581commission": 3328,
  "\u2581contrary": 3329,
  "\u2581jiljino": 3330,
  "\u2581maram": 3331,
  "\u2581\u00d1\u00e3\u00e3t": 3332,
  "\u2581B\u00f5tata": 3333,
  "\u2581Spirit": 3334,
  "\u2581communication": 3335,
  "\u2581jerbali": 3336,
  "\u2581kananaik": 3337,
  "\u2581kowado\u00f1": 3338,
  "\u2581raise": 3339,
  "\u2581BE": 3340,
  "\u2581comments": 3341,
  "\u2581invitation": 3342,
  "\u2581involve": 3343,
  "\u2581kemour": 3344,
  "\u2581travel": 3345,
  "\u2581verses": 3346,
  "\u2581Christianity": 3347,
  "\u2581Ijellokin": 3348,
  "\u2581appeared": 3349,
  "\u2581chose": 3350,
  "\u2581contains": 3351,
  "\u2581ekkal": 3352,
  "\u2581ew\u00e3ppen": 3353,
  "\u2581immediately": 3354,
  "\u2581Ekklisiastis": 3355,
  "\u2581begotten": 3356,
  "\u2581determination": 3357,
  "\u2581directed": 3358,
  "\u2581kakeememej": 3359,
  "\u2581lot": 3360,
  "\u2581mighty": 3361,
  "\u2581wiakake": 3362,
  "\u2581\u00e3ne": 3363,
  "Men": 3364,
  "\u2581reja\u00f1in": 3365,
  "\u2581riap": 3366,
  "\u2581tender": 3367,
  "\u2581troubled": 3368,
  "\u2581Flood": 3369,
  "\u2581Likewise": 3370,
  "\u2581Messianic": 3371,
  "\u2581kar\u00f5ke": 3372,
  "\u2581reriab": 3373,
  "\u2581spread": 3374,
  "\u2581views": 3375,
  "\u2581Over": 3376,
  "\u2581applied": 3377,
  "\u2581describes": 3378,
  "\u2581harm": 3379,
  "\u2581homes": 3380,
  "\u2581jolit": 3381,
  "\u2581kad\u00f5k": 3382,
  "jab": 3383,
  "\u2581Kajjojo": 3384,
  "\u2581Regard": 3385,
  "\u2581Sera": 3386,
  "\u2581Zion": 3387,
  "\u2581corrupt": 3388,
  "\u2581delivered": 3389,
  "\u2581lasting": 3390,
  "\u2581lay": 3391,
  "\u2581likiti": 3392,
  "\u2581mature": 3393,
  "\u2581m\u00f5nit": 3394,
  "\u2581reject": 3395,
  "\u2581rejected": 3396,
  "\u2581reveals": 3397,
  "\u2581social": 3398,
  "\u2581wickedness": 3399,
  "\u2581acted": 3400,
  "\u2581dealing": 3401,
  "\u2581etolok": 3402,
  "\u2581growth": 3403,
  "\u2581hearing": 3404,
  "\u2581inside": 3405,
  "\u2581issues": 3406,
  "\u2581jeor": 3407,
  "\u2581looked": 3408,
  "\u2581takt\u00f5": 3409,
  "\u2581worwor": 3410,
  "great": 3411,
  "\u258130)": 3412,
  "\u2581Hav": 3413,
  "\u2581Sovereign": 3414,
  "\u2581afraid": 3415,
  "\u2581correct": 3416,
  "\u2581jok\u00e3let": 3417,
  "\u2581search": 3418,
  "\u2581telling": 3419,
  "\u25812009": 3420,
  "\u258135)": 3421,
  "\u2581Kallimur": 3422,
  "\u2581Pet": 3423,
  "\u2581an\u00f5k": 3424,
  "\u2581foundation": 3425,
  "\u2581j\u00e3ter": 3426,
  "\u2581sees": 3427,
  "ould": 3428,
  "ually": 3429,
  "\u2581Betel": 3430,
  "\u2581awake": 3431,
  "\u2581discern": 3432,
  "\u2581eman": 3433,
  "\u2581epaak": 3434,
  "\u2581groups": 3435,
  "\u2581kalom\u00f5nlokjen": 3436,
  "\u2581kamadm\u00f5de": 3437,
  "\u2581kobban": 3438,
  "\u2581trained": 3439,
  "aam": 3440,
  "mong": 3441,
  "\u25812008": 3442,
  "\u2581freely": 3443,
  "\u2581rekabwil\u00f5\u00f1l\u00f5\u00f1": 3444,
  "\u2581warm": 3445,
  "IN": 3446,
  "What": 3447,
  "oori": 3448,
  "\u25812010": 3449,
  "\u2581Learn": 3450,
  "\u2581considering": 3451,
  "\u2581ekkatak": 3452,
  "Hibru": 3453,
  "otak": 3454,
  "ve": 3455,
  "\u2581Ilaija": 3456,
  "\u2581beneficial": 3457,
  "\u2581bwebwe": 3458,
  "\u2581decades": 3459,
  "\u2581receiving": 3460,
  "\u2581rek\u00e3\u00e3l": 3461,
  "\u2581t\u00f5br\u00f5k": 3462,
  "am": 3463,
  "\u00f5l": 3464,
  "\u2581conversation": 3465,
  "\u2581iioni": 3466,
  "\u2581kunan": 3467,
  "\u2581pris": 3468,
  "\u2581resolve": 3469,
  "\u2581survive": 3470,
  "\u2581trial": 3471,
  "\u2581bond": 3472,
  "\u2581engage": 3473,
  "\u2581pagan": 3474,
  "\u2581willingly": 3475,
  "Kw\u00f5n": 3476,
  "adik": 3477,
  "\u258155": 3478,
  "\u2581advantage": 3479,
  "\u2581chapters": 3480,
  "\u2581dettan": 3481,
  "\u2581improve": 3482,
  "\u2581inheritance": 3483,
  "\u2581kunad": 3484,
  "\u2581k\u00f5to": 3485,
  "\u2581motivate": 3486,
  "\u2581rejim": 3487,
  "\u2581send": 3488,
  "Inem": 3489,
  "oktal": 3490,
  "\u2581Sabbath": 3491,
  "\u2581ar\u00f5k": 3492,
  "\u2581bajjek": 3493,
  "\u2581gratitude": 3494,
  "\u2581j": 3495,
  "\u2581lies": 3496,
  "\u2581mej\u00e3n": 3497,
  "\u2581render": 3498,
  "\u2581ruler": 3499,
  "Ekklisiastis": 3500,
  "\u2581comforting": 3501,
  "\u2581fearing": 3502,
  "\u00f5\u00f1": 3503,
  "\u2581Asia": 3504,
  "\u2581berw\u00f5t": 3505,
  "\u2581copy": 3506,
  "\u2581finally": 3507,
  "\u2581kamao": 3508,
  "\u2581rupe": 3509,
  "\u2581theocratic": 3510,
  "M": 3511,
  "\u2581buruer": 3512,
  "\u2581drinking": 3513,
  "\u2581kajemlok": 3514,
  "\u2581kajjen": 3515,
  "\u2581lotok": 3516,
  "\u2581milien": 3517,
  "\u2581occurred": 3518,
  "\u2581patient": 3519,
  "\u2581secret": 3520,
  "\u2581wish": 3521,
  "\u2581Credit": 3522,
  "\u2581d\u00e3pij": 3523,
  "\u2581entered": 3524,
  "\u2581jitenburu": 3525,
  "\u2581join": 3526,
  "\u2581kallib": 3527,
  "\u2581k\u00f5": 3528,
  "\u2581recent": 3529,
  "\u2581united": 3530,
  "\u2581witnessing": 3531,
  "\u2581worth": 3532,
  "\u2581Air": 3533,
  "\u2581Help": 3534,
  "\u2581Moab": 3535,
  "\u2581abuse": 3536,
  "\u2581accomplished": 3537,
  "\u2581declare": 3538,
  "\u2581ittino": 3539,
  "\u2581wilderness": 3540,
  "Reveles\u00f5n": 3541,
  "\u258117]": 3542,
  "\u258190": 3543,
  "\u2581amount": 3544,
  "\u2581committed": 3545,
  "\u2581hurt": 3546,
  "\u2581ib\u00f5m": 3547,
  "\u2581instructions": 3548,
  "\u2581late": 3549,
  "\u2581meal": 3550,
  "\u2581provision": 3551,
  "\u2581setting": 3552,
  "\u2581speaks": 3553,
  "\u2581wain": 3554,
  "Keep": 3555,
  "c": 3556,
  "\u25817]": 3557,
  "\u2581Pennsylvania": 3558,
  "\u2581Pharisees": 3559,
  "\u2581Take": 3560,
  "\u2581corruption": 3561,
  "\u2581eto": 3562,
  "\u2581faithfulness": 3563,
  "\u2581generation": 3564,
  "\u2581k\u00f5mro": 3565,
  "\u2581spirituality": 3566,
  "\u2581widow": 3567,
  "\u2581younger": 3568,
  "\u2581BIBLE": 3569,
  "\u2581Josiah": 3570,
  "\u2581indicated": 3571,
  "\u2581inhabitants": 3572,
  "\u2581p\u00e3leer": 3573,
  "\u2581refuge": 3574,
  "epil": 3575,
  "\u2581constantly": 3576,
  "\u2581kareelel": 3577,
  "\u2581refer": 3578,
  "\u2581rulership": 3579,
  "\u2581sinners": 3580,
  "\u2581sword": 3581,
  "\u2581Ebar": 3582,
  "\u2581Surely": 3583,
  "\u2581arise": 3584,
  "\u2581cities": 3585,
  "\u2581ebaktok": 3586,
  "\u2581escape": 3587,
  "\u2581mistakes": 3588,
  "\u2581readi": 3589,
  "\u2581remains": 3590,
  "Daniel": 3591,
  "\u2581Russell": 3592,
  "\u2581Sad": 3593,
  "\u2581associated": 3594,
  "\u2581grasp": 3595,
  "\u2581lokatok": 3596,
  "\u2581repentant": 3597,
  "\u2581separate": 3598,
  "\u2581\u00c3indein": 3599,
  "All": 3600,
  "quite": 3601,
  "\u258134.": 3602,
  "\u2581Baj": 3603,
  "\u2581Maro\u00f1": 3604,
  "\u2581Priest": 3605,
  "\u2581bellok": 3606,
  "\u2581busy": 3607,
  "\u2581factors": 3608,
  "\u2581fleshly": 3609,
  "\u2581indicates": 3610,
  "\u2581indrio": 3611,
  "My": 3612,
  "\u2581Jekdon": 3613,
  "\u2581Nihimaia": 3614,
  "\u2581Samaria": 3615,
  "\u2581differ": 3616,
  "\u2581emeletlet": 3617,
  "\u2581iminene": 3618,
  "\u2581wealth": 3619,
  "\u258135:": 3620,
  "\u2581Keea\u00f1": 3621,
  "\u2581armies": 3622,
  "\u2581cares": 3623,
  "\u2581difference": 3624,
  "\u2581legal": 3625,
  "\u2581notice": 3626,
  "\u2581performed": 3627,
  "\u2581persons": 3628,
  "\u2581providing": 3629,
  "\u2581remaining": 3630,
  "\u2581ripp\u00e3lele": 3631,
  "\u2581struggle": 3632,
  "\u2581type": 3633,
  "re": 3634,
  "\u2581Nations": 3635,
  "\u2581OF": 3636,
  "\u2581gathered": 3637,
  "\u2581ijjab": 3638,
  "\u2581kak\u00f5lle": 3639,
  "\u2581lel\u00f1o\u00f1": 3640,
  "\u2581major": 3641,
  "\u2581miles": 3642,
  "\u2581road": 3643,
  "\u2581scriptures": 3644,
  "\u2581Pharisee": 3645,
  "\u2581ajel": 3646,
  "\u2581demonstrated": 3647,
  "\u2581eddeklok": 3648,
  "\u2581garden": 3649,
  "\u2581grew": 3650,
  "\u2581jene": 3651,
  "\u2581kindly": 3652,
  "\u2581relates": 3653,
  "\u2581worthy": 3654,
  "eik": 3655,
  "\u258139.": 3656,
  "\u2581Gideon": 3657,
  "\u2581Whe": 3658,
  "\u2581adds": 3659,
  "\u2581bwijin": 3660,
  "\u2581courageous": 3661,
  "\u2581describe": 3662,
  "\u2581discussion": 3663,
  "\u2581fell": 3664,
  "\u2581front": 3665,
  "\u2581iad": 3666,
  "\u2581kauw\u00f5tata": 3667,
  "\u2581miracles": 3668,
  "\u2581muri": 3669,
  "\u2581m\u00f5m": 3670,
  "\u2581nee": 3671,
  "\u2581neighbors": 3672,
  "\u2581religions": 3673,
  "\u2581serpent": 3674,
  "\u2581superior": 3675,
  "\u2581waiting": 3676,
  "\u2581aid": 3677,
  "\u2581amro": 3678,
  "\u2581details": 3679,
  "\u2581eliji": 3680,
  "\u2581ettol": 3681,
  "\u2581extend": 3682,
  "\u2581kak\u00f5m\u00f5nm\u00f5nlok": 3683,
  "\u2581kalijeklok": 3684,
  "\u2581litok": 3685,
  "\u2581mej\u00e3nkajjik": 3686,
  "\u2581values": 3687,
  "ekdo": 3688,
  "\u258153": 3689,
  "\u2581Jehu": 3690,
  "\u2581Kumi": 3691,
  "\u2581assurance": 3692,
  "\u2581de": 3693,
  "\u2581god": 3694,
  "\u2581jook": 3695,
  "\u2581kadiklok": 3696,
  "\u2581kaor\u00f5ke": 3697,
  "\u2581kapit": 3698,
  "\u2581music": 3699,
  "\u2581perform": 3700,
  "\u2581poub": 3701,
  "\u2581selfish": 3702,
  "\u2581H": 3703,
  "\u2581Sea": 3704,
  "\u2581count": 3705,
  "\u2581developed": 3706,
  "\u2581iione": 3707,
  "\u2581primary": 3708,
  "\u2581rebellion": 3709,
  "\u2581rukw": 3710,
  "\u2581witnesses": 3711,
  "\u2581Kajur": 3712,
  "\u2581Ruo": 3713,
  "\u2581abundant": 3714,
  "\u2581animal": 3715,
  "\u2581calling": 3716,
  "\u2581descendants": 3717,
  "\u2581expected": 3718,
  "\u2581focused": 3719,
  "\u2581forces": 3720,
  "\u2581idak": 3721,
  "\u2581remnant": 3722,
  "\u2581science": 3723,
  "\u2581aiboojoj": 3724,
  "\u2581believed": 3725,
  "\u2581buruemi": 3726,
  "\u2581daughters": 3727,
  "\u2581eating": 3728,
  "\u2581honest": 3729,
  "\u2581kae\u00f1tan": 3730,
  "\u2581remarkable": 3731,
  "\u2581repentance": 3732,
  "\u2581shepherds": 3733,
  "\u2581treasure": 3734,
  "\u2581writer": 3735,
  "\u2581writing": 3736,
  "able": 3737,
  "\u2581Absalom": 3738,
  "\u2581Lazarus": 3739,
  "\u2581Lomor": 3740,
  "\u2581airro": 3741,
  "\u2581illustrations": 3742,
  "\u2581kejeramm\u00f5n": 3743,
  "\u2581listed": 3744,
  "\u2581peaceful": 3745,
  "\u2581pleased": 3746,
  "\u2581reasoning": 3747,
  "\u2581seriously": 3748,
  "\u2581tu": 3749,
  "For": 3750,
  "\u2581Thessalonians": 3751,
  "\u2581berre": 3752,
  "\u2581bu\u00f1b\u0169ruon": 3753,
  "\u2581drelo\u00f1": 3754,
  "\u2581ialin": 3755,
  "\u2581imaro\u00f1": 3756,
  "\u2581indefinite": 3757,
  "\u2581kaburom\u00f5j": 3758,
  "\u2581reminders": 3759,
  "\u2581reports": 3760,
  "Ke": 3761,
  "\u258133,": 3762,
  "\u2581Judas": 3763,
  "\u2581cover": 3764,
  "\u2581midst": 3765,
  "\u2581riab": 3766,
  "\u2581tata": 3767,
  "\u2581upright": 3768,
  "El": 3769,
  "There": 3770,
  "ien": 3771,
  "\u00e3n": 3772,
  "\u2581challenging": 3773,
  "\u2581dangerous": 3774,
  "\u2581granted": 3775,
  "\u2581jimj\u00e3": 3776,
  "\u2581likjab": 3777,
  "\u2581quoted": 3778,
  "\u2581reached": 3779,
  "\u2581sex": 3780,
  "arin": 3781,
  "menin": 3782,
  "\u2581Finally": 3783,
  "\u2581G": 3784,
  "\u2581Her": 3785,
  "\u2581Parents": 3786,
  "\u2581Unit": 3787,
  "\u2581adultery": 3788,
  "\u2581altar": 3789,
  "\u2581assistance": 3790,
  "\u2581brochure": 3791,
  "\u2581contact": 3792,
  "\u2581ew\u00e3nik": 3793,
  "\u2581k": 3794,
  "\u2581translation": 3795,
  "ujin": 3796,
  "\u258135,": 3797,
  "\u25815]": 3798,
  "\u2581Children": 3799,
  "\u2581Chronicles": 3800,
  "\u2581Gilead": 3801,
  "\u2581figurative": 3802,
  "\u2581forgiving": 3803,
  "\u2581global": 3804,
  "\u2581inaaj": 3805,
  "\u2581organized": 3806,
  "\u2581recognized": 3807,
  "Epes\u00f5s": 3808,
  "\u2581Gentile": 3809,
  "\u2581Iien": 3810,
  "\u2581Jem\u00e3n": 3811,
  "\u2581attended": 3812,
  "\u2581concerns": 3813,
  "\u2581decide": 3814,
  "\u2581ibemi": 3815,
  "\u2581kajuon": 3816,
  "\u2581kwaloki": 3817,
  "\u2581USED": 3818,
  "\u2581authorities": 3819,
  "\u2581critical": 3820,
  "\u2581hell": 3821,
  "\u2581illness": 3822,
  "\u2581names": 3823,
  "\u2581rel\u00f5\u00f1": 3824,
  "\u2581rendered": 3825,
  "\u2581ukote": 3826,
  "\u2581uk\u00f5te": 3827,
  "Ep": 3828,
  "addik": 3829,
  "ear": 3830,
  "\u2581Galilee": 3831,
  "\u2581Version": 3832,
  "\u2581advance": 3833,
  "\u2581belief": 3834,
  "\u2581billion": 3835,
  "\u2581exercis": 3836,
  "\u2581exist": 3837,
  "\u2581facts": 3838,
  "\u2581mone": 3839,
  "\u2581newspaper": 3840,
  "\u2581normal": 3841,
  "\u2581persecuted": 3842,
  "\u2581strengthening": 3843,
  "\u2581tears": 3844,
  "\u2581visited": 3845,
  "UBS": 3846,
  "one": 3847,
  "ww": 3848,
  "\u258165": 3849,
  "\u2581Ahab": 3850,
  "\u2581Keememej": 3851,
  "\u2581Line": 3852,
  "\u2581River": 3853,
  "\u2581South": 3854,
  "\u2581admonition": 3855,
  "\u2581handle": 3856,
  "\u2581ideas": 3857,
  "\u2581kadede": 3858,
  "\u2581opposers": 3859,
  "\u2581remej": 3860,
  "\u2581reminded": 3861,
  "\u2581slow": 3862,
  "\u2581yes": 3863,
  "\u25811914.": 3864,
  "\u2581April": 3865,
  "\u2581Juda": 3866,
  "\u2581Naomi": 3867,
  "\u2581belong": 3868,
  "\u2581eager": 3869,
  "\u2581gone": 3870,
  "\u2581governments": 3871,
  "\u2581jokk": 3872,
  "\u2581juburu": 3873,
  "\u2581mak\u00f5tkit": 3874,
  "\u2581souls": 3875,
  "\u2581treated": 3876,
  "\u2581violent": 3877,
  "ought": 3878,
  "\u25814;": 3879,
  "\u2581Ejja": 3880,
  "\u2581Elder": 3881,
  "\u2581Lemnok": 3882,
  "\u2581eb\u00f5d": 3883,
  "\u2581ijellokin": 3884,
  "\u2581kakapil\u00f5kl\u00f5k": 3885,
  "\u2581kal\u00f5k": 3886,
  "\u2581merciful": 3887,
  "\u2581reference": 3888,
  "\u2581ri\u00f5p": 3889,
  "\u2581stick": 3890,
  "\u2581successfully": 3891,
  "\u2581thank": 3892,
  "\u2581Amedka": 3893,
  "\u2581Jonathan": 3894,
  "\u2581Once": 3895,
  "\u2581alcohol": 3896,
  "\u2581conventions": 3897,
  "\u2581cry": 3898,
  "\u2581discouraged": 3899,
  "\u2581invisible": 3900,
  "\u2581kitieir": 3901,
  "\u2581listened": 3902,
  "\u2581menninmour": 3903,
  "\u2581occasions": 3904,
  "\u2581reoktak": 3905,
  "\u2581sinned": 3906,
  "\u2581tribe": 3907,
  "Ezekiel": 3908,
  "Ri": 3909,
  "aetan": 3910,
  "ake": 3911,
  "rrin": 3912,
  "\u258134)": 3913,
  "\u258144.": 3914,
  "\u2581Kanan": 3915,
  "\u2581Ken": 3916,
  "\u2581await": 3917,
  "\u2581behavior": 3918,
  "\u2581conviction": 3919,
  "\u2581determine": 3920,
  "\u2581injustice": 3921,
  "\u2581jabwe": 3922,
  "\u2581lewoj": 3923,
  "\u2581main": 3924,
  "\u2581psalm": 3925,
  "\u2581significant": 3926,
  "2:": 3927,
  "Kin": 3928,
  "\u2581143": 3929,
  "\u2581Alikkar": 3930,
  "\u2581Jekdo": 3931,
  "\u2581Second": 3932,
  "\u2581balanced": 3933,
  "\u2581bwijr\u00f5k": 3934,
  "\u2581ibba": 3935,
  "\u2581karek": 3936,
  "\u2581k\u00f5manm\u00f5n": 3937,
  "\u2581moving": 3938,
  "\u2581pursuing": 3939,
  "Rev": 3940,
  "as": 3941,
  "he": 3942,
  "\u2581II": 3943,
  "\u2581Ir": 3944,
  "\u2581Jezebel": 3945,
  "\u2581alal": 3946,
  "\u2581ammim": 3947,
  "\u2581dear": 3948,
  "\u2581humbly": 3949,
  "\u2581kappok": 3950,
  "\u2581kibbon": 3951,
  "\u2581nukin": 3952,
  "\u2581reimanlok": 3953,
  "\u2581talking": 3954,
  "\u2581viewpoint": 3955,
  "Jeremiah": 3956,
  "\u258132)": 3957,
  "\u2581Lamb": 3958,
  "\u2581Man": 3959,
  "\u2581WHAT": 3960,
  "\u2581b\u0169rij": 3961,
  "\u2581chief": 3962,
  "\u2581easier": 3963,
  "\u2581kabin": 3964,
  "\u2581kalijekl": 3965,
  "\u2581l\u00e3j": 3966,
  "\u2581marvelous": 3967,
  "\u2581ministers": 3968,
  "\u2581qualified": 3969,
  "\u2581reported": 3970,
  "\u2581rulers": 3971,
  "\u2581town": 3972,
  "\u2581ukel": 3973,
  "\u2581vast": 3974,
  "Psalm": 3975,
  "\u258110;": 3976,
  "\u2581607": 3977,
  "\u2581Hannah": 3978,
  "\u2581N": 3979,
  "\u2581dwelling": 3980,
  "\u2581exert": 3981,
  "\u2581ijello": 3982,
  "\u2581jejelok": 3983,
  "\u2581jem\u00e3er": 3984,
  "\u2581kajejit": 3985,
  "\u2581placed": 3986,
  "\u2581preced": 3987,
  "\u2581satisfying": 3988,
  "\u2581waters": 3989,
  "\u2581wheat": 3990,
  "\u2581wiik": 3991,
  "Jerb": 3992,
  "\u2581Jemed": 3993,
  "\u2581Never": 3994,
  "\u2581belongs": 3995,
  "\u2581carrying": 3996,
  "\u2581causes": 3997,
  "\u2581commit": 3998,
  "\u2581ebwid": 3999,
  "\u2581endured": 4000,
  "\u2581jebw\u00e3bwe": 4001,
  "\u2581leads": 4002,
  "\u2581path": 4003,
  "\u2581run": 4004,
  "and": 4005,
  "\u00a9": 4006,
  "\u258116]": 4007,
  "\u2581Aisak": 4008,
  "\u2581BOK": 4009,
  "\u2581Both": 4010,
  "\u2581Day": 4011,
  "\u2581Elaplok": 4012,
  "\u2581IM": 4013,
  "\u2581Naj": 4014,
  "\u2581background": 4015,
  "\u2581growing": 4016,
  "\u2581jejit": 4017,
  "\u2581shared": 4018,
  "day": 4019,
  "uri": 4020,
  "\u258161": 4021,
  "\u2581Has": 4022,
  "\u2581Japan": 4023,
  "\u2581K\u00f5m\u00f5nm\u00f5n": 4024,
  "\u2581ekajoor": 4025,
  "\u2581footnote": 4026,
  "\u2581hatred": 4027,
  "\u2581inhabited": 4028,
  "\u2581kamak\u00f5t": 4029,
  "\u2581kill": 4030,
  "\u2581moktalok": 4031,
  "\u2581process": 4032,
  "\u2581rely": 4033,
  "\u2581ungodly": 4034,
  "As": 4035,
  "aolepen": 4036,
  "\u258138.": 4037,
  "\u2581Mexico": 4038,
  "\u2581enen": 4039,
  "\u2581gathering": 4040,
  "\u2581impressed": 4041,
  "\u2581mild": 4042,
  "\u2581publication": 4043,
  "\u2581review": 4044,
  "at": 4045,
  "\u2581Ibben": 4046,
  "\u2581YOU": 4047,
  "\u2581abilities": 4048,
  "\u2581abundance": 4049,
  "\u2581date": 4050,
  "\u2581ebwe": 4051,
  "\u2581kidu": 4052,
  "\u2581lovingly": 4053,
  "\u2581outcome": 4054,
  "\u2581pointed": 4055,
  "\u2581r\u0169tt": 4056,
  "ela": 4057,
  "\u2581Kejb\u00e3rok": 4058,
  "\u2581Passover": 4059,
  "\u2581acknowledge": 4060,
  "\u2581displayed": 4061,
  "\u2581effects": 4062,
  "\u2581environment": 4063,
  "\u2581kalikare": 4064,
  "\u2581restored": 4065,
  "\u2581sang": 4066,
  "\u2581trouble": 4067,
  "\u00d1a": 4068,
  "\u258152": 4069,
  "\u2581Work": 4070,
  "\u2581disease": 4071,
  "\u2581forms": 4072,
  "\u2581lolorjake": 4073,
  "\u2581reflected": 4074,
  "\u2581refuse": 4075,
  "\u2581require": 4076,
  "\u2581rightly": 4077,
  "ne": 4078,
  "otl": 4079,
  "\u2581Elaptata": 4080,
  "\u2581Enna": 4081,
  "\u2581Isa": 4082,
  "\u2581appeal": 4083,
  "\u2581camp": 4084,
  "\u2581compared": 4085,
  "\u2581emak\u00f5t": 4086,
  "\u2581fornication": 4087,
  "\u2581influenced": 4088,
  "\u2581listeners": 4089,
  "\u2581mejeir": 4090,
  "\u2581touched": 4091,
  "\u2581wide": 4092,
  "\u2581Cain": 4093,
  "\u2581Rejjab": 4094,
  "\u2581appearance": 4095,
  "\u2581attendance": 4096,
  "\u2581b\u0169ki": 4097,
  "\u2581compare": 4098,
  "\u2581ebu\u00f1bu\u00f1": 4099,
  "\u2581iukkure": 4100,
  "\u2581kaloran": 4101,
  "\u2581meaningful": 4102,
  "\u2581model": 4103,
  "\u2581probably": 4104,
  "\u2581produced": 4105,
  "ion": 4106,
  "keep": 4107,
  "\u2581Almighty": 4108,
  "\u2581Him": 4109,
  "\u2581Look": 4110,
  "\u2581Trac": 4111,
  "\u2581appears": 4112,
  "\u2581sake": 4113,
  "NW": 4114,
  "\u258146": 4115,
  "\u2581Box": 4116,
  "\u2581Canada": 4117,
  "\u2581L\u00f5l": 4118,
  "\u2581Stephen": 4119,
  "\u2581Tract": 4120,
  "\u2581apart": 4121,
  "\u2581ekkejel": 4122,
  "\u2581exactly": 4123,
  "\u2581exists": 4124,
  "\u2581feels": 4125,
  "\u2581financial": 4126,
  "\u2581formed": 4127,
  "\u2581letters": 4128,
  "\u2581missionaries": 4129,
  "\u2581walked": 4130,
  "\u25819]": 4131,
  "\u2581Other": 4132,
  "\u2581abandon": 4133,
  "\u2581ali\u00f1": 4134,
  "\u2581hospitality": 4135,
  "\u2581inner": 4136,
  "\u2581jededlok": 4137,
  "\u2581jeklaj": 4138,
  "\u2581jonik\u00f5n": 4139,
  "\u2581kajenolok": 4140,
  "\u2581km": 4141,
  "\u2581kone": 4142,
  "\u2581k\u00f5metak": 4143,
  "\u2581lam\u00f5j": 4144,
  "\u2581l\u00f5\u00f1lok": 4145,
  "\u2581marmir": 4146,
  "\u2581none": 4147,
  "\u2581sickness": 4148,
  "weiie": 4149,
  "\u258112;": 4150,
  "\u2581Korah": 4151,
  "\u2581contain": 4152,
  "\u2581extreme": 4153,
  "\u2581heavy": 4154,
  "\u2581j\u00e3tin": 4155,
  "\u2581pressures": 4156,
  "\u2581proof": 4157,
  "\u2581sought": 4158,
  "iten": 4159,
  "jjil\u00f5k": 4160,
  "\u258137,": 4161,
  "\u2581company": 4162,
  "\u2581designed": 4163,
  "\u2581jab\u00f5n": 4164,
  "\u2581limitations": 4165,
  "\u2581mountains": 4166,
  "\u2581reaction": 4167,
  "\u2581remo": 4168,
  "\u2581stake": 4169,
  "\u2581unable": 4170,
  "\u2581worse": 4171,
  "b\u00f5l": 4172,
  "\u25812,000": 4173,
  "\u258180": 4174,
  "\u2581RO": 4175,
  "\u2581Time": 4176,
  "\u2581assembly": 4177,
  "\u2581k\u00f5t\u00f5brak": 4178,
  "\u2581moves": 4179,
  "\u2581ruling": 4180,
  "\u2581tempel": 4181,
  "\u2581union": 4182,
  "\u2581Here": 4183,
  "\u2581March": 4184,
  "\u2581bodies": 4185,
  "\u2581dwell": 4186,
  "\u2581ekjab": 4187,
  "\u2581fast": 4188,
  "\u2581impossible": 4189,
  "\u2581marry": 4190,
  "\u2581proud": 4191,
  "\u2581rise": 4192,
  "\u2581secure": 4193,
  "\u2581severe": 4194,
  "\u2581unclean": 4195,
  "\u258136.": 4196,
  "\u2581Al": 4197,
  "\u2581Show": 4198,
  "\u2581ainiken": 4199,
  "\u2581guided": 4200,
  "\u2581habits": 4201,
  "\u2581inclined": 4202,
  "\u2581lowly": 4203,
  "\u2581patiently": 4204,
  "\u2581recreation": 4205,
  "\u2581rekkar": 4206,
  "\u2581retton": 4207,
  "\u2581rolul": 4208,
  "\u2581ruin": 4209,
  "\u2581rules": 4210,
  "\u2581wrath": 4211,
  "\u00f5d": 4212,
  "\u258113]": 4213,
  "\u2581Babil": 4214,
  "\u2581KE": 4215,
  "\u2581K\u00f5manm\u00f5n": 4216,
  "\u2581Leviticus": 4217,
  "\u2581Name": 4218,
  "\u2581anxious": 4219,
  "\u2581beast": 4220,
  "\u2581b\u00f5kmantak": 4221,
  "\u2581firmly": 4222,
  "\u2581motivated": 4223,
  "\u2581treatment": 4224,
  "\u2581unrighteous": 4225,
  "\u258114;": 4226,
  "\u2581allows": 4227,
  "\u2581choices": 4228,
  "\u2581grown": 4229,
  "\u2581increased": 4230,
  "\u2581jepel": 4231,
  "\u2581kamole": 4232,
  "\u2581ladrik": 4233,
  "\u2581lying": 4234,
  "\u2581stress": 4235,
  "t\u00e3ik": 4236,
  "\u2581Britain": 4237,
  "\u2581Ealikkar": 4238,
  "\u2581Illustrate": 4239,
  "\u2581appreciated": 4240,
  "\u2581dignity": 4241,
  "\u2581k\u00e3lete": 4242,
  "\u2581properly": 4243,
  "\u2581remeletlet": 4244,
  "\u2581tribes": 4245,
  "\u2581weeks": 4246,
  "\u2581writes": 4247,
  "Ais": 4248,
  "other": 4249,
  "\u2581Its": 4250,
  "\u2581Jejel": 4251,
  "\u2581asks": 4252,
  "\u2581jeim": 4253,
  "\u2581jerkak": 4254,
  "\u2581kabukot": 4255,
  "\u2581korijeran": 4256,
  "\u2581mwilin": 4257,
  "\u2581otem": 4258,
  "\u2581physically": 4259,
  "\u2581recall": 4260,
  "\u2581terms": 4261,
  "\u2581wars": 4262,
  "\u2581writings": 4263,
  "is": 4264,
  "\u25813;": 4265,
  "\u2581Gog": 4266,
  "\u2581Jo\u00f1ok": 4267,
  "\u2581acting": 4268,
  "\u2581balance": 4269,
  "\u2581blind": 4270,
  "\u2581conflict": 4271,
  "\u2581difficulties": 4272,
  "\u2581drawing": 4273,
  "\u2581eight": 4274,
  "\u2581glorify": 4275,
  "\u2581happens": 4276,
  "\u2581joined": 4277,
  "\u2581leaving": 4278,
  "\u2581offers": 4279,
  "\u2581shed": 4280,
  "\u2581tests": 4281,
  "Look": 4282,
  "\u2581Otemjej": 4283,
  "\u2581alert": 4284,
  "\u2581benefited": 4285,
  "\u2581brotherhood": 4286,
  "\u2581dress": 4287,
  "\u2581hate": 4288,
  "\u2581iw\u00f5j": 4289,
  "\u2581military": 4290,
  "\u2581possession": 4291,
  "\u2581rejel": 4292,
  "\u2581television": 4293,
  "AN": 4294,
  "will": 4295,
  "\u00f5jm": 4296,
  "\u2581Assyria": 4297,
  "\u2581Church": 4298,
  "\u2581Enjel": 4299,
  "\u2581apparently": 4300,
  "\u2581approached": 4301,
  "\u2581facing": 4302,
  "\u2581jelmaiki": 4303,
  "\u2581lion": 4304,
  "\u2581lol\u00e3t\u00e3t": 4305,
  "\u2581neji\u00f5": 4306,
  "\u2581non": 4307,
  "\u2581obeying": 4308,
  "\u2581obligation": 4309,
  "\u2581possess": 4310,
  "\u2581task": 4311,
  "Jrb": 4312,
  "\u2581Eor": 4313,
  "\u2581Grand": 4314,
  "\u2581Livai": 4315,
  "\u2581Notice": 4316,
  "\u2581computer": 4317,
  "\u2581ekan": 4318,
  "\u2581kijoror": 4319,
  "\u2581maintaining": 4320,
  "\u2581majority": 4321,
  "\u2581mention": 4322,
  "\u2581moment": 4323,
  "\u2581possessions": 4324,
  "\u2581risk": 4325,
  "\u2581straight": 4326,
  "\u2581studied": 4327,
  "\u2581\u00e3jmour": 4328,
  "They": 4329,
  "be": 4330,
  "\u2581Anna": 4331,
  "\u2581K\u00d5N": 4332,
  "\u2581K\u00f5mman": 4333,
  "\u2581September": 4334,
  "\u2581directly": 4335,
  "\u2581ejime": 4336,
  "\u2581fitting": 4337,
  "\u2581kajeik": 4338,
  "\u2581portion": 4339,
  "\u2581pre": 4340,
  "\u2581relations": 4341,
  "\u2581remove": 4342,
  "\u2581repeatedly": 4343,
  "\u2581sleep": 4344,
  "\u2581tempted": 4345,
  "\u2581weaknesses": 4346,
  "\u2581America": 4347,
  "\u2581Martha": 4348,
  "\u2581Melelen": 4349,
  "\u2581October": 4350,
  "\u2581Philip": 4351,
  "\u2581Worship": 4352,
  "\u2581attitudes": 4353,
  "\u2581finding": 4354,
  "\u2581gather": 4355,
  "\u2581hundreds": 4356,
  "\u2581kakkije": 4357,
  "\u2581sad": 4358,
  "\u2581wild": 4359,
  "\u00f5ttad": 4360,
  "\u2581Brazil": 4361,
  "\u2581Herod": 4362,
  "\u2581MEN": 4363,
  "\u2581Peace": 4364,
  "\u2581approved": 4365,
  "\u2581berber": 4366,
  "\u2581big": 4367,
  "\u2581eddon": 4368,
  "\u2581emotions": 4369,
  "\u2581extended": 4370,
  "\u2581familiar": 4371,
  "\u2581involv": 4372,
  "\u2581jeebeplok": 4373,
  "\u2581jineer": 4374,
  "\u2581k\u00f5ll\u00e3": 4375,
  "\u2581list": 4376,
  "\u2581literal": 4377,
  "\u2581pleasing": 4378,
  "nan": 4379,
  "\u2581Abel": 4380,
  "\u2581Kajjit\u00f5k": 4381,
  "\u2581Kar\u00f5k": 4382,
  "\u2581News": 4383,
  "\u2581Ren": 4384,
  "\u2581eyu": 4385,
  "\u2581grand": 4386,
  "\u2581mat\u00f5rt\u00f5re": 4387,
  "\u2581methods": 4388,
  "\u2581resulted": 4389,
  "\u2581rumij": 4390,
  "\u2581sacrificing": 4391,
  "\u2581solid": 4392,
  "Jabrew\u00f5t": 4393,
  "\u258131;": 4394,
  "\u2581EJ": 4395,
  "\u2581Mat": 4396,
  "\u2581Source": 4397,
  "\u2581Visit": 4398,
  "\u2581abandoned": 4399,
  "\u2581grain": 4400,
  "\u2581identified": 4401,
  "\u2581ineen": 4402,
  "\u2581jij\u00f5t": 4403,
  "\u2581kobrak": 4404,
  "\u2581naru\u00f5n": 4405,
  "\u2581numerous": 4406,
  "\u2581reaching": 4407,
  "\u2581rejimwe": 4408,
  "\u2581standard": 4409,
  "\u2581symbolic": 4410,
  "\u2581\"!": 4411,
  "\u2581American": 4412,
  "\u2581August": 4413,
  "\u2581Greece": 4414,
  "\u2581Konono": 4415,
  "\u2581communicate": 4416,
  "\u2581divorce": 4417,
  "\u2581economic": 4418,
  "\u2581elij": 4419,
  "\u2581emake": 4420,
  "\u2581jojomare": 4421,
  "\u2581kaja\u00f1ja\u00f1": 4422,
  "\u2581k\u00f5mour": 4423,
  "\u2581oktaklok": 4424,
  "\u2581reign": 4425,
  "\u2581serves": 4426,
  "\u2581suggestions": 4427,
  "\u2581wipe": 4428,
  "\u2581worldly": 4429,
  "bwe": 4430,
  "jamin": 4431,
  "\u258137.": 4432,
  "\u258183": 4433,
  "\u2581Eliktata": 4434,
  "\u2581Rut": 4435,
  "\u2581additional": 4436,
  "\u2581fit": 4437,
  "\u2581grief": 4438,
  "\u2581kakkil": 4439,
  "\u2581meditating": 4440,
  "\u2581p\u00e3dw\u00f5t": 4441,
  "\u2581rer\u0169tto": 4442,
  "\u2581temporary": 4443,
  "\u2581toan": 4444,
  "How": 4445,
  "\u258173": 4446,
  "\u2581Encyclopedia": 4447,
  "\u2581Levites": 4448,
  "\u2581Students": 4449,
  "\u2581affairs": 4450,
  "\u2581associates": 4451,
  "\u2581emij": 4452,
  "\u2581idaak": 4453,
  "\u2581imperfection": 4454,
  "\u2581journey": 4455,
  "\u2581keboj": 4456,
  "\u2581meek": 4457,
  "\u2581miraculous": 4458,
  "\u2581tarinaik": 4459,
  "with": 4460,
  "\u2581103": 4461,
  "\u2581Columbia": 4462,
  "\u2581England": 4463,
  "\u2581Inc": 4464,
  "\u2581TV": 4465,
  "\u2581demon": 4466,
  "\u2581district": 4467,
  "\u2581holding": 4468,
  "\u2581idolatry": 4469,
  "\u2581kilan": 4470,
  "\u2581lujur": 4471,
  "\u2581meditation": 4472,
  "\u2581orlok": 4473,
  "\u2581poverty": 4474,
  "\u2581sustain": 4475,
  "\u2581turning": 4476,
  "\u2581wind": 4477,
  "Lo": 4478,
  "\u258123]": 4479,
  "\u2581Answered": 4480,
  "\u2581Baruch": 4481,
  "\u2581Ki": 4482,
  "\u2581Yi\u00f5": 4483,
  "\u2581arrangements": 4484,
  "\u2581commandment": 4485,
  "\u2581confront": 4486,
  "\u2581ekauwatata": 4487,
  "\u2581glad": 4488,
  "\u2581highly": 4489,
  "\u2581jaab": 4490,
  "\u2581kwonair": 4491,
  "\u2581motives": 4492,
  "\u2581poj\u00f5k": 4493,
  "\u2581relate": 4494,
  "\u2581sit": 4495,
  "\u2581wrongdoing": 4496,
  "45)": 4497,
  "Ken": 4498,
  "\u25812012": 4499,
  "\u258136)": 4500,
  "\u2581Jehoshaphat": 4501,
  "\u2581Jiba\u00f1": 4502,
  "\u2581Livitik\u00f5s": 4503,
  "\u2581Master": 4504,
  "\u2581conscious": 4505,
  "\u2581error": 4506,
  "\u2581ill": 4507,
  "\u2581k\u00f5mm\u00f5ni": 4508,
  "\u2581lalem": 4509,
  "\u2581metak": 4510,
  "\u2581modest": 4511,
  "\u2581royal": 4512,
  "\u2581tausan": 4513,
  "\u2581treasures": 4514,
  "\u2581waan": 4515,
  "iir": 4516,
  "\u258158": 4517,
  "\u2581December": 4518,
  "\u2581Ekar": 4519,
  "\u2581Esau": 4520,
  "\u2581Ium": 4521,
  "\u2581July": 4522,
  "\u2581Kwelok": 4523,
  "\u2581Leo": 4524,
  "\u2581M\u00f5n\u00f5n\u00f5": 4525,
  "\u2581Nineveh": 4526,
  "\u2581b\u0169dej": 4527,
  "\u2581b\u0169ruom": 4528,
  "\u2581couples": 4529,
  "\u2581generous": 4530,
  "\u2581inherit": 4531,
  "\u2581inherited": 4532,
  "\u2581kak\u00f5ll": 4533,
  "\u2581kowe": 4534,
  "\u2581obtain": 4535,
  "\u2581preserve": 4536,
  "\u2581readily": 4537,
  "Ej": 4538,
  "jar": 4539,
  "\u2581Hib": 4540,
  "\u2581Kaki": 4541,
  "\u2581Me": 4542,
  "\u2581associate": 4543,
  "\u2581attain": 4544,
  "\u2581calamity": 4545,
  "\u2581commands": 4546,
  "\u2581constant": 4547,
  "\u2581l\u00f5\u00f1l": 4548,
  "\u2581national": 4549,
  "\u2581potential": 4550,
  "\u2581rejoicing": 4551,
  "\u2581research": 4552,
  "\u2581romak": 4553,
  "\u2581stars": 4554,
  "\u2581stood": 4555,
  "\u2581story": 4556,
  "\u2581subjection": 4557,
  "\u2581upbuilding": 4558,
  "\u2581victory": 4559,
  "483,": 4560,
  "Inaj": 4561,
  "aad": 4562,
  "wij": 4563,
  "\u25818]": 4564,
  "\u2581Asa": 4565,
  "\u2581Barnabas": 4566,
  "\u2581Jouj": 4567,
  "\u2581Testament": 4568,
  "\u2581advancement": 4569,
  "\u2581degree": 4570,
  "\u2581ededelok": 4571,
  "\u2581higher": 4572,
  "\u2581ignore": 4573,
  "\u2581inaj": 4574,
  "\u2581jat\u00f5r": 4575,
  "\u2581jebel": 4576,
  "\u2581laid": 4577,
  "\u2581melejo\u00f1e": 4578,
  "\u2581obr\u00f5k": 4579,
  "\u2581paragraphs": 4580,
  "\u2581private": 4581,
  "\u2581rain": 4582,
  "\u2581replied": 4583,
  "\u2581rewarded": 4584,
  "\u2581schedule": 4585,
  "N": 4586,
  "ity": 4587,
  "\u2581Every": 4588,
  "\u2581Gal": 4589,
  "\u2581Granted": 4590,
  "\u2581Prayer": 4591,
  "\u2581dikl": 4592,
  "\u2581failure": 4593,
  "\u2581ilb\u00f5k": 4594,
  "\u2581jerata": 4595,
  "\u2581kejekron": 4596,
  "\u2581kokwojarjar": 4597,
  "\u2581mweien": 4598,
  "\u2581po": 4599,
  "\u2581quick": 4600,
  "\u2581referring": 4601,
  "\u2581relej": 4602,
  "\u2581root": 4603,
  "\u2581ru\u00f5n": 4604,
  "201": 4605,
  "Compare": 4606,
  "for": 4607,
  "\u00f5de": 4608,
  "\u2581COVER": 4609,
  "\u2581Eph": 4610,
  "\u2581NY": 4611,
  "\u2581au\u00f5": 4612,
  "\u2581ejabwe": 4613,
  "\u2581entrusted": 4614,
  "\u2581literally": 4615,
  "\u2581mark": 4616,
  "\u2581medical": 4617,
  "\u2581represented": 4618,
  "\u2581safe": 4619,
  "\u2581series": 4620,
  "\u2581thankful": 4621,
  "\u2581useful": 4622,
  "\u2581wedding": 4623,
  "John": 4624,
  "\u25816]": 4625,
  "\u2581Ainem\u00f5n": 4626,
  "\u2581Jek\u00f5b": 4627,
  "\u2581Way": 4628,
  "\u2581add": 4629,
  "\u2581adjustments": 4630,
  "\u2581cell": 4631,
  "\u2581cost": 4632,
  "\u2581create": 4633,
  "\u2581healthy": 4634,
  "\u2581identity": 4635,
  "\u2581keiri": 4636,
  "\u2581mejenkajik": 4637,
  "\u2581perfection": 4638,
  "\u2581rettoon": 4639,
  "\u2581safeguard": 4640,
  "\u2581white": 4641,
  "\u2581yokyokwe": 4642,
  "aeik": 4643,
  "\u258138,": 4644,
  "\u2581Boaz": 4645,
  "\u2581Ia": 4646,
  "\u2581Ministry": 4647,
  "\u2581accord": 4648,
  "\u2581anijnij": 4649,
  "\u2581b\u0169ru\u00f5": 4650,
  "\u2581epidodo": 4651,
  "\u2581flee": 4652,
  "\u2581jarlepju": 4653,
  "\u2581pedped": 4654,
  "\u2581plan": 4655,
  "\u2581season": 4656,
  "\u2581telephone": 4657,
  "\u2581tendency": 4658,
  "\u2581wisely": 4659,
  "armij": 4660,
  "it": 4661,
  "let": 4662,
  "rb": 4663,
  "yokwe": 4664,
  "\u00f5ko": 4665,
  "\u258129]": 4666,
  "\u2581Happy": 4667,
  "\u2581Shepherd": 4668,
  "\u2581Times": 4669,
  "\u2581Wanjo\u00f1ok": 4670,
  "\u2581aluij": 4671,
  "\u2581burden": 4672,
  "\u2581causing": 4673,
  "\u2581concluded": 4674,
  "\u2581gradually": 4675,
  "\u2581instructed": 4676,
  "\u2581jota": 4677,
  "\u2581j\u00f5\u00f1": 4678,
  "\u2581kw\u00f5jjab": 4679,
  "\u2581ministeri": 4680,
  "\u2581poured": 4681,
  "\u2581shine": 4682,
  "\u2581song": 4683,
  "\u2581tabernacle": 4684,
  "\u2581vain": 4685,
  "\u2581video": 4686,
  "a\u00f1in": 4687,
  "\u258141,": 4688,
  "\u2581Ep": 4689,
  "\u2581Ex": 4690,
  "\u2581Letok": 4691,
  "\u2581Readers": 4692,
  "\u2581aetokin": 4693,
  "\u2581approaching": 4694,
  "\u2581choosing": 4695,
  "\u2581court": 4696,
  "\u2581ebidodo": 4697,
  "\u2581hundred": 4698,
  "\u2581invite": 4699,
  "\u2581kabwer": 4700,
  "\u2581maturity": 4701,
  "ights": 4702,
  "\u258130;": 4703,
  "\u2581Bedbed": 4704,
  "\u2581Levi": 4705,
  "\u2581Nazi": 4706,
  "\u2581Ti": 4707,
  "\u2581Two": 4708,
  "\u2581car": 4709,
  "\u2581depends": 4710,
  "\u2581eaetok": 4711,
  "\u2581ekil": 4712,
  "\u2581excellent": 4713,
  "\u2581jimjatin": 4714,
  "\u2581kajen": 4715,
  "\u2581limit": 4716,
  "\u2581lovers": 4717,
  "\u2581raur\u00f5k": 4718,
  "\u2581thereafter": 4719,
  "\u2581traits": 4720,
  "\u2581trusted": 4721,
  "D": 4722,
  "it\u00f5n": 4723,
  "ive": 4724,
  "\u258131]": 4725,
  "\u2581Babylonian": 4726,
  "\u2581accepting": 4727,
  "\u2581applies": 4728,
  "\u2581diklok": 4729,
  "\u2581governing": 4730,
  "\u2581kaddeklok": 4731,
  "\u2581karel": 4732,
  "\u2581k\u00e3\u00e3l\u00f5te": 4733,
  "\u2581lamp": 4734,
  "\u2581nanin": 4735,
  "\u2581nej\u0169": 4736,
  "\u2581trip": 4737,
  "\u2581universal": 4738,
  "\u2581urges": 4739,
  "\u2581wear": 4740,
  "jerbal": 4741,
  "\u2581Caleb": 4742,
  "\u2581Welcom": 4743,
  "\u2581dangers": 4744,
  "\u2581lew\u00f5j": 4745,
  "\u2581relationships": 4746,
  "\u2581rett\u00e3": 4747,
  "\u2581scholar": 4748,
  "\u2581stopped": 4749,
  "\u2581wall": 4750,
  "ermon": 4751,
  "\u258144)": 4752,
  "\u2581Bo": 4753,
  "\u2581Jem": 4754,
  "\u2581Joij": 4755,
  "\u2581Moktata": 4756,
  "\u2581Robert": 4757,
  "\u2581Sinai": 4758,
  "\u2581Syria": 4759,
  "\u2581Upon": 4760,
  "\u2581acquire": 4761,
  "\u2581attacks": 4762,
  "\u2581bo\u00f1in": 4763,
  "\u2581brief": 4764,
  "\u2581bwijjin": 4765,
  "\u2581compassionate": 4766,
  "\u2581ejeja": 4767,
  "\u2581enduring": 4768,
  "\u2581firstborn": 4769,
  "\u2581influences": 4770,
  "\u2581international": 4771,
  "\u2581kanni\u00f5k": 4772,
  "\u2581litoki": 4773,
  "\u2581milk": 4774,
  "\u2581recalls": 4775,
  "\u2581released": 4776,
  "\u2581slavery": 4777,
  "\u2581sorts": 4778,
  "\u2581tested": 4779,
  "\u2581total": 4780,
  "\u2581trusting": 4781,
  "\u2581w\u00f5nan": 4782,
  "jikin": 4783,
  "w\u00f5j": 4784,
  "\u00d5L": 4785,
  "\u2581Gen": 4786,
  "\u2581Manasseh": 4787,
  "\u2581UN": 4788,
  "\u2581angry": 4789,
  "\u2581baby": 4790,
  "\u2581divided": 4791,
  "\u2581ejel\u00e3": 4792,
  "\u2581encourages": 4793,
  "\u2581itul\u00f5\u00f1": 4794,
  "\u2581jidikdik": 4795,
  "\u2581kajurlok": 4796,
  "\u2581karkarin": 4797,
  "\u2581paid": 4798,
  "\u2581ruwamaejet": 4799,
  "\u25812013": 4800,
  "\u258142.": 4801,
  "\u2581Australia": 4802,
  "\u2581Blu": 4803,
  "\u2581Kallim": 4804,
  "\u2581November": 4805,
  "\u2581Pilate": 4806,
  "\u2581b\u00f5brae": 4807,
  "\u2581dust": 4808,
  "\u2581emour": 4809,
  "\u2581jemaden": 4810,
  "\u2581jibed": 4811,
  "\u2581kaape": 4812,
  "\u2581kae\u00f1taan": 4813,
  "\u2581l\u00f5katip": 4814,
  "\u2581passing": 4815,
  "\u2581seventh": 4816,
  "\u2581supply": 4817,
  "Galetia": 4818,
  "U": 4819,
  "bwij": 4820,
  "ous": 4821,
  "\u2581Biblical": 4822,
  "\u2581Cyrus": 4823,
  "\u2581June": 4824,
  "\u2581Trinity": 4825,
  "\u2581arranged": 4826,
  "\u2581beauty": 4827,
  "\u2581bolemen": 4828,
  "\u2581comment": 4829,
  "\u2581differences": 4830,
  "\u2581disobedience": 4831,
  "\u2581employment": 4832,
  "\u2581humankind": 4833,
  "\u2581karuwainene": 4834,
  "\u2581lik\u0169ti": 4835,
  "\u2581plans": 4836,
  "\u2581possibly": 4837,
  "\u2581reb\u00f5d": 4838,
  "\u2581writers": 4839,
  "\u2581\u00e3liklik": 4840,
  "ation": 4841,
  "\u2581Hezekaia": 4842,
  "\u2581ab\u00f5n\u00f5n\u00f5": 4843,
  "\u2581begins": 4844,
  "\u2581declaring": 4845,
  "\u2581expectation": 4846,
  "\u2581finish": 4847,
  "\u2581herself": 4848,
  "\u2581imwiir": 4849,
  "\u2581likened": 4850,
  "\u2581luuji": 4851,
  "\u2581r\u0169kanaan": 4852,
  "\u2581uaki": 4853,
  "\u2581Mij": 4854,
  "\u2581Street": 4855,
  "\u2581Volume": 4856,
  "\u2581deaf": 4857,
  "\u2581em\u0169lal": 4858,
  "\u2581innocent": 4859,
  "\u2581kaur\u00f5k": 4860,
  "\u2581notes": 4861,
  "\u2581painful": 4862,
  "\u2581peaceable": 4863,
  "\u2581priesthood": 4864,
  "\u2581repent": 4865,
  "\u2581senses": 4866,
  "\u2581strangers": 4867,
  "\u2581title": 4868,
  "\u2581urgency": 4869,
  "his": 4870,
  "\u00f5ik": 4871,
  "\u2581120": 4872,
  "\u258197": 4873,
  "\u2581Draw": 4874,
  "\u2581Ine": 4875,
  "\u2581Pero": 4876,
  "\u2581boldness": 4877,
  "\u2581buy": 4878,
  "\u2581community": 4879,
  "\u2581disaster": 4880,
  "\u2581inspiring": 4881,
  "\u2581keotak": 4882,
  "\u2581k\u00f5t\u00f5mene": 4883,
  "\u2581plague": 4884,
  "\u2581proceeded": 4885,
  "\u2581submit": 4886,
  "\u2581table": 4887,
  "\u2581\u00c3t": 4888,
  "jjel\u00f5k": 4889,
  "jw": 4890,
  "ruaklok": 4891,
  "\u2581History": 4892,
  "\u2581Im\u00f5n": 4893,
  "\u2581Knowledge": 4894,
  "\u2581Michael": 4895,
  "\u2581M\u00f5ttan": 4896,
  "\u2581devoted": 4897,
  "\u2581eritto": 4898,
  "\u2581establish": 4899,
  "\u2581features": 4900,
  "\u2581irro": 4901,
  "\u2581jibbo\u00f1": 4902,
  "\u2581morally": 4903,
  "\u2581reim": 4904,
  "\u2581release": 4905,
  "\u2581ridto": 4906,
  "\u2581significance": 4907,
  "\u2581soldiers": 4908,
  "\u2581stone": 4909,
  "\u2581tur\u00e3jet": 4910,
  "\u2581zealously": 4911,
  "Ejelok": 4912,
  "em": 4913,
  "\u2581Kw\u00f5naaj": 4914,
  "\u2581anxieties": 4915,
  "\u2581bata": 4916,
  "\u2581calm": 4917,
  "\u2581expects": 4918,
  "\u2581iami": 4919,
  "\u2581jol\u00f5t": 4920,
  "\u2581kajorr\u00e3n": 4921,
  "\u2581kobaiktok": 4922,
  "\u2581paying": 4923,
  "\u2581recently": 4924,
  "\u2581resolved": 4925,
  "\u2581style": 4926,
  "\u2581surprise": 4927,
  "\u2581surprised": 4928,
  "\u2581throw": 4929,
  "\u2581trees": 4930,
  "Hib": 4931,
  "\u258120]": 4932,
  "\u2581Buk": 4933,
  "\u2581Seed": 4934,
  "\u2581bukwelok": 4935,
  "\u2581depth": 4936,
  "\u2581di": 4937,
  "\u2581earnestly": 4938,
  "\u2581initiative": 4939,
  "\u2581kaba\u00f1": 4940,
  "\u2581katton": 4941,
  "\u2581reinju\u00f5n": 4942,
  "\u2581signs": 4943,
  "\u2581struck": 4944,
  "\u2581threatened": 4945,
  "b\u00f5k": 4946,
  "rimarily": 4947,
  "\u258156": 4948,
  "\u2581Elders": 4949,
  "\u2581believing": 4950,
  "\u2581bu\u00f1buru": 4951,
  "\u2581dedelok": 4952,
  "\u2581ellok": 4953,
  "\u2581goat": 4954,
  "\u2581kak\u00f5l": 4955,
  "\u2581kameleleik": 4956,
  "\u2581karreo": 4957,
  "\u2581manifested": 4958,
  "\u2581modesty": 4959,
  "\u2581motive": 4960,
  "\u2581pedetaij": 4961,
  "\u2581pornography": 4962,
  "\u2581pursuits": 4963,
  "\u2581removed": 4964,
  "\u2581resources": 4965,
  "\u2581songs": 4966,
  "maro\u00f1": 4967,
  "p\u00e3d": 4968,
  "\u258154": 4969,
  "\u2581Eli": 4970,
  "\u2581Go": 4971,
  "\u2581Jikuul": 4972,
  "\u2581Sometimes": 4973,
  "\u2581center": 4974,
  "\u2581clothing": 4975,
  "\u2581construction": 4976,
  "\u2581eutiejtata": 4977,
  "\u2581jei\u00f5": 4978,
  "\u2581low": 4979,
  "\u2581magazines": 4980,
  "\u2581scripture": 4981,
  "\u2581supported": 4982,
  "\u2581tile": 4983,
  "\u2581utmost": 4984,
  "id": 4985,
  "\u258157": 4986,
  "\u2581Concern": 4987,
  "\u2581Karuwaineneik": 4988,
  "\u2581Leader": 4989,
  "\u2581Maria": 4990,
  "\u2581career": 4991,
  "\u2581crime": 4992,
  "\u2581dein": 4993,
  "\u2581earnest": 4994,
  "\u2581exposed": 4995,
  "\u2581harmful": 4996,
  "\u2581kalibubu": 4997,
  "\u2581k\u00f5tar": 4998,
  "\u2581mourning": 4999,
  "\u2581na\u00f1in": 5000,
  "\u2581noticed": 5001,
  "\u2581pel": 5002,
  "\u2581permanent": 5003,
  "\u2581pioneering": 5004,
  "\u2581potata": 5005,
  "\u2581reliable": 5006,
  "\u2581r\u00f5t": 5007,
  "\u2581variety": 5008,
  "Be": 5009,
  "To": 5010,
  "a\u00f1": 5011,
  "lo": 5012,
  "\u2581BAIB": 5013,
  "\u2581Halls": 5014,
  "\u2581Iom": 5015,
  "\u2581Lessons": 5016,
  "\u2581Theocratic": 5017,
  "\u2581broken": 5018,
  "\u2581custom": 5019,
  "\u2581eweepp\u00e3n": 5020,
  "\u2581fallen": 5021,
  "\u2581official": 5022,
  "\u2581preparing": 5023,
  "\u2581property": 5024,
  "\u2581reap": 5025,
  "\u2581represents": 5026,
  "\u2581restore": 5027,
  "\u2581rum": 5028,
  "\u2581unbeliev": 5029,
  "\u2581warns": 5030,
  "Ta": 5031,
  "\u258162": 5032,
  "\u2581Ipp\u00e3n": 5033,
  "\u2581Lio": 5034,
  "\u2581Lomal": 5035,
  "\u2581Unjen": 5036,
  "\u2581cancer": 5037,
  "\u2581companion": 5038,
  "\u2581conversations": 5039,
  "\u2581defend": 5040,
  "\u2581distant": 5041,
  "\u2581fundamental": 5042,
  "\u2581hardships": 5043,
  "\u2581increasing": 5044,
  "\u2581jin\u00f5m": 5045,
  "\u2581kil": 5046,
  "\u2581laajrak": 5047,
  "\u2581likj\u00f5p": 5048,
  "\u2581loyally": 5049,
  "\u2581marked": 5050,
  "\u2581profound": 5051,
  "\u2581raising": 5052,
  "\u2581residents": 5053,
  "\u2581warfare": 5054,
  "\u2581warnings": 5055,
  "ingness": 5056,
  "te": 5057,
  "\u258145.": 5058,
  "\u2581City": 5059,
  "\u2581Committee": 5060,
  "\u2581India": 5061,
  "\u2581Kake": 5062,
  "\u2581Tait\u00f5s": 5063,
  "\u2581churches": 5064,
  "\u2581desirable": 5065,
  "\u2581existed": 5066,
  "\u2581ibwijleplep": 5067,
  "\u2581jeblaktok": 5068,
  "\u2581jenolok": 5069,
  "\u2581miracle": 5070,
  "\u2581miraculously": 5071,
  "\u2581nitbwili": 5072,
  "\u2581oppose": 5073,
  "\u2581popular": 5074,
  "\u2581publicly": 5075,
  "\u2581pursuit": 5076,
  "\u2581reproach": 5077,
  "\u2581sayings": 5078,
  "\u2581tax": 5079,
  "\u2581torture": 5080,
  "\u2581weakness": 5081,
  "En": 5082,
  "Israel": 5083,
  "Livitik\u00f5s": 5084,
  "mour": 5085,
  "tak": 5086,
  "\u258137)": 5087,
  "\u2581Asaph": 5088,
  "\u2581Out": 5089,
  "\u2581Pi": 5090,
  "\u2581Service": 5091,
  "\u2581THIS": 5092,
  "\u2581enjoying": 5093,
  "\u2581heads": 5094,
  "\u2581hidden": 5095,
  "\u2581imminene": 5096,
  "\u2581intense": 5097,
  "\u2581joyfully": 5098,
  "\u2581kauweik": 5099,
  "\u2581melaj": 5100,
  "\u2581ow\u00f5j": 5101,
  "\u2581pijaik": 5102,
  "\u2581punishment": 5103,
  "\u2581restoration": 5104,
  "\u2581vow": 5105,
  "ful": 5106,
  "\u2581139": 5107,
  "\u2581969": 5108,
  "\u2581Aron": 5109,
  "\u2581Bwelen": 5110,
  "\u2581French": 5111,
  "\u2581Nebuchadnezzar": 5112,
  "\u2581asleep": 5113,
  "\u2581attempt": 5114,
  "\u2581campaign": 5115,
  "\u2581cared": 5116,
  "\u2581devil": 5117,
  "\u2581dream": 5118,
  "\u2581dreka": 5119,
  "\u2581eagerly": 5120,
  "\u2581ears": 5121,
  "\u2581ik\u00f5\u00f1": 5122,
  "\u2581ire": 5123,
  "\u2581kak\u00f5m": 5124,
  "\u2581kautieje": 5125,
  "\u2581offerings": 5126,
  "\u2581peejnej": 5127,
  "\u2581refreshing": 5128,
  "\u2581sets": 5129,
  "\u2581sheba": 5130,
  "\u2581t\u00f5make": 5131,
  "\u2581victim": 5132,
  "\u2581waj": 5133,
  "\u2581welfare": 5134,
  "\u2581w\u00e3n\u00f5k": 5135,
  "\u2581Ais": 5136,
  "\u2581Bata": 5137,
  "\u2581Jeramm\u00f5n": 5138,
  "\u2581Jona": 5139,
  "\u2581Mej": 5140,
  "\u2581Persia": 5141,
  "\u2581TAIT\u00d5": 5142,
  "\u2581aintok": 5143,
  "\u2581convey": 5144,
  "\u2581crowds": 5145,
  "\u2581em\u00e3n": 5146,
  "\u2581f": 5147,
  "\u2581grant": 5148,
  "\u2581kingdoms": 5149,
  "\u2581priorities": 5150,
  "\u2581protected": 5151,
  "\u2581routine": 5152,
  "\u2581store": 5153,
  "\u2581surrounded": 5154,
  "\u2581uphold": 5155,
  "\u2581urge": 5156,
  "\u2581visits": 5157,
  "\u2581wholesome": 5158,
  "\u2581\u00e3nbwinnin": 5159,
  "T": 5160,
  "not": 5161,
  "okake": 5162,
  "rig": 5163,
  "ro\u00f1": 5164,
  "\u25811918": 5165,
  "\u25811997": 5166,
  "\u2581DRI": 5167,
  "\u2581Dan": 5168,
  "\u2581Earth": 5169,
  "\u2581Following": 5170,
  "\u2581HOW": 5171,
  "\u2581Ijello": 5172,
  "\u2581International": 5173,
  "\u2581Jephthah": 5174,
  "\u2581Raan": 5175,
  "\u2581SAM": 5176,
  "\u2581Scripture": 5177,
  "\u2581Shortly": 5178,
  "\u2581Things": 5179,
  "\u2581W\u00f5j": 5180,
  "\u2581b\u00f5kl": 5181,
  "\u2581empty": 5182,
  "\u2581ended": 5183,
  "\u2581evolution": 5184,
  "\u2581jeorl": 5185,
  "\u2581kaillu": 5186,
  "\u2581kebojak": 5187,
  "\u2581kobatok": 5188,
  "\u2581lett": 5189,
  "\u2581mile": 5190,
  "\u2581objective": 5191,
  "\u2581proclaim": 5192,
  "\u2581rekeie": 5193,
  "\u2581ruwam\u00e3ejet": 5194,
  "\u2581satisfied": 5195,
  "\u2581win": 5196,
  "disfellowshipped": 5197,
  "\u2581Gold": 5198,
  "\u2581Jumae": 5199,
  "\u2581Kwa": 5200,
  "\u2581Philippi": 5201,
  "\u2581assignments": 5202,
  "\u2581bus": 5203,
  "\u2581completed": 5204,
  "\u2581healed": 5205,
  "\u2581healing": 5206,
  "\u2581imitating": 5207,
  "\u2581immortal": 5208,
  "\u2581jibadek": 5209,
  "\u2581kepaake": 5210,
  "\u2581leddik": 5211,
  "\u2581nejid": 5212,
  "\u2581preserved": 5213,
  "\u2581ro\u00f1jaki": 5214,
  "\u2581shortly": 5215,
  "\u2581touch": 5216,
  "\u2581visible": 5217,
  "\u2581worker": 5218,
  "13,": 5219,
  "ada": 5220,
  "\u2581Ek\u00f5n": 5221,
  "\u2581Jerb": 5222,
  "\u2581Russia": 5223,
  "\u2581absorb": 5224,
  "\u2581addressed": 5225,
  "\u2581believer": 5226,
  "\u2581cast": 5227,
  "\u2581distance": 5228,
  "\u2581encounter": 5229,
  "\u2581execution": 5230,
  "\u2581grave": 5231,
  "\u2581jibwin": 5232,
  "\u2581kebake": 5233,
  "\u2581leader": 5234,
  "\u2581male": 5235,
  "\u2581mwij": 5236,
  "\u2581regret": 5237,
  "\u2581similarly": 5238,
  "\u2581temptations": 5239,
  "\u2581thanks": 5240,
  "\u2581unless": 5241,
  "\u2581uror": 5242,
  "\u2581\u00d1AN": 5243,
  "Genesis": 5244,
  "Revelation": 5245,
  "eperd": 5246,
  "\u2581Bwinbwin": 5247,
  "\u2581Rahab": 5248,
  "\u2581Sheol": 5249,
  "\u2581TA": 5250,
  "\u2581assemblies": 5251,
  "\u2581courageously": 5252,
  "\u2581credit": 5253,
  "\u2581description": 5254,
  "\u2581ejoij": 5255,
  "\u2581emm\u00f5n": 5256,
  "\u2581habit": 5257,
  "\u2581hospital": 5258,
  "\u2581k\u00f5jdate": 5259,
  "\u2581lewaj": 5260,
  "\u2581load": 5261,
  "\u2581menono": 5262,
  "\u2581promotes": 5263,
  "\u2581raibujuij": 5264,
  "\u2581reddik": 5265,
  "\u2581soil": 5266,
  "\u2581tear": 5267,
  "\u2581threat": 5268,
  "\u2581wat\u00f5ki": 5269,
  "Iroij": 5270,
  "Pilippai": 5271,
  "\u258140.": 5272,
  "\u2581P\u00e3lle": 5273,
  "\u2581Rebekah": 5274,
  "\u2581Spiritual": 5275,
  "\u2581Thousand": 5276,
  "\u2581amiro": 5277,
  "\u2581culture": 5278,
  "\u2581drew": 5279,
  "\u2581ekaiuriur": 5280,
  "\u2581li\u00e3jlol": 5281,
  "\u2581loloorjake": 5282,
  "\u2581memory": 5283,
  "\u2581observes": 5284,
  "\u2581privileged": 5285,
  "\u2581prominent": 5286,
  "\u2581rup": 5287,
  "\u2581suggest": 5288,
  "\u2581ukokin": 5289,
  "\u2581university": 5290,
  "Ju\u00f5n": 5291,
  "\u258119]": 5292,
  "\u258142,": 5293,
  "\u2581500": 5294,
  "\u25818.)": 5295,
  "\u2581Bed": 5296,
  "\u2581Come": 5297,
  "\u2581Dictionary": 5298,
  "\u2581Evidently": 5299,
  "\u2581Jeroboam": 5300,
  "\u2581Koba": 5301,
  "\u2581Table": 5302,
  "\u2581Uaki": 5303,
  "\u2581adopt": 5304,
  "\u2581capital": 5305,
  "\u2581content": 5306,
  "\u2581ell\u00e3lok": 5307,
  "\u2581i\u00e3ekw\u00f5j": 5308,
  "\u2581jatiir": 5309,
  "\u2581jat\u0169": 5310,
  "\u2581jek": 5311,
  "\u2581kai\u00f1tan": 5312,
  "\u2581keutak": 5313,
  "\u2581mistake": 5314,
  "\u2581m\u00f5jino": 5315,
  "\u2581obeyed": 5316,
  "\u2581observ": 5317,
  "\u2581redrik": 5318,
  "\u2581rescue": 5319,
  "\u2581tron": 5320,
  "\u2581wondered": 5321,
  "\u2581yoke": 5322,
  "Happy": 5323,
  "Rome": 5324,
  "juon": 5325,
  "ol": 5326,
  "\u25811,000": 5327,
  "\u258138)": 5328,
  "\u2581Eventually": 5329,
  "\u2581Ion": 5330,
  "\u2581Jem\u00e3d": 5331,
  "\u2581Kejatdikdik": 5332,
  "\u2581Know": 5333,
  "\u2581Nathan": 5334,
  "\u2581b\u0169ra": 5335,
  "\u2581college": 5336,
  "\u2581context": 5337,
  "\u2581detail": 5338,
  "\u2581evanjel": 5339,
  "\u2581finds": 5340,
  "\u2581harsh": 5341,
  "\u2581kajededlok": 5342,
  "\u2581k\u00f5n\u00f5k": 5343,
  "\u2581leper": 5344,
  "\u2581lo\u00f1in": 5345,
  "\u2581prize": 5346,
  "\u2581p\u00e3rok\u00f5r\u00e3\u00e3p": 5347,
  "\u2581region": 5348,
  "\u2581rekauwatata": 5349,
  "\u2581ridtolok": 5350,
  "\u2581whereas": 5351,
  "\u2581\u00e3\u00f1in": 5352,
  "Go": 5353,
  "Luke": 5354,
  "ced": 5355,
  "\u2581110": 5356,
  "\u2581200": 5357,
  "\u2581ANIJ": 5358,
  "\u2581Contents": 5359,
  "\u2581German": 5360,
  "\u2581Minor": 5361,
  "\u2581abroad": 5362,
  "\u2581acknowledged": 5363,
  "\u2581aujid": 5364,
  "\u2581bwelen": 5365,
  "\u2581creature": 5366,
  "\u2581discovered": 5367,
  "\u2581eliminate": 5368,
  "\u2581eternity": 5369,
  "\u2581executed": 5370,
  "\u2581factor": 5371,
  "\u2581jenliklik": 5372,
  "\u2581kalel\u00f1o\u00f1": 5373,
  "\u2581kortokjen": 5374,
  "\u2581letak": 5375,
  "\u2581leto": 5376,
  "\u2581motlok": 5377,
  "\u2581pleasant": 5378,
  "\u2581principal": 5379,
  "\u2581rebellious": 5380,
  "\u2581rendering": 5381,
  "\u2581requirement": 5382,
  "\u2581scene": 5383,
  "\u2581shoulder": 5384,
  "\u2581thrown": 5385,
  "\u2581tongues": 5386,
  "\u2581uwaaki": 5387,
  "\u2581virgin": 5388,
  "\u2581wijtak": 5389,
  "\u2581\u00f1itta": 5390,
  "Your": 5391,
  "good": 5392,
  "\u258122;": 5393,
  "\u2581Eaor\u00f5k": 5394,
  "\u2581Egyptian": 5395,
  "\u2581IS": 5396,
  "\u2581Italy": 5397,
  "\u2581Judia": 5398,
  "\u2581Kamolol": 5399,
  "\u2581Ur": 5400,
  "\u2581application": 5401,
  "\u2581copies": 5402,
  "\u2581developing": 5403,
  "\u2581explanation": 5404,
  "\u2581guilty": 5405,
  "\u2581highlights": 5406,
  "\u2581householder": 5407,
  "\u2581proclaimers": 5408,
  "\u2581prophesied": 5409,
  "\u2581qualify": 5410,
  "\u2581reflecting": 5411,
  "\u2581reply": 5412,
  "\u2581skills": 5413,
  "\u2581tools": 5414,
  "Isaiah": 5415,
  "No": 5416,
  "\u25812000": 5417,
  "\u258191": 5418,
  "\u2581Besides": 5419,
  "\u2581Charles": 5420,
  "\u2581Fear": 5421,
  "\u2581Korea": 5422,
  "\u2581Latin": 5423,
  "\u2581Phil": 5424,
  "\u2581anymore": 5425,
  "\u2581audience": 5426,
  "\u2581badness": 5427,
  "\u2581clergy": 5428,
  "\u2581cultivating": 5429,
  "\u2581ebed": 5430,
  "\u2581empower": 5431,
  "\u2581experiencing": 5432,
  "\u2581forgiven": 5433,
  "\u2581houses": 5434,
  "\u2581impact": 5435,
  "\u2581korlok": 5436,
  "\u2581lacking": 5437,
  "\u2581length": 5438,
  "\u2581lifestyle": 5439,
  "\u2581marital": 5440,
  "\u2581newly": 5441,
  "\u2581opposed": 5442,
  "\u2581peek": 5443,
  "\u2581prompt": 5444,
  "\u2581p\u00e3": 5445,
  "\u2581rejaje": 5446,
  "\u2581remembered": 5447,
  "\u2581rights": 5448,
  "\u2581tent": 5449,
  "\u2581tibdikin": 5450,
  "\u2581tired": 5451,
  "\u2581victims": 5452,
  "jait": 5453,
  "p": 5454,
  "side": 5455,
  "that": 5456,
  "\u25813,000": 5457,
  "\u2581Caesar": 5458,
  "\u2581Faithful": 5459,
  "\u2581Ijoke": 5460,
  "\u2581across": 5461,
  "\u2581bele\u00f5m": 5462,
  "\u2581biruru": 5463,
  "\u2581bitter": 5464,
  "\u2581doubts": 5465,
  "\u2581eiet": 5466,
  "\u2581ekadu": 5467,
  "\u2581etair": 5468,
  "\u2581il\u00f5l": 5469,
  "\u2581intended": 5470,
  "\u2581iron": 5471,
  "\u2581judges": 5472,
  "\u2581judgments": 5473,
  "\u2581kow\u00e3nik": 5474,
  "\u2581k\u00f5tt\u00f5par": 5475,
  "\u2581mates": 5476,
  "\u2581nine": 5477,
  "\u2581price": 5478,
  "\u2581stronger": 5479,
  "\u2581\u00e3in": 5480,
  "Who": 5481,
  "si": 5482,
  "u": 5483,
  "\u258130]": 5484,
  "\u2581Eka": 5485,
  "\u2581Eok": 5486,
  "\u2581Erro": 5487,
  "\u2581Jipa\u00f1": 5488,
  "\u2581Jud": 5489,
  "\u2581Judaism": 5490,
  "\u2581Liki": 5491,
  "\u2581Ranin": 5492,
  "\u2581STUDY": 5493,
  "\u2581Truly": 5494,
  "\u2581aini": 5495,
  "\u2581burn": 5496,
  "\u2581bwok": 5497,
  "\u2581condemned": 5498,
  "\u2581conducted": 5499,
  "\u2581ejoko": 5500,
  "\u2581ends": 5501,
  "\u2581haughty": 5502,
  "\u2581holds": 5503,
  "\u2581inek": 5504,
  "\u2581j\u00e3je": 5505,
  "\u2581kamijak": 5506,
  "\u2581kebellok": 5507,
  "\u2581meanw\u00f5r": 5508,
  "\u2581mijinede": 5509,
  "\u2581pijaikl": 5510,
  "\u2581tibdik": 5511,
  "\u2581village": 5512,
  "Hebrew": 5513,
  "aik": 5514,
  "our": 5515,
  "\u2581Any": 5516,
  "\u2581Don": 5517,
  "\u2581Itok": 5518,
  "\u2581K\u00f5m\u00f5n": 5519,
  "\u2581REJ": 5520,
  "\u2581Tiljek": 5521,
  "\u2581Walk": 5522,
  "\u2581appealing": 5523,
  "\u2581caught": 5524,
  "\u2581depend": 5525,
  "\u2581dies": 5526,
  "\u2581disasters": 5527,
  "\u2581discussing": 5528,
  "\u2581effectively": 5529,
  "\u2581elej": 5530,
  "\u2581engag": 5531,
  "\u2581expand": 5532,
  "\u2581fulfilling": 5533,
  "\u2581gained": 5534,
  "\u2581ik\u00f5n": 5535,
  "\u2581images": 5536,
  "\u2581jidimkij": 5537,
  "\u2581jurtak": 5538,
  "\u2581kajejjete": 5539,
  "\u2581kau": 5540,
  "\u2581kijen": 5541,
  "\u2581k\u00f5nak": 5542,
  "\u2581mail": 5543,
  "\u2581opposite": 5544,
  "\u2581plant": 5545,
  "\u2581prais": 5546,
  "\u2581priority": 5547,
  "\u2581rewarding": 5548,
  "\u2581steadfast": 5549,
  "\u2581striving": 5550,
  "\u2581thrilling": 5551,
  "\u2581widely": 5552,
  "Joshua": 5553,
  "nin": 5554,
  "\u258172": 5555,
  "\u2581Aba\u00f1": 5556,
  "\u2581Compare": 5557,
  "\u2581Insight": 5558,
  "\u2581SUBJECT": 5559,
  "\u2581adjust": 5560,
  "\u2581backing": 5561,
  "\u2581burning": 5562,
  "\u2581bwini": 5563,
  "\u2581cold": 5564,
  "\u2581conform": 5565,
  "\u2581continuing": 5566,
  "\u2581cup": 5567,
  "\u2581diligent": 5568,
  "\u2581doctrine": 5569,
  "\u2581emotionally": 5570,
  "\u2581feature": 5571,
  "\u2581guilt": 5572,
  "\u2581il\u00f5\u00f1in": 5573,
  "\u2581iun": 5574,
  "\u2581jera": 5575,
  "\u2581kamaat": 5576,
  "\u2581katorlok": 5577,
  "\u2581ledrik": 5578,
  "\u2581lim": 5579,
  "\u2581nejierro": 5580,
  "\u2581p\u00e3leem": 5581,
  "\u2581readers": 5582,
  "\u2581reflects": 5583,
  "\u2581reilo": 5584,
  "\u2581reputation": 5585,
  "\u2581reside": 5586,
  "\u2581r\u00f5lok": 5587,
  "\u2581r\u0169mm\u00e3l\u00f5tl\u00f5t": 5588,
  "\u2581sending": 5589,
  "\u2581singing": 5590,
  "\u2581wholeheartedly": 5591,
  "\u258169": 5592,
  "\u2581Bath": 5593,
  "\u2581Esther": 5594,
  "\u2581Heart": 5595,
  "\u2581Naaman": 5596,
  "\u2581Nabal": 5597,
  "\u2581admonished": 5598,
  "\u2581adults": 5599,
  "\u2581aetok": 5600,
  "\u2581bwidej": 5601,
  "\u2581cruel": 5602,
  "\u2581debt": 5603,
  "\u2581delighted": 5604,
  "\u2581entitled": 5605,
  "\u2581equal": 5606,
  "\u2581exercised": 5607,
  "\u2581exhortation": 5608,
  "\u2581festival": 5609,
  "\u2581foolish": 5610,
  "\u2581hates": 5611,
  "\u2581headship": 5612,
  "\u2581jok": 5613,
  "\u2581judged": 5614,
  "\u2581j\u00e3ji": 5615,
  "\u2581kejmour": 5616,
  "\u2581level": 5617,
  "\u2581mar": 5618,
  "\u2581patriarch": 5619,
  "\u2581realm": 5620,
  "\u2581rejeramel": 5621,
  "\u2581souled": 5622,
  "\u2581t": 5623,
  "\u2581tilekek": 5624,
  "\u2581wit": 5625,
  "ers": 5626,
  "\u00f5tta": 5627,
  "\u258143)": 5628,
  "\u2581Bweb\u00f5ta": 5629,
  "\u2581Gentiles": 5630,
  "\u2581Goliath": 5631,
  "\u2581Hope": 5632,
  "\u2581KAR": 5633,
  "\u2581Kajoor": 5634,
  "\u2581Kalmenlokjen": 5635,
  "\u2581Often": 5636,
  "\u2581Rem": 5637,
  "\u2581Spain": 5638,
  "\u2581Sunday": 5639,
  "\u2581extraordinary": 5640,
  "\u2581famine": 5641,
  "\u2581ja": 5642,
  "\u2581kakajiririk": 5643,
  "\u2581k\u00f5jparoke": 5644,
  "\u2581lil": 5645,
  "\u2581mwiliir": 5646,
  "\u2581noje": 5647,
  "\u2581object": 5648,
  "\u2581officials": 5649,
  "\u2581printed": 5650,
  "\u2581rejejjet": 5651,
  "\u2581repeated": 5652,
  "\u2581unfaithful": 5653,
  "\u2581virtue": 5654,
  "By": 5655,
  "Ex": 5656,
  "\u00f5di": 5657,
  "\u00f5ttaer": 5658,
  "\u25811950": 5659,
  "\u2581GOD": 5660,
  "\u2581Ial": 5661,
  "\u2581Lukku": 5662,
  "\u2581Reflect": 5663,
  "\u2581Report": 5664,
  "\u2581aged": 5665,
  "\u2581associations": 5666,
  "\u2581belongings": 5667,
  "\u2581bred": 5668,
  "\u2581brij": 5669,
  "\u2581declaration": 5670,
  "\u2581emej": 5671,
  "\u2581fled": 5672,
  "\u2581kili": 5673,
  "\u2581labor": 5674,
  "\u2581lips": 5675,
  "\u2581lojet": 5676,
  "\u2581miss": 5677,
  "\u2581prejudice": 5678,
  "\u2581remour": 5679,
  "\u2581respects": 5680,
  "\u2581resurrect": 5681,
  "\u2581returning": 5682,
  "\u2581rock": 5683,
  "\u2581rueir": 5684,
  "\u2581sinner": 5685,
  "\u2581suddenly": 5686,
  "einw\u00f5t": 5687,
  "\u2581Ireland": 5688,
  "\u2581Jas": 5689,
  "\u2581KEIN": 5690,
  "\u2581Low\u00f5j": 5691,
  "\u2581agreed": 5692,
  "\u2581apostasy": 5693,
  "\u2581apostates": 5694,
  "\u2581bound": 5695,
  "\u2581bow": 5696,
  "\u2581exciting": 5697,
  "\u2581glorified": 5698,
  "\u2581jekron": 5699,
  "\u2581jem\u00f5m": 5700,
  "\u2581jokwane": 5701,
  "\u2581kejam": 5702,
  "\u2581namely": 5703,
  "\u2581necessarily": 5704,
  "\u2581obstacles": 5705,
  "\u2581olive": 5706,
  "\u2581otherwise": 5707,
  "\u2581prospects": 5708,
  "\u2581rebu\u00f1bu\u00f1": 5709,
  "\u2581refrain": 5710,
  "\u2581r\u0169kaki": 5711,
  "\u2581translations": 5712,
  "Em": 5713,
  "JUON": 5714,
  "W\u00f5n": 5715,
  "\u25811995": 5716,
  "\u2581Eklejia": 5717,
  "\u2581JU\u00d5N": 5718,
  "\u2581January": 5719,
  "\u2581Pentekost": 5720,
  "\u2581Speaking": 5721,
  "\u2581admit": 5722,
  "\u2581dying": 5723,
  "\u2581ellolo": 5724,
  "\u2581kabuk\u00f5t": 5725,
  "\u2581kammineneik": 5726,
  "\u2581kilin": 5727,
  "\u2581lamij": 5728,
  "\u2581looks": 5729,
  "\u2581nearby": 5730,
  "\u2581reads": 5731,
  "\u2581relaplok": 5732,
  "\u2581retao": 5733,
  "\u2581ruled": 5734,
  "\u2581testimony": 5735,
  "\u2581t\u00f5maki": 5736,
  "Kim": 5737,
  "ine": 5738,
  "lal": 5739,
  "\u00f5ttam": 5740,
  "\u2581Reign": 5741,
  "\u2581acquainted": 5742,
  "\u2581adopted": 5743,
  "\u2581akwail": 5744,
  "\u2581arrival": 5745,
  "\u2581broke": 5746,
  "\u2581chariot": 5747,
  "\u2581citizens": 5748,
  "\u2581continually": 5749,
  "\u2581crown": 5750,
  "\u2581except": 5751,
  "\u2581huge": 5752,
  "\u2581imperfections": 5753,
  "\u2581jeni": 5754,
  "\u2581kamadm\u00f5d": 5755,
  "\u2581keboje": 5756,
  "\u2581mejelan": 5757,
  "\u2581moon": 5758,
  "\u2581partner": 5759,
  "\u2581rem\u00f5ntata": 5760,
  "\u2581ruruwe": 5761,
  "\u2581r\u0169k\u00f5jdat": 5762,
  "\u2581scale": 5763,
  "\u2581stumble": 5764,
  "\u2581valid": 5765,
  "JK": 5766,
  "min": 5767,
  "new": 5768,
  "ver": 5769,
  "\u25811999": 5770,
  "\u2581Esa": 5771,
  "\u2581Likely": 5772,
  "\u2581Melele": 5773,
  "\u2581Ruler": 5774,
  "\u2581R\u0169k\u00f5m": 5775,
  "\u2581Thessalonica": 5776,
  "\u2581anna\u00f1": 5777,
  "\u2581avoided": 5778,
  "\u2581b": 5779,
  "\u2581bride": 5780,
  "\u2581captivity": 5781,
  "\u2581comforted": 5782,
  "\u2581covered": 5783,
  "\u2581deeper": 5784,
  "\u2581discouragement": 5785,
  "\u2581ekj\u00f5p": 5786,
  "\u2581erik": 5787,
  "\u2581gaining": 5788,
  "\u2581garments": 5789,
  "\u2581illustrated": 5790,
  "\u2581ineem": 5791,
  "\u2581jab\u00f5t": 5792,
  "\u2581kapen": 5793,
  "\u2581kinaak": 5794,
  "\u2581kobaiki": 5795,
  "\u2581lali": 5796,
  "\u2581mine": 5797,
  "\u2581m\u00f5ttam": 5798,
  "\u2581naetair": 5799,
  "\u2581rewards": 5800,
  "\u2581ridicule": 5801,
  "\u2581terrible": 5802,
  "537": 5803,
  "ilu": 5804,
  "\u00e3ik": 5805,
  "\u2581300": 5806,
  "\u2581Ajri": 5807,
  "\u2581Armagedon": 5808,
  "\u2581Baptais": 5809,
  "\u2581Guam": 5810,
  "\u2581Kana": 5811,
  "\u2581RI": 5812,
  "\u2581Truth": 5813,
  "\u2581aolepeir": 5814,
  "\u2581binej": 5815,
  "\u2581b\u00f5klik\u00f5t": 5816,
  "\u2581contained": 5817,
  "\u2581everywhere": 5818,
  "\u2581feed": 5819,
  "\u2581hated": 5820,
  "\u2581jimettan": 5821,
  "\u2581kabol": 5822,
  "\u2581kamineneik": 5823,
  "\u2581kwuli": 5824,
  "\u2581k\u00e3liklik": 5825,
  "\u2581quiet": 5826,
  "\u2581quit": 5827,
  "\u2581replaced": 5828,
  "\u2581satisfy": 5829,
  "\u2581spending": 5830,
  "\u2581surface": 5831,
  "Nan": 5832,
  "\u25811996": 5833,
  "\u258124;": 5834,
  "\u25816.)": 5835,
  "\u2581Above": 5836,
  "\u2581Colossae": 5837,
  "\u2581Ealikar": 5838,
  "\u2581Epr\u00f5l": 5839,
  "\u2581Judge": 5840,
  "\u2581MOUR": 5841,
  "\u2581amazing": 5842,
  "\u2581damage": 5843,
  "\u2581dark": 5844,
  "\u2581eier": 5845,
  "\u2581fears": 5846,
  "\u2581happening": 5847,
  "\u2581j\u00e3ni": 5848,
  "\u2581kala\u00f1li\u00f1": 5849,
  "\u2581kingship": 5850,
  "\u2581materially": 5851,
  "\u2581mejinede": 5852,
  "\u2581messages": 5853,
  "\u2581m\u00f5tar": 5854,
  "\u2581nejimi": 5855,
  "\u2581pictures": 5856,
  "\u2581rijerbal": 5857,
  "\u2581r\u0169k\u00f5m": 5858,
  "\u2581silent": 5859,
  "\u2581sincerely": 5860,
  "\u2581sold": 5861,
  "\u2581tempered": 5862,
  "Aolep": 5863,
  "Jem": 5864,
  "but": 5865,
  "go": 5866,
  "kien": 5867,
  "\u00d5N": 5868,
  "\u258111]": 5869,
  "\u258143,": 5870,
  "\u258163": 5871,
  "\u2581Col": 5872,
  "\u2581Find": 5873,
  "\u2581Gomorrah": 5874,
  "\u2581Ibwilji": 5875,
  "\u2581Jejj": 5876,
  "\u2581Making": 5877,
  "\u2581Numbers": 5878,
  "\u2581accompany": 5879,
  "\u2581billions": 5880,
  "\u2581cloud": 5881,
  "\u2581delay": 5882,
  "\u2581ekijkan": 5883,
  "\u2581emphasized": 5884,
  "\u2581empire": 5885,
  "\u2581ep\u00e3d": 5886,
  "\u2581eta": 5887,
  "\u2581execute": 5888,
  "\u2581exile": 5889,
  "\u2581fathers": 5890,
  "\u2581kejel\u00e3": 5891,
  "\u2581kejem": 5892,
  "\u2581kiru": 5893,
  "\u2581letoke": 5894,
  "\u2581pity": 5895,
  "\u2581reasoned": 5896,
  "\u2581temper": 5897,
  "\u2581witnessed": 5898,
  "aaktok": 5899,
  "aiki": 5900,
  "angelic": 5901,
  "\u00f1oul": 5902,
  "\u2581130": 5903,
  "\u25811998": 5904,
  "\u2581Close": 5905,
  "\u2581DO": 5906,
  "\u2581Ekaburom\u00f5jm\u00f5j": 5907,
  "\u2581Human": 5908,
  "\u2581Meletlet": 5909,
  "\u2581Mijak": 5910,
  "\u2581Parisi": 5911,
  "\u2581Says": 5912,
  "\u2581assume": 5913,
  "\u2581birds": 5914,
  "\u2581covering": 5915,
  "\u2581deceived": 5916,
  "\u2581diw\u00f5j": 5917,
  "\u2581elements": 5918,
  "\u2581favorably": 5919,
  "\u2581heirs": 5920,
  "\u2581horse": 5921,
  "\u2581jei\u0169": 5922,
  "\u2581jua": 5923,
  "\u2581kajeblak": 5924,
  "\u2581karuwaineneik": 5925,
  "\u2581k\u00f5baatat": 5926,
  "\u2581rebwid": 5927,
  "\u2581refreshment": 5928,
  "\u2581safety": 5929,
  "\u2581shield": 5930,
  "\u2581site": 5931,
  "\u2581texts": 5932,
  "\u2581unexpected": 5933,
  "\u2581unwise": 5934,
  "\u2581won": 5935,
  "Armij": 5936,
  "\u258148.": 5937,
  "\u258171": 5938,
  "\u2581Additional": 5939,
  "\u2581Death": 5940,
  "\u2581Ehab": 5941,
  "\u2581E\u00f5": 5942,
  "\u2581FOR": 5943,
  "\u2581Ja": 5944,
  "\u2581Jericho": 5945,
  "\u2581Nazareth": 5946,
  "\u2581Pray": 5947,
  "\u2581Ro\u00f1jake": 5948,
  "\u2581Zekaraia": 5949,
  "\u2581apostate": 5950,
  "\u2581atmosphere": 5951,
  "\u2581ejejuan": 5952,
  "\u2581ejela": 5953,
  "\u2581ekijo\u00f1": 5954,
  "\u2581embrace": 5955,
  "\u2581forefathers": 5956,
  "\u2581jad\u00f5r": 5957,
  "\u2581k\u00f5k\u00e3t\u00f5k": 5958,
  "\u2581lejokmen": 5959,
  "\u2581mad": 5960,
  "\u2581reel": 5961,
  "\u2581remweie": 5962,
  "\u2581sanctified": 5963,
  "\u2581solve": 5964,
  "\u2581talents": 5965,
  "\u2581tend": 5966,
  "Ear": 5967,
  "Em\u00f5n\u00f5n\u00f5": 5968,
  "do": 5969,
  "et": 5970,
  "jet": 5971,
  "l\u00f5l": 5972,
  "weer": 5973,
  "\u00f1o": 5974,
  "\u2581147": 5975,
  "\u25813]": 5976,
  "\u258147.": 5977,
  "\u258159": 5978,
  "\u2581Agrippa": 5979,
  "\u2581Iden": 5980,
  "\u2581Inok": 5981,
  "\u2581Jel\u00e3lokjen": 5982,
  "\u2581Kate": 5983,
  "\u2581Kijenmij": 5984,
  "\u2581Poland": 5985,
  "\u2581Rutherford": 5986,
  "\u2581Year": 5987,
  "\u2581card": 5988,
  "\u2581commissioned": 5989,
  "\u2581crushed": 5990,
  "\u2581deserve": 5991,
  "\u2581development": 5992,
  "\u2581faces": 5993,
  "\u2581fish": 5994,
  "\u2581gatherings": 5995,
  "\u2581goats": 5996,
  "\u2581gracious": 5997,
  "\u2581hunger": 5998,
  "\u2581jatier": 5999,
  "\u2581k\u00f5ma": 6000,
  "\u2581melan": 6001,
  "\u2581oppression": 6002,
  "\u2581partake": 6003,
  "\u2581philosophy": 6004,
  "\u2581phone": 6005,
  "\u2581previously": 6006,
  "\u2581prosperity": 6007,
  "\u2581proves": 6008,
  "\u2581running": 6009,
  "\u2581searching": 6010,
  "\u2581survived": 6011,
  "\u2581urgent": 6012,
  "Bwinbwin": 6013,
  "no": 6014,
  "nointed": 6015,
  "tata": 6016,
  "\u25812014": 6017,
  "\u258142)": 6018,
  "\u2581Ahaz": 6019,
  "\u2581Ikijjeen": 6020,
  "\u2581Jib\u00f5\u00f1": 6021,
  "\u2581Jo\u00f1a": 6022,
  "\u2581Use": 6023,
  "\u2581afflicted": 6024,
  "\u2581annual": 6025,
  "\u2581aur\u00f5kin": 6026,
  "\u2581cherish": 6027,
  "\u2581customs": 6028,
  "\u2581defense": 6029,
  "\u2581engaged": 6030,
  "\u2581examination": 6031,
  "\u2581hide": 6032,
  "\u2581honesthearted": 6033,
  "\u2581ilujen": 6034,
  "\u2581jenkwon": 6035,
  "\u2581jeram": 6036,
  "\u2581je\u00f5m": 6037,
  "\u2581jibarek": 6038,
  "\u2581kabbed": 6039,
  "\u2581keie": 6040,
  "\u2581kwonan": 6041,
  "\u2581lift": 6042,
  "\u2581linked": 6043,
  "\u2581passage": 6044,
  "\u2581rejel\u00e3": 6045,
  "\u2581snare": 6046,
  "\u2581spouse": 6047,
  "\u2581stories": 6048,
  "\u2581thereby": 6049,
  "\u2581undergo": 6050,
  "\u2581widows": 6051,
  "jelok": 6052,
  "\u2581145": 6053,
  "\u25811930": 6054,
  "\u2581Consequently": 6055,
  "\u2581Lelok": 6056,
  "\u2581London": 6057,
  "\u2581Nana": 6058,
  "\u2581State": 6059,
  "\u2581Teacher": 6060,
  "\u2581belonging": 6061,
  "\u2581bukwi": 6062,
  "\u2581claimed": 6063,
  "\u2581disposed": 6064,
  "\u2581ejitenburu": 6065,
  "\u2581ekam\u00f5n\u00f5n\u00f5": 6066,
  "\u2581etaer": 6067,
  "\u2581gross": 6068,
  "\u2581hardly": 6069,
  "\u2581holiness": 6070,
  "\u2581jibuki": 6071,
  "\u2581judging": 6072,
  "\u2581kak\u00f5le": 6073,
  "\u2581ongoing": 6074,
  "\u2581overwhelmed": 6075,
  "\u2581peer": 6076,
  "\u2581pick": 6077,
  "\u2581pijaiki": 6078,
  "\u2581rekin": 6079,
  "\u2581r\u00e3jet": 6080,
  "\u2581sowing": 6081,
  "\u2581strike": 6082,
  "\u2581weekly": 6083,
  "\u2581weep": 6084,
  "Christ": 6085,
  "ail": 6086,
  "ch": 6087,
  "ism": 6088,
  "ktok": 6089,
  "\u25812001": 6090,
  "\u258140)": 6091,
  "\u258145,": 6092,
  "\u258168": 6093,
  "\u2581Apollos": 6094,
  "\u2581Bu": 6095,
  "\u2581Certainly": 6096,
  "\u2581Especially": 6097,
  "\u2581Eutiejtata": 6098,
  "\u2581Jet\u00f5b": 6099,
  "\u2581Jonetan": 6100,
  "\u2581Red": 6101,
  "\u2581Were": 6102,
  "\u2581alcoholic": 6103,
  "\u2581arose": 6104,
  "\u2581awe": 6105,
  "\u2581deepen": 6106,
  "\u2581drike": 6107,
  "\u2581errors": 6108,
  "\u2581ettoon": 6109,
  "\u2581ett\u00f5nak": 6110,
  "\u2581expose": 6111,
  "\u2581handling": 6112,
  "\u2581historical": 6113,
  "\u2581island": 6114,
  "\u2581judicial": 6115,
  "\u2581kadiojlok": 6116,
  "\u2581kajime": 6117,
  "\u2581kalora": 6118,
  "\u2581lojen": 6119,
  "\u2581mejed": 6120,
  "\u2581preparation": 6121,
  "\u2581receives": 6122,
  "\u2581r\u0169kkatak": 6123,
  "\u2581shame": 6124,
  "\u2581turid": 6125,
  "\u2581understands": 6126,
  "AGE": 6127,
  "il": 6128,
  "proving": 6129,
  "\u2581Abigail": 6130,
  "\u2581Christlike": 6131,
  "\u2581Purpose": 6132,
  "\u2581Relap": 6133,
  "\u2581Sanhedrin": 6134,
  "\u2581Silas": 6135,
  "\u2581Sisera": 6136,
  "\u2581Spanish": 6137,
  "\u2581W\u00f5nmanlok": 6138,
  "\u2581bedbedin": 6139,
  "\u2581conquered": 6140,
  "\u2581eddeb": 6141,
  "\u2581ejaakin": 6142,
  "\u2581finished": 6143,
  "\u2581frequently": 6144,
  "\u2581generally": 6145,
  "\u2581jinekjej": 6146,
  "\u2581kadrek": 6147,
  "\u2581kelwan": 6148,
  "\u2581kiblie": 6149,
  "\u2581kijone": 6150,
  "\u2581kunam": 6151,
  "\u2581leadership": 6152,
  "\u2581liakelok": 6153,
  "\u2581maintained": 6154,
  "\u2581northern": 6155,
  "\u2581opinion": 6156,
  "\u2581origin": 6157,
  "\u2581pleasures": 6158,
  "\u2581saving": 6159,
  "\u2581standpoint": 6160,
  "\u2581supplies": 6161,
  "\u2581surrounding": 6162,
  "\u2581thorough": 6163,
  "\u2581weigh": 6164,
  "aantak": 6165,
  "rej": 6166,
  "\u258146.": 6167,
  "\u2581Baam": 6168,
  "\u2581Jo\u00f1oul": 6169,
  "\u2581Ra": 6170,
  "\u2581Up": 6171,
  "\u2581Which": 6172,
  "\u2581admits": 6173,
  "\u2581b\u00f5r": 6174,
  "\u2581charge": 6175,
  "\u2581chaste": 6176,
  "\u2581check": 6177,
  "\u2581depressed": 6178,
  "\u2581dikdik": 6179,
  "\u2581dimon": 6180,
  "\u2581disappointed": 6181,
  "\u2581enhance": 6182,
  "\u2581flood": 6183,
  "\u2581govern": 6184,
  "\u2581jakolok": 6185,
  "\u2581kabwijr\u00f5k": 6186,
  "\u2581k\u00f5do": 6187,
  "\u2581l\u0169p": 6188,
  "\u2581najidik": 6189,
  "\u2581nejim": 6190,
  "\u2581oktan": 6191,
  "\u2581ordered": 6192,
  "\u2581outcry": 6193,
  "\u2581parallel": 6194,
  "\u2581participate": 6195,
  "\u2581practicing": 6196,
  "\u2581proclaiming": 6197,
  "\u2581project": 6198,
  "\u2581select": 6199,
  "\u2581stayed": 6200,
  "\u2581submissive": 6201,
  "\u2581watching": 6202,
  "...,": 6203,
  "\u2581133": 6204,
  "\u2581Antioch": 6205,
  "\u2581Bebe": 6206,
  "\u2581Elihu": 6207,
  "\u2581Ever": 6208,
  "\u2581Haran": 6209,
  "\u2581Kile": 6210,
  "\u2581Knowing": 6211,
  "\u2581MAT": 6212,
  "\u2581Maintain": 6213,
  "\u2581William": 6214,
  "\u2581accompanie": 6215,
  "\u2581arkool": 6216,
  "\u2581arms": 6217,
  "\u2581capable": 6218,
  "\u2581chance": 6219,
  "\u2581commendation": 6220,
  "\u2581comparison": 6221,
  "\u2581cooperate": 6222,
  "\u2581em\u00f5kaj": 6223,
  "\u2581ensure": 6224,
  "\u2581immediate": 6225,
  "\u2581jined": 6226,
  "\u2581k\u00f5t\u00f5bar": 6227,
  "\u2581k\u00f5t\u00f5r\u00e3i": 6228,
  "\u2581mej\u00f5m": 6229,
  "\u2581openly": 6230,
  "\u2581outlook": 6231,
  "\u2581played": 6232,
  "\u2581reserved": 6233,
  "\u2581solution": 6234,
  "\u2581storm": 6235,
  "\u2581stumbling": 6236,
  "\u2581sufficient": 6237,
  "\u2581totally": 6238,
  "\u25cf": 6239,
  "Re": 6240,
  "dia": 6241,
  "ish": 6242,
  "\u258141.": 6243,
  "\u2581Cornelius": 6244,
  "\u2581Happiness": 6245,
  "\u2581Jepta": 6246,
  "\u2581Kijoone": 6247,
  "\u2581North": 6248,
  "\u2581Point": 6249,
  "\u2581Simon": 6250,
  "\u2581Tarinae": 6251,
  "\u2581arrives": 6252,
  "\u2581commended": 6253,
  "\u2581extra": 6254,
  "\u2581favorable": 6255,
  "\u2581friendships": 6256,
  "\u2581highlight": 6257,
  "\u2581hopes": 6258,
  "\u2581iaikwij": 6259,
  "\u2581illustrates": 6260,
  "\u2581immortality": 6261,
  "\u2581mass": 6262,
  "\u2581obvious": 6263,
  "\u2581produces": 6264,
  "\u2581spite": 6265,
  "\u2581theme": 6266,
  "\u2581tract": 6267,
  "\u2581utterance": 6268,
  "\u2581weeds": 6269,
  "\u2581wiaiki": 6270,
  "ES": 6271,
  "aki": 6272,
  "h": 6273,
  "odrikdrik": 6274,
  "\u00f1e": 6275,
  "\u00f1\u00f5n": 6276,
  "\u2581150": 6277,
  "\u258125]": 6278,
  "\u2581Aquila": 6279,
  "\u2581JOHN": 6280,
  "\u2581Lam": 6281,
  "\u2581Next": 6282,
  "\u2581Sabat": 6283,
  "\u2581awaiting": 6284,
  "\u2581bilo": 6285,
  "\u2581comfortable": 6286,
  "\u2581desired": 6287,
  "\u2581generosity": 6288,
  "\u2581heal": 6289,
  "\u2581ilobwilij": 6290,
  "\u2581intimate": 6291,
  "\u2581katt\u00f5r": 6292,
  "\u2581ki": 6293,
  "\u2581losing": 6294,
  "\u2581mimij": 6295,
  "\u2581minded": 6296,
  "\u2581orair": 6297,
  "\u2581street": 6298,
  "\u2581turns": 6299,
  "\u2581w\u00f5tlok": 6300,
  "Why": 6301,
  "ard": 6302,
  "doubtedly": 6303,
  "ejelok": 6304,
  "ll": 6305,
  "\u2581COR": 6306,
  "\u2581Dr": 6307,
  "\u2581Jehoash": 6308,
  "\u2581Jinen": 6309,
  "\u2581Kajerbal": 6310,
  "\u2581Oktoba": 6311,
  "\u2581Pat": 6312,
  "\u2581Septuagint": 6313,
  "\u2581Tellok": 6314,
  "\u2581View": 6315,
  "\u2581achieve": 6316,
  "\u2581advanced": 6317,
  "\u2581afford": 6318,
  "\u2581ashamed": 6319,
  "\u2581centered": 6320,
  "\u2581cleansed": 6321,
  "\u2581compromise": 6322,
  "\u2581contribution": 6323,
  "\u2581developments": 6324,
  "\u2581edition": 6325,
  "\u2581ekaburom\u00f5jm\u00f5j": 6326,
  "\u2581equipped": 6327,
  "\u2581etino": 6328,
  "\u2581fields": 6329,
  "\u2581kajjio\u00f1e": 6330,
  "\u2581kamwijlok": 6331,
  "\u2581komiro": 6332,
  "\u2581kw": 6333,
  "\u2581positions": 6334,
  "\u2581rejetan": 6335,
  "\u2581respectful": 6336,
  "\u2581ruj": 6337,
  "\u2581salt": 6338,
  "\u2581scholars": 6339,
  "\u2581seeming": 6340,
  "\u2581types": 6341,
  "Kolosse": 6342,
  "Y": 6343,
  "ijone": 6344,
  "ted": 6345,
  "\u2581(4)": 6346,
  "\u25812.)": 6347,
  "\u258140,": 6348,
  "\u2581Again": 6349,
  "\u2581Become": 6350,
  "\u2581Ek\u00e3l": 6351,
  "\u2581Hitler": 6352,
  "\u2581Imitate": 6353,
  "\u2581Jah": 6354,
  "\u2581Psalms": 6355,
  "\u2581Samson": 6356,
  "\u2581Tes": 6357,
  "\u2581accused": 6358,
  "\u2581agreement": 6359,
  "\u2581anna\u00f1elok": 6360,
  "\u2581armor": 6361,
  "\u2581blame": 6362,
  "\u2581capacity": 6363,
  "\u2581composed": 6364,
  "\u2581conquer": 6365,
  "\u2581deception": 6366,
  "\u2581depict": 6367,
  "\u2581discussions": 6368,
  "\u2581distressing": 6369,
  "\u2581duties": 6370,
  "\u2581hypocrisy": 6371,
  "\u2581initial": 6372,
  "\u2581kabuk": 6373,
  "\u2581kemj\u00e3je": 6374,
  "\u2581lam": 6375,
  "\u2581limits": 6376,
  "\u2581merit": 6377,
  "\u2581nanalok": 6378,
  "\u2581nukiir": 6379,
  "\u2581paths": 6380,
  "\u2581perfectly": 6381,
  "\u2581proclaimed": 6382,
  "\u2581sorrow": 6383,
  "\u2581specifically": 6384,
  "\u2581struggling": 6385,
  "\u2581succumb": 6386,
  "Kol": 6387,
  "Pil": 6388,
  "apter": 6389,
  "by": 6390,
  "gifts": 6391,
  "wilal": 6392,
  "\u2581Baamle": 6393,
  "\u2581Ekajur": 6394,
  "\u2581Greater": 6395,
  "\u2581Millions": 6396,
  "\u2581Regardless": 6397,
  "\u2581adult": 6398,
  "\u2581counseled": 6399,
  "\u2581deceptive": 6400,
  "\u2581east": 6401,
  "\u2581emakijkij": 6402,
  "\u2581ethnic": 6403,
  "\u2581exchange": 6404,
  "\u2581fault": 6405,
  "\u2581heartwarming": 6406,
  "\u2581helper": 6407,
  "\u2581hesitate": 6408,
  "\u2581highlighted": 6409,
  "\u2581improper": 6410,
  "\u2581jelm": 6411,
  "\u2581kajettokjen": 6412,
  "\u2581kamad": 6413,
  "\u2581kamarmire": 6414,
  "\u2581kamelim": 6415,
  "\u2581kwok\u00f5nan": 6416,
  "\u2581leaves": 6417,
  "\u2581murder": 6418,
  "\u2581officer": 6419,
  "\u2581phrase": 6420,
  "\u2581planning": 6421,
  "\u2581scribes": 6422,
  "\u2581smoking": 6423,
  "\u2581statements": 6424,
  "\u2581suggests": 6425,
  "\u2581trap": 6426,
  "\u2581unusual": 6427,
  "\u2581urur": 6428,
  "\u2581voluntary": 6429,
  "\u2581wanli\u00f1lok": 6430,
  "\u2581\u00c3ne": 6431,
  "ING": 6432,
  "alem": 6433,
  "kar": 6434,
  "oole": 6435,
  "\u2581400": 6436,
  "\u2581Empire": 6437,
  "\u2581Karejar": 6438,
  "\u2581Near": 6439,
  "\u2581T\u00f5l": 6440,
  "\u2581WHEN": 6441,
  "\u2581aituer\u00f5k": 6442,
  "\u2581catch": 6443,
  "\u2581considerable": 6444,
  "\u2581depression": 6445,
  "\u2581disposition": 6446,
  "\u2581ekin": 6447,
  "\u2581emweie": 6448,
  "\u2581exemplary": 6449,
  "\u2581foot": 6450,
  "\u2581fourth": 6451,
  "\u2581greatness": 6452,
  "\u2581kai\u00f1": 6453,
  "\u2581kemjalal": 6454,
  "\u2581k\u00f5t\u00f5brake": 6455,
  "\u2581mwijmwij": 6456,
  "\u2581nut": 6457,
  "\u2581periods": 6458,
  "\u2581pijen": 6459,
  "\u2581prayerful": 6460,
  "\u2581prior": 6461,
  "\u2581strongly": 6462,
  "\u2581talks": 6463,
  "\u2581timely": 6464,
  "\u2581top": 6465,
  "\u2581vine": 6466,
  "Keidi": 6467,
  "K\u00f5m": 6468,
  "kw\u00f5t": 6469,
  "olul": 6470,
  "pe": 6471,
  "\u258112]": 6472,
  "\u2581148": 6473,
  "\u258114]": 6474,
  "\u25811990": 6475,
  "\u25812007": 6476,
  "\u2581Highlight": 6477,
  "\u2581Jin\u00f5": 6478,
  "\u2581Mother": 6479,
  "\u2581Oktak": 6480,
  "\u2581Protestant": 6481,
  "\u2581Ten": 6482,
  "\u2581afterward": 6483,
  "\u2581captive": 6484,
  "\u2581civil": 6485,
  "\u2581claims": 6486,
  "\u2581difficulty": 6487,
  "\u2581distinguish": 6488,
  "\u2581dru": 6489,
  "\u2581expectations": 6490,
  "\u2581fig": 6491,
  "\u2581foremost": 6492,
  "\u2581homeland": 6493,
  "\u2581impart": 6494,
  "\u2581individually": 6495,
  "\u2581kapeel": 6496,
  "\u2581kememe": 6497,
  "\u2581kool": 6498,
  "\u2581leaven": 6499,
  "\u2581minute": 6500,
  "\u2581neglect": 6501,
  "\u2581opinions": 6502,
  "\u2581pa": 6503,
  "\u2581realistic": 6504,
  "\u2581rokwojarjar": 6505,
  "\u2581scientists": 6506,
  "\u2581settle": 6507,
  "\u2581shadow": 6508,
  "\u2581sitting": 6509,
  "\u2581sole": 6510,
  "\u2581stones": 6511,
  "\u2581theocracy": 6512,
  "\u2581trustworthy": 6513,
  "\u2581virgins": 6514,
  "\u2581weaken": 6515,
  "\u2581\u00e3neo": 6516,
  "Me\u00f1e": 6517,
  "they": 6518,
  "\u258175": 6519,
  "\u2581Andrew": 6520,
  "\u2581Back": 6521,
  "\u2581Divine": 6522,
  "\u2581East": 6523,
  "\u2581Le": 6524,
  "\u2581Yearbook": 6525,
  "\u2581ajl": 6526,
  "\u2581aujiid": 6527,
  "\u2581bones": 6528,
  "\u2581consist": 6529,
  "\u2581emphasize": 6530,
  "\u2581endless": 6531,
  "\u2581entering": 6532,
  "\u2581hoped": 6533,
  "\u2581hoping": 6534,
  "\u2581hurtful": 6535,
  "\u2581instruct": 6536,
  "\u2581intelligent": 6537,
  "\u2581jikiir": 6538,
  "\u2581kajjirere": 6539,
  "\u2581kajuju": 6540,
  "\u2581kaor\u00f5ki": 6541,
  "\u2581kow\u00e3ppen": 6542,
  "\u2581lawlessness": 6543,
  "\u2581meja": 6544,
  "\u2581method": 6545,
  "\u2581mothers": 6546,
  "\u2581neutrality": 6547,
  "\u2581n\u00f5bare": 6548,
  "\u2581occurs": 6549,
  "\u2581originate": 6550,
  "\u2581peers": 6551,
  "\u2581respecting": 6552,
  "\u2581rob": 6553,
  "\u2581surprising": 6554,
  "\u2581synagogue": 6555,
  "\u2581tradition": 6556,
  "\u2581visions": 6557,
  "\u2581whenever": 6558,
  "tt\u00e3": 6559,
  "ward": 6560,
  "wor": 6561,
  "\u00d5T": 6562,
  "\u00e3j": 6563,
  "\u00f5katip": 6564,
  "\u25811993": 6565,
  "\u258121.)": 6566,
  "\u2581Bethlehem": 6567,
  "\u2581Egyptians": 6568,
  "\u2581Gospels": 6569,
  "\u2581Hanna": 6570,
  "\u2581Josephus": 6571,
  "\u2581Much": 6572,
  "\u2581Put": 6573,
  "\u2581Review": 6574,
  "\u2581Samaritan": 6575,
  "\u2581Temple": 6576,
  "\u2581Three": 6577,
  "\u2581Trust": 6578,
  "\u2581Whom": 6579,
  "\u2581alw\u00f5ji": 6580,
  "\u2581constitute": 6581,
  "\u2581contemplate": 6582,
  "\u2581cow": 6583,
  "\u2581ekeie": 6584,
  "\u2581em\u00f5n\u00f5n\u00f5": 6585,
  "\u2581exercises": 6586,
  "\u2581falling": 6587,
  "\u2581fed": 6588,
  "\u2581foreigners": 6589,
  "\u2581fresh": 6590,
  "\u2581hungry": 6591,
  "\u2581imad": 6592,
  "\u2581jerwane": 6593,
  "\u2581j\u00e3ti\u00f5": 6594,
  "\u2581kamo": 6595,
  "\u2581k\u00f5k\u00e3le": 6596,
  "\u2581locust": 6597,
  "\u2581measures": 6598,
  "\u2581overwhelming": 6599,
  "\u2581perceive": 6600,
  "\u2581promoted": 6601,
  "\u2581sacrificial": 6602,
  "\u2581services": 6603,
  "\u2581shepherding": 6604,
  "\u2581ship": 6605,
  "\u2581symbol": 6606,
  "\u2581teenager": 6607,
  "\u2581tellokiir": 6608,
  "\u2581territories": 6609,
  "\u2581tragic": 6610,
  "\u2581truthfulness": 6611,
  "\u2581ukoktak": 6612,
  "\u2581unbelievers": 6613,
  "\u2581unselfish": 6614,
  "\u2581weapons": 6615,
  "\u2581wood": 6616,
  "Kwoj": 6617,
  "areik": 6618,
  "aruon": 6619,
  "ce": 6620,
  "ius": 6621,
  "of": 6622,
  "\u25811922": 6623,
  "\u2581Dead": 6624,
  "\u2581Describe": 6625,
  "\u2581Far": 6626,
  "\u2581George": 6627,
  "\u2581Ijin": 6628,
  "\u2581Pil": 6629,
  "\u2581Rebeka": 6630,
  "\u2581Sameria": 6631,
  "\u2581Tokj\u00e3": 6632,
  "\u2581W\u00c3WEEN": 6633,
  "\u2581arrive": 6634,
  "\u2581associating": 6635,
  "\u2581begun": 6636,
  "\u2581belei\u00f5": 6637,
  "\u2581convince": 6638,
  "\u2581deserves": 6639,
  "\u2581drua": 6640,
  "\u2581drugs": 6641,
  "\u2581ek\u00f5m": 6642,
  "\u2581emblems": 6643,
  "\u2581forgotten": 6644,
  "\u2581gets": 6645,
  "\u2581greed": 6646,
  "\u2581hair": 6647,
  "\u2581honesty": 6648,
  "\u2581idols": 6649,
  "\u2581ilokan": 6650,
  "\u2581incident": 6651,
  "\u2581independence": 6652,
  "\u2581kadu": 6653,
  "\u2581kajjo": 6654,
  "\u2581kak\u00f5rmole": 6655,
  "\u2581kam\u00f5jnoik": 6656,
  "\u2581kwonad": 6657,
  "\u2581kwote": 6658,
  "\u2581lejen": 6659,
  "\u2581morality": 6660,
  "\u2581neutral": 6661,
  "\u2581producing": 6662,
  "\u2581sing": 6663,
  "\u2581stands": 6664,
  "\u2581unrepentant": 6665,
  "EAR": 6666,
  "With": 6667,
  "i\u00f1tan": 6668,
  "ka": 6669,
  "ty": 6670,
  "\u2581'!": 6671,
  "\u25812002": 6672,
  "\u25812015": 6673,
  "\u2581Babylonians": 6674,
  "\u2581Continue": 6675,
  "\u2581Etale": 6676,
  "\u2581Knorr": 6677,
  "\u2581PSALM": 6678,
  "\u2581Priscilla": 6679,
  "\u2581Republic": 6680,
  "\u2581bukwel": 6681,
  "\u2581burned": 6682,
  "\u2581childhood": 6683,
  "\u2581cried": 6684,
  "\u2581dedicate": 6685,
  "\u2581ekkeijak": 6686,
  "\u2581ellotan": 6687,
  "\u2581emphasis": 6688,
  "\u2581eowor": 6689,
  "\u2581ettolok": 6690,
  "\u2581host": 6691,
  "\u2581identifie": 6692,
  "\u2581imprisoned": 6693,
  "\u2581interesting": 6694,
  "\u2581joint": 6695,
  "\u2581kajut\u00f5k": 6696,
  "\u2581kalimjeke": 6697,
  "\u2581k\u00f5j\u00e3m": 6698,
  "\u2581passages": 6699,
  "\u2581pour": 6700,
  "\u2581prominence": 6701,
  "\u2581raanin": 6702,
  "\u2581recognition": 6703,
  "\u2581revealing": 6704,
  "\u2581silence": 6705,
  "\u2581tendencies": 6706,
  "\u2581walls": 6707,
  "\u2581wik": 6708,
  "air": 6709,
  "creasingly": 6710,
  "ies": 6711,
  "there": 6712,
  "\u00f5jenolo": 6713,
  "\u2581Articles": 6714,
  "\u2581Barak": 6715,
  "\u2581Bokake": 6716,
  "\u2581Drama": 6717,
  "\u2581Ethiopia": 6718,
  "\u2581Iso": 6719,
  "\u2581Jekob": 6720,
  "\u2581Kol": 6721,
  "\u2581Maika": 6722,
  "\u2581Right": 6723,
  "\u2581backgrounds": 6724,
  "\u2581bright": 6725,
  "\u2581b\u00f5kl\u00f5k\u00f5t": 6726,
  "\u2581changing": 6727,
  "\u2581clay": 6728,
  "\u2581current": 6729,
  "\u2581diligently": 6730,
  "\u2581enjoyable": 6731,
  "\u2581examining": 6732,
  "\u2581exclusive": 6733,
  "\u2581flow": 6734,
  "\u2581imitation": 6735,
  "\u2581jiro\u00f1lok": 6736,
  "\u2581keen": 6737,
  "\u2581k\u00f5jdat": 6738,
  "\u2581magnificent": 6739,
  "\u2581mentions": 6740,
  "\u2581messengers": 6741,
  "\u2581oversight": 6742,
  "\u2581plain": 6743,
  "\u2581playing": 6744,
  "\u2581rebel": 6745,
  "\u2581rej\u00f5kkar": 6746,
  "\u2581repented": 6747,
  "\u2581richly": 6748,
  "\u2581sat": 6749,
  "\u2581suitable": 6750,
  "\u2581wealthy": 6751,
  "Etke": 6752,
  "love": 6753,
  "ta": 6754,
  "\u25812003": 6755,
  "\u2581Etetal": 6756,
  "\u2581Eunice": 6757,
  "\u2581Evening": 6758,
  "\u2581February": 6759,
  "\u2581Hindu": 6760,
  "\u2581JEOVA": 6761,
  "\u2581Jab\u00f5t": 6762,
  "\u2581Marriage": 6763,
  "\u2581Meal": 6764,
  "\u2581Power": 6765,
  "\u2581aol": 6766,
  "\u2581bore": 6767,
  "\u2581disappointment": 6768,
  "\u2581elsewhere": 6769,
  "\u2581enjoyment": 6770,
  "\u2581fighting": 6771,
  "\u2581hinder": 6772,
  "\u2581historian": 6773,
  "\u2581idi\u00f1": 6774,
  "\u2581indication": 6775,
  "\u2581inspiration": 6776,
  "\u2581jekjekin": 6777,
  "\u2581jinekjij": 6778,
  "\u2581kanemkw\u00f5j": 6779,
  "\u2581kinds": 6780,
  "\u2581k\u00f5k\u00e3l": 6781,
  "\u2581location": 6782,
  "\u2581minutes": 6783,
  "\u2581perceptive": 6784,
  "\u2581petitions": 6785,
  "\u2581planet": 6786,
  "\u2581population": 6787,
  "\u2581preachers": 6788,
  "\u2581rerreo": 6789,
  "\u2581selected": 6790,
  "\u2581submission": 6791,
  "\u2581torlok": 6792,
  "?...": 6793,
  "El\u00f5\u00f1": 6794,
  "eiki": 6795,
  "irik": 6796,
  "me": 6797,
  "\u258111.)": 6798,
  "\u2581Accordingly": 6799,
  "\u2581Avoid": 6800,
  "\u2581Jer": 6801,
  "\u2581Jo\u00f1\u00f5n": 6802,
  "\u2581Judges": 6803,
  "\u2581Juun": 6804,
  "\u2581KOR": 6805,
  "\u2581Kemelele": 6806,
  "\u2581Melejo\u00f1": 6807,
  "\u2581Need": 6808,
  "\u2581Rem\u00f5n": 6809,
  "\u2581Within": 6810,
  "\u2581adversity": 6811,
  "\u2581appointment": 6812,
  "\u2581blesses": 6813,
  "\u2581conquest": 6814,
  "\u2581demands": 6815,
  "\u2581ejouj": 6816,
  "\u2581entirely": 6817,
  "\u2581explaining": 6818,
  "\u2581forgave": 6819,
  "\u2581garment": 6820,
  "\u2581gladly": 6821,
  "\u2581guarantee": 6822,
  "\u2581ignored": 6823,
  "\u2581implies": 6824,
  "\u2581intentions": 6825,
  "\u2581itak": 6826,
  "\u2581jit\u00f5\u00f1e": 6827,
  "\u2581kajit\u0169kin": 6828,
  "\u2581kw\u00f5jkw\u00f5j": 6829,
  "\u2581k\u00f5pooj": 6830,
  "\u2581missing": 6831,
  "\u2581practiced": 6832,
  "\u2581rinana": 6833,
  "\u2581station": 6834,
  "\u2581suggested": 6835,
  "\u2581tobacco": 6836,
  "\u2581unokan": 6837,
  "\u2581w\u00f5nmae": 6838,
  "\u2581yield": 6839,
  "K\u00f5tlok": 6840,
  "R": 6841,
  "ah": 6842,
  "f": 6843,
  "na": 6844,
  "pp": 6845,
  "working": 6846,
  "\u25812004": 6847,
  "\u258126]": 6848,
  "\u258178": 6849,
  "\u2581AM": 6850,
  "\u2581Erreo": 6851,
  "\u2581Friend": 6852,
  "\u2581Had": 6853,
  "\u2581Jatid": 6854,
  "\u2581Jemer": 6855,
  "\u2581Living": 6856,
  "\u2581Lystra": 6857,
  "\u2581Person": 6858,
  "\u2581ROM": 6859,
  "\u2581Try": 6860,
  "\u2581abusive": 6861,
  "\u2581admitted": 6862,
  "\u2581boldly": 6863,
  "\u2581boys": 6864,
  "\u2581cease": 6865,
  "\u2581devote": 6866,
  "\u2581eainem\u00f5n": 6867,
  "\u2581ememej": 6868,
  "\u2581eobr\u00f5k": 6869,
  "\u2581fier": 6870,
  "\u2581follows": 6871,
  "\u2581girls": 6872,
  "\u2581grows": 6873,
  "\u2581hears": 6874,
  "\u2581iaad": 6875,
  "\u2581kabwil\u00f5\u00f1": 6876,
  "\u2581kakobaik": 6877,
  "\u2581kal\u00f5\u00f1li\u00f1": 6878,
  "\u2581kaminene": 6879,
  "\u2581kejel\u00e3ik": 6880,
  "\u2581lein": 6881,
  "\u2581marriages": 6882,
  "\u2581mid": 6883,
  "\u2581mwilid": 6884,
  "\u2581participation": 6885,
  "\u2581performing": 6886,
  "\u2581pilaw\u00e3": 6887,
  "\u2581radio": 6888,
  "\u2581rebelled": 6889,
  "\u2581rejaro\u00f1ro\u00f1": 6890,
  "\u2581reka": 6891,
  "\u2581rekijejeto": 6892,
  "\u2581riael\u00f5\u00f1": 6893,
  "\u2581sa": 6894,
  "\u2581sharp": 6895,
  "\u2581sow": 6896,
  "\u2581stage": 6897,
  "\u2581tokj\u00e3er": 6898,
  "\u2581unscriptural": 6899,
  "ctively": 6900,
  "from": 6901,
  "l\u00f5\u00f1": 6902,
  "\u25811935": 6903,
  "\u2581ARTICLES": 6904,
  "\u2581Chron": 6905,
  "\u2581Deborah": 6906,
  "\u2581Em\u00f5n\u00f5n\u00f5": 6907,
  "\u2581Everyone": 6908,
  "\u2581Jesse": 6909,
  "\u2581Joy": 6910,
  "\u2581J\u00c3N": 6911,
  "\u2581Kaji": 6912,
  "\u2581K\u00f5mar": 6913,
  "\u2581Please": 6914,
  "\u2581Potiphar": 6915,
  "\u2581Rule": 6916,
  "\u2581Sa\u00fal": 6917,
  "\u2581access": 6918,
  "\u2581ages": 6919,
  "\u2581ankwonak": 6920,
  "\u2581central": 6921,
  "\u2581cooperation": 6922,
  "\u2581correction": 6923,
  "\u2581creative": 6924,
  "\u2581desperate": 6925,
  "\u2581dishonor": 6926,
  "\u2581dry": 6927,
  "\u2581et\u00f5m": 6928,
  "\u2581fortify": 6929,
  "\u2581fruits": 6930,
  "\u2581jortak": 6931,
  "\u2581j\u00e3bi": 6932,
  "\u2581kadiw\u00f5j": 6933,
  "\u2581kajerkakbiji": 6934,
  "\u2581kijeir": 6935,
  "\u2581lifetime": 6936,
  "\u2581lut\u00f5klok": 6937,
  "\u2581propaganda": 6938,
  "\u2581protects": 6939,
  "\u2581ruutiej": 6940,
  "\u2581scientist": 6941,
  "\u2581starting": 6942,
  "\u2581twice": 6943,
  "\u2581uwaakin": 6944,
  "\u2581verb": 6945,
  "\u2581worry": 6946,
  "\u2581worthless": 6947,
  "Babylon": 6948,
  "E\u00f1in": 6949,
  "dicating": 6950,
  "inti": 6951,
  "itok": 6952,
  "li": 6953,
  "ooran": 6954,
  "rar": 6955,
  "those": 6956,
  "tries": 6957,
  "was": 6958,
  "\u25812006": 6959,
  "\u258128]": 6960,
  "\u2581African": 6961,
  "\u2581Assiria": 6962,
  "\u2581Buru": 6963,
  "\u2581IT": 6964,
  "\u2581Jerawiwi": 6965,
  "\u2581Kenean": 6966,
  "\u2581K\u00f5t": 6967,
  "\u2581Letter": 6968,
  "\u2581Reading": 6969,
  "\u2581average": 6970,
  "\u2581cleanse": 6971,
  "\u2581disastrous": 6972,
  "\u2581ebaklok": 6973,
  "\u2581era": 6974,
  "\u2581exact": 6975,
  "\u2581expresse": 6976,
  "\u2581feared": 6977,
  "\u2581fruitful": 6978,
  "\u2581impress": 6979,
  "\u2581inclination": 6980,
  "\u2581instituted": 6981,
  "\u2581jikka": 6982,
  "\u2581jima": 6983,
  "\u2581kairoij": 6984,
  "\u2581kaleke": 6985,
  "\u2581objects": 6986,
  "\u2581okran": 6987,
  "\u2581possibility": 6988,
  "\u2581praised": 6989,
  "\u2581presents": 6990,
  "\u2581programs": 6991,
  "\u2581selfishness": 6992,
  "\u2581soldier": 6993,
  "\u2581span": 6994,
  "\u2581supplication": 6995,
  "\u2581tragedy": 6996,
  "\u2581weight": 6997,
  "\u2581worshipped": 6998,
  "\u2581w\u00e3lok": 6999,
  "AND": 7000,
  "edrep": 7001,
  "jota": 7002,
  "k\u0169n": 7003,
  "this": 7004,
  "\u2581118": 7005,
  "\u2581127": 7006,
  "\u25811943": 7007,
  "\u258189": 7008,
  "\u2581AIDS": 7009,
  "\u2581Alexander": 7010,
  "\u2581E\u00f1jake": 7011,
  "\u2581JESUS": 7012,
  "\u2581Ones": 7013,
  "\u2581Sa": 7014,
  "\u2581analyze": 7015,
  "\u2581conflicts": 7016,
  "\u2581counted": 7017,
  "\u2581cure": 7018,
  "\u2581deliberately": 7019,
  "\u2581disgust": 7020,
  "\u2581hardship": 7021,
  "\u2581kainebataik": 7022,
  "\u2581kajook": 7023,
  "\u2581kapoj\u00f5k": 7024,
  "\u2581kibel": 7025,
  "\u2581k\u0169tien": 7026,
  "\u2581lilok": 7027,
  "\u2581materialism": 7028,
  "\u2581minor": 7029,
  "\u2581multitude": 7030,
  "\u2581obtained": 7031,
  "\u2581offended": 7032,
  "\u2581ponder": 7033,
  "\u2581previous": 7034,
  "\u2581progressively": 7035,
  "\u2581proverb": 7036,
  "\u2581rejoij": 7037,
  "\u2581rekar": 7038,
  "\u2581rem\u00f5jno": 7039,
  "\u2581repay": 7040,
  "\u2581rijeje": 7041,
  "\u2581secretary": 7042,
  "\u2581sensitive": 7043,
  "\u2581symbolized": 7044,
  "\u2581viewing": 7045,
  "\u2581visitors": 7046,
  "\u2581warn": 7047,
  "\u2581worthwhile": 7048,
  "\u2581yielding": 7049,
  "\u2581\u00e3jinkij": 7050,
  "ao": 7051,
  "etetal": 7052,
  "rou": 7053,
  "seed": 7054,
  "w\u00f5de": 7055,
  "\u2581Amerika": 7056,
  "\u2581Ami": 7057,
  "\u2581Benjamin": 7058,
  "\u2581Eindrein": 7059,
  "\u2581Indio": 7060,
  "\u2581Jodikdik": 7061,
  "\u2581La": 7062,
  "\u2581Nebar": 7063,
  "\u2581Pedetaij": 7064,
  "\u2581Suppose": 7065,
  "\u2581Years": 7066,
  "\u2581commercial": 7067,
  "\u2581detailed": 7068,
  "\u2581distressed": 7069,
  "\u2581fails": 7070,
  "\u2581female": 7071,
  "\u2581fierce": 7072,
  "\u2581jat\u0169m": 7073,
  "\u2581jealousy": 7074,
  "\u2581jeier": 7075,
  "\u2581jimj\u00e3ten": 7076,
  "\u2581kalbuuji": 7077,
  "\u2581karwainene": 7078,
  "\u2581keememeje": 7079,
  "\u2581kepaak": 7080,
  "\u2581longing": 7081,
  "\u2581loose": 7082,
  "\u2581maijet": 7083,
  "\u2581misled": 7084,
  "\u2581occasionally": 7085,
  "\u2581operation": 7086,
  "\u2581outlined": 7087,
  "\u2581prim": 7088,
  "\u2581prodigal": 7089,
  "\u2581publisher": 7090,
  "\u2581reassuring": 7091,
  "\u2581red": 7092,
  "\u2581regulations": 7093,
  "\u2581reminder": 7094,
  "\u2581replace": 7095,
  "\u2581resident": 7096,
  "\u2581sanctify": 7097,
  "\u2581schoolmates": 7098,
  "\u2581spreading": 7099,
  "\u2581steal": 7100,
  "\u2581survival": 7101,
  "\u2581survivors": 7102,
  "\u2581talent": 7103,
  "\u2581tili": 7104,
  "\u2581wut": 7105,
  "20": 7106,
  "Come": 7107,
  "ED": 7108,
  "Jer": 7109,
  "Juon": 7110,
  "ROM": 7111,
  "housand": 7112,
  "k\u00f5m\u00f5n": 7113,
  "man": 7114,
  "ment": 7115,
  "my": 7116,
  "who": 7117,
  "\u00e6": 7118,
  "\u2581Britannica": 7119,
  "\u2581Head": 7120,
  "\u2581Kadkad": 7121,
  "\u2581Kindness": 7122,
  "\u2581La\u00f1li\u00f1": 7123,
  "\u2581Philippines": 7124,
  "\u2581Publishe": 7125,
  "\u2581St": 7126,
  "\u2581akw\u00e3\u00e3l": 7127,
  "\u2581aolepeer": 7128,
  "\u2581badly": 7129,
  "\u2581brain": 7130,
  "\u2581bwoktak": 7131,
  "\u2581comply": 7132,
  "\u2581consult": 7133,
  "\u2581doors": 7134,
  "\u2581drive": 7135,
  "\u2581equip": 7136,
  "\u2581formerly": 7137,
  "\u2581founded": 7138,
  "\u2581handed": 7139,
  "\u2581handled": 7140,
  "\u2581jatim": 7141,
  "\u2581kadikl": 7142,
  "\u2581kan": 7143,
  "\u2581k\u00f5je": 7144,
  "\u2581k\u00f5m\u00f5nm\u00f5ni": 7145,
  "\u2581loud": 7146,
  "\u2581materials": 7147,
  "\u2581middle": 7148,
  "\u2581m\u00f5nni": 7149,
  "\u2581needy": 7150,
  "\u2581pains": 7151,
  "\u2581productive": 7152,
  "\u2581rekajoor": 7153,
  "\u2581skin": 7154,
  "\u2581somewhat": 7155,
  "\u2581submitt": 7156,
  "\u2581tulok": 7157,
  "Gal": 7158,
  "ical": 7159,
  "j\u00e3n": 7160,
  "katak": 7161,
  "tel": 7162,
  "weien": 7163,
  "\u25811994": 7164,
  "\u258124]": 7165,
  "\u258141)": 7166,
  "\u258146,": 7167,
  "\u2581Aer": 7168,
  "\u2581Alive": 7169,
  "\u2581Corinthian": 7170,
  "\u2581Edom": 7171,
  "\u2581Etto": 7172,
  "\u2581ISSUE": 7173,
  "\u2581JET": 7174,
  "\u2581Naboth": 7175,
  "\u2581Third": 7176,
  "\u2581University": 7177,
  "\u2581adhere": 7178,
  "\u2581aim": 7179,
  "\u2581awia": 7180,
  "\u2581bears": 7181,
  "\u2581bought": 7182,
  "\u2581cited": 7183,
  "\u2581cleanness": 7184,
  "\u2581clothes": 7185,
  "\u2581commend": 7186,
  "\u2581concentration": 7187,
  "\u2581declares": 7188,
  "\u2581devastated": 7189,
  "\u2581diseases": 7190,
  "\u2581disobedient": 7191,
  "\u2581disobey": 7192,
  "\u2581drug": 7193,
  "\u2581edrek": 7194,
  "\u2581ekilep": 7195,
  "\u2581enbwiniir": 7196,
  "\u2581ett\u00f5\u00f1": 7197,
  "\u2581evangelizers": 7198,
  "\u2581fearful": 7199,
  "\u2581globe": 7200,
  "\u2581kiblia": 7201,
  "\u2581kwunair": 7202,
  "\u2581k\u00f5pel": 7203,
  "\u2581lokbook": 7204,
  "\u2581march": 7205,
  "\u2581media": 7206,
  "\u2581noteworthy": 7207,
  "\u2581prayerfully": 7208,
  "\u2581rekauw\u00f5tata": 7209,
  "\u2581responding": 7210,
  "\u2581separated": 7211,
  "\u2581thrilled": 7212,
  "\u2581toon": 7213,
  "\u2581wages": 7214,
  "\u2581widespread": 7215,
  "\u2581\u00e3eik": 7216,
  "Irooj": 7217,
  "Kwe": 7218,
  "Nihimaia": 7219,
  "WI": 7220,
  "os": 7221,
  "put": 7222,
  "special": 7223,
  "uij": 7224,
  "\u258139,": 7225,
  "\u2581Alex": 7226,
  "\u2581Anjo": 7227,
  "\u2581Assembly": 7228,
  "\u2581Ba": 7229,
  "\u2581Earlier": 7230,
  "\u2581Ekwojarjar": 7231,
  "\u2581Everlasting": 7232,
  "\u2581JERBAL": 7233,
  "\u2581Jidik": 7234,
  "\u2581Persian": 7235,
  "\u2581Plato": 7236,
  "\u2581Real": 7237,
  "\u2581Simeon": 7238,
  "\u2581Thess": 7239,
  "\u2581Very": 7240,
  "\u2581bu": 7241,
  "\u2581delightful": 7242,
  "\u2581directing": 7243,
  "\u2581directions": 7244,
  "\u2581donations": 7245,
  "\u2581exquisite": 7246,
  "\u2581festivals": 7247,
  "\u2581happily": 7248,
  "\u2581honestly": 7249,
  "\u2581ibbem": 7250,
  "\u2581inactive": 7251,
  "\u2581injury": 7252,
  "\u2581ioer": 7253,
  "\u2581julo": 7254,
  "\u2581kanne": 7255,
  "\u2581kauatata": 7256,
  "\u2581komro": 7257,
  "\u2581lailim": 7258,
  "\u2581nien": 7259,
  "\u2581overlook": 7260,
  "\u2581plenty": 7261,
  "\u2581raor\u00f5ktata": 7262,
  "\u2581rear": 7263,
  "\u2581rem\u0169lal": 7264,
  "\u2581retolok": 7265,
  "\u2581r\u0169": 7266,
  "\u2581scientific": 7267,
  "\u2581seated": 7268,
  "\u2581settled": 7269,
  "\u2581spared": 7270,
  "\u2581striking": 7271,
  "\u2581sustained": 7272,
  "\u2581touching": 7273,
  "\u2581transformed": 7274,
  "\u2581t\u00f5bare": 7275,
  "Is": 7276,
  "Our": 7277,
  "aden": 7278,
  "jit\u00f5b": 7279,
  "\u2581Ammon": 7280,
  "\u2581Arthur": 7281,
  "\u2581Balaam": 7282,
  "\u2581Edition": 7283,
  "\u2581Golaiat": 7284,
  "\u2581Korijer": 7285,
  "\u2581Last": 7286,
  "\u2581Lor": 7287,
  "\u2581Marta": 7288,
  "\u2581Nothing": 7289,
  "\u2581Pilistia": 7290,
  "\u2581Thereafter": 7291,
  "\u2581Web": 7292,
  "\u2581accident": 7293,
  "\u2581aging": 7294,
  "\u2581aje": 7295,
  "\u2581behold": 7296,
  "\u2581cleansing": 7297,
  "\u2581comforts": 7298,
  "\u2581confirmed": 7299,
  "\u2581distracted": 7300,
  "\u2581element": 7301,
  "\u2581er\u0169tto": 7302,
  "\u2581figuratively": 7303,
  "\u2581fixed": 7304,
  "\u2581heritage": 7305,
  "\u2581ibelakid": 7306,
  "\u2581inclinations": 7307,
  "\u2581kaarmejjeteik": 7308,
  "\u2581kakajiriri": 7309,
  "\u2581karuaklok": 7310,
  "\u2581keenly": 7311,
  "\u2581kemeleleik": 7312,
  "\u2581k\u00f5ppojak": 7313,
  "\u2581north": 7314,
  "\u2581presentation": 7315,
  "\u2581pursued": 7316,
  "\u2581qualifications": 7317,
  "\u2581rage": 7318,
  "\u2581reconciled": 7319,
  "\u2581reflection": 7320,
  "\u2581remote": 7321,
  "\u2581rid": 7322,
  "\u2581sacrificed": 7323,
  "\u2581stretch": 7324,
  "\u2581thief": 7325,
  "\u2581wabanban": 7326,
  "\u2581yearn": 7327,
  "Jeremaia": 7328,
  "K\u00f5n": 7329,
  "oko": 7330,
  "wijm": 7331,
  "\u00d5M": 7332,
  "\u258143.": 7333,
  "\u25814]": 7334,
  "\u2581Apparently": 7335,
  "\u2581Babilon": 7336,
  "\u2581Epaphras": 7337,
  "\u2581HAVE": 7338,
  "\u2581Humans": 7339,
  "\u2581Iben": 7340,
  "\u2581Long": 7341,
  "\u2581Mephibosheth": 7342,
  "\u2581Neither": 7343,
  "\u2581Religion": 7344,
  "\u2581Wise": 7345,
  "\u2581befall": 7346,
  "\u2581burued": 7347,
  "\u2581characteristics": 7348,
  "\u2581complex": 7349,
  "\u2581defeat": 7350,
  "\u2581deserving": 7351,
  "\u2581dictionary": 7352,
  "\u2581diojlok": 7353,
  "\u2581educational": 7354,
  "\u2581ekauw\u00f5tata": 7355,
  "\u2581empathy": 7356,
  "\u2581em\u00e3n\u00e3n": 7357,
  "\u2581falls": 7358,
  "\u2581games": 7359,
  "\u2581guests": 7360,
  "\u2581happier": 7361,
  "\u2581iod": 7362,
  "\u2581jariot": 7363,
  "\u2581jin\u00f5kjeej": 7364,
  "\u2581jobs": 7365,
  "\u2581kadelo\u00f1": 7366,
  "\u2581kajeblaktok": 7367,
  "\u2581koman": 7368,
  "\u2581nejimro": 7369,
  "\u2581observance": 7370,
  "\u2581owe": 7371,
  "\u2581projects": 7372,
  "\u2581purposed": 7373,
  "\u2581sanctification": 7374,
  "\u2581snow": 7375,
  "\u2581topics": 7376,
  "\u2581upset": 7377,
  "\u2581w\u0169t": 7378,
  "Now": 7379,
  "ga": 7380,
  "ni": 7381,
  "ox": 7382,
  "rkein": 7383,
  "\u00e3t": 7384,
  "\u25811940": 7385,
  "\u258127]": 7386,
  "\u2581600": 7387,
  "\u2581Deut": 7388,
  "\u2581Get": 7389,
  "\u2581Jihu": 7390,
  "\u2581Jul": 7391,
  "\u2581Kam": 7392,
  "\u2581Keidi": 7393,
  "\u2581Kimro": 7394,
  "\u2581Lazer\u00f5s": 7395,
  "\u2581Li": 7396,
  "\u2581Likao": 7397,
  "\u2581Miriam": 7398,
  "\u2581Rekwojarjar": 7399,
  "\u2581Serving": 7400,
  "\u2581Tak": 7401,
  "\u2581ajelok": 7402,
  "\u2581attracted": 7403,
  "\u2581contemporaries": 7404,
  "\u2581contributions": 7405,
  "\u2581destructive": 7406,
  "\u2581exhorted": 7407,
  "\u2581eyokwe": 7408,
  "\u2581famous": 7409,
  "\u2581feast": 7410,
  "\u2581feeding": 7411,
  "\u2581figure": 7412,
  "\u2581foretell": 7413,
  "\u2581governor": 7414,
  "\u2581imply": 7415,
  "\u2581impression": 7416,
  "\u2581imweir": 7417,
  "\u2581informed": 7418,
  "\u2581interfere": 7419,
  "\u2581irenw\u00f5ne": 7420,
  "\u2581jarom": 7421,
  "\u2581jeblaklok": 7422,
  "\u2581jemed": 7423,
  "\u2581jibel": 7424,
  "\u2581jirik": 7425,
  "\u2581kaber": 7426,
  "\u2581kaburukuk": 7427,
  "\u2581kamminene": 7428,
  "\u2581karwaineneik": 7429,
  "\u2581kilajr\u00f5k": 7430,
  "\u2581k\u00f5taik": 7431,
  "\u2581lacked": 7432,
  "\u2581lean": 7433,
  "\u2581liloki": 7434,
  "\u2581lometo": 7435,
  "\u2581maro": 7436,
  "\u2581mirror": 7437,
  "\u2581onward": 7438,
  "\u2581opens": 7439,
  "\u2581outright": 7440,
  "\u2581perish": 7441,
  "\u2581permit": 7442,
  "\u2581permitted": 7443,
  "\u2581rekibbon": 7444,
  "\u2581rettol": 7445,
  "\u2581size": 7446,
  "\u2581steward": 7447,
  "\u2581transfiguration": 7448,
  "\u2581transform": 7449,
  "\u2581unrighteousness": 7450,
  "\u2581vigilant": 7451,
  "\u2581yeartext": 7452,
  "Tait\u00f5s": 7453,
  "ern": 7454,
  "raan": 7455,
  "til": 7456,
  "ular": 7457,
  "\u00f1an": 7458,
  "\u2581111": 7459,
  "\u2581Actually": 7460,
  "\u2581BAREINW": 7461,
  "\u2581EL\u00d5\u00d1": 7462,
  "\u2581Elemen": 7463,
  "\u2581Encyclop": 7464,
  "\u2581Happily": 7465,
  "\u2581Jerbale": 7466,
  "\u2581Katok": 7467,
  "\u2581Kautiej": 7468,
  "\u2581Leads": 7469,
  "\u2581Loving": 7470,
  "\u2581R\u0169t\u00f5l": 7471,
  "\u2581adapt": 7472,
  "\u2581branches": 7473,
  "\u2581bwinbwin": 7474,
  "\u2581contentment": 7475,
  "\u2581corrected": 7476,
  "\u2581courtyard": 7477,
  "\u2581cultures": 7478,
  "\u2581curse": 7479,
  "\u2581deed": 7480,
  "\u2581demand": 7481,
  "\u2581deny": 7482,
  "\u2581ejok": 7483,
  "\u2581eklisia": 7484,
  "\u2581exclaimed": 7485,
  "\u2581extensive": 7486,
  "\u2581golden": 7487,
  "\u2581honey": 7488,
  "\u2581hot": 7489,
  "\u2581initially": 7490,
  "\u2581jaketo": 7491,
  "\u2581jemaren": 7492,
  "\u2581kamelij": 7493,
  "\u2581kar\u00f5ki": 7494,
  "\u2581katakini": 7495,
  "\u2581materialistic": 7496,
  "\u2581m\u00f5tair": 7497,
  "\u2581palm": 7498,
  "\u2581police": 7499,
  "\u2581promot": 7500,
  "\u2581records": 7501,
  "\u2581representatives": 7502,
  "\u2581revelation": 7503,
  "\u2581sell": 7504,
  "\u2581singleness": 7505,
  "\u2581sorry": 7506,
  "\u2581stating": 7507,
  "\u2581strange": 7508,
  "\u2581tal": 7509,
  "\u2581thanksgiving": 7510,
  "\u2581tool": 7511,
  "\u2581translators": 7512,
  "\u2581undermine": 7513,
  "\u2581watchful": 7514,
  "\u2581welcomed": 7515,
  "\u2581womb": 7516,
  "\u2581w\u00f5nli\u00f1lok": 7517,
  "\u2581w\u00f5rw\u00f5r": 7518,
  "A\u00f5": 7519,
  "Ekk": 7520,
  "el\u00f5\u00f1": 7521,
  "ian": 7522,
  "netheless": 7523,
  "\u258184": 7524,
  "\u2581Festival": 7525,
  "\u2581Franz": 7526,
  "\u2581Giver": 7527,
  "\u2581Giving": 7528,
  "\u2581Henry": 7529,
  "\u2581Honor": 7530,
  "\u2581Ilaisha": 7531,
  "\u2581JON": 7532,
  "\u2581Jel": 7533,
  "\u2581Kr": 7534,
  "\u2581Paris": 7535,
  "\u2581Prophecy": 7536,
  "\u2581Rachel": 7537,
  "\u2581Savior": 7538,
  "\u2581Teaching": 7539,
  "\u2581[\"": 7540,
  "\u2581announced": 7541,
  "\u2581apartment": 7542,
  "\u2581appoint": 7543,
  "\u2581bet": 7544,
  "\u2581caution": 7545,
  "\u2581code": 7546,
  "\u2581commented": 7547,
  "\u2581commonly": 7548,
  "\u2581confidently": 7549,
  "\u2581ease": 7550,
  "\u2581ekkejell": 7551,
  "\u2581fleeing": 7552,
  "\u2581guidelines": 7553,
  "\u2581ilen": 7554,
  "\u2581jaketak": 7555,
  "\u2581jaro\u00f1ro\u00f1": 7556,
  "\u2581jea": 7557,
  "\u2581jiro\u00f1e": 7558,
  "\u2581kaberan": 7559,
  "\u2581kajit\u00f5bt\u00f5b": 7560,
  "\u2581kejb\u00e3roke": 7561,
  "\u2581koot": 7562,
  "\u2581memorial": 7563,
  "\u2581memories": 7564,
  "\u2581naturally": 7565,
  "\u2581outset": 7566,
  "\u2581permission": 7567,
  "\u2581pieces": 7568,
  "\u2581references": 7569,
  "\u2581resentment": 7570,
  "\u2581smoke": 7571,
  "\u2581taste": 7572,
  "\u2581thoroughly": 7573,
  "\u2581tremendous": 7574,
  "\u2581unmarried": 7575,
  "\u2581unnecessary": 7576,
  "\u2581weighed": 7577,
  "\u2581wholehearted": 7578,
  "\u2581wuj": 7579,
  "Ak": 7580,
  "From": 7581,
  "ance": 7582,
  "gainst": 7583,
  "iroij": 7584,
  "make": 7585,
  "\u2581Anthony": 7586,
  "\u2581Chapter": 7587,
  "\u2581Eddo": 7588,
  "\u2581Eindeinlok": 7589,
  "\u2581Ekilmir": 7590,
  "\u2581El\u00f5\u00f1l": 7591,
  "\u2581Interestingly": 7592,
  "\u2581Macedonia": 7593,
  "\u2581Myanmar": 7594,
  "\u2581Stand": 7595,
  "\u2581alienat": 7596,
  "\u2581aloud": 7597,
  "\u2581anguish": 7598,
  "\u2581apparent": 7599,
  "\u2581below": 7600,
  "\u2581bondage": 7601,
  "\u2581color": 7602,
  "\u2581despair": 7603,
  "\u2581discerning": 7604,
  "\u2581distributed": 7605,
  "\u2581drop": 7606,
  "\u2581druaklok": 7607,
  "\u2581ebbururu": 7608,
  "\u2581el\u00e3": 7609,
  "\u2581evangelizer": 7610,
  "\u2581falsely": 7611,
  "\u2581faults": 7612,
  "\u2581friendly": 7613,
  "\u2581hit": 7614,
  "\u2581jiro\u00f1l": 7615,
  "\u2581jojomar": 7616,
  "\u2581j\u00f5j\u00f5ik": 7617,
  "\u2581k\u00f5batat": 7618,
  "\u2581leloke": 7619,
  "\u2581madm\u00f5d": 7620,
  "\u2581mentally": 7621,
  "\u2581mistaken": 7622,
  "\u2581mweieir": 7623,
  "\u2581m\u00f5t\u00f5m": 7624,
  "\u2581orders": 7625,
  "\u2581pair": 7626,
  "\u2581preacher": 7627,
  "\u2581prefer": 7628,
  "\u2581rebels": 7629,
  "\u2581requests": 7630,
  "\u2581staying": 7631,
  "\u2581stream": 7632,
  "\u2581subjected": 7633,
  "\u2581ultimately": 7634,
  "\u2581wrongdoers": 7635,
  "Am": 7636,
  "Ecclesiastes": 7637,
  "Ewi": 7638,
  "INT": 7639,
  "a\u00f5": 7640,
  "ebojak": 7641,
  "kwe": 7642,
  "lelok": 7643,
  "nt": 7644,
  "tn": 7645,
  "\u00f5tt\u00e3ik": 7646,
  "\u2581Angl": 7647,
  "\u2581Example": 7648,
  "\u2581Gabriel": 7649,
  "\u2581Jorr\u00e3n": 7650,
  "\u2581Jos\u00e9": 7651,
  "\u2581Magog": 7652,
  "\u2581Maker": 7653,
  "\u2581Wisdom": 7654,
  "\u2581absolutely": 7655,
  "\u2581accurately": 7656,
  "\u2581bank": 7657,
  "\u2581b\u00f5jin": 7658,
  "\u2581collect": 7659,
  "\u2581complaint": 7660,
  "\u2581crush": 7661,
  "\u2581devastating": 7662,
  "\u2581doctrines": 7663,
  "\u2581earn": 7664,
  "\u2581ebb\u00f5k": 7665,
  "\u2581forbidden": 7666,
  "\u2581freed": 7667,
  "\u2581fun": 7668,
  "\u2581ibbemi": 7669,
  "\u2581iuuni": 7670,
  "\u2581jibo\u00f1": 7671,
  "\u2581jolete": 7672,
  "\u2581kalbuji": 7673,
  "\u2581kaperan": 7674,
  "\u2581kemen": 7675,
  "\u2581kileplep": 7676,
  "\u2581listens": 7677,
  "\u2581mantak": 7678,
  "\u2581moments": 7679,
  "\u2581m\u00f5ne": 7680,
  "\u2581m\u00f5ta": 7681,
  "\u2581nejir": 7682,
  "\u2581offense": 7683,
  "\u2581ordinary": 7684,
  "\u2581owner": 7685,
  "\u2581pei\u00f5": 7686,
  "\u2581perspective": 7687,
  "\u2581pregnant": 7688,
  "\u2581president": 7689,
  "\u2581priceless": 7690,
  "\u2581proselytes": 7691,
  "\u2581rena\u00f1inmij": 7692,
  "\u2581reridto": 7693,
  "\u2581safely": 7694,
  "\u2581schools": 7695,
  "\u2581seduce": 7696,
  "\u2581sentence": 7697,
  "\u2581sexually": 7698,
  "\u2581sleeping": 7699,
  "\u2581strife": 7700,
  "\u2581supposed": 7701,
  "\u2581tasks": 7702,
  "\u2581tim": 7703,
  "\u2581to\u00f5n": 7704,
  "\u2581traditions": 7705,
  "\u2581treacherous": 7706,
  "\u2581turiir": 7707,
  "\u2581valley": 7708,
  "\u2581vary": 7709,
  "LSO": 7710,
  "Yokwe": 7711,
  "human": 7712,
  "k\u00f5nan": 7713,
  "oolin": 7714,
  "time": 7715,
  "weik": 7716,
  "\u00e3\u00e3n": 7717,
  "\u2581Canaanite": 7718,
  "\u2581Centuries": 7719,
  "\u2581Elij": 7720,
  "\u2581Galili": 7721,
  "\u2581Ijjab": 7722,
  "\u2581Jean": 7723,
  "\u2581Karuo": 7724,
  "\u2581Nob\u00f5m": 7725,
  "\u2581Walok": 7726,
  "\u2581alw\u00f5j": 7727,
  "\u2581author": 7728,
  "\u2581bull": 7729,
  "\u2581condemn": 7730,
  "\u2581considerate": 7731,
  "\u2581copper": 7732,
  "\u2581cross": 7733,
  "\u2581decisive": 7734,
  "\u2581demonstrates": 7735,
  "\u2581dettair": 7736,
  "\u2581enbwinid": 7737,
  "\u2581ett\u00f5\u00f1dikdik": 7738,
  "\u2581ewan": 7739,
  "\u2581forgives": 7740,
  "\u2581generously": 7741,
  "\u2581grieving": 7742,
  "\u2581guides": 7743,
  "\u2581honored": 7744,
  "\u2581independent": 7745,
  "\u2581isolated": 7746,
  "\u2581items": 7747,
  "\u2581jejel\u00e3": 7748,
  "\u2581joten": 7749,
  "\u2581journal": 7750,
  "\u2581kimj\u00e3je": 7751,
  "\u2581kw\u00f5": 7752,
  "\u2581k\u00f5niekin": 7753,
  "\u2581k\u0169rtok": 7754,
  "\u2581latter": 7755,
  "\u2581lifesaving": 7756,
  "\u2581lifted": 7757,
  "\u2581lofty": 7758,
  "\u2581lowliness": 7759,
  "\u2581manuscripts": 7760,
  "\u2581oath": 7761,
  "\u2581operate": 7762,
  "\u2581paper": 7763,
  "\u2581partial": 7764,
  "\u2581protective": 7765,
  "\u2581rejerawiwi": 7766,
  "\u2581respected": 7767,
  "\u2581sessions": 7768,
  "\u2581sides": 7769,
  "\u2581strict": 7770,
  "\u2581tenderly": 7771,
  "\u2581tomorrow": 7772,
  "\u2581ultimate": 7773,
  "\u2581watched": 7774,
  "\u2581wishes": 7775,
  "\u2581worst": 7776,
  "\u2581\u00e3ier": 7777,
  "AK": 7778,
  "An": 7779,
  "Ein": 7780,
  "Jet": 7781,
  "P": 7782,
  "ekitibuj": 7783,
  "elip": 7784,
  "rs": 7785,
  "\u25811960": 7786,
  "\u2581Amen": 7787,
  "\u2581BWE": 7788,
  "\u2581Beal": 7789,
  "\u2581Ben": 7790,
  "\u2581Ethiopian": 7791,
  "\u2581Follow": 7792,
  "\u2581Into": 7793,
  "\u2581JEN": 7794,
  "\u2581Jim": 7795,
  "\u2581J\u00e3mne": 7796,
  "\u2581Kajeo\u00f1": 7797,
  "\u2581Kijejeto": 7798,
  "\u2581Kw\u00f5jarjar": 7799,
  "\u2581K\u00e3let": 7800,
  "\u2581Obviously": 7801,
  "\u2581Rehoboam": 7802,
  "\u2581abound": 7803,
  "\u2581accomplishing": 7804,
  "\u2581belakin": 7805,
  "\u2581buk\u00f5te": 7806,
  "\u2581crisis": 7807,
  "\u2581ele": 7808,
  "\u2581enthusiasm": 7809,
  "\u2581favored": 7810,
  "\u2581funds": 7811,
  "\u2581gates": 7812,
  "\u2581headquarters": 7813,
  "\u2581idapt\u00f5k": 7814,
  "\u2581jati\u00f5": 7815,
  "\u2581kabole": 7816,
  "\u2581kijirat": 7817,
  "\u2581kijkan": 7818,
  "\u2581kitibuji": 7819,
  "\u2581koorl": 7820,
  "\u2581kwonam": 7821,
  "\u2581lajr\u00f5k": 7822,
  "\u2581larger": 7823,
  "\u2581located": 7824,
  "\u2581manage": 7825,
  "\u2581meat": 7826,
  "\u2581motivation": 7827,
  "\u2581printing": 7828,
  "\u2581recommend": 7829,
  "\u2581resort": 7830,
  "\u2581ring": 7831,
  "\u2581speaker": 7832,
  "\u2581surviving": 7833,
  "\u2581systems": 7834,
  "\u2581unreasonable": 7835,
  "\u2581uttered": 7836,
  "\u2581vicious": 7837,
  "\u2581wage": 7838,
  "\u2581wiakaki": 7839,
  "\u2581window": 7840,
  "13": 7841,
  "iri": 7842,
  "their": 7843,
  "\u0169kkatak": 7844,
  "\u2581Aujt\u00f5r\u00f5lia": 7845,
  "\u2581Elizabeth": 7846,
  "\u2581Gaius": 7847,
  "\u2581Lead": 7848,
  "\u2581Listen": 7849,
  "\u2581Maan": 7850,
  "\u2581Mom": 7851,
  "\u2581Obadiah": 7852,
  "\u2581Orthodox": 7853,
  "\u2581Philistines": 7854,
  "\u2581Self": 7855,
  "\u2581Shem": 7856,
  "\u2581ajeeded": 7857,
  "\u2581approaches": 7858,
  "\u2581bold": 7859,
  "\u2581bonds": 7860,
  "\u2581calamities": 7861,
  "\u2581committ": 7862,
  "\u2581confirm": 7863,
  "\u2581decree": 7864,
  "\u2581defined": 7865,
  "\u2581discover": 7866,
  "\u2581double": 7867,
  "\u2581duty": 7868,
  "\u2581ejaje": 7869,
  "\u2581elamwan": 7870,
  "\u2581elevated": 7871,
  "\u2581em\u00f5jno": 7872,
  "\u2581eokkw\u00f5jarjar": 7873,
  "\u2581et\u00f5r": 7874,
  "\u2581ewal": 7875,
  "\u2581exalted": 7876,
  "\u2581gentle": 7877,
  "\u2581grooming": 7878,
  "\u2581iood": 7879,
  "\u2581ippemi": 7880,
  "\u2581ituea\u00f1": 7881,
  "\u2581jelmaik": 7882,
  "\u2581jikier": 7883,
  "\u2581j\u00e3pe": 7884,
  "\u2581j\u00e3tir": 7885,
  "\u2581kal\u00f5ke": 7886,
  "\u2581kautameik": 7887,
  "\u2581kejorran": 7888,
  "\u2581kitieer": 7889,
  "\u2581k\u00e3": 7890,
  "\u2581li": 7891,
  "\u2581likieo": 7892,
  "\u2581maro\u00f1we": 7893,
  "\u2581meantime": 7894,
  "\u2581messenger": 7895,
  "\u2581naajdik": 7896,
  "\u2581naw\u00f5n\u00e3n": 7897,
  "\u2581numbers": 7898,
  "\u2581prey": 7899,
  "\u2581repair": 7900,
  "\u2581representative": 7901,
  "\u2581ridt\u00f5n": 7902,
  "\u2581rightful": 7903,
  "\u2581shut": 7904,
  "\u2581stranger": 7905,
  "\u2581suit": 7906,
  "\u2581teb": 7907,
  "\u2581tribulations": 7908,
  "\u2581truthful": 7909,
  "\u2581tujemlokin": 7910,
  "\u2581uncleanness": 7911,
  "\u2581vivid": 7912,
  "\u2581wrongdoer": 7913,
  "Amos": 7914,
  "At": 7915,
  "Ejjel": 7916,
  "KE": 7917,
  "bed": 7918,
  "g": 7919,
  "ist": 7920,
  "oolole": 7921,
  "t\u00f5mak": 7922,
  "were": 7923,
  "\u2581100,000": 7924,
  "\u25811945": 7925,
  "\u25816,000": 7926,
  "\u258179": 7927,
  "\u2581Assyrian": 7928,
  "\u2581Dad": 7929,
  "\u2581Jihoshapat": 7930,
  "\u2581National": 7931,
  "\u2581Ohio": 7932,
  "\u2581Shiloh": 7933,
  "\u2581Ted": 7934,
  "\u2581absolute": 7935,
  "\u2581appreciative": 7936,
  "\u2581arrange": 7937,
  "\u2581arrested": 7938,
  "\u2581beasts": 7939,
  "\u2581c": 7940,
  "\u2581cells": 7941,
  "\u2581eiki": 7942,
  "\u2581ejerwan": 7943,
  "\u2581evangelizing": 7944,
  "\u2581greedy": 7945,
  "\u2581honorable": 7946,
  "\u2581hospitable": 7947,
  "\u2581iom": 7948,
  "\u2581jarjar": 7949,
  "\u2581kailb\u00f5k": 7950,
  "\u2581kak\u00f5lleik": 7951,
  "\u2581kejebel": 7952,
  "\u2581kuktok": 7953,
  "\u2581l\u00f5llab": 7954,
  "\u2581mh": 7955,
  "\u2581necessities": 7956,
  "\u2581per": 7957,
  "\u2581persecute": 7958,
  "\u2581portray": 7959,
  "\u2581press": 7960,
  "\u2581range": 7961,
  "\u2581reba": 7962,
  "\u2581rejakkar": 7963,
  "\u2581ride": 7964,
  "\u2581ripoot": 7965,
  "\u2581romantic": 7966,
  "\u2581sabbath": 7967,
  "\u2581somehow": 7968,
  "\u2581thorn": 7969,
  "\u2581vengeance": 7970,
  "\u2581weighty": 7971,
  "B": 7972,
  "B\u00f5nb\u00f5n": 7973,
  "Just": 7974,
  "aanjo\u00f1ak": 7975,
  "every": 7976,
  "it\u00f5l": 7977,
  "ncient": 7978,
  "ry": 7979,
  "ul": 7980,
  "\u2581112": 7981,
  "\u258117.)": 7982,
  "\u25811914?": 7983,
  "\u25811991": 7984,
  "\u25817,000": 7985,
  "\u2581ARMEJ": 7986,
  "\u2581Amon": 7987,
  "\u2581A\u00d5": 7988,
  "\u2581Barnebas": 7989,
  "\u2581Brothers": 7990,
  "\u2581Creation": 7991,
  "\u2581Ghana": 7992,
  "\u2581Guide": 7993,
  "\u2581I\u00f1len": 7994,
  "\u2581Jerkakbiji": 7995,
  "\u2581Katlik": 7996,
  "\u2581Little": 7997,
  "\u2581Moder": 7998,
  "\u2581Moktalok": 7999,
  "\u2581None": 8000,
  "\u2581PS": 8001,
  "\u2581Pay": 8002,
  "\u2581Worldwide": 8003,
  "\u2581accountable": 8004,
  "\u2581adverse": 8005,
  "\u2581affliction": 8006,
  "\u2581ajeje": 8007,
  "\u2581alien": 8008,
  "\u2581amazed": 8009,
  "\u2581attempts": 8010,
  "\u2581bit": 8011,
  "\u2581boat": 8012,
  "\u2581camps": 8013,
  "\u2581certainty": 8014,
  "\u2581characters": 8015,
  "\u2581cling": 8016,
  "\u2581creating": 8017,
  "\u2581definitely": 8018,
  "\u2581demanding": 8019,
  "\u2581desiring": 8020,
  "\u2581devour": 8021,
  "\u2581discerned": 8022,
  "\u2581dramatic": 8023,
  "\u2581epaaktok": 8024,
  "\u2581fond": 8025,
  "\u2581forsake": 8026,
  "\u2581grandmother": 8027,
  "\u2581harmonize": 8028,
  "\u2581hostile": 8029,
  "\u2581ibelakiir": 8030,
  "\u2581kadek": 8031,
  "\u2581kamarmir": 8032,
  "\u2581kilaaj": 8033,
  "\u2581kobaiklok": 8034,
  "\u2581k\u00f5mat": 8035,
  "\u2581marrying": 8036,
  "\u2581mat": 8037,
  "\u2581melim": 8038,
  "\u2581nuk\u0169n": 8039,
  "\u2581pleases": 8040,
  "\u2581post": 8041,
  "\u2581psalms": 8042,
  "\u2581reddo": 8043,
  "\u2581refugees": 8044,
  "\u2581remembrance": 8045,
  "\u2581roof": 8046,
  "\u2581r\u00f5l": 8047,
  "\u2581scattered": 8048,
  "\u2581splendor": 8049,
  "\u2581stressed": 8050,
  "\u2581stuck": 8051,
  "\u2581summer": 8052,
  "\u2581victorious": 8053,
  "\u2581virtual": 8054,
  "\u2581washed": 8055,
  "\u2581worshipper": 8056,
  "ARE": 8057,
  "Einw\u00f5t": 8058,
  "eanwhile": 8059,
  "jerkakbiji": 8060,
  "j\u00e3mi": 8061,
  "kwal": 8062,
  "wept": 8063,
  "\u258113.)": 8064,
  "\u2581Apply": 8065,
  "\u2581BWEBWENATO": 8066,
  "\u2581Bear": 8067,
  "\u2581Buk\u00f5t": 8068,
  "\u2581Christmas": 8069,
  "\u2581Court": 8070,
  "\u2581Cultivat": 8071,
  "\u2581Dorcas": 8072,
  "\u2581Eccl": 8073,
  "\u2581Ie": 8074,
  "\u2581Lajr": 8075,
  "\u2581Lef\u00e8vre": 8076,
  "\u2581MATTHEW": 8077,
  "\u2581Pu": 8078,
  "\u2581Relate": 8079,
  "\u2581Rico": 8080,
  "\u2581Serve": 8081,
  "\u2581actual": 8082,
  "\u2581baotokin": 8083,
  "\u2581believes": 8084,
  "\u2581borne": 8085,
  "\u2581coping": 8086,
  "\u2581distractions": 8087,
  "\u2581ekal": 8088,
  "\u2581err": 8089,
  "\u2581fair": 8090,
  "\u2581heat": 8091,
  "\u2581ibwiljiir": 8092,
  "\u2581imitators": 8093,
  "\u2581incite": 8094,
  "\u2581ito": 8095,
  "\u2581ji": 8096,
  "\u2581jok\u00f5ne": 8097,
  "\u2581kaarmejjete": 8098,
  "\u2581kabijukneir": 8099,
  "\u2581kaemololo": 8100,
  "\u2581koorlok": 8101,
  "\u2581k\u00f5lajrak": 8102,
  "\u2581lines": 8103,
  "\u2581lotan": 8104,
  "\u2581mislead": 8105,
  "\u2581misleading": 8106,
  "\u2581n\u00e3j": 8107,
  "\u2581permanently": 8108,
  "\u2581permits": 8109,
  "\u2581persevere": 8110,
  "\u2581plays": 8111,
  "\u2581politics": 8112,
  "\u2581recogniz": 8113,
  "\u2581rejitenburu": 8114,
  "\u2581rejoiced": 8115,
  "\u2581sower": 8116,
  "\u2581speed": 8117,
  "\u2581spiritism": 8118,
  "\u2581spoil": 8119,
  "\u2581tower": 8120,
  "\u2581t\u00f5rein": 8121,
  "\u2581vis\u00f5n": 8122,
  "\u2581vows": 8123,
  "\u2581waited": 8124,
  "\u2581waste": 8125,
  "\u2581worshipp": 8126,
  "235": 8127,
  "4": 8128,
  "5": 8129,
  ">": 8130,
  "Jab": 8131,
  "James": 8132,
  "Kei": 8133,
  "Kwo": 8134,
  "edik": 8135,
  "elap": 8136,
  "\u21e9": 8137,
  "\u258199": 8138,
  "\u2581Artaxerxes": 8139,
  "\u2581Hand": 8140,
  "\u2581Jino": 8141,
  "\u2581Levite": 8142,
  "\u2581Lives": 8143,
  "\u2581Lois": 8144,
  "\u2581MY": 8145,
  "\u2581Money": 8146,
  "\u2581Oran": 8147,
  "\u2581Understandabl": 8148,
  "\u2581adjusted": 8149,
  "\u2581alw\u00f5je": 8150,
  "\u2581assembled": 8151,
  "\u2581ate": 8152,
  "\u2581awareness": 8153,
  "\u2581breath": 8154,
  "\u2581bwiljin": 8155,
  "\u2581calf": 8156,
  "\u2581combined": 8157,
  "\u2581debiji": 8158,
  "\u2581ebolemen": 8159,
  "\u2581erup": 8160,
  "\u2581firsthand": 8161,
  "\u2581flag": 8162,
  "\u2581helmet": 8163,
  "\u2581ice": 8164,
  "\u2581ignorance": 8165,
  "\u2581jiddik": 8166,
  "\u2581kajeebeplok": 8167,
  "\u2581kammanwa": 8168,
  "\u2581kappukot": 8169,
  "\u2581k\u00f5jepel": 8170,
  "\u2581liken": 8171,
  "\u2581murmuring": 8172,
  "\u2581m\u00e3lejjo\u00f1e": 8173,
  "\u2581offices": 8174,
  "\u2581ok": 8175,
  "\u2581organizations": 8176,
  "\u2581peir": 8177,
  "\u2581princes": 8178,
  "\u2581pull": 8179,
  "\u2581rebuild": 8180,
  "\u2581recommended": 8181,
  "\u2581regain": 8182,
  "\u2581resemble": 8183,
  "\u2581rijjipa\u00f1": 8184,
  "\u2581sources": 8185,
  "\u2581space": 8186,
  "\u2581spring": 8187,
  "\u2581stability": 8188,
  "\u2581star": 8189,
  "\u2581strayed": 8190,
  "\u2581subtle": 8191,
  "\u2581testify": 8192,
  "\u2581testing": 8193,
  "\u2581torment": 8194,
  "\u2581valued": 8195,
  "\u2581\u00f1\u00e3t": 8196,
  "2": 8197,
  "IA": 8198,
  "Ien": 8199,
  "Jud": 8200,
  "bar": 8201,
  "eferring": 8202,
  "jum": 8203,
  "most": 8204,
  "ooje": 8205,
  "o\u00f1": 8206,
  "son": 8207,
  "waj": 8208,
  "\u25812005": 8209,
  "\u2581Albert": 8210,
  "\u2581Baptizer": 8211,
  "\u2581Benefit": 8212,
  "\u2581B\u00f5ktok": 8213,
  "\u2581China": 8214,
  "\u2581Deluge": 8215,
  "\u2581End": 8216,
  "\u2581Itulal": 8217,
  "\u2581LU": 8218,
  "\u2581Malakai": 8219,
  "\u2581Martin": 8220,
  "\u2581Meditat": 8221,
  "\u2581Old": 8222,
  "\u2581Uwaak": 8223,
  "\u2581aeb\u00f5j": 8224,
  "\u2581antonelok": 8225,
  "\u2581attacked": 8226,
  "\u2581board": 8227,
  "\u2581bu\u00f1\u00f5t": 8228,
  "\u2581challenged": 8229,
  "\u2581committee": 8230,
  "\u2581concept": 8231,
  "\u2581conquering": 8232,
  "\u2581convincing": 8233,
  "\u2581deceive": 8234,
  "\u2581dominated": 8235,
  "\u2581ebellok": 8236,
  "\u2581emphasizes": 8237,
  "\u2581failing": 8238,
  "\u2581fought": 8239,
  "\u2581function": 8240,
  "\u2581insist": 8241,
  "\u2581joor": 8242,
  "\u2581j\u00e3t\u00f5m": 8243,
  "\u2581kaba\u00f1ba\u00f1": 8244,
  "\u2581kememeje": 8245,
  "\u2581k\u00f5ttare": 8246,
  "\u2581k\u00f5t\u00f5braki": 8247,
  "\u2581m\u0169lal": 8248,
  "\u2581neglected": 8249,
  "\u2581photo": 8250,
  "\u2581planted": 8251,
  "\u2581prophesy": 8252,
  "\u2581reacted": 8253,
  "\u2581rem\u00f5n\u00f5n\u00f5": 8254,
  "\u2581resting": 8255,
  "\u2581scroll": 8256,
  "\u2581shrink": 8257,
  "\u2581starts": 8258,
  "\u2581status": 8259,
  "\u2581tempt": 8260,
  "\u2581unite": 8261,
  "\u2581upper": 8262,
  "\u2581utiejlok": 8263,
  "\u2581violate": 8264,
  "\u2581wanting": 8265,
  "\u2581w\u00f5j": 8266,
  "\u2581w\u0169jlep": 8267,
  "Dut": 8268,
  "Ezra": 8269,
  "Hosea": 8270,
  "One": 8271,
  "aili\u00f1": 8272,
  "beben": 8273,
  "jikuul": 8274,
  "little": 8275,
  "meletlet": 8276,
  "\u2581121": 8277,
  "\u2581144,000.": 8278,
  "\u25814.)": 8279,
  "\u258148)": 8280,
  "\u2581AD": 8281,
  "\u2581Aikuj": 8282,
  "\u2581Athens": 8283,
  "\u2581Atonement": 8284,
  "\u2581Commandments": 8285,
  "\u2581Eban": 8286,
  "\u2581Ian": 8287,
  "\u2581Jel\u00e3": 8288,
  "\u2581Kron": 8289,
  "\u2581Looking": 8290,
  "\u2581Mediterranean": 8291,
  "\u2581ON": 8292,
  "\u2581Ok": 8293,
  "\u2581Secret": 8294,
  "\u2581Sin": 8295,
  "\u2581Te": 8296,
  "\u2581Utiej": 8297,
  "\u2581acquired": 8298,
  "\u2581adding": 8299,
  "\u2581advantages": 8300,
  "\u2581approachable": 8301,
  "\u2581assign": 8302,
  "\u2581awiia": 8303,
  "\u2581besides": 8304,
  "\u2581black": 8305,
  "\u2581blow": 8306,
  "\u2581broad": 8307,
  "\u2581bukwe": 8308,
  "\u2581derive": 8309,
  "\u2581dignified": 8310,
  "\u2581disloyal": 8311,
  "\u2581driloabjen": 8312,
  "\u2581earthquake": 8313,
  "\u2581eaur\u00f5ktata": 8314,
  "\u2581edrik": 8315,
  "\u2581ejit\u00f5nb\u00f5ro": 8316,
  "\u2581ekaitoktoklimo": 8317,
  "\u2581ekijejeto": 8318,
  "\u2581enthroned": 8319,
  "\u2581eokt\u00f5k": 8320,
  "\u2581eowore": 8321,
  "\u2581existing": 8322,
  "\u2581fifth": 8323,
  "\u2581inea": 8324,
  "\u2581introduced": 8325,
  "\u2581jealous": 8326,
  "\u2581jo\u00f1air": 8327,
  "\u2581kaamijak": 8328,
  "\u2581kabijuknen": 8329,
  "\u2581kabiti": 8330,
  "\u2581kajedmatmat": 8331,
  "\u2581kaj\u00f5\u00f1j\u00f5\u00f1": 8332,
  "\u2581kalibubuik": 8333,
  "\u2581kattol": 8334,
  "\u2581ka\u00f1": 8335,
  "\u2581komeo": 8336,
  "\u2581k\u00f5m\u00f1e": 8337,
  "\u2581lukw\u00f5j": 8338,
  "\u2581manna": 8339,
  "\u2581mareik": 8340,
  "\u2581m\u00f5jnolok": 8341,
  "\u2581nights": 8342,
  "\u2581party": 8343,
  "\u2581perceived": 8344,
  "\u2581pictured": 8345,
  "\u2581piece": 8346,
  "\u2581prevail": 8347,
  "\u2581rapidly": 8348,
  "\u2581rebuilt": 8349,
  "\u2581recover": 8350,
  "\u2581reg": 8351,
  "\u2581rejecting": 8352,
  "\u2581reliance": 8353,
  "\u2581ruu": 8354,
  "\u2581r\u0169turid": 8355,
  "\u2581scribe": 8356,
  "\u2581severely": 8357,
  "\u2581succeeded": 8358,
  "\u2581teens": 8359,
  "\u2581thinks": 8360,
  "\u2581threats": 8361,
  "\u2581tutu": 8362,
  "\u2581uair": 8363,
  "\u2581ukoti": 8364,
  "\u2581unjust": 8365,
  "\u2581vessel": 8366,
  "\u2581winds": 8367,
  "AJ": 8368,
  "Have": 8369,
  "aajlo": 8370,
  "barbar": 8371,
  "long": 8372,
  "lways": 8373,
  "sheep": 8374,
  "ton": 8375,
  "uk": 8376,
  "upreme": 8377,
  "\u258146)": 8378,
  "\u258151.": 8379,
  "\u2581B\u00f5ran": 8380,
  "\u2581Car": 8381,
  "\u2581Ebin": 8382,
  "\u2581European": 8383,
  "\u2581Gehenna": 8384,
  "\u2581Hagar": 8385,
  "\u2581Hi": 8386,
[...]
