{
  "</s>": 0,
  "<unk>": 1,
  ".": 2,
  ",": 3,
  "\u2581\"": 4,
  "\u2581the": 5,
  "\u2581to": 6,
  "\u2581li": 7,
  "\u2581a": 8,
  ":": 9,
  "\u2581of": 10,
  "?": 11,
  "\u2581and": 12,
  "\u2581": 13,
  "\u2581-": 14,
  "\u2581ya": 15,
  "\u2581in": 16,
  "\u2581na": 17,
  "\u2581that": 18,
  "s": 19,
  "\u2581(": 20,
  "a": 21,
  "\u2581kutya": 22,
  "\u2581okwa": 23,
  "\u2581tu": 24,
  "\u2581we": 25,
  "\u2581ka": 26,
  "'": 27,
  "\u2581Jehovah": 28,
  "\u2581is": 29,
  "\u2581O": 30,
  "\u2581e": 31,
  "\u2581for": 32,
  "\u2581ye": 33,
  "\u2581shi": 34,
  "\u2581God": 35,
  "\u2581Jesus": 36,
  "\u2581his": 37,
  "\u2581you": 38,
  "\u2581ota": 39,
  "\u2581po": 40,
  "\u2581ti": 41,
  "\u2581vulu": 42,
  "\u2581I": 43,
  "\u2581be": 44,
  ")": 45,
  "\u2581with": 46,
  "\u2581'": 47,
  "\u2581kala": 48,
  "\u2581was": 49,
  "\u2581he": 50,
  "\u2581not": 51,
  "\u2581will": 52,
  "\u2581oya": 53,
  "\u2581ko": 54,
  "ing": 55,
  "\u2581ngoka": 56,
  "\u2581Jehova": 57,
  "\u2581have": 58,
  "\u2581mu": 59,
  "\u2581wo": 60,
  "\u2581as": 61,
  "\u2581our": 62,
  "\u25811": 63,
  "\u2581oku": 64,
  "\u2581us": 65,
  "\u2581are": 66,
  "\u2581on": 67,
  "\u2581mboka": 68,
  "\u2581can": 69,
  "\u2581it": 70,
  "\u2581sha": 71,
  "\u2581sho": 72,
  "\u2581mo": 73,
  "\u2581ta": 74,
  ";": 75,
  "\u2581yi": 76,
  "\u2581The": 77,
  "tu": 78,
  "\u2581from": 79,
  "\u2581shoka": 80,
  "\u2581who": 81,
  "\u2581kale": 82,
  "\u2581What": 83,
  "\u2581do": 84,
  "\u2581what": 85,
  "\u2581Bible": 86,
  "\u2581by": 87,
  "\u2581they": 88,
  "shi": 89,
  "\u2581aantu": 90,
  "\u2581N": 91,
  "\u2581their": 92,
  "\u2581or": 93,
  "\u2581Kalunga": 94,
  "\u2581him": 95,
  "\u2581wu": 96,
  "\u2581okukala": 97,
  "\u2581opo": 98,
  "!": 99,
  "\u2581your": 100,
  "\u2581this": 101,
  "\u2581nenge": 102,
  "\u2581about": 103,
  "\u25812": 104,
  "\u2581tatu": 105,
  "\u2581people": 106,
  "\u2581oha": 107,
  "\u2581all": 108,
  "\u2581ndyoka": 109,
  "\u2581had": 110,
  "\u2581n": 111,
  "\u2581How": 112,
  "\u2581kombinga": 113,
  "\u2581ke": 114,
  "\u25813": 115,
  "\u2581ku": 116,
  "\u2581them": 117,
  "e": 118,
  "\u2581vulika": 119,
  "\u2581ha": 120,
  "\u2581hala": 121,
  "\u2581did": 122,
  "\u2581were": 123,
  "\u2581lya": 124,
  "\u2581at": 125,
  "ed": 126,
  "\u2581would": 127,
  "\u2581when": 128,
  "\u2581one": 129,
  "\u2581ningi": 130,
  "\u2581Ihe": 131,
  "\u2581no": 132,
  "\u2581twa": 133,
  "\u2581taya": 134,
  "\u2581mbyoka": 135,
  "\u2581ngele": 136,
  "\u2581an": 137,
  "\u2581Mb": 138,
  "\u2581nosho": 139,
  "\u2581my": 140,
  "\u25815": 141,
  "\u2581In": 142,
  "\u2581oye": 143,
  "\u2581has": 144,
  "\u2581time": 145,
  "\u2581tashi": 146,
  "\u2581help": 147,
  "\u2581ihe": 148,
  "\u2581me": 149,
  "ela": 150,
  "\u2581ga": 151,
  "\u2581owala": 152,
  "o": 153,
  "\u25814": 154,
  "\u2581life": 155,
  "\u2581ngiini": 156,
  "\u2581popi": 157,
  "\u2581how": 158,
  "\u2581so": 159,
  "\u2581wa": 160,
  "\u2581may": 161,
  "\u2581He": 162,
  "\u2581she": 163,
  "\u2581ndi": 164,
  "\u2581those": 165,
  "\u2581kwathele": 166,
  "\u2581lye": 167,
  "\u2581Ombiimbeli": 168,
  "\u2581nda": 169,
  "\u2581We": 170,
  "\u2581m": 171,
  "\u2581but": 172,
  "\u2581A": 173,
  "\u2581ndje": 174,
  "\u2581Okwa": 175,
  "\u25816": 176,
  "b": 177,
  "otwa": 178,
  "gele": 179,
  "li": 180,
  "\u2581tayi": 181,
  "\u2581dha": 182,
  "\u2581o": 183,
  "\u2581[": 184,
  "\u2581ngaashi": 185,
  "\u2581more": 186,
  "\u2581her": 187,
  "\u2581love": 188,
  "\u2581nawa": 189,
  "ly": 190,
  "\u2581E": 191,
  "\u2581ulike": 192,
  "onando": 193,
  "\u2581osha": 194,
  "\u2581good": 195,
  "\u2581also": 196,
  "\u2581otayi": 197,
  "\u2581iinima": 198,
  "\u2581longo": 199,
  "\u2581mono": 200,
  "\u2581some": 201,
  "\u2581kehe": 202,
  "\u258115": 203,
  "\u2581Paul": 204,
  "\u2581hole": 205,
  "\u2581gumwe": 206,
  "\u2581should": 207,
  "]": 208,
  "\u2581been": 209,
  "\u2581make": 210,
  "\u2581ndhoka": 211,
  "\u2581if": 212,
  "\u2581M": 213,
  "\u2581out": 214,
  "\u2581pumbwa": 215,
  "\u2581kwathela": 216,
  "\u2581ndjoka": 217,
  "\u2581way": 218,
  "\u2581i": 219,
  "\u2581does": 220,
  "\u2581things": 221,
  "\u2581many": 222,
  "\u2581work": 223,
  "\u2581Omolwashike": 224,
  "\u2581onda": 225,
  "\u2581could": 226,
  "\u2581Why": 227,
  "\u2581nasha": 228,
  "\u2581shike": 229,
  "\u2581When": 230,
  "\u2581okuninga": 231,
  "\u2581It": 232,
  "\u2581omuntu": 233,
  "\u2581ano": 234,
  "\u2581But": 235,
  "\u2581haya": 236,
  "\u2581otu": 237,
  "\u2581u": 238,
  "\u2581Sho": 239,
  "\u2581lombwele": 240,
  "\u2581spirit": 241,
  "\u2581up": 242,
  "\u2581need": 243,
  "\u258112": 244,
  "\u2581otatu": 245,
  "\u2581such": 246,
  "\u2581ninga": 247,
  "ye": 248,
  "\u2581Paulus": 249,
  "\u2581pamwe": 250,
  "\u2581David": 251,
  "\u2581uvite": 252,
  "\u258110": 253,
  "\u2581others": 254,
  "\u258114": 255,
  "\u258111": 256,
  "\u2581example": 257,
  "\u2581said": 258,
  "\u2581faith": 259,
  "\u2581yetu": 260,
  "\u2581ina": 261,
  "\u2581fa": 262,
  "\u2581inaa": 263,
  "\u2581nkene": 264,
  "\u2581world": 265,
  "\u25817": 266,
  "\u2581dhi": 267,
  "\u2581Kingdom": 268,
  "\u2581there": 269,
  "\u2581ngaa": 270,
  "\u2581other": 271,
  "\u2581yalwe": 272,
  "\u2581ge": 273,
  "tashi": 274,
  "\u2581even": 275,
  "\u2581okwe": 276,
  "\u2581oyendji": 277,
  "\u2581congregation": 278,
  "\u2581first": 279,
  "\u2581For": 280,
  "\u2581uuna": 281,
  "\u2581k": 282,
  "\u2581earth": 283,
  "\u2581otaya": 284,
  "ngiini": 285,
  "\u2581tala": 286,
  "\u2581aluhe": 287,
  "\u2581moka": 288,
  "\u2581tali": 289,
  "\u2581iilonga": 290,
  "\u2581pe": 291,
  "\u2581olya": 292,
  "\u2581Onkee": 293,
  "\u2581day": 294,
  "\u2581family": 295,
  "\u2581ohay": 296,
  "\u258113": 297,
  "\u2581noku": 298,
  "\u25818": 299,
  "\u2581molwaashoka": 300,
  "\u2581Christians": 301,
  "\u258124": 302,
  "\u2581years": 303,
  "\u2581gandja": 304,
  "\u2581than": 305,
  "/": 306,
  "\u2581Oshike": 307,
  "\u2581because": 308,
  "\"": 309,
  "\u2581yo": 310,
  "the": 311,
  "\u2581ethimbo": 312,
  "\u258117": 313,
  "\u2581man": 314,
  "\u2581Christian": 315,
  "\u2581know": 316,
  "\u2581simana": 317,
  "\u2581longitha": 318,
  "\u2581If": 319,
  "\u2581Aakriste": 320,
  "\u2581ayehe": 321,
  "\u2581As": 322,
  "\u2581ningwa": 323,
  "\u2581see": 324,
  "\u2581They": 325,
  "\u2581these": 326,
  "\u2581owa": 327,
  "\u2581nando": 328,
  "\u25811,": 329,
  "\u2581Christ": 330,
  "\u2581lyetu": 331,
  "\u2581must": 332,
  "\u2581*": 333,
  "\u2581into": 334,
  "\u2581ninge": 335,
  "i": 336,
  "wa": 337,
  "\u2581made": 338,
  "\u2581says": 339,
  "\u2581yawo": 340,
  "ku": 341,
  "\u2581mona": 342,
  "ka": 343,
  "\u2581heart": 344,
  "\u2581brothers": 345,
  "\u2581Witnesses": 346,
  "\u2581pula": 347,
  "\u2581spiritual": 348,
  "\u2581te": 349,
  "\u258120": 350,
  "ya": 351,
  "\u2581This": 352,
  "sigo": 353,
  "\u2581Onda": 354,
  "\u2581You": 355,
  "\u2581being": 356,
  "\u2581miilonga": 357,
  "\u2581noonkondo": 358,
  "d": 359,
  "\u25819": 360,
  "\u2581only": 361,
  "\u2581tameke": 362,
  "\u2581shika": 363,
  "\u2581yevi": 364,
  "\u2581(1": 365,
  "\u2581children": 366,
  "\u2581naye": 367,
  "\u2581nokwa": 368,
  "\u2581like": 369,
  "\u2581which": 370,
  "\u2581might": 371,
  "\u2581pethimbo": 372,
  "\u2581take": 373,
  "\u2581ayihe": 374,
  "\u2581yaKalunga": 375,
  "\u2581gwe": 376,
  "\u2581keep": 377,
  "\u2581komeho": 378,
  "\u2581become": 379,
  "\u2581y": 380,
  "\u2581true": 381,
  "\u258116": 382,
  "\u258119": 383,
  "\u2581osho": 384,
  "\u2581Satan": 385,
  "\u2581ly": 386,
  "\u2581yu": 387,
  "\u2581feel": 388,
  "\u2581eitaalo": 389,
  "\u2581mone": 390,
  "\u2581tuu": 391,
  "\u2581vule": 392,
  "\u2581oshinima": 393,
  "\u2581lela": 394,
  "\u2581And": 395,
  "\u2581dhiladhila": 396,
  "\u2581That": 397,
  "\u2581pa": 398,
  "\u2581learn": 399,
  "\u2581then": 400,
  "\u2581Konima": 401,
  "\u2581come": 402,
  "\u2581uuwanawa": 403,
  "\u2581give": 404,
  "tadhi": 405,
  "\u2581yamwe": 406,
  "ga": 407,
  "\u2581nayo": 408,
  "\u2581over": 409,
  "\u2581name": 410,
  "\u2581So": 411,
  "hayi": 412,
  "tandi": 413,
  "\u2581oto": 414,
  "\u2581unene": 415,
  "O": 416,
  "\u2581dhaJehova": 417,
  "\u2581lyaKalunga": 418,
  "\u2581words": 419,
  "\u2581show": 420,
  "\u2581shili": 421,
  "\u2581Opo": 422,
  "\u2581wete": 423,
  "\u2581Moses": 424,
  "\u2581now": 425,
  "\u2581own": 426,
  "\u2581ningitha": 427,
  "\u2581well": 428,
  "\u2022": 429,
  "\u2581kombanda": 430,
  "\u2581mbela": 431,
  "\u2581before": 432,
  "\u258122": 433,
  "Read": 434,
  "\u2581nduno": 435,
  "\u258121": 436,
  "Lesha": 437,
  "\u2581pewa": 438,
  "\u2581dhe": 439,
  "\u2581just": 440,
  "\u2581nale": 441,
  "\u2581ones": 442,
  "\u2581new": 443,
  "\u2581Pashiholelwa": 444,
  "\u2581muuyuni": 445,
  "\u2581landula": 446,
  "\u2581after": 447,
  "t": 448,
  "\u2581yaJehova": 449,
  "\u2581Abraham": 450,
  "la": 451,
  "\u2581important": 452,
  "\u2581person": 453,
  "\u2581popiwa": 454,
  "\u2581death": 455,
  "\u2581truth": 456,
  "\u2581longele": 457,
  "\u2581times": 458,
  "I": 459,
  "\u2581why": 460,
  "\u2581Aan": 461,
  "\u2581yela": 462,
  "\u258118": 463,
  "\u2581John": 464,
  "\u2581Word": 465,
  "\u2581another": 466,
  "\u2581men": 467,
  "\u2581very": 468,
  "\u2581konima": 469,
  "\u2581nokuli": 470,
  "\u2581much": 471,
  "\u2581use": 472,
  "\u2581zi": 473,
  "\u2581T": 474,
  "\u2581kuKalunga": 475,
  "\u2581say": 476,
  "\u2581To": 477,
  "\u2581want": 478,
  "\u2581ohole": 479,
  "twa": 480,
  "\u2581Oya": 481,
  "\u2581Shok": 482,
  "\u2581any": 483,
  "\u2581today": 484,
  "\u2581faithful": 485,
  "\u2581taga": 486,
  "\u2581Do": 487,
  "\u258128": 488,
  "\u2581tya": 489,
  "\u2581mpoka": 490,
  "\u2581hoka": 491,
  "\u2581parents": 492,
  "\u2581esiku": 493,
  "\u2581kuJehova": 494,
  "\u2581serve": 495,
  "\u2581find": 496,
  "\u2581Uuna": 497,
  "\u2581ministry": 498,
  "\u2581omukumo": 499,
  "\u2581two": 500,
  "\u2581nyanyukwa": 501,
  "\u2581ombwanawa": 502,
  "\u2581omwenyo": 503,
  "\u2581gamwe": 504,
  "\u2581oshoka": 505,
  "\u2581Osha": 506,
  "\u2581dhaKalunga": 507,
  "\u2581ote": 508,
  "\u2581manga": 509,
  "\u2581end": 510,
  "tatu": 511,
  "\u2581part": 512,
  "\u2581go": 513,
  "\u2581ndika": 514,
  "\u2581right": 515,
  "\u2581Oohapu": 516,
  "\u2581owu": 517,
  "epandja": 518,
  "\u2581mwene": 519,
  "\u2581Kristus": 520,
  "\u2581young": 521,
  "\u2581each": 522,
  ".)": 523,
  "\u2581consider": 524,
  "\u2581great": 525,
  "\u2581lyaJehova": 526,
  "\u2581okumona": 527,
  "\u2581tsikile": 528,
  "\u2581oohapu": 529,
  "\u2581through": 530,
  "\u2581apostle": 531,
  "\u2581Adam": 532,
  "\u2581oshi": 533,
  "\u2581holy": 534,
  "atu": 535,
  "...": 536,
  "\u2581natango": 537,
  "\u2581noya": 538,
  "hashi": 539,
  "\u2581read": 540,
  "\u2581found": 541,
  "\u2581p": 542,
  "\u2581ngaaka": 543,
  "\u2581oonkondo": 544,
  "\u2581ombepo": 545,
  "\u2581study": 546,
  "\u2581ishewe": 547,
  "\u2581kunena": 548,
  "\u2581etha": 549,
  "\u2581One": 550,
  "\u2581Peter": 551,
  "\u2581wife": 552,
  "\u2581Father": 553,
  "\u2581oyo": 554,
  "\u25818.": 555,
  "\u2581Satana": 556,
  "\u2581worship": 557,
  "\u2581put": 558,
  "\u2581never": 559,
  "\u2581ilongo": 560,
  "\u2581itaala": 561,
  "\u2581told": 562,
  "\u2581where": 563,
  "\u2581tokola": 564,
  "\u2581means": 565,
  "\u2581megongalo": 566,
  "\u2581article": 567,
  "\u2581most": 568,
  "\u2581nyola": 569,
  "\u258125": 570,
  "\u2581ita": 571,
  "\u2581yandje": 572,
  "E": 573,
  "\u2581However": 574,
  "\u2581Lesha": 575,
  "\u2581preaching": 576,
  "\u2581(2": 577,
  "\u258123": 578,
  "\u258110.": 579,
  "\u2581news": 580,
  "\u258112.": 581,
  "\u2581ewanawa": 582,
  "y": 583,
  "\u2581shimwe": 584,
  "\u2581Read": 585,
  "\u2581himself": 586,
  "\u2581oshili": 587,
  "\u2581though": 588,
  "\u2581wrote": 589,
  "\u2581handi": 590,
  "\u2581oyi": 591,
  "\u2581vulith": 592,
  "\u2581za": 593,
  "\u2581ende": 594,
  "\u2581mind": 595,
  "\u2581momukal": 596,
  "\u25812.": 597,
  "\u2581mOmbiimbeli": 598,
  "\u2581aadhiginini": 599,
  "\u2581ili": 600,
  "\u2581get": 601,
  "\u2581let": 602,
  "\u2581ondjapuki": 603,
  "\u2581Israel": 604,
  "\u2581its": 605,
  "\u2581against": 606,
  "\u2581okuza": 607,
  "Episalomi": 608,
  "\u2581nayi": 609,
  "\u2581uule": 610,
  "\u2581odha": 611,
  "\u2581faathana": 612,
  "\u2581oshiholelwa": 613,
  "\u2581kambadhala": 614,
  "\u2581live": 615,
  "\u2581service": 616,
  "\u2581After": 617,
  "\u2581same": 618,
  "\u2581onkalamwenyo": 619,
  "\u2581tegelela": 620,
  "\u2581ngashingeyi": 621,
  "\u2581limwe": 622,
  "\u2581gave": 623,
  "\u258117.": 624,
  "\u2581omolw": 625,
  "\u2581lyawo": 626,
  "\u2581used": 627,
  "Mat": 628,
  "\u2581No": 629,
  "\u2581gawo": 630,
  "\u2581long": 631,
  "\u2581omu": 632,
  "\u25819.": 633,
  "\u25814.": 634,
  "\u2581gwa": 635,
  "\u2581Petrus": 636,
  "\u2581Scriptures": 637,
  "\u2581oshigwana": 638,
  "\u2581anointed": 639,
  "\u2581lesha": 640,
  "\u2581naanaa": 641,
  "\u2581Job": 642,
  "mu": 643,
  "\u2581oyindji": 644,
  "\u2581Kor": 645,
  "\u2581ohayi": 646,
  "\u258113.": 647,
  "\u258130": 648,
  "\u2581course": 649,
  "\u2581omayele": 650,
  "\u2581Shik": 651,
  "\u2581thike": 652,
  "\u2581edhina": 653,
  "\u2581human": 654,
  "\u2581geni": 655,
  "\u2581place": 656,
  "\u2581disciples": 657,
  "\u2581elders": 658,
  "\u2581kuye": 659,
  "\u2581doing": 660,
  "\u2581King": 661,
  "\u2581Some": 662,
  "\u2581marriage": 663,
  "\u2581oga": 664,
  "\u2581think": 665,
  "\u258115.": 666,
  "\u2581ekwatathano": 667,
  "N": 668,
  "\u2581brother": 669,
  "\u2581too": 670,
  "\u2581servants": 671,
  "\u25817.": 672,
  "al": 673,
  "\u2581g": 674,
  "\u25819,": 675,
  "\u2581She": 676,
  "\u2581okulonga": 677,
  "\u2581ombili": 678,
  "\u258116.": 679,
  "\u2581mwa": 680,
  "\u258115,": 681,
  "\u25815.": 682,
  "\u2581K": 683,
  "\u2581helped": 684,
  "\u2581monkalamwenyo": 685,
  "\u258111.": 686,
  "\u2581getu": 687,
  "\u2581became": 688,
  "\u2581Oonzapo": 689,
  "\u2581ways": 690,
  "\u2581popepi": 691,
  "\u2581during": 692,
  "\u2581every": 693,
  "\u2581given": 694,
  "\u2581view": 695,
  "\u2581ando": 696,
  "omimvo": 697,
  "\u2581At": 698,
  "\u2581later": 699,
  "\u2581waKalunga": 700,
  "\u2581yimwe": 701,
  "\u2581ehalo": 702,
  "\u2581hope": 703,
  "\u2581Aaisraeli": 704,
  "\u2581dhawo": 705,
  "\u2581peace": 706,
  "\u2581omolwashike": 707,
  "\u2581dhetu": 708,
  "\u2581yoye": 709,
  "\u2581home": 710,
  "\u2581pandula": 711,
  "\u2581set": 712,
  "\u2581simanenena": 713,
  "Tala": 714,
  "\u258131": 715,
  "\u2581yethimbo": 716,
  "onkundana": 717,
  "we": 718,
  "See": 719,
  "ther": 720,
  "\u2581Tim": 721,
  "\u2581future": 722,
  "\u2581tula": 723,
  "\u25816.": 724,
  "\u2581C": 725,
  "\u2581galikana": 726,
  "\u2581okupitila": 727,
  "amboka": 728,
  "\u2581inekela": 729,
  "\u2581konakona": 730,
  "\u2581days": 731,
  "\u2581kundathana": 732,
  "\u2581uuyelele": 733,
  "\u2581megulu": 734,
  "\u2581came": 735,
  "\u2581away": 736,
  "\u2581gw": 737,
  "\u2581Daniel": 738,
  "\u2581often": 739,
  "\u2581support": 740,
  "\u2581always": 741,
  "\u2581heaven": 742,
  "\u2581back": 743,
  "\u258114.": 744,
  "\u2581something": 745,
  "\u2581word": 746,
  "\u2581nota": 747,
  "\u2581questions": 748,
  "nkene": 749,
  "\u25816,": 750,
  "\u2581ask": 751,
  "\u2581otadhi": 752,
  "ge": 753,
  "\u258129": 754,
  "\u2581ogendji": 755,
  "\u2581understand": 756,
  "\u2581iha": 757,
  "\u2581lyoye": 758,
  "\u2581nyanyukilwa": 759,
  "\u2581Johannes": 760,
  "\u2581humans": 761,
  "\u2581yopambepo": 762,
  "\u2581oshimpwiyu": 763,
  "\u2581natu": 764,
  "\u2581serving": 765,
  "\u2581sin": 766,
  "\u25813.": 767,
  "\u2581began": 768,
  "\u2581aalongwa": 769,
  "\u2581am": 770,
  "\u2581Ngaashi": 771,
  "\u2581ombinga": 772,
  "\u2581tawu": 773,
  "\u2581With": 774,
  "\u2581uvitha": 775,
  "\u2581gwana": 776,
  "\u2581living": 777,
  "\u2581still": 778,
  "oka": 779,
  "\u2581kutha": 780,
  "\u2581okutya": 781,
  "\u2581remain": 782,
  "\u2581tsu": 783,
  "\u2581able": 784,
  "\u2581needed": 785,
  "\u2581whom": 786,
  "\u2581year": 787,
  "\u2581kola": 788,
  "\u2581under": 789,
  "\u2581longe": 790,
  "\u2581naashoka": 791,
  "\u2581prayer": 792,
  "\u2581Molwaasho": 793,
  "\u258118.": 794,
  "\u2581Psalm": 795,
  "\u2581kwatela": 796,
  "\u2581aamwatate": 797,
  "\u2581aanona": 798,
  "\u2581joy": 799,
  "\u2581By": 800,
  "\u2581Matthew": 801,
  "\u2581Our": 802,
  "\u2581Son": 803,
  "\u2581benefit": 804,
  "\u2581okuya": 805,
  "\u2581making": 806,
  "\u258126": 807,
  "\u2581naantu": 808,
  "\u2581Then": 809,
  "\u2581lyaJesus": 810,
  "\u2581page": 811,
  "\u2581lini": 812,
  "\u2581yUukwaniilwa": 813,
  "iinima": 814,
  "\u2581aavali": 815,
  "\u2581pambepo": 816,
  "\u2581power": 817,
  "\u2581puka": 818,
  "\u25817,": 819,
  "\u2581fellow": 820,
  "\u2581kwa": 821,
  "\u2581peni": 822,
  "\u2581Let": 823,
  "\u2581really": 824,
  "ndi": 825,
  "\u258127": 826,
  "\u2581husband": 827,
  "\u2581si": 828,
  "\u2581Peha": 829,
  "\u2581mbuka": 830,
  "\u2581NW": 831,
  "\u2581close": 832,
  "\u2581loving": 833,
  "\u2581son": 834,
  "\u2581Is": 835,
  "\u2581etegameno": 836,
  "\u2581felt": 837,
  "\u2581kumwe": 838,
  "\u2581uvu": 839,
  "\u2581Pet": 840,
  "\u2581Israelites": 841,
  "\u2581S": 842,
  "\u2581personal": 843,
  "\u2581opu": 844,
  "le": 845,
  "\u2581old": 846,
  "\u2581Yes": 847,
  "\u2581down": 848,
  "ni": 849,
  "\u2581counsel": 850,
  "\u2581kwata": 851,
  "\u2581okukwathela": 852,
  "\u2581together": 853,
  "\u2581ipula": 854,
  "\u2581Many": 855,
  "\u2581book": 856,
  "\u2581meetings": 857,
  "\u2581olyo": 858,
  "\u2581result": 859,
  "\u2581learned": 860,
  "\u2581naJehova": 861,
  "\u258111,": 862,
  "\u2581baptized": 863,
  "\u2581best": 864,
  "\u2581ekwatho": 865,
  "dhi": 866,
  "\u25818,": 867,
  "\u2581nuudhiginini": 868,
  "\u2581tell": 869,
  "\u2581oshike": 870,
  "\u2581agehe": 871,
  "\u2581three": 872,
  "\u2581popya": 873,
  "\u2581father": 874,
  "\u2581ourselves": 875,
  "\u2581uka": 876,
  "\u2581Oha": 877,
  "\u2581pehala": 878,
  "\u2581someone": 879,
  "\u25814,": 880,
  "\u2581longa": 881,
  "\u2581order": 882,
  "\u2581yene": 883,
  "\u2581themselves": 884,
  "\u2581bring": 885,
  "\u2581century": 886,
  "\u2581omudhiginini": 887,
  "\u2581taamba": 888,
  "\u2581among": 889,
  "\u2581ho": 890,
  "\u258119.": 891,
  "\u2581His": 892,
  "\u2581omatokolo": 893,
  "\u2581yini": 894,
  "n": 895,
  "\u2581Jerusalem": 896,
  "\u2581full": 897,
  "\u2581mondjila": 898,
  "\u2581reason": 899,
  "\u2581yamukula": 900,
  "\u2581happy": 901,
  "\u2581possible": 902,
  "\u2581pu": 903,
  "\u2581purpose": 904,
  "\u2581yilwe": 905,
  "A": 906,
  "\u2581moshitopolwa": 907,
  "onkalo": 908,
  "\u2581kaaye": 909,
  "\u2581ngawo": 910,
  "\u2581without": 911,
  "\u2581Even": 912,
  "\u2581sisters": 913,
  "\u2581aapiya": 914,
  "\u2581last": 915,
  "ko": 916,
  "\u2581odhindji": 917,
  "\u2581asked": 918,
  "\u2581relationship": 919,
  "\u258116,": 920,
  "\u2581continue": 921,
  "\u2581fact": 922,
  "\u2581hand": 923,
  "\u2581look": 924,
  "muyapostoli": 925,
  "\u2581oshilonga": 926,
  "\u2581gwanenena": 927,
  "\u2581sa": 928,
  "\u2581Pethimbo": 929,
  "\u2581shaKalunga": 930,
  "\u2581ninginithwa": 931,
  "\u2581nokukala": 932,
  "\u2581tseya": 933,
  "\u2581mbika": 934,
  "\u2581adhika": 935,
  "\u2581inaaya": 936,
  "aakuluntugongalo": 937,
  "\u258132": 938,
  "\u2581kaya": 939,
  "\u2581care": 940,
  "\u2581oomvula": 941,
  "\u2581knew": 942,
  "\u2581message": 943,
  "\u2581On": 944,
  "\u2581Yet": 945,
  "\u2581lead": 946,
  "\u2581natse": 947,
  "\u2581sure": 948,
  "\u2581wetu": 949,
  "Eps": 950,
  "\u2581experience": 951,
  "\u2581gOmbiimbeli": 952,
  "\u2581lyoku": 953,
  "\u258113,": 954,
  "\u2581hard": 955,
  "\u2581Ot": 956,
  "\u2581Uu": 957,
  "\u2581oshitopolwa": 958,
  "\u2581Kal": 959,
  "\u2581language": 960,
  "mumwatate": 961,
  "\u2581dh": 962,
  "\u2581thiluthilu": 963,
  "\u2581share": 964,
  "\u2581There": 965,
  "\u2581avoid": 966,
  "\u2581both": 967,
  "\u258110,": 968,
  "\u2581oshindji": 969,
  "\u2581enyanyu": 970,
  "\u2581ondi": 971,
  "\u25812,": 972,
  "\u258133": 973,
  "\u2581New": 974,
  "\u2581elalakano": 975,
  "\u2581okupopya": 976,
  "S": 977,
  "\u2581friends": 978,
  "\u2581imitate": 979,
  "\u2581kaatu": 980,
  "\u2581Because": 981,
  "\u2581Ota": 982,
  "\u2581ningilwa": 983,
  "\u2581took": 984,
  "\u2581omagano": 985,
  "\u2581house": 986,
  "\u2581mean": 987,
  "\u2581oshiwanawa": 988,
  "\u2581wanted": 989,
  "\u2581ever": 990,
  "\u2581tse": 991,
  "\u2581called": 992,
  "\u2581pita": 993,
  "\u2581itaa": 994,
  "\u2581otandi": 995,
  "\u2581lyo": 996,
  "tumwalaka": 997,
  "\u2581okwi": 998,
  "\u2581while": 999,
  "\u2581Ina": 1000,
  "\u2581done": 1001,
  "\u2581enjoy": 1002,
  "\u2581mankind": 1003,
  "\u2581tale": 1004,
  "\u2581tw": 1005,
  "\u2581face": 1006,
  "\u2581Consider": 1007,
  "\u2581omulumentu": 1008,
  "\u2581yokuuvitha": 1009,
  "\u2581Uukwaniilwa": 1010,
  "The": 1011,
  "\u2581different": 1012,
  "\u2581gift": 1013,
  "\u2581matter": 1014,
  "\u2581bad": 1015,
  "\u2581mana": 1016,
  "\u2581pwa": 1017,
  "\u2581gu": 1018,
  "\u2581ne": 1019,
  "\u2581wicked": 1020,
  "shinakugwanithwa": 1021,
  "\u258134": 1022,
  "\u2581kaantu": 1023,
  "\u2581mother": 1024,
  "\u2581pokati": 1025,
  "\u2581upon": 1026,
  "\u2581My": 1027,
  "\u2581child": 1028,
  "\u2581ki": 1029,
  "\u2581monika": 1030,
  "\u2581gwandje": 1031,
  "\u2581ompito": 1032,
  "\u2581muukalele": 1033,
  "\u2581naKalunga": 1034,
  "\u2581strong": 1035,
  "\u2581woman": 1036,
  "\u2581Ka": 1037,
  "\u2581aagwayekwa": 1038,
  "\u2581having": 1039,
  "\u2581knowledge": 1040,
  "\u2581married": 1041,
  "\u2581organization": 1042,
  "\u2581Eeno": 1043,
  "\u2581difficult": 1044,
  "\u2581desire": 1045,
  "\u2581inyengitha": 1046,
  "\u2581tila": 1047,
  "\u2581oli": 1048,
  "\u2581alihe": 1049,
  "\u2581Omuwa": 1050,
  "\u2581aa": 1051,
  "\u2581situation": 1052,
  "\u2581cannot": 1053,
  "\u2581preach": 1054,
  "\u2581sister": 1055,
  "yu": 1056,
  "\u2581ladhipike": 1057,
  "\u2581ngaka": 1058,
  "\u2581nomwenyo": 1059,
  "\u2581okwiilonga": 1060,
  "\u2581dhimbulukwa": 1061,
  "\u2581Tala": 1062,
  "\u2581gandje": 1063,
  "\u2581oshidhigu": 1064,
  "\u2581lives": 1065,
  "\u258113)": 1066,
  "\u258120.": 1067,
  "\u2581nyolwa": 1068,
  "\u2581gwetu": 1069,
  "\u2581mondjokana": 1070,
  "\u2581okulongitha": 1071,
  "\u2581awuhe": 1072,
  "\u2581few": 1073,
  "\u2581udha": 1074,
  "\u2581yaJesus": 1075,
  "\u258110)": 1076,
  "\u2581iikala": 1077,
  "\u2581oonkambadhala": 1078,
  "\u258137": 1079,
  "\u2581hali": 1080,
  "\u2581however": 1081,
  "\u2581okulongela": 1082,
  "\u2581receive": 1083,
  "\u2581pulakene": 1084,
  "\u2581saw": 1085,
  "er": 1086,
  "\u2581nena": 1087,
  "\u2581toward": 1088,
  "hose": 1089,
  "\u2581eitulomo": 1090,
  "\u2581olundji": 1091,
  "hadhi": 1092,
  "otawu": 1093,
  "\u25814)": 1094,
  "\u2581answer": 1095,
  "\u2581wisdom": 1096,
  "pu": 1097,
  "\u2581All": 1098,
  "\u2581Tate": 1099,
  "\u2581eta": 1100,
  "\u2581yelitha": 1101,
  "\u2581Mateus": 1102,
  "\u2581respect": 1103,
  "\u2581between": 1104,
  "\u2581free": 1105,
  "\u2581wi": 1106,
  "\u2581better": 1107,
  "\u2581gwanitha": 1108,
  "\u2581kuume": 1109,
  "\u2581kwaashoka": 1110,
  "\u2581lyandje": 1111,
  "\u2581next": 1112,
  "\u2581ongawo": 1113,
  "\u2581kwatelwa": 1114,
  "\u2581Genesis": 1115,
  "\u2581giving": 1116,
  "\u2581heavenly": 1117,
  "\u2581yashili": 1118,
  "\u2581omadhiladhilo": 1119,
  "mathimbo": 1120,
  "\u2581Timoteus": 1121,
  "\u2581needs": 1122,
  "\u2581problems": 1123,
  "\u2581Joseph": 1124,
  "\u2581aagundjuka": 1125,
  "\u2581Isaiah": 1126,
  "\u2581omumwatate": 1127,
  "\u2581yourself": 1128,
  "\u25818)": 1129,
  "\u2581believe": 1130,
  "\u258115)": 1131,
  "\u2581P": 1132,
  "\u2581etele": 1133,
  "\u2581omukalo": 1134,
  "\u2581uve": 1135,
  "\u2581trust": 1136,
  "\u2581ino": 1137,
  "\u2581evi": 1138,
  "\u2581lyaashono": 1139,
  "\u2581loyal": 1140,
  "\u2581thinking": 1141,
  "\u258111)": 1142,
  "\u2581World": 1143,
  "\u2581yOmbiimbeli": 1144,
  "na": 1145,
  "\u258118,": 1146,
  "\u2581again": 1147,
  "\u2581nyanyudha": 1148,
  "\u2581pray": 1149,
  "\u2581Aakorinto": 1150,
  "\u2581speak": 1151,
  "\u2581kindness": 1152,
  "\u2581okuulika": 1153,
  "tsokumwe": 1154,
  "\u2581noye": 1155,
  "\u2581Joh": 1156,
  "\u2581eyes": 1157,
  "\u2581qualities": 1158,
  "ohandi": 1159,
  "\u2581Lord": 1160,
  "\u2581From": 1161,
  "\u2581These": 1162,
  "\u2581omukwaniilwa": 1163,
  "\u2581ithanwa": 1164,
  "\u2581real": 1165,
  "\u2581teach": 1166,
  "\u2581Timothy": 1167,
  "\u2581miiti": 1168,
  "\u2581moku": 1169,
  "\u2581uupyakadhi": 1170,
  "Oohapu": 1171,
  "\u2581feelings": 1172,
  "\u2581omwa": 1173,
  "\u258121.": 1174,
  "\u2581awike": 1175,
  "\u2581kee": 1176,
  "\u2581loved": 1177,
  "\u2581Luke": 1178,
  "\u2581kongo": 1179,
  "\u2581moved": 1180,
  "\u2581Aajuda": 1181,
  "\u2581Watch": 1182,
  "\u2581conduct": 1183,
  "\u2581enene": 1184,
  "\u2581kind": 1185,
  "\u2581naamwameme": 1186,
  "\u2581Omukriste": 1187,
  "\u2581following": 1188,
  "\u2581lyashili": 1189,
  "\u2581Be": 1190,
  "\u2581ningile": 1191,
  "\u2581try": 1192,
  "lthough": 1193,
  "\u258117)": 1194,
  "\u2581omathimbo": 1195,
  "\u25819)": 1196,
  "\u2581OMAIMBILO": 1197,
  "\u2581thought": 1198,
  "\u258140": 1199,
  "\u2581Samuel": 1200,
  "\u2581adha": 1201,
  "\u2581allow": 1202,
  "\u2581wrong": 1203,
  "\u2581died": 1204,
  "\u2581whe": 1205,
  "\u2581follow": 1206,
  "\u2581itatu": 1207,
  "\u2581oyana": 1208,
  "\u2581went": 1209,
  "\u2581decisions": 1210,
  "\u2581left": 1211,
  "\u2581likely": 1212,
  "\u2581noha": 1213,
  "\u2581willing": 1214,
  "\u2581wise": 1215,
  "\u2581lyokukala": 1216,
  "\u2581simaneka": 1217,
  "\u2581Iilonga": 1218,
  "\u2581members": 1219,
  "\u2581system": 1220,
  "\u2581question": 1221,
  "landuli": 1222,
  "malongelokalunga": 1223,
  "\u2581Your": 1224,
  "\u2581Aa": 1225,
  "\u2581iiwanawa": 1226,
  "\u2581near": 1227,
  "\u2581ooyakwawo": 1228,
  "\u2581self": 1229,
  "\u2581king": 1230,
  "\u2581okugandja": 1231,
  "\u2581uuyuni": 1232,
  "\u2581Mo": 1233,
  "\u2581Of": 1234,
  "\u2581lenga": 1235,
  "\u2581sacrifice": 1236,
  "\u2581Does": 1237,
  "\u2581honor": 1238,
  "\u2581change": 1239,
  "\u258116)": 1240,
  "\u2581Acts": 1241,
  "\u2581ihaa": 1242,
  "\u2581ransom": 1243,
  "\u25813)": 1244,
  "\u258112)": 1245,
  "\u2581hokwa": 1246,
  "\u2581received": 1247,
  "\u2581righteous": 1248,
  "wu": 1249,
  "\u2581Rom": 1250,
  "\u2581account": 1251,
  "\u2581sile": 1252,
  "nika": 1253,
  "\u2581W": 1254,
  "\u2581eso": 1255,
  "\u2581fine": 1256,
  "\u2581omapulo": 1257,
  "\u2581especially": 1258,
  "\u2581gwaaluhe": 1259,
  "\u2581oshipu": 1260,
  "\u25815)": 1261,
  "\u2581examples": 1262,
  "\u2581iihuna": 1263,
  "\u2581special": 1264,
  "\u2581ulukile": 1265,
  "\u2581nuuyamba": 1266,
  "\u2581onkalo": 1267,
  "\u2581pioneer": 1268,
  "\u25817)": 1269,
  "\u2581talk": 1270,
  "\u258114)": 1271,
  "\u2581Ngashingeyi": 1272,
  "\u2581Omanyolo": 1273,
  "\u2581otw": 1274,
  "\u2581point": 1275,
  "\u2581uukwatya": 1276,
  "Omayel": 1277,
  "\u2581food": 1278,
  "\u2581gives": 1279,
  "\u2581spiritually": 1280,
  "\u2581tango": 1281,
  "\u2581city": 1282,
  "\u2581egongalo": 1283,
  "\u2581law": 1284,
  "\u2581apostles": 1285,
  "\u2581Noah": 1286,
  "\u2581Watchtower": 1287,
  "\u2581hogolola": 1288,
  "\u2581thaneke": 1289,
  "\u2581followers": 1290,
  "\u2581known": 1291,
  "\u2581okutseya": 1292,
  "\u2581un": 1293,
  "\u2581iikulya": 1294,
  "\u2581ikalekelwa": 1295,
  "\u2581perfect": 1296,
  "\u2581resurrection": 1297,
  "\u258123.": 1298,
  "\u2581aguhe": 1299,
  "\u2581obey": 1300,
  "\u2581omukulukadhi": 1301,
  "\u2581soon": 1302,
  "\u2581act": 1303,
  "\u2581attitude": 1304,
  "\u2581gwanithwa": 1305,
  "\u2581reading": 1306,
  "\u2581sheep": 1307,
  "\u2581strengthen": 1308,
  "org": 1309,
  "\u2581yet": 1310,
  "siku": 1311,
  "\u2581aalumentu": 1312,
  "\u2581koye": 1313,
  "\u2581little": 1314,
  "\u2581ondjila": 1315,
  "\u2581teaching": 1316,
  "\u2581wants": 1317,
  "Omayeletumbulo": 1318,
  "opwa": 1319,
  "\u25816)": 1320,
  "\u2581provide": 1321,
  "\u2581THE": 1322,
  "\u2581momadhiladhilo": 1323,
  "\u2581number": 1324,
  "\u2581onene": 1325,
  "\u2581sense": 1326,
  "\u2581Law": 1327,
  "\u2581Omukwaniilwa": 1328,
  "\u2581koleke": 1329,
  "\u2581oma": 1330,
  "\u2581omugundjuka": 1331,
  "\u2581omusamane": 1332,
  "\u2581ookuume": 1333,
  "\u2581pumbiwa": 1334,
  "\u2581nom": 1335,
  "\u2581uuthembahenda": 1336,
  "\u2581notu": 1337,
  "\u2581saying": 1338,
  "\u2581similar": 1339,
  "\u2581taking": 1340,
  "Iil": 1341,
  "\u258112:": 1342,
  "\u25812)": 1343,
  "\u2581katu": 1344,
  "\u2581past": 1345,
  "\u2581Heb": 1346,
  "\u2581Saul": 1347,
  "\u2581forever": 1348,
  "\u2581rule": 1349,
  "\u2581slave": 1350,
  "\u2581tamu": 1351,
  "\u2581wawo": 1352,
  "\u2581Dhiladhila": 1353,
  "\u2581remember": 1354,
  "\u2581shows": 1355,
  "\u2581SONGS": 1356,
  "\u2581privilege": 1357,
  "\u2581ungaunga": 1358,
  "u": 1359,
  "\u2581Who": 1360,
  "\u2581nations": 1361,
  "\u2581promise": 1362,
  "\u2581decision": 1363,
  "\u2581oho": 1364,
  "\u2581woomvula": 1365,
  "\u2581yaantu": 1366,
  "shinima": 1367,
  "\u2581Instead": 1368,
  "\u2581lyotango": 1369,
  "\u2581wilike": 1370,
  "\u2581Mat": 1371,
  "\u2581ito": 1372,
  "mbiimbeli": 1373,
  "\u2581gamene": 1374,
  "\u2581nonda": 1375,
  "Rom": 1376,
  "\u2581clear": 1377,
  "\u2581false": 1378,
  "\u2581holoka": 1379,
  "ANDJA": 1380,
  "\u2581Oye": 1381,
  "\u2581certain": 1382,
  "\u2581everlasting": 1383,
  "\u2581megumbo": 1384,
  "\u2581maintain": 1385,
  "\u2581move": 1386,
  "\u2581omalunduluko": 1387,
  "\u2581prayers": 1388,
  "gu": 1389,
  "\u2581elaka": 1390,
  "\u2581got": 1391,
  "\u2581kopandjokana": 1392,
  "Gen": 1393,
  "Omuntu": 1394,
  "\u2581EP": 1395,
  "\u2581present": 1396,
  "\u2581small": 1397,
  "\u2581sons": 1398,
  "\u2581taught": 1399,
  "\u2581until": 1400,
  "\u2581uunene": 1401,
  "\u2581going": 1402,
  "\u2581mokati": 1403,
  "\u2581nation": 1404,
  "\u2581oshiponga": 1405,
  "\u2581000": 1406,
  "\u2581Corinthians": 1407,
  "\u2581far": 1408,
  "\u2581fully": 1409,
  "\u2581ndjika": 1410,
  "\u2581okatendo": 1411,
  "\u2581principles": 1412,
  "\u2581money": 1413,
  "\u2581okukonakona": 1414,
  "\u2581Romans": 1415,
  "\u2581etela": 1416,
  "tagu": 1417,
  "\u2581draw": 1418,
  "Ehololo": 1419,
  "ele": 1420,
  "\u2581Oku": 1421,
  "\u2581Sha": 1422,
  "\u2581off": 1423,
  "\u2581ohe": 1424,
  "\u2581prophet": 1425,
  "\u2581Jesaja": 1426,
  "\u2581ketu": 1427,
  "\u2581sent": 1428,
  "\u2581uvithile": 1429,
  "\u2581nangoye": 1430,
  "\u2581cause": 1431,
  "\u2581shu": 1432,
  "\u2581taku": 1433,
  "\u2581yaali": 1434,
  "Mateus": 1435,
  "\u2581'?": 1436,
  "\u2581comes": 1437,
  "\u2581information": 1438,
  "\u2581mentioned": 1439,
  "\u2581truly": 1440,
  "\u2581tye": 1441,
  "\u2581case": 1442,
  "\u2581longithwa": 1443,
  "\u2581lyu": 1444,
  "\u2581nguka": 1445,
  "Onda": 1446,
  "\u2581age": 1447,
  "\u2581dhenga": 1448,
  "\u2581goye": 1449,
  "\u2581longwa": 1450,
  "\u2581prophecy": 1451,
  "Joh": 1452,
  "\u2581comfort": 1453,
  "\u2581control": 1454,
  "\u2581ikolelela": 1455,
  "\u2581Eps": 1456,
  "\u2581Jews": 1457,
  "\u2581Okukala": 1458,
  "\u2581lombwela": 1459,
  "\u2581makes": 1460,
  "\u2581oka": 1461,
  "\u2581olye": 1462,
  "\u2581Eve": 1463,
  "\u2581accept": 1464,
  "\u2581matters": 1465,
  "\u2581omikalo": 1466,
  "\u2581ooyakwetu": 1467,
  "\u2581dhini": 1468,
  "\u2581okanona": 1469,
  "\u2581omulongo": 1470,
  "\u2581piti": 1471,
  "\u2581righteousness": 1472,
  "\u2581Thus": 1473,
  "\u2581circumstances": 1474,
  "\u2581ilonga": 1475,
  "\u2581second": 1476,
  "\u2581yom": 1477,
  "ontopolwa": 1478,
  "\u2581around": 1479,
  "\u2581dhilwe": 1480,
  "\u2581galwe": 1481,
  "\u2581heard": 1482,
  "\u25811914": 1483,
  "\u2581brought": 1484,
  "\u2581temple": 1485,
  "\u2581thus": 1486,
  "\u2581women": 1487,
  "\u2581kuyo": 1488,
  "\u2581pondola": 1489,
  "\u2581stay": 1490,
  "\u2581tseye": 1491,
  "mukuluntugongalo": 1492,
  "pethimbo": 1493,
  "\u2581Jakob": 1494,
  "\u2581courage": 1495,
  "\u2581gwoye": 1496,
  "\u2581ngeyi": 1497,
  "eni": 1498,
  "\u2581Are": 1499,
  "\u2581Yamwe": 1500,
  "\u2581adhihe": 1501,
  "\u2581blessings": 1502,
  "\u2581prove": 1503,
  "twe": 1504,
  "\u2581Picture": 1505,
  "\u2581Rather": 1506,
  "\u2581greater": 1507,
  "\u2581noka": 1508,
  "\u2581opportunity": 1509,
  "Luk": 1510,
  "\u2581early": 1511,
  "\u2581mbanda": 1512,
  "less": 1513,
  "\u2581aaihokani": 1514,
  "\u2581ancient": 1515,
  "\u2581land": 1516,
  "\u2581turn": 1517,
  "\u2581inspired": 1518,
  "\u2581visit": 1519,
  "\u2581apply": 1520,
  "\u2581elder": 1521,
  "\u2581nde": 1522,
  "\u2581okutala": 1523,
  "\u2581pangele": 1524,
  "\u2581since": 1525,
  "\u2581using": 1526,
  "\u2581coming": 1527,
  "\u2581nor": 1528,
  "\u258118)": 1529,
  "\u2581attention": 1530,
  "\u2581nehalo": 1531,
  "\u2581ondjokana": 1532,
  "\u2581w": 1533,
  "\u258122.": 1534,
  "\u258124.": 1535,
  "\u2581Can": 1536,
  "\u2581Kak": 1537,
  "\u2581dead": 1538,
  "\u2581started": 1539,
  "\u2581Society": 1540,
  "\u2581Will": 1541,
  "\u2581focus": 1542,
  "\u2581oluhodhi": 1543,
  "inima": 1544,
  "\u2581serious": 1545,
  "\u2581freedom": 1546,
  "\u2581meaning": 1547,
  "\u2581seem": 1548,
  "\u2581ulika": 1549,
  "\u2581yaashoka": 1550,
  "es": 1551,
  "\u2581Mark": 1552,
  "\u2581omukiintu": 1553,
  "\u2581witness": 1554,
  "ompito": 1555,
  "\u00fa": 1556,
  "\u2581along": 1557,
  "\u2581auhe": 1558,
  "\u2581blessing": 1559,
  "\u2581dhana": 1560,
  "\u2581haga": 1561,
  "\u2581mokukala": 1562,
  "\u2581whole": 1563,
  "\u2581four": 1564,
  "\u2581friend": 1565,
  "\u2581gwom": 1566,
  "\u2581iinakugwanithwa": 1567,
  "\u2581kwe": 1568,
  "\u2581omawanawa": 1569,
  "\u2581promises": 1570,
  "\u2581religious": 1571,
  "\u2581suffering": 1572,
  "\u2581yontumba": 1573,
  "\u2581Did": 1574,
  "\u2581More": 1575,
  "\u2581PAGE": 1576,
  "\u2581einekelo": 1577,
  "\u2581kaa": 1578,
  "\u2581kutse": 1579,
  "to": 1580,
  "\u2581Josef": 1581,
  "\u2581yeni": 1582,
  "\u2581James": 1583,
  "\u2581strength": 1584,
  "\u2581Omwana": 1585,
  "\u2581fala": 1586,
  "\u2581hokana": 1587,
  "\u2581kaaya": 1588,
  "\u2581meeting": 1589,
  "\u2581reflect": 1590,
  "\u2581taa": 1591,
  "\u2581Mary": 1592,
  "\u2581Would": 1593,
  "\u2581couple": 1594,
  "\u2581nok": 1595,
  "\u2581omuyapostoli": 1596,
  "\u2581uushili": 1597,
  "\u2581involved": 1598,
  "\u2581lwaampono": 1599,
  "\u2581reach": 1600,
  "\u2581war": 1601,
  "\u2581body": 1602,
  "\u2581Okuza": 1603,
  "\u2581Revelation": 1604,
  "\u2581Solomon": 1605,
  "\u2581Today": 1606,
  "\u2581muJehova": 1607,
  "\u2581ohenda": 1608,
  "\u2581\u25aa": 1609,
  "\u2581Nokuli": 1610,
  "\u2581OMUWA": 1611,
  "\u2581affect": 1612,
  "\u2581ambidhidha": 1613,
  "\u2581helps": 1614,
  "\u2581muule": 1615,
  "\u2581nziya": 1616,
  "\u2581school": 1617,
  "\u2581understanding": 1618,
  "\u2581anyone": 1619,
  "\u2581etokolo": 1620,
  "\u2581kokule": 1621,
  "\u2581ngame": 1622,
  "\u2581Bethel": 1623,
  "\u2581Like": 1624,
  "\u2581material": 1625,
  "\u2581standards": 1626,
  "\u25aa": 1627,
  "\u2581baptism": 1628,
  "\u2581effort": 1629,
  "\u2581older": 1630,
  "\u2581everything": 1631,
  "\u2581provided": 1632,
  "\u2581sins": 1633,
  "ness": 1634,
  "\u2581Ethano": 1635,
  "\u2581events": 1636,
  "\u2581individuals": 1637,
  "\u2581mate": 1638,
  "\u2581ngoye": 1639,
  "\u2581promised": 1640,
  "\u2581states": 1641,
  "\u2581Odhoshili": 1642,
  "\u2581mbali": 1643,
  "spite": 1644,
  "\u2581nayalwe": 1645,
  "\u2581yelekanitha": 1646,
  "\u2581yotango": 1647,
  "\u25813,": 1648,
  "\u2581Matt": 1649,
  "\u2581Ps": 1650,
  "\u2581congregations": 1651,
  "\u2581country": 1652,
  "\u2581direction": 1653,
  "\u2581kept": 1654,
  "\u2581monakuyiwa": 1655,
  "\u2581nwethwa": 1656,
  "\u2581please": 1657,
  "st": 1658,
  "\u258138": 1659,
  "\u2581Creator": 1660,
  "\u2581appreciate": 1661,
  "\u2581ashihe": 1662,
  "\u2581fear": 1663,
  "\u2581halelela": 1664,
  "\u2581tonata": 1665,
  "\u2581determined": 1666,
  "\u2581ehulilo": 1667,
  "\u2581etalo": 1668,
  "\u2581nothing": 1669,
  "\u2581okuuva": 1670,
  "You": 1671,
  "\u2581Devil": 1672,
  "\u2581Dur": 1673,
  "\u2581Omumwameme": 1674,
  "\u2581angels": 1675,
  "\u2581showed": 1676,
  "\u2581covenant": 1677,
  "\u2581field": 1678,
  "\u2581mbaka": 1679,
  "\u2581oshe": 1680,
  "thimbo": 1681,
  "\u2581Ombepo": 1682,
  "\u2581Scriptural": 1683,
  "\u2581kashi": 1684,
  "\u2581Proverbs": 1685,
  "\u2581kingdom": 1686,
  "\u25812012": 1687,
  "\u2581Sam": 1688,
  "\u2581doubt": 1689,
  "\u2581evidence": 1690,
  "\u2581omanga": 1691,
  "\u2581ongiini": 1692,
  "\u2581return": 1693,
  "\u2581uukuume": 1694,
  "\u2581yokuhola": 1695,
  "\u2581Still": 1696,
  "\u2581group": 1697,
  "\u2581start": 1698,
  "\u2581thing": 1699,
  "\u258114,": 1700,
  "\u2581deep": 1701,
  "\u2581happened": 1702,
  "\u2581taleni": 1703,
  "\u2581tribulation": 1704,
  "\u2581Not": 1705,
  "\u2581Oshi": 1706,
  "\u2581People": 1707,
  "\u2581dhimine": 1708,
  "\u2581egumbo": 1709,
  "\u2581toko": 1710,
  "\u2581written": 1711,
  "\u2581B": 1712,
  "\u2581health": 1713,
  "\u2581inyenge": 1714,
  "\u2581nyolele": 1715,
  "\u2581omutima": 1716,
  "\u2581uunzapo": 1717,
  "\u2581iileshomwa": 1718,
  "\u2581nokwe": 1719,
  "\u2581olukeno": 1720,
  "\u2581pandunge": 1721,
  "\u2581popye": 1722,
  "\u2581religion": 1723,
  "\u2581shotango": 1724,
  "\u2581womimvo": 1725,
  "\u2581Trac": 1726,
  "\u2581activities": 1727,
  "\u2581concern": 1728,
  "\u2581note": 1729,
  "\u2581See": 1730,
  "\u2581Shi": 1731,
  "\u2581hear": 1732,
  "\u2581interest": 1733,
  "\u2581katuka": 1734,
  "\u2581moshilongo": 1735,
  "\u2581odhi": 1736,
  "\u2581ooitaali": 1737,
  "\u2581petameko": 1738,
  "\u2581works": 1739,
  "\u2581yooloka": 1740,
  "waamboka": 1741,
  "yi": 1742,
  "\u2581Mang": 1743,
  "\u2581discuss": 1744,
  "\u2581listen": 1745,
  "\u258120)": 1746,
  "\u2581lost": 1747,
  "\u2581niilonga": 1748,
  "\u2581nohay": 1749,
  "\u2581oko": 1750,
  "umvo": 1751,
  "\u25815,": 1752,
  "\u2581Jeremiah": 1753,
  "\u2581Lukas": 1754,
  "\u2581anything": 1755,
  "\u2581emanguluko": 1756,
  "\u2581iimaliwa": 1757,
  "\u2581kaleke": 1758,
  "\u2581night": 1759,
  "\u2581omaupyakadhi": 1760,
  "\u258119)": 1761,
  "\u2581advice": 1762,
  "\u2581including": 1763,
  "\u2581lyOmbiimbeli": 1764,
  "\u2581oonkalo": 1765,
  "\u2581s": 1766,
  "hile": 1767,
  "\u258145": 1768,
  "\u2581Aaroma": 1769,
  "\u2581Greek": 1770,
  "\u2581Okwe": 1771,
  "\u2581holola": 1772,
  "\u2581nomutima": 1773,
  "\u2581omitima": 1774,
  "\u2581ongaaka": 1775,
  "\u2581F": 1776,
  "\u2581appreciation": 1777,
  "\u2581ehangano": 1778,
  "\u2581gahugunina": 1779,
  "\u2581high": 1780,
  "\u2581nomolwashike": 1781,
  "\u2581notwa": 1782,
  "\u2581iilyo": 1783,
  "\u2581manguluka": 1784,
  "\u2581ndu": 1785,
  "\u2581perhaps": 1786,
  "\u2581pokugongala": 1787,
  "\u2581shilipaleke": 1788,
  "\u2581uupe": 1789,
  "\u2581valwa": 1790,
  "\u2581chapter": 1791,
  "\u2581else": 1792,
  "\u2581issue": 1793,
  "\u2581noyi": 1794,
  "\u2581ontseyo": 1795,
  "\u2581thiki": 1796,
  "Oshitopolwa": 1797,
  "handi": 1798,
  "uch": 1799,
  "\u258125.": 1800,
  "\u2581Pennsylvania": 1801,
  "\u2581already": 1802,
  "\u2581changed": 1803,
  "\u2581leave": 1804,
  "\u2581longela": 1805,
  "\u2581sh": 1806,
  "\u2581yoolokathana": 1807,
  "Kalunga": 1808,
  "\u2581effect": 1809,
  "\u2581helping": 1810,
  "\u2581omwaanawa": 1811,
  "\u2581ondjambi": 1812,
  "\u2581rather": 1813,
  "\u2581regarding": 1814,
  "\u00a9": 1815,
  "\u2581confidence": 1816,
  "\u2581lived": 1817,
  "\u2581londodha": 1818,
  "\u2581okudhiladhila": 1819,
  "\u2581opening": 1820,
  "masiku": 1821,
  "\u2581epangelo": 1822,
  "\u2581kwetu": 1823,
  "\u2581embo": 1824,
  "\u2581experienced": 1825,
  "\u2581gain": 1826,
  "\u2581regard": 1827,
  "\u2581wonderful": 1828,
  "\u2581yonale": 1829,
  "\u2581om": 1830,
  "\u2581seen": 1831,
  "\u258135": 1832,
  "\u2581epe": 1833,
  "\u2581omaukwatya": 1834,
  "\u2581served": 1835,
  "\u2581unity": 1836,
  "omvula": 1837,
  "\u2581Since": 1838,
  "\u2581appointed": 1839,
  "\u2581assignment": 1840,
  "\u2581encourage": 1841,
  "\u2581goal": 1842,
  "\u2581hearts": 1843,
  "\u2581U": 1844,
  "\u2581dhiladhile": 1845,
  "\u2581shini": 1846,
  "Y": 1847,
  "\u2581Hebrew": 1848,
  "\u2581answers": 1849,
  "\u2581choose": 1850,
  "\u2581nuulaadhi": 1851,
  "\u2581powerful": 1852,
  "\u2581precious": 1853,
  "\u2581spoke": 1854,
  "\u2581efforts": 1855,
  "\u2581encouragement": 1856,
  "\u2581lyopaKriste": 1857,
  "\u2581responsibility": 1858,
  "\u2581working": 1859,
  "\u2581large": 1860,
  "\u2581longer": 1861,
  "\u2581nangame": 1862,
  "\u2581niinima": 1863,
  "\u2581ompumbwe": 1864,
  "longelokalunga": 1865,
  "\u2581Now": 1866,
  "\u2581Translation": 1867,
  "\u2581easy": 1868,
  "\u2581kawo": 1869,
  "\u2581once": 1870,
  "\u2581onde": 1871,
  "\u2581realize": 1872,
  "\u2581simply": 1873,
  "\u2581taken": 1874,
  "\u2581tulwa": 1875,
  "\u2581uuwinayi": 1876,
  "Heb": 1877,
  "Jehovah": 1878,
  "mulumentu": 1879,
  "\u2581Brother": 1880,
  "\u2581carry": 1881,
  "\u2581die": 1882,
  "\u2581elongelokalunga": 1883,
  "\u2581ethe": 1884,
  "\u2581gwedhw": 1885,
  "\u2581okuuvitha": 1886,
  "\u2581vula": 1887,
  "kehe": 1888,
  "\u2581available": 1889,
  "\u2581deal": 1890,
  "\u2581foretold": 1891,
  "\u2581form": 1892,
  "certainly": 1893,
  "m": 1894,
  "\u2581iiwinayi": 1895,
  "\u2581offer": 1896,
  "\u2581thoughts": 1897,
  "\u2581worshippers": 1898,
  "in": 1899,
  "\u2581explained": 1900,
  "\u2581gwedha": 1901,
  "\u2581named": 1902,
  "\u2581pages": 1903,
  "\u2581based": 1904,
  "\u2581ndhika": 1905,
  "\u2581protect": 1906,
  "\u2581stand": 1907,
  "\u2581talele": 1908,
  "on": 1909,
  "\u2581ele": 1910,
  "\u2581owo": 1911,
  "\u2581teka": 1912,
  "\u2581yono": 1913,
  "\u2581Aavali": 1914,
  "\u2581branch": 1915,
  "\u2581clearly": 1916,
  "\u2581flesh": 1917,
  "\u2581ilongekidha": 1918,
  "\u2581nyanyangidhwa": 1919,
  "\u2581okulesha": 1920,
  "\u2581water": 1921,
  "\u2581Ohole": 1922,
  "\u2581believers": 1923,
  "\u2581created": 1924,
  "\u2581earthly": 1925,
  "\u2581glory": 1926,
  "\u2581influence": 1927,
  "\u2581letter": 1928,
  "\u2581tulil": 1929,
  "\u2581worldwide": 1930,
  "w": 1931,
  "\u2581Also": 1932,
  "\u2581Maria": 1933,
  "\u2581head": 1934,
  "inayi": 1935,
  "\u258123)": 1936,
  "\u2581OB": 1937,
  "\u2581Or": 1938,
  "\u2581born": 1939,
  "\u2581hawu": 1940,
  "\u2581here": 1941,
  "\u2581illustration": 1942,
  "\u2581oshinene": 1943,
  "\u2581regularly": 1944,
  "\u2581trials": 1945,
  "andi": 1946,
  "oshikando": 1947,
  "thana": 1948,
  "\u2581desires": 1949,
  "\u2581kwatele": 1950,
  "\u2581meet": 1951,
  "\u2581oge": 1952,
  "\u2581uunake": 1953,
  "Johannes": 1954,
  "\u2581Just": 1955,
  "\u2581endure": 1956,
  "\u2581hulitha": 1957,
  "\u2581imperfect": 1958,
  "\u2581okuholela": 1959,
  "\u2581tumu": 1960,
  "\u2581ability": 1961,
  "\u2581ithana": 1962,
  "\u2581kiinima": 1963,
  "\u2581kohi": 1964,
  "\u2581lundulula": 1965,
  "\u2581ongundu": 1966,
  "Eh": 1967,
  "able": 1968,
  "th": 1969,
  "\u2581authority": 1970,
  "\u2581complete": 1971,
  "\u2581hasho": 1972,
  "\u2581picture": 1973,
  "\u2581rest": 1974,
  "\u2581actions": 1975,
  "\u2581build": 1976,
  "\u2581grow": 1977,
  "\u2581humble": 1978,
  "\u2581stated": 1979,
  "\u2581yumudhwa": 1980,
  "\u2581Aahebeli": 1981,
  "\u2581alone": 1982,
  "\u2581uvitile": 1983,
  "\u2581Gen": 1984,
  "\u2581Omayel": 1985,
  "\u2581common": 1986,
  "\u2581decided": 1987,
  "\u2581discipline": 1988,
  "\u2581giifundja": 1989,
  "\u2581happiness": 1990,
  "\u2581respond": 1991,
  "\u2581shaJehova": 1992,
  "\u2581uunongo": 1993,
  "ila": 1994,
  "\u258121)": 1995,
  "\u2581Cor": 1996,
  "\u2581First": 1997,
  "\u2581Kunena": 1998,
  "\u2581accepted": 1999,
  "\u2581everyone": 2000,
  "\u2581goals": 2001,
  "\u2581tried": 2002,
  "\u2581uuthemba": 2003,
  "\u2581waJehova": 2004,
  "Kapu": 2005,
  "\u2581holele": 2006,
  "\u2581nombili": 2007,
  "\u2581omumwameme": 2008,
  "\u2581physical": 2009,
  "\u2581published": 2010,
  "\u2581yoku": 2011,
  "\u2581Later": 2012,
  "\u2581Omapulo": 2013,
  "\u2581ehala": 2014,
  "\u2581okuvulika": 2015,
  "\u2581speaking": 2016,
  "\u2581Om": 2017,
  "\u2581changes": 2018,
  "\u2581happen": 2019,
  "\u2581imagine": 2020,
  "\u2581lyopetameko": 2021,
  "\u2581olupandu": 2022,
  "\u2581training": 2023,
  "Jes": 2024,
  "dhiladhilo": 2025,
  "\u2581Oyendji": 2026,
  "God": 2027,
  "M": 2028,
  "haya": 2029,
  "molwaashono": 2030,
  "\u2581Indeed": 2031,
  "\u2581Messiah": 2032,
  "\u2581continued": 2033,
  "\u2581force": 2034,
  "\u2581hands": 2035,
  "itha": 2036,
  "\u2581car": 2037,
  "\u2581dho": 2038,
  "\u2581hangana": 2039,
  "\u2581join": 2040,
  "\u2581showing": 2041,
  "\u2581uusama": 2042,
  "\u2581vital": 2043,
  "Ef": 2044,
  "\u2581Iil": 2045,
  "\u2581Ino": 2046,
  "\u2581blood": 2047,
  "\u2581ihay": 2048,
  "\u2581oondjo": 2049,
  "\u2581reasons": 2050,
  "\u25812013": 2051,
  "\u2581imbi": 2052,
  "\u2581ombedhi": 2053,
  "\u2581recorded": 2054,
  "\u2581Egypt": 2055,
  "\u2581closer": 2056,
  "\u2581develop": 2057,
  "\u2581gi": 2058,
  "\u2581gumu": 2059,
  "\u2581hokiwa": 2060,
  "\u2581omamiliyona": 2061,
  "\u2581open": 2062,
  "\u2581practical": 2063,
  "\u2581regular": 2064,
  "\u2581tonde": 2065,
  "\u258139": 2066,
  "\u2581Their": 2067,
  "\u2581call": 2068,
  "\u2581dhontumba": 2069,
  "\u2581divine": 2070,
  "\u2581greatest": 2071,
  "\u2581heavens": 2072,
  "\u2581hupitha": 2073,
  "\u2581ningila": 2074,
  "\u2581uva": 2075,
  "\u2581whose": 2076,
  "\u258112,": 2077,
  "\u258143": 2078,
  "\u2581Ondi": 2079,
  "\u2581forgive": 2080,
  "\u2581knows": 2081,
  "\u2581naEva": 2082,
  "\u2581otaye": 2083,
  "\u2581value": 2084,
  "shitwa": 2085,
  "\u25812011": 2086,
  "\u2581Have": 2087,
  "\u2581May": 2088,
  "\u2581Therefore": 2089,
  "\u2581de": 2090,
  "\u2581hamu": 2091,
  "\u2581idhidhimikile": 2092,
  "\u2581position": 2093,
  "\u2581sexual": 2094,
  "\u2581stop": 2095,
  "\u2581uulaadhi": 2096,
  "\u2581woye": 2097,
  "\u2581explains": 2098,
  "\u2581government": 2099,
  "\u2581gwaKalunga": 2100,
  "\u2581omathano": 2101,
  "\u2581wuni": 2102,
  "oshitopolwa": 2103,
  "\u2581BIBLE": 2104,
  "\u2581G": 2105,
  "\u2581Hebrews": 2106,
  "\u2581Omukalo": 2107,
  "\u2581allowed": 2108,
  "\u2581clean": 2109,
  "\u2581dhoye": 2110,
  "\u2581encouraged": 2111,
  "\u2581humility": 2112,
  "\u2581iyali": 2113,
  "\u2581nelalakano": 2114,
  "\u2581omalalakano": 2115,
  "\u2581pitith": 2116,
  "\u2581raised": 2117,
  "\u258150": 2118,
  "\u2581conscience": 2119,
  "\u2581gwanithe": 2120,
  "\u2581light": 2121,
  "omakotampango": 2122,
  "\u258141": 2123,
  "\u2581daughter": 2124,
  "\u2581examine": 2125,
  "\u2581ipyakidhila": 2126,
  "\u2581led": 2127,
  "\u2581local": 2128,
  "\u2581Roman": 2129,
  "\u2581aayapostoli": 2130,
  "\u2581gwawo": 2131,
  "\u2581hold": 2132,
  "\u2581invited": 2133,
  "\u2581kandje": 2134,
  "\u2581naJesus": 2135,
  "\u2581uuyuuki": 2136,
  "\u2581Tower": 2137,
  "\u2581forward": 2138,
  "\u2581guma": 2139,
  "\u2581harmony": 2140,
  "\u2581kanitha": 2141,
  "\u2581nuupu": 2142,
  "\u2581okutul": 2143,
  "\u2581public": 2144,
  "over": 2145,
  "\u2581Jacob": 2146,
  "\u2581considered": 2147,
  "\u2581gaJehova": 2148,
  "\u2581gaKalunga": 2149,
  "\u2581lwe": 2150,
  "\u2581onkee": 2151,
  "\u2581prepare": 2152,
  "\u2581warning": 2153,
  "\u2581Aamwatate": 2154,
  "\u2581Sarah": 2155,
  "\u2581creation": 2156,
  "\u2581express": 2157,
  "\u2581ine": 2158,
  "\u2581kokugongala": 2159,
  "\u2581kombepo": 2160,
  "\u2581meditate": 2161,
  "\u2581shilwe": 2162,
  "\u2581shuna": 2163,
  "\u2581therefore": 2164,
  "\u2581tindi": 2165,
  "\u2581Jewish": 2166,
  "\u2581according": 2167,
  "\u2581benefits": 2168,
  "\u2581gulwe": 2169,
  "\u2581thigi": 2170,
  "lya": 2171,
  "\u2581Oshoka": 2172,
  "\u2581Otandi": 2173,
  "\u2581role": 2174,
  "\u2581dhimbulukitha": 2175,
  "\u2581opalele": 2176,
  "\u2581yambeke": 2177,
  "omukalo": 2178,
  "\u2581Salomo": 2179,
  "\u2581ahead": 2180,
  "\u2581dhimwe": 2181,
  "\u2581elongo": 2182,
  "\u2581hekeleke": 2183,
  "\u2581overseer": 2184,
  "\u2581pioneers": 2185,
  "\u2581publications": 2186,
  "\u2581seeking": 2187,
  "\u2581yiinima": 2188,
  "ever": 2189,
  "\u2581enjoyed": 2190,
  "\u2581history": 2191,
  "\u2581kwatha": 2192,
  "\u2581lwa": 2193,
  "\u2581momikalo": 2194,
  "\u2581seek": 2195,
  "\u2581shetu": 2196,
  "\u2581ten": 2197,
  "\u2581zimine": 2198,
  "\u258128.": 2199,
  "\u258133.": 2200,
  "\u2581Dhoshili": 2201,
  "\u2581Olundji": 2202,
  "\u2581Prov": 2203,
  "\u2581described": 2204,
  "\u2581earlier": 2205,
  "\u2581gwomegulu": 2206,
  "\u2581kondjitha": 2207,
  "\u2581kwatwa": 2208,
  "\u2581lwiikando": 2209,
  "\u2581ready": 2210,
  "\u2581sever": 2211,
  "....": 2212,
  "\u2581Ano": 2213,
  "\u2581York": 2214,
  "\u2581enemies": 2215,
  "\u2581itaale": 2216,
  "\u2581oonzi": 2217,
  "\u2581100": 2218,
  "\u2581Tu": 2219,
  "\u2581daily": 2220,
  "\u2581ewiliko": 2221,
  "\u2581expect": 2222,
  "\u2581ilonge": 2223,
  "\u2581kaashi": 2224,
  "\u2581komutima": 2225,
  "\u2581modern": 2226,
  "\u2581ohokwe": 2227,
  "\u2581prayed": 2228,
  "\u2581quickly": 2229,
  "\u2581shiti": 2230,
  "\u2581yogoka": 2231,
  "pwa": 2232,
  "\u258127.": 2233,
  "\u2581Jeremia": 2234,
  "\u2581Nenge": 2235,
  "\u2581kaayi": 2236,
  "\u2581kungame": 2237,
  "\u2581lot": 2238,
  "\u2581lyontumba": 2239,
  "\u2581offered": 2240,
  "\u2581okukalek": 2241,
  "\u2581okweetha": 2242,
  "\u2581teachings": 2243,
  "lye": 2244,
  "\u2581D": 2245,
  "\u2581Embo": 2246,
  "\u2581Most": 2247,
  "\u2581kethan": 2248,
  "\u2581languages": 2249,
  "\u2581nwetha": 2250,
  "\u2581okugalikana": 2251,
  "\u2581pain": 2252,
  "\u2581paragraph": 2253,
  "\u2581personality": 2254,
  "hokololo": 2255,
  "kuume": 2256,
  "\u258129.": 2257,
  "\u2581Omolw": 2258,
  "\u2581Shimwe": 2259,
  "\u2581opala": 2260,
  "\u2581pay": 2261,
  "\u2581problem": 2262,
  "\u2581single": 2263,
  "\u2581wonder": 2264,
  "Aakuluntugongalo": 2265,
  "\u2581action": 2266,
  "\u2581convention": 2267,
  "\u2581fight": 2268,
  "\u2581omupiya": 2269,
  "\u2581praise": 2270,
  "\u2581proved": 2271,
  "\u2581servant": 2272,
  "\u2581subject": 2273,
  "musamane": 2274,
  "\u258117,": 2275,
  "\u258144": 2276,
  "\u2581Asa": 2277,
  "\u2581Really": 2278,
  "\u2581hokolola": 2279,
  "\u2581shawo": 2280,
  "\u2581within": 2281,
  "nda": 2282,
  "\u258130.": 2283,
  "\u2581Omolwaashoka": 2284,
  "\u2581arrangement": 2285,
  "\u2581choice": 2286,
  "\u2581fulfilled": 2287,
  "\u2581haku": 2288,
  "\u2581ihaay": 2289,
  "\u2581knowing": 2290,
  "\u2581simaneke": 2291,
  "\u2581worked": 2292,
  "momalaka": 2293,
  "\u258136": 2294,
  "\u2581Perhaps": 2295,
  "\u2581aayengeli": 2296,
  "\u2581alive": 2297,
  "\u2581cultivate": 2298,
  "\u2581gwedhina": 2299,
  "\u2581judgment": 2300,
  "\u2581lw": 2301,
  "\u2581lyuuyuni": 2302,
  "\u2581months": 2303,
  "\u2581psalmist": 2304,
  "\u2581sacrifices": 2305,
  "\u258122)": 2306,
  "\u2581KB": 2307,
  "\u2581challenges": 2308,
  "\u2581dhimbulula": 2309,
  "\u2581esimano": 2310,
  "\u2581hepekwa": 2311,
  "\u2581hu": 2312,
  "\u2581instance": 2313,
  "\u2581integrity": 2314,
  "\u2581office": 2315,
  "\u2581taalela": 2316,
  "C": 2317,
  "\u2581dhipaga": 2318,
  "\u2581getting": 2319,
  "\u2581iiholelwa": 2320,
  "\u2581nokonima": 2321,
  "\u2581paradise": 2322,
  "\u2581uupambepo": 2323,
  "\u2581119": 2324,
  "\u2581Before": 2325,
  "\u2581United": 2326,
  "\u2581articles": 2327,
  "\u2581beautiful": 2328,
  "\u2581iiyimati": 2329,
  "\u2581lesson": 2330,
  "\u2581nenyanyu": 2331,
  "\u2581nomukulukadhi": 2332,
  "\u2581Opu": 2333,
  "\u2581Remember": 2334,
  "\u2581circuit": 2335,
  "\u2581contain": 2336,
  "\u2581lombwelwa": 2337,
  "\u2581progress": 2338,
  "\u2581thikama": 2339,
  "\u2581uulunde": 2340,
  "ach": 2341,
  "\u2581Ando": 2342,
  "\u2581Hence": 2343,
  "\u2581Luk": 2344,
  "\u2581Ng": 2345,
  "\u2581fulfillment": 2346,
  "\u2581grateful": 2347,
  "\u2581learning": 2348,
  "\u2581omukokolindjila": 2349,
  "jw": 2350,
  "uushili": 2351,
  "\u2581Aawe": 2352,
  "\u2581True": 2353,
  "\u2581ii": 2354,
  "\u2581kegumbo": 2355,
  "\u2581laws": 2356,
  "\u2581lunduluka": 2357,
  "\u2581muKalunga": 2358,
  "\u2581nosha": 2359,
  "\u2581omagalikano": 2360,
  "\u2581provides": 2361,
  "\u2581uukwanegumbo": 2362,
  "\u2581wapa": 2363,
  "\u2581Dhimbulukwa": 2364,
  "\u2581Gandj": 2365,
  "\u2581Hall": 2366,
  "\u2581behind": 2367,
  "\u2581langekwa": 2368,
  "\u2581miilong": 2369,
  "\u2581omuthindo": 2370,
  "\u2581popile": 2371,
  "\u2581resurrected": 2372,
  "\u2581shaIsraeli": 2373,
  "\u2581blessed": 2374,
  "\u2581enough": 2375,
  "\u2581include": 2376,
  "\u2581koshiholelwa": 2377,
  "\u2581kumitha": 2378,
  "\u2581loves": 2379,
  "\u2581myself": 2380,
  "\u2581ondilo": 2381,
  "\u2581publishers": 2382,
  "\u2581tungu": 2383,
  "\u2581uudhiginini": 2384,
  "okukonga": 2385,
  "\u2581Babylon": 2386,
  "\u2581euvaneko": 2387,
  "\u2581guidance": 2388,
  "\u2581hanagul": 2389,
  "\u2581longithe": 2390,
  "\u2581ogwa": 2391,
  "\u2581ohoni": 2392,
  "\u2581pulwa": 2393,
  "\u2581realized": 2394,
  "\u2581undeserved": 2395,
  "no": 2396,
  "\u2581Life": 2397,
  "\u2581met": 2398,
  "\u2581moshiponga": 2399,
  "\u2581sometimes": 2400,
  "\u2581steps": 2401,
  "\u2581tameka": 2402,
  "ali": 2403,
  "lela": 2404,
  "\u2581Y": 2405,
  "\u2581ago": 2406,
  "\u2581assigned": 2407,
  "\u2581begin": 2408,
  "\u2581epulo": 2409,
  "\u2581faced": 2410,
  "\u2581koshipala": 2411,
  "\u2581lalakanene": 2412,
  "\u2581millions": 2413,
  "\u2581occasion": 2414,
  "\u2581omahalo": 2415,
  "\u2581omalimbililo": 2416,
  "\u2581omasiku": 2417,
  "\u2581uvaneka": 2418,
  "omapulo": 2419,
  "\u2581Eh": 2420,
  "\u2581Elijah": 2421,
  "\u2581Kungawo": 2422,
  "\u2581becoming": 2423,
  "\u2581books": 2424,
  "\u2581deeply": 2425,
  "\u2581kwawo": 2426,
  "\u2581okupangela": 2427,
  "\u2581omatompelo": 2428,
  "\u2581positive": 2429,
  "\u2581takes": 2430,
  "godly": 2431,
  "\u2581Aak": 2432,
  "\u2581Omushiti": 2433,
  "\u2581angel": 2434,
  "\u2581convinced": 2435,
  "\u2581guni": 2436,
  "\u2581literature": 2437,
  "\u2581okugongala": 2438,
  "\u2581okulandula": 2439,
  "\u2581oo": 2440,
  "\u2581shontumba": 2441,
  "hedha": 2442,
  "\u2581Memorial": 2443,
  "\u2581Un": 2444,
  "\u2581actually": 2445,
  "\u2581hanagulwa": 2446,
  "\u2581kings": 2447,
  "\u2581membo": 2448,
  "\u2581quality": 2449,
  "\u2581revealed": 2450,
  "\u2581situations": 2451,
  "\u2581sovereignty": 2452,
  "angoka": 2453,
  "\u258125)": 2454,
  "\u2581Elalakano": 2455,
  "\u2581Mesiasa": 2456,
  "\u2581explain": 2457,
  "\u2581humith": 2458,
  "\u2581moshili": 2459,
  "\u2581omaiyuvo": 2460,
  "\u2581uudhigu": 2461,
  "\u2581yomuyo": 2462,
  "utya": 2463,
  "\u2581COVER": 2464,
  "\u2581Kehe": 2465,
  "\u2581command": 2466,
  "\u2581friendship": 2467,
  "\u2581further": 2468,
  "\u2581koko": 2469,
  "\u2581original": 2470,
  "\u2581salvation": 2471,
  "\u2581uukalele": 2472,
  "\u258119,": 2473,
  "\u258131.": 2474,
  "\u2581Others": 2475,
  "\u2581accounts": 2476,
  "\u2581area": 2477,
  "\u2581chosen": 2478,
  "\u2581completely": 2479,
  "\u2581indile": 2480,
  "\u2581megalikano": 2481,
  "\u2581particular": 2482,
  "\u2581pauyuuki": 2483,
  "\u2581personally": 2484,
  "\u2581students": 2485,
  "\u2581treat": 2486,
  "mbo": 2487,
  "\u2581eiyuvo": 2488,
  "\u2581hunganeke": 2489,
  "\u2581kOonzapo": 2490,
  "\u2581kaashono": 2491,
  "\u2581kondjithe": 2492,
  "\u2581momumvo": 2493,
  "\u2581oonkatu": 2494,
  "\u2581relatives": 2495,
  "\u2581results": 2496,
  "\u2581studying": 2497,
  "\u2581tembukile": 2498,
  "\u2581walk": 2499,
  "\u258160": 2500,
  "\u258170": 2501,
  "\u2581An": 2502,
  "\u2581Oshungolangelo": 2503,
  "\u2581Owa": 2504,
  "\u2581bear": 2505,
  "\u2581carefully": 2506,
  "\u2581crowd": 2507,
  "\u2581flock": 2508,
  "\u2581job": 2509,
  "\u2581pangela": 2510,
  "\u2581yuuyuni": 2511,
  "kuninga": 2512,
  "ngathano": 2513,
  "\u258155": 2514,
  "\u2581Similarly": 2515,
  "\u2581behalf": 2516,
  "\u2581challenge": 2517,
  "\u2581dhaJesus": 2518,
  "\u2581exercise": 2519,
  "\u2581five": 2520,
  "\u2581interested": 2521,
  "\u2581looking": 2522,
  "\u2581ndoka": 2523,
  "\u2581onkatu": 2524,
  "\u2581oomwenyo": 2525,
  "\u2581shall": 2526,
  "\u2581speech": 2527,
  "ongundu": 2528,
  "\u2581Ask": 2529,
  "\u2581Omu": 2530,
  "\u2581attend": 2531,
  "\u2581confident": 2532,
  "\u2581itaay": 2533,
  "\u2581less": 2534,
  "\u2581onkandangala": 2535,
  "Aaroma": 2536,
  "elo": 2537,
  "iitopolwa": 2538,
  "\u2581Gal": 2539,
  "\u2581Love": 2540,
  "\u2581church": 2541,
  "\u2581dedication": 2542,
  "\u2581dhimbwa": 2543,
  "\u2581eat": 2544,
  "\u2581evening": 2545,
  "\u2581fruit": 2546,
  "\u2581held": 2547,
  "\u2581image": 2548,
  "\u2581individual": 2549,
  "\u2581lyokuninga": 2550,
  "\u2581omanyolo": 2551,
  "\u2581overcome": 2552,
  "\u2581pandjigilile": 2553,
  "\u2581simanekitha": 2554,
  "\u2581tonatele": 2555,
  "\u2581tree": 2556,
  "\u2581turned": 2557,
  "\u2581uuntsa": 2558,
  "\u2581waSatana": 2559,
  "ting": 2560,
  "\u2581De": 2561,
  "\u2581LI": 2562,
  "\u2581beyond": 2563,
  "\u2581dedicated": 2564,
  "\u2581okuyanda": 2565,
  "\u2581oshitya": 2566,
  "\u2581reward": 2567,
  "\u2581shown": 2568,
  "\u2581valuable": 2569,
  "akuluntugongalo": 2570,
  "\u2581Holy": 2571,
  "\u2581addition": 2572,
  "\u2581gandjwa": 2573,
  "\u2581kumwa": 2574,
  "\u2581lu": 2575,
  "\u2581nei": 2576,
  "\u2581oluvalo": 2577,
  "\u2581pehulitho": 2578,
  "\u2581quit": 2579,
  "\u2581shita": 2580,
  "\u2581traveling": 2581,
  "\u2581trying": 2582,
  "\u2581voice": 2583,
  "Iilonga": 2584,
  "\u2581aauvithi": 2585,
  "\u2581above": 2586,
  "\u2581olindji": 2587,
  "\u2581omeya": 2588,
  "\u2581strive": 2589,
  "\u2581tolokwa": 2590,
  "\u2581tsa": 2591,
  "\u2581vulike": 2592,
  "\u2581yaKristus": 2593,
  "ower": 2594,
  "\u2581Aagundjuka": 2595,
  "\u2581aatondi": 2596,
  "\u2581entire": 2597,
  "\u2581gontumba": 2598,
  "\u2581interests": 2599,
  "\u2581konakone": 2600,
  "\u2581moshinima": 2601,
  "\u2581naasho": 2602,
  "\u2581period": 2603,
  "\u2581proper": 2604,
  "\u2581truths": 2605,
  "\u2581wives": 2606,
  "Job": 2607,
  "\u2581Govern": 2608,
  "\u2581States": 2609,
  "\u2581added": 2610,
  "\u2581assist": 2611,
  "\u2581ehama": 2612,
  "\u2581enter": 2613,
  "\u2581iita": 2614,
  "\u2581member": 2615,
  "\u2581pressure": 2616,
  "ehunganeko": 2617,
  "r": 2618,
  "\u2581English": 2619,
  "\u2581Sara": 2620,
  "\u2581aakiintu": 2621,
  "\u2581associate": 2622,
  "\u2581beginning": 2623,
  "\u2581feeling": 2624,
  "\u2581obedient": 2625,
  "\u2581okwiipula": 2626,
  "\u2581seems": 2627,
  "\u2581shepherd": 2628,
  "\u2581short": 2629,
  "\u2581specific": 2630,
  "\u2581territory": 2631,
  "\u2581ulukila": 2632,
  "\u2581uukumwe": 2633,
  "\u2581verse": 2634,
  "ve": 2635,
  "\u2581Aapi": 2636,
  "\u2581Another": 2637,
  "\u2581J": 2638,
  "\u2581Markus": 2639,
  "\u2581Think": 2640,
  "\u2581asking": 2641,
  "\u2581gwaJehova": 2642,
  "\u2581kashili": 2643,
  "\u2581lilwe": 2644,
  "\u2581negative": 2645,
  "\u2581neighbor": 2646,
  "\u2581okupula": 2647,
  "\u2581play": 2648,
  "\u2581teaches": 2649,
  "Genesis": 2650,
  "mukulukadhi": 2651,
  "\u2581Though": 2652,
  "\u2581aakokolindjila": 2653,
  "\u2581basis": 2654,
  "\u2581building": 2655,
  "\u2581destruction": 2656,
  "\u2581enyolo": 2657,
  "\u2581expression": 2658,
  "\u2581genuine": 2659,
  "\u2581kashona": 2660,
  "\u2581ndatu": 2661,
  "\u2581okukondjitha": 2662,
  "\u2581omapuko": 2663,
  "\u2581ongushu": 2664,
  "\u2581oondunge": 2665,
  "\u2581poor": 2666,
  "\u2581yoomvula": 2667,
  ",...": 2668,
  "ELA": 2669,
  "like": 2670,
  "okweendela": 2671,
  "\u258126.": 2672,
  "\u2581Clearly": 2673,
  "\u2581Keep": 2674,
  "\u2581kwethimbo": 2675,
  "\u2581mondholongo": 2676,
  "\u2581omukuluntu": 2677,
  "\u2581tate": 2678,
  "\u2581various": 2679,
  "\u2581Ahab": 2680,
  "\u2581Onzapo": 2681,
  "\u2581contrast": 2682,
  "\u2581families": 2683,
  "\u2581foreign": 2684,
  "\u2581kalelele": 2685,
  "\u2581leaders": 2686,
  "\u2581meme": 2687,
  "\u2581mere": 2688,
  "\u2581omawinayi": 2689,
  "\u2581omutse": 2690,
  "\u2581week": 2691,
  "Eks": 2692,
  "IITOPOLWA": 2693,
  "\u2581Body": 2694,
  "\u2581Joshua": 2695,
  "\u2581approach": 2696,
  "\u2581display": 2697,
  "\u2581door": 2698,
  "\u2581necessary": 2699,
  "\u2581okugwanitha": 2700,
  "\u2581omithikampango": 2701,
  "\u2581oondhigu": 2702,
  "\u2581patience": 2703,
  "\u2581paumwene": 2704,
  "\u2581shitwa": 2705,
  "\u2581throughout": 2706,
  "\u2581understood": 2707,
  "\u2581whatever": 2708,
  "est": 2709,
  "velise": 2710,
  "\u2581Enyol": 2711,
  "\u2581Footnote": 2712,
  "\u2581Mu": 2713,
  "\u2581Ondjal": 2714,
  "\u2581Robert": 2715,
  "\u2581anger": 2716,
  "\u2581effective": 2717,
  "\u2581etompelo": 2718,
  "\u2581muJerusalem": 2719,
  "\u2581okuningwa": 2720,
  "\u2581parable": 2721,
  "\u2581tumbulwa": 2722,
  "\u2581Mepi": 2723,
  "\u2581Natango": 2724,
  "\u2581agree": 2725,
  "\u2581destroyed": 2726,
  "\u2581forgiveness": 2727,
  "\u2581giipala": 2728,
  "\u2581importance": 2729,
  "\u2581mehangano": 2730,
  "\u2581muudhigu": 2731,
  "\u2581oshimaliwa": 2732,
  "\u2581owundji": 2733,
  "\u2581protection": 2734,
  "\u2581race": 2735,
  "\u2581remind": 2736,
  "\u2581sick": 2737,
  "\u2581spend": 2738,
  "\u2581train": 2739,
  "sikola": 2740,
  "tsikila": 2741,
  "\u258148": 2742,
  "\u2581Aaron": 2743,
  "\u2581Teach": 2744,
  "\u2581Witness": 2745,
  "\u2581gaali": 2746,
  "\u2581late": 2747,
  "\u2581lyeni": 2748,
  "\u2581mesiku": 2749,
  "\u2581omalombwelo": 2750,
  "\u2581omambo": 2751,
  "\u2581oompumbwe": 2752,
  "\u2581owi": 2753,
  "\u2581pewe": 2754,
  "\u2581prison": 2755,
  "\u2581prospect": 2756,
  "\u2581send": 2757,
  "\u2581sound": 2758,
  "\u2581source": 2759,
  "\u2581uukolele": 2760,
  "\u2581wait": 2761,
  "\u258165": 2762,
  "\u2581Abel": 2763,
  "\u2581Awake": 2764,
  "\u2581Eden": 2765,
  "\u2581Imagine": 2766,
  "\u2581Isaac": 2767,
  "\u2581egalikano": 2768,
  "\u2581favor": 2769,
  "\u2581mercy": 2770,
  "\u2581nyata": 2771,
  "\u2581omaliko": 2772,
  "\u2581pule": 2773,
  "\u2581seven": 2774,
  "\u2581shUukwaniilwa": 2775,
  "\u2581success": 2776,
  "OKA": 2777,
  "muuvithi": 2778,
  "\u2581Ompango": 2779,
  "\u2581Paradise": 2780,
  "\u2581caused": 2781,
  "\u2581gopambepo": 2782,
  "\u2581indeed": 2783,
  "\u2581kiilongo": 2784,
  "\u2581limbililwa": 2785,
  "\u2581lyopevi": 2786,
  "\u2581mombepo": 2787,
  "\u2581neidhidhimiko": 2788,
  "\u2581oshipe": 2789,
  "\u2581pyokoka": 2790,
  "\u2581react": 2791,
  "iyadha": 2792,
  "\u258135.": 2793,
  "\u2581About": 2794,
  "\u2581Young": 2795,
  "\u2581aashona": 2796,
  "\u2581affection": 2797,
  "\u2581egameno": 2798,
  "\u2581eityo": 2799,
  "\u2581garden": 2800,
  "\u2581invitation": 2801,
  "\u2581moshilando": 2802,
  "\u2581nonkalamwenyo": 2803,
  "\u2581nowu": 2804,
  "\u2581paragraphs": 2805,
  "\u2581soul": 2806,
  "\u2581spent": 2807,
  "\u2581test": 2808,
  "3)": 2809,
  "Jesus": 2810,
  "\u2581Great": 2811,
  "\u2581Judas": 2812,
  "\u2581Tes": 2813,
  "\u2581aakokele": 2814,
  "\u2581activity": 2815,
  "\u2581arrived": 2816,
  "\u2581expressed": 2817,
  "\u2581kandul": 2818,
  "\u2581kuu": 2819,
  "\u2581lose": 2820,
  "\u2581lyonale": 2821,
  "\u2581nodhi": 2822,
  "\u2581omayamukulo": 2823,
  "\u2581owino": 2824,
  "\u2581passed": 2825,
  "\u2581recognize": 2826,
  "\u2581uvithe": 2827,
  "It": 2828,
  "ta": 2829,
  "\u2581Soon": 2830,
  "\u2581hiya": 2831,
  "\u2581line": 2832,
  "\u2581omo": 2833,
  "\u2581pevi": 2834,
  "\u2581practice": 2835,
  "\u2581tile": 2836,
  "Do": 2837,
  "or": 2838,
  "us": 2839,
  "\u25812010": 2840,
  "\u2581Elia": 2841,
  "\u2581Ephesians": 2842,
  "\u2581Ngame": 2843,
  "\u2581Owu": 2844,
  "\u2581R": 2845,
  "\u2581demonstrate": 2846,
  "\u2581kiilonga": 2847,
  "\u2581lessons": 2848,
  "\u2581lyUukwaniilwa": 2849,
  "\u2581lyi": 2850,
  "\u2581priests": 2851,
  "\u2581returned": 2852,
  "\u2581sila": 2853,
  "\u2581surely": 2854,
  "\u2581tedhatedha": 2855,
  "\u2581wandje": 2856,
  "\u2581zala": 2857,
  "\u258146": 2858,
  "\u2581Give": 2859,
  "\u2581aanegumbo": 2860,
  "\u2581answered": 2861,
  "\u2581centuries": 2862,
  "\u2581chose": 2863,
  "\u2581gwotango": 2864,
  "\u2581kw": 2865,
  "\u2581loyalty": 2866,
  "\u2581nohole": 2867,
  "\u2581notay": 2868,
  "\u2581shar": 2869,
  "\u2581tseyika": 2870,
  "malongo": 2871,
  "\u2581careful": 2872,
  "\u2581experiences": 2873,
  "\u2581forth": 2874,
  "\u2581guide": 2875,
  "\u2581mbala": 2876,
  "\u2581missionary": 2877,
  "\u2581ompango": 2878,
  "\u2581omunahole": 2879,
  "\u2581otempeli": 2880,
  "\u2581praying": 2881,
  "\u2581priest": 2882,
  "\u2581resist": 2883,
  "\u2581rich": 2884,
  "ekwatho": 2885,
  "lu": 2886,
  "ohapu": 2887,
  "onkalamwenyo": 2888,
  "\u258142": 2889,
  "\u2581class": 2890,
  "\u2581evil": 2891,
  "\u2581key": 2892,
  "\u2581legal": 2893,
  "\u2581naamwatate": 2894,
  "\u2581nongiini": 2895,
  "\u2581okukuth": 2896,
  "\u2581okutsikila": 2897,
  "\u2581omupolofeti": 2898,
  "\u2581parent": 2899,
  "\u2581record": 2900,
  "\u2581suffer": 2901,
  "\u2581yona": 2902,
  "kene": 2903,
  "tha": 2904,
  "uunamapangelo": 2905,
  "\u2581Oshiholelwa": 2906,
  "\u2581Ye": 2907,
  "\u2581edhiladhilo": 2908,
  "\u2581education": 2909,
  "\u2581firm": 2910,
  "\u2581galukile": 2911,
  "\u2581gamena": 2912,
  "\u2581iizemo": 2913,
  "\u2581ite": 2914,
  "\u2581metetekelo": 2915,
  "\u2581natural": 2916,
  "\u2581omainyanyudho": 2917,
  "\u2581pitilila": 2918,
  "\u2581preached": 2919,
  "\u2581simple": 2920,
  "\u2581six": 2921,
  "\u2581text": 2922,
  "\u2581write": 2923,
  "Let": 2924,
  "medhina": 2925,
  "out": 2926,
  "\u258132.": 2927,
  "\u2581aamwahe": 2928,
  "\u2581condition": 2929,
  "\u2581conditions": 2930,
  "\u2581cope": 2931,
  "\u2581ehokololo": 2932,
  "\u2581iinene": 2933,
  "\u2581justice": 2934,
  "\u2581nookuume": 2935,
  "\u2581notice": 2936,
  "\u2581offspring": 2937,
  "\u2581okuungaung": 2938,
  "\u2581pitike": 2939,
  "\u2581side": 2940,
  "\u2581uses": 2941,
  "\u2581zeal": 2942,
  "If": 2943,
  "ic": 2944,
  "ous": 2945,
  "\u258127)": 2946,
  "\u2581Was": 2947,
  "\u2581battle": 2948,
  "\u2581bless": 2949,
  "\u2581encouraging": 2950,
  "\u2581etitha": 2951,
  "\u2581filled": 2952,
  "\u2581gatatu": 2953,
  "\u2581kuthe": 2954,
  "\u2581momagumbo": 2955,
  "\u2581morning": 2956,
  "\u2581nokuninga": 2957,
  "\u2581nomuntu": 2958,
  "\u2581nu": 2959,
  "\u2581related": 2960,
  "\u2581reveal": 2961,
  "\u2581universe": 2962,
  "\u2581watch": 2963,
  "\u2581yegongalo": 2964,
  "\u2581appropriate": 2965,
  "\u2581contact": 2966,
  "\u2581danger": 2967,
  "\u2581dhaantu": 2968,
  "\u2581ekonakono": 2969,
  "\u2581enable": 2970,
  "\u2581entertainment": 2971,
  "\u2581former": 2972,
  "\u2581improve": 2973,
  "\u2581kungoye": 2974,
  "\u2581mistakes": 2975,
  "\u2581omalongo": 2976,
  "\u2581omathele": 2977,
  "\u2581yande": 2978,
  "U": 2979,
  "We": 2980,
  "apiya": 2981,
  "re": 2982,
  "shikando": 2983,
  "\u2581School": 2984,
  "\u2581aamwoye": 2985,
  "\u2581attack": 2986,
  "\u2581beliefs": 2987,
  "\u2581dhandje": 2988,
  "\u2581final": 2989,
  "\u2581household": 2990,
  "\u2581iifundja": 2991,
  "\u2581involves": 2992,
  "\u2581kokeke": 2993,
  "\u2581moral": 2994,
  "\u2581omagongalo": 2995,
  "\u2581pride": 2996,
  "h": 2997,
  "inamu": 2998,
  "momikalo": 2999,
  "\u2581IN": 3000,
  "\u2581attended": 3001,
  "\u2581consequences": 3002,
  "\u2581elongekidho": 3003,
  "\u2581eventually": 3004,
  "\u2581forget": 3005,
  "\u2581hokanwa": 3006,
  "\u2581idhidhimike": 3007,
  "\u2581itself": 3008,
  "\u2581okupulakena": 3009,
  "\u2581seed": 3010,
  "\u2581thousands": 3011,
  "\u2581united": 3012,
  "\u2581urged": 3013,
  "\u2581yumudha": 3014,
  "j": 3015,
  "oko": 3016,
  "uhalu": 3017,
  "\u258134.": 3018,
  "\u2581According": 3019,
  "\u2581Jes": 3020,
  "\u2581Oshizemo": 3021,
  "\u2581Through": 3022,
  "\u2581acts": 3023,
  "\u2581approval": 3024,
  "\u2581bread": 3025,
  "\u2581iwetikile": 3026,
  "\u2581melaka": 3027,
  "\u2581pombanda": 3028,
  "Jak": 3029,
  "Omuwa": 3030,
  "c": 3031,
  "hunganeko": 3032,
  "\u2581Josua": 3033,
  "\u2581birth": 3034,
  "\u2581destroy": 3035,
  "\u2581focused": 3036,
  "\u2581hour": 3037,
  "\u2581hours": 3038,
  "\u2581negumbo": 3039,
  "\u2581offering": 3040,
  "\u2581oompango": 3041,
  "\u2581sacred": 3042,
  "\u25811954)": 3043,
  "\u2581Osho": 3044,
  "\u2581Where": 3045,
  "\u2581aware": 3046,
  "\u2581brings": 3047,
  "\u2581countries": 3048,
  "\u2581immediately": 3049,
  "\u2581immorality": 3050,
  "\u2581kuJesus": 3051,
  "\u2581lili": 3052,
  "\u2581omayambeko": 3053,
  "\u2581prepared": 3054,
  "\u2581rely": 3055,
  "\u2581silwa": 3056,
  "\u2581sort": 3057,
  "\u2581thigulula": 3058,
  "\u2581vision": 3059,
  "\u2581Explain": 3060,
  "\u2581Judah": 3061,
  "\u2581attending": 3062,
  "\u2581eifupipiko": 3063,
  "\u2581eight": 3064,
  "\u2581failed": 3065,
  "\u2581fire": 3066,
  "\u2581fulfill": 3067,
  "\u2581lyopothingo": 3068,
  "\u2581lyuukwanegumbo": 3069,
  "\u2581month": 3070,
  "\u2581noohapu": 3071,
  "\u2581opalela": 3072,
  "\u2581shaa": 3073,
  "\u2581uvanekele": 3074,
  "\u2581walking": 3075,
  "\u2581wilikw": 3076,
  "\u2581yourselves": 3077,
  "Gal": 3078,
  "itayi": 3079,
  "\u2581H": 3080,
  "\u2581Noowa": 3081,
  "\u2581OF": 3082,
  "\u2581Rome": 3083,
  "\u2581accomplish": 3084,
  "\u2581army": 3085,
  "\u2581atuheni": 3086,
  "\u2581compassion": 3087,
  "\u2581event": 3088,
  "\u2581included": 3089,
  "\u2581kankame": 3090,
  "\u2581koka": 3091,
  "\u2581omayono": 3092,
  "\u2581oshilyo": 3093,
  "\u2581persecution": 3094,
  "\u2581sheni": 3095,
  "\u2581sign": 3096,
  "\u2581temptation": 3097,
  "OMUWA": 3098,
  "responsibilities": 3099,
  "\u2581Esau": 3100,
  "\u2581Russell": 3101,
  "\u2581conversation": 3102,
  "\u2581decide": 3103,
  "\u2581gwomutse": 3104,
  "\u2581kasha": 3105,
  "\u2581kundathaneni": 3106,
  "\u2581non": 3107,
  "\u2581refers": 3108,
  "\u2581scriptures": 3109,
  "\u2581spoken": 3110,
  "\u2581teya": 3111,
  "\u2581yatatu": 3112,
  "\u2581Eva": 3113,
  "\u2581Hezekiah": 3114,
  "\u2581enemy": 3115,
  "\u2581followed": 3116,
  "\u2581grew": 3117,
  "\u2581instead": 3118,
  "\u2581lack": 3119,
  "\u2581mention": 3120,
  "\u2581okutaamba": 3121,
  "\u2581oolye": 3122,
  "\u2581places": 3123,
  "\u2581sex": 3124,
  "When": 3125,
  "\u2581Rahab": 3126,
  "\u2581STUD": 3127,
  "\u2581calls": 3128,
  "\u2581disciple": 3129,
  "\u2581hurt": 3130,
  "\u2581muupika": 3131,
  "\u2581omwana": 3132,
  "\u2581patient": 3133,
  "\u2581privileges": 3134,
  "\u2581pulakena": 3135,
  "\u2581response": 3136,
  "\u2581violence": 3137,
  "\u2581yOshiingilisa": 3138,
  "\u2581zealous": 3139,
  "\u2581WHAT": 3140,
  "\u2581iilanduliko": 3141,
  "\u2581lyaKristus": 3142,
  "\u2581lyokointaneta": 3143,
  "\u2581moohapu": 3144,
  "\u2581ogwo": 3145,
  "\u2581town": 3146,
  "itula": 3147,
  "\u2581Know": 3148,
  "\u2581TO": 3149,
  "\u2581affected": 3150,
  "\u2581aspects": 3151,
  "\u2581break": 3152,
  "\u2581discussed": 3153,
  "\u2581easier": 3154,
  "\u2581geya": 3155,
  "\u2581gongala": 3156,
  "\u2581killed": 3157,
  "\u2581kosikola": 3158,
  "\u2581leshe": 3159,
  "\u2581looked": 3160,
  "\u2581mOmanyolo": 3161,
  "\u2581muye": 3162,
  "\u2581ongoye": 3163,
  "\u2581reasonable": 3164,
  "\u2581www": 3165,
  "Ina": 3166,
  "ndhindhilikwedhi": 3167,
  "ould": 3168,
  "\u2581Aaefeso": 3169,
  "\u2581Family": 3170,
  "\u2581Katu": 3171,
  "\u2581Marta": 3172,
  "\u2581Over": 3173,
  "\u2581Question": 3174,
  "\u2581Rev": 3175,
  "\u2581areas": 3176,
  "\u2581eyele": 3177,
  "\u2581fail": 3178,
  "\u2581gwontumba": 3179,
  "\u2581iyapulila": 3180,
  "\u2581kali": 3181,
  "\u2581komuntu": 3182,
  "\u2581konge": 3183,
  "\u2581masiku": 3184,
  "\u2581momutima": 3185,
  "\u2581observe": 3186,
  "\u2581omalaleko": 3187,
  "\u2581omayambo": 3188,
  "\u2581omutonateli": 3189,
  "\u2581ongame": 3190,
  "\u2581prevent": 3191,
  "\u2581refuge": 3192,
  "\u2581reject": 3193,
  "\u2581rejoice": 3194,
  "\u2581youth": 3195,
  "Oshigwana": 3196,
  "aihokani": 3197,
  "\u2581Hasho": 3198,
  "\u2581aakuluntu": 3199,
  "\u2581acceptable": 3200,
  "\u2581dhipagwa": 3201,
  "\u2581don": 3202,
  "\u2581eidhidhimiko": 3203,
  "\u2581epuko": 3204,
  "\u2581eyamukulo": 3205,
  "\u2581fruitage": 3206,
  "\u2581immoral": 3207,
  "\u2581landule": 3208,
  "\u2581meant": 3209,
  "\u2581meitaalo": 3210,
  "\u2581momilalo": 3211,
  "\u2581omamakelo": 3212,
  "\u2581opportunities": 3213,
  "\u2581pehulilo": 3214,
  "\u2581relates": 3215,
  "\u2581security": 3216,
  "\u2581successful": 3217,
  "\u2581taambe": 3218,
  "aantu": 3219,
  "iikando": 3220,
  "\u2581Jehu": 3221,
  "\u2581discreet": 3222,
  "\u2581inee": 3223,
  "\u2581nasho": 3224,
  "\u2581nogi": 3225,
  "\u2581omuyengeli": 3226,
  "\u2581prophecies": 3227,
  "\u2581siku": 3228,
  "\u2581yomuuyuni": 3229,
  "Otandi": 3230,
  "].": 3231,
  "an": 3232,
  "kwa": 3233,
  "referred": 3234,
  "\u2581OSHI": 3235,
  "\u2581association": 3236,
  "\u2581dheni": 3237,
  "\u2581exactly": 3238,
  "\u2581noita": 3239,
  "\u2581omahokolol": 3240,
  "\u2581standing": 3241,
  "\u2581taka": 3242,
  "\u2581warned": 3243,
  "he": 3244,
  "shili": 3245,
  "tayi": 3246,
  "\u2581Armageddon": 3247,
  "\u2581Ezekiel": 3248,
  "\u2581Her": 3249,
  "\u2581Regard": 3250,
  "\u2581Tango": 3251,
  "\u2581existence": 3252,
  "\u2581gwililw": 3253,
  "\u2581ihole": 3254,
  "\u2581miitopolwa": 3255,
  "\u2581nonokut": 3256,
  "\u2581okudhimbulukwa": 3257,
  "\u2581omadhigu": 3258,
  "\u2581parts": 3259,
  "\u2581pornography": 3260,
  "\u2581shonale": 3261,
  "\u2581sincere": 3262,
  "\u2581uuwehame": 3263,
  "eta": 3264,
  "felt": 3265,
  "ma": 3266,
  "ww": 3267,
  "\u2581Ef": 3268,
  "\u2581Isak": 3269,
  "\u2581Petameko": 3270,
  "\u2581anxiety": 3271,
  "\u2581concerned": 3272,
  "\u2581conclusion": 3273,
  "\u2581devotion": 3274,
  "\u2581endurance": 3275,
  "\u2581fill": 3276,
  "\u2581gaantu": 3277,
  "\u2581lands": 3278,
  "\u2581least": 3279,
  "\u2581muyo": 3280,
  "\u2581naakiintu": 3281,
  "\u2581pondole": 3282,
  "\u2581produce": 3283,
  "\u2581required": 3284,
  "dhindhilika": 3285,
  "\u2581\"[": 3286,
  "\u258126)": 3287,
  "\u258151": 3288,
  "\u2581aalunde": 3289,
  "\u2581basic": 3290,
  "\u2581faithfully": 3291,
  "\u2581idea": 3292,
  "\u2581ipule": 3293,
  "\u2581kumagidha": 3294,
  "\u2581mpono": 3295,
  "\u2581ondjo": 3296,
  "\u2581oonkondopangelo": 3297,
  "\u2581pleased": 3298,
  "\u2581save": 3299,
  "\u2581secular": 3300,
  "\u2581survive": 3301,
  "\u2581term": 3302,
  "\u2581uumbanda": 3303,
  "omahala": 3304,
  "\u2581Edhina": 3305,
  "\u2581Michelle": 3306,
  "\u2581Sophia": 3307,
  "\u2581Spirit": 3308,
  "\u2581aakwiilongo": 3309,
  "\u2581aalongi": 3310,
  "\u2581apuhe": 3311,
  "\u2581courageous": 3312,
  "\u2581dhOmbiimbeli": 3313,
  "\u2581eihumbato": 3314,
  "\u2581includes": 3315,
  "\u2581insight": 3316,
  "\u2581limited": 3317,
  "\u2581loss": 3318,
  "\u2581montaneho": 3319,
  "\u2581ningwe": 3320,
  "\u2581okulundulula": 3321,
  "\u2581omapangelo": 3322,
  "\u2581seeing": 3323,
  "\u2581succeed": 3324,
  "\u2581ungaung": 3325,
  "\u2581yakula": 3326,
  "Fil": 3327,
  "kwiidhidhimikila": 3328,
  "nawa": 3329,
  "\u2581Eitaalo": 3330,
  "\u2581aayenda": 3331,
  "\u2581boy": 3332,
  "\u2581claim": 3333,
  "\u2581energy": 3334,
  "\u2581hulu": 3335,
  "\u2581indicated": 3336,
  "\u2581kolokosha": 3337,
  "\u2581kotoka": 3338,
  "\u2581magazine": 3339,
  "\u2581mwaashoka": 3340,
  "\u2581nine": 3341,
  "\u2581nokulong": 3342,
  "\u2581nomunandunge": 3343,
  "\u2581okashona": 3344,
  "\u2581olutu": 3345,
  "\u2581omanene": 3346,
  "\u2581slaves": 3347,
  "\u2581state": 3348,
  "\u2581step": 3349,
  "\u2581younger": 3350,
  "NW": 3351,
  "endathana": 3352,
  "\u2581Elisha": 3353,
  "\u2581Further": 3354,
  "\u2581Knorr": 3355,
  "\u2581Martha": 3356,
  "\u2581Philippians": 3357,
  "\u2581contribute": 3358,
  "\u2581ehumokomeho": 3359,
  "\u2581either": 3360,
  "\u2581gamenwa": 3361,
  "\u2581guard": 3362,
  "\u2581half": 3363,
  "\u2581listening": 3364,
  "\u2581lundulule": 3365,
  "\u2581lyaantu": 3366,
  "\u2581neitaalo": 3367,
  "\u2581nomadhiladhilo": 3368,
  "\u2581okupewa": 3369,
  "\u2581omumvo": 3370,
  "\u2581oombwanawa": 3371,
  "\u2581oshilando": 3372,
  "\u2581poshigongi": 3373,
  "\u2581rulership": 3374,
  "\u2581sinful": 3375,
  "\u2581type": 3376,
  "\u2581wethimbo": 3377,
  "mo": 3378,
  "po": 3379,
  "yehe": 3380,
  "\u2581Jer": 3381,
  "\u2581Noa": 3382,
  "\u2581amount": 3383,
  "\u2581general": 3384,
  "\u2581nOonzapo": 3385,
  "\u2581nombepo": 3386,
  "\u2581omashongo": 3387,
  "\u2581oonkundathana": 3388,
  "\u2581opened": 3389,
  "\u2581opposition": 3390,
  "\u2581overseers": 3391,
  "\u2581pioneering": 3392,
  "\u2581verses": 3393,
  "\u2581visited": 3394,
  "He": 3395,
  "Ngame": 3396,
  "iyela": 3397,
  "\u25811919": 3398,
  "\u2581YOU": 3399,
  "\u2581busy": 3400,
  "\u2581miles": 3401,
  "\u2581okwiinekelwa": 3402,
  "\u2581olwa": 3403,
  "\u2581practices": 3404,
  "\u2581pursue": 3405,
  "\u2581raise": 3406,
  "\u2581story": 3407,
  "\u2581waiting": 3408,
  "aawiliki": 3409,
  "pangelo": 3410,
  "shigwana": 3411,
  "\u2581Jon": 3412,
  "\u2581Pharaoh": 3413,
  "\u2581aaifupipiki": 3414,
  "\u2581aakonakoni": 3415,
  "\u2581aasita": 3416,
  "\u2581aayuuki": 3417,
  "\u2581almo": 3418,
  "\u2581beloved": 3419,
  "\u2581box": 3420,
  "\u2581design": 3421,
  "\u2581eliko": 3422,
  "\u2581hi": 3423,
  "\u2581kuutumba": 3424,
  "\u2581makelwa": 3425,
  "\u2581meal": 3426,
  "\u2581minds": 3427,
  "\u2581omauvaneko": 3428,
  "\u2581omusita": 3429,
  "\u2581omuvali": 3430,
  "\u2581onakuyiwa": 3431,
  "\u2581refused": 3432,
  "\u2581translation": 3433,
  "\u2581tsakanene": 3434,
  "\u2581tumine": 3435,
  "\u2581yOonzapo": 3436,
  "Eksodus": 3437,
  "Lukas": 3438,
  "lwe": 3439,
  "\u258133)": 3440,
  "\u2581Internet": 3441,
  "\u2581Students": 3442,
  "\u2581aana": 3443,
  "\u2581deliver": 3444,
  "\u2581hupa": 3445,
  "\u2581lyombepo": 3446,
  "\u2581nature": 3447,
  "\u2581oshiwinayi": 3448,
  "\u2581presence": 3449,
  "\u2581talking": 3450,
  "\u2581yomimvo": 3451,
  "In": 3452,
  "en": 3453,
  "ezimo": 3454,
  "mupisalomi": 3455,
  "\u258120,": 3456,
  "\u2581Look": 3457,
  "\u2581SHOKA": 3458,
  "\u2581Yal": 3459,
  "\u2581aakolokoshi": 3460,
  "\u2581appeared": 3461,
  "\u2581commanded": 3462,
  "\u2581drink": 3463,
  "\u2581fall": 3464,
  "\u2581gifts": 3465,
  "\u2581honest": 3466,
  "\u2581indjipala": 3467,
  "\u2581kOmbiimbeli": 3468,
  "\u2581kaaku": 3469,
  "\u2581leading": 3470,
  "\u2581nuukeka": 3471,
  "\u2581okulombwela": 3472,
  "\u2581okwiitaala": 3473,
  "\u2581riches": 3474,
  "\u2581studies": 3475,
  "\u2581trained": 3476,
  "\u2581workers": 3477,
  "\u2581yasho": 3478,
  "\u2581yoshinima": 3479,
  "Jehova": 3480,
  "Jesaja": 3481,
  "This": 3482,
  "lo": 3483,
  "magano": 3484,
  "nga": 3485,
  "\u2581Drama": 3486,
  "\u2581Oolye": 3487,
  "\u2581South": 3488,
  "\u2581afraid": 3489,
  "\u2581becomes": 3490,
  "\u2581dhenge": 3491,
  "\u2581engage": 3492,
  "\u2581eshongo": 3493,
  "\u2581freely": 3494,
  "\u2581invite": 3495,
  "\u2581kaavali": 3496,
  "\u2581motivate": 3497,
  "\u2581ombinzi": 3498,
  "\u2581omiwanawa": 3499,
  "\u2581omupe": 3500,
  "\u2581political": 3501,
  "\u2581rejected": 3502,
  "\u2581shaJesus": 3503,
  "\u2581shoye": 3504,
  "\u2581uukolokoshi": 3505,
  "\u2581yombepo": 3506,
  "\u2581yopamaliko": 3507,
  "Oshinyanga": 3508,
  "ful": 3509,
  "leni": 3510,
  "\u2581Africa": 3511,
  "\u2581accurate": 3512,
  "\u2581built": 3513,
  "\u2581correct": 3514,
  "\u2581discern": 3515,
  "\u2581discouraged": 3516,
  "\u2581governments": 3517,
  "\u2581gwo": 3518,
  "\u2581hupithwa": 3519,
  "\u2581identify": 3520,
  "\u2581issues": 3521,
  "\u2581kAakriste": 3522,
  "\u2581lie": 3523,
  "\u2581master": 3524,
  "\u2581miita": 3525,
  "\u2581million": 3526,
  "\u2581momitima": 3527,
  "\u2581nyole": 3528,
  "\u2581omayuvi": 3529,
  "\u2581omwaalu": 3530,
  "\u2581strengthened": 3531,
  "\u2581telling": 3532,
  "\u2581yambeka": 3533,
  "Aahebeli": 3534,
  "melongelokalunga": 3535,
  "okuvulika": 3536,
  "shilongo": 3537,
  "\u2581Isa": 3538,
  "\u2581Learn": 3539,
  "\u2581MB": 3540,
  "\u2581Tse": 3541,
  "\u2581Us": 3542,
  "\u2581aawanawa": 3543,
  "\u2581angry": 3544,
  "\u2581appear": 3545,
  "\u2581distress": 3546,
  "\u2581eager": 3547,
  "\u2581ekelehi": 3548,
  "\u2581elderly": 3549,
  "\u2581endeavor": 3550,
  "\u2581feet": 3551,
  "\u2581galikane": 3552,
  "\u2581iigwana": 3553,
  "\u2581illustrate": 3554,
  "\u2581kindly": 3555,
  "\u2581lyopambepo": 3556,
  "\u2581nondi": 3557,
  "\u2581oshipopiwa": 3558,
  "\u2581uvanekela": 3559,
  "\u2581warm": 3560,
  "\u2581weeks": 3561,
  "\u2581yiilonga": 3562,
  "dha": 3563,
  "\u2581Karen": 3564,
  "\u2581L": 3565,
  "\u2581Ngiini": 3566,
  "\u2581YA": 3567,
  "\u2581active": 3568,
  "\u2581comments": 3569,
  "\u2581delight": 3570,
  "\u2581direct": 3571,
  "\u2581footnote": 3572,
  "\u2581harvest": 3573,
  "\u2581helpful": 3574,
  "\u2581kuthwa": 3575,
  "\u2581mature": 3576,
  "\u2581momeho": 3577,
  "\u2581mondjokonona": 3578,
  "\u2581muEgipiti": 3579,
  "\u2581music": 3580,
  "\u2581neinekelo": 3581,
  "\u2581oonguwo": 3582,
  "\u2581re": 3583,
  "\u2581saved": 3584,
  "\u2581subjects": 3585,
  "\u2581tsakaneke": 3586,
  "\u2581tuminwa": 3587,
  "\u2581witnessing": 3588,
  "evertheless": 3589,
  "oohapu": 3590,
  "\u2581Eric": 3591,
  "\u2581Omanga": 3592,
  "\u2581Omayele": 3593,
  "\u2581assured": 3594,
  "\u2581atuhe": 3595,
  "\u2581determine": 3596,
  "\u2581feels": 3597,
  "\u2581hula": 3598,
  "\u2581kayi": 3599,
  "\u2581kotha": 3600,
  "\u2581kwathelwa": 3601,
  "\u2581naashika": 3602,
  "\u2581nevi": 3603,
  "\u2581obedience": 3604,
  "\u2581promote": 3605,
  "\u2581request": 3606,
  "\u2581ruling": 3607,
  "\u2581satisfaction": 3608,
  "\u2581sees": 3609,
  "\u2581spread": 3610,
  "\u2581suffered": 3611,
  "\u2581tegelelwa": 3612,
  "\u2581ulikwa": 3613,
  "\u2581yO": 3614,
  "mimvo": 3615,
  "shikandjo": 3616,
  "ually": 3617,
  "\u2581NG": 3618,
  "\u2581War": 3619,
  "\u2581aakwiita": 3620,
  "\u2581await": 3621,
  "\u2581communication": 3622,
  "\u2581dheula": 3623,
  "\u2581igandja": 3624,
  "\u2581judge": 3625,
  "\u2581kondwa": 3626,
  "\u2581nomukadhi": 3627,
  "\u2581okuninginithwa": 3628,
  "\u2581ontumwafo": 3629,
  "\u2581recent": 3630,
  "\u2581relief": 3631,
  "\u2581represent": 3632,
  "\u2581tetekele": 3633,
  "\u2581tongue": 3634,
  "\u2581trial": 3635,
  "\u2581unique": 3636,
  "\u2581uu": 3637,
  "\u2581viewed": 3638,
  "\u2581witnesses": 3639,
  "NYOL": 3640,
  "kutha": 3641,
  "\u258122,": 3642,
  "\u258173": 3643,
  "\u2581Aatessalonika": 3644,
  "\u2581Deut": 3645,
  "\u2581Ehangano": 3646,
  "\u2581Gilead": 3647,
  "\u2581Pa": 3648,
  "\u2581adds": 3649,
  "\u2581applying": 3650,
  "\u2581believed": 3651,
  "\u2581difference": 3652,
  "\u2581endele": 3653,
  "\u2581enditha": 3654,
  "\u2581ground": 3655,
  "\u2581groups": 3656,
  "\u2581homes": 3657,
  "\u2581iimpwiyu": 3658,
  "\u2581instructions": 3659,
  "\u2581kopothingo": 3660,
  "\u2581main": 3661,
  "\u2581nolya": 3662,
  "\u2581nopwaahe": 3663,
  "\u2581okukoleka": 3664,
  "\u2581organized": 3665,
  "\u2581recreation": 3666,
  "\u2581spirituality": 3667,
  "\u2581studied": 3668,
  "\u2581wine": 3669,
  "Kol": 3670,
  "Mark": 3671,
  "alelwa": 3672,
  "\u258144.": 3673,
  "\u2581Fil": 3674,
  "\u2581Titus": 3675,
  "\u2581Worship": 3676,
  "\u2581awake": 3677,
  "\u2581closely": 3678,
  "\u2581creatures": 3679,
  "\u2581cut": 3680,
  "\u2581declared": 3681,
  "\u2581demons": 3682,
  "\u2581divorce": 3683,
  "\u2581extent": 3684,
  "\u2581kuSatana": 3685,
  "\u2581omilongo": 3686,
  "\u2581omuholike": 3687,
  "\u2581outside": 3688,
  "\u2581receiving": 3689,
  "\u2581worse": 3690,
  "\u2581yuukwanegumbo": 3691,
  "Jer": 3692,
  "My": 3693,
  "PALA": 3694,
  "komiti": 3695,
  "lwa": 3696,
  "okwa": 3697,
  "ombepo": 3698,
  "\u25812014": 3699,
  "\u2581Only": 3700,
  "\u2581Parents": 3701,
  "\u2581Uuwanawa": 3702,
  "\u2581applied": 3703,
  "\u2581cases": 3704,
  "\u2581cities": 3705,
  "\u2581dear": 3706,
  "\u2581describes": 3707,
  "\u2581dhingi": 3708,
  "\u2581emotional": 3709,
  "\u2581ewinayi": 3710,
  "\u2581gwil": 3711,
  "\u2581kegongalo": 3712,
  "\u2581kuyalwe": 3713,
  "\u2581lasting": 3714,
  "\u2581lyOmuwa": 3715,
  "\u2581momagongalo": 3716,
  "\u2581nani": 3717,
  "\u2581ogeni": 3718,
  "\u2581omadhina": 3719,
  "\u2581oparadisa": 3720,
  "\u2581report": 3721,
  "\u2581shono": 3722,
  "\u2581stopped": 3723,
  "\u2581thank": 3724,
  "\u2581thika": 3725,
  "\u2581willingly": 3726,
  "\u2581yina": 3727,
  "Num": 3728,
  "pinge": 3729,
  "\u2581Am": 3730,
  "\u2581Jak": 3731,
  "\u2581Land": 3732,
  "\u2581Oshikalimo": 3733,
  "\u2581Oshitya": 3734,
  "\u2581Sad": 3735,
  "\u2581directed": 3736,
  "\u2581entered": 3737,
  "\u2581forgiving": 3738,
  "\u2581galuka": 3739,
  "\u2581kehangano": 3740,
  "\u2581manner": 3741,
  "\u2581methelem": 3742,
  "\u2581muMateus": 3743,
  "\u2581mukwawo": 3744,
  "\u2581nkondopaleke": 3745,
  "\u2581omuyuuki": 3746,
  "\u2581pitika": 3747,
  "\u2581student": 3748,
  "\u2581talika": 3749,
  "\u2581views": 3750,
  "\u2581yane": 3751,
  "\u2581yes": 3752,
  "\u2581yokombanda": 3753,
  "\u2581ze": 3754,
  "esilohenda": 3755,
  "\u258135)": 3756,
  "\u258149": 3757,
  "\u2581Aakwaniilwa": 3758,
  "\u2581Good": 3759,
  "\u2581High": 3760,
  "\u2581Make": 3761,
  "\u2581Note": 3762,
  "\u2581Once": 3763,
  "\u2581Oshikwawo": 3764,
  "\u2581Should": 3765,
  "\u2581assure": 3766,
  "\u2581girl": 3767,
  "\u2581gone": 3768,
  "\u2581harm": 3769,
  "\u2581iikalunga": 3770,
  "\u2581ilongekidhile": 3771,
  "\u2581injustice": 3772,
  "\u2581letters": 3773,
  "\u2581manifest": 3774,
  "\u2581marry": 3775,
  "\u2581names": 3776,
  "\u2581nomusamane": 3777,
  "\u2581normal": 3778,
  "\u2581ogumwe": 3779,
  "\u2581proud": 3780,
  "\u2581pure": 3781,
  "\u2581room": 3782,
  "\u2581translated": 3783,
  "\u2581wickedness": 3784,
  "\u2581yaMoses": 3785,
  "\u2581yowala": 3786,
  "Ondi": 3787,
  "Sho": 3788,
  "omwenyo": 3789,
  "ongela": 3790,
  "\u258154": 3791,
  "\u2581Cameron": 3792,
  "\u2581Contents": 3793,
  "\u2581OMBIIMBELI": 3794,
  "\u2581Pentecost": 3795,
  "\u2581YI": 3796,
  "\u2581address": 3797,
  "\u2581big": 3798,
  "\u2581choices": 3799,
  "\u2581committed": 3800,
  "\u2581conclude": 3801,
  "\u2581continues": 3802,
  "\u2581esilohenda": 3803,
  "\u2581expected": 3804,
  "\u2581gopaKriste": 3805,
  "\u2581hunganekwa": 3806,
  "\u2581lala": 3807,
  "\u2581lyuudhigu": 3808,
  "\u2581moving": 3809,
  "\u2581naKristus": 3810,
  "\u2581naanona": 3811,
  "\u2581ogo": 3812,
  "\u2581omwanamati": 3813,
  "\u2581panga": 3814,
  "\u2581resolve": 3815,
  "\u2581run": 3816,
  "\u2581sight": 3817,
  "\u2581tompwa": 3818,
  "\u2581treasure": 3819,
  "\u2581treated": 3820,
  "\u2581wheat": 3821,
  "\u2581yUuyuni": 3822,
  "Deut": 3823,
  "okulongitha": 3824,
  "\u2581Olutuwiliki": 3825,
  "\u2581Table": 3826,
  "\u2581Well": 3827,
  "\u2581Work": 3828,
  "\u2581animals": 3829,
  "\u2581emotions": 3830,
  "\u2581front": 3831,
  "\u2581hupu": 3832,
  "\u2581iiningwanima": 3833,
  "\u2581konyala": 3834,
  "\u2581lies": 3835,
  "\u2581noyana": 3836,
  "\u2581omayambidhidho": 3837,
  "\u2581ondumbo": 3838,
  "\u2581patiently": 3839,
  "\u2581perform": 3840,
  "\u2581statement": 3841,
  "\u2581teachers": 3842,
  "\u2581third": 3843,
  "\u2581yedhina": 3844,
  "\u2581yelithil": 3845,
  "all": 3846,
  "disfellowshipped": 3847,
  "ive": 3848,
  "okukalamwenyo": 3849,
  "oye": 3850,
  "\u2581Gideon": 3851,
  "\u2581LY": 3852,
  "\u2581Name": 3853,
  "\u2581Onde": 3854,
  "\u2581Readers": 3855,
  "\u2581Zechariah": 3856,
  "\u2581aspect": 3857,
  "\u2581concerns": 3858,
  "\u2581descendants": 3859,
  "\u2581dhimbulukwe": 3860,
  "\u2581essential": 3861,
  "\u2581eye": 3862,
  "\u2581geye": 3863,
  "\u2581greatly": 3864,
  "\u2581holathane": 3865,
  "\u2581kehala": 3866,
  "\u2581okweenda": 3867,
  "\u2581pleasure": 3868,
  "\u2581points": 3869,
  "\u2581proof": 3870,
  "\u2581rebellion": 3871,
  "\u2581uusiku": 3872,
  "go": 3873,
  "wokukala": 3874,
  "\u2581Catholic": 3875,
  "\u2581IKOLEL": 3876,
  "\u2581KOSHI": 3877,
  "\u2581SHOKOMBANDA": 3878,
  "\u2581Sometimes": 3879,
  "\u2581Study": 3880,
  "\u2581acted": 3881,
  "\u2581allows": 3882,
  "\u2581ark": 3883,
  "\u2581challenging": 3884,
  "\u2581daughters": 3885,
  "\u2581dhiginine": 3886,
  "\u2581eyambo": 3887,
  "\u2581gwanenwa": 3888,
  "\u2581konga": 3889,
  "\u2581kulupa": 3890,
  "\u2581kwopaKriste": 3891,
  "\u2581likewise": 3892,
  "\u2581mangulula": 3893,
  "\u2581naanegumbo": 3894,
  "\u2581neso": 3895,
  "\u2581ng": 3896,
  "\u2581notayi": 3897,
  "\u2581okupa": 3898,
  "\u2581omwiitaali": 3899,
  "\u2581road": 3900,
  "\u2581values": 3901,
  "\u2581wish": 3902,
  "\u2581worth": 3903,
  "1)": 3904,
  "Keep": 3905,
  "ashi": 3906,
  "more": 3907,
  "mukiintu": 3908,
  "ne": 3909,
  "omithikampango": 3910,
  "omumvo": 3911,
  "\u2581Aafilippi": 3912,
  "\u2581Eph": 3913,
  "\u2581Messianic": 3914,
  "\u2581Shin": 3915,
  "\u2581aludha": 3916,
  "\u2581decades": 3917,
  "\u2581etithw": 3918,
  "\u2581evidently": 3919,
  "\u2581expressions": 3920,
  "\u2581hambelele": 3921,
  "\u2581joyful": 3922,
  "\u2581lifestyle": 3923,
  "\u2581listened": 3924,
  "\u2581maantu": 3925,
  "\u2581omagumbo": 3926,
  "\u2581omakaya": 3927,
  "\u2581pangula": 3928,
  "\u2581pass": 3929,
  "\u2581principle": 3930,
  "\u2581prophets": 3931,
  "\u2581setting": 3932,
  "\u2581sinned": 3933,
  "\u2581yomegulu": 3934,
  "ers": 3935,
  "iilyo": 3936,
  "ile": 3937,
  "ion": 3938,
  "mumvo": 3939,
  "osaic": 3940,
  "shikumithalonga": 3941,
  "\u258114.)": 3942,
  "\u2581Atuheni": 3943,
  "\u2581Elisa": 3944,
  "\u2581Onkalamwenyo": 3945,
  "\u2581Whe": 3946,
  "\u2581adhe": 3947,
  "\u2581aside": 3948,
  "\u2581bearing": 3949,
  "\u2581enda": 3950,
  "\u2581endelela": 3951,
  "\u2581etoye": 3952,
  "\u2581gopantu": 3953,
  "\u2581grasp": 3954,
  "\u2581husbands": 3955,
  "\u2581increase": 3956,
  "\u2581km": 3957,
  "\u2581moshipala": 3958,
  "\u2581nane": 3959,
  "\u2581nodha": 3960,
  "\u2581okuhogolola": 3961,
  "\u2581omeho": 3962,
  "\u2581onale": 3963,
  "\u2581pingen": 3964,
  "\u2581scripture": 3965,
  "\u2581seriously": 3966,
  "\u2581sun": 3967,
  "\u2581tumbula": 3968,
  "\u2581widow": 3969,
  "Uuyuni": 3970,
  "and": 3971,
  "esiku": 3972,
  "molwaashoka": 3973,
  "tumbulilo": 3974,
  "uuthiga": 3975,
  "\u258147": 3976,
  "\u2581Germany": 3977,
  "\u2581THIS": 3978,
  "\u2581conventions": 3979,
  "\u2581count": 3980,
  "\u2581dangerous": 3981,
  "\u2581established": 3982,
  "\u2581facts": 3983,
  "\u2581fell": 3984,
  "\u2581hearing": 3985,
  "\u2581inyengithwa": 3986,
  "\u2581kaamwatate": 3987,
  "\u2581neifupipiko": 3988,
  "\u2581ningilwe": 3989,
  "\u2581noshi": 3990,
  "\u2581noshike": 3991,
  "\u2581noted": 3992,
  "\u2581nuuna": 3993,
  "\u2581okusila": 3994,
  "\u2581omuwiliki": 3995,
  "\u2581oonene": 3996,
  "\u2581oowili": 3997,
  "\u2581pambathana": 3998,
  "\u2581probabl": 3999,
  "\u2581sleep": 4000,
  "\u2581teacher": 4001,
  "\u2581thiminike": 4002,
  "\u2581violent": 4003,
  "\u2581yaashono": 4004,
  "\u2581yeso": 4005,
  "eityo": 4006,
  "hagu": 4007,
  "oshinima": 4008,
  "tegameno": 4009,
  "\u258166": 4010,
  "\u2581Faith": 4011,
  "\u2581Finally": 4012,
  "\u2581OMA": 4013,
  "\u2581SHO": 4014,
  "\u2581aatumwa": 4015,
  "\u2581benefited": 4016,
  "\u2581details": 4017,
  "\u2581exert": 4018,
  "\u2581grief": 4019,
  "\u2581gwoomvula": 4020,
  "\u2581hospitality": 4021,
  "\u2581lile": 4022,
  "\u2581ngambekwa": 4023,
  "\u2581nyengwa": 4024,
  "\u2581ondondo": 4025,
  "\u2581refer": 4026,
  "\u2581relative": 4027,
  "\u2581requires": 4028,
  "\u2581separate": 4029,
  "\u2581struggle": 4030,
  "\u2581theocratic": 4031,
  "\u2581tule": 4032,
  "\u2581wontumba": 4033,
  "age": 4034,
  "kulongela": 4035,
  "mong": 4036,
  "one": 4037,
  "oomwedhi": 4038,
  "\u2581Hav": 4039,
  "\u2581Likewise": 4040,
  "\u2581Nathan": 4041,
  "\u2581Promised": 4042,
  "\u2581Second": 4043,
  "\u2581aape": 4044,
  "\u2581adjust": 4045,
  "\u2581although": 4046,
  "\u2581arise": 4047,
  "\u2581companions": 4048,
  "\u2581difficulties": 4049,
  "\u2581easily": 4050,
  "\u2581finally": 4051,
  "\u2581gratitude": 4052,
  "\u2581haa": 4053,
  "\u2581mbudhi": 4054,
  "\u2581moAmerika": 4055,
  "\u2581okukatuka": 4056,
  "\u2581ondjele": 4057,
  "\u2581primary": 4058,
  "\u2581soldiers": 4059,
  "\u2581stick": 4060,
  "\u2581weak": 4061,
  "\u2581welcome": 4062,
  "great": 4063,
  "ke": 4064,
  "\u2581Aanona": 4065,
  "\u2581City": 4066,
  "\u2581France": 4067,
  "\u2581Jephthah": 4068,
  "\u2581Lot": 4069,
  "\u2581Oyo": 4070,
  "\u2581Pictures": 4071,
  "\u2581Ruth": 4072,
  "\u2581Under": 4073,
  "\u2581anxious": 4074,
  "\u2581assistance": 4075,
  "\u2581cares": 4076,
  "\u2581ehekeleko": 4077,
  "\u2581eyooloko": 4078,
  "\u2581eyumuko": 4079,
  "\u2581hogololwa": 4080,
  "\u2581impressed": 4081,
  "\u2581indicate": 4082,
  "\u2581inheritance": 4083,
  "\u2581inside": 4084,
  "\u2581journey": 4085,
  "\u2581kana": 4086,
  "\u2581lyasha": 4087,
  "\u2581mehala": 4088,
  "\u2581muukwanegumbo": 4089,
  "\u2581noshigwana": 4090,
  "\u2581occur": 4091,
  "\u2581okukambadhala": 4092,
  "\u2581oondjila": 4093,
  "\u2581oshilongo": 4094,
  "\u2581osikola": 4095,
  "\u2581responded": 4096,
  "\u2581stronger": 4097,
  "\u2581teenager": 4098,
  "\u2581tempted": 4099,
  "\u2581thiga": 4100,
  "\u2581yumuka": 4101,
  "Omuuv": 4102,
  "iilongo": 4103,
  "koshitayimbelewa": 4104,
  "okuulika": 4105,
  "\u2581Absalom": 4106,
  "\u2581Brian": 4107,
  "\u2581Deuteronomy": 4108,
  "\u2581Him": 4109,
  "\u2581Nisan": 4110,
  "\u2581Passover": 4111,
  "\u2581Phil": 4112,
  "\u2581accomplished": 4113,
  "\u2581appears": 4114,
  "\u2581consideration": 4115,
  "\u2581drawn": 4116,
  "\u2581eshito": 4117,
  "\u2581evident": 4118,
  "\u2581holike": 4119,
  "\u2581keni": 4120,
  "\u2581kiitopolwa": 4121,
  "\u2581kohole": 4122,
  "\u2581missionaries": 4123,
  "\u2581muupongekwa": 4124,
  "\u2581nongele": 4125,
  "\u2581okukokeka": 4126,
  "\u2581okunena": 4127,
  "\u2581okusimaneka": 4128,
  "\u2581okuuvi": 4129,
  "\u2581oshitiyali": 4130,
  "\u2581outstanding": 4131,
  "\u2581represented": 4132,
  "\u2581sea": 4133,
  "\u2581shaEden": 4134,
  "\u2581sinners": 4135,
  "\u2581tegelele": 4136,
  "\u2581touched": 4137,
  "\u2581trusted": 4138,
  "\u2581walked": 4139,
  "\u2581wild": 4140,
  "\u2581yomo": 4141,
  "ewiliko": 4142,
  "okuninga": 4143,
  "okuningitha": 4144,
  "\u25812015": 4145,
  "\u2581Exodus": 4146,
  "\u2581Omathano": 4147,
  "\u2581aakwaniilwa": 4148,
  "\u2581adopt": 4149,
  "\u2581alcohol": 4150,
  "\u2581bond": 4151,
  "\u2581dealings": 4152,
  "\u2581defend": 4153,
  "\u2581discussion": 4154,
  "\u2581drinking": 4155,
  "\u2581elombwelo": 4156,
  "\u2581growing": 4157,
  "\u2581guided": 4158,
  "\u2581komuti": 4159,
  "\u2581landitha": 4160,
  "\u2581mOshungolangelo": 4161,
  "\u2581measure": 4162,
  "\u2581naalongwa": 4163,
  "\u2581ndhindhilika": 4164,
  "\u2581occurred": 4165,
  "\u2581odho": 4166,
  "\u2581okukundathana": 4167,
  "\u2581omupangeli": 4168,
  "\u2581otse": 4169,
  "\u2581potential": 4170,
  "\u2581pukulula": 4171,
  "\u2581reality": 4172,
  "\u2581reveals": 4173,
  "\u2581sinde": 4174,
  "\u2581viewpoint": 4175,
  "\u2581wopantu": 4176,
  ">": 4177,
  "Oonzapo": 4178,
  "What": 4179,
  "kele": 4180,
  "kulongitha": 4181,
  "maukwatya": 4182,
  "mokulongela": 4183,
  "uuyuni": 4184,
  "\u2581Both": 4185,
  "\u2581Enoch": 4186,
  "\u2581II": 4187,
  "\u2581Illustrate": 4188,
  "\u2581Two": 4189,
  "\u2581aalaadhi": 4190,
  "\u2581abilities": 4191,
  "\u2581career": 4192,
  "\u2581considering": 4193,
  "\u2581developed": 4194,
  "\u2581dhimina": 4195,
  "\u2581differ": 4196,
  "\u2581egeeloputudho": 4197,
  "\u2581futu": 4198,
  "\u2581gradually": 4199,
  "\u2581hupithe": 4200,
  "\u2581iishona": 4201,
  "\u2581influenced": 4202,
  "\u2581instruction": 4203,
  "\u2581komahal": 4204,
  "\u2581mumwe": 4205,
  "\u2581nowa": 4206,
  "\u2581okukandul": 4207,
  "\u2581okulya": 4208,
  "\u2581okuuvithila": 4209,
  "\u2581oshimpungu": 4210,
  "\u2581path": 4211,
  "\u2581quoted": 4212,
  "\u2581recognized": 4213,
  "\u2581shared": 4214,
  "\u2581sword": 4215,
  "\u2581totwa": 4216,
  "\u2581yemata": 4217,
  "\u2581yokukala": 4218,
  "2)": 4219,
  "Otw": 4220,
  "be": 4221,
  "halo": 4222,
  "ntu": 4223,
  "ondjila": 4224,
  "\u258180": 4225,
  "\u2581Christianity": 4226,
  "\u2581Draw": 4227,
  "\u2581Gospel": 4228,
  "\u2581Levites": 4229,
  "\u2581Uule": 4230,
  "\u2581aamwameme": 4231,
  "\u2581advantage": 4232,
  "\u2581behavior": 4233,
  "\u2581belong": 4234,
  "\u2581chapters": 4235,
  "\u2581compared": 4236,
  "\u2581deeds": 4237,
  "\u2581dhengwa": 4238,
  "\u2581eternal": 4239,
  "\u2581extreme": 4240,
  "\u2581gam": 4241,
  "\u2581handle": 4242,
  "\u2581lyopaumwene": 4243,
  "\u2581ministeri": 4244,
  "\u2581nohe": 4245,
  "\u2581nuninwa": 4246,
  "\u2581okutegelela": 4247,
  "\u2581omutumwa": 4248,
  "\u2581publication": 4249,
  "\u2581shepherds": 4250,
  "\u2581suggestions": 4251,
  "\u2581throne": 4252,
  "\u2581yeitaalo": 4253,
  "\u2581youths": 4254,
  "Ino": 4255,
  "okulongela": 4256,
  "oovelise": 4257,
  "pangelwa": 4258,
  "\u2581Help": 4259,
  "\u2581Israelite": 4260,
  "\u2581July": 4261,
  "\u2581NA": 4262,
  "\u2581Omulongwa": 4263,
  "\u2581Ote": 4264,
  "\u2581adultery": 4265,
  "\u2581aniwa": 4266,
  "\u2581assignments": 4267,
  "\u2581beast": 4268,
  "\u2581begotten": 4269,
  "\u2581communicate": 4270,
  "\u2581fleshly": 4271,
  "\u2581ini": 4272,
  "\u2581kwatathan": 4273,
  "\u2581moment": 4274,
  "\u2581momwenyo": 4275,
  "\u2581motempeli": 4276,
  "\u2581neighbors": 4277,
  "\u2581nyanyukilwe": 4278,
  "\u2581omahunganeko": 4279,
  "\u2581omwiifupipiki": 4280,
  "\u2581provisions": 4281,
  "\u2581recalls": 4282,
  "\u2581sindana": 4283,
  "\u2581thiminikwa": 4284,
  "\u2581washa": 4285,
  "\u2581win": 4286,
  "Look": 4287,
  "ies": 4288,
  "lombwelo": 4289,
  "ment": 4290,
  "ombinga": 4291,
  "tali": 4292,
  "tamu": 4293,
  "\u258139.": 4294,
  "\u2581April": 4295,
  "\u2581Israeli": 4296,
  "\u2581Jonathan": 4297,
  "\u2581Nehemiah": 4298,
  "\u2581Scripture": 4299,
  "\u2581Up": 4300,
  "\u2581couples": 4301,
  "\u2581court": 4302,
  "\u2581declare": 4303,
  "\u2581dheulwa": 4304,
  "\u2581donations": 4305,
  "\u2581gashili": 4306,
  "\u2581gods": 4307,
  "\u2581gokukala": 4308,
  "\u2581haka": 4309,
  "\u2581ill": 4310,
  "\u2581kill": 4311,
  "\u2581koshitopolwa": 4312,
  "\u2581meyele": 4313,
  "\u2581mouth": 4314,
  "\u2581muJesus": 4315,
  "\u2581omalongekidho": 4316,
  "\u2581omunene": 4317,
  "\u2581omwiinayi": 4318,
  "\u2581otherwise": 4319,
  "\u2581pondje": 4320,
  "\u2581provision": 4321,
  "\u2581responsible": 4322,
  "\u2581rise": 4323,
  "\u2581search": 4324,
  "\u2581selfish": 4325,
  "\u2581t": 4326,
  "\u2581ukilila": 4327,
  "\u2581yomethelem": 4328,
  "moshiholelwa": 4329,
  "uume": 4330,
  "\u2581Children": 4331,
  "\u2581Nena": 4332,
  "\u2581Recall": 4333,
  "\u2581adjustments": 4334,
  "\u2581andola": 4335,
  "\u2581associates": 4336,
  "\u2581culture": 4337,
  "\u2581eating": 4338,
  "\u2581efupi": 4339,
  "\u2581forces": 4340,
  "\u2581gopandunge": 4341,
  "\u2581hedhe": 4342,
  "\u2581heed": 4343,
  "\u2581impossible": 4344,
  "\u2581motivated": 4345,
  "\u2581noina": 4346,
  "\u2581nomukiintu": 4347,
  "\u2581omulilo": 4348,
  "\u2581omutondi": 4349,
  "\u2581ovelise": 4350,
  "\u2581pandjele": 4351,
  "\u2581pattern": 4352,
  "\u2581peaceful": 4353,
  "\u2581pleas": 4354,
  "\u2581ponokele": 4355,
  "\u2581se": 4356,
  "\u2581shandje": 4357,
  "\u2581surprise": 4358,
  "\u2581topoka": 4359,
  "\u2581uunkulungu": 4360,
  "\u2581uvaneke": 4361,
  "\u2581vow": 4362,
  "\u2581yaGilead": 4363,
  "All": 4364,
  "How": 4365,
  "hi": 4366,
  "uukwatya": 4367,
  "\u25811950": 4368,
  "\u2581Aalongwa": 4369,
  "\u2581Aalumentu": 4370,
  "\u2581August": 4371,
  "\u2581Barak": 4372,
  "\u2581Natse": 4373,
  "\u2581Otw": 4374,
  "\u2581Samantha": 4375,
  "\u2581Take": 4376,
  "\u2581Thessalonians": 4377,
  "\u2581aalongeli": 4378,
  "\u2581advance": 4379,
  "\u2581comforting": 4380,
  "\u2581connection": 4381,
  "\u2581contrary": 4382,
  "\u2581date": 4383,
  "\u2581determination": 4384,
  "\u2581dhu": 4385,
  "\u2581ehameke": 4386,
  "\u2581ideas": 4387,
  "\u2581list": 4388,
  "\u2581lyEuvaneko": 4389,
  "\u2581lyaRoma": 4390,
  "\u2581makele": 4391,
  "\u2581mevi": 4392,
  "\u2581molweendo": 4393,
  "\u2581moma": 4394,
  "\u2581naavali": 4395,
  "\u2581observed": 4396,
  "\u2581ok": 4397,
  "\u2581omumati": 4398,
  "\u2581oshipango": 4399,
  "\u2581preced": 4400,
  "\u2581presented": 4401,
  "\u2581reaching": 4402,
  "\u2581reminded": 4403,
  "\u2581requirements": 4404,
  "\u2581review": 4405,
  "\u2581severe": 4406,
  "\u2581sheke": 4407,
  "\u2581social": 4408,
  "\u2581sought": 4409,
  "\u2581superior": 4410,
  "\u2581temporary": 4411,
  "\u2581thousand": 4412,
  "\u2581travel": 4413,
  "\u2581uutumbulilo": 4414,
  "\u2581yopaMbiimbeli": 4415,
  "l": 4416,
  "mpa": 4417,
  "omihoko": 4418,
  "ontumwafo": 4419,
  "sitha": 4420,
  "\u25811954.": 4421,
  "\u258123,": 4422,
  "\u258138.": 4423,
  "\u2581Aakonakoni": 4424,
  "\u2581Ecclesiast": 4425,
  "\u2581Here": 4426,
  "\u2581Hesekiel": 4427,
  "\u2581Rut": 4428,
  "\u2581Sovereign": 4429,
  "\u2581dealing": 4430,
  "\u2581endhindhiliko": 4431,
  "\u2581exist": 4432,
  "\u2581extend": 4433,
  "\u2581gwanithwe": 4434,
  "\u2581keelele": 4435,
  "\u2581kokola": 4436,
  "\u2581kondjo": 4437,
  "\u2581meni": 4438,
  "\u2581methimbo": 4439,
  "\u2581military": 4440,
  "\u2581mistake": 4441,
  "\u2581nekwatathano": 4442,
  "\u2581okutedhatedha": 4443,
  "\u2581okuyamukula": 4444,
  "\u2581ongulohi": 4445,
  "\u2581placed": 4446,
  "\u2581preparing": 4447,
  "\u2581process": 4448,
  "\u2581stress": 4449,
  "\u2581tseyithile": 4450,
  "\u2581yamukulwa": 4451,
  "\u2581yopombanda": 4452,
  "New": 4453,
  "ehangano": 4454,
  "omasiku": 4455,
  "palongelokalunga": 4456,
  "uwanawa": 4457,
  "\u2581Aakolossa": 4458,
  "\u2581Has": 4459,
  "\u2581SUBJECT": 4460,
  "\u2581appeal": 4461,
  "\u2581appreciated": 4462,
  "\u2581background": 4463,
  "\u2581business": 4464,
  "\u2581constantly": 4465,
  "\u2581describe": 4466,
  "\u2581dress": 4467,
  "\u2581gwomuyo": 4468,
  "\u2581hekeleka": 4469,
  "\u2581humbly": 4470,
  "\u2581kundathanwa": 4471,
  "\u2581lay": 4472,
  "\u2581major": 4473,
  "\u2581miikaha": 4474,
  "\u2581ndhindhilike": 4475,
  "\u2581nedhina": 4476,
  "\u2581okweeta": 4477,
  "\u2581ondjala": 4478,
  "\u2581reached": 4479,
  "\u2581recall": 4480,
  "\u2581secure": 4481,
  "\u2581significant": 4482,
  "\u2581sit": 4483,
  "\u2581speaks": 4484,
  "\u2581successfully": 4485,
  "\u2581thankful": 4486,
  "\u2581woku": 4487,
  "\u2581wumwe": 4488,
  "\u2581yopapolotika": 4489,
  "Aaefeso": 4490,
  "Efuta": 4491,
  "Ondjalulo": 4492,
  "There": 4493,
  "ary": 4494,
  "as": 4495,
  "ation": 4496,
  "iyapulila": 4497,
  "mauvaneko": 4498,
  "\u258132)": 4499,
  "\u258153": 4500,
  "\u2581Christendom": 4501,
  "\u2581Colossians": 4502,
  "\u2581Kungeyi": 4503,
  "\u2581OKU": 4504,
  "\u2581Onkene": 4505,
  "\u2581September": 4506,
  "\u2581Version": 4507,
  "\u2581carried": 4508,
  "\u2581compare": 4509,
  "\u2581dwelling": 4510,
  "\u2581ekulilo": 4511,
  "\u2581escape": 4512,
  "\u2581formed": 4513,
  "\u2581generous": 4514,
  "\u2581god": 4515,
  "\u2581grown": 4516,
  "\u2581higher": 4517,
  "\u2581igidha": 4518,
  "\u2581iitya": 4519,
  "\u2581invisible": 4520,
  "\u2581mOparadisa": 4521,
  "\u2581mangululwa": 4522,
  "\u2581mountain": 4523,
  "\u2581ogu": 4524,
  "\u2581okuhulith": 4525,
  "\u2581okutsa": 4526,
  "\u2581okuyelekwa": 4527,
  "\u2581omashona": 4528,
  "\u2581ookilom": 4529,
  "\u2581oosho": 4530,
  "\u2581pEdhimbuluko": 4531,
  "\u2581pahole": 4532,
  "\u2581plan": 4533,
  "\u2581provid": 4534,
  "\u2581remarkable": 4535,
  "\u2581research": 4536,
  "\u2581rewarded": 4537,
  "\u2581sustain": 4538,
  "\u2581wopambepo": 4539,
  "Evi": 4540,
  "\u258145.": 4541,
  "\u2581Canada": 4542,
  "\u2581Dec": 4543,
  "\u2581GOD": 4544,
  "\u2581JEHOVAH": 4545,
  "\u2581Mount": 4546,
  "\u2581October": 4547,
  "\u2581Other": 4548,
  "\u2581Uunake": 4549,
  "\u2581aapika": 4550,
  "\u2581ashike": 4551,
  "\u2581assurance": 4552,
  "\u2581beneficial": 4553,
  "\u2581dangers": 4554,
  "\u2581gOshihebeli": 4555,
  "\u2581generation": 4556,
  "\u2581iinamwenyo": 4557,
  "\u2581illness": 4558,
  "\u2581kaadhi": 4559,
  "\u2581kotokela": 4560,
  "\u2581leaving": 4561,
  "\u2581meditating": 4562,
  "\u2581mokulonga": 4563,
  "\u2581naashono": 4564,
  "\u2581ndyono": 4565,
  "\u2581nohenda": 4566,
  "\u2581nomathimbo": 4567,
  "\u2581nomukumo": 4568,
  "\u2581okutokola": 4569,
  "\u2581ondhigu": 4570,
  "\u2581ondjahi": 4571,
  "\u2581pukitha": 4572,
  "\u2581repentant": 4573,
  "\u2581satisfying": 4574,
  "\u2581series": 4575,
  "\u2581shiwike": 4576,
  "\u2581songs": 4577,
  "\u2581talu": 4578,
  "\u2581traveled": 4579,
  "\u2581writing": 4580,
  "\u2581writings": 4581,
  "\u2581yepangelo": 4582,
  "\u2581yonkalamwenyo": 4583,
  "ember": 4584,
  "ina": 4585,
  "\u2581500": 4586,
  "\u2581Every": 4587,
  "\u2581admonition": 4588,
  "\u2581appearance": 4589,
  "\u2581brief": 4590,
  "\u2581calm": 4591,
  "\u2581company": 4592,
  "\u2581due": 4593,
  "\u2581exercis": 4594,
  "\u2581gwi": 4595,
  "\u2581imba": 4596,
  "\u2581involve": 4597,
  "\u2581koleka": 4598,
  "\u2581kwoye": 4599,
  "\u2581nethimbo": 4600,
  "\u2581nokumon": 4601,
  "\u2581oluhondelo": 4602,
  "\u2581oombo": 4603,
  "\u2581oshipalanyolo": 4604,
  "\u2581program": 4605,
  "\u2581reaction": 4606,
  "\u2581reference": 4607,
  "\u2581season": 4608,
  "\u2581stayed": 4609,
  "\u2581toloka": 4610,
  "\u2581unganekwa": 4611,
  "\u2581yaSatana": 4612,
  "\u2581yashike": 4613,
  "Iitopolwa": 4614,
  "OKOMBANDA": 4615,
  "iholelwa": 4616,
  "is": 4617,
  "longelikalunga": 4618,
  "okuume": 4619,
  "oloko": 4620,
  "te": 4621,
  "umwe": 4622,
  "\u2581103": 4623,
  "\u2581144": 4624,
  "\u25812009": 4625,
  "\u258172": 4626,
  "\u2581Answer": 4627,
  "\u2581Australia": 4628,
  "\u2581Deuteronomium": 4629,
  "\u2581Etompelo": 4630,
  "\u2581Ki": 4631,
  "\u2581Oho": 4632,
  "\u2581attempt": 4633,
  "\u2581commit": 4634,
  "\u2581conviction": 4635,
  "\u2581directly": 4636,
  "\u2581etangakwiita": 4637,
  "\u2581eyono": 4638,
  "\u2581financial": 4639,
  "\u2581gane": 4640,
  "\u2581gathered": 4641,
  "\u2581geele": 4642,
  "\u2581hundreds": 4643,
  "\u2581indicates": 4644,
  "\u2581inekele": 4645,
  "\u2581ipe": 4646,
  "\u2581katuke": 4647,
  "\u2581langeke": 4648,
  "\u2581lelalela": 4649,
  "\u2581mental": 4650,
  "\u2581miracles": 4651,
  "\u2581mokupopya": 4652,
  "\u2581muulunde": 4653,
  "\u2581oshikwiila": 4654,
  "\u2581oshipewa": 4655,
  "\u2581prophetic": 4656,
  "\u2581shune": 4657,
  "\u2581tax": 4658,
  "\u2581vala": 4659,
  "\u2581yaauvithi": 4660,
  "\u2581yanda": 4661,
  "\u2581yokulonga": 4662,
  "di": 4663,
  "iikala": 4664,
  "lelo": 4665,
  "niwe": 4666,
  "\u2581Halls": 4667,
  "\u2581Hannah": 4668,
  "\u2581Notice": 4669,
  "\u2581Nziya": 4670,
  "\u2581Omupangeli": 4671,
  "\u2581Oyi": 4672,
  "\u2581cover": 4673,
  "\u2581exists": 4674,
  "\u2581finish": 4675,
  "\u2581global": 4676,
  "\u2581governing": 4677,
  "\u2581gwoku": 4678,
  "\u2581highlight": 4679,
  "\u2581hiywa": 4680,
  "\u2581iikolitha": 4681,
  "\u2581mighty": 4682,
  "\u2581minister": 4683,
  "\u2581modest": 4684,
  "\u2581muRoma": 4685,
  "\u2581nadho": 4686,
  "\u2581ngashi": 4687,
  "\u2581offers": 4688,
  "\u2581omulongi": 4689,
  "\u2581pitikwa": 4690,
  "\u2581seventh": 4691,
  "\u2581singing": 4692,
  "\u2581vulwa": 4693,
  "\u2581wars": 4694,
  "\u2581washike": 4695,
  "\u2581worry": 4696,
  "\u2581yone": 4697,
  "\u2581yopetameko": 4698,
  "\u2581yuulunde": 4699,
  "Jakob": 4700,
  "epipi": 4701,
  "ity": 4702,
  "munankondoadhihe": 4703,
  "nene": 4704,
  "ombelewa": 4705,
  "ought": 4706,
  "uule": 4707,
  "\u2581000.": 4708,
  "\u25812016": 4709,
  "\u258142.": 4710,
  "\u2581Doing": 4711,
  "\u2581Eks": 4712,
  "\u2581Hugunina": 4713,
  "\u2581Meme": 4714,
  "\u2581Oshitiyali": 4715,
  "\u2581Sisera": 4716,
  "\u2581assembly": 4717,
  "\u2581delivered": 4718,
  "\u2581environment": 4719,
  "\u2581falwa": 4720,
  "\u2581gumwa": 4721,
  "\u2581illustrations": 4722,
  "\u2581indikwa": 4723,
  "\u2581inhabited": 4724,
  "\u2581kedhina": 4725,
  "\u2581kondandalunde": 4726,
  "\u2581laleke": 4727,
  "\u2581methods": 4728,
  "\u2581nali": 4729,
  "\u2581neendelelo": 4730,
  "\u2581ngono": 4731,
  "\u2581nonkalo": 4732,
  "\u2581okuhum": 4733,
  "\u2581omukokele": 4734,
  "\u2581oshigunda": 4735,
  "\u2581regret": 4736,
  "\u2581replied": 4737,
  "\u2581require": 4738,
  "\u2581surprised": 4739,
  "\u2581toto": 4740,
  "\u2581uvanekwa": 4741,
  "\u2581weeds": 4742,
  "Omupolofeti": 4743,
  "Tate": 4744,
  "for": 4745,
  "ihumbato": 4746,
  "kudheula": 4747,
  "oludhi": 4748,
  "uukwaniilwa": 4749,
  "\u258137.": 4750,
  "\u2581BE": 4751,
  "\u2581Cain": 4752,
  "\u2581Gospels": 4753,
  "\u2581Hol": 4754,
  "\u2581Lazarus": 4755,
  "\u2581Onkalo": 4756,
  "\u2581Oshili": 4757,
  "\u2581Sig": 4758,
  "\u2581aasamane": 4759,
  "\u2581abandon": 4760,
  "\u2581apart": 4761,
  "\u2581authorities": 4762,
  "\u2581calling": 4763,
  "\u2581corrupt": 4764,
  "\u2581dream": 4765,
  "\u2581edition": 4766,
  "\u2581endelele": 4767,
  "\u2581ethele": 4768,
  "\u2581factors": 4769,
  "\u2581fale": 4770,
  "\u2581glorious": 4771,
  "\u2581gom": 4772,
  "\u2581hunganeka": 4773,
  "\u2581kiiholelwa": 4774,
  "\u2581komayele": 4775,
  "\u2581limit": 4776,
  "\u2581lover": 4777,
  "\u2581lwawo": 4778,
  "\u2581mUukwaniilwa": 4779,
  "\u2581magazines": 4780,
  "\u2581mepangelo": 4781,
  "\u2581occasions": 4782,
  "\u2581okusa": 4783,
  "\u2581okuthika": 4784,
  "\u2581okwiinekela": 4785,
  "\u2581ongaashi": 4786,
  "\u2581oshipotha": 4787,
  "\u2581oshiwike": 4788,
  "\u2581painful": 4789,
  "\u2581performed": 4790,
  "\u2581property": 4791,
  "\u2581refuse": 4792,
  "\u2581released": 4793,
  "\u2581rescue": 4794,
  "\u2581safe": 4795,
  "\u2581slavery": 4796,
  "\u2581tender": 4797,
  "\u2581writer": 4798,
  "Dan": 4799,
  "Evaangeli": 4800,
  "ha": 4801,
  "ll": 4802,
  "mwa": 4803,
  "will": 4804,
  "yomasiku": 4805,
  "\u02b9": 4806,
  "\u25812000": 4807,
  "\u258124,": 4808,
  "\u258156": 4809,
  "\u2581Friend": 4810,
  "\u2581Kol": 4811,
  "\u2581Michael": 4812,
  "\u2581Shotango": 4813,
  "\u2581aayapuki": 4814,
  "\u2581acknowledge": 4815,
  "\u2581ambidhidhe": 4816,
  "\u2581arrangements": 4817,
  "\u2581content": 4818,
  "\u2581copies": 4819,
  "\u2581create": 4820,
  "\u2581dhiginina": 4821,
  "\u2581divided": 4822,
  "\u2581elunduluko": 4823,
  "\u2581ended": 4824,
  "\u2581establish": 4825,
  "\u2581forms": 4826,
  "\u2581goes": 4827,
  "\u2581healthy": 4828,
  "\u2581householder": 4829,
  "\u2581humbata": 4830,
  "\u2581ihumbata": 4831,
  "\u2581kuJerusalem": 4832,
  "\u2581landa": 4833,
  "\u2581lovingly": 4834,
  "\u2581nakashona": 4835,
  "\u2581nomaiyuvo": 4836,
  "\u2581none": 4837,
  "\u2581ntano": 4838,
  "\u2581okwii": 4839,
  "\u2581omulongwa": 4840,
  "\u2581produced": 4841,
  "\u2581protected": 4842,
  "\u2581remains": 4843,
  "\u2581represents": 4844,
  "\u2581sang": 4845,
  "\u2581shopambepo": 4846,
  "\u2581tears": 4847,
  "\u2581trouble": 4848,
  "\u2581voluntary": 4849,
  "\u2581writers": 4850,
  "2:": 4851,
  "ROM": 4852,
  "ally": 4853,
  "day": 4854,
  "kugandja": 4855,
  "kupitila": 4856,
  "molwashoka": 4857,
  "okutseya": 4858,
  "yokuninga": 4859,
  "\u258121;": 4860,
  "\u2581Charles": 4861,
  "\u2581Epulo": 4862,
  "\u2581Flood": 4863,
  "\u2581Follow": 4864,
  "\u2581George": 4865,
  "\u2581German": 4866,
  "\u2581Oma": 4867,
  "\u2581aayambi": 4868,
  "\u2581abroad": 4869,
  "\u2581asleep": 4870,
  "\u2581cost": 4871,
  "\u2581dhoku": 4872,
  "\u2581gaJesus": 4873,
  "\u2581geela": 4874,
  "\u2581goodness": 4875,
  "\u2581iilya": 4876,
  "\u2581inner": 4877,
  "\u2581iyapulile": 4878,
  "\u2581komwenyo": 4879,
  "\u2581kuusi": 4880,
  "\u2581lyom": 4881,
  "\u2581mates": 4882,
  "\u2581moshikunino": 4883,
  "\u2581mpaka": 4884,
  "\u2581nalyo": 4885,
  "\u2581nokutedhatedha": 4886,
  "\u2581okudhimina": 4887,
  "\u2581omalaka": 4888,
  "\u2581omushona": 4889,
  "\u2581omuuvithi": 4890,
  "\u2581powers": 4891,
  "\u2581reign": 4892,
  "\u2581release": 4893,
  "\u2581reports": 4894,
  "\u2581ruler": 4895,
  "\u2581shoshitopolwa": 4896,
  "Aan": 4897,
  "hololele": 4898,
  "oshikaha": 4899,
  "uka": 4900,
  "\u25812008": 4901,
  "\u2581Anthony": 4902,
  "\u2581Blu": 4903,
  "\u2581Eyamukulo": 4904,
  "\u2581Jas": 4905,
  "\u2581Lamb": 4906,
  "\u2581Me": 4907,
  "\u2581Micah": 4908,
  "\u2581Never": 4909,
  "\u2581Num": 4910,
  "\u2581Oshifo": 4911,
  "\u2581Ruler": 4912,
  "\u2581Sea": 4913,
  "\u2581aakulukadhi": 4914,
  "\u2581aapangeli": 4915,
  "\u2581aapulakeni": 4916,
  "\u2581aatonateli": 4917,
  "\u2581asks": 4918,
  "\u2581attitudes": 4919,
  "\u2581buy": 4920,
  "\u2581clothing": 4921,
  "\u2581confront": 4922,
  "\u2581cooperate": 4923,
  "\u2581critical": 4924,
  "\u2581depend": 4925,
  "\u2581dhipage": 4926,
  "\u2581elago": 4927,
  "\u2581euvoko": 4928,
  "\u2581growth": 4929,
  "\u2581happens": 4930,
  "\u2581heal": 4931,
  "\u2581iiniwe": 4932,
  "\u2581iitegelelwa": 4933,
  "\u2581increasing": 4934,
  "\u2581intended": 4935,
  "\u2581l": 4936,
  "\u2581lyokuya": 4937,
  "\u2581molugodhi": 4938,
  "\u2581mulyo": 4939,
  "\u2581nayipala": 4940,
  "\u2581nokupopya": 4941,
  "\u2581nokutala": 4942,
  "\u2581ohu": 4943,
  "\u2581omahepeko": 4944,
  "\u2581phone": 4945,
  "\u2581plans": 4946,
  "\u2581qualify": 4947,
  "\u2581region": 4948,
  "\u2581stake": 4949,
  "\u2581tembukila": 4950,
  "\u2581tumwa": 4951,
  "\u2581useful": 4952,
  "\u2581village": 4953,
  "\u2581white": 4954,
  "\u2581wide": 4955,
  "\u2581wondered": 4956,
  "\u2581yayo": 4957,
  "\u2581yeiyambo": 4958,
  "\u2581yoshili": 4959,
  "TOPOLWA": 4960,
  "W": 4961,
  "ambidhidhwa": 4962,
  "eka": 4963,
  "paid": 4964,
  "rb": 4965,
  "\u258128,": 4966,
  "\u258136.": 4967,
  "\u2581Evi": 4968,
  "\u2581Ex": 4969,
  "\u2581IS": 4970,
  "\u2581Japan": 4971,
  "\u2581Masiku": 4972,
  "\u2581Oshe": 4973,
  "\u2581Person": 4974,
  "\u2581abandoned": 4975,
  "\u2581attendance": 4976,
  "\u2581bride": 4977,
  "\u2581brotherhood": 4978,
  "\u2581causes": 4979,
  "\u2581choos": 4980,
  "\u2581drawing": 4981,
  "\u2581elandulathano": 4982,
  "\u2581exciting": 4983,
  "\u2581faithfulness": 4984,
  "\u2581highly": 4985,
  "\u2581hwepopaleke": 4986,
  "\u2581iifo": 4987,
  "\u2581iipe": 4988,
  "\u2581instructed": 4989,
  "\u2581koBetel": 4990,
  "\u2581koke": 4991,
  "\u2581konda": 4992,
  "\u2581lyehulilo": 4993,
  "\u2581meaningful": 4994,
  "\u2581mildness": 4995,
  "\u2581momagalikano": 4996,
  "\u2581moparadisa": 4997,
  "\u2581mountains": 4998,
  "\u2581noga": 4999,
  "\u2581okuguma": 5000,
  "\u2581okulongithwa": 5001,
  "\u2581okuyona": 5002,
  "\u2581okwaanuuyuuki": 5003,
  "\u2581okweendathana": 5004,
  "\u2581pakuudha": 5005,
  "\u2581pataneke": 5006,
  "\u2581paufupi": 5007,
  "\u2581penduth": 5008,
  "\u2581qualified": 5009,
  "\u2581religions": 5010,
  "\u2581risk": 5011,
  "\u2581ruin": 5012,
  "\u2581rules": 5013,
  "\u2581scholars": 5014,
  "\u2581straight": 5015,
  "\u2581wilika": 5016,
  "\u2581yokutunga": 5017,
  "ING": 5018,
  "Ongame": 5019,
  "keep": 5020,
  "kondo": 5021,
  "most": 5022,
  "oshigwana": 5023,
  "poka": 5024,
  "\u258161": 5025,
  "\u2581Almighty": 5026,
  "\u2581Close": 5027,
  "\u2581Corinth": 5028,
  "\u2581Go": 5029,
  "\u2581HOW": 5030,
  "\u2581Ministry": 5031,
  "\u2581Omuna": 5032,
  "\u2581SHIKA": 5033,
  "\u2581Ya": 5034,
  "\u2581arrang": 5035,
  "\u2581brochure": 5036,
  "\u2581compassionate": 5037,
  "\u2581dhengele": 5038,
  "\u2581egamo": 5039,
  "\u2581ep": 5040,
  "\u2581etiyali": 5041,
  "\u2581gathering": 5042,
  "\u2581granted": 5043,
  "\u2581habits": 5044,
  "\u2581hate": 5045,
  "\u2581hatred": 5046,
  "\u2581imperfection": 5047,
  "\u2581international": 5048,
  "\u2581j": 5049,
  "\u2581kO": 5050,
  "\u2581koma": 5051,
  "\u2581lyO": 5052,
  "\u2581methigathano": 5053,
  "\u2581mombuga": 5054,
  "\u2581muukumwe": 5055,
  "\u2581mwena": 5056,
  "\u2581negalikano": 5057,
  "\u2581nesimaneko": 5058,
  "\u2581nokuya": 5059,
  "\u2581nomu": 5060,
  "\u2581noticed": 5061,
  "\u2581obtain": 5062,
  "\u2581oil": 5063,
  "\u2581okunweth": 5064,
  "\u2581oonakusa": 5065,
  "\u2581oonshona": 5066,
  "\u2581oontamanana": 5067,
  "\u2581partner": 5068,
  "\u2581pegumbo": 5069,
  "\u2581pointed": 5070,
  "\u2581portion": 5071,
  "\u2581pre": 5072,
  "\u2581prize": 5073,
  "\u2581quick": 5074,
  "\u2581referring": 5075,
  "\u2581remove": 5076,
  "\u2581secret": 5077,
  "\u2581serpent": 5078,
  "\u2581shilipalek": 5079,
  "\u2581spouse": 5080,
  "\u2581touch": 5081,
  "\u2581turning": 5082,
  "\u2581unbeliev": 5083,
  "\u2581weaknesses": 5084,
  "\u2581yomegongalo": 5085,
  "\u2581yomutse": 5086,
  "\u2581yuulukwa": 5087,
  "\u25cf": 5088,
  "Be": 5089,
  "For": 5090,
  "Who": 5091,
  "mithigululwakalo": 5092,
  "okwaambidhidha": 5093,
  "siloshimpwiyu": 5094,
  "\u258163": 5095,
  "\u2581Galatians": 5096,
  "\u2581Iinyanga": 5097,
  "\u2581Kand": 5098,
  "\u2581Natan": 5099,
  "\u2581SHI": 5100,
  "\u2581accord": 5101,
  "\u2581camp": 5102,
  "\u2581damage": 5103,
  "\u2581discovered": 5104,
  "\u2581effects": 5105,
  "\u2581excellent": 5106,
  "\u2581hogolole": 5107,
  "\u2581ladhipikwa": 5108,
  "\u2581merciful": 5109,
  "\u2581miileshomwa": 5110,
  "\u2581nokugalikana": 5111,
  "\u2581nolukeno": 5112,
  "\u2581nuukwanegumbo": 5113,
  "\u2581official": 5114,
  "\u2581okukokol": 5115,
  "\u2581okupondola": 5116,
  "\u2581quiet": 5117,
  "\u2581resulted": 5118,
  "\u2581rights": 5119,
  "\u2581root": 5120,
  "\u2581shoku": 5121,
  "\u2581stood": 5122,
  "\u2581strangers": 5123,
  "\u2581ungodly": 5124,
  "\u2581visits": 5125,
  "\u2581wedding": 5126,
  "\u2581wrongdoing": 5127,
  "\u2581yOmuwa": 5128,
  "\u2581yomiigwana": 5129,
  "Aatokolihapu": 5130,
  "T": 5131,
  "laleka": 5132,
  "lelwa": 5133,
  "oshilongo": 5134,
  "thanekwa": 5135,
  "\u2581120": 5136,
  "\u258129,": 5137,
  "\u258190": 5138,
  "\u2581Dan": 5139,
  "\u2581Surely": 5140,
  "\u2581TV": 5141,
  "\u2581aawe": 5142,
  "\u2581abundance": 5143,
  "\u2581admit": 5144,
  "\u2581attacks": 5145,
  "\u2581citizens": 5146,
  "\u2581commandments": 5147,
  "\u2581disaster": 5148,
  "\u2581dwell": 5149,
  "\u2581eithano": 5150,
  "\u2581employment": 5151,
  "\u2581euliko": 5152,
  "\u2581expects": 5153,
  "\u2581gwUukwaniilwa": 5154,
  "\u2581heavy": 5155,
  "\u2581huka": 5156,
  "\u2581hulithe": 5157,
  "\u2581hupithwe": 5158,
  "\u2581imike": 5159,
  "\u2581increased": 5160,
  "\u2581inherited": 5161,
  "\u2581kondje": 5162,
  "\u2581ladhipika": 5163,
  "\u2581langek": 5164,
  "\u2581lyashike": 5165,
  "\u2581meendelelo": 5166,
  "\u2581mekuliloyambo": 5167,
  "\u2581momukokomo": 5168,
  "\u2581motives": 5169,
  "\u2581obeyed": 5170,
  "\u2581ooyakweni": 5171,
  "\u2581oshoshili": 5172,
  "\u2581pite": 5173,
  "\u2581purposes": 5174,
  "\u2581relations": 5175,
  "\u2581residents": 5176,
  "\u2581ruled": 5177,
  "\u2581spending": 5178,
  "\u2581thereafter": 5179,
  "\u2581ukitha": 5180,
  "\u2581uunkundi": 5181,
  "\u2581uuvu": 5182,
  "\u2581vast": 5183,
  "\u2581weigh": 5184,
  "\u2581worthy": 5185,
  "\u2581yasha": 5186,
  "\u2581yomuntu": 5187,
  "One": 5188,
  "WA": 5189,
  "ahokololo": 5190,
  "okugandja": 5191,
  "oluvalo": 5192,
  "omalongo": 5193,
  "ovelise": 5194,
  "\u2581145": 5195,
  "\u258191": 5196,
  "\u2581Aauvithi": 5197,
  "\u2581Committee": 5198,
  "\u2581Don": 5199,
  "\u2581Iikal": 5200,
  "\u2581Prayer": 5201,
  "\u2581acting": 5202,
  "\u2581approached": 5203,
  "\u2581blind": 5204,
  "\u2581cry": 5205,
  "\u2581dhaPaulus": 5206,
  "\u2581disappointed": 5207,
  "\u2581eliminate": 5208,
  "\u2581eshona": 5209,
  "\u2581fast": 5210,
  "\u2581figurative": 5211,
  "\u2581finding": 5212,
  "\u2581firmly": 5213,
  "\u2581gopevi": 5214,
  "\u2581hamano": 5215,
  "\u2581heyali": 5216,
  "\u2581inclined": 5217,
  "\u2581inhabitants": 5218,
  "\u2581kamu": 5219,
  "\u2581kepangelo": 5220,
  "\u2581kuminwa": 5221,
  "\u2581lyUukwanegumbo": 5222,
  "\u2581lyayo": 5223,
  "\u2581moBetel": 5224,
  "\u2581monakuziwa": 5225,
  "\u2581okupanga": 5226,
  "\u2581okutameka": 5227,
  "\u2581omumwoye": 5228,
  "\u2581omunandunge": 5229,
  "\u2581omwedhi": 5230,
  "\u2581oshifo": 5231,
  "\u2581sad": 5232,
  "\u2581slow": 5233,
  "\u2581society": 5234,
  "\u2581solid": 5235,
  "\u2581strengthening": 5236,
  "\u2581taandele": 5237,
  "\u2581terrible": 5238,
  "\u2581treatment": 5239,
  "\u2581tungwa": 5240,
  "\u2581uukwaniilwa": 5241,
  "ATU": 5242,
  "Uuna": 5243,
  "kuulika": 5244,
  "ng": 5245,
  "nkundana": 5246,
  "onatelishikandjo": 5247,
  "ulu": 5248,
  "\u258152": 5249,
  "\u258183": 5250,
  "\u2581DO": 5251,
  "\u2581Elders": 5252,
  "\u2581Hanna": 5253,
  "\u2581Ho": 5254,
  "\u2581Mika": 5255,
  "\u2581Nomolwaashono": 5256,
  "\u2581Okwi": 5257,
  "\u2581Service": 5258,
  "\u2581TI": 5259,
  "\u2581agreed": 5260,
  "\u2581bus": 5261,
  "\u2581cared": 5262,
  "\u2581conflict": 5263,
  "\u2581darkness": 5264,
  "\u2581distance": 5265,
  "\u2581ehiyo": 5266,
  "\u2581encourages": 5267,
  "\u2581facing": 5268,
  "\u2581gold": 5269,
  "\u2581herself": 5270,
  "\u2581holela": 5271,
  "\u2581iikumithalonga": 5272,
  "\u2581kaaleshi": 5273,
  "\u2581koonkalo": 5274,
  "\u2581listeners": 5275,
  "\u2581lyedhina": 5276,
  "\u2581lyokulongel": 5277,
  "\u2581nomaupyakadhi": 5278,
  "\u2581nomumwatate": 5279,
  "\u2581okuhedha": 5280,
  "\u2581omupisalomi": 5281,
  "\u2581popepyeelela": 5282,
  "\u2581preserve": 5283,
  "\u2581reasoning": 5284,
  "\u2581resources": 5285,
  "\u2581restore": 5286,
  "\u2581royal": 5287,
  "\u2581schedule": 5288,
  "\u2581struck": 5289,
  "\u2581talks": 5290,
  "\u2581uushona": 5291,
  "07": 5292,
  "K": 5293,
  "Kehe": 5294,
  "kitha": 5295,
  "tango": 5296,
  "ver": 5297,
  "\u2581Col": 5298,
  "\u2581EF": 5299,
  "\u2581Iily": 5300,
  "\u2581Mexico": 5301,
  "\u2581Ohe": 5302,
  "\u2581Pehulilo": 5303,
  "\u2581Rutherford": 5304,
  "\u2581Sakaria": 5305,
  "\u2581William": 5306,
  "\u2581Yelith": 5307,
  "\u2581accepting": 5308,
  "\u2581audience": 5309,
  "\u2581chief": 5310,
  "\u2581cold": 5311,
  "\u2581commission": 5312,
  "\u2581cruel": 5313,
  "\u2581egulu": 5314,
  "\u2581endured": 5315,
  "\u2581error": 5316,
  "\u2581expand": 5317,
  "\u2581f": 5318,
  "\u2581iifendela": 5319,
  "\u2581imbe": 5320,
  "\u2581kanithe": 5321,
  "\u2581kenyanyu": 5322,
  "\u2581koonkondo": 5323,
  "\u2581kundathane": 5324,
  "\u2581kwaayehe": 5325,
  "\u2581longekidha": 5326,
  "\u2581marvelous": 5327,
  "\u2581modesty": 5328,
  "\u2581mutse": 5329,
  "\u2581nago": 5330,
  "\u2581ningeni": 5331,
  "\u2581numerous": 5332,
  "\u2581nuuyuuki": 5333,
  "\u2581okuhenuka": 5334,
  "\u2581okutunga": 5335,
  "\u2581omaviinu": 5336,
  "\u2581omulaadhi": 5337,
  "\u2581omutiyali": 5338,
  "\u2581ongula": 5339,
  "\u2581outcome": 5340,
  "\u2581palutu": 5341,
  "\u2581paushili": 5342,
  "\u2581recently": 5343,
  "\u2581relate": 5344,
  "\u2581sacrificing": 5345,
  "\u2581sake": 5346,
  "\u2581spirits": 5347,
  "\u2581tendency": 5348,
  "\u2581thinks": 5349,
  "\u2581treasures": 5350,
  "\u2581trusting": 5351,
  "\u2581urgency": 5352,
  "\u2581yadho": 5353,
  "\u2581yemateke": 5354,
  "5": 5355,
  "KUKONAKONWA": 5356,
  "bela": 5357,
  "eyele": 5358,
  "\u258127,": 5359,
  "\u2581Aagalati": 5360,
  "\u2581Aalevi": 5361,
  "\u2581Farao": 5362,
  "\u2581Jefta": 5363,
  "\u2581LU": 5364,
  "\u2581MOmbiimbeli": 5365,
  "\u2581Mak": 5366,
  "\u2581Ondiaboli": 5367,
  "\u2581Ondiyapoli": 5368,
  "\u2581Out": 5369,
  "\u2581YOKUKONAKONWA": 5370,
  "\u2581aawinayi": 5371,
  "\u2581alert": 5372,
  "\u2581animal": 5373,
  "\u2581attain": 5374,
  "\u2581baby": 5375,
  "\u2581believing": 5376,
  "\u2581clergy": 5377,
  "\u2581disease": 5378,
  "\u2581district": 5379,
  "\u2581donation": 5380,
  "\u2581edhigu": 5381,
  "\u2581efupa": 5382,
  "\u2581enjoying": 5383,
  "\u2581fitting": 5384,
  "\u2581glad": 5385,
  "\u2581huge": 5386,
  "\u2581iimoniwa": 5387,
  "\u2581kambadhale": 5388,
  "\u2581limitations": 5389,
  "\u2581lyOonzapo": 5390,
  "\u2581lyombili": 5391,
  "\u2581lyopahole": 5392,
  "\u2581medical": 5393,
  "\u2581moluhondelo": 5394,
  "\u2581momapya": 5395,
  "\u2581mondoolopa": 5396,
  "\u2581noke": 5397,
  "\u2581nokukwathela": 5398,
  "\u2581noompwidhuli": 5399,
  "\u2581olini": 5400,
  "\u2581omukwawo": 5401,
  "\u2581omumwayina": 5402,
  "\u2581omupika": 5403,
  "\u2581ondjokonona": 5404,
  "\u2581ontuku": 5405,
  "\u2581putukila": 5406,
  "\u2581render": 5407,
  "\u2581repeatedly": 5408,
  "\u2581store": 5409,
  "\u2581tsuwa": 5410,
  "\u2581tuma": 5411,
  "\u2581waa": 5412,
  "\u2581wealth": 5413,
  "\u2581yomoshitopolwa": 5414,
  "\u2581yuudhiginini": 5415,
  "As": 5416,
  "Kotoba": 5417,
  "ompango": 5418,
  "onkambadhala": 5419,
  "onzo": 5420,
  "opwaahe": 5421,
  "other": 5422,
  "with": 5423,
  "\u258157": 5424,
  "\u2581ARTICLES": 5425,
  "\u2581Edhimbuluko": 5426,
  "\u2581Europe": 5427,
  "\u2581Gary": 5428,
  "\u2581Leader": 5429,
  "\u2581Nakuhokolola": 5430,
  "\u2581Nehemia": 5431,
  "\u2581Peace": 5432,
  "\u2581aasi": 5433,
  "\u2581affairs": 5434,
  "\u2581amazing": 5435,
  "\u2581churches": 5436,
  "\u2581clay": 5437,
  "\u2581comforted": 5438,
  "\u2581copy": 5439,
  "\u2581deepen": 5440,
  "\u2581eadhimo": 5441,
  "\u2581ethaneko": 5442,
  "\u2581eti": 5443,
  "\u2581fit": 5444,
  "\u2581fundju": 5445,
  "\u2581gaheyali": 5446,
  "\u2581gayo": 5447,
  "\u2581gwaIsraeli": 5448,
  "\u2581hates": 5449,
  "\u2581holding": 5450,
  "\u2581kiipang": 5451,
  "\u2581kingdoms": 5452,
  "\u2581koompango": 5453,
  "\u2581koshigongi": 5454,
  "\u2581landithwa": 5455,
  "\u2581miss": 5456,
  "\u2581neutral": 5457,
  "\u2581okupandula": 5458,
  "\u2581okuyakula": 5459,
  "\u2581okwaadha": 5460,
  "\u2581omaiyambo": 5461,
  "\u2581omboloto": 5462,
  "\u2581omuti": 5463,
  "\u2581oohandimwe": 5464,
  "\u2581private": 5465,
  "\u2581shOshigreka": 5466,
  "\u2581shito": 5467,
  "\u2581song": 5468,
  "\u2581suddenly": 5469,
  "\u2581surround": 5470,
  "\u2581talents": 5471,
  "\u2581tired": 5472,
  "\u2581understands": 5473,
  "\u2581union": 5474,
  "\u2581valelwa": 5475,
  "\u2581variety": 5476,
  "\u2581wipe": 5477,
  "\u2581zimina": 5478,
  "D": 5479,
  "Kambadhala": 5480,
  "TAYI": 5481,
  "akwiita": 5482,
  "aluhe": 5483,
  "drew": 5484,
  "elaka": 5485,
  "kalelipo": 5486,
  "ntuntu": 5487,
  "oonkondo": 5488,
  "uudhigu": 5489,
  "\u00b7": 5490,
  "\u2581110": 5491,
  "\u2581600": 5492,
  "\u258171": 5493,
  "\u258186": 5494,
  "\u2581Brooklyn": 5495,
  "\u2581Egalikano": 5496,
  "\u2581Hangana": 5497,
  "\u2581Iha": 5498,
  "\u2581Iiningwanim": 5499,
  "\u2581Lasarus": 5500,
  "\u2581Marcus": 5501,
  "\u2581Master": 5502,
  "\u2581Ongame": 5503,
  "\u2581Shono": 5504,
  "\u2581Uuyele": 5505,
  "\u2581aakwanezimo": 5506,
  "\u2581across": 5507,
  "\u2581earnest": 5508,
  "\u2581elondodho": 5509,
  "\u2581entrust": 5510,
  "\u2581ethano": 5511,
  "\u2581familiar": 5512,
  "\u2581feed": 5513,
  "\u2581guuyuni": 5514,
  "\u2581heads": 5515,
  "\u2581inda": 5516,
  "\u2581kuuyuni": 5517,
  "\u2581lalekwa": 5518,
  "\u2581leader": 5519,
  "\u2581literal": 5520,
  "\u2581los": 5521,
  "\u2581loyally": 5522,
  "\u2581lyaHe": 5523,
  "\u2581molw": 5524,
  "\u2581momudhingoloko": 5525,
  "\u2581nehangano": 5526,
  "\u2581noiha": 5527,
  "\u2581oke": 5528,
  "\u2581okuhwepopalek": 5529,
  "\u2581okulongwa": 5530,
  "\u2581okunyanyukilwa": 5531,
  "\u2581owina": 5532,
  "\u2581pathaneko": 5533,
  "\u2581prejudice": 5534,
  "\u2581properly": 5535,
  "\u2581pursuing": 5536,
  "\u2581readily": 5537,
  "\u2581relationships": 5538,
  "\u2581shed": 5539,
  "\u2581stone": 5540,
  "\u2581taambiw": 5541,
  "\u2581tanga": 5542,
  "\u2581virgins": 5543,
  "\u2581yako": 5544,
  "\u2581yokwiik": 5545,
  "Deuteronomium": 5546,
  "Ng": 5547,
  "P": 5548,
  "TRY": 5549,
  "gumbo": 5550,
  "mukalondjigilile": 5551,
  "ungaunga": 5552,
  "uukalele": 5553,
  "yengeli": 5554,
  "\u2581200": 5555,
  "\u25812004": 5556,
  "\u258164": 5557,
  "\u258197": 5558,
  "\u2581Aagwayekwa": 5559,
  "\u2581Arthur": 5560,
  "\u2581Biblical": 5561,
  "\u2581Brazil": 5562,
  "\u2581Jonatan": 5563,
  "\u2581Juli": 5564,
  "\u2581Ndi": 5565,
  "\u2581Omunene": 5566,
  "\u2581Short": 5567,
  "\u2581Stephen": 5568,
  "\u2581aaholike": 5569,
  "\u2581belief": 5570,
  "\u2581belongs": 5571,
  "\u2581differences": 5572,
  "\u2581empower": 5573,
  "\u2581esimaneko": 5574,
  "\u2581geyitha": 5575,
  "\u2581itaali": 5576,
  "\u2581iyele": 5577,
  "\u2581komaupyakadhi": 5578,
  "\u2581konakoneni": 5579,
  "\u2581liken": 5580,
  "\u2581longithw": 5581,
  "\u2581marital": 5582,
  "\u2581matuka": 5583,
  "\u2581mild": 5584,
  "\u2581mugo": 5585,
  "\u2581noli": 5586,
  "\u2581nonyanya": 5587,
  "\u2581ohapu": 5588,
  "\u2581okuzala": 5589,
  "\u2581okwiimba": 5590,
  "\u2581ongeyo": 5591,
  "\u2581overwhelmed": 5592,
  "\u2581pangulwa": 5593,
  "\u2581persecuted": 5594,
  "\u2581planet": 5595,
  "\u2581plant": 5596,
  "\u2581pleasant": 5597,
  "\u2581satisfied": 5598,
  "\u2581smoking": 5599,
  "\u2581sold": 5600,
  "\u2581stars": 5601,
  "\u2581team": 5602,
  "\u2581throw": 5603,
  "\u2581uumbangi": 5604,
  "\u2581weni": 5605,
  "\u2581wilderness": 5606,
  "\u2581yaandjetu": 5607,
  "\u2581yomomapya": 5608,
  "\u2581yomuule": 5609,
  "No": 5610,
  "dditional": 5611,
  "kupopya": 5612,
  "mpito": 5613,
  "okukwathela": 5614,
  "omalutu": 5615,
  "ota": 5616,
  "\u2581104": 5617,
  "\u2581AL": 5618,
  "\u2581Alex": 5619,
  "\u2581Baal": 5620,
  "\u2581Chron": 5621,
  "\u2581Deborah": 5622,
  "\u2581Iita": 5623,
  "\u2581Ipula": 5624,
  "\u2581Lef\u00e8vre": 5625,
  "\u2581ONDJOKONONA": 5626,
  "\u2581OUR": 5627,
  "\u2581Oka": 5628,
  "\u2581Ongundu": 5629,
  "\u2581Septuagint": 5630,
  "\u2581Try": 5631,
  "\u2581abundant": 5632,
  "\u2581balance": 5633,
  "\u2581begins": 5634,
  "\u2581concluded": 5635,
  "\u2581construction": 5636,
  "\u2581depth": 5637,
  "\u2581detail": 5638,
  "\u2581devoted": 5639,
  "\u2581entitled": 5640,
  "\u2581glorify": 5641,
  "\u2581guilty": 5642,
  "\u2581gwayekwa": 5643,
  "\u2581hay": 5644,
  "\u2581influences": 5645,
  "\u2581kaapiya": 5646,
  "\u2581kokukala": 5647,
  "\u2581lett": 5648,
  "\u2581lwaAbraham": 5649,
  "\u2581lwetu": 5650,
  "\u2581lyomegulu": 5651,
  "\u2581lyomuntu": 5652,
  "\u2581mokukonakona": 5653,
  "\u2581nAakriste": 5654,
  "\u2581nomo": 5655,
  "\u2581objective": 5656,
  "\u2581okwiitul": 5657,
  "\u2581omugwayekwa": 5658,
  "\u2581oohepele": 5659,
  "\u2581oongundu": 5660,
  "\u2581oshigongi": 5661,
  "\u2581pagan": 5662,
  "\u2581paunshitwe": 5663,
  "\u2581pictures": 5664,
  "\u2581prominent": 5665,
  "\u2581promotes": 5666,
  "\u2581reliable": 5667,
  "\u2581reminders": 5668,
  "\u2581rendered": 5669,
  "\u2581sentence": 5670,
  "\u2581shiga": 5671,
  "\u2581sing": 5672,
  "\u2581stories": 5673,
  "\u2581street": 5674,
  "\u2581symbolic": 5675,
  "\u2581tembuka": 5676,
  "\u2581tokole": 5677,
  "\u2581total": 5678,
  "\u2581tribe": 5679,
  "\u2581trip": 5680,
  "\u2581urge": 5681,
  "\u2581uvithilwa": 5682,
  "\u2581victory": 5683,
  "\u2581watchful": 5684,
  "\u2581wopothingo": 5685,
  "\u2581yoshigwana": 5686,
  "Daniel": 5687,
  "Markus": 5688,
  "OB": 5689,
  "amu": 5690,
  "egumbo": 5691,
  "itiyali": 5692,
  "mayambeko": 5693,
  "okuhila": 5694,
  "time": 5695,
  "\u25812017": 5696,
  "\u25814.)": 5697,
  "\u2581Britain": 5698,
  "\u2581Ekwatathano": 5699,
  "\u2581Eventually": 5700,
  "\u2581JEHOVA": 5701,
  "\u2581Jairo": 5702,
  "\u2581MATT": 5703,
  "\u2581Po": 5704,
  "\u2581Time": 5705,
  "\u2581WE": 5706,
  "\u2581balanced": 5707,
  "\u2581broke": 5708,
  "\u2581demonstrated": 5709,
  "\u2581edheulo": 5710,
  "\u2581enankondo": 5711,
  "\u2581etango": 5712,
  "\u2581goats": 5713,
  "\u2581gwomimvo": 5714,
  "\u2581headquarters": 5715,
  "\u2581hepeke": 5716,
  "\u2581hingi": 5717,
  "\u2581kamwe": 5718,
  "\u2581kulyo": 5719,
  "\u2581miracle": 5720,
  "\u2581model": 5721,
  "\u2581nee": 5722,
  "\u2581newly": 5723,
  "\u2581nokunena": 5724,
  "\u2581nokwi": 5725,
  "\u2581noluvalo": 5726,
  "\u2581nondjuulukwe": 5727,
  "\u2581noondunge": 5728,
  "\u2581notes": 5729,
  "\u2581officials": 5730,
  "\u2581okupitith": 5731,
  "\u2581omwiinekelwa": 5732,
  "\u2581oshizemo": 5733,
  "\u2581pamadhiladhilo": 5734,
  "\u2581permanent": 5735,
  "\u2581piyaganeke": 5736,
  "\u2581polimana": 5737,
  "\u2581poured": 5738,
  "\u2581preserved": 5739,
  "\u2581pressures": 5740,
  "\u2581resurrect": 5741,
  "\u2581sell": 5742,
  "\u2581subjection": 5743,
  "\u2581supply": 5744,
  "\u2581tiwa": 5745,
  "\u2581traits": 5746,
  "\u2581upbuilding": 5747,
  "\u2581upset": 5748,
  "\u2581waters": 5749,
  "\u2581worshipped": 5750,
  "\u2581yaandjawo": 5751,
  "\u2581yalyo": 5752,
  "\u2581yomukwaniilwa": 5753,
  "Photo": 5754,
  "alongwantu": 5755,
  "elekanitha": 5756,
  "kugongala": 5757,
  "kulonga": 5758,
  "longo": 5759,
  "omatompelo": 5760,
  "onguwo": 5761,
  "shileshomwa": 5762,
  "\u25811879": 5763,
  "\u25811918": 5764,
  "\u258126,": 5765,
  "\u258136)": 5766,
  "\u2581Come": 5767,
  "\u2581Jude": 5768,
  "\u2581Judea": 5769,
  "\u2581Long": 5770,
  "\u2581Omuuv": 5771,
  "\u2581Pray": 5772,
  "\u2581Thousand": 5773,
  "\u2581Trust": 5774,
  "\u2581WHEN": 5775,
  "\u2581apparently": 5776,
  "\u2581approaching": 5777,
  "\u2581eagerly": 5778,
  "\u2581educational": 5779,
  "\u2581eipangelo": 5780,
  "\u2581enduring": 5781,
  "\u2581finished": 5782,
  "\u2581foolish": 5783,
  "\u2581grave": 5784,
  "\u2581guilt": 5785,
  "\u2581gwomahepeko": 5786,
  "\u2581gwondjigilile": 5787,
  "\u2581habit": 5788,
  "\u2581healed": 5789,
  "\u2581hulil": 5790,
  "\u2581hume": 5791,
  "\u2581ignore": 5792,
  "\u2581impart": 5793,
  "\u2581judged": 5794,
  "\u2581lundululwa": 5795,
  "\u2581mO": 5796,
  "\u2581mehokololo": 5797,
  "\u2581mokugandja": 5798,
  "\u2581mwe": 5799,
  "\u2581naakulukadhi": 5800,
  "\u2581netegameno": 5801,
  "\u2581nyanyudhe": 5802,
  "\u2581odhe": 5803,
  "\u2581okudheula": 5804,
  "\u2581okugamena": 5805,
  "\u2581okuulukila": 5806,
  "\u2581okwiidhidhimika": 5807,
  "\u2581omakonakono": 5808,
  "\u2581omikithi": 5809,
  "\u2581omolwiilonga": 5810,
  "\u2581omukonakoni": 5811,
  "\u2581omunashili": 5812,
  "\u2581possess": 5813,
  "\u2581printed": 5814,
  "\u2581privileged": 5815,
  "\u2581repent": 5816,
  "\u2581reported": 5817,
  "\u2581restored": 5818,
  "\u2581scholar": 5819,
  "\u2581site": 5820,
  "\u2581solve": 5821,
  "\u2581tests": 5822,
  "\u2581trees": 5823,
  "\u2581tribes": 5824,
  "\u2581uuthigwa": 5825,
  "\u2581warnings": 5826,
  "\u2581wrath": 5827,
  "\u2581yamukule": 5828,
  "\u2581yanathangwa": 5829,
  "ED": 5830,
  "Longa": 5831,
  "OTO": 5832,
  "Ombepo": 5833,
  "US": 5834,
  "good": 5835,
  "nima": 5836,
  "omagano": 5837,
  "ompumbwe": 5838,
  "yihe": 5839,
  "\u2581(\"": 5840,
  "\u25811995": 5841,
  "\u258131,": 5842,
  "\u258162": 5843,
  "\u258184": 5844,
  "\u2581Desemba": 5845,
  "\u2581Earth": 5846,
  "\u2581Ekonakono": 5847,
  "\u2581Goliath": 5848,
  "\u2581Hans": 5849,
  "\u2581Hiskija": 5850,
  "\u2581March": 5851,
  "\u2581Ondjokonona": 5852,
  "\u2581Oombiimbeli": 5853,
  "\u2581Re": 5854,
  "\u2581Richard": 5855,
  "\u2581Year": 5856,
  "\u2581accompany": 5857,
  "\u2581akuhe": 5858,
  "\u2581approved": 5859,
  "\u2581blesse": 5860,
  "\u2581clothes": 5861,
  "\u2581comfortable": 5862,
  "\u2581comforts": 5863,
  "\u2581conquer": 5864,
  "\u2581consult": 5865,
  "\u2581developing": 5866,
  "\u2581disobedience": 5867,
  "\u2581egwanitho": 5868,
  "\u2581ewi": 5869,
  "\u2581explaining": 5870,
  "\u2581eyapuki": 5871,
  "\u2581fallen": 5872,
  "\u2581feature": 5873,
  "\u2581features": 5874,
  "\u2581firstborn": 5875,
  "\u2581gained": 5876,
  "\u2581gentle": 5877,
  "\u2581gongele": 5878,
  "\u2581gwOmbiimbeli": 5879,
  "\u2581gwolela": 5880,
  "\u2581hesitate": 5881,
  "\u2581identified": 5882,
  "\u2581iho": 5883,
  "\u2581iiponga": 5884,
  "\u2581iiyapuki": 5885,
  "\u2581inherit": 5886,
  "\u2581kaapu": 5887,
  "\u2581kitakana": 5888,
  "\u2581komithikampango": 5889,
  "\u2581kune": 5890,
  "\u2581kushike": 5891,
  "\u2581load": 5892,
  "\u2581lyOmpango": 5893,
  "\u2581meshito": 5894,
  "\u2581mokugwanith": 5895,
  "\u2581mokuuvitha": 5896,
  "\u2581muIsraeli": 5897,
  "\u2581murder": 5898,
  "\u2581muuwinayi": 5899,
  "\u2581naalumentu": 5900,
  "\u2581nikith": 5901,
  "\u2581nkundipala": 5902,
  "\u2581nokungawo": 5903,
  "\u2581nomeho": 5904,
  "\u2581okuyelekanith": 5905,
  "\u2581omaako": 5906,
  "\u2581omangambeko": 5907,
  "\u2581omugoyi": 5908,
  "\u2581omwanakadhona": 5909,
  "\u2581onena": 5910,
  "\u2581ontiyali": 5911,
  "\u2581peer": 5912,
  "\u2581physically": 5913,
  "\u2581possessions": 5914,
  "\u2581priesthood": 5915,
  "\u2581pursuits": 5916,
  "\u2581raising": 5917,
  "\u2581repentance": 5918,
  "\u2581simanekwa": 5919,
  "\u2581sindi": 5920,
  "\u2581standard": 5921,
  "\u2581temptations": 5922,
  "\u2581tseyitha": 5923,
  "\u2581universal": 5924,
  "\u2581urgent": 5925,
  "\u2581victim": 5926,
  "\u2581warfare": 5927,
  "\u2581warns": 5928,
  "\u2581wokathimbo": 5929,
  "\u2581womegulu": 5930,
  "\u2581won": 5931,
  "\u2581worshipp": 5932,
  "\u2581yaArmagedon": 5933,
  "\u2581yomilalo": 5934,
  "\u2581zealously": 5935,
  "Egongalo": 5936,
  "enda": 5937,
  "it": 5938,
  "ithwa": 5939,
  "me": 5940,
  "miliyona": 5941,
  "ndo": 5942,
  "okuputudha": 5943,
  "omayambidhidho": 5944,
  "omumati": 5945,
  "shiningwanima": 5946,
  "\u2581144,000": 5947,
  "\u258169": 5948,
  "\u25817]": 5949,
  "\u2581Apilili": 5950,
  "\u2581KOMBINGA": 5951,
  "\u2581Kain": 5952,
  "\u2581Momukokomo": 5953,
  "\u2581Na": 5954,
  "\u2581Omadhina": 5955,
  "\u2581Pharisees": 5956,
  "\u2581Rebekah": 5957,
  "\u2581Uukwat": 5958,
  "\u2581Yearbook": 5959,
  "\u2581aamati": 5960,
  "\u2581aid": 5961,
  "\u2581anymore": 5962,
  "\u2581applies": 5963,
  "\u2581burden": 5964,
  "\u2581corruption": 5965,
  "\u2581credit": 5966,
  "\u2581crime": 5967,
  "\u2581degree": 5968,
  "\u2581dhokulonga": 5969,
  "\u2581distan": 5970,
  "\u2581eeno": 5971,
  "\u2581eleka": 5972,
  "\u2581epitikilo": 5973,
  "\u2581fatulula": 5974,
  "\u2581fearing": 5975,
  "\u2581gather": 5976,
  "\u2581gwomuntu": 5977,
  "\u2581haluka": 5978,
  "\u2581hardships": 5979,
  "\u2581hedhith": 5980,
  "\u2581hondele": 5981,
  "\u2581hwepo": 5982,
  "\u2581innocent": 5983,
  "\u2581kOmuwa": 5984,
  "\u2581kadhi": 5985,
  "\u2581kuuvu": 5986,
  "\u2581looks": 5987,
  "\u2581lumwe": 5988,
  "\u2581lwaampo": 5989,
  "\u2581lyahugunina": 5990,
  "\u2581nagumwe": 5991,
  "\u2581nesiku": 5992,
  "\u2581nohandi": 5993,
  "\u2581nokulongela": 5994,
  "\u2581nokunwa": 5995,
  "\u2581nokutul": 5996,
  "\u2581nyenyeta": 5997,
  "\u2581oKalunga": 5998,
  "\u2581okatongo": 5999,
  "\u2581okugwanithwa": 6000,
  "\u2581olive": 6001,
  "\u2581omaetopo": 6002,
  "\u2581omukadhi": 6003,
  "\u2581omukwetu": 6004,
  "\u2581omuselekadhi": 6005,
  "\u2581opinion": 6006,
  "\u2581oshiningwanima": 6007,
  "\u2581oyanamati": 6008,
  "\u2581pokuya": 6009,
  "\u2581project": 6010,
  "\u2581pwil": 6011,
  "\u2581shuukwanegumbo": 6012,
  "\u2581significance": 6013,
  "\u2581task": 6014,
  "\u2581tend": 6015,
  "\u2581thig": 6016,
  "\u2581topola": 6017,
  "\u2581uphold": 6018,
  "\u2581watching": 6019,
  "\u2581wetike": 6020,
  "\u2581wisely": 6021,
  "\u2581wokulonga": 6022,
  "\u2581woomwedhi": 6023,
  "\u2581yomupiya": 6024,
  "Hes": 6025,
  "Oshimpungu": 6026,
  "They": 6027,
  "ekotampango": 6028,
  "elongelokalunga": 6029,
  "kumona": 6030,
  "kutala": 6031,
  "lyo": 6032,
  "mahangano": 6033,
  "man": 6034,
  "mwigo": 6035,
  "not": 6036,
  "omukithi": 6037,
  "ongoka": 6038,
  "oya": 6039,
  "shito": 6040,
  "uuyelele": 6041,
  "\u2581AAUVITHI": 6042,
  "\u2581Brothers": 6043,
  "\u2581Chronicles": 6044,
  "\u2581Church": 6045,
  "\u2581Elongo": 6046,
  "\u2581Eyele": 6047,
  "\u2581Ilong": 6048,
  "\u2581Kash": 6049,
  "\u2581Man": 6050,
  "\u2581Marriage": 6051,
  "\u2581Megan": 6052,
  "\u2581Naboth": 6053,
  "\u2581Neh": 6054,
  "\u2581Omunyoli": 6055,
  "\u2581PUBLISHERS": 6056,
  "\u2581ROM": 6057,
  "\u2581Septemba": 6058,
  "\u2581Show": 6059,
  "\u2581Things": 6060,
  "\u2581Yo": 6061,
  "\u2581aavuliki": 6062,
  "\u2581aayendi": 6063,
  "\u2581acquire": 6064,
  "\u2581believer": 6065,
  "\u2581bodies": 6066,
  "\u2581campaign": 6067,
  "\u2581caught": 6068,
  "\u2581constant": 6069,
  "\u2581covered": 6070,
  "\u2581current": 6071,
  "\u2581dhuuyuni": 6072,
  "\u2581earnestly": 6073,
  "\u2581existed": 6074,
  "\u2581fighting": 6075,
  "\u2581fundamental": 6076,
  "\u2581generosity": 6077,
  "\u2581grand": 6078,
  "\u2581grant": 6079,
  "\u2581grieving": 6080,
  "\u2581hokololel": 6081,
  "\u2581humankind": 6082,
  "\u2581imemeha": 6083,
  "\u2581imonene": 6084,
  "\u2581indefinite": 6085,
  "\u2581initial": 6086,
  "\u2581instruct": 6087,
  "\u2581itedhulula": 6088,
  "\u2581kinds": 6089,
  "\u2581kungawo": 6090,
  "\u2581kusha": 6091,
  "\u2581kwandje": 6092,
  "\u2581lowly": 6093,
  "\u2581lwoye": 6094,
  "\u2581memoniko": 6095,
  "\u2581midst": 6096,
  "\u2581miraculously": 6097,
  "\u2581mosikola": 6098,
  "\u2581nadhi": 6099,
  "\u2581nayamwe": 6100,
  "\u2581nyolelwa": 6101,
  "\u2581okwiilongekidh": 6102,
  "\u2581olu": 6103,
  "\u2581omaimbilo": 6104,
  "\u2581omaipulo": 6105,
  "\u2581oonzapo": 6106,
  "\u2581opinions": 6107,
  "\u2581oppose": 6108,
  "\u2581pepelelwa": 6109,
  "\u2581poverty": 6110,
  "\u2581publisher": 6111,
  "\u2581putudha": 6112,
  "\u2581quotation": 6113,
  "\u2581remote": 6114,
  "\u2581reserved": 6115,
  "\u2581respected": 6116,
  "\u2581routine": 6117,
  "\u2581shepherding": 6118,
  "\u2581shino": 6119,
  "\u2581sinda": 6120,
  "\u2581skills": 6121,
  "\u2581unrighteous": 6122,
  "\u2581ut": 6123,
  "\u2581worried": 6124,
  "\u2581wulwe": 6125,
  "\u2581yeyumuko": 6126,
  "\u2581yoonzi": 6127,
  "4)": 6128,
  "Lev": 6129,
  "PULO": 6130,
  "ethimbo": 6131,
  "ii": 6132,
  "ikitha": 6133,
  "itho": 6134,
  "kakamo": 6135,
  "kutedhatedha": 6136,
  "maipyakidhilo": 6137,
  "mitate": 6138,
  "okudhana": 6139,
  "omaukwanegumbo": 6140,
  "\u2581133": 6141,
  "\u2581147": 6142,
  "\u25811954": 6143,
  "\u2581300": 6144,
  "\u2581AND": 6145,
  "\u2581American": 6146,
  "\u2581Barnabas": 6147,
  "\u2581FOR": 6148,
  "\u2581GE": 6149,
  "\u2581Gaius": 6150,
  "\u2581International": 6151,
  "\u2581Ita": 6152,
  "\u2581January": 6153,
  "\u2581Leviticus": 6154,
  "\u2581Longith": 6155,
  "\u2581Omuwiliki": 6156,
  "\u2581QUESTIONS": 6157,
  "\u2581Use": 6158,
  "\u2581aanankondo": 6159,
  "\u2581abuse": 6160,
  "\u2581addressed": 6161,
  "\u2581assemblies": 6162,
  "\u2581broken": 6163,
  "\u2581courageously": 6164,
  "\u2581cross": 6165,
  "\u2581dedicate": 6166,
  "\u2581discussing": 6167,
  "\u2581distracted": 6168,
  "\u2581ekuliloyambo": 6169,
  "\u2581emphasize": 6170,
  "\u2581extra": 6171,
  "\u2581foundation": 6172,
  "\u2581gOshigreka": 6173,
  "\u2581hanganitha": 6174,
  "\u2581headship": 6175,
  "\u2581hola": 6176,
  "\u2581holeke": 6177,
  "\u2581hoped": 6178,
  "\u2581hulithw": 6179,
  "\u2581humithe": 6180,
  "\u2581ihilil": 6181,
  "\u2581impact": 6182,
  "\u2581initiative": 6183,
  "\u2581inyenga": 6184,
  "\u2581ipwililikile": 6185,
  "\u2581jealous": 6186,
  "\u2581judges": 6187,
  "\u2581kevi": 6188,
  "\u2581konkalo": 6189,
  "\u2581lundile": 6190,
  "\u2581lyaMoses": 6191,
  "\u2581lying": 6192,
  "\u2581lyolela": 6193,
  "\u2581maintained": 6194,
  "\u2581marked": 6195,
  "\u2581ohi": 6196,
  "\u2581okuhupitha": 6197,
  "\u2581okushilipalek": 6198,
  "\u2581omahangano": 6199,
  "\u2581omayapuki": 6200,
  "\u2581omiti": 6201,
  "\u2581omuna": 6202,
  "\u2581paveta": 6203,
  "\u2581ran": 6204,
  "\u2581reads": 6205,
  "\u2581realm": 6206,
  "\u2581shom": 6207,
  "\u2581shoulder": 6208,
  "\u2581sides": 6209,
  "\u2581symbolize": 6210,
  "\u2581tabernacle": 6211,
  "\u2581thanks": 6212,
  "\u2581translations": 6213,
  "\u2581wOmuwa": 6214,
  "\u2581waantu": 6215,
  "\u2581wopaKriste": 6216,
  "\u2581wopaMesiasa": 6217,
  "\u2581yaKatoolika": 6218,
  "\u2581yamba": 6219,
  "\u2581yesiku": 6220,
  "\u2581yield": 6221,
  "\u2581yokunena": 6222,
  "\u2581yopaunshitwe": 6223,
  "Box": 6224,
  "Kaku": 6225,
  "Kal": 6226,
  "Novomba": 6227,
  "OSHIFO": 6228,
  "athana": 6229,
  "awiliki": 6230,
  "ce": 6231,
  "k": 6232,
  "kunwa": 6233,
  "kuvulika": 6234,
  "mboka": 6235,
  "mikalondjigilile": 6236,
  "mwaalu": 6237,
  "nde": 6238,
  "omusholondondo": 6239,
  "our": 6240,
  "pp": 6241,
  "simanekitha": 6242,
  "ted": 6243,
  "thrown": 6244,
  "tothwa": 6245,
  "\u2581130": 6246,
  "\u2581139": 6247,
  "\u2581Atuhe": 6248,
  "\u2581Book": 6249,
  "\u2581Death": 6250,
  "\u2581Faithful": 6251,
  "\u2581Find": 6252,
  "\u2581Hiskia": 6253,
  "\u2581Hokolol": 6254,
  "\u2581Judge": 6255,
  "\u2581LIFE": 6256,
  "\u2581November": 6257,
  "\u2581Oshinyanga": 6258,
  "\u2581Spiritual": 6259,
  "\u2581TIM": 6260,
  "\u2581Times": 6261,
  "\u2581VUL": 6262,
  "\u2581Web": 6263,
  "\u2581add": 6264,
  "\u2581air": 6265,
  "\u2581armies": 6266,
  "\u2581boldness": 6267,
  "\u2581captivity": 6268,
  "\u2581cherish": 6269,
  "\u2581comment": 6270,
  "\u2581continuing": 6271,
  "\u2581debt": 6272,
  "\u2581dhimbwe": 6273,
  "\u2581ekumithi": 6274,
  "\u2581encounter": 6275,
  "\u2581fields": 6276,
  "\u2581forgiven": 6277,
  "\u2581gweni": 6278,
  "\u2581gwokupangela": 6279,
  "\u2581hapu": 6280,
  "\u2581hokitha": 6281,
  "\u2581houses": 6282,
  "\u2581hundred": 6283,
  "\u2581hwama": 6284,
  "\u2581idhidhimikila": 6285,
  "\u2581iipopiwa": 6286,
  "\u2581imperfections": 6287,
  "\u2581impression": 6288,
  "\u2581intense": 6289,
  "\u2581isolated": 6290,
  "\u2581itulile": 6291,
  "\u2581longekidhwa": 6292,
  "\u2581lyOshijuda": 6293,
  "\u2581lyonkalamwenyo": 6294,
  "\u2581lyopombanda": 6295,
  "\u2581majority": 6296,
  "\u2581meholamo": 6297,
  "\u2581mold": 6298,
  "\u2581negongalo": 6299,
  "\u2581netata": 6300,
  "\u2581ninginithwe": 6301,
  "\u2581nopo": 6302,
  "\u2581okukwatela": 6303,
  "\u2581onguluwato": 6304,
  "\u2581oomwedhi": 6305,
  "\u2581palutha": 6306,
  "\u2581pange": 6307,
  "\u2581passing": 6308,
  "\u2581pauhandimwe": 6309,
  "\u2581perfectly": 6310,
  "\u2581priority": 6311,
  "\u2581replaced": 6312,
  "\u2581settle": 6313,
  "\u2581sickness": 6314,
  "\u2581signs": 6315,
  "\u2581sincerely": 6316,
  "\u2581soldier": 6317,
  "\u2581sorts": 6318,
  "\u2581talaleke": 6319,
  "\u2581talked": 6320,
  "\u2581threatened": 6321,
  "\u2581thrilling": 6322,
  "\u2581uvithila": 6323,
  "\u2581uvithwa": 6324,
  "\u2581valley": 6325,
  "\u2581wear": 6326,
  "\u2581yago": 6327,
  "\u2581yehangano": 6328,
  "\u2581yokwiihola": 6329,
  "ES": 6330,
  "Jos": 6331,
  "Ngashingeyi": 6332,
  "at": 6333,
  "eiyuvo": 6334,
  "eri": 6335,
  "henda": 6336,
  "ilongomwa": 6337,
  "kala": 6338,
  "okuhekeleka": 6339,
  "okumona": 6340,
  "olundji": 6341,
  "sha": 6342,
  "tries": 6343,
  "\u2581(201": 6344,
  "\u2581106": 6345,
  "\u25813.)": 6346,
  "\u2581400": 6347,
  "\u2581Again": 6348,
  "\u2581England": 6349,
  "\u2581Grand": 6350,
  "\u2581Granted": 6351,
  "\u2581Jehoshaphat": 6352,
  "\u2581OMU": 6353,
  "\u2581Omuyengeli": 6354,
  "\u2581Ondjapuki": 6355,
  "\u2581PET": 6356,
  "\u2581Rico": 6357,
  "\u2581Simon": 6358,
  "\u2581WO": 6359,
  "\u2581aamwayina": 6360,
  "\u2581aanandunge": 6361,
  "\u2581aanashili": 6362,
  "\u2581aaniilonga": 6363,
  "\u2581aayamba": 6364,
  "\u2581anuwa": 6365,
  "\u2581associating": 6366,
  "\u2581beauty": 6367,
  "\u2581boat": 6368,
  "\u2581destination": 6369,
  "\u2581dhina": 6370,
  "\u2581dhokuyoolola": 6371,
  "\u2581ears": 6372,
  "\u2581economic": 6373,
  "\u2581ehogololo": 6374,
  "\u2581engag": 6375,
  "\u2581entity": 6376,
  "\u2581factor": 6377,
  "\u2581fadhuk": 6378,
  "\u2581futwa": 6379,
  "\u2581gopaMbiimbeli": 6380,
  "\u2581gopamanyolo": 6381,
  "\u2581gopashimaliwa": 6382,
  "\u2581gwaJesus": 6383,
  "\u2581gwethimbo": 6384,
  "\u2581hair": 6385,
  "\u2581helper": 6386,
  "\u2581hokololwa": 6387,
  "\u2581iiy": 6388,
  "\u2581ilongekidhila": 6389,
  "\u2581interesting": 6390,
  "\u2581kaalumentu": 6391,
  "\u2581kointaneta": 6392,
  "\u2581komagalikano": 6393,
  "\u2581kundukidha": 6394,
  "\u2581lawlessness": 6395,
  "\u2581lyadho": 6396,
  "\u2581lyeso": 6397,
  "\u2581memories": 6398,
  "\u2581meso": 6399,
  "\u2581middle": 6400,
  "\u2581ministers": 6401,
  "\u2581mokulesha": 6402,
  "\u2581mongundu": 6403,
  "\u2581montumwafo": 6404,
  "\u2581mourning": 6405,
  "\u2581movies": 6406,
  "\u2581naambyoka": 6407,
  "\u2581nandonando": 6408,
  "\u2581nawanawa": 6409,
  "\u2581nooitaali": 6410,
  "\u2581noy": 6411,
  "\u2581nuuwinayi": 6412,
  "\u2581obvious": 6413,
  "\u2581okukoka": 6414,
  "\u2581okusimanekwa": 6415,
  "\u2581omukadhona": 6416,
  "\u2581oppression": 6417,
  "\u2581oshikunino": 6418,
  "\u2581oshishona": 6419,
  "\u2581persons": 6420,
  "\u2581refreshing": 6421,
  "\u2581rejoicing": 6422,
  "\u2581removed": 6423,
  "\u2581reply": 6424,
  "\u2581searching": 6425,
  "\u2581senses": 6426,
  "\u2581taaguluka": 6427,
  "\u2581tamunun": 6428,
  "\u2581womasiku": 6429,
  "\u2581writes": 6430,
  "\u2581yomwenyo": 6431,
  "\u2581yonagula": 6432,
  "Aakriste": 6433,
  "Euvaneko": 6434,
  "VO": 6435,
  "ern": 6436,
  "gi": 6437,
  "iiningwanima": 6438,
  "kukonakona": 6439,
  "mahunganeko": 6440,
  "ngulohi": 6441,
  "ninginitho": 6442,
  "omalalakano": 6443,
  "ondundu": 6444,
  "pe": 6445,
  "putuko": 6446,
  "so": 6447,
  "ty": 6448,
  "\u258137)": 6449,
  "\u258146.": 6450,
  "\u258175": 6451,
  "\u2581Anna": 6452,
  "\u2581Bill": 6453,
  "\u2581COR": 6454,
  "\u2581Egyptian": 6455,
  "\u2581Enok": 6456,
  "\u2581Hedh": 6457,
  "\u2581ISSUE": 6458,
  "\u2581Jordan": 6459,
  "\u2581Malachi": 6460,
  "\u2581Mar": 6461,
  "\u2581Martin": 6462,
  "\u2581Mei": 6463,
  "\u2581Methelem": 6464,
  "\u2581PS": 6465,
  "\u2581Philippi": 6466,
  "\u2581Th": 6467,
  "\u2581Tsikil": 6468,
  "\u2581acknowledged": 6469,
  "\u2581amuhe": 6470,
  "\u2581arrive": 6471,
  "\u2581assume": 6472,
  "\u2581belongings": 6473,
  "\u2581c": 6474,
  "\u2581cancer": 6475,
  "\u2581conscious": 6476,
  "\u2581convince": 6477,
  "\u2581deliverance": 6478,
  "\u2581depict": 6479,
  "\u2581discussions": 6480,
  "\u2581displayed": 6481,
  "\u2581effectively": 6482,
  "\u2581emakelo": 6483,
  "\u2581eternity": 6484,
  "\u2581etsomukumo": 6485,
  "\u2581evolution": 6486,
  "\u2581finds": 6487,
  "\u2581galikanene": 6488,
  "\u2581gayalwe": 6489,
  "\u2581gwayeke": 6490,
  "\u2581identity": 6491,
  "\u2581imitat": 6492,
  "\u2581kondundu": 6493,
  "\u2581kugo": 6494,
  "\u2581kwaangoka": 6495,
  "\u2581lyaDaniel": 6496,
  "\u2581lyaNoowa": 6497,
  "\u2581lyaashoka": 6498,
  "\u2581lyomumvo": 6499,
  "\u2581male": 6500,
  "\u2581memory": 6501,
  "\u2581momainyanyudho": 6502,
  "\u2581mondjedhililo": 6503,
  "\u2581nOmbiimbeli": 6504,
  "\u2581nako": 6505,
  "\u2581ndopa": 6506,
  "\u2581negameno": 6507,
  "\u2581nokuuvitha": 6508,
  "\u2581noshe": 6509,
  "\u2581nuudhigu": 6510,
  "\u2581nuunongo": 6511,
  "\u2581okuhanagul": 6512,
  "\u2581okulalakanena": 6513,
  "\u2581okunwa": 6514,
  "\u2581okushuna": 6515,
  "\u2581omunegumbo": 6516,
  "\u2581omvula": 6517,
  "\u2581omweendi": 6518,
  "\u2581oshinyandwa": 6519,
  "\u2581ou": 6520,
  "\u2581owindji": 6521,
  "\u2581patanekwa": 6522,
  "\u2581penduka": 6523,
  "\u2581pleasures": 6524,
  "\u2581pomahala": 6525,
  "\u2581putuka": 6526,
  "\u2581radio": 6527,
  "\u2581resolved": 6528,
  "\u2581rewards": 6529,
  "\u2581ride": 6530,
  "\u2581sale": 6531,
  "\u2581shokukala": 6532,
  "\u2581specifically": 6533,
  "\u2581submit": 6534,
  "\u2581suggested": 6535,
  "\u2581testimony": 6536,
  "\u2581tidha": 6537,
  "\u2581tools": 6538,
  "\u2581tradition": 6539,
  "\u2581transform": 6540,
  "\u2581unfaithful": 6541,
  "\u2581uunye": 6542,
  "\u2581uuyamba": 6543,
  "\u2581weaken": 6544,
  "\u2581yambekwa": 6545,
  "\u2581yonuka": 6546,
  "KE": 6547,
  "Ongoye": 6548,
  "body": 6549,
  "eiyapulo": 6550,
  "his": 6551,
  "kumagidho": 6552,
  "mokukwathela": 6553,
  "moniwa": 6554,
  "mugundjuka": 6555,
  "my": 6556,
  "ocratic": 6557,
  "okati": 6558,
  "okutala": 6559,
  "omadhiladhilo": 6560,
  "omayono": 6561,
  "omukwaniilwa": 6562,
  "omupangeli": 6563,
  "omuyakuligongalo": 6564,
  "omwedhi": 6565,
  "ondanda": 6566,
  "p": 6567,
  "tompelo": 6568,
  "wiliko": 6569,
  "yo": 6570,
  "\u258115.)": 6571,
  "\u25812006": 6572,
  "\u258130,": 6573,
  "\u258168": 6574,
  "\u2581CAN": 6575,
  "\u2581EPS": 6576,
  "\u2581Egyptians": 6577,
  "\u2581Empire": 6578,
  "\u2581Jim": 6579,
  "\u2581Mal": 6580,
  "\u2581Nabal": 6581,
  "\u2581Ohio": 6582,
  "\u2581Omavaangeli": 6583,
  "\u2581Omikalo": 6584,
  "\u2581Way": 6585,
  "\u2581Which": 6586,
  "\u2581afterward": 6587,
  "\u2581agreement": 6588,
  "\u2581alike": 6589,
  "\u2581appealing": 6590,
  "\u2581appointment": 6591,
  "\u2581bed": 6592,
  "\u2581bereaved": 6593,
  "\u2581blame": 6594,
  "\u2581center": 6595,
  "\u2581color": 6596,
  "\u2581commands": 6597,
  "\u2581comparison": 6598,
  "\u2581computer": 6599,
  "\u2581conducted": 6600,
  "\u2581context": 6601,
  "\u2581custom": 6602,
  "\u2581delighted": 6603,
  "\u2581depends": 6604,
  "\u2581description": 6605,
  "\u2581doctor": 6606,
  "\u2581egeelo": 6607,
  "\u2581eindilo": 6608,
  "\u2581emanya": 6609,
  "\u2581emotionally": 6610,
  "\u2581endulula": 6611,
  "\u2581equal": 6612,
  "\u2581etanda": 6613,
  "\u2581expectation": 6614,
  "\u2581exposed": 6615,
  "\u2581flee": 6616,
  "\u2581gana": 6617,
  "\u2581gets": 6618,
  "\u2581halela": 6619,
  "\u2581harmful": 6620,
  "\u2581harsh": 6621,
  "\u2581hide": 6622,
  "\u2581ihololele": 6623,
  "\u2581iidhigu": 6624,
  "\u2581images": 6625,
  "\u2581involv": 6626,
  "\u2581island": 6627,
  "\u2581joyfully": 6628,
  "\u2581kaatondi": 6629,
  "\u2581kolo": 6630,
  "\u2581kondjithathana": 6631,
  "\u2581kotempeli": 6632,
  "\u2581kuHe": 6633,
  "\u2581kuunona": 6634,
  "\u2581kwaJesus": 6635,
  "\u2581londo": 6636,
  "\u2581mail": 6637,
  "\u2581mid": 6638,
  "\u2581minded": 6639,
  "\u2581moshifo": 6640,
  "\u2581muJohannes": 6641,
  "\u2581mwaa": 6642,
  "\u2581nameme": 6643,
  "\u2581netal": 6644,
  "\u2581noma": 6645,
  "\u2581noyaandjawo": 6646,
  "\u2581nyanyangidha": 6647,
  "\u2581okuyelitha": 6648,
  "\u2581omuyamba": 6649,
  "\u2581omuyambi": 6650,
  "\u2581onkone": 6651,
  "\u2581oshituthi": 6652,
  "\u2581perfection": 6653,
  "\u2581pikwa": 6654,
  "\u2581priorities": 6655,
  "\u2581profound": 6656,
  "\u2581prophesied": 6657,
  "\u2581pwaashoka": 6658,
  "\u2581r": 6659,
  "\u2581scene": 6660,
  "\u2581shoshili": 6661,
  "\u2581tear": 6662,
  "\u2581unusual": 6663,
  "\u2581uudhano": 6664,
  "\u2581viewing": 6665,
  "\u2581visions": 6666,
  "\u2581yohole": 6667,
  "\u2581yonakuyiwa": 6668,
  "\u2581yopaKriste": 6669,
  "\u2581yopantu": 6670,
  "Aayapostoli": 6671,
  "SO": 6672,
  "To": 6673,
  "Your": 6674,
  "aapangelwa": 6675,
  "de": 6676,
  "etompelo": 6677,
  "ish": 6678,
  "kalele": 6679,
  "lalakano": 6680,
  "lenga": 6681,
  "mapangelo": 6682,
  "ngaashi": 6683,
  "okulalakanena": 6684,
  "okupopila": 6685,
  "okwiilonga": 6686,
  "peles": 6687,
  "rimarily": 6688,
  "shilipaleko": 6689,
  "tn": 6690,
  "ulula": 6691,
  "\u258140.": 6692,
  "\u258189": 6693,
  "\u258194": 6694,
  "\u2581America": 6695,
  "\u2581Antonio": 6696,
  "\u2581Avoid": 6697,
  "\u2581Etokolo": 6698,
  "\u2581Evening": 6699,
  "\u2581Eyuvi": 6700,
  "\u2581February": 6701,
  "\u2581Galikan": 6702,
  "\u2581HAG": 6703,
  "\u2581Ha": 6704,
  "\u2581June": 6705,
  "\u2581KA": 6706,
  "\u2581KALA": 6707,
  "\u2581Ke": 6708,
  "\u2581Lives": 6709,
  "\u2581Maintain": 6710,
  "\u2581Meditat": 6711,
  "\u2581NGIINI": 6712,
  "\u2581Niishewe": 6713,
  "\u2581Priest": 6714,
  "\u2581Rachel": 6715,
  "\u2581Rule": 6716,
  "\u2581Says": 6717,
  "\u2581Seek": 6718,
  "\u2581aakadhona": 6719,
  "\u2581access": 6720,
  "\u2581afford": 6721,
  "\u2581appoint": 6722,
  "\u2581avoided": 6723,
  "\u2581badly": 6724,
  "\u2581belonging": 6725,
  "\u2581bound": 6726,
  "\u2581commendation": 6727,
  "\u2581companion": 6728,
  "\u2581detailed": 6729,
  "\u2581dhuuyuuki": 6730,
  "\u2581drugs": 6731,
  "\u2581ehanagulo": 6732,
  "\u2581ehupitho": 6733,
  "\u2581elongithonkondo": 6734,
  "\u2581empty": 6735,
  "\u2581executed": 6736,
  "\u2581exhort": 6737,
  "\u2581eyuvi": 6738,
  "\u2581fed": 6739,
  "\u2581fourth": 6740,
  "\u2581gwegongalo": 6741,
  "\u2581hetatu": 6742,
  "\u2581iitsa": 6743,
  "\u2581iyadhe": 6744,
  "\u2581kaKalunga": 6745,
  "\u2581kiiponga": 6746,
  "\u2581komukwaniilwa": 6747,
  "\u2581kookuume": 6748,
  "\u2581kunu": 6749,
  "\u2581lion": 6750,
  "\u2581lyIit": 6751,
  "\u2581lyaSatana": 6752,
  "\u2581meditation": 6753,
  "\u2581mefuta": 6754,
  "\u2581muKristus": 6755,
  "\u2581nOmwana": 6756,
  "\u2581nearby": 6757,
  "\u2581ngu": 6758,
  "\u2581nkondopaleka": 6759,
  "\u2581ongele": 6760,
  "\u2581onti": 6761,
  "\u2581onyanya": 6762,
  "\u2581oondjokana": 6763,
  "\u2581participate": 6764,
  "\u2581passage": 6765,
  "\u2581patriarch": 6766,
  "\u2581shedhina": 6767,
  "\u2581survived": 6768,
  "\u2581thorough": 6769,
  "\u2581threat": 6770,
  "\u2581totha": 6771,
  "\u2581unclean": 6772,
  "\u2581visible": 6773,
  "\u2581welfare": 6774,
  "\u2581wind": 6775,
  "\u2581yomumvo": 6776,
  "13": 6777,
  "ENE": 6778,
  "IES": 6779,
  "Mika": 6780,
  "South": 6781,
  "ULWA": 6782,
  "ably": 6783,
  "akalelipo": 6784,
  "but": 6785,
  "do": 6786,
  "g": 6787,
  "iileshomwa": 6788,
  "imwe": 6789,
  "mayamukulo": 6790,
  "meta": 6791,
  "omapandja": 6792,
  "peni": 6793,
  "rs": 6794,
  "sita": 6795,
  "tse": 6796,
  "ure": 6797,
  "uuthembahenda": 6798,
  "\u25811914.": 6799,
  "\u25811955": 6800,
  "\u258141.": 6801,
  "\u2581Bezalel": 6802,
  "\u2581Court": 6803,
  "\u2581Ephesus": 6804,
  "\u2581Eso": 6805,
  "\u2581Goliat": 6806,
  "\u2581Human": 6807,
  "\u2581Joel": 6808,
  "\u2581Judges": 6809,
  "\u2581Konga": 6810,
  "\u2581Lev": 6811,
  "\u2581Meal": 6812,
  "\u2581NK": 6813,
  "\u2581Ning": 6814,
  "\u2581OLUNDJI": 6815,
  "\u2581Reflect": 6816,
  "\u2581Ro": 6817,
  "\u2581Serv": 6818,
  "\u2581Serve": 6819,
  "\u2581absorb": 6820,
  "\u2581admits": 6821,
  "\u2581aged": 6822,
  "\u2581burn": 6823,
  "\u2581calamity": 6824,
  "\u2581claimed": 6825,
  "\u2581commandment": 6826,
  "\u2581commissioned": 6827,
  "\u2581cup": 6828,
  "\u2581d": 6829,
  "\u2581dhipagwe": 6830,
  "\u2581dhoshili": 6831,
  "\u2581earn": 6832,
  "\u2581embrace": 6833,
  "\u2581except": 6834,
  "\u2581extended": 6835,
  "\u2581game": 6836,
  "\u2581greed": 6837,
  "\u2581gwoonzi": 6838,
  "\u2581hated": 6839,
  "\u2581hepa": 6840,
  "\u2581hwepopala": 6841,
  "\u2581intent": 6842,
  "\u2581komakotampango": 6843,
  "\u2581limits": 6844,
  "\u2581lwaAdam": 6845,
  "\u2581mEhololo": 6846,
  "\u2581mark": 6847,
  "\u2581melandulathano": 6848,
  "\u2581miraculous": 6849,
  "\u2581muBabilonia": 6850,
  "\u2581naAbraham": 6851,
  "\u2581naHe": 6852,
  "\u2581national": 6853,
  "\u2581nomakotampango": 6854,
  "\u2581nonakuyiwa": 6855,
  "\u2581noyo": 6856,
  "\u2581nuupyakadhi": 6857,
  "\u2581nyolith": 6858,
  "\u2581obstacles": 6859,
  "\u2581okakadhona": 6860,
  "\u2581okangundu": 6861,
  "\u2581okwiinyenga": 6862,
  "\u2581olunyala": 6863,
  "\u2581omaukwanegumbo": 6864,
  "\u2581omi": 6865,
  "\u2581omutenya": 6866,
  "\u2581oongunga": 6867,
  "\u2581ooshili": 6868,
  "\u2581opposers": 6869,
  "\u2581opposite": 6870,
  "\u2581peers": 6871,
  "\u2581planning": 6872,
  "\u2581police": 6873,
  "\u2581push": 6874,
  "\u2581puuyelele": 6875,
  "\u2581rebuild": 6876,
  "\u2581remembered": 6877,
  "\u2581reside": 6878,
  "\u2581rewarding": 6879,
  "\u2581ridicule": 6880,
  "\u2581sanctified": 6881,
  "\u2581shahugunina": 6882,
  "\u2581speaker": 6883,
  "\u2581taste": 6884,
  "\u2581tent": 6885,
  "\u2581types": 6886,
  "\u2581unexpected": 6887,
  "\u2581uulingilingi": 6888,
  "\u2581wall": 6889,
  "\u2581yegumbo": 6890,
  "\u2581yemateka": 6891,
  "\u2581yiifundja": 6892,
  "AANTU": 6893,
  "AS": 6894,
  "Ihe": 6895,
  "aakalimo": 6896,
  "aapambele": 6897,
  "ard": 6898,
  "ehala": 6899,
  "hempulula": 6900,
  "kotampango": 6901,
  "madhiladhilo": 6902,
  "malunduluko": 6903,
  "mashongo": 6904,
  "ndhoka": 6905,
  "ndjokana": 6906,
  "olo": 6907,
  "omo": 6908,
  "onkatu": 6909,
  "oonzi": 6910,
  "opehulilo": 6911,
  "set": 6912,
  "yemateka": 6913,
  "\u2581116": 6914,
  "\u25811949": 6915,
  "\u258140)": 6916,
  "\u25816.)": 6917,
  "\u2581Apollos": 6918,
  "\u2581Christmas": 6919,
  "\u2581Congregation": 6920,
  "\u2581Dead": 6921,
  "\u2581Esther": 6922,
  "\u2581Eyumuko": 6923,
  "\u2581Five": 6924,
  "\u2581Jericho": 6925,
  "\u2581Near": 6926,
  "\u2581Oparadisa": 6927,
  "\u2581Oshoshili": 6928,
  "\u2581Truth": 6929,
  "\u2581V": 6930,
  "\u2581aalelwa": 6931,
  "\u2581accident": 6932,
  "\u2581achieve": 6933,
  "\u2581adhima": 6934,
  "\u2581analyze": 6935,
  "\u2581arms": 6936,
  "\u2581associations": 6937,
  "\u2581atmosphere": 6938,
  "\u2581ayeke": 6939,
  "\u2581billions": 6940,
  "\u2581capable": 6941,
  "\u2581continually": 6942,
  "\u2581conversations": 6943,
  "\u2581cried": 6944,
  "\u2581deeper": 6945,
  "\u2581depressed": 6946,
  "\u2581deserve": 6947,
  "\u2581developments": 6948,
  "\u2581devote": 6949,
  "\u2581dis": 6950,
  "\u2581discernment": 6951,
  "\u2581distressing": 6952,
  "\u2581dread": 6953,
  "\u2581dying": 6954,
  "\u2581egongamwele": 6955,
  "\u2581emoniko": 6956,
  "\u2581eninginitho": 6957,
  "\u2581explanation": 6958,
  "\u2581fled": 6959,
  "\u2581fortify": 6960,
  "\u2581freed": 6961,
  "\u2581grain": 6962,
  "\u2581gwaKristus": 6963,
  "\u2581handed": 6964,
  "\u2581hit": 6965,
  "\u2581igilila": 6966,
  "\u2581iipang": 6967,
  "\u2581imitation": 6968,
  "\u2581imonikila": 6969,
  "\u2581intelligent": 6970,
  "\u2581inyengithe": 6971,
  "\u2581iron": 6972,
  "\u2581kOMUWA": 6973,
  "\u2581komadhiladhilo": 6974,
  "\u2581kongeleka": 6975,
  "\u2581kuEgipiti": 6976,
  "\u2581kudho": 6977,
  "\u2581kuumbangalantu": 6978,
  "\u2581kuupyakadhi": 6979,
  "\u2581length": 6980,
  "\u2581low": 6981,
  "\u2581lyiinima": 6982,
  "\u2581miilando": 6983,
  "\u2581momanyolo": 6984,
  "\u2581morally": 6985,
  "\u2581motive": 6986,
  "\u2581nUukwaniilwa": 6987,
  "\u2581nawo": 6988,
  "\u2581nokukonakona": 6989,
  "\u2581nomulumentu": 6990,
  "\u2581nomumwameme": 6991,
  "\u2581nwethe": 6992,
  "\u2581omapataneko": 6993,
  "\u2581omathiminiko": 6994,
  "\u2581omatyokosha": 6995,
  "\u2581omayovi": 6996,
  "\u2581ombaadhilila": 6997,
  "\u2581omudhimba": 6998,
  "\u2581omuyoni": 6999,
  "\u2581onzapo": 7000,
  "\u2581plague": 7001,
  "\u2581punishment": 7002,
  "\u2581reputation": 7003,
  "\u2581running": 7004,
  "\u2581silver": 7005,
  "\u2581singleness": 7006,
  "\u2581sitting": 7007,
  "\u2581smile": 7008,
  "\u2581solution": 7009,
  "\u2581stumbling": 7010,
  "\u2581twice": 7011,
  "\u2581unselfish": 7012,
  "\u2581urges": 7013,
  "\u2581uvi": 7014,
  "\u2581vain": 7015,
  "\u2581video": 7016,
  "\u2581wholesome": 7017,
  "\u2581worker": 7018,
  "Aafilippi": 7019,
  "By": 7020,
  "LA": 7021,
  "Levitikus": 7022,
  "NO": 7023,
  "Oye": 7024,
  "R": 7025,
  "Uukwaniilwa": 7026,
  "ana": 7027,
  "by": 7028,
  "f": 7029,
  "fulness": 7030,
  "hala": 7031,
  "katendo": 7032,
  "loko": 7033,
  "niilonga": 7034,
  "okukondjitha": 7035,
  "opolohalama": 7036,
  "right": 7037,
  "thile": 7038,
  "\u2581115": 7039,
  "\u2581118": 7040,
  "\u25811940": 7041,
  "\u25811999": 7042,
  "\u258142)": 7043,
  "\u2581Asia": 7044,
  "\u2581Become": 7045,
  "\u2581Dad": 7046,
  "\u2581Ear": 7047,
  "\u2581Easter": 7048,
  "\u2581Eccl": 7049,
  "\u2581Heart": 7050,
  "\u2581Herod": 7051,
  "\u2581Jael": 7052,
  "\u2581Oluvalo": 7053,
  "\u2581Omujuda": 7054,
  "\u2581Omupangeliawike": 7055,
  "\u2581Oshilongo": 7056,
  "\u2581Russia": 7057,
  "\u2581Thank": 7058,
  "\u2581Whom": 7059,
  "\u2581Wu": 7060,
  "\u2581Years": 7061,
  "\u2581aamwayinathana": 7062,
  "\u2581arrival": 7063,
  "\u2581behave": 7064,
  "\u2581bones": 7065,
  "\u2581dhiminw": 7066,
  "\u2581dhopambepo": 7067,
  "\u2581diligent": 7068,
  "\u2581directions": 7069,
  "\u2581donate": 7070,
  "\u2581ete": 7071,
  "\u2581everywhere": 7072,
  "\u2581eyambeko": 7073,
  "\u2581failure": 7074,
  "\u2581fornication": 7075,
  "\u2581friendships": 7076,
  "\u2581gevi": 7077,
  "\u2581gomugo": 7078,
  "\u2581guests": 7079,
  "\u2581gwOmuntu": 7080,
  "\u2581hanagule": 7081,
  "\u2581iilongo": 7082,
  "\u2581iingangamithi": 7083,
  "\u2581ikongele": 7084,
  "\u2581illustrated": 7085,
  "\u2581interfere": 7086,
  "\u2581keelela": 7087,
  "\u2581kegulu": 7088,
  "\u2581kompango": 7089,
  "\u2581komulumentu": 7090,
  "\u2581koondunge": 7091,
  "\u2581lalakanena": 7092,
  "\u2581lean": 7093,
  "\u2581lyevi": 7094,
  "\u2581marriages": 7095,
  "\u2581minutes": 7096,
  "\u2581moluvalo": 7097,
  "\u2581muupyakadhi": 7098,
  "\u2581muuwanawa": 7099,
  "\u2581naJohannes": 7100,
  "\u2581naSara": 7101,
  "\u2581nokulandul": 7102,
  "\u2581okamati": 7103,
  "\u2581okuhola": 7104,
  "\u2581omabiliyona": 7105,
  "\u2581omau": 7106,
  "\u2581omolweitaalo": 7107,
  "\u2581omunyoli": 7108,
  "\u2581outline": 7109,
  "\u2581peaceable": 7110,
  "\u2581peha": 7111,
  "\u2581percent": 7112,
  "\u2581popular": 7113,
  "\u2581possession": 7114,
  "\u2581preachers": 7115,
  "\u2581pumba": 7116,
  "\u2581reassuring": 7117,
  "\u2581repeated": 7118,
  "\u2581safeguard": 7119,
  "\u2581satisfy": 7120,
  "\u2581select": 7121,
  "\u2581shOlutuwiliki": 7122,
  "\u2581shokuuvitha": 7123,
  "\u2581temper": 7124,
  "\u2581tendencies": 7125,
  "\u2581troubled": 7126,
  "\u2581tunga": 7127,
  "\u2581vary": 7128,
  "\u2581volunteer": 7129,
  "\u2581wuulunde": 7130,
  "\u2581yahugunina": 7131,
  "\u2581yelithe": 7132,
  "\u2581yokuya": 7133,
  "\u2581yomegumbo": 7134,
  "\u2581yuumwayinathana": 7135,
  "Go": 7136,
  "Herodes": 7137,
  "Okwa": 7138,
  "Osha": 7139,
  "Oshoka": 7140,
  "alele": 7141,
  "dyoka": 7142,
  "eimbilo": 7143,
  "esiloshimpwiyu": 7144,
  "evululuko": 7145,
  "ight": 7146,
  "indika": 7147,
  "ki": 7148,
  "molwohole": 7149,
  "ngoka": 7150,
  "nute": 7151,
  "okudhiladhila": 7152,
  "okuteya": 7153,
  "omanyolo": 7154,
  "oonkalo": 7155,
  "pyakadhi": 7156,
  "reafter": 7157,
  "reby": 7158,
  "shipango": 7159,
  "tally": 7160,
  "tseyithila": 7161,
  "udhitha": 7162,
  "\u2581135": 7163,
  "\u25812007": 7164,
  "\u258134,": 7165,
  "\u25817.)": 7166,
  "\u258195": 7167,
  "\u2581Aabetel": 7168,
  "\u2581Aaegipiti": 7169,
  "\u2581Auguste": 7170,
  "\u2581Changes": 7171,
  "\u2581Creation": 7172,
  "\u2581Describe": 7173,
  "\u2581Eduardo": 7174,
  "\u2581Feb": 7175,
  "\u2581Happy": 7176,
  "\u2581Ireland": 7177,
  "\u2581Julian": 7178,
  "\u2581Living": 7179,
  "\u2581Mom": 7180,
  "\u2581Mother": 7181,
  "\u2581News": 7182,
  "\u2581Oli": 7183,
  "\u2581Omusita": 7184,
  "\u2581Oonzi": 7185,
  "\u2581Opaasa": 7186,
  "\u2581Origin": 7187,
  "\u2581Philippines": 7188,
  "\u2581Pula": 7189,
  "\u2581State": 7190,
  "\u2581Ta": 7191,
  "\u2581admitted": 7192,
  "\u2581backing": 7193,
  "\u2581burning": 7194,
  "\u2581caus": 7195,
  "\u2581chance": 7196,
  "\u2581cleansing": 7197,
  "\u2581commended": 7198,
  "\u2581community": 7199,
  "\u2581confirm": 7200,
  "\u2581cultivating": 7201,
  "\u2581deceptive": 7202,
  "\u2581discusse": 7203,
  "\u2581doubts": 7204,
  "\u2581dust": 7205,
  "\u2581ehameka": 7206,
  "\u2581eloya": 7207,
  "\u2581enwetho": 7208,
  "\u2581examination": 7209,
  "\u2581exclusive": 7210,
  "\u2581exile": 7211,
  "\u2581experiencing": 7212,
  "\u2581funds": 7213,
  "\u2581gaPaulus": 7214,
  "\u2581gaining": 7215,
  "\u2581garments": 7216,
  "\u2581gopetameko": 7217,
  "\u2581guarantee": 7218,
  "\u2581hili": 7219,
  "\u2581holoke": 7220,
  "\u2581indike": 7221,
  "\u2581intentions": 7222,
  "\u2581ipopile": 7223,
  "\u2581iti": 7224,
  "\u2581kolulyo": 7225,
  "\u2581komashongo": 7226,
  "\u2581lyaPaulus": 7227,
  "\u2581lyomwenyo": 7228,
  "\u2581mohole": 7229,
  "\u2581moon": 7230,
  "\u2581naMaria": 7231,
  "\u2581naayapostoli": 7232,
  "\u2581neitulomo": 7233,
  "\u2581niikando": 7234,
  "\u2581nomupondo": 7235,
  "\u2581north": 7236,
  "\u2581okathimbo": 7237,
  "\u2581okufuta": 7238,
  "\u2581okunyanyudha": 7239,
  "\u2581ombwinayi": 7240,
  "\u2581omitse": 7241,
  "\u2581ompe": 7242,
  "\u2581oongawo": 7243,
  "\u2581oongeleka": 7244,
  "\u2581opaleke": 7245,
  "\u2581oshiyimati": 7246,
  "\u2581pour": 7247,
  "\u2581prov": 7248,
  "\u2581pukulule": 7249,
  "\u2581refreshment": 7250,
  "\u2581replace": 7251,
  "\u2581rulers": 7252,
  "\u2581seated": 7253,
  "\u2581settled": 7254,
  "\u2581shield": 7255,
  "\u2581station": 7256,
  "\u2581surface": 7257,
  "\u2581terms": 7258,
  "\u2581th": 7259,
  "\u2581thrilled": 7260,
  "\u2581torture": 7261,
  "\u2581tremendous": 7262,
  "\u2581undergo": 7263,
  "\u2581valid": 7264,
  "\u2581website": 7265,
  "\u2581weekly": 7266,
  "\u2581widely": 7267,
  "\u2581wokupangela": 7268,
  "\u2581worthless": 7269,
  "\u2581yele": 7270,
  "\u2581yelithila": 7271,
  "\u2581yokathimbo": 7272,
  "\u2581yuukwaniilwa": 7273,
  "Aagalati": 7274,
  "Oshihebeli": 7275,
  "ashihe": 7276,
  "da": 7277,
  "gged": 7278,
  "ilwa": 7279,
  "led": 7280,
  "mupolofeti": 7281,
  "muselekadhi": 7282,
  "muthigululwakalo": 7283,
  "nkatu": 7284,
  "okulandula": 7285,
  "okunyanyukilwa": 7286,
  "omupiya": 7287,
  "ondoolopa": 7288,
  "opo": 7289,
  "oshiholelwa": 7290,
  "paka": 7291,
  "ry": 7292,
  "they": 7293,
  "\u00e9": 7294,
  "\u258130:": 7295,
  "\u258141)": 7296,
  "\u258178": 7297,
  "\u2581Above": 7298,
  "\u2581Additional": 7299,
  "\u2581Andrew": 7300,
  "\u2581Benefit": 7301,
  "\u2581Branch": 7302,
  "\u2581Christine": 7303,
  "\u2581Day": 7304,
  "\u2581End": 7305,
  "\u2581Evidently": 7306,
  "\u2581Eyelu": 7307,
  "\u2581French": 7308,
  "\u2581Iileshomwa": 7309,
  "\u2581Index": 7310,
  "\u2581Januali": 7311,
  "\u2581Maleaki": 7312,
  "\u2581Mona": 7313,
  "\u2581Nale": 7314,
  "\u2581Nothing": 7315,
  "\u2581Often": 7316,
  "\u2581Ombili": 7317,
  "\u2581Potiphar": 7318,
  "\u2581Red": 7319,
  "\u2581Reign": 7320,
  "\u2581Testament": 7321,
  "\u2581Third": 7322,
  "\u2581[\"": 7323,
  "\u2581aankundi": 7324,
  "\u2581application": 7325,
  "\u2581bitter": 7326,
  "\u2581bought": 7327,
  "\u2581burned": 7328,
  "\u2581childhood": 7329,
  "\u2581commend": 7330,
  "\u2581crushed": 7331,
  "\u2581demand": 7332,
  "\u2581desired": 7333,
  "\u2581disasters": 7334,
  "\u2581distinguish": 7335,
  "\u2581drive": 7336,
  "\u2581eendathano": 7337,
  "\u2581empire": 7338,
  "\u2581envy": 7339,
  "\u2581epepelelo": 7340,
  "\u2581execution": 7341,
  "\u2581faces": 7342,
  "\u2581fathers": 7343,
  "\u2581fears": 7344,
  "\u2581foot": 7345,
  "\u2581fulfilling": 7346,
  "\u2581garment": 7347,
  "\u2581hidden": 7348,
  "\u2581highlighted": 7349,
  "\u2581ipa": 7350,
  "\u2581iyamba": 7351,
  "\u2581koku": 7352,
  "\u2581koshilando": 7353,
  "\u2581kuTate": 7354,
  "\u2581loloka": 7355,
  "\u2581lyaayapostoli": 7356,
  "\u2581mekonakono": 7357,
  "\u2581momahala": 7358,
  "\u2581momukunda": 7359,
  "\u2581mondunda": 7360,
  "\u2581moondjila": 7361,
  "\u2581moshiwike": 7362,
  "\u2581ni": 7363,
  "\u2581niimaliwa": 7364,
  "\u2581nondjokana": 7365,
  "\u2581norther": 7366,
  "\u2581nuulunde": 7367,
  "\u2581object": 7368,
  "\u2581okutalel": 7369,
  "\u2581olunene": 7370,
  "\u2581olwiho": 7371,
  "\u2581omahodhi": 7372,
  "\u2581omatal": 7373,
  "\u2581omolwuuwanawa": 7374,
  "\u2581online": 7375,
  "\u2581onyama": 7376,
  "\u2581oonyothi": 7377,
  "\u2581oshiilongomwa": 7378,
  "\u2581oti": 7379,
  "\u2581puye": 7380,
  "\u2581rain": 7381,
  "\u2581readers": 7382,
  "\u2581refugees": 7383,
  "\u2581returning": 7384,
  "\u2581rid": 7385,
  "\u2581sets": 7386,
  "\u2581storm": 7387,
  "\u2581stumble": 7388,
  "\u2581taxes": 7389,
  "\u2581teke": 7390,
  "\u2581thaneka": 7391,
  "\u2581tilitha": 7392,
  "\u2581timing": 7393,
  "\u2581ula": 7394,
  "\u2581ulukilwa": 7395,
  "\u2581upright": 7396,
  "\u2581waited": 7397,
  "\u2581weapons": 7398,
  "Aakorinto": 7399,
  "Gog": 7400,
  "Jeremia": 7401,
  "ONKALAMWENYO": 7402,
  "Opo": 7403,
  "Shok": 7404,
  "adhi": 7405,
  "akadhona": 7406,
  "anelago": 7407,
  "angelic": 7408,
  "cal": 7409,
  "erto": 7410,
  "gave": 7411,
  "hat": 7412,
  "imvo": 7413,
  "kwiilonga": 7414,
  "longekidho": 7415,
  "longside": 7416,
  "men": 7417,
  "moniko": 7418,
  "mumati": 7419,
  "mupiya": 7420,
  "ndjila": 7421,
  "nenge": 7422,
  "onyala": 7423,
  "oompumbwe": 7424,
  "opaveta": 7425,
  "os": 7426,
  "ri": 7427,
  "shigongi": 7428,
  "ulukilathana": 7429,
  "yooloko": 7430,
  "\u2581150": 7431,
  "\u25811930": 7432,
  "\u258147.": 7433,
  "\u2581ARTICLE": 7434,
  "\u2581Aakokolindjila": 7435,
  "\u2581Archives": 7436,
  "\u2581Bethlehem": 7437,
  "\u2581Canaan": 7438,
  "\u2581Debora": 7439,
  "\u2581Franz": 7440,
  "\u2581Habakkuk": 7441,
  "\u2581Josephus": 7442,
  "\u2581Le": 7443,
  "\u2581Mean": 7444,
  "\u2581Much": 7445,
  "\u2581Oko": 7446,
  "\u2581Omambo": 7447,
  "\u2581Omukuluntu": 7448,
  "\u2581Omutse": 7449,
  "\u2581Power": 7450,
  "\u2581aafundja": 7451,
  "\u2581accused": 7452,
  "\u2581acquainted": 7453,
  "\u2581adapt": 7454,
  "\u2581announced": 7455,
  "\u2581annual": 7456,
  "\u2581anxieties": 7457,
  "\u2581apostasy": 7458,
  "\u2581arose": 7459,
  "\u2581attractive": 7460,
  "\u2581charge": 7461,
  "\u2581check": 7462,
  "\u2581commercial": 7463,
  "\u2581conflicts": 7464,
  "\u2581customs": 7465,
  "\u2581dark": 7466,
  "\u2581dhimi": 7467,
  "\u2581disobey": 7468,
  "\u2581disregard": 7469,
  "\u2581doctrine": 7470,
  "\u2581dry": 7471,
  "\u2581ekankameno": 7472,
  "\u2581ekulu": 7473,
  "\u2581fier": 7474,
  "\u2581foremost": 7475,
  "\u2581fun": 7476,
  "\u2581gopaumwene": 7477,
  "\u2581guides": 7478,
  "\u2581gwaantu": 7479,
  "\u2581happier": 7480,
  "\u2581happily": 7481,
  "\u2581holekwa": 7482,
  "\u2581idolatry": 7483,
  "\u2581iimuna": 7484,
  "\u2581imagined": 7485,
  "\u2581kepulo": 7486,
  "\u2581kondjele": 7487,
  "\u2581kuDavid": 7488,
  "\u2581kwathe": 7489,
  "\u2581labor": 7490,
  "\u2581location": 7491,
  "\u2581londa": 7492,
  "\u2581longekidhile": 7493,
  "\u2581lwaali": 7494,
  "\u2581lwotango": 7495,
  "\u2581lyAakriste": 7496,
  "\u2581lyaDavid": 7497,
  "\u2581lyaaluhe": 7498,
  "\u2581lyesiku": 7499,
  "\u2581lyiifundja": 7500,
  "\u2581lyopakalunga": 7501,
  "\u2581materially": 7502,
  "\u2581miigwana": 7503,
  "\u2581moshi": 7504,
  "\u2581naakuluntu": 7505,
  "\u2581noho": 7506,
  "\u2581ohaluka": 7507,
  "\u2581okuladhipika": 7508,
  "\u2581okupandulwa": 7509,
  "\u2581okwo": 7510,
  "\u2581omandhindhiliko": 7511,
  "\u2581omapekapeko": 7512,
  "\u2581omaudhigu": 7513,
  "\u2581omilalo": 7514,
  "\u2581omiyonena": 7515,
  "\u2581omukwiita": 7516,
  "\u2581ongodhi": 7517,
  "\u2581openly": 7518,
  "\u2581opposed": 7519,
  "\u2581piigongi": 7520,
  "\u2581popitha": 7521,
  "\u2581possibly": 7522,
  "\u2581prefer": 7523,
  "\u2581previous": 7524,
  "\u2581previously": 7525,
  "\u2581proceeded": 7526,
  "\u2581punish": 7527,
  "\u2581reasoned": 7528,
  "\u2581reflects": 7529,
  "\u2581souls": 7530,
  "\u2581sports": 7531,
  "\u2581stage": 7532,
  "\u2581strike": 7533,
  "\u2581sufficient": 7534,
  "\u2581tedhatedhe": 7535,
  "\u2581tested": 7536,
  "\u2581texts": 7537,
  "\u2581wene": 7538,
  "\u2581yAakriste": 7539,
  "\u2581yakwawo": 7540,
  "\u2581yakwetu": 7541,
  "\u2581yeartext": 7542,
  "\u2581yolutu": 7543,
  "\u2581yoluvalo": 7544,
  "\u2581yuutumwa": 7545,
  "Come": 7546,
  "Timoteus": 7547,
  "Why": 7548,
  "dhikwa": 7549,
  "doubtedly": 7550,
  "ehulilo": 7551,
  "hiya": 7552,
  "kombinga": 7553,
  "kutila": 7554,
  "mumwamemekadhona": 7555,
  "ndondo": 7556,
  "omauvaneko": 7557,
  "omuntu": 7558,
  "shipangelapundi": 7559,
  "some": 7560,
  "thigwa": 7561,
  "\u25811,000": 7562,
  "\u25811952": 7563,
  "\u25812001": 7564,
  "\u2581Aamwameme": 7565,
  "\u2581Amos": 7566,
  "\u2581Babylonian": 7567,
  "\u2581Cheri": 7568,
  "\u2581Concern": 7569,
  "\u2581IT": 7570,
  "\u2581Isabel": 7571,
  "\u2581Josiah": 7572,
  "\u2581Juni": 7573,
  "\u2581KALUNGA": 7574,
  "\u2581KOR": 7575,
  "\u2581Kenneth": 7576,
  "\u2581Latin": 7577,
  "\u2581Linda": 7578,
  "\u2581Listen": 7579,
  "\u2581Molwashoka": 7580,
  "\u2581Naomi": 7581,
  "\u2581Ne": 7582,
  "\u2581OKUNINGA": 7583,
  "\u2581Omuroma": 7584,
  "\u2581Omutonateli": 7585,
  "\u2581Omwa": 7586,
  "\u2581Oshilong": 7587,
  "\u2581Philip": 7588,
  "\u2581Pilate": 7589,
  "\u2581Purpose": 7590,
  "\u2581Rose": 7591,
  "\u2581Sin": 7592,
  "\u2581Sunday": 7593,
  "\u2581TEACHINGS": 7594,
  "\u2581aashunimonima": 7595,
  "\u2581adhere": 7596,
  "\u2581amazed": 7597,
  "\u2581attracted": 7598,
  "\u2581average": 7599,
  "\u2581badness": 7600,
  "\u2581conform": 7601,
  "\u2581contemplate": 7602,
  "\u2581contributed": 7603,
  "\u2581convey": 7604,
  "\u2581correction": 7605,
  "\u2581deserves": 7606,
  "\u2581elements": 7607,
  "\u2581ends": 7608,
  "\u2581etameko": 7609,
  "\u2581exercised": 7610,
  "\u2581extraordinary": 7611,
  "\u2581eyoka": 7612,
  "\u2581fish": 7613,
  "\u2581flow": 7614,
  "\u2581gUukwaniilwa": 7615,
  "\u2581ganda": 7616,
  "\u2581gomwenyo": 7617,
  "\u2581gracious": 7618,
  "\u2581grows": 7619,
  "\u2581gwahugunina": 7620,
  "\u2581hinder": 7621,
  "\u2581hungry": 7622,
  "\u2581iigongi": 7623,
  "\u2581iiwike": 7624,
  "\u2581implies": 7625,
  "\u2581inaagu": 7626,
  "\u2581indication": 7627,
  "\u2581initially": 7628,
  "\u2581introduced": 7629,
  "\u2581itano": 7630,
  "\u2581kAaisraeli": 7631,
  "\u2581kaJehova": 7632,
  "\u2581kakatela": 7633,
  "\u2581keitaalo": 7634,
  "\u2581kugumwe": 7635,
  "\u2581kwaJehova": 7636,
  "\u2581learner": 7637,
  "\u2581leaves": 7638,
  "\u2581lyehunganeko": 7639,
  "\u2581lyokulonga": 7640,
  "\u2581lyomukwaniilwa": 7641,
  "\u2581lyonkal": 7642,
  "\u2581lyopathaneko": 7643,
  "\u2581lyoshitopolwa": 7644,
  "\u2581mepandaanda": 7645,
  "\u2581missed": 7646,
  "\u2581moments": 7647,
  "\u2581momeya": 7648,
  "\u2581mongeleka": 7649,
  "\u2581muEden": 7650,
  "\u2581naDavid": 7651,
  "\u2581nashike": 7652,
  "\u2581ngungumana": 7653,
  "\u2581nokukundathana": 7654,
  "\u2581nopwaa": 7655,
  "\u2581nuukumwe": 7656,
  "\u2581observ": 7657,
  "\u2581okudhipaga": 7658,
  "\u2581okuholoka": 7659,
  "\u2581okuningila": 7660,
  "\u2581okwaauvathana": 7661,
  "\u2581ombuto": 7662,
  "\u2581omupu": 7663,
  "\u2581ongoing": 7664,
  "\u2581oohi": 7665,
  "\u2581oomuvi": 7666,
  "\u2581oontumwafo": 7667,
  "\u2581oshitayimbelewa": 7668,
  "\u2581pamaiyuvo": 7669,
  "\u2581pamba": 7670,
  "\u2581pangule": 7671,
  "\u2581playing": 7672,
  "\u2581proclaimed": 7673,
  "\u2581programs": 7674,
  "\u2581promoted": 7675,
  "\u2581prompt": 7676,
  "\u2581pungula": 7677,
  "\u2581relied": 7678,
  "\u2581repair": 7679,
  "\u2581resentment": 7680,
  "\u2581respects": 7681,
  "\u2581revealing": 7682,
  "\u2581safety": 7683,
  "\u2581schools": 7684,
  "\u2581services": 7685,
  "\u2581shOonzapo": 7686,
  "\u2581silent": 7687,
  "\u2581stands": 7688,
  "\u2581stones": 7689,
  "\u2581struggling": 7690,
  "\u2581technology": 7691,
  "\u2581teens": 7692,
  "\u2581top": 7693,
  "\u2581transformed": 7694,
  "\u2581translate": 7695,
  "\u2581umbilw": 7696,
  "\u2581umbu": 7697,
  "\u2581unrepentant": 7698,
  "\u2581victims": 7699,
  "\u2581walls": 7700,
  "\u2581weakness": 7701,
  "\u2581worshipper": 7702,
  "\u2581yAajuda": 7703,
  "\u2581yaIsraeli": 7704,
  "\u2581yoke": 7705,
  "\u2581yokutsey": 7706,
  "\u2581yombili": 7707,
  "\u2581yondjokana": 7708,
  "\u2581yoongeleka": 7709,
  "\u2581yopaumwene": 7710,
  "\u2581yumudhilwa": 7711,
  "\u2581zile": 7712,
  "Etestamen": 7713,
  "Osho": 7714,
  "SED": 7715,
  "Tango": 7716,
  "aanasikola": 7717,
  "kudhiladhila": 7718,
  "kwatho": 7719,
  "ndja": 7720,
  "peya": 7721,
  "pungula": 7722,
  "son": 7723,
  "specially": 7724,
  "there": 7725,
  "use": 7726,
  "was": 7727,
  "working": 7728,
  "\u2581127": 7729,
  "\u25811943": 7730,
  "\u25811958": 7731,
  "\u25811970": 7732,
  "\u258145)": 7733,
  "\u2581ANSWER": 7734,
  "\u2581Actually": 7735,
  "\u2581Any": 7736,
  "\u2581Assembly": 7737,
  "\u2581Caesar": 7738,
  "\u2581Care": 7739,
  "\u2581Elizabeth": 7740,
  "\u2581European": 7741,
  "\u2581Joy": 7742,
  "\u2581Ku": 7743,
  "\u2581Maalitsa": 7744,
  "\u2581Next": 7745,
  "\u2581Popy": 7746,
  "\u2581Rebekka": 7747,
  "\u2581River": 7748,
  "\u2581STORY": 7749,
  "\u2581Shirley": 7750,
  "\u2581Source": 7751,
  "\u2581Trinity": 7752,
  "\u2581Ur": 7753,
  "\u2581Ver": 7754,
  "\u2581YETU": 7755,
  "\u2581aim": 7756,
  "\u2581aluka": 7757,
  "\u2581arrested": 7758,
  "\u2581b": 7759,
  "\u2581bit": 7760,
  "\u2581condemned": 7761,
  "\u2581conquest": 7762,
  "\u2581crowds": 7763,
  "\u2581delay": 7764,
  "\u2581dhom": 7765,
  "\u2581discouragement": 7766,
  "\u2581distributed": 7767,
  "\u2581east": 7768,
  "\u2581elaleko": 7769,
  "\u2581emblems": 7770,
  "\u2581enjoyable": 7771,
  "\u2581equipped": 7772,
  "\u2581etiheyali": 7773,
  "\u2581execute": 7774,
  "\u2581faalele": 7775,
  "\u2581games": 7776,
  "\u2581gwopambepo": 7777,
  "\u2581hall": 7778,
  "\u2581happening": 7779,
  "\u2581holds": 7780,
  "\u2581igamek": 7781,
  "\u2581ihanen": 7782,
  "\u2581imprisoned": 7783,
  "\u2581inspiration": 7784,
  "\u2581itulil": 7785,
  "\u2581kalele": 7786,
  "\u2581kane": 7787,
  "\u2581kiita": 7788,
  "\u2581kingship": 7789,
  "\u2581komu": 7790,
  "\u2581kongudhi": 7791,
  "\u2581kwaashika": 7792,
  "\u2581lacking": 7793,
  "\u2581lift": 7794,
  "\u2581literally": 7795,
  "\u2581londodhe": 7796,
  "\u2581loud": 7797,
  "\u2581lwandje": 7798,
  "\u2581lyonakuyiwa": 7799,
  "\u2581lyopantu": 7800,
  "\u2581lyoshili": 7801,
  "\u2581mE": 7802,
  "\u2581mOshiingilisa": 7803,
  "\u2581mokukalamwenyo": 7804,
  "\u2581mokule": 7805,
  "\u2581momamakelo": 7806,
  "\u2581momulilo": 7807,
  "\u2581mukweni": 7808,
  "\u2581naTate": 7809,
  "\u2581nepangelo": 7810,
  "\u2581ningine": 7811,
  "\u2581noonzi": 7812,
  "\u2581noshizemo": 7813,
  "\u2581nwe": 7814,
  "\u2581oath": 7815,
  "\u2581observes": 7816,
  "\u2581offended": 7817,
  "\u2581ohepele": 7818,
  "\u2581okulanda": 7819,
  "\u2581okuthiga": 7820,
  "\u2581okutiwa": 7821,
  "\u2581okweetel": 7822,
  "\u2581olugodhi": 7823,
  "\u2581omidhi": 7824,
  "\u2581omuvu": 7825,
  "\u2581ondu": 7826,
  "\u2581onga": 7827,
  "\u2581oontauki": 7828,
  "\u2581operation": 7829,
  "\u2581organizations": 7830,
  "\u2581oshileshomwa": 7831,
  "\u2581outlook": 7832,
  "\u2581pamikalo": 7833,
  "\u2581pata": 7834,
  "\u2581perspective": 7835,
  "\u2581planned": 7836,
  "\u2581pleases": 7837,
  "\u2581pomutenya": 7838,
  "\u2581printing": 7839,
  "\u2581prominence": 7840,
  "\u2581recalled": 7841,
  "\u2581receives": 7842,
  "\u2581seeming": 7843,
  "\u2581sheba": 7844,
  "\u2581shokulonga": 7845,
  "\u2581sinner": 7846,
  "\u2581smoke": 7847,
  "\u2581sorry": 7848,
  "\u2581statements": 7849,
  "\u2581steal": 7850,
  "\u2581taandelitha": 7851,
  "\u2581telephone": 7852,
  "\u2581thindil": 7853,
  "\u2581tobacco": 7854,
  "\u2581topic": 7855,
  "\u2581trap": 7856,
  "\u2581tunge": 7857,
  "\u2581unfair": 7858,
  "\u2581uuwanawahenda": 7859,
  "\u2581wage": 7860,
  "\u2581warn": 7861,
  "\u2581yaRoma": 7862,
  "\u2581yongundu": 7863,
  "David": 7864,
  "JESUS": 7865,
  "LONGITHWA": 7866,
  "Omwenyo": 7867,
  "ambyoka": 7868,
  "edia": 7869,
  "euvaneko": 7870,
  "fufu": 7871,
  "iikaha": 7872,
  "ilandu": 7873,
  "ius": 7874,
  "kokeka": 7875,
  "kulesha": 7876,
  "lalelo": 7877,
  "litha": 7878,
  "mithikampango": 7879,
  "okupandula": 7880,
  "okweetha": 7881,
  "okwiitaala": 7882,
  "olyu": 7883,
  "omaludhi": 7884,
  "ombili": 7885,
  "omusita": 7886,
  "ondjukithi": 7887,
  "ongo": 7888,
  "taandelitha": 7889,
  "unganeke": 7890,
  "\u25811941": 7891,
  "\u25811956": 7892,
  "\u25811993": 7893,
  "\u25812.)": 7894,
  "\u258133,": 7895,
  "\u258143.": 7896,
  "\u258158": 7897,
  "\u258159": 7898,
  "\u2581Answered": 7899,
  "\u2581CHANGE": 7900,
  "\u2581Department": 7901,
  "\u2581Galilee": 7902,
  "\u2581Ii": 7903,
  "\u2581Iigwana": 7904,
  "\u2581KU": 7905,
  "\u2581Lystra": 7906,
  "\u2581MOKA": 7907,
  "\u2581Nebuchadnezzar": 7908,
  "\u2581North": 7909,
  "\u2581Shepherd": 7910,
  "\u2581Thess": 7911,
  "\u2581aatilikalunga": 7912,
  "\u2581acquir": 7913,
  "\u2581adult": 7914,
  "\u2581advancement": 7915,
  "\u2581ate": 7916,
  "\u2581birds": 7917,
  "\u2581black": 7918,
  "\u2581bow": 7919,
  "\u2581brain": 7920,
  "\u2581card": 7921,
  "\u2581changing": 7922,
  "\u2581chariots": 7923,
  "\u2581completed": 7924,
  "\u2581corrected": 7925,
  "\u2581creature": 7926,
  "\u2581crown": 7927,
  "\u2581development": 7928,
  "\u2581dhaSatana": 7929,
  "\u2581dhipagitha": 7930,
  "\u2581dignity": 7931,
  "\u2581discover": 7932,
  "\u2581disobedient": 7933,
  "\u2581doctrines": 7934,
  "\u2581drop": 7935,
  "\u2581ear": 7936,
  "\u2581ease": 7937,
  "\u2581electronic": 7938,
  "\u2581ensure": 7939,
  "\u2581etitatu": 7940,
  "\u2581evululuko": 7941,
  "\u2581exact": 7942,
  "\u2581fair": 7943,
  "\u2581farm": 7944,
  "\u2581feared": 7945,
  "\u2581fought": 7946,
  "\u2581gonale": 7947,
  "\u2581gwako": 7948,
  "\u2581gwiilonga": 7949,
  "\u2581hears": 7950,
  "\u2581historical": 7951,
  "\u2581hop": 7952,
  "\u2581hugunina": 7953,
  "\u2581iilongitho": 7954,
  "\u2581illustrates": 7955,
  "\u2581immediate": 7956,
  "\u2581inaaku": 7957,
  "\u2581inspiring": 7958,
  "\u2581jobs": 7959,
  "\u2581konakonwa": 7960,
  "\u2581kuPaulus": 7961,
  "\u2581kuumbanda": 7962,
  "\u2581lips": 7963,
  "\u2581luku": 7964,
  "\u2581lyaMateus": 7965,
  "\u2581mOmpango": 7966,
  "\u2581march": 7967,
  "\u2581mass": 7968,
  "\u2581materialism": 7969,
  "\u2581meek": 7970,
  "\u2581memakelo": 7971,
  "\u2581mine": 7972,
  "\u2581momambo": 7973,
  "\u2581moshileshwa": 7974,
  "\u2581muAmerika": 7975,
  "\u2581muGenesis": 7976,
  "\u2581mwi": 7977,
  "\u2581neihumbato": 7978,
  "\u2581nokweenda": 7979,
  "\u2581nomiilonga": 7980,
  "\u2581nuuyuni": 7981,
  "\u2581ohauto": 7982,
  "\u2581okafupi": 7983,
  "\u2581okunyola": 7984,
  "\u2581okusinda": 7985,
  "\u2581okuzimina": 7986,
  "\u2581omaipyakidhilo": 7987,
  "\u2581omukolokoshi": 7988,
  "\u2581omusika": 7989,
  "\u2581onkal": 7990,
  "\u2581oshu": 7991,
  "\u2581outset": 7992,
  "\u2581overwhelming": 7993,
  "\u2581pashimaliwa": 7994,
  "\u2581passages": 7995,
  "\u2581post": 7996,
  "\u2581prior": 7997,
  "\u2581proclaim": 7998,
  "\u2581propaganda": 7999,
  "\u2581publicly": 8000,
  "\u2581pupalekwa": 8001,
  "\u2581putudhwa": 8002,
  "\u2581red": 8003,
  "\u2581regain": 8004,
  "\u2581remnant": 8005,
  "\u2581rendering": 8006,
  "\u2581requirement": 8007,
  "\u2581saving": 8008,
  "\u2581science": 8009,
  "\u2581selected": 8010,
  "\u2581shortly": 8011,
  "\u2581simplify": 8012,
  "\u2581steadfast": 8013,
  "\u2581struggled": 8014,
  "\u2581suggests": 8015,
  "\u2581supplication": 8016,
  "\u2581talala": 8017,
  "\u2581tegamena": 8018,
  "\u2581thikith": 8019,
  "\u2581tract": 8020,
  "\u2581tracts": 8021,
  "\u2581traditions": 8022,
  "\u2581turns": 8023,
  "\u2581unmarried": 8024,
  "\u2581wanankali": 8025,
  "\u2581yOMUWA": 8026,
  "\u2581yaalumentu": 8027,
  "\u2581yamo": 8028,
  "\u2581yelithwa": 8029,
  "\u2581zula": 8030,
  "ADHA": 8031,
  "Aatok": 8032,
  "Eeno": 8033,
  "Mb": 8034,
  "Oku": 8035,
  "Omolwashike": 8036,
  "Pokati": 8037,
  "awu": 8038,
  "elalakano": 8039,
  "ine": 8040,
  "kakatela": 8041,
  "kankameno": 8042,
  "kumwe": 8043,
  "maupyakadhi": 8044,
  "ntumwafo": 8045,
  "okukatuka": 8046,
  "ookuume": 8047,
  "popyo": 8048,
  "put": 8049,
  "se": 8050,
  "silohenda": 8051,
  "talelopo": 8052,
  "uudhiginini": 8053,
  "ward": 8054,
  "\u2581101": 8055,
  "\u25811931": 8056,
  "\u25811957": 8057,
  "\u25811960": 8058,
  "\u25811990": 8059,
  "\u258192": 8060,
  "\u2581ANSWERED": 8061,
  "\u2581Austria": 8062,
  "\u2581Benjamin": 8063,
  "\u2581Continue": 8064,
  "\u2581Giving": 8065,
  "\u2581Gold": 8066,
  "\u2581Had": 8067,
  "\u2581Inda": 8068,
  "\u2581Italy": 8069,
  "\u2581Jehosafat": 8070,
  "\u2581Lwanima": 8071,
  "\u2581Nangoye": 8072,
  "\u2581Nations": 8073,
  "\u2581Old": 8074,
  "\u2581Oonkondo": 8075,
  "\u2581Oshiilongomwa": 8076,
  "\u2581Rakel": 8077,
  "\u2581Thessalonica": 8078,
  "\u2581Uukwanegumbo": 8079,
  "\u2581View": 8080,
  "\u2581Wycliffe": 8081,
  "\u2581absolutely": 8082,
  "\u2581adjusted": 8083,
  "\u2581adults": 8084,
  "\u2581altar": 8085,
  "\u2581apostate": 8086,
  "\u2581auxiliary": 8087,
  "\u2581cast": 8088,
  "\u2581complain": 8089,
  "\u2581consistent": 8090,
  "\u2581counted": 8091,
  "\u2581emphasized": 8092,
  "\u2581enota": 8093,
  "\u2581examining": 8094,
  "\u2581exchange": 8095,
  "\u2581futile": 8096,
  "\u2581gwanithilwa": 8097,
  "\u2581hago": 8098,
  "\u2581henuk": 8099,
  "\u2581hospitable": 8100,
  "\u2581items": 8101,
  "\u2581kObetel": 8102,
  "\u2581kakadhala": 8103,
  "\u2581kiigwana": 8104,
  "\u2581komikalo": 8105,
  "\u2581komukalo": 8106,
  "\u2581kuhe": 8107,
  "\u2581kwaantu": 8108,
  "\u2581kwate": 8109,
  "\u2581lande": 8110,
  "\u2581liked": 8111,
  "\u2581likola": 8112,
  "\u2581longelwa": 8113,
  "\u2581longing": 8114,
  "\u2581mbeyaka": 8115,
  "\u2581measures": 8116,
  "\u2581method": 8117,
  "\u2581meyono": 8118,
  "\u2581moKanada": 8119,
  "\u2581molutu": 8120,
  "\u2581monike": 8121,
  "\u2581muJesaja": 8122,
  "\u2581naakwanezimo": 8123,
  "\u2581naayehe": 8124,
  "\u2581naayengeli": 8125,
  "\u2581neyumuko": 8126,
  "\u2581nokutya": 8127,
  "\u2581noyu": 8128,
  "\u2581nuu": 8129,
  "\u2581offend": 8130,
  "\u2581offerings": 8131,
  "\u2581officer": 8132,
  "\u2581okambo": 8133,
  "\u2581okuhokana": 8134,
  "\u2581okukanitha": 8135,
  "\u2581omahogololo": 8136,
  "\u2581ombanda": 8137,
  "\u2581omunambili": 8138,
  "\u2581oombwinayi": 8139,
  "\u2581oshipo": 8140,
  "\u2581outright": 8141,
  "\u2581overlook": 8142,
  "\u2581pandulwa": 8143,
  "\u2581phrase": 8144,
  "\u2581pick": 8145,
  "\u2581plent": 8146,
  "\u2581principal": 8147,
  "\u2581projects": 8148,
  "\u2581questioned": 8149,
  "\u2581rebel": 8150,
  "\u2581refrain": 8151,
  "\u2581repented": 8152,
  "\u2581reproach": 8153,
  "\u2581richly": 8154,
  "\u2581rock": 8155,
  "\u2581scale": 8156,
  "\u2581scrolls": 8157,
  "\u2581selfishness": 8158,
  "\u2581sholuvalo": 8159,
  "\u2581sites": 8160,
  "\u2581somehow": 8161,
  "\u2581strange": 8162,
  "\u2581tenderness": 8163,
  "\u2581territories": 8164,
  "\u2581tompa": 8165,
  "\u2581unwise": 8166,
  "\u2581uugoya": 8167,
  "\u2581uugoyoki": 8168,
  "\u2581visitors": 8169,
  "\u2581volunteers": 8170,
  "\u2581worst": 8171,
  "\u2581yatano": 8172,
  "\u2581yeshito": 8173,
  "\u2581yomwaamboka": 8174,
  "\u2581yuukokolindjila": 8175,
  "3": 8176,
  "B": 8177,
  "Ka": 8178,
  "Kand": 8179,
  "LAR": 8180,
  "NDULULA": 8181,
  "Omu": 8182,
  "Ongeleka": 8183,
  "Tu": 8184,
  "With": 8185,
  "aka": 8186,
  "et": 8187,
  "helikokolindjila": 8188,
  "itawu": 8189,
  "kalunga": 8190,
  "lyOshungolangelo": 8191,
  "mbe": 8192,
  "nekulu": 8193,
  "nge": 8194,
  "noshitayimbelewa": 8195,
  "nwethwe": 8196,
  "okupukitha": 8197,
  "pi": 8198,
  "pipi": 8199,
  "ree": 8200,
  "rew": 8201,
  "theta": 8202,
  "tion": 8203,
  "uutendo": 8204,
  "uvitho": 8205,
  "wene": 8206,
  "yoolola": 8207,
  "\u2581102": 8208,
  "\u258115]": 8209,
  "\u258117]": 8210,
  "\u25811951": 8211,
  "\u25812,000": 8212,
  "\u25812003": 8213,
  "\u25812005": 8214,
  "\u2581Aakiintu": 8215,
  "\u2581Amerika": 8216,
  "\u2581DHAJEHOVA": 8217,
  "\u2581Enyanyu": 8218,
  "\u2581Everyone": 8219,
  "\u2581Happily": 8220,
  "\u2581Happiness": 8221,
  "\u2581History": 8222,
  "\u2581Jo": 8223,
  "\u2581Jos": 8224,
  "\u2581Korah": 8225,
  "\u2581Library": 8226,
  "\u2581Loving": 8227,
  "\u2581Lwahugunina": 8228,
  "\u2581Maybe": 8229,
  "\u2581Membo": 8230,
  "\u2581Nabot": 8231,
  "\u2581Ondiapoli": 8232,
  "\u2581Oshinene": 8233,
  "\u2581Pierce": 8234,
  "\u2581Prophecy": 8235,
  "\u2581Story": 8236,
  "\u2581Uunongo": 8237,
  "\u2581YEAR": 8238,
  "\u2581advertise": 8239,
  "\u2581appreciative": 8240,
  "\u2581arrives": 8241,
  "\u2581attempted": 8242,
  "\u2581bank": 8243,
  "\u2581base": 8244,
  "\u2581bears": 8245,
  "\u2581branches": 8246,
  "\u2581centered": 8247,
  "\u2581claims": 8248,
  "\u2581crush": 8249,
  "\u2581declaring": 8250,
  "\u2581dhopamikalo": 8251,
  "\u2581differently": 8252,
  "\u2581duties": 8253,
  "\u2581ekelahi": 8254,
  "\u2581epangulo": 8255,
  "\u2581exemplary": 8256,
  "\u2581favorably": 8257,
  "\u2581foreigners": 8258,
  "\u2581gopahole": 8259,
  "\u2581grandmother": 8260,
  "\u2581haughty": 8261,
  "\u2581hokane": 8262,
  "\u2581hololwa": 8263,
  "\u2581hospital": 8264,
  "\u2581hupe": 8265,
  "\u2581hypocrisy": 8266,
  "\u2581independence": 8267,
  "\u2581jealousy": 8268,
  "\u2581kaawiliki": 8269,
  "\u2581komalombwelo": 8270,
  "\u2581koondundu": 8271,
  "\u2581kwashili": 8272,
  "\u2581kwatwe": 8273,
  "\u2581listed": 8274,
  "\u2581located": 8275,
  "\u2581luudhikwa": 8276,
  "\u2581lyOmwana": 8277,
  "\u2581lyeteyo": 8278,
  "\u2581lyotempeli": 8279,
  "\u2581mangulule": 8280,
  "\u2581manuscripts": 8281,
  "\u2581match": 8282,
  "\u2581momilema": 8283,
  "\u2581momutse": 8284,
  "\u2581monithw": 8285,
  "\u2581moshilong": 8286,
  "\u2581muka": 8287,
  "\u2581muwo": 8288,
  "\u2581nokuninginithwa": 8289,
  "\u2581noteworthy": 8290,
  "\u2581offense": 8291,
  "\u2581okukondja": 8292,
  "\u2581okukwatathan": 8293,
  "\u2581olwindji": 8294,
  "\u2581omukwathi": 8295,
  "\u2581omunankondo": 8296,
  "\u2581onzi": 8297,
  "\u2581oompe": 8298,
  "\u2581pandule": 8299,
  "\u2581prais": 8300,
  "\u2581prayerful": 8301,
  "\u2581prayerfully": 8302,
  "\u2581price": 8303,
  "\u2581pursuit": 8304,
  "\u2581rare": 8305,
  "\u2581rebellious": 8306,
  "\u2581rent": 8307,
  "\u2581representatives": 8308,
  "\u2581river": 8309,
  "\u2581sat": 8310,
  "\u2581sayings": 8311,
  "\u2581shape": 8312,
  "\u2581sharp": 8313,
  "\u2581shine": 8314,
  "\u2581siblings": 8315,
  "\u2581sole": 8316,
  "\u2581star": 8317,
  "\u2581stating": 8318,
  "\u2581striv": 8319,
  "\u2581suitable": 8320,
  "\u2581surprising": 8321,
  "\u2581taalele": 8322,
  "\u2581television": 8323,
  "\u2581thigile": 8324,
  "\u2581towns": 8325,
  "\u2581tragedy": 8326,
  "\u2581tragic": 8327,
  "\u2581tribulations": 8328,
  "\u2581tsil": 8329,
  "\u2581tyapula": 8330,
  "\u2581undo": 8331,
  "\u2581unnecessary": 8332,
  "\u2581wherea": 8333,
  "\u2581wishes": 8334,
  "\u2581womuntu": 8335,
  "\u2581yahetatu": 8336,
  "\u2581yehulilo": 8337,
  "\u2581yeleke": 8338,
  "\u2581yokugandja": 8339,
  "6": 8340,
  "EMO": 8341,
  "ENI": 8342,
  "H": 8343,
  "Iilongo": 8344,
  "Mal": 8345,
  "Neh": 8346,
  "OH": 8347,
  "ONDA": 8348,
  "Okukala": 8349,
  "Omanyolo": 8350,
  "Our": 8351,
  "RIAL": 8352,
  "Sak": 8353,
  "anasikola": 8354,
  "ekwatathano": 8355,
  "ho": 8356,
  "iilonga": 8357,
  "ika": 8358,
  "ityo": 8359,
  "iyimati": 8360,
  "kukwathela": 8361,
  "kutameka": 8362,
  "ling": 8363,
  "mamiliyona": 8364,
  "mokati": 8365,
  "nt": 8366,
  "nyoli": 8367,
  "okutoloka": 8368,
  "omapuko": 8369,
  "omuhona": 8370,
  "omwa": 8371,
  "ondondo": 8372,
  "oshikumithalonga": 8373,
  "people": 8374,
  "shititatu": 8375,
  "those": 8376,
  "tula": 8377,
  "ukwaniilwa": 8378,
  "utha": 8379,
  "yoka": 8380,
  "\u2581105": 8381,
  "\u258111.)": 8382,
  "\u2581136": 8383,
  "\u25811953": 8384,
  "\u258148.": 8385,
  "\u2581Alice": 8386,
  "\u2581Dawn": 8387,
  "\u2581ETHA": 8388,
  "\u2581East": 8389,
  "\u2581Full": 8390,
  "\u2581Gentiles": 8391,
  "\u2581Henry": 8392,
  "\u2581IUD": 8393,
  "\u2581JE": 8394,
  "\u2581Jezebel": 8395,
  "\u2581LIVE": 8396,
  "\u2581Last": 8397,
  "\u2581MAT": 8398,
  "\u2581Million": 8399,
  "\u2581Nero": 8400,
  "\u2581Omupanguli": 8401,
  "\u2581Oshiingilisa": 8402,
  "\u2581Preach": 8403,
  "\u2581Que": 8404,
  "\u2581Republic": 8405,
  "\u2581Steve": 8406,
  "\u2581TU": 8407,
  "\u2581aanyol": 8408,
  "\u2581aavu": 8409,
  "\u2581addiction": 8410,
  "\u2581adjustment": 8411,
  "\u2581aging": 8412,
  "\u2581assembled": 8413,
  "\u2581attacked": 8414,
  "\u2581awaken": 8415,
  "\u2581believes": 8416,
  "\u2581capacity": 8417,
  "\u2581catch": 8418,
  "\u2581chariot": 8419,
  "\u2581cleansed": 8420,
  "\u2581composed": 8421,
  "\u2581condemn": 8422,
  "\u2581conquered": 8423,
  "\u2581consist": 8424,
  "\u2581correspond": 8425,
  "\u2581cultures": 8426,
  "\u2581deaf": 8427,
  "\u2581declaration": 8428,
  "\u2581deed": 8429,
  "\u2581defeat": 8430,
  "\u2581depression": 8431,
  "\u2581dhopaunshitwe": 8432,
  "\u2581disloyal": 8433,
  "\u2581document": 8434,
  "\u2581driving": 8435,
  "\u2581en": 8436,
  "\u2581endear": 8437,
  "\u2581esindano": 8438,
  "\u2581expel": 8439,
  "\u2581falling": 8440,
  "\u2581famous": 8441,
  "\u2581follows": 8442,
  "\u2581forbidden": 8443,
  "\u2581forgives": 8444,
  "\u2581friendly": 8445,
  "\u2581fruitful": 8446,
  "\u2581gaSatana": 8447,
  "\u2581generously": 8448,
  "\u2581gopanyama": 8449,
  "\u2581gwegumbo": 8450,
  "\u2581gwiiyuma": 8451,
  "\u2581horse": 8452,
  "\u2581ifupipike": 8453,
  "\u2581ihwa": 8454,
  "\u2581kOmpango": 8455,
  "\u2581kalunga": 8456,
  "\u2581kiilanduliko": 8457,
  "\u2581kuudhigu": 8458,
  "\u2581kuyele": 8459,
  "\u2581lacked": 8460,
  "\u2581litha": 8461,
  "\u2581longwe": 8462,
  "\u2581lyomondjila": 8463,
  "\u2581mOmuwa": 8464,
  "\u2581meantime": 8465,
  "\u2581megameno": 8466,
  "\u2581mokutala": 8467,
  "\u2581mompangu": 8468,
  "\u2581moombila": 8469,
  "\u2581nOmushiti": 8470,
  "\u2581naakadhona": 8471,
  "\u2581natate": 8472,
  "\u2581nayina": 8473,
  "\u2581noge": 8474,
  "\u2581nokutaamb": 8475,
  "\u2581nomikalo": 8476,
  "\u2581nomwa": 8477,
  "\u2581nongashingeyi": 8478,
  "\u2581nontseyo": 8479,
  "\u2581noshili": 8480,
  "\u2581nyateke": 8481,
  "\u2581okutulwa": 8482,
  "\u2581okwaagwanenena": 8483,
  "\u2581omiwinayi": 8484,
  "\u2581omuhunganeki": 8485,
  "\u2581omunahenda": 8486,
  "\u2581omwe": 8487,
  "\u2581oompangela": 8488,
[...]
