{
  "</s>": 0,
  "<unk>": 1,
  ".": 2,
  ",": 3,
  "\u2581a": 4,
  "\u2581the": 5,
  "?": 6,
  "'": 7,
  "s": 8,
  "\u2581-": 9,
  "\u2581of": 10,
  "\u2581to": 11,
  "\u2581I": 12,
  "t": 13,
  "\u2581": 14,
  "\u2581and": 15,
  "\u2581az": 16,
  "!": 17,
  "\u2581\u00e9s": 18,
  "\u2581you": 19,
  "-": 20,
  "\u2581in": 21,
  "\u2581A": 22,
  "\u2581is": 23,
  "\u2581hogy": 24,
  "\u2581(": 25,
  "...": 26,
  "i": 27,
  ":": 28,
  "\u2581for": 29,
  "\u2581that": 30,
  ")": 31,
  "\u2581nem": 32,
  "\u2581be": 33,
  "a": 34,
  "\u2581it": 35,
  "e": 36,
  "re": 37,
  "\u2581on": 38,
  "m": 39,
  "\u2581egy": 40,
  "d": 41,
  "\u2581with": 42,
  "\u2581\"": 43,
  "\u2581meg": 44,
  "\u2581The": 45,
  "\u2581You": 46,
  "\u2581this": 47,
  "\u2581not": 48,
  "\u2581me": 49,
  "k": 50,
  "n": 51,
  "\u2581Nem": 52,
  "\u2581are": 53,
  "\u2581have": 54,
  "\u2581was": 55,
  "\u2581Az": 56,
  "\u2581van": 57,
  "\u2581vagy": 58,
  "y": 59,
  "ra": 60,
  "ek": 61,
  "\u2581kell": 62,
  "ing": 63,
  "\u2581or": 64,
  "\u2581we": 65,
  "\u2581your": 66,
  "\u2581as": 67,
  "ok": 68,
  "\u2581el": 69,
  "ed": 70,
  "\u2581by": 71,
  "en": 72,
  "\u2581from": 73,
  "\u2581can": 74,
  ";": 75,
  "\u2581It": 76,
  "\u2581ki": 77,
  "on": 78,
  "\u2581my": 79,
  "\u2581No": 80,
  "\u2581B": 81,
  "et": 82,
  "\u2581do": 83,
  "\u2581all": 84,
  "\u2581L": 85,
  "\u2581S": 86,
  "\u2581know": 87,
  "\u2581at": 88,
  "\u25811": 89,
  "nak": 90,
  "\u2581he": 91,
  "h": 92,
  "ni": 93,
  "\u2581What": 94,
  "\u2581go": 95,
  "es": 96,
  "ban": 97,
  "\u2581ha": 98,
  "\u2581C": 99,
  "nek": 100,
  "\u2581de": 101,
  "\u2581what": 102,
  "\u2581an": 103,
  "/": 104,
  "\u2581out": 105,
  "\u2581volt": 106,
  "\u2581Ez": 107,
  "om": 108,
  "sz": 109,
  "\u2581don": 110,
  "\u2581And": 111,
  "\u2581We": 112,
  "ve": 113,
  "ll": 114,
  "\u2581will": 115,
  "$": 116,
  "\u2581about": 117,
  "\u2581just": 118,
  "ben": 119,
  "\u2581De": 120,
  "os": 121,
  "\u2581up": 122,
  "S": 123,
  "\u2581like": 124,
  "\u2581ez": 125,
  "T": 126,
  "\u2581csak": 127,
  "em": 128,
  "\u2581T": 129,
  "\u2581F": 130,
  "\u2581here": 131,
  "\u2581one": 132,
  "\u2581Mi": 133,
  "\u2581azt": 134,
  "\u2581but": 135,
  "\u2581He": 136,
  "\u2581Ha": 137,
  "o": 138,
  "\u2581they": 139,
  "\u2581there": 140,
  "\"": 141,
  "\u2581most": 142,
  "\u2581right": 143,
  "\u2581him": 144,
  "at": 145,
  "er": 146,
  "\u2581get": 147,
  "\u2581did": 148,
  "\u2581\u00c9s": 149,
  "\u2581so": 150,
  "\u2581E": 151,
  "b": 152,
  "\u2581In": 153,
  "ot": 154,
  "\u2581fel": 155,
  "\u2581no": 156,
  "\u2581has": 157,
  "ja": 158,
  "an": 159,
  "in": 160,
  "\u2581which": 161,
  "\u2581shall": 162,
  "\u2581her": 163,
  "\u2581if": 164,
  "\u2581M": 165,
  "ba": 166,
  "\u2581m\u00e1r": 167,
  "\u2581mint": 168,
  "c": 169,
  "\u2581This": 170,
  "\u2581Oh": 171,
  "\u2581Igen": 172,
  "\u2581That": 173,
  "\u2581should": 174,
  "\u2581got": 175,
  "\u2581been": 176,
  "\u2581D": 177,
  "\u2581his": 178,
  "\u2581P": 179,
  "j": 180,
  "\u25812": 181,
  "A": 182,
  "\u2581itt": 183,
  "\u00e1t": 184,
  "\u2581would": 185,
  "g": 186,
  "\u2581\u00e9n": 187,
  "\u2581le": 188,
  "\u2581were": 189,
  "\u2581m\u00e9g": 190,
  "\u2581K": 191,
  "\u2581s": 192,
  "\u2581e": 193,
  "\u2581H": 194,
  "\u2581time": 195,
  "ly": 196,
  "\u00f3": 197,
  "\u2581mi": 198,
  "\u2581want": 199,
  "\u2581more": 200,
  "\u2581So": 201,
  "ak": 202,
  "ig": 203,
  "\u2581vagyok": 204,
  "z": 205,
  "\u2581ezt": 206,
  "\u25813": 207,
  "\u2581Article": 208,
  "\u2581Yea": 209,
  "\u2581Meg": 210,
  "unk": 211,
  "\u2581think": 212,
  "\u00e1s": 213,
  "\u2581olyan": 214,
  "\u2581p": 215,
  "\u00e9t": 216,
  "\u2581km": 217,
  "\u2581other": 218,
  "\u2581who": 219,
  "od": 220,
  "\u2581she": 221,
  "\u2581O": 222,
  "\u2581But": 223,
  "\u2581them": 224,
  "\u2581our": 225,
  "I": 226,
  "\u2581us": 227,
  "\u2581their": 228,
  "ik": 229,
  "\u2581now": 230,
  "\u2581o": 231,
  "al": 232,
  "\u2581te": 233,
  "\u2581V": 234,
  "\u2581had": 235,
  "\u2581megjelen\u00edt\u00e9se": 236,
  ".\"": 237,
  "\u2581European": 238,
  "\u2581night": 239,
  "or": 240,
  "\u2581when": 241,
  "\u2581R": 242,
  "va": 243,
  "\u2581Well": 244,
  "el": 245,
  "US": 246,
  "\u2581see": 247,
  "\u2581N": 248,
  "\u2581Egy": 249,
  "\u2581need": 250,
  "tel": 251,
  "\u2581US": 252,
  "\u2581Regulation": 253,
  "be": 254,
  "\u2581b": 255,
  "\u2581back": 256,
  "\u2581could": 257,
  "\u2581any": 258,
  "\u2581minden": 259,
  "nna": 260,
  "\u2581Ne": 261,
  "hoz": 262,
  "\u2581G": 263,
  "\u2581j\u00f3": 264,
  "\u2581Commission": 265,
  "\u00fcnk": 266,
  "l": 267,
  "\u2581From": 268,
  "\u25814": 269,
  "\u2581into": 270,
  "\u2581going": 271,
  "\u2581Now": 272,
  "\u2581only": 273,
  "\u2581some": 274,
  "\u2581Csak": 275,
  "\u2581good": 276,
  "\u2581.": 277,
  "\u2581take": 278,
  "\u2581Ki": 279,
  "\u2581El": 280,
  "\u2581She": 281,
  "\u2581lesz": 282,
  "\u2581States": 283,
  "\u2581map": 284,
  "\u2581price": 285,
  "\u2581\u00fagy": 286,
  "how": 287,
  "\u2581Azt": 288,
  "\u2581down": 289,
  "p": 290,
  "\u00e1n": 291,
  "\u2581If": 292,
  "\u2581than": 293,
  "\u2581may": 294,
  "it": 295,
  "\u0151": 296,
  "\u25815": 297,
  "tam": 298,
  "\u2581sem": 299,
  "r\u00f3l": 300,
  "ta": 301,
  "\u2581its": 302,
  "r\u0151l": 303,
  "\u2581Member": 304,
  "\u258110": 305,
  "\u2581'": 306,
  "\u2581\u00c9n": 307,
  "\u00e9rk\u00e9p": 308,
  "\u2581Do": 309,
  "\u2581They": 310,
  "\u2581How": 311,
  "),": 312,
  "am": 313,
  "\u2581Be": 314,
  "f": 315,
  "\u2581ne": 316,
  "\u2581way": 317,
  "C": 318,
  "\u2581akkor": 319,
  "\u2581f": 320,
  "\u2581Mr": 321,
  "\u2581also": 322,
  "b\u00f3l": 323,
  "as": 324,
  "\u2581make": 325,
  "\u2581how": 326,
  ").": 327,
  "\u2581over": 328,
  "\u2581J": 329,
  "\u2581EU": 330,
  "\u2581Bizotts\u00e1g": 331,
  "\u2581where": 332,
  "\u2581W": 333,
  "\u2581people": 334,
  "\u2581Eur\u00f3pai": 335,
  "\u2581lehet": 336,
  "\u2581come": 337,
  "ul": 338,
  "\u2581m\u00e1s": 339,
  "\u2581does": 340,
  "\u2581man": 341,
  "ad": 342,
  "\u2581vonatkoz\u00f3": 343,
  "ol": 344,
  "EK": 345,
  "\u2581these": 346,
  "\u2581mit": 347,
  "r": 348,
  "\u2581cikk": 349,
  "le": 350,
  "\u2581rendelet": 351,
  "\u2581All": 352,
  "\u2581say": 353,
  "\u2581There": 354,
  "te": 355,
  "\u25811.": 356,
  "\u2581Yes": 357,
  "okat": 358,
  "\u2581Te": 359,
  "EC": 360,
  "\u2581ami": 361,
  "\u2581New": 362,
  "\u2581\u00e9jszaka": 363,
  "\u2581m": 364,
  "\u2581For": 365,
  "ott": 366,
  "B": 367,
  "\u2581Ho": 368,
  "\u2581tudom": 369,
  "\u2581volna": 370,
  "\u2581Hey": 371,
  "\u2581amit": 372,
  "\u2581nagy": 373,
  "\u2581years": 374,
  "\u2581two": 375,
  "man": 376,
  "\u2581then": 377,
  "\u2581\u00e1ra": 378,
  "\u2581\u00e1ltal": 379,
  "\u2581must": 380,
  "\u2581Oka": 381,
  "\u2581Mit": 382,
  "\u2581vissza": 383,
  "\u2581szerint": 384,
  "\u2581use": 385,
  "\u2581val\u00f3": 386,
  "us": 387,
  "\u2581\u00faj": 388,
  "\u2581said": 389,
  "\u2581first": 390,
  "\u00fa": 391,
  "\u2581something": 392,
  "\u2581Why": 393,
  "\u2581really": 394,
  "\u2581valamint": 395,
  "ny": 396,
  "\u2581very": 397,
  "val": 398,
  "\u00e9": 399,
  "\u2581new": 400,
  "\u00e9n": 401,
  "\u2581t": 402,
  "\u2581sz": 403,
  "k\u00e9": 404,
  "\u2581those": 405,
  "ie": 406,
  "t\u00f3l": 407,
  "\u2581well": 408,
  "na": 409,
  "uk": 410,
  "ne": 411,
  "2": 412,
  "\u2581tell": 413,
  "\u2581\u00e1t": 414,
  "\u2581work": 415,
  "\u2581[": 416,
  "\u2581such": 417,
  "\u2581too": 418,
  "\u2581God": 419,
  "\u2581fog": 420,
  "\u2581k": 421,
  "is": 422,
  "\u2581\u00edgy": 423,
  "\u2581Fog": 424,
  "\u2581Mi\u00e9rt": 425,
  "\u2581c": 426,
  "H": 427,
  "\u2581amely": 428,
  "\u25816": 429,
  "eket": 430,
  "\u00e9rt": 431,
  "\u2581mert": 432,
  "L": 433,
  "hez": 434,
  "guy": 435,
  "\u2581under": 436,
  "\u2581mean": 437,
  "\u2581information": 438,
  "n\u00e1l": 439,
  "tem": 440,
  "\u2581ilyen": 441,
  "\u2581Hogy": 442,
  "\u258120": 443,
  "\u2581\u0151": 444,
  "\u2581Hotel": 445,
  "O": 446,
  "\u2581kis": 447,
  "\u2581day": 448,
  "t\u00e1l": 449,
  "\u2581nagyon": 450,
  "\u2581My": 451,
  "\u2581am": 452,
  "lal": 453,
  "\u2581Go": 454,
  "\u2581off": 455,
  "\u2581r\u00e1": 456,
  "\u2581after": 457,
  "um": 458,
  "gy": 459,
  "\u2581ma": 460,
  "\u2581Come": 461,
  "\u2581before": 462,
  "t\u0151l": 463,
  "\u2581Don": 464,
  "\u2581aki": 465,
  "ha": 466,
  "\u2581never": 467,
  "\u2581little": 468,
  "\u2581sz\u00f3l\u00f3": 469,
  "\u2581t\u00f6bb": 470,
  "\u2581Council": 471,
  "\u2581Most": 472,
  "\u2581even": 473,
  "\u2581made": 474,
  "\u2581Sz": 475,
  "\u2581...": 476,
  "uck": 477,
  "\u2581Union": 478,
  "\u2581let": 479,
  "\u2581g": 480,
  "]": 481,
  "\u2581To": 482,
  "ic": 483,
  "\u2581because": 484,
  "\u2581Let": 485,
  "\u00e1nak": 486,
  "\u2581arra": 487,
  "\u2581T\u00f6bb": 488,
  "\u2581look": 489,
  "\u2581life": 490,
  "juk": 491,
  "\u2581room": 492,
  "\u2581mind": 493,
  "b\u0151l": 494,
  "ar": 495,
  "\u2581Book": 496,
  "\u2581Le": 497,
  "v": 498,
  "\u2581help": 499,
  "\u2581much": 500,
  "je": 501,
  "to": 502,
  "\u2581York": 503,
  "\u2581away": 504,
  "\u2581J\u00f3": 505,
  "\u2581annak": 506,
  "\u2581pedig": 507,
  "\u2581used": 508,
  "\u2581doing": 509,
  "\u2581place": 510,
  "\u2581amikor": 511,
  "\u2581k\u00e9t": 512,
  "\u2581nincs": 513,
  "\u2581&": 514,
  "\u2581(1)": 515,
  "\u2581More": 516,
  "\u00e9l": 517,
  "\u2581csin\u00e1l": 518,
  "\u2581\u00dagy": 519,
  "vel": 520,
  "M": 521,
  "n\u00e9l": 522,
  "F": 523,
  "\u2581majd": 524,
  "\u2581Na": 525,
  "est": 526,
  "D": 527,
  "\u203a": 528,
  "\u2581thing": 529,
  "\u25812.": 530,
  "\u00e9s": 531,
  "\u2581l": 532,
  "ment": 533,
  "\u2581between": 534,
  "\u25818": 535,
  "\u2581U": 536,
  "th": 537,
  "\u2581find": 538,
  "\u2581re": 539,
  "\u2581love": 540,
  "EU": 541,
  "\u2581Is": 542,
  "\u2581why": 543,
  "\u2581M\u00e9g": 544,
  "\u2581valami": 545,
  "\u2581ember": 546,
  "\u258115": 547,
  "\u2581still": 548,
  "\u258112": 549,
  "cs": 550,
  "az": 551,
  "\u2581i": 552,
  "\u2581Where": 553,
  "\u2581k\u00f6z\u00f6tt": 554,
  "ers": 555,
  "\u00e9nek": 556,
  "\u2581ott": 557,
  "P": 558,
  "\u2581els\u0151": 559,
  "\u2581through": 560,
  "\u2581sz\u00e1m\u00e1ra": 561,
  "ang": 562,
  "K": 563,
  "\u2581give": 564,
  "\u2581set": 565,
  "il": 566,
  "ah": 567,
  "\u00fcl": 568,
  "\u2581mindig": 569,
  "\u2581Street": 570,
  "\u0171": 571,
  "\u25817": 572,
  "\u2581last": 573,
  "\u2581Hol": 574,
  "u": 575,
  "kay": 576,
  "\u2581eg\u00e9sz": 577,
  "\u00fck": 578,
  "\u2581ut\u00e1n": 579,
  "\u2581Re": 580,
  "\u2581neki": 581,
  "\u2581lenne": 582,
  "\u2581mondta": 583,
  "\u2581nekem": 584,
  "ter": 585,
  "E": 586,
  "ow": 587,
  "\u2581ide": 588,
  "\u2581\u00e1ll": 589,
  "\u2581Look": 590,
  "\u2581Just": 591,
  "\u2581vannak": 592,
  "\u2581ago": 593,
  "\u2581long": 594,
  "\u2581d": 595,
  "k\u00e9nt": 596,
  "\u2581j\u00f3l": 597,
  "\u2581\u00f6ssze": 598,
  "\u2581amelyek": 599,
  "\u2581Ma": 600,
  "\u2581following": 601,
  "\u2581\u0151ket": 602,
  "\u00e1l": 603,
  "se": 604,
  "\u2581within": 605,
  "\u2581Ezt": 606,
  "\u2581Van": 607,
  "\u2581Budapest": 608,
  "ation": 609,
  "\u25819": 610,
  "\u2581Or": 611,
  "\u2581Akkor": 612,
  "\u00e1ra": 613,
  "3": 614,
  "\u2581k\u00f6vetkez\u0151": 615,
  "\u2581Who": 616,
  "1": 617,
  "\u2581miatt": 618,
  "\u2581t\u00f6rt\u00e9n\u0151": 619,
  "\u00e9k": 620,
  "\u2581name": 621,
  "\u2581same": 622,
  "\u258130": 623,
  "\u00e1r": 624,
  "\u2581sorry": 625,
  "\u2581being": 626,
  "\u2581home": 627,
  "ro": 628,
  "\u2581eur\u00f3pai": 629,
  "\u2581Not": 630,
  "\u2581data": 631,
  "\u2581Z": 632,
  "\u2581se": 633,
  "\u2581\u0150": 634,
  "bb": 635,
  "\u2581part": 636,
  "ett": 637,
  "\u2581products": 638,
  "\u2581United": 639,
  "\u2581igaz": 640,
  "ach": 641,
  "\u2581teljes": 642,
  "\u2581alapj\u00e1n": 643,
  "\u2581State": 644,
  "son": 645,
  "\u2581around": 646,
  "\u2581apartment": 647,
  "\u2581Egyes\u00fclt": 648,
  "\u2581mg": 649,
  "\u2581alatt": 650,
  "\u2581sure": 651,
  "\u2581again": 652,
  "\u2581Minden": 653,
  "\u2581\u00e9rdek\u00e9ben": 654,
  "\u2581nap": 655,
  "\u2581anything": 656,
  "and": 657,
  "\u2581Dr": 658,
  "\u2581w": 659,
  "\u2581\u00d3": 660,
  "\u2581(2)": 661,
  "\u2581Can": 662,
  "\u2581eml\u00edtett": 663,
  "\u2581Are": 664,
  "\u2581J\u00f3l": 665,
  "un": 666,
  "\u2581Ja": 667,
  "N": 668,
  "\u2581Your": 669,
  "ia": 670,
  "ver": 671,
  "s\u00e9g": 672,
  "\u2581talk": 673,
  "\u2581call": 674,
  "\u00e9re": 675,
  "\u00e1k": 676,
  "\u2581found": 677,
  "\u2581better": 678,
  "\u2581market": 679,
  "\u2581year": 680,
  "\u2581thought": 681,
  "\u2581number": 682,
  "tek": 683,
  "up": 684,
  "\u2581case": 685,
  "\u2581Rendben": 686,
  "\u00e1val": 687,
  "\u2581H\u00e1t": 688,
  "\u2581put": 689,
  "\u2581world": 690,
  "part": 691,
  "\u2581own": 692,
  "ez": 693,
  "\u2581megfelel\u0151": 694,
  "\u2581sok": 695,
  "ch": 696,
  "\u00f6k": 697,
  "\u2581Al": 698,
  "\u2581Nincs": 699,
  "\u2581M\u00e1r": 700,
  "\u2581hiszem": 701,
  "w": 702,
  "\u2581egyik": 703,
  "\u2581things": 704,
  "\u2581When": 705,
  "\u2581Itt": 706,
  "\u2581As": 707,
  "id": 708,
  "\u2581Directive": 709,
  "\u00f6": 710,
  "\u2581order": 711,
  "AL": 712,
  "kor": 713,
  "\u2581stay": 714,
  "\u2581area": 715,
  "\u2581great": 716,
  "\u2581vele": 717,
  "\u00e1ban": 718,
  "\u2581t\u00fal": 719,
  "\u2581measures": 720,
  "\u2581igen": 721,
  "de": 722,
  "\u2581old": 723,
  "\u2581Community": 724,
  "\u2581Thank": 725,
  "\u2581without": 726,
  "\u2581mi\u00e9rt": 727,
  "ce": 728,
  "\u2581each": 729,
  "\u2581illetve": 730,
  "\u2581three": 731,
  "\u2581maga": 732,
  "\u2581t\u00f6rt\u00e9nt": 733,
  "sal": 734,
  "\u2581el\u0151tt": 735,
  "R": 736,
  "\u258111": 737,
  "\u2581tag\u00e1llamok": 738,
  "\u2581K\u00f6sz\u00f6n\u00f6m": 739,
  "\u2581valamit": 740,
  "\u25814.": 741,
  "\u2581mivel": 742,
  "tal": 743,
  "\u2581vagyunk": 744,
  "\u2581v": 745,
  "\u2581Annex": 746,
  "star": 747,
  "6": 748,
  "j\u00e1k": 749,
  "\u2581leg": 750,
  "ant": 751,
  "\u25813.": 752,
  "\u2581system": 753,
  "\u2581told": 754,
  "\u2581every": 755,
  "\u2581/": 756,
  "\u266a": 757,
  "og": 758,
  "ton": 759,
  "\u2581baj": 760,
  "nem": 761,
  "\u2581Show": 762,
  "ma": 763,
  "ai": 764,
  "\u258118": 765,
  "s\u00e1g": 766,
  "\u2581Car": 767,
  "\u2581semmi": 768,
  "\u00f3k": 769,
  "\u2581accordance": 770,
  "\u2581Park": 771,
  "\u2581many": 772,
  "j\u00fck": 773,
  "\u2581neked": 774,
  "lo": 775,
  "\u2581H\u00e9": 776,
  "\u2581_": 777,
  "\u2581always": 778,
  "\u2581Apart": 779,
  "\u2581Fel": 780,
  "\u2581Nagyon": 781,
  "\u00e1": 782,
  "mp": 783,
  "ty": 784,
  "\u2581point": 785,
  "ong": 786,
  "kat": 787,
  "ci": 788,
  "\u2581Sz\u00f3val": 789,
  "\u2581Mar": 790,
  "\u2581id\u0151": 791,
  "OK": 792,
  "\u2581egyes": 793,
  "\u2581hotel": 794,
  "\u2581Tudom": 795,
  "\u2581car": 796,
  "ur": 797,
  "jon": 798,
  "\u2581Good": 799,
  "\u2581n\u00e9lk\u00fcl": 800,
  "\u2581Uni\u00f3": 801,
  "\u2581won": 802,
  "\u2581oda": 803,
  "\u2581tud": 804,
  "the": 805,
  "\u2581*": 806,
  "\u2581ezel\u0151tt": 807,
  "\u2581per": 808,
  "\u2581saj\u00e1t": 809,
  "G": 810,
  "\u2581akik": 811,
  "\u2581Get": 812,
  "\u258119": 813,
  "\u2581St": 814,
  "\u2581Szi": 815,
  "\u2581szoba": 816,
  "\u2581free": 817,
  "im": 818,
  "\u2581means": 819,
  "\u2581house": 820,
  "\u2581sor\u00e1n": 821,
  "\u2581THE": 822,
  "\u2581kind": 823,
  "\u2581course": 824,
  "ung": 825,
  "\u2581#": 826,
  "\u2581Did": 827,
  "\u2581test": 828,
  "\u2581another": 829,
  "\u2581men": 830,
  "\u2581Please": 831,
  "OS": 832,
  "\u2581On": 833,
  "\u2581please": 834,
  "\u2581money": 835,
  "\u2581Isten": 836,
  "\u2581tov\u00e1bb": 837,
  "\u2581ever": 838,
  "\u2581Nos": 839,
  "V": 840,
  "\u2581best": 841,
  "\u2581keep": 842,
  "\u2581Gu": 843,
  "\u2581h": 844,
  "\u2581might": 845,
  "\u2581egy\u00fctt": 846,
  "\u2581akar": 847,
  "\u2581un": 848,
  "kal": 849,
  "\u2581done": 850,
  "\u2581believe": 851,
  "ster": 852,
  "\u2581Vi": 853,
  "\u2581types": 854,
  "\u2581particular": 855,
  "\u2581months": 856,
  "\u2581both": 857,
  "lak": 858,
  "\u00f6m": 859,
  "\u2581m\u00e1sik": 860,
  "\u2581feel": 861,
  "j\u00e1t": 862,
  "\u2581adott": 863,
  "\u2581sz\u00fcks\u00e9ges": 864,
  "\u2581service": 865,
  "\u2581Bo": 866,
  "\u258124": 867,
  "\u2581Man": 868,
  "\u2581national": 869,
  "\u2581k\u00fcl\u00f6n\u00f6sen": 870,
  "t\u00e1k": 871,
  "\u2581Co": 872,
  "ka": 873,
  "\u2581La": 874,
  "\u2581ir\u00e1nyelv": 875,
  "\u2581tudja": 876,
  "\u2581EUR": 877,
  "\u2581uni\u00f3s": 878,
  "partment": 879,
  "\u2581milyen": 880,
  "sel": 881,
  "\u2581lot": 882,
  "di": 883,
  "\u2581Tal\u00e1n": 884,
  "\u2581provided": 885,
  "\u2581legyen": 886,
  "\u258114": 887,
  "\u2581girl": 888,
  "\u2581nothing": 889,
  "\u2581II": 890,
  "\u2581f\u00e9l": 891,
  "ca": 892,
  "\u2581days": 893,
  "ine": 894,
  "\u2581end": 895,
  "\u2581r": 896,
  "\u00e1m": 897,
  "\u2581kapcsolatos": 898,
  "\u2581el\u00e9g": 899,
  "ian": 900,
  "\u2581emberek": 901,
  "\u2581megfelel\u0151en": 902,
  "\u2581Ro": 903,
  "ry": 904,
  "\u2581az\u00e9rt": 905,
  "\u258113": 906,
  "\u2581p\u00e9nz\u00fcgyi": 907,
  "\u2581Se": 908,
  "\u2581n": 909,
  "\u2581100": 910,
  "\u2581Tudod": 911,
  "\u2581already": 912,
  "ir": 913,
  "okkal": 914,
  "\u2581el\u0151": 915,
  "\u2581level": 916,
  "\u2581kellett": 917,
  "ub": 918,
  "\u258125": 919,
  "land": 920,
  "\u2581everything": 921,
  "\u2581l\u00e1ny": 922,
  "\u2581eset\u00e9ben": 923,
  "\u2581nemzeti": 924,
  "leg": 925,
  "\u2581Hi": 926,
  "\u2581Bar": 927,
  "\u2581Mert": 928,
  "\u2581ezen": 929,
  "\u2581public": 930,
  "uh": 931,
  "\u2581while": 932,
  "\u2581\u00e9ves": 933,
  "\u2581bel\u00fcl": 934,
  "t\u00edpus": 935,
  "\u2581business": 936,
  "\u2581referred": 937,
  "\u2581real": 938,
  "\u2581Me": 939,
  "\u2581left": 940,
  "4": 941,
  "\u2581Di": 942,
  "\u2581period": 943,
  "\u2581together": 944,
  "\u2581ez\u00e9rt": 945,
  "\u2581family": 946,
  "\u2581including": 947,
  "\u2581vil\u00e1g": 948,
  "hu": 949,
  "\u258116": 950,
  "\u2581Then": 951,
  "no": 952,
  "\u2581financial": 953,
  "\u2581countries": 954,
  "hat": 955,
  "\u2581tal\u00e1lhat\u00f3": 956,
  "\u2581came": 957,
  "\u258150": 958,
  "op": 959,
  "\u2581ezek": 960,
  "\u00f6n": 961,
  "\u00e9ben": 962,
  "\u2581valaki": 963,
  "\u2581\u00f6sszes": 964,
  "\u2581regard": 965,
  "\u00c1S": 966,
  "\u2581Mo": 967,
  "\u2581against": 968,
  "\u2581available": 969,
  "mm": 970,
  "\u2581meghat\u00e1rozott": 971,
  "\u2581hozz\u00e1": 972,
  "J": 973,
  "\u2581Decision": 974,
  "\u2581\u00c1llamok": 975,
  "\u2581wanted": 976,
  "\u2581p\u00e1r": 977,
  "\u2581azon": 978,
  "\u2581al\u00e1": 979,
  "\u2581services": 980,
  "t\u00e9l": 981,
  "\u2581tudod": 982,
  "ki": 983,
  "x": 984,
  "W": 985,
  "\u2581\u00e9v": 986,
  "\u2581next": 987,
  "\u2581big": 988,
  "\u2581wrong": 989,
  "bo": 990,
  "\u2581during": 991,
  "OW": 992,
  "\u2581cikke": 993,
  "\u2581different": 994,
  "\u2581k\u00f6z\u00f6s": 995,
  "\u2581important": 996,
  "ion": 997,
  "\u2581product": 998,
  "\u2581mellett": 999,
  "\u2581ahol": 1000,
  "\u2581care": 1001,
  "\u2581\u00d6sszes": 1002,
  "\u2581today": 1003,
  "co": 1004,
  "\u2581high": 1005,
  "\u2581fine": 1006,
  "da": 1007,
  "\u2581patients": 1008,
  "\u2581jobb": 1009,
  "illa": 1010,
  "nk": 1011,
  "\u2581necessary": 1012,
  "\u2581since": 1013,
  "\u2581ad": 1014,
  "able": 1015,
  "\u2581happened": 1016,
  "\u2581f\u0151": 1017,
  "ity": 1018,
  "\u2581Parliament": 1019,
  "\u2581coming": 1020,
  "\u2581leave": 1021,
  "\u2581Semmi": 1022,
  "\u2581Gyer\u00fcnk": 1023,
  "la": 1024,
  "pa": 1025,
  "\u2581gazdas\u00e1gi": 1026,
  "sh": 1027,
  "tak": 1028,
  "\u00e9r": 1029,
  "FOG": 1030,
  "ler": 1031,
  "ekkel": 1032,
  "\u2581bad": 1033,
  "\u2581change": 1034,
  "\u2581sir": 1035,
  "ard": 1036,
  "vi": 1037,
  "\u2581stop": 1038,
  "\u2581mikor": 1039,
  "\u2581azok": 1040,
  "st": 1041,
  "\u2581egy\u00e9b": 1042,
  "n\u00e9k": 1043,
  "ei": 1044,
  "\u2581voltam": 1045,
  "\u2581rules": 1046,
  "\u2581support": 1047,
  "\u2581kellene": 1048,
  "\u2581One": 1049,
  "\u2581City": 1050,
  "mail": 1051,
  "\u00e9vel": 1052,
  "\u2581taken": 1053,
  "oz": 1054,
  "\u2581sz\u00f3": 1055,
  "The": 1056,
  "\u2581pont": 1057,
  "\u2581Amerikai": 1058,
  "ex": 1059,
  "\u2581bele": 1060,
  "\u2581Home": 1061,
  "\u2581\u00d6n": 1062,
  "\u2581\u00fajra": 1063,
  "\u2581\u0151t": 1064,
  "\u2581fontos": 1065,
  "int": 1066,
  "\u2581(3)": 1067,
  "\u2581benne": 1068,
  "\u2581least": 1069,
  "\u2581blood": 1070,
  "\u2581k\u00f6z\u00f6tti": 1071,
  "l\u00f3": 1072,
  "\u2581person": 1073,
  "\u2581p\u00e9nz": 1074,
  "\u2581n\u00e9h\u00e1ny": 1075,
  "\u2581show": 1076,
  "our": 1077,
  "\u2581At": 1078,
  "\u2581perc": 1079,
  "\u2581n\u00e9z": 1080,
  "\u2581h\u00e1rom": 1081,
  "\u2581Con": 1082,
  "\u2581called": 1083,
  "\u2581tan\u00e1csi": 1084,
  "\u2581legjobb": 1085,
  "ud": 1086,
  "\u2581understand": 1087,
  "\u258117": 1088,
  "\u2581body": 1089,
  "\u2581Tan\u00e1cs": 1090,
  "\u2581hear": 1091,
  "\u2581conditions": 1092,
  "\u2581second": 1093,
  "amp": 1094,
  "\u2581uram": 1095,
  "\u2581enough": 1096,
  "ate": 1097,
  "ist": 1098,
  "\u2581bit": 1099,
  "ug": 1100,
  "\u2581someone": 1101,
  "\u2581dolog": 1102,
  "\u2581certain": 1103,
  "nn": 1104,
  "\u2581possible": 1105,
  "\u2581whole": 1106,
  "\u2581water": 1107,
  "\u2581biztos": 1108,
  "\u2581lett": 1109,
  "\u2581minutes": 1110,
  "Y": 1111,
  "\u2581kicsit": 1112,
  "\u2581ye": 1113,
  "\u2581tekintet\u00e9ben": 1114,
  "\u2581velem": 1115,
  "\u2581program": 1116,
  "\u2581talking": 1117,
  "\u2581non": 1118,
  "\u00edt": 1119,
  "ke": 1120,
  "\u2581csillag": 1121,
  "my": 1122,
  "\u2581hand": 1123,
  "\u2581sh": 1124,
  "\u2581An": 1125,
  "\u2581x": 1126,
  "\u2581sz\u00e1lloda": 1127,
  "\u2581country": 1128,
  "\u2581X": 1129,
  "\u2581San": 1130,
  "\u2581Maybe": 1131,
  "\u2581engem": 1132,
  "nom": 1133,
  "\u2581having": 1134,
  "\u2581\u00e1r": 1135,
  "\u2581keres": 1136,
  "\u2581Europe": 1137,
  "bi": 1138,
  "\u2581kill": 1139,
  "\u2581ebben": 1140,
  "\u2581until": 1141,
  "_": 1142,
  "\u2581+": 1143,
  "\u2581hol": 1144,
  "\u2581magam": 1145,
  "lek": 1146,
  "\u2581looking": 1147,
  "\u2581else": 1148,
  "ent": 1149,
  "\u2581ask": 1150,
  "\u2581sz\u00e1ll\u00e1s": 1151,
  "\u2581Y": 1152,
  "\u2022": 1153,
  "\u2581Uh": 1154,
  "\u2581szabad": 1155,
  "\u2581father": 1156,
  "\u2581mag\u00e1t": 1157,
  "\u2581magad": 1158,
  "\u2581ensure": 1159,
  "\u2581report": 1160,
  "\u2581cs": 1161,
  "\u2581Mind": 1162,
  "\u2581rendben": 1163,
  "hi": 1164,
  "\u2581taking": 1165,
  "\u2581ahogy": 1166,
  "me": 1167,
  "\u2581rendszer": 1168,
  "\u258121": 1169,
  "\u2581vi": 1170,
  "\u25810": 1171,
  "\u2581control": 1172,
  "\u2581dead": 1173,
  "ley": 1174,
  "\u2581went": 1175,
  "\u2581Su": 1176,
  "\u2581John": 1177,
  "\u2581r\u00f3la": 1178,
  "\u2581House": 1179,
  "\u2581fa": 1180,
  "zi": 1181,
  "per": 1182,
  "\u2581eset\u00e9n": 1183,
  "\u2581Ez\u00e9rt": 1184,
  "\u2581authorities": 1185,
  "\u2581legal\u00e1bb": 1186,
  "ary": 1187,
  "\u2581getting": 1188,
  "\u00fc": 1189,
  "\u2581date": 1190,
  "\u2581tekintettel": 1191,
  "\u2581\u00far": 1192,
  "\u2581working": 1193,
  "10": 1194,
  "\u2581erre": 1195,
  "\u2581trying": 1196,
  "dy": 1197,
  "\u2581film": 1198,
  "\u2581Of": 1199,
  "\u25815.": 1200,
  "\u2581al": 1201,
  "\u2581risk": 1202,
  "\u2581Road": 1203,
  "\u2581children": 1204,
  "\u2581job": 1205,
  "ho": 1206,
  "\u2581azonban": 1207,
  "t\u00e9k": 1208,
  "\u2581By": 1209,
  "\u2581third": 1210,
  "io": 1211,
  "\u2581Here": 1212,
  "\u2581few": 1213,
  "\u2581esetben": 1214,
  "\u2581tal\u00e1n": 1215,
  "ish": 1216,
  "nie": 1217,
  "\u2581term\u00e9k": 1218,
  "\u2581start": 1219,
  "\u2581mother": 1220,
  "eg": 1221,
  "\u2581\u00e9rintett": 1222,
  "\u2581Because": 1223,
  "egy": 1224,
  "ill": 1225,
  "\u2581met": 1226,
  "\u2581aid": 1227,
  "\u2581provide": 1228,
  "\u2581far": 1229,
  "let": 1230,
  "ani": 1231,
  "\u2581Committee": 1232,
  "\u2581development": 1233,
  "\u2581sz\u00fcks\u00e9g": 1234,
  "\u2581ellen": 1235,
  "\u2581nice": 1236,
  "ner": 1237,
  "\u2581yet": 1238,
  "n\u0151": 1239,
  "\u2581Lo": 1240,
  "anna": 1241,
  "\u2581gyerek": 1242,
  "\u2581l\u00e9p": 1243,
  "\u2581took": 1244,
  "\u2581harmadik": 1245,
  "tor": 1246,
  "het": 1247,
  "\u2581account": 1248,
  "go": 1249,
  "\u2581Milyen": 1250,
  "\u2581Gyere": 1251,
  "\u2581Ra": 1252,
  "ker": 1253,
  "\u2581sz\u00e1ma": 1254,
  "lan": 1255,
  "\u2581\u00cdgy": 1256,
  "\u2581\u00f6n": 1257,
  "\u00f5": 1258,
  "\u2581live": 1259,
  "\u2581hell": 1260,
  "gg": 1261,
  "end": 1262,
  "\u25810.": 1263,
  "\u2581Ch": 1264,
  "\u2581n\u0151": 1265,
  "\u2581saw": 1266,
  "\u2581seen": 1267,
  "\u2581szob\u00e1": 1268,
  "ri": 1269,
  "\u2581isn": 1270,
  "\u2581son": 1271,
  "\u2581given": 1272,
  "\u00f6l": 1273,
  "\u2581paragraph": 1274,
  "\u2581heart": 1275,
  "\u2581hit": 1276,
  "age": 1277,
  "\u2581tov\u00e1bbi": 1278,
  "\u2581application": 1279,
  "ut": 1280,
  "\u2581offers": 1281,
  "pl": 1282,
  "\u2581OF": 1283,
  "\u2581sz\u00f3l": 1284,
  "\u2581rossz": 1285,
  "\u2581head": 1286,
  "\u2581Sajn\u00e1lom": 1287,
  "men": 1288,
  "\u2581human": 1289,
  "\u2581Jo": 1290,
  "\u2581minket": 1291,
  "ebb": 1292,
  "za": 1293,
  "\u2581Ezek": 1294,
  "j\u00f6n": 1295,
  "\u2581int\u00e9zked\u00e9sek": 1296,
  "\u2581interest": 1297,
  "\u2581hanem": 1298,
  "\u2581Br": 1299,
  "\u2581close": 1300,
  "\u2581k\u00f6zel\u00e9ben": 1301,
  "\u2581akarok": 1302,
  "\u2581access": 1303,
  "\u2581wait": 1304,
  "\u2581meet": 1305,
  "\u2581walk": 1306,
  "\u2581Ti": 1307,
  "\u2581vend\u00e9g": 1308,
  "\u2581December": 1309,
  "\u2581yourself": 1310,
  "\u2581\u00e9rtem": 1311,
  "\u2581friend": 1312,
  "\u2581szerinti": 1313,
  "day": 1314,
  "\u2581Right": 1315,
  "ket": 1316,
  "kel": 1317,
  "\u2581hogyan": 1318,
  "\u2581law": 1319,
  "\u2581May": 1320,
  "ick": 1321,
  "\u2581akarom": 1322,
  "\u258122": 1323,
  "\u2581Maga": 1324,
  "\u2581v\u00e1r": 1325,
  "\u2581treatment": 1326,
  "5": 1327,
  "\u2581Sp": 1328,
  "\u2581policy": 1329,
  "\u2581remember": 1330,
  "\u2581arr\u00f3l": 1331,
  "\u2581problem": 1332,
  "abb": 1333,
  "\u2581k\u00f6z\u00f6ss\u00e9gi": 1334,
  "\u2581ti": 1335,
  "\u2581egyetlen": 1336,
  "\u2581ennek": 1337,
  "\u258140": 1338,
  "\u2581Har": 1339,
  "\u2581mindent": 1340,
  "\u2581tett": 1341,
  "ya": 1342,
  "iv": 1343,
  "\u2581hely": 1344,
  "\u2581voltak": 1345,
  "\u2581\u00f6sszhangban": 1346,
  "\u2581West": 1347,
  "\u2581term\u00e9kek": 1348,
  "\u2581T\u00e9nyleg": 1349,
  "\u2581matter": 1350,
  "\u2581play": 1351,
  "po": 1352,
  "\u2581boy": 1353,
  "\u2581requirements": 1354,
  "\u2581akarsz": 1355,
  "\u2581full": 1356,
  "nyi": 1357,
  "\u2581See": 1358,
  "\u2581side": 1359,
  "\u2581j\u00f6tt": 1360,
  "\u2581azzal": 1361,
  "com": 1362,
  "v\u00e9": 1363,
  "\u2581h\u00e1t": 1364,
  "nunk": 1365,
  "li": 1366,
  "\u2581open": 1367,
  "\u2581appropriate": 1368,
  "\u2581hard": 1369,
  "\u2581once": 1370,
  "\u2581co": 1371,
  "ou": 1372,
  "\u2581common": 1373,
  "\u2581accommodation": 1374,
  "ony": 1375,
  "\u00e1b\u00f3l": 1376,
  "ec": 1377,
  "\u2581figyelembe": 1378,
  "h\u00e1z": 1379,
  "\u2581v\u00e9r": 1380,
  "\u00ed": 1381,
  "\u2581mondja": 1382,
  "\u2581kapcsolatban": 1383,
  "mo": 1384,
  "n\u00fcnk": 1385,
  "hogy": 1386,
  "\u2581woman": 1387,
  "\u2581try": 1388,
  "\u2581idea": 1389,
  "hat\u00f3": 1390,
  "\u2581veled": 1391,
  "\u2581p\u00e9ld\u00e1ul": 1392,
  "\u2581di": 1393,
  "ag": 1394,
  "\u2581r\u00e1m": 1395,
  "\u2581Wi": 1396,
  "tok": 1397,
  "\u2581k\u00f6zel": 1398,
  "\u2581therefore": 1399,
  "one": 1400,
  "\u2581heard": 1401,
  "7": 1402,
  "\u2581este": 1403,
  "\u2581k\u00e9ne": 1404,
  "Hello": 1405,
  "\u2581With": 1406,
  "\u2581property": 1407,
  "50": 1408,
  "EEC": 1409,
  "eni": 1410,
  "\u2581\u00e9let": 1411,
  "\u2581Majd": 1412,
  "\u2581type": 1413,
  "\u2581Ben": 1414,
  "den": 1415,
  "\u2581based": 1416,
  "\u2581less": 1417,
  "\u2581basis": 1418,
  "EGK": 1419,
  "\u2581force": 1420,
  "\u2581Biztos": 1421,
  "\u2581cikk\u00e9nek": 1422,
  "\u2581view": 1423,
  "\u2581These": 1424,
  "ay": 1425,
  "mat": 1426,
  "aj": 1427,
  "sa": 1428,
  "t\u00e1r": 1429,
  "\u2581betegek": 1430,
  "\u2581question": 1431,
  "\u2581Thanks": 1432,
  "\u2581using": 1433,
  "\u2581azt\u00e1n": 1434,
  "by": 1435,
  "\u258128": 1436,
  "\u2581kap": 1437,
  "szer": 1438,
  "\u2581mondtam": 1439,
  "\u2581concerned": 1440,
  "\u2581hat\u00e1rozat": 1441,
  "\u2581t\u0171nik": 1442,
  "\u2581economic": 1443,
  "way": 1444,
  "\u258123": 1445,
  "\u2581food": 1446,
  "\u2581Persze": 1447,
  "\u2581form": 1448,
  "ger": 1449,
  "\u2581nagyobb": 1450,
  "z\u0151": 1451,
  "\u2581provisions": 1452,
  "\u2581actually": 1453,
  "\u2581school": 1454,
  "ence": 1455,
  "do": 1456,
  "\u2581energy": 1457,
  "\u2581ex": 1458,
  "r\u00e1c": 1459,
  "\u258131": 1460,
  "\u2581baby": 1461,
  "\u2581kereszt\u00fcl": 1462,
  "\u2581power": 1463,
  "old": 1464,
  "\u2581saying": 1465,
  "\u2581specific": 1466,
  "\u2581Jack": 1467,
  "nal": 1468,
  "\u2581ho": 1469,
  "\u00f6s": 1470,
  "\u2581Gy": 1471,
  "\u2581protection": 1472,
  "\u2581Tom": 1473,
  "\u2581face": 1474,
  "\u2581semmit": 1475,
  "\u2581ezzel": 1476,
  "\u2581able": 1477,
  "\u2581hours": 1478,
  "tunk": 1479,
  "\u25816.": 1480,
  "\u2581pi": 1481,
  "\u2581tag\u00e1llam": 1482,
  "ss": 1483,
  "\u2581abban": 1484,
  "\u2581knew": 1485,
  "\u2581times": 1486,
  "\u2581Mrs": 1487,
  "\u2581located": 1488,
  "ey": 1489,
  "ina": 1490,
  "\u2581mely": 1491,
  "\u0151r": 1492,
  "\u2581En": 1493,
  "\u2581wife": 1494,
  "dd": 1495,
  "\u2581j\u00e1t\u00e9k": 1496,
  "\u2581hang": 1497,
  "\u2581needs": 1498,
  "ze": 1499,
  "lat": 1500,
  "\u2581company": 1501,
  "\u2581besz\u00e9l": 1502,
  "\u2581marad": 1503,
  "\u2581pro": 1504,
  "\u2581Sam": 1505,
  "\u2581ment": 1506,
  "\u2581social": 1507,
  "\u2581special": 1508,
  "\u2581maybe": 1509,
  "\u2581Wait": 1510,
  "00": 1511,
  "\u2581nemzetk\u00f6zi": 1512,
  "\u2581azokat": 1513,
  "\u2581haza": 1514,
  "asz": 1515,
  "\u2581hagy": 1516,
  "\u2581ker\u00fcl": 1517,
  "\u00e1ba": 1518,
  "\u2581respect": 1519,
  "\u2581\u00e9l": 1520,
  "\u2581Hu": 1521,
  "\u2581ugye": 1522,
  "30": 1523,
  "\u2581valamennyi": 1524,
  "\u258127": 1525,
  "van": 1526,
  "\u2581Having": 1527,
  "\u2581Ex": 1528,
  "\u2581Olyan": 1529,
  "\u2581security": 1530,
  "gal": 1531,
  "\u2581decision": 1532,
  "eum": 1533,
  "\u2581egyszer": 1534,
  "\u00e1hoz": 1535,
  "\u2581Central": 1536,
  "\u2581apply": 1537,
  "ted": 1538,
  "\u2581production": 1539,
  "ness": 1540,
  "ov": 1541,
  "\u2581Angel": 1542,
  "\u2581j\u00e1r": 1543,
  "\u00e1d": 1544,
  "\u2581Po": 1545,
  "\u2581k\u00fcl\u00f6nb\u00f6z\u0151": 1546,
  "\u2581Tel": 1547,
  "\u2581Hungary": 1548,
  "ep": 1549,
  "\u2581beteg": 1550,
  "\u2581making": 1551,
  "\u2581move": 1552,
  "\u2581friends": 1553,
  "\u2581later": 1554,
  "lin": 1555,
  "\u2581President": 1556,
  "\u2581party": 1557,
  "\u2581adatok": 1558,
  "\u2581lenni": 1559,
  "\u2581v\u00e1ros": 1560,
  "\u2581Jesus": 1561,
  "\u2581subject": 1562,
  "ris": 1563,
  "\u2581j\u00f6n": 1564,
  "\u2581further": 1565,
  "\u00e1ci\u00f3": 1566,
  "ell": 1567,
  "\u2581am\u00edg": 1568,
  "\u2581tartoz\u00f3": 1569,
  "ling": 1570,
  "\u2581OJ": 1571,
  "\u2581m\u00f3don": 1572,
  "si": 1573,
  "\u2581fact": 1574,
  "out": 1575,
  "Mo": 1576,
  "\u2581phone": 1577,
  "\u2581Kar": 1578,
  "\u2581morning": 1579,
  "nod": 1580,
  "tan": 1581,
  "ies": 1582,
  "\u2581whether": 1583,
  "\u2581fogja": 1584,
  "\u2581Vagy": 1585,
  "\u2581k\u00f6vet\u0151en": 1586,
  "\u2581guess": 1587,
  "\u2581says": 1588,
  "\u2581\u00f3ta": 1589,
  "\u2581\u00e9vvel": 1590,
  "Sorry": 1591,
  "of": 1592,
  "\u2581pre": 1593,
  "ace": 1594,
  "\u25811,": 1595,
  "\u2581helyzet": 1596,
  "ph": 1597,
  "\u2581f\u00e9rfi": 1598,
  "8": 1599,
  "\u00e1ll\u00e1s": 1600,
  "\u2581Miss": 1601,
  "\u2581Igaz": 1602,
  "ica": 1603,
  "\u2581online": 1604,
  "book": 1605,
  "\u2581plan": 1606,
  "\u2581line": 1607,
  "\u2581bring": 1608,
  "\u2581London": 1609,
  "\u2581HL": 1610,
  "pe": 1611,
  "sd": 1612,
  "\u2581rights": 1613,
  "\u2581relevant": 1614,
  "yl": 1615,
  "\u2581Hungarian": 1616,
  "\u2581Amikor": 1617,
  "\u2581However": 1618,
  "t\u00fcnk": 1619,
  "\u2581h\u00edv": 1620,
  "ED": 1621,
  "min": 1622,
  "\u2581cannot": 1623,
  "\u2581Nagy": 1624,
  "\u2581k\u00e9p": 1625,
  "\u2581k\u00edv\u00fcl": 1626,
  "\u2581teljesen": 1627,
  "\u2581value": 1628,
  "\u2581Szeret": 1629,
  "\u2581stars": 1630,
  "\u2581group": 1631,
  "\u2581aut\u00f3": 1632,
  "\u2581run": 1633,
  "\u2581killed": 1634,
  "bor": 1635,
  "\u2581innen": 1636,
  "all": 1637,
  "+": 1638,
  "ron": 1639,
  "\u00e1r\u00f3l": 1640,
  "fi": 1641,
  "ami": 1642,
  "\u2581t\u00e9ged": 1643,
  "\u2581december": 1644,
  "\u2581activities": 1645,
  "\u2581ak\u00e1r": 1646,
  "\u2581mondani": 1647,
  "\u2581young": 1648,
  "\u2581la": 1649,
  "\u2581doctor": 1650,
  "\u2581ready": 1651,
  "\u00e9hez": 1652,
  "\u2581Agreement": 1653,
  "\u2581Treaty": 1654,
  "\u2581alone": 1655,
  "ap": 1656,
  "esz": 1657,
  "ance": 1658,
  "\u2581soon": 1659,
  "\u2581hope": 1660,
  "\u2581bizonyos": 1661,
  "18": 1662,
  "\u2581hittem": 1663,
  "\u2581known": 1664,
  "\u2581\u00e1ll\u00f3": 1665,
  "\u2581akartam": 1666,
  "line": 1667,
  "mer": 1668,
  "mi": 1669,
  "\u2581applicable": 1670,
  "\u2581r\u00e9szt": 1671,
  "\u2581Sta": 1672,
  "\u2581N\u00e9zd": 1673,
  "\u2581milli\u00f3": 1674,
  "\u2581jobban": 1675,
  "\u2581munka": 1676,
  "\u2581list": 1677,
  "\u258126": 1678,
  "dal": 1679,
  "\u2581above": 1680,
  "\u2581meg\u00e1llapod\u00e1s": 1681,
  "\u2581J\u00e9zus": 1682,
  "ous": 1683,
  "\u2581game": 1684,
  "ko": 1685,
  "\u2581true": 1686,
  "\u2581million": 1687,
  "\u2581m\u00e1sodik": 1688,
  "\u2581jelent": 1689,
  "\u2581safety": 1690,
  "\u2581Art": 1691,
  "\u00e9be": 1692,
  "\u2581jogi": 1693,
  "\u2581amount": 1694,
  "\u2581future": 1695,
  "\u2581light": 1696,
  "ikus": 1697,
  "\u2581provides": 1698,
  "\u2581utols\u00f3": 1699,
  "\u2581management": 1700,
  "\u2581k\u00edn\u00e1l": 1701,
  "\u2581clear": 1702,
  "ral": 1703,
  "\u2581makes": 1704,
  "\u2581small": 1705,
  "gu": 1706,
  "ive": 1707,
  "ments": 1708,
  "\u2581t\u00e9nyleg": 1709,
  "n\u00e9": 1710,
  "der": 1711,
  "\u2581Have": 1712,
  "\u2581tudok": 1713,
  "\u2581Vissza": 1714,
  "\u2581Ny": 1715,
  "\u2581\u00e9r": 1716,
  "\u2581AZ": 1717,
  "ge": 1718,
  "\u2581health": 1719,
  "\u2581Tud": 1720,
  "\u2581either": 1721,
  "\u2581hal": 1722,
  "\u25813-": 1723,
  "Z": 1724,
  "\u00e1lt": 1725,
  "\u2581sz\u00e1rmaz\u00f3": 1726,
  "\u2581jog": 1727,
  "\u2581four": 1728,
  "nap": 1729,
  "\u2581Pro": 1730,
  "\u2581deal": 1731,
  "\u2581tal\u00e1l": 1732,
  "\u2581general": 1733,
  "\u2581y": 1734,
  "\u2581Ba": 1735,
  "\u2581pretty": 1736,
  "ac": 1737,
  "\u2581V\u00e1rj": 1738,
  "\u2581Will": 1739,
  "\u2581rajta": 1740,
  "\u2581fen": 1741,
  ",\"": 1742,
  "hely": 1743,
  "\u2581Take": 1744,
  "X": 1745,
  "\u2581bekezd\u00e9se": 1746,
  "\u2581check": 1747,
  "\u2581mond": 1748,
  "\u2581orsz\u00e1g": 1749,
  "\u2581Ka": 1750,
  "\u00f6r": 1751,
  "\u2581Pa": 1752,
  "\u2581Ru": 1753,
  "\u2581five": 1754,
  "\u2581legal": 1755,
  "\u2581tenni": 1756,
  "\u2581become": 1757,
  "\u2581inform\u00e1ci\u00f3k": 1758,
  "ette": 1759,
  "\u2581procedure": 1760,
  "ult": 1761,
  "\u2581sor": 1762,
  "\u2581mintha": 1763,
  "\u2581Szerintem": 1764,
  "\u2581Ott": 1765,
  "\u2581mm": 1766,
  "\u2581Jehovah": 1767,
  "\u2581international": 1768,
  "\u2581mindenki": 1769,
  "\u2581hasonl\u00f3": 1770,
  "\u2581OK": 1771,
  "ier": 1772,
  "\u2581Gar": 1773,
  "\u2581ml": 1774,
  "\u2581Her": 1775,
  "\u2581Hall": 1776,
  "\u2581air": 1777,
  "\u2581pr\u00f3b\u00e1l": 1778,
  "kar": 1779,
  "\u2581Istenem": 1780,
  "\u2581teszi": 1781,
  "\u2581Like": 1782,
  "\u2581lehet\u0151v\u00e9": 1783,
  "\u2581dose": 1784,
  "\u2581lost": 1785,
  "\u2581Pre": 1786,
  "\u2581l\u00e1tni": 1787,
  "\u2581Hell": 1788,
  "lap": 1789,
  "\u2581szolg\u00e1ltat\u00e1sok": 1790,
  "\u2581alkalmazand\u00f3": 1791,
  "\u2581t\u00f6bbi": 1792,
  "\u00e1z": 1793,
  "\u2581z": 1794,
  "fel": 1795,
  "\u2581month": 1796,
  "\u2581Our": 1797,
  "\u2581death": 1798,
  "\u2581hoz": 1799,
  "\u2581v\u00edz": 1800,
  "\u2581III": 1801,
  "\u2581pay": 1802,
  "\u2581English": 1803,
  "\u2581nek\u00fcnk": 1804,
  "j\u00e1tok": 1805,
  "\u2581senki": 1806,
  "\u2581Hogyan": 1807,
  "etek": 1808,
  "\u2581bank": 1809,
  "\u2581bar": 1810,
  "\u2581word": 1811,
  "@": 1812,
  "\u2581myself": 1813,
  "\u2581h\u00e1z": 1814,
  "\u2581Men": 1815,
  "\u2581results": 1816,
  "\u2581gone": 1817,
  "\u2581book": 1818,
  "\u2581(4)": 1819,
  "\u2581ink\u00e1bb": 1820,
  "\u2581szem": 1821,
  "\u2581megy": 1822,
  "ven": 1823,
  "\u2581city": 1824,
  "\u00e1sa": 1825,
  "\u2581wants": 1826,
  "\u2581bizotts\u00e1gi": 1827,
  "rel": 1828,
  "\u2581neve": 1829,
  "ana": 1830,
  "vo": 1831,
  "\u2581ahhoz": 1832,
  "\u2581Bal": 1833,
  "\u2581process": 1834,
  "lag": 1835,
  "\u2581Jeho": 1836,
  "\u2581l\u00e9v\u0151": 1837,
  "\u2581anyone": 1838,
  "\u2581oldal": 1839,
  "\u2581\u00e1ltal\u00e1nos": 1840,
  "\u2581ezeket": 1841,
  "\u2581Ri": 1842,
  "fer": 1843,
  "\u2581t\u00e1mogat\u00e1s": 1844,
  "ned": 1845,
  "\u2581situation": 1846,
  "ock": 1847,
  "\u2581office": 1848,
  "\u2581Sa": 1849,
  "\u2581emberi": 1850,
  "\u2581k\u00e9pes": 1851,
  "\u25812016": 1852,
  "sz\u00e1m": 1853,
  "\u2581kocsi": 1854,
  "\u2581amelyet": 1855,
  "\u2581door": 1856,
  "\u2581week": 1857,
  "\u2581action": 1858,
  "\u2581Kr": 1859,
  "\u2581gave": 1860,
  "\u2581women": 1861,
  "fa": 1862,
  "\u2581soha": 1863,
  "\u2581elj\u00e1r\u00e1s": 1864,
  "n\u00e1": 1865,
  "\u2581cut": 1866,
  "\u2581Add": 1867,
  "mal": 1868,
  "\u2581implementation": 1869,
  "\u2581\u00fcgy": 1870,
  "\u2581sose": 1871,
  "\u2581total": 1872,
  "\u2581single": 1873,
  "aszt": 1874,
  "\u2581die": 1875,
  "\u2581k\u00fcl\u00f6nleges": 1876,
  "\u2581\u00fat": 1877,
  "v\u00e1": 1878,
  "\u2581brother": 1879,
  "\u2581considered": 1880,
  "\u2581China": 1881,
  "\u2581magas": 1882,
  "\u2581bed": 1883,
  "\u2581Hagy": 1884,
  "\u2581haven": 1885,
  "\u2581costs": 1886,
  "\u2581guests": 1887,
  "\u2581example": 1888,
  "\u2581v\u00e1rosban": 1889,
  "\u2581Ennek": 1890,
  "\u2581half": 1891,
  "\u2581Ga": 1892,
  "\u2581meters": 1893,
  "ens": 1894,
  "\u2581hossz\u00fa": 1895,
  "\u2581Res": 1896,
  "\u2581turn": 1897,
  "\u2581reason": 1898,
  "\u2581jelent\u0151s": 1899,
  "\u2581thinking": 1900,
  "\u2581k\u00f6z\u00fcl": 1901,
  "\u2581kezd": 1902,
  "\u2581tesz": 1903,
  "\u2581June": 1904,
  "\u2581Du": 1905,
  "ide": 1906,
  "\u2581happy": 1907,
  "\u2581quality": 1908,
  "ika": 1909,
  "\u2581International": 1910,
  "\u2581Pe": 1911,
  "\u2581required": 1912,
  "\u2581paper": 1913,
  "hal": 1914,
  "\u2581trade": 1915,
  "\u2581research": 1916,
  "eit": 1917,
  "l\u00e1s": 1918,
  "gi": 1919,
  "\u2581child": 1920,
  "\u25811-": 1921,
  "\u2581His": 1922,
  "\u2581hurt": 1923,
  "\u2581po": 1924,
  "\u2581hat": 1925,
  "\u2581Ta": 1926,
  "\u2581amended": 1927,
  "\u258160": 1928,
  "\u2581otthon": 1929,
  "\u2581Tell": 1930,
  "\u2581authority": 1931,
  "\u2581National": 1932,
  "\u00e9z\u00e9st": 1933,
  "\u2581sz\u00e9p": 1934,
  "we": 1935,
  "ack": 1936,
  "\u2581safe": 1937,
  ":00": 1938,
  "\u2581asked": 1939,
  "\u2581Pi": 1940,
  "\u2581Centre": 1941,
  "for": 1942,
  "\u2581B\u00e1r": 1943,
  "\u2581hold": 1944,
  "Az": 1945,
  "\u2581vesz": 1946,
  "\u2581rendelkezik": 1947,
  "\u2581read": 1948,
  "\u2581miel\u0151tt": 1949,
  "\u2581Valami": 1950,
  "her": 1951,
  "\u2581established": 1952,
  "\u2581tudtam": 1953,
  "vin": 1954,
  "\u2581After": 1955,
  "\u2581bekezd\u00e9s\u00e9nek": 1956,
  "\u2581n\u00e9gy": 1957,
  "\u2581]": 1958,
  "\u2581Court": 1959,
  "\u2581helyezkedik": 1960,
  "\u2581anti": 1961,
  "\u2581weeks": 1962,
  "k\u00e9p": 1963,
  "mond": 1964,
  "\u2581Gra": 1965,
  "\u2581legnagyobb": 1966,
  "\u2581vonatkoz\u00f3an": 1967,
  "\u2581rooms": 1968,
  "\u2581neh\u00e9z": 1969,
  "\u2581janu\u00e1r": 1970,
  "\u2581East": 1971,
  "\u2581biztons\u00e1gi": 1972,
  "9": 1973,
  "\u2581telefon": 1974,
  "\u2581present": 1975,
  "\u2581Cs": 1976,
  "\u2581h\u00f3nappal": 1977,
  "\u2581thank": 1978,
  "\u2581szerepl\u0151": 1979,
  "ated": 1980,
  "tuk": 1981,
  "\u2581music": 1982,
  "\u2581Ju": 1983,
  "con": 1984,
  "\u2581file": 1985,
  "\u2581Lehet": 1986,
  "\u2581Val": 1987,
  "\u258129": 1988,
  "\u2581rendelkez\u00e9sre": 1989,
  "meg": 1990,
  "\u2581bels\u0151": 1991,
  "\u2581M\u00e1s": 1992,
  "\u2581sz\u00edv": 1993,
  "\u2581Cha": 1994,
  "\u2581happen": 1995,
  "\u00faz": 1996,
  "\u2581jelenti": 1997,
  "gar": 1998,
  "\u2581opinion": 1999,
  "ham": 2000,
  "\u2581effects": 2001,
  "\u2581l\u00e1t": 2002,
  "\u2581South": 2003,
  "mod": 2004,
  "\u2581igaz\u00e1n": 2005,
  "\u2581keret\u00e9ben": 2006,
  "\u2581main": 2007,
  "\u2581Frank": 2008,
  "\u2581Paul": 2009,
  "tad": 2010,
  "\u2581Republic": 2011,
  "he": 2012,
  "):": 2013,
  "\u00e9r\u0151l": 2014,
  "\u2581tart": 2015,
  "\u2581concerning": 2016,
  "\u2581gond": 2017,
  "\u2581Da": 2018,
  "\u00f3t": 2019,
  "\u2581r\u00e9sze": 2020,
  "\u2581Stop": 2021,
  "het\u0151": 2022,
  "\u25812009": 2023,
  "\u2581K\u00e9sz": 2024,
  "\u2581bar\u00e1t": 2025,
  "\u2581sz\u00f6veg": 2026,
  "han": 2027,
  "\u2581transport": 2028,
  "iz": 2029,
  "\u2581cases": 2030,
  "\u2581tov\u00e1bb\u00e1": 2031,
  "\u2581nyom": 2032,
  "20": 2033,
  "\u2581El\u00e9g": 2034,
  "\u2581personal": 2035,
  "king": 2036,
  "\u2581building": 2037,
  "nia": 2038,
  "\u2581terv": 2039,
  "\u2581words": 2040,
  "\u2581K\u00f6sz": 2041,
  "\u2581due": 2042,
  "\u2581helyi": 2043,
  "\u2581Journal": 2044,
  "\u2581thereof": 2045,
  "\u2581Mon": 2046,
  "\u2581Tess\u00e9k": 2047,
  "so": 2048,
  "\u2581systems": 2049,
  "\u2581szem\u00e9ly": 2050,
  "\u2581en": 2051,
  "\u2581yes": 2052,
  "\u2581fight": 2053,
  "\u2581seg\u00edt": 2054,
  "\u2581everyone": 2055,
  "\u2581Reg": 2056,
  "\u2581increase": 2057,
  "\u2581laid": 2058,
  "\u2581Mel": 2059,
  "\u2581h\u00e9t": 2060,
  "\u2581rest": 2061,
  "HL": 2062,
  "\u2581mom": 2063,
  "\u2581illet\u00e9kes": 2064,
  "\u2581=": 2065,
  "\u2581ka": 2066,
  "\u2581local": 2067,
  "\u2581u": 2068,
  "\u2581easy": 2069,
  "\u2581tudjuk": 2070,
  "\u2581l\u00e1ttam": 2071,
  "olt": 2072,
  "l\u00e1t": 2073,
  "\u00f6d": 2074,
  "ix": 2075,
  "\u2581cooperation": 2076,
  "\u2581gondoltam": 2077,
  "\u25817.": 2078,
  "qua": 2079,
  "\u2581Peter": 2080,
  "\u2581inside": 2081,
  "\u2581Kingdom": 2082,
  "\u2581state": 2083,
  "\u2581late": 2084,
  "Sz": 2085,
  "\u2581park": 2086,
  "\u2581Sir": 2087,
  "\u2581tonight": 2088,
  "\u2581fick\u00f3": 2089,
  "\u2581Min": 2090,
  "\u2581Mikor": 2091,
  "\u2581ir\u00e1nyul\u00f3": 2092,
  "\u2581started": 2093,
  "\u2581kid": 2094,
  ");": 2095,
  "\u2581March": 2096,
  "junk": 2097,
  "\u2581Pal": 2098,
  "\u2581include": 2099,
  "\u2581ideje": 2100,
  "\u2581outside": 2101,
  "\u2581injekci\u00f3": 2102,
  "\u2581areas": 2103,
  "\u2581bekezd\u00e9s": 2104,
  "les": 2105,
  "\u2581kezel\u00e9s": 2106,
  "ga": 2107,
  "\u2581Some": 2108,
  "\u2581document": 2109,
  "\u2581stuff": 2110,
  "\u2581site": 2111,
  "\u2581ker\u00fclt": 2112,
  "\u2581probably": 2113,
  "tu": 2114,
  "\u2581content": 2115,
  "\u2581K\u00e9t": 2116,
  "\u2581fire": 2117,
  "\u2581j\u00fanius": 2118,
  "\u00fclt": 2119,
  "\u2581hall": 2120,
  "huh": 2121,
  "\u2581Bank": 2122,
  "ink": 2123,
  "\u2581Ste": 2124,
  "\u2581Mint": 2125,
  "\u2581szeret": 2126,
  "\u2581Dan": 2127,
  "\u2581magyar": 2128,
  "\u25812008": 2129,
  "\u2581fegyver": 2130,
  "ft": 2131,
  "\u25812007": 2132,
  "bl": 2133,
  "\u2581Sok": 2134,
  "\u2581Ver": 2135,
  "\u2581du": 2136,
  "\u2581t\u00f6rt\u00e9nik": 2137,
  "\u2581Qu": 2138,
  "ps": 2139,
  "\u2581dad": 2140,
  "\u2581L\u00e1t": 2141,
  "term": 2142,
  "\u2581tette": 2143,
  "\u2581comes": 2144,
  "\u2581amennyiben": 2145,
  "\u2581Ke": 2146,
  "\u2581programme": 2147,
  "\u2581Un": 2148,
  "tud": 2149,
  "\u2581project": 2150,
  "\u2581beautiful": 2151,
  "\u2581eyes": 2152,
  "\u2581szer": 2153,
  "\u2581rate": 2154,
  "ium": 2155,
  "\u2581experience": 2156,
  "\u2581ismert": 2157,
  "\u2581near": 2158,
  "csi": 2159,
  "port": 2160,
  "\u2581hat\u00f3s\u00e1gok": 2161,
  "\u2581m\u00edg": 2162,
  "\u2581effect": 2163,
  "\u2581address": 2164,
  "\u25812-": 2165,
  "\u2581Really": 2166,
  "ors": 2167,
  "\u2581adopted": 2168,
  "\u2581Magyar": 2169,
  "\u2581knows": 2170,
  "\u2581exactly": 2171,
  "vagy": 2172,
  "\u2581\u00daj": 2173,
  "\u2581competent": 2174,
  "\u2581meeting": 2175,
  "\u2581January": 2176,
  "\u2581fel\u00e9": 2177,
  "\u2581hands": 2178,
  "\u00edr": 2179,
  "\u2581Col": 2180,
  "\u2581serious": 2181,
  "\u2581tomorrow": 2182,
  "\u2581sector": 2183,
  "\u2581Figyelj": 2184,
  "\u2581kids": 2185,
  "\u2581k\u00f6rny\u00e9k": 2186,
  "atok": 2187,
  "oc": 2188,
  "\u2581Mom": 2189,
  "\u2581csapat": 2190,
  "zz": 2191,
  "\u2581base": 2192,
  "\u2581\u00f6t": 2193,
  "\u2581Mus": 2194,
  "\u2581technical": 2195,
  "ney": 2196,
  "\u2581export": 2197,
  "\u2581sent": 2198,
  "90": 2199,
  "\u2581Ca": 2200,
  "\u25814-": 2201,
  "OJ": 2202,
  "11": 2203,
  "gel": 2204,
  "\u258110.": 2205,
  "\u2581err\u0151l": 2206,
  "From": 2207,
  "ax": 2208,
  "\u00e1ny": 2209,
  "mel": 2210,
  "\u2581needed": 2211,
  "\u2581police": 2212,
  "\u2581result": 2213,
  "\u2581nekik": 2214,
  "\u2581chance": 2215,
  "\u2581r\u00e9gi": 2216,
  "\u2581Cor": 2217,
  "\u2581Mu": 2218,
  "\u2581offer": 2219,
  "\u2581though": 2220,
  "\u2581Via": 2221,
  "12": 2222,
  "\u2581TV": 2223,
  "\u2581supposed": 2224,
  "\u2581gy": 2225,
  "\u2581Dad": 2226,
  "dom": 2227,
  "\u00f6tt": 2228,
  "\u2581Mag": 2229,
  "\u2581listen": 2230,
  "\u2581worry": 2231,
  "\u2581vizsg\u00e1lat": 2232,
  "\u2581ter\u00fclet\u00e9n": 2233,
  "gt": 2234,
  "gat": 2235,
  "\u2581Italy": 2236,
  "ash": 2237,
  "ran": 2238,
  "\u2581akarja": 2239,
  "l\u0151": 2240,
  "\u2581el\u0151\u00edrt": 2241,
  "\u2581age": 2242,
  "lt": 2243,
  "\u2581csal\u00e1d": 2244,
  "\u2581civil": 2245,
  "\u2581Charl": 2246,
  "\u2581July": 2247,
  "\u2581request": 2248,
  "\u2581\u00e9ve": 2249,
  "\u2581c\u00e9l": 2250,
  "\u2581related": 2251,
  "\u2581\u00e9rted": 2252,
  "szk": 2253,
  "\u2581b\u00e1r": 2254,
  "\u2581lehets\u00e9ges": 2255,
  "\u2581brought": 2256,
  "\u2581200": 2257,
  "\u2581Eln": 2258,
  "\u2581David": 2259,
  "\u2581arc": 2260,
  "\u25812006": 2261,
  "szt": 2262,
  "elem": 2263,
  "\u2581volt\u00e1l": 2264,
  "\u2581\u00f3ra": 2265,
  "\u2581h\u00edr": 2266,
  "usz": 2267,
  "\u2581v\u00e9ge": 2268,
  "\u2581wish": 2269,
  "\u2581Magyarorsz\u00e1g": 2270,
  "\u2581v\u00e9gzett": 2271,
  "\u2581eln\u00f6k": 2272,
  "\u2581vett": 2273,
  "\u2581minute": 2274,
  "\u2581Nekem": 2275,
  "\u00e1j": 2276,
  "\u2581field": 2277,
  "met": 2278,
  "\u2581Parlament": 2279,
  "\u2581eat": 2280,
  "ert": 2281,
  "\u2581October": 2282,
  "\u2581shot": 2283,
  "\u2581enter": 2284,
  "\u2581living": 2285,
  "\u2581position": 2286,
  "*": 2287,
  "ting": 2288,
  "\u2581contact": 2289,
  "\u2581Teh\u00e1t": 2290,
  "\u2581000": 2291,
  "\u00e9g": 2292,
  "\u2581truth": 2293,
  "\u2581town": 2294,
  "\u2581front": 2295,
  "\u2581dolgok": 2296,
  "\u2581alap": 2297,
  "\u2581past": 2298,
  "see": 2299,
  "\u2581Museum": 2300,
  "szem": 2301,
  "\u2581k\u00f6z": 2302,
  "\u2581industry": 2303,
  "har": 2304,
  "n\u00e9z": 2305,
  "\u2581weight": 2306,
  "\u2581Ed": 2307,
  "\u258190": 2308,
  "\u2581fun": 2309,
  "\u2581Listen": 2310,
  "\u2581k\u00f6zvetlen\u00fcl": 2311,
  "\u2581Je": 2312,
  "\u2581story": 2313,
  "tro": 2314,
  "\u2581war": 2315,
  "\u00edt\u00f3": 2316,
  "\u2581gyermek": 2317,
  "\u2581sokkal": 2318,
  "au": 2319,
  "\u2581Michael": 2320,
  "\u2581key": 2321,
  "\u2581\u00e9rtelm\u00e9ben": 2322,
  "\u2581ro": 2323,
  "j\u00e1nak": 2324,
  "\u2581biztos\u00edt": 2325,
  "\u2581\u00e1llami": 2326,
  "\u2581megyek": 2327,
  "\u2581members": 2328,
  "\u2581language": 2329,
  "\u2581others": 2330,
  "\u00e1sz": 2331,
  "\u2581egyed\u00fcl": 2332,
  "\u2581Ah": 2333,
  "\u2581al\u00e1bbi": 2334,
  "\u2581akarod": 2335,
  "\u2581standard": 2336,
  "ite": 2337,
  "\u2581Bra": 2338,
  "\u2581besz\u00e9lni": 2339,
  "\u2581according": 2340,
  "\u2581modern": 2341,
  "\u2581kor": 2342,
  "\u2581dolgoz": 2343,
  "\u2581study": 2344,
  "\u2581fogok": 2345,
  "\u2581goods": 2346,
  "\u2581behind": 2347,
  "\u2581fej": 2348,
  "\u25818.": 2349,
  "\u2581looks": 2350,
  "\u2581\u00fczlet": 2351,
  "\u2581fi\u00fa": 2352,
  "\u2581igazi": 2353,
  "ocs": 2354,
  "fe": 2355,
  "ser": 2356,
  "\u00f6g": 2357,
  "\u2581moment": 2358,
  "\u2581bekezd\u00e9s\u00e9ben": 2359,
  "\u2581final": 2360,
  "\u2581prices": 2361,
  "\u2581con": 2362,
  "25": 2363,
  "cer": 2364,
  "m\u00e9ny": 2365,
  "\u2581amelyeket": 2366,
  "\u2581haj\u00f3": 2367,
  "\u2581ismer": 2368,
  "ene": 2369,
  "\u2581orvos": 2370,
  "\u2581Give": 2371,
  "\u2581team": 2372,
  "\u2581gy\u00f3gyszer": 2373,
  "\u2581napon": 2374,
  "\u2581menni": 2375,
  "\u2581piaci": 2376,
  "\u2581energia": 2377,
  "\u2581Menj": 2378,
  "\u2581annyira": 2379,
  "ad\u00f3": 2380,
  "\u2581Amennyiben": 2381,
  "\u2581War": 2382,
  "\u2581Mindenki": 2383,
  "\u2581gyorsan": 2384,
  "\u2581\u00e9rdekel": 2385,
  "\u2581longer": 2386,
  "15": 2387,
  "\u2581K\u00e9rem": 2388,
  "\u2581m\u00e9rt\u00e9kben": 2389,
  "\u2581Jim": 2390,
  "tin": 2391,
  "\u2581natural": 2392,
  "\u2581reference": 2393,
  "\u00e1lis": 2394,
  "\u2581host": 2395,
  "\u2581EGSZB": 2396,
  "\u25812018.": 2397,
  "17": 2398,
  "\u2581news": 2399,
  "\u2581directly": 2400,
  "\u2581el\u0151re": 2401,
  "\u2581csin\u00e1lsz": 2402,
  "\u2581six": 2403,
  "\u2581sz\u00f3val": 2404,
  "\u2581bele\u00e9rtve": 2405,
  "\u2581World": 2406,
  "\u2581Bu": 2407,
  "\u2581airport": 2408,
  "mon": 2409,
  "\u2581ingatlan": 2410,
  "j\u00e1n": 2411,
  "\u2581Grand": 2412,
  "\u2581Keres": 2413,
  "\u2581venni": 2414,
  "ait": 2415,
  "\u2581es": 2416,
  "\u2581Bel": 2417,
  "\u2581current": 2418,
  "\u2581sincs": 2419,
  "\u2581Mivel": 2420,
  "\u2581sleep": 2421,
  "v\u00e1r": 2422,
  "\u2581upon": 2423,
  "che": 2424,
  "ng": 2425,
  "0": 2426,
  "\u2581\u00c1": 2427,
  "csak": 2428,
  "mar": 2429,
  "\u2581k\u00f6nyv": 2430,
  "\u2581Per": 2431,
  "\u2581t\u00f6bbet": 2432,
  "\u2581problems": 2433,
  "\u2581meg\u00f6l": 2434,
  "\u2581maximum": 2435,
  "\u2581low": 2436,
  "\u2581Sch": 2437,
  "\u2581leszek": 2438,
  "\u2581page": 2439,
  "\u2581kg": 2440,
  "\u2581jelen": 2441,
  "\u2581web": 2442,
  "U": 2443,
  "\u2581Nothing": 2444,
  "\u2581inform\u00e1ci\u00f3": 2445,
  "zel": 2446,
  "\u2581politikai": 2447,
  "\u2581Fe": 2448,
  "\u2581Whereas": 2449,
  "\u2581rendelkez\u0151": 2450,
  "\u2581okt\u00f3ber": 2451,
  "\u2581f\u00f6ld": 2452,
  "\u2581kar": 2453,
  "\u2581felt\u00e9telek": 2454,
  "zon": 2455,
  "\u2581levels": 2456,
  "\u2581bor": 2457,
  "\u258180": 2458,
  "hen": 2459,
  "\u2581\u00d6": 2460,
  "\u2581sz\u00e1m": 2461,
  "\u2581persze": 2462,
  "\u2581works": 2463,
  "\u2581sp": 2464,
  "\u2581watch": 2465,
  "\u2581additional": 2466,
  "\u2581ny\u00fajtott": 2467,
  "\u2581szemben": 2468,
  "\u2581Kir\u00e1lys\u00e1g": 2469,
  "\u2581Az\u00e9rt": 2470,
  "\u2581tudni": 2471,
  "\u2581j\u00falius": 2472,
  "\u2581companies": 2473,
  "\u2581addition": 2474,
  "had": 2475,
  "\u2581crazy": 2476,
  "\u2581trust": 2477,
  "ru": 2478,
  "\u2581menj": 2479,
  "\u2581framework": 2480,
  "pi": 2481,
  "aw": 2482,
  "\u2581short": 2483,
  "\u2581F\u0151": 2484,
  "z\u00e1s": 2485,
  "\u25819.": 2486,
  "\u2581Ami": 2487,
  "\u2581Pl": 2488,
  "01": 2489,
  "\u2581szolg\u00e1l\u00f3": 2490,
  "\u2581establishing": 2491,
  "\u2581Ar": 2492,
  "\u2581AND": 2493,
  "\u2581code": 2494,
  "use": 2495,
  "\u2581egyet": 2496,
  "\u2581gondol": 2497,
  "=": 2498,
  "\u2581bo": 2499,
  "\u2581Other": 2500,
  "\u2581almost": 2501,
  "\u2581Shi": 2502,
  "About": 2503,
  "\u2581evidence": 2504,
  "\u2581class": 2505,
  "\u2581import": 2506,
  "\u2581purpose": 2507,
  "\u2581agreement": 2508,
  "\u2581K\u00e9rlek": 2509,
  "\u2581Fi": 2510,
  "\u2581egy\u00fcttm\u0171k\u00f6d\u00e9s": 2511,
  "In": 2512,
  "\u2581mondom": 2513,
  "\u2581drink": 2514,
  "\u2581anya": 2515,
  "\u2581drive": 2516,
  "\u2581Tri": 2517,
  "ts": 2518,
  "\u2581alkalmazni": 2519,
  "\u2581partner": 2520,
  "\u2581remek": 2521,
  "\u2581haszn\u00e1lt": 2522,
  "ip": 2523,
  "\u2581sz\u00e1m\u00edt": 2524,
  "\u2581section": 2525,
  "\u2581proposal": 2526,
  "\u2581active": 2527,
  "\u2581Acc": 2528,
  "\u2581Szer": 2529,
  "nes": 2530,
  "ku": 2531,
  "\u2581General": 2532,
  "\u2581land": 2533,
  "gen": 2534,
  "\u2581husband": 2535,
  "\u2581gyors": 2536,
  "t\u00fck": 2537,
  "hatja": 2538,
  "\u2581daughter": 2539,
  "if": 2540,
  "wood": 2541,
  "\u2581training": 2542,
  "gr": 2543,
  "\u00e1st": 2544,
  "\u2581sound": 2545,
  "\u2581assessment": 2546,
  "\u00e9se": 2547,
  "\u2581material": 2548,
  "und": 2549,
  "\u2581Red": 2550,
  "\u2581hair": 2551,
  "szik": 2552,
  "\u2581Part": 2553,
  "s\u00e9gek": 2554,
  "\u2581carried": 2555,
  "\u2581gets": 2556,
  "ella": 2557,
  "\u2581break": 2558,
  "ab": 2559,
  "\u2581\u00f6tlet": 2560,
  "\u00f6t": 2561,
  "\u2581li": 2562,
  "ure": 2563,
  "\u2581kapcsol\u00f3d\u00f3": 2564,
  "\u2581verseny": 2565,
  "ES": 2566,
  "\u2581send": 2567,
  "\u2581September": 2568,
  "\u2581\u00dar": 2569,
  "\u2581couple": 2570,
  "\u25812010": 2571,
  "cc": 2572,
  "\u2581k\u00f6vet\u0151": 2573,
  "\u2581along": 2574,
  "\u2581Besz\u00e9l": 2575,
  "\u25812014": 2576,
  "\u2581individual": 2577,
  "\u2581\u00e9rte": 2578,
  "\u2581share": 2579,
  "\u2581box": 2580,
  "\u2581projekt": 2581,
  "\u25812013": 2582,
  "\u2581m\u00e1rcius": 2583,
  "\u2581int\u00e9zked\u00e9seket": 2584,
  "\u2581haszn\u00e1l": 2585,
  "\u2581Win": 2586,
  "\u2581questions": 2587,
  "ren": 2588,
  "\u2581lehet\u0151s\u00e9g": 2589,
  "\u2581terms": 2590,
  "\u2581k\u00e9sz\u00fclt": 2591,
  "\u2581c\u00e9lj\u00e1b\u00f3l": 2592,
  "\u2581Cas": 2593,
  "\u2581persons": 2594,
  "\u2581private": 2595,
  "\u2581points": 2596,
  "\u2581r\u00e1d": 2597,
  "\u2581sex": 2598,
  "erry": 2599,
  "\u2581v\u00e1lt": 2600,
  "\u2581Em": 2601,
  "\u2581el\u0151sz\u00f6r": 2602,
  "\u25812012": 2603,
  "\u25812005": 2604,
  "del": 2605,
  "\u2581events": 2606,
  "\u2581act": 2607,
  "\u2581Cal": 2608,
  "any": 2609,
  "\u2581post": 2610,
  "\u2581pl": 2611,
  "\u2581Uram": 2612,
  "\u2581cost": 2613,
  "\u2581[1]": 2614,
  "\u2581k\u00e9rd\u00e9s": 2615,
  "eng": 2616,
  "\u2581p\u00e9nzt": 2617,
  "14": 2618,
  "ino": 2619,
  "\u2581answer": 2620,
  "szel": 2621,
  "\u2581fogom": 2622,
  "\u2581sz\u00e1mos": 2623,
  "\u2581Great": 2624,
  "\u2581effective": 2625,
  "\u2581szab\u00e1lyok": 2626,
  "\u2581Olaszorsz\u00e1g": 2627,
  "\u2581megtal\u00e1l": 2628,
  "\u2581speak": 2629,
  "\u2581500": 2630,
  "\u2581George": 2631,
  "\u2581tartalmaz": 2632,
  "j\u00f6tt": 2633,
  "\u2581na": 2634,
  "\u2581procedures": 2635,
  "\u2581Tudja": 2636,
  "!\"": 2637,
  "\u2581reggel": 2638,
  "\u2581November": 2639,
  "\u2581video": 2640,
  "\u2581tax": 2641,
  "\u2581pan": 2642,
  "\u2581equipment": 2643,
  "\u2581v\u00e9grehajt\u00e1si": 2644,
  "\u2581cover": 2645,
  "\u2581ny\u00fajt": 2646,
  "\u2581csoport": 2647,
  "\u2581k\u00e9s\u0151bb": 2648,
  "v\u00e1ros": 2649,
  "\u2581April": 2650,
  "\u258145": 2651,
  "\u2581jelent\u00e9s": 2652,
  "\u25812004": 2653,
  "\u2581fiatal": 2654,
  "\u00e9m": 2655,
  "ning": 2656,
  "\u2581Ok": 2657,
  "\u2581\u00fcl": 2658,
  "\u2581Ol": 2659,
  "xcuse": 2660,
  "\u2581\u00e9g": 2661,
  "\u2581k\u00e9rem": 2662,
  "\u2581r\u00e9sz": 2663,
  "\u2581id\u0151szak": 2664,
  "\u2581sajn\u00e1lom": 2665,
  "ten": 2666,
  "\u2581nyelv": 2667,
  "\u2581minimum": 2668,
  "1/": 2669,
  "\u2581Azt\u00e1n": 2670,
  "\u2581mell\u00e9klet": 2671,
  "\u00e1ll": 2672,
  "\u2581kereskedelmi": 2673,
  "\u2581Ko": 2674,
  "\u2581quite": 2675,
  "\u2581Any": 2676,
  "\u2581increased": 2677,
  "\u2581c\u00e9lja": 2678,
  "\u2581v\u00e9gre": 2679,
  "\u2581\u00fczleti": 2680,
  "room": 2681,
  "\u2581lose": 2682,
  "omat": 2683,
  "\u2581mez\u0151gazdas\u00e1gi": 2684,
  "\u25812011": 2685,
  "yn": 2686,
  "art": 2687,
  "\u2581\u00fcgyn\u00f6k": 2688,
  "\u2581eszk\u00f6z": 2689,
  "\u2581alkalmaz\u00e1sa": 2690,
  "less": 2691,
  "\u2581district": 2692,
  "\u2581Joe": 2693,
  "\u2581k\u00f6zponti": 2694,
  "\u2581sz\u00e1llod\u00e1": 2695,
  "r\u00e9": 2696,
  "\u258135": 2697,
  "emet": 2698,
  "\u2581High": 2699,
  "\u2581parlamenti": 2700,
  "zen": 2701,
  "sen": 2702,
  "nt": 2703,
  "\u2581received": 2704,
  "\u2581Senki": 2705,
  "\u2581similar": 2706,
  "\u2581Jane": 2707,
  "\u2581amelynek": 2708,
  "\u2581Eur\u00f3pa": 2709,
  "\u2581animal": 2710,
  "\u2581Am": 2711,
  "lik": 2712,
  "\u2581basic": 2713,
  "\u2581szeretn\u00e9m": 2714,
  "\u2581azonnal": 2715,
  "\u2581Center": 2716,
  "\u2581300": 2717,
  "\u2581died": 2718,
  "\u2581k\u00e9r": 2719,
  "\u2581covered": 2720,
  "\u2581hot": 2721,
  "\u2581responsible": 2722,
  "rd": 2723,
  "\u2581csin\u00e1lni": 2724,
  "\u2581tried": 2725,
  "\u2581hi": 2726,
  "\u2581impact": 2727,
  "\u2581among": 2728,
  "ight": 2729,
  "\u2581goes": 2730,
  "\u2581Gal": 2731,
  "\u2581tehet": 2732,
  "\u2581animals": 2733,
  "kap": 2734,
  "dam": 2735,
  "\u2581szeptember": 2736,
  "ys": 2737,
  "\u2581below": 2738,
  "\u2581features": 2739,
  "\u2581j": 2740,
  "\u2581Chi": 2741,
  "\u2581budget": 2742,
  "\u2581kapott": 2743,
  "\u2581Pan": 2744,
  "\u2581sense": 2745,
  "\u2581\u00c9": 2746,
  "\u2581hate": 2747,
  "\u2581large": 2748,
  "\u2581Franc": 2749,
  "\u2581akit": 2750,
  "\u2581sweet": 2751,
  "ye": 2752,
  "\u2581eszk\u00f6z\u00f6k": 2753,
  "\u2581b\u0151r": 2754,
  "log": 2755,
  "pu": 2756,
  "\u2581kapcsolat": 2757,
  "\u2581\u00c1t": 2758,
  "\u2581Sz\u00e9p": 2759,
  "ber": 2760,
  "\u2581Does": 2761,
  "friend": 2762,
  "\u2581k\u00fcl\u00f6n": 2763,
  "\u2581H\u00edr": 2764,
  "\u2581Kap": 2765,
  "\u2581agy": 2766,
  "\u2581hozott": 2767,
  "\u0151k": 2768,
  "\u2581\u00e9p\u00fclet": 2769,
  "lf": 2770,
  "\u2581lead": 2771,
  "\u2581continue": 2772,
  "ice": 2773,
  "04": 2774,
  "ska": 2775,
  "\u2581h\u00fcly": 2776,
  "\u2581m\u0171": 2777,
  "13": 2778,
  "j\u00e1ban": 2779,
  "\u2581pain": 2780,
  "\u2581Szent": 2781,
  "\u2581\u00e1llam": 2782,
  "\u25812015": 2783,
  "el\u0151": 2784,
  "\u2581stand": 2785,
  "\u2581Ezen": 2786,
  "\u2581alkalmazott": 2787,
  "\u2581sokat": 2788,
  "alma": 2789,
  "\u2581parents": 2790,
  "\u2581often": 2791,
  "\u2581Germany": 2792,
  "\u00e1cs": 2793,
  "\u2581top": 2794,
  "\u2581Micsoda": 2795,
  "\u2581waiting": 2796,
  "\u2581euro": 2797,
  "\u2581m\u00e9gis": 2798,
  "\u2581issue": 2799,
  "ria": 2800,
  "\u2581Luc": 2801,
  "\u2581himself": 2802,
  "\u2581history": 2803,
  "\u2581\u00f6reg": 2804,
  "\u2581Star": 2805,
  "\u2581purposes": 2806,
  "ism": 2807,
  "\u2581akarta": 2808,
  "\u2581orsz\u00e1gok": 2809,
  "\u2581several": 2810,
  "\u2581angol": 2811,
  "\u2581bu": 2812,
  "24": 2813,
  "\u2581Ph": 2814,
  "\u2581akart": 2815,
  "ev": 2816,
  "\u2581mine": 2817,
  "\u2581Ugyan": 2818,
  "\u2581szeretn\u00e9k": 2819,
  "\u2581website": 2820,
  "\u2581choice": 2821,
  "\u2581abba": 2822,
  "ck": 2823,
  "jen": 2824,
  "\u2581\u00e9l\u0151": 2825,
  "\u2581gas": 2826,
  "\u2581Christ": 2827,
  "\u2581buy": 2828,
  "\u2581afraid": 2829,
  "\u2581France": 2830,
  "\u00fct": 2831,
  "\u2581fognak": 2832,
  "\u2581korm\u00e1ny": 2833,
  "\u2581involved": 2834,
  "\u2581credit": 2835,
  "\u2581t\u00e1rsadalmi": 2836,
  "\u2581v\u00e1laszt\u00e1s": 2837,
  "tic": 2838,
  "pt": 2839,
  "\u2581szervezet": 2840,
  "\u2581\u00c9rdekes": 2841,
  "\u2581Dam": 2842,
  "ane": 2843,
  "\u2581kedves": 2844,
  "\u2581save": 2845,
  "\u2581lives": 2846,
  "\u2581sit": 2847,
  "\u258136": 2848,
  "\u258132": 2849,
  "\u2581Lisbon": 2850,
  "rin": 2851,
  "\u2581investment": 2852,
  "\u2581Spain": 2853,
  "\u2581Um": 2854,
  "\u2581Kat": 2855,
  "\u2581kir\u00e1ly": 2856,
  "\u2581Mond": 2857,
  "\u2581legfeljebb": 2858,
  "gli": 2859,
  "\u2581Would": 2860,
  "\u2581melyek": 2861,
  "\u2581Lord": 2862,
  "\u2581anymore": 2863,
  "\u2581transfer": 2864,
  "\u2581News": 2865,
  "\u2581Max": 2866,
  "fej": 2867,
  "\u2581T\u00fal": 2868,
  "\u2581Bas": 2869,
  "05": 2870,
  "\u2581white": 2871,
  "\u00edt\u00e1s": 2872,
  "l\u00e1sd": 2873,
  "\u2581follow": 2874,
  "ef": 2875,
  "\u2581storage": 2876,
  "\u2581g\u00e9p": 2877,
  "\u2581resources": 2878,
  "\u2581feh\u00e9r": 2879,
  "\u2581sub": 2880,
  "\u2581fiam": 2881,
  "\u2581N\u00e9zz": 2882,
  "\u2581elleni": 2883,
  "\u2581sz\u00edv\u00e9ben": 2884,
  "chi": 2885,
  "ski": 2886,
  "\u2581protect": 2887,
  "\u2581Mer": 2888,
  "nel": 2889,
  "\u2581inter": 2890,
  "zza": 2891,
  "eink": 2892,
  "\u2581felel\u0151s": 2893,
  "net": 2894,
  "\u2581egyedi": 2895,
  "\u00fcd": 2896,
  "\u2581\u0151k": 2897,
  "\u2581hal\u00e1l": 2898,
  "ol\u00e1s": 2899,
  "\u2581lennie": 2900,
  "\u2581studies": 2901,
  "\u2581.\"": 2902,
  "\u2581lak\u00e1s": 2903,
  "\u2581ter\u00fclet": 2904,
  "\u00fcket": 2905,
  "\u2581return": 2906,
  "\u2581s\u00falyos": 2907,
  "\u2581included": 2908,
  "\u2581szem\u00e9lyes": 2909,
  "\u2581vehicle": 2910,
  "\u2581Two": 2911,
  "\u2581sz\u00edn": 2912,
  "\u2581k\u00f6telez\u0151": 2913,
  "\u2581k\u00f6zpont": 2914,
  "\u2581fogsz": 2915,
  "\u00e9ly": 2916,
  "\u2581Op": 2917,
  "\u2581normal": 2918,
  "lon": 2919,
  "\u2581Air": 2920,
  "\u2581t\u00e9r": 2921,
  "len": 2922,
  "19": 2923,
  "\u2581changes": 2924,
  "\u2581ver": 2925,
  "\u2581paid": 2926,
  "\u2581att\u00f3l": 2927,
  "eu": 2928,
  "\u2581containing": 2929,
  "\u2581black": 2930,
  "\u2581telling": 2931,
  "\u2581married": 2932,
  "\u2581entry": 2933,
  "\u2581eml\u00e9k": 2934,
  "\u2581\u00e1llat": 2935,
  "\u2581review": 2936,
  "\u2581k\u00e9rdez": 2937,
  "\u2581szoci\u00e1lis": 2938,
  "\u2581kicsi": 2939,
  "\u2581size": 2940,
  "\u2581\u00e9rt\u00e9k": 2941,
  "40": 2942,
  "\u2581tudsz": 2943,
  "\u2581gun": 2944,
  "cikk": 2945,
  "\u2581Free": 2946,
  "szi": 2947,
  "\u2581table": 2948,
  "\u2581mag\u00e1nak": 2949,
  "g\u00f3": 2950,
  "\u2581solution": 2951,
  "que": 2952,
  "\u2581tudta": 2953,
  "\u2581TO": 2954,
  "\u2581Sure": 2955,
  "\u2581el\u00e9rhet\u0151": 2956,
  "\u2581b\u00e1rmely": 2957,
  "\u2581hat\u00f3s\u00e1g": 2958,
  "\u2581government": 2959,
  "ast": 2960,
  "\u2581holnap": 2961,
  "000": 2962,
  "r\u00f3": 2963,
  "\u2581r\u00f6vid": 2964,
  "\u2581gyerekek": 2965,
  "\u2581szerz\u0151d\u00e9s": 2966,
  "\u2581november": 2967,
  "\u2581r\u00e9v\u00e9n": 2968,
  "\u2581enged\u00e9ly": 2969,
  "\u2581girls": 2970,
  "\u2581perfect": 2971,
  "\u2581granted": 2972,
  "\u2581institutions": 2973,
  "\u2581jelenlegi": 2974,
  "\u2581\u00e9vben": 2975,
  "fel\u00e9": 2976,
  "\u2581\u00e9rzem": 2977,
  "z\u00f3": 2978,
  "\u2581m\u00e1jus": 2979,
  "n\u00e1m": 2980,
  "mit": 2981,
  "\u2581tag\u00e1llamban": 2982,
  "75": 2983,
  "pp": 2984,
  "80": 2985,
  "\u2581trouble": 2986,
  "\u2581\u20ac": 2987,
  "var": 2988,
  "\u2581c\u00e9g": 2989,
  "\u2581k\u00fcld": 2990,
  "col": 2991,
  "\u2581double": 2992,
  "\u2581potential": 2993,
  "\u00e1tok": 2994,
  "\u2581early": 2995,
  "\u2581Internet": 2996,
  "\u2581\u00e9pp": 2997,
  "wa": 2998,
  "okra": 2999,
  "\u2581\u00edr": 3000,
  "\u2581pillanat": 3001,
  "\u25812006.": 3002,
  "\u258170": 3003,
  "\u258111.": 3004,
  "\u2581Bible": 3005,
  "rt": 3006,
  "\u2581capital": 3007,
  "\u2581cross": 3008,
  "\u2581Even": 3009,
  "ind": 3010,
  "\u00e9tek": 3011,
  "\u2581f\u00e1jl": 3012,
  "zni": 3013,
  "\u2581piac": 3014,
  "\u2581\u00e9rt": 3015,
  "enter": 3016,
  "\u2581event": 3017,
  "\u2581igazs\u00e1g": 3018,
  "\u2581parties": 3019,
  "\u2581performance": 3020,
  "\u2581Er": 3021,
  "\u2581motor": 3022,
  "nya": 3023,
  "cces": 3024,
  "einek": 3025,
  "ction": 3026,
  "\u2581First": 3027,
  "off": 3028,
  "\u2581takes": 3029,
  "\u2581legislation": 3030,
  "\u2581added": 3031,
  "rs": 3032,
  "\u2581halott": 3033,
  "\u2581Ni": 3034,
  "ations": 3035,
  "\u2581Mik": 3036,
  "\u2581Ter": 3037,
  "\u2581m\u00falt": 3038,
  "\u2581role": 3039,
  "\u2581replaced": 3040,
  "\u2581Ismer": 3041,
  "\u00fat": 3042,
  "uff": 3043,
  "\u2581Th": 3044,
  "\u2581standards": 3045,
  "\u2581VI": 3046,
  "\u2581Volt": 3047,
  "\u2581t\u00f6rv\u00e9ny": 3048,
  "\u2581egyre": 3049,
  "%": 3050,
  "ol\u00f3": 3051,
  "\u2581r\u00e9sz\u00e9re": 3052,
  "\u2581pontosan": 3053,
  "\u2581ap\u00e1m": 3054,
  "ux": 3055,
  "\u2581capacity": 3056,
  "45": 3057,
  "\u2581road": 3058,
  "oly": 3059,
  "\u2581k\u00f6sz\u00f6n\u00f6m": 3060,
  "\u2581disease": 3061,
  "\u2581Leg": 3062,
  "\u2581Ahogy": 3063,
  "\u2581ben": 3064,
  "\u2581operation": 3065,
  "\u2581Spanyolorsz\u00e1g": 3066,
  "\u2581pick": 3067,
  "\u2581higher": 3068,
  "lu": 3069,
  "ew": 3070,
  "\u2581significant": 3071,
  "ally": 3072,
  "\u2581dolgot": 3073,
  "ad\u00e1s": 3074,
  "\u2581Mary": 3075,
  "yan": 3076,
  "\u258148": 3077,
  "\u2581El\u0151": 3078,
  "\u2581running": 3079,
  "\u2581bar\u00e1tom": 3080,
  "beli": 3081,
  "\u2581lie": 3082,
  "\u2581t\u00edpusa": 3083,
  "ros": 3084,
  "ont": 3085,
  "\u2581Sha": 3086,
  "\u2581t\u00f6bb\u00e9": 3087,
  "\u2581lap": 3088,
  "\u2581\u00e1gy": 3089,
  "\u2581hour": 3090,
  "burg": 3091,
  "\u2581Berlin": 3092,
  "\u2581nature": 3093,
  "\u2581er\u0151s": 3094,
  "\u2581seems": 3095,
  "\u2581text": 3096,
  "\u2581criteria": 3097,
  "tion": 3098,
  "\u2581sister": 3099,
  "\u2581independent": 3100,
  "ij": 3101,
  "\u2581IV": 3102,
  "\u2581waste": 3103,
  "\u2581center": 3104,
  "\u2581environment": 3105,
  "\u00far": 3106,
  "\u2581step": 3107,
  "\u2581James": 3108,
  "\u2581kieg\u00e9sz\u00edt\u0151": 3109,
  "\u2581strong": 3110,
  "\u2581cause": 3111,
  "\u2581whatever": 3112,
  "\u2581Fa": 3113,
  "\u2581major": 3114,
  "elt": 3115,
  "ath": 3116,
  "\u2581pap\u00edr": 3117,
  "\u2581teh\u00e1t": 3118,
  "\u2581Brussels": 3119,
  "\u2581k\u00f6vetkez\u0151k": 3120,
  "lam": 3121,
  "\u2581Mc": 3122,
  "\u2581apa": 3123,
  "You": 3124,
  "qui": 3125,
  "\u2581pursuan": 3126,
  "\u258112.": 3127,
  "\u2581szolg\u00e1ltat\u00e1s": 3128,
  "\u25812007.": 3129,
  "\u2581allow": 3130,
  "\u2581bel\u0151le": 3131,
  "\u2581growth": 3132,
  "\u2581America": 3133,
  "\u2581Ku": 3134,
  "EL": 3135,
  "\u2581reported": 3136,
  "\u2581Search": 3137,
  "\u2581competition": 3138,
  "\u2581forget": 3139,
  "las": 3140,
  "\u2581alapvet\u0151": 3141,
  "\u2581meghalt": 3142,
  "\u2581mo": 3143,
  "\u2581Which": 3144,
  "\u00edt\u0151": 3145,
  "\u2581$": 3146,
  "ord": 3147,
  "ukat": 3148,
  "franc": 3149,
  "\u2581szinten": 3150,
  "\u2581Beijing": 3151,
  "\u2581political": 3152,
  "\u258133": 3153,
  "iszt": 3154,
  "\u2581(5)": 3155,
  "\u2581v\u00e1laszt": 3156,
  "\u2581Sea": 3157,
  "\u2581fi": 3158,
  "\u2581l\u00e1tta": 3159,
  "cy": 3160,
  "av": 3161,
  "EN": 3162,
  "bal": 3163,
  "\u2581f\u0151n\u00f6k": 3164,
  "lay": 3165,
  "\u2581Hadd": 3166,
  "ique": 3167,
  "\u25812009.": 3168,
  "\u2581dog": 3169,
  "\u2581\u00e1prilis": 3170,
  "\u2581feeling": 3171,
  "\u2581egys\u00e9ges": 3172,
  "36": 3173,
  "\u2581m\u00f3dos\u00edtott": 3174,
  "\u2581term\u00e9szetes": 3175,
  "\u2581Kon": 3176,
  "\u2581kor\u00e1bban": 3177,
  "\u2581Log": 3178,
  "\u2581pontja": 3179,
  "\u2581darab": 3180,
  "\u2581alive": 3181,
  "\u2581kiv\u00e9tel\u00e9vel": 3182,
  "\u2581cool": 3183,
  "\u2581YOU": 3184,
  "\u2581HU": 3185,
  "\u2581activity": 3186,
  "\u25812008.": 3187,
  "cker": 3188,
  "\u2581n\u0151k": 3189,
  "\u2581\u00e9des": 3190,
  "\u2581K\u00f6z\u00f6ss\u00e9g": 3191,
  "\u2581Saint": 3192,
  "zs": 3193,
  "\u2581rather": 3194,
  "\u2581rend\u0151rs\u00e9g": 3195,
  "\u2581Valaki": 3196,
  "\u2581k\u00f6telezetts\u00e9g": 3197,
  "\u2581anyag": 3198,
  "kin": 3199,
  "\u2581Del": 3200,
  "\u2581k\u00f6r": 3201,
  "\u2581vezet\u0151": 3202,
  "\u2581bab": 3203,
  "\u2581f\u00e9ny": 3204,
  "\u2581North": 3205,
  "sch": 3206,
  "\u2581Nyug": 3207,
  "iff": 3208,
  "\u2581Mac": 3209,
  "\u2581meg\u00e1llap\u00edtott": 3210,
  "\u2581internal": 3211,
  "\u2581\u00e9rz\u00e9s": 3212,
  "\u2581150": 3213,
  "bar": 3214,
  "s\u00e9get": 3215,
  "\u2581art": 3216,
  "tes": 3217,
  "ada": 3218,
  "\u2581hat\u00e9kony": 3219,
  "\u2581range": 3220,
  "ekben": 3221,
  "\u2581photo": 3222,
  "\u2581monitoring": 3223,
  "vis": 3224,
  "uch": 3225,
  "\u00e9z": 3226,
  "\u2581relating": 3227,
  "\u2581k\u00e9rlek": 3228,
  "r\u00e1": 3229,
  "\u2581Articles": 3230,
  "\u2581hely\u00e9be": 3231,
  "\u2581across": 3232,
  "t\u00e9r": 3233,
  "\u2581pressure": 3234,
  "\u2581(\"": 3235,
  "\u2581k\u00f6r\u00fcl": 3236,
  "nd": 3237,
  "\u2581sport": 3238,
  "29": 3239,
  "\u2581K\u00edna": 3240,
  "\u25811/": 3241,
  "\u2581however": 3242,
  "\u2581aj\u00e1nlat": 3243,
  "\u2581sign": 3244,
  "\u2581forward": 3245,
  "\u2581projects": 3246,
  "\u2581term": 3247,
  "\u2581Since": 3248,
  "koz": 3249,
  "03": 3250,
  "\u2581documents": 3251,
  "\u2581ad\u00f3": 3252,
  "\u2581regards": 3253,
  "\u2581EESC": 3254,
  "\u2581applied": 3255,
  "vir": 3256,
  "\u2581analysis": 3257,
  "\u2581existing": 3258,
  "\u2581learn": 3259,
  "\u2581skin": 3260,
  "\u2581Kezd": 3261,
  "\u2581seg\u00edteni": 3262,
  "\u2581Santa": 3263,
  "\u2581ten": 3264,
  "\u2581tartalmaz\u00f3": 3265,
  "\u2581miss": 3266,
  "ball": 3267,
  "\u2581specified": 3268,
  "\u2581legt\u00f6bb": 3269,
  "\u2581Official": 3270,
  "telen": 3271,
  "\u2581jelenleg": 3272,
  "l\u00e9p": 3273,
  "\u2581Keep": 3274,
  "\u2581Mor": 3275,
  "\u2581issues": 3276,
  "\u2581kur": 3277,
  "\u2581\u00e1ltal\u00e1ban": 3278,
  "terem": 3279,
  "\u2581yours": 3280,
  "\u2581Mondd": 3281,
  "\u2581defined": 3282,
  "\u2581stock": 3283,
  "\u2581pas": 3284,
  "\u2581August": 3285,
  "fog": 3286,
  "z\u00e9s": 3287,
  "\u25815-": 3288,
  "\u2581Ingatlan": 3289,
  "lel": 3290,
  "kon": 3291,
  "\u2581zavar": 3292,
  "\u2581EEA": 3293,
  "uc": 3294,
  "\u2581imports": 3295,
  "heti": 3296,
  "\u2581testv\u00e9r": 3297,
  "\u2581megint": 3298,
  "\u2581Hivatalos": 3299,
  "\u2581Sal": 3300,
  "ating": 3301,
  "5/": 3302,
  "\u2581eny\u00e9m": 3303,
  "\u2581win": 3304,
  "23": 3305,
  "16": 3306,
  "\u2581payment": 3307,
  "\u2581Pen": 3308,
  "\u2581Contact": 3309,
  "\u2581\u00c9r": 3310,
  "\u2581Ide": 3311,
  "ial": 3312,
  "\u2581details": 3313,
  "\u2581Group": 3314,
  "\u2581exchange": 3315,
  "\u2581jel": 3316,
  "\u2581Ros": 3317,
  "anak": 3318,
  "\u2581m\u0171k\u00f6dik": 3319,
  "\u2581egyszer\u0171": 3320,
  "\u2581search": 3321,
  "\u2581Rem\u00e9lem": 3322,
  "org": 3323,
  "\u2581Only": 3324,
  "\u2581self": 3325,
  "\u2581Points": 3326,
  "cia": 3327,
  "\u2581l\u00e9tre": 3328,
  "ful": 3329,
  "\u2581m\u00e9ter": 3330,
  "right": 3331,
  "vit": 3332,
  "\u2581parts": 3333,
  "low": 3334,
  "\u2581places": 3335,
  "\u2581indul": 3336,
  "\u2581investigation": 3337,
  "\u2581t\u0171z": 3338,
  "\u2581decided": 3339,
  "\u2581values": 3340,
  "uz": 3341,
  "2/": 3342,
  "\u2581red": 3343,
  "II": 3344,
  "ern": 3345,
  "\u2581dolgokat": 3346,
  "\u2581tartott": 3347,
  "\u2581programmes": 3348,
  "\u2581szint\u0171": 3349,
  "\u258113.": 3350,
  "\u2581c\u00edm": 3351,
  "\u2581held": 3352,
  "\u2581till": 3353,
  "\u2581Ebben": 3354,
  "j\u00e9t": 3355,
  "\u2581Csi": 3356,
  "\u2581b\u00edr": 3357,
  "\u2581Chris": 3358,
  "\u00e9p": 3359,
  "\u2581K\u00e9p": 3360,
  "\u2581sz\u00fcks\u00e9ge": 3361,
  "rom": 3362,
  "\u2581fast": 3363,
  "\u2581Mat": 3364,
  "\u2581sz\u00e9t": 3365,
  "\u2581[2]": 3366,
  "\u2581monda": 3367,
  "\u2581k\u00fcls\u0151": 3368,
  "\u2581somebody": 3369,
  "\u2581Bor": 3370,
  "\u2581Very": 3371,
  "\u2581Fu": 3372,
  "enek": 3373,
  "tur": 3374,
  "f\u00e9le": 3375,
  "\u2581benefit": 3376,
  "\u2581Help": 3377,
  "\u2581bodies": 3378,
  "\u2581submitted": 3379,
  "\u2581society": 3380,
  "\u2581vel\u00fcnk": 3381,
  "\u2581View": 3382,
  "\u2581aren": 3383,
  "\u258138": 3384,
  "\u2581valaha": 3385,
  "\u2581ahead": 3386,
  "\u2581direct": 3387,
  "\u2581ennyi": 3388,
  "janak": 3389,
  "tat\u00e1s": 3390,
  "\u2581k\u00f6zlem\u00e9ny": 3391,
  "\u2581space": 3392,
  "\u2581komoly": 3393,
  "\u2581sea": 3394,
  "\u2581eredeti": 3395,
  "ING": 3396,
  "\u2581isten": 3397,
  "\u2581approach": 3398,
  "pan": 3399,
  "\u2581Mark": 3400,
  "\u25812000": 3401,
  "ettem": 3402,
  "\u2581v\u00e1llalkoz\u00e1sok": 3403,
  "\u2581Old": 3404,
  "\u2581attention": 3405,
  "\u2581People": 3406,
  "tus": 3407,
  "AN": 3408,
  "\u2581February": 3409,
  "\u2581ones": 3410,
  "adat": 3411,
  "\u2581comfortable": 3412,
  "\u2581murder": 3413,
  "top": 3414,
  "\u2581hat\u00e1lyba": 3415,
  "\u2581smart": 3416,
  "\u2581\u00e9ppen": 3417,
  "get": 3418,
  "\u2581t\u0151le": 3419,
  "\u2581rep\u00fcl\u0151t\u00e9r": 3420,
  "\u2581ter": 3421,
  "\u2581\u00e9jjel": 3422,
  "\u2581properties": 3423,
  "\u2581Russia": 3424,
  "gro": 3425,
  "atlan": 3426,
  "\u2581dis": 3427,
  "ns": 3428,
  "els": 3429,
  "don": 3430,
  "\u2581central": 3431,
  "\u2581Green": 3432,
  "\u2581giving": 3433,
  "osz": 3434,
  "\u2581k\u00f6zvetlen": 3435,
  "\u2581Tov\u00e1bbi": 3436,
  "?\"": 3437,
  "\u2581Wien": 3438,
  "\u2581supply": 3439,
  "hova": 3440,
  "\u2581forgalomba": 3441,
  "okban": 3442,
  "\u2581gyakran": 3443,
  "ama": 3444,
  "ox": 3445,
  "\u2581Za": 3446,
  "\u25812018": 3447,
  "\u2581calls": 3448,
  "\u2581Ya": 3449,
  "\u2581mire": 3450,
  "\u2581Got": 3451,
  "\u2581Honnan": 3452,
  "\u2581agg\u00f3d": 3453,
  "ical": 3454,
  "bu": 3455,
  "\u258175": 3456,
  "cel": 3457,
  "\u2581eye": 3458,
  "dj": 3459,
  "\u2581Those": 3460,
  "h\u00f6z": 3461,
  "\u2581thanks": 3462,
  "\u2581rendszerek": 3463,
  "\u2581Pr": 3464,
  "can": 3465,
  "\u2581message": 3466,
  "br": 3467,
  "\u258134": 3468,
  "\u2581listed": 3469,
  "\u2581especially": 3470,
  "\u2581F\u00e9l": 3471,
  "\u2581nyer": 3472,
  "\u2581er": 3473,
  "\u2581t\u00f6rt\u00e9net": 3474,
  "\u2581intended": 3475,
  "\u2581created": 3476,
  "\u2581H\u00edv": 3477,
  "\u258100": 3478,
  "\u00e1tor": 3479,
  "\u2581vagytok": 3480,
  "l\u00f3g": 3481,
  "\u2581kiz\u00e1r\u00f3lag": 3482,
  "vill": 3483,
  "\u2581ter\u00e9n": 3484,
  "\u258139": 3485,
  "\u25812011.": 3486,
  "end\u0151": 3487,
  "\u2581foglalt": 3488,
  "\u2581court": 3489,
  "\u2581contract": 3490,
  "\u2581stupid": 3491,
  "\u2581duty": 3492,
  "\u2581Com": 3493,
  "31": 3494,
  "\u2581\u00c1r": 3495,
  "\u2581member": 3496,
  "\u2581tartozik": 3497,
  "\u2581objectives": 3498,
  "1010": 3499,
  "\u2581doll\u00e1r": 3500,
  "\u00e1ja": 3501,
  "nc": 3502,
  "\u2581Kell": 3503,
  "\u2581\u00e9vi": 3504,
  "\u00f6lt": 3505,
  "\u2581j\u00f6v\u0151": 3506,
  "kol": 3507,
  "\u2581t\u00edpus\u00fa": 3508,
  "\u2581Anya": 3509,
  "\u2581fall": 3510,
  "\u00e1t\u00f3l": 3511,
  "\u25812005.": 3512,
  "\u2581szervezetek": 3513,
  "\u2581Remek": 3514,
  "\u2581ingyenes": 3515,
  "\u2581Call": 3516,
  "\u00a9": 3517,
  "\u2581pen": 3518,
  "\u2581besz\u00e9lt": 3519,
  "\u2581m\u00falva": 3520,
  "\u2581rendelkez\u00e9sek": 3521,
  "\u2581Ge": 3522,
  "\u2581viszont": 3523,
  "\u00edv": 3524,
  "\u25812013.": 3525,
  "\u2581anyagok": 3526,
  "\u2581id\u0151t": 3527,
  "\u2581pontj\u00e1ban": 3528,
  "Q": 3529,
  "ula": 3530,
  "\u2581hazud": 3531,
  "fin": 3532,
  "\u2581tal\u00e1lkoz": 3533,
  "\u2581everybody": 3534,
  "hor": 3535,
  "\u2581r\u00e9sz\u00e9t": 3536,
  "\u2581Bob": 3537,
  "\u2581felt": 3538,
  "\u2581breakfast": 3539,
  "des": 3540,
  "\u2581asszony": 3541,
  "otta": 3542,
  "\u2581mondott": 3543,
  "eck": 3544,
  "time": 3545,
  "\u2581dal": 3546,
  "\u2581hallottam": 3547,
  "\u2581sale": 3548,
  "\u2581maradt": 3549,
  "\u25812012.": 3550,
  "\u2581citizens": 3551,
  "\u2581worked": 3552,
  "\u00f6lni": 3553,
  "\u2581k\u00e1v\u00e9": 3554,
  "\u2581m\u0171szaki": 3555,
  "\u2581Soha": 3556,
  "tekint\u00e9s": 3557,
  "\u2581extra": 3558,
  "ology": 3559,
  "cal": 3560,
  "\u2581j\u00e1rm\u0171": 3561,
  "\u2581various": 3562,
  "\u2581\u00f5": 3563,
  "\u2581helyet": 3564,
  "\u2581leaving": 3565,
  "\u2581l\u00e1tom": 3566,
  "\u2581jut": 3567,
  "kkal": 3568,
  "lor": 3569,
  "zet": 3570,
  "\u2581actions": 3571,
  "\u2581measure": 3572,
  "\u2581Es": 3573,
  "\u2581Phil": 3574,
  "\u2581\u00c9S": 3575,
  "\u2581tegnap": 3576,
  "\u2581sick": 3577,
  "\u2581adag": 3578,
  "\u2581American": 3579,
  "\u2581l\u0151": 3580,
  "\u2581Str": 3581,
  "\u2581ship": 3582,
  "\u2581v\u00e1lasz": 3583,
  "\u2581fair": 3584,
  "\u2581IN": 3585,
  "izz": 3586,
  "22": 3587,
  "\u2581entire": 3588,
  "ves": 3589,
  "\u2581limited": 3590,
  "\u2581\u00f6": 3591,
  "eknek": 3592,
  "\u2581vel\u00fck": 3593,
  "t\u00e9": 3594,
  "\u2581kett\u0151": 3595,
  "\u2581szem\u00e9lyek": 3596,
  "-1": 3597,
  "\u2581visit": 3598,
  "ON": 3599,
  "\u2581expected": 3600,
  "\u2581education": 3601,
  "\u2581environmental": 3602,
  "\u00e9b\u0151l": 3603,
  "\u2581dinner": 3604,
  "mag": 3605,
  "\u2581r\u00e9szletes": 3606,
  "\u2581French": 3607,
  "\u2581knowledge": 3608,
  "\u2581seem": 3609,
  "lem": 3610,
  "su": 3611,
  "\u2581k\u00f6z\u00e9": 3612,
  "07": 3613,
  "\u2581picture": 3614,
  "\u2581\u00e1gazat": 3615,
  "\u2581kulcs": 3616,
  "\u2581ground": 3617,
  "\u2581EN": 3618,
  "\u2581published": 3619,
  "tory": 3620,
  "\u2581THIS": 3621,
  "\u2581\u00dc": 3622,
  "ekre": 3623,
  "\u2581inform": 3624,
  "oknak": 3625,
  "\u00e9sz": 3626,
  "cause": 3627,
  "\u2581Erre": 3628,
  "\u2581promise": 3629,
  "\u2581fixed": 3630,
  "\u2581csomag": 3631,
  "\u2581Menj\u00fcnk": 3632,
  "fu": 3633,
  "\u2581\u00fcveg": 3634,
  "\u2581oldalon": 3635,
  "48": 3636,
  "\u2581munk\u00e1t": 3637,
  "\u2581folytatott": 3638,
  "\u25812014.": 3639,
  "\u25812010.": 3640,
  "\u2581ford\u00edt\u00e1s": 3641,
  "\u2581\u00f6lt": 3642,
  "\u2581Son": 3643,
  "\u2581Mennyi": 3644,
  "\u2581besz\u00e9lsz": 3645,
  "\u2581greater": 3646,
  "6/": 3647,
  "\u2581agree": 3648,
  "car": 3649,
  "\u2581cm": 3650,
  "\u2581official": 3651,
  "\u2581helyen": 3652,
  "\u2581vizsg\u00e1latok": 3653,
  "\u258115.": 3654,
  "\u2581groups": 3655,
  "\u2581v\u00e1llalkoz\u00e1s": 3656,
  "reg": 3657,
  "\u2581t\u00e1rsas\u00e1g": 3658,
  "\u2581figure": 3659,
  "\u2581kisebb": 3660,
  "\u00e1si": 3661,
  "\u2581medical": 3662,
  "\u2581network": 3663,
  "\u2581Kor": 3664,
  "\u2581Back": 3665,
  "\u2581K\u00f6zt\u00e1rsas\u00e1g": 3666,
  "\u2581complete": 3667,
  "\u2581instruments": 3668,
  "ring": 3669,
  "\u2581Q": 3670,
  "\u2581wood": 3671,
  "Th": 3672,
  "\u2581v\u00e1llalat": 3673,
  "\u2581\u00d6ssze": 3674,
  "\u2581tartani": 3675,
  "\u2581German": 3676,
  "\u2581Hozz\u00e1": 3677,
  "\u2581csup\u00e1n": 3678,
  "\u2581average": 3679,
  "\u2581welcome": 3680,
  "\u00f3z": 3681,
  "\u2581tal\u00e1lt": 3682,
  "\u2581javasolt": 3683,
  "\u2581asking": 3684,
  "\u2581V\u00e9g": 3685,
  "\u00fcr": 3686,
  "\u2581sun": 3687,
  "\u2581egym\u00e1st": 3688,
  "\u2581origin": 3689,
  "r\u00fag": 3690,
  "\u2581str": 3691,
  "\u2581r\u00e9sz\u00e9r\u0151l": 3692,
  "\u2581god": 3693,
  "yo": 3694,
  "\u2581immediately": 3695,
  "\u2581tudj\u00e1k": 3696,
  "\u2581reach": 3697,
  "\u2581gy\u00e1rt\u00f3": 3698,
  "\u2581funny": 3699,
  "\u2581t\u00f6k\u00e9letes": 3700,
  "led": 3701,
  "\u2581injection": 3702,
  "\u25812017.": 3703,
  "\u2581themselves": 3704,
  "ez\u00e9s": 3705,
  "\u2581szex": 3706,
  "\u2581administration": 3707,
  "\u2581iron": 3708,
  "\u2581gyere": 3709,
  "\u2581elm\u00falt": 3710,
  "\u2581inform\u00e1ci\u00f3kat": 3711,
  "\u2581Lu": 3712,
  "27": 3713,
  "\u2581egys\u00e9g": 3714,
  "\u2581egy\u00e1ltal\u00e1n": 3715,
  "\u2581bal": 3716,
  "\u2581maguk": 3717,
  "\u2581EUR\u00d3PA": 3718,
  "\u2581francia": 3719,
  "\u2581biztos\u00edt\u00e1sa": 3720,
  "\u2581EUROPEAN": 3721,
  "\u2581Nick": 3722,
  "\u2581clean": 3723,
  "\u2581rendelete": 3724,
  "\u2581improve": 3725,
  "\u2581patient": 3726,
  "\u2581mag": 3727,
  "\u2581Hold": 3728,
  "35": 3729,
  "talan": 3730,
  "\u2581Gen": 3731,
  "\u2581agricultural": 3732,
  "\u2581damn": 3733,
  "jt": 3734,
  "\u2581adni": 3735,
  "\u2581loss": 3736,
  "\u2581miut\u00e1n": 3737,
  "ery": 3738,
  "dat": 3739,
  "\u2581cop": 3740,
  "dol": 3741,
  "\u2581cook": 3742,
  "\u2581interested": 3743,
  "\u2581kept": 3744,
  "\u2581embert": 3745,
  "\u2581boys": 3746,
  "\u2581folyik": 3747,
  "\u2581min": 3748,
  "\u2581approved": 3749,
  "70": 3750,
  "\u2581fully": 3751,
  "\u2581k\u00e9sz": 3752,
  "ita": 3753,
  "\u2581earth": 3754,
  "ozni": 3755,
  "szak": 3756,
  "\u2581b\u00e1rmilyen": 3757,
  "\u258137": 3758,
  "\u2581playing": 3759,
  "zik": 3760,
  "08": 3761,
  "\u2581materials": 3762,
  "\u2581id\u0151ben": 3763,
  "ipp": 3764,
  "\u2581changed": 3765,
  "\u2581contains": 3766,
  "\u2581funds": 3767,
  "hetetlen": 3768,
  "\u2581regional": 3769,
  "\u2581fia": 3770,
  "\u2581dream": 3771,
  "\u2581dob": 3772,
  "\u2581tev\u00e9kenys\u00e9gek": 3773,
  "\u2581Was": 3774,
  "\u2581oil": 3775,
  "ano": 3776,
  "\u2581vezet": 3777,
  "\u2581Post": 3778,
  "\u2581assistance": 3779,
  "lic": 3780,
  "\u2581marketing": 3781,
  "\u2581febru\u00e1r": 3782,
  "ejt\u00e9s": 3783,
  "ista": 3784,
  "\u2581Tu": 3785,
  "\u2581floor": 3786,
  "\u00f3d": 3787,
  "\u2581negyed": 3788,
  "\u2581Could": 3789,
  "ked": 3790,
  "\u2581adatokat": 3791,
  "\u2581mondd": 3792,
  "house": 3793,
  "\u2581Port": 3794,
  "\u2581Nice": 3795,
  "\u2581recommended": 3796,
  "55": 3797,
  "unt": 3798,
  "\u2581India": 3799,
  "\u2581fal": 3800,
  "\u2581whose": 3801,
  "47": 3802,
  "\u2581internet": 3803,
  "\u2581meleg": 3804,
  "\u2581ellen\u00e9re": 3805,
  "\u2581Gr": 3806,
  "\u2581cikkben": 3807,
  "\u2581N\u00e9zze": 3808,
  "bol": 3809,
  "\u2581happens": 3810,
  "\u2581kiv\u00e9ve": 3811,
  "\u2581ok": 3812,
  "\u2581towards": 3813,
  "\u2581klinikai": 3814,
  "\u2581charge": 3815,
  "\u2581h\u00e1bor\u00fa": 3816,
  "\u2581fishing": 3817,
  "\u2581\u00e9lelmiszer": 3818,
  "\u2581Place": 3819,
  "\u2581staff": 3820,
  "sz\u00e1ll": 3821,
  "ship": 3822,
  "\u2581es\u00e9ly": 3823,
  "\u2581region\u00e1lis": 3824,
  "\u2581designed": 3825,
  "\u2581placed": 3826,
  "\u2581m\u00f6g\u00f6tt": 3827,
  "\u00e9d": 3828,
  "j\u00f6v\u00f6k": 3829,
  "\u2581da": 3830,
  "60": 3831,
  "\u2581fish": 3832,
  "\u2581progress": 3833,
  "\u2581shoot": 3834,
  "ER": 3835,
  "\u2581travel": 3836,
  "\u2581mar": 3837,
  "\u2581touch": 3838,
  "\u2581N\u00e9metorsz\u00e1g": 3839,
  "nyom": 3840,
  "sky": 3841,
  "j\u00fcnk": 3842,
  "\u2581Nap": 3843,
  "\u2581administrative": 3844,
  "din": 3845,
  "\u2581helyes": 3846,
  "oldal": 3847,
  "\u2581movi": 3848,
  "dok": 3849,
  "ib": 3850,
  "s\u00f3": 3851,
  "dob": 3852,
  "\u2581carry": 3853,
  "n\u00e9m": 3854,
  "\u25812016.": 3855,
  "\u2581k\u00f6zben": 3856,
  "\u2581associated": 3857,
  "\u2581follows": 3858,
  "No": 3859,
  "hang": 3860,
  "rendszer": 3861,
  "vers": 3862,
  "\u2581hivatalos": 3863,
  "\u2581Pont": 3864,
  "\u2581valakit": 3865,
  "\u2581bi": 3866,
  "csin\u00e1l": 3867,
  "vet": 3868,
  "\u2581kon": 3869,
  "\u2581helye": 3870,
  "\u2581limit": 3871,
  "\u25812,": 3872,
  "\u2581daily": 3873,
  "\u2581alacsony": 3874,
  "\u2581figyel": 3875,
  "ji": 3876,
  "\u2581tettem": 3877,
  "\u2581Put": 3878,
  "\u2581Service": 3879,
  "\u2581markets": 3880,
  "\u2581tudom\u00e1nyos": 3881,
  "\u2581amint": 3882,
  "\u2581relationship": 3883,
  "\u258114.": 3884,
  "\u2581difficult": 3885,
  "\u2581N\u00e9h\u00e1ny": 3886,
  "mb": 3887,
  "cha": 3888,
  "\u2581Lux": 3889,
  "\u2581Convention": 3890,
  "\u2581annual": 3891,
  "\u2581practice": 3892,
  "\u2581write": 3893,
  "\u2581station": 3894,
  "\u25812004.": 3895,
  "09": 3896,
  "\u2581zene": 3897,
  "28": 3898,
  "\u2581Henry": 3899,
  "\u2581probl\u00e9ma": 3900,
  "\u00f3l": 3901,
  "\u2581alapul\u00f3": 3902,
  "\u2581Mal": 3903,
  "\u2581Sun": 3904,
  "\u2581itself": 3905,
  "\u2581IT": 3906,
  "\u2581hospital": 3907,
  "m\u00e1s": 3908,
  "\u2581Bi": 3909,
  "\u2581hisz": 3910,
  "\u2581lak": 3911,
  "\u2581par": 3912,
  "\u2581approval": 3913,
  "lex": 3914,
  "\u2581vala": 3915,
  "9/": 3916,
  "\u2581Agency": 3917,
  "ken": 3918,
  "r\u00e1g": 3919,
  "hetek": 3920,
  "\u2581ebb\u0151l": 3921,
  "\u00e9t\u0151l": 3922,
  "\u2581\u00c1llj": 3923,
  "\u2581hal\u00e1szati": 3924,
  "\u2581Komolyan": 3925,
  "\u2581Seg\u00edt": 3926,
  "\u2581lesznek": 3927,
  "\u2581fogj\u00e1k": 3928,
  "\u2581Bur": 3929,
  "38": 3930,
  "\u2581tetszik": 3931,
  "mint": 3932,
  "What": 3933,
  "pr": 3934,
  "\u2581fogunk": 3935,
  "zo": 3936,
  "\u2581cold": 3937,
  "\u25811:": 3938,
  "\u2581fekete": 3939,
  "ich": 3940,
  "etlen": 3941,
  "\u2581opened": 3942,
  "\u2581mai": 3943,
  "\u2581addig": 3944,
  "ake": 3945,
  "ric": 3946,
  "\u2581treated": 3947,
  "\u2581Father": 3948,
  "\u2581Gondol": 3949,
  "kez\u00e9s": 3950,
  "\u2581port": 3951,
  "\u2581adat": 3952,
  "\u2581arany": 3953,
  "\u2581Inter": 3954,
  "\u2581mag\u00e1n": 3955,
  "\u2581j\u00f6ttem": 3956,
  "\u258116.": 3957,
  "unkat": 3958,
  "\u2581siker\u00fclt": 3959,
  "\u2581location": 3960,
  "\u2581Maria": 3961,
  "\u00c9": 3962,
  "\u2581Christmas": 3963,
  "\u2581regarding": 3964,
  "\u2581m\u00e9sz": 3965,
  "BI": 3966,
  "\u2581bizotts\u00e1g": 3967,
  "\u2581lehet\u0151s\u00e9get": 3968,
  "\u2581agg\u00f3dj": 3969,
  "\u2581vizsg\u00e1lati": 3970,
  "\u2581policies": 3971,
  "\u2581reasons": 3972,
  "\u2581H\u00e1rom": 3973,
  "\u2581k\u00f6r\u00fclm\u00e9nyek": 3974,
  "addy": 3975,
  "j\u00e1ra": 3976,
  "\u2581(2": 3977,
  "\u2581gazdas\u00e1g": 3978,
  "\u2581gyilkos": 3979,
  "\u2581Lin": 3980,
  "\u25812015.": 3981,
  "ans": 3982,
  "-2": 3983,
  "\u2581original": 3984,
  "ise": 3985,
  "\u2581Ltd": 3986,
  "\u2581plant": 3987,
  "well": 3988,
  "\u2581h\u00e9ten": 3989,
  "\u2581\u0151r\u00fclt": 3990,
  "\u2581Square": 3991,
  "\u2581design": 3992,
  "\u2581sugar": 3993,
  "\u2581fr": 3994,
  "\u2581jutott": 3995,
  "rl": 3996,
  "\u2581Jobb": 3997,
  "\u2581Bizotts\u00e1gnak": 3998,
  "\u2581sort": 3999,
  "s\u00e9": 4000,
  "4/": 4001,
  "ius": 4002,
  "\u2581folyamat": 4003,
  "\u2581strategy": 4004,
  "\u2581tartalmazza": 4005,
  "gor": 4006,
  "ember": 4007,
  "\u2581hozz\u00e1m": 4008,
  "\u2581harc": 4009,
  "\u00e1b": 4010,
  "\u2581reports": 4011,
  "\u25812017": 4012,
  "ld": 4013,
  "j\u00e1val": 4014,
  "\u2581Therefore": 4015,
  "\u2581eg\u00e9szs\u00e9g\u00fcgyi": 4016,
  "\u2581l\u00e9p\u00e9s": 4017,
  "rend": 4018,
  "\u2581particularly": 4019,
  "\u2581tov\u00e1bbiakban": 4020,
  "\u2581v\u00e9g\u00e9n": 4021,
  "\u2581Up": 4022,
  "\u2581Vel": 4023,
  "\u2581choose": 4024,
  "h\u00edv": 4025,
  "vert": 4026,
  "\u2581enged": 4027,
  "di\u00f3": 4028,
  "\u2581ba": 4029,
  "\u2581szeretn\u00e9": 4030,
  "\u2581mouth": 4031,
  "\u2581k\u00f6nny\u0171": 4032,
  "\u2581kevesebb": 4033,
  "\u2581fizet": 4034,
  "\u2581vesz\u00e9lyes": 4035,
  "\u2581d\u00edj": 4036,
  "\u2581cell": 4037,
  "\u2581Fine": 4038,
  "\u2581ehhez": 4039,
  "test": 4040,
  "olni": 4041,
  "\u2581secret": 4042,
  "illy": 4043,
  "\u2581wine": 4044,
  "\u2581boldog": 4045,
  "\u2581cash": 4046,
  "ut\u00e1n": 4047,
  "\u2581Szerinte": 4048,
  "\u2581HAS": 4049,
  "\u2581unit": 4050,
  "\u2581mell\u00e9kletben": 4051,
  "\u2581helyett": 4052,
  "\u00fcnket": 4053,
  "\u2581l\u00e9gi": 4054,
  "\u2581szerv": 4055,
  "\u2581reviews": 4056,
  "oz\u00f3": 4057,
  "21": 4058,
  "mentem": 4059,
  "\u2581\u00e1ru": 4060,
  "\u2581h\u00f3nap": 4061,
  "\u2581operations": 4062,
  "hur": 4063,
  "\u2581mutat": 4064,
  "tri": 4065,
  "edet": 4066,
  "\u2581Ram": 4067,
  "hop": 4068,
  "DF": 4069,
  "\u2581szerintem": 4070,
  "\u2581tagja": 4071,
  "\u2581R\u00e1": 4072,
  "ther": 4073,
  "\u2581okos": 4074,
  "\u2581\u00faton": 4075,
  "\u2581consider": 4076,
  "\u2581napot": 4077,
  "\u2581haszn\u00e1lni": 4078,
  "\u2581star": 4079,
  "you": 4080,
  "49": 4081,
  "\u2581reduce": 4082,
  "\u2581\u00e9rt\u00e9kel\u00e9s": 4083,
  "\u2581Zo": 4084,
  "\u2581Rep": 4085,
  "\u2581Bill": 4086,
  "\u2581vehicles": 4087,
  "\u2581oszt\u00e1ly": 4088,
  "\u2581completely": 4089,
  "\u2581int\u00e9zked\u00e9s": 4090,
  "\u2581Host": 4091,
  "\u2581implementing": 4092,
  "\u2581Rio": 4093,
  "\u2581Robert": 4094,
  "\u2581simple": 4095,
  "\u2581According": 4096,
  "\u258143": 4097,
  "\u2581brain": 4098,
  "\u2581Ul": 4099,
  "\u2581Uni": 4100,
  "\u2581providing": 4101,
  "\u2581hatalmas": 4102,
  "\u2581Dar": 4103,
  "\u2581anyway": 4104,
  "\u2581b\u00e1rmi": 4105,
  "\u2581Play": 4106,
  "\u2581bel\u00fcli": 4107,
  "ford": 4108,
  "\u2581ir\u00e1nti": 4109,
  "oz\u00e1s": 4110,
  "\u2581meghal": 4111,
  "\u2581Pu": 4112,
  "\u2581Price": 4113,
  "\u2581board": 4114,
  "\u2581model": 4115,
  "\u2581k\u00f6lts\u00e9gek": 4116,
  "\u2581javaslat": 4117,
  "\u2581leszel": 4118,
  "\u2581kor\u00e1bbi": 4119,
  "\u2581s\u00edr": 4120,
  "irat": 4121,
  "\u2581fut": 4122,
  "\u2581Captain": 4123,
  "\u2581response": 4124,
  "\u2581lower": 4125,
  "\u2581n\u00e9v": 4126,
  "\u2581producers": 4127,
  "\u2581Kapcsolat": 4128,
  "Article": 4129,
  "hel": 4130,
  "esen": 4131,
  "\u2581Martin": 4132,
  "\u2581technology": 4133,
  "ade": 4134,
  "\u2581unless": 4135,
  "\u2581g\u00e1z": 4136,
  "\u2581Oroszorsz\u00e1g": 4137,
  "\u2581sz\u00f3t": 4138,
  "\u2581k\u00f6nnyen": 4139,
  "gra": 4140,
  "\u2581Tar": 4141,
  "\u2581nor": 4142,
  "\u2581compared": 4143,
  "\u2581\u00c9rtem": 4144,
  "\u2581tiszta": 4145,
  "\u2581crisis": 4146,
  "\u2581mehet": 4147,
  "s\u00e1got": 4148,
  "\u2581create": 4149,
  "\u2581Economic": 4150,
  "\u258108": 4151,
  "\u2581Arra": 4152,
  "ez\u0151": 4153,
  "AT": 4154,
  "\u2581lies": 4155,
  "33": 4156,
  "\u2581n\u00e9met": 4157,
  "\u2581Wa": 4158,
  "jenek": 4159,
  "\u2581meaning": 4160,
  "\u2581allowed": 4161,
  "\u2581gondolom": 4162,
  "\u2581Stay": 4163,
  "\u2581El\u0151sz\u00f6r": 4164,
  "\u2581Number": 4165,
  "\u2581EC": 4166,
  "\u2581mennyire": 4167,
  "\u2581k\u00f6t\u00f6tt": 4168,
  "IN": 4169,
  "\u258142": 4170,
  "res": 4171,
  "IT": 4172,
  "\u2581proposed": 4173,
  "sor": 4174,
  "\u2581\u00c9pp": 4175,
  "\u2581Dur": 4176,
  "\u2581Everything": 4177,
  "\u2581Avenue": 4178,
  "j\u00f6ssz": 4179,
  "v\u00e9ny": 4180,
  "\u2581fe": 4181,
  "\u2581szeretne": 4182,
  "\u2581fat": 4183,
  "\u00edtett": 4184,
  "\u2581Ennyi": 4185,
  "hatatlan": 4186,
  "\u2581ut\u00e1na": 4187,
  "\u2581situated": 4188,
  "\u00e1ns": 4189,
  "\u2581\u0151r": 4190,
  "\u2581felek": 4191,
  "\u2581Done": 4192,
  "AD": 4193,
  "nz": 4194,
  "\u2581haj": 4195,
  "eget": 4196,
  "\u2581tenger": 4197,
  "red": 4198,
  "ble": 4199,
  "\u2581feles\u00e9ge": 4200,
  "\u2581amerikai": 4201,
  "\u2581letter": 4202,
  "\u2581worth": 4203,
  "\u2581sales": 4204,
  "\u2581megvan": 4205,
  "\u2581mess": 4206,
  "\u2581Dublin": 4207,
  "\u2581turned": 4208,
  "ook": 4209,
  "\u2581publication": 4210,
  "ata": 4211,
  "\u2581Such": 4212,
  "\u2581b\u0171n": 4213,
  "ainak": 4214,
  "\u2581bekezd\u00e9sben": 4215,
  "jatok": 4216,
  "\u2581professional": 4217,
  "\u2581sometimes": 4218,
  "\u2581Airport": 4219,
  "\u2581elment": 4220,
  "\u2581Pontosan": 4221,
  "\u2581elfogadott": 4222,
  "k\u00f6zpont": 4223,
  "\u2581rates": 4224,
  "tis": 4225,
  "\u2581l\u00e1b": 4226,
  "l\u00e9": 4227,
  "\u2581thus": 4228,
  "\u258144": 4229,
  "lis": 4230,
  "\u2581region": 4231,
  "sy": 4232,
  "\u258165": 4233,
  "ado": 4234,
  "uda": 4235,
  "\u2581lady": 4236,
  "\u2581adja": 4237,
  "34": 4238,
  "\u2581Make": 4239,
  "\u2581programok": 4240,
  "\u2581int\u00e9zm\u00e9ny": 4241,
  "nok": 4242,
  "\u2581Camp": 4243,
  "\u2581decisions": 4244,
  "\u2581shut": 4245,
  "z\u00e1r": 4246,
  "\u2581detailed": 4247,
  "\u2581Daniel": 4248,
  "\u2581CO": 4249,
  "\u2581nappal": 4250,
  "\u2581t\u00f6bbek": 4251,
  "\u2581sz\u00e1m\u00edtott": 4252,
  "\u00faj": 4253,
  "ches": 4254,
  "\u2581finally": 4255,
  "\u2581calling": 4256,
  "hatnak": 4257,
  "\u2581moving": 4258,
  "\u2581card": 4259,
  "mes": 4260,
  "\u2581Market": 4261,
  "\u00f6v": 4262,
  "\u2581shown": 4263,
  "\u2581Ford": 4264,
  "bra": 4265,
  "anda": 4266,
  "\u2581Ty": 4267,
  "m\u00e1": 4268,
  "minute": 4269,
  "\u2581condition": 4270,
  "\u2581\u00c9rt": 4271,
  "\u2581king": 4272,
  "por": 4273,
  "\u2581attack": 4274,
  "\u2581nagyszer\u0171": 4275,
  "ust": 4276,
  "\u2581asztal": 4277,
  "\u2581felett": 4278,
  "\u2581por": 4279,
  "\u2581ban": 4280,
  "\u2581issued": 4281,
  "language": 4282,
  "\u2581species": 4283,
  "mas": 4284,
  "\u2581\u00b0": 4285,
  "\u2581gondolsz": 4286,
  "\u2581holding": 4287,
  "t\u00f6k": 4288,
  "\u2581id\u00e9z": 4289,
  "\u2581Face": 4290,
  "\u2581processing": 4291,
  "ever": 4292,
  "\u2581mondod": 4293,
  "its": 4294,
  "\u2581valamely": 4295,
  "\u2581400": 4296,
  "\u2581method": 4297,
  "\u2581equal": 4298,
  "z\u00e1": 4299,
  "\u2581Sub": 4300,
  "pin": 4301,
  "\u2581mell\u00e9klet\u00e9ben": 4302,
  "eszt": 4303,
  "\u25812003": 4304,
  "39": 4305,
  "t\u00f3": 4306,
  "\u2581K\u00e9r": 4307,
  "\u2581determined": 4308,
  "\u00fcl\u00e9s": 4309,
  "\u2581organisations": 4310,
  "\u2581Os": 4311,
  "\u2581illet\u0151en": 4312,
  "\u2581sz\u00e1ll\u00e1shely": 4313,
  "\u2581\u00e9vek": 4314,
  "\u2581gyermekek": 4315,
  "44": 4316,
  "\u2581esem\u00e9nyek": 4317,
  "\u2581dance": 4318,
  "\u00e1l\u00f3": 4319,
  "\u2581straight": 4320,
  "\u2581k\u00f6vetelm\u00e9nyek": 4321,
  "\u2581tal\u00e1lkozunk": 4322,
  "udi": 4323,
  "\u2581except": 4324,
  "\u2581tele": 4325,
  "\u2581responsibility": 4326,
  "\u2581substance": 4327,
  "n\u00e1d": 4328,
  "\u2581F\u00f6ld": 4329,
  "\u2581milk": 4330,
  "\u2581seg\u00edts\u00e9g\u00e9vel": 4331,
  "\u2581employment": 4332,
  "\u258141": 4333,
  "ue": 4334,
  "\u2581piece": 4335,
  "\u2581Euro": 4336,
  "cse": 4337,
  "\u2581territory": 4338,
  "\u2581opportunity": 4339,
  "\u2581val\u00f3di": 4340,
  "szor": 4341,
  "\u2581M\u0171": 4342,
  "\u25812002": 4343,
  ".).": 4344,
  "ites": 4345,
  "ost": 4346,
  "\u2581embereket": 4347,
  "\u2581substances": 4348,
  "\u2581kem\u00e9ny": 4349,
  "\u2581any\u00e1m": 4350,
  "\u2581inform\u00e1ci\u00f3t": 4351,
  "\u2581principle": 4352,
  "v\u00e1n": 4353,
  "\u2581starting": 4354,
  "\u2581elt\u00e9r\u0151": 4355,
  "\u2581szerz\u0151d\u00e9sre": 4356,
  "\u2581megy\u00fcnk": 4357,
  "\u2581Ezzel": 4358,
  "\u2581fenti": 4359,
  "\u2581Barcelona": 4360,
  "iro": 4361,
  "\u2581classification": 4362,
  "\u2581gives": 4363,
  "\u2581parking": 4364,
  "\u2581acid": 4365,
  "ozott": 4366,
  "\u2581voice": 4367,
  "gas": 4368,
  "\u2581alkalmaz\u00e1s": 4369,
  "\u2581k\u00f6vet": 4370,
  "\u2581explain": 4371,
  "\u00edt\u00e9s": 4372,
  "\u2581train": 4373,
  "\u2581avoid": 4374,
  "\u2581j\u00e1tsz": 4375,
  "\u2581v\u00e9gig": 4376,
  "\u2581kutat\u00e1s": 4377,
  "\u2581(6)": 4378,
  "\u2581cikk\u00e9ben": 4379,
  "\u00e9v": 4380,
  "\u2581catch": 4381,
  "\u2581nyert": 4382,
  "uj": 4383,
  "\u258155": 4384,
  "\u2581games": 4385,
  "26": 4386,
  "\u2581mondat": 4387,
  "lig": 4388,
  "\u2581(1": 4389,
  "Ez": 4390,
  "\u2581function": 4391,
  "1,": 4392,
  "osem": 4393,
  "\u2581hirdet\u00e9s": 4394,
  "over": 4395,
  "dia": 4396,
  "EZT": 4397,
  "85": 4398,
  "s\u00e1gok": 4399,
  "\u2581positive": 4400,
  "\u2581dear": 4401,
  "DE": 4402,
  "\u2581authorisation": 4403,
  "\u2581Portugal": 4404,
  "\u2581global": 4405,
  "\u2581remain": 4406,
  "\u00fb": 4407,
  "\u2581\u00e9letben": 4408,
  "\u2581peace": 4409,
  "cu": 4410,
  "\u2581megn\u00e9z": 4411,
  "\u2581k\u00ednai": 4412,
  "\u2581szakasz": 4413,
  "99": 4414,
  "\u2581komolyan": 4415,
  "\u2581economy": 4416,
  "\u2581require": 4417,
  "\u2581missing": 4418,
  "sem": 4419,
  "\u2581Open": 4420,
  "\u2581eddig": 4421,
  "\u2581gy\u00f6ny\u00f6r\u0171": 4422,
  "from": 4423,
  "\u2581record": 4424,
  "ull": 4425,
  "\u2581translated": 4426,
  "\u2581looked": 4427,
  "\u00f3s": 4428,
  "ities": 4429,
  "\u2581t\u00e1mogat\u00e1si": 4430,
  "\u2581agents": 4431,
  "\u2581para": 4432,
  "nyu": 4433,
  "\u2581medicine": 4434,
  "\u2581throw": 4435,
  "venue": 4436,
  "\u2581vonatkozik": 4437,
  "ized": 4438,
  "\u2581hagyta": 4439,
  "\u2581\u00e1rak": 4440,
  "\u2581sz\u00e1nt": 4441,
  "46": 4442,
  "\u2581szint\u00e9n": 4443,
  "\u2581link": 4444,
  "\u2581\u0150k": 4445,
  "mark": 4446,
  "\u2581glad": 4447,
  "\u2581became": 4448,
  "non": 4449,
  "\u2581Par": 4450,
  "\u2581del": 4451,
  "\u2581principles": 4452,
  "\u2581guarantee": 4453,
  "\u2581fault": 4454,
  "\u2581amending": 4455,
  "kov": 4456,
  "\u2581feet": 4457,
  "\u2581\u00fajabb": 4458,
  "\u2581notice": 4459,
  "\u2581k\u00fcl\u00f6n\u00f6s": 4460,
  "\u2581elektronikus": 4461,
  "\u2581szempontj\u00e1b\u00f3l": 4462,
  "\u2581round": 4463,
  "\u2581source": 4464,
  "\u2581tev\u00e9kenys\u00e9g": 4465,
  "\u2581k\u00f6lts\u00e9gvet\u00e9si": 4466,
  "\u2581context": 4467,
  "\u2581val\u00f3ban": 4468,
  "\u2581tegye": 4469,
  "\u2581zsar": 4470,
  "tra": 4471,
  "\u2581n\u00e9zd": 4472,
  "\u2581b\u00e1nt": 4473,
  "odat": 4474,
  "\u2581Eln\u00f6k": 4475,
  "\u2581elmond": 4476,
  "\u2581Annyira": 4477,
  "\u2581v\u00e9ve": 4478,
  "\u2581\u00fcgyv\u00e9d": 4479,
  "\u2581fi\u00fak": 4480,
  "\u2581luck": 4481,
  "\u2581King": 4482,
  "\u2581decide": 4483,
  "\u2581born": 4484,
  "\u2581machine": 4485,
  "\u2581Shan": 4486,
  "\u2581sz\u00e9l": 4487,
  "\u2581hiszen": 4488,
  "\u2581ter\u00fcleten": 4489,
  "\u258101": 4490,
  "\u2581receive": 4491,
  "\u2581Gi": 4492,
  "ucc": 4493,
  "\u2581quick": 4494,
  "\u2581Information": 4495,
  "\u2581Kis": 4496,
  "\u2581communication": 4497,
  "ola": 4498,
  "\u2581Mari": 4499,
  "Something": 4500,
  "ezni": 4501,
  "oszt": 4502,
  "\u2581develop": 4503,
  "\u2581combination": 4504,
  "\u2581spirit": 4505,
  "has": 4506,
  "\u2581blow": 4507,
  "\u2581n\u00e9ha": 4508,
  "\u2581mentioned": 4509,
  "\u2581k\u00f6rnyezet": 4510,
  "\u2581R\u00e9g": 4511,
  "p\u00e1ly\u00e1": 4512,
  "\u2581megfelel": 4513,
  "\u2581pass": 4514,
  "\u2581Every": 4515,
  "tori": 4516,
  "\u2581EGT": 4517,
  "\u2581\u00e1ldozat": 4518,
  "\u2581plans": 4519,
  "\u2581dolgozni": 4520,
  "\u2581uses": 4521,
  "\u2581Authority": 4522,
  "\u2581Implementing": 4523,
  "\u2581el\u0151bb": 4524,
  "\u2581t\u00e1mogat\u00e1st": 4525,
  "\u2581clinical": 4526,
  "sis": 4527,
  "2017": 4528,
  "\u2581szak": 4529,
  "\u2581mag\u00e1ban": 4530,
  "\u2581Kate": 4531,
  "\u2581harag": 4532,
  "\u2581Check": 4533,
  "\u2581sz\u00fcks\u00e9gem": 4534,
  "\u2581prevent": 4535,
  "\u2581vev\u0151": 4536,
  "\u2581ADOPT": 4537,
  "\u2581users": 4538,
  "sta": 4539,
  "\u2581provision": 4540,
  "egy\u00e9l": 4541,
  "ura": 4542,
  "\u2581tag": 4543,
  "\u2581int\u00e9zm\u00e9nyek": 4544,
  "type": 4545,
  "\u2581seven": 4546,
  "\u2581mass": 4547,
  "\u2581objective": 4548,
  "ious": 4549,
  "\u2581essential": 4550,
  "\u2581coffee": 4551,
  "vesz": 4552,
  "\u2581er\u0151": 4553,
  "air": 4554,
  "\u2581val\u00f3sz\u00edn\u0171leg": 4555,
  "\u2581v\u00e1gy": 4556,
  "nyelv": 4557,
  "\u2581Special": 4558,
  "\u2581honey": 4559,
  "\u2581foly\u00f3": 4560,
  "\u2581st\u00edlus": 4561,
  "til": 4562,
  "cho": 4563,
  "\u2581handle": 4564,
  "tag": 4565,
  "\u00fcl\u0151": 4566,
  "\u2581fur": 4567,
  "\u2581sz\u00e1ll": 4568,
  "\u2581Visz": 4569,
  "hr": 4570,
  "\u2581organisation": 4571,
  "\u2581\u00f6l": 4572,
  "It": 4573,
  "\u2581scared": 4574,
  "\u2581accept": 4575,
  "q": 4576,
  "\u2581customs": 4577,
  "\u2581Nemzeti": 4578,
  "\u2581fenntarthat\u00f3": 4579,
  "\u2581pool": 4580,
  "\u2581agreed": 4581,
  "\u2581mennyi": 4582,
  "\u2581parkol\u00f3": 4583,
  "kg": 4584,
  "tart\u00f3": 4585,
  "\u00edtott": 4586,
  "\u2581reduction": 4587,
  "89": 4588,
  "\u2581rendeletben": 4589,
  "\u2581Day": 4590,
  "\u2581likely": 4591,
  "\u2581oka": 4592,
  "\u2581seg\u00edthet": 4593,
  "\u2581clearly": 4594,
  "\u2581previous": 4595,
  "\u2581megl\u00e1t": 4596,
  "\u2581biztosan": 4597,
  "\u2581Maradj": 4598,
  "\u2581t\u00e1rsadalom": 4599,
  "\u2581tart\u00f3": 4600,
  "\u2581status": 4601,
  "\u2581t\u0151lem": 4602,
  "v\u00e1ny": 4603,
  "ej": 4604,
  "szed": 4605,
  "\u2581j\u00e1rt": 4606,
  "\u2581beginning": 4607,
  "\u2581kock\u00e1zat": 4608,
  "and\u00f3": 4609,
  "8/": 4610,
  "\u2581ELFOGADT": 4611,
  "\u2581t\u00edz": 4612,
  "\u2581writing": 4613,
  "\u2581tenne": 4614,
  "\u2581therapy": 4615,
  "\u2581v\u00e9g\u00fcl": 4616,
  "\u258185": 4617,
  "Re": 4618,
  "\u2581developed": 4619,
  "\u2581difference": 4620,
  "\u2581physical": 4621,
  "\u2581numbers": 4622,
  "\u2581Pri": 4623,
  "\u2581insurance": 4624,
  "town": 4625,
  "\u2581\u00e9letem": 4626,
  "\u2581consumption": 4627,
  "\u2581f\u00fcl": 4628,
  "\u2581seeing": 4629,
  "\u2581Social": 4630,
  "\u2581pictures": 4631,
  "\u2581binding": 4632,
  "hatj\u00e1k": 4633,
  "\u2581rendelettel": 4634,
  "\u2581Shut": 4635,
  "\u2581t\u00e1vol": 4636,
  "\u2581jogok": 4637,
  "aire": 4638,
  "\u2581m\u00f3dszer": 4639,
  "\u2581k\u00e9pest": 4640,
  "\u2581Anna": 4641,
  "\u2581Pr\u00f3b\u00e1l": 4642,
  "zott": 4643,
  "\u2581Var": 4644,
  "\u2581akinek": 4645,
  "\u2581b\u00e1rki": 4646,
  "jai": 4647,
  "\u2581forg\u00f3": 4648,
  "\u2581nyelven": 4649,
  "\u2581ir\u00e1nt": 4650,
  "du": 4651,
  "\u258146": 4652,
  "\u2581ap\u00e1d": 4653,
  "\u2581mell\u00e9klet\u00e9nek": 4654,
  "\u2581keret": 4655,
  "\u2581felsorolt": 4656,
  "\u2581drug": 4657,
  "43": 4658,
  "\u00edtani": 4659,
  "jel": 4660,
  "\u00e1\u00e9rt": 4661,
  "tr\u00e1ci\u00f3": 4662,
  "\u2581\u00e1llnak": 4663,
  "\u2581foot": 4664,
  "\u2581n\u0151v\u00e9r": 4665,
  "el\u0151tt": 4666,
  "\u2581ilyet": 4667,
  "\u2581wedding": 4668,
  "\u2581currently": 4669,
  "\u2581happening": 4670,
  "\u2581k\u00e9rek": 4671,
  "jo": 4672,
  "hetj\u00fck": 4673,
  "\u2581prior": 4674,
  "\u2581Eg\u00e9sz": 4675,
  "\u2581grand": 4676,
  "\u2581gyilkoss\u00e1g": 4677,
  "ogle": 4678,
  "ccel": 4679,
  "\u2581v\u00e1m": 4680,
  "\u2581h\u00e1l\u00f3zat": 4681,
  "\u2581anybody": 4682,
  "\u2581augusztus": 4683,
  "\u2581rendeletre": 4684,
  "\u2581Sz\u00fcks\u00e9g": 4685,
  "2-": 4686,
  "\u00e1ig": 4687,
  "\u258147": 4688,
  "\u2581kapit\u00e1ny": 4689,
  "ston": 4690,
  "\u2581Legal\u00e1bb": 4691,
  "\u2581Richard": 4692,
  "\u2581t\u00e1bl\u00e1zat": 4693,
  "\u2581nev\u00e9ben": 4694,
  "\u00d3": 4695,
  "\u2581Research": 4696,
  "\u2581compliance": 4697,
  "\u2581el\u0151z\u0151": 4698,
  "\u2581egyszer\u0171en": 4699,
  "\u258106": 4700,
  "\u2581sz\u00e1m\u00fa": 4701,
  "yar": 4702,
  "\u2581Act": 4703,
  "akat": 4704,
  "\u2581USD": 4705,
  "\u2581kedvenc": 4706,
  "\u2581et": 4707,
  "\u2581speed": 4708,
  "\u258117.": 4709,
  "s\u00e9ge": 4710,
  "\u2581Mad": 4711,
  "\u2581Section": 4712,
  "\u2581k\u00e9nyelmes": 4713,
  "\u2581l\u00e1that\u00f3": 4714,
  "\u2581ill": 4715,
  "\u2581sheet": 4716,
  "ff": 4717,
  "\u00fcgy": 4718,
  "gon": 4719,
  "\u2581feed": 4720,
  "oper": 4721,
  "\u2581target": 4722,
  "\u2581fruit": 4723,
  "\u2581pal": 4724,
  "\u2581benefits": 4725,
  "\u2581tablets": 4726,
  "\u2581Kelt": 4727,
  "\u2581Read": 4728,
  "\u2581f\u00fcrd\u0151": 4729,
  "06": 4730,
  "berg": 4731,
  "\u2581Gazdas\u00e1gi": 4732,
  "k\u00f3d": 4733,
  "lim": 4734,
  "\u2581kifejez\u00e9s": 4735,
  "\u2581store": 4736,
  "\u2581Next": 4737,
  "\u2581poor": 4738,
  "\u2581h\u00faz": 4739,
  "\u2581k\u00e9sz\u00edt": 4740,
  "\u2581k\u00e9szen": 4741,
  "\u2581Rome": 4742,
  "\u2581loved": 4743,
  "\u2581hat\u00e1lya": 4744,
  "\u2581contribution": 4745,
  "\u2581kezelt": 4746,
  "\u2581annyi": 4747,
  "\u2581el\u00e9": 4748,
  "\u2581built": 4749,
  "\u2581Ugye": 4750,
  "\u2581dolgozik": 4751,
  "\u2581distance": 4752,
  "lev\u00e9l": 4753,
  "\u2581Far": 4754,
  "jak": 4755,
  "ob": 4756,
  "\u2581Sar": 4757,
  "\u2581megold\u00e1s": 4758,
  "\u2581cent": 4759,
  "\u2581Br\u00fcsszelben": 4760,
  "\u2581biztons\u00e1gos": 4761,
  "\u2581enjoy": 4762,
  "\u2581legfontosabb": 4763,
  "nk\u00e1bb": 4764,
  "\u258110-": 4765,
  "\u2581rendes": 4766,
  "\u2581tr": 4767,
  "\u2581Super": 4768,
  "\u2581Wal": 4769,
  "\u2581applications": 4770,
  "\u2581\u00d6r\u00fcl\u00f6k": 4771,
  "\u2581Charles": 4772,
  "het\u00fcnk": 4773,
  "hot": 4774,
  "\u2581mennem": 4775,
  "\u2581ilyesmi": 4776,
  "\u2581sta": 4777,
  "szob\u00e1": 4778,
  "\u2581betegs\u00e9g": 4779,
  "\u2581assets": 4780,
  "\u2581Three": 4781,
  "\u2581nyug": 4782,
  "\u2581scheme": 4783,
  "zunk": 4784,
  "\u2581Tur": 4785,
  "\u2581hangzik": 4786,
  "szint": 4787,
  "ogat": 4788,
  "37": 4789,
  "\u2581n\u00e9p": 4790,
  "\u2581ezer": 4791,
  "\u2581written": 4792,
  "\u2581Type": 4793,
  "ee": 4794,
  "\u2581usually": 4795,
  "hatom": 4796,
  "\u2581William": 4797,
  "\u2581biztons\u00e1g": 4798,
  "\u2581workers": 4799,
  "v\u00e9r": 4800,
  "\u2581Florence": 4801,
  "\u2581\u00e1llt": 4802,
  "\u2581\u00e9vig": 4803,
  "ville": 4804,
  "\u2581Mindent": 4805,
  "\u2581rend": 4806,
  "\u2581dangerous": 4807,
  "bel": 4808,
  "\u2581ways": 4809,
  "\u258156": 4810,
  "\u2581fot\u00f3": 4811,
  "\u2581Clar": 4812,
  "\u2581D\u00e9l": 4813,
  "\u2581m\u00e9ret": 4814,
  "\u2581vide\u00f3": 4815,
  "\u2581Marc": 4816,
  "dzs": 4817,
  "\u2581produced": 4818,
  "ugh": 4819,
  "wan": 4820,
  "\\": 4821,
  "\u2581meat": 4822,
  "enne": 4823,
  "t\u00f6lt\u00e9s": 4824,
  "\u2581vonatkoz\u00e1s\u00e1ban": 4825,
  "\u2581ed": 4826,
  "\u2581120": 4827,
  "s\u00e9ggel": 4828,
  "\u2581kiv\u00e1l\u00f3": 4829,
  "\u2581Over": 4830,
  "\u2581Chinese": 4831,
  "hetn\u00e9nk": 4832,
  "\u2581behozatali": 4833,
  "\u2581obligations": 4834,
  "\u2581subparagraph": 4835,
  "istic": 4836,
  "\u2581methods": 4837,
  "\u2581Never": 4838,
  "\u2581University": 4839,
  "\u2581Business": 4840,
  "\u2581sc": 4841,
  "\u2581K\u00f6sz\u00f6n": 4842,
  "\u2581magukat": 4843,
  "\u2581[1],": 4844,
  "\u258157": 4845,
  "\u2581magasabb": 4846,
  "\u2581k\u00e1r": 4847,
  "\u2581meant": 4848,
  "\u2581\u00e9rdekelt": 4849,
  "irenz": 4850,
  "\u2581hasznos": 4851,
  "\u2581external": 4852,
  "\u2581Che": 4853,
  "\u2581Bizotts\u00e1got": 4854,
  "\u258152": 4855,
  "\u2581Sit": 4856,
  "\u2581ri": 4857,
  "\u2581keres\u00e9s": 4858,
  "\u2581d\u00f6nt\u00e9s": 4859,
  "\u2581Ilyen": 4860,
  "lip": 4861,
  "\u2581Office": 4862,
  "cin": 4863,
  "\u2581Tal\u00e1l": 4864,
  "\u2581Bibli": 4865,
  "\u2581stage": 4866,
  "\u2581crime": 4867,
  "sp": 4868,
  "j\u00e9k": 4869,
  "\u2581k\u00f6z\u00e9p": 4870,
  "z\u00fck": 4871,
  "n\u00e1nk": 4872,
  "\u2581v\u00e9g": 4873,
  "\u2581\u00dcgyn\u00f6ks\u00e9g": 4874,
  "\u2581tervezett": 4875,
  "\u2581su": 4876,
  "Ha": 4877,
  "\u2581250": 4878,
  "\u2581Nu": 4879,
  "\u2581Say": 4880,
  "\u2581expect": 4881,
  "\u2581mell": 4882,
  "RE": 4883,
  "\u2581cit": 4884,
  "\u2581computer": 4885,
  "\u2581vas": 4886,
  "\u2581Szerz\u0151d\u00e9s": 4887,
  "\u2581mad": 4888,
  "\u2581street": 4889,
  "\u2581azonos": 4890,
  "\u2581circumstances": 4891,
  "\u2581Paris": 4892,
  "\u2581~": 4893,
  "\u2581Jaj": 4894,
  "\u2581irod\u00e1": 4895,
  "\u2581comments": 4896,
  "68": 4897,
  "\u2581Building": 4898,
  "isco": 4899,
  "\u2581\u00e9rdekes": 4900,
  "ova": 4901,
  "\u2581n\u00e9lk\u00fcli": 4902,
  "59": 4903,
  "\u2581UN": 4904,
  "\u2581instead": 4905,
  "\u2581expenditure": 4906,
  "\u2581nyak": 4907,
  "\u2581mik\u00f6zben": 4908,
  "ival": 4909,
  "\u2581m\u00e1sok": 4910,
  "\u2581followed": 4911,
  "\u2581Azok": 4912,
  "\u2581shows": 4913,
  "\u2581m\u00f3dos\u00edt\u00e1s\u00e1r\u00f3l": 4914,
  "\u2581Ber": 4915,
  "\u2581eredm\u00e9nyek": 4916,
  "\u2581mer": 4917,
  "\u2581Franciaorsz\u00e1g": 4918,
  "lie": 4919,
  "\u2581quickly": 4920,
  "\u2581an\u00e9lk\u00fcl": 4921,
  "\u2581\u00e1llatok": 4922,
  "z\u00e9k": 4923,
  "\u2581medicinal": 4924,
  "\u00f6sz": 4925,
  "\u2581b\u00edr\u00f3s\u00e1g": 4926,
  "\u2581category": 4927,
  "\u2581val\u00f3j\u00e1ban": 4928,
  "\u2581jelent\u00e9st": 4929,
  "ID": 4930,
  "\u2581Date": 4931,
  "\u2581alkalommal": 4932,
  "dge": 4933,
  "\u2581Christian": 4934,
  "\u2581operating": 4935,
  "\u2581cart": 4936,
  "\u2581overall": 4937,
  "\u2581napi": 4938,
  "\u2581worse": 4939,
  "\u2581registration": 4940,
  "\u2581multi": 4941,
  "omba": 4942,
  "\u2581Mur": 4943,
  "\u2581elj\u00e1r\u00e1sok": 4944,
  "\u2581sell": 4945,
  "\u2581milli\u00e1rd": 4946,
  "\u2581units": 4947,
  "field": 4948,
  "\u2581ker\u00fclet": 4949,
  "\u2581ke": 4950,
  "\u2581risks": 4951,
  "\u2581k\u00e9sz\u00edtett": 4952,
  "\u2581Neked": 4953,
  "3/": 4954,
  "val\u00f3": 4955,
  "erg": 4956,
  "\u2581tudunk": 4957,
  "\u2581steps": 4958,
  "\u2581hallgat": 4959,
  "\u2581connection": 4960,
  "\u2581Development": 4961,
  "\u2581boss": 4962,
  "\u2581szolg\u00e1l": 4963,
  "AR": 4964,
  "\u2581Term\u00e9szetesen": 4965,
  "graf": 4966,
  "\u2581agreements": 4967,
  "k\u00e1l": 4968,
  "\u2581names": 4969,
  "\u2581fogod": 4970,
  "\u2581ann\u00e1l": 4971,
  "\u2581besz\u00e9lek": 4972,
  "zd": 4973,
  "bon": 4974,
  "\u2581fresh": 4975,
  "\u2581opening": 4976,
  "\u2581bio": 4977,
  "\u2581matters": 4978,
  "\u2581adopt": 4979,
  "02": 4980,
  "\u2581melyet": 4981,
  "\u2581sz\u00e9les": 4982,
  "hou": 4983,
  "\u2581commercial": 4984,
  "\u2581Hal": 4985,
  "\u2581c\u00edm\u0171": 4986,
  "\u2581m\u00e1st": 4987,
  "\u2581laying": 4988,
  "\u2581population": 4989,
  "\u2581fear": 4990,
  "\u2581j\u00f6nni": 4991,
  "\u2581ital": 4992,
  "\u2581Mondtam": 4993,
  "\u2581note": 4994,
  "\u2581f\u00fcgg": 4995,
  "\u2581sz\u00f3ban": 4996,
  "\u2581Time": 4997,
  "\u25810,": 4998,
  "1.": 4999,
  "ebben": 5000,
  "\u2581sz\u00e1j": 5001,
  "\u2581Jan": 5002,
  "ju": 5003,
  "\u2581megl\u00e9v\u0151": 5004,
  "\u258118.": 5005,
  "\u2581doboz": 5006,
  "\u2581fix": 5007,
  "Mi": 5008,
  "\u258149": 5009,
  "\u2581Poland": 5010,
  "\u2581eg\u00e9szen": 5011,
  "\u2581\u00e9lvez": 5012,
  "\u25817,": 5013,
  "v\u00e1lt": 5014,
  "\u2581deep": 5015,
  "\u2581term\u00e9szet": 5016,
  "\u2581Fund": 5017,
  "\u2581helysz\u00edn": 5018,
  "\u2581k\u00f6zt": 5019,
  "vil\u00e1g": 5020,
  "\u2581szeretem": 5021,
  "\u00f3n": 5022,
  "\u2581emelet": 5023,
  "\u2581voltunk": 5024,
  "\u2581dark": 5025,
  "\u2581Doctor": 5026,
  "\u2581Tor": 5027,
  "\u00e1g": 5028,
  "k\u00e1": 5029,
  "\u2581nev\u00e9t": 5030,
  "idding": 5031,
  "\u2581eg\u00e9sz\u00e9ben": 5032,
  "\u2581enable": 5033,
  "haj": 5034,
  "\u2581partners": 5035,
  "\u2581Yu": 5036,
  "\u2581rule": 5037,
  "Nem": 5038,
  "\u2581middle": 5039,
  "fen": 5040,
  "\u2581szenved\u0151": 5041,
  "hatod": 5042,
  "\u2581Krisztus": 5043,
  "\u2581l\u00e1tv\u00e1nyos": 5044,
  "\u2581ablak": 5045,
  "\u2581Travel": 5046,
  "\u2581Tower": 5047,
  "\u2581orsz\u00e1gban": 5048,
  "\u2581idegen": 5049,
  "\u2581drog": 5050,
  "pro": 5051,
  "at\u00edv": 5052,
  "zhou": 5053,
  "\u2581th": 5054,
  "itt": 5055,
  "\u2581caught": 5056,
  "\u2581description": 5057,
  "We": 5058,
  "\u2581Egy\u00e9b": 5059,
  "\u2581achieve": 5060,
  "\u2581FOR": 5061,
  "\u2581t\u0171nt": 5062,
  "\u2581kik": 5063,
  "\u2581elements": 5064,
  "gh": 5065,
  "\u2581Mol": 5066,
  "\u2581B\u00edr\u00f3s\u00e1g": 5067,
  "\u25813,": 5068,
  "\u2581amelyben": 5069,
  "\u2581id\u0151szakban": 5070,
  "alak": 5071,
  "\u00fclet": 5072,
  "oda": 5073,
  "ins": 5074,
  "65": 5075,
  "\u2581politika": 5076,
  "lom": 5077,
  "\u2581user": 5078,
  "\u2581Main": 5079,
  "\u00e1n\u00e1l": 5080,
  "\u2581lehetett": 5081,
  "\u2581somewhere": 5082,
  "\u2581form\u00e1j\u00e1ban": 5083,
  "ants": 5084,
  "t\u0151": 5085,
  "\u2581Royal": 5086,
  "\u2581reform": 5087,
  "\u2581Ren": 5088,
  "\u2581sight": 5089,
  "anza": 5090,
  "\u00f6rg": 5091,
  "\u2581electronic": 5092,
  "This": 5093,
  "\u2581Comp": 5094,
  "\u2581farm": 5095,
  "hatsz": 5096,
  "dar": 5097,
  "\u258107": 5098,
  "\u2581arrangements": 5099,
  "\u258184": 5100,
  "\u2581\u00e9rv\u00e9nyes": 5101,
  "\u2581Hy": 5102,
  "\u2581helyre": 5103,
  "\u2581prepared": 5104,
  "\u2581esk\u00fcv\u0151": 5105,
  "work": 5106,
  "\u2581USA": 5107,
  "\u2581elkap": 5108,
  "\u2581B\u00e1rmi": 5109,
  "\u2581Cr": 5110,
  "\u2581scope": 5111,
  "\u2581reduced": 5112,
  "\u2581aj\u00e1nd\u00e9k": 5113,
  "okon": 5114,
  "\u2581d\u00f3zis": 5115,
  "\u2581pa": 5116,
  "\u2581focus": 5117,
  "\u2581tudn\u00e1": 5118,
  "\u2581IP": 5119,
  "\u2581vacsor\u00e1": 5120,
  "\u2581fent": 5121,
  "\u2581\u00e9szre": 5122,
  "zol": 5123,
  "\u2581COM": 5124,
  "\u2581bar\u00e1tai": 5125,
  "h\u00faz": 5126,
  "\u2581spend": 5127,
  "fr": 5128,
  "\u2581MELL\u00c9KLET": 5129,
  "\u2581described": 5130,
  "64": 5131,
  "\u2581m\u00e1j": 5132,
  "\u2581szent": 5133,
  "\u2581kezel\u00e9s\u00e9re": 5134,
  "\u2581v\u00e9gleges": 5135,
  "\u00edtotta": 5136,
  "meg\u00e1llap\u00edt\u00e1s\u00e1r\u00f3l": 5137,
  "74": 5138,
  "ET": 5139,
  "mus": 5140,
  "level": 5141,
  "ico": 5142,
  "hol": 5143,
  "\u2581Ireland": 5144,
  "\u2581Total": 5145,
  "\u2581\u00e1tlagos": 5146,
  "\u25811000": 5147,
  "\u2581mell\u00e9khat\u00e1sok": 5148,
  "\u2581R\u00e9sz": 5149,
  "\u2581f\u00fcggetlen": 5150,
  "\u2581behalf": 5151,
  "tani": 5152,
  "\u2581veszi": 5153,
  "\u2581authorised": 5154,
  "gass": 5155,
  "\u2581Actually": 5156,
  "\u2581akt\u00edv": 5157,
  "\u2581foglal": 5158,
  "\u2581evening": 5159,
  "\u2581sustainable": 5160,
  "\u2581scientific": 5161,
  "\u2581beat": 5162,
  "\u2581inzulin": 5163,
  "\u2581Plan": 5164,
  "\u2581deposit": 5165,
  "\u2581bus": 5166,
  "\u2581series": 5167,
  "\u2581setting": 5168,
  "\u2581indicated": 5169,
  "\u2581jobs": 5170,
  "\u2581wear": 5171,
  "megyek": 5172,
  "\u2581<": 5173,
  "\u2581ANNEX": 5174,
  "\u2581lehet\u0151": 5175,
  "\u2581Czech": 5176,
  "79": 5177,
  "\u2581nevem": 5178,
  "\u2581sounds": 5179,
  "\u2581Chapter": 5180,
  "\u2581szint": 5181,
  "jelent": 5182,
  "\u2581BE": 5183,
  "IA": 5184,
  "\u2581Greece": 5185,
  "\u2581Oda": 5186,
  "\u2581templom": 5187,
  "\u2581COMMISSION": 5188,
  "\u2581interests": 5189,
  "id\u0151": 5190,
  "\u2581Ak\u00e1r": 5191,
  "\u2581Last": 5192,
  "\u2581majdnem": 5193,
  "\u2581quiet": 5194,
  "\u2581k\u00e9sz\u00fcl": 5195,
  "\u2581package": 5196,
  "elle": 5197,
  "\u00e9st": 5198,
  "\u2581ideiglenes": 5199,
  "\u2581szerencs\u00e9": 5200,
  "\u2581Holnap": 5201,
  "\u2581Mire": 5202,
  "\u2581gy\u00fcm\u00f6lcs": 5203,
  "2.": 5204,
  "act": 5205,
  "\u2581Mill": 5206,
  "hatok": 5207,
  "\u2581lehetne": 5208,
  "\u2581k\u00e9s": 5209,
  "\u2581tests": 5210,
  "\u2581Ker": 5211,
  "\u2581Cat": 5212,
  "\u2581Room": 5213,
  "\u2581Health": 5214,
  "\u2581\u00e9vre": 5215,
  "\u2581beyond": 5216,
  "kez": 5217,
  "\u2581siker": 5218,
  "\u2581identified": 5219,
  "\u2581m\u00e9ly": 5220,
  "\u2581feladat": 5221,
  "\u2581Egy\u00fctt": 5222,
  "\u2581tan": 5223,
  "\u2581felejt": 5224,
  "ida": 5225,
  "\u2581drop": 5226,
  "\u2581megpr\u00f3b\u00e1l": 5227,
  "year": 5228,
  "\u2581b\u00e1n": 5229,
  "\u2581offering": 5230,
  "hatunk": 5231,
  "\u2581scene": 5232,
  "\u2581vet": 5233,
  "ari": 5234,
  "\u2581\u00e9lni": 5235,
  "\u2581recent": 5236,
  "\u2581\u00dcdv": 5237,
  "\u2581t\u00e1rs": 5238,
  "\u2581olaj": 5239,
  "\u2581azoknak": 5240,
  "kci\u00f3": 5241,
  "\u2581seat": 5242,
  "\u2581church": 5243,
  "66": 5244,
  "\u2581obtained": 5245,
  "\u2581forms": 5246,
  "\u2581ki\u00e1ll\u00edt\u00e1s": 5247,
  "\u2581observed": 5248,
  "\u2581Common": 5249,
  "\u2581books": 5250,
  "\u2581ny": 5251,
  "\u2581community": 5252,
  "\u2581Should": 5253,
  "\u00dc": 5254,
  "\u2581version": 5255,
  "view": 5256,
  "\u2581track": 5257,
  "\"-": 5258,
  "\u2581dry": 5259,
  "\u2581regions": 5260,
  "\u2581Szeretn\u00e9m": 5261,
  "\u2581ellen\u0151rz\u00e9s": 5262,
  "\u2581feles\u00e9gem": 5263,
  "\u2581designated": 5264,
  "RA": 5265,
  "\u258151": 5266,
  "eim": 5267,
  "\u2581f\u00e1j": 5268,
  "\u258105": 5269,
  "\u2581foreign": 5270,
  "\u2581Ky": 5271,
  "\u2581hu": 5272,
  "kra": 5273,
  "\u2581hagyni": 5274,
  "\u2581Israel": 5275,
  "\u2581laws": 5276,
  "\u2581fogad": 5277,
  "\u2581smell": 5278,
  "\u2581mell\u00e9klete": 5279,
  "\u00e1ll\u00f3": 5280,
  "\u2581joint": 5281,
  "ize": 5282,
  "\u2581\u00edrta": 5283,
  "\u2581whom": 5284,
  "\u2581tal\u00e1ltam": 5285,
  "rum": 5286,
  "\u2581pull": 5287,
  "\u2581pap": 5288,
  "\u258119.": 5289,
  "\u2581faith": 5290,
  "ese": 5291,
  "\u2581glass": 5292,
  "\u2581H\u00e1z": 5293,
  "\u2581ring": 5294,
  "\u2581duties": 5295,
  "OR": 5296,
  "\u00edteni": 5297,
  "\u00e1ci\u00f3s": 5298,
  "\u2581presented": 5299,
  "\u2581t\u00e1r": 5300,
  "kkel": 5301,
  "\u2581billion": 5302,
  "\u2581Cap": 5303,
  "\u2581importance": 5304,
  "pir": 5305,
  "\u2581v\u00e1ls\u00e1g": 5306,
  "58": 5307,
  "\u2581dokumentum": 5308,
  "\u2581t\u00e9rk\u00e9p": 5309,
  "\u2581hitel": 5310,
  "\u2581f\u00e9rfiak": 5311,
  "\u2581rep": 5312,
  "\u2581Garden": 5313,
  "\u2581Mintha": 5314,
  "\u2581ca": 5315,
  "uri": 5316,
  "\u2581im\u00e1d": 5317,
  "fal": 5318,
  "\u2581build": 5319,
  "\u2581evaluation": 5320,
  "3.": 5321,
  "\u2581mondj\u00e1k": 5322,
  "\u00f3d\u00e1s": 5323,
  "\u2581szab\u00e1lyokat": 5324,
  "\u2581totally": 5325,
  "\u2581k\u00f6r\u00fclbel\u00fcl": 5326,
  "\u2581Annak": 5327,
  "\u258131-": 5328,
  "\u2581Sz\u00f3": 5329,
  "ition": 5330,
  "\u2581csin\u00e1lja": 5331,
  "91": 5332,
  "\u2581seg\u00edts\u00e9g": 5333,
  "\u2581download": 5334,
  "szol": 5335,
  "\u2581\u00e9rint\u0151": 5336,
  "\u2581Joint": 5337,
  "\u2581amazing": 5338,
  "\u2581relation": 5339,
  "\u2581Real": 5340,
  "\u2581draw": 5341,
  "\u00e1ris": 5342,
  "\u2581sz\u00e9pen": 5343,
  "\u2581z\u00f6ld": 5344,
  "\u2581wonder": 5345,
  "\u2581establish": 5346,
  "ington": 5347,
  "lar": 5348,
  "wit": 5349,
  "ti": 5350,
  "lov": 5351,
  "lit": 5352,
  "via": 5353,
  "\u2581esem\u00e9ny": 5354,
  "\u2581ideig": 5355,
  "\u2581driving": 5356,
  "row": 5357,
  "sz\u00edn": 5358,
  "zal": 5359,
  "\u00f3r": 5360,
  "\u2581felel": 5361,
  "\u2581favour": 5362,
  "\u2581n\u00e1la": 5363,
  "\u2581messze": 5364,
  "\u2581m\u0171k\u00f6d\u0151": 5365,
  "100": 5366,
  "\u2581l\u00e1nyok": 5367,
  "\u2581l\u00e9gy": 5368,
  "\u2581mozg\u00e1s": 5369,
  "\u2581napja": 5370,
  "\u258153": 5371,
  "ike": 5372,
  "\u2581comply": 5373,
  "\u2581Follow": 5374,
  "\u2581szoftver": 5375,
  "95": 5376,
  "\u2581hi\u00e1ny": 5377,
  "\u2581pontban": 5378,
  "l\u00e9s": 5379,
  "avir": 5380,
  "\u2581L\u00e1tod": 5381,
  "\u2581mistake": 5382,
  "\u2581hiszed": 5383,
  "\u2581simply": 5384,
  "ator": 5385,
  "\u2581hegy": 5386,
  "\u2581ran": 5387,
  "\u2581elt\u0171nt": 5388,
  "\u2581shop": 5389,
  "\u2581T\u00e9rk\u00e9p": 5390,
  "\u2581exposure": 5391,
  "\u2581h\u00e1zass\u00e1g": 5392,
  "\u2581heading": 5393,
  "\u2581hiszi": 5394,
  "\u00e1gy": 5395,
  "sza": 5396,
  "j\u00e1t\u00e9k": 5397,
  "\u2581biztos\u00edtani": 5398,
  "\u2581certainly": 5399,
  "\u2581bag": 5400,
  "\u2581\u00d6nnek": 5401,
  "\u2581Vic": 5402,
  "\u2581kedvel": 5403,
  "\u2581manufacturer": 5404,
  "rob": 5405,
  "\u2581legut\u00f3bb": 5406,
  "\u2581Russian": 5407,
  "chen": 5408,
  "OT": 5409,
  "side": 5410,
  "\u2581surface": 5411,
  "\u2581Web": 5412,
  "\u2581\u00e9": 5413,
  "\u00edz": 5414,
  "\u2581konkr\u00e9t": 5415,
  "\u2581Before": 5416,
  "\u2581Enged": 5417,
  "\u2581lenn\u00e9k": 5418,
  "\u2581accident": 5419,
  "\u2581volume": 5420,
  "\u2581Dal": 5421,
  "\u2581kick": 5422,
  "eken": 5423,
  "\u2581ingyen": 5424,
  "\u2581szellemi": 5425,
  "\u2581tengeri": 5426,
  "\u2581spent": 5427,
  "t\u00f6r": 5428,
  "\u2581eight": 5429,
  "ky": 5430,
  "\u25812020": 5431,
  "h\u00edvott": 5432,
  "esebb": 5433,
  "r\u00e1z": 5434,
  "\u2581f\u00e1jdalom": 5435,
  "\u258121.": 5436,
  "\u2581alkalmas": 5437,
  "\u2581friss": 5438,
  "\u2581600": 5439,
  "\u2581Rossz": 5440,
  "\u2581ride": 5441,
  "\u2581\u00e1lm": 5442,
  "\u2581balance": 5443,
  "\u2581h\u00e1ny": 5444,
  "\u2581\u00fczenet": 5445,
  "\u2581Ze": 5446,
  "\u2581beny\u00fajtott": 5447,
  "kod": 5448,
  "\u2581sz\u00edvem": 5449,
  "\u2581mag\u00e1val": 5450,
  "\u2581szellem": 5451,
  "\u2581szerepet": 5452,
  "32": 5453,
  "\u00e1l\u00e1s": 5454,
  "\u2581csod\u00e1latos": 5455,
  "\u2581rak": 5456,
  "\u2581Nor": 5457,
  "\u2581Whatever": 5458,
  "ain": 5459,
  "\u2581akarnak": 5460,
  "ott\u00e1k": 5461,
  "\u2581busy": 5462,
  "\u2581caused": 5463,
  "\u2581Dehogy": 5464,
  "\u2581visz": 5465,
  "\u2581centre": 5466,
  "\u2581\u00e1ruk": 5467,
  "-3": 5468,
  "inger": 5469,
  "\u2581nevet": 5470,
  "2)": 5471,
  "\u2581advice": 5472,
  "\u2581throughout": 5473,
  "\u2581Vin": 5474,
  "hatjuk": 5475,
  "\u2581Im": 5476,
  "\u2581collection": 5477,
  "\u2581auto": 5478,
  "\u2581esetekben": 5479,
  "\u2581\u00f6sszeg": 5480,
  "\u2581gyakorolt": 5481,
  "\u2581Blue": 5482,
  "\u2581separate": 5483,
  "\u2581okoz": 5484,
  "\u2581szakmai": 5485,
  "\u2581email": 5486,
  "\u2581gazdag": 5487,
  "\u2581v\u00e9get": 5488,
  "form": 5489,
  "\u2581hagyom\u00e1nyos": 5490,
  "\u2581device": 5491,
  "\u2581teljes\u00edtm\u00e9ny": 5492,
  "7/": 5493,
  "\u2581n\u00e9zz": 5494,
  "\u00fcnkben": 5495,
  "\u2581treat": 5496,
  "\u258172": 5497,
  "\u2581includes": 5498,
  "miket": 5499,
  "ml": 5500,
  "\u2581moved": 5501,
  "\u2581ball": 5502,
  "\u258115-": 5503,
  "cent": 5504,
  "\u2581aj\u00e1nlott": 5505,
  "\u2581Prague": 5506,
  "\u2581Arab": 5507,
  "\u2581(18": 5508,
  "\u2581wall": 5509,
  "\u2581prison": 5510,
  "\u2581funding": 5511,
  "\u2581Jer": 5512,
  "\u2581hamarosan": 5513,
  "\u2581Name": 5514,
  "ssza": 5515,
  "\u2581fels\u0151": 5516,
  "ezett": 5517,
  "\u2581lack": 5518,
  "\u2581Times": 5519,
  "\u2581h\u00fas": 5520,
  "\u2581mu": 5521,
  "\u2581blue": 5522,
  "CO": 5523,
  "ncs": 5524,
  "tal\u00e1l": 5525,
  "\u2581Earth": 5526,
  "\u2581regular": 5527,
  "\u2581maxim\u00e1lis": 5528,
  "\u2581figyelmet": 5529,
  "\u2581innovation": 5530,
  "\u2581hat\u00e1ssal": 5531,
  "shi": 5532,
  "k\u0151": 5533,
  "\u2581accounts": 5534,
  "\u2581walking": 5535,
  "oo": 5536,
  "Welcome": 5537,
  "He": 5538,
  "\u2581Ms": 5539,
  "\u2581extent": 5540,
  "\u2581climate": 5541,
  "\u2581Stan": 5542,
  "\u2581EK": 5543,
  "enged": 5544,
  "\u2581excellent": 5545,
  "NI": 5546,
  "\u2581glob\u00e1lis": 5547,
  "\u2581institution": 5548,
  "\u2581delivery": 5549,
  "\u2581Hun": 5550,
  "\u2581While": 5551,
  "\u2581m\u00e9r": 5552,
  "ester": 5553,
  "\u2581Eli": 5554,
  "\u2581color": 5555,
  "69": 5556,
  "dokumentum": 5557,
  "\u2581Ali": 5558,
  "\u2581fogjuk": 5559,
  "\u2581vagyis": 5560,
  "\u2581languages": 5561,
  "\u2581\u03bc": 5562,
  "\u2581acts": 5563,
  "\u2581otherwise": 5564,
  "\u2581technikai": 5565,
  "\u2581green": 5566,
  "\u2581azaz": 5567,
  "\u2581Alap": 5568,
  "\u2581mission": 5569,
  "\u2581stb": 5570,
  "ena": 5571,
  "\u258187": 5572,
  "\u2581regulation": 5573,
  "\u2581worried": 5574,
  "\u2581vak": 5575,
  "\u2581Fo": 5576,
  "\u2581establishment": 5577,
  "\u2581lying": 5578,
  "\u2581reached": 5579,
  "\u2581v\u00e9lem\u00e9ny": 5580,
  "\u2581Use": 5581,
  "\u2581gyakorlat": 5582,
  "\u2581helyek": 5583,
  "\u2581statement": 5584,
  "\u2581szed": 5585,
  "\u2581statistics": 5586,
  "\u2581views": 5587,
  "\u2581Bocs\u00e1nat": 5588,
  "\u2581efforts": 5589,
  "\u2581window": 5590,
  "\u2581mobil": 5591,
  "\u2581Someone": 5592,
  "\u2581\u00e1ll\u00e1s": 5593,
  "RR": 5594,
  "\u00fcn": 5595,
  "\u2581Kicsi": 5596,
  "\u2581HUF": 5597,
  "\u2581orvosi": 5598,
  "sim": 5599,
  "hetnek": 5600,
  "\u2581harcol": 5601,
  "g\u00e1s": 5602,
  "\u2581birth": 5603,
  "n\u00e9nk": 5604,
  "szer\u0171": 5605,
  "\u2581tiszt": 5606,
  "\u2581Remember": 5607,
  "\u258154": 5608,
  "\u2581symptoms": 5609,
  "zem": 5610,
  "\u2581showed": 5611,
  "\u2581insulin": 5612,
  "\u2581Gold": 5613,
  "\u2581[3]": 5614,
  "akar": 5615,
  "\u2581broke": 5616,
  "\u2581Watch": 5617,
  "\u2581structure": 5618,
  "rk": 5619,
  "\u2581projektek": 5620,
  "\u00e1s\u00e1t": 5621,
  "1-": 5622,
  "\u2581kutat\u00e1si": 5623,
  "sk": 5624,
  "\u2581k\u00e9sz\u00edtm\u00e9ny": 5625,
  "loc": 5626,
  "\u2581etc": 5627,
  "\u2581reporting": 5628,
  "\u2581Nagyszer\u0171": 5629,
  "\u2581jogszab\u00e1lyok": 5630,
  "but": 5631,
  "\u2581Translation": 5632,
  "\u2581illeti": 5633,
  "\u2581semmilyen": 5634,
  "\u2581reading": 5635,
  "\u2581\u00c1ltal\u00e1nos": 5636,
  "\u2581promote": 5637,
  "\u2581K\u00f6zpont": 5638,
  "\u2581esetleg": 5639,
  "\u2581financing": 5640,
  "\u2581haszn\u00e1lata": 5641,
  "\u2581adatai": 5642,
  "\u2581wonderful": 5643,
  "\u2581b\u00e9lyeg": 5644,
  "\u2581planning": 5645,
  "\u2581pregnant": 5646,
  "ile": 5647,
  "\u2581gy\u00f3gyszerek": 5648,
  "\u2581h\u00edvj\u00e1k": 5649,
  "\u2581Love": 5650,
  "\u2581Download": 5651,
  "ech": 5652,
  "\u2581\u00c9let": 5653,
  "\u2581Simon": 5654,
  "\u2581t\u00f6lt": 5655,
  "\u2581Lapj\u00e1ban": 5656,
  "\u2581Haj": 5657,
  "\u2581pozit\u00edv": 5658,
  "\u2581szerepel": 5659,
  "\u2581talked": 5660,
  "\u2581Lengyelorsz\u00e1g": 5661,
  "\u2581mon": 5662,
  "\u2581nyomoz\u00f3": 5663,
  "\u2581teszik": 5664,
  "\u2581standing": 5665,
  "\u2581vessels": 5666,
  "\u2581ch": 5667,
  "\u2581halad": 5668,
  "\u2581kisl\u00e1ny": 5669,
  "\u2581Financial": 5670,
  "tiszt": 5671,
  "\u2581Code": 5672,
  "\u2581finish": 5673,
  "\u2581bennem": 5674,
  "\u2581els\u0151sorban": 5675,
  "\u2581hagyja": 5676,
  "lehet\u0151s\u00e9g": 5677,
  "\u2581k\u00f6zz\u00e9": 5678,
  "\u2581Tarts": 5679,
  "\u2581Board": 5680,
  "\u2581ECB": 5681,
  "\u2581Protocol": 5682,
  "\u2581regulatory": 5683,
  "\u2581d\u00f6nt": 5684,
  "\u2581eml\u00e9kszem": 5685,
  "sz\u00f3": 5686,
  "\u2581emissions": 5687,
  "\u2581betegs\u00e9gek": 5688,
  "\u2581esz": 5689,
  "\u2581gondolkod": 5690,
  "jek": 5691,
  "\u2581gentlemen": 5692,
  "\u2581items": 5693,
  "\u00c1": 5694,
  "park": 5695,
  "\u2581Today": 5696,
  "\u2581Ban": 5697,
  "\u2581s\u00f6t\u00e9t": 5698,
  "\u2581students": 5699,
  "\u2581t\u00e1v\u00fa": 5700,
  "\u2581join": 5701,
  "\u2581interesting": 5702,
  "\u2581legyenek": 5703,
  "\u2581mutatja": 5704,
  "XX": 5705,
  "\u2581possibility": 5706,
  "\u2581affect": 5707,
  "osan": 5708,
  "ole": 5709,
  "\u2581tartja": 5710,
  "\u2581freedom": 5711,
  "\u2581s\u00fct": 5712,
  "\u2581watching": 5713,
  "\u2581concluded": 5714,
  "\u2581gondolja": 5715,
  "\u2581via": 5716,
  "\u2581elkezd": 5717,
  "tat\u00f3": 5718,
  "\u2581severe": 5719,
  "af": 5720,
  "\u2581alternative": 5721,
  "\u2581Policy": 5722,
  "\u2581bizony\u00edt\u00e9k": 5723,
  "\u2581csal\u00e1di": 5724,
  "\u2581h\u00f6lgy": 5725,
  "\u2581\u00e9letet": 5726,
  "\u2581Table": 5727,
  "87": 5728,
  "\u2581Thailand": 5729,
  "\u2581j\u00e1r\u00f3": 5730,
  "\u2581thinks": 5731,
  "\u2581sok\u00e1ig": 5732,
  "\u2581camp": 5733,
  "\u2581Sand": 5734,
  "\u2581T\u00f6r": 5735,
  "\u2581marriage": 5736,
  "\u2581forr\u00e1s": 5737,
  "\u2581G\u00f6r\u00f6gorsz\u00e1g": 5738,
  "DO": 5739,
  "\u2581Director": 5740,
  "\u2581option": 5741,
  "\u2581v\u00e1lik": 5742,
  "\u2581vonal": 5743,
  "\u2581killer": 5744,
  "\u2581rend\u0151r": 5745,
  "\u2581achieved": 5746,
  "\u2581Black": 5747,
  "\u2581v\u00e9d": 5748,
  "k\u00f6nyv": 5749,
  "\u2581v\u00e1g": 5750,
  "Te": 5751,
  "\u2581Move": 5752,
  "De": 5753,
  "\u2581stopped": 5754,
  "\u2581apja": 5755,
  "[": 5756,
  "\u2581Ye": 5757,
  "ol\u00f3giai": 5758,
  "cz": 5759,
  "\u2581lucky": 5760,
  "\u2581kiss": 5761,
  "\u2581\u00c9l": 5762,
  "mber": 5763,
  "-4": 5764,
  "\u2581Ser": 5765,
  "\u2581Private": 5766,
  "\u2581log": 5767,
  "\u2581Szabad": 5768,
  "attint": 5769,
  "\u2581labour": 5770,
  "\u2581kutya": 5771,
  "\u2581infrastructure": 5772,
  "\u2581Hall\u00f3": 5773,
  "\u2581lehetnek": 5774,
  "\u2581\u00e1lland\u00f3": 5775,
  "\u2581Fred": 5776,
  "hetem": 5777,
  "tette": 5778,
  "88": 5779,
  "lott": 5780,
  "\u2581v\u00e9gez": 5781,
  "MP": 5782,
  "\u2581software": 5783,
  "lev": 5784,
  "77": 5785,
  "\u2581Vol": 5786,
  "\u2581closed": 5787,
  "\u2581efficiency": 5788,
  "\u2581Under": 5789,
  "\u2581gonosz": 5790,
  "\u2581Once": 5791,
  "l\u00e9p\u00e9s": 5792,
  "\u2581k\u00e9pzel": 5793,
  "\u2581showing": 5794,
  "\u2581representative": 5795,
  "wo": 5796,
  "\u2581super": 5797,
  "\u2581ja": 5798,
  "\u2581szem\u00e9t": 5799,
  "zat": 5800,
  "\u2581visszat\u00e9r": 5801,
  "zer": 5802,
  "\u2581Vigy\u00e1zz": 5803,
  "\u2581failure": 5804,
  "\u2581soul": 5805,
  "\u2581instrument": 5806,
  "\u2581sza": 5807,
  "\u2581certificate": 5808,
  "fia": 5809,
  "\u258102": 5810,
  "\u2581nobody": 5811,
  "\u2581wind": 5812,
  "eg\u00e9szs\u00e9g\u00fcgyi": 5813,
  "\u2581Portug\u00e1lia": 5814,
  "\u2581nincsenek": 5815,
  "\u2581ami\u00e9rt": 5816,
  "\u2581vote": 5817,
  "\u2581foglalkoz\u00f3": 5818,
  "\u2581add": 5819,
  "\u2581entered": 5820,
  "k\u00f6d": 5821,
  "\u2581bekezd\u00e9s\u00e9re": 5822,
  "\u2581melyik": 5823,
  "\u2581sz\u00e9n": 5824,
  "lac": 5825,
  "\u2581proposals": 5826,
  "\u2581sold": 5827,
  "\u2581ugyan": 5828,
  "ero": 5829,
  "\u2581hat\u00e1rozata": 5830,
  "CS": 5831,
  "\u2581negative": 5832,
  "\u2581nyom\u00e1s": 5833,
  "\u2581sitting": 5834,
  "\u2581des": 5835,
  "\u2581golf": 5836,
  "sign": 5837,
  "42": 5838,
  "\u2581surprise": 5839,
  "iti": 5840,
  "\u2581developing": 5841,
  "\u2581f\u00e9m": 5842,
  "\u2581damage": 5843,
  "\u2581alkalmazhat\u00f3": 5844,
  "\u2581Louis": 5845,
  "number": 5846,
  "\u2581Wall": 5847,
  "rap": 5848,
  "\u2581movement": 5849,
  "\u2581Italian": 5850,
  "\u2581radio": 5851,
  "\u2581t\u00e1vols\u00e1gra": 5852,
  "ci\u00f3": 5853,
  "det": 5854,
  "\u2581imp": 5855,
  "\u2581careful": 5856,
  "\u2581K\u00f6z": 5857,
  "\u2581Minister": 5858,
  "\u2581ut": 5859,
  "\u2581Services": 5860,
  "\u2581fizikai": 5861,
  "\u2581Mont": 5862,
  "ille": 5863,
  "\u2581lift": 5864,
  "\u2581match": 5865,
  "cit": 5866,
  "\u2581Belgium": 5867,
  "board": 5868,
  "fl": 5869,
  "\u00b0": 5870,
  "\u2581Nobody": 5871,
  "\u2581latest": 5872,
  "\u2581earlier": 5873,
  "\u2581bathroom": 5874,
  "\u2581domestic": 5875,
  "\u2581release": 5876,
  "hatn\u00e1": 5877,
  "\u2581pontos": 5878,
  "pont": 5879,
  "\u2581fel\u00fcl": 5880,
  "\u2581j\u00e1t\u00e9kok": 5881,
  "\u2581reactions": 5882,
  "MS": 5883,
  "\u2581equivalent": 5884,
  "\u2581r\u00f3lam": 5885,
  "\u2581ta": 5886,
  "r\u00e1n": 5887,
  "\u2581Juli": 5888,
  "\u2581amounts": 5889,
  "\u2581Kft": 5890,
  "\u258195": 5891,
  "\u2581wrote": 5892,
  "anny": 5893,
  "ges": 5894,
  "\u2581tenn\u00e9": 5895,
  "pal": 5896,
  "\u2581megk\u00f6zel\u00edt\u00e9s": 5897,
  "\u2581hat\u00e1rozatot": 5898,
  "\u2581states": 5899,
  "\u2581restaurant": 5900,
  "\u2581club": 5901,
  "\u2581Shanghai": 5902,
  "\u2581registered": 5903,
  "\u2581approximately": 5904,
  "\u2581broken": 5905,
  "csoport": 5906,
  "jegy": 5907,
  "\u2581Party": 5908,
  "\u2581anywhere": 5909,
  "\u2581\u00e1llapot": 5910,
  "von": 5911,
  "ily": 5912,
  "\u2581jelleg\u0171": 5913,
  "\u2581shopping": 5914,
  "\u2581hozz\u00e1f\u00e9r\u00e9s": 5915,
  "\u2581hat\u00e1r": 5916,
  "\u2581com": 5917,
  "\u2581gyer\u00fcnk": 5918,
  "\u2581M\u00e9gis": 5919,
  "\u2581k\u00f6telezetts\u00e9gek": 5920,
  "\u2581kezel\u0151": 5921,
  "\u2581sz\u00f3t\u00e1r": 5922,
  "\u2581press": 5923,
  "\u2581Think": 5924,
  "\u2581el\u0151zetes": 5925,
  "\u2581operators": 5926,
  "lick": 5927,
  "\u2581gondolod": 5928,
  "\u2581t\u00e1mogatja": 5929,
  "\u2581contracts": 5930,
  "\u2581twice": 5931,
  "\u00e1s\u00e1ra": 5932,
  "\u2581ajt\u00f3": 5933,
  "\u2581IS": 5934,
  "k\u00f6z": 5935,
  "\u2581szok\u00e1sos": 5936,
  "\u2581\u00d6t": 5937,
  "\u2581Security": 5938,
  "ump": 5939,
  "\u2581Wo": 5940,
  "rick": 5941,
  "\u2581Foly\u00f3": 5942,
  "\u2581term\u00e9szetesen": 5943,
  "\u2581\u00fagyhogy": 5944,
  "\u2581mondhat": 5945,
  "k\u00f6r": 5946,
  "erson": 5947,
  "\u2581szab\u00e1lyoz\u00e1s": 5948,
  "\u2581aware": 5949,
  "\u2581Adat": 5950,
  "\u2581useful": 5951,
  "\u2581article": 5952,
  "\u2581elektromos": 5953,
  "\u2581sz\u00e1z": 5954,
  "\u2581Wil": 5955,
  "ative": 5956,
  "\u2581ir": 5957,
  "\u2581napj\u00e1n": 5958,
  "\u2581gr": 5959,
  "\u2581aim": 5960,
  "zuhan": 5961,
  "\u2581T\u00f6r\u00f6korsz\u00e1g": 5962,
  "una": 5963,
  "\u2581adoption": 5964,
  "\u2581Big": 5965,
  "\u2581Gall": 5966,
  "\u2581sufficient": 5967,
  "cell": 5968,
  "char": 5969,
  "SE": 5970,
  "\u2581ajt\u00f3t": 5971,
  "\u2581begin": 5972,
  "med": 5973,
  "tettem": 5974,
  "\u2581b\u00e1rmit": 5975,
  "\u2581mes\u00e9l": 5976,
  "\u2581seconds": 5977,
  "anti": 5978,
  "str": 5979,
  "\u2581components": 5980,
  "\u2581Amit": 5981,
  "\u2581rich": 5982,
  "\u2581trip": 5983,
  "\u2581Everyone": 5984,
  "\u2581Mike": 5985,
  "\u2581drugs": 5986,
  "lop": 5987,
  "\u2581exceeding": 5988,
  "\u2581\u00fcgyben": 5989,
  "\u2581Azon": 5990,
  "mos": 5991,
  "\u2581vil\u00e1gon": 5992,
  "\u2581appreciate": 5993,
  "Plus": 5994,
  "\u258130-": 5995,
  "\u25814,": 5996,
  "\u2581v\u00e9grehajt\u00e1sa": 5997,
  "\u2581acting": 5998,
  "\u2581pu": 5999,
  "67": 6000,
  "\u2581Nyelv": 6001,
  "t\u00f6rt": 6002,
  "\u2581kitchen": 6003,
  "\u2581exercise": 6004,
  "\u2581ism\u00e9t": 6005,
  "56": 6006,
  "\u00e1lni": 6007,
  "\u2581sz\u00e1zad": 6008,
  "\u2581tartalma": 6009,
  "\u2581ugyanakkor": 6010,
  "\u2581t\u00f6rt\u00e9nelmi": 6011,
  "\u2581Kir": 6012,
  "\u2581strat\u00e9gia": 6013,
  "\u2581contain": 6014,
  "\u2581\u00f3r\u00e1n": 6015,
  "\u2581undertaking": 6016,
  "\u2581budd": 6017,
  "\u258161": 6018,
  "\u2581\u00c9v": 6019,
  "\u2581abb\u00f3l": 6020,
  "\u2581reggelt": 6021,
  "\u258188": 6022,
  "oid": 6023,
  "\u2581manner": 6024,
  "\u2581\u0150r": 6025,
  "\u2581m\u00f3d": 6026,
  "\u2581f\u00e9rj": 6027,
  "\u2581\u00e9rti": 6028,
  "\u2581feles\u00e9g": 6029,
  "\u2581k\u00e9pvisel\u0151": 6030,
  "erek": 6031,
  "\u2581doubt": 6032,
  "mor": 6033,
  "\u2581kedvezm\u00e9nyezett": 6034,
  "\u2581fell": 6035,
  "\u2581kaptam": 6036,
  "\u2581pokol": 6037,
  "jam": 6038,
  "5.": 6039,
  "\u2581t\u00fcnetek": 6040,
  "\u2581Ger": 6041,
  "\u2581\u00f6r\u00fcl\u00f6k": 6042,
  "\u2581media": 6043,
  "\u2581System": 6044,
  "t\u00e9ri": 6045,
  "\u2581(0)": 6046,
  "\u2581adta": 6047,
  "SZ": 6048,
  "ruh\u00e1": 6049,
  "\u2581cells": 6050,
  "\u2581Igaz\u00e1n": 6051,
  "\u2581prove": 6052,
  "\u2581Aki": 6053,
  "tol": 6054,
  "\u00e9si": 6055,
  "dr": 6056,
  "\u2581hib\u00e1": 6057,
  "utas": 6058,
  "\u2581construction": 6059,
  "\u2581piacon": 6060,
  "\u2581N\u00e9ha": 6061,
  "\u2581tag\u00e1llamoknak": 6062,
  "\u2581H\u00e1ny": 6063,
  "dis": 6064,
  "anyag": 6065,
  "\u2581ability": 6066,
  "\u2581kereszt": 6067,
  "\u2581Han": 6068,
  "\u2581\u00e9rt\u00e9kel\u00e9se": 6069,
  "\u2581lines": 6070,
  "tar": 6071,
  "\u2581k\u00e9rd\u00e9st": 6072,
  "\u2581\u00dcgy": 6073,
  "aink": 6074,
  "vette": 6075,
  "\u2581unique": 6076,
  "\u2581tal\u00e1lni": 6077,
  "\u2581\u00e9leted": 6078,
  "\u25812001": 6079,
  "\u2581traffic": 6080,
  "\u2581Mas": 6081,
  "\u2581gold": 6082,
  "\u2581k\u00e9pek": 6083,
  "san": 6084,
  "\u2581saved": 6085,
  "\u2581Turkey": 6086,
  "\u2581tired": 6087,
  "hole": 6088,
  "\u2581\u00f6sszesen": 6089,
  "\u00e1sok": 6090,
  "\u2581race": 6091,
  "inak": 6092,
  "m\u00e9nyek": 6093,
  "\u2581Try": 6094,
  "\u2581military": 6095,
  "\u2581ut\u00f3bbi": 6096,
  "\u2581image": 6097,
  "\u2581annyit": 6098,
  "\u2581industrial": 6099,
  "\u2581b\u00edr\u00f3": 6100,
  "hatn\u00e1nk": 6101,
  "\u2581fuel": 6102,
  "rich": 6103,
  "\u2581Nemzetk\u00f6zi": 6104,
  "\u2581Moscow": 6105,
  "\u2581bought": 6106,
  "\u2581n\u00f6veked\u00e9s": 6107,
  "\u2581Isn": 6108,
  "\u2581master": 6109,
  "\u2581V\u00e9g\u00fcl": 6110,
  "\u2581planet": 6111,
  "\u2581lehet\u0151s\u00e9gek": 6112,
  "\u2581t\u0171n": 6113,
  "\u2581\u00e1tfog\u00f3": 6114,
  "\u2581kijel\u00f6lt": 6115,
  "\u2581serve": 6116,
  "\u2581Rend": 6117,
  "41": 6118,
  "\u2581Anti": 6119,
  "\u2581csont": 6120,
  "\u2581consumers": 6121,
  "\u2581count": 6122,
  "\u258158": 6123,
  "\u2581reggeli": 6124,
  "\u2581L\u00e1ttam": 6125,
  "er\u0151": 6126,
  "\u2581igazgat\u00f3": 6127,
  "knak": 6128,
  "itis": 6129,
  "\u2581Arc": 6130,
  "\u2581titeket": 6131,
  "\u2581president": 6132,
  "\u2581rejt": 6133,
  "cio": 6134,
  "\u2581undertakings": 6135,
  "\u2581Australia": 6136,
  "\u2581payments": 6137,
  "\u2581tri": 6138,
  "\u2581Bre": 6139,
  "tr": 6140,
  "\u2581sz\u00e1m\u00edt\u00f3g\u00e9p": 6141,
  "\u2581fo": 6142,
  "\u2581birthday": 6143,
  "j\u00e9n": 6144,
  "\u2581hat\u00e1sa": 6145,
  "\u2581teszt": 6146,
  "\u2581demand": 6147,
  "\u2581neither": 6148,
  "\u2581Although": 6149,
  "\u2581\u00e9let\u00e9t": 6150,
  "\u2581gift": 6151,
  "\u2581emergency": 6152,
  "\u2581Food": 6153,
  "\u25812:": 6154,
  "m\u0171": 6155,
  "\u2581clothes": 6156,
  "\u2581percet": 6157,
  "\u00e9b": 6158,
  "\u2581mindk\u00e9t": 6159,
  "\u2581Teljesen": 6160,
  "\u2581k\u00e9z": 6161,
  "\u2581egyenl\u0151": 6162,
  "\u2581huge": 6163,
  "\u2581\u00f6r\u00fcl": 6164,
  "yt": 6165,
  "\u00edn": 6166,
  "\u25812003.": 6167,
  "\u2581Leave": 6168,
  "mann": 6169,
  "\u2581gyakori": 6170,
  "\u2581requires": 6171,
  "\u2581Management": 6172,
  "itz": 6173,
  "\u2581rosszul": 6174,
  "\u2581customers": 6175,
  "\u2581l\u00e9trehoz\u00f3": 6176,
  "\u2581Tov\u00e1bb": 6177,
  "\u2581dr\u00e1g\u00e1m": 6178,
  "\u2581machines": 6179,
  "\u2581Product": 6180,
  "\u2581Vas": 6181,
  "j\u00e1r": 6182,
  "\u2581hideg": 6183,
  "\u2581ko": 6184,
  "\u2581contribute": 6185,
  "\u2581rent": 6186,
  "\u2581hat\u00e1s": 6187,
  "\u2581eset": 6188,
  "rm": 6189,
  "\u2581Egyszer": 6190,
  "\u2581Thaif\u00f6ld": 6191,
  "\u2581menj\u00fcnk": 6192,
  "IM": 6193,
  "\u2581presence": 6194,
  "\u2581tan\u00e1cs": 6195,
  "\u2581v\u00e1rhat\u00f3": 6196,
  "\u2581Thomas": 6197,
  "pel": 6198,
  "tet\u00e9s": 6199,
  "\u2581nyitott": 6200,
  "war": 6201,
  "p\u00e1": 6202,
  "UR": 6203,
  "\u2581vette": 6204,
  "\u2581elevat": 6205,
  "\u2581Hat\u00f3s\u00e1g": 6206,
  "mentes": 6207,
  "RO": 6208,
  "fo": 6209,
  "\u2581finished": 6210,
  "\u2581tagjai": 6211,
  "\u2581powers": 6212,
  "\u2581factors": 6213,
  "\u2581participation": 6214,
  "t\u00e1rs": 6215,
  "\u2581t\u00e9tel": 6216,
  "\u2581haszn\u00e1lj\u00e1k": 6217,
  "bert": 6218,
  "\u2581net": 6219,
  "\u2581unto": 6220,
  "\u2581Sho": 6221,
  "\u2581consumer": 6222,
  "\u2581em": 6223,
  "\u2581requested": 6224,
  "h\u00e9": 6225,
  "\u2581\u00f6r\u00f6k": 6226,
  "\u2581oly": 6227,
  "zar": 6228,
  "s\u00e1": 6229,
  "\u2581felv\u00e9tel": 6230,
  "\u2581\u00e9rez": 6231,
  "mi\u00f3ta": 6232,
  "phone": 6233,
  "kos": 6234,
  "\u2581EKB": 6235,
  "\u2581smoking": 6236,
  "\u258167": 6237,
  "\u2581Mondja": 6238,
  "\u2581ipari": 6239,
  "\u2581fenn": 6240,
  "\u2581besz\u00e9d": 6241,
  "\u2581baleset": 6242,
  "\u2581furcsa": 6243,
  "\u2581Sz\u00edn": 6244,
  "\u2581boat": 6245,
  "\u2581pr": 6246,
  "\u2581vir\u00e1g": 6247,
  "\u2581t\u00f6nkre": 6248,
  "\u258104": 6249,
  "\u2581Kel": 6250,
  "57": 6251,
  "\u2581P\u00e1l": 6252,
  "\u2581cselekv\u00e9s": 6253,
  "matic": 6254,
  "\u2581hirtelen": 6255,
  "\u2581cancer": 6256,
  "n\u00e9d": 6257,
  "\u2581Hel": 6258,
  "\u2581K\u00e9rj\u00fck": 6259,
  "\u2581Stock": 6260,
  "nyuk": 6261,
  "\u2581k\u00edv\u00e1n": 6262,
  "\u2581actual": 6263,
  "\u2581figyelj": 6264,
  "\u2581jogosult": 6265,
  "\u2581folyamatosan": 6266,
  "\u2581killing": 6267,
  "\u2581lesz\u00fcnk": 6268,
  "\u2581architecture": 6269,
  "\u2581rendk\u00edv\u00fcl": 6270,
  "78": 6271,
  "based": 6272,
  "vezet\u0151": 6273,
  "\u2581alfa": 6274,
  "\u2581Human": 6275,
  "n\u00e1nak": 6276,
  "\u2581szab\u00e1ly": 6277,
  "\u2581REGULATION": 6278,
  "\u2581tudnak": 6279,
  "\u2581cat": 6280,
  "\u2581college": 6281,
  "\u2581\u00fcres": 6282,
  "\u2581finom": 6283,
  "izmus": 6284,
  "\u2581kapcsolatot": 6285,
  "\u00f6z": 6286,
  "\u2581Petersburg": 6287,
  "\u2581f\u00f6ldrajzi": 6288,
  "\u2581kert": 6289,
  "\u2581forever": 6290,
  "\u0171n": 6291,
  "\u2581K\u00fcl": 6292,
  "including": 6293,
  "\u2581facilities": 6294,
  "\u2581opportunities": 6295,
  "\u2581raise": 6296,
  "\u2581nyomon": 6297,
  "\u2581yesterday": 6298,
  "\u2581wake": 6299,
  "\u2581j\u00e1rm\u0171vek": 6300,
  "\u2581elv": 6301,
  "\u2581h\u00e1za": 6302,
  "\u2581sz\u00fcletett": 6303,
  "\u2581applicant": 6304,
  "\u2581helping": 6305,
  "IC": 6306,
  "\u2581advantage": 6307,
  "\u2581K\u00fcl\u00f6n": 6308,
  "\u2581h\u00e1l\u00f3": 6309,
  "\u2581v\u00e9gs\u0151": 6310,
  "\u2581meg\u00e1llapod\u00e1sok": 6311,
  "ons": 6312,
  "\u2581medicines": 6313,
  "\u2581doktor": 6314,
  "\u2581j\u00e1t\u00e9kos": 6315,
  "kezel\u00e9s": 6316,
  "\u2581nev\u0171": 6317,
  "\u2581v\u00e1rja": 6318,
  "\u2581victim": 6319,
  "\u2581Law": 6320,
  "\u2581Sil": 6321,
  "\u2581t\u00e9ny": 6322,
  "py": 6323,
  "\u2581k\u00f3d": 6324,
  "\u2581v\u00e9gz\u0151": 6325,
  "\u2581Turn": 6326,
  "\u2581n\u0151t": 6327,
  "\u2581operational": 6328,
  "\u2581hero": 6329,
  "vas": 6330,
  "ount": 6331,
  "\u2581realize": 6332,
  "2,": 6333,
  "................": 6334,
  "\u2581t\u0151led": 6335,
  "sti": 6336,
  "\u2581any\u00e1d": 6337,
  "\u2581tervez": 6338,
  "ound": 6339,
  "\u2581egy\u00e9ni": 6340,
  "\u2581Pet": 6341,
  "\u2581song": 6342,
  "\u2581records": 6343,
  "\u2581biztos\u00edtott": 6344,
  "alis": 6345,
  "\u2581es\u0151": 6346,
  "\u2581Ab": 6347,
  "nor": 6348,
  "\u2581seg\u00edts\u00e9get": 6349,
  "\u2581ladies": 6350,
  "\u2581l\u00e9nyeg": 6351,
  "\u2581L\u00e1tta": 6352,
  "press": 6353,
  "\u2581mor": 6354,
  "\u2581characteristics": 6355,
  "\u2581lunch": 6356,
  "\u2581\u00e1rul": 6357,
  "\u2581modell": 6358,
  "cut": 6359,
  "\u2581determine": 6360,
  "}": 6361,
  "eth": 6362,
  "IS": 6363,
  "\u2581distribution": 6364,
  "\u2581led": 6365,
  "nu": 6366,
  "\u2581sz\u00e9ps\u00e9g": 6367,
  "\u2581k\u00e9rt": 6368,
  "\u2581szeretet": 6369,
  "\u2581k\u00f6rnyezeti": 6370,
  "\u2581proud": 6371,
  "\u2581Francisco": 6372,
  "TM": 6373,
  "\u2581Mother": 6374,
  "eri": 6375,
  "\u2581\u00e9rtelme": 6376,
  "f\u00fcggetlen": 6377,
  "lad": 6378,
  "\u2581hozz\u00e1j\u00e1rul\u00e1s": 6379,
  "\u2581missed": 6380,
  "\u2581Land": 6381,
  "\u2581info": 6382,
  "\u2581l\u00e9tezik": 6383,
  "LE": 6384,
  "\u2581haszn\u00e1lja": 6385,
  "ili": 6386,
  "\u2581Inc": 6387,
  "\u2581bolt": 6388,
  "\u2581Programme": 6389,
  "vid": 6390,
  "\u2581nyelv\u0171": 6391,
  "\u2581r\u00e9szben": 6392,
  "par": 6393,
  "jetek": 6394,
  "hy": 6395,
  "ras": 6396,
  "\u2581cs\u00f6kkent": 6397,
  "\u2581der": 6398,
  "\u2581sz\u00f3rakoz": 6399,
  "\u2581century": 6400,
  "\u2581Email": 6401,
  "\u2581Company": 6402,
  "\u2581utat": 6403,
  "ward": 6404,
  "ised": 6405,
  "\u25811999": 6406,
  "Statisztika": 6407,
  "\u2581alatti": 6408,
  "\u2581wide": 6409,
  "\u2581t\u00f6r": 6410,
  "VE": 6411,
  "\u2581Hit": 6412,
  "\u2581l\u00e1that": 6413,
  "\u2581flight": 6414,
  "\u2581border": 6415,
  "\u00e1kat": 6416,
  "\u2581passed": 6417,
  "\u2581cip\u0151": 6418,
  "\u2581sziget": 6419,
  "\u2581ju": 6420,
  "\u2581ter\u00fcletek": 6421,
  "\u2581f\u00e9rje": 6422,
  "\u2581maintenance": 6423,
  "\u2581taste": 6424,
  "\u2581l\u00f3": 6425,
  "ul\u00e1s": 6426,
  "\u2581definitely": 6427,
  "\u2581limits": 6428,
  "ming": 6429,
  "\u2581none": 6430,
  "\u2581zen\u00e9": 6431,
  "\u2581lop": 6432,
  "\u2581Euratom": 6433,
  "\u2581practices": 6434,
  "\u2581l\u00e9g": 6435,
  "\u2581s\u00f6r": 6436,
  "f\u00e9l": 6437,
  "51": 6438,
  "tiv\u00e1l": 6439,
  "\u2581eb\u00e9d": 6440,
  "\u2581teszem": 6441,
  "\u2581mark": 6442,
  "\u2581medium": 6443,
  "98": 6444,
  "\u2581Ur": 6445,
  "\u2581Africa": 6446,
  "\u25816-": 6447,
  "\u2581path": 6448,
  "\u2581referencia": 6449,
  "\u2581kultur\u00e1lis": 6450,
  "\u2581viselked": 6451,
  "\u2581bear": 6452,
  "\u2581szolg\u00e1lat": 6453,
  "amin": 6454,
  "h\u00f3": 6455,
  "\u2581arm": 6456,
  "\u2581kezel\u00e9se": 6457,
  "\u2581ice": 6458,
  "\u2581nyit": 6459,
  "\u00e4": 6460,
  "\u2581reality": 6461,
  "\u2581sectors": 6462,
  "\u2581terrible": 6463,
  "\u2581debt": 6464,
  "\u2581Tag": 6465,
  "\u2581l\u00e1tszik": 6466,
  "ering": 6467,
  "\u2581Washington": 6468,
  "\u2581Sze": 6469,
  "\u2581bel": 6470,
  "gondol": 6471,
  "\u00e9s\u00e9t": 6472,
  "\u2581f\u00e9nyk\u00e9p": 6473,
  "\u2581steel": 6474,
  "iai": 6475,
  "\u2581fogva": 6476,
  "\u2581List": 6477,
  "\u2581swear": 6478,
  "\u2581kezdem\u00e9nyez\u00e9s": 6479,
  "\u2581vettem": 6480,
  "\u2581offered": 6481,
  "vent": 6482,
  "\u2581Boldog": 6483,
  "\u2581t\u00f6lt\u00f6tt": 6484,
  "\u2581temperature": 6485,
  "Egy": 6486,
  "\u2581Register": 6487,
  "\u2581t\u00e9nyleges": 6488,
  "keres": 6489,
  "\u2581P\u00e1r": 6490,
  "\u25812002.": 6491,
  "\u2581Rajta": 6492,
  "r\u00e9sz": 6493,
  "zett": 6494,
  "sztr": 6495,
  "54": 6496,
  "\u2581k\u00f6sz\u00f6nhet\u0151en": 6497,
  "\u2581mondt\u00e1k": 6498,
  "\u2581egyetem": 6499,
  "\")": 6500,
  "\u2581halt": 6501,
  "csillag": 6502,
  "\u2581White": 6503,
  "pen": 6504,
  "\u2581orosz": 6505,
  "\u2581wearing": 6506,
  "\u2581concern": 6507,
  "\u2581Oo": 6508,
  "\u2581m\u00f3dosul": 6509,
  "\u258159": 6510,
  "\u2581Trade": 6511,
  "\u258163": 6512,
  "\u2581Hov\u00e1": 6513,
  "\u2581strength": 6514,
  "ort": 6515,
  "\u2581officer": 6516,
  "rov": 6517,
  "\u2581signed": 6518,
  "\u2581biztos\u00edtja": 6519,
  "\u2581rosszabb": 6520,
  "\u2581ensuring": 6521,
  "\u2581hundred": 6522,
  "\u2581suck": 6523,
  "\u2581utaz": 6524,
  "\u2581Tan\u00fa": 6525,
  "\u2581utaz\u00e1s": 6526,
  "\u2581elrendelt": 6527,
  "\u2581venue": 6528,
  "tassa": 6529,
  "\u2581slow": 6530,
  "\u2581elegend\u0151": 6531,
  "\u2581honnan": 6532,
  "\u2581sz\u00edvesen": 6533,
  "\u2581Att\u00f3l": 6534,
  "\u2581fool": 6535,
  "\u2581Hor": 6536,
  "ato": 6537,
  "long": 6538,
  "\u2581tej": 6539,
  "\u2581Out": 6540,
  "cher": 6541,
  "jei": 6542,
  "\u2581felszerelt": 6543,
  "\u2581seg\u00edtett": 6544,
  "\u2581m\u00e1sodperc": 6545,
  "\u2581dokumentumok": 6546,
  "\u2581draft": 6547,
  "\u2581oh": 6548,
  "ks": 6549,
  "\u2581sz\u00fclei": 6550,
  "\u2581bolyg\u00f3": 6551,
  "\u258120.": 6552,
  "\u2581egym\u00e1s": 6553,
  "\u2581remains": 6554,
  "\u2581sz\u00f6rny\u0171": 6555,
  "\u2581named": 6556,
  "\u2581felhaszn\u00e1l\u00f3k": 6557,
  "\u2581guest": 6558,
  "\u258199": 6559,
  "szter": 6560,
  "\u0150": 6561,
  "\u2581hadd": 6562,
  "\u2581plants": 6563,
  "\u2581tan\u00e1r": 6564,
  "\u2581Down": 6565,
  "\u2581hozni": 6566,
  "\u2581eredm\u00e9ny": 6567,
  "\u2581Program": 6568,
  "\u2581\u00e1tmeneti": 6569,
  "\u2581spanyol": 6570,
  "\u2581Egyetem": 6571,
  "71": 6572,
  "\u2581ennyire": 6573,
  "\u2581heat": 6574,
  "\u2581examples": 6575,
  "\u2581former": 6576,
  "\u2581Ham": 6577,
  "\u2581visiting": 6578,
  "\u2581klub": 6579,
  "4.": 6580,
  "\u2581kop": 6581,
  "EG": 6582,
  "\u2581GDP": 6583,
  "\u2581magic": 6584,
  "\u2581Best": 6585,
  "\u2581naponta": 6586,
  "max": 6587,
  "\u2581ya": 6588,
  "\u2581sz\u00fcks\u00e9g\u00fcnk": 6589,
  "\u258174": 6590,
  "\u2581Master": 6591,
  "\u2581summer": 6592,
  "\u2581var\u00e1zs": 6593,
  "\u2581v\u00e1laszol": 6594,
  "\u2581sources": 6595,
  "\u2581plane": 6596,
  "\u2581\u00e1ltali": 6597,
  "\u2581folytat": 6598,
  "\u2581sorozat": 6599,
  "aza": 6600,
  "\u2581submit": 6601,
  "\u2581correct": 6602,
  "\u2581primary": 6603,
  "\u2581ob": 6604,
  "\u2581imagine": 6605,
  "\u2581maintain": 6606,
  "nder": 6607,
  "\u2581norm\u00e1lis": 6608,
  "\u258124.": 6609,
  "mintegy": 6610,
  "\u2581evil": 6611,
  "ith": 6612,
  "\u2581nemcsak": 6613,
  "\u2581jap\u00e1n": 6614,
  "ury": 6615,
  "\u2581vil\u00e1gos": 6616,
  "\u2581l\u00e1ba": 6617,
  "\u2581increasing": 6618,
  "\u2581maradni": 6619,
  "b\u00e1l": 6620,
  "\u2581options": 6621,
  "\u2581orders": 6622,
  "52": 6623,
  "\u2581Nyom": 6624,
  "\u2581appear": 6625,
  "ions": 6626,
  "ase": 6627,
  "v\u00e1s\u00e1rl\u00f3": 6628,
  "\u2581excuse": 6629,
  "\u258125.": 6630,
  "\u2581dress": 6631,
  "stan": 6632,
  "\u258177": 6633,
  "\u2581eg\u00e9szs\u00e9g": 6634,
  "\u2581V\u00e1r": 6635,
  "\u2581oktat\u00e1s": 6636,
  "ging": 6637,
  "\u2581ide\u00e9rtve": 6638,
  "\u2581r\u00e1nk": 6639,
  "\u2581negat\u00edv": 6640,
  "\u2581ti\u00e9d": 6641,
  "\u2581operator": 6642,
  "\u00d6": 6643,
  "\u2581ugyanaz": 6644,
  "\u2581engine": 6645,
  "ire": 6646,
  "\u2581traditional": 6647,
  "\u2581initial": 6648,
  "\u2581v\u00e1llalatok": 6649,
  "\u2581categories": 6650,
  "\u2581garden": 6651,
  "\u2581horse": 6652,
  "\u2581Us": 6653,
  "\u2581Amint": 6654,
  "\u2581rendez": 6655,
  "\u2581oldat": 6656,
  "\u2581c\u00edme": 6657,
  "\u2581audit": 6658,
  "\u2581Pol": 6659,
  "\u2581cultural": 6660,
  "\u2581h\u00e1tra": 6661,
  "\u2581herceg": 6662,
  "\u2581parti": 6663,
  "\u2581regulations": 6664,
  "\u2581feln\u0151tt": 6665,
  "dor": 6666,
  "\u2581Palace": 6667,
  "p\u00e9nz": 6668,
  "\u2581Dia": 6669,
  "\u2581800": 6670,
  "\u2581receiving": 6671,
  "\u00e9ter": 6672,
  "\u2581Language": 6673,
  "enti": 6674,
  "\u2581k\u00e9relem": 6675,
  "CE": 6676,
  "ikon": 6677,
  "\u2581stick": 6678,
  "\u2581[...]": 6679,
  "\u2581Vannak": 6680,
  "\u2581direction": 6681,
  "\u2581began": 6682,
  "adni": 6683,
  "ssa": 6684,
  "\u2581Val\u00f3ban": 6685,
  "alom": 6686,
  "\u2581t\u00f6meg": 6687,
  "lia": 6688,
  "\u2581eml\u00e9kez": 6689,
  "\u2581profit": 6690,
  "\u2581mester": 6691,
  "\u2581szerelem": 6692,
  "back": 6693,
  "\u2581Ray": 6694,
  "\u2581Tal\u00e1lkoz": 6695,
  "\u2581elj\u00f6tt": 6696,
  "\u2581tanul": 6697,
  "\u2581perhaps": 6698,
  "\u25815,": 6699,
  "\u2581jogot": 6700,
  "\u2581uraim": 6701,
  "\u2581Has": 6702,
  "\u2581Guy": 6703,
  "\u2581meghat\u00e1roz\u00e1sa": 6704,
  "\u2581claim": 6705,
  "\u2581130": 6706,
  "\u2581n\u00e9zni": 6707,
  "witter": 6708,
  "\u2581sz\u00f6rny": 6709,
  "k\u00e9r": 6710,
  "\u2581\u00f6sszef\u00fcgg\u00e9sben": 6711,
  "\u2581marry": 6712,
  "\u2581alacsonyabb": 6713,
  "\u2581strange": 6714,
  "\u2581r\u00e9gi\u00f3": 6715,
  "\u2581putting": 6716,
  "\u2581Romania": 6717,
  "\u2581Year": 6718,
  "\u2581articles": 6719,
  "elni": 6720,
  "\u2581Film": 6721,
  "isten": 6722,
  "\u2581Meg\u00e9rte": 6723,
  "\u2581Tedd": 6724,
  "73": 6725,
  "hatta": 6726,
  "\u2581csom\u00f3": 6727,
  "NA": 6728,
  "\u2581implemented": 6729,
  "osis": 6730,
  "k\u00fcld": 6731,
  "\u2581l\u00e1tsz": 6732,
  "vor": 6733,
  "\u2581st": 6734,
  "\u2581meg\u00e1ll": 6735,
  "\u2581SA": 6736,
  "\u2581sz\u00e9k": 6737,
  "\u2581Photo": 6738,
  "ol\u00f3gia": 6739,
  "\u258198": 6740,
  "j\u00e9t\u0151l": 6741,
  "\u2581\u00edz": 6742,
  "\u2581amendments": 6743,
  "\u258168": 6744,
  "\u2581Share": 6745,
  "\u2581Spanish": 6746,
  "\u2581id\u0151szakra": 6747,
  "\u258191": 6748,
  "\u2581fighting": 6749,
  "\u2581t\u00e1rgy": 6750,
  "\u2581tools": 6751,
  "\u2581fejl\u0151d\u00e9s": 6752,
  "LI": 6753,
  "\u258162": 6754,
  "era": 6755,
  "ked\u00e9s": 6756,
  "3,": 6757,
  "\u2581ourselves": 6758,
  "\u2581igazat": 6759,
  "\u2581C\u00edm": 6760,
  "\u2581k\u00e9pet": 6761,
  "\u2581Mag\u00e1n": 6762,
  "v\u00e9delmi": 6763,
  "\u2581ketten": 6764,
  "abban": 6765,
  "\u2581os": 6766,
  "\u2581kellemes": 6767,
  "\u2581zs\u00edr": 6768,
  "\u2581bro": 6769,
  "\u2581font": 6770,
  "\u00e9\u00e9rt": 6771,
  "\u2581Bet": 6772,
  "\u2581el\u0151ad\u00e1s": 6773,
  "\u2581criminal": 6774,
  "\u2581tea": 6775,
  "\u2581k\u00e9pesek": 6776,
  "\u2581h\u00edres": 6777,
  "\u2581accepted": 6778,
  "\u2581entity": 6779,
  "ale": 6780,
  "\u2581rock": 6781,
  "\u2581szinte": 6782,
  "\u2581easily": 6783,
  "\u2581helped": 6784,
  "\u2581Gran": 6785,
  "not": 6786,
  "pol": 6787,
  "\u2581kint": 6788,
  "\u2581h\u00edv\u00e1s": 6789,
  "k\u00f6rnyezetv\u00e9delmi": 6790,
  "\u2581keeping": 6791,
  "\u2581beauty": 6792,
  "\u258164": 6793,
  "\u2581olvas": 6794,
  "\u2581zs": 6795,
  "\u2581\u00e1m": 6796,
  "rant": 6797,
  "7.": 6798,
  "\u2581h\u00f3napban": 6799,
  "\u2581n\u00e9zze": 6800,
  "\u2581sz\u00edves": 6801,
  "\u2581Perhaps": 6802,
  "\u2581t\u00e1j\u00e9koztat\u00f3": 6803,
  "\u2581Ric": 6804,
  "\u2581Yo": 6805,
  "\u2581lived": 6806,
  "\u2581agent": 6807,
  "\u2581\u00f6nt": 6808,
  "ea": 6809,
  "\u2581cukor": 6810,
  "\u2581favor": 6811,
  "\u2581tour": 6812,
  "mutat": 6813,
  "94": 6814,
  "jut": 6815,
  "el\u00e9s": 6816,
  "\u2581resolution": 6817,
  "\u2581P\u00e9ld\u00e1ul": 6818,
  "\u00e9ssel": 6819,
  "92": 6820,
  "\u2581thousand": 6821,
  "\u2581>": 6822,
  "tott": 6823,
  "\u2581r\u00e9m": 6824,
  "hetsz": 6825,
  "\u2581j\u00e1tszani": 6826,
  "\u2581Shar": 6827,
  "\u2581berendez\u00e9sek": 6828,
  "\u2581Jean": 6829,
  "\u2581quantities": 6830,
  "\u2581kev\u00e9sb\u00e9": 6831,
  "\u2581\u00fajs\u00e1g": 6832,
  "\u2581success": 6833,
  "\u2581folyamatos": 6834,
  "\u2581sors": 6835,
  "\u2581figyelm": 6836,
  "\u2581miles": 6837,
  "\u2581helyzetben": 6838,
  "\u2581enged\u00e9lyezett": 6839,
  "\u2581Still": 6840,
  "\u2581hide": 6841,
  "\u2581nyolc": 6842,
  "s\u00e9k": 6843,
  "\u2581Li": 6844,
  "\u2581r\u00e1di\u00f3": 6845,
  "\u2581skills": 6846,
  "\u2581feels": 6847,
  "\u258123.": 6848,
  "\u2581gal": 6849,
  "\u0103": 6850,
  "\u2581gomb": 6851,
  "ima": 6852,
  "\u2581eg\u00e9szs\u00e9ges": 6853,
  "\u2581Fer": 6854,
  "\u2581entirety": 6855,
  "\u2581recently": 6856,
  "win": 6857,
  "\u2581k\u00f6lts\u00e9gvet\u00e9s": 6858,
  "\u2581k\u00e9tszer": 6859,
  "\u2581Mindj\u00e1rt": 6860,
  "\u2581obligation": 6861,
  "\u2581rendszert": 6862,
  "\u2581platform": 6863,
  "uit": 6864,
  "aid": 6865,
  "\u2581learned": 6866,
  "\u2581Forr\u00e1s": 6867,
  "\u2581calculated": 6868,
  "\u2581fogyaszt\u00f3k": 6869,
  "\u2581proper": 6870,
  "\u2581mindenkinek": 6871,
  "\u2581faj": 6872,
  "\u2581fields": 6873,
  "\u2581affected": 6874,
  "\u2581v\u00edrus": 6875,
  "edett": 6876,
  "\u258103": 6877,
  "\u010d": 6878,
  "\u2581eln\u00f6ke": 6879,
  "\u2581Szolg\u00e1l": 6880,
  "84": 6881,
  "\u2581joke": 6882,
  "\u2581alig": 6883,
  "\u2581onnan": 6884,
  "\u2581Location": 6885,
  "\u2581grow": 6886,
  "\u2581Dun": 6887,
  "\u2581k\u00f6vetkezt\u00e9ben": 6888,
  "83": 6889,
  "ison": 6890,
  "hit": 6891,
  "kh": 6892,
  "\u2581performed": 6893,
  "j\u00fa": 6894,
  "\u2581\u00cd": 6895,
  "\u2581Rad": 6896,
  "\u2581camera": 6897,
  "\u2581k\u00f6lts\u00e9g": 6898,
  "\u2581n\u00e9zve": 6899,
  "\u2581v\u00e1rt": 6900,
  "\u2581orr": 6901,
  "tal\u00e1lta": 6902,
  "\u2581\u00fatj\u00e1n": 6903,
  "\u2581d\u00f6nt\u00f6tt": 6904,
  "\u2581Jav": 6905,
  "ess\u00e9g": 6906,
  "96": 6907,
  "TA": 6908,
  "\u2581Vagyis": 6909,
  "\u2581lay": 6910,
  "\u2581priority": 6911,
  "\u2581adverse": 6912,
  "\u2581ENSZ": 6913,
  "\u00e1ll\u00edt\u00e1s": 6914,
  "\u2581completed": 6915,
  "v\u00e1t": 6916,
  "\u2581Indul": 6917,
  "\u2581j\u00f3t": 6918,
  "\u2581\u00f6lt\u00f6z": 6919,
  "\u2581tiszteletben": 6920,
  "\u2581majority": 6921,
  "\u2581\u00fczenetet": 6922,
  "0/": 6923,
  "53": 6924,
  "\u2581sz\u00f3lt": 6925,
  "\u2581Singapore": 6926,
  "\u2581utaz\u00f3": 6927,
  "\u2581AS": 6928,
  "\u2581income": 6929,
  "\u2581ig\u00e9nybe": 6930,
  "\u2581ellen\u0151rz\u00e9si": 6931,
  "\u2581iz": 6932,
  "\u2581Everybody": 6933,
  "\u2581leading": 6934,
  "\u2581korl\u00e1tozott": 6935,
  "tikus": 6936,
  "\u2581initiative": 6937,
  "\u2581screw": 6938,
  "\u2581creation": 6939,
  "\u2581HIV": 6940,
  "\u2581suggest": 6941,
  "0,000": 6942,
  "\u2581District": 6943,
  "\u2581Institute": 6944,
  "\u00e1j\u00e1t": 6945,
  "\u2581Gondolom": 6946,
  "cul": 6947,
  "\u2581concerns": 6948,
  "\u2581megadott": 6949,
  "\u2581producer": 6950,
  "\u2581k\u00f6ze": 6951,
  "\u2581R\u00f3ma": 6952,
  "\u2581tudott": 6953,
  "etin": 6954,
  "\u2581sikeres": 6955,
  "\u2581f\u00f6l": 6956,
  "lass": 6957,
  "\u2581szabads\u00e1g": 6958,
  "mis": 6959,
  "\u2581csap": 6960,
  "\u2581impossible": 6961,
  "\u2581szavaz": 6962,
  "\u2581haj\u00f3k": 6963,
  "\u2581calm": 6964,
  "\u2581m\u00f3dos\u00edtani": 6965,
  "\u2581disorders": 6966,
  "olja": 6967,
  "\u2581k\u00f6t": 6968,
  "rent": 6969,
  "\u2581Without": 6970,
  "\u2581Eml\u00e9kszel": 6971,
  "megy\u00fcnk": 6972,
  "\u2581k\u00f6z\u00f6ss\u00e9g": 6973,
  "\u2581\u00e9lt": 6974,
  "rr": 6975,
  "\u2581Parties": 6976,
  "\u2581\u00e9lm\u00e9ny": 6977,
  "\u2581Ski": 6978,
  "\u258169": 6979,
  "\u2581ny\u00edlt": 6980,
  "\u2581egy\u00e9rtelm\u0171": 6981,
  "\u2581files": 6982,
  "\u00f6ng\u00e9sz": 6983,
  "\u2581Rob": 6984,
  "\u2581Test": 6985,
  "ries": 6986,
  "-2-": 6987,
  "\u2581Tegye": 6988,
  "\u2581flow": 6989,
  "\u2581szembeni": 6990,
  "\u2581Si": 6991,
  "\u2581conduct": 6992,
  "\u2581CYP": 6993,
  "\u2581Pat": 6994,
  "szok": 6995,
  "\u2581protected": 6996,
  "l\u00f6v": 6997,
  "\u2581rendelkez\u00e9s\u00e9re": 6998,
  "\u2581prejudice": 6999,
  "\u2581\u00e9reztem": 7000,
  "\u00e1sra": 7001,
  "\u00e1p": 7002,
  "\u2581expressed": 7003,
  "\u2581egym\u00e1ssal": 7004,
  "\u2581hamis": 7005,
  "\u2581cars": 7006,
  "gia": 7007,
  "\u2581lock": 7008,
  "\u2581drunk": 7009,
  "\u2581olasz": 7010,
  "ture": 7011,
  "\u258192": 7012,
  "\u2581Church": 7013,
  "mez": 7014,
  "\u2581driver": 7015,
  "\u2581v\u00f6r\u00f6s": 7016,
  "\u2581lo": 7017,
  "\u2581Kal": 7018,
  "\u2581Term\u00e9k": 7019,
  "\u2581m\u0171sor": 7020,
  "\u2581Close": 7021,
  "\u2581sing": 7022,
  "asse": 7023,
  "MA": 7024,
  "DA": 7025,
  "ping": 7026,
  "ody": 7027,
  "\u2581elj\u00e1r\u00e1st": 7028,
  "\u2581\u00e1llom\u00e1s": 7029,
  "rv": 7030,
  "\u2581grant": 7031,
  "\u2581alkalmaz\u00e1s\u00e1t": 7032,
  "\u2581sz\u00fcl": 7033,
  "\u2581Kir\u00e1ly": 7034,
  "\u2581igaza": 7035,
  "\u2581katonai": 7036,
  "\u2581m\u0171k\u00f6d\u00e9s\u00e9r\u0151l": 7037,
  "\u2581Fri": 7038,
  "\u2581Find": 7039,
  "\u2581Press": 7040,
  "\u2581informed": 7041,
  "\u2581\u00edrja": 7042,
  "\u2581consideration": 7043,
  "\u258122.": 7044,
  "\u2581Trans": 7045,
  "\u2581110": 7046,
  "\u2581hearing": 7047,
  "\u2581addressed": 7048,
  "\u2581Break": 7049,
  "\u2581besz\u00e9l\u00fcnk": 7050,
  "cro": 7051,
  "emia": 7052,
  "\u2581k\u00f6zleked\u00e9si": 7053,
  "\u2581pet": 7054,
  "agon": 7055,
  "\u2581tapasztalat": 7056,
  "\u2581100%": 7057,
  "\u2581tabletta": 7058,
  "\u2581titkos": 7059,
  "\u2581db": 7060,
  "\u2581played": 7061,
  "\u2581Review": 7062,
  "\u2581Long": 7063,
  "\u2581meg\u00f6lte": 7064,
  "\u2581z\u00e1r": 7065,
  "\u2581VII": 7066,
  "s\u00e1ga": 7067,
  "\u2581ON": 7068,
  "\u2581Hova": 7069,
  "\u2581nyilatkozat": 7070,
  "rus": 7071,
  "\u2581resulting": 7072,
  "\u2581tasks": 7073,
  "\u2581Data": 7074,
  "\u2581k\u00edv\u00fcli": 7075,
  "\u258194": 7076,
  "\u2581Mos": 7077,
  "\u2581parancs": 7078,
  "\u258120-": 7079,
  "\u2581Inform\u00e1ci\u00f3": 7080,
  "\u2581client": 7081,
  "\u2581exist": 7082,
  "uf": 7083,
  "l\u00ed": 7084,
  "ottam": 7085,
  "dik": 7086,
  "itch": 7087,
  "n\u00e1k": 7088,
  "\u2581Roman": 7089,
  "letter": 7090,
  "***": 7091,
  "\u2581kedvez\u0151": 7092,
  "\u2581complex": 7093,
  "suk": 7094,
  "\u2581(7)": 7095,
  "s\u00e1gi": 7096,
  "\u2581n\u0151tt": 7097,
  "\u2581efficient": 7098,
  "\u2581\u00e9rzi": 7099,
  "nic": 7100,
  "mil": 7101,
  "\u2581amilyen": 7102,
  "eff": 7103,
  "omban": 7104,
  "\u2581(3": 7105,
  "b\u00e9r": 7106,
  "phy": 7107,
  "\u2581entities": 7108,
  "this": 7109,
  "sz\u00edv": 7110,
  "\u2581t\u0151ke": 7111,
  "\u2581Energy": 7112,
  "poli": 7113,
  "\u2581Gil": 7114,
  "rit": 7115,
  "\u2581vegye": 7116,
  "\u2581highly": 7117,
  "\u2581checks": 7118,
  "\u258186": 7119,
  "\u2581hagyd": 7120,
  "\u2581copy": 7121,
  "\u2581profile": 7122,
  "\u2581tanulm\u00e1ny": 7123,
  "asa": 7124,
  "\u2581f\u00f6ld\u00f6n": 7125,
  "\u2581h\u00e1zi": 7126,
  "\u2581Another": 7127,
  "sz\u00f3l": 7128,
  "\u2581ter\u00fcleteken": 7129,
  "\u2581Video": 7130,
  "\u2581\u00fcgyf\u00e9l": 7131,
  "\u2581solutions": 7132,
  "att": 7133,
  "\u2581Anyway": 7134,
  "kot": 7135,
  "\u2581Para": 7136,
  "\u2581exceed": 7137,
  "\u2581jump": 7138,
  "\u2581arrest": 7139,
  "\u2581testing": 7140,
  "\u2581burn": 7141,
  "\u2581Area": 7142,
  "\u2581apr\u00f3": 7143,
  "\u2581int\u00e9z": 7144,
  "\u2581Mexico": 7145,
  "\u2581Friday": 7146,
  "\u2581l\u00e1togat": 7147,
  "\u2581polg\u00e1rok": 7148,
  "TE": 7149,
  "iss": 7150,
  "\u2581Report": 7151,
  "\u2581fan": 7152,
  "\u2581alapok": 7153,
  "\u2581cr": 7154,
  "\u2581h\u0151s": 7155,
  "asztal": 7156,
  "edik": 7157,
  "\u2581k\u00fcl\u00f6nbs\u00e9g": 7158,
  "\u2581akiknek": 7159,
  "ude": 7160,
  "\u2581sake": 7161,
  "\u0171r": 7162,
  "\u2581aj\u00e1nl": 7163,
  "61": 7164,
  "\u2581Justice": 7165,
  "\u2581t\u00e1mad": 7166,
  "\u2581suit": 7167,
  "\u2581fejem": 7168,
  "\u2581idiot": 7169,
  "\u2581l\u00e9trehozott": 7170,
  "ender": 7171,
  "rod": 7172,
  "\u2581Case": 7173,
  "\u2581Azonnal": 7174,
  "\u2581fejleszt\u00e9si": 7175,
  "vez": 7176,
  "\u2581Valencia": 7177,
  "\u2581village": 7178,
  "\u2581Sometimes": 7179,
  "\u2581notification": 7180,
  "\u2581factor": 7181,
  "ara": 7182,
  "\u2581egy\u00fcttes": 7183,
  "\u2581und": 7184,
  "\u2581Id\u0151": 7185,
  "light": 7186,
  "\u258176": 7187,
  "\u2581Games": 7188,
  "vonal": 7189,
  "\u2581\u00f6sszege": 7190,
  "\u2581purchase": 7191,
  "\u2581\u00e9jszak\u00e1": 7192,
  "SD": 7193,
  "\u00edtse": 7194,
  "\u2581truck": 7195,
  "\u2581k\u00f6lt\u00f6z": 7196,
  "97": 7197,
  "it\u00e1s": 7198,
  "\u2581jegyz\u0151k\u00f6nyv": 7199,
  "\u2581Tra": 7200,
  "\u2581Alex": 7201,
  "\u2581fit": 7202,
  "\u2581bar\u00e1tok": 7203,
  "\u2581recovery": 7204,
  "\u2581debate": 7205,
  "\u2581tudom\u00e1ny": 7206,
  "n\u00e9nek": 7207,
  "program": 7208,
  "\u2581\u00c9des": 7209,
  "\u2581csi": 7210,
  "some": 7211,
  "\u2581bast": 7212,
  "OL": 7213,
  "\u2581tartoznak": 7214,
  "\u2581bomb": 7215,
  "\u2581J\u00f6jj\u00f6n": 7216,
  "\u2581alapul": 7217,
  "\u2581uniform": 7218,
  "ime": 7219,
  "\u2581sample": 7220,
  "\u2581munkav\u00e1llal\u00f3k": 7221,
  "\u2581fel\u00fcgyeleti": 7222,
  "\u2581rab": 7223,
  "\u2581\u00edrt": 7224,
  "...\"": 7225,
  "\u2581successful": 7226,
  "\u2581banks": 7227,
  "\u2581fell\u00e9p\u00e9s": 7228,
  "\u2581el\u0151\u00edr\u00e1sok": 7229,
  "\u2581mention": 7230,
  "\u2581felhaszn\u00e1l\u00f3": 7231,
  "\u2581indokolt": 7232,
  "\u2581notified": 7233,
  "\u2581Registration": 7234,
  "\u2581egyar\u00e1nt": 7235,
  "\u2581Life": 7236,
  "\u2581Vid": 7237,
  "63": 7238,
  "\u2581selected": 7239,
  "s\u00e1k": 7240,
  "\u2581f\u00fcggetlen\u00fcl": 7241,
  "ect": 7242,
  "\u2581tough": 7243,
  "\u0151l": 7244,
  "\u2581charges": 7245,
  "\u2581memory": 7246,
  "\u2581utca": 7247,
  "\u2581Est": 7248,
  "\u2581szeretn\u00e9l": 7249,
  "encia": 7250,
  "\u2581Hallott": 7251,
  "\u2581families": 7252,
  "\u2581Tru": 7253,
  "\u2581Tal": 7254,
  "SS": 7255,
  "m\u00e9sz": 7256,
  "\u2581island": 7257,
  "\u2581vonat": 7258,
  "\u2581Kra": 7259,
  "\u2581item": 7260,
  "\u2581tender": 7261,
  "\u2581\u00dczlet": 7262,
  "\u2581r\u00e1juk": 7263,
  "\u2581esik": 7264,
  "k\u00e9t": 7265,
  "\u2581leveg\u0151": 7266,
  "\u2581navigation": 7267,
  "\u2581alkalmaz\u00e1s\u00e1ban": 7268,
  "\u2581Water": 7269,
  "\u2581hiba": 7270,
  "En": 7271,
  "\u2581t\u00e1nc": 7272,
  "strict": 7273,
  "\u2581ipar": 7274,
  "\u2581nevez": 7275,
  "\u2581battle": 7276,
  "\u2581kezel\u00e9st": 7277,
  "bus": 7278,
  "\u2581Au": 7279,
  "\u2581\u00e9rt\u00e9ke": 7280,
  "\u2581Association": 7281,
  "\u2581aspects": 7282,
  "\u2581Sign": 7283,
  "\u2581hozta": 7284,
  "\u2581occur": 7285,
  "europa": 7286,
  "\u2581elint\u00e9z": 7287,
  "\u2581t\u00f6r\u0151d": 7288,
  "\u2581flat": 7289,
  "\u2581preambulumbekez": 7290,
  "\u2581honest": 7291,
  "\u2581metal": 7292,
  "\u2581fly": 7293,
  "\u2581NE": 7294,
  "\u2581Town": 7295,
  "\u2581extension": 7296,
  "\u2581Ember": 7297,
  "\u2581enn\u00e9l": 7298,
  "\u2581suitable": 7299,
  "\u2581sexual": 7300,
  "\u2581hullad\u00e9k": 7301,
  "\u2581Seg\u00edts\u00e9g": 7302,
  "\u2581dates": 7303,
  "\u2581tal\u00e1lkoz\u00f3": 7304,
  "szoba": 7305,
  "\u2581Sim": 7306,
  "ible": 7307,
  "\u2581szereti": 7308,
  "\u2581band": 7309,
  "\u2581lawyer": 7310,
  "alap": 7311,
  "\u258173": 7312,
  "81": 7313,
  "\u2581falling": 7314,
  "\u2581azut\u00e1n": 7315,
  "\u2581K\u00f6z\u00f6ss\u00e9get": 7316,
  "\u2581cikk\u00e9re": 7317,
  "\u2581k\u00e9s\u0151": 7318,
  "unkban": 7319,
  "\u2581tree": 7320,
  "\u2581nine": 7321,
  "\u2581sad": 7322,
  "\u2581rengeteg": 7323,
  "\u2581rendeletet": 7324,
  "\u2581[4]": 7325,
  "b\u00e1r": 7326,
  "\u2581kev\u00e9s": 7327,
  "\u2581okozta": 7328,
  "\u2581administered": 7329,
  "\u2581Tudtam": 7330,
  "\u2581trans": 7331,
  "500": 7332,
  "rol": 7333,
  "n\u00e9ztem": 7334,
  "\u2581tel": 7335,
  "\u2581bar\u00e1tja": 7336,
  "k\u00f6vetelm\u00e9nyeknek": 7337,
  "\u2581rise": 7338,
  "\u2581trick": 7339,
  "CC": 7340,
  "\u258112-": 7341,
  "\u2581trial": 7342,
  "\u2581mobile": 7343,
  "cs\u00e9": 7344,
  "\u2581waters": 7345,
  "\u2581quantity": 7346,
  "\u2581tud\u00e1s": 7347,
  "\u2581c\u00e9lz\u00f3": 7348,
  "\u2581m\u00f3dja": 7349,
  "\u2581lev\u00e9l": 7350,
  "\u2581figyelemmel": 7351,
  "\u2581suspect": 7352,
  "lud": 7353,
  "\u00e9szet": 7354,
  "\u2581notes": 7355,
  "\u2581t\u00e9ved": 7356,
  "\u2581k\u00fcld\u00f6tt": 7357,
  "\u2581considers": 7358,
  "\u2581kapu": 7359,
  "\u2581vigy\u00e1z": 7360,
  "76": 7361,
  "\":": 7362,
  "\u2581challenges": 7363,
  "\u2581ett\u0151l": 7364,
  "\u2581weather": 7365,
  "pes": 7366,
  "\u2581Seg\u00edts": 7367,
  "\u2581signs": 7368,
  "\u2581sa": 7369,
  "\u258179": 7370,
  "\u2581Dubai": 7371,
  "\u2581devices": 7372,
  "\u2581spot": 7373,
  "\u2581elemz\u00e9s": 7374,
  "\u2581bez\u00e1r": 7375,
  "\u00edr\u00f3": 7376,
  "\u2581Mindkett": 7377,
  "lus": 7378,
  "\u2581valid": 7379,
  "\u2581Many": 7380,
  "\u2581Legyen": 7381,
  "\u2581f\u00e9rjem": 7382,
  "\u2581Bridge": 7383,
  "\u2581although": 7384,
  "\u2581k\u00f6vetkez\u0151k\u00e9ppen": 7385,
  "\u2581t\u00e1mad\u00e1s": 7386,
  "\u2581hallani": 7387,
  "\u2581kil\u00e1t\u00e1s": 7388,
  "mu": 7389,
  "\u2581growing": 7390,
  "\u2581\u00f6nnek": 7391,
  "\u2581hallott": 7392,
  "\u2581paragraphs": 7393,
  "\u258109": 7394,
  "l\u00e9t": 7395,
  "\u2581napig": 7396,
  "\u2581subjects": 7397,
  "\u2581older": 7398,
  "\u2581valahol": 7399,
  "\u2581rendelkeznek": 7400,
  "\u2581al\u00f3l": 7401,
  "\u2581healthy": 7402,
  "\u2581integration": 7403,
  "\u2581Engem": 7404,
  "\u258182": 7405,
  "\u2581t\u00edpus": 7406,
  "\u2581Functioning": 7407,
  "hl": 7408,
  "\u2581forr\u00e1sok": 7409,
  "\u00fcsz": 7410,
  "vil": 7411,
  "\u2581creating": 7412,
  "\u00f6rt\u00f6": 7413,
  "\u00e2": 7414,
  "\u2581RENDELETET": 7415,
  "jem": 7416,
  "\u2581pleasure": 7417,
  "\u2581\u00fcl\u00e9s": 7418,
  "\u2581Offer": 7419,
  "\u2581liver": 7420,
  "\u2581proceedings": 7421,
  "\u2581j\u00e1tszott": 7422,
  "\u2581Megpr\u00f3b\u00e1l": 7423,
  "\u2581absolutely": 7424,
  "h\u00f3nap": 7425,
  "\u2581Sz\u00f3l": 7426,
  "\u2581EL": 7427,
  "\u2581minim\u00e1lis": 7428,
  "hassa": 7429,
  "\u2581falu": 7430,
  "s\u00e9gi": 7431,
  "\u2581nyilv\u00e1nos": 7432,
  "\u2581bel\u00e9": 7433,
  "\u2581honor": 7434,
  "\u2581app": 7435,
  "\u2581kapacit\u00e1s": 7436,
  "\u2581Melyik": 7437,
  "\u2581forgot": 7438,
  "\u2581raised": 7439,
  "\u2581sz\u00e1ll\u00edt\u00e1s": 7440,
  "\u2581feelings": 7441,
  "head": 7442,
  "\u2581Guan": 7443,
  "\u2581phase": 7444,
  "och": 7445,
  "\u2581Rest": 7446,
  "gram": 7447,
  "\u258196": 7448,
  "\u2581fil": 7449,
  "\u2581career": 7450,
  "dag": 7451,
  "\u2581Vir": 7452,
  "\u258193": 7453,
  "\u2581visel": 7454,
  "\u258181": 7455,
  "\u2581digit\u00e1lis": 7456,
  "sia": 7457,
  "\u2581goly\u00f3": 7458,
  "sod\u00e1s": 7459,
  "\u2581Pedig": 7460,
  "\u2581k\u00e9szlet": 7461,
  "\u2581amivel": 7462,
  "\u2581ut\u00e1ni": 7463,
  "\u2581MT": 7464,
  "\u2581empty": 7465,
  "\u2581popular": 7466,
  "awa": 7467,
  "\u2581suppose": 7468,
  "\u00e9ria": 7469,
  "\u2581k\u00f6ly\u00f6k": 7470,
  "eszt\u0151": 7471,
  "j\u00e1ba": 7472,
  "\u2581\u00e9rint": 7473,
  "\u2581kar\u00e1csony": 7474,
  "\u2581Smith": 7475,
  "\u2581ISO": 7476,
  "\u2581Istanbul": 7477,
  "\u2581sentences": 7478,
  "eiket": 7479,
  "\u2581Dis": 7480,
  "\u2581Support": 7481,
  "\u2581besz\u00e9lget\u00e9s": 7482,
  "\u2581arms": 7483,
  "\u2581\u00e9rkezett": 7484,
  "rad": 7485,
  "\u2581declaration": 7486,
  "\u2581b\u00edz": 7487,
  "\u2581invited": 7488,
  "\u2581k\u00e9k": 7489,
  "\u2581seb": 7490,
  "\u2581destroy": 7491,
  "iz\u00e1lt": 7492,
  "\u2581tag\u00e1llami": 7493,
  "\u2581learning": 7494,
  "\u2581r\u00e9sz\u00e9ben": 7495,
  "\u2581K\u00f6": 7496,
  "\u2581szuper": 7497,
  "\u2581\u00f6sszehasonl\u00edt\u00e1s": 7498,
  "\u2581firm": 7499,
  "\u2581megold": 7500,
  "\u2581Government": 7501,
  "\u2581180": 7502,
  "\u2581carrying": 7503,
  "hour": 7504,
  "\u2581v\u00e1d": 7505,
  "\u2581ol": 7506,
  "\u2581r\u00e1k": 7507,
  "\u2581fordul": 7508,
  "\u258171": 7509,
  "\u2581Met": 7510,
  "\u2581Anything": 7511,
  "\u2581r\u00e1j\u00f6tt": 7512,
  "ough": 7513,
  "\u2581megtud": 7514,
  "stin": 7515,
  "\u2581form\u00e1ban": 7516,
  "\u2581spiritual": 7517,
  "\u2581szeretlek": 7518,
  "\u2581Saturday": 7519,
  "\u2581Tr": 7520,
  "\u258166": 7521,
  "\u2581felel\u0151ss\u00e9g": 7522,
  "\u2581el\u0151\u00edr\u00e1s": 7523,
  "\u2581fest": 7524,
  "\u2581teach": 7525,
  "\u2581rain": 7526,
  "\u2581Int\u00e9zet": 7527,
  "pad": 7528,
  "are": 7529,
  "l\u00e1": 7530,
  "kozott": 7531,
  "\u2581Finally": 7532,
  "\u2581l\u00e9t": 7533,
  "\u2581jegy": 7534,
  "\u2581guidelines": 7535,
  "\u2581el\u00e9rni": 7536,
  "\u2581oral": 7537,
  "\u2581hozz\u00e1d": 7538,
  "\u2581speci\u00e1lis": 7539,
  "\u2581angry": 7540,
  "\u2581r\u00e9szletek": 7541,
  "ual": 7542,
  "l\u00f6v\u00e9s": 7543,
  "\u2581facilitate": 7544,
  "\u2581K\u00f6nyv": 7545,
  "hagy": 7546,
  "\u2581Graph": 7547,
  "\u2581Doktor": 7548,
  "\u2581seriously": 7549,
  "\u2581berendez\u00e9s": 7550,
  "oztam": 7551,
  "4,": 7552,
  "\u2581besz\u00e9lget": 7553,
  "\u2581accordingly": 7554,
  "\u2581transmission": 7555,
  "\u2581warm": 7556,
  "\u2581k\u00e9pz\u00e9s": 7557,
  "\u25810.5": 7558,
  "\u2581Sc": 7559,
  "\u2581ellen\u0151rz\u00e9se": 7560,
  "El": 7561,
  "\u2581Estate": 7562,
  "\u2581corresponding": 7563,
  "\u2581meghat\u00e1rozni": 7564,
  "\u2581oldal\u00e1n": 7565,
  "\u2581signal": 7566,
  "\u2581len": 7567,
  "\u2581Fej": 7568,
  "\u2581l\u00e1tja": 7569,
  "\u2581meetings": 7570,
  "\u2581el\u0151tti": 7571,
  "gha": 7572,
  "\u2581stated": 7573,
  "\u2581l\u00e9trehoz\u00e1s\u00e1r\u00f3l": 7574,
  "n\u00e9v": 7575,
  "ization": 7576,
  "\u2581ME": 7577,
  "g\u00e9": 7578,
  "\u2581kapcsolatba": 7579,
  "\u2581produce": 7580,
  "k\u00f6zel": 7581,
  "\u2581speaking": 7582,
  "\u2581continued": 7583,
  "omb": 7584,
  "\u2581Cl": 7585,
  "\u2581eligible": 7586,
  "\u2581Bab": 7587,
  "\u2581Val\u00f3sz\u00edn\u0171leg": 7588,
  "\u2581j\u00f6nnek": 7589,
  "\u0161": 7590,
  "\u2581egy\u00e9rtelm\u0171en": 7591,
  "\u00e1ssal": 7592,
  "\u2581blind": 7593,
  "\u2581hat\u00e1lyon": 7594,
  "Mar": 7595,
  "\u2581val\u00f3s\u00e1g": 7596,
  "\u2581nuclear": 7597,
  "\u2581Michel": 7598,
  "\u2581azonos\u00edt\u00f3": 7599,
  "\u2581Boy": 7600,
  "\u2581h\u00edvta": 7601,
  "n\u00f6k": 7602,
  "\u2581crew": 7603,
  "\u2581lovely": 7604,
  "\u2581k\u00e9rj\u00fck": 7605,
  "\u2581student": 7606,
  "\u2581utal": 7607,
  "\u2581Action": 7608,
  "kan": 7609,
  "ezze": 7610,
  "\u2581largest": 7611,
  "\u2581tedd": 7612,
  "\u2581megkap": 7613,
  "2004": 7614,
  "\u2581Ad": 7615,
  "\u2581k\u00f6zleked\u00e9s": 7616,
  "\u2581Pic": 7617,
  "\u2581legyek": 7618,
  "\u2581hypo": 7619,
  "\u2581tape": 7620,
  "\u2581teacher": 7621,
  "\u2581v\u00e1ltoz\u00e1s": 7622,
  "\u2581confirmed": 7623,
  "~": 7624,
  "sz\u00e9k": 7625,
  "\u2581vision": 7626,
  "d\u0151": 7627,
  "\u2581Athens": 7628,
  "sz\u00e1z": 7629,
  "\u00edtsd": 7630,
  "\u2581innov\u00e1ci\u00f3": 7631,
  "\u2581Eur\u00f3p\u00e1ban": 7632,
  "\u2581Residence": 7633,
  "\u2581transactions": 7634,
  "kre": 7635,
  "oszt\u00e1ly": 7636,
  "\u2581r\u00f6gz\u00edtett": 7637,
  "\u2581k\u00f6lcs\u00f6n": 7638,
  "\u258197": 7639,
  "\u2581m\u00e9rt\u00e9k\u0171": 7640,
  "\u2581melynek": 7641,
  "\u2581f\u00e9lre": 7642,
  "\u2581bull": 7643,
  "\u2581museum": 7644,
  "\u2581t\u00e1mogat\u00e1sok": 7645,
  "\u2581coordination": 7646,
  "\u2581les": 7647,
  "h\u00e1r": 7648,
  "\u00e9sre": 7649,
  "\u2581organization": 7650,
  "\u2581n\u00e1lam": 7651,
  "h\u00e1t": 7652,
  "rate": 7653,
  "ress": 7654,
  "\u2581originating": 7655,
  "\u2581favorite": 7656,
  "://": 7657,
  "ctor": 7658,
  "\u2581mag\u00e1ra": 7659,
  "\u2581ve": 7660,
  "\u2581v\u00e9gezni": 7661,
  "\u2581m\u0171v\u00e9szet": 7662,
  "\u2581h\u0151": 7663,
  "\u2581introduced": 7664,
  "\u2581shower": 7665,
  ".00": 7666,
  "\u2581ebbe": 7667,
  "\u2581\u00f3r\u00e1s": 7668,
  "\u2581hasonl\u00edt": 7669,
  "zuk": 7670,
  "\u2581length": 7671,
  "tap": 7672,
  "eivel": 7673,
  "m\u00e1r": 7674,
  "\u2581electricity": 7675,
  "\u2581justice": 7676,
  "\u2581properly": 7677,
  "GY": 7678,
  "\u258178": 7679,
  "2019": 7680,
  "\u2581powerful": 7681,
  "\u2581v\u00e1s\u00e1rol": 7682,
  "\u2581menjen": 7683,
  "\u2581Public": 7684,
  "ym": 7685,
  "\u00e9rt\u00e9k": 7686,
  "8.": 7687,
  "93": 7688,
  "\u2581format": 7689,
  "\u2581integrated": 7690,
  "\u2581jav\u00edt\u00e1sa": 7691,
  "\u2581k\u00e9rd\u00e9sek": 7692,
  "\u2581relations": 7693,
  "\u2581bother": 7694,
  "\u2581foglalja": 7695,
  "\u2581nektek": 7696,
  "\u2581Auto": 7697,
  "\u2581akiket": 7698,
  "s\u00fck": 7699,
  "\u2581surveillance": 7700,
  "\u2581temporary": 7701,
  "\u2581percent": 7702,
  "\u2581Adam": 7703,
  "Le": 7704,
  "tum": 7705,
  "\u2581Club": 7706,
  "kivel": 7707,
  "\u2581Ezeket": 7708,
  "\u2581push": 7709,
  "\u2581Hang": 7710,
  "lgen": 7711,
  "\u2581Sh": 7712,
  "\u2581befektet\u00e9si": 7713,
  "hetik": 7714,
  "\u2581supported": 7715,
  "\u2581fel\u00fclvizsg\u00e1lat": 7716,
  "\u2581dogs": 7717,
  "elli": 7718,
  "\u2581szempontb\u00f3l": 7719,
  "\u2581lak\u00f3": 7720,
  "\u2581s\u00f3": 7721,
  "\u2581flu": 7722,
  "\u2581brothers": 7723,
  "\u2581identify": 7724,
  "10.": 7725,
  "t\u00f6lt\u00f6tt": 7726,
  "\u2581siker\u00fcl": 7727,
  "\u2581s\u00e9t\u00e1l": 7728,
  "\u2581tart\u00f3zkod\u00e1s": 7729,
  "\u2581effort": 7730,
  "\u2581k\u00fclf\u00f6ldi": 7731,
  "\u2581conclusion": 7732,
  "\u2581el\u00e9rt": 7733,
  "\u2581min\u0151s\u00e9g": 7734,
  "olo": 7735,
  "\u258189": 7736,
  "\u2581periods": 7737,
  "cr": 7738,
  "adta": 7739,
  "\u2581alcohol": 7740,
  "\u2581ideges": 7741,
  "\u2581fellow": 7742,
  "\u2581listing": 7743,
  "free": 7744,
  "\u2581alkalmaz\u00e1s\u00e1nak": 7745,
  "\u2581Haza": 7746,
  "\u2581worst": 7747,
  "border": 7748,
  "orsz\u00e1g": 7749,
  "\u2581easier": 7750,
  "arry": 7751,
  "\u2581planned": 7752,
  "\u2581ny\u00fal": 7753,
  "omi": 7754,
  "\u2581els\u0151dleges": 7755,
  "\u2581cream": 7756,
  "kban": 7757,
  "\u2581K\u00e9s\u0151bb": 7758,
  "\u258183": 7759,
  "\u2581ismeri": 7760,
  "\u2581elvi": 7761,
  "shop": 7762,
  "\u2581degree": 7763,
  "\u2581Tro": 7764,
  "\u2581owe": 7765,
  "\u2581gy\u0151z": 7766,
  "\u2581szembe": 7767,
  "\u2581valamilyen": 7768,
  "\u2581Regulations": 7769,
  "\u00f4": 7770,
  "\u2581Sza": 7771,
  "\u2581CN": 7772,
  "\u2581Sound": 7773,
  "\u2581technologies": 7774,
  "\u2581kol": 7775,
  "\u2581bottle": 7776,
  "\u2581applying": 7777,
  "j\u00e9nek": 7778,
  "\u2581rem\u00e9ny": 7779,
  "\u2581bolond": 7780,
  "\u2581\u00fcgyet": 7781,
  "cor": 7782,
  "\u2581t\u00e1mogat\u00e1sa": 7783,
  "\u2581lehessen": 7784,
  "\u2581weekend": 7785,
  "\u2581vizsg\u00e1latban": 7786,
  "\u2581committed": 7787,
  "\u2581900": 7788,
  "\u2581\u00f6rd\u00f6g": 7789,
  "\u2581recommendations": 7790,
  "\u258110%": 7791,
  "\u2581mindegyik": 7792,
  "\u2581\u00c9szak": 7793,
  "\u2581hete": 7794,
  "\u2581desk": 7795,
  "\u2581Flor": 7796,
  "11.": 7797,
  "heted": 7798,
  "\u258150%": 7799,
  "kapcsol": 7800,
  "\u2581dialogue": 7801,
  "\u2581DE": 7802,
  "\u2581identification": 7803,
  "\u2581surgery": 7804,
  "\u2581negotiations": 7805,
  "\u2581Witnesses": 7806,
  "\u2581Lot": 7807,
  "\u2581Egyes": 7808,
  "\u2581spoke": 7809,
  "\u2581T\u00edpus": 7810,
  "\u2581behozatal": 7811,
  "\u2581b\u00e9k\u00e9n": 7812,
  "\u2581weapons": 7813,
  "\u2581cup": 7814,
  "\u2581breast": 7815,
  "\u2581m\u0171k\u00f6d\u00e9si": 7816,
  "\u2581\u00f6r\u00f6m": 7817,
  "ray": 7818,
  "\u2581adequate": 7819,
  "\u2581hat\u00e1st": 7820,
  "\u2581proof": 7821,
  "\u2581erd\u0151": 7822,
  "\u2581Tan": 7823,
  "\u2581tan\u00e1csad\u00f3": 7824,
  "\u2581hat\u00e1rid\u0151": 7825,
  "\u2581player": 7826,
  "\u2581probl\u00e9m\u00e1k": 7827,
  "\u2581Ausztr\u00e1lia": 7828,
  "\u2581Mexik\u00f3": 7829,
  "\u2581eating": 7830,
  "86": 7831,
  "UN": 7832,
  "\u2581l\u00e1tott": 7833,
  "\u2581indicate": 7834,
  "szal": 7835,
  "\u2581Furthermore": 7836,
  "\u2581\u00e9vekben": 7837,
  "\u2581gy\u00e1rt\u00f3k": 7838,
  "\u2581szeg\u00e9ny": 7839,
  "\u2581t\u00e1ncol": 7840,
  "\u258129.": 7841,
  "\u2581customer": 7842,
  "\u2581mos": 7843,
  "\u2581busz": 7844,
  "\u2581closer": 7845,
  "\u2581commitment": 7846,
  "aut": 7847,
  "aim": 7848,
  "\u2581egyike": 7849,
  "\u2581currency": 7850,
  "visz": 7851,
  "\u2581upset": 7852,
  "\u2581Bus": 7853,
  "\u2581licence": 7854,
  "\u2581l\u00e1togat\u00e1s": 7855,
  "\u00edr\u00e1s": 7856,
  "\u2581VIII": 7857,
  "\u2581Jelenleg": 7858,
  "\u2581fundamental": 7859,
  "\u2581id\u0151re": 7860,
  "\u2581ismerem": 7861,
  "\u2581dolgozott": 7862,
  "\u2581investments": 7863,
  "\u2581understanding": 7864,
  "knek": 7865,
  "\u2581campaign": 7866,
  "\u2581weapon": 7867,
  "\u2581cs\u00f6kkent\u00e9se": 7868,
  "\u2581humans": 7869,
  "asy": 7870,
  "\u2581Agent": 7871,
  "\u2581seller": 7872,
  "qu": 7873,
  "\u2581k\u00f6zep\u00e9n": 7874,
  "\u2581konferencia": 7875,
  "\u2581applies": 7876,
  "\u2581liked": 7877,
  "\u2581sorted": 7878,
  "uma": 7879,
  "\u2581pack": 7880,
  "\u2581fiatalok": 7881,
  "\u2581checked": 7882,
  "\u2581N\u00e9gy": 7883,
  "\u2581strat\u00e9giai": 7884,
  "-10": 7885,
  "\u2581digital": 7886,
  "mir": 7887,
  "\u2581Stamp": 7888,
  "\u2581micro": 7889,
  "\u2581renal": 7890,
  "\u2581k\u00f6r\u0171": 7891,
  "\u2581jelent\u0151sen": 7892,
  "\u2581Light": 7893,
  "\u2581kapcsolatok": 7894,
  "\u2581k\u00f6zigazgat\u00e1si": 7895,
  "\u2581afternoon": 7896,
  "\u25816,": 7897,
  "\u2581sejt": 7898,
  "cs\u00fa": 7899,
  "\u2581val\u00f3s": 7900,
  "\u2581k\u00edv\u00e1nt": 7901,
  "\u2581kiad\u00e1sok": 7902,
  "\u2581Font": 7903,
  "\u2581culture": 7904,
  "\u00f3ra": 7905,
  "\u2581\u00dclj": 7906,
  "felv\u00e9tel": 7907,
  "\u2581conference": 7908,
  "ater": 7909,
  "uta": 7910,
  "\u2581willing": 7911,
  "\u2581m\u00f3dszerek": 7912,
  "\u2581ideal": 7913,
  "\u2581\u00f6vezet": 7914,
  "\u2581Communication": 7915,
  "\u2581route": 7916,
  "\u2581ideas": 7917,
  "\u2581phrase": 7918,
  "\u2581science": 7919,
  "okr\u00f3l": 7920,
  "\u2581Albert": 7921,
  "\u2581chemical": 7922,
  "\u2581loves": 7923,
  "\u2581elme": 7924,
  "\u2581tartok": 7925,
  "\u2581Commissioner": 7926,
  "\u2581Megyek": 7927,
  "\u2581mate": 7928,
  "\u2581megjel\u00f6lt": 7929,
  "\u00e9szeti": 7930,
  "\u2581Property": 7931,
  "An": 7932,
  "\u2581\u00cdr": 7933,
  "ament": 7934,
  "\u2581vizet": 7935,
  "\u2581lep": 7936,
  "k\u00f6sz\u00f6n": 7937,
  "\u2581pihen": 7938,
  "\u2581claims": 7939,
  "\u2581Japan": 7940,
  "\u2581dying": 7941,
  "PL": 7942,
  "\u2581requirement": 7943,
  "\u2581Ken": 7944,
  "\u2581kital\u00e1l": 7945,
  "\u2581escape": 7946,
  "\u2581wild": 7947,
  "\u2581biztos\u00edt\u00f3": 7948,
  "\u2581v\u00e9lem\u00e9nye": 7949,
  "\u2581cap": 7950,
  "\u2581Honey": 7951,
  "k\u00e1d": 7952,
  "\u2581rare": 7953,
  "\u2581V\u00e1lasz": 7954,
  "\u2581esetleges": 7955,
  "\u2581deliver": 7956,
  "ein": 7957,
  "\u2581injury": 7958,
  "\u2581mel": 7959,
  "\u2581secure": 7960,
  "\u2581spread": 7961,
  "UM": 7962,
  "\u2581Sunday": 7963,
  "besz\u00e9l": 7964,
  "\u2581owner": 7965,
  "\u2581processes": 7966,
  "\u2581discuss": 7967,
  "\u2581s\u00faly": 7968,
  "\u2581med": 7969,
  "\u2581hozz\u00e1ad\u00e1sa": 7970,
  "\u2581idej\u00e9n": 7971,
  "ona": 7972,
  "\u2581Val\u00f3j\u00e1ban": 7973,
  "\u2581ahogyan": 7974,
  "\u2581connected": 7975,
  "\u2581kezelni": 7976,
  "\u2581ku": 7977,
  "ective": 7978,
  "ses": 7979,
  "\u2581tool": 7980,
  "law": 7981,
  "ists": 7982,
  "uszt": 7983,
  "\u2581controlled": 7984,
  "\u2581character": 7985,
  "\u2581polg\u00e1ri": 7986,
  "CAS": 7987,
  "\u2581kuty\u00e1": 7988,
  "\u2581t\u00e1bor": 7989,
  "g\u00e1l": 7990,
  "\u00e1bor": 7991,
  "Ch": 7992,
  "v\u00e1g": 7993,
  "\u2581Class": 7994,
  "\u25810.2": 7995,
  "ezte": 7996,
  "\u2581Bud": 7997,
  "\u2581kereszt\u00e9ny": 7998,
  "\u2581szenved": 7999,
  "\u2581whereas": 8000,
  "\u2581sleeping": 8001,
  "Pa": 8002,
  "\u2581capable": 8003,
  "\u2581conducted": 8004,
  "\u2581definition": 8005,
  "\u2581Their": 8006,
  "\u2581chosen": 8007,
  "r\u00e1l": 8008,
  "\u2581implement": 8009,
  "\u00edtja": 8010,
  "\u2581orsz\u00e1gokban": 8011,
  "CH": 8012,
  "\u2581famous": 8013,
  "key": 8014,
  "\u2581elvesz\u00edt": 8015,
  "\u2581style": 8016,
  "72": 8017,
  "\u2581mondok": 8018,
  "\u2581meghat\u00e1rozza": 8019,
  "\u2581h\u00fag": 8020,
  "\u2581alkalom": 8021,
  "\u2581fund": 8022,
  "\u25812001.": 8023,
  "\u258131.": 8024,
  "\u2581drinking": 8025,
  "\u2581kb": 8026,
  "f\u0151": 8027,
  "\u2581victims": 8028,
  "\u2581eur\u00f3": 8029,
  "\u2581kedve": 8030,
  "\u2581blame": 8031,
  "\u2581hi\u00e1nyzik": 8032,
  "fon": 8033,
  "\u2581t\u00e1mogat\u00f3": 8034,
  "\u2581perform": 8035,
  "emmel": 8036,
  "\u2581k\u00f6lcs\u00f6n\u00f6s": 8037,
  "\u2581finding": 8038,
  "\u2581Holy": 8039,
  "\u2581Ten": 8040,
  "\u2581eleget": 8041,
  "s\u00e1ggal": 8042,
  "\u2581Szeretn\u00e9k": 8043,
  "12.": 8044,
  "aries": 8045,
  "\u2581v\u00e9delme": 8046,
  "\u2581controls": 8047,
  "\u2581ge": 8048,
  "\u2581kamp\u00e1ny": 8049,
  "\u2581fajta": 8050,
  "\u2581j\u00f6jj\u00f6n": 8051,
  "\u2581hozza": 8052,
  "\u2581Medi": 8053,
  "Ro": 8054,
  "\u2581miniszter": 8055,
  "\u2581drawn": 8056,
  "\u2581fejezet": 8057,
  "zin": 8058,
  "\u2581vil\u00e1got": 8059,
  "\u2581parancsnok": 8060,
  "\u2581hat\u00e1rozza": 8061,
  "tart": 8062,
  "\u2581Box": 8063,
  "\u2581promised": 8064,
  "\u2581bar\u00e1tod": 8065,
  "\u2581t\u00f6rzs": 8066,
  "\u2581mikro": 8067,
  "\u2581Vietnam": 8068,
  "\u2581adjustment": 8069,
  "\u2581breath": 8070,
  "\u2581seeking": 8071,
  "\u00f6ket": 8072,
  "\u2581Teljes": 8073,
  "rat": 8074,
  "rik": 8075,
  "tet\u0151": 8076,
  "\u2581Little": 8077,
  "\u2581neck": 8078,
  "film": 8079,
  "\u2581Biztosan": 8080,
  "bit": 8081,
  "IL": 8082,
  "\u2581\u00e1lmod": 8083,
  "\u2581k\u00e9n": 8084,
  "\u2581fejleszt\u00e9s": 8085,
  "anom": 8086,
  "\u2581vin": 8087,
  "\u2581click": 8088,
  "\u2581embernek": 8089,
  "\u2581n\u00e9ven": 8090,
  "\u2581foglalkoztat\u00e1s": 8091,
  "\u2581h\u00e9tv\u00e9g": 8092,
  "\u2581h\u00f3napja": 8093,
  "cl": 8094,
  "sze": 8095,
  "\u2581fed": 8096,
  "\u2581influence": 8097,
  "\u2581port\u00e1l": 8098,
  "\u258128.": 8099,
  "\u2581megb\u00edzhat\u00f3": 8100,
  "\u2581gondolok": 8101,
  "\u2581Wat": 8102,
  "\u2581duration": 8103,
  "\u25810.3": 8104,
  "\u2581Moreover": 8105,
  "\u2581apart": 8106,
  "\u2581Kan": 8107,
  "\u2581mondanom": 8108,
  "d\u00edj": 8109,
  "\u00fagy": 8110,
  "\u2581Elizabeth": 8111,
  "ably": 8112,
  "\u2581Austria": 8113,
  "\u2581screen": 8114,
  "ici": 8115,
  "\u2581anyja": 8116,
  "\u2581szervek": 8117,
  "\u2581Jew": 8118,
  "\u2581vegetables": 8119,
  "\u2581managed": 8120,
  "\u2581Emma": 8121,
  "\u2581oszt": 8122,
  "\u2581bringing": 8123,
  "\u2581significantly": 8124,
  "\u2581frequency": 8125,
  "buk": 8126,
  "en\u00fcnk": 8127,
  "\u2581csoportok": 8128,
  "\u2581rid": 8129,
  "\u2581rendszeres": 8130,
  "\u2581vad": 8131,
  "\u2581v\u00e9delem": 8132,
  "\u2581meghalad\u00f3": 8133,
  "\u2581Laur": 8134,
  "\u2581k\u00e9sz\u00fcl\u00e9k": 8135,
  "ker\u00fcl": 8136,
  "b\u00faj": 8137,
  "urs": 8138,
  "\u2581contained": 8139,
  "\u2581supporting": 8140,
  "\u2581el\u0151ad\u00f3": 8141,
  "\u2581term\u00e9kekre": 8142,
  "/1": 8143,
  "\u2581concentration": 8144,
  "9.": 8145,
  "\u2581kal": 8146,
  "\u2581transzfer": 8147,
  "\u2581quit": 8148,
  "\u2581\u00e1ll\u00edt": 8149,
  "f\u00e9r": 8150,
  "ddal": 8151,
  "\u2581iskola": 8152,
  "\u2581\u00e9vente": 8153,
  "\u2581preparation": 8154,
  "\u0151s": 8155,
  "\u2581viszony": 8156,
  "\u2581meta": 8157,
  "\u2581rendelkez\u00e9seket": 8158,
  "lj": 8159,
  "\u2581UK": 8160,
  "\u2581alternat\u00edv": 8161,
  "\u2581r\u00e9g": 8162,
  "\u2581heavy": 8163,
  "\u2581linked": 8164,
  "\u25814:": 8165,
  "\u2581Peg": 8166,
  "\u2581kapni": 8167,
  "\u2581k\u00f6nyvt\u00e1r": 8168,
  "\u2581szexu\u00e1lis": 8169,
  "\u2581adatb\u00e1zis": 8170,
  "pine": 8171,
  "\u2581Also": 8172,
  "\u2581\u00edt\u00e9let": 8173,
  "related": 8174,
  "\u2581meglepet\u00e9s": 8175,
  "\u2581danger": 8176,
  "\u2581instructions": 8177,
  "box": 8178,
  "\u2581szerzett": 8179,
  "\u2581j\u00f6v\u0151ben": 8180,
  "And": 8181,
  "iki": 8182,
  "\u2581command": 8183,
  "AM": 8184,
  "\u2581l\u00e1sd": 8185,
  "kedv": 8186,
  "\u2581jail": 8187,
  "\u2581kilom\u00e9ter": 8188,
  "\u2581hord": 8189,
  "\u2581Den": 8190,
  "\u2581promotion": 8191,
  "\u2581\u00d7": 8192,
  "\u2581tal\u00e1lkoztunk": 8193,
  "\u2581rem\u00e9lem": 8194,
  "RI": 8195,
  "\u2581viselked\u00e9s": 8196,
  "Do": 8197,
  "\u2581dr": 8198,
  "\u2581el\u0151l": 8199,
  "\u2581cheap": 8200,
  "ped": 8201,
  "\u2581Ellen": 8202,
  "\u2581vessel": 8203,
  "\u2581m\u00f3dos\u00edt\u00e1sa": 8204,
  "\u2581Training": 8205,
  "\u2581consultation": 8206,
  "\u2581Tim": 8207,
  "ekr\u0151l": 8208,
  "\u2581akarj\u00e1k": 8209,
  "\u2581\u00e9p\u00edt\u00e9sz": 8210,
  "\u2581mell\u00e9": 8211,
  "\u2581\u00f6tlete": 8212,
  "csk\u00e1": 8213,
  "\u2581aludni": 8214,
  "nagy": 8215,
  "hesse": 8216,
  "ounce": 8217,
  "\u2581Four": 8218,
  "\u2581\u00e1llati": 8219,
  "\u2581dr\u00e1ga": 8220,
  "\u2581h\u00e1ts\u00f3": 8221,
  "\u2581\u0151szinte": 8222,
  "wn": 8223,
  "\u2581fizet\u00e9s": 8224,
  "\u2581Want": 8225,
  "\u2581Description": 8226,
  "\u2581Latin": 8227,
  "\u2581fert\u0151z\u00e9s": 8228,
  "\u2581m\u0171t\u00e9t": 8229,
  "FR": 8230,
  "\u2581employees": 8231,
  "\u2581k\u00e9rni": 8232,
  "\u2581Queen": 8233,
  "\u2581Hely": 8234,
  "eur": 8235,
  "\u2581conformity": 8236,
  "wi": 8237,
  "\u2581Prof": 8238,
  "\u2581utc\u00e1": 8239,
  "\u2581army": 8240,
  "tten": 8241,
  "EUR": 8242,
  "\u2581flag": 8243,
  "\u2581reasonable": 8244,
  "\u2581f\u00e9r": 8245,
  "\u2581j\u00e9g": 8246,
  "\u2581networks": 8247,
  "ati": 8248,
  "\u2581elem": 8249,
  "\u2581biztons\u00e1gban": 8250,
  "\u2581\u00e9rzed": 8251,
  "\u2581\u00e9nekel": 8252,
  "\u2581\u00f6n\u00f6k": 8253,
  "PT": 8254,
  "\u2581individuals": 8255,
  "osabb": 8256,
  "new": 8257,
  "\u2581Five": 8258,
  "\u2581\u00e1rtatlan": 8259,
  "\u2581kelt": 8260,
  "0,": 8261,
  "\u2581shoes": 8262,
  "\u2581judgment": 8263,
  "\u2581l\u00e9nyeges": 8264,
  "\u258122-": 8265,
  "k\u00e9sz": 8266,
  "\u2581Hivatal": 8267,
  "\u2581felhatalmaz\u00e1s": 8268,
  "\u2581mindenkit": 8269,
  "\u2581listening": 8270,
  "\u2581b\u00e9r": 8271,
  "\u2581ez\u00e1ltal": 8272,
  "\u2581Vajon": 8273,
  "\u2581v\u00e1llal": 8274,
  "\u2581Hill": 8275,
  "rim": 8276,
  "\u2581Patr": 8277,
  "\u2581magunkat": 8278,
  "6-": 8279,
  "rix": 8280,
  "\u2581szag": 8281,
  "\u2581l\u00e1nc": 8282,
  "\u2581k\u00f6zt\u00fck": 8283,
  "\u2581Netherlands": 8284,
  "\u2581tar": 8285,
  "\u2581hat\u00e1rokon": 8286,
  "\u258126.": 8287,
  "\u2581cry": 8288,
  "\u2581harm": 8289,
  "BAR": 8290,
  "\u2581Chief": 8291,
  "\u2581h\u00e1zban": 8292,
  "\u2581r\u00f6gt\u00f6n": 8293,
  "that": 8294,
  "\u2581task": 8295,
  "\u2581t\u00e1v": 8296,
  "\u2581jellemz\u0151": 8297,
  "\u2581sz\u00e1m\u00e1t": 8298,
  "\u2581tulajdon": 8299,
  "\u2581\u00e1tny\u00fal\u00f3": 8300,
  "\u2581thou": 8301,
  "sion": 8302,
  "\u2581Gyorsan": 8303,
  "\u2581t\u00e9v\u00e9": 8304,
  "\u2581Ugyanakkor": 8305,
  "\u2581staying": 8306,
  "\u2581remove": 8307,
  "\u2581challenge": 8308,
  "\u2581appears": 8309,
  "\u2581kezed": 8310,
  "\u2581Croatia": 8311,
  "\u2581dictionary": 8312,
  "\u2581\u00cdrorsz\u00e1g": 8313,
  "\u2581recognition": 8314,
  "\u2581ellop": 8315,
  "\u2581Conference": 8316,
  "\u2581rendszeresen": 8317,
  "Pro": 8318,
  "\u2581szeretn\u00e9nk": 8319,
  "\u2581iskol\u00e1": 8320,
  "\u2581bottom": 8321,
  "\u2581Cu": 8322,
  "\u2581Egyed\u00fcl": 8323,
  "\u2581Sz\u00e1m": 8324,
  "\u2581advance": 8325,
  "\u2581k\u00fcldet\u00e9s": 8326,
  "\u2581seek": 8327,
  "\u2581specifications": 8328,
  "olva": 8329,
  "\u2581szem\u00e9lyzet": 8330,
  "\u2581munk\u00e1m": 8331,
  "\u2581powder": 8332,
  "\u2581von": 8333,
  "\u2581failed": 8334,
  "\u2581el\u00e9gg\u00e9": 8335,
  "\u2581stuck": 8336,
  "\u2581Members": 8337,
  "\u2581Haszn\u00e1l": 8338,
  "z\u00e1k": 8339,
  "\u2581\u00edr\u00e1sban": 8340,
  "k\u00f6t": 8341,
  "\u2581EFTA": 8342,
  "\u2581meg\u00e9rte": 8343,
  "aff": 8344,
  "\u2581exporting": 8345,
  "\u2581season": 8346,
  "\u2581Sz\u00edv": 8347,
  "\u2581tisztelet": 8348,
  "\u2581plus": 8349,
  "\u258127.": 8350,
  "\u2581megismer": 8351,
  "\u2581klasszikus": 8352,
  "\u2581Hong": 8353,
  "\u2581er\u0151szak": 8354,
  "\u2581absence": 8355,
  "\u2581indeed": 8356,
  "\u2581eg\u00e9sz\u00fcl": 8357,
  "atur": 8358,
  "\u00f6p": 8359,
  "Ne": 8360,
  "\u2581RE": 8361,
  "\u2581125": 8362,
  "ellenes": 8363,
  "hir": 8364,
  "tesz": 8365,
  "\u2581ellen\u0151rz\u0151": 8366,
  "llen": 8367,
  "\u2581megbesz\u00e9l": 8368,
  "eau": 8369,
  "\u2581tekinteni": 8370,
  "\u2581river": 8371,
  "lett": 8372,
  "yr": 8373,
  "\u2581t\u00e1mogat": 8374,
  "\u2581schemes": 8375,
  "\u2581\u00c1llat": 8376,
  "\u2581benned": 8377,
  "\u2581GY\u00d3GYSZER": 8378,
  "\u2581destination": 8379,
  "\u2581kezem": 8380,
  "\u2581Greek": 8381,
  "\u2581Monday": 8382,
  "AC": 8383,
  "\u2581hov\u00e1": 8384,
  "\u2581raw": 8385,
  "\u2581haszn\u00e1lhat\u00f3": 8386,
  "\u2581v\u00e9li": 8387,
  "\u2581Castle": 8388,
  "\u00f3dott": 8389,
  "\u2581besz\u00e9ltem": 8390,
  "\u00f3m": 8391,
  "\u2581Egyik": 8392,
  "k\u00e9s": 8393,
  "\u2581legislative": 8394,
  "ii": 8395,
  "\u2581Station": 8396,
  "\u2581h\u00e1zat": 8397,
  "Al": 8398,
  "\u2581Dav": 8399,
  "\u2581doses": 8400,
  "\u2581Aren": 8401,
  "\u2581block": 8402,
  "\u2581Alice": 8403,
  "j\u00e1r\u00f3l": 8404,
  "\u2581scar": 8405,
  "\u2581CD": 8406,
  "\u2581V\u00e1rjon": 8407,
  "\u2581alkalmazz\u00e1k": 8408,
  "\u2581entitled": 8409,
  "\u2581http": 8410,
  "\u2581itthon": 8411,
  "\u2581vezetett": 8412,
  "\u2581prepare": 8413,
  "\u2581brow": 8414,
  "\u2581herself": 8415,
  "\u2581kifejezetten": 8416,
  "arch": 8417,
  "j\u00e1b\u00f3l": 8418,
  "\u2581lehetetlen": 8419,
  "VA": 8420,
  "\u2581vers": 8421,
  "hov\u00e1": 8422,
  "biztons\u00e1gi": 8423,
  "i\u00e1t": 8424,
  "\u2581\u00c1l": 8425,
  "\u2581mindkett\u0151": 8426,
  "\u2581enforcement": 8427,
  "\u2581sz\u00e1momra": 8428,
  "\u2581greatest": 8429,
  "\u2581\u00e9rtes\u00edt\u00e9s": 8430,
  "meg\u00e1llapod\u00e1s": 8431,
  "\u2581sz\u00e1ll\u00edt\u00e1si": 8432,
  "mbul": 8433,
  "\u2581businesses": 8434,
  "ets": 8435,
  "\u2581goal": 8436,
  "hun": 8437,
  "IR": 8438,
  "\u00e9jt": 8439,
  "\u2581aspect": 8440,
  "\u2581smoke": 8441,
  "v\u00e9g": 8442,
  "ates": 8443,
  "\u2581szomsz\u00e9d": 8444,
  "\u2581reaction": 8445,
  "\u2581korai": 8446,
  "\u2581infection": 8447,
  "\u2581judge": 8448,
  "\u2581examination": 8449,
  "\u2581register": 8450,
  "eb": 8451,
  "\u2581existence": 8452,
  "\u2581thy": 8453,
  "v\u00edz": 8454,
  "t\u00f6rt\u00e9net": 8455,
  "medenc\u00e9": 8456,
  "\u2581experts": 8457,
  "\u2581Ask": 8458,
  "\u2581River": 8459,
  "Co": 8460,
  "\u2581School": 8461,
  "\u2581minta": 8462,
  "\u2581vall\u00e1s": 8463,
  "\u2581contents": 8464,
  "\u2581Hamburg": 8465,
  "\u2581roof": 8466,
  "isation": 8467,
  "\u25811234/2007": 8468,
  "\u2581fenn\u00e1ll\u00f3": 8469,
  "\u00edg": 8470,
  "III": 8471,
  "\u2581Kedv": 8472,
  "\u2581sokan": 8473,
  "stein": 8474,
  "set": 8475,
  "\u2581Top": 8476,
  "\u2581nyitva": 8477,
  "\u2581equipped": 8478,
  "ste": 8479,
  "sten": 8480,
  "\u2581leaves": 8481,
  "\u2581Family": 8482,
  "\u2581v\u00e1lasztott": 8483,
  "\u2581v\u00e9rnyom\u00e1s": 8484,
  "\u2581kamer\u00e1": 8485,
  "\u2581aircraft": 8486,
  "\u2581nyugd\u00edj": 8487,
  "\u2581test\u00fclet": 8488,
  "\u2581Bio": 8489,
  "\u2581hat\u00e1s\u00e1t": 8490,
  "\u2581witness": 8491,
  "\u2581hozz\u00e1f\u00e9r\u00e9st": 8492,
  "m\u00e9r": 8493,
  "\u2581www": 8494,
  "\u2581kibocs\u00e1t\u00e1s": 8495,
  "\u2581detail": 8496,
  "\u2581felt\u00e9ve": 8497,
  "\u00ef": 8498,
  "\u2581rendeletnek": 8499,
  "4-": 8500,
  "\u2581Too": 8501,
  "\u2581relax": 8502,
  "OM": 8503,
  "\u2581players": 8504,
  "\u2581north": 8505,
  "IP": 8506,
  "sc": 8507,
  "\u2581felt\u00e9teleket": 8508,
  "\u2581maradj": 8509,
  "\u2581kezdve": 8510,
  "\u2581V\u00e1ros": 8511,
  "\u00f6r\u00f6k": 8512,
  "\u2581\u00e9ven": 8513,
  "\u2581hosszabb": 8514,
  "\u2581n\u0151i": 8515,
  "\u2581generally": 8516,
  "\u2581beer": 8517,
  "ddie": 8518,
  "\u2581delivered": 8519,
  "\u2581weboldal": 8520,
  "\u2581hinn\u00e9": 8521,
  "\u2581vagyon": 8522,
  "\u2581b\u00e1csi": 8523,
  "\u2581hungry": 8524,
  "\u2581pretend": 8525,
  "\u2581dug": 8526,
  "\u2581elt\u0171n": 8527,
  "\u2581v\u00e9delmi": 8528,
  "pre": 8529,
  "leges": 8530,
  "\u2581csendes": 8531,
  "\u2581ni": 8532,
  "\u2581benn\u00fcnket": 8533,
  "\u2581committee": 8534,
  "\u2581id": 8535,
  "\u2581truly": 8536,
  "\u2581ell\u00e1t\u00e1s": 8537,
  "\u2581KN": 8538,
  "\u00f3dik": 8539,
  "uv": 8540,
  "\u2581r\u00e9gen": 8541,
  "\u2581szabadon": 8542,
  "\u2581mozdul": 8543,
  "\u2581\u00f6nk\u00e9ntes": 8544,
  "mand": 8545,
  "\u2581Tour": 8546,
  "\u2581heaven": 8547,
  "navir": 8548,
  "run": 8549,
  "szolg\u00e1ltat\u00e1sokat": 8550,
  "alog": 8551,
  "\u2581140": 8552,
  "\u2581highest": 8553,
  "\u2581Zs": 8554,
  "\u2581k\u00e9rdezte": 8555,
  "\u2581bejelentett": 8556,
  "\u2581Azonban": 8557,
  "\u2581allows": 8558,
  "\u2581Brown": 8559,
  "\u00e8": 8560,
  "\u2581practical": 8561,
  "\u2581telefon\u00e1l": 8562,
  "terek": 8563,
  "\u25817-": 8564,
  "\u2581statisztikai": 8565,
  "\u2581guard": 8566,
  "\u2581tag\u00e1llamokban": 8567,
  "\u2581fecskend\u0151": 8568,
  "\u2581f\u00fcgg\u0151en": 8569,
  "\u2581k\u00e9relmez\u0151": 8570,
  "\u2581Eco": 8571,
  "\u2581Island": 8572,
  "\u2581Med": 8573,
  "\u2581Wh": 8574,
  "\u2581komp": 8575,
  "\u2581\u00d6n\u00f6k": 8576,
  "venni": 8577,
  "\u2581perces": 8578,
  "ST": 8579,
  "\u2581recorded": 8580,
  "\u2581mez\u0151": 8581,
  "\u2581percentage": 8582,
  "\u2581c\u00e9lok": 8583,
  "\u2581holiday": 8584,
  "sav": 8585,
  "\u2581Sav": 8586,
  "\u2581vonatkoznak": 8587,
  "\u2581chain": 8588,
  "\u2581cards": 8589,
  "\u2581Start": 8590,
  "\u2581enterprises": 8591,
  "hetn\u00e9": 8592,
  "j\u00e9tek": 8593,
  "\u2581enged\u00e9lyt": 8594,
  "\u2581stress": 8595,
  "\u2581Gro": 8596,
  "\u00e1ru": 8597,
  "\u2581103": 8598,
  "\u2581intervention": 8599,
  "okhoz": 8600,
  "\u00e1bb": 8601,
  "\u25812000.": 8602,
  "\u2581ker\u00fclnek": 8603,
  "\u2581Live": 8604,
  "\u2581t\u00f6rt\u00e9nete": 8605,
  "\u2581rep\u00fcl\u0151": 8606,
  "OP": 8607,
  "\u2581paying": 8608,
  "bur": 8609,
  "\u2581zone": 8610,
  "\u2581okozott": 8611,
  "\u2581Happy": 8612,
  "izing": 8613,
  "j\u00e1rat": 8614,
  "\u2581swimming": 8615,
  "\u2581csal\u00e1dom": 8616,
  "\u2581fokozott": 8617,
  "\u2581Dob": 8618,
  "\u2581t\u00f6bbiek": 8619,
  "\u2581cleaning": 8620,
  "b\u00f3": 8621,
  "\u2581pieces": 8622,
  "\u2581\u00e9p\u00edtett": 8623,
  "\u2581versenyk\u00e9pess\u00e9g": 8624,
  "PS": 8625,
  "-1-": 8626,
  "nyal": 8627,
  "\u2581profil": 8628,
  "\u2581vil\u00e1gban": 8629,
  "\u2581szolg\u00e1ltat\u00f3": 8630,
  "\u2581k\u00fcl\u00f6nf\u00e9le": 8631,
  "\u2581107": 8632,
  "ega": 8633,
  "\u2581terhes": 8634,
  "j\u00f6ttem": 8635,
  "\u2581l\u00e9ny": 8636,
  "\u2581Standard": 8637,
  "\u2581Science": 8638,
  "\u2581Gre": 8639,
  "\u2581initiatives": 8640,
  "\u2581seemed": 8641,
  "ear": 8642,
  "\u2581database": 8643,
  "\u2581Hurry": 8644,
  "\u2581kereslet": 8645,
  "\u2581udvar": 8646,
  "\u2581Novo": 8647,
  "\u2581hat\u00e1sok": 8648,
  "oxi": 8649,
  "\u2581representatives": 8650,
  "ram": 8651,
  "olta": 8652,
  "\u2581m\u0171vel": 8653,
  "\u2581dare": 8654,
  "\u2581technol\u00f3gi\u00e1k": 8655,
  "izm": 8656,
  "TP": 8657,
  "lesz": 8658,
  "\u2581t\u00e1rgyal\u00e1s": 8659,
  "\u2581fok": 8660,
  "\u2581rep\u00fcl": 8661,
  "\u2581Bulgaria": 8662,
  "fast": 8663,
  "\u2581L\u00e1tom": 8664,
  "\u2581brand": 8665,
  "\u2581fekszik": 8666,
  "\u2581kereskedelem": 8667,
  "\u2581technol\u00f3gia": 8668,
  "\u2581Tin": 8669,
  "\u2581refer": 8670,
  "\u2581utolj\u00e1ra": 8671,
  "\u2581monitor": 8672,
  "cs\u0151": 8673,
  "\u2581Non": 8674,
  "\u2581portal": 8675,
  "\u2581\u00edr\u00e1s": 8676,
  "\u2581carefully": 8677,
  "\u2581delay": 8678,
  "\u2581embereknek": 8679,
  "\u2581load": 8680,
  "\u2581selling": 8681,
  "\u2581Publish": 8682,
  "\u2581functioning": 8683,
  "\u2581CE": 8684,
  "\u2581award": 8685,
  "rup": 8686,
  "\u2581megk\u00e9rdez": 8687,
  "\u2581J\u00e1t\u00e9k": 8688,
  "\u2581Talk": 8689,
  "\u2581jelentett": 8690,
  "\u2581permanent": 8691,
  "\u2581101": 8692,
  "doh\u00e1nyz\u00f3": 8693,
  "aught": 8694,
  "\u2581besorol\u00e1s": 8695,
  "ds": 8696,
  "\u2581lemez": 8697,
  "\u2581Neh\u00e9z": 8698,
  "\u00e9s\u00e9re": 8699,
  "\u2581obviously": 8700,
  "\u2581k\u00e9relmet": 8701,
  "\u2581asszonyom": 8702,
  "\u2581restructuring": 8703,
  "esek": 8704,
  "\u2581export\u00e1l\u00f3": 8705,
  "\u2581McC": 8706,
  "\u2581szoros": 8707,
[...]
