{
  "</s>": 0,
  "<unk>": 1,
  ",": 2,
  ".": 3,
  "\u2581the": 4,
  "'": 5,
  "\u2581as": 6,
  "-": 7,
  "\u2581and": 8,
  "\u2581yn": 9,
  "\u2581er": 10,
  "\u2581ny": 11,
  "\u2581dy": 12,
  "s": 13,
  "\u2581to": 14,
  "\u2581eh": 15,
  "\u2581of": 16,
  ":": 17,
  "\u2581": 18,
  "n": 19,
  "\u2581y": 20,
  "\u2581ta": 21,
  "\u2581As": 22,
  "\u2581_": 23,
  "\u2581in": 24,
  "\u2581him": 25,
  "\u2581ayns": 26,
  "\u2581he": 27,
  "\u2581a": 28,
  "\u2581that": 29,
  "\u2581%": 30,
  "\u2581be": 31,
  "\u2581jeh": 32,
  "\u2581you": 33,
  "\u2581ad": 34,
  "?": 35,
  "\u2581is": 36,
  "\u2581I": 37,
  "\u2581\"": 38,
  ";": 39,
  "\u2581shoh": 40,
  "\u2581son": 41,
  "\u2581v": 42,
  "\u2581my": 43,
  "\u2581not": 44,
  "t": 45,
  "\u2581for": 46,
  "\u2581e": 47,
  "\u2581va": 48,
  "\u2581them": 49,
  "\u2581they": 50,
  "\u2581And": 51,
  "\u2581said": 52,
  "\u2581t": 53,
  "eh": 54,
  "\u2581cha": 55,
  "\u2581da": 56,
  "\u2581was": 57,
  "\u2581dooyrt": 58,
  "\u2581it": 59,
  "\u2581his": 60,
  "\u2581Cha": 61,
  "l": 62,
  "\u2581will": 63,
  "ing": 64,
  "\u2581The": 65,
  ")": 66,
  "\u2581rish": 67,
  "\u2581unto": 68,
  "_": 69,
  "\u2581with": 70,
  "\u2581shen": 71,
  "y": 72,
  "yn": 73,
  "\u2581gys": 74,
  "\u2581magh": 75,
  "\u2581vel": 76,
  "\u2581lesh": 77,
  "\"": 78,
  "ed": 79,
  "\u2581nyn": 80,
  "\u2581(": 81,
  "d": 82,
  ".\"": 83,
  "\u2581this": 84,
  "\u2581Yeesey": 85,
  "\u2581Jesus": 86,
  "\u2581on": 87,
  "\u2581shal": 88,
  "\u2581\"%": 89,
  "\u2581cur": 90,
  "\u2581have": 91,
  "\u2581from": 92,
  "\u2581bee": 93,
  "\u2581myr": 94,
  "\u2581'": 95,
  "\u2581me": 96,
  "e": 97,
  "\u2581shiu": 98,
  "\u2581mee": 99,
  "\u2581when": 100,
  "\u2581Ta": 101,
  "\u2581Cur": 102,
  "\u2581tra": 103,
  "er": 104,
  "\u2581agh": 105,
  "\u2581all": 106,
  "\u2581which": 107,
  "\u2581gra": 108,
  "\u2581who": 109,
  "\u2581d": 110,
  "ee": 111,
  "\u2581dooinney": 112,
  "jee": 113,
  "\u2581E": 114,
  "ink": 115,
  "\u2581oo": 116,
  "\u2581into": 117,
  "\u2581ve": 118,
  "\u2581are": 119,
  "\u2581stiagh": 120,
  "\u2581nel": 121,
  "\u2581but": 122,
  "\u2581your": 123,
  "nagh": 124,
  "\u2581nee": 125,
  "\u2581out": 126,
  "\u2581ha": 127,
  "\u2581by": 128,
  "\u2581D": 129,
  "\u2581had": 130,
  "\u2581row": 131,
  "\u2581dty": 132,
  "\u2581man": 133,
  "\u2581were": 134,
  "\u2581came": 135,
  "\u2581He": 136,
  "\u2581ye": 137,
  "\u2581dys": 138,
  "\u2581ren": 139,
  "\u2581s": 140,
  "...": 141,
  "f": 142,
  "\u2581hene": 143,
  "\u2581But": 144,
  "agh": 145,
  "\u2581ooilley": 146,
  "\u2581one": 147,
  "ow": 148,
  "\u2581Agh": 149,
  "\u2581roo": 150,
  "\u2581jannoo": 151,
  "\u2581or": 152,
  "%": 153,
  "\u2581n": 154,
  "\u2581veih": 155,
  "\u2581God": 156,
  "\u2581hug": 157,
  "ad": 158,
  "\u2581do": 159,
  "\u2581Myr": 160,
  "\u2581ard": 161,
  "\u2581ec": 162,
  "\u2581elley": 163,
  "\u2581traa": 164,
  "\u2581So": 165,
  "\u2581hie": 166,
  "\u2581coodagh": 167,
  "isht": 168,
  "\u2581come": 169,
  "\u2581erbee": 170,
  "\u2581things": 171,
  "\u2581saying": 172,
  "\u2581at": 173,
  "\u2581file": 174,
  "\u2581coadan": 175,
  "\u2581goll": 176,
  "\u2581firrinagh": 177,
  "\u2581reih": 178,
  "fa": 179,
  "\u2581currit": 180,
  "\u2581folder": 181,
  "\u2581raad": 182,
  "\u2581an": 183,
  "\u2581up": 184,
  "\u2581echey": 185,
  "\u2581cre": 186,
  "\u2581liorish": 187,
  "\u2581coadanyn": 188,
  "\u2581went": 189,
  "\u2581ee": 190,
  "\u2581thou": 191,
  "B": 192,
  "\u2581For": 193,
  "\u2581their": 194,
  "\u2581there": 195,
  "\u2581ree": 196,
  "\u2581jean": 197,
  "\u2581laa": 198,
  "\u2581mish": 199,
  "\u2581eshyn": 200,
  "\u2581reesht": 201,
  "\u2581ayn": 202,
  "/": 203,
  "\u2581oc": 204,
  "if": 205,
  "\u2581ennym": 206,
  "\u2581name": 207,
  "\u2581Yn": 208,
  "\u2581fer": 209,
  "\u2581no": 210,
  "\u2581cheet": 211,
  "\u2581fys": 212,
  "\u2581also": 213,
  "\u2581gh": 214,
  "\u2581S": 215,
  "\u2581ynnyd": 216,
  "\u2581what": 217,
  "\u2581these": 218,
  "\u2581her": 219,
  "\u2581ymmyd": 220,
  "\u2581say": 221,
  "\u2581disciples": 222,
  "it": 223,
  "\u2581files": 224,
  "\u2581ass": 225,
  "\u2581C": 226,
  "\u2581Va": 227,
  "\u2581king": 228,
  "I": 229,
  "\u2581ayd": 230,
  "\u2581nhee": 231,
  "cause": 232,
  "\u2581noddym": 233,
  "ey": 234,
  "\u2581choyrt": 235,
  "\u2581she": 236,
  "\u2581rolley": 237,
  "\u2581set": 238,
  "reggyr": 239,
  "\u2581chooille": 240,
  "\u2581A": 241,
  "\u2581P": 242,
  "\u2581answered": 243,
  "\u2581day": 244,
  "\u2581sy": 245,
  "\u2581seose": 246,
  "\u2581Father": 247,
  "\u2581know": 248,
  "\u2581co": 249,
  "\u2581myrgeddin": 250,
  "\u2581Jee": 251,
  "\u2581Soilshaghey": 252,
  "\u2581They": 253,
  "\u2581did": 254,
  "\u2581un": 255,
  "\u2581pannyl": 256,
  "\u2581toshiaght": 257,
  "ys": 258,
  "\u2581When": 259,
  "\u2581selected": 260,
  "ner": 261,
  "\u2581Lord": 262,
  "\u2581has": 263,
  "\u2581Ayr": 264,
  "\u2581Yee": 265,
  "\u2581Cre": 266,
  "\u2581Ny": 267,
  "\u2581go": 268,
  "!": 269,
  "\u2581noa": 270,
  "\u2581so": 271,
  "ooyrt": 272,
  "\u2581This": 273,
  "\u2581panel": 274,
  "\u2581should": 275,
  "\u2581jeet": 276,
  "\u2581then": 277,
  ",\"": 278,
  "abyl": 279,
  "my": 280,
  "\u2581riu": 281,
  "\u2581smoo": 282,
  "\u2581veg": 283,
  "\u2581shiuish": 284,
  "\u2581reddyn": 285,
  "ou": 286,
  "\u2581T": 287,
  "\u2581us": 288,
  "\u2581eu": 289,
  "\u2581fo": 290,
  "ther": 291,
  "\u2581Son": 292,
  "\u2581chur": 293,
  "\u2581away": 294,
  "\u2581house": 295,
  "\u2581soilshaghey": 296,
  "?\"": 297,
  "\u2581Dy": 298,
  "\u2581tell": 299,
  "\u2581thee": 300,
  "\u2581uinnag": 301,
  "th": 302,
  "m": 303,
  "\u2581(_": 304,
  "\u2581therefore": 305,
  "\u2581before": 306,
  "\u2581down": 307,
  "\u2581window": 308,
  ":%": 309,
  "\u2581Nautilus": 310,
  "\u2581voish": 311,
  "\u2581N": 312,
  "\u2581Reih": 313,
  "\u2581saw": 314,
  "\u2581see": 315,
  "\u2581those": 316,
  "\u2581true": 317,
  "F": 318,
  "\u2581quoi": 319,
  "\u2581Mac": 320,
  "\u2581new": 321,
  "M": 322,
  "\u2581am": 323,
  "\u2581ghoaill": 324,
  "\u2581huggey": 325,
  "\u2581mac": 326,
  "\u2581marish": 327,
  "\u2581time": 328,
  "\u2581You": 329,
  "\u2581ho": 330,
  "\u2581ostyllyn": 331,
  "\u2581yannoo": 332,
  "nnick": 333,
  "\u2581g": 334,
  "\u2581ghra": 335,
  "\u2581goaill": 336,
  "\u2581many": 337,
  "\u2581vod": 338,
  "\u2581open": 339,
  "en": 340,
  "\u2581reeriaght": 341,
  "\u2581we": 342,
  "\u2581pobble": 343,
  "\u2581c": 344,
  "\u2581location": 345,
  "\u2581eddyr": 346,
  "\u2581may": 347,
  "\u2581G": 348,
  "\u2581coip": 349,
  "\u2581men": 350,
  "\u2581sent": 351,
  "\u2581people": 352,
  "\u2581Open": 353,
  "\u2581thie": 354,
  "\u2581doilleid": 355,
  "\u2581vees": 356,
  "voggyl": 357,
  "\u2581again": 358,
  "\u2581can": 359,
  "\u2581j": 360,
  "\u2581nod": 361,
  "\u2581thy": 362,
  "\u2581daa": 363,
  "\u2581roish": 364,
  "\u2581Could": 365,
  "\u2581Show": 366,
  "\u2581Jerusalem": 367,
  "\u2581ven": 368,
  "S": 369,
  "\u2581f": 370,
  "\u2581list": 371,
  "\u2581loayrt": 372,
  "\u2581tab": 373,
  "\u2581daue": 374,
  "\u2581diu": 375,
  "\u2581Chiarn": 376,
  "\u2581geddyn": 377,
  "al": 378,
  "sy": 379,
  "\u2581Jannoo": 380,
  "able": 381,
  "\u2581heaven": 382,
  "\u2581ymmodee": 383,
  "\u2581about": 384,
  "\u2581niau": 385,
  "\u2581Hewnyn": 386,
  "\u2581eisht": 387,
  "\u2581ersooyl": 388,
  "\u2581Jews": 389,
  "\u2581boayl": 390,
  "\u2581cadjin": 391,
  "\u2581just": 392,
  "\u2581adsyn": 393,
  "p": 394,
  "\u2581heard": 395,
  "\u2581key": 396,
  "\u2581Totem": 397,
  "\u2581drogh": 398,
  "\u2581Simon": 399,
  "\u2581cloie": 400,
  "\u2581might": 401,
  "\u2581uss": 402,
  "ym": 403,
  "ly": 404,
  "\u2581took": 405,
  "\u2581My": 406,
  "\u2581claare": 407,
  "\u2581more": 408,
  "erbee": 409,
  "\u2581F": 410,
  "\u2581mie": 411,
  "\u2581great": 412,
  "\u2581gyn": 413,
  "\u2581called": 414,
  "\u2581even": 415,
  "\u2581made": 416,
  "a": 417,
  "\u2581whom": 418,
  "\u2581would": 419,
  "\u2581cannot": 420,
  "\u2581Hiarn": 421,
  "\u2581against": 422,
  "\u2581deiney": 423,
  "\u2581hath": 424,
  "\u2581loayr": 425,
  "\u2581other": 426,
  "\u2581trustyr": 427,
  "\u2581where": 428,
  "\u2581Now": 429,
  "\u2581cast": 430,
  "\u2581lhig": 431,
  "\u2581Esther": 432,
  "\u2581Mordecai": 433,
  "\u2581oilley": 434,
  "\u2581than": 435,
  "\u2581roie": 436,
  "\u2581saith": 437,
  "\u2581world": 438,
  "g": 439,
  "\u2581Un": 440,
  "eth": 441,
  "\u2581days": 442,
  "\u2581sarey": 443,
  "\u2581icon": 444,
  "\u2581nish": 445,
  "\u2581show": 446,
  "\u2581another": 447,
  "\u2581current": 448,
  "\u2581put": 449,
  "\u2581Haman": 450,
  "\u2581give": 451,
  "\u2581Galilee": 452,
  "\u2581shirrey": 453,
  "syn": 454,
  "\u2581given": 455,
  "\u2581only": 456,
  "\u2581sheese": 457,
  "b": 458,
  "\u2581Ean": 459,
  "\u2581Pilate": 460,
  "\u2581There": 461,
  "\u2581any": 462,
  "\u2581dagh": 463,
  "\u2581while": 464,
  "\u2581error": 465,
  "\u2581good": 466,
  "\u2581laue": 467,
  "\u2581two": 468,
  "ng": 469,
  "\u2581Ve": 470,
  "\u2581gy": 471,
  "\u2581way": 472,
  "\u2581derrey": 473,
  "\u2581himself": 474,
  "\u2581na": 475,
  "\u2581B": 476,
  "\u2581Caghlaa": 477,
  "\u2581John": 478,
  "\u2581L": 479,
  "\u2581akin": 480,
  "Gleashaghey": 481,
  "\u2581could": 482,
  "\u2581hand": 483,
  "\u2581orroo": 484,
  "\u2581theihll": 485,
  "\u2581done": 486,
  "\u2581orgher": 487,
  "r": 488,
  "\u2581let": 489,
  "\u2581b": 490,
  "\u2581display": 491,
  "\u2581kiangley": 492,
  "\u2581over": 493,
  "\u2581server": 494,
  "\u2581shin": 495,
  "\u2581Peter": 496,
  "\u2581fastee": 497,
  "\u2581cheddin": 498,
  "\u2581does": 499,
  "\u2581hoie": 500,
  "\u2581desktop": 501,
  "\u2581now": 502,
  "hene": 503,
  "hooar": 504,
  "\u2581harrish": 505,
  "\u2581how": 506,
  "\u2581credjal": 507,
  "\u2581Peddyr": 508,
  "\u2581command": 509,
  "\u2581life": 510,
  "Foashley": 511,
  "\u2581Bee": 512,
  "\u2581three": 513,
  "\u2581father": 514,
  "\u2581neose": 515,
  "\u2581Move": 516,
  "\u2581don": 517,
  "\u2581found": 518,
  "earrooder": 519,
  "\u2581amo": 520,
  "\u2581same": 521,
  "\u2581view": 522,
  "\u2581O": 523,
  "\u2581first": 524,
  "\u2581leih": 525,
  "\u2581m": 526,
  "\u2581oaie": 527,
  "\u2581Nish": 528,
  "\u2581city": 529,
  "\u2581aym": 530,
  "\u2581lhieu": 531,
  "\u2581Jean": 532,
  "\u2581ayr": 533,
  "\u2581use": 534,
  "\u2581She": 535,
  "\u2581uinnagyn": 536,
  "\u2581doll": 537,
  "\u2581obbree": 538,
  "\u2581take": 539,
  "\u2581windows": 540,
  "\u2581want": 541,
  "\u2581In": 542,
  "\u2581Select": 543,
  "\u2581trooid": 544,
  "h": 545,
  "yannoo": 546,
  "\u2581Er": 547,
  "\u2581red": 548,
  "\u2581caghlaa": 549,
  "\u2581gave": 550,
  "\u2581kingdom": 551,
  "\u2581(%": 552,
  "\u2581jeant": 553,
  "\u2581eat": 554,
  "\u2581forth": 555,
  "\u2581mother": 556,
  "\u2581own": 557,
  "\u2581te": 558,
  "oyr": 559,
  "\u2581word": 560,
  "\u2581dou": 561,
  "\u2581rey": 562,
  "\u2581M": 563,
  "\u2581thalloo": 564,
  "valley": 565,
  "\u2581Pharisees": 566,
  "\u2581orrym": 567,
  "\u2581Phariseeyn": 568,
  "\u2581gheddyn": 569,
  "\u2581lurg": 570,
  "\u2581place": 571,
  "\u2581It": 572,
  "\u2581Tra": 573,
  "\u2581after": 574,
  "\u2581multitude": 575,
  "\u2581tow": 576,
  "\u2581gearree": 577,
  "\u2581aght": 578,
  "\u2581asked": 579,
  "\u2581foast": 580,
  "\u2581copy": 581,
  "\u2581hear": 582,
  "\u2581jeu": 583,
  "\u2581like": 584,
  "\u2581mooar": 585,
  "ayn": 586,
  "eddyn": 587,
  "\u2581believe": 588,
  "\u2581cheu": 589,
  "\u2581aggle": 590,
  "\u2581dhyt": 591,
  "\u2581oor": 592,
  "\u2581ver": 593,
  "A": 594,
  "\u2581/": 595,
  "\u2581Re": 596,
  "\u2581application": 597,
  "\u2581dooin": 598,
  "\u2581reayrt": 599,
  "\u2581some": 600,
  "\u2581text": 601,
  "\u2581left": 602,
  "\u2581Quoi": 603,
  "\u2581every": 604,
  "\u2581menu": 605,
  "\u2581teks": 606,
  "\u2581What": 607,
  "\u2581ry": 608,
  "\u2581hour": 609,
  "\u2581jalloo": 610,
  "\u2581r": 611,
  "\u2581vooinjer": 612,
  "\u2581volume": 613,
  "\u2581Trash": 614,
  "\u2581enmyssit": 615,
  "ish": 616,
  "\u2581hannah": 617,
  "\u2581upon": 618,
  "\u2581yet": 619,
  "\u2581foashlit": 620,
  "\u2581GNOME": 621,
  "\u2581sor\u00e7h": 622,
  "ayns": 623,
  "kys": 624,
  "\u2581Man": 625,
  "\u2581chlashtyn": 626,
  "\u2581claa": 627,
  "\u2581kied": 628,
  "\u2581used": 629,
  "\u2581Error": 630,
  "\u2581baase": 631,
  "\u2581children": 632,
  "\u2581enter": 633,
  "T": 634,
  "in": 635,
  "\u2581behold": 636,
  "\u2581chelleeragh": 637,
  "\u2581choud": 638,
  "\u2581feeshan": 639,
  "\u2581told": 640,
  "cheayll": 641,
  "irree": 642,
  "\u2581All": 643,
  "\u2581arran": 644,
  "\u2581brought": 645,
  "!\"": 646,
  "\u2581claaghyn": 647,
  "\u2581follit": 648,
  "\u2581gow": 649,
  "\u2581link": 650,
  "\u2581neu": 651,
  "\u2581File": 652,
  "\u2581Herod": 653,
  "\u2581Moses": 654,
  "\u2581chiamble": 655,
  "\u2581dei": 656,
  "\u2581foashley": 657,
  "\u2581hig": 658,
  "\u2581make": 659,
  "\u2581x": 660,
  "oll": 661,
  "\u2581K": 662,
  "\u2581croo": 663,
  "\u2581nei": 664,
  "\u2581sat": 665,
  "\u2581Panel": 666,
  "\u2581beagh": 667,
  "\u2581unnane": 668,
  "\u2581ym": 669,
  ".'": 670,
  "Y": 671,
  "\u2581paart": 672,
  "\u2581Abraham": 673,
  "\u2581Default": 674,
  "\u2581dead": 675,
  "\u2581jee": 676,
  "\u2581laadey": 677,
  "kione": 678,
  "ug": 679,
  "\u2581cochiangley": 680,
  "est": 681,
  "\u2581goan": 682,
  "\u2581whe": 683,
  "\u2581fe": 684,
  "\u2581items": 685,
  "\u2581permissions": 686,
  "\u2581reighyn": 687,
  "\u2581temple": 688,
  "\u2581together": 689,
  "\u2581bread": 690,
  "\u2581laghyn": 691,
  "screeu": 692,
  "\u2581bragh": 693,
  "\u2581pass": 694,
  "\u2581sea": 695,
  "\u2581ben": 696,
  "\u2581cheer": 697,
  "\u2581noi": 698,
  "\u2581system": 699,
  "\u2581drive": 700,
  "\u2581fysseree": 701,
  "\u2581trash": 702,
  "\u2581written": 703,
  "\u2581cooidjagh": 704,
  "\u2581mygeayrt": 705,
  "\u2581certain": 706,
  "\u2581chief": 707,
  "\u2581hoshiaght": 708,
  "\u2581item": 709,
  "\u2581nor": 710,
  "\u2581%-": 711,
  "\u2581Creest": 712,
  "\u2581Set": 713,
  "\u2581Whe": 714,
  "\u2581ask": 715,
  "\u2581began": 716,
  "\u2581nothing": 717,
  "\u2581vark": 718,
  "\u2581Create": 719,
  "\u2581No": 720,
  "\u2581Shirrey": 721,
  "\u2581type": 722,
  "aghey": 723,
  "\u2581Israel": 724,
  "\u2581access": 725,
  "\u2581associat": 726,
  "\u2581scribes": 727,
  "\u2581Display": 728,
  "\u2581priests": 729,
  "\u2581servant": 730,
  "\u2581Christ": 731,
  "\u2581Files": 732,
  "\u2581Shen": 733,
  "\u2581Therefore": 734,
  "\u2581disk": 735,
  "\u2581user": 736,
  "lioar": 737,
  "\u2581ch": 738,
  "\u2581cummal": 739,
  "\u2581feddyn": 740,
  "U": 741,
  "\u2581voir": 742,
  "E": 743,
  "or": 744,
  "\u2581ghooinney": 745,
  "\u2581mysh": 746,
  "UT": 747,
  "lhiggey": 748,
  "\u2581Ahasuerus": 749,
  "\u2581corys": 750,
  "\u2581evil": 751,
  "\u2581gholl": 752,
  "\u2581livrey": 753,
  "\u2581foddey": 754,
  "\u2581reihghyn": 755,
  "\u2581ynnydagh": 756,
  "insh": 757,
  "\u2581clashtyn": 758,
  "\u2581earroo": 759,
  "\u2581earth": 760,
  "\u2581opened": 761,
  "\u2581ymmydeyr": 762,
  "You": 763,
  "\u2581David": 764,
  "\u2581Go": 765,
  "\u2581Rolley": 766,
  "\u2581brother": 767,
  "\u2581Behold": 768,
  "\u2581Do": 769,
  "\u2581kiedyn": 770,
  "\u2581much": 771,
  "\u2581scruit": 772,
  "ry": 773,
  "\u2581Tab": 774,
  "\u2581den": 775,
  "\u2581each": 776,
  "\u2581here": 777,
  "\u2581Copy": 778,
  "\u2581enney": 779,
  "\u2581goo": 780,
  "\u2581hands": 781,
  "\u2581hee": 782,
  "\u2581icons": 783,
  "\u2581lheihys": 784,
  "\u2581mastey": 785,
  "\u2581ooashley": 786,
  "\u2581scrudeyryn": 787,
  "\u2581unti": 788,
  "C": 789,
  "Mac": 790,
  "st": 791,
  "\u2581Kingdom": 792,
  "\u2581enmey": 793,
  "\u2581little": 794,
  "\u2581p": 795,
  ").": 796,
  "\u2581ain": 797,
  "\u2581erash": 798,
  "\u2581jallooyn": 799,
  "\u2581love": 800,
  "\u2581ort": 801,
  "\u2581receive": 802,
  "\u2581screen": 803,
  "\u2581side": 804,
  "\u2581speak": 805,
  "\u2581Scuirr": 806,
  "\u2581bookmarks": 807,
  "\u2581light": 808,
  "\u2581must": 809,
  "esh": 810,
  "gerrey": 811,
  "\u2581Goll": 812,
  "\u2581Gow": 813,
  "\u2581Vainshter": 814,
  "\u2581bring": 815,
  "\u2581connection": 816,
  "\u2581drink": 817,
  "\u2581find": 818,
  "\u2581huitt": 819,
  "\u2581nheeghyn": 820,
  "\u2581prophet": 821,
  "\u2581right": 822,
  "\u2581screeu": 823,
  "\u2581wife": 824,
  "se": 825,
  "\u2581Web": 826,
  "\u2581scannane": 827,
  "\u2581size": 828,
  "\u2581sort": 829,
  "ISO": 830,
  "\u2581Croo": 831,
  "\u2581leigh": 832,
  "\u2581reaymys": 833,
  "\u2581soiaghey": 834,
  "\u2581spyrryd": 835,
  "oi": 836,
  "\u2581eeast": 837,
  "\u2581entered": 838,
  "\u2581through": 839,
  "\u2581woman": 840,
  "goyrt": 841,
  "\u2581already": 842,
  "\u2581blind": 843,
  "\u2581bun": 844,
  "\u2581kion": 845,
  "\u2581pooar": 846,
  "\u2581re": 847,
  "\u2581read": 848,
  "\u2581vee": 849,
  "\u2581Mary": 850,
  "\u2581lioaryn": 851,
  "\u2581movie": 852,
  "\u2581themselves": 853,
  "\u2581value": 854,
  "\u2581Fosley": 855,
  "\u2581cometh": 856,
  "\u2581doonaght": 857,
  "\u2581feanish": 858,
  "\u2581mast": 859,
  "\u2581soilshit": 860,
  "\u2581stood": 861,
  "\u2581yeig": 862,
  "higgey": 863,
  "on": 864,
  "\u2581followed": 865,
  "\u2581immediately": 866,
  "\u2581whole": 867,
  "\u2581MB": 868,
  "\u2581Reighyn": 869,
  "\u2581boggey": 870,
  "\u2581lheid": 871,
  "\u2581padjer": 872,
  "\u2581received": 873,
  "\u2581buirdclaaghyn": 874,
  "\u2581cowrey": 875,
  "\u2581kiart": 876,
  "\u2581laid": 877,
  "\u2581soie": 878,
  "\u2581spake": 879,
  "\u2581water": 880,
  "der": 881,
  "\u2581Save": 882,
  "\u2581fruit": 883,
  "\u2581gee": 884,
  "\u2581hav": 885,
  "\u2581jir": 886,
  "\u2581laueyn": 887,
  "\u2581coming": 888,
  "\u2581ushtey": 889,
  "O": 890,
  "dorraghey": 891,
  "saggyrtyn": 892,
  "shyn": 893,
  "\u2581Epiphany": 894,
  "\u2581H": 895,
  "\u2581ID": 896,
  "\u2581aigney": 897,
  "\u2581heart": 898,
  "\u2581phadeyr": 899,
  "\u2581slane": 900,
  "\u2581vea": 901,
  "$": 902,
  "soever": 903,
  "\u2581Coadanyn": 904,
  "\u2581Doilleid": 905,
  "\u2581Joseph": 906,
  "\u2581coraa": 907,
  "\u2581eyes": 908,
  "\u2581our": 909,
  "\u2581Ayns": 910,
  "\u2581Liorish": 911,
  "\u2581commanded": 912,
  "\u2581hrog": 913,
  "\u2581known": 914,
  "\u2581order": 915,
  "\u2581remove": 916,
  "\u2581seen": 917,
  "\u2581twelve": 918,
  "\u2581vraar": 919,
  "Cur": 920,
  "\u2581Be": 921,
  "\u2581Lhisagh": 922,
  "\u2581call": 923,
  "\u2581death": 924,
  "\u2581jallooveg": 925,
  "\u2581knew": 926,
  "\u2581moir": 927,
  "\u2581zoom": 928,
  "2": 929,
  "reish": 930,
  "\u2581Moirrey": 931,
  "\u2581R": 932,
  "\u2581VPN": 933,
  "\u2581View": 934,
  "\u2581X": 935,
  "\u2581briwnys": 936,
  "\u2581fell": 937,
  "\u2581jeaghydeyr": 938,
  "\u2581mayd": 939,
  "\u2581seek": 940,
  "\u2581servants": 941,
  "\u2581yindys": 942,
  "ce": 943,
  "\u2581cried": 944,
  "\u2581fish": 945,
  "\u2581kione": 946,
  "\u2581spoken": 947,
  "\u2581synagogue": 948,
  "\u2581words": 949,
  "Don": 950,
  "aghyn": 951,
  "ought": 952,
  "\u2581GDM": 953,
  "\u2581Jeagh": 954,
  "\u2581Link": 955,
  "\u2581New": 956,
  "\u2581Text": 957,
  "\u2581Tha": 958,
  "\u2581beg": 959,
  "\u2581child": 960,
  "\u2581dod": 961,
  "\u2581hon": 962,
  "\u2581lhie": 963,
  "\u2581mess": 964,
  "\u2581ostyl": 965,
  "\u2581soilshey": 966,
  "\u2581spirit": 967,
  "\u2581Cloie": 968,
  "\u2581Pannyl": 969,
  "\u2581browser": 970,
  "\u2581foshlit": 971,
  "\u2581its": 972,
  "\u2581k": 973,
  "\u2581lhaih": 974,
  "\u2581lord": 975,
  "\u2581nah": 976,
  "moo": 977,
  "\u2581Search": 978,
  "\u2581cloan": 979,
  "\u2581faa": 980,
  "\u2581hast": 981,
  "\u2581prophets": 982,
  "\u2581raa": 983,
  "\u2581save": 984,
  "\u2581video": 985,
  "\u2581voice": 986,
  "\u2581without": 987,
  "\u25811": 988,
  "\u2581By": 989,
  "\u2581Sauail": 990,
  "\u2581both": 991,
  "\u2581feast": 992,
  "\u2581feet": 993,
  "\u2581mychione": 994,
  "\u2581under": 995,
  "\u2581version": 996,
  "R": 997,
  "The": 998,
  "\\": 999,
  "eiyr": 1000,
  "ive": 1001,
  "\u2581Elias": 1002,
  "\u2581Jonah": 1003,
  "\u2581button": 1004,
  "\u2581dauesyn": 1005,
  "\u2581dialog": 1006,
  "\u2581eck": 1007,
  "\u2581geill": 1008,
  "\u2581law": 1009,
  "\u2581send": 1010,
  "\u2581Application": 1011,
  "\u2581Co": 1012,
  "\u2581List": 1013,
  "\u2581Ye": 1014,
  "\u2581high": 1015,
  "\u2581information": 1016,
  "\u2581lane": 1017,
  "\u2581last": 1018,
  "\u2581mode": 1019,
  "\u2581qu": 1020,
  "c": 1021,
  "immee": 1022,
  "x": 1023,
  "\u2581On": 1024,
  "\u2581Spyrryd": 1025,
  "\u2581back": 1026,
  "\u2581chooid": 1027,
  "\u2581enmys": 1028,
  "\u2581fakin": 1029,
  "\u2581format": 1030,
  "\u2581merriu": 1031,
  "\u2581power": 1032,
  "\u2581reiht": 1033,
  "\u2581search": 1034,
  "\u2581taken": 1035,
  "=": 1036,
  "\u2581DVD": 1037,
  "\u2581Ennym": 1038,
  "\u2581Shoh": 1039,
  "\u2581To": 1040,
  "\u2581comes": 1041,
  "\u2581country": 1042,
  "\u2581create": 1043,
  "\u2581departed": 1044,
  "\u2581folders": 1045,
  "\u2581jeeagh": 1046,
  "\u2581vac": 1047,
  "\u2581works": 1048,
  "\u2581ymmyrkey": 1049,
  "annagh": 1050,
  "eiyrt": 1051,
  "\u2581Jeannoo": 1052,
  "\u2581fockle": 1053,
  "\u2581fulfilled": 1054,
  "\u2581hoilshaghey": 1055,
  "\u2581lay": 1056,
  "\u2581mraane": 1057,
  "\u2581rhyt": 1058,
  "\u2581toiggal": 1059,
  "\u2581yesh": 1060,
  "raad": 1061,
  "\u2581General": 1062,
  "\u2581Use": 1063,
  "\u2581Zoom": 1064,
  "\u2581body": 1065,
  "\u2581gleashaghey": 1066,
  "\u2581towse": 1067,
  "\u2581\u00e7heu": 1068,
  "can": 1069,
  "\u2581King": 1070,
  "\u2581License": 1071,
  "\u2581caart": 1072,
  "\u2581cheayn": 1073,
  "\u2581fear": 1074,
  "\u2581full": 1075,
  "\u2581glory": 1076,
  "\u2581help": 1077,
  "\u2581jeih": 1078,
  "\u2581jerrey": 1079,
  "\u2581lhong": 1080,
  "\u2581oddy": 1081,
  "\u2581phadeyryn": 1082,
  "\u2581sloo": 1083,
  "\u2581vrah": 1084,
  "\u2581ynseydee": 1085,
  "Please": 1086,
  "cheilley": 1087,
  "\u2581Coadan": 1088,
  "\u2581Delete": 1089,
  "\u2581Nazareth": 1090,
  "\u2581head": 1091,
  "\u2581history": 1092,
  "\u2581image": 1093,
  "\u2581irree": 1094,
  "\u2581moodys": 1095,
  "\u2581session": 1096,
  "\u2581sheep": 1097,
  "\u2581sick": 1098,
  "What": 1099,
  "eig": 1100,
  "jerree": 1101,
  "oard": 1102,
  "spyrryd": 1103,
  "yms": 1104,
  "\u25810": 1105,
  "\u2581Who": 1106,
  "\u2581fir": 1107,
  "\u2581happened": 1108,
  "\u2581hroggal": 1109,
  "\u2581lioar": 1110,
  "\u2581local": 1111,
  "D": 1112,
  "\u2581Philip": 1113,
  "\u2581cause": 1114,
  "an": 1115,
  "chiangley": 1116,
  "\u2581certainly": 1117,
  "\u2581cooilleenit": 1118,
  "\u2581fast": 1119,
  "\u2581graihagh": 1120,
  "\u2581jarroo": 1121,
  "\u2581lioarvark": 1122,
  "\u2581marroo": 1123,
  "\u2581plugin": 1124,
  "\u2581priest": 1125,
  "\u2581shassoo": 1126,
  "Windows": 1127,
  "nnaghtyn": 1128,
  "riaght": 1129,
  "\u2581bac": 1130,
  "\u2581caghlaarit": 1131,
  "\u2581default": 1132,
  "\u2581directory": 1133,
  "\u2581group": 1134,
  "\u2581never": 1135,
  "\u2581quaiyl": 1136,
  "\u2581smooinaghtyn": 1137,
  "choine": 1138,
  "spyrrydyn": 1139,
  "\u2581Reihghyn": 1140,
  "\u2581V": 1141,
  "\u2581bio": 1142,
  "\u2581chrossey": 1143,
  "\u2581dait": 1144,
  "\u2581displayed": 1145,
  "\u2581insh": 1146,
  "\u2581jig": 1147,
  "\u2581kill": 1148,
  "\u2581lhiannoo": 1149,
  "\u2581li": 1150,
  "\u2581oardagh": 1151,
  "\u2581obbraghyn": 1152,
  "\u2581phobble": 1153,
  "\u2581run": 1154,
  "\u2581sheean": 1155,
  "\u2581trass": 1156,
  "\u2581tree": 1157,
  "\u2581vodd": 1158,
  "\u2581well": 1159,
  "w": 1160,
  "\u2581Enable": 1161,
  "\u2581Feddyn": 1162,
  "\u2581System": 1163,
  "\u2581accord": 1164,
  "\u2581custom": 1165,
  "\u2581greater": 1166,
  "\u2581immee": 1167,
  "\u2581jiu": 1168,
  "\u2581land": 1169,
  "\u2581launcher": 1170,
  "\u2581object": 1171,
  "\u2581pray": 1172,
  "\u2581shean": 1173,
  "feeyney": 1174,
  "\u2581Add": 1175,
  "\u2581Spirit": 1176,
  "\u2581feer": 1177,
  "\u2581girree": 1178,
  "\u2581healed": 1179,
  "\u2581shickyr": 1180,
  "\u2581sleih": 1181,
  "\u2581spoke": 1182,
  "\u2581stone": 1183,
  "\u2581such": 1184,
  "\u2581vakin": 1185,
  "\u2581vooar": 1186,
  "G": 1187,
  "com": 1188,
  "\u2581Cochiangley": 1189,
  "\u2581How": 1190,
  "\u2581Unicode": 1191,
  "\u2581W": 1192,
  "\u2581Why": 1193,
  "\u2581cooish": 1194,
  "\u2581doal": 1195,
  "\u2581share": 1196,
  "\u2581ymmydit": 1197,
  "\u2581Type": 1198,
  "\u2581arose": 1199,
  "\u2581cooney": 1200,
  "\u2581currym": 1201,
  "\u2581delivered": 1202,
  "\u2581reireyder": 1203,
  "\u2581settings": 1204,
  "\u2581touch": 1205,
  "\u2581truth": 1206,
  "ever": 1207,
  "\u2581Hurrys": 1208,
  "\u2581Name": 1209,
  "\u2581Shushan": 1210,
  "\u2581afraid": 1211,
  "\u2581believed": 1212,
  "\u2581buird": 1213,
  "\u2581exist": 1214,
  "\u2581gathered": 1215,
  "\u2581hayrn": 1216,
  "\u2581multitudes": 1217,
  "\u2581network": 1218,
  "\u2581possan": 1219,
  "\u2581sins": 1220,
  "\u2581women": 1221,
  "merg": 1222,
  "rish": 1223,
  "\u2581Choos": 1224,
  "\u2581Judea": 1225,
  "\u2581aile": 1226,
  "\u2581aynym": 1227,
  "\u2581coodaghyn": 1228,
  "\u2581diuish": 1229,
  "\u2581erskyn": 1230,
  "\u2581graih": 1231,
  "\u2581gymmyrkey": 1232,
  "\u2581hoiaghey": 1233,
  "\u2581olk": 1234,
  "\u2581shennaghys": 1235,
  "\u2581workspace": 1236,
  "Lord": 1237,
  "\u2581Date": 1238,
  "\u2581Thou": 1239,
  "\u2581art": 1240,
  "\u2581going": 1241,
  "\u2581kiare": 1242,
  "\u2581laadeyder": 1243,
  "\u2581number": 1244,
  "\u2581parable": 1245,
  "\u2581shiaght": 1246,
  "\u2581sign": 1247,
  "\u2581yeh": 1248,
  "He": 1249,
  "IBM": 1250,
  "\u258100:00": 1251,
  "\u2581Cyrillic": 1252,
  "\u2581Hebrew": 1253,
  "\u2581Kyrillagh": 1254,
  "\u2581Laadey": 1255,
  "\u2581Stop": 1256,
  "\u2581Verily": 1257,
  "\u2581authority": 1258,
  "\u2581contents": 1259,
  "\u2581jees": 1260,
  "\u2581l": 1261,
  "\u2581seaghnit": 1262,
  "\u2581tows": 1263,
  "\u2581yi": 1264,
  "aght": 1265,
  "le": 1266,
  "use": 1267,
  "yr": 1268,
  "\u2581Boayl": 1269,
  "\u2581Th": 1270,
  "\u2581coontey": 1271,
  "\u2581neesht": 1272,
  "\u2581sit": 1273,
  "\u2581tilg": 1274,
  "GB": 1275,
  "W": 1276,
  "eggey": 1277,
  "rein": 1278,
  "\u2581100": 1279,
  "\u2581Let": 1280,
  "\u2581Video": 1281,
  "\u2581^": 1282,
  "\u2581applet": 1283,
  "\u2581argid": 1284,
  "\u2581bear": 1285,
  "\u2581chione": 1286,
  "\u2581coamrey": 1287,
  "\u2581filled": 1288,
  "\u2581fire": 1289,
  "\u2581get": 1290,
  "\u2581hass": 1291,
  "\u2581heet": 1292,
  "\u2581judgment": 1293,
  "\u2581look": 1294,
  "\u2581print": 1295,
  "\u2581shenn": 1296,
  "\u2581stroie": 1297,
  "hyndaa": 1298,
  "ion": 1299,
  "very": 1300,
  "\u2581Desktop": 1301,
  "\u2581Folder": 1302,
  "\u2581Gra": 1303,
  "\u2581Hol": 1304,
  "\u2581Immee": 1305,
  "\u2581Take": 1306,
  "\u2581beaghey": 1307,
  "\u2581commandment": 1308,
  "\u2581end": 1309,
  "\u2581next": 1310,
  "\u2581ro": 1311,
  "\u2581sake": 1312,
  "\u2581thing": 1313,
  "\u2581visible": 1314,
  "\u2581whosoever": 1315,
  "gin": 1316,
  "id": 1317,
  "red": 1318,
  "\u2581-": 1319,
  "\u2581Bann": 1320,
  "\u2581Group": 1321,
  "\u2581Ha": 1322,
  "\u2581Python": 1323,
  "\u2581Traa": 1324,
  "\u2581date": 1325,
  "\u2581destroy": 1326,
  "\u2581echeysyn": 1327,
  "\u2581feailley": 1328,
  "\u2581launch": 1329,
  "\u2581manager": 1330,
  "\u2581month": 1331,
  "\u2581options": 1332,
  "\u2581peccah": 1333,
  "\u2581playing": 1334,
  "\u2581seihll": 1335,
  "\u2581sodjey": 1336,
  "\u2581sor\u00e7hit": 1337,
  "-%": 1338,
  "1": 1339,
  "noo": 1340,
  "ublic": 1341,
  "\u2581--": 1342,
  "\u2581Fo": 1343,
  "\u2581Fysseree": 1344,
  "\u2581Master": 1345,
  "\u2581able": 1346,
  "\u2581blood": 1347,
  "\u2581daughter": 1348,
  "\u2581eye": 1349,
  "\u2581generation": 1350,
  "\u2581heose": 1351,
  "\u2581long": 1352,
  "\u2581near": 1353,
  "\u2581seven": 1354,
  "\u2581yourselves": 1355,
  "adsyn": 1356,
  "came": 1357,
  "gholl": 1358,
  "rdail": 1359,
  "\u2581Capernaum": 1360,
  "\u2581James": 1361,
  "\u2581Lazarus": 1362,
  "\u2581Menu": 1363,
  "\u2581Start": 1364,
  "\u2581URL": 1365,
  "\u2581action": 1366,
  "\u2581aer": 1367,
  "\u2581angels": 1368,
  "\u2581arrys": 1369,
  "\u2581become": 1370,
  "\u2581buttons": 1371,
  "\u2581chied": 1372,
  "\u2581chloan": 1373,
  "\u2581erriu": 1374,
  "\u2581faith": 1375,
  "\u2581freayll": 1376,
  "\u2581guee": 1377,
  "\u2581hym": 1378,
  "\u2581media": 1379,
  "\u2581night": 1380,
  "\u2581others": 1381,
  "\u2581rhym": 1382,
  "\u2581rise": 1383,
  "\u2581stoo": 1384,
  "\u2581stuirey": 1385,
  "\u2581third": 1386,
  "\u2581vioys": 1387,
  "\u2581wine": 1388,
  "\u2581yeeagh": 1389,
  "\u2581yeeaghyn": 1390,
  "Paste": 1391,
  "Skip": 1392,
  "ddyr": 1393,
  "less": 1394,
  "ve": 1395,
  "\u2581Not": 1396,
  "\u2581Oilley": 1397,
  "\u2581contain": 1398,
  "\u2581cramman": 1399,
  "\u2581crammanyn": 1400,
  "\u2581die": 1401,
  "\u2581lost": 1402,
  "\u2581page": 1403,
  "\u2581password": 1404,
  "\u2581peace": 1405,
  "\u2581persoonagh": 1406,
  "\u2581queen": 1407,
  "\u2581shew": 1408,
  "\u2581thine": 1409,
  "\u2581ynnydyn": 1410,
  "\":": 1411,
  "://": 1412,
  "P": 1413,
  "Why": 1414,
  "bps": 1415,
  "eamagh": 1416,
  "fenish": 1417,
  "ghlen": 1418,
  "magh": 1419,
  "veg": 1420,
  "yeih": 1421,
  "\u2581Clear": 1422,
  "\u2581GN": 1423,
  "\u2581ainleyn": 1424,
  "\u2581alone": 1425,
  "\u2581bookmark": 1426,
  "\u2581born": 1427,
  "\u2581daag": 1428,
  "\u2581devil": 1429,
  "\u2581dooys": 1430,
  "\u2581euish": 1431,
  "\u2581feddynit": 1432,
  "\u2581maroo": 1433,
  "\u2581sooillyn": 1434,
  "\u2581syrjey": 1435,
  "\u2581vaik": 1436,
  "\u2581varroo": 1437,
  "\u2581ymmydoil": 1438,
  "disk": 1439,
  "oilley": 1440,
  "ossible": 1441,
  "\u2581An": 1442,
  "\u2581Judas": 1443,
  "\u2581Keep": 1444,
  "\u2581Remove": 1445,
  "\u2581Time": 1446,
  "\u2581except": 1447,
  "\u2581fall": 1448,
  "\u2581joy": 1449,
  "\u2581keep": 1450,
  "\u2581level": 1451,
  "\u2581off": 1452,
  "\u2581oie": 1453,
  "\u2581old": 1454,
  "\u2581perish": 1455,
  "\u2581sauail": 1456,
  "\u2581seed": 1457,
  "\u2581ship": 1458,
  "\u2581sight": 1459,
  "\u2581soit": 1460,
  "\u2581tar": 1461,
  "-8": 1462,
  "ance": 1463,
  "eallagh": 1464,
  "led": 1465,
  "ne": 1466,
  "ooar": 1467,
  "ur": 1468,
  "\u25814": 1469,
  "\u2581Aght": 1470,
  "\u2581Blessed": 1471,
  "\u2581CD": 1472,
  "\u2581Claaghyn": 1473,
  "\u2581Close": 1474,
  "\u2581Play": 1475,
  "\u2581Sor\u00e7h": 1476,
  "\u2581chree": 1477,
  "\u2581empty": 1478,
  "\u2581follow": 1479,
  "\u2581ghu": 1480,
  "\u2581giu": 1481,
  "\u2581jaglym": 1482,
  "\u2581je": 1483,
  "\u2581jeig": 1484,
  "\u2581jiuish": 1485,
  "\u2581kinjagh": 1486,
  "\u2581sure": 1487,
  "\u2581wh": 1488,
  "Tab": 1489,
  "Undo": 1490,
  "son": 1491,
  "\u2581Cadjin": 1492,
  "\u2581Chi": 1493,
  "\u2581Coodagh": 1494,
  "\u2581These": 1495,
  "\u2581always": 1496,
  "\u2581baptized": 1497,
  "\u2581cooylrey": 1498,
  "\u2581destination": 1499,
  "\u2581field": 1500,
  "\u2581program": 1501,
  "\u2581saved": 1502,
  "\u2581stand": 1503,
  "\u2581topic": 1504,
  "\u2581young": 1505,
  ".)": 1506,
  "ary": 1507,
  "reill": 1508,
  "saggyrt": 1509,
  "\u2581Lhig": 1510,
  "\u2581Noo": 1511,
  "\u2581Properties": 1512,
  "\u2581Roie": 1513,
  "\u2581VCD": 1514,
  "\u2581answer": 1515,
  "\u2581billey": 1516,
  "\u2581delete": 1517,
  "\u2581docmaidyn": 1518,
  "\u2581false": 1519,
  "\u2581gather": 1520,
  "\u2581hate": 1521,
  "\u2581hauail": 1522,
  "\u2581hirveish": 1523,
  "\u2581hurrys": 1524,
  "\u2581jallo": 1525,
  "\u2581keayney": 1526,
  "\u2581lhiam": 1527,
  "\u2581mountain": 1528,
  "\u2581niart": 1529,
  "\u2581ordaag": 1530,
  "\u2581ph": 1531,
  ">": 1532,
  "?'": 1533,
  "\u2581Find": 1534,
  "\u2581Martha": 1535,
  "\u2581Teks": 1536,
  "\u2581Window": 1537,
  "\u2581aarloo": 1538,
  "\u2581appear": 1539,
  "\u2581bentyn": 1540,
  "\u2581computer": 1541,
  "\u2581instead": 1542,
  "\u2581loved": 1543,
  "\u2581moved": 1544,
  "\u2581please": 1545,
  "\u2581position": 1546,
  "\u2581specified": 1547,
  "\u2581streng": 1548,
  "\u2581taught": 1549,
  "\u2581understand": 1550,
  "\u2581worthy": 1551,
  "Open": 1552,
  "nese": 1553,
  "oo": 1554,
  "oogle": 1555,
  "size": 1556,
  "u": 1557,
  "\u2581After": 1558,
  "\u2581Bookmarks": 1559,
  "\u2581Change": 1560,
  "\u2581Icon": 1561,
  "\u2581Jeeagh": 1562,
  "\u2581Sabbath": 1563,
  "\u2581aghin": 1564,
  "\u2581audio": 1565,
  "\u2581boayrd": 1566,
  "\u2581cairagh": 1567,
  "\u2581chlagh": 1568,
  "\u2581disciple": 1569,
  "\u2581elders": 1570,
  "\u2581enmyn": 1571,
  "\u2581feeyn": 1572,
  "\u2581free": 1573,
  "\u2581ghloyraghey": 1574,
  "\u2581hidden": 1575,
  "\u2581hundred": 1576,
  "\u2581lhis": 1577,
  "\u2581load": 1578,
  "\u2581message": 1579,
  "\u2581mod": 1580,
  "\u2581prowal": 1581,
  "\u2581royd": 1582,
  "\u2581sabbath": 1583,
  "\u2581sitting": 1584,
  "\u2581tastey": 1585,
  "\u2581veagh": 1586,
  "enish": 1587,
  "ir": 1588,
  "o": 1589,
  "ooish": 1590,
  "\u25812": 1591,
  "\u2581Dait": 1592,
  "\u2581Disable": 1593,
  "\u2581Failed": 1594,
  "\u2581His": 1595,
  "\u2581Location": 1596,
  "\u2581Subtitle": 1597,
  "\u2581around": 1598,
  "\u2581brishey": 1599,
  "\u2581concern": 1600,
  "\u2581live": 1601,
  "\u2581lowit": 1602,
  "\u2581ogh": 1603,
  "\u2581play": 1604,
  "\u2581preach": 1605,
  "\u2581suffer": 1606,
  "\u2581tilgey": 1607,
  "\u2581whoever": 1608,
  "\u2581within": 1609,
  "ies": 1610,
  "rom": 1611,
  "\u2581Chapter": 1612,
  "\u2581Connect": 1613,
  "\u2581Jalloo": 1614,
  "\u2581Ky": 1615,
  "\u2581Ver": 1616,
  "\u2581Zebedee": 1617,
  "\u2581anyone": 1618,
  "\u2581arrey": 1619,
  "\u2581ashoon": 1620,
  "\u2581chaghteragh": 1621,
  "\u2581cheilley": 1622,
  "\u2581flesh": 1623,
  "\u2581follaghey": 1624,
  "\u2581gynsaghey": 1625,
  "\u2581kept": 1626,
  "\u2581marym": 1627,
  "\u2581mooadys": 1628,
  "\u2581mooarey": 1629,
  "\u2581none": 1630,
  "\u2581poosey": 1631,
  "\u2581tayrn": 1632,
  "\u2581urree": 1633,
  "\u2581vraaraghyn": 1634,
  "\u2581woaill": 1635,
  "H": 1636,
  "Mount": 1637,
  "ose": 1638,
  "type": 1639,
  "us": 1640,
  "\u2581Are": 1641,
  "\u2581Password": 1642,
  "\u2581Run": 1643,
  "\u2581Server": 1644,
  "\u2581Where": 1645,
  "\u2581boaylyn": 1646,
  "\u2581chassyn": 1647,
  "\u2581configuration": 1648,
  "\u2581exists": 1649,
  "\u2581face": 1650,
  "\u2581follym": 1651,
  "\u2581ghlass": 1652,
  "\u2581gobbraghey": 1653,
  "\u2581jea": 1654,
  "\u2581mercy": 1655,
  "\u2581poor": 1656,
  "\u2581relevan": 1657,
  "\u2581righteous": 1658,
  "\u2581room": 1659,
  "\u2581starting": 1660,
  "\u2581unknown": 1661,
  "\u2581witness": 1662,
  "Behold": 1663,
  "Forward": 1664,
  "SO": 1665,
  "baase": 1666,
  "ghyn": 1667,
  "mooie": 1668,
  "obbyr": 1669,
  "re": 1670,
  "\u2581Image": 1671,
  "\u2581Jacob": 1672,
  "\u2581Network": 1673,
  "\u2581Satan": 1674,
  "\u2581Y": 1675,
  "\u2581ainle": 1676,
  "\u2581angel": 1677,
  "\u2581background": 1678,
  "\u2581bashtey": 1679,
  "\u2581beginning": 1680,
  "\u2581boat": 1681,
  "\u2581cheshaght": 1682,
  "\u2581corp": 1683,
  "\u2581crucified": 1684,
  "\u2581darkness": 1685,
  "\u2581dooney": 1686,
  "\u2581eternal": 1687,
  "\u2581firrinaghey": 1688,
  "\u2581forgive": 1689,
  "\u2581hiarn": 1690,
  "\u2581jagh": 1691,
  "\u2581jeeaghyn": 1692,
  "\u2581judge": 1693,
  "\u2581kerrin": 1694,
  "\u2581loaves": 1695,
  "\u2581midst": 1696,
  "\u2581oyr": 1697,
  "\u2581permanently": 1698,
  "\u2581reill": 1699,
  "\u2581rieau": 1700,
  "\u2581roue": 1701,
  "\u2581roym": 1702,
  "\u2581taggyrt": 1703,
  "0": 1704,
  "5": 1705,
  "Jannoo": 1706,
  "Menu": 1707,
  "drew": 1708,
  "end": 1709,
  "lick": 1710,
  "ll": 1711,
  "mmey": 1712,
  "ree": 1713,
  "\u2581Audio": 1714,
  "\u2581Bethany": 1715,
  "\u2581Expand": 1716,
  "\u2581Mos": 1717,
  "\u2581Reayrt": 1718,
  "\u2581Restore": 1719,
  "\u2581We": 1720,
  "\u2581deliver": 1721,
  "\u2581documents": 1722,
  "\u2581drop": 1723,
  "\u2581follaghit": 1724,
  "\u2581ground": 1725,
  "\u2581itself": 1726,
  "\u2581likewise": 1727,
  "\u2581management": 1728,
  "\u2581mine": 1729,
  "\u2581mouth": 1730,
  "\u2581phiagh": 1731,
  "\u2581risen": 1732,
  "\u2581teaching": 1733,
  "\u2581vineyard": 1734,
  "\u2581wise": 1735,
  "Cha": 1736,
  "Ennym": 1737,
  "Roie": 1738,
  "aggle": 1739,
  "eshyn": 1740,
  "mote": 1741,
  "totem": 1742,
  "yndagh": 1743,
  "\u2581Access": 1744,
  "\u2581Browser": 1745,
  "\u2581Drive": 1746,
  "\u2581Empty": 1747,
  "\u2581Iscariot": 1748,
  "\u2581Jordan": 1749,
  "\u2581Movie": 1750,
  "\u2581Te": 1751,
  "\u2581Tow": 1752,
  "\u2581aasagh": 1753,
  "\u2581address": 1754,
  "\u2581charvaant": 1755,
  "\u2581ching": 1756,
  "\u2581chooilleeney": 1757,
  "\u2581choraa": 1758,
  "\u2581click": 1759,
  "\u2581demons": 1760,
  "\u2581dorraghys": 1761,
  "\u2581dwoaie": 1762,
  "\u2581ghoan": 1763,
  "\u2581jalloyn": 1764,
  "\u2581jeusyn": 1765,
  "\u2581lawful": 1766,
  "\u2581lea": 1767,
  "\u2581leshtal": 1768,
  "\u2581meriu": 1769,
  "\u2581mooarane": 1770,
  "\u2581need": 1771,
  "\u2581phooar": 1772,
  "\u2581prepared": 1773,
  "\u2581properties": 1774,
  "\u2581rass": 1775,
  "\u2581returned": 1776,
  "\u2581rows": 1777,
  "\u2581saase": 1778,
  "\u2581screeuyn": 1779,
  "\u2581scrieu": 1780,
  "\u2581ten": 1781,
  "\u2581think": 1782,
  "\u2581villey": 1783,
  "\u2581work": 1784,
  "9": 1785,
  "L": 1786,
  "Run": 1787,
  "V": 1788,
  "at": 1789,
  "enmys": 1790,
  "nhee": 1791,
  "twe": 1792,
  "ww": 1793,
  "\u2581Barabbas": 1794,
  "\u2581Edit": 1795,
  "\u2581Nineveh": 1796,
  "\u2581U": 1797,
  "\u2581XDMCP": 1798,
  "\u2581authentication": 1799,
  "\u2581broken": 1800,
  "\u2581chapter": 1801,
  "\u2581deleted": 1802,
  "\u2581dropped": 1803,
  "\u2581home": 1804,
  "\u2581i": 1805,
  "\u2581jeagh": 1806,
  "\u2581lift": 1807,
  "\u2581lipaid": 1808,
  "\u2581looked": 1809,
  "\u2581question": 1810,
  "\u2581rebuke": 1811,
  "\u2581remember": 1812,
  "\u2581sinners": 1813,
  "\u2581taishbyney": 1814,
  "\u2581vashtee": 1815,
  "\u2581walk": 1816,
  "\u2581worship": 1817,
  "6": 1818,
  "This": 1819,
  "ation": 1820,
  "es": 1821,
  "irc": 1822,
  "ize": 1823,
  "jantys": 1824,
  "name": 1825,
  "up": 1826,
  "\u2581Jamys": 1827,
  "\u2581Jea": 1828,
  "\u2581Just": 1829,
  "\u2581Playlist": 1830,
  "\u2581Yuaase": 1831,
  "\u2581ansoor": 1832,
  "\u2581blessed": 1833,
  "\u2581chredjal": 1834,
  "\u2581chredjue": 1835,
  "\u2581der": 1836,
  "\u2581devils": 1837,
  "\u2581eaysley": 1838,
  "\u2581feed": 1839,
  "\u2581feme": 1840,
  "\u2581ghloyr": 1841,
  "\u2581hide": 1842,
  "\u2581hilgey": 1843,
  "\u2581indeed": 1844,
  "\u2581ish": 1845,
  "\u2581iu": 1846,
  "\u2581lhieggey": 1847,
  "\u2581noidyn": 1848,
  "\u2581ratio": 1849,
  "\u2581shaghey": 1850,
  "\u2581sharvaantyn": 1851,
  "\u2581sin": 1852,
  "\u2581st": 1853,
  "\u2581taghyrt": 1854,
  "\u2581trostey": 1855,
  "\u2581write": 1856,
  "\u2581years": 1857,
  "4": 1858,
  "All": 1859,
  "K": 1860,
  "ile": 1861,
  "lest": 1862,
  "llowed": 1863,
  "\u2581Fodde": 1864,
  "\u2581Kiangley": 1865,
  "\u2581Other": 1866,
  "\u2581URI": 1867,
  "\u2581Ubuntu": 1868,
  "\u2581User": 1869,
  "\u2581applications": 1870,
  "\u2581contact": 1871,
  "\u2581cooid": 1872,
  "\u2581door": 1873,
  "\u2581expand": 1874,
  "\u2581fodde": 1875,
  "\u2581glorified": 1876,
  "\u2581killed": 1877,
  "\u2581pane": 1878,
  "\u2581scuirr": 1879,
  "\u2581shooyll": 1880,
  "\u2581still": 1881,
  "\u2581web": 1882,
  "\u2581yeearree": 1883,
  ":%02": 1884,
  "Feaysley": 1885,
  "Go": 1886,
  "bar": 1887,
  "jyn": 1888,
  "lhiah": 1889,
  "long": 1890,
  "mmah": 1891,
  "um": 1892,
  "\u2581200": 1893,
  "\u258150": 1894,
  "\u2581Cesar": 1895,
  "\u2581Entreilys": 1896,
  "\u2581Foundation": 1897,
  "\u2581Ghavid": 1898,
  "\u2581Or": 1899,
  "\u2581Sidon": 1900,
  "\u2581Size": 1901,
  "\u2581Software": 1902,
  "\u2581Zacharias": 1903,
  "\u2581accept": 1904,
  "\u2581available": 1905,
  "\u2581boghtyn": 1906,
  "\u2581brethren": 1907,
  "\u2581column": 1908,
  "\u2581creat": 1909,
  "\u2581cuirraghyn": 1910,
  "\u2581docmaid": 1911,
  "\u2581ed": 1912,
  "\u2581encounter": 1913,
  "\u2581failed": 1914,
  "\u2581gharey": 1915,
  "\u2581hilg": 1916,
  "\u2581hold": 1917,
  "\u2581hooill": 1918,
  "\u2581huc": 1919,
  "\u2581inneen": 1920,
  "\u2581kirree": 1921,
  "\u2581label": 1922,
  "\u2581moving": 1923,
  "\u2581ooil": 1924,
  "\u2581phreacheil": 1925,
  "\u2581provinces": 1926,
  "\u2581rea": 1927,
  "\u2581rhymboo": 1928,
  "\u2581second": 1929,
  "\u2581software": 1930,
  "\u2581times": 1931,
  "\u2581unclean": 1932,
  "\u2581veeanagh": 1933,
  "\u2581wilderness": 1934,
  "3": 1935,
  "hed": 1936,
  "ous": 1937,
  "q": 1938,
  "reeaghyn": 1939,
  "time": 1940,
  "ual": 1941,
  "\u2581Empathy": 1942,
  "\u2581Esaias": 1943,
  "\u2581Fockle": 1944,
  "\u2581Preferences": 1945,
  "\u2581Screenshot": 1946,
  "\u2581Specif": 1947,
  "\u2581St": 1948,
  "\u2581Tar": 1949,
  "\u2581Towse": 1950,
  "\u2581account": 1951,
  "\u2581bar": 1952,
  "\u2581bega": 1953,
  "\u2581better": 1954,
  "\u2581brothers": 1955,
  "\u2581cross": 1956,
  "\u2581document": 1957,
  "\u2581ears": 1958,
  "\u2581enable": 1959,
  "\u2581gate": 1960,
  "\u2581hoshtal": 1961,
  "\u2581lose": 1962,
  "\u2581lught": 1963,
  "\u2581mean": 1964,
  "\u2581meat": 1965,
  "\u2581money": 1966,
  "\u2581myself": 1967,
  "\u2581oik": 1968,
  "\u2581previous": 1969,
  "\u2581remain": 1970,
  "\u2581shirveish": 1971,
  "\u2581sorch": 1972,
  "\u2581soul": 1973,
  "\u2581sound": 1974,
  "\u2581space": 1975,
  "\u2581standing": 1976,
  "\u2581state": 1977,
  "\u2581str": 1978,
  "\u2581supported": 1979,
  "\u2581testimony": 1980,
  "\u2581today": 1981,
  "\u2581tomb": 1982,
  "\u2581wind": 1983,
  "Caghlaa": 1984,
  "Edit": 1985,
  "IS": 1986,
  "N": 1987,
  "aase": 1988,
  "heeloghe": 1989,
  "il": 1990,
  "jerrey": 1991,
  "lheh": 1992,
  "lomarcan": 1993,
  "nsee": 1994,
  "\u2581Heaven": 1995,
  "\u2581annym": 1996,
  "\u2581bwilleenyn": 1997,
  "\u2581chee": 1998,
  "\u2581cherraghtyn": 1999,
  "\u2581clock": 2000,
  "\u2581copied": 2001,
  "\u2581cup": 2002,
  "\u2581eddin": 2003,
  "\u2581far": 2004,
  "\u2581feeu": 2005,
  "\u2581ginsh": 2006,
  "\u2581hearts": 2007,
  "\u2581hooillyn": 2008,
  "\u2581http": 2009,
  "\u2581ignored": 2010,
  "\u2581irriney": 2011,
  "\u2581loo": 2012,
  "\u2581niee": 2013,
  "\u2581oirr": 2014,
  "\u2581possible": 2015,
  "\u2581preacheil": 2016,
  "\u2581prison": 2017,
  "\u2581ready": 2018,
  "\u2581reeoil": 2019,
  "\u2581root": 2020,
  "\u2581shellooder": 2021,
  "\u2581shiartanse": 2022,
  "\u2581shinyn": 2023,
  "\u2581start": 2024,
  "\u2581stoyl": 2025,
  "\u2581thousand": 2026,
  "\u2581turn": 2027,
  "\u2581valley": 2028,
  "\u2581verily": 2029,
  "\u2581voym": 2030,
  "\u2581vriwnys": 2031,
  "\u2581workspaces": 2032,
  "'\"": 2033,
  "AR": 2034,
  "ennym": 2035,
  "erash": 2036,
  "k": 2037,
  "list": 2038,
  "orry": 2039,
  "\u258112": 2040,
  "\u2581Aashagh": 2041,
  "\u2581Caesar": 2042,
  "\u2581Immediately": 2043,
  "\u2581PM": 2044,
  "\u2581Replace": 2045,
  "\u2581See": 2046,
  "\u2581Shean": 2047,
  "\u2581Trustyr": 2048,
  "\u2581Vashti": 2049,
  "\u2581Which": 2050,
  "\u2581With": 2051,
  "\u2581allow": 2052,
  "\u2581cree": 2053,
  "\u2581faagail": 2054,
  "\u2581friends": 2055,
  "\u2581ga": 2056,
  "\u2581h": 2057,
  "\u2581installed": 2058,
  "\u2581lheead": 2059,
  "\u2581lhiat": 2060,
  "\u2581living": 2061,
  "\u2581screeuynyn": 2062,
  "\u2581synagogues": 2063,
  "NY": 2064,
  "are": 2065,
  "ers": 2066,
  "llee": 2067,
  "mooinjerey": 2068,
  "nnee": 2069,
  "ny": 2070,
  "reesht": 2071,
  "sthie": 2072,
  "yesh": 2073,
  "z": 2074,
  "\u2581Again": 2075,
  "\u2581Bashtey": 2076,
  "\u2581Dooiney": 2077,
  "\u2581Ewnish": 2078,
  "\u2581Mak": 2079,
  "\u2581Others": 2080,
  "\u2581Solomon": 2081,
  "\u2581Subtitles": 2082,
  "\u2581altar": 2083,
  "\u2581answering": 2084,
  "\u2581betray": 2085,
  "\u2581calendar": 2086,
  "\u2581centurion": 2087,
  "\u2581change": 2088,
  "\u2581chanstyr": 2089,
  "\u2581clag": 2090,
  "\u2581clagh": 2091,
  "\u2581coyrt": 2092,
  "\u2581dorrys": 2093,
  "\u2581foasley": 2094,
  "\u2581forgiven": 2095,
  "\u2581fosley": 2096,
  "\u2581gheyrey": 2097,
  "\u2581ghoo": 2098,
  "\u2581gloyr": 2099,
  "\u2581greie": 2100,
  "\u2581hirrey": 2101,
  "\u2581hiu": 2102,
  "\u2581hoilshe": 2103,
  "\u2581hood": 2104,
  "\u2581ki": 2105,
  "\u2581laanaghey": 2106,
  "\u2581lhiabbee": 2107,
  "\u2581lieh": 2108,
  "\u2581lowal": 2109,
  "\u2581monney": 2110,
  "\u2581myghin": 2111,
  "\u2581passed": 2112,
  "\u2581playlist": 2113,
  "\u2581required": 2114,
  "\u2581reue": 2115,
  "\u2581rich": 2116,
  "\u2581sidooryn": 2117,
  "\u2581skeayley": 2118,
  "\u2581slieau": 2119,
  "\u2581smoodeyder": 2120,
  "\u2581veayn": 2121,
  "\u2581vrish": 2122,
  "\u2581whilleen": 2123,
  "Back": 2124,
  "Who": 2125,
  "]": 2126,
  "axis": 2127,
  "ld": 2128,
  "ley": 2129,
  "till": 2130,
  "too": 2131,
  "\u2581Browse": 2132,
  "\u2581Cancel": 2133,
  "\u2581Details": 2134,
  "\u2581Hi": 2135,
  "\u2581Import": 2136,
  "\u2581Si": 2137,
  "\u2581Switch": 2138,
  "\u2581Thaie": 2139,
  "\u2581Uinnag": 2140,
  "\u2581automatically": 2141,
  "\u2581ayrn": 2142,
  "\u2581cut": 2143,
  "\u2581jantagh": 2144,
  "\u2581jeeragh": 2145,
  "\u2581reh": 2146,
  "\u2581shee": 2147,
  "\u2581tappee": 2148,
  "\u2581teach": 2149,
  "\u2581thumbnail": 2150,
  "\u2581turned": 2151,
  "\u2581vie": 2152,
  "\u2581visited": 2153,
  "-1": 2154,
  "Delete": 2155,
  "aeg": 2156,
  "as": 2157,
  "feed": 2158,
  "hoi": 2159,
  "local": 2160,
  "mie": 2161,
  "oalsey": 2162,
  "one": 2163,
  "panel": 2164,
  "ral": 2165,
  "\u25813": 2166,
  "\u2581Allow": 2167,
  "\u2581Factory": 2168,
  "\u2581Only": 2169,
  "\u2581Ree": 2170,
  "\u2581Taishbyney": 2171,
  "\u2581Vac": 2172,
  "\u2581barr": 2173,
  "\u2581cappan": 2174,
  "\u2581casherick": 2175,
  "\u2581choose": 2176,
  "\u2581chymmey": 2177,
  "\u2581data": 2178,
  "\u2581differen": 2179,
  "\u2581everyone": 2180,
  "\u2581firrinys": 2181,
  "\u2581gharmad": 2182,
  "\u2581ghlare": 2183,
  "\u2581giat": 2184,
  "\u2581goit": 2185,
  "\u2581harvaant": 2186,
  "\u2581hassoo": 2187,
  "\u2581hypocrites": 2188,
  "\u2581jeed": 2189,
  "\u2581moylley": 2190,
  "\u2581orrin": 2191,
  "\u2581reason": 2192,
  "\u2581reayll": 2193,
  "\u2581rest": 2194,
  "\u2581ruggey": 2195,
  "\u2581serve": 2196,
  "\u2581six": 2197,
  "\u2581sky": 2198,
  "\u2581sluight": 2199,
  "\u2581sold": 2200,
  "\u2581spyrrydyn": 2201,
  "\u2581tammylt": 2202,
  "\u2581th": 2203,
  "\u2581vlein": 2204,
  "Unmount": 2205,
  "annot": 2206,
  "bile": 2207,
  "fastee": 2208,
  "ill": 2209,
  "iu": 2210,
  "ment": 2211,
  "ter": 2212,
  "\u2581Aarlaghey": 2213,
  "\u2581Buirdclaaghyn": 2214,
  "\u2581Free": 2215,
  "\u2581Ghost": 2216,
  "\u2581Media": 2217,
  "\u2581Volume": 2218,
  "\u2581cliaghtey": 2219,
  "\u2581content": 2220,
  "\u2581cooie": 2221,
  "\u2581disable": 2222,
  "\u2581grigyn": 2223,
  "\u2581hid": 2224,
  "\u2581kiarail": 2225,
  "\u2581login": 2226,
  "\u2581master": 2227,
  "\u2581measure": 2228,
  "\u2581move": 2229,
  "\u2581ones": 2230,
  "\u2581popup": 2231,
  "\u2581rather": 2232,
  "\u2581reayrtys": 2233,
  "\u2581reward": 2234,
  "\u2581scarrey": 2235,
  "\u2581showing": 2236,
  "\u2581style": 2237,
  "\u2581thaie": 2238,
  "\u2581troubled": 2239,
  "\u2581using": 2240,
  "\u2581valid": 2241,
  "cheau": 2242,
  "only": 2243,
  "pdb": 2244,
  "san": 2245,
  "spect": 2246,
  "ting": 2247,
  "\u2581Adar": 2248,
  "\u2581Ayrey": 2249,
  "\u2581Background": 2250,
  "\u2581Caiaphas": 2251,
  "\u2581Cu": 2252,
  "\u2581Isaac": 2253,
  "\u2581Login": 2254,
  "\u2581Pass": 2255,
  "\u2581Pharisee": 2256,
  "\u2581Raad": 2257,
  "\u2581Some": 2258,
  "\u2581Turkish": 2259,
  "\u2581accryssagh": 2260,
  "\u2581betrayed": 2261,
  "\u2581booise": 2262,
  "\u2581bridegroom": 2263,
  "\u2581choayl": 2264,
  "\u2581chorp": 2265,
  "\u2581chrosh": 2266,
  "\u2581coraaghyn": 2267,
  "\u2581depart": 2268,
  "\u2581earrooyn": 2269,
  "\u2581fa": 2270,
  "\u2581foalsey": 2271,
  "\u2581frap": 2272,
  "\u2581gheay": 2273,
  "\u2581gheiney": 2274,
  "\u2581ghlenney": 2275,
  "\u2581ghraih": 2276,
  "\u2581harey": 2277,
  "\u2581jymmoosagh": 2278,
  "\u2581language": 2279,
  "\u2581leave": 2280,
  "\u2581lieen": 2281,
  "\u2581mainshter": 2282,
  "\u2581mo": 2283,
  "\u2581multi": 2284,
  "\u2581panels": 2285,
  "\u2581princes": 2286,
  "\u2581release": 2287,
  "\u2581remote": 2288,
  "\u2581resoon": 2289,
  "\u2581restart": 2290,
  "\u2581resurrection": 2291,
  "\u2581riaue": 2292,
  "\u2581setting": 2293,
  "\u2581sons": 2294,
  "\u2581straightway": 2295,
  "\u2581sushtal": 2296,
  "\u2581trog": 2297,
  "\u2581trome": 2298,
  "\u2581watch": 2299,
  "\u2581width": 2300,
  "Chiangley": 2301,
  "Mos": 2302,
  "We": 2303,
  "X": 2304,
  "eraght": 2305,
  "ngaghyn": 2306,
  "oftware": 2307,
  "roadband": 2308,
  "roggal": 2309,
  "va": 2310,
  "\u2581Applications": 2311,
  "\u2581Disk": 2312,
  "\u2581Enmys": 2313,
  "\u2581Even": 2314,
  "\u2581Permissions": 2315,
  "\u2581Personal": 2316,
  "\u2581Ro": 2317,
  "\u2581Sheean": 2318,
  "\u2581animaght": 2319,
  "\u2581charge": 2320,
  "\u2581clean": 2321,
  "\u2581clipboard": 2322,
  "\u2581de": 2323,
  "\u2581died": 2324,
  "\u2581disc": 2325,
  "\u2581enemies": 2326,
  "\u2581exceedingly": 2327,
  "\u2581gherrid": 2328,
  "\u2581holy": 2329,
  "\u2581inform": 2330,
  "\u2581modif": 2331,
  "\u2581mount": 2332,
  "\u2581nigh": 2333,
  "\u2581origin": 2334,
  "\u2581parables": 2335,
  "\u2581pay": 2336,
  "\u2581ran": 2337,
  "\u2581seeing": 2338,
  "\u2581select": 2339,
  "\u2581selection": 2340,
  "\u2581sepulchre": 2341,
  "\u2581string": 2342,
  "\u2581table": 2343,
  "\u2581tabs": 2344,
  "\u2581users": 2345,
  "Copy": 2346,
  "It": 2347,
  "ansoor": 2348,
  "ayd": 2349,
  "distribute": 2350,
  "eyr": 2351,
  "figgagh": 2352,
  "ghey": 2353,
  "hing": 2354,
  "j": 2355,
  "mail": 2356,
  "mec": 2357,
  "mmyrk": 2358,
  "noa": 2359,
  "rowal": 2360,
  "\u2581Aborting": 2361,
  "\u2581Address": 2362,
  "\u2581Bethlehem": 2363,
  "\u2581Cummal": 2364,
  "\u2581Download": 2365,
  "\u2581J": 2366,
  "\u2581Mozilla": 2367,
  "\u2581Seek": 2368,
  "\u2581aanrit": 2369,
  "\u2581abbyr": 2370,
  "\u2581add": 2371,
  "\u2581annaghyn": 2372,
  "\u2581baillish": 2373,
  "\u2581begged": 2374,
  "\u2581berchys": 2375,
  "\u2581bound": 2376,
  "\u2581braar": 2377,
  "\u2581build": 2378,
  "\u2581cassyn": 2379,
  "\u2581cheayrt": 2380,
  "\u2581colloo": 2381,
  "\u2581columns": 2382,
  "\u2581confirm": 2383,
  "\u2581cuirt": 2384,
  "\u2581dobberan": 2385,
  "\u2581eiyr": 2386,
  "\u2581glen": 2387,
  "\u2581goyrt": 2388,
  "\u2581heal": 2389,
  "\u2581honour": 2390,
  "\u2581install": 2391,
  "\u2581kiarit": 2392,
  "\u2581lead": 2393,
  "\u2581leagh": 2394,
  "\u2581least": 2395,
  "\u2581loud": 2396,
  "\u2581mooadaghit": 2397,
  "\u2581mysailltch": 2398,
  "\u2581names": 2399,
  "\u2581niurin": 2400,
  "\u2581point": 2401,
  "\u2581prayed": 2402,
  "\u2581pryssoon": 2403,
  "\u2581publicanee": 2404,
  "\u2581raghidey": 2405,
  "\u2581revealed": 2406,
  "\u2581roosyn": 2407,
  "\u2581ruler": 2408,
  "\u2581sauailit": 2409,
  "\u2581seaghyn": 2410,
  "\u2581seconds": 2411,
  "\u2581signs": 2412,
  "\u2581sp": 2413,
  "\u2581sthie": 2414,
  "\u2581testify": 2415,
  "\u2581thorns": 2416,
  "\u2581trimshagh": 2417,
  "\u2581uill": 2418,
  "\u2581vertical": 2419,
  "\u2581voddym": 2420,
  "\u2581voue": 2421,
  "\u2581weeping": 2422,
  "Soilshaghey": 2423,
  "Turkagh": 2424,
  "app": 2425,
  "dy": 2426,
  "ea": 2427,
  "hyn": 2428,
  "screen": 2429,
  "ta": 2430,
  "\u2581Europ": 2431,
  "\u2581European": 2432,
  "\u2581Jallooveg": 2433,
  "\u2581Lis": 2434,
  "\u2581MA": 2435,
  "\u2581Moodys": 2436,
  "\u2581Prepar": 2437,
  "\u2581Woe": 2438,
  "\u2581[": 2439,
  "\u2581activate": 2440,
  "\u2581adultery": 2441,
  "\u2581chosen": 2442,
  "\u2581clothes": 2443,
  "\u2581exit": 2444,
  "\u2581fathers": 2445,
  "\u2581garment": 2446,
  "\u2581jallooynveg": 2447,
  "\u2581lo": 2448,
  "\u2581non": 2449,
  "\u2581obbyr": 2450,
  "\u2581part": 2451,
  "\u2581preferences": 2452,
  "\u2581raised": 2453,
  "\u2581royal": 2454,
  "\u2581sun": 2455,
  "\u2581throughout": 2456,
  "\u2581unmount": 2457,
  "\u2581won": 2458,
  "\u2581\u00e7heer": 2459,
  "!'": 2460,
  "Goaill": 2461,
  "desktop": 2462,
  "dge": 2463,
  "gh": 2464,
  "mime": 2465,
  "oil": 2466,
  "out": 2467,
  "rch": 2468,
  "reeoil": 2469,
  "\u258114.": 2470,
  "\u2581Ashoonee": 2471,
  "\u2581Bookmark": 2472,
  "\u2581Can": 2473,
  "\u2581Enter": 2474,
  "\u2581Every": 2475,
  "\u2581Faagail": 2476,
  "\u2581Ghalilee": 2477,
  "\u2581IPv": 2478,
  "\u2581Internet": 2479,
  "\u2581Je": 2480,
  "\u2581Jeeagheyder": 2481,
  "\u2581LORD": 2482,
  "\u2581La": 2483,
  "\u2581Log": 2484,
  "\u2581Mo": 2485,
  "\u2581Noa": 2486,
  "\u2581Option": 2487,
  "\u2581Rabbi": 2488,
  "\u2581Send": 2489,
  "\u2581Simplified": 2490,
  "\u2581Veih": 2491,
  "\u2581Wa": 2492,
  "\u2581Wh": 2493,
  "\u2581above": 2494,
  "\u2581aggindagh": 2495,
  "\u2581appeared": 2496,
  "\u2581ayndoo": 2497,
  "\u2581balloo": 2498,
  "\u2581berchagh": 2499,
  "\u2581chionne": 2500,
  "\u2581choamrey": 2501,
  "\u2581creck": 2502,
  "\u2581cronk": 2503,
  "\u2581deny": 2504,
  "\u2581device": 2505,
  "\u2581earish": 2506,
  "\u2581edge": 2507,
  "\u2581eeck": 2508,
  "\u2581eggey": 2509,
  "\u2581eill": 2510,
  "\u2581either": 2511,
  "\u2581farraghtyn": 2512,
  "\u2581fig": 2513,
  "\u2581following": 2514,
  "\u2581four": 2515,
  "\u2581ghrogh": 2516,
  "\u2581hoilshey": 2517,
  "\u2581imneagh": 2518,
  "\u2581large": 2519,
  "\u2581lhieen": 2520,
  "\u2581lhieggit": 2521,
  "\u2581linen": 2522,
  "\u2581main": 2523,
  "\u2581o": 2524,
  "\u2581owner": 2525,
  "\u2581pontreilagh": 2526,
  "\u2581rheamyn": 2527,
  "\u2581rishyn": 2528,
  "\u2581soilshee": 2529,
  "\u2581stoyr": 2530,
  "\u2581subtitles": 2531,
  "\u2581title": 2532,
  "\u2581tranlaase": 2533,
  "\u2581treishteil": 2534,
  "\u2581veeal": 2535,
  "\u2581vosley": 2536,
  "\u2581weather": 2537,
  "\u2581whail": 2538,
  "\u2581yien": 2539,
  "\u2581ymmyder": 2540,
  "\u2581yourself": 2541,
  "\u2581yrjid": 2542,
  "...\"": 2543,
  "Add": 2544,
  "Help": 2545,
  "How": 2546,
  "Teacher": 2547,
  "arroo": 2548,
  "astey": 2549,
  "back": 2550,
  "click": 2551,
  "ge": 2552,
  "ione": 2553,
  "no": 2554,
  "nother": 2555,
  "rit": 2556,
  "sht": 2557,
  "urg": 2558,
  "\u2581<": 2559,
  "\u2581Center": 2560,
  "\u2581Down": 2561,
  "\u2581Elizabeth": 2562,
  "\u2581Fer": 2563,
  "\u2581Fish": 2564,
  "\u2581Foll": 2565,
  "\u2581Gyn": 2566,
  "\u2581Jeaghyn": 2567,
  "\u2581Mod": 2568,
  "\u2581Neose": 2569,
  "\u2581Passover": 2570,
  "\u2581Pause": 2571,
  "\u2581Scannane": 2572,
  "\u2581Visual": 2573,
  "\u2581amazed": 2574,
  "\u2581astonished": 2575,
  "\u2581beat": 2576,
  "\u2581bed": 2577,
  "\u2581caghlaader": 2578,
  "\u2581cailltch": 2579,
  "\u2581chiangley": 2580,
  "\u2581clen": 2581,
  "\u2581clothing": 2582,
  "\u2581coadagh": 2583,
  "\u2581connect": 2584,
  "\u2581cuirreyder": 2585,
  "\u2581decree": 2586,
  "\u2581divided": 2587,
  "\u2581ever": 2588,
  "\u2581gleashit": 2589,
  "\u2581glorify": 2590,
  "\u2581governor": 2591,
  "\u2581ingaan": 2592,
  "\u2581kind": 2593,
  "\u2581locations": 2594,
  "\u2581log": 2595,
  "\u2581marriage": 2596,
  "\u2581mullagh": 2597,
  "\u2581nation": 2598,
  "\u2581nations": 2599,
  "\u2581preached": 2600,
  "\u2581publish": 2601,
  "\u2581region": 2602,
  "\u2581sh": 2603,
  "\u2581source": 2604,
  "\u2581swear": 2605,
  "\u2581talk": 2606,
  "\u2581tax": 2607,
  "\u2581thought": 2608,
  "\u2581thus": 2609,
  "\u2581thyself": 2610,
  "\u2581try": 2611,
  "\u2581village": 2612,
  "\u2581vinegar": 2613,
  "\u2581withered": 2614,
  "\u2581wrote": 2615,
  "8-": 2616,
  ":1": 2617,
  "Desktop": 2618,
  "Do": 2619,
  "My": 2620,
  "Name": 2621,
  "Scuirr": 2622,
  "Stop": 2623,
  "Take": 2624,
  "ark": 2625,
  "dir": 2626,
  "divid": 2627,
  "ear": 2628,
  "eed": 2629,
  "either": 2630,
  "esslys": 2631,
  "eu": 2632,
  "houd": 2633,
  "i": 2634,
  "mooar": 2635,
  "oik": 2636,
  "sh": 2637,
  "tation": 2638,
  "ue": 2639,
  "uirree": 2640,
  "ydeyr": 2641,
  "ynney": 2642,
  "\u2581400": 2643,
  "\u25816": 2644,
  "\u2581Caart": 2645,
  "\u2581Cabdil": 2646,
  "\u2581Custom": 2647,
  "\u2581Device": 2648,
  "\u2581Feeshan": 2649,
  "\u2581Gentiles": 2650,
  "\u2581Heear": 2651,
  "\u2581Jonas": 2652,
  "\u2581Judaea": 2653,
  "\u2581MP": 2654,
  "\u2581Recent": 2655,
  "\u2581Saying": 2656,
  "\u2581Session": 2657,
  "\u2581Trog": 2658,
  "\u2581Unknown": 2659,
  "\u2581Western": 2660,
  "\u2581Yahweh": 2661,
  "\u2581Ynnyd": 2662,
  "\u2581accuse": 2663,
  "\u2581aeg": 2664,
  "\u2581ainyn": 2665,
  "\u2581ayds": 2666,
  "\u2581baljyn": 2667,
  "\u2581bannit": 2668,
  "\u2581bare": 2669,
  "\u2581beeal": 2670,
  "\u2581beign": 2671,
  "\u2581book": 2672,
  "\u2581caghlaaghyn": 2673,
  "\u2581ceau": 2674,
  "\u2581chrauee": 2675,
  "\u2581cities": 2676,
  "\u2581cloud": 2677,
  "\u2581coloayrtys": 2678,
  "\u2581compassion": 2679,
  "\u2581cour": 2680,
  "\u2581cowraghyn": 2681,
  "\u2581credjue": 2682,
  "\u2581denied": 2683,
  "\u2581doail": 2684,
  "\u2581eanish": 2685,
  "\u2581else": 2686,
  "\u2581evening": 2687,
  "\u2581few": 2688,
  "\u2581font": 2689,
  "\u2581hoiggal": 2690,
  "\u2581hurranse": 2691,
  "\u2581keead": 2692,
  "\u2581kerraghey": 2693,
  "\u2581keyboard": 2694,
  "\u2581lhiass": 2695,
  "\u2581lhiastyn": 2696,
  "\u2581lhiettal": 2697,
  "\u2581lhiy": 2698,
  "\u2581line": 2699,
  "\u2581lines": 2700,
  "\u2581loaded": 2701,
  "\u2581mennick": 2702,
  "\u2581mollaghtagh": 2703,
  "\u2581mooie": 2704,
  "\u2581navigati": 2705,
  "\u2581oanluckey": 2706,
  "\u2581odd": 2707,
  "\u2581oural": 2708,
  "\u2581parents": 2709,
  "\u2581peccaghyn": 2710,
  "\u2581peccee": 2711,
  "\u2581phlaase": 2712,
  "\u2581pieces": 2713,
  "\u2581ping": 2714,
  "\u2581prepare": 2715,
  "\u2581rename": 2716,
  "\u2581riuish": 2717,
  "\u2581scriptyr": 2718,
  "\u2581soldiers": 2719,
  "\u2581specifie": 2720,
  "\u2581spirits": 2721,
  "\u2581started": 2722,
  "\u2581status": 2723,
  "\u2581strength": 2724,
  "\u2581sword": 2725,
  "\u2581sym": 2726,
  "\u2581talents": 2727,
  "\u2581treasure": 2728,
  "\u2581void": 2729,
  "\u2581yei": 2730,
  "\u2581ynsaghey": 2731,
  "&": 2732,
  "01": 2733,
  "7": 2734,
  ":00": 2735,
  "About": 2736,
  "SE": 2737,
  "Scannane": 2738,
  "Title": 2739,
  "ach": 2740,
  "and": 2741,
  "ell": 2742,
  "ghoaill": 2743,
  "iversa": 2744,
  "lane": 2745,
  "rd": 2746,
  "reayll": 2747,
  "rolley": 2748,
  "rrey": 2749,
  "save": 2750,
  "tayd": 2751,
  "\u2581Arabic": 2752,
  "\u2581Arabish": 2753,
  "\u2581Claare": 2754,
  "\u2581Color": 2755,
  "\u2581Crig": 2756,
  "\u2581Elijah": 2757,
  "\u2581Launcher": 2758,
  "\u2581Lhei": 2759,
  "\u2581Screeu": 2760,
  "\u2581XM": 2761,
  "\u2581arise": 2762,
  "\u2581beside": 2763,
  "\u2581changes": 2764,
  "\u2581chyndaa": 2765,
  "\u2581cr": 2766,
  "\u2581deleting": 2767,
  "\u2581due": 2768,
  "\u2581effects": 2769,
  "\u2581grow": 2770,
  "\u2581honor": 2771,
  "\u2581manner": 2772,
  "\u2581minutes": 2773,
  "\u2581monitor": 2774,
  "\u2581morning": 2775,
  "\u2581op": 2776,
  "\u2581ought": 2777,
  "\u2581outside": 2778,
  "\u2581palace": 2779,
  "\u2581pannylyn": 2780,
  "\u2581passover": 2781,
  "\u2581possesse": 2782,
  "\u2581receives": 2783,
  "\u2581secret": 2784,
  "\u2581syn": 2785,
  "\u2581thereof": 2786,
  "\u2581unit": 2787,
  "\u2581vagher": 2788,
  "\u2581wo": 2789,
  "\u2581writing": 2790,
  "-8859-8": 2791,
  "As": 2792,
  "Ny": 2793,
  "View": 2794,
  "Where": 2795,
  "afely": 2796,
  "align": 2797,
  "aym": 2798,
  "ayr": 2799,
  "choraa": 2800,
  "el": 2801,
  "fri": 2802,
  "gooid": 2803,
  "haishbynys": 2804,
  "ization": 2805,
  "nd": 2806,
  "neesht": 2807,
  "nonney": 2808,
  "oe": 2809,
  "stiagh": 2810,
  "to": 2811,
  "ty": 2812,
  "valjyn": 2813,
  "\u00a9": 2814,
  "\u2581#": 2815,
  "\u2581&": 2816,
  "\u258100": 2817,
  "\u25810000": 2818,
  "\u25815": 2819,
  "\u2581Andreays": 2820,
  "\u2581Andrew": 2821,
  "\u2581Bethsaida": 2822,
  "\u2581Br": 2823,
  "\u2581Computer": 2824,
  "\u2581Creat": 2825,
  "\u2581Eayn": 2826,
  "\u2581Greek": 2827,
  "\u2581Home": 2828,
  "\u2581Jericho": 2829,
  "\u2581Jew": 2830,
  "\u2581Magdalene": 2831,
  "\u2581Malaine": 2832,
  "\u2581Modem": 2833,
  "\u2581Mov": 2834,
  "\u2581Multi": 2835,
  "\u2581Nathanael": 2836,
  "\u2581Number": 2837,
  "\u2581Selection": 2838,
  "\u2581Sodom": 2839,
  "\u2581Specifie": 2840,
  "\u2581Speed": 2841,
  "\u2581Version": 2842,
  "\u2581aegey": 2843,
  "\u2581animation": 2844,
  "\u2581anoint": 2845,
  "\u2581arragh": 2846,
  "\u2581ate": 2847,
  "\u2581ayraghyn": 2848,
  "\u2581balley": 2849,
  "\u2581baptism": 2850,
  "\u2581barrgreie": 2851,
  "\u2581bochilley": 2852,
  "\u2581caillit": 2853,
  "\u2581chooin": 2854,
  "\u2581cleayshyn": 2855,
  "\u2581cliwe": 2856,
  "\u2581commandments": 2857,
  "\u2581corner": 2858,
  "\u2581court": 2859,
  "\u2581cowraghey": 2860,
  "\u2581creeney": 2861,
  "\u2581desire": 2862,
  "\u2581dooinyn": 2863,
  "\u2581draw": 2864,
  "\u2581dt": 2865,
  "\u2581eaddagh": 2866,
  "\u2581eash": 2867,
  "\u2581eject": 2868,
  "\u2581emshir": 2869,
  "\u2581encoding": 2870,
  "\u2581feaysley": 2871,
  "\u2581feeshyn": 2872,
  "\u2581garey": 2873,
  "\u2581ghaa": 2874,
  "\u2581gho": 2875,
  "\u2581giare": 2876,
  "\u2581glad": 2877,
  "\u2581greeaghyn": 2878,
  "\u2581handle": 2879,
  "\u2581harvest": 2880,
  "\u2581hoig": 2881,
  "\u2581identif": 2882,
  "\u2581inside": 2883,
  "\u2581keayrtyn": 2884,
  "\u2581leeideil": 2885,
  "\u2581lhiattee": 2886,
  "\u2581lhieeney": 2887,
  "\u2581links": 2888,
  "\u2581marrey": 2889,
  "\u2581mashtey": 2890,
  "\u2581most": 2891,
  "\u2581noid": 2892,
  "\u2581nuy": 2893,
  "\u2581officers": 2894,
  "\u2581ointment": 2895,
  "\u2581option": 2896,
  "\u2581orientation": 2897,
  "\u2581passwords": 2898,
  "\u2581pene": 2899,
  "\u2581personal": 2900,
  "\u2581pleased": 2901,
  "\u2581pluginyn": 2902,
  "\u2581presence": 2903,
  "\u2581princeyn": 2904,
  "\u2581purple": 2905,
  "\u2581raise": 2906,
  "\u2581rock": 2907,
  "\u2581round": 2908,
  "\u2581rulers": 2909,
  "\u2581sampleyr": 2910,
  "\u2581shey": 2911,
  "\u2581smooinee": 2912,
  "\u2581stones": 2913,
  "\u2581target": 2914,
  "\u2581thence": 2915,
  "\u2581vainshter": 2916,
  "\u2581visual": 2917,
  "\u2581white": 2918,
  "\u2581wilt": 2919,
  "\u2581year": 2920,
  "\u2581ymmy": 2921,
  "Croo": 2922,
  "Dait": 2923,
  "Date": 2924,
  "Goll": 2925,
  "Id": 2926,
  "Location": 2927,
  "Ookraanish": 2928,
  "Ukrainian": 2929,
  "ain": 2930,
  "am": 2931,
  "book": 2932,
  "faithful": 2933,
  "for": 2934,
  "ify": 2935,
  "illey": 2936,
  "ishteig": 2937,
  "log": 2938,
  "mode": 2939,
  "nyn": 2940,
  "ob": 2941,
  "oghit": 2942,
  "png": 2943,
  "recognized": 2944,
  "rew": 2945,
  "thie": 2946,
  "utomatically": 2947,
  "\u2581Account": 2948,
  "\u2581Applet": 2949,
  "\u2581Cent": 2950,
  "\u2581Clag": 2951,
  "\u2581Come": 2952,
  "\u2581Content": 2953,
  "\u2581Documents": 2954,
  "\u2581Dooney": 2955,
  "\u2581Gammanyn": 2956,
  "\u2581Have": 2957,
  "\u2581Ma": 2958,
  "\u2581Previous": 2959,
  "\u2581Reset": 2960,
  "\u2581Workspace": 2961,
  "\u2581clothed": 2962,
  "\u2581collo": 2963,
  "\u2581commit": 2964,
  "\u2581consider": 2965,
  "\u2581cooinaghtyn": 2966,
  "\u2581demon": 2967,
  "\u2581dhullag": 2968,
  "\u2581enough": 2969,
  "\u2581faagit": 2970,
  "\u2581foill": 2971,
  "\u2581gaase": 2972,
  "\u2581hard": 2973,
  "\u2581ingaany": 2974,
  "\u2581kianl": 2975,
  "\u2581loading": 2976,
  "\u2581lying": 2977,
  "\u2581met": 2978,
  "\u2581mynchoontey": 2979,
  "\u2581places": 2980,
  "\u2581plugins": 2981,
  "\u2581present": 2982,
  "\u2581prince": 2983,
  "\u2581quit": 2984,
  "\u2581reireydys": 2985,
  "\u2581rheynn": 2986,
  "\u2581rose": 2987,
  "\u2581sc": 2988,
  "\u2581shepherd": 2989,
  "\u2581sho": 2990,
  "\u2581support": 2991,
  "\u2581test": 2992,
  "\u2581toward": 2993,
  "\u2581uni": 2994,
  "\u2581vi": 2995,
  "\u2581vullagh": 2996,
  "\u2581wash": 2997,
  "\u2581\u00e7haghteraght": 2998,
  "1-": 2999,
  "34": 3000,
  "But": 3001,
  "Coadan": 3002,
  "Print": 3003,
  "SCII": 3004,
  "Sauail": 3005,
  "Script": 3006,
  "Start": 3007,
  "agle": 3008,
  "aigney": 3009,
  "assey": 3010,
  "ast": 3011,
  "caisht": 3012,
  "chee": 3013,
  "chredjuagh": 3014,
  "eish": 3015,
  "glym": 3016,
  "hione": 3017,
  "iarail": 3018,
  "lout": 3019,
  "oayrt": 3020,
  "object": 3021,
  "rey": 3022,
  "sor\u00e7h": 3023,
  "tha": 3024,
  "thrown": 3025,
  "un": 3026,
  "v": 3027,
  "vers": 3028,
  "word": 3029,
  "\u25815.": 3030,
  "\u2581Barr": 3031,
  "\u2581Chengey": 3032,
  "\u2581Duration": 3033,
  "\u2581Eject": 3034,
  "\u2581Firefox": 3035,
  "\u2581Irree": 3036,
  "\u2581Japanese": 3037,
  "\u2581Kiedyn": 3038,
  "\u2581LE": 3039,
  "\u2581Left": 3040,
  "\u2581Otherwise": 3041,
  "\u2581PIN": 3042,
  "\u2581Samaria": 3043,
  "\u2581Shapaanish": 3044,
  "\u2581Toilley": 3045,
  "\u2581Toolbar": 3046,
  "\u2581US": 3047,
  "\u2581age": 3048,
  "\u2581airh": 3049,
  "\u2581angry": 3050,
  "\u2581banquet": 3051,
  "\u2581bea": 3052,
  "\u2581bleean": 3053,
  "\u2581cabdil": 3054,
  "\u2581cadley": 3055,
  "\u2581changed": 3056,
  "\u2581char": 3057,
  "\u2581chastey": 3058,
  "\u2581chiaght": 3059,
  "\u2581chianglit": 3060,
  "\u2581chionnaghey": 3061,
  "\u2581chroym": 3062,
  "\u2581chuirr": 3063,
  "\u2581cred": 3064,
  "\u2581crommag": 3065,
  "\u2581cuirr": 3066,
  "\u2581downloads": 3067,
  "\u2581drineyn": 3068,
  "\u2581fea": 3069,
  "\u2581feanishyn": 3070,
  "\u2581food": 3071,
  "\u2581fouyr": 3072,
  "\u2581garments": 3073,
  "\u2581goeth": 3074,
  "\u2581gold": 3075,
  "\u2581gour": 3076,
  "\u2581hoylaghey": 3077,
  "\u2581jehsyn": 3078,
  "\u2581jinn": 3079,
  "\u2581journey": 3080,
  "\u2581kiarailagh": 3081,
  "\u2581leeid": 3082,
  "\u2581lh": 3083,
  "\u2581lhuingys": 3084,
  "\u2581lomarcan": 3085,
  "\u2581manage": 3086,
  "\u2581marveled": 3087,
  "\u2581mi": 3088,
  "\u2581mow": 3089,
  "\u2581necess": 3090,
  "\u2581oardaghyn": 3091,
  "\u2581orroosyn": 3092,
  "\u2581paagh": 3093,
  "\u2581permission": 3094,
  "\u2581persecute": 3095,
  "\u2581receiveth": 3096,
  "\u2581reggyr": 3097,
  "\u2581saue": 3098,
  "\u2581says": 3099,
  "\u2581script": 3100,
  "\u2581sheeloghe": 3101,
  "\u2581sheshaght": 3102,
  "\u2581silver": 3103,
  "\u2581tempt": 3104,
  "\u2581term": 3105,
  "\u2581thallooin": 3106,
  "\u2581thanks": 3107,
  "\u2581tushtey": 3108,
  "\u2581twoaie": 3109,
  "\u2581veggey": 3110,
  "\u2581week": 3111,
  "\u2581womb": 3112,
  "\u2581yindyssagh": 3113,
  "Are": 3114,
  "CP": 3115,
  "Download": 3116,
  "FILE": 3117,
  "Let": 3118,
  "Movie": 3119,
  "Redo": 3120,
  "Sy": 3121,
  "ama": 3122,
  "arch": 3123,
  "ating": 3124,
  "heet": 3125,
  "host": 3126,
  "ign": 3127,
  "is": 3128,
  "ity": 3129,
  "kiart": 3130,
  "xport": 3131,
  "yl": 3132,
  "\u2581Beelzebub": 3133,
  "\u2581Directory": 3134,
  "\u2581Elley": 3135,
  "\u2581Give": 3136,
  "\u2581Large": 3137,
  "\u2581Na": 3138,
  "\u2581Origin": 3139,
  "\u2581Possan": 3140,
  "\u2581Quit": 3141,
  "\u2581Thomas": 3142,
  "\u2581Top": 3143,
  "\u2581Veg": 3144,
  "\u2581abroad": 3145,
  "\u2581brisht": 3146,
  "\u2581close": 3147,
  "\u2581color": 3148,
  "\u2581continue": 3149,
  "\u2581corrym": 3150,
  "\u2581crying": 3151,
  "\u2581cumir": 3152,
  "\u2581dec": 3153,
  "\u2581desired": 3154,
  "\u2581enemy": 3155,
  "\u2581entry": 3156,
  "\u2581force": 3157,
  "\u2581identifie": 3158,
  "\u2581lhiuraghey": 3159,
  "\u2581liurid": 3160,
  "\u2581mounted": 3161,
  "\u2581nastee": 3162,
  "\u2581notifications": 3163,
  "\u2581press": 3164,
  "\u2581quickly": 3165,
  "\u2581rejoice": 3166,
  "\u2581return": 3167,
  "\u2581seeking": 3168,
  "\u2581sown": 3169,
  "\u2581spi": 3170,
  "\u2581stored": 3171,
  "\u2581supper": 3172,
  "\u2581wait": 3173,
  "\u2581walked": 3174,
  "\u2581wisdom": 3175,
  "\u2581wrath": 3176,
  "\u2581\u00e7hengey": 3177,
  "-2022-": 3178,
  "02": 3179,
  "12": 3180,
  "HTTP": 3181,
  "Laadey": 3182,
  "Languages": 3183,
  "Select": 3184,
  "Uinnag": 3185,
  "Window": 3186,
  "ammyr": 3187,
  "cha": 3188,
  "channel": 3189,
  "chlaa": 3190,
  "credits": 3191,
  "date": 3192,
  "dyn": 3193,
  "ennee": 3194,
  "ful": 3195,
  "fysseree": 3196,
  "ggloo": 3197,
  "hanged": 3198,
  "hiangley": 3199,
  "much": 3200,
  "nel": 3201,
  "ness": 3202,
  "older": 3203,
  "oyrle": 3204,
  "posite": 3205,
  "reigeil": 3206,
  "roo": 3207,
  "seose": 3208,
  "ston": 3209,
  "ullscreen": 3210,
  "ynsee": 3211,
  "\u258133": 3212,
  "\u258151": 3213,
  "\u2581Always": 3214,
  "\u2581Art": 3215,
  "\u2581Automatic": 3216,
  "\u2581Bo": 3217,
  "\u2581Certificate": 3218,
  "\u2581Coad": 3219,
  "\u2581Contact": 3220,
  "\u2581Eiyr": 3221,
  "\u2581Fre": 3222,
  "\u2581Hosanna": 3223,
  "\u2581Levi": 3224,
  "\u2581Lioaryn": 3225,
  "\u2581News": 3226,
  "\u2581Nicodemus": 3227,
  "\u2581None": 3228,
  "\u2581Olives": 3229,
  "\u2581Rating": 3230,
  "\u2581Rename": 3231,
  "\u2581Shee": 3232,
  "\u2581Shennaghys": 3233,
  "\u2581Tarshish": 3234,
  "\u2581Thomase": 3235,
  "\u2581Tradishoonagh": 3236,
  "\u2581Traditional": 3237,
  "\u2581URIs": 3238,
  "\u2581Ven": 3239,
  "\u2581Visible": 3240,
  "\u2581Whoever": 3241,
  "\u2581Yudea": 3242,
  "\u2581Ze": 3243,
  "\u2581adeyr": 3244,
  "\u2581anything": 3245,
  "\u2581baskets": 3246,
  "\u2581behind": 3247,
  "\u2581believes": 3248,
  "\u2581believeth": 3249,
  "\u2581belong": 3250,
  "\u2581bought": 3251,
  "\u2581buy": 3252,
  "\u2581camel": 3253,
  "\u2581chaghteraght": 3254,
  "\u2581chairagh": 3255,
  "\u2581chat": 3256,
  "\u2581chingey": 3257,
  "\u2581chooat": 3258,
  "\u2581chosney": 3259,
  "\u2581chred": 3260,
  "\u2581colt": 3261,
  "\u2581crauee": 3262,
  "\u2581creenaght": 3263,
  "\u2581cui": 3264,
  "\u2581defile": 3265,
  "\u2581determined": 3266,
  "\u2581dialogs": 3267,
  "\u2581doeth": 3268,
  "\u2581dunverys": 3269,
  "\u2581ear": 3270,
  "\u2581eeanlee": 3271,
  "\u2581eiraght": 3272,
  "\u2581eirinnee": 3273,
  "\u2581ersyn": 3274,
  "\u2581faarkey": 3275,
  "\u2581feoh": 3276,
  "\u2581fit": 3277,
  "\u2581flee": 3278,
  "\u2581freill": 3279,
  "\u2581geearree": 3280,
  "\u2581gharmadyn": 3281,
  "\u2581ghrian": 3282,
  "\u2581goes": 3283,
  "\u2581grain": 3284,
  "\u2581greatest": 3285,
  "\u2581greme": 3286,
  "\u2581hair": 3287,
  "\u2581heeloghe": 3288,
  "\u2581heer": 3289,
  "\u2581invited": 3290,
  "\u2581jeean": 3291,
  "\u2581join": 3292,
  "\u2581kaart": 3293,
  "\u2581kiss": 3294,
  "\u2581listen": 3295,
  "\u2581loayrit": 3296,
  "\u2581mairagh": 3297,
  "\u2581match": 3298,
  "\u2581mayrt": 3299,
  "\u2581meet": 3300,
  "\u2581movies": 3301,
  "\u2581ooasle": 3302,
  "\u2581perceived": 3303,
  "\u2581phadeyrys": 3304,
  "\u2581pheesh": 3305,
  "\u2581prayer": 3306,
  "\u2581province": 3307,
  "\u2581que": 3308,
  "\u2581repentance": 3309,
  "\u2581report": 3310,
  "\u2581request": 3311,
  "\u2581righteousness": 3312,
  "\u2581running": 3313,
  "\u2581saagh": 3314,
  "\u2581saggyrtyn": 3315,
  "\u2581sayings": 3316,
  "\u2581shamyr": 3317,
  "\u2581shooyl": 3318,
  "\u2581shut": 3319,
  "\u2581speaking": 3320,
  "\u2581stumble": 3321,
  "\u2581switcher": 3322,
  "\u2581thirty": 3323,
  "\u2581throw": 3324,
  "\u2581toilshey": 3325,
  "\u2581w": 3326,
  "\u2581walking": 3327,
  "\u2581warn": 3328,
  "\")": 3329,
  "--": 3330,
  "ER": 3331,
  "Erash": 3332,
  "Just": 3333,
  "New": 3334,
  "Next": 3335,
  "Server": 3336,
  "Type": 3337,
  "_2": 3338,
  "age": 3339,
  "aptions": 3340,
  "custom": 3341,
  "dagh": 3342,
  "essylys": 3343,
  "go": 3344,
  "jeh": 3345,
  "mark": 3346,
  "men": 3347,
  "our": 3348,
  "oyrt": 3349,
  "rid": 3350,
  "shil": 3351,
  "skyn": 3352,
  "ternal": 3353,
  "teth": 3354,
  "text": 3355,
  "towse": 3356,
  "ul": 3357,
  "ware": 3358,
  "yond": 3359,
  "\u2581Ad": 3360,
  "\u2581Collooyn": 3361,
  "\u2581Disc": 3362,
  "\u2581Foasley": 3363,
  "\u2581Good": 3364,
  "\u2581Jallooyn": 3365,
  "\u2581Laare": 3366,
  "\u2581Lock": 3367,
  "\u2581Magh": 3368,
  "\u2581Manager": 3369,
  "\u2581Purim": 3370,
  "\u2581Read": 3371,
  "\u2581Reireydys": 3372,
  "\u2581Right": 3373,
  "\u2581Title": 3374,
  "\u2581URIyn": 3375,
  "\u2581Up": 3376,
  "\u2581abide": 3377,
  "\u2581below": 3378,
  "\u2581br": 3379,
  "\u2581brows": 3380,
  "\u2581clear": 3381,
  "\u2581copying": 3382,
  "\u2581destroyed": 3383,
  "\u2581duillag": 3384,
  "\u2581eaisht": 3385,
  "\u2581eating": 3386,
  "\u2581eie": 3387,
  "\u2581eunuchs": 3388,
  "\u2581gift": 3389,
  "\u2581goods": 3390,
  "\u2581hearing": 3391,
  "\u2581husband": 3392,
  "\u2581images": 3393,
  "\u2581laadit": 3394,
  "\u2581leaves": 3395,
  "\u2581lots": 3396,
  "\u2581lugh": 3397,
  "\u2581mair": 3398,
  "\u2581marvelled": 3399,
  "\u2581mime": 3400,
  "\u2581minister": 3401,
  "\u2581offer": 3402,
  "\u2581openly": 3403,
  "\u2581package": 3404,
  "\u2581po": 3405,
  "\u2581raaue": 3406,
  "\u2581reamys": 3407,
  "\u2581recent": 3408,
  "\u2581repent": 3409,
  "\u2581season": 3410,
  "\u2581seeth": 3411,
  "\u2581shilley": 3412,
  "\u2581sites": 3413,
  "\u2581speaks": 3414,
  "\u2581stop": 3415,
  "\u2581stream": 3416,
  "\u2581strong": 3417,
  "\u2581tombs": 3418,
  "\u2581transfer": 3419,
  "\u2581truly": 3420,
  "\u2581tuittym": 3421,
  "\u2581whither": 3422,
  "\u2581wicked": 3423,
  "\u2581\u00e7": 3424,
  "\";": 3425,
  "-13": 3426,
  "Coodagh": 3427,
  "For": 3428,
  "ID": 3429,
  "Moodys": 3430,
  "OS": 3431,
  "Properties": 3432,
  "Right": 3433,
  "Romanian": 3434,
  "Roomainagh": 3435,
  "Tilgey": 3436,
  "UR": 3437,
  "Unnid": 3438,
  "adey": 3439,
  "akin": 3440,
  "ash": 3441,
  "atha": 3442,
  "ch": 3443,
  "cheerey": 3444,
  "coip": 3445,
  "ec": 3446,
  "ht": 3447,
  "iaght": 3448,
  "language": 3449,
  "lid": 3450,
  "oardagh": 3451,
  "ordinate": 3452,
  "rien": 3453,
  "sack": 3454,
  "sailltch": 3455,
  "stood": 3456,
  "tyn": 3457,
  "ver": 3458,
  "yre": 3459,
  "\u258116": 3460,
  "\u258124": 3461,
  "\u25817": 3462,
  "\u2581Ard": 3463,
  "\u2581Authentication": 3464,
  "\u2581Babylon": 3465,
  "\u2581Baltagh": 3466,
  "\u2581Baltic": 3467,
  "\u2581Clock": 3468,
  "\u2581Command": 3469,
  "\u2581Connection": 3470,
  "\u2581Dra": 3471,
  "\u2581Encoding": 3472,
  "\u2581Ennymymmydeyr": 3473,
  "\u2581Fire": 3474,
  "\u2581Flo": 3475,
  "\u2581Galeon": 3476,
  "\u2581Greagish": 3477,
  "\u2581Hene": 3478,
  "\u2581Here": 3479,
  "\u2581History": 3480,
  "\u2581IID": 3481,
  "\u2581Language": 3482,
  "\u2581Lo": 3483,
  "\u2581Look": 3484,
  "\u2581Oliveyn": 3485,
  "\u2581Owner": 3486,
  "\u2581Picture": 3487,
  "\u2581Print": 3488,
  "\u2581Sadducees": 3489,
  "\u2581Sadduceeyn": 3490,
  "\u2581Shut": 3491,
  "\u2581Ty": 3492,
  "\u2581Undo": 3493,
  "\u2581Untitled": 3494,
  "\u2581Windows": 3495,
  "\u2581Yea": 3496,
  "\u2581Yes": 3497,
  "\u2581aign": 3498,
  "\u2581appointed": 3499,
  "\u2581atchimagh": 3500,
  "\u2581aynyd": 3501,
  "\u2581bailliu": 3502,
  "\u2581beccaghyn": 3503,
  "\u2581begin": 3504,
  "\u2581bioys": 3505,
  "\u2581booi": 3506,
  "\u2581boteilyn": 3507,
  "\u2581box": 3508,
  "\u2581braaraghyn": 3509,
  "\u2581bundeil": 3510,
  "\u2581cabbane": 3511,
  "\u2581carry": 3512,
  "\u2581chaarjyn": 3513,
  "\u2581chadley": 3514,
  "\u2581che": 3515,
  "\u2581check": 3516,
  "\u2581chiare": 3517,
  "\u2581chiarn": 3518,
  "\u2581claghyn": 3519,
  "\u2581condemn": 3520,
  "\u2581console": 3521,
  "\u2581corrupt": 3522,
  "\u2581cramma": 3523,
  "\u2581crucify": 3524,
  "\u2581diunid": 3525,
  "\u2581duitt": 3526,
  "\u2581early": 3527,
  "\u2581faasagh": 3528,
  "\u2581feeree": 3529,
  "\u2581fishes": 3530,
  "\u2581flaunyssagh": 3531,
  "\u2581foot": 3532,
  "\u2581fuill": 3533,
  "\u2581gadley": 3534,
  "\u2581garden": 3535,
  "\u2581glas": 3536,
  "\u2581gloan": 3537,
  "\u2581gredjue": 3538,
  "\u2581greiney": 3539,
  "\u2581haglym": 3540,
  "\u2581halley": 3541,
  "\u2581happen": 3542,
  "\u2581harrystoo": 3543,
  "\u2581hem": 3544,
  "\u2581heyrey": 3545,
  "\u2581host": 3546,
  "\u2581inserted": 3547,
  "\u2581jerk": 3548,
  "\u2581jough": 3549,
  "\u2581keayn": 3550,
  "\u2581laare": 3551,
  "\u2581letters": 3552,
  "\u2581magher": 3553,
  "\u2581mind": 3554,
  "\u2581mirril": 3555,
  "\u2581moddee": 3556,
  "\u2581nautilus": 3557,
  "\u2581net": 3558,
  "\u2581notey": 3559,
  "\u2581offended": 3560,
  "\u2581oltaghey": 3561,
  "\u2581output": 3562,
  "\u2581parent": 3563,
  "\u2581pheccagh": 3564,
  "\u2581piece": 3565,
  "\u2581pixmap": 3566,
  "\u2581private": 3567,
  "\u2581proceed": 3568,
  "\u2581proclaim": 3569,
  "\u2581raip": 3570,
  "\u2581reayrtagh": 3571,
  "\u2581reirey": 3572,
  "\u2581replace": 3573,
  "\u2581riches": 3574,
  "\u2581sackcloth": 3575,
  "\u2581sailt": 3576,
  "\u2581seal": 3577,
  "\u2581service": 3578,
  "\u2581shibber": 3579,
  "\u2581shir": 3580,
  "\u2581sinner": 3581,
  "\u2581sister": 3582,
  "\u2581siyn": 3583,
  "\u2581siyr": 3584,
  "\u2581sleep": 3585,
  "\u2581smessey": 3586,
  "\u2581sooill": 3587,
  "\u2581soorid": 3588,
  "\u2581sow": 3589,
  "\u2581specify": 3590,
  "\u2581speech": 3591,
  "\u2581subtitle": 3592,
  "\u2581sur": 3593,
  "\u2581tagyrt": 3594,
  "\u2581targad": 3595,
  "\u2581terminal": 3596,
  "\u2581thousaneyn": 3597,
  "\u2581types": 3598,
  "\u2581varr": 3599,
  "\u2581veaghey": 3600,
  "\u2581viewer": 3601,
  "\u2581villages": 3602,
  "\u2581vine": 3603,
  "\u2581vrishey": 3604,
  "\u2581weep": 3605,
  "\u2581widow": 3606,
  "\u2581worse": 3607,
  "\u2581yesterday": 3608,
  "\u2581ynsagh": 3609,
  "-_": 3610,
  "Enmys": 3611,
  "Have": 3612,
  "Hz": 3613,
  "IM": 3614,
  "In": 3615,
  "Install": 3616,
  "Mychoine": 3617,
  "Noa": 3618,
  "Previous": 3619,
  "Save": 3620,
  "Sor\u00e7h": 3621,
  "Use": 3622,
  "When": 3623,
  "asagh": 3624,
  "chianglit": 3625,
  "compact": 3626,
  "ctivate": 3627,
  "dait": 3628,
  "details": 3629,
  "eaddyn": 3630,
  "ere": 3631,
  "expand": 3632,
  "feeshan": 3633,
  "geddyn": 3634,
  "iartaghey": 3635,
  "ic": 3636,
  "ig": 3637,
  "iurid": 3638,
  "lesh": 3639,
  "llaghyn": 3640,
  "nk": 3641,
  "oalleid": 3642,
  "ollow": 3643,
  "oman": 3644,
  "\u2581Arise": 3645,
  "\u2581Boaylyn": 3646,
  "\u2581Bonobo": 3647,
  "\u2581Configur": 3648,
  "\u2581Coontey": 3649,
  "\u2581Delet": 3650,
  "\u2581Format": 3651,
  "\u2581Nevertheless": 3652,
  "\u2581Oct": 3653,
  "\u2581Of": 3654,
  "\u2581Ooilley": 3655,
  "\u2581Servers": 3656,
  "\u2581TH": 3657,
  "\u2581Topic": 3658,
  "\u2581Unlock": 3659,
  "\u2581aaght": 3660,
  "\u2581append": 3661,
  "\u2581applets": 3662,
  "\u2581arm": 3663,
  "\u2581baptize": 3664,
  "\u2581beloved": 3665,
  "\u2581broadband": 3666,
  "\u2581carrie": 3667,
  "\u2581cloth": 3668,
  "\u2581code": 3669,
  "\u2581collooyn": 3670,
  "\u2581correct": 3671,
  "\u2581counsel": 3672,
  "\u2581cry": 3673,
  "\u2581cumme": 3674,
  "\u2581determine": 3675,
  "\u2581fail": 3676,
  "\u2581fasting": 3677,
  "\u2581forever": 3678,
  "\u2581frame": 3679,
  "\u2581gifts": 3680,
  "\u2581gorr": 3681,
  "\u2581gospel": 3682,
  "\u2581graa": 3683,
  "\u2581hire": 3684,
  "\u2581hostname": 3685,
  "\u2581hungry": 3686,
  "\u2581kings": 3687,
  "\u2581languages": 3688,
  "\u2581logg": 3689,
  "\u2581marry": 3690,
  "\u2581matter": 3691,
  "\u2581means": 3692,
  "\u2581often": 3693,
  "\u2581overwrit": 3694,
  "\u2581parts": 3695,
  "\u2581path": 3696,
  "\u2581peeshyn": 3697,
  "\u2581perceive": 3698,
  "\u2581post": 3699,
  "\u2581publicans": 3700,
  "\u2581reasoned": 3701,
  "\u2581relative": 3702,
  "\u2581sayest": 3703,
  "\u2581screeunyn": 3704,
  "\u2581shickyrys": 3705,
  "\u2581site": 3706,
  "\u2581something": 3707,
  "\u2581stretch": 3708,
  "\u2581taste": 3709,
  "\u2581teeth": 3710,
  "\u2581temptation": 3711,
  "\u2581thoughts": 3712,
  "\u2581toolbar": 3713,
  "\u2581top": 3714,
  "\u2581troggit": 3715,
  "\u2581uillin": 3716,
  "\u2581washed": 3717,
  "\u2581wept": 3718,
  "\u2581wrapp": 3719,
  "-200": 3720,
  "2.11": 3721,
  "ANT": 3722,
  "Big": 3723,
  "COADAN": 3724,
  "Close": 3725,
  "DV": 3726,
  "Follagh": 3727,
  "Follym": 3728,
  "IR": 3729,
  "IT": 3730,
  "Is": 3731,
  "ME": 3732,
  "Move": 3733,
  "Mychione": 3734,
  "OR": 3735,
  "Prow": 3736,
  "Re": 3737,
  "Search": 3738,
  "So": 3739,
  "aagail": 3740,
  "aarlee": 3741,
  "always": 3742,
  "anyn": 3743,
  "ardagh": 3744,
  "ardail": 3745,
  "cheu": 3746,
  "chione": 3747,
  "crementally": 3748,
  "efore": 3749,
  "ias": 3750,
  "ip": 3751,
  "laanee": 3752,
  "lic": 3753,
  "me": 3754,
  "mow": 3755,
  "mysh": 3756,
  "nagg": 3757,
  "never": 3758,
  "nieughyn": 3759,
  "nnaghey": 3760,
  "odification": 3761,
  "off": 3762,
  "oke": 3763,
  "ooasle": 3764,
  "possan": 3765,
  "rrinagh": 3766,
  "sure": 3767,
  "terface": 3768,
  "tly": 3769,
  "treoghe": 3770,
  "woa": 3771,
  "\u25810:00": 3772,
  "\u2581Anna": 3773,
  "\u2581Ask": 3774,
  "\u2581Bun": 3775,
  "\u2581Comment": 3776,
  "\u2581Copyright": 3777,
  "\u2581Corys": 3778,
  "\u2581Did": 3779,
  "\u2581Egypt": 3780,
  "\u2581En": 3781,
  "\u2581Enney": 3782,
  "\u2581Faag": 3783,
  "\u2581Foshlit": 3784,
  "\u2581Games": 3785,
  "\u2581Hig": 3786,
  "\u2581Install": 3787,
  "\u2581Jallo": 3788,
  "\u2581Me": 3789,
  "\u2581More": 3790,
  "\u2581Navigation": 3791,
  "\u2581PA": 3792,
  "\u2581Persoonagh": 3793,
  "\u2581Plugins": 3794,
  "\u2581Replac": 3795,
  "\u2581Sarey": 3796,
  "\u2581Searching": 3797,
  "\u2581Share": 3798,
  "\u2581Small": 3799,
  "\u2581Source": 3800,
  "\u2581Support": 3801,
  "\u2581Sy": 3802,
  "\u2581Tayrn": 3803,
  "\u2581Voses": 3804,
  "\u2581Wherefore": 3805,
  "\u2581Yamys": 3806,
  "\u2581Yerusalem": 3807,
  "\u2581Ynnydyn": 3808,
  "\u2581Yordan": 3809,
  "\u2581aanrityn": 3810,
  "\u2581aarlaghey": 3811,
  "\u2581abundance": 3812,
  "\u2581accomplished": 3813,
  "\u2581affect": 3814,
  "\u2581aggair": 3815,
  "\u2581anney": 3816,
  "\u2581apostles": 3817,
  "\u2581ashlish": 3818,
  "\u2581asking": 3819,
  "\u2581assyl": 3820,
  "\u2581astray": 3821,
  "\u2581banner": 3822,
  "\u2581biall": 3823,
  "\u2581bochillyn": 3824,
  "\u2581bottom": 3825,
  "\u2581braagyn": 3826,
  "\u2581built": 3827,
  "\u2581bunneydagh": 3828,
  "\u2581byte": 3829,
  "\u2581certificate": 3830,
  "\u2581character": 3831,
  "\u2581chass": 3832,
  "\u2581chey": 3833,
  "\u2581chi": 3834,
  "\u2581chleaysh": 3835,
  "\u2581chliwe": 3836,
  "\u2581chooish": 3837,
  "\u2581choontey": 3838,
  "\u2581choyrle": 3839,
  "\u2581chuirrey": 3840,
  "\u2581coggyl": 3841,
  "\u2581collectors": 3842,
  "\u2581condemned": 3843,
  "\u2581confess": 3844,
  "\u2581cosne": 3845,
  "\u2581creg": 3846,
  "\u2581crown": 3847,
  "\u2581delay": 3848,
  "\u2581desert": 3849,
  "\u2581disabled": 3850,
  "\u2581dob": 3851,
  "\u2581doo": 3852,
  "\u2581dooi": 3853,
  "\u2581east": 3854,
  "\u2581edit": 3855,
  "\u2581eeastyn": 3856,
  "\u2581erriuish": 3857,
  "\u2581everything": 3858,
  "\u2581feeshanyn": 3859,
  "\u2581fled": 3860,
  "\u2581folliaght": 3861,
  "\u2581fonts": 3862,
  "\u2581fourteen": 3863,
  "\u2581friend": 3864,
  "\u2581gagh": 3865,
  "\u2581gallows": 3866,
  "\u2581gennish": 3867,
  "\u2581gerrym": 3868,
  "\u2581giootyn": 3869,
  "\u2581graafagh": 3870,
  "\u2581greatly": 3871,
  "\u2581gri": 3872,
  "\u2581harvaantyn": 3873,
  "\u2581heareth": 3874,
  "\u2581hell": 3875,
  "\u2581hi": 3876,
  "\u2581hilley": 3877,
  "\u2581hither": 3878,
  "\u2581hoght": 3879,
  "\u2581hope": 3880,
  "\u2581husbandmen": 3881,
  "\u2581injillaghey": 3882,
  "\u2581jalloofastee": 3883,
  "\u2581jo": 3884,
  "\u2581jyndaa": 3885,
  "\u2581keimmeiaght": 3886,
  "\u2581kellagh": 3887,
  "\u2581kionfenish": 3888,
  "\u2581lhigg": 3889,
  "\u2581liney": 3890,
  "\u2581linney": 3891,
  "\u2581loghtyn": 3892,
  "\u2581ma": 3893,
  "\u2581margaghyn": 3894,
  "\u2581mocked": 3895,
  "\u2581modified": 3896,
  "\u2581moidynyn": 3897,
  "\u2581murder": 3898,
  "\u2581nearey": 3899,
  "\u2581needs": 3900,
  "\u2581oaiaghyn": 3901,
  "\u2581obbal": 3902,
  "\u2581occurrence": 3903,
  "\u2581oil": 3904,
  "\u2581ooir": 3905,
  "\u2581phoosee": 3906,
  "\u2581pixels": 3907,
  "\u2581preevaadj": 3908,
  "\u2581prefer": 3909,
  "\u2581pressed": 3910,
  "\u2581publican": 3911,
  "\u2581reed": 3912,
  "\u2581review": 3913,
  "\u2581ring": 3914,
  "\u2581robe": 3915,
  "\u2581sacrifice": 3916,
  "\u2581scriptyn": 3917,
  "\u2581scuirrit": 3918,
  "\u2581security": 3919,
  "\u2581served": 3920,
  "\u2581servers": 3921,
  "\u2581shamyrder": 3922,
  "\u2581shilli": 3923,
  "\u2581shynne": 3924,
  "\u2581since": 3925,
  "\u2581sleityn": 3926,
  "\u2581sollan": 3927,
  "\u2581sorrowful": 3928,
  "\u2581spread": 3929,
  "\u2581straidyn": 3930,
  "\u2581talent": 3931,
  "\u2581talentyn": 3932,
  "\u2581teisht": 3933,
  "\u2581thousane": 3934,
  "\u2581throne": 3935,
  "\u2581toig": 3936,
  "\u2581tradition": 3937,
  "\u2581unexpectedly": 3938,
  "\u2581vaaish": 3939,
  "\u2581vari": 3940,
  "\u2581vashtey": 3941,
  "\u2581veihsyn": 3942,
  "\u2581vess": 3943,
  "\u2581veue": 3944,
  "\u2581wheat": 3945,
  "\u2581willing": 3946,
  "\u2581ymmydyt": 3947,
  "Be": 3948,
  "Boayl": 3949,
  "Bus": 3950,
  "Cloie": 3951,
  "Columns": 3952,
  "Come": 3953,
  "Dooney": 3954,
  "Lin": 3955,
  "OA": 3956,
  "RT": 3957,
  "Reih": 3958,
  "Reihghyn": 3959,
  "Show": 3960,
  "Size": 3961,
  "Up": 3962,
  "Voggyl": 3963,
  "aag": 3964,
  "ame": 3965,
  "by": 3966,
  "closed": 3967,
  "copy": 3968,
  "do": 3969,
  "eree": 3970,
  "hall": 3971,
  "iah": 3972,
  "ieau": 3973,
  "ke": 3974,
  "moodys": 3975,
  "nstant": 3976,
  "oonee": 3977,
  "ort": 3978,
  "ould": 3979,
  "piphany": 3980,
  "rapheose": 3981,
  "rint": 3982,
  "sal": 3983,
  "sibility": 3984,
  "sie": 3985,
  "sort": 3986,
  "top": 3987,
  "where": 3988,
  "writ": 3989,
  "yder": 3990,
  "ze": 3991,
  "\u00e7h": 3992,
  "\u2581\"_": 3993,
  "\u258110": 3994,
  "\u2581Ammyrghyn": 3995,
  "\u2581Animation": 3996,
  "\u2581Any": 3997,
  "\u2581Area": 3998,
  "\u2581Baptist": 3999,
  "\u2581Baptizer": 4000,
  "\u2581Cookie": 4001,
  "\u2581DSL": 4002,
  "\u2581Da": 4003,
  "\u2581Docmaidyn": 4004,
  "\u2581Fe": 4005,
  "\u2581Forward": 4006,
  "\u2581Insh": 4007,
  "\u2581Jalloofastee": 4008,
  "\u2581Juda": 4009,
  "\u2581Leav": 4010,
  "\u2581Local": 4011,
  "\u2581Meanagh": 4012,
  "\u2581Noe": 4013,
  "\u2581Obbre": 4014,
  "\u2581Plugin": 4015,
  "\u2581Program": 4016,
  "\u2581Redo": 4017,
  "\u2581Reload": 4018,
  "\u2581Sa": 4019,
  "\u2581Screen": 4020,
  "\u2581Scugh": 4021,
  "\u2581Sor": 4022,
  "\u2581Starting": 4023,
  "\u2581Switcher": 4024,
  "\u2581afar": 4025,
  "\u2581agree": 4026,
  "\u2581al": 4027,
  "\u2581anxious": 4028,
  "\u2581apart": 4029,
  "\u2581area": 4030,
  "\u2581asleep": 4031,
  "\u2581auto": 4032,
  "\u2581bother": 4033,
  "\u2581brake": 4034,
  "\u2581buirclaaghyn": 4035,
  "\u2581bytes": 4036,
  "\u2581cd": 4037,
  "\u2581chap": 4038,
  "\u2581council": 4039,
  "\u2581counts": 4040,
  "\u2581curs": 4041,
  "\u2581daily": 4042,
  "\u2581divorce": 4043,
  "\u2581doctrine": 4044,
  "\u2581doing": 4045,
  "\u2581doubt": 4046,
  "\u2581execute": 4047,
  "\u2581fee": 4048,
  "\u2581finished": 4049,
  "\u2581geeck": 4050,
  "\u2581gladness": 4051,
  "\u2581grant": 4052,
  "\u2581grew": 4053,
  "\u2581hal": 4054,
  "\u2581houses": 4055,
  "\u2581import": 4056,
  "\u2581initial": 4057,
  "\u2581knows": 4058,
  "\u2581lame": 4059,
  "\u2581loves": 4060,
  "\u2581mountains": 4061,
  "\u2581notification": 4062,
  "\u2581perhaps": 4063,
  "\u2581pluck": 4064,
  "\u2581pour": 4065,
  "\u2581prental": 4066,
  "\u2581raiment": 4067,
  "\u2581requested": 4068,
  "\u2581restored": 4069,
  "\u2581screenshots": 4070,
  "\u2581seem": 4071,
  "\u2581seize": 4072,
  "\u2581sisters": 4073,
  "\u2581sortch": 4074,
  "\u2581sowed": 4075,
  "\u2581steal": 4076,
  "\u2581thief": 4077,
  "\u2581though": 4078,
  "\u2581trade": 4079,
  "\u2581unreadable": 4080,
  "\u2581worshipp": 4081,
  "\u2581wrong": 4082,
  "\u2581\u00e7hiassid": 4083,
  "#": 4084,
  "-8859-9": 4085,
  "32": 4086,
  "8": 4087,
  "857": 4088,
  "866": 4089,
  ":3": 4090,
  ";'": 4091,
  "CN": 4092,
  "Default": 4093,
  "Disconnect": 4094,
  "ES": 4095,
  "Er": 4096,
  "Fe": 4097,
  "Format": 4098,
  "Fosley": 4099,
  "Icelandic": 4100,
  "JIS": 4101,
  "JP": 4102,
  "No": 4103,
  "OI": 4104,
  "RCH": 4105,
  "Reighyn": 4106,
  "Rooshish": 4107,
  "Russian": 4108,
  "Shift": 4109,
  "URI": 4110,
  "ar": 4111,
  "art": 4112,
  "bo": 4113,
  "claare": 4114,
  "danyn": 4115,
  "ds": 4116,
  "dys": 4117,
  "eeish": 4118,
  "eiy": 4119,
  "enaght": 4120,
  "ength": 4121,
  "entyn": 4122,
  "eose": 4123,
  "filley": 4124,
  "geaddyn": 4125,
  "git": 4126,
  "hanstyr": 4127,
  "immeeaght": 4128,
  "ire": 4129,
  "iz": 4130,
  "lashtyn": 4131,
  "laue": 4132,
  "leavened": 4133,
  "lhee": 4134,
  "lho": 4135,
  "mayrn": 4136,
  "millish": 4137,
  "mooadys": 4138,
  "nee": 4139,
  "noon": 4140,
  "oayl": 4141,
  "octal": 4142,
  "oddym": 4143,
  "ohaggloo": 4144,
  "ooashley": 4145,
  "ookies": 4146,
  "orch": 4147,
  "ourys": 4148,
  "ring": 4149,
  "roblem": 4150,
  "sheeyney": 4151,
  "ster": 4152,
  "tab": 4153,
  "troa": 4154,
  "uck": 4155,
  "unix": 4156,
  "yantee": 4157,
  "\u25812.6": 4158,
  "\u2581Bottom": 4159,
  "\u2581Ca": 4160,
  "\u2581Caghlaaghyn": 4161,
  "\u2581Cana": 4162,
  "\u2581Current": 4163,
  "\u2581Daa": 4164,
  "\u2581Doalleid": 4165,
  "\u2581Earroo": 4166,
  "\u2581Expo": 4167,
  "\u2581Fogrey": 4168,
  "\u2581Joses": 4169,
  "\u2581Kubuntu": 4170,
  "\u2581Likewise": 4171,
  "\u2581Modified": 4172,
  "\u2581Options": 4173,
  "\u2581Prental": 4174,
  "\u2581Record": 4175,
  "\u2581Recort": 4176,
  "\u2581Reihyn": 4177,
  "\u2581Samaritan": 4178,
  "\u2581Sampleyr": 4179,
  "\u2581Scripture": 4180,
  "\u2581Sla": 4181,
  "\u2581Tappeid": 4182,
  "\u2581Username": 4183,
  "\u2581Vo": 4184,
  "\u2581Watch": 4185,
  "\u2581Wil": 4186,
  "\u2581Z": 4187,
  "\u2581aalin": 4188,
  "\u2581agglagh": 4189,
  "\u2581arryltagh": 4190,
  "\u2581arrym": 4191,
  "\u2581ayndiu": 4192,
  "\u2581banglaneyn": 4193,
  "\u2581bashtit": 4194,
  "\u2581belly": 4195,
  "\u2581bind": 4196,
  "\u2581blasphemy": 4197,
  "\u2581branches": 4198,
  "\u2581broke": 4199,
  "\u2581buinn": 4200,
  "\u2581caa": 4201,
  "\u2581cainle": 4202,
  "\u2581cairys": 4203,
  "\u2581case": 4204,
  "\u2581ceaut": 4205,
  "\u2581chiassaghey": 4206,
  "\u2581chirree": 4207,
  "\u2581clieau": 4208,
  "\u2581company": 4209,
  "\u2581cooishyn": 4210,
  "\u2581covered": 4211,
  "\u2581craa": 4212,
  "\u2581croobee": 4213,
  "\u2581daghyrt": 4214,
  "\u2581delight": 4215,
  "\u2581desires": 4216,
  "\u2581devour": 4217,
  "\u2581dig": 4218,
  "\u2581doghanyn": 4219,
  "\u2581dooblit": 4220,
  "\u2581dorraghey": 4221,
  "\u2581download": 4222,
  "\u2581drinking": 4223,
  "\u2581eam": 4224,
  "\u2581easier": 4225,
  "\u2581email": 4226,
  "\u2581enish": 4227,
  "\u2581everlasting": 4228,
  "\u2581example": 4229,
  "\u2581exceeding": 4230,
  "\u2581exp": 4231,
  "\u2581failure": 4232,
  "\u2581fainey": 4233,
  "\u2581favour": 4234,
  "\u2581feeacklyn": 4235,
  "\u2581fellow": 4236,
  "\u2581fever": 4237,
  "\u2581flood": 4238,
  "\u2581fooilliagh": 4239,
  "\u2581foundation": 4240,
  "\u2581framey": 4241,
  "\u2581fraue": 4242,
  "\u2581gennal": 4243,
  "\u2581gennallys": 4244,
  "\u2581geulaghyn": 4245,
  "\u2581gheayrtey": 4246,
  "\u2581ghiarey": 4247,
  "\u2581gial": 4248,
  "\u2581giarey": 4249,
  "\u2581harr": 4250,
  "\u2581hears": 4251,
  "\u2581heshey": 4252,
  "\u2581hirry": 4253,
  "\u2581keesh": 4254,
  "\u2581kiangl": 4255,
  "\u2581kiannoort": 4256,
  "\u2581la": 4257,
  "\u2581lhieggal": 4258,
  "\u2581lhien": 4259,
  "\u2581lis": 4260,
  "\u2581lives": 4261,
  "\u2581lorg": 4262,
  "\u2581lot": 4263,
  "\u2581lottyn": 4264,
  "\u2581manna": 4265,
  "\u2581miolagh": 4266,
  "\u2581months": 4267,
  "\u2581moodaghit": 4268,
  "\u2581murmured": 4269,
  "\u2581myrrh": 4270,
  "\u2581naardey": 4271,
  "\u2581naboo": 4272,
  "\u2581obtain": 4273,
  "\u2581ockle": 4274,
  "\u2581offend": 4275,
  "\u2581offline": 4276,
  "\u2581oghrish": 4277,
  "\u2581ooillaghey": 4278,
  "\u2581orrinyn": 4279,
  "\u2581pages": 4280,
  "\u2581past": 4281,
  "\u2581phoosey": 4282,
  "\u2581played": 4283,
  "\u2581poynt": 4284,
  "\u2581privately": 4285,
  "\u2581quail": 4286,
  "\u2581raaidyn": 4287,
  "\u2581reap": 4288,
  "\u2581record": 4289,
  "\u2581reign": 4290,
  "\u2581rejected": 4291,
  "\u2581rejoiced": 4292,
  "\u2581resiz": 4293,
  "\u2581roishyn": 4294,
  "\u2581rooisht": 4295,
  "\u2581salt": 4296,
  "\u2581sau\u00e7hey": 4297,
  "\u2581scadoo": 4298,
  "\u2581scattered": 4299,
  "\u2581scourge": 4300,
  "\u2581scripture": 4301,
  "\u2581scriptyryn": 4302,
  "\u2581seats": 4303,
  "\u2581sharvaant": 4304,
  "\u2581sheshey": 4305,
  "\u2581shiaulley": 4306,
  "\u2581small": 4307,
  "\u2581soilshe": 4308,
  "\u2581sollys": 4309,
  "\u2581sorrow": 4310,
  "\u2581speed": 4311,
  "\u2581stayed": 4312,
  "\u2581stiurt": 4313,
  "\u2581stranger": 4314,
  "\u2581streeu": 4315,
  "\u2581swine": 4316,
  "\u2581testified": 4317,
  "\u2581thi": 4318,
  "\u2581thieves": 4319,
  "\u2581thieyn": 4320,
  "\u2581torment": 4321,
  "\u2581translator": 4322,
  "\u2581trees": 4323,
  "\u2581trimshey": 4324,
  "\u2581vannish": 4325,
  "\u2581virgins": 4326,
  "\u2581voayrd": 4327,
  "\u2581vond": 4328,
  "\u2581vooghey": 4329,
  "\u2581witnesses": 4330,
  "0-": 4331,
  "11": 4332,
  "2003%": 4333,
  "202": 4334,
  "AN": 4335,
  "Applet": 4336,
  "Armeanagh": 4337,
  "Armenian": 4338,
  "Blessed": 4339,
  "Bookmarks": 4340,
  "Claaghyn": 4341,
  "Digit": 4342,
  "Eject": 4343,
  "Fo": 4344,
  "Hene": 4345,
  "Mooadaghey": 4346,
  "Orientation": 4347,
  "Rabbi": 4348,
  "Reload": 4349,
  "TH": 4350,
  "They": 4351,
  "active": 4352,
  "ag": 4353,
  "another": 4354,
  "ard": 4355,
  "bottom": 4356,
  "caid": 4357,
  "cation": 4358,
  "city": 4359,
  "creensaver": 4360,
  "deyr": 4361,
  "din": 4362,
  "earroo": 4363,
  "earrooagh": 4364,
  "eep": 4365,
  "efault": 4366,
  "essenger": 4367,
  "foo": 4368,
  "he": 4369,
  "huff": 4370,
  "ied": 4371,
  "im": 4372,
  "jpg": 4373,
  "lab": 4374,
  "li": 4375,
  "lioaryn": 4376,
  "mm": 4377,
  "ncrease": 4378,
  "normal": 4379,
  "not": 4380,
  "ole": 4381,
  "ough": 4382,
  "ped": 4383,
  "ra": 4384,
  "rable": 4385,
  "reyder": 4386,
  "row": 4387,
  "screeufo": 4388,
  "search": 4389,
  "set": 4390,
  "slit": 4391,
  "so": 4392,
  "ted": 4393,
  "uillagaght": 4394,
  "verse": 4395,
  "view": 4396,
  "windows": 4397,
  "wo": 4398,
  "\u258115": 4399,
  "\u2581Abia": 4400,
  "\u2581Accessed": 4401,
  "\u2581Bas": 4402,
  "\u2581Claa": 4403,
  "\u2581Coip": 4404,
  "\u2581Cooylrey": 4405,
  "\u2581Cramma": 4406,
  "\u2581Dat": 4407,
  "\u2581De": 4408,
  "\u2581Dhullag": 4409,
  "\u2581Disconnect": 4410,
  "\u2581Firrinaghey": 4411,
  "\u2581Get": 4412,
  "\u2581Hav": 4413,
  "\u2581Hegai": 4414,
  "\u2581Information": 4415,
  "\u2581Isa": 4416,
  "\u2581JavaScript": 4417,
  "\u2581Load": 4418,
  "\u2581Loading": 4419,
  "\u2581Mode": 4420,
  "\u2581Notification": 4421,
  "\u2581Office": 4422,
  "\u2581Oik": 4423,
  "\u2581OpenSubtitles": 4424,
  "\u2581Out": 4425,
  "\u2581Presentation": 4426,
  "\u2581Schu": 4427,
  "\u2581Side": 4428,
  "\u2581South": 4429,
  "\u2581Teisht": 4430,
  "\u2581Toyrt": 4431,
  "\u2581adulter": 4432,
  "\u2581afterward": 4433,
  "\u2581alo": 4434,
  "\u2581bill": 4435,
  "\u2581birds": 4436,
  "\u2581caghlaar": 4437,
  "\u2581ceased": 4438,
  "\u2581cleansed": 4439,
  "\u2581coad": 4440,
  "\u2581cochiangleyn": 4441,
  "\u2581cock": 4442,
  "\u2581committe": 4443,
  "\u2581creaghney": 4444,
  "\u2581crig": 4445,
  "\u2581crowd": 4446,
  "\u2581di": 4447,
  "\u2581diseases": 4448,
  "\u2581drag": 4449,
  "\u2581du": 4450,
  "\u2581effect": 4451,
  "\u2581en": 4452,
  "\u2581enabled": 4453,
  "\u2581endure": 4454,
  "\u2581exalted": 4455,
  "\u2581failleil": 4456,
  "\u2581farmers": 4457,
  "\u2581fifty": 4458,
  "\u2581filename": 4459,
  "\u2581further": 4460,
  "\u2581gained": 4461,
  "\u2581gnash": 4462,
  "\u2581goaldee": 4463,
  "\u2581got": 4464,
  "\u2581hill": 4465,
  "\u2581household": 4466,
  "\u2581hu": 4467,
  "\u2581humble": 4468,
  "\u2581jurnaa": 4469,
  "\u2581later": 4470,
  "\u2581lheh": 4471,
  "\u2581liauyr": 4472,
  "\u2581locked": 4473,
  "\u2581merciful": 4474,
  "\u2581mood": 4475,
  "\u2581naked": 4476,
  "\u2581peesh": 4477,
  "\u2581per": 4478,
  "\u2581petition": 4479,
  "\u2581pigs": 4480,
  "\u2581pixelyn": 4481,
  "\u2581planted": 4482,
  "\u2581praying": 4483,
  "\u2581preview": 4484,
  "\u2581profit": 4485,
  "\u2581provider": 4486,
  "\u2581range": 4487,
  "\u2581rent": 4488,
  "\u2581repented": 4489,
  "\u2581retained": 4490,
  "\u2581reverse": 4491,
  "\u2581rotat": 4492,
  "\u2581salvation": 4493,
  "\u2581seat": 4494,
  "\u2581seyr": 4495,
  "\u2581speaketh": 4496,
  "\u2581spell": 4497,
  "\u2581spit": 4498,
  "\u2581store": 4499,
  "\u2581straight": 4500,
  "\u2581streets": 4501,
  "\u2581supposed": 4502,
  "\u2581tak": 4503,
  "\u2581template": 4504,
  "\u2581thank": 4505,
  "\u2581too": 4506,
  "\u2581trust": 4507,
  "\u2581useful": 4508,
  "\u2581wanted": 4509,
  "\u2581watched": 4510,
  "\u2581wear": 4511,
  "-1251": 4512,
  "-1257": 4513,
  "-8859-14": 4514,
  "-8859-2": 4515,
  "-_8": 4516,
  "/%": 4517,
  "0%": 4518,
  "16": 4519,
  "2.": 4520,
  "4000": 4521,
  "50": 4522,
  "5:02:": 4523,
  "Background": 4524,
  "Bookmark": 4525,
  "Caghlaarit": 4526,
  "Celtic": 4527,
  "Celtish": 4528,
  "Connect": 4529,
  "Foasley": 4530,
  "GNOME": 4531,
  "HO": 4532,
  "HT": 4533,
  "Konqueror": 4534,
  "LA": 4535,
  "Link": 4536,
  "Lioarynvark": 4537,
  "Mozilla": 4538,
  "Now": 4539,
  "PPP": 4540,
  "Remove": 4541,
  "Repeat": 4542,
  "Stuirey": 4543,
  "Thaie": 4544,
  "Whoever": 4545,
  "Yes": 4546,
  "ackwards": 4547,
  "ade": 4548,
  "amera": 4549,
  "arsi": 4550,
  "board": 4551,
  "both": 4552,
  "bun": 4553,
  "carreyder": 4554,
  "chairagh": 4555,
  "chea": 4556,
  "chooyl": 4557,
  "chyndagh": 4558,
  "dev": 4559,
  "eamys": 4560,
  "eature": 4561,
  "eck": 4562,
  "ecrease": 4563,
  "ehavior": 4564,
  "ent": 4565,
  "eresh": 4566,
  "errym": 4567,
  "ganize": 4568,
  "ghooinney": 4569,
  "graph": 4570,
  "hiuish": 4571,
  "http": 4572,
  "huill": 4573,
  "iagh": 4574,
  "icons": 4575,
  "innagh": 4576,
  "ized": 4577,
  "jiarg": 4578,
  "just": 4579,
  "kiangley": 4580,
  "lee": 4581,
  "leityn": 4582,
  "llips": 4583,
  "maynr": 4584,
  "modif": 4585,
  "nlee": 4586,
  "nnaghyn": 4587,
  "nnid": 4588,
  "nto": 4589,
  "oaylleeaght": 4590,
  "orrym": 4591,
  "ors": 4592,
  "osih": 4593,
  "otate": 4594,
  "ownload": 4595,
  "plai": 4596,
  "poosee": 4597,
  "poosey": 4598,
  "quer": 4599,
  "ragh": 4600,
  "rine": 4601,
  "rteen": 4602,
  "site": 4603,
  "thar": 4604,
  "ture": 4605,
  "ved": 4606,
  "voi": 4607,
  "voish": 4608,
  "vooinjerey": 4609,
  "ynsaghey": 4610,
  "\u2581\"3": 4611,
  "\u2581199": 4612,
  "\u2581Annymaght": 4613,
  "\u2581Ari": 4614,
  "\u2581BE": 4615,
  "\u2581Ba": 4616,
  "\u2581Channels": 4617,
  "\u2581Control": 4618,
  "\u2581Coraa": 4619,
  "\u2581Cr": 4620,
  "\u2581Decapolis": 4621,
  "\u2581Duplicate": 4622,
  "\u2581Eliakim": 4623,
  "\u2581Ew": 4624,
  "\u2581Fou": 4625,
  "\u2581GSM": 4626,
  "\u2581Gallery": 4627,
  "\u2581Graphics": 4628,
  "\u2581Hatach": 4629,
  "\u2581Herodia": 4630,
  "\u2581Herodias": 4631,
  "\u2581Hid": 4632,
  "\u2581Items": 4633,
  "\u2581Jalloyn": 4634,
  "\u2581Java": 4635,
  "\u2581Jesse": 4636,
  "\u2581Lh": 4637,
  "\u2581Loayr": 4638,
  "\u2581Lot": 4639,
  "\u2581Lowaltys": 4640,
  "\u2581Mattath": 4641,
  "\u2581Mono": 4642,
  "\u2581Mooadys": 4643,
  "\u2581Normal": 4644,
  "\u2581Obed": 4645,
  "\u2581Pan": 4646,
  "\u2581Pershish": 4647,
  "\u2581Pluginyn": 4648,
  "\u2581Preparing": 4649,
  "\u2581Salmon": 4650,
  "\u2581Sh": 4651,
  "\u2581Shamraig": 4652,
  "\u2581Shellooder": 4653,
  "\u2581Siloam": 4654,
  "\u2581Simeon": 4655,
  "\u2581Soie": 4656,
  "\u2581Syria": 4657,
  "\u2581Tiberias": 4658,
  "\u2581WEP": 4659,
  "\u2581aareayrtys": 4660,
  "\u2581abode": 4661,
  "\u2581added": 4662,
  "\u2581alive": 4663,
  "\u2581arroo": 4664,
  "\u2581astyr": 4665,
  "\u2581ayrey": 4666,
  "\u2581bad": 4667,
  "\u2581baght": 4668,
  "\u2581bal": 4669,
  "\u2581baskad": 4670,
  "\u2581behe": 4671,
  "\u2581best": 4672,
  "\u2581biljyn": 4673,
  "\u2581bishaghey": 4674,
  "\u2581bodjal": 4675,
  "\u2581bottles": 4676,
  "\u2581bowed": 4677,
  "\u2581branch": 4678,
  "\u2581bury": 4679,
  "\u2581caarjyn": 4680,
  "\u2581caill": 4681,
  "\u2581care": 4682,
  "\u2581cass": 4683,
  "\u2581chasherickey": 4684,
  "\u2581cheesh": 4685,
  "\u2581chooyrt": 4686,
  "\u2581chorree": 4687,
  "\u2581chour": 4688,
  "\u2581chriy": 4689,
  "\u2581chroo": 4690,
  "\u2581churnaght": 4691,
  "\u2581cooilleeney": 4692,
  "\u2581coon": 4693,
  "\u2581craide": 4694,
  "\u2581creckit": 4695,
  "\u2581creoi": 4696,
  "\u2581cri": 4697,
  "\u2581cum": 4698,
  "\u2581cummalt": 4699,
  "\u2581darrag": 4700,
  "\u2581deep": 4701,
  "\u2581defined": 4702,
  "\u2581distribute": 4703,
  "\u2581dogs": 4704,
  "\u2581dream": 4705,
  "\u2581duillagyn": 4706,
  "\u2581dumb": 4707,
  "\u2581dwell": 4708,
  "\u2581eiyrtee": 4709,
  "\u2581eiyrtyssee": 4710,
  "\u2581eleven": 4711,
  "\u2581emblem": 4712,
  "\u2581ennagh": 4713,
  "\u2581ennoil": 4714,
  "\u2581faase": 4715,
  "\u2581fat": 4716,
  "\u2581fenaght": 4717,
  "\u2581findeth": 4718,
  "\u2581finger": 4719,
  "\u2581foalley": 4720,
  "\u2581fockl": 4721,
  "\u2581forward": 4722,
  "\u2581fruits": 4723,
  "\u2581fuirree": 4724,
  "\u2581garmad": 4725,
  "\u2581geayghyn": 4726,
  "\u2581geid": 4727,
  "\u2581generations": 4728,
  "\u2581gerrey": 4729,
  "\u2581gherjaghey": 4730,
  "\u2581ghiare": 4731,
  "\u2581ghing": 4732,
  "\u2581gioot": 4733,
  "\u2581glenney": 4734,
  "\u2581glioon": 4735,
  "\u2581gobraghey": 4736,
  "\u2581herself": 4737,
  "\u2581housetop": 4738,
  "\u2581hraa": 4739,
  "\u2581imbagh": 4740,
  "\u2581impossible": 4741,
  "\u2581inherit": 4742,
  "\u2581insertion": 4743,
  "\u2581interpreted": 4744,
  "\u2581jiass": 4745,
  "\u2581judged": 4746,
  "\u2581jurna": 4747,
  "\u2581jymmoose": 4748,
  "\u2581kb": 4749,
  "\u2581kialteenyn": 4750,
  "\u2581kionnaghey": 4751,
  "\u2581kishte": 4752,
  "\u2581kiune": 4753,
  "\u2581labreeyn": 4754,
  "\u2581lhean": 4755,
  "\u2581lie": 4756,
  "\u2581liken": 4757,
  "\u2581liorishyn": 4758,
  "\u2581longer": 4759,
  "\u2581loose": 4760,
  "\u2581lostey": 4761,
  "\u2581luirg": 4762,
  "\u2581maarlee": 4763,
  "\u2581maarliagh": 4764,
  "\u2581mark": 4765,
  "\u2581mat": 4766,
  "\u2581memory": 4767,
  "\u2581mill": 4768,
  "\u2581mirrilyn": 4769,
  "\u2581moghey": 4770,
  "\u2581mute": 4771,
  "\u2581naboonyn": 4772,
  "\u2581nets": 4773,
  "\u2581nin": 4774,
  "\u2581noal": 4775,
  "\u2581observe": 4776,
  "\u2581osley": 4777,
  "\u2581paag": 4778,
  "\u2581palchey": 4779,
  "\u2581palsy": 4780,
  "\u2581par": 4781,
  "\u2581phoos": 4782,
  "\u2581porch": 4783,
  "\u2581praise": 4784,
  "\u2581profile": 4785,
  "\u2581reggyrt": 4786,
  "\u2581released": 4787,
  "\u2581rheam": 4788,
  "\u2581rooms": 4789,
  "\u2581ruggyr": 4790,
  "\u2581saynt": 4791,
  "\u2581scarry": 4792,
  "\u2581screenshot": 4793,
  "\u2581screeuee": 4794,
  "\u2581scripts": 4795,
  "\u2581self": 4796,
  "\u2581shaken": 4797,
  "\u2581shayraghyn": 4798,
  "\u2581shid": 4799,
  "\u2581shine": 4800,
  "\u2581shinney": 4801,
  "\u2581sleeping": 4802,
  "\u2581sporran": 4803,
  "\u2581stuill": 4804,
  "\u2581stuirred": 4805,
  "\u2581surranse": 4806,
  "\u2581surround": 4807,
  "\u2581swords": 4808,
  "\u2581taitnys": 4809,
  "\u2581takes": 4810,
  "\u2581tannys": 4811,
  "\u2581teacher": 4812,
  "\u2581tetrarch": 4813,
  "\u2581thereon": 4814,
  "\u2581toish": 4815,
  "\u2581tomorrow": 4816,
  "\u2581tonnyn": 4817,
  "\u2581toor": 4818,
  "\u2581treasury": 4819,
  "\u2581tru": 4820,
  "\u2581trusted": 4821,
  "\u2581twenty": 4822,
  "\u2581vaill": 4823,
  "\u2581vo": 4824,
  "\u2581voghe": 4825,
  "\u2581vree": 4826,
  "\u2581vun": 4827,
  "\u2581ways": 4828,
  "\u2581wherein": 4829,
  "\u2581win": 4830,
  "\u2581winds": 4831,
  "\u2581wipe": 4832,
  "\u2581woalley": 4833,
  "\u2581wondered": 4834,
  "\u2581ymmyrnagh": 4835,
  "\u2581ynsee": 4836,
  "\u2581yurnah": 4837,
  "Aght": 4838,
  "Always": 4839,
  "ClockApplet": 4840,
  "Coad": 4841,
  "Cochaingl": 4842,
  "Compact": 4843,
  "Cooney": 4844,
  "DVD": 4845,
  "Document": 4846,
  "File": 4847,
  "Gobbraghey": 4848,
  "IID": 4849,
  "IN": 4850,
  "LAN": 4851,
  "ML": 4852,
  "May": 4853,
  "Never": 4854,
  "Shellooder": 4855,
  "Stream": 4856,
  "aghlaa": 4857,
  "allery": 4858,
  "amp": 4859,
  "anually": 4860,
  "appropriate": 4861,
  "arkiagh": 4862,
  "ate": 4863,
  "ategorized": 4864,
  "atter": 4865,
  "be": 4866,
  "bit": 4867,
  "bug": 4868,
  "check": 4869,
  "claabuird": 4870,
  "current": 4871,
  "dst": 4872,
  "erminal": 4873,
  "ew": 4874,
  "eyder": 4875,
  "heill": 4876,
  "how": 4877,
  "ical": 4878,
  "idden": 4879,
  "idjagh": 4880,
  "inag": 4881,
  "laa": 4882,
  "lass": 4883,
  "lea": 4884,
  "lin": 4885,
  "lley": 4886,
  "mit": 4887,
  "most": 4888,
  "mus": 4889,
  "nces": 4890,
  "nyway": 4891,
  "oar": 4892,
  "ong": 4893,
  "oor": 4894,
  "ortch": 4895,
  "owan": 4896,
  "per": 4897,
  "ption": 4898,
  "resh": 4899,
  "right": 4900,
  "rolled": 4901,
  "round": 4902,
  "script": 4903,
  "shtey": 4904,
  "side": 4905,
  "stallation": 4906,
  "that": 4907,
  "tion": 4908,
  "try": 4909,
  "ut": 4910,
  "ydyn": 4911,
  "\u258130": 4912,
  "\u2581Al": 4913,
  "\u2581Aut": 4914,
  "\u2581Back": 4915,
  "\u2581Boyl": 4916,
  "\u2581Cad": 4917,
  "\u2581Chengaghyn": 4918,
  "\u2581Cowrey": 4919,
  "\u2581Day": 4920,
  "\u2581Document": 4921,
  "\u2581Duplicat": 4922,
  "\u2581Eno": 4923,
  "\u2581Example": 4924,
  "\u2581Feeshanyn": 4925,
  "\u2581Foas": 4926,
  "\u2581Gehenna": 4927,
  "\u2581Hz": 4928,
  "\u2581Icons": 4929,
  "\u2581Inc": 4930,
  "\u2581Jiu": 4931,
  "\u2581Joanna": 4932,
  "\u2581Judah": 4933,
  "\u2581Mar": 4934,
  "\u2581Matching": 4935,
  "\u2581Merge": 4936,
  "\u2581Ne": 4937,
  "\u2581Never": 4938,
  "\u2581Next": 4939,
  "\u2581Par": 4940,
  "\u2581Playing": 4941,
  "\u2581Post": 4942,
  "\u2581Preview": 4943,
  "\u2581Reireyd": 4944,
  "\u2581Script": 4945,
  "\u2581Site": 4946,
  "\u2581Work": 4947,
  "\u2581appearance": 4948,
  "\u2581ashamed": 4949,
  "\u2581aside": 4950,
  "\u2581baneyr": 4951,
  "\u2581baptizing": 4952,
  "\u2581beneath": 4953,
  "\u2581bidden": 4954,
  "\u2581birth": 4955,
  "\u2581borders": 4956,
  "\u2581break": 4957,
  "\u2581browse": 4958,
  "\u2581bunnedgh": 4959,
  "\u2581burn": 4960,
  "\u2581cancel": 4961,
  "\u2581car": 4962,
  "\u2581cassan": 4963,
  "\u2581categor": 4964,
  "\u2581chaghter": 4965,
  "\u2581channel": 4966,
  "\u2581coasts": 4967,
  "\u2581colors": 4968,
  "\u2581compatibility": 4969,
  "\u2581cooiney": 4970,
  "\u2581coont": 4971,
  "\u2581credentials": 4972,
  "\u2581cumm": 4973,
  "\u2581damsel": 4974,
  "\u2581dar": 4975,
  "\u2581debugg": 4976,
  "\u2581deeds": 4977,
  "\u2581deprecated": 4978,
  "\u2581desir": 4979,
  "\u2581despise": 4980,
  "\u2581donkey": 4981,
  "\u2581ei": 4982,
  "\u2581elly": 4983,
  "\u2581ent": 4984,
  "\u2581events": 4985,
  "\u2581extra": 4986,
  "\u2581faaue": 4987,
  "\u2581fogrey": 4988,
  "\u2581forbid": 4989,
  "\u2581forty": 4990,
  "\u2581freggyrtagh": 4991,
  "\u2581gives": 4992,
  "\u2581gleashagh": 4993,
  "\u2581handled": 4994,
  "\u2581haste": 4995,
  "\u2581heavy": 4996,
  "\u2581ie": 4997,
  "\u2581instance": 4998,
  "\u2581jalloynfastee": 4999,
  "\u2581keayrt": 5000,
  "\u2581lamps": 5001,
  "\u2581letter": 5002,
  "\u2581liooar": 5003,
  "\u2581lirc": 5004,
  "\u2581lodge": 5005,
  "\u2581maid": 5006,
  "\u2581maimed": 5007,
  "\u2581marr": 5008,
  "\u2581married": 5009,
  "\u2581marvel": 5010,
  "\u2581medium": 5011,
  "\u2581mouse": 5012,
  "\u2581obbraghey": 5013,
  "\u2581obey": 5014,
  "\u2581occup": 5015,
  "\u2581occurred": 5016,
  "\u2581penny": 5017,
  "\u2581perceiv": 5018,
  "\u2581perfect": 5019,
  "\u2581possanyn": 5020,
  "\u2581publi": 5021,
  "\u2581quality": 5022,
  "\u2581ram": 5023,
  "\u2581reaghy": 5024,
  "\u2581road": 5025,
  "\u2581saueyder": 5026,
  "\u2581saving": 5027,
  "\u2581sees": 5028,
  "\u2581sell": 5029,
  "\u2581separate": 5030,
  "\u2581shi": 5031,
  "\u2581shoes": 5032,
  "\u2581sides": 5033,
  "\u2581smaller": 5034,
  "\u2581soil": 5035,
  "\u2581stat": 5036,
  "\u2581su": 5037,
  "\u2581switch": 5038,
  "\u2581temperature": 5039,
  "\u2581thirsty": 5040,
  "\u2581timezone": 5041,
  "\u2581tongue": 5042,
  "\u2581treisht": 5043,
  "\u2581tribute": 5044,
  "\u2581understanding": 5045,
  "\u2581unminimiz": 5046,
  "\u2581updates": 5047,
  "\u2581username": 5048,
  "\u2581vean": 5049,
  "\u2581vou": 5050,
  "\u2581wa": 5051,
  "\u2581war": 5052,
  "\u2581wedding": 5053,
  "\u2581wrap": 5054,
  "\u2581\u00e7helleeragh": 5055,
  "\u2581\u00e7hengaghyn": 5056,
  "*": 5057,
  "-111": 5058,
  "-1254": 5059,
  "-3": 5060,
  "-8859-1": 5061,
  "-8859-7": 5062,
  "125": 5063,
  "864": 5064,
  "8859-6": 5065,
  "@": 5066,
  "Cochiangley": 5067,
  "Contents": 5068,
  "Cowr": 5069,
  "Cummal": 5070,
  "Empty": 5071,
  "Ewnish": 5072,
  "Father": 5073,
  "Fi": 5074,
  "Fockle": 5075,
  "Folder": 5076,
  "IC": 5077,
  "ISDN": 5078,
  "Jean": 5079,
  "Launch": 5080,
  "Nordic": 5081,
  "Pause": 5082,
  "Play": 5083,
  "SS": 5084,
  "SU": 5085,
  "Shirrey": 5086,
  "US": 5087,
  "Woe": 5088,
  "Z": 5089,
  "acheau": 5090,
  "aghtyn": 5091,
  "agit": 5092,
  "aid": 5093,
  "all": 5094,
  "aret": 5095,
  "askad": 5096,
  "ations": 5097,
  "aualtys": 5098,
  "ayryn": 5099,
  "bea": 5100,
  "carrey": 5101,
  "center": 5102,
  "chiare": 5103,
  "choyrt": 5104,
  "dhost": 5105,
  "dom": 5106,
  "eaishtagh": 5107,
  "easht": 5108,
  "eayr": 5109,
  "eayshil": 5110,
  "echey": 5111,
  "eddyrvo": 5112,
  "eih": 5113,
  "eiyghey": 5114,
  "ellal": 5115,
  "emperature": 5116,
  "empty": 5117,
  "erhaps": 5118,
  "ess": 5119,
  "eyrrey": 5120,
  "fault": 5121,
  "filleyder": 5122,
  "follym": 5123,
  "fu": 5124,
  "geayrt": 5125,
  "geddin": 5126,
  "get": 5127,
  "gheiney": 5128,
  "ghteragh": 5129,
  "giyn": 5130,
  "haggi": 5131,
  "haghey": 5132,
  "hiassid": 5133,
  "hingyn": 5134,
  "iaghey": 5135,
  "iarthaghey": 5136,
  "ice": 5137,
  "ight": 5138,
  "illaghyn": 5139,
  "innee": 5140,
  "istance": 5141,
  "ite": 5142,
  "link": 5143,
  "loar": 5144,
  "loor": 5145,
  "mall": 5146,
  "matha": 5147,
  "medatha": 5148,
  "mission": 5149,
  "mychione": 5150,
  "nid": 5151,
  "nl": 5152,
  "oaldey": 5153,
  "oanluck": 5154,
  "ogg": 5155,
  "oght": 5156,
  "oinaght": 5157,
  "oodaghey": 5158,
  "ook": 5159,
  "ooney": 5160,
  "oplevel": 5161,
  "ound": 5162,
  "pe": 5163,
  "ppeey": 5164,
  "raaghyn": 5165,
  "ration": 5166,
  "reih": 5167,
  "ri": 5168,
  "riend": 5169,
  "riteri": 5170,
  "roxy": 5171,
  "rreyder": 5172,
  "rriaght": 5173,
  "rust": 5174,
  "shtaghyn": 5175,
  "support": 5176,
  "talla": 5177,
  "ttery": 5178,
  "ttey": 5179,
  "ubuntu": 5180,
  "uch": 5181,
  "ullyr": 5182,
  "unt": 5183,
  "uran": 5184,
  "used": 5185,
  "utoload": 5186,
  "ux": 5187,
  "uyr": 5188,
  "ven": 5189,
  "venge": 5190,
  "with": 5191,
  "yeig": 5192,
  "yrtyn": 5193,
  "zes": 5194,
  "\u25812.2": 5195,
  "\u2581AS": 5196,
  "\u2581Ag": 5197,
  "\u2581Aga": 5198,
  "\u2581Aram": 5199,
  "\u2581CDMA": 5200,
  "\u2581Caghlaarit": 5201,
  "\u2581Canaanite": 5202,
  "\u2581Chat": 5203,
  "\u2581Code": 5204,
  "\u2581Count": 5205,
  "\u2581Cyren": 5206,
  "\u2581Dan": 5207,
  "\u2581Della": 5208,
  "\u2581Dis": 5209,
  "\u2581Editor": 5210,
  "\u2581Eli": 5211,
  "\u2581Feer": 5212,
  "\u2581Floor": 5213,
  "\u2581Ga": 5214,
  "\u2581Galilean": 5215,
  "\u2581Ghooinney": 5216,
  "\u2581Golgotha": 5217,
  "\u2581Goo": 5218,
  "\u2581Hammedatha": 5219,
  "\u2581High": 5220,
  "\u2581Images": 5221,
  "\u2581Jeaghy": 5222,
  "\u2581Jeh": 5223,
  "\u2581Languages": 5224,
  "\u2581Lheead": 5225,
  "\u2581Lhi": 5226,
  "\u2581Mainshter": 5227,
  "\u2581Mel": 5228,
  "\u2581Memucan": 5229,
  "\u2581NISH": 5230,
  "\u2581Nordagh": 5231,
  "\u2581Offline": 5232,
  "\u2581Oo": 5233,
  "\u2581Player": 5234,
  "\u2581Pur": 5235,
  "\u2581Qu": 5236,
  "\u2581Rhenkyn": 5237,
  "\u2581Samaritanee": 5238,
  "\u2581Samaritans": 5239,
  "\u2581Scriptures": 5240,
  "\u2581Settings": 5241,
  "\u2581Sho": 5242,
  "\u2581Stiurey": 5243,
  "\u2581Street": 5244,
  "\u2581Sun": 5245,
  "\u2581Sur": 5246,
  "\u2581Teacher": 5247,
  "\u2581Voirrey": 5248,
  "\u2581Voish": 5249,
  "\u2581Vordecai": 5250,
  "\u2581WPA": 5251,
  "\u2581Yacob": 5252,
  "\u2581Yllagh": 5253,
  "\u2581Yonas": 5254,
  "\u2581Yoseph": 5255,
  "\u2581aarkey": 5256,
  "\u2581accan": 5257,
  "\u2581accusation": 5258,
  "\u2581adversary": 5259,
  "\u2581ainjys": 5260,
  "\u2581anvea": 5261,
  "\u2581argane": 5262,
  "\u2581ashes": 5263,
  "\u2581aslayntyn": 5264,
  "\u2581ayndiuish": 5265,
  "\u2581aynjee": 5266,
  "\u2581baccee": 5267,
  "\u2581baghey": 5268,
  "\u2581baghtal": 5269,
  "\u2581barrynnyd": 5270,
  "\u2581beayn": 5271,
  "\u2581beggan": 5272,
  "\u2581behavior": 5273,
  "\u2581bree": 5274,
  "\u2581brein": 5275,
  "\u2581briw": 5276,
  "\u2581broojit": 5277,
  "\u2581byteyn": 5278,
  "\u2581ca": 5279,
  "\u2581caisht": 5280,
  "\u2581calm": 5281,
  "\u2581calmaneyn": 5282,
  "\u2581captan": 5283,
  "\u2581cares": 5284,
  "\u2581caught": 5285,
  "\u2581chassid": 5286,
  "\u2581cheeayl": 5287,
  "\u2581chellee": 5288,
  "\u2581chennid": 5289,
  "\u2581chiannoort": 5290,
  "\u2581chingys": 5291,
  "\u2581chl": 5292,
  "\u2581cho": 5293,
  "\u2581choked": 5294,
  "\u2581chooinaghtyn": 5295,
  "\u2581chos": 5296,
  "\u2581choshey": 5297,
  "\u2581chraueeaght": 5298,
  "\u2581chuir": 5299,
  "\u2581cleigh": 5300,
  "\u2581clothe": 5301,
  "\u2581clu": 5302,
  "\u2581coamr": 5303,
  "\u2581coat": 5304,
  "\u2581cochianglee": 5305,
  "\u2581commands": 5306,
  "\u2581conaant": 5307,
  "\u2581connections": 5308,
  "\u2581conversation": 5309,
  "\u2581corree": 5310,
  "\u2581credjaltys": 5311,
  "\u2581cryss": 5312,
  "\u2581cuir": 5313,
  "\u2581curse": 5314,
  "\u2581deaf": 5315,
  "\u2581descending": 5316,
  "\u2581deserted": 5317,
  "\u2581desolation": 5318,
  "\u2581details": 5319,
  "\u2581divide": 5320,
  "\u2581division": 5321,
  "\u2581doghanit": 5322,
  "\u2581doillee": 5323,
  "\u2581doves": 5324,
  "\u2581downloading": 5325,
  "\u2581dur": 5326,
  "\u2581dust": 5327,
  "\u2581eeasteyryn": 5328,
  "\u2581eginit": 5329,
  "\u2581farling": 5330,
  "\u2581feeding": 5331,
  "\u2581finds": 5332,
  "\u2581foaddey": 5333,
  "\u2581foolish": 5334,
  "\u2581freaney": 5335,
  "\u2581freggyr": 5336,
  "\u2581fullscreen": 5337,
  "\u2581geometry": 5338,
  "\u2581ghoghan": 5339,
  "\u2581giarit": 5340,
  "\u2581gien": 5341,
  "\u2581gooilleeney": 5342,
  "\u2581grace": 5343,
  "\u2581grass": 5344,
  "\u2581gree": 5345,
  "\u2581gro": 5346,
  "\u2581gyllagh": 5347,
  "\u2581hence": 5348,
  "\u2581herraghtyn": 5349,
  "\u2581highest": 5350,
  "\u2581hir": 5351,
  "\u2581horchaghey": 5352,
  "\u2581horse": 5353,
  "\u2581huggeysyn": 5354,
  "\u2581hunger": 5355,
  "\u2581imnea": 5356,
  "\u2581imraa": 5357,
  "\u2581iniquity": 5358,
  "\u2581installing": 5359,
  "\u2581intend": 5360,
  "\u2581invalid": 5361,
  "\u2581jeeas": 5362,
  "\u2581jeeg": 5363,
  "\u2581jeeish": 5364,
  "\u2581joa": 5365,
  "\u2581keeagh": 5366,
  "\u2581lake": 5367,
  "\u2581lampyn": 5368,
  "\u2581lawyers": 5369,
  "\u2581leoie": 5370,
  "\u2581lepers": 5371,
  "\u2581limit": 5372,
  "\u2581lioor": 5373,
  "\u2581lioroo": 5374,
  "\u2581livreit": 5375,
  "\u2581loss": 5376,
  "\u2581maarderys": 5377,
  "\u2581mainshtagh": 5378,
  "\u2581maree": 5379,
  "\u2581marrie": 5380,
  "\u2581mea": 5381,
  "\u2581meeghyn": 5382,
  "\u2581messenger": 5383,
  "\u2581messyn": 5384,
  "\u2581mirrill": 5385,
  "\u2581moal": 5386,
  "\u2581mollaght": 5387,
  "\u2581morrow": 5388,
  "\u2581mustard": 5389,
  "\u2581naight": 5390,
  "\u2581news": 5391,
  "\u2581oalsey": 5392,
  "\u2581ockley": 5393,
  "\u2581oltooan": 5394,
  "\u2581onnor": 5395,
  "\u2581pattern": 5396,
  "\u2581person": 5397,
  "\u2581persoon": 5398,
  "\u2581phadjer": 5399,
  "\u2581phryssoon": 5400,
  "\u2581physician": 5401,
  "\u2581platter": 5402,
  "\u2581pointe": 5403,
  "\u2581pooaraghyn": 5404,
  "\u2581pool": 5405,
  "\u2581portion": 5406,
  "\u2581preference": 5407,
  "\u2581provide": 5408,
  "\u2581puint": 5409,
  "\u2581purp": 5410,
  "\u2581recognized": 5411,
  "\u2581renamed": 5412,
  "\u2581requests": 5413,
  "\u2581reu": 5414,
  "\u2581rhenk": 5415,
  "\u2581robbers": 5416,
  "\u2581rooin": 5417,
  "\u2581saggyrt": 5418,
  "\u2581scriptures": 5419,
  "\u2581shlee": 5420,
  "\u2581shooill": 5421,
  "\u2581slea": 5422,
  "\u2581smooinaght": 5423,
  "\u2581soiagh": 5424,
  "\u2581spoil": 5425,
  "\u2581spooilley": 5426,
  "\u2581stamp": 5427,
  "\u2581stay": 5428,
  "\u2581stoop": 5429,
  "\u2581stopped": 5430,
  "\u2581streams": 5431,
  "\u2581synagogueyn": 5432,
  "\u2581taghyrtyn": 5433,
  "\u2581therein": 5434,
  "\u2581thirst": 5435,
  "\u2581thooilley": 5436,
  "\u2581topics": 5437,
  "\u2581trean": 5438,
  "\u2581treoghe": 5439,
  "\u2581tuitt": 5440,
  "\u2581twel": 5441,
  "\u2581ui": 5442,
  "\u2581unbelief": 5443,
  "\u2581undone": 5444,
  "\u2581unsafe": 5445,
  "\u2581upper": 5446,
  "\u2581vadran": 5447,
  "\u2581veanagh": 5448,
  "\u2581veean": 5449,
  "\u2581voghrey": 5450,
  "\u2581voght": 5451,
  "\u2581volley": 5452,
  "\u2581vraane": 5453,
  "\u2581vraarey": 5454,
  "\u2581warm": 5455,
  "\u2581wars": 5456,
  "\u2581watching": 5457,
  "\u2581waves": 5458,
  "\u2581wide": 5459,
  "\u2581wor": 5460,
  "\u2581yeih": 5461,
  "\u2581ymmydeyryn": 5462,
  "\u2581ynnyda": 5463,
  "\u2581ynrickys": 5464,
  "\u2581yoarree": 5465,
  "%%": 5466,
  "-01": 5467,
  "10": 5468,
  "24": 5469,
  "4-": 5470,
  ";)": 5471,
  "ANTY": 5472,
  "Ab": 5473,
  "Application": 5474,
  "Ask": 5475,
  "Beware": 5476,
  "Cancel": 5477,
  "Canonical": 5478,
  "Conf": 5479,
  "Encoding": 5480,
  "Get": 5481,
  "Home": 5482,
  "Lhie": 5483,
  "Lock": 5484,
  "Misc": 5485,
  "Myr": 5486,
  "NE": 5487,
  "NO": 5488,
  "Replace": 5489,
  "Tabyn": 5490,
  "Teisht": 5491,
  "There": 5492,
  "Truly": 5493,
  "Ynnyd": 5494,
  "ality": 5495,
  "alue": 5496,
  "ames": 5497,
  "ank": 5498,
  "applet": 5499,
  "arrail": 5500,
  "arry": 5501,
  "astee": 5502,
  "aunchpad": 5503,
  "cale": 5504,
  "cei": 5505,
  "chuil": 5506,
  "cuirreyder": 5507,
  "dia": 5508,
  "disabled": 5509,
  "dministration": 5510,
  "dvanced": 5511,
  "dyr": 5512,
  "eaghydeyr": 5513,
  "ebug": 5514,
  "eddyr": 5515,
  "ene": 5516,
  "eparator": 5517,
  "et": 5518,
  "eyraght": 5519,
  "format": 5520,
  "hour": 5521,
  "iarn": 5522,
  "iarrey": 5523,
  "iaull": 5524,
  "icked": 5525,
  "ie": 5526,
  "ier": 5527,
  "ift": 5528,
  "illit": 5529,
  "ination": 5530,
  "irr": 5531,
  "itude": 5532,
  "jeree": 5533,
  "jereee": 5534,
  "jin": 5535,
  "korran": 5536,
  "lear": 5537,
  "let": 5538,
  "lew": 5539,
  "lock": 5540,
  "member": 5541,
  "mmo": 5542,
  "myr": 5543,
  "nane": 5544,
  "net": 5545,
  "oadys": 5546,
  "oc": 5547,
  "ocal": 5548,
  "oney": 5549,
  "op": 5550,
  "open": 5551,
  "order": 5552,
  "over": 5553,
  "pha": 5554,
  "prox": 5555,
  "rankl": 5556,
  "rash": 5557,
  "ray": 5558,
  "redjal": 5559,
  "rie": 5560,
  "rishtaghyn": 5561,
  "roailt": 5562,
  "romit": 5563,
  "shan": 5564,
  "sign": 5565,
  "tammyltagh": 5566,
  "tappee": 5567,
  "though": 5568,
  "tk": 5569,
  "tra": 5570,
  "uirreyder": 5571,
  "ular": 5572,
  "ung": 5573,
  "uplicate": 5574,
  "utohide": 5575,
  "xt": 5576,
  "yllaghey": 5577,
  "ynt": 5578,
  "~": 5579,
  "\u258119": 5580,
  "\u2581Aa": 5581,
  "\u2581Active": 5582,
  "\u2581Afterward": 5583,
  "\u2581Aminadab": 5584,
  "\u2581Artist": 5585,
  "\u2581Auth": 5586,
  "\u2581Bar": 5587,
  "\u2581Bethphage": 5588,
  "\u2581Ble": 5589,
  "\u2581Booz": 5590,
  "\u2581Broadband": 5591,
  "\u2581Ch": 5592,
  "\u2581Check": 5593,
  "\u2581City": 5594,
  "\u2581Coadagh": 5595,
  "\u2581Crootagh": 5596,
  "\u2581Dev": 5597,
  "\u2581Eeslynnish": 5598,
  "\u2581Elisabeth": 5599,
  "\u2581Encrypt": 5600,
  "\u2581Enmey": 5601,
  "\u2581Esrom": 5602,
  "\u2581Examples": 5603,
  "\u2581Foc": 5604,
  "\u2581Fra": 5605,
  "\u2581Frame": 5606,
  "\u2581GConf": 5607,
  "\u2581Giar": 5608,
  "\u2581However": 5609,
  "\u2581Item": 5610,
  "\u2581Jona": 5611,
  "\u2581Kerrin": 5612,
  "\u2581Kiart": 5613,
  "\u2581Lioarvark": 5614,
  "\u2581Lioarvarkyn": 5615,
  "\u2581Maylartey": 5616,
  "\u2581Mb": 5617,
  "\u2581Mynchoontey": 5618,
  "\u2581Neu": 5619,
  "\u2581Nor": 5620,
  "\u2581Peace": 5621,
  "\u2581Persona": 5622,
  "\u2581Photo": 5623,
  "\u2581Places": 5624,
  "\u2581Prefere": 5625,
  "\u2581Reigh": 5626,
  "\u2581Reirey": 5627,
  "\u2581Room": 5628,
  "\u2581Salathiel": 5629,
  "\u2581Say": 5630,
  "\u2581Sc": 5631,
  "\u2581Scannan": 5632,
  "\u2581Sound": 5633,
  "\u2581Stree": 5634,
  "\u2581Su": 5635,
  "\u2581Susa": 5636,
  "\u2581Tammylt": 5637,
  "\u2581Thumbnail": 5638,
  "\u2581Today": 5639,
  "\u2581Update": 5640,
  "\u2581WI": 5641,
  "\u2581Weather": 5642,
  "\u2581Wi": 5643,
  "\u2581Zorobabel": 5644,
  "\u2581aa": 5645,
  "\u2581ago": 5646,
  "\u2581air": 5647,
  "\u2581angle": 5648,
  "\u2581annoon": 5649,
  "\u2581assembled": 5650,
  "\u2581autorun": 5651,
  "\u2581avatar": 5652,
  "\u2581barryn": 5653,
  "\u2581beseech": 5654,
  "\u2581bu": 5655,
  "\u2581buffer": 5656,
  "\u2581catch": 5657,
  "\u2581chamberlains": 5658,
  "\u2581chelvaane": 5659,
  "\u2581choos": 5660,
  "\u2581cloak": 5661,
  "\u2581closed": 5662,
  "\u2581compel": 5663,
  "\u2581complete": 5664,
  "\u2581count": 5665,
  "\u2581creators": 5666,
  "\u2581crow": 5667,
  "\u2581croymm": 5668,
  "\u2581currymyn": 5669,
  "\u2581custody": 5670,
  "\u2581danger": 5671,
  "\u2581deceive": 5672,
  "\u2581declared": 5673,
  "\u2581developers": 5674,
  "\u2581disconnected": 5675,
  "\u2581disease": 5676,
  "\u2581divers": 5677,
  "\u2581doest": 5678,
  "\u2581doilleeid": 5679,
  "\u2581drank": 5680,
  "\u2581dro": 5681,
  "\u2581dry": 5682,
  "\u2581dying": 5683,
  "\u2581eaten": 5684,
  "\u2581eight": 5685,
  "\u2581entreilys": 5686,
  "\u2581exercise": 5687,
  "\u2581farmer": 5688,
  "\u2581fault": 5689,
  "\u2581favor": 5690,
  "\u2581fields": 5691,
  "\u2581fine": 5692,
  "\u2581flock": 5693,
  "\u2581foaynoo": 5694,
  "\u2581form": 5695,
  "\u2581forsake": 5696,
  "\u2581geay": 5697,
  "\u2581genera": 5698,
  "\u2581gorrym": 5699,
  "\u2581grind": 5700,
  "\u2581guest": 5701,
  "\u2581hoshta": 5702,
  "\u2581hours": 5703,
  "\u2581hungred": 5704,
  "\u2581idle": 5705,
  "\u2581input": 5706,
  "\u2581inquire": 5707,
  "\u2581issue": 5708,
  "\u2581justified": 5709,
  "\u2581kneel": 5710,
  "\u2581laborer": 5711,
  "\u2581lamp": 5712,
  "\u2581late": 5713,
  "\u2581layout": 5714,
  "\u2581lend": 5715,
  "\u2581low": 5716,
  "\u2581maidens": 5717,
  "\u2581miracles": 5718,
  "\u2581mooadagh": 5719,
  "\u2581moodagh": 5720,
  "\u2581mourning": 5721,
  "\u2581nheeg": 5722,
  "\u2581numbers": 5723,
  "\u2581pathbar": 5724,
  "\u2581perform": 5725,
  "\u2581phone": 5726,
  "\u2581pit": 5727,
  "\u2581powers": 5728,
  "\u2581prior": 5729,
  "\u2581pu": 5730,
  "\u2581quenched": 5731,
  "\u2581rec": 5732,
  "\u2581refused": 5733,
  "\u2581reject": 5734,
  "\u2581remov": 5735,
  "\u2581removed": 5736,
  "\u2581restore": 5737,
  "\u2581results": 5738,
  "\u2581sauchey": 5739,
  "\u2581scu": 5740,
  "\u2581se": 5741,
  "\u2581shake": 5742,
  "\u2581silent": 5743,
  "\u2581sixty": 5744,
  "\u2581slyst": 5745,
  "\u2581songs": 5746,
  "\u2581sources": 5747,
  "\u2581spent": 5748,
  "\u2581steward": 5749,
  "\u2581strait": 5750,
  "\u2581tappeid": 5751,
  "\u2581tears": 5752,
  "\u2581temp": 5753,
  "\u2581theay": 5754,
  "\u2581thither": 5755,
  "\u2581thumbnailing": 5756,
  "\u2581tooltip": 5757,
  "\u2581trespasses": 5758,
  "\u2581trouble": 5759,
  "\u2581twain": 5760,
  "\u2581website": 5761,
  "\u2581weeds": 5762,
  "\u2581working": 5763,
  "\u2581wound": 5764,
  "\u2581\u00e7haghteraghyn": 5765,
  "-1255": 5766,
  "-1256": 5767,
  "-8859-15": 5768,
  "-8859-16": 5769,
  "-8859-4": 5770,
  "18030": 5771,
  "2312": 5772,
  "5-": 5773,
  "66": 5774,
  "850": 5775,
  "855": 5776,
  "862": 5777,
  "ABILIT": 5778,
  "Address": 5779,
  "Automatic": 5780,
  "CHA": 5781,
  "Cas": 5782,
  "Cooinaght": 5783,
  "Display": 5784,
  "EE": 5785,
  "EL": 5786,
  "Feddyn": 5787,
  "HI": 5788,
  "HK": 5789,
  "History": 5790,
  "IL": 5791,
  "IP": 5792,
  "Image": 5793,
  "Jalloo": 5794,
  "Jeagh": 5795,
  "Jeeagh": 5796,
  "Language": 5797,
  "Left": 5798,
  "MIME": 5799,
  "MacC": 5800,
  "Mis": 5801,
  "NT": 5802,
  "Neose": 5803,
  "Other": 5804,
  "Out": 5805,
  "Page": 5806,
  "Pan": 5807,
  "RTI": 5808,
  "SCS": 5809,
  "SH": 5810,
  "Screeu": 5811,
  "Scripts": 5812,
  "TY": 5813,
  "Time": 5814,
  "UN": 5815,
  "Which": 5816,
  "aaseyn": 5817,
  "abber": 5818,
  "acca": 5819,
  "ained": 5820,
  "aingley": 5821,
  "anmey": 5822,
  "anney": 5823,
  "arranty": 5824,
  "arrows": 5825,
  "att": 5826,
  "aue": 5827,
  "ause": 5828,
  "ay": 5829,
  "based": 5830,
  "bee": 5831,
  "beg": 5832,
  "bei": 5833,
  "cd": 5834,
  "chapter": 5835,
  "chi": 5836,
  "choni": 5837,
  "cmaid": 5838,
  "coa": 5839,
  "coadanyn": 5840,
  "correct": 5841,
  "creau": 5842,
  "cust": 5843,
  "ded": 5844,
  "dooghyssagh": 5845,
  "dth": 5846,
  "eill": 5847,
  "eiltee": 5848,
  "emember": 5849,
  "ennaghtyn": 5850,
  "erform": 5851,
  "erges": 5852,
  "ern": 5853,
  "euben": 5854,
  "external": 5855,
  "ffects": 5856,
  "figure": 5857,
  "foalley": 5858,
  "folders": 5859,
  "gave": 5860,
  "gles": 5861,
  "gley": 5862,
  "graih": 5863,
  "hema": 5864,
  "heshaghyn": 5865,
  "hoill": 5866,
  "huyr": 5867,
  "ian": 5868,
  "iel": 5869,
  "ient": 5870,
  "igned": 5871,
  "impli": 5872,
  "iner": 5873,
  "ingley": 5874,
  "inn": 5875,
  "inneen": 5876,
  "interlac": 5877,
  "internet": 5878,
  "item": 5879,
  "jects": 5880,
  "jeig": 5881,
  "lapping": 5882,
  "lare": 5883,
  "law": 5884,
  "leigh": 5885,
  "lement": 5886,
  "liorish": 5887,
  "lurg": 5888,
  "ments": 5889,
  "menu": 5890,
  "mmyrkey": 5891,
  "mollaghtagh": 5892,
  "moom": 5893,
  "mpl": 5894,
  "new": 5895,
  "niart": 5896,
  "nmyn": 5897,
  "nnal": 5898,
  "nnotations": 5899,
  "nnys": 5900,
  "oaddey": 5901,
  "oagey": 5902,
  "oast": 5903,
  "ocation": 5904,
  "oggyl": 5905,
  "oghey": 5906,
  "oghrey": 5907,
  "oh": 5908,
  "once": 5909,
  "ooid": 5910,
  "ooil": 5911,
  "ooinney": 5912,
  "opup": 5913,
  "orgher": 5914,
  "ouyr": 5915,
  "owal": 5916,
  "owed": 5917,
  "owraghyn": 5918,
  "owse": 5919,
  "passes": 5920,
  "pers": 5921,
  "phossible": 5922,
  "pol": 5923,
  "pyr": 5924,
  "raghyn": 5925,
  "rang": 5926,
  "rant": 5927,
  "reeyn": 5928,
  "rro": 5929,
  "rrys": 5930,
  "rs": 5931,
  "ryn": 5932,
  "saved": 5933,
  "screeuee": 5934,
  "seihlt": 5935,
  "shey": 5936,
  "shtit": 5937,
  "slow": 5938,
  "soie": 5939,
  "some": 5940,
  "space": 5941,
  "stit": 5942,
  "stone": 5943,
  "streamed": 5944,
  "syrjey": 5945,
  "tangle": 5946,
  "teyr": 5947,
  "ti": 5948,
  "tis": 5949,
  "toplevel": 5950,
  "tuiredeyr": 5951,
  "ube": 5952,
  "ubit": 5953,
  "uin": 5954,
  "uirr": 5955,
  "uit": 5956,
  "ummal": 5957,
  "uth": 5958,
  "vairagh": 5959,
  "veih": 5960,
  "xtra": 5961,
  "yll": 5962,
  "yllaght": 5963,
  "ylrey": 5964,
  "ynrican": 5965,
  "yrdji": 5966,
  "yss": 5967,
  "\u258100/00/00": 5968,
  "\u2581Ab": 5969,
  "\u2581Abiud": 5970,
  "\u2581Achim": 5971,
  "\u2581Alphaeus": 5972,
  "\u2581Alpheus": 5973,
  "\u2581Also": 5974,
  "\u2581Amo": 5975,
  "\u2581Amon": 5976,
  "\u2581Answer": 5977,
  "\u2581Appl": 5978,
  "\u2581Arida": 5979,
  "\u2581Arimathea": 5980,
  "\u2581Azor": 5981,
  "\u2581Bigthan": 5982,
  "\u2581Cag": 5983,
  "\u2581Cai": 5984,
  "\u2581Caisht": 5985,
  "\u2581Cal": 5986,
  "\u2581Chaisht": 5987,
  "\u2581Changes": 5988,
  "\u2581Che": 5989,
  "\u2581Clasht": 5990,
  "\u2581Coadaghyn": 5991,
  "\u2581Codec": 5992,
  "\u2581Cont": 5993,
  "\u2581Crucify": 5994,
  "\u2581Debian": 5995,
  "\u2581Debugg": 5996,
  "\u2581Description": 5997,
  "\u2581Dow": 5998,
  "\u2581Eeck": 5999,
  "\u2581Eliud": 6000,
  "\u2581Ersooyl": 6001,
  "\u2581Espejo": 6002,
  "\u2581Expires": 6003,
  "\u2581Extension": 6004,
  "\u2581Fa": 6005,
  "\u2581Facebook": 6006,
  "\u2581Fastee": 6007,
  "\u2581Fea": 6008,
  "\u2581Foddey": 6009,
  "\u2581Fonts": 6010,
  "\u2581Galileanee": 6011,
  "\u2581Gethsemane": 6012,
  "\u2581Ham": 6013,
  "\u2581Hardware": 6014,
  "\u2581Hear": 6015,
  "\u2581Hew": 6016,
  "\u2581Ho": 6017,
  "\u2581Host": 6018,
  "\u2581IP": 6019,
  "\u2581Imraa": 6020,
  "\u2581Inneen": 6021,
  "\u2581Inspect": 6022,
  "\u2581Installed": 6023,
  "\u2581JE": 6024,
  "\u2581Jair": 6025,
  "\u2581Jerem": 6026,
  "\u2581Joram": 6027,
  "\u2581Jouyl": 6028,
  "\u2581Keyboard": 6029,
  "\u2581Latin": 6030,
  "\u2581Lhie": 6031,
  "\u2581Lioarynvark": 6032,
  "\u2581MI": 6033,
  "\u2581MIME": 6034,
  "\u2581Mattha": 6035,
  "\u2581Matthan": 6036,
  "\u2581Matthew": 6037,
  "\u2581Mi": 6038,
  "\u2581Mian": 6039,
  "\u2581Neuchosoylaght": 6040,
  "\u2581Noid": 6041,
  "\u2581OK": 6042,
  "\u2581Oa": 6043,
  "\u2581Obbyr": 6044,
  "\u2581Op": 6045,
  "\u2581Page": 6046,
  "\u2581Pane": 6047,
  "\u2581Persia": 6048,
  "\u2581Persian": 6049,
  "\u2581Phersia": 6050,
  "\u2581Philippi": 6051,
  "\u2581Port": 6052,
  "\u2581Power": 6053,
  "\u2581Reig": 6054,
  "\u2581SELinux": 6055,
  "\u2581Sadoc": 6056,
  "\u2581Salome": 6057,
  "\u2581Style": 6058,
  "\u2581Stylesheet": 6059,
  "\u2581Tools": 6060,
  "\u2581Turk": 6061,
  "\u2581WebKit": 6062,
  "\u2581Whom": 6063,
  "\u2581Word": 6064,
  "\u2581Ymmyrtagh": 6065,
  "\u2581aase": 6066,
  "\u2581aash": 6067,
  "\u2581addresses": 6068,
  "\u2581administrat": 6069,
  "\u2581agent": 6070,
  "\u2581agglish": 6071,
  "\u2581anger": 6072,
  "\u2581animat": 6073,
  "\u2581array": 6074,
  "\u2581assyd": 6075,
  "\u2581atchim": 6076,
  "\u2581ayndoosyn": 6077,
  "\u2581baaish": 6078,
  "\u2581bai": 6079,
  "\u2581bailloo": 6080,
  "\u2581bane": 6081,
  "\u2581banglane": 6082,
  "\u2581barrcheu": 6083,
  "\u2581beautiful": 6084,
  "\u2581beheaded": 6085,
  "\u2581beiyht": 6086,
  "\u2581blaspheme": 6087,
  "\u2581blasphemies": 6088,
  "\u2581boats": 6089,
  "\u2581bodjallyn": 6090,
  "\u2581bolg": 6091,
  "\u2581bollag": 6092,
  "\u2581bondiaght": 6093,
  "\u2581borne": 6094,
  "\u2581bosom": 6095,
  "\u2581braagh": 6096,
  "\u2581briwnyn": 6097,
  "\u2581burned": 6098,
  "\u2581bush": 6099,
  "\u2581bwoaill": 6100,
  "\u2581cabbaneyn": 6101,
  "\u2581cabbyl": 6102,
  "\u2581cainleyr": 6103,
  "\u2581calmane": 6104,
  "\u2581chaghlaa": 6105,
  "\u2581chaill": 6106,
  "\u2581chains": 6107,
  "\u2581chaisht": 6108,
  "\u2581chea": 6109,
  "\u2581cheb": 6110,
  "\u2581chia": 6111,
  "\u2581chiaghtoo": 6112,
  "\u2581chibbyr": 6113,
  "\u2581chlaghey": 6114,
  "\u2581chli": 6115,
  "\u2581choonceil": 6116,
  "\u2581chostal": 6117,
  "\u2581choyrl": 6118,
  "\u2581chronk": 6119,
  "\u2581chronn": 6120,
  "\u2581chryss": 6121,
  "\u2581churrym": 6122,
  "\u2581chym": 6123,
  "\u2581chynney": 6124,
  "\u2581cit": 6125,
  "\u2581cl": 6126,
  "\u2581coamraghyn": 6127,
  "\u2581coayl": 6128,
  "\u2581composit": 6129,
  "\u2581conceived": 6130,
  "\u2581configur": 6131,
  "\u2581contacts": 6132,
  "\u2581context": 6133,
  "\u2581contrast": 6134,
  "\u2581convert": 6135,
  "\u2581cookie": 6136,
  "\u2581corn": 6137,
  "\u2581cowreydagh": 6138,
  "\u2581coyrle": 6139,
  "\u2581created": 6140,
  "\u2581cured": 6141,
  "\u2581deceit": 6142,
  "\u2581declare": 6143,
  "\u2581deed": 6144,
  "\u2581destruction": 6145,
  "\u2581detected": 6146,
  "\u2581dh": 6147,
  "\u2581dhieyn": 6148,
  "\u2581diligen": 6149,
  "\u2581dis": 6150,
  "\u2581doghan": 6151,
  "\u2581doors": 6152,
  "\u2581dorryssyn": 6153,
  "\u2581double": 6154,
  "\u2581dove": 6155,
  "\u2581dowin": 6156,
  "\u2581eallagh": 6157,
  "\u2581eit": 6158,
  "\u2581eiyrt": 6159,
  "\u2581ell": 6160,
  "\u2581entrei": 6161,
  "\u2581environment": 6162,
  "\u2581escape": 6163,
  "\u2581exceed": 6164,
  "\u2581falls": 6165,
  "\u2581fardail": 6166,
  "\u2581farg": 6167,
  "\u2581feasting": 6168,
  "\u2581feayshil": 6169,
  "\u2581fifteen": 6170,
  "\u2581fill": 6171,
  "\u2581finish": 6172,
  "\u2581fioghey": 6173,
  "\u2581fockley": 6174,
  "\u2581folt": 6175,
  "\u2581footstool": 6176,
  "\u2581fraueyn": 6177,
  "\u2581front": 6178,
  "\u2581gannooin": 6179,
  "\u2581gaue": 6180,
  "\u2581geyrragh": 6181,
  "\u2581ghogh": 6182,
  "\u2581ghrineyn": 6183,
  "\u2581giall": 6184,
  "\u2581giveth": 6185,
  "\u2581gobbal": 6186,
  "\u2581grayse": 6187,
  "\u2581greeting": 6188,
  "\u2581grieved": 6189,
  "\u2581guard": 6190,
  "\u2581gwee": 6191,
  "\u2581haghyr": 6192,
  "\u2581halent": 6193,
  "\u2581happens": 6194,
  "\u2581heads": 6195,
  "\u2581healing": 6196,
  "\u2581hei": 6197,
  "\u2581height": 6198,
  "\u2581hengey": 6199,
  "\u2581heshaght": 6200,
  "\u2581hooin": 6201,
  "\u2581hreigeil": 6202,
  "\u2581hrome": 6203,
  "\u2581huittym": 6204,
  "\u2581imlee": 6205,
  "\u2581implement": 6206,
  "\u2581impos": 6207,
  "\u2581inheritance": 6208,
  "\u2581inner": 6209,
  "\u2581ir": 6210,
  "\u2581jeir": 6211,
  "\u2581jeirk": 6212,
  "\u2581joarree": 6213,
  "\u2581keeper": 6214,
  "\u2581kiannoortyn": 6215,
  "\u2581kin": 6216,
  "\u2581laboragh": 6217,
  "\u2581lajer": 6218,
  "\u2581learn": 6219,
  "\u2581leaven": 6220,
  "\u2581leper": 6221,
  "\u2581leprosy": 6222,
  "\u2581lettraghey": 6223,
  "\u2581lhei": 6224,
  "\u2581lhiaght": 6225,
  "\u2581lhiennoo": 6226,
  "\u2581lhott": 6227,
  "\u2581lieckan": 6228,
  "\u2581lightning": 6229,
  "\u2581lin": 6230,
  "\u2581listed": 6231,
  "\u2581locate": 6232,
  "\u2581logstiagh": 6233,
  "\u2581louraan": 6234,
  "\u2581lourane": 6235,
  "\u2581lowaltys": 6236,
  "\u2581magheryn": 6237,
  "\u2581marin": 6238,
  "\u2581marker": 6239,
  "\u2581markiagh": 6240,
  "\u2581masters": 6241,
  "\u2581merry": 6242,
  "\u2581miracle": 6243,
  "\u2581modification": 6244,
  "\u2581moidyn": 6245,
  "\u2581molley": 6246,
  "\u2581molteyrys": 6247,
  "\u2581mooinjerey": 6248,
  "\u2581mourn": 6249,
  "\u2581moyrnagh": 6250,
  "\u2581muckyn": 6251,
  "\u2581mucyn": 6252,
  "\u2581myghinagh": 6253,
  "\u2581myrge": 6254,
  "\u2581neck": 6255,
  "\u2581neeal": 6256,
  "\u2581neighbor": 6257,
  "\u2581neighbour": 6258,
  "\u2581nevertheless": 6259,
  "\u2581nights": 6260,
  "\u2581ninety": 6261,
  "\u2581oath": 6262,
  "\u2581oddym": 6263,
  "\u2581oikan": 6264,
  "\u2581olkys": 6265,
  "\u2581ommijagh": 6266,
  "\u2581ooashlaghey": 6267,
  "\u2581oppression": 6268,
  "\u2581overshadow": 6269,
  "\u2581palsee": 6270,
  "\u2581paralytic": 6271,
  "\u2581patience": 6272,
  "\u2581peccoil": 6273,
  "\u2581phaart": 6274,
  "\u2581phryssoonagh": 6275,
  "\u2581plaase": 6276,
  "\u2581plainly": 6277,
  "\u2581plan": 6278,
  "\u2581plunder": 6279,
  "\u2581possessions": 6280,
  "\u2581pre": 6281,
  "\u2581preparation": 6282,
  "\u2581prevail": 6283,
  "\u2581price": 6284,
  "\u2581programme": 6285,
  "\u2581promised": 6286,
  "\u2581prompt": 6287,
  "\u2581prophesied": 6288,
  "\u2581purification": 6289,
  "\u2581purse": 6290,
  "\u2581rain": 6291,
  "\u2581recort": 6292,
  "\u2581recover": 6293,
  "\u2581relatives": 6294,
  "\u2581remains": 6295,
  "\u2581ribbey": 6296,
  "\u2581roihaghyn": 6297,
  "\u2581rollage": 6298,
  "\u2581roshtyn": 6299,
  "\u2581ruggyree": 6300,
  "\u2581saa": 6301,
  "\u2581sad": 6302,
  "\u2581sailliu": 6303,
  "\u2581sau\u00e7hys": 6304,
  "\u2581scaan": 6305,
  "\u2581scarr": 6306,
  "\u2581scorpion": 6307,
  "\u2581sealed": 6308,
  "\u2581serpents": 6309,
  "\u2581seventh": 6310,
  "\u2581seventy": 6311,
  "\u2581shadow": 6312,
  "\u2581shelley": 6313,
  "\u2581shepherds": 6314,
  "\u2581shiar": 6315,
  "\u2581shirveishagh": 6316,
  "\u2581shortened": 6317,
  "\u2581sickness": 6318,
  "\u2581sinned": 6319,
  "\u2581skeayl": 6320,
  "\u2581skee": 6321,
  "\u2581ski": 6322,
  "\u2581sle": 6323,
  "\u2581som": 6324,
  "\u2581sore": 6325,
  "\u2581spagey": 6326,
  "\u2581sparrows": 6327,
  "\u2581spices": 6328,
  "\u2581spiceyn": 6329,
  "\u2581star": 6330,
  "\u2581startup": 6331,
  "\u2581stiurtys": 6332,
  "\u2581strangers": 6333,
  "\u2581tares": 6334,
  "\u2581tasks": 6335,
  "\u2581tendreil": 6336,
  "\u2581tied": 6337,
  "\u2581toilchin": 6338,
  "\u2581torragh": 6339,
  "\u2581tower": 6340,
  "\u2581town": 6341,
  "\u2581tribe": 6342,
  "\u2581tushtagh": 6343,
  "\u2581twoai": 6344,
  "\u2581uses": 6345,
  "\u2581ushtaghyn": 6346,
  "\u2581vaarliagh": 6347,
  "\u2581vair": 6348,
  "\u2581vessels": 6349,
  "\u2581violaghey": 6350,
  "\u2581vreearrey": 6351,
  "\u2581vyghin": 6352,
  "\u2581west": 6353,
  "\u2581wickedness": 6354,
  "\u2581widows": 6355,
  "\u2581wish": 6356,
  "\u2581yea": 6357,
  "\u2581yeast": 6358,
  "\u2581ymmyrchagh": 6359,
  "\u2581ynrick": 6360,
  "\u2581ynsit": 6361,
  "Arise": 6362,
  "Arran": 6363,
  "Chengey": 6364,
  "Coip": 6365,
  "Create": 6366,
  "Docmaid": 6367,
  "Doub": 6368,
  "Faagail": 6369,
  "GE": 6370,
  "Give": 6371,
  "HTML": 6372,
  "Ha": 6373,
  "Jeannoo": 6374,
  "Keep": 6375,
  "Know": 6376,
  "LEA": 6377,
  "Look": 6378,
  "Methods": 6379,
  "Mooadys": 6380,
  "Nhee": 6381,
  "OME": 6382,
  "Object": 6383,
  "Prental": 6384,
  "Press": 6385,
  "Quit": 6386,
  "Reaghey": 6387,
  "Rename": 6388,
  "Res": 6389,
  "Resolution": 6390,
  "Roman": 6391,
  "See": 6392,
  "Speak": 6393,
  "TLS": 6394,
  "Totem": 6395,
  "Trash": 6396,
  "Unlock": 6397,
  "Video": 6398,
  "Work": 6399,
  "Yn": 6400,
  "aad": 6401,
  "agn": 6402,
  "ally": 6403,
  "amey": 6404,
  "arent": 6405,
  "arkened": 6406,
  "arteeas": 6407,
  "aster": 6408,
  "auth": 6409,
  "awned": 6410,
  "az": 6411,
  "bbyl": 6412,
  "bel": 6413,
  "ble": 6414,
  "buttons": 6415,
  "cent": 6416,
  "chiangleyn": 6417,
  "chiarnys": 6418,
  "cochaslys": 6419,
  "coming": 6420,
  "complet": 6421,
  "cramman": 6422,
  "cuirr": 6423,
  "cur": 6424,
  "dah": 6425,
  "ect": 6426,
  "eim": 6427,
  "ermanently": 6428,
  "etc": 6429,
  "ff": 6430,
  "file": 6431,
  "free": 6432,
  "gged": 6433,
  "giving": 6434,
  "hee": 6435,
  "help": 6436,
  "heugh": 6437,
  "hide": 6438,
  "hlass": 6439,
  "hoiaghey": 6440,
  "hood": 6441,
  "hor": 6442,
  "human": 6443,
  "hymb": 6444,
  "ifi": 6445,
  "ignore": 6446,
  "ions": 6447,
  "ium": 6448,
  "jean": 6449,
  "kip": 6450,
  "lash": 6451,
  "leig": 6452,
  "lia": 6453,
  "liaghey": 6454,
  "llustrat": 6455,
  "lyn": 6456,
  "man": 6457,
  "mess": 6458,
  "mpty": 6459,
  "na": 6460,
  "ngle": 6461,
  "nmys": 6462,
  "nnoo": 6463,
  "ntrast": 6464,
  "objects": 6465,
  "oilleeid": 6466,
  "olley": 6467,
  "ology": 6468,
  "onnect": 6469,
  "ooyl": 6470,
  "ows": 6471,
  "pause": 6472,
  "peration": 6473,
  "permissions": 6474,
  "port": 6475,
  "position": 6476,
  "post": 6477,
  "pread": 6478,
  "program": 6479,
  "quit": 6480,
  "raafagh": 6481,
  "ravel": 6482,
  "razi": 6483,
  "rdagh": 6484,
  "rt": 6485,
  "rtys": 6486,
  "sagh": 6487,
  "scarrey": 6488,
  "screeunyn": 6489,
  "sheet": 6490,
  "shoh": 6491,
  "smooinaght": 6492,
  "spa": 6493,
  "sst": 6494,
  "sth": 6495,
  "str": 6496,
  "styr": 6497,
  "tc": 6498,
  "tempt": 6499,
  "tive": 6500,
  "today": 6501,
  "toshee": 6502,
  "tten": 6503,
  "udio": 6504,
  "usic": 6505,
  "van": 6506,
  "workspaces": 6507,
  "xcept": 6508,
  "ymmyd": 6509,
  "your": 6510,
  "\u00a7": 6511,
  "\u00e7": 6512,
  "\u2581\"2": 6513,
  "\u2581Ar": 6514,
  "\u2581Beelzebul": 6515,
  "\u2581Believe": 6516,
  "\u2581Broken": 6517,
  "\u2581Canonical": 6518,
  "\u2581Domain": 6519,
  "\u2581Eeast": 6520,
  "\u2581Eggey": 6521,
  "\u2581El": 6522,
  "\u2581Ell": 6523,
  "\u2581Foshl": 6524,
  "\u2581Great": 6525,
  "\u2581Incom": 6526,
  "\u2581Infra": 6527,
  "\u2581Inter": 6528,
  "\u2581JESUS": 6529,
  "\u2581Keimmeiaght": 6530,
  "\u2581Le": 6531,
  "\u2581Legion": 6532,
  "\u2581Lhaih": 6533,
  "\u2581Locat": 6534,
  "\u2581Mal": 6535,
  "\u2581Manage": 6536,
  "\u2581Message": 6537,
  "\u2581Meta": 6538,
  "\u2581Mooadagh": 6539,
  "\u2581Mute": 6540,
  "\u2581Nautil": 6541,
  "\u2581Nay": 6542,
  "\u2581Nazarene": 6543,
  "\u2581NetworkManager": 6544,
  "\u2581Nhee": 6545,
  "\u2581Note": 6546,
  "\u2581Pa": 6547,
  "\u2581Phares": 6548,
  "\u2581Praetorium": 6549,
  "\u2581Pre": 6550,
  "\u2581Prefer": 6551,
  "\u2581Profil": 6552,
  "\u2581Provide": 6553,
  "\u2581Prow": 6554,
  "\u2581Rach": 6555,
  "\u2581Rati": 6556,
  "\u2581Remov": 6557,
  "\u2581Restart": 6558,
  "\u2581Ru": 6559,
  "\u2581Sav": 6560,
  "\u2581Screeuyn": 6561,
  "\u2581Scu": 6562,
  "\u2581Shirre": 6563,
  "\u2581Soilshag": 6564,
  "\u2581Stayd": 6565,
  "\u2581Ste": 6566,
  "\u2581Stiagh": 6567,
  "\u2581Tot": 6568,
  "\u2581Unti": 6569,
  "\u2581Wrappe": 6570,
  "\u2581Ym": 6571,
  "\u2581active": 6572,
  "\u2581ammyr": 6573,
  "\u2581apparel": 6574,
  "\u2581appointments": 6575,
  "\u2581bab": 6576,
  "\u2581believing": 6577,
  "\u2581bid": 6578,
  "\u2581bond": 6579,
  "\u2581boot": 6580,
  "\u2581boy": 6581,
  "\u2581breast": 6582,
  "\u2581brightness": 6583,
  "\u2581broo": 6584,
  "\u2581cache": 6585,
  "\u2581capa": 6586,
  "\u2581careful": 6587,
  "\u2581chamyr": 6588,
  "\u2581chengaghyn": 6589,
  "\u2581chose": 6590,
  "\u2581clearly": 6591,
  "\u2581clicked": 6592,
  "\u2581coadyn": 6593,
  "\u2581coats": 6594,
  "\u2581collector": 6595,
  "\u2581comforted": 6596,
  "\u2581con": 6597,
  "\u2581condemnation": 6598,
  "\u2581covenant": 6599,
  "\u2581dark": 6600,
  "\u2581debt": 6601,
  "\u2581deleti": 6602,
  "\u2581denarii": 6603,
  "\u2581denarius": 6604,
  "\u2581descended": 6605,
  "\u2581description": 6606,
  "\u2581devi": 6607,
  "\u2581dies": 6608,
  "\u2581dinner": 6609,
  "\u2581dippe": 6610,
  "\u2581dwelt": 6611,
  "\u2581elect": 6612,
  "\u2581establish": 6613,
  "\u2581exact": 6614,
  "\u2581excuse": 6615,
  "\u2581fai": 6616,
  "\u2581focus": 6617,
  "\u2581fowls": 6618,
  "\u2581fra": 6619,
  "\u2581fragments": 6620,
  "\u2581fy": 6621,
  "\u2581ghost": 6622,
  "\u2581giar": 6623,
  "\u2581goest": 6624,
  "\u2581governors": 6625,
  "\u2581harm": 6626,
  "\u2581hea": 6627,
  "\u2581healthy": 6628,
  "\u2581immediate": 6629,
  "\u2581includ": 6630,
  "\u2581infirmities": 6631,
  "\u2581instant": 6632,
  "\u2581integ": 6633,
  "\u2581jeaghyd": 6634,
  "\u2581jesh": 6635,
  "\u2581judges": 6636,
  "\u2581ke": 6637,
  "\u2581keint": 6638,
  "\u2581labels": 6639,
  "\u2581labourers": 6640,
  "\u2581lack": 6641,
  "\u2581laugh": 6642,
  "\u2581leav": 6643,
  "\u2581lioarynvark": 6644,
  "\u2581loosed": 6645,
  "\u2581maiden": 6646,
  "\u2581male": 6647,
  "\u2581mammon": 6648,
  "\u2581marketplaces": 6649,
  "\u2581messages": 6650,
  "\u2581mis": 6651,
  "\u2581mock": 6652,
  "\u2581mourned": 6653,
  "\u2581needed": 6654,
  "\u2581notagh": 6655,
  "\u2581numbered": 6656,
  "\u2581office": 6657,
  "\u2581officer": 6658,
  "\u2581oi": 6659,
  "\u2581oxen": 6660,
  "\u2581performed": 6661,
  "\u2581perplexed": 6662,
  "\u2581phrase": 6663,
  "\u2581pix": 6664,
  "\u2581pla": 6665,
  "\u2581possibl": 6666,
  "\u2581pound": 6667,
  "\u2581prayers": 6668,
  "\u2581prisoner": 6669,
  "\u2581properly": 6670,
  "\u2581reagh": 6671,
  "\u2581reaghey": 6672,
  "\u2581reayr": 6673,
  "\u2581recortyss": 6674,
  "\u2581regard": 6675,
  "\u2581relat": 6676,
  "\u2581rested": 6677,
  "\u2581reveal": 6678,
  "\u2581robber": 6679,
  "\u2581sakes": 6680,
  "\u2581salute": 6681,
  "\u2581scan": 6682,
  "\u2581scapail": 6683,
  "\u2581scree": 6684,
  "\u2581scru": 6685,
  "\u2581serv": 6686,
  "\u2581shirveeish": 6687,
  "\u2581short": 6688,
  "\u2581slain": 6689,
  "\u2581slept": 6690,
  "\u2581smite": 6691,
  "\u2581smooniaght": 6692,
  "\u2581sorry": 6693,
  "\u2581south": 6694,
  "\u2581square": 6695,
  "\u2581staves": 6696,
  "\u2581stiure": 6697,
  "\u2581storm": 6698,
  "\u2581stuir": 6699,
  "\u2581suddenly": 6700,
  "\u2581summon": 6701,
  "\u2581surname": 6702,
  "\u2581sys": 6703,
  "\u2581tables": 6704,
  "\u2581tammyltagh": 6705,
  "\u2581tear": 6706,
  "\u2581thrice": 6707,
  "\u2581toishee": 6708,
  "\u2581toolbars": 6709,
  "\u2581toshiagh": 6710,
  "\u2581towns": 6711,
  "\u2581tr": 6712,
  "\u2581trans": 6713,
  "\u2581twice": 6714,
  "\u2581unc": 6715,
  "\u2581unjust": 6716,
  "\u2581virgin": 6717,
  "\u2581visit": 6718,
  "\u2581voices": 6719,
  "\u2581wax": 6720,
  "\u2581wrought": 6721,
  "\u2581yield": 6722,
  "\u2581\u00e7hen": 6723,
  "-1,": 6724,
  "-1252": 6725,
  "-1253": 6726,
  "-8859-10": 6727,
  "-8859-13": 6728,
  "-8859-5": 6729,
  ".2": 6730,
  "03": 6731,
  "1:2": 6732,
  "22:": 6733,
  "56": 6734,
  ">:": 6735,
  "AP": 6736,
  "APN": 6737,
  "ARE": 6738,
  "Asp": 6739,
  "Bonobo": 6740,
  "By": 6741,
  "Can": 6742,
  "Chapter": 6743,
  "Clear": 6744,
  "Connecting": 6745,
  "Cooine": 6746,
  "Cyrillic": 6747,
  "DSL": 6748,
  "Downloads": 6749,
  "EAP": 6750,
  "Ethernet": 6751,
  "Foa": 6752,
  "GPRS": 6753,
  "GPS": 6754,
  "Gallery": 6755,
  "God": 6756,
  "Graa": 6757,
  "Greagish": 6758,
  "Greek": 6759,
  "Hebrew": 6760,
  "Hu": 6761,
  "ISH": 6762,
  "Jea": 6763,
  "Jesus": 6764,
  "John": 6765,
  "LI": 6766,
  "Lhaih": 6767,
  "Lioarvark": 6768,
  "Main": 6769,
  "Mak": 6770,
  "Man": 6771,
  "Network": 6772,
  "Not": 6773,
  "On": 6774,
  "Owner": 6775,
  "Peace": 6776,
  "Persian": 6777,
  "Purt": 6778,
  "Quaiyl": 6779,
  "Reayrty": 6780,
  "Restore": 6781,
  "Rolley": 6782,
  "SI": 6783,
  "SP": 6784,
  "Shirveish": 6785,
  "Simon": 6786,
  "Son": 6787,
  "Th": 6788,
  "Traa": 6789,
  "Trustyr": 6790,
  "VPN": 6791,
  "Write": 6792,
  "Zoom": 6793,
  "aare": 6794,
  "aarlaghey": 6795,
  "acti": 6796,
  "aeus": 6797,
  "after": 6798,
  "ah": 6799,
  "aidey": 6800,
  "aik": 6801,
  "ailed": 6802,
  "aisht": 6803,
  "allagh": 6804,
  "alloo": 6805,
  "anner": 6806,
  "appear": 6807,
  "arail": 6808,
  "arey": 6809,
  "arg": 6810,
  "artys": 6811,
  "asley": 6812,
  "ath": 6813,
  "au": 6814,
  "aunsin": 6815,
  "axim": 6816,
  "ayrn": 6817,
  "banshey": 6818,
  "bing": 6819,
  "bject": 6820,
  "caggee": 6821,
  "casherick": 6822,
  "chiart": 6823,
  "chleuin": 6824,
  "chredjue": 6825,
  "chreeagh": 6826,
  "chymmylt": 6827,
  "con": 6828,
  "content": 6829,
  "creeney": 6830,
  "crie": 6831,
  "croa": 6832,
  "croymmag": 6833,
  "cummal": 6834,
  "da": 6835,
  "deil": 6836,
  "den": 6837,
  "doghanit": 6838,
  "duillagheyn": 6839,
  "eaisht": 6840,
  "eanishyn": 6841,
  "earl": 6842,
  "eaynee": 6843,
  "echn": 6844,
  "eeck": 6845,
  "eg": 6846,
  "ei": 6847,
  "empt": 6848,
  "ence": 6849,
  "enee": 6850,
  "enney": 6851,
  "ett": 6852,
  "example": 6853,
  "eywords": 6854,
  "ez": 6855,
  "files": 6856,
  "fo": 6857,
  "fold": 6858,
  "fra": 6859,
  "ggyr": 6860,
  "gheddyn": 6861,
  "gherjagh": 6862,
  "ght": 6863,
  "goo": 6864,
  "group": 6865,
  "grt": 6866,
  "haghter": 6867,
  "hanmey": 6868,
  "harvaant": 6869,
  "heayll": 6870,
  "hebbal": 6871,
  "heeghyn": 6872,
  "heiney": 6873,
  "hengey": 6874,
  "hingys": 6875,
  "hirrym": 6876,
  "hoyrt": 6877,
  "ial": 6878,
  "iall": 6879,
  "ick": 6880,
  "icon": 6881,
  "icture": 6882,
  "ide": 6883,
  "ification": 6884,
  "ifying": 6885,
  "ih": 6886,
  "illar": 6887,
  "illin": 6888,
  "illiu": 6889,
  "ilsagh": 6890,
  "imit": 6891,
  "ingys": 6892,
  "inshley": 6893,
  "iooldey": 6894,
  "irclaa": 6895,
  "ird": 6896,
  "irragh": 6897,
  "ith": 6898,
  "ject": 6899,
  "kb": 6900,
  "keimeeaght": 6901,
  "laaghydys": 6902,
  "launcher": 6903,
  "lbum": 6904,
  "lein": 6905,
  "light": 6906,
  "linn": 6907,
  "loogh": 6908,
  "lowal": 6909,
  "luck": 6910,
  "luinn": 6911,
  "manually": 6912,
  "meen": 6913,
  "message": 6914,
  "mment": 6915,
  "myn": 6916,
  "mys": 6917,
  "naght": 6918,
  "nder": 6919,
  "nge": 6920,
  "nieu": 6921,
  "nish": 6922,
  "njey": 6923,
  "nlock": 6924,
  "nowhere": 6925,
  "oaylle": 6926,
  "ockle": 6927,
  "odjal": 6928,
  "oie": 6929,
  "ollal": 6930,
  "onfirm": 6931,
  "onobo": 6932,
  "onsider": 6933,
  "ooilliagh": 6934,
  "ore": 6935,
  "orey": 6936,
  "org": 6937,
  "ormat": 6938,
  "ot": 6939,
  "pernaum": 6940,
  "pooara": 6941,
  "pt": 6942,
  "qual": 6943,
  "reck": 6944,
  "rely": 6945,
  "retch": 6946,
  "rgad": 6947,
  "rightness": 6948,
  "rise": 6949,
  "rivacy": 6950,
  "rooid": 6951,
  "rrynagh": 6952,
  "rubb": 6953,
  "rys": 6954,
  "ryst": 6955,
  "saghey": 6956,
  "sambleyr": 6957,
  "scaa": 6958,
  "sec": 6959,
  "ses": 6960,
  "sharvaant": 6961,
  "shes": 6962,
  "sid": 6963,
  "sion": 6964,
  "sodjey": 6965,
  "sollys": 6966,
  "ssue": 6967,
  "sterday": 6968,
  "stey": 6969,
  "stuill": 6970,
  "tac": 6971,
  "tain": 6972,
  "ten": 6973,
  "tened": 6974,
  "terminal": 6975,
  "tey": 6976,
  "ton": 6977,
  "tore": 6978,
  "tream": 6979,
  "tretch": 6980,
  "tructed": 6981,
  "trusted": 6982,
  "ubtitles": 6983,
  "uee": 6984,
  "uffer": 6985,
  "uinnaghey": 6986,
  "uitt": 6987,
  "unto": 6988,
  "ure": 6989,
  "urey": 6990,
  "urrent": 6991,
  "urround": 6992,
  "vaih": 6993,
  "visual": 6994,
  "voggey": 6995,
  "voyll": 6996,
  "which": 6997,
  "wn": 6998,
  "yantagh": 6999,
  "ymmyrkey": 7000,
  "yrillagh": 7001,
  "\u00e7hal": 7002,
  "\u2581\"/": 7003,
  "\u2581*.": 7004,
  "\u258108": 7005,
  "\u258131": 7006,
  "\u2581Abbyr": 7007,
  "\u2581Abi": 7008,
  "\u2581Achaz": 7009,
  "\u2581Ada": 7010,
  "\u2581Album": 7011,
  "\u2581Bart": 7012,
  "\u2581Bartholomew": 7013,
  "\u2581Bast": 7014,
  "\u2581Bitrate": 7015,
  "\u2581Calculat": 7016,
  "\u2581Call": 7017,
  "\u2581Came": 7018,
  "\u2581Cancelling": 7019,
  "\u2581Chloan": 7020,
  "\u2581Coi": 7021,
  "\u2581Cooish": 7022,
  "\u2581Dal": 7023,
  "\u2581Depart": 7024,
  "\u2581Detect": 7025,
  "\u2581Developer": 7026,
  "\u2581Didymus": 7027,
  "\u2581EDGE": 7028,
  "\u2581EVDO": 7029,
  "\u2581Editing": 7030,
  "\u2581Ei": 7031,
  "\u2581Emma": 7032,
  "\u2581Ems": 7033,
  "\u2581Ezekias": 7034,
  "\u2581Fenym": 7035,
  "\u2581Fockl": 7036,
  "\u2581Font": 7037,
  "\u2581Foss": 7038,
  "\u2581Gab": 7039,
  "\u2581Gadarenes": 7040,
  "\u2581Gennesaret": 7041,
  "\u2581Ghennesaret": 7042,
  "\u2581Guest": 7043,
  "\u2581Hashoonee": 7044,
  "\u2581Hau": 7045,
  "\u2581Help": 7046,
  "\u2581Hem": 7047,
  "\u2581Herodianee": 7048,
  "\u2581Herodians": 7049,
  "\u2581Initial": 7050,
  "\u2581Jamendo": 7051,
  "\u2581Jeeaghyn": 7052,
  "\u2581Jiass": 7053,
  "\u2581Joatham": 7054,
  "\u2581Josaphat": 7055,
  "\u2581Josias": 7056,
  "\u2581Lam": 7057,
  "\u2581Lan": 7058,
  "\u2581Launch": 7059,
  "\u2581Lioar": 7060,
  "\u2581MSCHAP": 7061,
  "\u2581Manasses": 7062,
  "\u2581Nail": 7063,
  "\u2581Nearby": 7064,
  "\u2581Nephthalim": 7065,
  "\u2581Net": 7066,
  "\u2581Over": 7067,
  "\u2581Ozias": 7068,
  "\u2581Paper": 7069,
  "\u2581Preparation": 7070,
  "\u2581Provider": 7071,
  "\u2581Ratio": 7072,
  "\u2581Red": 7073,
  "\u2581Rejoice": 7074,
  "\u2581Rise": 7075,
  "\u2581Roboam": 7076,
  "\u2581Sal": 7077,
  "\u2581Selector": 7078,
  "\u2581Service": 7079,
  "\u2581Shal": 7080,
  "\u2581Shiaulley": 7081,
  "\u2581Should": 7082,
  "\u2581Shuffle": 7083,
  "\u2581Sid": 7084,
  "\u2581Sign": 7085,
  "\u2581Sion": 7086,
  "\u2581Soilsh": 7087,
  "\u2581Sports": 7088,
  "\u2581Status": 7089,
  "\u2581Str": 7090,
  "\u2581Taishbyn": 7091,
  "\u2581Terminal": 7092,
  "\u2581Tilg": 7093,
  "\u2581Tree": 7094,
  "\u2581Two": 7095,
  "\u2581UMTS": 7096,
  "\u2581UT": 7097,
  "\u2581Unico": 7098,
  "\u2581Well": 7099,
  "\u2581Width": 7100,
  "\u2581Writ": 7101,
  "\u2581YEESEY": 7102,
  "\u2581Ymmyde": 7103,
  "\u2581Ynnydagh": 7104,
  "\u2581Yuda": 7105,
  "\u2581Zabulon": 7106,
  "\u2581Zaccheus": 7107,
  "\u2581aag": 7108,
  "\u2581aalid": 7109,
  "\u2581abo": 7110,
  "\u2581adver": 7111,
  "\u2581aegid": 7112,
  "\u2581agglit": 7113,
  "\u2581alms": 7114,
  "\u2581alpha": 7115,
  "\u2581angaish": 7116,
  "\u2581anyway": 7117,
  "\u2581appoint": 7118,
  "\u2581arrest": 7119,
  "\u2581author": 7120,
  "\u2581automatic": 7121,
  "\u2581baagh": 7122,
  "\u2581baarit": 7123,
  "\u2581backwards": 7124,
  "\u2581bailt": 7125,
  "\u2581bannee": 7126,
  "\u2581bardoon": 7127,
  "\u2581barn": 7128,
  "\u2581barren": 7129,
  "\u2581barriaght": 7130,
  "\u2581bashtee": 7131,
  "\u2581basi": 7132,
  "\u2581beaten": 7133,
  "\u2581beayneeyn": 7134,
  "\u2581beccee": 7135,
  "\u2581beforehand": 7136,
  "\u2581beggey": 7137,
  "\u2581begun": 7138,
  "\u2581bioee": 7139,
  "\u2581bitter": 7140,
  "\u2581bless": 7141,
  "\u2581bodi": 7142,
  "\u2581boirey": 7143,
  "\u2581bone": 7144,
  "\u2581boo": 7145,
  "\u2581brah": 7146,
  "\u2581breearrey": 7147,
  "\u2581buildings": 7148,
  "\u2581burdens": 7149,
  "\u2581business": 7150,
  "\u2581bwilleen": 7151,
  "\u2581cad": 7152,
  "\u2581caggaghyn": 7153,
  "\u2581cair": 7154,
  "\u2581calf": 7155,
  "\u2581candle": 7156,
  "\u2581caret": 7157,
  "\u2581casherickey": 7158,
  "\u2581chairys": 7159,
  "\u2581changers": 7160,
  "\u2581chebbal": 7161,
  "\u2581cheeraghyn": 7162,
  "\u2581chenn": 7163,
  "\u2581chiangle": 7164,
  "\u2581chiartaghey": 7165,
  "\u2581chiass": 7166,
  "\u2581chlaare": 7167,
  "\u2581chooylloo": 7168,
  "\u2581chorneilagh": 7169,
  "\u2581chosn": 7170,
  "\u2581chraid": 7171,
  "\u2581chreeney": 7172,
  "\u2581chreg": 7173,
  "\u2581chronicles": 7174,
  "\u2581chruinn": 7175,
  "\u2581chummal": 7176,
  "\u2581cleanse": 7177,
  "\u2581cliant": 7178,
  "\u2581clienney": 7179,
  "\u2581coins": 7180,
  "\u2581cold": 7181,
  "\u2581completed": 7182,
  "\u2581cons": 7183,
  "\u2581contemp": 7184,
  "\u2581contrary": 7185,
  "\u2581control": 7186,
  "\u2581cooilleen": 7187,
  "\u2581cooinee": 7188,
  "\u2581coontit": 7189,
  "\u2581cooyrt": 7190,
  "\u2581craaghyn": 7191,
  "\u2581cragh": 7192,
  "\u2581cray": 7193,
  "\u2581creogh": 7194,
  "\u2581cronnal": 7195,
  "\u2581crows": 7196,
  "\u2581crumbs": 7197,
  "\u2581cubits": 7198,
  "\u2581cuirrey": 7199,
  "\u2581cuirtlagh": 7200,
  "\u2581cuirtliagh": 7201,
  "\u2581cure": 7202,
  "\u2581cyr": 7203,
  "\u2581daaue": 7204,
  "\u2581damnation": 7205,
  "\u2581danced": 7206,
  "\u2581dangerous": 7207,
  "\u2581dawn": 7208,
  "\u2581deal": 7209,
  "\u2581debtors": 7210,
  "\u2581depend": 7211,
  "\u2581dew": 7212,
  "\u2581dilg": 7213,
  "\u2581disp": 7214,
  "\u2581doaltattym": 7215,
  "\u2581dressed": 7216,
  "\u2581droggal": 7217,
  "\u2581drostey": 7218,
  "\u2581drunken": 7219,
  "\u2581eaishtagh": 7220,
  "\u2581earthquakes": 7221,
  "\u2581eddrym": 7222,
  "\u2581eig": 7223,
  "\u2581eighteen": 7224,
  "\u2581eirey": 7225,
  "\u2581eish": 7226,
  "\u2581ended": 7227,
  "\u2581enmysyn": 7228,
  "\u2581enneyn": 7229,
  "\u2581erniagh": 7230,
  "\u2581exalt": 7231,
  "\u2581expired": 7232,
  "\u2581extension": 7233,
  "\u2581faasaghyn": 7234,
  "\u2581faces": 7235,
  "\u2581failt": 7236,
  "\u2581faint": 7237,
  "\u2581famines": 7238,
  "\u2581fardalagh": 7239,
  "\u2581feasts": 7240,
  "\u2581feayn": 7241,
  "\u2581feayr": 7242,
  "\u2581feeyney": 7243,
  "\u2581feie": 7244,
  "\u2581fenee": 7245,
  "\u2581fetters": 7246,
  "\u2581figs": 7247,
  "\u2581firri": 7248,
  "\u2581firrin": 7249,
  "\u2581fishers": 7250,
  "\u2581fliaghey": 7251,
  "\u2581fools": 7252,
  "\u2581forgot": 7253,
  "\u2581forthwith": 7254,
  "\u2581fuirragh": 7255,
  "\u2581future": 7256,
  "\u2581gaill": 7257,
  "\u2581gearre": 7258,
  "\u2581geayrt": 7259,
  "\u2581gennaghyn": 7260,
  "\u2581gerjagh": 7261,
  "\u2581gerrit": 7262,
  "\u2581gheayrt": 7263,
  "\u2581ghell": 7264,
  "\u2581gherr": 7265,
  "\u2581ghia": 7266,
  "\u2581ghiall": 7267,
  "\u2581ghiastyllys": 7268,
  "\u2581ghourd": 7269,
  "\u2581ghri": 7270,
  "\u2581goanlys": 7271,
  "\u2581gosh": 7272,
  "\u2581goym": 7273,
  "\u2581green": 7274,
  "\u2581guail": 7275,
  "\u2581guests": 7276,
  "\u2581guide": 7277,
  "\u2581gynsagh": 7278,
  "\u2581hallooin": 7279,
  "\u2581hardened": 7280,
  "\u2581harrin": 7281,
  "\u2581harris": 7282,
  "\u2581hasht": 7283,
  "\u2581hateth": 7284,
  "\u2581heaghyn": 7285,
  "\u2581heese": 7286,
  "\u2581heid": 7287,
  "\u2581heir": 7288,
  "\u2581henceforth": 7289,
  "\u2581herb": 7290,
  "\u2581highways": 7291,
  "\u2581hinneen": 7292,
  "\u2581hiuish": 7293,
  "\u2581hole": 7294,
  "\u2581honey": 7295,
  "\u2581householder": 7296,
  "\u2581hurt": 7297,
  "\u2581husbands": 7298,
  "\u2581huyr": 7299,
  "\u2581hy": 7300,
  "\u2581hypocrisy": 7301,
  "\u2581incense": 7302,
  "\u2581indignant": 7303,
  "\u2581indignation": 7304,
  "\u2581injil": 7305,
  "\u2581instructed": 7306,
  "\u2581inward": 7307,
  "\u2581jaghee": 7308,
  "\u2581jeight": 7309,
  "\u2581jem": 7310,
  "\u2581jinnair": 7311,
  "\u2581joarreeyn": 7312,
  "\u2581jollyssagh": 7313,
  "\u2581keillit": 7314,
  "\u2581keshal": 7315,
  "\u2581keyrrey": 7316,
  "\u2581kiarthag": 7317,
  "\u2581laane": 7318,
  "\u2581laws": 7319,
  "\u2581leap": 7320,
  "\u2581learned": 7321,
  "\u2581legs": 7322,
  "\u2581lhagg": 7323,
  "\u2581lhe": 7324,
  "\u2581lheim": 7325,
  "\u2581lhian": 7326,
  "\u2581lhigge": 7327,
  "\u2581lhisin": 7328,
  "\u2581liorym": 7329,
  "\u2581losht": 7330,
  "\u2581louranee": 7331,
  "\u2581lust": 7332,
  "\u2581magheragh": 7333,
  "\u2581mainyn": 7334,
  "\u2581mak": 7335,
  "\u2581makes": 7336,
  "\u2581manifest": 7337,
  "\u2581manjoor": 7338,
  "\u2581marketplace": 7339,
  "\u2581marranys": 7340,
  "\u2581mas": 7341,
  "\u2581maxim": 7342,
  "\u2581member": 7343,
  "\u2581mesht": 7344,
  "\u2581midnight": 7345,
  "\u2581mioghey": 7346,
  "\u2581mioy": 7347,
  "\u2581molteyragh": 7348,
  "\u2581mooaral": 7349,
  "\u2581mooinjer": 7350,
  "\u2581moon": 7351,
  "\u2581moth": 7352,
  "\u2581mriwnys": 7353,
  "\u2581mull": 7354,
  "\u2581mynchoonteyn": 7355,
  "\u2581myster": 7356,
  "\u2581nailt": 7357,
  "\u2581needle": 7358,
  "\u2581nhi": 7359,
  "\u2581nieet": 7360,
  "\u2581nine": 7361,
  "\u2581nobleman": 7362,
  "\u2581nodd": 7363,
  "\u2581oanluckit": 7364,
  "\u2581ob": 7365,
  "\u2581obby": 7366,
  "\u2581occasion": 7367,
  "\u2581offering": 7368,
  "\u2581offspring": 7369,
  "\u2581oghe": 7370,
  "\u2581oieghyn": 7371,
  "\u2581oikanyn": 7372,
  "\u2581once": 7373,
  "\u2581osney": 7374,
  "\u2581ourallyn": 7375,
  "\u2581overthr": 7376,
  "\u2581paartail": 7377,
  "\u2581palm": 7378,
  "\u2581persecution": 7379,
  "\u2581persuaded": 7380,
  "\u2581phluckey": 7381,
  "\u2581photos": 7382,
  "\u2581phrice": 7383,
  "\u2581phunt": 7384,
  "\u2581pi": 7385,
  "\u2581player": 7386,
  "\u2581plea": 7387,
  "\u2581pleasure": 7388,
  "\u2581plooghit": 7389,
  "\u2581poosee": 7390,
  "\u2581pop": 7391,
  "\u2581pounds": 7392,
  "\u2581prais": 7393,
  "\u2581preserve": 7394,
  "\u2581preten": 7395,
  "\u2581previews": 7396,
  "\u2581quaiylyn": 7397,
  "\u2581questions": 7398,
  "\u2581quick": 7399,
  "\u2581ragh": 7400,
  "\u2581rd": 7401,
  "\u2581register": 7402,
  "\u2581renaig": 7403,
  "\u2581render": 7404,
  "\u2581repa": 7405,
  "\u2581reproach": 7406,
  "\u2581reverence": 7407,
  "\u2581ris": 7408,
  "\u2581rollageyn": 7409,
  "\u2581roof": 7410,
  "\u2581roonagh": 7411,
  "\u2581roosteyr": 7412,
  "\u2581rowl": 7413,
  "\u2581rub": 7414,
  "\u2581rug": 7415,
  "\u2581rule": 7416,
  "\u2581salutation": 7417,
  "\u2581sare": 7418,
  "\u2581scaa": 7419,
  "\u2581scannan": 7420,
  "\u2581scarrit": 7421,
  "\u2581sco": 7422,
  "\u2581scoltey": 7423,
  "\u2581scribe": 7424,
  "\u2581scrip": 7425,
  "\u2581scrude": 7426,
  "\u2581scrudeyr": 7427,
  "\u2581scughey": 7428,
  "\u2581scuit": 7429,
  "\u2581scuitchit": 7430,
  "\u2581secretly": 7431,
  "\u2581seeds": 7432,
  "\u2581seiy": 7433,
  "\u2581separately": 7434,
  "\u2581serves": 7435,
  "\u2581sexual": 7436,
  "\u2581shagh": 7437,
  "\u2581shamefully": 7438,
  "\u2581shamyrn": 7439,
  "\u2581shining": 7440,
  "\u2581shyrgaghey": 7441,
  "\u2581shyrgit": 7442,
  "\u2581single": 7443,
  "\u2581sink": 7444,
  "\u2581skins": 7445,
  "\u2581slie": 7446,
  "\u2581smaghtee": 7447,
  "\u2581soft": 7448,
  "\u2581spec": 7449,
  "\u2581sperriu": 7450,
  "\u2581spikenard": 7451,
  "\u2581stars": 7452,
  "\u2581stri": 7453,
  "\u2581strike": 7454,
  "\u2581strip": 7455,
  "\u2581stripes": 7456,
  "\u2581stuirre": 7457,
  "\u2581stumbling": 7458,
  "\u2581suck": 7459,
  "\u2581summ": 7460,
  "\u2581superscription": 7461,
  "\u2581taaghey": 7462,
  "\u2581taishb": 7463,
  "\u2581tallagh": 7464,
  "\u2581tashtee": 7465,
  "\u2581tender": 7466,
  "\u2581terrified": 7467,
  "\u2581testifies": 7468,
  "\u2581thammag": 7469,
  "\u2581thooillaghyn": 7470,
  "\u2581tidoor": 7471,
  "\u2581tithe": 7472,
  "\u2581toigg": 7473,
  "\u2581tooill": 7474,
  "\u2581tooilleil": 7475,
  "\u2581tool": 7476,
  "\u2581torn": 7477,
  "\u2581toshee": 7478,
  "\u2581tou": 7479,
  "\u2581traartys": 7480,
  "\u2581traie": 7481,
  "\u2581transgress": 7482,
  "\u2581treasures": 7483,
  "\u2581treated": 7484,
  "\u2581tullogh": 7485,
  "\u2581undo": 7486,
  "\u2581update": 7487,
  "\u2581utilit": 7488,
  "\u2581utter": 7489,
  "\u2581vaag": 7490,
  "\u2581vaase": 7491,
  "\u2581vayrey": 7492,
  "\u2581veeilley": 7493,
  "\u2581veeinaghey": 7494,
  "\u2581vehemently": 7495,
  "\u2581verchys": 7496,
  "\u2581violence": 7497,
  "\u2581voggey": 7498,
  "\u2581volg": 7499,
  "\u2581voteilyn": 7500,
  "\u2581vra": 7501,
  "\u2581vreag": 7502,
  "\u2581vrein": 7503,
  "\u2581vroo": 7504,
  "\u2581vrooill": 7505,
  "\u2581vuckyn": 7506,
  "\u2581vuildal": 7507,
  "\u2581wages": 7508,
  "\u2581washing": 7509,
  "\u2581waters": 7510,
  "\u2581wild": 7511,
  "\u2581wineskins": 7512,
  "\u2581winter": 7513,
  "\u2581wolves": 7514,
  "\u2581wonders": 7515,
  "\u2581yiarnyn": 7516,
  "\u2581yindyssyn": 7517,
  "\u2581yllagh": 7518,
  "\u2581younger": 7519,
  "\"%": 7520,
  "00%": 7521,
  ":0": 7522,
  "<": 7523,
  "Again": 7524,
  "An": 7525,
  "Barroose": 7526,
  "Cabdil": 7527,
  "Claa": 7528,
  "Co": 7529,
  "Control": 7530,
  "Cooish": 7531,
  "DHCP": 7532,
  "Deta": 7533,
  "Detect": 7534,
  "Di": 7535,
  "Did": 7536,
  "Disk": 7537,
  "Du": 7538,
  "Eeslynnish": 7539,
  "Emp": 7540,
  "Even": 7541,
  "Factory": 7542,
  "GL": 7543,
  "Group": 7544,
  "Hear": 7545,
  "Hono": 7546,
  "Icons": 7547,
  "Jalloyn": 7548,
  "Kiedyn": 7549,
  "Larger": 7550,
  "Load": 7551,
  "Low": 7552,
  "MD": 7553,
  "MacRoman": 7554,
  "Master": 7555,
  "Pattern": 7556,
  "Port": 7557,
  "Possa": 7558,
  "Power": 7559,
  "Reayrt": 7560,
  "Samble": 7561,
  "Screen": 7562,
  "Screenshot": 7563,
  "Shean": 7564,
  "Sheen": 7565,
  "Sk": 7566,
  "Sound": 7567,
  "Syn": 7568,
  "TC": 7569,
  "TP": 7570,
  "TRA": 7571,
  "Therefore": 7572,
  "To": 7573,
  "Tomorrow": 7574,
  "Toshiagh": 7575,
  "Tu": 7576,
  "Turkish": 7577,
  "User": 7578,
  "Wide": 7579,
  "aarle": 7580,
  "aashaght": 7581,
  "address": 7582,
  "aggy": 7583,
  "aghtagh": 7584,
  "ali": 7585,
  "ane": 7586,
  "any": 7587,
  "arl": 7588,
  "autilus": 7589,
  "au\u00e7hys": 7590,
  "ber": 7591,
  "bird": 7592,
  "body": 7593,
  "brisht": 7594,
  "broken": 7595,
  "bwoalley": 7596,
  "cate": 7597,
  "ccessibility": 7598,
  "chamber": 7599,
  "chaslys": 7600,
  "chur": 7601,
  "ckone": 7602,
  "cks": 7603,
  "crit": 7604,
  "ctual": 7605,
  "cu": 7606,
  "cut": 7607,
  "days": 7608,
  "dee": 7609,
  "delete": 7610,
  "dition": 7611,
  "dl": 7612,
  "doll": 7613,
  "doo": 7614,
  "dooblit": 7615,
  "double": 7616,
  "ean": 7617,
  "earro": 7618,
  "eau": 7619,
  "econ": 7620,
  "eggeyf": 7621,
  "egion": 7622,
  "eimeeaght": 7623,
  "emplate": 7624,
  "ened": 7625,
  "enmey": 7626,
  "erations": 7627,
  "ereo": 7628,
  "erge": 7629,
  "eria": 7630,
  "estination": 7631,
  "exist": 7632,
  "fast": 7633,
  "foashley": 7634,
  "foddey": 7635,
  "follaghey": 7636,
  "fore": 7637,
  "fruit": 7638,
  "fulness": 7639,
  "gging": 7640,
  "ghlass": 7641,
  "glas": 7642,
  "goll": 7643,
  "hean": 7644,
  "heead": 7645,
  "height": 7646,
  "heim": 7647,
  "hout": 7648,
  "iag": 7649,
  "ille": 7650,
  "ilshaghey": 7651,
  "ine": 7652,
  "ingle": 7653,
  "install": 7654,
  "invalid": 7655,
  "ious": 7656,
  "ioyri": 7657,
  "ise": 7658,
  "ist": 7659,
  "ites": 7660,
  "ittle": 7661,
  "jalloofastee": 7662,
  "je": 7663,
  "jure": 7664,
  "key": 7665,
  "kiedyn": 7666,
  "ks": 7667,
  "laadeyder": 7668,
  "last": 7669,
  "layback": 7670,
  "lect": 7671,
  "lici": 7672,
  "lish": 7673,
  "lit": 7674,
  "load": 7675,
  "loo": 7676,
  "low": 7677,
  "lrey": 7678,
  "mir": 7679,
  "mmykey": 7680,
  "mo": 7681,
  "modified": 7682,
  "mpathy": 7683,
  "nclud": 7684,
  "ney": 7685,
  "ngine": 7686,
  "nheeghyn": 7687,
  "nick": 7688,
  "nly": 7689,
  "nput": 7690,
  "ntage": 7691,
  "ntains": 7692,
  "number": 7693,
  "nvert": 7694,
  "obbree": 7695,
  "oilagh": 7696,
  "oill": 7697,
  "oint": 7698,
  "old": 7699,
  "ollag": 7700,
  "olor": 7701,
  "onour": 7702,
  "onsole": 7703,
  "ontribut": 7704,
  "ontributors": 7705,
  "opics": 7706,
  "osition": 7707,
  "ouyl": 7708,
  "owag": 7709,
  "owner": 7710,
  "place": 7711,
  "power": 7712,
  "ppeeid": 7713,
  "ppointments": 7714,
  "project": 7715,
  "raille": 7716,
  "rand": 7717,
  "rane": 7718,
  "rattagh": 7719,
  "reay": 7720,
  "reayrt": 7721,
  "relat": 7722,
  "reo": 7723,
  "ress": 7724,
  "retoor": 7725,
  "ric": 7726,
  "ried": 7727,
  "ries": 7728,
  "ritical": 7729,
  "riticoil": 7730,
  "rogh": 7731,
  "ronney": 7732,
  "rough": 7733,
  "rut": 7734,
  "rymyn": 7735,
  "sS": 7736,
  "sam": 7737,
  "scending": 7738,
  "sheyder": 7739,
  "shirrey": 7740,
  "sor": 7741,
  "spend": 7742,
  "ssan": 7743,
  "supported": 7744,
  "system": 7745,
  "tems": 7746,
  "teragh": 7747,
  "thumbnails": 7748,
  "tiurey": 7749,
  "tle": 7750,
  "trap": 7751,
  "txt": 7752,
  "tylesheet": 7753,
  "uff": 7754,
  "une": 7755,
  "uni": 7756,
  "unity": 7757,
  "utput": 7758,
  "vious": 7759,
  "vision": 7760,
  "vullagh": 7761,
  "wallow": 7762,
  "weak": 7763,
  "wide": 7764,
  "woaie": 7765,
  "write": 7766,
  "written": 7767,
  "xcellent": 7768,
  "ying": 7769,
  "yngreie": 7770,
  "ype": 7771,
  "ywhere": 7772,
  "zar": 7773,
  "zoom": 7774,
  "\u00e7hellooishagh": 7775,
  "\u00e7heu": 7776,
  "\u25811.": 7777,
  "\u25812006": 7778,
  "\u2581AC": 7779,
  "\u2581Advanced": 7780,
  "\u2581Avatar": 7781,
  "\u2581Away": 7782,
  "\u2581Bit": 7783,
  "\u2581Boo": 7784,
  "\u2581Brishtag": 7785,
  "\u2581Certificates": 7786,
  "\u2581Chag": 7787,
  "\u2581Cle": 7788,
  "\u2581Client": 7789,
  "\u2581Connections": 7790,
  "\u2581Cooinee": 7791,
  "\u2581Cooishyn": 7792,
  "\u2581Cooy": 7793,
  "\u2581Country": 7794,
  "\u2581Disconnected": 7795,
  "\u2581Edu": 7796,
  "\u2581Eng": 7797,
  "\u2581Enmy": 7798,
  "\u2581FTP": 7799,
  "\u2581Fingerprint": 7800,
  "\u2581Folders": 7801,
  "\u2581Fuirraght": 7802,
  "\u2581GS": 7803,
  "\u2581Greie": 7804,
  "\u2581Indi": 7805,
  "\u2581Javascript": 7806,
  "\u2581Keim": 7807,
  "\u2581Key": 7808,
  "\u2581Kionaghey": 7809,
  "\u2581Know": 7810,
  "\u2581Li": 7811,
  "\u2581Lin": 7812,
  "\u2581Mair": 7813,
  "\u2581Mairlaf": 7814,
  "\u2581Men": 7815,
  "\u2581Messages": 7816,
  "\u2581Mon": 7817,
  "\u2581Multimedia": 7818,
  "\u2581Noah": 7819,
  "\u2581PU": 7820,
  "\u2581PUK": 7821,
  "\u2581Pha": 7822,
  "\u2581Protocol": 7823,
  "\u2581Ra": 7824,
  "\u2581Remain": 7825,
  "\u2581Ridge": 7826,
  "\u2581Sem": 7827,
  "\u2581Setup": 7828,
  "\u2581Shamyr": 7829,
  "\u2581Shou": 7830,
  "\u2581Sit": 7831,
  "\u2581Sp": 7832,
  "\u2581Teishtyn": 7833,
  "\u2581Temp": 7834,
  "\u2581UN": 7835,
  "\u2581Ur": 7836,
  "\u2581West": 7837,
  "\u2581Whi": 7838,
  "\u2581Yah": 7839,
  "\u2581Ymmydeyr": 7840,
  "\u2581Zacchaeus": 7841,
  "\u2581_2": 7842,
  "\u2581aashagh": 7843,
  "\u2581accom": 7844,
  "\u2581accomplish": 7845,
  "\u2581affliction": 7846,
  "\u2581ahead": 7847,
  "\u2581alter": 7848,
  "\u2581awake": 7849,
  "\u2581awoke": 7850,
  "\u2581ayms": 7851,
  "\u2581ba": 7852,
  "\u2581bank": 7853,
  "\u2581beggar": 7854,
  "\u2581behave": 7855,
  "\u2581beholding": 7856,
  "\u2581bin": 7857,
  "\u2581birthdays": 7858,
  "\u2581blew": 7859,
  "\u2581blue": 7860,
  "\u2581bondservant": 7861,
  "\u2581bras": 7862,
  "\u2581bride": 7863,
  "\u2581broad": 7864,
  "\u2581buirdclaa": 7865,
  "\u2581burden": 7866,
  "\u2581burning": 7867,
  "\u2581burst": 7868,
  "\u2581busy": 7869,
  "\u2581canceled": 7870,
  "\u2581captains": 7871,
  "\u2581cau": 7872,
  "\u2581chang": 7873,
  "\u2581checksum": 7874,
  "\u2581chor": 7875,
  "\u2581chreo": 7876,
  "\u2581circumcis": 7877,
  "\u2581circumcision": 7878,
  "\u2581clay": 7879,
  "\u2581client": 7880,
  "\u2581clos": 7881,
  "\u2581clubs": 7882,
  "\u2581codes": 7883,
  "\u2581coipit": 7884,
  "\u2581coloayrtysyn": 7885,
  "\u2581comfort": 7886,
  "\u2581common": 7887,
  "\u2581compass": 7888,
  "\u2581compute": 7889,
  "\u2581conflict": 7890,
  "\u2581consume": 7891,
  "\u2581controll": 7892,
  "\u2581coorse": 7893,
  "\u2581correctly": 7894,
  "\u2581crammany": 7895,
  "\u2581crampy": 7896,
  "\u2581creation": 7897,
  "\u2581crowed": 7898,
  "\u2581cumi": 7899,
  "\u2581cursed": 7900,
  "\u2581decreed": 7901,
  "\u2581depth": 7902,
  "\u2581descri": 7903,
  "\u2581direct": 7904,
  "\u2581dishon": 7905,
  "\u2581disobey": 7906,
  "\u2581displeased": 7907,
  "\u2581distance": 7908,
  "\u2581drunk": 7909,
  "\u2581earnestly": 7910,
  "\u2581editing": 7911,
  "\u2581editor": 7912,
  "\u2581enters": 7913,
  "\u2581everywhere": 7914,
  "\u2581exchange": 7915,
  "\u2581expect": 7916,
  "\u2581exten": 7917,
  "\u2581extortion": 7918,
  "\u2581fainted": 7919,
  "\u2581fearful": 7920,
  "\u2581feysht": 7921,
  "\u2581fierce": 7922,
  "\u2581fixed": 7923,
  "\u2581fl": 7924,
  "\u2581forbad": 7925,
  "\u2581fornication": 7926,
  "\u2581foshl": 7927,
  "\u2581fox": 7928,
  "\u2581freggyrt": 7929,
  "\u2581fringe": 7930,
  "\u2581furnished": 7931,
  "\u2581gai": 7932,
  "\u2581gener": 7933,
  "\u2581gir": 7934,
  "\u2581gird": 7935,
  "\u2581gladly": 7936,
  "\u2581gourd": 7937,
  "\u2581grab": 7938,
  "\u2581grave": 7939,
  "\u2581graves": 7940,
  "\u2581gues": 7941,
  "\u2581guides": 7942,
  "\u2581hedge": 7943,
  "\u2581heu": 7944,
  "\u2581horizontal": 7945,
  "\u2581horseback": 7946,
  "\u2581hundredfold": 7947,
  "\u2581hypocrite": 7948,
  "\u2581identifier": 7949,
  "\u2581indicat": 7950,
  "\u2581infirmity": 7951,
  "\u2581initialize": 7952,
  "\u2581insult": 7953,
  "\u2581insurrection": 7954,
  "\u2581interpret": 7955,
  "\u2581jah": 7956,
  "\u2581keim": 7957,
  "\u2581keimmeiagh": 7958,
  "\u2581kiaull": 7959,
  "\u2581kindness": 7960,
  "\u2581knock": 7961,
  "\u2581knowledge": 7962,
  "\u2581labour": 7963,
  "\u2581lament": 7964,
  "\u2581lean": 7965,
  "\u2581lhi": 7966,
  "\u2581loayre": 7967,
  "\u2581logs": 7968,
  "\u2581magnifier": 7969,
  "\u2581memor": 7970,
  "\u2581method": 7971,
  "\u2581middle": 7972,
  "\u2581migrator": 7973,
  "\u2581mina": 7974,
  "\u2581minim": 7975,
  "\u2581mix": 7976,
  "\u2581modteks": 7977,
  "\u2581mud": 7978,
  "\u2581mul": 7979,
  "\u2581music": 7980,
  "\u2581nam": 7981,
  "\u2581nane": 7982,
  "\u2581neighbors": 7983,
  "\u2581neighbours": 7984,
  "\u2581nobles": 7985,
  "\u2581occur": 7986,
  "\u2581omm": 7987,
  "\u2581online": 7988,
  "\u2581ord": 7989,
  "\u2581ourselves": 7990,
  "\u2581outward": 7991,
  "\u2581overcome": 7992,
  "\u2581paitchyn": 7993,
  "\u2581paralyzed": 7994,
  "\u2581partic": 7995,
  "\u2581pence": 7996,
  "\u2581perce": 7997,
  "\u2581pin": 7998,
  "\u2581plagues": 7999,
  "\u2581pret": 8000,
  "\u2581protocol": 8001,
  "\u2581public": 8002,
  "\u2581purifying": 8003,
  "\u2581quiet": 8004,
  "\u2581rate": 8005,
  "\u2581raven": 8006,
  "\u2581reclin": 8007,
  "\u2581reconcile": 8008,
  "\u2581recortys": 8009,
  "\u2581reihghit": 8010,
  "\u2581resort": 8011,
  "\u2581safe": 8012,
  "\u2581salted": 8013,
  "\u2581sandals": 8014,
  "\u2581scorn": 8015,
  "\u2581serpent": 8016,
  "\u2581sessions": 8017,
  "\u2581sha": 8018,
  "\u2581shamyryn": 8019,
  "\u2581sheeynt": 8020,
  "\u2581ships": 8021,
  "\u2581shore": 8022,
  "\u2581skull": 8023,
  "\u2581sm": 8024,
  "\u2581smooth": 8025,
  "\u2581sni": 8026,
  "\u2581sniaghtey": 8027,
  "\u2581sower": 8028,
  "\u2581soyl": 8029,
  "\u2581spat": 8030,
  "\u2581specifi": 8031,
  "\u2581spr": 8032,
  "\u2581stature": 8033,
  "\u2581steppe": 8034,
  "\u2581stirre": 8035,
  "\u2581stroit": 8036,
  "\u2581tablet": 8037,
  "\u2581tarroogh": 8038,
  "\u2581tendeilagh": 8039,
  "\u2581thrones": 8040,
  "\u2581throng": 8041,
  "\u2581toil": 8042,
  "\u2581towel": 8043,
  "\u2581trample": 8044,
  "\u2581travel": 8045,
  "\u2581trembling": 8046,
  "\u2581tribulation": 8047,
  "\u2581troggeyder": 8048,
  "\u2581ull": 8049,
  "\u2581unquenchable": 8050,
  "\u2581unrighteous": 8051,
  "\u2581urge": 8052,
  "\u2581wailing": 8053,
  "\u2581wallet": 8054,
  "\u2581waste": 8055,
  "\u2581wi": 8056,
  "\u2581wives": 8057,
  "\u2581wonder": 8058,
  "\u2581wouldest": 8059,
  "\u2581wroth": 8060,
  "\u2581ymmyrk": 8061,
  "\u2581\u00e7hee": 8062,
  "%02": 8063,
  "-1250": 8064,
  "-8859-3": 8065,
  "/+": 8066,
  "/~": 8067,
  "0/": 8068,
  "11:": 8069,
  "1:1": 8070,
  "2.0": 8071,
  "256": 8072,
  "27": 8073,
  "28": 8074,
  "33": 8075,
  "4:": 8076,
  "55": 8077,
  "AC": 8078,
  "Agh": 8079,
  "Allow": 8080,
  "Applications": 8081,
  "Arabic": 8082,
  "Arabish": 8083,
  "Audio": 8084,
  "Brother": 8085,
  "Browse": 8086,
  "Ca": 8087,
  "Call": 8088,
  "Che": 8089,
  "Chell": 8090,
  "Connected": 8091,
  "Crucify": 8092,
  "Daughter": 8093,
  "Dhullag": 8094,
  "Dooiney": 8095,
  "Down": 8096,
  "EDGE": 8097,
  "Enmy": 8098,
  "Every": 8099,
  "Faaue": 8100,
  "Fastee": 8101,
  "Field": 8102,
  "First": 8103,
  "Font": 8104,
  "Fr": 8105,
  "Fre": 8106,
  "GSM": 8107,
  "HA": 8108,
  "HAN": 8109,
  "HCP": 8110,
  "HSPA": 8111,
  "Hid": 8112,
  "His": 8113,
  "Hosanna": 8114,
  "Import": 8115,
  "Keimmeiaght": 8116,
  "List": 8117,
  "MPPE": 8118,
  "Menus": 8119,
  "Mi": 8120,
  "Nish": 8121,
  "None": 8122,
  "OM": 8123,
  "Only": 8124,
  "Pannyl": 8125,
  "Pluginyn": 8126,
  "Q": 8127,
  "Rejoice": 8128,
  "SABAC": 8129,
  "SSL": 8130,
  "Send": 8131,
  "Seose": 8132,
  "Settings": 8133,
  "Shoh": 8134,
  "Sit": 8135,
  "TSP": 8136,
  "Ta": 8137,
  "These": 8138,
  "UMTS": 8139,
  "Unmo": 8140,
  "Va": 8141,
  "Vi": 8142,
  "Visual": 8143,
  "Well": 8144,
  "Were": 8145,
  "Wi": 8146,
  "Wind": 8147,
  "Yeesey": 8148,
  "ab": 8149,
  "ace": 8150,
  "aea": 8151,
  "aghid": 8152,
  "agnifier": 8153,
  "ail": 8154,
  "ailjey": 8155,
  "ailley": 8156,
  "ailliu": 8157,
  "alendar": 8158,
  "alms": 8159,
  "ample": 8160,
  "ander": 8161,
  "anglane": 8162,
  "anguage": 8163,
  "ani": 8164,
  "animation": 8165,
  "anufacturer": 8166,
  "aper": 8167,
  "appe": 8168,
  "appeeyn": 8169,
  "arm": 8170,
  "arragh": 8171,
  "arrane": 8172,
  "arree": 8173,
  "arrood": 8174,
  "arrow": 8175,
  "arrymagh": 8176,
  "artha": 8177,
  "asherick": 8178,
  "assa": 8179,
  "assyn": 8180,
  "astagh": 8181,
  "atchet": 8182,
  "ately": 8183,
  "ative": 8184,
  "atus": 8185,
  "auto": 8186,
  "avement": 8187,
  "axe": 8188,
  "bble": 8189,
  "bed": 8190,
  "ben": 8191,
  "beth": 8192,
  "boght": 8193,
  "born": 8194,
  "chairys": 8195,
  "char": 8196,
  "chlagh": 8197,
  "choon": 8198,
  "cle": 8199,
  "coadan": 8200,
  "command": 8201,
  "cooiney": 8202,
  "coyrlee": 8203,
  "craa": 8204,
  "crauee": 8205,
  "dden": 8206,
  "ddress": 8207,
  "deyryn": 8208,
  "dil": 8209,
  "dit": 8210,
  "djin": 8211,
  "doogh": 8212,
  "dooyrt": 8213,
  "down": 8214,
  "drawer": 8215,
  "dty": 8216,
  "dyt": 8217,
  "eayltyn": 8218,
  "eayst": 8219,
  "eddrym": 8220,
  "eead": 8221,
  "eeaght": 8222,
  "eeaghyn": 8223,
  "eeyllagh": 8224,
  "eggan": 8225,
  "egin": 8226,
  "eigh": 8227,
  "eighbour": 8228,
  "eisht": 8229,
  "elley": 8230,
  "elo": 8231,
  "ement": 8232,
  "ena": 8233,
  "eople": 8234,
  "era": 8235,
  "errey": 8236,
  "errinagh": 8237,
  "ersooyl": 8238,
  "espo": 8239,
  "essey": 8240,
  "ethsaida": 8241,
  "eysht": 8242,
  "faase": 8243,
  "feer": 8244,
  "fine": 8245,
  "fockl": 8246,
  "folder": 8247,
  "fts": 8248,
  "gain": 8249,
  "geay": 8250,
  "geometry": 8251,
  "gey": 8252,
  "ggey": 8253,
  "ghloyr": 8254,
  "ginaghey": 8255,
  "gnome": 8256,
  "greie": 8257,
  "gys": 8258,
  "hail": 8259,
  "hamraig": 8260,
  "hardware": 8261,
  "harrish": 8262,
  "harroogh": 8263,
  "henney": 8264,
  "heose": 8265,
  "hiamble": 8266,
  "hibber": 8267,
  "hidden": 8268,
  "hoilshagh": 8269,
  "hose": 8270,
  "hrauee": 8271,
  "hrimshey": 8272,
  "hymsee": 8273,
  "iarey": 8274,
  "ibber": 8275,
  "idd": 8276,
  "ided": 8277,
  "ien": 8278,
  "iennaghtyn": 8279,
  "ientyn": 8280,
  "ilee": 8281,
  "iljyn": 8282,
  "illed": 8283,
  "illyn": 8284,
  "image": 8285,
  "imeus": 8286,
  "imezone": 8287,
  "imneagh": 8288,
  "imple": 8289,
  "ince": 8290,
  "inimized": 8291,
  "irrey": 8292,
  "ither": 8293,
  "iuish": 8294,
  "ived": 8295,
  "iyn": 8296,
  "iyr": 8297,
  "jabber": 8298,
  "jeeaney": 8299,
  "keim": 8300,
  "kmark": 8301,
  "laare": 8302,
  "laghey": 8303,
  "lal": 8304,
  "late": 8305,
  "lay": 8306,
  "lean": 8307,
  "leep": 8308,
  "lheead": 8309,
  "lhiam": 8310,
  "lhieu": 8311,
  "lhuingey": 8312,
  "lieh": 8313,
  "lioa": 8314,
  "liveyn": 8315,
  "llit": 8316,
  "loag": 8317,
  "lot": 8318,
  "lyssagh": 8319,
  "manu": 8320,
  "mar": 8321,
  "margee": 8322,
  "medium": 8323,
  "mes": 8324,
  "meth": 8325,
  "mn": 8326,
  "moal": 8327,
  "mod": 8328,
  "mount": 8329,
  "moyllee": 8330,
  "mport": 8331,
  "msg": 8332,
  "mysailltch": 8333,
  "nacle": 8334,
  "naghey": 8335,
  "nan": 8336,
  "nch": 8337,
  "nding": 8338,
  "neath": 8339,
  "nine": 8340,
  "nsert": 8341,
  "ntran": 8342,
  "nva": 8343,
  "obb": 8344,
  "obberan": 8345,
  "ochiangley": 8346,
  "ocket": 8347,
  "od": 8348,
  "oghe": 8349,
  "oillee": 8350,
  "olk": 8351,
  "oltaghey": 8352,
  "oltooan": 8353,
  "omanian": 8354,
  "ons": 8355,
  "onti": 8356,
  "ooat": 8357,
  "ooghyssagh": 8358,
  "ooilley": 8359,
  "oomainagh": 8360,
  "opa": 8361,
  "oph": 8362,
  "opi": 8363,
  "orchaghey": 8364,
  "orroo": 8365,
  "ott": 8366,
  "parail": 8367,
  "phoosee": 8368,
  "pia": 8369,
  "pic": 8370,
  "piece": 8371,
  "pping": 8372,
  "pression": 8373,
  "protect": 8374,
  "pun": 8375,
  "pyn": 8376,
  "quare": 8377,
  "raa": 8378,
  "raghtyn": 8379,
  "rah": 8380,
  "rail": 8381,
  "ranlaase": 8382,
  "ransmission": 8383,
  "rate": 8384,
  "rea": 8385,
  "reafter": 8386,
  "reek": 8387,
  "references": 8388,
  "reisht": 8389,
  "rgher": 8390,
  "rh": 8391,
  "rilleen": 8392,
  "rinceyn": 8393,
  "rivate": 8394,
  "rmal": 8395,
  "rolling": 8396,
  "ron": 8397,
  "ronnaghey": 8398,
  "roperties": 8399,
  "roprietary": 8400,
  "rossey": 8401,
  "rostey": 8402,
  "rowed": 8403,
  "rragh": 8404,
  "rrit": 8405,
  "rror": 8406,
  "rushed": 8407,
  "rusted": 8408,
  "sagg": 8409,
  "scarre": 8410,
  "scended": 8411,
  "sche": 8412,
  "separator": 8413,
  "serif": 8414,
  "shaghryn": 8415,
  "shen": 8416,
  "shinney": 8417,
  "sias": 8418,
  "single": 8419,
  "sleih": 8420,
  "small": 8421,
  "som": 8422,
  "stri": 8423,
  "strip": 8424,
  "sycam": 8425,
  "tai": 8426,
  "tching": 8427,
  "te": 8428,
  "teenyn": 8429,
  "temperature": 8430,
  "thallooin": 8431,
  "the": 8432,
  "thi": 8433,
  "thio": 8434,
  "this": 8435,
  "thr": 8436,
  "through": 8437,
  "tien": 8438,
  "times": 8439,
  "tiu": 8440,
  "traa": 8441,
  "tter": 8442,
  "tuill": 8443,
  "ublicanee": 8444,
  "uirtlagh": 8445,
  "ullagh": 8446,
  "ume": 8447,
  "umir": 8448,
  "ummagh": 8449,
  "und": 8450,
  "undeil": 8451,
  "uri": 8452,
  "urt": 8453,
  "user": 8454,
  "ushtal": 8455,
  "vaghee": 8456,
  "vannit": 8457,
  "vark": 8458,
  "veeanagh": 8459,
  "veeish": 8460,
  "veryone": 8461,
  "vess": 8462,
  "viall": 8463,
  "villey": 8464,
  "vooie": 8465,
  "woaill": 8466,
  "wooiagh": 8467,
  "ws": 8468,
  "wyllin": 8469,
  "yei": 8470,
  "yindys": 8471,
  "ymmoose": 8472,
  "ymmyrk": 8473,
  "ynrick": 8474,
  "ynsit": 8475,
  "yrit": 8476,
  "yrjey": 8477,
  "yrt": 8478,
  "yrtys": 8479,
  "ysseree": 8480,
  "\u01f9": 8481,
  "\u2022": 8482,
  "\u258100:": 8483,
  "\u258113:00": 8484,
  "\u258118": 8485,
  "\u2581802.1": 8486,
  "\u2581Abihail": 8487,
  "\u2581Asa": 8488,
  "\u2581Auto": 8489,
  "\u2581Autoload": 8490,
  "\u2581Available": 8491,
  "\u2581Bal": 8492,
  "\u2581Bigtha": 8493,
  "\u2581Biori": 8494,
  "\u2581Bl": 8495,
  "\u2581Car": 8496,
  "\u2581Checking": 8497,
  "\u2581Children": 8498,
  "\u2581Cho": 8499,
  "\u2581Com": 8500,
  "\u2581Comforter": 8501,
  "\u2581Comm": 8502,
  "\u2581Comp": 8503,
  "\u2581Connecting": 8504,
  "\u2581Counselor": 8505,
  "\u2581Daag": 8506,
  "\u2581Daughter": 8507,
  "\u2581Dellal": 8508,
  "\u2581Downloading": 8509,
  "\u2581EAP": 8510,
  "\u2581EL": 8511,
  "\u2581Eleazar": 8512,
  "\u2581Eliazar": 8513,
  "\u2581Emblems": 8514,
  "\u2581Eph": 8515,
  "\u2581Fee": 8516,
  "\u2581Feesh": 8517,
  "\u2581Foashl": 8518,
  "\u2581Frames": 8519,
  "\u2581Framey": 8520,
  "\u2581Fu": 8521,
  "\u2581GPRS": 8522,
  "\u2581Gabriel": 8523,
  "\u2581Gadarenee": 8524,
  "\u2581Galilaeans": 8525,
  "\u2581Galileans": 8526,
  "\u2581Ghreek": 8527,
  "\u2581Gomorr": 8528,
  "\u2581Gomorrah": 8529,
  "\u2581Greeks": 8530,
  "\u2581Gro": 8531,
  "\u2581HSDPA": 8532,
  "\u2581HSPA": 8533,
  "\u2581Hades": 8534,
  "\u2581Harbo": 8535,
  "\u2581Harbona": 8536,
  "\u2581Hathach": 8537,
  "\u2581Her": 8538,
  "\u2581Highest": 8539,
  "\u2581IRC": 8540,
  "\u2581IS": 8541,
  "\u2581Ignored": 8542,
  "\u2581Iu": 8543,
  "\u2581Ja": 8544,
  "\u2581Jairus": 8545,
  "\u2581Jec": 8546,
  "\u2581Jechonia": 8547,
  "\u2581Jeeghyn": 8548,
  "\u2581Jiarn": 8549,
  "\u2581Jo": 8550,
  "\u2581Jor": 8551,
  "\u2581Jose": 8552,
  "\u2581Kione": 8553,
  "\u2581LAMA": 8554,
  "\u2581Level": 8555,
  "\u2581Levite": 8556,
  "\u2581Leyi": 8557,
  "\u2581Light": 8558,
  "\u2581Lior": 8559,
  "\u2581Max": 8560,
  "\u2581Med": 8561,
  "\u2581Merg": 8562,
  "\u2581Mes": 8563,
  "\u2581Minim": 8564,
  "\u2581Naason": 8565,
  "\u2581Nathan": 8566,
  "\u2581Netbook": 8567,
  "\u2581Niar": 8568,
  "\u2581Ninev": 8569,
  "\u2581Notey": 8570,
  "\u2581Nothing": 8571,
  "\u2581OC": 8572,
  "\u2581Obbr": 8573,
  "\u2581Object": 8574,
  "\u2581Organization": 8575,
  "\u2581PPP": 8576,
  "\u2581Path": 8577,
  "\u2581Pattern": 8578,
  "\u2581Phale": 8579,
  "\u2581Pheddyr": 8580,
  "\u2581Pon": 8581,
  "\u2581Pop": 8582,
  "\u2581Por": 8583,
  "\u2581Present": 8584,
  "\u2581Reagheydys": 8585,
  "\u2581Renam": 8586,
  "\u2581Res": 8587,
  "\u2581Restor": 8588,
  "\u2581Review": 8589,
  "\u2581Rhenk": 8590,
  "\u2581SS": 8591,
  "\u2581SSL": 8592,
  "\u2581Saualtagh": 8593,
  "\u2581Sauchey": 8594,
  "\u2581Scan": 8595,
  "\u2581Scrudeyryn": 8596,
  "\u2581Security": 8597,
  "\u2581Setting": 8598,
  "\u2581Sha": 8599,
  "\u2581Shi": 8600,
  "\u2581Shiaght": 8601,
  "\u2581Shiu": 8602,
  "\u2581Shuff": 8603,
  "\u2581Smoodeyder": 8604,
  "\u2581Soils": 8605,
  "\u2581Teresh": 8606,
  "\u2581Thaddaeus": 8607,
  "\u2581Thaddeus": 8608,
  "\u2581Thie": 8609,
  "\u2581Think": 8610,
  "\u2581Tiberi": 8611,
  "\u2581Toolbars": 8612,
  "\u2581Troa": 8613,
  "\u2581Troggeyder": 8614,
  "\u2581Tru": 8615,
  "\u2581Turn": 8616,
  "\u2581Vide": 8617,
  "\u2581Visi": 8618,
  "\u2581[<": 8619,
  "\u2581ab": 8620,
  "\u2581ability": 8621,
  "\u2581abundant": 8622,
  "\u2581act": 8623,
  "\u2581adversar": 8624,
  "\u2581afterwards": 8625,
  "\u2581ammyrghyn": 8626,
  "\u2581anew": 8627,
  "\u2581anguish": 8628,
  "\u2581animal": 8629,
  "\u2581appli": 8630,
  "\u2581arg": 8631,
  "\u2581arr": 8632,
  "\u2581ashoonyn": 8633,
  "\u2581assdoo": 8634,
  "\u2581assembly": 8635,
  "\u2581asunder": 8636,
  "\u2581attend": 8637,
  "\u2581baat": 8638,
  "\u2581babe": 8639,
  "\u2581babes": 8640,
  "\u2581bacc": 8641,
  "\u2581bag": 8642,
  "\u2581balchey": 8643,
  "\u2581band": 8644,
  "\u2581bannagh": 8645,
  "\u2581banne": 8646,
  "\u2581bannish": 8647,
  "\u2581barns": 8648,
  "\u2581bass": 8649,
  "\u2581beast": 8650,
  "\u2581beaynee": 8651,
  "\u2581beccah": 8652,
  "\u2581begging": 8653,
  "\u2581berch": 8654,
  "\u2581bestow": 8655,
  "\u2581bioghey": 8656,
  "\u2581birthday": 8657,
  "\u2581black": 8658,
  "\u2581blade": 8659,
  "\u2581bo": 8660,
  "\u2581boght": 8661,
  "\u2581boir": 8662,
  "\u2581bow": 8663,
  "\u2581brea": 8664,
  "\u2581breagagh": 8665,
  "\u2581breasts": 8666,
  "\u2581breeoil": 8667,
  "\u2581bright": 8668,
  "\u2581brish": 8669,
  "\u2581buried": 8670,
  "\u2581bwoirrynagh": 8671,
  "\u2581camelyn": 8672,
  "\u2581candlestick": 8673,
  "\u2581cappanyn": 8674,
  "\u2581carpenter": 8675,
  "\u2581category": 8676,
  "\u2581cattle": 8677,
  "\u2581celebrate": 8678,
  "\u2581chagg": 8679,
  "\u2581chailjey": 8680,
  "\u2581chairal": 8681,
  "\u2581chalmane": 8682,
  "\u2581cham": 8683,
  "\u2581chappan": 8684,
  "\u2581charger": 8685,
  "\u2581chasherick": 8686,
  "\u2581chebb": 8687,
  "\u2581cheek": 8688,
  "\u2581cheil": 8689,
  "\u2581childless": 8690,
  "\u2581chion": 8691,
  "\u2581chlea": 8692,
  "\u2581chloagey": 8693,
  "\u2581choamre": 8694,
  "\u2581choard": 8695,
  "\u2581choke": 8696,
  "\u2581chood": 8697,
  "\u2581choural": 8698,
  "\u2581chray": 8699,
  "\u2581chreenagh": 8700,
  "\u2581chreogh": 8701,
  "\u2581chroghey": 8702,
  "\u2581chronnaghey": 8703,
  "\u2581chum": 8704,
  "\u2581chymmylt": 8705,
  "\u2581chynda": 8706,
  "\u2581citizen": 8707,
  "\u2581claghey": 8708,
  "\u2581cleansing": 8709,
  "\u2581cleays": 8710,
  "\u2581cloaie": 8711,
  "\u2581cloths": 8712,
  "\u2581coadynyn": 8713,
  "\u2581coals": 8714,
  "\u2581coi": 8715,
  "\u2581coin": 8716,
  "\u2581collect": 8717,
  "\u2581com": 8718,
  "\u2581compar": 8719,
  "\u2581consolation": 8720,
  "\u2581continual": 8721,
  "\u2581convenient": 8722,
  "\u2581convict": 8723,
  "\u2581convuls": 8724,
  "\u2581cooin": 8725,
  "\u2581coonceilyn": 8726,
  "\u2581cords": 8727,
  "\u2581cost": 8728,
  "\u2581costal": 8729,
  "\u2581councils": 8730,
  "\u2581courier": 8731,
  "\u2581cover": 8732,
  "\u2581craid": 8733,
  "\u2581craue": 8734,
  "\u2581crayee": 8735,
  "\u2581creature": 8736,
  "\u2581credit": 8737,
  "\u2581credjuagh": 8738,
  "\u2581creen": 8739,
  "\u2581crie": 8740,
  "\u2581cronkal": 8741,
  "\u2581cronnit": 8742,
  "\u2581croob": 8743,
  "\u2581cups": 8744,
  "\u2581curnaght": 8745,
  "\u2581curtan": 8746,
  "\u2581custe": 8747,
  "\u2581debug": 8748,
  "\u2581defiled": 8749,
  "\u2581descendants": 8750,
  "\u2581desolate": 8751,
  "\u2581devices": 8752,
  "\u2581deyrey": 8753,
  "\u2581dine": 8754,
  "\u2581diseased": 8755,
  "\u2581dish": 8756,
  "\u2581distressed": 8757,
  "\u2581dooghys": 8758,
  "\u2581dotfiles": 8759,
  "\u2581dourinagh": 8760,
  "\u2581draught": 8761,
  "\u2581drawer": 8762,
  "\u2581drog": 8763,
  "\u2581eaghtyr": 8764,
  "\u2581eajeeys": 8765,
  "\u2581earthquake": 8766,
  "\u2581eayin": 8767,
  "\u2581eayn": 8768,
  "\u2581eeasee": 8769,
  "\u2581eiyrtyss": 8770,
  "\u2581elgyssagh": 8771,
  "\u2581emblems": 8772,
  "\u2581empt": 8773,
  "\u2581emsh": 8774,
  "\u2581enlarge": 8775,
  "\u2581enroll": 8776,
  "\u2581entreil": 8777,
  "\u2581envy": 8778,
  "\u2581established": 8779,
  "\u2581estate": 8780,
  "\u2581eunyss": 8781,
  "\u2581ex": 8782,
  "\u2581extract": 8783,
  "\u2581fadane": 8784,
  "\u2581fag": 8785,
  "\u2581faithless": 8786,
  "\u2581faiyr": 8787,
  "\u2581famine": 8788,
  "\u2581farthing": 8789,
  "\u2581feeackyl": 8790,
  "\u2581female": 8791,
  "\u2581fi": 8792,
  "\u2581filley": 8793,
  "\u2581fingers": 8794,
  "\u2581fiojit": 8795,
  "\u2581firrinag": 8796,
  "\u2581fishermen": 8797,
  "\u2581flag": 8798,
  "\u2581flo": 8799,
  "\u2581floor": 8800,
  "\u2581foals": 8801,
  "\u2581fold": 8802,
  "\u2581foym": 8803,
  "\u2581frames": 8804,
  "\u2581freely": 8805,
  "\u2581freil": 8806,
  "\u2581fu": 8807,
  "\u2581furn": 8808,
  "\u2581gain": 8809,
  "\u2581garaghtee": 8810,
  "\u2581gear": 8811,
  "\u2581gerr": 8812,
  "\u2581ghauns": 8813,
  "\u2581gheid": 8814,
  "\u2581ghellal": 8815,
  "\u2581gheurey": 8816,
  "\u2581ghew": 8817,
  "\u2581ghien": 8818,
  "\u2581ghiennaght": 8819,
  "\u2581ghlen": 8820,
  "\u2581ghlioonyn": 8821,
  "\u2581ghoal": 8822,
  "\u2581ghoghanyn": 8823,
  "\u2581ghoostey": 8824,
  "\u2581ghorraghys": 8825,
  "\u2581ghreinn": 8826,
  "\u2581gialdyn": 8827,
  "\u2581girded": 8828,
  "\u2581girp": 8829,
  "\u2581glashtyn": 8830,
  "\u2581glori": 8831,
  "\u2581gluttonous": 8832,
  "\u2581goair": 8833,
  "\u2581goats": 8834,
  "\u2581gods": 8835,
  "\u2581goraa": 8836,
  "\u2581grac": 8837,
  "\u2581grapes": 8838,
  "\u2581grays": 8839,
  "\u2581gred": 8840,
  "\u2581greenaghey": 8841,
  "\u2581greet": 8842,
  "\u2581grievously": 8843,
  "\u2581groan": 8844,
  "\u2581groups": 8845,
  "\u2581guilty": 8846,
  "\u2581gurrym": 8847,
  "\u2581gymmyr": 8848,
  "\u2581halloo": 8849,
  "\u2581halt": 8850,
  "\u2581handmaid": 8851,
  "\u2581hannish": 8852,
  "\u2581happening": 8853,
  "\u2581harryd": 8854,
  "\u2581harrym": 8855,
  "\u2581haualtys": 8856,
  "\u2581hioltane": 8857,
  "\u2581hirr": 8858,
  "\u2581hoal": 8859,
  "\u2581hoalt": 8860,
  "\u2581homage": 8861,
  "\u2581honest": 8862,
  "\u2581horch": 8863,
  "\u2581hoylley": 8864,
  "\u2581hreig": 8865,
  "\u2581https": 8866,
  "\u2581hung": 8867,
  "\u2581hurried": 8868,
  "\u2581hushtey": 8869,
  "\u2581hyrm": 8870,
  "\u2581iPlayer": 8871,
  "\u2581imp": 8872,
  "\u2581inde": 8873,
  "\u2581inneenyn": 8874,
  "\u2581inscription": 8875,
  "\u2581insert": 8876,
  "\u2581inshym": 8877,
  "\u2581irrinys": 8878,
  "\u2581iuder": 8879,
  "\u2581ja": 8880,
  "\u2581jar": 8881,
  "\u2581jengey": 8882,
  "\u2581jou": 8883,
  "\u2581joyful": 8884,
  "\u2581judg": 8885,
  "\u2581justice": 8886,
  "\u2581kiaralagh": 8887,
  "\u2581kie": 8888,
  "\u2581kimmee": 8889,
  "\u2581kindled": 8890,
  "\u2581kindred": 8891,
  "\u2581kir": 8892,
  "\u2581knees": 8893,
  "\u2581lady": 8894,
  "\u2581lambs": 8895,
  "\u2581lawyer": 8896,
  "\u2581legion": 8897,
  "\u2581lettyr": 8898,
  "\u2581lhiann": 8899,
  "\u2581lhiggit": 8900,
  "\u2581lhow": 8901,
  "\u2581liar": 8902,
  "\u2581lighten": 8903,
  "\u2581lilies": 8904,
  "\u2581lior": 8905,
  "\u2581lips": 8906,
  "\u2581liveth": 8907,
  "\u2581loaghtee": 8908,
  "\u2581loghan": 8909,
  "\u2581loght": 8910,
  "\u2581louraneys": 8911,
  "\u2581lu": 8912,
  "\u2581maase": 8913,
  "\u2581maids": 8914,
  "\u2581mar": 8915,
  "\u2581marble": 8916,
  "\u2581marinyn": 8917,
  "\u2581markets": 8918,
  "\u2581meant": 8919,
  "\u2581meiygh": 8920,
  "\u2581meiyghey": 8921,
  "\u2581minas": 8922,
  "\u2581mint": 8923,
  "\u2581miu": 8924,
  "\u2581mocking": 8925,
  "\u2581modde": 8926,
  "\u2581molteyraght": 8927,
  "\u2581moment": 8928,
  "\u2581mooise": 8929,
  "\u2581moyrn": 8930,
  "\u2581mraaraghyn": 8931,
  "\u2581murderer": 8932,
  "\u2581murmur": 8933,
  "\u2581naill": 8934,
  "\u2581nailliu": 8935,
  "\u2581naptin": 8936,
  "\u2581ne": 8937,
  "\u2581nests": 8938,
  "\u2581nhe": 8939,
  "\u2581niar": 8940,
  "\u2581nob": 8941,
  "\u2581oarn": 8942,
  "\u2581oltooaney": 8943,
  "\u2581ommydan": 8944,
  "\u2581orient": 8945,
  "\u2581os": 8946,
  "\u2581ours": 8947,
  "\u2581oven": 8948,
  "\u2581ox": 8949,
  "\u2581padjeryn": 8950,
  "\u2581partners": 8951,
  "\u2581pe": 8952,
  "\u2581pearls": 8953,
  "\u2581pending": 8954,
  "\u2581perfected": 8955,
  "\u2581permanent": 8956,
  "\u2581perver": 8957,
  "\u2581pervert": 8958,
  "\u2581pha": 8959,
  "\u2581phecca": 8960,
  "\u2581pheccee": 8961,
  "\u2581phla": 8962,
  "\u2581phointeil": 8963,
  "\u2581phontreilagh": 8964,
  "\u2581phorch": 8965,
  "\u2581pierced": 8966,
  "\u2581pitcher": 8967,
  "\u2581ploogh": 8968,
  "\u2581poos": 8969,
  "\u2581pots": 8970,
  "\u2581prash": 8971,
  "\u2581pref": 8972,
  "\u2581prey": 8973,
  "\u2581pri": 8974,
  "\u2581process": 8975,
  "\u2581produce": 8976,
  "\u2581promote": 8977,
  "\u2581property": 8978,
  "\u2581prophes": 8979,
  "\u2581protocols": 8980,
  "\u2581provided": 8981,
  "\u2581pur": 8982,
  "\u2581quarter": 8983,
  "\u2581raging": 8984,
  "\u2581reapers": 8985,
  "\u2581receiv": 8986,
  "\u2581remembrance": 8987,
  "\u2581replac": 8988,
  "\u2581reported": 8989,
  "\u2581resources": 8990,
  "\u2581reurey": 8991,
  "\u2581revile": 8992,
  "\u2581rhymbiu": 8993,
  "\u2581ride": 8994,
  "\u2581riot": 8995,
  "\u2581river": 8996,
  "\u2581roih": 8997,
  "\u2581roshtynagh": 8998,
  "\u2581rouan": 8999,
  "\u2581saaseyn": 9000,
  "\u2581sab": 9001,
  "\u2581saie": 9002,
  "\u2581saillish": 9003,
  "\u2581saillym": 9004,
  "\u2581sanctifie": 9005,
  "\u2581sanctified": 9006,
  "\u2581sau": 9007,
  "\u2581savour": 9008,
  "\u2581scammyltagh": 9009,
  "\u2581scar": 9010,
  "\u2581sceabit": 9011,
  "\u2581scepter": 9012,
  "\u2581sceptre": 9013,
  "\u2581scorched": 9014,
  "\u2581scugh": 9015,
  "\u2581scuitch": 9016,
  "\u2581scuitchal": 9017,
  "\u2581secure": 9018,
  "\u2581sepulchres": 9019,
  "\u2581serving": 9020,
  "\u2581shaghryn": 9021,
  "\u2581sheear": 9022,
  "\u2581sheeidey": 9023,
  "\u2581sheeyn": 9024,
  "\u2581sheidey": 9025,
  "\u2581sheshaghtyn": 9026,
  "\u2581shioltane": 9027,
  "\u2581shirveishit": 9028,
  "\u2581shoulders": 9029,
  "\u2581shouted": 9030,
  "\u2581sie": 9031,
  "\u2581sighed": 9032,
  "\u2581slay": 9033,
  "\u2581sleepeth": 9034,
  "\u2581slo": 9035,
  "\u2581snatch": 9036,
  "\u2581sneeu": 9037,
  "\u2581snow": 9038,
  "\u2581soaltyn": 9039,
  "\u2581soori": 9040,
  "\u2581sop": 9041,
  "\u2581sores": 9042,
  "\u2581soweth": 9043,
  "\u2581sows": 9044,
  "\u2581spaagey": 9045,
  "\u2581spin": 9046,
  "\u2581sporranyn": 9047,
  "\u2581spring": 9048,
  "\u2581sproght": 9049,
  "\u2581staff": 9050,
  "\u2581staying": 9051,
  "\u2581stermagh": 9052,
  "\u2581ston": 9053,
  "\u2581strawed": 9054,
  "\u2581street": 9055,
  "\u2581stro": 9056,
  "\u2581strooan": 9057,
  "\u2581sufficient": 9058,
  "\u2581suppli": 9059,
  "\u2581suppos": 9060,
  "\u2581suppose": 9061,
  "\u2581swept": 9062,
  "\u2581swi": 9063,
  "\u2581synagog": 9064,
  "\u2581taarn": 9065,
  "\u2581tabernacles": 9066,
  "\u2581taishbynys": 9067,
  "\u2581tarried": 9068,
  "\u2581taxe": 9069,
  "\u2581tents": 9070,
  "\u2581thresh": 9071,
  "\u2581thumm": 9072,
  "\u2581tonight": 9073,
  "\u2581tooillit": 9074,
  "\u2581tooth": 9075,
  "\u2581tormented": 9076,
  "\u2581tranlaas": 9077,
  "\u2581transgressors": 9078,
  "\u2581treasuries": 9079,
  "\u2581treih": 9080,
  "\u2581tri": 9081,
  "\u2581tro": 9082,
  "\u2581troggeyd": 9083,
  "\u2581trosht": 9084,
  "\u2581trumpet": 9085,
  "\u2581tullagh": 9086,
  "\u2581uinn": 9087,
  "\u2581ullee": 9088,
  "\u2581uncle": 9089,
  "\u2581unlock": 9090,
  "\u2581unnaneys": 9091,
  "\u2581unrighteousness": 9092,
  "\u2581unt": 9093,
  "\u2581uproar": 9094,
  "\u2581ur": 9095,
  "\u2581vaarde": 9096,
  "\u2581vaatey": 9097,
  "\u2581vairagh": 9098,
  "\u2581vannoo": 9099,
  "\u2581varriaght": 9100,
  "\u2581varter": 9101,
  "\u2581veeghyn": 9102,
  "\u2581vessel": 9103,
  "\u2581videos": 9104,
  "\u2581violently": 9105,
  "\u2581violeyder": 9106,
  "\u2581virril": 9107,
  "\u2581virtu": 9108,
  "\u2581vite": 9109,
  "\u2581vochilley": 9110,
  "\u2581voi": 9111,
  "\u2581vows": 9112,
  "\u2581vreagerey": 9113,
  "\u2581vriw": 9114,
  "\u2581waist": 9115,
  "\u2581wasted": 9116,
  "\u2581wha": 9117,
  "\u2581whoso": 9118,
  "\u2581woa": 9119,
  "\u2581wol": 9120,
  "\u2581writ": 9121,
  "\u2581wyllin": 9122,
  "\u2581yllaghey": 9123,
  "\u2581ymmyr": 9124,
  "\u2581yss": 9125,
  "\u2581\u00e7hagh": 9126,
  "\u65e5": 9127,
  "\u6708": 9128,
  "\").": 9129,
  "\"--": 9130,
  "+": 9131,
  "04": 9132,
  "97": 9133,
  "Abort": 9134,
  "After": 9135,
  "And": 9136,
  "Ayns": 9137,
  "Ayr": 9138,
  "Barr": 9139,
  "Boaylyn": 9140,
  "Bw": 9141,
  "CD": 9142,
  "Cab": 9143,
  "Caesar": 9144,
  "Certificate": 9145,
  "Coadagh": 9146,
  "Comm": 9147,
  "Command": 9148,
  "Computer": 9149,
  "Customiz": 9150,
  "Dav": 9151,
  "Depart": 9152,
  "Does": 9153,
  "Domain": 9154,
  "Elijah": 9155,
  "Empathy": 9156,
  "Enable": 9157,
  "Fil": 9158,
  "Find": 9159,
  "Good": 9160,
  "Gow": 9161,
  "Leav": 9162,
  "Lhi": 9163,
  "Log": 9164,
  "Merge": 9165,
  "NS": 9166,
  "Normal": 9167,
  "Nothing": 9168,
  "Oilley": 9169,
  "Orgher": 9170,
  "PA": 9171,
  "Password": 9172,
  "Persona": 9173,
  "Pref": 9174,
  "Preferences": 9175,
  "Prophesy": 9176,
  "Pu": 9177,
  "Qu": 9178,
  "RC": 9179,
  "Rabboni": 9180,
  "Room": 9181,
  "Sans": 9182,
  "Seven": 9183,
  "She": 9184,
  "Some": 9185,
  "Spell": 9186,
  "Su": 9187,
  "Temp": 9188,
  "Text": 9189,
  "Toolbars": 9190,
  "Un": 9191,
  "Update": 9192,
  "Wifi": 9193,
  "With": 9194,
  "Ye": 9195,
  "Ynn": 9196,
  "Zeal": 9197,
  "[": 9198,
  "aart": 9199,
  "abled": 9200,
  "aboo": 9201,
  "acle": 9202,
  "act": 9203,
  "action": 9204,
  "ai": 9205,
  "ant": 9206,
  "antagh": 9207,
  "ants": 9208,
  "antys": 9209,
  "applications": 9210,
  "arraghey": 9211,
  "arrcheu": 9212,
  "arrgreie": 9213,
  "arrkeime": 9214,
  "ase": 9215,
  "ated": 9216,
  "ault": 9217,
  "authorize": 9218,
  "ba": 9219,
  "beat": 9220,
  "bread": 9221,
  "but": 9222,
  "button": 9223,
  "byn": 9224,
  "ca": 9225,
  "cadjin": 9226,
  "cagh": 9227,
  "ccord": 9228,
  "chell": 9229,
  "chief": 9230,
  "ck": 9231,
  "claaghyn": 9232,
  "cloie": 9233,
  "cogni": 9234,
  "comb": 9235,
  "conf": 9236,
  "connect": 9237,
  "cooney": 9238,
  "cy": 9239,
  "daa": 9240,
  "day": 9241,
  "de": 9242,
  "dent": 9243,
  "dged": 9244,
  "diction": 9245,
  "drachma": 9246,
  "eal": 9247,
  "eanagh": 9248,
  "eaney": 9249,
  "eayraghey": 9250,
  "ecko": 9251,
  "edium": 9252,
  "eeast": 9253,
  "eighit": 9254,
  "eigyn": 9255,
  "em": 9256,
  "emon": 9257,
  "emplates": 9258,
  "emshir": 9259,
  "emused": 9260,
  "encrypt": 9261,
  "erial": 9262,
  "ering": 9263,
  "ersonal": 9264,
  "ersoonagh": 9265,
  "ery": 9266,
  "espite": 9267,
  "euchooie": 9268,
  "eus": 9269,
  "fe": 9270,
  "fil": 9271,
  "framey": 9272,
  "from": 9273,
  "fy": 9274,
  "gher": 9275,
  "ghit": 9276,
  "ghlaa": 9277,
  "gish": 9278,
  "going": 9279,
  "gra": 9280,
  "gree": 9281,
  "gues": 9282,
  "hat": 9283,
  "hey": 9284,
  "horiz": 9285,
  "huffle": 9286,
  "icking": 9287,
  "icky": 9288,
  "ides": 9289,
  "ilagh": 9290,
  "ilde": 9291,
  "iled": 9292,
  "iment": 9293,
  "ind": 9294,
  "iness": 9295,
  "inux": 9296,
  "io": 9297,
  "irthdays": 9298,
  "issing": 9299,
  "iting": 9300,
  "ixelyn": 9301,
  "keimmeiaght": 9302,
  "king": 9303,
  "lagh": 9304,
  "lan": 9305,
  "lassi": 9306,
  "liant": 9307,
  "libra": 9308,
  "line": 9309,
  "mal": 9310,
  "maller": 9311,
  "manded": 9312,
  "mazement": 9313,
  "meter": 9314,
  "meters": 9315,
[...]
