{
  "</s>": 0,
  "<unk>": 1,
  ",": 2,
  ".": 3,
  "\u2581yo": 4,
  "\u2581\"": 5,
  "\u2581the": 6,
  "\u2581te": 7,
  "\u2581a": 8,
  "\u2581ki": 9,
  "\u2581to": 10,
  "\u2581nan": 11,
  "\u2581nou": 12,
  "\u2581sa": 13,
  "\u2581pou": 14,
  "\u2581of": 15,
  "?": 16,
  "\u2581yon": 17,
  "\u2581l": 18,
  "\u2581and": 19,
  ":": 20,
  "\u2581li": 21,
  "\u2581f\u00e8": 22,
  "\u2581ap": 23,
  "\u2581-": 24,
  "\u2581in": 25,
  "\u2581ak": 26,
  "\u2581moun": 27,
  "\u2581gen": 28,
  "\u2581that": 29,
  "\u2581pa": 30,
  "s": 31,
  "\u2581an": 32,
  "\u2581la": 33,
  "\u2581e": 34,
  "'": 35,
  "\u2581is": 36,
  "\u2581se": 37,
  "\u2581Jewova": 38,
  "\u2581Jehovah": 39,
  "\u2581t": 40,
  "\u2581we": 41,
  "\u2581Bondye": 42,
  "\u2581sou": 43,
  "\u2581for": 44,
  "\u2581w": 45,
  "\u2581ka": 46,
  "\u2581God": 47,
  "\u2581di": 48,
  "\u2581his": 49,
  "\u2581n": 50,
  "\u2581m": 51,
  "\u2581you": 52,
  "\u2581be": 53,
  "\u2581l\u00e8": 54,
  "\u2581with": 55,
  "\u2581not": 56,
  "\u2581was": 57,
  "\u2581tout": 58,
  "\u2581": 59,
  "\u2581will": 60,
  "\u2581Ki": 61,
  "\u2581have": 62,
  "\u2581vin": 63,
  "\u2581jan": 64,
  "\u2581he": 65,
  "\u2581I": 66,
  "\u2581k": 67,
  "\u2581as": 68,
  "\u2581bay": 69,
  "\u2581on": 70,
  "\u2581are": 71,
  "\u2581Jezi": 72,
  "\u2581menm": 73,
  "\u2581it": 74,
  "\u2581l\u00f2t": 75,
  "\u2581our": 76,
  "\u2581Jesus": 77,
  "\u2581ou": 78,
  "\u2581us": 79,
  ")": 80,
  "\u2581can": 81,
  "\u2581The": 82,
  "ing": 83,
  "\u2581mwen": 84,
  "\u2581from": 85,
  "\u2581anpil": 86,
  "\u2581by": 87,
  "\u2581(": 88,
  "\u2581bagay": 89,
  "\u2581jwenn": 90,
  "\u2581Men": 91,
  "\u2581men": 92,
  "\u2581What": 93,
  "\u2581who": 94,
  "\u2581do": 95,
  "\u2581what": 96,
  "\u2581de": 97,
  "\u2581their": 98,
  "\u2581they": 99,
  "\u2581'": 100,
  "\u25811": 101,
  "!": 102,
  "\u2581Se": 103,
  "\u2581Bible": 104,
  "\u2581genyen": 105,
  "\u2581this": 106,
  "\u2581bon": 107,
  "\u2581dwe": 108,
  "\u2581or": 109,
  "\u2581kapab": 110,
  "\u2581konnen": 111,
  "\u2581pran": 112,
  "\u2581fason": 113,
  "\u2581pi": 114,
  ";": 115,
  "\u2581Li": 116,
  "\u2581him": 117,
  "\u2581all": 118,
  "\u2581konn": 119,
  "\u2581ede": 120,
  "\u2581montre": 121,
  "\u2581[": 122,
  "\u2581your": 123,
  "\u2581tou": 124,
  "\u2581How": 125,
  "\u2581them": 126,
  "\u2581one": 127,
  "\u2581people": 128,
  "\u2581had": 129,
  "\u2581w\u00e8": 130,
  "\u2581about": 131,
  "\u2581byen": 132,
  "\u2581at": 133,
  "\u2581were": 134,
  "\u2581did": 135,
  "\u2581pase": 136,
  "\u2581ta": 137,
  "\u2581kote": 138,
  "\u2581pale": 139,
  "\u2581when": 140,
  "\u2581travay": 141,
  "\u2581L\u00e8": 142,
  "\u2581In": 143,
  "\u2581would": 144,
  "\u2581vle": 145,
  "\u2581pral": 146,
  "]": 147,
  "\u2581.\"": 148,
  "\u2581k\u00e8k": 149,
  "\u2581s\u00e8vi": 150,
  "\u2581Bib": 151,
  "\u2581av\u00e8k": 152,
  "\u2581has": 153,
  "\u2581si": 154,
  "\u2581rive": 155,
  "\u2581kretyen": 156,
  "\u2581may": 157,
  "\u2581plis": 158,
  "\u2581Nan": 159,
  "\u2581my": 160,
  "\u2581time": 161,
  "\u2581those": 162,
  "\u2581bezwen": 163,
  "\u2581life": 164,
  "\u2581viv": 165,
  "\u2581renmen": 166,
  "\u2581lavi": 167,
  "\u2581k\u00e8": 168,
  "\u2581so": 169,
  "\u2581but": 170,
  "\u2581A": 171,
  "\u2581egzanp": 172,
  "\u2581tan": 173,
  "\u2581.": 174,
  "\u2581oswa": 175,
  "\u2581paske": 176,
  "\u2581\u00c8ske": 177,
  "\u2581help": 178,
  "\u2581how": 179,
  "\u2581Nou": 180,
  "\u2581gwo": 181,
  "\u2581He": 182,
  "\u2581t\u00e8t": 183,
  "\u2581konsa": 184,
  "\u2581Satan": 185,
  "\u2581mande": 186,
  "ed": 187,
  "\u2581me": 188,
  "\u2581We": 189,
  "\u2581P": 190,
  "\u2581love": 191,
  "\u2581pitit": 192,
  "\u2581David": 193,
  "\u2581y": 194,
  "\u2581ti": 195,
  "\u2581toujou": 196,
  "\u2581t\u00e8": 197,
  "\u2581epi": 198,
  "\u2581san": 199,
  "\u2581some": 200,
  "\u25814": 201,
  "\u2581also": 202,
  "\u2581more": 203,
  "\u2581al": 204,
  "\u2581out": 205,
  "\u2581good": 206,
  "\u2581f\u00e8t": 207,
  "\u2581P\u00f2l": 208,
  "\u2581Paul": 209,
  "\u2581fr\u00e8": 210,
  "\u2581Sa": 211,
  "e": 212,
  "\u2581kite": 213,
  "\u2581aprann": 214,
  "\"": 215,
  "\u2581her": 216,
  "\u2581ni": 217,
  "\u2581should": 218,
  "\u2581Si": 219,
  "\u2581ansanm": 220,
  "\u2581things": 221,
  "\u2581way": 222,
  "\u2581does": 223,
  "\u2581kontinye": 224,
  "\u2581Yo": 225,
  "\u2581if": 226,
  "\u2581peyi": 227,
  "a": 228,
  "\u25815": 229,
  "\u2581E": 230,
  "\u2581make": 231,
  "\u2581Why": 232,
  "\u2581kontan": 233,
  "\u25812": 234,
  "\u2581been": 235,
  "\u2581It": 236,
  "\u2581such": 237,
  "\u2581Gen": 238,
  "\u2581apre": 239,
  "\u2581kongregasyon": 240,
  "\u2581jou": 241,
  "\u2581lan": 242,
  "\u2581up": 243,
  "\u2581santi": 244,
  "\u2581many": 245,
  "\u25813": 246,
  "\u2581k\u00f2m": 247,
  "\u2581konprann": 248,
  "\u2581ba": 249,
  "\u2581ekri": 250,
  "\u2581work": 251,
  "\u2581Pa": 252,
  "\u2581fanmi": 253,
  "\u2581lespri": 254,
  "\u2581panse": 255,
  "ly": 256,
  "\u2581lanmou": 257,
  "\u2581paw\u00f2l": 258,
  "\u2581When": 259,
  "\u2581said": 260,
  "\u2581spirit": 261,
  "\u2581youn": 262,
  "\u258115": 263,
  "\u2581could": 264,
  "\u2581ane": 265,
  "\u2581Christians": 266,
  "\u2581world": 267,
  "\u2581need": 268,
  "\u2581no": 269,
  "\u2581there": 270,
  "\u2581Yon": 271,
  "\u2581Christ": 272,
  "\u2581mete": 273,
  "\u2581Christian": 274,
  "\u2581Kingdom": 275,
  "\u2581anba": 276,
  "\u2581other": 277,
  "\u2581others": 278,
  "\u2581even": 279,
  "\u2581Kris": 280,
  "\u2581monn": 281,
  "\u2581Way\u00f2m": 282,
  "\u2581Labib": 283,
  "\u2581enp\u00f2tan": 284,
  "\u2581tankou": 285,
  "\u2581earth": 286,
  "\u2581faith": 287,
  "\u2581kesyon": 288,
  "\u2581ye": 289,
  "\u2581pwobl\u00e8m": 290,
  "\u2581day": 291,
  "\u258110": 292,
  "\u2581ch\u00e8che": 293,
  "\u2581these": 294,
  "\u2581Sepandan": 295,
  "\u2581paj": 296,
  "\u2581ep\u00f2k": 297,
  "\u2581man": 298,
  "\u2581example": 299,
  "\u2581kont": 300,
  "\u2581ann": 301,
  "\u2581But": 302,
  "\u2581ban": 303,
  "\u2581rete": 304,
  "\u2581ank\u00f2": 305,
  "\u2581non": 306,
  "\u2581first": 307,
  "\u2581congregation": 308,
  "\u2581premye": 309,
  "\u2581Temwen": 310,
  "\u2581For": 311,
  "\u2581rele": 312,
  "\u2581than": 313,
  "\u2581lafwa": 314,
  "\u2581fin": 315,
  "\u2581pandan": 316,
  "\u2581/": 317,
  "\u2581espirity\u00e8l": 318,
  "the": 319,
  "\u2581pap": 320,
  "\u2581into": 321,
  "\u2581kons\u00e8nan": 322,
  "\u2581sy\u00e8l": 323,
  "\u2581Poukisa": 324,
  "\u25812:": 325,
  "\u2581If": 326,
  "\u2581janm": 327,
  "\u2581because": 328,
  "\u2581chak": 329,
  "\u2581They": 330,
  "\u2581devan": 331,
  "\u2581av\u00e8": 332,
  "\u2581anvan": 333,
  "\u2581she": 334,
  "\u2581which": 335,
  "\u2581know": 336,
  "\u2581b\u00e8l": 337,
  "\u2581must": 338,
  "\u2581fid\u00e8l": 339,
  "\u2581years": 340,
  "\u2581This": 341,
  "\u2581spiritual": 342,
  "\u258111": 343,
  "\u2581p\u00e8p": 344,
  "\u2581As": 345,
  "\u2581Witnesses": 346,
  "\u2581mouri": 347,
  "\u2581k\u00f2manse": 348,
  "\u2581see": 349,
  "\u2581disip": 350,
  "\u2581You": 351,
  "\u2581ladan": 352,
  "\u2581liv": 353,
  "\u2581Mwen": 354,
  "\u25817": 355,
  "\u2581family": 356,
  "\u2581antanke": 357,
  "\u2581And": 358,
  "\u2581like": 359,
  "\u2581being": 360,
  "\u2581rezon": 361,
  "\u2581then": 362,
  "\u2581made": 363,
  "\u25819": 364,
  "\u2581plizy\u00e8": 365,
  "\u2581So": 366,
  "b": 367,
  "\u2581s\u00e8lman": 368,
  "\u2581kalite": 369,
  "\u2581only": 370,
  "\u2581heart": 371,
  "\u2581says": 372,
  "\u25816:": 373,
  "\u2581,\"": 374,
  "\u2581true": 375,
  "\u2581children": 376,
  "\u2581Pou": 377,
  "\u2581Jan": 378,
  "\u258112": 379,
  "\u2581soti": 380,
  "\u2581ones": 381,
  "\u2581over": 382,
  "\u2581aji": 383,
  "\u2581just": 384,
  "aw\u00f2l": 385,
  "\u25818": 386,
  "\u2581words": 387,
  "\u2581take": 388,
  "\u2581become": 389,
  "\u258113": 390,
  "\u2581s\u00e8": 391,
  "\u2581b": 392,
  "\u2581come": 393,
  "\u2581chwazi": 394,
  "\u2581move": 395,
  "\u2581preche": 396,
  "\u2581apot": 397,
  "\u2581manje": 398,
  "\u2581peche": 399,
  "\u2581demontre": 400,
  "\u2581might": 401,
  "\u25811,": 402,
  "\u2581mal": 403,
  "\u2581dom\u00e8n": 404,
  "\u2581page": 405,
  "\u2581Menm": 406,
  "\u2581That": 407,
  "\u2581sitiyasyon": 408,
  "\u2581vil": 409,
  "an": 410,
  "\u2581jis": 411,
  "\u2581give": 412,
  "k": 413,
  "\u258114": 414,
  "\u2581pati": 415,
  "\u2581Apre": 416,
  "\u2581own": 417,
  "\u2581well": 418,
  "\u2581before": 419,
  "t": 420,
  "\u2581jodi": 421,
  "\u2581j\u00e8n": 422,
  "\u2581gason": 423,
  "\u2581John": 424,
  "\u2581brothers": 425,
  "\u2581depi": 426,
  "\u2581death": 427,
  "\u2581konfyans": 428,
  "\u2581suiv": 429,
  "n": 430,
  "\u2581now": 431,
  "\u2581ansyen": 432,
  "\u2581l\u00e8z\u00f2m": 433,
  "\u2581lakay": 434,
  "\u2581b\u00f2": 435,
  "\u2581show": 436,
  "\u2581fwa": 437,
  "\u2581konsidere": 438,
  "\u2581another": 439,
  "\u2581kay": 440,
  "\u2581egzamine": 441,
  "\u2581Word": 442,
  "\u2581madanm": 443,
  "\u2581two": 444,
  "\u2581name": 445,
  "\u2581times": 446,
  "\u2581anseye": 447,
  "\u2581\u2022": 448,
  "\u2581kons\u00e8y": 449,
  "\u2022": 450,
  "\u2581objektif": 451,
  "\u2581Py\u00e8": 452,
  "\u2581sonje": 453,
  "\u2581wa": 454,
  "\u2581sans": 455,
  "\u2581sen": 456,
  "\u258124": 457,
  "\u2581itilize": 458,
  "\u2581lontan": 459,
  "\u2581timoun": 460,
  "\u2581truth": 461,
  "\u2581today": 462,
  "\u2581vr\u00e8": 463,
  "\u2581resevwa": 464,
  "\u2581ankouraje": 465,
  "\u2581learn": 466,
  "\u2581paran": 467,
  "\u2581par\u00e8t": 468,
  "\u2581priye": 469,
  "\u2581keep": 470,
  "\u2581after": 471,
  "\u2581why": 472,
  "\u2581new": 473,
  "\u2581ef\u00f2": 474,
  "\u2581person": 475,
  "\u2581apostle": 476,
  "\u2581lang": 477,
  "\u258116": 478,
  "\u2581say": 479,
  "\u2581fi": 480,
  "\u2581faithful": 481,
  "\u2581through": 482,
  "\u2581moman": 483,
  "\u2581Israel": 484,
  "\u2581any": 485,
  "\u258117": 486,
  "\u2581Peter": 487,
  "\u2581right": 488,
  "\u2581very": 489,
  "\u2581To": 490,
  "\u2581atik": 491,
  "\u2581feel": 492,
  "\u2581je": 493,
  "\u2581kl\u00e8": 494,
  "\u2581\u00e8ske": 495,
  "\u2581Do": 496,
  "\u258121": 497,
  "\u2581kenbe": 498,
  "\u2581its": 499,
  "\u2581S\u00f2m": 500,
  "\u2581seri": 501,
  "d": 502,
  "\u2581M": 503,
  "\u2581find": 504,
  "\u2581s\u00e8vit\u00e8": 505,
  "\u2581part": 506,
  "\u2581let": 507,
  "\u2581much": 508,
  "\u2581s\u00e8vis": 509,
  "\u2581nasyon": 510,
  "\u2581vr\u00e8man": 511,
  "\u2581against": 512,
  "\u2581zanmi": 513,
  "\u25812.": 514,
  "\u2581marye": 515,
  "\u2581K": 516,
  "\u2581p\u00e8di": 517,
  "\u2581f\u00f2s": 518,
  "\u2581p\u00e8m\u00e8t": 519,
  "\u2581use": 520,
  "\u2581difisil": 521,
  "\u2581kw\u00e8": 522,
  "\u2581nouv\u00e8l": 523,
  "\u2581great": 524,
  "\u2581oubyen": 525,
  "\u2581relasyon": 526,
  "\u2581study": 527,
  "\u2581ministry": 528,
  "\u2581gade": 529,
  "\u258119": 530,
  "\u2581himself": 531,
  "te": 532,
  "\u2581important": 533,
  "\u2581An": 534,
  "\u2581Izray\u00e8l": 535,
  "\u2581s\u00e8l": 536,
  "\u2581put": 537,
  "\u2581predikasyon": 538,
  "\u2581Father": 539,
  "okenn": 540,
  "\u2581koute": 541,
  "\u2581Moun": 542,
  "\u2581S": 543,
  "\u2581Papa": 544,
  "\u25813:": 545,
  "\u2581each": 546,
  "\u2581want": 547,
  "\u2581tande": 548,
  "\u2581mache": 549,
  "\u2581means": 550,
  "\u2581However": 551,
  "\u2581prensip": 552,
  "\u2581dirije": 553,
  "ap": 554,
  "\u2581met": 555,
  "\u2581parents": 556,
  "\u2581long": 557,
  "\u2581young": 558,
  "\u2581Foto": 559,
  "\u2581holy": 560,
  "\u2581kounye": 561,
  "\u2581wrote": 562,
  "\u2581aksepte": 563,
  "\u2581pw\u00f2p": 564,
  "\u2581anyen": 565,
  "\u2581worship": 566,
  "\u2581voye": 567,
  "Li": 568,
  "\u2581consider": 569,
  "\u2581*": 570,
  "\u2581same": 571,
  "\u2581reflechi": 572,
  "\u2581end": 573,
  "\u2581etidye": 574,
  "I": 575,
  "\u2581go": 576,
  "\u2581news": 577,
  "\u25814.": 578,
  "\u2581found": 579,
  "\u2581where": 580,
  "\u2581pote": 581,
  "\u2581plezi": 582,
  "\u2581disciples": 583,
  "lon": 584,
  "\u2581though": 585,
  "\u2581get": 586,
  "\u2581mari": 587,
  "\u258110.": 588,
  "\u2581course": 589,
  "\u2581reyinyon": 590,
  "\u2581human": 591,
  "\u2581preaching": 592,
  "\u2581desizyon": 593,
  "\u2581Izrayelit": 594,
  "\u2581One": 595,
  "\u2581pouse": 596,
  "\u2581Moyiz": 597,
  "\u2581mennen": 598,
  "\u2581most": 599,
  "\u2581mind": 600,
  "\u258118": 601,
  "\u2581nouvo": 602,
  "\u2581grasa": 603,
  "\u2581never": 604,
  "\u2581serve": 605,
  "\u2581place": 606,
  "\u25816": 607,
  "\u2581read": 608,
  "\u2581laverite": 609,
  "\u2581z\u00f2n": 610,
  "\u2581[...]": 611,
  "\u258112.": 612,
  "\u2581lanm\u00f2": 613,
  "\u2581told": 614,
  "\u2581ways": 615,
  "\u2581view": 616,
  "\u2581hope": 617,
  "\u2581rap\u00f2": 618,
  "\u2581Pand": 619,
  "\u2581word": 620,
  "\u2581sot": 621,
  "\u2581T": 622,
  "\u258120": 623,
  "\u2581antre": 624,
  "\u2581servants": 625,
  "\u2581val\u00e8": 626,
  "\u2581mwayen": 627,
  "\u2581\u00e8d": 628,
  "\u2581wife": 629,
  "\u2581tounen": 630,
  "E": 631,
  "\u2581chanje": 632,
  "\u25818.": 633,
  "\u2581Some": 634,
  "\u2581too": 635,
  "\u2581vre": 636,
  "\u2581doing": 637,
  "\u25815.": 638,
  "jan": 639,
  "\u2581every": 640,
  "\u2581maryaj": 641,
  "\u258113.": 642,
  "\u2581upon": 643,
  "y": 644,
  "\u25817.": 645,
  "\u2581vini": 646,
  "\u25811:": 647,
  "\u258122": 648,
  "\u2581used": 649,
  "\u2581'.": 650,
  "\u2581biblik": 651,
  "Read": 652,
  "\u2581away": 653,
  "\u258115.": 654,
  "\u25816.": 655,
  "\u2581became": 656,
  "\u2581After": 657,
  "\u2581under": 658,
  "\u2581Picture": 659,
  "\u2581live": 660,
  "\u2581priy\u00e8": 661,
  "\u2581book": 662,
  "\u2581given": 663,
  "\u2581tonbe": 664,
  "\u2581k\u00f2": 665,
  "\u2581think": 666,
  "\u2581service": 667,
  "\u258111.": 668,
  "\u2581poze": 669,
  "\u258116.": 670,
  "\u2581Psalm": 671,
  "\u2581rann": 672,
  "\u2581Konsa": 673,
  "\u2581days": 674,
  "\u2581fellow": 675,
  "\u2581back": 676,
  "...": 677,
  "\u2581article": 678,
  "\u2581swen": 679,
  "\u2581anointed": 680,
  "swa": 681,
  "\u2581At": 682,
  "\u2581etid": 683,
  "\u2581gave": 684,
  "\u2581repons": 685,
  "\u2581By": 686,
  "akoz": 687,
  "\u2581apral": 688,
  "\u2581Scriptures": 689,
  "\u258117.": 690,
  "\u25819.": 691,
  "\u2581home": 692,
  "\u2581sanble": 693,
  "\u2581Ann": 694,
  "\u2581Anplis": 695,
  "\u2581obeyi": 696,
  "\u2581sy\u00e8k": 697,
  "\u2581tann": 698,
  "\u258114.": 699,
  "\u2581Ou": 700,
  "\u2581Moses": 701,
  "\u2581mesye": 702,
  "\u258125": 703,
  "\u2581sakrifis": 704,
  "\u2581often": 705,
  "\u2581set": 706,
  "\u2581par\u00e8y": 707,
  "\u2581verite": 708,
  "\u2581C": 709,
  "\u2581reponn": 710,
  "\u2581down": 711,
  "\u2581came": 712,
  "\u2581among": 713,
  "\u2581papa": 714,
  "\u2581marriage": 715,
  "Mwen": 716,
  "\u2581prayer": 717,
  "\u2581batize": 718,
  "\u2581during": 719,
  "\u2581Our": 720,
  "ther": 721,
  "\u2581King": 722,
  "\u2581whom": 723,
  "\u2581benediksyon": 724,
  "\u2581Matthew": 725,
  "\u2581v\u00e8s\u00e8": 726,
  "\u2581making": 727,
  "\u2581later": 728,
  "\u2581Matye": 729,
  "\u2581peace": 730,
  "\u2581able": 731,
  "\u2581Let": 732,
  "\u2581Pitit": 733,
  "\u2581With": 734,
  "\u2581am": 735,
  "\u2581Israelites": 736,
  "\u2581living": 737,
  "\u2581always": 738,
  "\u2581ret": 739,
  "rap\u00f2": 740,
  "\u2581His": 741,
  "\u2581Son": 742,
  "\u2581humans": 743,
  "\u2581Is": 744,
  "\u2581ale": 745,
  "\u2581poukisa": 746,
  "\u2581questions": 747,
  "\u2581loving": 748,
  "\u2581No": 749,
  "\u2581esplike": 750,
  "\u258123": 751,
  "\u2581reason": 752,
  "\u25813.": 753,
  "\u2581bring": 754,
  "\u2581three": 755,
  "\u2581brother": 756,
  "\u2581still": 757,
  "\u2581twa": 758,
  "\u2581power": 759,
  "\u2581W": 760,
  "\u2581N": 761,
  "\u2581L": 762,
  "\u2581began": 763,
  "\u2581patisipe": 764,
  "\u2581fasil": 765,
  "\u2581adorasyon": 766,
  "\u2581fas": 767,
  "\u2581relijyon": 768,
  "\u2581zanj": 769,
  "\u2581aksyon": 770,
  "\u2581rankontre": 771,
  "\u2581leve": 772,
  "\u2581pout\u00e8t": 773,
  "\u2581mesaj": 774,
  "\u2581volonte": 775,
  "\u2581elders": 776,
  "\u2581year": 777,
  "\u2581personal": 778,
  "\u258118.": 779,
  "\u2581purpose": 780,
  "\u25813,": 781,
  "\u2581Yes": 782,
  "\u2581something": 783,
  "\u2581heaven": 784,
  "\u2581order": 785,
  "\u2581future": 786,
  "\u2581kantite": 787,
  "\u2581gendwa": 788,
  "\u2581retounen": 789,
  "\u2581sin": 790,
  "\u2581mo": 791,
  "\u2581lap\u00e8": 792,
  "\u2581themselves": 793,
  "\u2581knowledge": 794,
  "\u2581mankind": 795,
  "\u2581really": 796,
  "\u2581s\u00e8ten": 797,
  "\u2581sispann": 798,
  "\u2581On": 799,
  "\u2581going": 800,
  "\u2581look": 801,
  "\u2581result": 802,
  "\u2581joy": 803,
  "\u2581Dye": 804,
  "\u2581ant": 805,
  "\u2581prepare": 806,
  "\u2581She": 807,
  "\u2581house": 808,
  "\u2581Juif": 809,
  "\u2581called": 810,
  "\u2581imite": 811,
  "\u2581souvan": 812,
  "\u2581ask": 813,
  "\u2581fini": 814,
  "\u2581century": 815,
  "\u2581hand": 816,
  "\u2581manman": 817,
  "\u2581old": 818,
  "\u2581enp\u00f2tans": 819,
  "\u2581son": 820,
  "\u2581helped": 821,
  "\u2581close": 822,
  "\u2581epr\u00e8v": 823,
  "\u2581counsel": 824,
  "\u2581fact": 825,
  "\u2581both": 826,
  "\u2581women": 827,
  "\u2581full": 828,
  "\u2581Read": 829,
  "\u2581enf\u00f2masyon": 830,
  "\u2581ourselves": 831,
  "\u2581toward": 832,
  "\u2581Then": 833,
  "\u2581istwa": 834,
  "Se": 835,
  "\u2581support": 836,
  "\u2581without": 837,
  "\u258115,": 838,
  "\u2581benefit": 839,
  "\u2581pwoteje": 840,
  "kriti": 841,
  "\u2581d\u00e8nye": 842,
  "\u2581together": 843,
  "Annou": 844,
  "\u2581Donk": 845,
  "\u2581ef\u00e8": 846,
  "\u2581wicked": 847,
  "\u2581D": 848,
  "\u2581oblije": 849,
  "\u2581There": 850,
  "\u2581Tout": 851,
  "\u2581mechan": 852,
  "\u2581lef\u00e8tke": 853,
  "\u2581Kidonk": 854,
  "\u2581anvi": 855,
  "\u2581pwofesi": 856,
  "\u2581toutan": 857,
  "\u2581gwoup": 858,
  "\u2581vi": 859,
  "\u2581p\u00e8": 860,
  "\u2581face": 861,
  "\u2581eseye": 862,
  "\u25815,": 863,
  "\u2581esperans": 864,
  "\u2581deja": 865,
  "\u2581kit": 866,
  "\u2581esklav": 867,
  "The": 868,
  "\u2581saj\u00e8s": 869,
  "\u2581konesans": 870,
  "\u2581Even": 871,
  "\u258128": 872,
  "\u2581aktivite": 873,
  "\u2581meetings": 874,
  "\u2581Abraram": 875,
  "\u2581father": 876,
  "\u2581husband": 877,
  "\u25816,": 878,
  "\u258119.": 879,
  "\u2581Jerizal\u00e8m": 880,
  "\u2581Pet\u00e8t": 881,
  "\u2581dlo": 882,
  "\u2581however": 883,
  "\u2581understand": 884,
  "\u2581Jerusalem": 885,
  "\u2581asirans": 886,
  "\u2581n\u00e8t": 887,
  "\u2581someone": 888,
  "\u2581felt": 889,
  "\u2581pwof\u00e8t": 890,
  "\u2581relationship": 891,
  "\u2581Yet": 892,
  "\u2581privil\u00e8j": 893,
  "S": 894,
  "\u2581heavenly": 895,
  ".)": 896,
  "\u2581Piske": 897,
  "\u2581asked": 898,
  "\u2581needed": 899,
  "\u2581Many": 900,
  "\u2581pwen": 901,
  "\u2581responsablite": 902,
  "\u00e8lman": 903,
  "\u258130": 904,
  "\u2581pwom\u00e8s": 905,
  "\u2581experience": 906,
  "\u2581share": 907,
  "\u2581Wi": 908,
  "\u2581took": 909,
  "\u2581egziste": 910,
  "\u2581Abraham": 911,
  "\u2581J\u00f2b": 912,
  "\u2581adore": 913,
  "\u2581reyaji": 914,
  "\u2581minist\u00e8": 915,
  "\u2581tell": 916,
  "\u2581posib": 917,
  "\u2581pyonye": 918,
  "\u2581resp\u00e8": 919,
  "\u2581imilite": 920,
  "\u2581child": 921,
  "\u2581deside": 922,
  "\u2581language": 923,
  "\u2581Job": 924,
  "\u2581avoid": 925,
  "\u2581Wa": 926,
  "\u2581having": 927,
  "\u2581lak\u00f2z": 928,
  "\u2581Luke": 929,
  "\u2581done": 930,
  "\u2581learned": 931,
  "\u2581enterese": 932,
  "\u2581message": 933,
  "\u2581pami": 934,
  "\u2581rezilta": 935,
  "\u2581Lik": 936,
  "\u258129": 937,
  "\u2581akonpli": 938,
  "\u2581care": 939,
  "\u2581continue": 940,
  "al": 941,
  "\u2581kind": 942,
  "\u2581k\u00e8lke": 943,
  "\u2581touye": 944,
  "\u2581while": 945,
  "\u2581here": 946,
  "\u2581happy": 947,
  "\u2581possible": 948,
  "\u2581Et": 949,
  "\u2581B": 950,
  "\u2581conduct": 951,
  "\u2581bliye": 952,
  "\u2581detwi": 953,
  "\u2581m\u00e8t": 954,
  "\u2581again": 955,
  "\u2581mouton": 956,
  "\u2581Jodi": 957,
  "\u2581anpeche": 958,
  "\u2581atansyon": 959,
  "\u2581best": 960,
  "\u25818,": 961,
  "\u2581desire": 962,
  "\u2581serving": 963,
  "\u2581answer": 964,
  "\u2581soufri": 965,
  "i": 966,
  "\u2581hard": 967,
  "\u258114,": 968,
  "\u2581amoni": 969,
  "yon": 970,
  "\u2581jwe": 971,
  "\u2581Timote": 972,
  "\u2581eyes": 973,
  "\u2581pye": 974,
  "\u2581Byenke": 975,
  "\u2581pet\u00e8t": 976,
  "\u25814,": 977,
  "\u2581ans\u00e8yman": 978,
  "\u2581reprezante": 979,
  "\u2581ever": 980,
  "\u2581kapasite": 981,
  "\u2581reyalize": 982,
  "\u2581asiste": 983,
  "\u2581lwa": 984,
  "\u2581nations": 985,
  "\u2581rekon\u00e8t": 986,
  "\u2581Timothy": 987,
  "\u2581sist\u00e8m": 988,
  "\u2581gran": 989,
  "\u2581system": 990,
  "\u2581last": 991,
  "\u2581pouvwa": 992,
  "\u2581Lord": 993,
  "\u2581Consider": 994,
  "\u2581evite": 995,
  "\u2581mean": 996,
  "\u2581Joz\u00e8f": 997,
  "\u2581between": 998,
  "\u2581different": 999,
  "\u2581matter": 1000,
  "\u2581woman": 1001,
  "\u2581follow": 1002,
  "\u2581righteous": 1003,
  "\u2581*.": 1004,
  "\u2581mother": 1005,
  "\u2581kouraj": 1006,
  "Gade": 1007,
  "\u2581lage": 1008,
  "-": 1009,
  "\u2581teaching": 1010,
  "enp\u00f2t": 1011,
  "\u2581ch\u00e8f": 1012,
  "\u2581kreye": 1013,
  "\u2581PAJ": 1014,
  "\u2581enjoy": 1015,
  "\u2581lives": 1016,
  "\u2581posiblite": 1017,
  "\u2581sove": 1018,
  "\u2581baptized": 1019,
  "\u2581wisdom": 1020,
  "\u2581Because": 1021,
  "\u2581From": 1022,
  "\u2581left": 1023,
  "\u2581little": 1024,
  "hose": 1025,
  "\u2581Isaiah": 1026,
  "\u2581fine": 1027,
  "\u2581pray": 1028,
  "\u2581dout": 1029,
  "\u2581Adan": 1030,
  "\u2581eksperyans": 1031,
  "\u2581receive": 1032,
  "\u2581soutni": 1033,
  "\u2581following": 1034,
  "\u2581situation": 1035,
  "\u2581All": 1036,
  "\u258133": 1037,
  "\u25817,": 1038,
  "\u2581dwa": 1039,
  "\u2581number": 1040,
  "\u2581slave": 1041,
  "\u2581speak": 1042,
  "\u258126": 1043,
  "\u258112,": 1044,
  "\u2581Adam": 1045,
  "\u2581giving": 1046,
  "\u2581sure": 1047,
  "\u2581\u00f2ganizasyon": 1048,
  "\u2581lead": 1049,
  "\u2581Joseph": 1050,
  "\u258127": 1051,
  "\u2581followers": 1052,
  "\u2581self": 1053,
  "\u2581anviwon": 1054,
  "\u2581bad": 1055,
  "\u2581sense": 1056,
  "\u25812,": 1057,
  "\u2581These": 1058,
  "\u2581king": 1059,
  "\u2581Lef\u00e8tke": 1060,
  "\u2581dispoze": 1061,
  "\u2581knew": 1062,
  "\u2581respect": 1063,
  "\u2581byenf\u00e8": 1064,
  "\u2581cannot": 1065,
  "\u2581mitan": 1066,
  "\u2581Devil": 1067,
  "\u2581lek\u00f2l": 1068,
  "\u2581remain": 1069,
  "\u2581few": 1070,
  "\u2581food": 1071,
  "\u2581kouri": 1072,
  "\u2581trust": 1073,
  "\u258112:": 1074,
  "\u258120.": 1075,
  "\u2581padone": 1076,
  "\u2581saying": 1077,
  "\u2581solid": 1078,
  "\u2581imitate": 1079,
  "\u2581Sey\u00e8": 1080,
  "\u2581kindness": 1081,
  "\u2581problems": 1082,
  "\u2581Law": 1083,
  "\u2581way\u00f2m": 1084,
  "\u258111,": 1085,
  "\u2581Acts": 1086,
  "\u2581free": 1087,
  "re": 1088,
  "\u2581draw": 1089,
  "\u2581lajan": 1090,
  "\u2581near": 1091,
  "\u2581yourself": 1092,
  "\u2581account": 1093,
  "\u2581sisters": 1094,
  "\u2581point": 1095,
  "man": 1096,
  "\u2581l\u00e8t": 1097,
  "\u2581wise": 1098,
  "pandan": 1099,
  "\u2581attitude": 1100,
  "\u2581members": 1101,
  "\u2581question": 1102,
  "\u2581santiman": 1103,
  "\u2581veye": 1104,
  "\u2581saw": 1105,
  "\u2581sheep": 1106,
  "\u2581dezi": 1107,
  "\u2581Women": 1108,
  "\u2581annapre": 1109,
  "\u2581glwa": 1110,
  "\u2581present": 1111,
  "\u2581went": 1112,
  "\u2581diferan": 1113,
  "\u2581rich": 1114,
  "\u2581act": 1115,
  "\u2581fo": 1116,
  "\u2581lwen": 1117,
  "\u2581needs": 1118,
  "\u2581next": 1119,
  "\u2581pr\u00e8t": 1120,
  "nou": 1121,
  "K": 1122,
  "\u2581f\u00f2me": 1123,
  "\u2581prophet": 1124,
  "\u258116,": 1125,
  "\u2581better": 1126,
  "\u2581wout": 1127,
  "f\u00f2": 1128,
  "\u2581certain": 1129,
  "\u2581direksyon": 1130,
  "\u2581fen": 1131,
  "\u2581apostles": 1132,
  "\u2581difficult": 1133,
  "\u2581000": 1134,
  "\u2581city": 1135,
  "\u2581ev\u00e8nman": 1136,
  "\u2581Ebre": 1137,
  "\u2581Your": 1138,
  "\u2581friends": 1139,
  "\u2581yet": 1140,
  "\u2581pwom\u00e8t": 1141,
  "\u2581moved": 1142,
  "\u2581fear": 1143,
  "\u2581kado": 1144,
  "\u2581Of": 1145,
  "\u2581dwat": 1146,
  "\u2581law": 1147,
  "\u2581resurrection": 1148,
  "m": 1149,
  "\u2581aplike": 1150,
  "\u2581b\u00e8t": 1151,
  "\u2581qualities": 1152,
  "\u258121.": 1153,
  "\u258131": 1154,
  "\u2581feelings": 1155,
  "\u2581andire": 1156,
  "\u2581tanp": 1157,
  "\u2581Does": 1158,
  "\u2581toutbon": 1159,
  "\u2581Mete": 1160,
  "\u2581loyal": 1161,
  "\u2581bonte": 1162,
  "\u2581vivan": 1163,
  "\u2581strong": 1164,
  "\u2581attention": 1165,
  "\u2581s": 1166,
  "\u2581chapit": 1167,
  "\u2581Travay": 1168,
  "\u2581received": 1169,
  "\u2581thinking": 1170,
  "\u2581off": 1171,
  "\u2581teach": 1172,
  "\u2581dak\u00f2": 1173,
  "\u2581nation": 1174,
  "\u2581wanted": 1175,
  "\u2581whole": 1176,
  "\u2581wrong": 1177,
  "\u2581known": 1178,
  "\u2581plas": 1179,
  "\u2581mwa": 1180,
  "\u2581saj": 1181,
  "\u2581thus": 1182,
  "\u2581believe": 1183,
  "\u2581Anf\u00e8t": 1184,
  "\u2581spiritually": 1185,
  "\u2581blood": 1186,
  "\u2581My": 1187,
  "\u2581allow": 1188,
  "\u2581resisite": 1189,
  "\u2581likely": 1190,
  "\u2581dispozisyon": 1191,
  "anv\u00e8": 1192,
  "\u2581nor": 1193,
  "\u2581prayers": 1194,
  "\u2581provide": 1195,
  "\u2581neses\u00e8": 1196,
  "\u2581far": 1197,
  "\u2581remake": 1198,
  "\u2581Jews": 1199,
  "\u2581gift": 1200,
  "\u2581real": 1201,
  "\u258113,": 1202,
  "\u2581Who": 1203,
  "\u2581kingdom": 1204,
  "\u2581pozisyon": 1205,
  "\u2581piblikasyon": 1206,
  "\u2581pwoche": 1207,
  "\u2581swa": 1208,
  "\u2581Corinthians": 1209,
  "\u2581individuals": 1210,
  "\u2581makes": 1211,
  "\u2581gives": 1212,
  "\u2581temple": 1213,
  "\u2581everlasting": 1214,
  "\u2581land": 1215,
  "\u2581pak\u00e8t": 1216,
  "\u2581religious": 1217,
  "\u2581Noye": 1218,
  "\u2581died": 1219,
  "\u2581until": 1220,
  "\u2581sacrifice": 1221,
  "\u25aa": 1222,
  "\u2581Daniel": 1223,
  "\u2581Although": 1224,
  "\u2581w\u00f2l": 1225,
  "See": 1226,
  "\u2581chemen": 1227,
  "\u2581especially": 1228,
  "\u2581okazyon": 1229,
  "\u2581shows": 1230,
  "\u2581case": 1231,
  "\u2581ofri": 1232,
  "\u2581sons": 1233,
  "\u2581Kounye": 1234,
  "\u2581toutbonvre": 1235,
  "\u2581since": 1236,
  "\u2581av\u00e8tisman": 1237,
  "\u2581cause": 1238,
  "\u2581pr\u00e8v": 1239,
  "\u2581sij\u00e8": 1240,
  "\u2581Toudegad": 1241,
  "\u2581brought": 1242,
  "\u2581false": 1243,
  "\u2581k\u00f2mandman": 1244,
  "\u2581loved": 1245,
  "\u2581thought": 1246,
  "\u2581Izayi": 1247,
  "\u2581Revelation": 1248,
  "\u2581whe": 1249,
  "\u2581Korentyen": 1250,
  "\u2581wen": 1251,
  "\u2581leson": 1252,
  "\u2581married": 1253,
  "\u2581NW": 1254,
  "\u2581Revelasyon": 1255,
  "\u2581fav\u00e8": 1256,
  "\u2581reyisi": 1257,
  "\u2581kwayan": 1258,
  "\u2581k\u00f2mansman": 1259,
  "\u2581l\u00f2d": 1260,
  "\u2581chanjman": 1261,
  "\u2581similar": 1262,
  "\u2581gouv\u00e8nman": 1263,
  "\u2581moral": 1264,
  "\u2581righteousness": 1265,
  "\u2581Can": 1266,
  "\u2581James": 1267,
  "\u2581fikse": 1268,
  "\u2581jistis": 1269,
  "\u2581piske": 1270,
  "\u2581matters": 1271,
  "\u2581rezir\u00e8ksyon": 1272,
  "\u2581kanpe": 1273,
  "\u2581ancient": 1274,
  "\u2581change": 1275,
  "\u2581Jak": 1276,
  "\u2581body": 1277,
  "\u2581kat": 1278,
  "\u2581New": 1279,
  "\u2581Romans": 1280,
  "\u2581examples": 1281,
  "\u2581ke": 1282,
  "\u2581chita": 1283,
  "\u2581otorite": 1284,
  "\u258140": 1285,
  "\u2581espwa": 1286,
  "\u2581f\u00f2masyon": 1287,
  "\u2581taking": 1288,
  "\u2581perfect": 1289,
  "\u2581turn": 1290,
  "\u2581sister": 1291,
  "\u2581Noah": 1292,
  "\u2581around": 1293,
  "\u2581states": 1294,
  "\u2581konduit": 1295,
  "\u2581reading": 1296,
  "\u2581enstriksyon": 1297,
  "\u2581suffering": 1298,
  "\u2581k\u00f2l\u00e8": 1299,
  "\u2581principles": 1300,
  "\u2581early": 1301,
  "wov\u00e8b": 1302,
  "\u2581manm": 1303,
  "tout": 1304,
  "\u2581Rather": 1305,
  "\u2581Thus": 1306,
  "\u258132": 1307,
  "\u2581More": 1308,
  "\u2581Oly": 1309,
  "\u2581Salomon": 1310,
  "\u2581THE": 1311,
  "\u2581espesyal": 1312,
  "\u2581lag\u00e8": 1313,
  "\u2581vizite": 1314,
  "\u2581taught": 1315,
  "\u2581F": 1316,
  "\u2581sitou": 1317,
  "\u2581soon": 1318,
  "\u2581PAGE": 1319,
  "\u2581dead": 1320,
  "\u2581second": 1321,
  "\u258120:": 1322,
  "\u2581Proverbs": 1323,
  "\u2581comfort": 1324,
  "\u2581information": 1325,
  "\u2581thing": 1326,
  "\u2581kraze": 1327,
  "\u2581merite": 1328,
  "\u2581reyalite": 1329,
  "\u2581Scriptural": 1330,
  "\u2581d\u00e8y\u00e8": 1331,
  "\u258117,": 1332,
  "\u2581fwi": 1333,
  "ntanke": 1334,
  "\u2581k\u00f2man": 1335,
  "\u2581prophecy": 1336,
  "uch": 1337,
  "\u2581heard": 1338,
  "\u2581paf\u00e8": 1339,
  "\u258123.": 1340,
  "\u2581comes": 1341,
  "\u2581p": 1342,
  "\u2581talk": 1343,
  "\u2581temwayaj": 1344,
  "\u2581d\u00e8ske": 1345,
  "\u2581kiy\u00e8s": 1346,
  "\u2581site": 1347,
  "\u2581Malgre": 1348,
  "\u2581R": 1349,
  "\u2581clear": 1350,
  "\u2581works": 1351,
  "\u2581control": 1352,
  "\u2581tw\u00f2": 1353,
  "\u2581pwennvi": 1354,
  "\u2581try": 1355,
  "\u2581Are": 1356,
  "\u2581apresye": 1357,
  "\u2581preach": 1358,
  "\u2581respekte": 1359,
  "\u2581sent": 1360,
  "\u2581special": 1361,
  "Nou": 1362,
  "\u2581age": 1363,
  "\u2581beni": 1364,
  "\u2581estraw\u00f2din\u00e8": 1365,
  "\u2581milyon": 1366,
  "\u2581anonse": 1367,
  "\u2581truly": 1368,
  "\u2581Solomon": 1369,
  "\u2581O": 1370,
  "\u2581high": 1371,
  "\u2581Would": 1372,
  "sa": 1373,
  "\u2581KI": 1374,
  "\u2581Mat": 1375,
  "\u2581pasyans": 1376,
  "\u2581Bay": 1377,
  "\u2581blessings": 1378,
  "\u2581rule": 1379,
  "\u2581forever": 1380,
  "\u2581Now": 1381,
  "\u2581circumstances": 1382,
  "\u2581f\u00f2m": 1383,
  "\u2581pr\u00e8ske": 1384,
  "\u2581along": 1385,
  "\u258118,": 1386,
  "\u258137": 1387,
  "\u2581decisions": 1388,
  "\u2581inspired": 1389,
  "\u2581mentioned": 1390,
  "\u2581konte": 1391,
  "\u2581limit": 1392,
  "\u2581coming": 1393,
  "\u2581fully": 1394,
  "\u2581soufrans": 1395,
  "\u2581Non": 1396,
  "Bondye": 1397,
  "\u2581privilege": 1398,
  "\u2581strengthen": 1399,
  "\u2581Paske": 1400,
  "\u2581bw\u00e8": 1401,
  "\u2581happiness": 1402,
  "\u2581konsantre": 1403,
  "\u2581lapriy\u00e8": 1404,
  "\u2581\u00e8nmi": 1405,
  "\u2581strength": 1406,
  "\u2581danje": 1407,
  "\u2581retire": 1408,
  "\u2581pisans": 1409,
  "\u2581tire": 1410,
  "\u2581\u00c8v": 1411,
  "\u258122.": 1412,
  "\u2581atann": 1413,
  "\u2581believers": 1414,
  "\u2581limanite": 1415,
  "\u2581maladi": 1416,
  "\u2581involved": 1417,
  "\u2581chaje": 1418,
  "\u2581enfliyans": 1419,
  "\u2581including": 1420,
  "\u2581Like": 1421,
  "\u2581integrity": 1422,
  "\u2581touche": 1423,
  "\u2581tandans": 1424,
  "\u2581angels": 1425,
  "nnik": 1426,
  "\u2581four": 1427,
  "\u2581sante": 1428,
  "\u2581school": 1429,
  "\u2581Gade": 1430,
  "\u2581Mari": 1431,
  "\u2581Today": 1432,
  "\u2581Not": 1433,
  "\u2581organization": 1434,
  "\u2581provided": 1435,
  "\u2581Dyab": 1436,
  "espite": 1437,
  "\u2581Epi": 1438,
  "\u2581twouve": 1439,
  "\u2581Okontr\u00e8": 1440,
  "\u2581accept": 1441,
  "\u2581glory": 1442,
  "\u2581konsyans": 1443,
  "olye": 1444,
  "\u2581direction": 1445,
  "\u2581kou": 1446,
  "\u2581understanding": 1447,
  "\u2581witness": 1448,
  "\u2581KANTI": 1449,
  "\u2581Since": 1450,
  "\u2581nothing": 1451,
  "\u2581certainly": 1452,
  "on": 1453,
  "\u2581material": 1454,
  "\u2581night": 1455,
  "\u2581regard": 1456,
  "\u2581honor": 1457,
  "\u2581Tim": 1458,
  "\u258134": 1459,
  "\u2581don": 1460,
  "\u2581f\u00e8m": 1461,
  "\u2581Watchtower": 1462,
  "\u2581anyone": 1463,
  "\u2581baze": 1464,
  "\u2581showed": 1465,
  "\u2581war": 1466,
  "\u2581Creator": 1467,
  "\u2581opportunity": 1468,
  "\u2581senp": 1469,
  "\u2581using": 1470,
  "\u2581Instead": 1471,
  "\u2581foul": 1472,
  "\u2581promise": 1473,
  "\u2581delivre": 1474,
  "\u2581regily\u00e8man": 1475,
  "\u2581effect": 1476,
  "\u2581greater": 1477,
  "\u2581gide": 1478,
  "\u2581interest": 1479,
  "\u2581rekonesans": 1480,
  "\u2581money": 1481,
  "\u2581prove": 1482,
  "\u2581return": 1483,
  "\u2581Will": 1484,
  "\u2581re": 1485,
  "\u2581small": 1486,
  "palan": 1487,
  "\u2581grav": 1488,
  "\u2581blessing": 1489,
  "\u2581confidence": 1490,
  "\u2581please": 1491,
  "er": 1492,
  "\u2581past": 1493,
  "\u2581seen": 1494,
  "\u2581apply": 1495,
  "\u2581meaning": 1496,
  "\u2581maintain": 1497,
  "\u2581Be": 1498,
  "\u2581malgre": 1499,
  "\u258124.": 1500,
  "\u2581Mary": 1501,
  "\u2581pwoklamat\u00e8": 1502,
  "\u2581value": 1503,
  "hile": 1504,
  "\u2581aje": 1505,
  "\u2581jijman": 1506,
  "\u2581peye": 1507,
  "\u2581serious": 1508,
  "You": 1509,
  "\u2581helps": 1510,
  "\u2581medite": 1511,
  "\u2581miz\u00e8rik\u00f2d": 1512,
  "\u2581group": 1513,
  "\u2581water": 1514,
  "\u2581matery\u00e8l": 1515,
  "\u2581willing": 1516,
  "kont": 1517,
  "\u2581Apot": 1518,
  "\u2581actually": 1519,
  "\u2581tikras": 1520,
  "\u2581lost": 1521,
  "\u2581already": 1522,
  "\u2581couple": 1523,
  "\u2581evidence": 1524,
  "\u2581ransom": 1525,
  "\u2581written": 1526,
  "\u2581envite": 1527,
  "\u2581religion": 1528,
  "\u2581remember": 1529,
  "\u2581abite": 1530,
  "\u2581doubt": 1531,
  "\u2581lapenn": 1532,
  "\u2581s\u00e8tadi": 1533,
  "\u2581once": 1534,
  "\u2581wants": 1535,
  "\u2581jaden": 1536,
  "\u2581powerful": 1537,
  "\u2581twonpe": 1538,
  "\u2581kept": 1539,
  "\u2581toupre": 1540,
  "\u2581grandi": 1541,
  "\u2581regarding": 1542,
  "\u2581stand": 1543,
  "\u2581Kreyat\u00e8": 1544,
  "\u2581f\u00f2": 1545,
  "tire": 1546,
  "\u2581congregations": 1547,
  "\u2581sezi": 1548,
  "\u2581wonderful": 1549,
  "\u2581effort": 1550,
  "\u2581decision": 1551,
  "\u2581heavens": 1552,
  "\u2581illustration": 1553,
  "\u2581lame": 1554,
  "\u2581siveyan": 1555,
  "\u25819,": 1556,
  "\u2581Eve": 1557,
  "\u2581gentan": 1558,
  "\u2581promises": 1559,
  "\u2581piti": 1560,
  "\u2581divine": 1561,
  "\u2581health": 1562,
  "asyon": 1563,
  "\u2581Greek": 1564,
  "\u2581lajwa": 1565,
  "\u2581large": 1566,
  "\u2581positive": 1567,
  "\u2581visit": 1568,
  "\u2581F\u00e8": 1569,
  "\u2581affect": 1570,
  "\u2581older": 1571,
  "\u2581p\u00e8sonn": 1572,
  "\u2581speaking": 1573,
  "\u2581vital": 1574,
  "\u2581courage": 1575,
  "\u2581obey": 1576,
  "\u2581Mesi": 1577,
  "\u2581bouch": 1578,
  "\u2581deep": 1579,
  "\u2581events": 1580,
  "\u2581ranson": 1581,
  "\u2581pibliye": 1582,
  "\u2581Hebrews": 1583,
  "\u2581covenant": 1584,
  "\u2581manti": 1585,
  "\u2581ofrann": 1586,
  "\u2581prizon": 1587,
  "\u2581taken": 1588,
  "\u2581Did": 1589,
  "\u2581anndan": 1590,
  "\u2581rejte": 1591,
  "\u2581sousi": 1592,
  "\u258125.": 1593,
  "\u2581spoke": 1594,
  "\u2581trete": 1595,
  "\u2581alyans": 1596,
  "\u2581pw\u00f2ch": 1597,
  "--": 1598,
  "\u2581manke": 1599,
  "\u2581pioneer": 1600,
  "\u2581Anpil": 1601,
  "\u2581appointed": 1602,
  "\u2581chante": 1603,
  "\u2581k\u00f2msi": 1604,
  "\u2581leave": 1605,
  "\u2581Dep": 1606,
  "\u2581difikilte": 1607,
  "\u2581kongr\u00e8": 1608,
  "\u2581Lalwa": 1609,
  "\u2581et\u00e8n\u00e8l": 1610,
  "\u2581siy": 1611,
  "\u2581efforts": 1612,
  "\u2581Sal": 1613,
  "\u2581everything": 1614,
  "\u2581lib\u00e8te": 1615,
  "\u2581Hebrew": 1616,
  "\u2581World": 1617,
  "\u2581diskou": 1618,
  "\u2581got": 1619,
  "\u2581Still": 1620,
  "\u2581foretold": 1621,
  "\u2581respond": 1622,
  ").": 1623,
  "\u2581promised": 1624,
  "\u2581',": 1625,
  "\u2581light": 1626,
  "\u2581happened": 1627,
  "\u2581judgment": 1628,
  "L\u00e8": 1629,
  "\u2581gr\u00e8k": 1630,
  "\u2581jiskaske": 1631,
  "\u2581listen": 1632,
  "\u2581vwe": 1633,
  "\u2581Mark": 1634,
  "\u2581SONGS": 1635,
  "\u2581dekouraje": 1636,
  "\u2581determined": 1637,
  "A": 1638,
  "Jehovah": 1639,
  "\u2581Indeed": 1640,
  "\u2581according": 1641,
  "\u2581asp\u00e8": 1642,
  "\u2581call": 1643,
  "\u2581earthly": 1644,
  "\u2581wo": 1645,
  "\u2581deal": 1646,
  "\u2581f\u00f2tifye": 1647,
  "\u2581menmsi": 1648,
  "\u2581repanti": 1649,
  "\u2581Dur": 1650,
  "\u2581authority": 1651,
  "\u2581friend": 1652,
  "\u2581therefore": 1653,
  "\u2581appreciation": 1654,
  "\u2581granmoun": 1655,
  "\u2581pwogram": 1656,
  "\u2581un": 1657,
  "\u2581hearts": 1658,
  "\u2581further": 1659,
  "\u2581issue": 1660,
  "\u2581reflect": 1661,
  "\u2581sakre": 1662,
  "\u2581sins": 1663,
  "\u2581tradiksyon": 1664,
  "\u2581enter\u00e8": 1665,
  "\u2581m\u00f2n": 1666,
  "\u2581sem\u00e8n": 1667,
  "\u2581Annapre": 1668,
  "\u2581Saul": 1669,
  "\u2581entegrite": 1670,
  "\u2581mondyal": 1671,
  "\u2581pafwa": 1672,
  "\u2581tribilasyon": 1673,
  "\u2581chapter": 1674,
  "\u2581gain": 1675,
  "\u2581based": 1676,
  "\u2581Vr\u00e8manvre": 1677,
  "\u2581recorded": 1678,
  "\u2581Jen\u00e8z": 1679,
  "\u2581fidelite": 1680,
  "Si": 1681,
  "\u2581conscience": 1682,
  "\u2581plen": 1683,
  "\u2581standards": 1684,
  "\u2581field": 1685,
  "\u2581Genesis": 1686,
  "\u2581branch": 1687,
  "\u2581det\u00e8minasyon": 1688,
  "\u2581imajine": 1689,
  "\u2581physical": 1690,
  "\u2581relijye": 1691,
  "\u2581akl\u00e8": 1692,
  "\u2581isit": 1693,
  "\u2581psalmist": 1694,
  "\u2581wi": 1695,
  "God": 1696,
  "\u2581Ala": 1697,
  "\u2581Jida": 1698,
  "\u2581perhaps": 1699,
  "\u2581rayi": 1700,
  "\u2581Mak": 1701,
  "\u2581b\u00e8je": 1702,
  "\u2581soum\u00e8t": 1703,
  "\u2581Matt": 1704,
  "\u2581Watch": 1705,
  "\u2581meeting": 1706,
  "Pa": 1707,
  "\u2581offer": 1708,
  "\u2581served": 1709,
  "\u2581shall": 1710,
  "\u2581D\u00e0ny\u00e8l": 1711,
  "\u2581anything": 1712,
  "\u2581onore": 1713,
  "\u2581role": 1714,
  "\u2581stated": 1715,
  "\u2581hear": 1716,
  "\u2581malad": 1717,
  "\u2581sere": 1718,
  "\u2581clearly": 1719,
  "\u2581er\u00e8": 1720,
  "\u2581rather": 1721,
  "\u2581stay": 1722,
  "\u2581tradui": 1723,
  "\u2581abitid": 1724,
  "\u2581mirak": 1725,
  "\u2581toupatou": 1726,
  "M": 1727,
  "\u2581experienced": 1728,
  "C": 1729,
  "\u00e8": 1730,
  "\u2581trials": 1731,
  "\u2581within": 1732,
  "\u2581appreciate": 1733,
  "\u2581thoughts": 1734,
  "\u2581d\u00f2mi": 1735,
  "\u2581nanm": 1736,
  "ting": 1737,
  "\u2581dominasyon": 1738,
  "\u2581pwogr\u00e8": 1739,
  "\u2581Jeremiah": 1740,
  "\u2581complete": 1741,
  "\u2581humility": 1742,
  "over": 1743,
  "\u2581Hence": 1744,
  "\u2581Jeremi": 1745,
  "\u2581focus": 1746,
  "\u2581k\u00f2b": 1747,
  "\u2581lived": 1748,
  "\u2581pwochen": 1749,
  "\u2581Their": 1750,
  "\u2581activities": 1751,
  "\u2581baptism": 1752,
  "\u2581start": 1753,
  "\u2581d": 1754,
  "\u2581ranpli": 1755,
  "\u2581endure": 1756,
  "\u2581foto": 1757,
  "org": 1758,
  "\u2581ankourajman": 1759,
  "\u2581form": 1760,
  "\u2581praise": 1761,
  "\u2581started": 1762,
  "\u2581pages": 1763,
  "\u2581helping": 1764,
  "\u2581konpare": 1765,
  "\u2581misyon\u00e8": 1766,
  "\u2581konv\u00e8sasyon": 1767,
  "\u2581pre": 1768,
  "\u2581seek": 1769,
  "w": 1770,
  "\u2581responsibility": 1771,
  "\u2581else": 1772,
  "\u2581hold": 1773,
  "\u2581sibi": 1774,
  "\u2581sit": 1775,
  "Jewova": 1776,
  "\u25811914": 1777,
  "\u2581dezy\u00e8m": 1778,
  "\u2581elder": 1779,
  "\u2581itil": 1780,
  "\u2581letter": 1781,
  "\u2581reasons": 1782,
  "\u2581rezoud": 1783,
  "\u2581t\u00e8ritwa": 1784,
  "),": 1785,
  "\u2581local": 1786,
  "ye": 1787,
  "\u2581Therefore": 1788,
  "\u2581country": 1789,
  "\u2581Messiah": 1790,
  "\u2581ability": 1791,
  "\u2581flesh": 1792,
  "\u2581kondisyon": 1793,
  "\u2581Ak": 1794,
  "\u2581Egypt": 1795,
  "\u2581abandone": 1796,
  "\u2581explained": 1797,
  "\u2581presyon": 1798,
  "\u2581rakonte": 1799,
  "in": 1800,
  "\u2581Bet\u00e8l": 1801,
  "\u2581guidance": 1802,
  "\u2581influence": 1803,
  "\u2581longer": 1804,
  "\u2581precious": 1805,
  "\u2581actions": 1806,
  "\u2581answers": 1807,
  "\u2581l\u00f2m": 1808,
  "\u2581open": 1809,
  "\u2581Av\u00e8": 1810,
  "\u2581Ps": 1811,
  "\u2581changed": 1812,
  "\u2581head": 1813,
  "\u2581advice": 1814,
  "\u2581available": 1815,
  "\u2581considered": 1816,
  "\u2581devlope": 1817,
  "\u2581jije": 1818,
  "\u2581First": 1819,
  "\u2581instance": 1820,
  "\u2581walk": 1821,
  "\u2581worldwide": 1822,
  "\u2581Tower": 1823,
  "\u2581action": 1824,
  "\u2581monte": 1825,
  "\u2581simply": 1826,
  "\u2581teachings": 1827,
  "\u2581Samuel": 1828,
  "\u2581fache": 1829,
  "\u2581pratik": 1830,
  "\u2581pratike": 1831,
  "\u2581public": 1832,
  "less": 1833,
  "\u2581Jewish": 1834,
  "\u2581humble": 1835,
  "\u2581lanm\u00e8": 1836,
  "\u2581meet": 1837,
  "\u2581concern": 1838,
  "\u2581continued": 1839,
  "\u2581kwayans": 1840,
  "\u2581p\u00e8son\u00e8l": 1841,
  "l": 1842,
  "\u2581mate": 1843,
  "\u2581Etandone": 1844,
  "\u2581People": 1845,
  "\u2581apwopriye": 1846,
  "\u2581desires": 1847,
  "\u2581limy\u00e8": 1848,
  "\u2581o": 1849,
  "\u2581refize": 1850,
  "\u2581Cha": 1851,
  "\u2581Just": 1852,
  "\u2581enpaf\u00e8": 1853,
  "\u2581gaye": 1854,
  "godly": 1855,
  "\u2581Ejip": 1856,
  "\u2581build": 1857,
  "\u2581enspire": 1858,
  "\u2581imperfect": 1859,
  "\u2581toule": 1860,
  "\u2581May": 1861,
  "\u2581dife": 1862,
  "\u2581reach": 1863,
  "\u2581born": 1864,
  "\u2581dey\u00f2": 1865,
  "\u2581mechanste": 1866,
  "\u2581sekirite": 1867,
  "\u2581Epitou": 1868,
  "\u2581La": 1869,
  "\u2581baz": 1870,
  "\u2581clean": 1871,
  "\u2581dam": 1872,
  "\u2581pen": 1873,
  "\u2581position": 1874,
  "\u2581proved": 1875,
  "\u2581alone": 1876,
  "\u2581boule": 1877,
  "\u2581showing": 1878,
  "\u2581whose": 1879,
  "\u2581Premye": 1880,
  "\u2581named": 1881,
  "\u2581Bethel": 1882,
  "\u2581De": 1883,
  "\u2581Or": 1884,
  "\u2581common": 1885,
  "\u2581problem": 1886,
  "\u2581pwodui": 1887,
  "\u2581tribulation": 1888,
  "\u2581vit": 1889,
  "\u2581evil": 1890,
  "\u2581provides": 1891,
  "\u2581Kiy\u00e8s": 1892,
  "\u2581jeneral": 1893,
  "th": 1894,
  "\u2581Footnote": 1895,
  "\u2581seksy\u00e8l": 1896,
  "\u2581Faso": 1897,
  "\u2581N\u00f2t": 1898,
  "\u2581Youn": 1899,
  "\u2581enteresan": 1900,
  "\u2581prezante": 1901,
  "\u2581hands": 1902,
  "\u2581Pafwa": 1903,
  "\u2581choose": 1904,
  "\u2581det\u00e8mine": 1905,
  "\u2581encourage": 1906,
  "\u258129.": 1907,
  "\u2581Have": 1908,
  "\u2581filyal": 1909,
  "\u2581harmony": 1910,
  "\u2581s\u00e8ke": 1911,
  "\u2581kache": 1912,
  "\u2581rad": 1913,
  "\u2581soul": 1914,
  "\u2581Byen": 1915,
  "\u2581accepted": 1916,
  "\u2581prayed": 1917,
  "\u2581Anvan": 1918,
  "\u2581atitid": 1919,
  "\u2581legliz": 1920,
  "\u2581K\u00f2man": 1921,
  "\u2581lafen": 1922,
  "\u2581prensipal": 1923,
  "\u2581pwofite": 1924,
  "\u2581p\u00e8sekisyon": 1925,
  "\u2581s\u00f2lda": 1926,
  "\u2581tit": 1927,
  "\u2581NAN": 1928,
  "\u2581sovereignty": 1929,
  "\u2581K\u00e8": 1930,
  "\u2581examine": 1931,
  "\u2581led": 1932,
  "\u258170": 1933,
  "\u2581Atik": 1934,
  "\u2581government": 1935,
  "\u2581mercy": 1936,
  "\u2581unity": 1937,
  "v\u00e8s": 1938,
  "\u2581Ko": 1939,
  "\u2581die": 1940,
  "\u2581dye": 1941,
  "\u2581subject": 1942,
  "\u2581Jacob": 1943,
  "\u2581easy": 1944,
  "\u2581Love": 1945,
  "\u2581See": 1946,
  "\u2581ase": 1947,
  "\u2581egzak": 1948,
  "\u2581ekspresyon": 1949,
  "\u2581poor": 1950,
  "\u2581Pictures": 1951,
  "\u2581dekri": 1952,
  "\u2581described": 1953,
  "\u2581etranje": 1954,
  "\u2581Samy\u00e8l": 1955,
  "\u2581Sayil": 1956,
  "\u2581creation": 1957,
  "\u2581express": 1958,
  "\u2581history": 1959,
  "\u2581knows": 1960,
  "\u2581vire": 1961,
  "\u2581particular": 1962,
  "\u2581raised": 1963,
  "\u2581ide": 1964,
  "\u2581pito": 1965,
  "\u2581Babil\u00f2n": 1966,
  "\u2581Rev": 1967,
  "\u2581changes": 1968,
  "\u2581paradi": 1969,
  "\u2581chape": 1970,
  "\u2581proper": 1971,
  "\u2581tantasyon": 1972,
  "\u2581vwayaje": 1973,
  "\u2581worshippers": 1974,
  "\u2581Joshua": 1975,
  "\u2581class": 1976,
  "\u2581modern": 1977,
  "\u2581pataje": 1978,
  "\u2581warning": 1979,
  "\u2581pozitif": 1980,
  "\u2581p\u00f2v": 1981,
  "\u2581training": 1982,
  "\u2581Dapr": 1983,
  "\u2581K\u00f2m": 1984,
  "\u2581konsekans": 1985,
  "\u2581seeking": 1986,
  "\u2581ten": 1987,
  "\u2581Later": 1988,
  "\u2581True": 1989,
  "\u2581bear": 1990,
  "\u2581stop": 1991,
  "\u2581tw\u00f2p": 1992,
  "\u2581p\u00e8sonalite": 1993,
  "\u2581ebre": 1994,
  "\u2581rest": 1995,
  "\u2581display": 1996,
  "\u2581practical": 1997,
  "\u258128.": 1998,
  "\u2581assignment": 1999,
  "\u2581expression": 2000,
  "\u2581regularly": 2001,
  "\u258110,": 2002,
  "\u2581justice": 2003,
  "\u2581published": 2004,
  "\u2581angel": 2005,
  "\u2581carry": 2006,
  "\u2581earlier": 2007,
  "\u2581enemies": 2008,
  "\u2581freedom": 2009,
  "\u2581happen": 2010,
  "\u2581working": 2011,
  "moun": 2012,
  "\u2581line": 2013,
  "\u258131.": 2014,
  "\u2581n\u00f2mal": 2015,
  "\u2581va": 2016,
  "\u2581\u00f2ganize": 2017,
  "\u2581interests": 2018,
  "\u2581learning": 2019,
  "\u2581paragraf": 2020,
  "\u2581z\u00e8l": 2021,
  "\u2581Jak\u00f2b": 2022,
  "\u2581ajoute": 2023,
  "\u2581geri": 2024,
  "\u2581grow": 2025,
  "\u2581servant": 2026,
  "\u2581total": 2027,
  "\u258150": 2028,
  "\u2581detay": 2029,
  "\u2581enough": 2030,
  "\u2581lat\u00e8": 2031,
  "\u2581speech": 2032,
  "\u2581takes": 2033,
  "\u2581tried": 2034,
  "\u2581aplentan": 2035,
  "\u2581offered": 2036,
  "\u2581ready": 2037,
  "\u2581SA": 2038,
  "\u2581benefits": 2039,
  "\u2581command": 2040,
  "\u2581encouraged": 2041,
  "\u2581realize": 2042,
  "\u2581regular": 2043,
  "\u2581Roman": 2044,
  "\u2581frape": 2045,
  "\u2581occasion": 2046,
  "\u2581pare": 2047,
  "\u2581satisfaksyon": 2048,
  "\u2581twoupo": 2049,
  "\u2581daily": 2050,
  "\u2581vwa": 2051,
  "\u2581created": 2052,
  "\u2581voice": 2053,
  "ve": 2054,
  "\u2581egzakteman": 2055,
  "\u2581less": 2056,
  "\u2581everyone": 2057,
  "\u2581develop": 2058,
  "\u2581mere": 2059,
  "\u2581protect": 2060,
  "\u2581single": 2061,
  "\u2581Seny\u00e8": 2062,
  "\u2581addition": 2063,
  "\u2581dire": 2064,
  "\u2581explains": 2065,
  "\u2581Similarly": 2066,
  "\u2581ago": 2067,
  "\u2581crowd": 2068,
  "\u2581lesson": 2069,
  "en": 2070,
  "\u2581'?": 2071,
  "\u2581write": 2072,
  "Moun": 2073,
  "\u2581ditou": 2074,
  "\u2581etidyan": 2075,
  "\u2581fulfillment": 2076,
  "\u2581include": 2077,
  "se": 2078,
  "\u2581Un": 2079,
  "\u2581greatest": 2080,
  "\u2581Society": 2081,
  "\u2581pwoteksyon": 2082,
  "\u2581responsab": 2083,
  "\u2581w\u00f2ch": 2084,
  "\u2581According": 2085,
  "\u2581defann": 2086,
  "\u2581knowing": 2087,
  "\u2581ogmante": 2088,
  "\u2581rekonf\u00f2": 2089,
  "\u2581challenge": 2090,
  "\u2581goal": 2091,
  "\u2581pain": 2092,
  "\u2581walking": 2093,
  "\u2581libere": 2094,
  "\u2581bati": 2095,
  "\u2581chwa": 2096,
  "\u2581diferans": 2097,
  "\u2581laj": 2098,
  "\u2581nei": 2099,
  "\u2581p\u00f2t": 2100,
  "to": 2101,
  "\u2581fulfilled": 2102,
  "\u2581period": 2103,
  "nan": 2104,
  "\u2581birth": 2105,
  "\u2581pisan": 2106,
  "\u2581shepherd": 2107,
  "\u2581side": 2108,
  "\u2581100": 2109,
  "\u2581alive": 2110,
  "\u2581area": 2111,
  "\u2581closer": 2112,
  "\u2581daughter": 2113,
  "\u2581konpasyon": 2114,
  "\u2581politik": 2115,
  "\u2581resurrected": 2116,
  "\u2581rezonab": 2117,
  "l\u00e8j": 2118,
  "\u2581Before": 2119,
  "\u2581discuss": 2120,
  "\u2581Jozye": 2121,
  "\u2581behind": 2122,
  "\u2581forth": 2123,
  "\u2581kokenn": 2124,
  "\u2581achte": 2125,
  "\u2581blessed": 2126,
  "\u2581encouragement": 2127,
  "\u2581kout": 2128,
  "\u2581millions": 2129,
  "\u2581salvation": 2130,
  "\u2581sign": 2131,
  "\u2581wives": 2132,
  "\u258135": 2133,
  "\u2581above": 2134,
  "\u2581cultivate": 2135,
  "\u2581genuine": 2136,
  "\u2581individual": 2137,
  "\u2581personally": 2138,
  "\u2581vizyon": 2139,
  "\u2581Te": 2140,
  "\u2581behalf": 2141,
  "\u2581rasanble": 2142,
  "\u2581Cor": 2143,
  "\u2581Witness": 2144,
  "\u2581destruction": 2145,
  "\u2581koup": 2146,
  "\u2581mwens": 2147,
  "\u2581referans": 2148,
  "\u2581salmis": 2149,
  "\u2581santral": 2150,
  "\u2581seem": 2151,
  "\u2581sens\u00e8": 2152,
  "\u2581seven": 2153,
  "\u2581Gra": 2154,
  "\u2581entire": 2155,
  "\u2581fid\u00e8lman": 2156,
  "\u2581five": 2157,
  "\u2581goumen": 2158,
  "\u2581quality": 2159,
  "\u2581Keep": 2160,
  "\u2581allowed": 2161,
  "\u2581final": 2162,
  "\u2581konjwen": 2163,
  "\u2581United": 2164,
  "\u2581goals": 2165,
  "\u2581Perhaps": 2166,
  "\u2581faced": 2167,
  "\u2581languages": 2168,
  "\u2581negative": 2169,
  "\u2581ouvri": 2170,
  "\u2581prezan": 2171,
  "\u2581Others": 2172,
  "\u2581demon": 2173,
  "\u2581espri": 2174,
  "\u2581force": 2175,
  "\u2581several": 2176,
  "\u2581shown": 2177,
  "\u2581various": 2178,
  "\u258141": 2179,
  "\u2581jwa": 2180,
  "\u2581kreyasyon": 2181,
  "\u00e8lke": 2182,
  "\u2581expect": 2183,
  "pa": 2184,
  "\u2581Finalman": 2185,
  "\u2581eat": 2186,
  "\u2581enable": 2187,
  "\u2581opoze": 2188,
  "\u2581appropriate": 2189,
  "\u2581challenges": 2190,
  "\u2581indeed": 2191,
  "\u2581klas": 2192,
  "\u2581myself": 2193,
  "\u2581personality": 2194,
  "\u2581students": 2195,
  "\u2581suffer": 2196,
  "\u2581vwayaj": 2197,
  "\u2581becoming": 2198,
  "\u2581fruit": 2199,
  "\u2581note": 2200,
  "\u2581quickly": 2201,
  "\u2581atenn": 2202,
  "\u2581choice": 2203,
  "\u2581join": 2204,
  "\u2581revealed": 2205,
  "\u2581vyolans": 2206,
  "ever": 2207,
  "\u2581Judah": 2208,
  "\u2581acts": 2209,
  "\u2581deplase": 2210,
  "\u2581favor": 2211,
  "\u2581held": 2212,
  "\u2581results": 2213,
  "\u2581wonder": 2214,
  "\u2581sacred": 2215,
  "\u258133.": 2216,
  "\u2581basis": 2217,
  "\u2581disciple": 2218,
  "www": 2219,
  "\u2581bann": 2220,
  "\u2581r\u00e8s": 2221,
  "\u2581sacrifices": 2222,
  "\u2581Kor": 2223,
  "\u2581Us": 2224,
  "\u2581asiyasyon": 2225,
  "\u2581decided": 2226,
  "\u2581leaders": 2227,
  "\u2581posede": 2228,
  "o": 2229,
  "\u2581BIBLE": 2230,
  "\u2581Hall": 2231,
  "\u2581Most": 2232,
  "\u2581batay": 2233,
  "\u2581dis": 2234,
  "\u2581milye": 2235,
  "\u2581steps": 2236,
  "al\u00e8": 2237,
  "\u258127.": 2238,
  "\u2581attend": 2239,
  "\u2581deeply": 2240,
  "\u2581firm": 2241,
  "\u2581pery\u00f2d": 2242,
  "like": 2243,
  "\u2581Another": 2244,
  "\u2581imagine": 2245,
  "\u2581kondane": 2246,
  "\u2581machin": 2247,
  "\u2581paradise": 2248,
  "\u2581p\u00e8son\u00e8lman": 2249,
  "\u2581yourselves": 2250,
  "ki": 2251,
  "\u258122,": 2252,
  "\u2581al\u00f2ske": 2253,
  "\u2581deklare": 2254,
  "\u2581looking": 2255,
  "\u2581protection": 2256,
  "\u2581rech\u00e8ch": 2257,
  "\u2581Menmsi": 2258,
  "\u2581SOU": 2259,
  "\u2581desann": 2260,
  "\u2581flock": 2261,
  "\u2581lot": 2262,
  "es": 2263,
  "\u2581Pennsylvania": 2264,
  "\u2581months": 2265,
  "\u2581plenyen": 2266,
  "\u2581studying": 2267,
  "\u2581s\u00e8t": 2268,
  "\u2581Remember": 2269,
  "\u2581adorat\u00e8": 2270,
  "\u2581arrangement": 2271,
  "\u2581entansyon": 2272,
  "\u2581okipe": 2273,
  "\u2581publications": 2274,
  "\u2581Trac": 2275,
  "\u2581etabli": 2276,
  "\u2581laws": 2277,
  "\u2581source": 2278,
  "If": 2279,
  "\u2581Great": 2280,
  "\u2581Life": 2281,
  "\u2581Sou": 2282,
  "\u2581ahead": 2283,
  "\u2581forward": 2284,
  "\u2581parab\u00f2l": 2285,
  "\u2581practice": 2286,
  "\u2581whatever": 2287,
  "\u2581Ephesians": 2288,
  "\u2581Though": 2289,
  "\u2581kreyati": 2290,
  "\u2581strive": 2291,
  "\u2581x": 2292,
  "\u2581beyond": 2293,
  "\u2581books": 2294,
  "\u2581louwanj": 2295,
  "\u2581rekonpans": 2296,
  "\u2581sol\u00e8y": 2297,
  "\u2581Brother": 2298,
  "\u2581Liv": 2299,
  "\u2581door": 2300,
  "\u2581k\u00f2r\u00e8k": 2301,
  "\u2581persecution": 2302,
  "\u2581pyebwa": 2303,
  "\u2581truths": 2304,
  "\u2581activity": 2305,
  "\u2581kings": 2306,
  "\u2581test": 2307,
  "\u2581turned": 2308,
  "f\u00e8": 2309,
  "\u2581anger": 2310,
  "\u2581discipline": 2311,
  "\u2581itself": 2312,
  "\u2581separe": 2313,
  "\u2581sexual": 2314,
  "\u2581vann": 2315,
  "\u2581worked": 2316,
  "\u2581inite": 2317,
  "NW": 2318,
  "yo": 2319,
  "\u258130.": 2320,
  "\u2581approach": 2321,
  "\u2581completely": 2322,
  "\u2581enjoyed": 2323,
  "\u2581getting": 2324,
  "\u2581keeping": 2325,
  "\u2581kot": 2326,
  "\u2581pay": 2327,
  "\u2581Babylon": 2328,
  "\u2581YO": 2329,
  "\u2581involves": 2330,
  "\u2581konviksyon": 2331,
  "\u2581presence": 2332,
  "\u2581venk": 2333,
  "\u2581Lwa": 2334,
  "\u2581L\u00f2t": 2335,
  "\u2581TO": 2336,
  "\u2581jounen": 2337,
  "\u2581konpayon": 2338,
  "\u2581fizik": 2339,
  "\u2581Natir\u00e8lman": 2340,
  "\u2581Really": 2341,
  "\u2581exercise": 2342,
  "\u2581forgive": 2343,
  "\u2581kalifye": 2344,
  "\u2581original": 2345,
  "\u2581places": 2346,
  "\u2581throughout": 2347,
  "\u2581zaf\u00e8": 2348,
  "\u2581Efezyen": 2349,
  "\u2581Gran": 2350,
  "\u2581Sila": 2351,
  "\u2581demonstrate": 2352,
  "\u2581explain": 2353,
  "\u2581loyalty": 2354,
  "\u2581opening": 2355,
  "\u2581delivrans": 2356,
  "\u2581envitasyon": 2357,
  "\u2581necessary": 2358,
  "\u2581obedience": 2359,
  "\u2581t\u00e8ks": 2360,
  "out": 2361,
  "\u258145": 2362,
  "\u2581Memoryal": 2363,
  "\u2581afeksyon": 2364,
  "\u2581affection": 2365,
  "\u2581brings": 2366,
  "\u2581caused": 2367,
  "\u2581senk": 2368,
  "\u2581Fr\u00e8": 2369,
  "\u2581asking": 2370,
  "\u2581medam": 2371,
  "vr\u00e8": 2372,
  "\u2581added": 2373,
  "\u2581satisf\u00e8": 2374,
  "\u00a9": 2375,
  "\u2581J": 2376,
  "\u2581accurate": 2377,
  "\u2581families": 2378,
  "\u2581piblik": 2379,
  "\u2581returned": 2380,
  "\u2581Clearly": 2381,
  "\u2581enfliyanse": 2382,
  "\u2581image": 2383,
  "\u2581importance": 2384,
  "\u2581rap\u00f2te": 2385,
  "Do": 2386,
  "li": 2387,
  "\u2581119": 2388,
  "\u258119,": 2389,
  "\u2581beginning": 2390,
  "\u2581bond": 2391,
  "\u2581convention": 2392,
  "\u2581discreet": 2393,
  "\u2581prevwayan": 2394,
  "ll": 2395,
  "\u2581building": 2396,
  "\u2581office": 2397,
  "\u2581traveling": 2398,
  "\u2581States": 2399,
  "\u2581lack": 2400,
  "\u2581rekonesan": 2401,
  "\u2581urged": 2402,
  "\u2581record": 2403,
  "mi": 2404,
  "\u258135.": 2405,
  "\u2581accounts": 2406,
  "\u2581chosen": 2407,
  "\u2581disiplin": 2408,
  "\u2581plan": 2409,
  "\u2581pressure": 2410,
  "\u2581pwouve": 2411,
  "\u2581react": 2412,
  "\u2581short": 2413,
  "\u2581Eliya": 2414,
  "\u2581bread": 2415,
  "\u2581carefully": 2416,
  "\u2581devotion": 2417,
  "\u2581konsiderasyon": 2418,
  "\u2581natural": 2419,
  "\u2581predi": 2420,
  "\u2581Lanmou": 2421,
  "\u2581ankourajan": 2422,
  "\u2581obedient": 2423,
  "ic": 2424,
  "\u2581lach\u00e8": 2425,
  "\u2581recognize": 2426,
  "\u2581tree": 2427,
  "\u2581Memorial": 2428,
  "\u2581Through": 2429,
  "\u2581beautiful": 2430,
  "\u2581condition": 2431,
  "\u2581liniv\u00e8": 2432,
  "\u2581neighbor": 2433,
  "\u2581peryodik": 2434,
  "\u2581picture": 2435,
  "\u2581reziste": 2436,
  "\u2581rich\u00e8s": 2437,
  "\u2581Elijah": 2438,
  "\u2581followed": 2439,
  "\u2581general": 2440,
  "\u2581articles": 2441,
  "\u2581atach": 2442,
  "\u2581eventually": 2443,
  "\u2581invited": 2444,
  "\u2581lakrentif": 2445,
  "\u2581outside": 2446,
  "\u2581padon": 2447,
  "\u2581plus": 2448,
  "\u2581resist": 2449,
  "\u2581seed": 2450,
  "\u2581v\u00e8v": 2451,
  "\u2581asire": 2452,
  "\u2581violence": 2453,
  "majine": 2454,
  "\u258160": 2455,
  "\u2581Evanjil": 2456,
  "\u2581Holy": 2457,
  "\u2581begin": 2458,
  "\u2581konsole": 2459,
  "\u2581contrast": 2460,
  "\u2581expressed": 2461,
  "\u2581pwofon": 2462,
  "\u2581selibat\u00e8": 2463,
  "\u2581tribi": 2464,
  "\u2581dedicated": 2465,
  "\u2581konsolasyon": 2466,
  "\u2581ran": 2467,
  "\u2581verse": 2468,
  "Ou": 2469,
  "\u2581Questions": 2470,
  "\u2581forgiveness": 2471,
  "\u2581friendship": 2472,
  "\u2581mansyone": 2473,
  "\u2581met\u00f2d": 2474,
  "\u2581nons\u00e8lman": 2475,
  "\u2581py\u00e8j": 2476,
  "\u2581six": 2477,
  "\u2581success": 2478,
  "\u2581atake": 2479,
  "\u2581contribute": 2480,
  "\u2581fight": 2481,
  "\u2581lide": 2482,
  "ach": 2483,
  "\u2581bat": 2484,
  "\u2581enjistis": 2485,
  "\u2581g\u00e8": 2486,
  "\u2581nonm": 2487,
  "\u2581Bon": 2488,
  "\u2581Ent\u00e8n\u00e8t": 2489,
  "\u2581Further": 2490,
  "\u2581fon": 2491,
  "\u2581opposition": 2492,
  "\u2581senpleman": 2493,
  "\u2581English": 2494,
  "\u2581Sara": 2495,
  "\u2581Tra": 2496,
  "\u2581assigned": 2497,
  "\u2581lands": 2498,
  "\u2581priests": 2499,
  "\u2581surely": 2500,
  "\u2581tris": 2501,
  "\u2581ve": 2502,
  "\u258136": 2503,
  "\u2581amelyore": 2504,
  "\u2581byenke": 2505,
  "\u2581conditions": 2506,
  "\u2581progress": 2507,
  "\u2581related": 2508,
  "\u2581situations": 2509,
  "\u2581sometimes": 2510,
  "\u2581legal": 2511,
  "\u2581matirite": 2512,
  "\u2581poko": 2513,
  "\u2581reward": 2514,
  "\u2581elimine": 2515,
  "\u2581f\u00e8b": 2516,
  ":\"": 2517,
  "r": 2518,
  "\u2581simple": 2519,
  "ek\u00f2l": 2520,
  "\u2581Kesyon": 2521,
  "\u2581Rahab": 2522,
  "\u2581Re": 2523,
  "\u2581job": 2524,
  "\u2581spoken": 2525,
  "\u2581zele": 2526,
  "\u2581abitye": 2527,
  "\u2581anp\u00e8": 2528,
  "\u2581effective": 2529,
  "\u2581observe": 2530,
  "\u2581pwal": 2531,
  "\u2581NOU": 2532,
  "\u2581conclusion": 2533,
  "\u2581deklarasyon": 2534,
  "\u2581endurance": 2535,
  "\u2581senbolik": 2536,
  "\u2581thousands": 2537,
  "\u2581treat": 2538,
  "\u2581biwo": 2539,
  "\u2581compassion": 2540,
  "\u2581feeling": 2541,
  "\u2581interested": 2542,
  "\u2581nome": 2543,
  "\u2581nuit": 2544,
  "\u2581specific": 2545,
  "\u2581trying": 2546,
  "nte": 2547,
  "\u258126.": 2548,
  "\u2581confident": 2549,
  "\u2581kriye": 2550,
  "\u2581lose": 2551,
  "\u2581overseer": 2552,
  "\u2581prevent": 2553,
  "\u2581reyini": 2554,
  "\u2581vo": 2555,
  "ou": 2556,
  "\u2581Ruth": 2557,
  "\u2581Teach": 2558,
  "\u2581ch\u00e8": 2559,
  "\u2581dekwa": 2560,
  "\u2581diven": 2561,
  "\u2581idantifye": 2562,
  "\u2581response": 2563,
  "\u2581akeyi": 2564,
  "\u2581realized": 2565,
  "\u2581rejoice": 2566,
  "\u2581vision": 2567,
  "\u2581inside": 2568,
  "\u2581kran": 2569,
  "\u2581overcome": 2570,
  "\u2581publishers": 2571,
  "\u2581aware": 2572,
  "\u2581valuable": 2573,
  "\u2581Souvren": 2574,
  "\u2581Study": 2575,
  "\u2581dirijan": 2576,
  "\u2581f\u00e8men": 2577,
  "\u2581enkyete": 2578,
  "\u2581grateful": 2579,
  "\u2581member": 2580,
  "\u2581sikonskripsyon": 2581,
  "We": 2582,
  "\u2581watch": 2583,
  "\u25812011": 2584,
  "\u25812012": 2585,
  "\u2581preached": 2586,
  "\u2581seems": 2587,
  "Let": 2588,
  "\u2581Prov": 2589,
  "\u2581dedication": 2590,
  "\u2581delight": 2591,
  "\u2581desandan": 2592,
  "\u2581elderly": 2593,
  "\u2581guard": 2594,
  "\u2581key": 2595,
  "\u2581opozisyon": 2596,
  "\u2581parent": 2597,
  "\u2581priest": 2598,
  "\u2581reveal": 2599,
  "\u2581standing": 2600,
  "\u2581arrived": 2601,
  "\u2581becomes": 2602,
  "\u2581education": 2603,
  "\u2581egoyis": 2604,
  "\u2581least": 2605,
  "\u2581warned": 2606,
  "evertheless": 2607,
  "\u2581chofe": 2608,
  "\u2581imaj": 2609,
  "\u2581lavni": 2610,
  "\u2581literature": 2611,
  "\u2581misyon": 2612,
  "\u2581nesesite": 2613,
  "\u2581sharing": 2614,
  "\u2581association": 2615,
  "\u2581convinced": 2616,
  "\u2581konstriksyon": 2617,
  "\u2581laviktwa": 2618,
  "\u2581Also": 2619,
  "\u2581centuries": 2620,
  "\u2581term": 2621,
  "\u2581understood": 2622,
  "\u2581week": 2623,
  "\u25812010": 2624,
  "\u2581Sarah": 2625,
  "\u2581church": 2626,
  "\u2581depase": 2627,
  "\u2581lite": 2628,
  "\u2581meant": 2629,
  "\u2581state": 2630,
  "\u2581student": 2631,
  "\u2581text": 2632,
  "\u2581zeal": 2633,
  "\u2581Soon": 2634,
  "\u2581assist": 2635,
  "\u2581included": 2636,
  "\u2581prison": 2637,
  "\u2581pure": 2638,
  "\u2581universe": 2639,
  "\u2581Y": 2640,
  "\u2581atache": 2641,
  "\u2581destriksyon": 2642,
  "\u2581filled": 2643,
  "\u2581fruitage": 2644,
  "\u2581pursue": 2645,
  "\u2581requires": 2646,
  "\u2581sound": 2647,
  "\u2581spent": 2648,
  "able": 2649,
  "\u2581Kretyen": 2650,
  "\u2581Pwo": 2651,
  "\u2581destroyed": 2652,
  "\u2581enb": 2653,
  "\u2581sort": 2654,
  "\u2581tank": 2655,
  "\u2581Sanble": 2656,
  "\u2581household": 2657,
  "\u2581patience": 2658,
  "\u2581accomplish": 2659,
  "\u2581asanble": 2660,
  "\u2581fulfill": 2661,
  "\u2581idea": 2662,
  "\u2581louwe": 2663,
  "\u2581loves": 2664,
  "\u2581prepared": 2665,
  "\u2581teaches": 2666,
  "\u2581Well": 2667,
  "\u2581Where": 2668,
  "\u2581atak": 2669,
  "\u2581djanm": 2670,
  "\u2581guide": 2671,
  "\u2581wete": 2672,
  "\u2581W\u00f2m": 2673,
  "\u2581fall": 2674,
  "\u2581lalwa": 2675,
  "\u2581lemonnantye": 2676,
  "\u2581save": 2677,
  "\u2581subjects": 2678,
  "Sa": 2679,
  "\u2581Was": 2680,
  "\u2581abiye": 2681,
  "\u2581andirans": 2682,
  "\u2581kondui": 2683,
  "\u2581Explain": 2684,
  "\u2581Regard": 2685,
  "\u2581approval": 2686,
  "\u2581destroy": 2687,
  "\u2581morning": 2688,
  "\u2581negatif": 2689,
  "\u2581relatives": 2690,
  "\u2581undeserved": 2691,
  "\u2581cope": 2692,
  "\u2581efikas": 2693,
  "\u2581kontak": 2694,
  "\u2581spend": 2695,
  "ness": 2696,
  "responsibilities": 2697,
  "\u2581either": 2698,
  "\u2581experiences": 2699,
  "\u2581grangou": 2700,
  "\u2581prophecies": 2701,
  "\u2581Paradise": 2702,
  "\u2581avantaj": 2703,
  "\u2581mal\u00e8": 2704,
  "\u2581parts": 2705,
  "\u2581political": 2706,
  "\u2581praying": 2707,
  "\u2581required": 2708,
  "\u2581sip\u00f2te": 2709,
  "\u2581v\u00f2l\u00e8": 2710,
  "\u2581Think": 2711,
  "\u2581answered": 2712,
  "\u2581consequences": 2713,
  "\u2581failed": 2714,
  "\u2581forget": 2715,
  "\u2581f\u00f2se": 2716,
  "\u2581manifest": 2717,
  "\u2581missionary": 2718,
  "\u2581obs\u00e8ve": 2719,
  "\u2581Rome": 2720,
  "\u2581aksan": 2721,
  "\u2581commanded": 2722,
  "\u2581fire": 2723,
  "\u2581foreign": 2724,
  "\u2581konvenk": 2725,
  "\u2581lessons": 2726,
  "\u2581passed": 2727,
  "\u2581prophets": 2728,
  "\u2581pwofes\u00e8": 2729,
  "\u2581remind": 2730,
  "\u2581sincere": 2731,
  "\u2581Micah": 2732,
  "\u2581alavni": 2733,
  "\u2581energy": 2734,
  "\u2581hours": 2735,
  "\u2581step": 2736,
  "\u2581Body": 2737,
  "\u2581bat\u00e8m": 2738,
  "\u2581ini": 2739,
  "\u2581metriz": 2740,
  "\u2581tr\u00e8": 2741,
  "st": 2742,
  "yen": 2743,
  "\u2581N\u00f2malman": 2744,
  "\u2581calls": 2745,
  "\u2581dous\u00e8": 2746,
  "\u2581esplikasyon": 2747,
  "\u2581konstwi": 2748,
  "\u2581uses": 2749,
  "\u2581Govern": 2750,
  "\u2581claim": 2751,
  "\u2581evening": 2752,
  "\u2581offering": 2753,
  "\u2581territory": 2754,
  "\u2581zealous": 2755,
  "est": 2756,
  "\u258138": 2757,
  "\u2581Tank": 2758,
  "\u2581detant": 2759,
  "\u2581request": 2760,
  "\u2581BE": 2761,
  "\u2581eritaj": 2762,
  "\u2581kon": 2763,
  "\u2581pioneers": 2764,
  "....": 2765,
  "\u2581Heb": 2766,
  "\u2581conversation": 2767,
  "\u2581declared": 2768,
  "\u2581former": 2769,
  "\u2581imoralite": 2770,
  "\u2581kontwole": 2771,
  "gwo": 2772,
  "pliye": 2773,
  "\u2581Lespri": 2774,
  "\u2581encouraging": 2775,
  "\u2581evident": 2776,
  "\u2581fail": 2777,
  "\u2581immediately": 2778,
  "\u2581imoral": 2779,
  "\u2581kontw\u00f2l": 2780,
  "\u2581seeing": 2781,
  "\u2581tongue": 2782,
  "\u2581beliefs": 2783,
  "\u2581enter": 2784,
  "\u2581gifts": 2785,
  "\u2581goes": 2786,
  "\u2581opportunities": 2787,
  "\u2581suffered": 2788,
  "\u2581Rit": 2789,
  "\u2581depann": 2790,
  "\u2581eritye": 2791,
  "\u2581event": 2792,
  "\u2581natir\u00e8l": 2793,
  "\u2581practices": 2794,
  "\u2581kan": 2795,
  "\u2581manner": 2796,
  "\u2581nature": 2797,
  "\u2581opened": 2798,
  "\u2581pwofi": 2799,
  "\u2581San": 2800,
  "\u2581areas": 2801,
  "\u2581break": 2802,
  "\u2581plant": 2803,
  "\u2581p\u00e8sekite": 2804,
  "\u258155": 2805,
  "\u258165": 2806,
  "\u2581Ezayi": 2807,
  "\u2581Mo": 2808,
  "\u2581School": 2809,
  "\u2581adolesan": 2810,
  "\u2581caring": 2811,
  "\u2581distans": 2812,
  "\u2581regr\u00e8t": 2813,
  "\u2581reject": 2814,
  "\u2581third": 2815,
  "\u2581About": 2816,
  "\u2581blese": 2817,
  "\u2581bless": 2818,
  "\u2581bout": 2819,
  "\u2581countries": 2820,
  "\u2581defo": 2821,
  "\u2581prospect": 2822,
  "\u2581refers": 2823,
  "\u2581trez\u00f2": 2824,
  "\u2581volont\u00e8": 2825,
  "In": 2826,
  "Men": 2827,
  "\u2581MOUN": 2828,
  "\u2581affected": 2829,
  "\u2581discussed": 2830,
  "\u2581invitation": 2831,
  "\u2581manifeste": 2832,
  "\u2581satisfaction": 2833,
  "\u2581vizit": 2834,
  "He": 2835,
  "It": 2836,
  "This": 2837,
  "is": 2838,
  "\u2581concerned": 2839,
  "\u2581eight": 2840,
  "\u2581hour": 2841,
  "\u2581koule": 2842,
  "\u2581principle": 2843,
  "\u2581security": 2844,
  "\u2581statement": 2845,
  "\u25812008": 2846,
  "\u2581Imagine": 2847,
  "\u2581Isaac": 2848,
  "\u2581Note": 2849,
  "\u2581el\u00e8v": 2850,
  "\u2581etadespri": 2851,
  "\u2581kons\u00e8ne": 2852,
  "\u2581n\u00f2t": 2853,
  "\u2581reasonable": 2854,
  "\u2581angl\u00e8": 2855,
  "\u00c8ske": 2856,
  "\u25812009": 2857,
  "\u2581en": 2858,
  "\u2581existence": 2859,
  "\u2581girl": 2860,
  "When": 2861,
  "more": 2862,
  "\u25812013": 2863,
  "\u258132.": 2864,
  "\u2581Give": 2865,
  "\u2581Young": 2866,
  "\u2581anseyan": 2867,
  "\u2581creatures": 2868,
  "\u2581includes": 2869,
  "\u2581wait": 2870,
  "\u2581Ana": 2871,
  "\u2581Farawon": 2872,
  "\u2581attending": 2873,
  "\u2581danger": 2874,
  "\u2581espirity\u00e8lman": 2875,
  "\u2581looked": 2876,
  "\u2581nivo": 2877,
  "\u2581overseers": 2878,
  "\u2581relief": 2879,
  "Yon": 2880,
  "\u2581IN": 2881,
  "\u2581Mika": 2882,
  "\u2581Mount": 2883,
  "\u2581Nehemiah": 2884,
  "\u2581almost": 2885,
  "\u2581avni": 2886,
  "\u2581chose": 2887,
  "\u2581instead": 2888,
  "\u2581killed": 2889,
  "\u2581korije": 2890,
  "\u2581million": 2891,
  "\u2581referred": 2892,
  "\u2581sal": 2893,
  "potko": 2894,
  "\u2581Pharaoh": 2895,
  "\u2581agree": 2896,
  "\u2581aspects": 2897,
  "\u2581dispar\u00e8t": 2898,
  "\u2581illustrate": 2899,
  "\u2581judge": 2900,
  "\u2581k\u00f2mant\u00e8": 2901,
  "\u2581lie": 2902,
  "\u2581loss": 2903,
  "oulye": 2904,
  "\u2581\"[": 2905,
  "\u2581faithfully": 2906,
  "\u2581master": 2907,
  "\u2581noted": 2908,
  "\u2581offspring": 2909,
  "O": 2910,
  "\u2581Izarak": 2911,
  "\u2581Wom": 2912,
  "\u2581al\u00e8z": 2913,
  "\u2581appear": 2914,
  "\u2581bearing": 2915,
  "\u2581bon\u00e8": 2916,
  "\u2581contact": 2917,
  "\u2581dezobeyi": 2918,
  "\u2581kilom\u00e8t": 2919,
  "\u2581miles": 2920,
  "\u2581motive": 2921,
  "\u2581reflete": 2922,
  "\u2581train": 2923,
  "Tout": 2924,
  "\u2581OF": 2925,
  "\u2581Philippians": 2926,
  "\u2581concerning": 2927,
  "\u2581discern": 2928,
  "\u2581husbands": 2929,
  "\u2581limited": 2930,
  "\u2581ok\u00f2mansman": 2931,
  "\u2581pride": 2932,
  "\u2581produce": 2933,
  "\u2581seemed": 2934,
  "j": 2935,
  "\u2581circuit": 2936,
  "\u2581demons": 2937,
  "\u2581doul\u00e8": 2938,
  "\u2581increase": 2939,
  "\u2581on\u00e8": 2940,
  "\u2581zak": 2941,
  "t\u00e8": 2942,
  "\u2581Ozetazini": 2943,
  "\u2581Rom": 2944,
  "\u2581acceptable": 2945,
  "\u2581akty\u00e8lman": 2946,
  "\u2581consideration": 2947,
  "\u2581dokt\u00e8": 2948,
  "\u2581helpful": 2949,
  "Nan": 2950,
  "\u258142": 2951,
  "\u2581Ahab": 2952,
  "\u2581Ansyen": 2953,
  "\u2581assured": 2954,
  "\u2581feet": 2955,
  "\u2581op\u00f2tinite": 2956,
  "\u2581teachers": 2957,
  "\u2581vye": 2958,
  "\u258120,": 2959,
  "\u2581Gason": 2960,
  "\u2581Good": 2961,
  "\u2581av\u00e8ti": 2962,
  "\u2581battle": 2963,
  "\u2581equal": 2964,
  "\u2581established": 2965,
  "\u2581simen": 2966,
  "\u2581temptation": 2967,
  "\u2581Ask": 2968,
  "\u2581Baal": 2969,
  "\u2581Over": 2970,
  "\u2581Souvan": 2971,
  "\u2581febl\u00e8s": 2972,
  "\u2581immorality": 2973,
  "\u2581poto": 2974,
  "\u2581rale": 2975,
  "\u2581semans": 2976,
  "all": 2977,
  "\u2581Paran": 2978,
  "\u2581army": 2979,
  "\u2581attack": 2980,
  "\u2581communication": 2981,
  "\u2581extent": 2982,
  "\u2581maten": 2983,
  "\u2581meditate": 2984,
  "\u2581raise": 2985,
  "\u2581youth": 2986,
  "\u2581enemy": 2987,
  "\u2581ground": 2988,
  "\u2581heartfelt": 2989,
  "\u2581identify": 2990,
  "\u2581mod\u00e8l": 2991,
  "\u2581succeed": 2992,
  "\u2581SIJ\u00c8": 2993,
  "\u2581attended": 2994,
  "\u2581box": 2995,
  "\u2581careful": 2996,
  "\u2581dez\u00e8": 2997,
  "\u2581drawn": 2998,
  "\u2581on\u00e8t": 2999,
  "\u2581opinyon": 3000,
  "\u2581points": 3001,
  "\u2581successful": 3002,
  "\u2581wine": 3003,
  "le": 3004,
  "ually": 3005,
  "\u2581Should": 3006,
  "\u2581direct": 3007,
  "\u2581mizik": 3008,
  "\u2581teacher": 3009,
  "\u2581temwen": 3010,
  "\u2581youths": 3011,
  "\u2581\u00f2g\u00e8y": 3012,
  ",...": 3013,
  "Yo": 3014,
  "\u2581Pet": 3015,
  "\u2581War": 3016,
  "\u2581disponib": 3017,
  "\u2581groups": 3018,
  "\u2581half": 3019,
  "\u2581immoral": 3020,
  "\u2581mil": 3021,
  "\u2581observed": 3022,
  "\u2581play": 3023,
  "\u2581revele": 3024,
  "\u2581workers": 3025,
  "\u2581zam": 3026,
  "\u2581Brooklyn": 3027,
  "\u2581Learn": 3028,
  "\u2581fill": 3029,
  "\u2581grenn": 3030,
  "\u2581kare": 3031,
  "\u2581late": 3032,
  "\u2581tibebe": 3033,
  "\u2581Gospel": 3034,
  "\u2581assure": 3035,
  "\u2581eye": 3036,
  "\u2581listening": 3037,
  "\u2581remained": 3038,
  "\u2581sight": 3039,
  "\u2581sis": 3040,
  "\u2581talking": 3041,
  "\u2581active": 3042,
  "\u2581beloved": 3043,
  "\u2581bwa": 3044,
  "\u2581decide": 3045,
  "\u2581demen": 3046,
  "\u2581greatly": 3047,
  "\u2581ranplase": 3048,
  "KE": 3049,
  "us": 3050,
  "\u2581COVER": 3051,
  "\u2581Only": 3052,
  "\u2581companions": 3053,
  "\u2581garanti": 3054,
  "\u2581homes": 3055,
  "\u2581improve": 3056,
  "\u2581kiltive": 3057,
  "\u2581obeyisan": 3058,
  "\u2581race": 3059,
  "\u2581relates": 3060,
  "\u2581sick": 3061,
  "\u2581studies": 3062,
  "\u2581verses": 3063,
  "YON": 3064,
  "\u2581AP": 3065,
  "\u2581finalman": 3066,
  "\u2581insight": 3067,
  "\u2581kouvri": 3068,
  "\u2581pattern": 3069,
  "\u2581riches": 3070,
  "\u2581sun": 3071,
  "\u2581s\u00e8ks": 3072,
  "\u2581viewed": 3073,
  "Ki": 3074,
  "\u2581Oubyen": 3075,
  "\u2581afraid": 3076,
  "\u2581benefisye": 3077,
  "\u2581issues": 3078,
  "\u2581measure": 3079,
  "\u2581mental": 3080,
  "\u2581trav\u00e8se": 3081,
  "\u2581type": 3082,
  "\u2581Filipyen": 3083,
  "\u2581Lis": 3084,
  "\u2581Paradi": 3085,
  "\u2581boy": 3086,
  "\u2581commandments": 3087,
  "\u2581emotional": 3088,
  "\u2581enkyetid": 3089,
  "\u2581espere": 3090,
  "\u2581mildness": 3091,
  "\u2581mouth": 3092,
  "\u2581paragraph": 3093,
  "\u2581united": 3094,
  "P": 3095,
  "\u2581akonplisman": 3096,
  "\u2581although": 3097,
  "\u2581amou": 3098,
  "\u2581deliver": 3099,
  "\u2581describes": 3100,
  "\u2581indicated": 3101,
  "\u2581notice": 3102,
  "\u2581privileges": 3103,
  "\u2581town": 3104,
  "lizy\u00e8": 3105,
  "p": 3106,
  "\u2581expressions": 3107,
  "\u2581reveals": 3108,
  "\u2581slaves": 3109,
  "\u2581unique": 3110,
  "\u2581Land": 3111,
  "\u2581dapr": 3112,
  "\u2581egz\u00e8se": 3113,
  "\u2581jouk": 3114,
  "\u2581sinful": 3115,
  "\u2581Egzanp": 3116,
  "\u2581Toutfwa": 3117,
  "\u2581Zechariah": 3118,
  "\u2581amount": 3119,
  "\u2581built": 3120,
  "\u2581distress": 3121,
  "\u2581egzekite": 3122,
  "\u2581jete": 3123,
  "\u2581tretman": 3124,
  "N": 3125,
  "\u2581High": 3126,
  "\u2581address": 3127,
  "\u2581adilt\u00e8": 3128,
  "\u2581animals": 3129,
  "\u2581bato": 3130,
  "\u2581jere": 3131,
  "\u2581lach": 3132,
  "\u2581minds": 3133,
  "\u2581report": 3134,
  "\u2581uit": 3135,
  "\u2581warm": 3136,
  "\u2581KOUV\u00c8TI": 3137,
  "\u2581Recall": 3138,
  "\u2581business": 3139,
  "\u2581entertainment": 3140,
  "\u2581month": 3141,
  "\u2581rek\u00f2t": 3142,
  "agay": 3143,
  "\u258144": 3144,
  "\u2581Dezy\u00e8m": 3145,
  "\u2581Sandout": 3146,
  "\u2581delij": 3147,
  "\u2581easily": 3148,
  "\u2581grew": 3149,
  "\u2581jounal": 3150,
  "\u2581pwofitab": 3151,
  "\u2581refused": 3152,
  "\u2581Ch\u00e8f": 3153,
  "\u2581Faith": 3154,
  "\u2581correct": 3155,
  "\u2581finally": 3156,
  "\u2581harm": 3157,
  "\u2581risk": 3158,
  "\u2581ruler": 3159,
  "\u2581rulership": 3160,
  "\u2581strengthened": 3161,
  "\u2581trained": 3162,
  "\u2581Jou": 3163,
  "\u2581Neyemya": 3164,
  "\u2581U": 3165,
  "\u2581apa": 3166,
  "\u2581deeds": 3167,
  "\u2581pled": 3168,
  "\u2581potential": 3169,
  "\u2581wish": 3170,
  "\u2581Likewise": 3171,
  "\u2581evidently": 3172,
  "\u2581kouche": 3173,
  "\u2581outstanding": 3174,
  "\u2581pitye": 3175,
  "\u2581rejected": 3176,
  "\u2581visited": 3177,
  "ould": 3178,
  "\u2581closely": 3179,
  "\u2581dou": 3180,
  "\u2581endeavor": 3181,
  "\u2581garden": 3182,
  "\u2581meal": 3183,
  "\u2581pleasure": 3184,
  "\u2581wickedness": 3185,
  "\u2581witnessing": 3186,
  "\u2581Being": 3187,
  "\u2581Legliz": 3188,
  "\u2581Messianic": 3189,
  "\u2581anmenmtan": 3190,
  "\u2581basic": 3191,
  "\u2581busy": 3192,
  "\u2581lis": 3193,
  "\u2581pass": 3194,
  "\u2581relative": 3195,
  "\u2581soulve": 3196,
  "r\u00e8man": 3197,
  "\u258134.": 3198,
  "\u2581G\u00e8": 3199,
  "\u2581LA": 3200,
  "\u2581egal": 3201,
  "\u2581jij": 3202,
  "\u2581likewise": 3203,
  "\u2581room": 3204,
  "\u2581secular": 3205,
  "\u2581sex": 3206,
  "\u2581telling": 3207,
  "\u2581tw\u00f2n": 3208,
  "\u2581values": 3209,
  "\u2581van": 3210,
  "\u2581G": 3211,
  "\u2581Israelite": 3212,
  "\u2581Make": 3213,
  "\u2581anxiety": 3214,
  "\u2581contains": 3215,
  "\u2581diyite": 3216,
  "\u2581instructions": 3217,
  "\u2581jiska": 3218,
  "\u2581juif": 3219,
  "\u2581kous": 3220,
  "\u2581probab": 3221,
  "\u2581rejwi": 3222,
  "\u2581trial": 3223,
  "il": 3224,
  "osaic": 3225,
  "\u2581difference": 3226,
  "\u2581felisite": 3227,
  "\u2581tousuit": 3228,
  "\u2581translation": 3229,
  "g": 3230,
  "\u2581Filip": 3231,
  "\u2581Nons\u00e8lman": 3232,
  "\u2581continues": 3233,
  "\u2581contrary": 3234,
  "\u2581etap": 3235,
  "\u2581invite": 3236,
  "\u2581literal": 3237,
  "\u2581pech\u00e8": 3238,
  "\u2581presented": 3239,
  "\u2581responsible": 3240,
  "\u2581scriptures": 3241,
  "\u2581Gilead": 3242,
  "\u2581hurt": 3243,
  "\u2581koul\u00e8": 3244,
  "\u2581promote": 3245,
  "\u2581pwogrese": 3246,
  "\u2581rebelyon": 3247,
  "\u2581sila": 3248,
  "\u258148": 3249,
  "\u2581GEN": 3250,
  "\u2581Sam": 3251,
  "\u2581York": 3252,
  "\u2581big": 3253,
  "\u2581conclude": 3254,
  "\u2581directed": 3255,
  "\u2581essential": 3256,
  "\u2581mistakes": 3257,
  "\u2581rebellion": 3258,
  "\u2581cut": 3259,
  "\u2581dealings": 3260,
  "\u2581hearing": 3261,
  "\u2581patient": 3262,
  "\u2581pleased": 3263,
  "\u2581wont": 3264,
  "\u2581Eden": 3265,
  "\u2581Her": 3266,
  "\u2581doktrin": 3267,
  "\u2581drink": 3268,
  "\u2581names": 3269,
  "\u2581widow": 3270,
  "mong": 3271,
  "\u258144.": 3272,
  "\u2581Deuteronomy": 3273,
  "\u2581Edenn": 3274,
  "\u2581Help": 3275,
  "\u2581acted": 3276,
  "\u2581committed": 3277,
  "\u2581courageous": 3278,
  "\u2581eksprime": 3279,
  "\u2581kominike": 3280,
  "\u2581occur": 3281,
  "\u2581pwoklame": 3282,
  "\u2581reference": 3283,
  "\u2581send": 3284,
  "\u2581survive": 3285,
  "\u2581Detewon\u00f2m": 3286,
  "\u2581M\u00e8t": 3287,
  "\u2581Pi": 3288,
  "\u2581Take": 3289,
  "\u2581comments": 3290,
  "\u2581engage": 3291,
  "\u2581mank": 3292,
  "\u2581recent": 3293,
  "\u2581spread": 3294,
  "Keep": 3295,
  "\u2581Sad": 3296,
  "\u2581Spirit": 3297,
  "\u2581WHAT": 3298,
  "\u2581carried": 3299,
  "\u2581discussion": 3300,
  "\u2581en\u00e8ji": 3301,
  "\u2581f\u00e8nwa": 3302,
  "\u2581heed": 3303,
  "\u2581rekonpanse": 3304,
  "\u2581sea": 3305,
  "\u2581siyifikasyon": 3306,
  "\u2581sous": 3307,
  "\u2581younger": 3308,
  "\u2581Family": 3309,
  "\u2581[...].": 3310,
  "\u2581appeared": 3311,
  "\u2581indicate": 3312,
  "\u2581kilti": 3313,
  "\u2581magazine": 3314,
  "\u2581represent": 3315,
  "\u2581spirituality": 3316,
  "\u2581twazy\u00e8m": 3317,
  "\u2581videyo": 3318,
  "\u2581Christianity": 3319,
  "\u2581Poutan": 3320,
  "\u2581Translation": 3321,
  "\u2581adr\u00e8s": 3322,
  "\u2581cares": 3323,
  "\u2581krent": 3324,
  "\u2581tender": 3325,
  "USED": 3326,
  "What": 3327,
  "c": 3328,
  "\u2581Kit": 3329,
  "\u2581Promised": 3330,
  "\u2581Under": 3331,
  "\u2581applied": 3332,
  "\u2581ble": 3333,
  "\u2581daughters": 3334,
  "\u2581ekonomik": 3335,
  "\u2581enp\u00e8feksyon": 3336,
  "\u2581f\u00f2k": 3337,
  "\u2581py\u00e8s": 3338,
  "\u2581rey\u00e8l": 3339,
  "\u2581r\u00e8d": 3340,
  "\u2581selebre": 3341,
  "\u2581translated": 3342,
  "\u2581vide": 3343,
  "\u2581vous": 3344,
  "\u2581willingly": 3345,
  "pou": 3346,
  "\u2581July": 3347,
  "\u2581delivered": 3348,
  "\u2581instruction": 3349,
  "\u2581missionaries": 3350,
  "\u2581parable": 3351,
  "\u2581ranmase": 3352,
  "\u2581receiving": 3353,
  "\u2581road": 3354,
  "My": 3355,
  "\u2581Colossians": 3356,
  "\u2581Esplike": 3357,
  "\u2581Exodus": 3358,
  "\u2581Hav": 3359,
  "\u2581Korent": 3360,
  "\u2581Sonje": 3361,
  "\u2581aktif": 3362,
  "\u2581cities": 3363,
  "\u2581front": 3364,
  "\u2581listwa": 3365,
  "\u2581mountain": 3366,
  "\u2581presi": 3367,
  "Jesus": 3368,
  "esklav": 3369,
  "if\u00f2": 3370,
  "\u258143": 3371,
  "\u2581YOU": 3372,
  "\u2581ent\u00e8nasyonal": 3373,
  "\u2581exactly": 3374,
  "\u2581illness": 3375,
  "\u2581leading": 3376,
  "\u2581lies": 3377,
  "\u2581worth": 3378,
  "and": 3379,
  "\u25811919": 3380,
  "\u2581aspect": 3381,
  "\u2581biznis": 3382,
  "\u2581considering": 3383,
  "\u2581dealing": 3384,
  "\u2581km": 3385,
  "\u2581prizonye": 3386,
  "\u2581separate": 3387,
  "\u2581setting": 3388,
  "\u2581tandr\u00e8s": 3389,
  "\u2581welcome": 3390,
  "ATIK": 3391,
  "\u258146": 3392,
  "\u2581Armageddon": 3393,
  "\u2581Isa": 3394,
  "\u2581Kontinye": 3395,
  "\u2581aside": 3396,
  "\u2581cases": 3397,
  "\u2581dangerous": 3398,
  "\u2581easier": 3399,
  "\u2581epe": 3400,
  "\u2581grasp": 3401,
  "\u2581happens": 3402,
  "\u2581refer": 3403,
  "\u2581responded": 3404,
  "\u2581search": 3405,
  "\u2581sees": 3406,
  "\u2581speaks": 3407,
  "or": 3408,
  "\u25815]": 3409,
  "\u2581Etidy": 3410,
  "\u2581Gal": 3411,
  "\u2581Malerezman": 3412,
  "\u2581connection": 3413,
  "\u2581environment": 3414,
  "\u2581letan": 3415,
  "\u2581major": 3416,
  "\u2581provisions": 3417,
  "\u2581resolve": 3418,
  "\u2581saved": 3419,
  "\u2581studied": 3420,
  "\u2581views": 3421,
  "gen": 3422,
  "\u2581Eklezyas": 3423,
  "\u2581Hannah": 3424,
  "\u2581Kolosyen": 3425,
  "\u2581ark": 3426,
  "\u2581gods": 3427,
  "\u2581illustrations": 3428,
  "\u2581k\u00f2mkwa": 3429,
  "\u2581main": 3430,
  "\u2581m\u00e8si": 3431,
  "\u2581placed": 3432,
  "\u2581reb\u00e8l": 3433,
  "\u2581rez\u00f2nman": 3434,
  "\u2581shepherds": 3435,
  "\u2581weak": 3436,
  "f\u00f2se": 3437,
  "\u258180": 3438,
  "\u2581Etazini": 3439,
  "\u2581Ezekiel": 3440,
  "\u2581eating": 3441,
  "\u2581figi": 3442,
  "\u2581involve": 3443,
  "\u2581mas": 3444,
  "\u2581patipri": 3445,
  "\u2581prez\u00e8ve": 3446,
  "\u2581providing": 3447,
  "\u2581refij": 3448,
  "\u2581selfish": 3449,
  "\u2581sword": 3450,
  "\u2581zile": 3451,
  "\u2581zwazo": 3452,
  "he": 3453,
  "\u2581Answer": 3454,
  "\u2581amitye": 3455,
  "\u2581applying": 3456,
  "\u2581awake": 3457,
  "\u2581cell": 3458,
  "\u2581chanm": 3459,
  "\u2581entered": 3460,
  "\u2581envizib": 3461,
  "\u2581honest": 3462,
  "\u2581injustice": 3463,
  "\u2581lou": 3464,
  "\u2581p\u00f2nografi": 3465,
  "\u2581ras": 3466,
  "\u2581sekou": 3467,
  "\u2581thank": 3468,
  "h": 3469,
  "\u2581Aaron": 3470,
  "\u2581Kont": 3471,
  "\u2581Once": 3472,
  "\u2581Up": 3473,
  "\u2581advantage": 3474,
  "\u2581conventions": 3475,
  "\u2581determination": 3476,
  "\u2581focused": 3477,
  "\u2581listened": 3478,
  "\u2581recognized": 3479,
  "\u2581throne": 3480,
  "\u2581Both": 3481,
  "\u2581Ecclesiastes": 3482,
  "\u2581Ezeky\u00e8l": 3483,
  "\u2581adds": 3484,
  "\u2581etan": 3485,
  "\u2581governments": 3486,
  "\u2581growth": 3487,
  "\u2581kanmenm": 3488,
  "\u2581kindly": 3489,
  "\u2581lasting": 3490,
  "\u2581m\u00f2": 3491,
  "\u2581purposes": 3492,
  "\u2581repitasyon": 3493,
  "\u2581social": 3494,
  "\u2581swaf": 3495,
  "\u2581adm\u00e8t": 3496,
  "\u2581allows": 3497,
  "\u2581ekriven": 3498,
  "\u2581formed": 3499,
  "\u2581primary": 3500,
  "\u2581rely": 3501,
  "\u2581s\u00f2m": 3502,
  "great": 3503,
  "\u2581commission": 3504,
  "\u2581desandans": 3505,
  "\u2581details": 3506,
  "\u2581forces": 3507,
  "\u2581keeps": 3508,
  "\u2581n\u00f2": 3509,
  "\u2581refuge": 3510,
  "\u2581tears": 3511,
  "\u2581waiting": 3512,
  "\u2581writing": 3513,
  "quite": 3514,
  "\u2581500": 3515,
  "\u2581Finally": 3516,
  "\u2581comforting": 3517,
  "\u2581dear": 3518,
  "\u2581deliverance": 3519,
  "\u2581factors": 3520,
  "\u2581jwi": 3521,
  "\u2581letters": 3522,
  "\u2581mezon": 3523,
  "\u2581organized": 3524,
  "\u2581story": 3525,
  "\u2581toupiti": 3526,
  "\u2581Antre": 3527,
  "\u2581En\u00f2k": 3528,
  "\u2581Sovereign": 3529,
  "\u2581Toudab\u00f2": 3530,
  "\u2581belong": 3531,
  "\u2581challenging": 3532,
  "\u2581determine": 3533,
  "\u2581expected": 3534,
  "\u2581feels": 3535,
  "\u2581reports": 3536,
  "\u2581requirements": 3537,
  "\u2581Objektif": 3538,
  "\u2581fim": 3539,
  "\u2581gratitude": 3540,
  "\u2581pousuiv": 3541,
  "\u2581reality": 3542,
  "\u2581treasure": 3543,
  "\u2581treated": 3544,
  "\u2581Catholic": 3545,
  "\u2581STUDY": 3546,
  "\u2581bit": 3547,
  "\u2581constantly": 3548,
  "\u2581declare": 3549,
  "\u2581demann": 3550,
  "\u2581developed": 3551,
  "\u2581due": 3552,
  "\u2581enposib": 3553,
  "\u2581eta": 3554,
  "\u2581grief": 3555,
  "\u2581moso": 3556,
  "\u2581program": 3557,
  "\u2581rivy\u00e8": 3558,
  "basyon": 3559,
  "sy\u00e8k": 3560,
  "\u2581Am\u00f2s": 3561,
  "\u2581Farizyen": 3562,
  "\u2581H": 3563,
  "\u2581Hezekiah": 3564,
  "\u2581Lat\u00e8": 3565,
  "\u2581Ni": 3566,
  "\u2581SE": 3567,
  "\u2581Two": 3568,
  "\u2581aid": 3569,
  "\u2581assistance": 3570,
  "\u2581diz\u00e8n": 3571,
  "\u2581domine": 3572,
  "\u2581god": 3573,
  "\u2581ranp\u00f2te": 3574,
  "\u2581ruling": 3575,
  "\u2581satisfying": 3576,
  "\u2581swete": 3577,
  "\u2581yes": 3578,
  "Look": 3579,
  "\u2581Levit": 3580,
  "\u2581Pentecost": 3581,
  "\u2581Premy\u00e8man": 3582,
  "\u2581Repons": 3583,
  "\u2581choices": 3584,
  "\u2581decades": 3585,
  "\u2581exist": 3586,
  "\u2581gathered": 3587,
  "\u2581konp\u00f2tman": 3588,
  "\u2581lay": 3589,
  "\u2581liy": 3590,
  "\u2581mature": 3591,
  "\u2581rezone": 3592,
  "\u2581struggle": 3593,
  "\u2581writer": 3594,
  "it": 3595,
  "\u00d2M": 3596,
  "\u2581Enoch": 3597,
  "\u2581France": 3598,
  "\u2581Ledyab": 3599,
  "\u2581Lot": 3600,
  "\u2581chapters": 3601,
  "\u2581f": 3602,
  "\u2581freely": 3603,
  "\u2581indicates": 3604,
  "\u2581journey": 3605,
  "\u2581meprize": 3606,
  "\u2581society": 3607,
  "\u2581stake": 3608,
  "\u2581tabli": 3609,
  "\u2581viewpoint": 3610,
  "bon": 3611,
  "\u2581Awake": 3612,
  "\u2581Egz\u00f2d": 3613,
  "\u2581LI": 3614,
  "\u2581POU": 3615,
  "\u2581Pak": 3616,
  "\u2581Second": 3617,
  "\u2581TE": 3618,
  "\u2581Worship": 3619,
  "\u2581anxious": 3620,
  "\u2581apwo": 3621,
  "\u2581await": 3622,
  "\u2581believed": 3623,
  "\u2581escape": 3624,
  "\u2581faithfulness": 3625,
  "\u2581fell": 3626,
  "\u2581krety\u00e8n": 3627,
  "\u2581occurred": 3628,
  "\u2581performed": 3629,
  "\u2581prejije": 3630,
  "\u2581sinned": 3631,
  "\u2581superior": 3632,
  "\u2581wilderness": 3633,
  "Pannk\u00f2t": 3634,
  "one": 3635,
  "\u2581Ch\u00e8ch": 3636,
  "\u2581Him": 3637,
  "\u2581chief": 3638,
  "\u2581fatige": 3639,
  "\u2581klere": 3640,
  "\u2581konpl\u00e8": 3641,
  "\u2581kritike": 3642,
  "\u2581moins": 3643,
  "\u2581neighbors": 3644,
  "\u2581nesans": 3645,
  "\u2581perform": 3646,
  "\u2581powers": 3647,
  "\u258139": 3648,
  "\u2581anl\u00e8": 3649,
  "\u2581chay": 3650,
  "\u2581describe": 3651,
  "\u2581eager": 3652,
  "\u2581gone": 3653,
  "\u2581harvest": 3654,
  "\u2581moving": 3655,
  "\u2581normal": 3656,
  "\u2581obeyisans": 3657,
  "\u2581provision": 3658,
  "\u2581reminded": 3659,
  "\u2581sansib": 3660,
  "eflechi": 3661,
  "\u258124,": 3662,
  "\u2581Galat": 3663,
  "\u2581concerns": 3664,
  "\u2581couples": 3665,
  "\u2581diskisyon": 3666,
  "\u2581growing": 3667,
  "\u2581inheritance": 3668,
  "\u2581konba": 3669,
  "\u2581omwen": 3670,
  "\u2581remains": 3671,
  "\u2581witnesses": 3672,
  "\u2581\u0567": 3673,
  "l\u00e8": 3674,
  "\u2581Afrik": 3675,
  "\u2581Christendom": 3676,
  "\u2581Whe": 3677,
  "\u2581accomplished": 3678,
  "\u2581assurance": 3679,
  "\u2581dekouvri": 3680,
  "\u2581emotions": 3681,
  "\u2581esklavaj": 3682,
  "\u2581eternal": 3683,
  "\u2581gratis": 3684,
  "\u2581minu": 3685,
  "\u2581motivate": 3686,
  "\u2581reasoning": 3687,
  "\u2581sleep": 3688,
  "\u2581stopped": 3689,
  "\u2581wouj": 3690,
  "\u2581\u00e8dtan": 3691,
  "\u2581Almay": 3692,
  "\u2581Eli": 3693,
  "\u2581Gileyad": 3694,
  "\u2581Here": 3695,
  "\u2581Sea": 3696,
  "\u2581bwochi": 3697,
  "\u2581differ": 3698,
  "\u2581koupe": 3699,
  "\u2581mighty": 3700,
  "\u2581tigason": 3701,
  "\u2581Has": 3702,
  "\u2581fearing": 3703,
  "\u2581janti": 3704,
  "\u2581ko": 3705,
  "\u2581konfye": 3706,
  "\u2581lapli": 3707,
  "\u2581planifye": 3708,
  "\u2581pwomiz": 3709,
  "\u2581quoted": 3710,
  "\u2581secret": 3711,
  "\u2581secure": 3712,
  "jou": 3713,
  "\u258166": 3714,
  "\u2581Amos": 3715,
  "\u2581Galatians": 3716,
  "\u2581Jis": 3717,
  "\u2581Robert": 3718,
  "\u2581arise": 3719,
  "\u2581behavior": 3720,
  "\u2581biblis": 3721,
  "\u2581dat": 3722,
  "\u2581extend": 3723,
  "\u2581forms": 3724,
  "\u2581impressed": 3725,
  "\u2581publication": 3726,
  "\u2581serves": 3727,
  "\u2581shared": 3728,
  "There": 3729,
  "as": 3730,
  "onbyen": 3731,
  "\u2581Arawon": 3732,
  "\u2581II": 3733,
  "\u2581[\"": 3734,
  "\u2581adultery": 3735,
  "\u2581akize": 3736,
  "\u2581calling": 3737,
  "\u2581car": 3738,
  "\u2581diminye": 3739,
  "\u2581eskominye": 3740,
  "\u2581handle": 3741,
  "\u2581jenerasyon": 3742,
  "\u2581jiy\u00e8": 3743,
  "\u2581kase": 3744,
  "\u2581kom\u00e8t": 3745,
  "\u2581supported": 3746,
  "Jezi": 3747,
  "pitit": 3748,
  "\u2581count": 3749,
  "\u2581gets": 3750,
  "\u2581persecuted": 3751,
  "\u2581proud": 3752,
  "\u2581reaction": 3753,
  "\u2581seriously": 3754,
  "\u2581strengthening": 3755,
  "\u2581t\u00e8tchaje": 3756,
  "\u2581Kare": 3757,
  "\u2581Ti": 3758,
  "\u2581anplis": 3759,
  "\u2581anvayi": 3760,
  "\u2581brief": 3761,
  "\u2581compared": 3762,
  "\u2581dir\u00e8kteman": 3763,
  "\u2581joyful": 3764,
  "\u2581konseye": 3765,
  "\u2581lat\u00e8t": 3766,
  "\u2581ma": 3767,
  "\u2581paragraphs": 3768,
  "\u2581process": 3769,
  "\u2581reached": 3770,
  "\u2581r\u00e8g": 3771,
  "\u2581video": 3772,
  "All": 3773,
  "mezi": 3774,
  "\u2581Ef\u00e8z": 3775,
  "\u2581Parents": 3776,
  "\u2581apwouve": 3777,
  "\u2581aranjman": 3778,
  "\u2581begotten": 3779,
  "\u2581court": 3780,
  "\u2581difficulties": 3781,
  "\u2581directly": 3782,
  "\u2581facts": 3783,
  "\u2581granted": 3784,
  "\u2581lekti": 3785,
  "\u2581minister": 3786,
  "\u2581regle": 3787,
  "\u2581run": 3788,
  "\u2581stick": 3789,
  "\u2581touched": 3790,
  "\u2581weeks": 3791,
  "\u2581144": 3792,
  "\u2581Pran": 3793,
  "\u2581THIS": 3794,
  "\u2581adopte": 3795,
  "\u2581air": 3796,
  "\u2581anviw\u00f2nman": 3797,
  "\u2581baby": 3798,
  "\u2581eskiz": 3799,
  "\u2581oxygen": 3800,
  "\u2581selil": 3801,
  "\u2581Heights": 3802,
  "\u2581Jij": 3803,
  "\u2581Other": 3804,
  "\u2581across": 3805,
  "\u2581demonstrated": 3806,
  "\u2581div\u00f2se": 3807,
  "\u2581fimen": 3808,
  "\u2581fleshly": 3809,
  "\u2581forgiving": 3810,
  "\u2581glorious": 3811,
  "\u2581katolik": 3812,
  "\u2581model": 3813,
  "\u2581neglije": 3814,
  "\u2581sant\u00e8n": 3815,
  "\u2581sosyete": 3816,
  "\u2581sovaj": 3817,
  "\u2581troubled": 3818,
  "\u2581wealth": 3819,
  "\u2581worse": 3820,
  "jw": 3821,
  "tann": 3822,
  "\u2581AN": 3823,
  "\u2581advance": 3824,
  "\u2581at\u00e8": 3825,
  "\u2581discouraged": 3826,
  "\u2581goodness": 3827,
  "\u2581humbly": 3828,
  "\u2581konpoze": 3829,
  "\u2581oksij\u00e8n": 3830,
  "\u2581proof": 3831,
  "\u2581remarkable": 3832,
  "\u2581sikonstans": 3833,
  "\u2581syantifik": 3834,
  "\u2581tribinal": 3835,
  "\u2581walked": 3836,
  "\u2581Germany": 3837,
  "\u2581Istwa": 3838,
  "\u2581Look": 3839,
  "\u2581Thessalonians": 3840,
  "\u2581add": 3841,
  "\u2581aposta": 3842,
  "\u2581associated": 3843,
  "\u2581background": 3844,
  "\u2581contain": 3845,
  "\u2581exert": 3846,
  "\u2581inhabited": 3847,
  "\u2581jw\u00e8t": 3848,
  "\u2581koutim": 3849,
  "\u2581leads": 3850,
  "\u2581marry": 3851,
  "\u2581merciful": 3852,
  "\u2581montay": 3853,
  "\u2581prophetic": 3854,
  "\u2581pursuing": 3855,
  "\u2581sinners": 3856,
  "\u2581wedding": 3857,
  "L": 3858,
  "\u2581Table": 3859,
  "\u2581cry": 3860,
  "\u2581jantiy\u00e8s": 3861,
  "\u2581reyaksyon": 3862,
  "\u2581significant": 3863,
  "\u2581talan": 3864,
  "\u00e8vit\u00e8": 3865,
  "\u258110]": 3866,
  "\u258123,": 3867,
  "\u258128,": 3868,
  "\u258190": 3869,
  "\u2581Earth": 3870,
  "\u2581Russell": 3871,
  "\u2581S\u00e8vi": 3872,
  "\u2581akizasyon": 3873,
  "\u2581apart": 3874,
  "\u2581company": 3875,
  "\u2581corrupt": 3876,
  "\u2581enjis": 3877,
  "\u2581inhabitants": 3878,
  "\u2581konpreyansyon": 3879,
  "\u2581occasions": 3880,
  "\u2581wide": 3881,
  "\u00c8S": 3882,
  "\u258137.": 3883,
  "\u258138.": 3884,
  "\u2581Box": 3885,
  "\u2581Children": 3886,
  "\u2581Columbia": 3887,
  "\u2581Contents": 3888,
  "\u2581Nathan": 3889,
  "\u2581Students": 3890,
  "\u2581V": 3891,
  "\u2581descendants": 3892,
  "\u2581fast": 3893,
  "\u2581invisible": 3894,
  "\u2581katastw\u00f2f": 3895,
  "\u2581konklizyon": 3896,
  "\u2581meaningful": 3897,
  "\u2581military": 3898,
  "\u2581opposers": 3899,
  "\u2581preced": 3900,
  "\u2581rap\u00e8l": 3901,
  "\u2581repentant": 3902,
  "\u2581sel\u00e8s": 3903,
  "\u2581violent": 3904,
  "\u258125]": 3905,
  "\u258139.": 3906,
  "\u2581Doing": 3907,
  "\u2581Follow": 3908,
  "\u2581Kings": 3909,
  "\u2581Rezon": 3910,
  "\u2581abandon": 3911,
  "\u2581admonition": 3912,
  "\u2581agreyab": 3913,
  "\u2581ajisteman": 3914,
  "\u2581causes": 3915,
  "\u2581disipline": 3916,
  "\u2581effects": 3917,
  "\u2581thousand": 3918,
  ">": 3919,
  "syen": 3920,
  "\u258149": 3921,
  "\u2581Day\u00e8": 3922,
  "\u2581Elisha": 3923,
  "\u2581acting": 3924,
  "\u2581attempt": 3925,
  "\u2581blan": 3926,
  "\u2581carrying": 3927,
  "\u2581egz\u00f2tasyon": 3928,
  "\u2581etandone": 3929,
  "\u2581fot": 3930,
  "\u2581global": 3931,
  "\u2581higher": 3932,
  "\u2581leaving": 3933,
  "\u2581lifestyle": 3934,
  "\u2581mare": 3935,
  "\u2581mention": 3936,
  "\u2581recreation": 3937,
  "\u2581sought": 3938,
  "\u2581vant": 3939,
  "\u2581worthy": 3940,
  "\u2581zans\u00e8t": 3941,
  "inga": 3942,
  "\u2581Ab\u00e8l": 3943,
  "\u2581August": 3944,
  "\u2581Aza": 3945,
  "\u2581J\u00e8n": 3946,
  "\u2581Passover": 3947,
  "\u2581angry": 3948,
  "\u2581designed": 3949,
  "\u2581none": 3950,
  "\u2581obligasyon": 3951,
  "\u2581path": 3952,
  "\u2581pornography": 3953,
  "\u2581recall": 3954,
  "\u2581review": 3955,
  "\u2581rise": 3956,
  "\u2581r\u00e8v": 3957,
  "For": 3958,
  "ought": 3959,
  "\u2581Ebyen": 3960,
  "\u2581Epoutan": 3961,
  "\u2581Jen": 3962,
  "\u2581Ministry": 3963,
  "\u2581Show": 3964,
  "\u2581Sometimes": 3965,
  "\u2581Surely": 3966,
  "\u2581Work": 3967,
  "\u2581abundance": 3968,
  "\u2581akonpaye": 3969,
  "\u2581appearance": 3970,
  "\u2581bra": 3971,
  "\u2581critical": 3972,
  "\u2581extreme": 3973,
  "\u2581fit": 3974,
  "\u2581hatred": 3975,
  "\u2581kary\u00e8": 3976,
  "\u2581rez\u00e8ve": 3977,
  "\u2581rulers": 3978,
  "\u2581soud": 3979,
  "\u2581tempted": 3980,
  "\u2581vast": 3981,
  "\u2581z\u00e8b": 3982,
  "\u2581z\u00f2r\u00e8y": 3983,
  "be": 3984,
  "ful": 3985,
  "\u2581Answered": 3986,
  "\u2581Knorr": 3987,
  "\u2581Readers": 3988,
  "\u2581abilities": 3989,
  "\u2581ekilibre": 3990,
  "\u2581esansy\u00e8l": 3991,
  "\u2581gate": 3992,
  "\u2581konbat": 3993,
  "\u2581koupab": 3994,
  "\u2581lib": 3995,
  "\u2581lying": 3996,
  "\u2581music": 3997,
  "\u2581patiently": 3998,
  "\u2581pioneering": 3999,
  "\u2581rate": 4000,
  "\u2581reaching": 4001,
  "\u2581taks": 4002,
  "\u2581trouble": 4003,
  "koz": 4004,
  "\u25811914.": 4005,
  "\u2581Am": 4006,
  "\u2581Asa": 4007,
  "\u2581acknowledge": 4008,
  "\u2581blame": 4009,
  "\u2581commit": 4010,
  "\u2581compare": 4011,
  "\u2581drawing": 4012,
  "\u2581ent\u00e8di": 4013,
  "\u2581financial": 4014,
  "\u2581ministery\u00e8l": 4015,
  "\u2581p\u00e8manan": 4016,
  "\u2581ribrik": 4017,
  "\u2581slow": 4018,
  "\u2581upright": 4019,
  "201": 4020,
  "chenn": 4021,
  "lez": 4022,
  "\u258126]": 4023,
  "\u2581Kite": 4024,
  "\u2581Mesye": 4025,
  "\u2581apresyasyon": 4026,
  "\u2581beneficial": 4027,
  "\u2581bonsans": 4028,
  "\u2581lekt\u00e8": 4029,
  "\u2581miracles": 4030,
  "\u2581motivated": 4031,
  "\u2581reflected": 4032,
  "\u2581rendered": 4033,
  "\u2581require": 4034,
  "\u2581sake": 4035,
  "\u2581telef\u00f2n": 4036,
  "\u2581toutotou": 4037,
  "\u2581vyole": 4038,
  "\u2581Elicha": 4039,
  "\u2581Name": 4040,
  "\u2581Nouy\u00f2k": 4041,
  "\u2581approached": 4042,
  "\u2581cover": 4043,
  "\u2581deaf": 4044,
  "\u2581dignity": 4045,
  "\u2581facing": 4046,
  "\u2581ideas": 4047,
  "\u2581marvelous": 4048,
  "\u2581moment": 4049,
  "\u2581moves": 4050,
  "\u2581prete": 4051,
  "\u2581render": 4052,
  "\u2581soldiers": 4053,
  "\u2581successfully": 4054,
  "\u2581toun\u00e8f": 4055,
  "\u2581wondered": 4056,
  "T": 4057,
  "pwen": 4058,
  "\u258142.": 4059,
  "\u2581Never": 4060,
  "\u2581Toupisan": 4061,
  "\u2581abundant": 4062,
  "\u2581avanse": 4063,
  "\u2581career": 4064,
  "\u2581choz": 4065,
  "\u2581communicate": 4066,
  "\u2581distance": 4067,
  "\u2581listed": 4068,
  "\u2581listeners": 4069,
  "\u2581motives": 4070,
  "\u2581pointed": 4071,
  "\u2581poverty": 4072,
  "\u2581produced": 4073,
  "\u2581remove": 4074,
  "\u2581severe": 4075,
  "ak": 4076,
  "day": 4077,
  "ive": 4078,
  "men": 4079,
  "\u258136.": 4080,
  "\u2581Book": 4081,
  "\u2581Eph": 4082,
  "\u2581Ezra": 4083,
  "\u2581Illustrate": 4084,
  "\u2581Notice": 4085,
  "\u2581appeal": 4086,
  "\u2581appreciated": 4087,
  "\u2581authorities": 4088,
  "\u2581d\u00e8t": 4089,
  "\u2581figurative": 4090,
  "\u2581offers": 4091,
  "\u2581ouv\u00e8": 4092,
  "\u2581rizib": 4093,
  "\u2581\u00f2geye": 4094,
  "dizan": 4095,
  "\u258131,": 4096,
  "\u2581Tradiksyon": 4097,
  "\u2581af\u00e8": 4098,
  "\u2581alk\u00f2l": 4099,
  "\u2581blind": 4100,
  "\u2581cost": 4101,
  "\u2581diy": 4102,
  "\u2581identity": 4103,
  "\u2581kill": 4104,
  "\u2581lowly": 4105,
  "\u2581mild": 4106,
  "\u2581po": 4107,
  "\u2581sang": 4108,
  "Gen": 4109,
  "kontinye": 4110,
  "l\u00f2t": 4111,
  "tan": 4112,
  "\u2581Dezy\u00e8mman": 4113,
  "\u2581Flood": 4114,
  "\u2581Ok\u00f2mansman": 4115,
  "\u2581Pharisees": 4116,
  "\u2581appears": 4117,
  "\u2581arrangements": 4118,
  "\u2581cheval": 4119,
  "\u2581degre": 4120,
  "\u2581distr\u00e8": 4121,
  "\u2581dwelling": 4122,
  "\u2581ent\u00e8lijans": 4123,
  "\u2581inner": 4124,
  "\u2581international": 4125,
  "\u2581lovingly": 4126,
  "\u2581pasaj": 4127,
  "\u2581ranje": 4128,
  "\u2581religions": 4129,
  "\u2581represented": 4130,
  "\u2581restore": 4131,
  "\u2581sipoze": 4132,
  "\u2581tribe": 4133,
  "\u2581wars": 4134,
  "bagay": 4135,
  "\u2581145": 4136,
  "\u2581Africa": 4137,
  "\u2581Efe": 4138,
  "\u2581NY": 4139,
  "\u2581Tesaloni": 4140,
  "\u2581Zekarya": 4141,
  "\u2581conflict": 4142,
  "\u2581des": 4143,
  "\u2581f\u00f2nikasyon": 4144,
  "\u2581habits": 4145,
  "\u2581influenced": 4146,
  "\u2581lakretyente": 4147,
  "\u2581limite": 4148,
  "\u2581prale": 4149,
  "\u2581remaining": 4150,
  "\u2581research": 4151,
  "\u2581straight": 4152,
  "\u2581teyokratik": 4153,
  "\u2581treatment": 4154,
  "\u2581Plis": 4155,
  "\u2581belongs": 4156,
  "\u2581cho": 4157,
  "\u2581divorce": 4158,
  "\u2581enpresyone": 4159,
  "\u2581frekante": 4160,
  "\u2581increased": 4161,
  "\u2581lari": 4162,
  "\u2581qualified": 4163,
  "\u2581released": 4164,
  "\u2581sacrificing": 4165,
  "\u2581tranblemannt\u00e8": 4166,
  "\u2581vyolan": 4167,
  "pati": 4168,
  "will": 4169,
  "\u2581Amaged\u00f2n": 4170,
  "\u2581April": 4171,
  "\u2581Iza": 4172,
  "\u2581Michael": 4173,
  "\u2581benefited": 4174,
  "\u2581ekipman": 4175,
  "\u2581espesyalman": 4176,
  "\u2581fy\u00e8": 4177,
  "\u2581medical": 4178,
  "\u2581noticed": 4179,
  "\u2581physically": 4180,
  "\u2581prese": 4181,
  "\u2581pretann": 4182,
  "\u2581repete": 4183,
  "\u2581rezen": 4184,
  "\u2581stress": 4185,
  "\u2581travel": 4186,
  "ion": 4187,
  "toure": 4188,
  "\u2581Almighty": 4189,
  "\u2581Blur": 4190,
  "\u2581Internet": 4191,
  "\u2581JEHOVAH": 4192,
  "\u2581balanced": 4193,
  "\u2581echwe": 4194,
  "\u2581enprime": 4195,
  "\u2581familiar": 4196,
  "\u2581numbers": 4197,
  "\u2581sad": 4198,
  "\u2581safe": 4199,
  "\u2581sekr\u00e8": 4200,
  "\u2581solisyon": 4201,
  "\u2581tanperaman": 4202,
  "\u2581ungodly": 4203,
  "D": 4204,
  "frans\u00e8": 4205,
  "other": 4206,
  "ous": 4207,
  "\u2581Ew\u00f2p": 4208,
  "\u2581R\u00e9ve": 4209,
  "\u2581abondans": 4210,
  "\u2581assignments": 4211,
  "\u2581conversations": 4212,
  "\u2581drinking": 4213,
  "\u2581exercising": 4214,
  "\u2581hundreds": 4215,
  "\u2581lannuit": 4216,
  "\u2581limitations": 4217,
  "\u2581mantalite": 4218,
  "\u2581meditating": 4219,
  "\u2581outcome": 4220,
  "\u2581pwoj\u00e8": 4221,
  "\u2581replied": 4222,
  "\u2581ruin": 4223,
  "\u2581sodium": 4224,
  "fil\u00e8": 4225,
  "keep": 4226,
  "ti": 4227,
  "vo": 4228,
  "\u2581Cain": 4229,
  "\u2581Jonathan": 4230,
  "\u2581abandoned": 4231,
  "\u2581beast": 4232,
  "\u2581firmly": 4233,
  "\u2581glorifye": 4234,
  "\u2581gradually": 4235,
  "\u2581kons\u00e8ve": 4236,
  "\u2581kouran": 4237,
  "\u2581midst": 4238,
  "\u2581opposite": 4239,
  "\u2581priyorite": 4240,
  "\u2581referring": 4241,
  "\u2581sosyal": 4242,
  "\u2581tifi": 4243,
  "\u2581trusted": 4244,
  "\u2581union": 4245,
  "\u2581zouti": 4246,
  "How": 4247,
  "\u2581Ephesus": 4248,
  "\u2581guided": 4249,
  "\u2581looks": 4250,
  "\u2581obeying": 4251,
  "\u2581persons": 4252,
  "\u2581pil": 4253,
  "\u2581rem\u00e8t": 4254,
  "\u2581stone": 4255,
  "\u2581s\u00e8vo": 4256,
  "\u2581terms": 4257,
  "\u2581theocratic": 4258,
  "\u2581white": 4259,
  "\u2581writings": 4260,
  "\u2581z\u00e8v": 4261,
  "Byennere": 4262,
  "outon": 4263,
  "\u25816;": 4264,
  "\u2581BIB": 4265,
  "\u2581Know": 4266,
  "\u2581Laza": 4267,
  "\u2581Oswa": 4268,
  "\u2581Pwofesi": 4269,
  "\u2581Version": 4270,
  "\u2581animal": 4271,
  "\u2581armies": 4272,
  "\u2581endured": 4273,
  "\u2581fondamantal": 4274,
  "\u2581foundation": 4275,
  "\u2581gather": 4276,
  "\u2581heavy": 4277,
  "\u2581impossible": 4278,
  "\u2581inclined": 4279,
  "\u2581konpayi": 4280,
  "\u2581lwanj": 4281,
  "\u2581pressures": 4282,
  "\u2581sickness": 4283,
  "\u2581surprise": 4284,
  "\u2581temporary": 4285,
  "\u2581unable": 4286,
  "\u2581useful": 4287,
  "\u2581viktim": 4288,
  "\u02b9": 4289,
  "\u2581Leson": 4290,
  "\u2581aparans": 4291,
  "\u2581bwason": 4292,
  "\u2581concluded": 4293,
  "\u2581distri": 4294,
  "\u2581generation": 4295,
  "\u2581ignore": 4296,
  "\u2581kominote": 4297,
  "\u2581metrize": 4298,
  "\u2581milya": 4299,
  "\u2581mouvman": 4300,
  "\u2581refuse": 4301,
  "\u2581series": 4302,
  "\u2581tax": 4303,
  "They": 4304,
  "de": 4305,
  "with": 4306,
  "\u00e8n": 4307,
  "\u258114.)": 4308,
  "\u25812014": 4309,
  "\u258153": 4310,
  "\u2581Abel": 4311,
  "\u2581Kayen": 4312,
  "\u2581Rive": 4313,
  "\u2581adapte": 4314,
  "\u2581charge": 4315,
  "\u2581darkness": 4316,
  "\u2581dw\u00f2g": 4317,
  "\u2581hate": 4318,
  "\u2581ill": 4319,
  "\u2581kole": 4320,
  "\u2581mountains": 4321,
  "\u2581numerous": 4322,
  "\u2581plans": 4323,
  "\u2581relate": 4324,
  "\u2581royal": 4325,
  "\u2581spouse": 4326,
  "\u2581trip": 4327,
  "\u00e8p": 4328,
  "\u258117.)": 4329,
  "\u2581Ejipsyen": 4330,
  "\u2581F\u00c8": 4331,
  "\u2581Jordan": 4332,
  "\u2581Maria": 4333,
  "\u2581October": 4334,
  "\u2581SUBJECT": 4335,
  "\u2581alavans": 4336,
  "\u2581associate": 4337,
  "\u2581brotherhood": 4338,
  "\u2581byenn\u00e8t": 4339,
  "\u2581febli": 4340,
  "\u2581ht": 4341,
  "\u2581indefinite": 4342,
  "\u2581modest": 4343,
  "\u2581repeatedly": 4344,
  "\u2581televizyon": 4345,
  "\u2581thereafter": 4346,
  "\u2581wheat": 4347,
  "ary": 4348,
  "jwenn": 4349,
  "\u2581(1)": 4350,
  "\u25811)": 4351,
  "\u258119]": 4352,
  "\u2581Nawomi": 4353,
  "\u2581afektif": 4354,
  "\u2581apparently": 4355,
  "\u2581arete": 4356,
  "\u2581confront": 4357,
  "\u2581dwell": 4358,
  "\u2581espirityalite": 4359,
  "\u2581ministeri": 4360,
  "\u2581peaceful": 4361,
  "\u2581plante": 4362,
  "\u2581pleasing": 4363,
  "\u2581pri": 4364,
  "\u2581pwason": 4365,
  "\u2581rek\u00f2lte": 4366,
  "\u2581relations": 4367,
  "\u2581sandout": 4368,
  "\u2581shed": 4369,
  "\u2581siyifi": 4370,
  "\u2581task": 4371,
  "\u2581unrighteous": 4372,
  "\u2581(2)": 4373,
  "\u2581300": 4374,
  "\u258156": 4375,
  "\u2581HOW": 4376,
  "\u2581Master": 4377,
  "\u2581Vr\u00e8": 4378,
  "\u2581c": 4379,
  "\u2581defi": 4380,
  "\u2581distribye": 4381,
  "\u2581generous": 4382,
  "\u2581highly": 4383,
  "\u2581holding": 4384,
  "\u2581ions": 4385,
  "\u2581luil": 4386,
  "\u2581pini": 4387,
  "\u2581properly": 4388,
  "\u2581rapid": 4389,
  "\u2581region": 4390,
  "\u2581repo": 4391,
  "\u2581rightly": 4392,
  "\u2581stood": 4393,
  "\u2581traits": 4394,
  "\u2581tribes": 4395,
  "\u2581wisely": 4396,
  "As": 4397,
  "rey\u00f2l": 4398,
  "wof\u00e8t": 4399,
  "\u2581Every": 4400,
  "\u2581JEWOVA": 4401,
  "\u2581MEN": 4402,
  "\u2581Mand": 4403,
  "\u2581chans": 4404,
  "\u2581grown": 4405,
  "\u2581imperfection": 4406,
  "\u2581jen": 4407,
  "\u2581len": 4408,
  "\u2581lot\u00e8l": 4409,
  "\u2581methods": 4410,
  "\u2581nimewo": 4411,
  "\u2581prekosyon": 4412,
  "\u2581private": 4413,
  "\u2581red": 4414,
  "\u2581sanzatann": 4415,
  "\u2581soulaje": 4416,
  "\u2581souls": 4417,
  "\u2581turning": 4418,
  "\u2581village": 4419,
  "\u2581waters": 4420,
  "\u2581weaknesses": 4421,
  "Y": 4422,
  "ar": 4423,
  "ne": 4424,
  "\u25811950": 4425,
  "\u2581balance": 4426,
  "\u2581cheve": 4427,
  "\u2581construction": 4428,
  "\u2581copy": 4429,
  "\u2581div\u00e8tisman": 4430,
  "\u2581inherited": 4431,
  "\u2581kontribye": 4432,
  "\u2581maintaining": 4433,
  "\u2581opozan": 4434,
  "\u2581quick": 4435,
  "\u2581sezon": 4436,
  "\u2581surprised": 4437,
  "\u2581upbuilding": 4438,
  "\u2581veso": 4439,
  "\u2581won": 4440,
  "fwa": 4441,
  "\u00b7": 4442,
  "\u25813;": 4443,
  "\u258172": 4444,
  "\u2581FOR": 4445,
  "\u2581Grant": 4446,
  "\u2581Jide": 4447,
  "\u2581Lamb": 4448,
  "\u2581September": 4449,
  "\u2581Tit": 4450,
  "\u2581Tou": 4451,
  "\u2581adjust": 4452,
  "\u2581create": 4453,
  "\u2581disaster": 4454,
  "\u2581encourages": 4455,
  "\u2581healthy": 4456,
  "\u2581instructed": 4457,
  "\u2581lyon": 4458,
  "\u2581mass": 4459,
  "\u2581metal": 4460,
  "\u2581nine": 4461,
  "\u2581otherwise": 4462,
  "\u2581rebele": 4463,
  "\u2581r\u00e8y": 4464,
  "\u2581sid": 4465,
  "\u2581struck": 4466,
  "\u2581traveled": 4467,
  "\u2581win": 4468,
  "\u2581zid\u00f2l": 4469,
  "\u2581American": 4470,
  "\u2581Ex": 4471,
  "\u2581Lazarus": 4472,
  "\u2581Manman": 4473,
  "\u2581Naomi": 4474,
  "\u2581affairs": 4475,
  "\u2581au": 4476,
  "\u2581color": 4477,
  "\u2581finding": 4478,
  "\u2581kredi": 4479,
  "\u2581oil": 4480,
  "\u2581possession": 4481,
  "\u2581pot": 4482,
  "\u2581protected": 4483,
  "\u2581p\u00f2syon": 4484,
  "\u2581root": 4485,
  "\u2581rules": 4486,
  "\u2581sepandan": 4487,
  "\u2581sitwayen": 4488,
  "\u2581song": 4489,
  "\u2581variety": 4490,
  "for": 4491,
  "ge": 4492,
  "our": 4493,
  "\u25812)": 4494,
  "\u25818.)": 4495,
  "\u2581Corinth": 4496,
  "\u2581Shortly": 4497,
  "\u2581Titus": 4498,
  "\u2581attendance": 4499,
  "\u2581ava": 4500,
  "\u2581avril": 4501,
  "\u2581danjere": 4502,
  "\u2581disease": 4503,
  "\u2581displayed": 4504,
  "\u2581efase": 4505,
  "\u2581identified": 4506,
  "\u2581repentance": 4507,
  "\u2581reported": 4508,
  "\u2581tant": 4509,
  "\u2581tr\u00e8zenp\u00f2tan": 4510,
  "npay": 4511,
  "\u258123]": 4512,
  "\u258151": 4513,
  "\u2581Go": 4514,
  "\u2581Prayer": 4515,
  "\u2581Vr\u00e8man": 4516,
  "\u2581abuse": 4517,
  "\u2581additional": 4518,
  "\u2581audience": 4519,
  "\u2581choosing": 4520,
  "\u2581detail": 4521,
  "\u2581divizyon": 4522,
  "\u2581du": 4523,
  "\u2581ears": 4524,
  "\u2581fitting": 4525,
  "\u2581glorify": 4526,
  "\u2581imen": 4527,
  "\u2581involv": 4528,
  "\u2581louvri": 4529,
  "\u2581maltrete": 4530,
  "\u2581obtain": 4531,
  "\u2581patikilye": 4532,
  "\u2581pursuits": 4533,
  "\u2581recalls": 4534,
  "\u2581relationships": 4535,
  "\u2581reminders": 4536,
  "\u2581resulted": 4537,
  "\u2581wild": 4538,
  "\u2581writes": 4539,
  "bay": 4540,
  "\u258145.": 4541,
  "\u2581Jonah": 4542,
  "\u2581Ocheya": 4543,
  "\u2581Out": 4544,
  "\u2581belief": 4545,
  "\u2581clothing": 4546,
  "\u2581dir\u00e8k": 4547,
  "\u2581divided": 4548,
  "\u2581employment": 4549,
  "\u2581failure": 4550,
  "\u2581fond": 4551,
  "\u2581kalm": 4552,
  "\u2581mezire": 4553,
  "\u2581possessions": 4554,
  "\u2581sustain": 4555,
  "\u2581s\u00e8pan": 4556,
  "\u2581tante": 4557,
  "\u2581throw": 4558,
  "Be": 4559,
  "Kontinye": 4560,
  "\u258140.": 4561,
  "\u258183": 4562,
  "\u2581Ostrali": 4563,
  "\u2581South": 4564,
  "\u2581V\u00e8s": 4565,
  "\u2581accord": 4566,
  "\u2581alert": 4567,
  "\u2581dangers": 4568,
  "\u2581defend": 4569,
  "\u2581drew": 4570,
  "\u2581excellent": 4571,
  "\u2581features": 4572,
  "\u2581fouye": 4573,
  "\u2581gathering": 4574,
  "\u2581kominikasyon": 4575,
  "\u2581krisyanis": 4576,
  "\u2581lave": 4577,
  "\u2581meditation": 4578,
  "\u2581miraculous": 4579,
  "\u2581notes": 4580,
  "\u2581painful": 4581,
  "\u2581property": 4582,
  "\u2581standard": 4583,
  "\u2581twou": 4584,
  "\u2581Credit": 4585,
  "\u2581Hosea": 4586,
  "\u2581approved": 4587,
  "\u2581asistan": 4588,
  "\u2581assembly": 4589,
  "\u2581buy": 4590,
  "\u2581camp": 4591,
  "\u2581commands": 4592,
  "\u2581conviction": 4593,
  "\u2581cross": 4594,
  "\u2581entrusted": 4595,
  "\u2581householder": 4596,
  "\u2581kabrit": 4597,
  "\u2581lajounen": 4598,
  "\u2581lopital": 4599,
  "\u2581rasin": 4600,
  "\u2581suggestions": 4601,
  "\u2581tonm": 4602,
  "\u2581verifye": 4603,
  "\u2581vow": 4604,
  "angl\u00e8": 4605,
  "tre": 4606,
  "\u2581End": 4607,
  "\u2581arranged": 4608,
  "\u2581asks": 4609,
  "\u2581date": 4610,
  "\u2581exists": 4611,
  "\u2581glad": 4612,
  "\u2581lojik": 4613,
  "\u2581mou": 4614,
  "\u2581pinisyon": 4615,
  "\u2581rekonf\u00f2tan": 4616,
  "\u2581season": 4617,
  "\u2581sipery\u00e8": 4618,
  "\u2581sorts": 4619,
  "\u2581vale": 4620,
  "\u2581wall": 4621,
  "\u2581wrongdoing": 4622,
  "\u2581120": 4623,
  "\u258154": 4624,
  "\u2581ARTICLES": 4625,
  "\u2581Day": 4626,
  "\u2581Joel": 4627,
  "\u2581Lafwa": 4628,
  "\u2581Malachi": 4629,
  "\u2581Phil": 4630,
  "\u2581S\u00e8m": 4631,
  "\u2581Yona": 4632,
  "\u2581desi": 4633,
  "\u2581dream": 4634,
  "\u2581izole": 4635,
  "\u2581length": 4636,
  "\u2581official": 4637,
  "\u2581reign": 4638,
  "\u2581repare": 4639,
  "\u2581resources": 4640,
  "\u2581supply": 4641,
  "\u2581wrath": 4642,
  "TE": 4643,
  "no": 4644,
  "\u2581144,000": 4645,
  "\u2581Biblical": 4646,
  "\u2581Europe": 4647,
  "\u2581IS": 4648,
  "\u2581Levites": 4649,
  "\u2581March": 4650,
  "\u2581Tal\u00e8": 4651,
  "\u2581adopt": 4652,
  "\u2581aksidan": 4653,
  "\u2581attitudes": 4654,
  "\u2581conscious": 4655,
  "\u2581damage": 4656,
  "\u2581depend": 4657,
  "\u2581dress": 4658,
  "\u2581egzije": 4659,
  "\u2581mates": 4660,
  "\u2581stronger": 4661,
  "\u2581vwazen": 4662,
  "\u2581worldly": 4663,
  "\u00e8t": 4664,
  "\u25815;": 4665,
  "\u2581Concern": 4666,
  "\u2581Me": 4667,
  "\u2581anwo": 4668,
  "\u2581applies": 4669,
  "\u2581av\u00e8g": 4670,
  "\u2581firstborn": 4671,
  "\u2581frekantasyon": 4672,
  "\u2581hospitality": 4673,
  "\u2581k\u00f2d": 4674,
  "\u2581load": 4675,
  "\u2581mark": 4676,
  "\u2581maybe": 4677,
  "\u2581milit\u00e8": 4678,
  "\u2581obstak": 4679,
  "\u2581paid": 4680,
  "\u2581scholar": 4681,
  "\u2581sip\u00f2": 4682,
  "\u2581spirits": 4683,
  "\u2581viktwa": 4684,
  "\u2581zo": 4685,
  "Papa": 4686,
  "ab\u00e8nak": 4687,
  "ons\u00e8nan": 4688,
  "\u258126,": 4689,
  "\u258129,": 4690,
  "\u2581Canada": 4691,
  "\u2581Nabal": 4692,
  "\u2581ansent": 4693,
  "\u2581bodies": 4694,
  "\u2581boldness": 4695,
  "\u2581community": 4696,
  "\u2581differences": 4697,
  "\u2581edikasyon": 4698,
  "\u2581ent\u00e8lijan": 4699,
  "\u2581fonksyon": 4700,
  "\u2581frans\u00e8": 4701,
  "\u2581fundamental": 4702,
  "\u2581j": 4703,
  "\u2581jennen": 4704,
  "\u2581lovers": 4705,
  "\u2581menase": 4706,
  "\u2581osij\u00e8": 4707,
  "\u2581rock": 4708,
  "\u2581routine": 4709,
  "\u2581stayed": 4710,
  "F\u00e8": 4711,
  "ty": 4712,
  "veye": 4713,
  "\u2581GOD": 4714,
  "\u2581Scripture": 4715,
  "\u2581Things": 4716,
  "\u2581Zanj": 4717,
  "\u2581advancement": 4718,
  "\u2581altar": 4719,
  "\u2581ameriken": 4720,
  "\u2581analize": 4721,
  "\u2581divize": 4722,
  "\u2581donations": 4723,
  "\u2581elve": 4724,
  "\u2581ended": 4725,
  "\u2581factor": 4726,
  "\u2581flee": 4727,
  "\u2581gold": 4728,
  "\u2581grand": 4729,
  "\u2581inyon": 4730,
  "\u2581itineran": 4731,
  "\u2581mistake": 4732,
  "\u2581passing": 4733,
  "\u2581paying": 4734,
  "\u2581perfection": 4735,
  "\u2581povrete": 4736,
  "\u2581readily": 4737,
  "\u2581recently": 4738,
  "\u2581serpent": 4739,
  "\u2581trist\u00e8s": 4740,
  "\u2581December": 4741,
  "\u2581Gwo": 4742,
  "\u2581Halls": 4743,
  "\u2581Kanada": 4744,
  "\u2581Philip": 4745,
  "\u2581ak\u00f2": 4746,
  "\u2581belongings": 4747,
  "\u2581brochure": 4748,
  "\u2581burden": 4749,
  "\u2581cared": 4750,
  "\u2581dezan": 4751,
  "\u2581donk": 4752,
  "\u2581expects": 4753,
  "\u2581idolatri": 4754,
  "\u2581kantik": 4755,
  "\u2581list": 4756,
  "\u2581okt\u00f2b": 4757,
  "\u2581pasyan": 4758,
  "\u2581pinga": 4759,
  "\u2581promotes": 4760,
  "\u2581scripture": 4761,
  "\u2581tabernacle": 4762,
  "\u2581unclean": 4763,
  "\u2581universal": 4764,
  "\u2581writers": 4765,
  "disfellowshipped": 4766,
  "ermon": 4767,
  "f": 4768,
  "his": 4769,
  "\u2581Eventually": 4770,
  "\u2581Richard": 4771,
  "\u2581Time": 4772,
  "\u2581alcohol": 4773,
  "\u2581associates": 4774,
  "\u2581attacks": 4775,
  "\u2581bank": 4776,
  "\u2581eagerly": 4777,
  "\u2581entitled": 4778,
  "\u2581finish": 4779,
  "\u2581fonksyone": 4780,
  "\u2581grain": 4781,
  "\u2581intended": 4782,
  "\u2581kingdoms": 4783,
  "\u2581majority": 4784,
  "\u2581maniskri": 4785,
  "\u2581oppose": 4786,
  "\u2581repent": 4787,
  "\u2581restored": 4788,
  "\u2581soil": 4789,
  "\u2581tendency": 4790,
  "\u2581urgency": 4791,
  "\u2581valab": 4792,
  "\u2581victory": 4793,
  "\u2581volont\u00e8man": 4794,
  "ation": 4795,
  "\u2581Australia": 4796,
  "\u2581June": 4797,
  "\u2581Kwonik": 4798,
  "\u2581center": 4799,
  "\u2581commandment": 4800,
  "\u2581compassionate": 4801,
  "\u2581culture": 4802,
  "\u2581depth": 4803,
  "\u2581disobedience": 4804,
  "\u2581dokiman": 4805,
  "\u2581fornication": 4806,
  "\u2581gad": 4807,
  "\u2581initiative": 4808,
  "\u2581interesting": 4809,
  "\u2581kontra": 4810,
  "\u2581national": 4811,
  "\u2581plan\u00e8t": 4812,
  "\u2581popular": 4813,
  "\u2581pour": 4814,
  "\u2581rantre": 4815,
  "\u2581residents": 4816,
  "\u2581signs": 4817,
  "\u2581sinag\u00f2g": 4818,
  "\u2581tradisyon": 4819,
  "\u2581trees": 4820,
  "\u2581vy\u00e8j": 4821,
  "\u2581welfare": 4822,
  "\u2581woulo": 4823,
  "\u2581\u00f2m": 4824,
  "d\u00e8nye": 4825,
  "\u25812004": 4826,
  "\u258133,": 4827,
  "\u2581Chronicles": 4828,
  "\u2581January": 4829,
  "\u2581Judas": 4830,
  "\u2581abroad": 4831,
  "\u2581adjustments": 4832,
  "\u2581alat\u00e8t": 4833,
  "\u2581begins": 4834,
  "\u2581causing": 4835,
  "\u2581content": 4836,
  "\u2581depresyon": 4837,
  "\u2581forced": 4838,
  "\u2581gaz": 4839,
  "\u2581miray": 4840,
  "\u2581sat": 4841,
  "\u2581stars": 4842,
  "\u2581str\u00e8s": 4843,
  "\u2581toudab\u00f2": 4844,
  "\u2581trusting": 4845,
  "\u2581vijilan": 4846,
  "ingness": 4847,
  "z": 4848,
  "\u25812015": 4849,
  "\u2581Barak": 4850,
  "\u2581Church": 4851,
  "\u2581Happy": 4852,
  "\u2581b\u00e8f": 4853,
  "\u2581discovered": 4854,
  "\u2581enjoying": 4855,
  "\u2581etonan": 4856,
  "\u2581herself": 4857,
  "\u2581kolabore": 4858,
  "\u2581miraculously": 4859,
  "\u2581oserye": 4860,
  "\u2581pousan": 4861,
  "\u2581release": 4862,
  "\u2581septanm": 4863,
  "\u2581soulajman": 4864,
  "\u2581strangers": 4865,
  "\u2581s\u00e8n": 4866,
  "\u2581teste": 4867,
  "\u2581treasures": 4868,
  "\u2581(3)": 4869,
  "\u25812006": 4870,
  "\u2581Dany\u00e8l": 4871,
  "\u2581Montre": 4872,
  "\u2581Pilat": 4873,
  "\u2581William": 4874,
  "\u2581accepting": 4875,
  "\u2581bri": 4876,
  "\u2581degree": 4877,
  "\u2581developing": 4878,
  "\u2581ezite": 4879,
  "\u2581houses": 4880,
  "\u2581iniv\u00e8site": 4881,
  "\u2581kabann": 4882,
  "\u2581represents": 4883,
  "\u2581reputation": 4884,
  "\u2581resolved": 4885,
  "\u2581rights": 4886,
  "\u2581senb\u00f2l": 4887,
  "\u2581sides": 4888,
  "\u2581slavery": 4889,
  "\u2581songs": 4890,
  "\u2581tanpri": 4891,
  "\u2581toutotan": 4892,
  "\u2581wipe": 4893,
  "2": 4894,
  "ka": 4895,
  "\u258175": 4896,
  "\u2581Draw": 4897,
  "\u2581Egyptian": 4898,
  "\u2581Izkiya": 4899,
  "\u2581PA": 4900,
  "\u2581ajan": 4901,
  "\u2581atiran": 4902,
  "\u2581bese": 4903,
  "\u2581churches": 4904,
  "\u2581earnest": 4905,
  "\u2581economic": 4906,
  "\u2581error": 4907,
  "\u2581lakou": 4908,
  "\u2581n\u00e8tale": 4909,
  "\u2581orijinal": 4910,
  "\u2581possibly": 4911,
  "\u2581pousy\u00e8": 4912,
  "\u2581primarily": 4913,
  "\u2581rasanbleman": 4914,
  "\u2581remnant": 4915,
  "\u2581s\u00f2t": 4916,
  "\u2581tras": 4917,
  "\u2581uphold": 4918,
  "\u2581warfare": 4919,
  "ED": 4920,
  "ers": 4921,
  "x": 4922,
  "\u258173": 4923,
  "\u2581Azi": 4924,
  "\u2581Lessons": 4925,
  "\u2581Remake": 4926,
  "\u2581R\u00e8": 4927,
  "\u2581bouk": 4928,
  "\u2581companion": 4929,
  "\u2581encounter": 4930,
  "\u2581extended": 4931,
  "\u2581innocent": 4932,
  "\u2581intense": 4933,
  "\u2581minit": 4934,
  "\u2581mobil": 4935,
  "\u2581observ": 4936,
  "\u2581subjection": 4937,
  "\u2581touch": 4938,
  "\u2581visits": 4939,
  "\u2581voluntary": 4940,
  "\u2581zetwal": 4941,
  "fekte": 4942,
  "\u00d2T": 4943,
  "\u0578\u0582\u0574": 4944,
  "\u25811;": 4945,
  "\u2581Jouden": 4946,
  "\u2581Purpose": 4947,
  "\u2581Service": 4948,
  "\u2581Testament": 4949,
  "\u2581Way": 4950,
  "\u2581bound": 4951,
  "\u2581broke": 4952,
  "\u2581calamity": 4953,
  "\u2581chif": 4954,
  "\u2581desanm": 4955,
  "\u2581ekilib": 4956,
  "\u2581enduring": 4957,
  "\u2581explanation": 4958,
  "\u2581fanm": 4959,
  "\u2581happening": 4960,
  "\u2581hundred": 4961,
  "\u2581inosan": 4962,
  "\u2581kalamite": 4963,
  "\u2581literally": 4964,
  "\u2581ofiramezi": 4965,
  "\u2581percent": 4966,
  "\u2581poured": 4967,
  "\u2581preserve": 4968,
  "\u2581pwofetize": 4969,
  "\u2581sant": 4970,
  "\u2581senses": 4971,
  "\u2581skills": 4972,
  "\u2581symbolic": 4973,
  "\u2581torture": 4974,
  "\u2581wind": 4975,
  "\u2581zealously": 4976,
  "k\u00f2nen": 4977,
  "nviwon": 4978,
  "\u2581200": 4979,
  "\u258147": 4980,
  "\u258161": 4981,
  "\u2581AK": 4982,
  "\u2581George": 4983,
  "\u2581Jer": 4984,
  "\u2581Nonb": 4985,
  "\u2581anymore": 4986,
  "\u2581birds": 4987,
  "\u2581chagren": 4988,
  "\u2581depanse": 4989,
  "\u2581endefini": 4990,
  "\u2581establish": 4991,
  "\u2581evolisyon": 4992,
  "\u2581expand": 4993,
  "\u2581footnote": 4994,
  "\u2581grave": 4995,
  "\u2581heads": 4996,
  "\u2581impact": 4997,
  "\u2581konparezon": 4998,
  "\u2581loyally": 4999,
  "\u2581menas": 5000,
  "\u2581ministers": 5001,
  "\u2581nearby": 5002,
  "\u2581nwa": 5003,
  "\u2581pat": 5004,
  "\u2581prominent": 5005,
  "\u2581reprezantan": 5006,
  "\u2581scene": 5007,
  "\u2581s\u00e8man": 5008,
  "\u2581tests": 5009,
  "\u2581z": 5010,
  "wa": 5011,
  "\u258132,": 5012,
  "\u25818]": 5013,
  "\u2581BONDYE": 5014,
  "\u2581Line": 5015,
  "\u2581MWEN": 5016,
  "\u2581Stephen": 5017,
  "\u2581cells": 5018,
  "\u2581constant": 5019,
  "\u2581detanzantan": 5020,
  "\u2581doctor": 5021,
  "\u2581exposed": 5022,
  "\u2581governing": 5023,
  "\u2581grant": 5024,
  "\u2581krimin\u00e8l": 5025,
  "\u2581leader": 5026,
  "\u2581nyaj": 5027,
  "\u2581peaceable": 5028,
  "\u2581possess": 5029,
  "\u2581regret": 5030,
  "\u2581seventh": 5031,
  "\u2581souri": 5032,
  "\u2581surrounded": 5033,
  "\u2581thankful": 5034,
  "\u2581totalman": 5035,
  "\u2581warnings": 5036,
  "\u2581worshipers": 5037,
  "vin": 5038,
  "\u25812;": 5039,
  "\u2581Judea": 5040,
  "\u2581Which": 5041,
  "\u2581egzil": 5042,
  "\u2581fallen": 5043,
  "\u2581idantite": 5044,
  "\u2581idolatry": 5045,
  "\u2581inherit": 5046,
  "\u2581judges": 5047,
  "\u2581krenn": 5048,
  "\u2581lit": 5049,
  "\u2581prot\u00e9ines": 5050,
  "\u2581refreshing": 5051,
  "\u2581removed": 5052,
  "\u2581rem\u00e8s": 5053,
  "\u2581sakrifye": 5054,
  "\u2581salye": 5055,
  "\u2581sont": 5056,
  "\u2581suddenly": 5057,
  "\u2581threatened": 5058,
  "\u2581unbeliev": 5059,
  "\u2581wear": 5060,
  "\u2581worker": 5061,
  "B": 5062,
  "\u25814]": 5063,
  "\u2581Ansuit": 5064,
  "\u2581Asia": 5065,
  "\u2581Galile": 5066,
  "\u2581Lavi": 5067,
  "\u2581Silas": 5068,
  "\u2581absorb": 5069,
  "\u2581andey\u00f2": 5070,
  "\u2581attain": 5071,
  "\u2581aza": 5072,
  "\u2581beauty": 5073,
  "\u2581broken": 5074,
  "\u2581convey": 5075,
  "\u2581distant": 5076,
  "\u2581exciting": 5077,
  "\u2581i": 5078,
  "\u2581kl\u00e8je": 5079,
  "\u2581planet": 5080,
  "\u2581preparing": 5081,
  "\u2581raising": 5082,
  "\u2581reliable": 5083,
  "\u2581rewarded": 5084,
  "\u2581temptations": 5085,
  "\u2581translations": 5086,
  "\u2581vag": 5087,
  "/": 5088,
  "To": 5089,
  "\u2581--": 5090,
  "\u2581Arthur": 5091,
  "\u2581Disip": 5092,
  "\u2581Japon": 5093,
  "\u2581KESYON": 5094,
  "\u2581Les": 5095,
  "\u2581Man": 5096,
  "\u2581Martha": 5097,
  "\u2581Yewou": 5098,
  "\u2581axon": 5099,
  "\u2581believing": 5100,
  "\u2581calm": 5101,
  "\u2581earnestly": 5102,
  "\u2581kad": 5103,
  "\u2581l\u00f2": 5104,
  "\u2581magazines": 5105,
  "\u2581miracle": 5106,
  "\u2581obeyed": 5107,
  "\u2581partner": 5108,
  "\u2581priorities": 5109,
  "\u2581quit": 5110,
  "\u2581rap": 5111,
  "\u2581resi": 5112,
  "\u2581satisfied": 5113,
  "\u2581sifi": 5114,
  "\u2581surface": 5115,
  "\u2581terib": 5116,
  "\u2581warns": 5117,
  "\u2581\u00e0": 5118,
  "No": 5119,
  "\u258118]": 5120,
  "\u258127,": 5121,
  "\u25813.)": 5122,
  "\u2581400": 5123,
  "\u2581Grand": 5124,
  "\u2581Jas": 5125,
  "\u2581Jephthah": 5126,
  "\u2581KA": 5127,
  "\u2581L\u00c8": 5128,
  "\u2581Simon": 5129,
  "\u2581ap\u00e8l": 5130,
  "\u2581courageously": 5131,
  "\u2581depends": 5132,
  "\u2581detr\u00e8s": 5133,
  "\u2581disappointed": 5134,
  "\u2581emotionally": 5135,
  "\u2581faces": 5136,
  "\u2581forgiven": 5137,
  "\u2581kamarad": 5138,
  "\u2581komite": 5139,
  "\u2581kowopere": 5140,
  "\u2581lonje": 5141,
  "\u2581marked": 5142,
  "\u2581materyalis": 5143,
  "\u2581nouri": 5144,
  "\u2581n\u00e8f": 5145,
  "\u2581pictures": 5146,
  "\u2581prejudice": 5147,
  "\u2581prize": 5148,
  "\u2581sayings": 5149,
  "\u2581significance": 5150,
  "\u2581talks": 5151,
  "\u2581tr\u00e8t": 5152,
  "do": 5153,
  "ies": 5154,
  "\u2581103": 5155,
  "\u2581Bill": 5156,
  "\u2581Esau": 5157,
  "\u2581Gospels": 5158,
  "\u2581amazing": 5159,
  "\u2581anpi": 5160,
  "\u2581anxieties": 5161,
  "\u2581boulv\u00e8se": 5162,
  "\u2581boys": 5163,
  "\u2581briye": 5164,
  "\u2581customs": 5165,
  "\u2581discernment": 5166,
  "\u2581execution": 5167,
  "\u2581likened": 5168,
  "\u2581permanent": 5169,
  "\u2581p\u00e8severe": 5170,
  "\u2581returning": 5171,
  "\u2581r\u00e8l": 5172,
  "\u2581safeguard": 5173,
  "\u2581sold": 5174,
  "\u2581urges": 5175,
  "but": 5176,
  "ize": 5177,
  "\u258157": 5178,
  "\u2581Close": 5179,
  "\u2581Komi": 5180,
  "\u2581Peace": 5181,
  "\u2581Rutherford": 5182,
  "\u2581Source": 5183,
  "\u2581base": 5184,
  "\u2581campaign": 5185,
  "\u2581chance": 5186,
  "\u2581cruel": 5187,
  "\u2581devoted": 5188,
  "\u2581enplike": 5189,
  "\u2581finds": 5190,
  "\u2581friendships": 5191,
  "\u2581k\u00f2r\u00e8kteman": 5192,
  "\u2581mi": 5193,
  "\u2581minded": 5194,
  "\u2581prais": 5195,
  "\u2581rek\u00f2manse": 5196,
  "\u2581reproach": 5197,
  "\u2581scholars": 5198,
  "\u2581shortly": 5199,
  "\u2581submit": 5200,
  "\u2581suggest": 5201,
  "\u2581teenager": 5202,
  "Pou": 5203,
  "TRY": 5204,
  "Your": 5205,
  "\u0576": 5206,
  "\u258128]": 5207,
  "\u2581Committee": 5208,
  "\u2581Fanmi": 5209,
  "\u2581acknowledged": 5210,
  "\u2581caught": 5211,
  "\u2581cup": 5212,
  "\u2581discussing": 5213,
  "\u2581district": 5214,
  "\u2581endike": 5215,
  "\u2581hated": 5216,
  "\u2581krentif": 5217,
  "\u2581k\u00f2wonpi": 5218,
  "\u2581lavil": 5219,
  "\u2581mak": 5220,
  "\u2581maturity": 5221,
  "\u2581priority": 5222,
  "\u2581privileged": 5223,
  "\u2581quiet": 5224,
  "\u2581rain": 5225,
  "\u2581simaye": 5226,
  "\u2581tandiske": 5227,
  "\u2581tolere": 5228,
  "\u2581utmost": 5229,
  "\u2581watching": 5230,
  "\u2581wenn": 5231,
  "ce": 5232,
  "mitate": 5233,
  "paw\u00f2l": 5234,
  "\u00e8v": 5235,
  "\u25812003": 5236,
  "\u2581Elders": 5237,
  "\u2581Jehu": 5238,
  "\u2581LABIB": 5239,
  "\u2581Pray": 5240,
  "\u2581Ruler": 5241,
  "\u2581Samari": 5242,
  "\u2581Sisera": 5243,
  "\u2581Use": 5244,
  "\u2581comment": 5245,
  "\u2581concentration": 5246,
  "\u2581conducted": 5247,
  "\u2581crowds": 5248,
  "\u2581dark": 5249,
  "\u2581declaring": 5250,
  "\u2581droit": 5251,
  "\u2581function": 5252,
  "\u2581gained": 5253,
  "\u2581healed": 5254,
  "\u2581highlights": 5255,
  "\u2581huge": 5256,
  "\u2581memory": 5257,
  "\u2581miss": 5258,
  "\u2581objective": 5259,
  "\u2581ody\u00f2m": 5260,
  "\u2581psalm": 5261,
  "\u2581punishment": 5262,
  "\u2581pwononse": 5263,
  "\u2581sets": 5264,
  "\u2581silver": 5265,
  "\u2581stories": 5266,
  "\u2581tear": 5267,
  "\u2581thanks": 5268,
  "\u2581twazan": 5269,
  "\u2581t\u00e8m": 5270,
  "\u2581vole": 5271,
  "Menm": 5272,
  "Pitit": 5273,
  "u": 5274,
  "\u258115]": 5275,
  "\u2581Col": 5276,
  "\u2581Espay": 5277,
  "\u2581French": 5278,
  "\u2581Galilee": 5279,
  "\u2581Jehoshaphat": 5280,
  "\u2581Mexico": 5281,
  "\u2581Nisan": 5282,
  "\u2581Nizan": 5283,
  "\u2581Visit": 5284,
  "\u2581appealing": 5285,
  "\u2581claimed": 5286,
  "\u2581contained": 5287,
  "\u2581crime": 5288,
  "\u2581depafini": 5289,
  "\u2581development": 5290,
  "\u2581influences": 5291,
  "\u2581level": 5292,
  "\u2581principal": 5293,
  "\u2581requirement": 5294,
  "\u2581schedule": 5295,
  "\u2581shine": 5296,
  "\u2581shoulder": 5297,
  "\u2581transm\u00e8t": 5298,
  "\u2581unless": 5299,
  "good": 5300,
  "san": 5301,
  "z\u00f2m": 5302,
  "\u00e9": 5303,
  "\u258118;": 5304,
  "\u2581Congregation": 5305,
  "\u2581Faithful": 5306,
  "\u2581German": 5307,
  "\u2581Herod": 5308,
  "\u2581Levitik": 5309,
  "\u2581Nazi": 5310,
  "\u2581approaching": 5311,
  "\u2581bite": 5312,
  "\u2581citizens": 5313,
  "\u2581comforted": 5314,
  "\u2581debt": 5315,
  "\u2581deeper": 5316,
  "\u2581depression": 5317,
  "\u2581expectation": 5318,
  "\u2581girls": 5319,
  "\u2581guilty": 5320,
  "\u2581highlight": 5321,
  "\u2581impart": 5322,
  "\u2581istoryen": 5323,
  "\u2581kapital": 5324,
  "\u2581low": 5325,
  "\u2581marital": 5326,
  "\u2581newly": 5327,
  "\u2581played": 5328,
  "\u2581police": 5329,
  "\u2581proclaim": 5330,
  "\u2581reads": 5331,
  "\u2581rewards": 5332,
  "\u2581siplikasyon": 5333,
  "\u2581store": 5334,
  "\u2581tab": 5335,
  "\u2581top": 5336,
  "\u2581weeds": 5337,
  "ons\u00e8y": 5338,
  "\u258130]": 5339,
  "\u2581Come": 5340,
  "\u2581Heart": 5341,
  "\u2581JAN": 5342,
  "\u2581Japan": 5343,
  "\u2581Leviticus": 5344,
  "\u2581Maintain": 5345,
  "\u2581Pilate": 5346,
  "\u2581armor": 5347,
  "\u2581bary\u00e8": 5348,
  "\u2581bed": 5349,
  "\u2581believer": 5350,
  "\u2581completed": 5351,
  "\u2581donan": 5352,
  "\u2581ent\u00e8diksyon": 5353,
  "\u2581fay": 5354,
  "\u2581hardships": 5355,
  "\u2581humankind": 5356,
  "\u2581kingship": 5357,
  "\u2581kont\u00e8ks": 5358,
  "\u2581krim": 5359,
  "\u2581ledven": 5360,
  "\u2581lokal": 5361,
  "\u2581madan": 5362,
  "\u2581mantal": 5363,
  "\u2581mourning": 5364,
  "\u2581opinion": 5365,
  "\u2581pagan": 5366,
  "\u2581pick": 5367,
  "\u2581pleasant": 5368,
  "\u2581remakab": 5369,
  "\u2581ri": 5370,
  "\u2581sitting": 5371,
  "\u2581solution": 5372,
  "\u2581tongues": 5373,
  "\u2581urge": 5374,
  "\u2581witnessed": 5375,
  "By": 5376,
  "Who": 5377,
  "y\u00e8m": 5378,
  "\u258117]": 5379,
  "\u258134,": 5380,
  "\u2581Judge": 5381,
  "\u2581Red": 5382,
  "\u2581Tesalonik": 5383,
  "\u2581Timoun": 5384,
  "\u2581aged": 5385,
  "\u2581agreed": 5386,
  "\u2581brain": 5387,
  "\u2581carbon": 5388,
  "\u2581charyo": 5389,
  "\u2581comfortable": 5390,
  "\u2581context": 5391,
  "\u2581credit": 5392,
  "\u2581delighted": 5393,
  "\u2581desirable": 5394,
  "\u2581empty": 5395,
  "\u2581except": 5396,
  "\u2581haughty": 5397,
  "\u2581hidden": 5398,
  "\u2581janvye": 5399,
  "\u2581konplike": 5400,
  "\u2581konsantrasyon": 5401,
  "\u2581lajistis": 5402,
  "\u2581poul": 5403,
  "\u2581qualify": 5404,
  "\u2581realm": 5405,
  "\u2581refrain": 5406,
  "\u2581reply": 5407,
  "\u2581spending": 5408,
  "\u2581tend": 5409,
  "\u2581thrilling": 5410,
  "\u2581weakness": 5411,
  "ASYON": 5412,
  "Happy": 5413,
  "ING": 5414,
  "la": 5415,
  "not": 5416,
  "ri": 5417,
  "\u25811999": 5418,
  "\u258197": 5419,
  "\u2581AND": 5420,
  "\u2581Ew\u00f2d": 5421,
  "\u2581History": 5422,
  "\u2581Right": 5423,
  "\u2581addressed": 5424,
  "\u2581associations": 5425,
  "\u2581capital": 5426,
  "\u2581cast": 5427,
  "\u2581covered": 5428,
  "\u2581custom": 5429,
  "\u2581ennan": 5430,
  "\u2581ensiste": 5431,
  "\u2581examination": 5432,
  "\u2581feed": 5433,
  "\u2581fey\u00e8": 5434,
  "\u2581foot": 5435,
  "\u2581hair": 5436,
  "\u2581harmful": 5437,
  "\u2581hates": 5438,
  "\u2581joyfully": 5439,
  "\u2581konsyan": 5440,
  "\u2581lemonn": 5441,
  "\u2581losing": 5442,
  "\u2581male": 5443,
  "\u2581proclaimers": 5444,
  "\u2581prophesied": 5445,
  "\u2581publicly": 5446,
  "\u2581reap": 5447,
  "\u2581singing": 5448,
  "\u2581twouble": 5449,
  "\u2581types": 5450,
  "\u2581worry": 5451,
  "Re": 5452,
  "angelic": 5453,
  "pran": 5454,
  "that": 5455,
  "\u25810": 5456,
  "\u2581Anmenmtan": 5457,
  "\u2581City": 5458,
  "\u2581Larisi": 5459,
  "\u2581Niniv": 5460,
  "\u2581WHEN": 5461,
  "\u2581adults": 5462,
  "\u2581anbyans": 5463,
  "\u2581assemblies": 5464,
  "\u2581badness": 5465,
  "\u2581baton": 5466,
  "\u2581bow": 5467,
  "\u2581bride": 5468,
  "\u2581condemned": 5469,
  "\u2581corruption": 5470,
  "\u2581executed": 5471,
  "\u2581flow": 5472,
  "\u2581imilye": 5473,
  "\u2581inisyativ": 5474,
  "\u2581konf\u00f2m": 5475,
  "\u2581kontakte": 5476,
  "\u2581minis": 5477,
  "\u2581neutral": 5478,
  "\u2581observes": 5479,
  "\u2581plague": 5480,
  "\u2581preserved": 5481,
  "\u2581pwopagann": 5482,
  "\u2581reflects": 5483,
  "\u2581reprimande": 5484,
  "\u2581resurrect": 5485,
  "\u2581ruled": 5486,
  "\u2581sip\u00e8vize": 5487,
  "\u2581solve": 5488,
  "\u2581threat": 5489,
  "\u2581thrown": 5490,
  "\u2581wholesome": 5491,
  "\u25811918": 5492,
  "\u25813]": 5493,
  "\u2581B\u00e8je": 5494,
  "\u2581Egz": 5495,
  "\u2581February": 5496,
  "\u2581Jericho": 5497,
  "\u2581Kanaran": 5498,
  "\u2581Marriage": 5499,
  "\u2581Often": 5500,
  "\u2581Spain": 5501,
  "\u2581accompany": 5502,
  "\u2581ann\u00f2": 5503,
  "\u2581byenveyans": 5504,
  "\u2581continually": 5505,
  "\u2581east": 5506,
  "\u2581ekip": 5507,
  "\u2581existed": 5508,
  "\u2581fete": 5509,
  "\u2581historical": 5510,
  "\u2581images": 5511,
  "\u2581impression": 5512,
  "\u2581koresponn": 5513,
  "\u2581laid": 5514,
  "\u2581medikal": 5515,
  "\u2581ordered": 5516,
  "\u2581patisipasyon": 5517,
  "\u2581phone": 5518,
  "\u2581rescue": 5519,
  "\u2581reside": 5520,
  "\u2581rewarding": 5521,
  "\u2581running": 5522,
  "\u2581sety\u00e8m": 5523,
  "\u2581stumble": 5524,
  "\u2581symbol": 5525,
  "\u2581talents": 5526,
  "\u2581temper": 5527,
  "\u2581tested": 5528,
  "\u2581victim": 5529,
  "Go": 5530,
  "anse": 5531,
  "ment": 5532,
  "ver": 5533,
  "\u056b": 5534,
  "\u2581Banabas": 5535,
  "\u2581Mother": 5536,
  "\u2581Walk": 5537,
  "\u2581admits": 5538,
  "\u2581asleep": 5539,
  "\u2581asw\u00e8": 5540,
  "\u2581clergy": 5541,
  "\u2581continuing": 5542,
  "\u2581engag": 5543,
  "\u2581foolish": 5544,
  "\u2581fr\u00e8t": 5545,
  "\u2581habit": 5546,
  "\u2581healing": 5547,
  "\u2581mezi": 5548,
  "\u2581peer": 5549,
  "\u2581rekonsilye": 5550,
  "\u2581sincerely": 5551,
  "\u2581texts": 5552,
  "\u2581tired": 5553,
  "\u2581toutaf\u00e8": 5554,
  "\u2581visible": 5555,
  "Why": 5556,
  "anviwon": 5557,
  "kspresyon": 5558,
  "we": 5559,
  "\u25811930": 5560,
  "\u258125,": 5561,
  "\u258130:": 5562,
  "\u2581Besides": 5563,
  "\u2581Brezil": 5564,
  "\u2581IT": 5565,
  "\u2581Karen": 5566,
  "\u2581Making": 5567,
  "\u2581Priest": 5568,
  "\u2581Three": 5569,
  "\u2581adopted": 5570,
  "\u2581chan": 5571,
  "\u2581clothes": 5572,
  "\u2581deceived": 5573,
  "\u2581effectively": 5574,
  "\u2581empower": 5575,
  "\u2581ent\u00e8g": 5576,
  "\u2581ipokrizi": 5577,
  "\u2581konp\u00f2t": 5578,
  "\u2581minutes": 5579,
  "\u2581officials": 5580,
  "\u2581patriarch": 5581,
  "\u2581payen": 5582,
  "\u2581printed": 5583,
  "\u2581p\u00e8misyon": 5584,
  "\u2581receives": 5585,
  "\u2581valid": 5586,
  "at": 5587,
  "ni": 5588,
  "w\u00e8": 5589,
  "\u258186": 5590,
  "\u2581Fear": 5591,
  "\u2581Gary": 5592,
  "\u2581Grann": 5593,
  "\u2581Jude": 5594,
  "\u2581Kol": 5595,
  "\u2581LIFE": 5596,
  "\u2581News": 5597,
  "\u2581Rebeka": 5598,
  "\u2581Reflect": 5599,
  "\u2581Says": 5600,
  "\u2581Speaking": 5601,
  "\u2581UN": 5602,
  "\u2581arms": 5603,
  "\u2581bitter": 5604,
  "\u2581depict": 5605,
  "\u2581deserve": 5606,
  "\u2581doctrine": 5607,
  "\u2581eliminate": 5608,
  "\u2581ensure": 5609,
  "\u2581finished": 5610,
  "\u2581holds": 5611,
  "\u2581judged": 5612,
  "\u2581lacking": 5613,
  "\u2581mine": 5614,
  "\u2581obligation": 5615,
  "\u2581participate": 5616,
  "\u2581pezib": 5617,
  "\u2581plase": 5618,
  "\u2581prefere": 5619,
  "\u2581rejoicing": 5620,
  "\u2581repeated": 5621,
  "\u2581shame": 5622,
  "\u2581silent": 5623,
  "\u2581tent": 5624,
  "\u2581trayi": 5625,
  "\u2581trebiche": 5626,
  "\u2581urgent": 5627,
  "\u258111]": 5628,
  "\u2581600": 5629,
  "\u258163": 5630,
  "\u2581Above": 5631,
  "\u2581Anglet\u00e8": 5632,
  "\u2581Barnabas": 5633,
  "\u2581Bretay": 5634,
  "\u2581England": 5635,
  "\u2581Madanm": 5636,
  "\u2581Meksik": 5637,
  "\u2581Next": 5638,
  "\u2581QUESTIONS": 5639,
  "\u2581Sodom": 5640,
  "\u2581Testaman": 5641,
  "\u2581ant\u00e8man": 5642,
  "\u2581commended": 5643,
  "\u2581dega": 5644,
  "\u2581diligent": 5645,
  "\u2581enpresyon": 5646,
  "\u2581estati": 5647,
  "\u2581fields": 5648,
  "\u2581fish": 5649,
  "\u2581hoped": 5650,
  "\u2581isolated": 5651,
  "\u2581labor": 5652,
  "\u2581lonbray": 5653,
  "\u2581materially": 5654,
  "\u2581murder": 5655,
  "\u2581offerings": 5656,
  "\u2581opens": 5657,
  "\u2581patriyach": 5658,
  "\u2581prime": 5659,
  "\u2581remembered": 5660,
  "\u2581retr\u00e8t": 5661,
  "\u2581satisfy": 5662,
  "\u2581shield": 5663,
  "\u2581sijesyon": 5664,
  "\u2581s\u00f2ti": 5665,
  "\u2581talked": 5666,
  "\u2581turns": 5667,
  "\u2581unbelievers": 5668,
  "OTE": 5669,
  "ity": 5670,
  "ted": 5671,
  "\u25812007": 5672,
  "\u258152": 5673,
  "\u258162": 5674,
  "\u25817]": 5675,
  "\u2581Don": 5676,
  "\u2581Fil": 5677,
  "\u2581Jeriko": 5678,
  "\u2581Philippi": 5679,
  "\u2581Pwen": 5680,
  "\u2581Trust": 5681,
  "\u2581Truth": 5682,
  "\u2581Were": 5683,
  "\u2581accused": 5684,
  "\u2581acquire": 5685,
  "\u2581adwat": 5686,
  "\u2581agreement": 5687,
  "\u2581arose": 5688,
  "\u2581atmosphere": 5689,
  "\u2581deepen": 5690,
  "\u2581educational": 5691,
  "\u2581endispansab": 5692,
  "\u2581ends": 5693,
  "\u2581fann": 5694,
  "\u2581hospital": 5695,
  "\u2581imitating": 5696,
  "\u2581lips": 5697,
  "\u2581manage": 5698,
  "\u2581meek": 5699,
  "\u2581mov\u00e8zespri": 5700,
  "\u2581object": 5701,
  "\u2581pursuit": 5702,
  "\u2581ridicule": 5703,
  "\u2581soldier": 5704,
  "\u2581starting": 5705,
  "\u2581street": 5706,
  "\u2581surprising": 5707,
  "\u2581terrible": 5708,
  "\u2581trase": 5709,
  "\u2581whereas": 5710,
  "\u2581\u00f2dinat\u00e8": 5711,
  "Poukisa": 5712,
  "ant": 5713,
  "sosye": 5714,
  "y\u00e8j": 5715,
  "\u258113.)": 5716,
  "\u25812000": 5717,
  "\u2581Anna": 5718,
  "\u2581Bawouk": 5719,
  "\u2581Egyptians": 5720,
  "\u2581Golyat": 5721,
  "\u2581Jid": 5722,
  "\u2581Near": 5723,
  "\u2581November": 5724,
  "\u2581River": 5725,
  "\u2581Russia": 5726,
  "\u2581Sod\u00f2m": 5727,
  "\u2581Trinity": 5728,
  "\u2581admit": 5729,
  "\u2581apar\u00e8y": 5730,
  "\u2581avyon": 5731,
  "\u2581cherish": 5732,
  "\u2581commendation": 5733,
  "\u2581crushed": 5734,
  "\u2581dedicate": 5735,
  "\u2581depressed": 5736,
  "\u2581distinguish": 5737,
  "\u2581drugs": 5738,
  "\u2581elements": 5739,
  "\u2581evolution": 5740,
  "\u2581feature": 5741,
  "\u2581gid": 5742,
  "\u2581hesitate": 5743,
  "\u2581hide": 5744,
  "\u2581ipokrit": 5745,
  "\u2581lap\u00e8n": 5746,
  "\u2581located": 5747,
  "\u2581mele": 5748,
  "\u2581northern": 5749,
  "\u2581obstacles": 5750,
  "\u2581outlook": 5751,
  "\u2581overwhelmed": 5752,
  "\u2581plat": 5753,
  "\u2581previously": 5754,
  "\u2581prompt": 5755,
  "\u2581rendering": 5756,
  "\u2581renome": 5757,
  "\u2581respire": 5758,
  "\u2581revanj": 5759,
  "\u2581sorrow": 5760,
  "\u2581squared": 5761,
  "\u2581table": 5762,
  "ably": 5763,
  "di": 5764,
  "some": 5765,
  "\u25812002": 5766,
  "\u258130,": 5767,
  "\u258147.": 5768,
  "\u2581Knowing": 5769,
  "\u2581Malaki": 5770,
  "\u2581Sol": 5771,
  "\u2581Spanish": 5772,
  "\u2581Welcome": 5773,
  "\u2581angajman": 5774,
  "\u2581bloke": 5775,
  "\u2581cold": 5776,
  "\u2581conquered": 5777,
  "\u2581copies": 5778,
  "\u2581creature": 5779,
  "\u2581disid": 5780,
  "\u2581edition": 5781,
  "\u2581egzajere": 5782,
  "\u2581etone": 5783,
  "\u2581flood": 5784,
  "\u2581harsh": 5785,
  "\u2581joure": 5786,
  "\u2581kab\u00f2n": 5787,
  "\u2581let\u00e8nite": 5788,
  "\u2581manyen": 5789,
  "\u2581method": 5790,
  "\u2581modesty": 5791,
  "\u2581partake": 5792,
  "\u2581price": 5793,
  "\u2581prov": 5794,
  "\u2581rankin": 5795,
  "\u2581reasoned": 5796,
  "\u2581respects": 5797,
  "\u2581riske": 5798,
  "\u2581s\u00e8k": 5799,
  "\u2581tranble": 5800,
  "\u2581weapons": 5801,
  "3,": 5802,
  "R": 5803,
  "mwen": 5804,
  "ran": 5805,
  "\u2581133": 5806,
  "\u2581150": 5807,
  "\u2581Absalom": 5808,
  "\u2581Additional": 5809,
  "\u2581Bethlehem": 5810,
  "\u2581Canaan": 5811,
  "\u2581Eric": 5812,
  "\u2581Find": 5813,
  "\u2581Goliath": 5814,
  "\u2581Shepherd": 5815,
  "\u2581Spiritual": 5816,
  "\u2581acquainted": 5817,
  "\u2581akwasman": 5818,
  "\u2581apiye": 5819,
  "\u2581apostates": 5820,
  "\u2581benyen": 5821,
  "\u2581bib": 5822,
  "\u2581bis": 5823,
  "\u2581conform": 5824,
  "\u2581cooperate": 5825,
  "\u2581deleg": 5826,
  "\u2581dilijans": 5827,
  "\u2581dizan": 5828,
  "\u2581entandan": 5829,
  "\u2581ent\u00e8pret": 5830,
  "\u2581illustrated": 5831,
  "\u2581konpwomi": 5832,
  "\u2581lejann": 5833,
  "\u2581mid": 5834,
  "\u2581opposed": 5835,
  "\u2581passage": 5836,
  "\u2581pikan": 5837,
  "\u2581project": 5838,
  "\u2581pwofetik": 5839,
  "\u2581scientists": 5840,
  "\u2581serye": 5841,
  "\u2581seryezman": 5842,
  "\u2581similarly": 5843,
  "\u2581tempered": 5844,
  "\u2581tools": 5845,
  "\u2581tren": 5846,
  "\u2581understands": 5847,
  "\u2581victims": 5848,
  "\u2581wholeheartedly": 5849,
  "\u2581widely": 5850,
  "\u2581worshipped": 5851,
  "ef\u00e8": 5852,
  "w\u00f2l": 5853,
  "\u2581Articles": 5854,
  "\u2581Brazil": 5855,
  "\u2581DO": 5856,
  "\u2581IM": 5857,
  "\u2581J\u00e9hovah": 5858,
  "\u2581MAT": 5859,
  "\u2581S\u00e8l": 5860,
  "\u2581Thomas": 5861,
  "\u2581Trinite": 5862,
  "\u2581application": 5863,
  "\u2581arrival": 5864,
  "\u2581cultivating": 5865,
  "\u2581diksyon\u00e8": 5866,
  "\u2581ebrayik": 5867,
  "\u2581egzamen": 5868,
  "\u2581exact": 5869,
  "\u2581increasing": 5870,
  "\u2581kle": 5871,
  "\u2581lanf\u00e8": 5872,
  "\u2581l\u00e8p": 5873,
  "\u2581maintained": 5874,
  "\u2581manifested": 5875,
  "\u2581preparasyon": 5876,
  "\u2581proceeded": 5877,
  "\u2581publisher": 5878,
  "\u2581puis": 5879,
  "\u2581repa": 5880,
  "\u2581safety": 5881,
  "\u2581scale": 5882,
  "\u2581senserite": 5883,
  "\u2581seremoni": 5884,
  "\u2581timid": 5885,
  "\u2581unwise": 5886,
  "go": 5887,
  "ke": 5888,
  "\u0576\u0584": 5889,
  "\u258164": 5890,
  "\u2581Baruch": 5891,
  "\u2581Ear": 5892,
  "\u2581Jos\u00e9": 5893,
  "\u2581Lafrans": 5894,
  "\u2581Person": 5895,
  "\u2581avoided": 5896,
  "\u2581burning": 5897,
  "\u2581comparison": 5898,
  "\u2581convince": 5899,
  "\u2581covering": 5900,
  "\u2581description": 5901,
  "\u2581dust": 5902,
  "\u2581egz\u00f2te": 5903,
  "\u2581espyon": 5904,
  "\u2581eternity": 5905,
  "\u2581everywhere": 5906,
  "\u2581experiencing": 5907,
  "\u2581fed": 5908,
  "\u2581felisitasyon": 5909,
  "\u2581fighting": 5910,
  "\u2581generosity": 5911,
  "\u2581gouv\u00e8n\u00e8": 5912,
  "\u2581headship": 5913,
  "\u2581heal": 5914,
  "\u2581hunger": 5915,
  "\u2581imperfections": 5916,
  "\u2581intelligent": 5917,
  "\u2581intimate": 5918,
  "\u2581koripsyon": 5919,
  "\u2581lawlessness": 5920,
  "\u2581lion": 5921,
  "\u2581morally": 5922,
  "\u2581offended": 5923,
  "\u2581pleasures": 5924,
  "\u2581portion": 5925,
  "\u2581searching": 5926,
  "\u2581senplifye": 5927,
  "\u2581signal": 5928,
  "\u2581stumbling": 5929,
  "\u2581tablo": 5930,
  "\u2581telephone": 5931,
  "\u2581traka": 5932,
  "\u2581trap": 5933,
  "\u2581travay\u00e8": 5934,
  "\u2581twice": 5935,
  "\u2581vante": 5936,
  "\u2581vivid": 5937,
  "37": 5938,
  "Kris": 5939,
  "by": 5940,
  "tounen": 5941,
  "\u2581Betley\u00e8m": 5942,
  "\u2581Christlike": 5943,
  "\u2581Gad": 5944,
  "\u2581Jefte": 5945,
  "\u2581Leader": 5946,
  "\u2581Pakonsekan": 5947,
  "\u2581Years": 5948,
  "\u2581associating": 5949,
  "\u2581backing": 5950,
  "\u2581cheri": 5951,
  "\u2581civil": 5952,
  "\u2581current": 5953,
  "\u2581dezas": 5954,
  "\u2581discussions": 5955,
  "\u2581dis\u00e8nman": 5956,
  "\u2581dous": 5957,
  "\u2581edmi": 5958,
  "\u2581errors": 5959,
  "\u2581expose": 5960,
  "\u2581fig": 5961,
  "\u2581foremost": 5962,
  "\u2581guilt": 5963,
  "\u2581imitation": 5964,
  "\u2581initial": 5965,
  "\u2581j\u00e8s": 5966,
  "\u2581middle": 5967,
  "\u2581netwaye": 5968,
  "\u2581neuron": 5969,
  "\u2581ofanse": 5970,
  "\u2581okontr\u00e8": 5971,
  "\u2581prive": 5972,
  "\u2581profound": 5973,
  "\u2581prospects": 5974,
  "\u2581specifically": 5975,
  "\u2581striving": 5976,
  "\u2581sware": 5977,
  "\u2581thorough": 5978,
  "\u2581unexpected": 5979,
  "\u2581weaken": 5980,
  "Apre": 5981,
  "OTO": 5982,
  "seed": 5983,
  "\u2581110": 5984,
  "\u25812001": 5985,
  "\u258146.": 5986,
  "\u2581Assembly": 5987,
  "\u2581Batcheba": 5988,
  "\u2581Evidently": 5989,
  "\u2581ISSUE": 5990,
  "\u2581Jairo": 5991,
  "\u2581Kat": 5992,
  "\u2581Reign": 5993,
  "\u2581Samaria": 5994,
  "\u2581Soupe": 5995,
  "\u2581anper\u00e8": 5996,
  "\u2581capacity": 5997,
  "\u2581dies": 5998,
  "\u2581disasters": 5999,
  "\u2581drive": 6000,
  "\u2581ethnic": 6001,
  "\u2581exhort": 6002,
  "\u2581fears": 6003,
  "\u2581fevriye": 6004,
  "\u2581foreigners": 6005,
  "\u2581fourth": 6006,
  "\u2581glas": 6007,
  "\u2581greatness": 6008,
  "\u2581k\u00f2wonp": 6009,
  "\u2581lanp": 6010,
  "\u2581l\u00e8s": 6011,
  "\u2581mentions": 6012,
  "\u2581namely": 6013,
  "\u2581oliv": 6014,
  "\u2581origin": 6015,
  "\u2581pity": 6016,
  "\u2581planning": 6017,
  "\u2581pwof\u00e0n": 6018,
  "\u2581readers": 6019,
  "\u2581replaced": 6020,
  "\u2581siman": 6021,
  "\u2581sivil": 6022,
  "\u2581smoking": 6023,
  "\u2581souvni": 6024,
  "\u2581space": 6025,
  "\u2581weight": 6026,
  "\u2581yoke": 6027,
  "ES": 6028,
  "lmis": 6029,
  "si": 6030,
  "\u2581130": 6031,
  "\u258143.": 6032,
  "\u2581Amerik": 6033,
  "\u2581Any": 6034,
  "\u2581Gideon": 6035,
  "\u2581Haggai": 6036,
  "\u2581Kanti": 6037,
  "\u2581Levi": 6038,
  "\u2581Seza": 6039,
  "\u2581S\u00e8": 6040,
  "\u2581Times": 6041,
  "\u2581accident": 6042,
  "\u2581afterward": 6043,
  "\u2581arrive": 6044,
  "\u2581commissioned": 6045,
  "\u2581emblems": 6046,
  "\u2581etann": 6047,
  "\u2581ewonn": 6048,
  "\u2581falling": 6049,
  "\u2581g": 6050,
  "\u2581hop": 6051,
  "\u2581improper": 6052,
  "\u2581kopi": 6053,
  "\u2581kras": 6054,
  "\u2581moon": 6055,
  "\u2581nasyonal": 6056,
  "\u2581patwon": 6057,
  "\u2581prosperity": 6058,
  "\u2581pwa": 6059,
  "\u2581sikonsi": 6060,
  "\u2581stil": 6061,
  "\u2581struggling": 6062,
  "\u2581sufficient": 6063,
  "\u2581team": 6064,
  "\u2581testimony": 6065,
  "\u2581thereby": 6066,
  "\u2581totally": 6067,
  "\u2581upset": 6068,
  "nt": 6069,
  "syon": 6070,
  "\u00f2z": 6071,
  "\u258115.)": 6072,
  "\u258171": 6073,
  "\u2581Agayi": 6074,
  "\u2581Become": 6075,
  "\u2581Chron": 6076,
  "\u2581Continue": 6077,
  "\u2581Evening": 6078,
  "\u2581Human": 6079,
  "\u2581Latin": 6080,
  "\u2581Living": 6081,
  "\u2581Meal": 6082,
  "\u2581Mean": 6083,
  "\u2581OU": 6084,
  "\u2581Pale": 6085,
  "\u2581Theocratic": 6086,
  "\u2581admire": 6087,
  "\u2581afford": 6088,
  "\u2581ajil": 6089,
  "\u2581antere": 6090,
  "\u2581aplikasyon": 6091,
  "\u2581belonging": 6092,
  "\u2581bonds": 6093,
  "\u2581bus": 6094,
  "\u2581catch": 6095,
  "\u2581composed": 6096,
  "\u2581dekourajman": 6097,
  "\u2581discouragement": 6098,
  "\u2581extra": 6099,
  "\u2581famine": 6100,
  "\u2581goats": 6101,
  "\u2581ijan": 6102,
  "\u2581instruct": 6103,
  "\u2581judgments": 6104,
  "\u2581lamarye": 6105,
  "\u2581location": 6106,
  "\u2581opinions": 6107,
  "\u2581otan": 6108,
  "\u2581perfectly": 6109,
  "\u2581population": 6110,
  "\u2581positions": 6111,
  "\u2581prevwa": 6112,
  "\u2581protects": 6113,
  "\u2581repay": 6114,
  "\u2581sanctified": 6115,
  "\u2581sangtifye": 6116,
  "\u2581services": 6117,
  "\u2581shape": 6118,
  "\u2581sheba": 6119,
  "\u2581stands": 6120,
  "\u2581submission": 6121,
  "\u2581volim": 6122,
  "Move": 6123,
  "alite": 6124,
  "ling": 6125,
  "na": 6126,
  "\u2581Consequently": 6127,
  "\u2581Eksperyans": 6128,
  "\u2581Jew": 6129,
  "\u2581Please": 6130,
  "\u2581blesses": 6131,
  "\u2581deception": 6132,
  "\u2581disobedient": 6133,
  "\u2581doubts": 6134,
  "\u2581earn": 6135,
  "\u2581frame": 6136,
  "\u2581hypocrisy": 6137,
  "\u2581konfli": 6138,
  "\u2581kritik": 6139,
  "\u2581lift": 6140,
  "\u2581openly": 6141,
  "\u2581playing": 6142,
  "\u2581practicing": 6143,
  "\u2581pwobab": 6144,
  "\u2581refreshment": 6145,
  "\u2581reserved": 6146,
  "\u2581saba": 6147,
  "\u2581selected": 6148,
  "\u2581sp\u00f2": 6149,
  "\u2581strike": 6150,
  "\u2581synagogue": 6151,
  "\u2581taktik": 6152,
  "\u2581teyori": 6153,
  "\u2581title": 6154,
  "\u2581transform": 6155,
  "\u2581vyann": 6156,
  "\u2581widows": 6157,
  "either": 6158,
  "\u2581248": 6159,
  "\u258148.": 6160,
  "\u25817.)": 6161,
  "\u258184": 6162,
  "\u2581Andre": 6163,
  "\u2581Britain": 6164,
  "\u2581Death": 6165,
  "\u2581Ofiramezi": 6166,
  "\u2581Pr\u00e8t": 6167,
  "\u2581P\u00e8s": 6168,
  "\u2581Toule": 6169,
  "\u2581accompani": 6170,
  "\u2581average": 6171,
  "\u2581burn": 6172,
  "\u2581bwat": 6173,
  "\u2581chache": 6174,
  "\u2581characters": 6175,
  "\u2581chenn": 6176,
  "\u2581cried": 6177,
  "\u2581desired": 6178,
  "\u2581distressing": 6179,
  "\u2581dying": 6180,
  "\u2581enhance": 6181,
  "\u2581essentially": 6182,
  "\u2581explaining": 6183,
  "\u2581favorably": 6184,
  "\u2581fou": 6185,
  "\u2581frequently": 6186,
  "\u2581happily": 6187,
  "\u2581headquarters": 6188,
  "\u2581iron": 6189,
  "\u2581jobs": 6190,
  "\u2581judging": 6191,
  "\u2581kach\u00e8t": 6192,
  "\u2581kap": 6193,
  "\u2581kom\u00e8san": 6194,
  "\u2581kondanasyon": 6195,
  "\u2581konfizyon": 6196,
  "\u2581k\u00f2mande": 6197,
  "\u2581membrane": 6198,
  "\u2581north": 6199,
  "\u2581obtained": 6200,
  "\u2581officer": 6201,
  "\u2581priesthood": 6202,
  "\u2581pwovoke": 6203,
  "\u2581p\u00f2tre": 6204,
  "\u2581respected": 6205,
  "\u2581shepherding": 6206,
  "\u2581silans": 6207,
  "\u2581spiritism": 6208,
  "\u2581toupizi": 6209,
  "\u2581truthfulness": 6210,
  "\u2581unfaithful": 6211,
  "\u2581wealthy": 6212,
  "\u2581\u0565\u0576": 6213,
  "je": 6214,
  "longside": 6215,
  "rete": 6216,
  "\u25811960": 6217,
  "\u25811990": 6218,
  "\u25812005": 6219,
  "\u258169": 6220,
  "\u2581Again": 6221,
  "\u2581Caesar": 6222,
  "\u2581Empire": 6223,
  "\u2581Hope": 6224,
  "\u2581Potasy\u00f2m": 6225,
  "\u2581View": 6226,
  "\u2581Zakari": 6227,
  "\u2581access": 6228,
  "\u2581achieve": 6229,
  "\u2581advanced": 6230,
  "\u2581apostate": 6231,
  "\u2581appoint": 6232,
  "\u2581asosy": 6233,
  "\u2581below": 6234,
  "\u2581check": 6235,
  "\u2581commend": 6236,
  "\u2581computer": 6237,
  "\u2581defans": 6238,
  "\u2581devote": 6239,
  "\u2581disposition": 6240,
  "\u2581douz": 6241,
  "\u2581espay\u00f2l": 6242,
  "\u2581evanjelizat\u00e8": 6243,
  "\u2581grieving": 6244,
  "\u2581highlighted": 6245,
  "\u2581island": 6246,
  "\u2581karakteristik": 6247,
  "\u2581kontr\u00e8": 6248,
  "\u2581linked": 6249,
  "\u2581net": 6250,
  "\u2581petitions": 6251,
  "\u2581pirifye": 6252,
  "\u2581produces": 6253,
  "\u2581schools": 6254,
  "\u2581science": 6255,
  "\u2581sending": 6256,
  "\u2581supplies": 6257,
  "\u2581survived": 6258,
  "\u2581tach": 6259,
  "\u2581undergo": 6260,
  "\u2581worshipp": 6261,
  "483,": 6262,
  "ite": 6263,
  "wobl\u00e8m": 6264,
  "\u00f2m": 6265,
  "\u25811940": 6266,
  "\u2581Babylonian": 6267,
  "\u2581Caleb": 6268,
  "\u2581Erezman": 6269,
  "\u2581Eseye": 6270,
  "\u2581Had": 6271,
  "\u2581Lead": 6272,
  "\u2581Rebekah": 6273,
  "\u2581actual": 6274,
  "\u2581annual": 6275,
  "\u2581assume": 6276,
  "\u2581backgrounds": 6277,
  "\u2581bears": 6278,
  "\u2581billions": 6279,
  "\u2581chase": 6280,
  "\u2581deceptive": 6281,
  "\u2581declaration": 6282,
  "\u2581disobey": 6283,
  "\u2581exchange": 6284,
  "\u2581execute": 6285,
  "\u2581exile": 6286,
  "\u2581extraordinary": 6287,
  "\u2581figure": 6288,
  "\u2581fled": 6289,
  "\u2581fresh": 6290,
  "\u2581fulfilling": 6291,
  "\u2581greed": 6292,
  "\u2581heat": 6293,
  "\u2581helper": 6294,
  "\u2581hungry": 6295,
  "\u2581koz": 6296,
  "\u2581lasyans": 6297,
  "\u2581limen": 6298,
  "\u2581necessarily": 6299,
  "\u2581neglect": 6300,
  "\u2581obvious": 6301,
  "\u2581passages": 6302,
  "\u2581potassium": 6303,
  "\u2581punish": 6304,
  "\u2581reprann": 6305,
  "\u2581repw\u00f2ch": 6306,
  "\u2581respectful": 6307,
  "\u2581tragedy": 6308,
  "\u2581vid": 6309,
  ".\"": 6310,
  "Kiy\u00e8s": 6311,
  "gave": 6312,
  "mete": 6313,
  "sye": 6314,
  "\u258135:": 6315,
  "\u2581Bwouklin": 6316,
  "\u2581COR": 6317,
  "\u2581Friend": 6318,
  "\u2581Kwo": 6319,
  "\u2581Malawi": 6320,
  "\u2581POZE": 6321,
  "\u2581Serv": 6322,
  "\u2581Try": 6323,
  "\u2581Within": 6324,
  "\u2581alman": 6325,
  "\u2581bare": 6326,
  "\u2581bones": 6327,
  "\u2581capable": 6328,
  "\u2581comforts": 6329,
  "\u2581complex": 6330,
  "\u2581donation": 6331,
  "\u2581dry": 6332,
  "\u2581empire": 6333,
  "\u2581expectations": 6334,
  "\u2581fier": 6335,
  "\u2581garments": 6336,
  "\u2581gra": 6337,
  "\u2581immediate": 6338,
  "\u2581inspiring": 6339,
  "\u2581jalouzi": 6340,
  "\u2581kiltivat\u00e8": 6341,
  "\u2581konpl\u00e8tman": 6342,
  "\u2581memwa": 6343,
  "\u2581ofisye": 6344,
  "\u2581popil\u00e8": 6345,
  "\u2581possibility": 6346,
  "\u2581projects": 6347,
  "\u2581rebellious": 6348,
  "\u2581river": 6349,
  "\u2581settle": 6350,
  "\u2581statements": 6351,
  "\u2581transp\u00f2": 6352,
  "\u2581unusual": 6353,
  "\u2581vain": 6354,
  "\u2581viewing": 6355,
  "LSO": 6356,
  "ROM": 6357,
  "dan": 6358,
  "dicating": 6359,
  "enbe": 6360,
  "lespri": 6361,
  "nointed": 6362,
  "ons": 6363,
  "pe": 6364,
  "\u2581112": 6365,
  "\u258140,": 6366,
  "\u2581Abigayil": 6367,
  "\u2581BAY": 6368,
  "\u2581Encyclopedia": 6369,
  "\u2581Josiah": 6370,
  "\u2581Joy": 6371,
  "\u2581Likely": 6372,
  "\u2581Maybe": 6373,
  "\u2581Rachel": 6374,
  "\u2581St": 6375,
  "\u2581Twa": 6376,
  "\u2581Wouj": 6377,
  "\u2581admonished": 6378,
  "\u2581adversity": 6379,
  "\u2581akseptab": 6380,
  "\u2581bought": 6381,
  "\u2581bridsoukou": 6382,
  "\u2581clay": 6383,
  "\u2581devore": 6384,
  "\u2581diligently": 6385,
  "\u2581directions": 6386,
  "\u2581dola": 6387,
  "\u2581egzistans": 6388,
  "\u2581entering": 6389,
  "\u2581examining": 6390,
  "\u2581exercised": 6391,
  "\u2581gracious": 6392,
  "\u2581host": 6393,
  "\u2581imprisoned": 6394,
  "\u2581independence": 6395,
  "\u2581injury": 6396,
  "\u2581limits": 6397,
  "\u2581mwatye": 6398,
  "\u2581needy": 6399,
  "\u2581ongoing": 6400,
  "\u2581presentation": 6401,
  "\u2581r": 6402,
  "\u2581ra": 6403,
  "\u2581reyalis": 6404,
  "\u2581sell": 6405,
  "\u2581suggested": 6406,
  "\u2581tanp\u00e8t": 6407,
  "\u2581walls": 6408,
  "\u2581warn": 6409,
  "kenbe": 6410,
  "\u2581(1": 6411,
  "\u258116]": 6412,
  "\u25811943": 6413,
  "\u25812016": 6414,
  "\u2581Ezekyas": 6415,
  "\u2581Jezab\u00e8l": 6416,
  "\u2581Kal\u00e8b": 6417,
  "\u2581Nations": 6418,
  "\u2581Pap": 6419,
  "\u2581P\u00e8sonn": 6420,
  "\u2581SOUVAN": 6421,
  "\u2581Sabbath": 6422,
  "\u2581Siman": 6423,
  "\u2581Year": 6424,
  "\u2581afon": 6425,
  "\u2581ansiklopedi": 6426,
  "\u2581arrested": 6427,
  "\u2581bi": 6428,
  "\u2581calcium": 6429,
  "\u2581chal\u00e8": 6430,
  "\u2581childhood": 6431,
  "\u2581claims": 6432,
  "\u2581conflicts": 6433,
  "\u2581correction": 6434,
  "\u2581desepsyon": 6435,
  "\u2581earthquake": 6436,
  "\u2581elsewhere": 6437,
  "\u2581enky\u00e8": 6438,
  "\u2581fonksyon\u00e8": 6439,
  "\u2581fortify": 6440,
  "\u2581f\u00e8y": 6441,
  "\u2581grows": 6442,
  "\u2581hears": 6443,
  "\u2581hit": 6444,
  "\u2581illustrates": 6445,
  "\u2581judicial": 6446,
  "\u2581konpetisyon": 6447,
  "\u2581manuscripts": 6448,
  "\u2581min": 6449,
  "\u2581peri": 6450,
  "\u2581prayerful": 6451,
  "\u2581remote": 6452,
  "\u2581saving": 6453,
  "\u2581select": 6454,
  "\u2581siye": 6455,
  "\u2581spite": 6456,
  "\u2581station": 6457,
  "\u2581strange": 6458,
  "\u2581suggests": 6459,
  "\u2581suitable": 6460,
  "\u2581transf\u00f2me": 6461,
  "\u2581worthless": 6462,
  "\u2581yield": 6463,
  "YE": 6464,
  "working": 6465,
  "\u2581Benjamin": 6466,
  "\u2581Dictionary": 6467,
  "\u2581Drama": 6468,
  "\u2581LAVI": 6469,
  "\u2581Last": 6470,
  "\u2581Ten": 6471,
  "\u2581Yonat\u00e0n": 6472,
  "\u2581anbisyon": 6473,
  "\u2581apostazi": 6474,
  "\u2581awe": 6475,
  "\u2581captivity": 6476,
  "\u2581corrected": 6477,
  "\u2581defense": 6478,
  "\u2581equipped": 6479,
  "\u2581famous": 6480,
  "\u2581foretell": 6481,
  "\u2581freed": 6482,
  "\u2581games": 6483,
  "\u2581gatherings": 6484,
  "\u2581glorified": 6485,
  "\u2581guarantee": 6486,
  "\u2581horse": 6487,
  "\u2581iniv\u00e8s\u00e8l": 6488,
  "\u2581jistifye": 6489,
  "\u2581kloure": 6490,
  "\u2581konble": 6491,
  "\u2581k\u00f2n": 6492,
  "\u2581lalin": 6493,
  "\u2581larger": 6494,
  "\u2581natir\u00e8lman": 6495,
  "\u2581oppression": 6496,
  "\u2581preachers": 6497,
  "\u2581producing": 6498,
  "\u2581radyo": 6499,
  "\u2581representatives": 6500,
  "\u2581retabli": 6501,
  "\u2581row": 6502,
  "\u2581succumb": 6503,
  "\u2581tragic": 6504,
  "b\u00f2de": 6505,
  "ch": 6506,
  "dorasyon": 6507,
  "eryodik": 6508,
  "renye": 6509,
  "there": 6510,
  "voke": 6511,
  "\u0581": 6512,
  "\u2581139": 6513,
  "\u258121]": 6514,
  "\u2581Anba": 6515,
  "\u2581Ansey": 6516,
  "\u2581Avoid": 6517,
  "\u2581BIBLIK": 6518,
  "\u2581Gid": 6519,
  "\u2581Gidey\u00f2n": 6520,
  "\u2581Giving": 6521,
  "\u2581Highlights": 6522,
  "\u2581MY": 6523,
  "\u2581Michelle": 6524,
  "\u2581Much": 6525,
  "\u2581Prensip": 6526,
  "\u2581State": 6527,
  "\u2581Third": 6528,
  "\u2581Ver": 6529,
  "\u2581Zanmi": 6530,
  "\u2581afflicted": 6531,
  "\u2581aim": 6532,
  "\u2581bak": 6533,
  "\u2581compromise": 6534,
  "\u2581conceal": 6535,
  "\u2581conquer": 6536,
  "\u2581duties": 6537,
  "\u2581epoutan": 6538,
  "\u2581espesyalis": 6539,
  "\u2581fathers": 6540,
  "\u2581filozofi": 6541,
  "\u2581fl\u00e8ch": 6542,
  "\u2581gaining": 6543,
  "\u2581heartwarming": 6544,
  "\u2581hemoglobin": 6545,
  "\u2581incident": 6546,
  "\u2581kans\u00e8": 6547,
  "\u2581measures": 6548,
  "\u2581memories": 6549,
  "\u2581novanm": 6550,
  "\u2581peers": 6551,
  "\u2581penalty": 6552,
  "\u2581permit": 6553,
  "\u2581proves": 6554,
  "\u2581rache": 6555,
  "\u2581range": 6556,
  "\u2581refijye": 6557,
  "\u2581suit": 6558,
  "\u2581supplication": 6559,
  "\u2581unselfish": 6560,
  "\u2581weekly": 6561,
  "\u2581wot\u00e8": 6562,
  "Christ": 6563,
  "INE": 6564,
  "Pand": 6565,
  "from": 6566,
  "my": 6567,
  "those": 6568,
  "\u258116.)": 6569,
  "\u25812017": 6570,
  "\u25819]": 6571,
  "\u2581Absal\u00f2m": 6572,
  "\u2581Ayiti": 6573,
  "\u2581Det": 6574,
  "\u2581HAVE": 6575,
  "\u2581Ilann": 6576,
  "\u2581Italy": 6577,
  "\u2581Monn": 6578,
  "\u2581Nat\u00e0n": 6579,
  "\u2581Psalms": 6580,
  "\u2581Put": 6581,
  "\u2581Sandra": 6582,
  "\u2581Ya": 6583,
  "\u2581amazed": 6584,
  "\u2581bouke": 6585,
  "\u2581cancer": 6586,
  "\u2581commercial": 6587,
  "\u2581confirmed": 6588,
  "\u2581counted": 6589,
  "\u2581developments": 6590,
  "\u2581double": 6591,
  "\u2581edisyon": 6592,
  "\u2581egzijans": 6593,
  "\u2581endepandans": 6594,
  "\u2581enpasyans": 6595,
  "\u2581exemplary": 6596,
  "\u2581follows": 6597,
  "\u2581funds": 6598,
  "\u2581gaspiye": 6599,
  "\u2581gentle": 6600,
  "\u2581hinder": 6601,
  "\u2581historian": 6602,
  "\u2581hot": 6603,
  "\u2581intentions": 6604,
  "\u2581katriy\u00e8m": 6605,
  "\u2581kinds": 6606,
  "\u2581nonplis": 6607,
  "\u2581olive": 6608,
  "\u2581overwhelming": 6609,
  "\u2581rapidman": 6610,
  "\u2581rebel": 6611,
  "\u2581remak": 6612,
  "\u2581reminder": 6613,
  "\u2581replace": 6614,
  "\u2581rid": 6615,
  "\u2581seeming": 6616,
  "\u2581sing": 6617,
  "\u2581smile": 6618,
  "\u2581souf": 6619,
  "\u2581surrounding": 6620,
  "\u2581theme": 6621,
  "\u2581v\u00e8": 6622,
  "\u2581watchful": 6623,
  "\u2581widespread": 6624,
  "3": 6625,
  "Seny\u00e8": 6626,
  "anvye": 6627,
  "menm": 6628,
  "mouton": 6629,
  "olisyon": 6630,
  "\u25810.": 6631,
  "\u2581104": 6632,
  "\u2581Back": 6633,
  "\u2581Bath": 6634,
  "\u2581Brothers": 6635,
  "\u2581Dad": 6636,
  "\u2581East": 6637,
  "\u2581Ekl": 6638,
  "\u2581Haiti": 6639,
  "\u2581Happiness": 6640,
  "\u2581Head": 6641,
  "\u2581Language": 6642,
  "\u2581Numbers": 6643,
  "\u2581Ones": 6644,
  "\u2581Seed": 6645,
  "\u2581adapt": 6646,
  "\u2581anile": 6647,
  "\u2581badly": 6648,
  "\u2581boat": 6649,
  "\u2581delay": 6650,
  "\u2581deliberately": 6651,
  "\u2581disposed": 6652,
  "\u2581handling": 6653,
  "\u2581homeland": 6654,
  "\u2581honesthearted": 6655,
  "\u2581jalou": 6656,
  "\u2581laglwa": 6657,
  "\u2581lanati": 6658,
  "\u2581lifetime": 6659,
  "\u2581materialism": 6660,
  "\u2581media": 6661,
  "\u2581papye": 6662,
  "\u2581post": 6663,
  "\u2581pwostitye": 6664,
  "\u2581recognition": 6665,
  "\u2581schoolmates": 6666,
  "\u2581siyen": 6667,
  "\u2581staying": 6668,
  "\u2581stones": 6669,
  "\u2581strongly": 6670,
  "\u2581submitt": 6671,
  "\u2581thinks": 6672,
  "\u2581venn": 6673,
  "Koute": 6674,
  "Our": 6675,
  "With": 6676,
  "they": 6677,
  "was": 6678,
  "\u00e8nye": 6679,
  "\u2581Actually": 6680,
  "\u2581Aksyon": 6681,
  "\u2581Albert": 6682,
  "\u2581Deborah": 6683,
  "\u2581Describe": 6684,
  "\u2581Dis": 6685,
  "\u2581ETID": 6686,
  "\u2581Everyone": 6687,
  "\u2581Itali": 6688,
  "\u2581Je": 6689,
  "\u2581Jezebel": 6690,
  "\u2581Mesaj": 6691,
  "\u2581Mich\u00e8l": 6692,
  "\u2581Mom": 6693,
  "\u2581Nineveh": 6694,
  "\u2581Nothing": 6695,
  "\u2581Samaritan": 6696,
  "\u2581Samariten": 6697,
  "\u2581Tes": 6698,
  "\u2581Truly": 6699,
  "\u2581Whom": 6700,
  "\u2581Zephaniah": 6701,
  "\u2581absolutely": 6702,
  "\u2581apostasy": 6703,
  "\u2581ashamed": 6704,
  "\u2581bore": 6705,
  "\u2581burned": 6706,
  "\u2581byennere": 6707,
  "\u2581centered": 6708,
  "\u2581choke": 6709,
  "\u2581cloud": 6710,
  "\u2581constitute": 6711,
  "\u2581creative": 6712,
  "\u2581definitely": 6713,
  "\u2581dezobeyisans": 6714,
  "\u2581distracted": 6715,
  "\u2581dw\u00f2l": 6716,
  "\u2581ear": 6717,
  "\u2581format": 6718,
  "\u2581g\u00f2ch": 6719,
  "\u2581handed": 6720,
  "\u2581ignored": 6721,
  "\u2581indication": 6722,
  "\u2581kontamine": 6723,
  "\u2581leaves": 6724,
  "\u2581moglobin": 6725,
  "\u2581objects": 6726,
  "\u2581owe": 6727,
  "\u2581permission": 6728,
  "\u2581pregnant": 6729,
  "\u2581programs": 6730,
  "\u2581pwent": 6731,
  "\u2581richly": 6732,
  "\u2581segond\u00e8": 6733,
  "\u2581sorry": 6734,
  "\u2581stab": 6735,
  "\u2581starts": 6736,
  "\u2581steward": 6737,
  "\u2581s\u00e8lil": 6738,
  "\u2581s\u00f2": 6739,
  "\u2581television": 6740,
  "\u2581topics": 6741,
  "\u2581toumante": 6742,
  "\u2581tremendous": 6743,
  "\u2581typical": 6744,
  "\u2581vilaj": 6745,
  "\u2581volunteers": 6746,
  "\u2581welcomed": 6747,
  "07": 6748,
  "W": 6749,
  "favorize": 6750,
  "kr\u00e8": 6751,
  "k\u00e8": 6752,
  "of": 6753,
  "papa": 6754,
  "put": 6755,
  "\u0565\u0582": 6756,
  "\u25812,000": 6757,
  "\u258159": 6758,
  "\u2581Accordingly": 6759,
  "\u2581America": 6760,
  "\u2581Bedell": 6761,
  "\u2581Deut": 6762,
  "\u2581Dez": 6763,
  "\u2581Eccl": 6764,
  "\u2581Esther": 6765,
  "\u2581Konesans": 6766,
  "\u2581Ma": 6767,
  "\u2581Millions": 6768,
  "\u2581Moab": 6769,
  "\u2581Reading": 6770,
  "\u2581Sheol": 6771,
  "\u2581Sophia": 6772,
  "\u2581Sov\u00e8": 6773,
  "\u2581Teacher": 6774,
  "\u2581Thereafter": 6775,
  "\u2581T\u00e8": 6776,
  "\u2581adult": 6777,
  "\u2581anf\u00f2m": 6778,
  "\u2581begun": 6779,
  "\u2581depo": 6780,
  "\u2581deprime": 6781,
  "\u2581detailed": 6782,
  "\u2581dis\u00e8ne": 6783,
  "\u2581entim": 6784,
  "\u2581exclusive": 6785,
  "\u2581exhortation": 6786,
  "\u2581fl\u00e8": 6787,
  "\u2581friendly": 6788,
  "\u2581garment": 6789,
  "\u2581gerizon": 6790,
  "\u2581gwos\u00e8": 6791,
  "\u2581inaktif": 6792,
  "\u2581koze": 6793,
  "\u2581kwa": 6794,
  "\u2581laper\u00e8z": 6795,
  "\u2581leadership": 6796,
  "\u2581lean": 6797,
  "\u2581malon\u00e8t": 6798,
  "\u2581missing": 6799,
  "\u2581mod\u00e8n": 6800,
  "\u2581mway\u00e8n": 6801,
  "\u2581obligations": 6802,
  "\u2581outright": 6803,
  "\u2581pieces": 6804,
  "\u2581politics": 6805,
  "\u2581presye": 6806,
  "\u2581proclaiming": 6807,
  "\u2581promoted": 6808,
  "\u2581p\u00e8s\u00f2n": 6809,
  "\u2581reveye": 6810,
  "\u2581rezime": 6811,
  "\u2581romantic": 6812,
  "\u2581souled": 6813,
  "\u2581speaker": 6814,
  "\u2581spies": 6815,
  "\u2581staff": 6816,
  "\u2581storm": 6817,
  "\u2581territories": 6818,
  "\u2581th": 6819,
  "\u2581tries": 6820,
  "\u2581visions": 6821,
  "\u2581visitors": 6822,
  "\u2581weigh": 6823,
  "6": 6824,
  "Come": 6825,
  "Satan": 6826,
  "ongregasyon": 6827,
  "ory": 6828,
  "pi": 6829,
  "rich": 6830,
  "specially": 6831,
  "\u2581...": 6832,
  "\u25811953": 6833,
  "\u25811955": 6834,
  "\u258191": 6835,
  "\u2581Alex": 6836,
  "\u2581Anpi": 6837,
  "\u2581DI": 6838,
  "\u2581Dead": 6839,
  "\u2581Edition": 6840,
  "\u2581Ireland": 6841,
  "\u2581Kindness": 6842,
  "\u2581Konbyen": 6843,
  "\u2581Linda": 6844,
  "\u2581Sinayi": 6845,
  "\u2581Sofya": 6846,
  "\u2581Sous": 6847,
  "\u2581adolesans": 6848,
  "\u2581analyze": 6849,
  "\u2581antye": 6850,
  "\u2581appointment": 6851,
  "\u2581awaiting": 6852,
  "\u2581changing": 6853,
  "\u2581collect": 6854,
  "\u2581dragon": 6855,
  "\u2581engaged": 6856,
  "\u2581enjoyable": 6857,
  "\u2581expresse": 6858,
  "\u2581forefathers": 6859,
  "\u2581fun": 6860,
  "\u2581fyab": 6861,
  "\u2581guests": 6862,
  "\u2581inclination": 6863,
  "\u2581inspiration": 6864,
  "\u2581izrayelit": 6865,
  "\u2581keen": 6866,
  "\u2581konfese": 6867,
  "\u2581kouw\u00f2n": 6868,
  "\u2581ladr\u00e8s": 6869,
  "\u2581lw\u00e8s": 6870,
  "\u2581march": 6871,
  "\u2581meditasyon": 6872,
  "\u2581minor": 6873,
  "\u2581ofisy\u00e8l": 6874,
  "\u2581patn\u00e8": 6875,
  "\u2581proclaimed": 6876,
  "\u2581productive": 6877,
  "\u2581resident": 6878,
  "\u2581steadfast": 6879,
  "\u2581steal": 6880,
  "\u2581taxes": 6881,
  "\u2581ter\u00e8s": 6882,
  "\u2581thrilled": 6883,
  "\u2581tool": 6884,
  "\u2581touching": 6885,
  "\u2581unrepentant": 6886,
  "\u2581veridik": 6887,
  "\u2581\u0535": 6888,
  "An": 6889,
  "Babilonyen": 6890,
  "Cha": 6891,
  "Izray\u00e8l": 6892,
  "ch\u00e8che": 6893,
  "doubtedly": 6894,
  "lap\u00e8": 6895,
  "montre": 6896,
  "\u25819.)": 6897,
  "\u2581Abigail": 6898,
  "\u2581Certainly": 6899,
  "\u2581Gentiles": 6900,
  "\u2581Kananeyen": 6901,
  "\u2581Lives": 6902,
  "\u2581Mowab": 6903,
  "\u2581Nouv\u00e8l": 6904,
  "\u2581Siri": 6905,
  "\u2581Tak": 6906,
  "\u2581Tandiske": 6907,
  "\u2581anrasinen": 6908,
  "\u2581arrives": 6909,
  "\u2581billion": 6910,
  "\u2581boldly": 6911,
  "\u2581channel": 6912,
  "\u2581conquest": 6913,
  "\u2581consist": 6914,
  "\u2581deserves": 6915,
  "\u2581devour": 6916,
  "\u2581embrace": 6917,
  "\u2581fails": 6918,
  "\u2581familyal": 6919,
  "\u2581feeding": 6920,
  "\u2581fixed": 6921,
  "\u2581fought": 6922,
  "\u2581gouv\u00e8ne": 6923,
  "\u2581grand\u00e8": 6924,
  "\u2581heirs": 6925,
  "\u2581holiness": 6926,
  "\u2581hopes": 6927,
  "\u2581identifie": 6928,
  "\u2581ijans": 6929,
  "\u2581ion": 6930,
  "\u2581kadav": 6931,
  "\u2581lah\u00e8n": 6932,
  "\u2581laten": 6933,
  "\u2581les": 6934,
  "\u2581marriages": 6935,
  "\u2581medikaman": 6936,
  "\u2581miz\u00e8": 6937,
  "\u2581occurs": 6938,
  "\u2581outcry": 6939,
  "\u2581pal\u00e8": 6940,
  "\u2581parallel": 6941,
  "\u2581paths": 6942,
  "\u2581precise": 6943,
  "\u2581prominence": 6944,
  "\u2581propaganda": 6945,
  "\u2581p\u00e8sonaj": 6946,
  "\u2581p\u00f2s": 6947,
  "\u2581resentment": 6948,
  "\u2581restoration": 6949,
  "\u2581senbolize": 6950,
  "\u2581sentence": 6951,
  "\u2581shadow": 6952,
  "\u2581sleeping": 6953,
  "\u2581sow": 6954,
  "\u2581sports": 6955,
  "\u2581taste": 6956,
  "\u2581thoroughly": 6957,
  "\u2581transformed": 6958,
  "\u2581valley": 6959,
  "\u2581virgins": 6960,
  "\u2581worshipper": 6961,
  "\u2581worthwhile": 6962,
  "anpil": 6963,
  "ard": 6964,
  "av\u00e8k": 6965,
  "ern": 6966,
  "kou": 6967,
  "ra": 6968,
  "til": 6969,
  "tiyasyon": 6970,
  "\u25811995": 6971,
  "\u2581Abakouk": 6972,
  "\u2581Al": 6973,
  "\u2581Aquila": 6974,
  "\u2581BAGAY": 6975,
  "\u2581B\u00e8l": 6976,
  "\u2581CAN": 6977,
  "\u2581Di": 6978,
  "\u2581Frans": 6979,
  "\u2581Habakkuk": 6980,
  "\u2581Judges": 6981,
  "\u2581Ohio": 6982,
  "\u2581Priye": 6983,
  "\u2581Teaching": 6984,
  "\u2581Thess": 6985,
  "\u2581Wise": 6986,
  "\u2581Z": 6987,
  "\u2581actin": 6988,
  "\u2581announced": 6989,
  "\u2581attracted": 6990,
  "\u2581chof\u00e8": 6991,
  "\u2581cleansed": 6992,
  "\u2581counseled": 6993,
  "\u2581dan": 6994,
  "\u2581defini": 6995,
  "\u2581dimanch": 6996,
  "\u2581emphasize": 6997,
  "\u2581emphasized": 6998,
  "\u2581endless": 6999,
  "\u2581enfid\u00e8l": 7000,
  "\u2581enpak": 7001,
  "\u2581exalted": 7002,
  "\u2581festival": 7003,
  "\u2581fizikman": 7004,
  "\u2581fonde": 7005,
  "\u2581hurtful": 7006,
  "\u2581jealous": 7007,
  "\u2581kore": 7008,
  "\u2581kuiv": 7009,
  "\u2581l\u00e8nmi": 7010,
  "\u2581mistaken": 7011,
  "\u2581misye": 7012,
  "\u2581omoseksy\u00e8l": 7013,
  "\u2581outset": 7014,
  "\u2581partial": 7015,
  "\u2581prior": 7016,
  "\u2581rebelled": 7017,
  "\u2581ren": 7018,
  "\u2581sessions": 7019,
  "\u2581sharp": 7020,
  "\u2581standpoint": 7021,
  "\u2581teni": 7022,
  "\u2581timely": 7023,
  "\u2581womb": 7024,
  "\u2581yeartext": 7025,
  "AS": 7026,
  "byen": 7027,
  "chemen": 7028,
  "lwa": 7029,
  "nonse": 7030,
  "\u21e9": 7031,
  "\u25811970": 7032,
  "\u2581Akila": 7033,
  "\u2581Alive": 7034,
  "\u2581Apply": 7035,
  "\u2581Court": 7036,
  "\u2581Ethiopian": 7037,
  "\u2581Get": 7038,
  "\u2581International": 7039,
  "\u2581Loving": 7040,
  "\u2581Nazar\u00e8t": 7041,
  "\u2581OK": 7042,
  "\u2581Ted": 7043,
  "\u2581Yewochafat": 7044,
  "\u2581admitted": 7045,
  "\u2581amikal": 7046,
  "\u2581apepr\u00e8": 7047,
  "\u2581band": 7048,
  "\u2581blow": 7049,
  "\u2581chaste": 7050,
  "\u2581commitment": 7051,
  "\u2581consult": 7052,
  "\u2581contribution": 7053,
  "\u2581danse": 7054,
  "\u2581exercises": 7055,
  "\u2581fiks": 7056,
  "\u2581gates": 7057,
  "\u2581gradye": 7058,
  "\u2581handled": 7059,
  "\u2581happier": 7060,
  "\u2581im\u00f2t\u00e8l": 7061,
  "\u2581inactive": 7062,
  "\u2581initially": 7063,
  "\u2581jw": 7064,
  "\u2581kom\u00e8s": 7065,
  "\u2581k\u00f2tak\u00f2t": 7066,
  "\u2581lamp": 7067,
  "\u2581meantime": 7068,
  "\u2581mesyanik": 7069,
  "\u2581neutrality": 7070,
  "\u2581originate": 7071,
  "\u2581overlook": 7072,
  "\u2581prayerfully": 7073,
  "\u2581preparation": 7074,
  "\u2581pwov\u00e8b": 7075,
  "\u2581rachte": 7076,
  "\u2581reassuring": 7077,
  "\u2581rebati": 7078,
  "\u2581rebels": 7079,
  "\u2581reyalizasyon": 7080,
  "\u2581settled": 7081,
  "\u2581sole": 7082,
  "\u2581spreading": 7083,
  "\u2581stating": 7084,
  "\u2581tendencies": 7085,
  "\u2581trustworthy": 7086,
  "\u2581ultimately": 7087,
  "\u2581unscriptural": 7088,
  "\u2581vr\u00e8manvre": 7089,
  "\u2581wage": 7090,
  "\u2581yielding": 7091,
  "\u2581\u00c9critures": 7092,
  "4": 7093,
  "Now": 7094,
  "gainst": 7095,
  "s\u00e8t": 7096,
  "ward": 7097,
  "\u2581111": 7098,
  "\u2581ATP": 7099,
  "\u2581Asiryen": 7100,
  "\u2581Babylonians": 7101,
  "\u2581Betelit": 7102,
  "\u2581Earlier": 7103,
  "\u2581Gentile": 7104,
  "\u2581Greater": 7105,
  "\u2581Manase": 7106,
  "\u2581Martin": 7107,
  "\u2581Power": 7108,
  "\u2581RE": 7109,
  "\u2581Rose": 7110,
  "\u2581SOTI": 7111,
  "\u2581Sunday": 7112,
  "\u2581Tande": 7113,
  "\u2581Tousuit": 7114,
  "\u2581abiman": 7115,
  "\u2581boul": 7116,
  "\u2581confirm": 7117,
  "\u2581crown": 7118,
  "\u2581depaman": 7119,
  "\u2581destination": 7120,
  "\u2581devastated": 7121,
  "\u2581dj\u00f2b": 7122,
  "\u2581ekonomi": 7123,
  "\u2581enfim": 7124,
  "\u2581enjoyment": 7125,
  "\u2581envante": 7126,
  "\u2581etwal": 7127,
  "\u2581feared": 7128,
  "\u2581fruits": 7129,
  "\u2581gang": 7130,
  "\u2581generously": 7131,
  "\u2581gladly": 7132,
  "\u2581honestly": 7133,
  "\u2581immortal": 7134,
  "\u2581introduced": 7135,
  "\u2581kl\u00e8vwayans": 7136,
  "\u2581konplo": 7137,
  "\u2581mant\u00e8": 7138,
  "\u2581misled": 7139,
  "\u2581mold": 7140,
  "\u2581moments": 7141,
  "\u2581noteworthy": 7142,
  "\u2581oversight": 7143,
  "\u2581perceive": 7144,
  "\u2581periods": 7145,
  "\u2581plain": 7146,
  "\u2581planned": 7147,
  "\u2581plenty": 7148,
  "\u2581praised": 7149,
  "\u2581push": 7150,
  "\u2581recogniz": 7151,
  "\u2581rek\u00f2mand": 7152,
  "\u2581repented": 7153,
  "\u2581rob": 7154,
  "\u2581selfishness": 7155,
  "\u2581silence": 7156,
  "\u2581snare": 7157,
  "\u2581stage": 7158,
  "\u2581submissive": 7159,
  "\u2581symbolized": 7160,
  "\u2581truthful": 7161,
  "\u2581twonpri": 7162,
  "\u2581virtue": 7163,
  "aton": 7164,
  "ere": 7165,
  "ical": 7166,
  "if": 7167,
  "ism": 7168,
  "lavi": 7169,
  "lewo": 7170,
  "love": 7171,
  "son": 7172,
  "tankou": 7173,
  "\u25811879": 7174,
  "\u25811945": 7175,
  "\u25811958": 7176,
  "\u25811996": 7177,
  "\u2581607": 7178,
  "\u2581ANSWERED": 7179,
  "\u2581Dan": 7180,
  "\u2581Etan": 7181,
  "\u2581Far": 7182,
  "\u2581Filipin": 7183,
  "\u2581Humans": 7184,
  "\u2581Jon": 7185,
  "\u2581Le": 7186,
  "\u2581Maker": 7187,
  "\u2581ON": 7188,
  "\u2581Old": 7189,
  "\u2581Plan": 7190,
  "\u2581Thessalonica": 7191,
  "\u2581T\u00e9": 7192,
  "\u2581^": 7193,
  "\u2581adding": 7194,
  "\u2581ages": 7195,
  "\u2581alveoli": 7196,
  "\u2581ap\u00e8si": 7197,
  "\u2581assign": 7198,
  "\u2581cease": 7199,
  "\u2581characteristics": 7200,
  "\u2581code": 7201,
  "\u2581combined": 7202,
  "\u2581complaint": 7203,
  "\u2581criminal": 7204,
  "\u2581deceive": 7205,
  "\u2581deed": 7206,
  "\u2581define": 7207,
  "\u2581dit\u00f2": 7208,
  "\u2581domestik": 7209,
  "\u2581enstwi": 7210,
  "\u2581esansy\u00e8lman": 7211,
  "\u2581esp\u00e8": 7212,
  "\u2581evangelizer": 7213,
  "\u2581fault": 7214,
  "\u2581fierce": 7215,
  "\u2581forbidden": 7216,
  "\u2581forgotten": 7217,
  "\u2581formerly": 7218,
  "\u2581fre": 7219,
  "\u2581fruitful": 7220,
  "\u2581hardship": 7221,
  "\u2581individually": 7222,
  "\u2581lines": 7223,
  "\u2581moute": 7224,
  "\u2581m\u00f2d": 7225,
  "\u2581orat\u00e8": 7226,
  "\u2581oz": 7227,
  "\u2581perspective": 7228,
  "\u2581prezantasyon": 7229,
  "\u2581records": 7230,
  "\u2581repoze": 7231,
  "\u2581rez": 7232,
  "\u2581sale": 7233,
  "\u2581seated": 7234,
  "\u2581separated": 7235,
  "\u2581ship": 7236,
  "\u2581shut": 7237,
  "\u2581sigar\u00e8t": 7238,
  "\u2581siks\u00e8": 7239,
  "\u2581size": 7240,
  "\u2581southern": 7241,
  "\u2581style": 7242,
  "\u2581sudden": 7243,
  "\u2581teens": 7244,
  "\u2581videos": 7245,
  "\u2581weapon": 7246,
  "\u2581\u0574\u0565": 7247,
  "1": 7248,
  "Bib": 7249,
  "Dep": 7250,
  "ba": 7251,
  "spann": 7252,
  "this": 7253,
  "tuck": 7254,
  "who": 7255,
  "\u25811922": 7256,
  "\u258168": 7257,
  "\u2581Andrew": 7258,
  "\u2581Angels": 7259,
  "\u2581Answers": 7260,
  "\u2581Changes": 7261,
  "\u2581Ede": 7262,
  "\u2581European": 7263,
  "\u2581Evelyn": 7264,
  "\u2581Humility": 7265,
  "\u2581Lef\u00e8vre": 7266,
  "\u2581Leta": 7267,
  "\u2581Little": 7268,
  "\u2581Manasseh": 7269,
  "\u2581Need": 7270,
  "\u2581OUR": 7271,
  "\u2581PEYI": 7272,
  "\u2581Samson": 7273,
  "\u2581Sinai": 7274,
  "\u2581Suppose": 7275,
  "\u2581TOU": 7276,
  "\u2581Zion": 7277,
  "\u2581aplika": 7278,
  "\u2581centr": 7279,
  "\u2581condemn": 7280,
  "\u2581cultures": 7281,
  "\u2581depans": 7282,
  "\u2581devwa": 7283,
  "\u2581disappointment": 7284,
  "\u2581discover": 7285,
  "\u2581diskite": 7286,
  "\u2581ease": 7287,
  "\u2581entity": 7288,
  "\u2581espas": 7289,
  "\u2581evangelizers": 7290,
  "\u2581feast": 7291,
  "\u2581fwonty\u00e8": 7292,
  "\u2581honesty": 7293,
  "\u2581idols": 7294,
  "\u2581implies": 7295,
  "\u2581instituted": 7296,
  "\u2581items": 7297,
  "\u2581kalme": 7298,
  "\u2581liar": 7299,
  "\u2581match": 7300,
  "\u2581materialistic": 7301,
  "\u2581mawon": 7302,
  "\u2581messages": 7303,
  "\u2581occasionally": 7304,
  "\u2581owner": 7305,
  "\u2581permitted": 7306,
  "\u2581peze": 7307,
  "\u2581prensipalman": 7308,
  "\u2581prisoners": 7309,
  "\u2581reli": 7310,
  "\u2581remembering": 7311,
  "\u2581resort": 7312,
  "\u2581respecting": 7313,
  "\u2581sacrificial": 7314,
  "\u2581sadness": 7315,
  "\u2581singleness": 7316,
  "\u2581skin": 7317,
  "\u2581smoke": 7318,
  "\u2581somehow": 7319,
  "\u2581spoil": 7320,
  "\u2581succeeded": 7321,
  "\u2581vizib": 7322,
  "\u2581watched": 7323,
  "Kant": 7324,
  "Sey\u00e8": 7325,
  "Veye": 7326,
  "alew\u00e8": 7327,
  "ch\u00e8f": 7328,
  "ctively": 7329,
  "me": 7330,
  "mpe": 7331,
  "new": 7332,
  "sistans": 7333,
  "ta": 7334,
  "\u2581118": 7335,
  "\u25811931": 7336,
  "\u25811980": 7337,
  "\u258194": 7338,
  "\u2581ABOUT": 7339,
  "\u2581Apollos": 7340,
  "\u2581Apol\u00f2s": 7341,
  "\u2581JESUS": 7342,
  "\u2581Jeroboam": 7343,
  "\u2581Lev": 7344,
  "\u2581Library": 7345,
  "\u2581Mal": 7346,
  "\u2581Masedw\u00e0n": 7347,
  "\u2581Nazareth": 7348,
  "\u2581Publish": 7349,
  "\u2581Tanpri": 7350,
  "\u2581Tr\u00e8wo": 7351,
  "\u2581WE": 7352,
  "\u2581Web": 7353,
  "\u2581absolute": 7354,
  "\u2581aging": 7355,
  "\u2581apparent": 7356,
  "\u2581bote": 7357,
  "\u2581bright": 7358,
  "\u2581cha": 7359,
  "\u2581copper": 7360,
  "\u2581correspond": 7361,
  "\u2581disastrous": 7362,
  "\u2581discusse": 7363,
  "\u2581distressed": 7364,
  "\u2581distributed": 7365,
  "\u2581driver": 7366,
  "\u2581et": 7367,
  "\u2581extensive": 7368,
  "\u2581favorable": 7369,
  "\u2581franchi": 7370,
  "\u2581globe": 7371,
  "\u2581kontre": 7372,
  "\u2581langaj": 7373,
  "\u2581loud": 7374,
  "\u2581mislead": 7375,
  "\u2581moralite": 7376,
  "\u2581naturally": 7377,
  "\u2581newspaper": 7378,
  "\u2581operation": 7379,
  "\u2581party": 7380,
  "\u2581purposed": 7381,
  "\u2581p\u00e8l": 7382,
  "\u2581realistic": 7383,
  "\u2581recalled": 7384,
  "\u2581requests": 7385,
  "\u2581roof": 7386,
  "\u2581santans": 7387,
  "\u2581sinner": 7388,
  "\u2581swiv": 7389,
  "\u2581tanperati": 7390,
  "\u2581teknik": 7391,
  "\u2581teren": 7392,
  "\u2581tradition": 7393,
  "EN": 7394,
  "Kounye": 7395,
  "ncient": 7396,
  "while": 7397,
  "\u2581147": 7398,
  "\u2581Asaph": 7399,
  "\u2581Asireman": 7400,
  "\u2581Chan": 7401,
  "\u2581Debora": 7402,
  "\u2581Gog": 7403,
  "\u2581Greece": 7404,
  "\u2581Henry": 7405,
  "\u2581K\u00c8": 7406,
  "\u2581London": 7407,
  "\u2581Looking": 7408,
  "\u2581ME": 7409,
  "\u2581Neboukadnetsa": 7410,
  "\u2581Serve": 7411,
  "\u2581accurately": 7412,
  "\u2581achiv": 7413,
  "\u2581adjusted": 7414,
  "\u2581anrejistre": 7415,
  "\u2581broad": 7416,
  "\u2581challenged": 7417,
  "\u2581chamo": 7418,
  "\u2581contemplate": 7419,
  "\u2581cure": 7420,
  "\u2581difficulty": 7421,
  "\u2581donnen": 7422,
  "\u2581dram": 7423,
  "\u2581driving": 7424,
  "\u2581empathy": 7425,
  "\u2581female": 7426,
  "\u2581increasingly": 7427,
  "\u2581independent": 7428,
  "\u2581jealousy": 7429,
  "\u2581karakt\u00e8": 7430,
  "\u2581lansan": 7431,
  "\u2581longing": 7432,
  "\u2581maji": 7433,
  "\u2581monnen": 7434,
  "\u2581mothers": 7435,
  "\u2581movies": 7436,
  "\u2581offense": 7437,
  "\u2581participation": 7438,
  "\u2581pete": 7439,
  "\u2581preacher": 7440,
  "\u2581priceless": 7441,
  "\u2581profess": 7442,
  "\u2581qualifications": 7443,
  "\u2581references": 7444,
  "\u2581representative": 7445,
  "\u2581resanblans": 7446,
  "\u2581r\u00e8n": 7447,
  "\u2581sekret\u00e8": 7448,
  "\u2581sensitive": 7449,
  "\u2581somewhat": 7450,
  "\u2581soumisyon": 7451,
  "\u2581spared": 7452,
  "\u2581survival": 7453,
  "\u2581touchan": 7454,
  "\u2581unnecessary": 7455,
  "\u2581vary": 7456,
  "\u2581vigilant": 7457,
  "\u2581v\u00e8se": 7458,
  "\u2581warmly": 7459,
  "800": 7460,
  "F": 7461,
  "disip": 7462,
  "ftn": 7463,
  "klas": 7464,
  "moins": 7465,
  "netheless": 7466,
  "pp": 7467,
  "\u2581106": 7468,
  "\u25811948": 7469,
  "\u25811998": 7470,
  "\u258158": 7471,
  "\u2581Amagedon": 7472,
  "\u2581Asiri": 7473,
  "\u2581Assyrian": 7474,
  "\u2581Bowaz": 7475,
  "\u2581British": 7476,
  "\u2581Dam": 7477,
  "\u2581Ety\u00e8n": 7478,
  "\u2581Hans": 7479,
  "\u2581PUBLISHERS": 7480,
  "\u2581Philippines": 7481,
  "\u2581Priscilla": 7482,
  "\u2581Thousand": 7483,
  "\u2581Twazy\u00e8mman": 7484,
  "\u2581arrange": 7485,
  "\u2581buildings": 7486,
  "\u2581curse": 7487,
  "\u2581deny": 7488,
  "\u2581desiring": 7489,
  "\u2581desperate": 7490,
  "\u2581discourse": 7491,
  "\u2581disown": 7492,
  "\u2581evidan": 7493,
  "\u2581falls": 7494,
  "\u2581festivals": 7495,
  "\u2581figuratively": 7496,
  "\u2581follower": 7497,
  "\u2581fore": 7498,
  "\u2581granmesi": 7499,
  "\u2581impress": 7500,
  "\u2581jeune": 7501,
  "\u2581ladwati": 7502,
  "\u2581logical": 7503,
  "\u2581malere": 7504,
  "\u2581memorial": 7505,
  "\u2581mesaje": 7506,
  "\u2581misuse": 7507,
  "\u2581mod\u00e8s": 7508,
  "\u2581normally": 7509,
  "\u2581pair": 7510,
  "\u2581pasifik": 7511,
  "\u2581performing": 7512,
  "\u2581pointing": 7513,
  "\u2581poz": 7514,
  "\u2581practiced": 7515,
  "\u2581presents": 7516,
  "\u2581prezidan": 7517,
  "\u2581protective": 7518,
  "\u2581questioned": 7519,
  "\u2581quotations": 7520,
  "\u2581refugees": 7521,
  "\u2581remembrance": 7522,
  "\u2581revealing": 7523,
  "\u2581revize": 7524,
  "\u2581sanctify": 7525,
  "\u2581scientific": 7526,
  "\u2581scribes": 7527,
  "\u2581simplify": 7528,
  "\u2581status": 7529,
  "\u2581structure": 7530,
  "\u2581tasks": 7531,
  "\u2581tempt": 7532,
  "\u2581toupisan": 7533,
  "\u2581vows": 7534,
  "\u2581weeping": 7535,
  "RANN": 7536,
  "interrogent": 7537,
  "ksepte": 7538,
  "mennen": 7539,
  "opye": 7540,
  "pral": 7541,
  "their": 7542,
  "\u00f2de": 7543,
  "\u2581148": 7544,
  "\u25811952": 7545,
  "\u25813,000": 7546,
  "\u258144,": 7547,
  "\u2581Batis": 7548,
  "\u2581Cameron": 7549,
  "\u2581Esklav": 7550,
  "\u2581Ev\u00e8nman": 7551,
  "\u2581Filisten": 7552,
  "\u2581Gold": 7553,
  "\u2581G\u00f2g": 7554,
  "\u2581JOHN": 7555,
  "\u2581Jenny": 7556,
  "\u2581Kou": 7557,
  "\u2581K\u00f2n\u00e8y": 7558,
  "\u2581Lapriy\u00e8": 7559,
  "\u2581Lekt": 7560,
  "\u2581Listen": 7561,
  "\u2581Must": 7562,
  "\u2581PWOKLAMAT\u00c8": 7563,
  "\u2581Potifa": 7564,
  "\u2581Provider": 7565,
  "\u2581Sen": 7566,
  "\u2581Siris": 7567,
  "\u2581Volume": 7568,
  "\u2581abusive": 7569,
  "\u2581adolescent": 7570,
  "\u2581anfas": 7571,
  "\u2581apatman": 7572,
  "\u2581appreciative": 7573,
  "\u2581ate": 7574,
  "\u2581attribute": 7575,
  "\u2581awogan": 7576,
  "\u2581behold": 7577,
  "\u2581bereaved": 7578,
  "\u2581buried": 7579,
  "\u2581captive": 7580,
  "\u2581character": 7581,
  "\u2581chores": 7582,
  "\u2581contentment": 7583,
  "\u2581dioxide": 7584,
  "\u2581directing": 7585,
  "\u2581distraksyon": 7586,
  "\u2581doors": 7587,
  "\u2581drug": 7588,
  "\u2581eleman": 7589,
  "\u2581espre": 7590,
  "\u2581expensive": 7591,
  "\u2581fil": 7592,
  "\u2581founded": 7593,
  "\u2581gay": 7594,
  "\u2581gross": 7595,
  "\u2581inclinations": 7596,
  "\u2581inferior": 7597,
  "\u2581informed": 7598,
  "\u2581jeyan": 7599,
  "\u2581kal": 7600,
  "\u2581kalkile": 7601,
  "\u2581kri": 7602,
  "\u2581mob": 7603,
  "\u2581organizations": 7604,
  "\u2581ozalantou": 7605,
  "\u2581pains": 7606,
  "\u2581perish": 7607,
  "\u2581persecute": 7608,
  "\u2581phrase": 7609,
  "\u2581ponder": 7610,
  "\u2581poumon": 7611,
  "\u2581repair": 7612,
  "\u2581respectfully": 7613,
  "\u2581salte": 7614,
  "\u2581setan": 7615,
  "\u2581striking": 7616,
  "\u2581tobacco": 7617,
  "\u2581toufe": 7618,
  "\u2581transpose": 7619,
  "\u2581treacherous": 7620,
  "\u2581unknown": 7621,
  "ASON": 7622,
  "Is": 7623,
  "Lef\u00e8tke": 7624,
  "ann": 7625,
  "el": 7626,
  "ikras": 7627,
  "ire": 7628,
  "lonje": 7629,
  "mache": 7630,
  "odle": 7631,
  "prann": 7632,
  "renmen": 7633,
  "so": 7634,
  "uit": 7635,
  "\u057e": 7636,
  "\u258145,": 7637,
  "\u258195": 7638,
  "\u2581ANE": 7639,
  "\u2581ANVAN": 7640,
  "\u2581ARTICLE": 7641,
  "\u2581Baptizer": 7642,
  "\u2581Canaanite": 7643,
  "\u2581Charle": 7644,
  "\u2581ENF": 7645,
  "\u2581Four": 7646,
  "\u2581Giver": 7647,
  "\u2581Gr\u00e8k": 7648,
  "\u2581Nebuchadnezzar": 7649,
  "\u2581Prisil": 7650,
  "\u2581Song": 7651,
  "\u2581TEACHINGS": 7652,
  "\u2581TV": 7653,
  "\u2581Worldwide": 7654,
  "\u2581agoch": 7655,
  "\u2581apartment": 7656,
  "\u2581arriving": 7657,
  "\u2581begged": 7658,
  "\u2581black": 7659,
  "\u2581board": 7660,
  "\u2581branches": 7661,
  "\u2581cleanse": 7662,
  "\u2581commonly": 7663,
  "\u2581confidently": 7664,
  "\u2581contributions": 7665,
  "\u2581cooperation": 7666,
  "\u2581crush": 7667,
  "\u2581davans": 7668,
  "\u2581defined": 7669,
  "\u2581dekr\u00e8": 7670,
  "\u2581despair": 7671,
  "\u2581dirab": 7672,
  "\u2581dishonest": 7673,
  "\u2581distractions": 7674,
  "\u2581div\u00f2s": 7675,
  "\u2581doctrines": 7676,
  "\u2581educated": 7677,
  "\u2581eklate": 7678,
  "\u2581emphasis": 7679,
  "\u2581file": 7680,
  "\u2581firsthand": 7681,
  "\u2581gadyen": 7682,
  "\u2581generations": 7683,
  "\u2581gou": 7684,
  "\u2581guidelines": 7685,
  "\u2581heritage": 7686,
  "\u2581kategori": 7687,
  "\u2581komemore": 7688,
  "\u2581kom\u00e8syal": 7689,
  "\u2581koreksyon": 7690,
  "\u2581leaven": 7691,
  "\u2581legs": 7692,
  "\u2581meat": 7693,
  "\u2581mentally": 7694,
  "\u2581mirror": 7695,
  "\u2581misleading": 7696,
  "\u2581oath": 7697,
  "\u2581ot\u00e8l": 7698,
  "\u2581pe": 7699,
  "\u2581polit\u00e8s": 7700,
  "\u2581portray": 7701,
  "\u2581prefer": 7702,
  "\u2581reacted": 7703,
  "\u2581ref\u00e8": 7704,
  "\u2581regain": 7705,
  "\u2581rejim": 7706,
  "\u2581renka": 7707,
  "\u2581sacrificed": 7708,
  "\u2581scroll": 7709,
  "\u2581supposed": 7710,
  "\u2581target": 7711,
  "\u2581thief": 7712,
  "\u2581valued": 7713,
  "\u2581voices": 7714,
  "\u2581wages": 7715,
  "\u2581wake": 7716,
  "8": 7717,
  "Gran": 7718,
  "born": 7719,
  "oxygenated": 7720,
  "sou": 7721,
  "sperans": 7722,
  "\u2581125": 7723,
  "\u258114)": 7724,
  "\u258115)": 7725,
  "\u258198": 7726,
  "\u2581AT": 7727,
  "\u2581Aga": 7728,
  "\u2581Branch": 7729,
  "\u2581Brian": 7730,
  "\u2581CHANGE": 7731,
  "\u2581Cultivat": 7732,
  "\u2581Cyrus": 7733,
  "\u2581Dieu": 7734,
  "\u2581Dirijan": 7735,
  "\u2581Honor": 7736,
  "\u2581Nasyon": 7737,
  "\u2581Office": 7738,
  "\u2581PSALM": 7739,
  "\u2581Philistines": 7740,
  "\u2581Point": 7741,
  "\u2581REPONS": 7742,
  "\u2581Rach\u00e8l": 7743,
  "\u2581Sef\u00e0nya": 7744,
  "\u2581adhere": 7745,
  "\u2581antrene": 7746,
  "\u2581arm": 7747,
  "\u2581befall": 7748,
  "\u2581chan\u00e8l": 7749,
  "\u2581convincing": 7750,
  "\u2581crisis": 7751,
  "\u2581decisive": 7752,
  "\u2581demand": 7753,
  "\u2581devwale": 7754,
  "\u2581dignified": 7755,
  "\u2581duty": 7756,
  "\u2581ekspoze": 7757,
  "\u2581enthusiasm": 7758,
  "\u2581envy": 7759,
  "\u2581fat": 7760,
  "\u2581fift": 7761,
  "\u2581floor": 7762,
  "\u2581k\u00f2lp\u00f2t\u00e8": 7763,
  "\u2581longtime": 7764,
  "\u2581merit": 7765,
  "\u2581mesyedam": 7766,
  "\u2581missed": 7767,
  "\u2581multitude": 7768,
  "\u2581murmuring": 7769,
  "\u2581my\u00e8l": 7770,
  "\u2581necessities": 7771,
  "\u2581netwayaj": 7772,
  "\u2581n\u00f2malman": 7773,
  "\u2581offend": 7774,
  "\u2581offices": 7775,
  "\u2581orbital": 7776,
  "\u2581printing": 7777,
  "\u2581reconciled": 7778,
  "\u2581renewed": 7779,
  "\u2581responding": 7780,
  "\u2581rey\u00e8lman": 7781,
  "\u2581sens\u00e8man": 7782,
  "\u2581sites": 7783,
  "\u2581siyal": 7784,
  "\u2581splendor": 7785,
  "\u2581stretch": 7786,
  "\u2581suppose": 7787,
  "\u2581undermine": 7788,
  "\u2581vize": 7789,
  "\u2581wood": 7790,
  "\u2581\u00eatre": 7791,
  "40": 7792,
  "AJ": 7793,
  "P\u00e8sonn": 7794,
  "U": 7795,
  "V": 7796,
  "Wi": 7797,
  "ans": 7798,
  "ations": 7799,
  "ble": 7800,
  "fen": 7801,
  "inist\u00e8": 7802,
  "ist": 7803,
  "nterestingly": 7804,
  "oswa": 7805,
  "piblik": 7806,
  "pwoche": 7807,
  "rew": 7808,
  "thing": 7809,
  "\u25811,000": 7810,
  "\u2581116": 7811,
  "\u25811939": 7812,
  "\u25811993": 7813,
  "\u2581Anseyan": 7814,
  "\u2581Boaz": 7815,
  "\u2581CHANJ": 7816,
  "\u2581Care": 7817,
  "\u2581Carlos": 7818,
  "\u2581Guide": 7819,
  "\u2581Hitler": 7820,
  "\u2581Mikay\u00e8l": 7821,
  "\u2581Persian": 7822,
  "\u2581Religion": 7823,
  "\u2581Review": 7824,
  "\u2581Seeing": 7825,
  "\u2581University": 7826,
  "\u2581Yawobam": 7827,
  "\u2581aletranje": 7828,
  "\u2581almighty": 7829,
  "\u2581andwa": 7830,
  "\u2581anretou": 7831,
  "\u2581attractive": 7832,
  "\u2581blayi": 7833,
  "\u2581bondage": 7834,
  "\u2581chooses": 7835,
  "\u2581concentrate": 7836,
  "\u2581conclusions": 7837,
  "\u2581confess": 7838,
  "\u2581direkt\u00e8": 7839,
  "\u2581discourage": 7840,
  "\u2581era": 7841,
  "\u2581estasyon": 7842,
  "\u2581facilities": 7843,
  "\u2581fair": 7844,
  "\u2581falsely": 7845,
  "\u2581farm": 7846,
  "\u2581fondman": 7847,
  "\u2581gambling": 7848,
  "\u2581hospitable": 7849,
  "\u2581immense": 7850,
  "\u2581imply": 7851,
  "\u2581interfere": 7852,
  "\u2581k\u00e8lkonk": 7853,
  "\u2581livre": 7854,
  "\u2581lungs": 7855,
  "\u2581milk": 7856,
  "\u2581minim": 7857,
  "\u2581mis": 7858,
  "\u2581mixed": 7859,
  "\u2581modesti": 7860,
  "\u2581nursing": 7861,
  "\u2581operasyon": 7862,
  "\u2581plim": 7863,
  "\u2581promot": 7864,
  "\u2581pump": 7865,
  "\u2581pursued": 7866,
  "\u2581radio": 7867,
  "\u2581rage": 7868,
  "\u2581reduce": 7869,
  "\u2581sanctification": 7870,
  "\u2581sangty\u00e8": 7871,
  "\u2581seksyon": 7872,
  "\u2581souke": 7873,
  "\u2581sources": 7874,
  "\u2581sower": 7875,
  "\u2581super": 7876,
  "\u2581temporarily": 7877,
  "\u2581traditions": 7878,
  "\u2581trajedi": 7879,
  "\u2581trankil": 7880,
  "\u2581troops": 7881,
  "\u2581university": 7882,
  "\u2581unreasonable": 7883,
  "\u2581vakans": 7884,
  "\u2581vit\u00e8s": 7885,
  "\u2581volunteer": 7886,
  "\u2581wearing": 7887,
  "\u2581\u00f2done": 7888,
  "J": 7889,
  "ally": 7890,
  "are": 7891,
  "desandans": 7892,
  "kongregasyon": 7893,
  "krifis": 7894,
  "lanm": 7895,
  "ng": 7896,
  "pale": 7897,
  "rs": 7898,
  "s\u00e8": 7899,
  "un": 7900,
  "\u00f2mandman": 7901,
  "\u25811992": 7902,
  "\u258127]": 7903,
  "\u2581Alice": 7904,
  "\u2581Along": 7905,
  "\u2581Assyria": 7906,
  "\u2581Ben": 7907,
  "\u2581Ch": 7908,
  "\u2581Cornelius": 7909,
  "\u2581Elihu": 7910,
  "\u2581Eliyou": 7911,
  "\u2581Emlyn": 7912,
  "\u2581Example": 7913,
  "\u2581Happily": 7914,
  "\u2581JEZI": 7915,
  "\u2581Kora": 7916,
  "\u2581Korah": 7917,
  "\u2581Lystra": 7918,
  "\u2581Macedonia": 7919,
  "\u2581Relate": 7920,
  "\u2581Understandabl": 7921,
  "\u2581Yourself": 7922,
  "\u2581accomplishing": 7923,
  "\u2581aflije": 7924,
  "\u2581ala": 7925,
  "\u2581asasen": 7926,
  "\u2581atis": 7927,
  "\u2581attacked": 7928,
  "\u2581beat": 7929,
  "\u2581chey\u00f2l": 7930,
  "\u2581connected": 7931,
  "\u2581conquering": 7932,
  "\u2581cured": 7933,
  "\u2581dans": 7934,
  "\u2581delivering": 7935,
  "\u2581dez": 7936,
  "\u2581diseases": 7937,
  "\u2581entirely": 7938,
  "\u2581exquisite": 7939,
  "\u2581fraz": 7940,
  "\u2581funeral": 7941,
  "\u2581golden": 7942,
  "\u2581injustices": 7943,
  "\u2581intention": 7944,
  "\u2581intervene": 7945,
  "\u2581kol\u00f2n": 7946,
  "\u2581lamb": 7947,
  "\u2581lifesaving": 7948,
  "\u2581lofty": 7949,
  "\u2581long\u00e8": 7950,
  "\u2581malediksyon": 7951,
  "\u2581melanje": 7952,
  "\u2581obviously": 7953,
  "\u2581orders": 7954,
  "\u2581piece": 7955,
  "\u2581poutan": 7956,
  "\u2581prens": 7957,
  "\u2581product": 7958,
  "\u2581pwovens": 7959,
  "\u2581rabese": 7960,
  "\u2581reparasyon": 7961,
  "\u2581resous": 7962,
  "\u2581south": 7963,
  "\u2581sowing": 7964,
  "\u2581strayed": 7965,
  "\u2581subtle": 7966,
  "\u2581testing": 7967,
  "\u2581transferred": 7968,
  "\u2581treating": 7969,
  "\u2581uncleanness": 7970,
  "\u2581unjust": 7971,
  "\u2581unrighteousness": 7972,
  "\u2581virgin": 7973,
  "\u2581wayal": 7974,
  "\u2581weighty": 7975,
  "\u2581zero": 7976,
  "230": 7977,
  "5": 7978,
  "Just": 7979,
  "LY": 7980,
  "b\u00f2": 7981,
  "cal": 7982,
  "elasyon": 7983,
  "konesans": 7984,
  "lanmou": 7985,
  "long": 7986,
  "lways": 7987,
  "l\u00e8s": 7988,
  "ong": 7989,
  "onv\u00e8sasyon": 7990,
  "work": 7991,
  "\u25811914?": 7992,
  "\u25811956": 7993,
  "\u25811974": 7994,
  "\u258192": 7995,
  "\u2581Anthony": 7996,
  "\u2581Apa": 7997,
  "\u2581Charles": 7998,
  "\u2581Chinese": 7999,
  "\u2581Department": 8000,
  "\u2581Elizabeth": 8001,
  "\u2581Jean": 8002,
  "\u2581Knowledge": 8003,
  "\u2581Levite": 8004,
  "\u2581Meditat": 8005,
  "\u2581Nab\u00f2t": 8006,
  "\u2581Nw\u00e8l": 8007,
  "\u2581Potiphar": 8008,
  "\u2581STORY": 8009,
  "\u2581Sentespri": 8010,
  "\u2581Siyon": 8011,
  "\u2581YEAR": 8012,
  "\u2581accountable": 8013,
  "\u2581attached": 8014,
  "\u2581believes": 8015,
  "\u2581block": 8016,
  "\u2581confused": 8017,
  "\u2581defeat": 8018,
  "\u2581delightful": 8019,
  "\u2581demands": 8020,
  "\u2581dendrite": 8021,
  "\u2581depasaj": 8022,
  "\u2581design": 8023,
  "\u2581dishonor": 8024,
  "\u2581dominant": 8025,
  "\u2581drop": 8026,
  "\u2581d\u00e8": 8027,
  "\u2581enskri": 8028,
  "\u2581enspirasyon": 8029,
  "\u2581giant": 8030,
  "\u2581guess": 8031,
  "\u2581hall": 8032,
  "\u2581incense": 8033,
  "\u2581istorik": 8034,
  "\u2581keenly": 8035,
  "\u2581konsakre": 8036,
  "\u2581kwen": 8037,
  "\u2581lwe": 8038,
  "\u2581magnificent": 8039,
  "\u2581meals": 8040,
  "\u2581merchant": 8041,
  "\u2581nasyonalite": 8042,
  "\u2581pays": 8043,
  "\u2581permanently": 8044,
  "\u2581pillar": 8045,
  "\u2581progressively": 8046,
  "\u2581reflection": 8047,
  "\u2581riz": 8048,
  "\u2581safely": 8049,
  "\u2581secretary": 8050,
  "\u2581siblings": 8051,
  "\u2581sigma": 8052,
  "\u2581span": 8053,
  "\u2581spring": 8054,
  "\u2581stranger": 8055,
  "\u2581teenagers": 8056,
  "\u2581teworis": 8057,
  "\u2581thanksgiving": 8058,
  "\u2581topic": 8059,
  "\u2581upper": 8060,
  "\u2581vicious": 8061,
  "\u2581vine": 8062,
  "\u2581vwazinaj": 8063,
  "13": 8064,
  "Ann": 8065,
  "From": 8066,
  "M\u00c8N": 8067,
  "Priy\u00e8": 8068,
  "Pwofes\u00e8": 8069,
  "ah": 8070,
  "ie": 8071,
  "let": 8072,
  "ma": 8073,
  "rasinen": 8074,
  "rive": 8075,
  "upreme": 8076,
  "ut": 8077,
  "youn": 8078,
  "\u258113)": 8079,
  "\u25811947": 8080,
  "\u25811997": 8081,
  "\u258177": 8082,
  "\u258189": 8083,
  "\u2581ANPIL": 8084,
  "\u2581Agripa": 8085,
  "\u2581Agrippa": 8086,
  "\u2581Archives": 8087,
  "\u2581Bad": 8088,
  "\u2581DNA": 8089,
  "\u2581Divine": 8090,
  "\u2581Fred": 8091,
  "\u2581Gabriel": 8092,
  "\u2581Lejip": 8093,
  "\u2581Moder": 8094,
  "\u2581M\u00f2n": 8095,
  "\u2581None": 8096,
  "\u2581North": 8097,
  "\u2581Obviously": 8098,
  "\u2581Pay": 8099,
  "\u2581Pout\u00e8t": 8100,
  "\u2581Rule": 8101,
  "\u2581Verite": 8102,
  "\u2581Vil": 8103,
  "\u2581abi": 8104,
  "\u2581accusations": 8105,
  "\u2581affliction": 8106,
  "\u2581al\u00e8": 8107,
  "\u2581amelyorasyon": 8108,
  "\u2581apr\u00e8midi": 8109,
  "\u2581belonged": 8110,
  "\u2581bitterness": 8111,
  "\u2581cham": 8112,
  "\u2581chariots": 8113,
  "\u2581committ": 8114,
  "\u2581con": 8115,
  "\u2581creating": 8116,
  "\u2581destructive": 8117,
  "\u2581dousman": 8118,
  "\u2581dramatic": 8119,
  "\u2581dread": 8120,
  "\u2581element": 8121,
  "\u2581enpresyonan": 8122,
  "\u2581exclaimed": 8123,
  "\u2581fearful": 8124,
  "\u2581frustration": 8125,
  "\u2581guides": 8126,
  "\u2581ignorance": 8127,
  "\u2581injured": 8128,
  "\u2581jenn": 8129,
  "\u2581kalsy\u00f2m": 8130,
  "\u2581lacked": 8131,
  "\u2581latter": 8132,
  "\u2581mist\u00e8": 8133,
  "\u2581motivation": 8134,
  "\u2581online": 8135,
  "\u2581onorab": 8136,
  "\u2581ordinary": 8137,
  "\u2581organize": 8138,
  "\u2581petition": 8139,
  "\u2581planted": 8140,
  "\u2581pleases": 8141,
  "\u2581pl\u00e8n": 8142,
  "\u2581prevented": 8143,
  "\u2581ralanti": 8144,
  "\u2581rare": 8145,
  "\u2581refresh": 8146,
  "\u2581rejyon": 8147,
  "\u2581rem\u00e8d": 8148,
  "\u2581rightful": 8149,
  "\u2581rising": 8150,
  "\u2581santre": 8151,
  "\u2581searched": 8152,
  "\u2581severely": 8153,
  "\u2581shift": 8154,
  "\u2581successor": 8155,
  "\u2581systems": 8156,
  "\u2581teyat": 8157,
  "\u2581threaten": 8158,
  "\u2581tract": 8159,
  "\u2581unite": 8160,
  "\u2581unmarried": 8161,
  "\u2581vengeance": 8162,
  "\u2581vessels": 8163,
  "\u2581violate": 8164,
  "\u2581wholehearted": 8165,
  "\u2581\u00e8": 8166,
  "9": 8167,
  "At": 8168,
  "ious": 8169,
  "ish": 8170,
  "make": 8171,
  "nated": 8172,
  "nky\u00e8m": 8173,
  "\u2581*?": 8174,
  "\u25812.)": 8175,
  "\u2581Asaf": 8176,
  "\u2581COUN": 8177,
  "\u2581Claire": 8178,
  "\u2581ETIDY": 8179,
  "\u2581Five": 8180,
  "\u2581Full": 8181,
  "\u2581Lanm\u00e8": 8182,
  "\u2581Lanm\u00f2": 8183,
  "\u2581Miguel": 8184,
  "\u2581Nasyonzini": 8185,
  "\u2581ORIGIN": 8186,
  "\u2581Savior": 8187,
  "\u2581Together": 8188,
  "\u2581advantages": 8189,
  "\u2581ansuit": 8190,
  "\u2581antikris": 8191,
  "\u2581arises": 8192,
  "\u2581authorized": 8193,
  "\u2581avoka": 8194,
  "\u2581awaken": 8195,
  "\u2581bo": 8196,
  "\u2581camps": 8197,
  "\u2581chariot": 8198,
  "\u2581cited": 8199,
  "\u2581co": 8200,
  "\u2581combat": 8201,
  "\u2581considerate": 8202,
  "\u2581demanding": 8203,
  "\u2581disten": 8204,
  "\u2581earthquakes": 8205,
  "\u2581espiritis": 8206,
  "\u2581est": 8207,
  "\u2581favorite": 8208,
  "\u2581fen\u00e8t": 8209,
  "\u2581gout": 8210,
  "\u2581grip": 8211,
  "\u2581height": 8212,
  "\u2581honored": 8213,
  "\u2581honors": 8214,
  "\u2581hurled": 8215,
  "\u2581imitator": 8216,
  "\u2581income": 8217,
  "\u2581infant": 8218,
  "\u2581jen\u00f2m": 8219,
  "\u2581legally": 8220,
  "\u2581lifted": 8221,
  "\u2581magazen": 8222,
  "\u2581movement": 8223,
  "\u2581myosin": 8224,
  "\u2581n\u00e8g": 8225,
  "\u2581observance": 8226,
  "\u2581orijin": 8227,
  "\u2581plays": 8228,
  "\u2581positively": 8229,
  "\u2581pr": 8230,
  "\u2581press": 8231,
  "\u2581previous": 8232,
  "\u2581proverb": 8233,
  "\u2581pwofond\u00e8": 8234,
  "\u2581recommended": 8235,
  "\u2581remembers": 8236,
  "\u2581repeat": 8237,
  "\u2581resting": 8238,
  "\u2581reye": 8239,
  "\u2581route": 8240,
  "\u2581sedui": 8241,
  "\u2581seeds": 8242,
  "\u2581sel\u00e8b": 8243,
  "\u2581separasyon": 8244,
  "\u2581shock": 8245,
  "\u2581sizan": 8246,
  "\u2581skilled": 8247,
  "\u2581streets": 8248,
  "\u2581stumbled": 8249,
  "\u2581tiny": 8250,
  "\u2581t\u00e8s": 8251,
  "\u2581uttered": 8252,
  "\u2581vizit\u00e8": 8253,
  "\u2581v\u00e8syon": 8254,
  "\u2581window": 8255,
  "\u2581zep\u00f2l": 8256,
  "ARE": 8257,
  "After": 8258,
  "Lord": 8259,
  "Paske": 8260,
  "YEN": 8261,
  "every": 8262,
  "ga": 8263,
  "human": 8264,
  "non": 8265,
  "onore": 8266,
  "ris": 8267,
  "ske": 8268,
  "time": 8269,
  "vite": 8270,
  "\u00e8l": 8271,
  "\u00f2t": 8272,
  "\u2581101": 8273,
  "\u25811935": 8274,
  "\u258121.)": 8275,
  "\u2581Annatandan": 8276,
  "\u2581Antioch": 8277,
  "\u2581Barr": 8278,
  "\u2581Comfort": 8279,
  "\u2581Eduardo": 8280,
  "\u2581Etyopyen": 8281,
  "\u2581Eza": 8282,
  "\u2581F\u00f2": 8283,
  "\u2581HISTORY": 8284,
  "\u2581Kamelo": 8285,
  "\u2581Minor": 8286,
  "\u2581Naboth": 8287,
  "\u2581Paris": 8288,
  "\u2581Philistine": 8289,
  "\u2581Polish": 8290,
  "\u2581Sanhedrin": 8291,
  "\u2581Self": 8292,
  "\u2581Servant": 8293,
  "\u2581accordingly": 8294,
  "\u2581adversities": 8295,
  "\u2581anplas": 8296,
  "\u2581anplwaye": 8297,
  "\u2581auxiliary": 8298,
  "\u2581bigger": 8299,
  "\u2581chonje": 8300,
  "\u2581circumcision": 8301,
  "\u2581cleansing": 8302,
  "\u2581cling": 8303,
  "\u2581concept": 8304,
  "\u2581confusion": 8305,
  "\u2581cutting": 8306,
  "\u2581demonstrates": 8307,
  "\u2581desert": 8308,
  "\u2581equipment": 8309,
  "\u2581ex": 8310,
  "\u2581examined": 8311,
  "\u2581fonn": 8312,
  "\u2581forgives": 8313,
  "\u2581fy\u00e8te": 8314,
  "\u2581galope": 8315,
  "\u2581goute": 8316,
  "\u2581helpless": 8317,
  "\u2581justify": 8318,
  "\u2581kanta": 8319,
  "\u2581katran": 8320,
  "\u2581lid\u00e8": 8321,
  "\u2581listens": 8322,
  "\u2581maj": 8323,
  "\u2581mey\u00e8": 8324,
  "\u2581minen": 8325,
  "\u2581netralite": 8326,
  "\u2581oksily\u00e8": 8327,
  "\u2581oppressed": 8328,
  "\u2581participating": 8329,
  "\u2581prey": 8330,
  "\u2581provoked": 8331,
  "\u2581pr\u00e8": 8332,
  "\u2581psalms": 8333,
  "\u2581randevou": 8334,
  "\u2581reluctant": 8335,
  "\u2581roads": 8336,
  "\u2581scattered": 8337,
  "\u2581sede": 8338,
  "\u2581sentiments": 8339,
  "\u2581speed": 8340,
  "\u2581strese": 8341,
  "\u2581struggled": 8342,
  "\u2581tanta": 8343,
  "\u2581tenderly": 8344,
  "\u2581transf": 8345,
  "\u2581tribulations": 8346,
  "\u2581troubles": 8347,
  "\u2581t\u00f2": 8348,
  "\u2581unseen": 8349,
  "\u2581vanite": 8350,
  "\u2581vyey\u00e8s": 8351,
  "\u2581waited": 8352,
  "\u2581website": 8353,
  "\u2581wishes": 8354,
  "\u2581zewo": 8355,
  "Bon": 8356,
  "Lanmou": 8357,
  "Mete": 8358,
  "Pran": 8359,
  "Way\u00f2m": 8360,
  "age": 8361,
  "ance": 8362,
  "b\u00e8l": 8363,
  "che": 8364,
  "dren": 8365,
  "ence": 8366,
  "esizyon": 8367,
  "now": 8368,
  "ribinal": 8369,
  "\u258117)": 8370,
  "\u25811949": 8371,
  "\u258132]": 8372,
  "\u258152.": 8373,
  "\u258158.": 8374,
  "\u2581Al\u00f2ske": 8375,
  "\u2581Antonio": 8376,
  "\u2581DVD": 8377,
  "\u2581Days": 8378,
  "\u2581En": 8379,
  "\u2581Franz": 8380,
  "\u2581India": 8381,
  "\u2581Jah": 8382,
  "\u2581Jesse": 8383,
  "\u2581KOR": 8384,
  "\u2581Kore": 8385,
  "\u2581Long": 8386,
  "\u2581Lonn": 8387,
  "\u2581PRENSIP": 8388,
  "\u2581Pisans": 8389,
  "\u2581Place": 8390,
  "\u2581Pol\u00f2y": 8391,
  "\u2581Real": 8392,
  "\u2581Soti": 8393,
  "\u2581TEMWEN": 8394,
  "\u2581Verse": 8395,
  "\u2581WEEK": 8396,
  "\u2581alien": 8397,
  "\u2581anbl\u00e8m": 8398,
  "\u2581antouzyas": 8399,
  "\u2581author": 8400,
  "\u2581besides": 8401,
  "\u2581bisikl\u00e8t": 8402,
  "\u2581chen": 8403,
  "\u2581classmates": 8404,
  "\u2581collection": 8405,
  "\u2581commented": 8406,
  "\u2581comply": 8407,
  "\u2581contemplat": 8408,
  "\u2581contemporaries": 8409,
  "\u2581coping": 8410,
  "\u2581correctly": 8411,
  "\u2581covetousness": 8412,
  "\u2581declares": 8413,
  "\u2581describ": 8414,
  "\u2581devastating": 8415,
  "\u2581divisions": 8416,
  "\u2581egz\u00e8sis": 8417,
  "\u2581ekipe": 8418,
  "\u2581enpo": 8419,
  "\u2581exalt": 8420,
  "\u2581fatra": 8421,
  "\u2581flat": 8422,
  "\u2581founi": 8423,
  "\u2581frustrated": 8424,
  "\u2581harder": 8425,
  "\u2581imedyatman": 8426,
  "\u2581implied": 8427,
  "\u2581kontradiksyon": 8428,
  "\u2581liken": 8429,
  "\u2581loose": 8430,
[...]
