{
  "</s>": 0,
  "<unk>": 1,
  ".": 2,
  ",": 3,
  "\u2581the": 4,
  "s": 5,
  "\u2581to": 6,
  "-": 7,
  "\u2581of": 8,
  "'": 9,
  "\u2581eta": 10,
  "\u2581and": 11,
  "?": 12,
  "\u2581a": 13,
  "\u2581-": 14,
  "\u2581I": 15,
  "\u2581in": 16,
  "a": 17,
  ":": 18,
  "\u2581you": 19,
  "\u2581ez": 20,
  "\u2581da": 21,
  "!": 22,
  "\u2581that": 23,
  "\u2581is": 24,
  ";": 25,
  "\u2581it": 26,
  "\u2581\"": 27,
  "ak": 28,
  "\u2581bat": 29,
  "\u2581for": 30,
  "t": 31,
  "...": 32,
  "\u2581not": 33,
  "\u2581was": 34,
  "\u2581be": 35,
  "\u2581he": 36,
  "\u2581with": 37,
  "ren": 38,
  "en": 39,
  "\u2581on": 40,
  "ko": 41,
  "\u2581_": 42,
  "\u2581zuen": 43,
  "\u2581(": 44,
  ")": 45,
  "\u2581%": 46,
  "\u2581egin": 47,
  "\u2581as": 48,
  "\u2581this": 49,
  "\u2581ere": 50,
  "\u2581du": 51,
  "k": 52,
  "\u2581his": 53,
  "\u2581zen": 54,
  "\u2581The": 55,
  "\u2581have": 56,
  "n": 57,
  "\u2581are": 58,
  "\u2581me": 59,
  "\u2581Ez": 60,
  "z": 61,
  "\u2581at": 62,
  "\u2581izan": 63,
  "d": 64,
  "\u2581": 65,
  "\u2581all": 66,
  "\u2581from": 67,
  "\u2581or": 68,
  "\u2581by": 69,
  "aren": 70,
  "\u2581had": 71,
  "\u2581they": 72,
  "\u2581You": 73,
  "\u2581bere": 74,
  "\u2581my": 75,
  "\u2581him": 76,
  "\u2581your": 77,
  "rik": 78,
  "\u2581which": 79,
  "\u2581dut": 80,
  "\u2581behar": 81,
  "\u2581we": 82,
  "\u2581edo": 83,
  "\u2581but": 84,
  "\u2581her": 85,
  "\u2581'": 86,
  "e": 87,
  "\u2581one": 88,
  "\u2581can": 89,
  ".\"": 90,
  "\u2581nahi": 91,
  "\u2581will": 92,
  "m": 93,
  "ek": 94,
  "\u2581an": 95,
  "\u2581them": 96,
  "an": 97,
  "\u2581do": 98,
  "ri": 99,
  "\u2581so": 100,
  "_": 101,
  "\u2581And": 102,
  "re": 103,
  "/": 104,
  "ra": 105,
  "\u2581duzu": 106,
  "\u2581It": 107,
  "\u2581He": 108,
  "\u2581hori": 109,
  "\u2581baina": 110,
  "\u2581no": 111,
  "\u2581Eta": 112,
  "\u2581up": 113,
  "\u2581what": 114,
  "\u2581dira": 115,
  "\"": 116,
  "\u2581out": 117,
  "\u2581their": 118,
  "\u2581there": 119,
  "\u2581said": 120,
  "\u2581were": 121,
  "\u2581she": 122,
  "\u2581if": 123,
  "\u2581egiten": 124,
  "ing": 125,
  "\u2581know": 126,
  "\u2581when": 127,
  "\u2581who": 128,
  "\u2581dago": 129,
  "\u2581esan": 130,
  "\u2581den": 131,
  "\u2581hau": 132,
  "\u2581A": 133,
  "\u2581like": 134,
  "\u2581beste": 135,
  "\u2581would": 136,
  "\u2581has": 137,
  "\u2581more": 138,
  "\u2581about": 139,
  "ed": 140,
  "\u2581been": 141,
  "\u2581time": 142,
  "\u2581man": 143,
  "\u2581ari": 144,
  "\u2581What": 145,
  "\u2581But": 146,
  "ll": 147,
  "tik": 148,
  "\u2581don": 149,
  "\u2581here": 150,
  ",\"": 151,
  "\u2581Baina": 152,
  "\u2581baino": 153,
  "\u2581No": 154,
  "\u2581bezala": 155,
  "\u2581right": 156,
  "etan": 157,
  "\u2581zion": 158,
  "\u2581only": 159,
  "\u2581naiz": 160,
  "\u2581any": 161,
  "\u2581'%": 162,
  "\u2581We": 163,
  "\u2581go": 164,
  "\u2581This": 165,
  "\u2581Ezin": 166,
  "\u2581just": 167,
  "\u2581into": 168,
  "I": 169,
  "\u2581gabe": 170,
  "\u2581other": 171,
  "\u2581nire": 172,
  "y": 173,
  "\u2581see": 174,
  "\u2581ziren": 175,
  "\u2581nuen": 176,
  "ez": 177,
  "\u2581then": 178,
  "\u2581get": 179,
  "i": 180,
  "]": 181,
  "\u2581could": 182,
  "\u2581ezin": 183,
  "\u2581izango": 184,
  "\u2581us": 185,
  "ta": 186,
  "\u2581want": 187,
  "\u2581batean": 188,
  "\u2581zure": 189,
  "\u2581some": 190,
  "\u2581file": 191,
  "\u2581now": 192,
  "\u2581baten": 193,
  "\u2581[": 194,
  "\u2581Zer": 195,
  "\u2581our": 196,
  "\u2581should": 197,
  "tzen": 198,
  "ari": 199,
  "\u2581zuten": 200,
  "rekin": 201,
  "\u2581zer": 202,
  "\u2581name": 203,
  "\u2581than": 204,
  "\u2581If": 205,
  "ve": 206,
  "\u2581dute": 207,
  "\u2581zara": 208,
  "\u2581did": 209,
  "ei": 210,
  "\u2581down": 211,
  "\u2581good": 212,
  "r": 213,
  "\u2581Bai": 214,
  "\u2581dugu": 215,
  "\u2581back": 216,
  "\u2581dela": 217,
  "\u2581very": 218,
  "\u2581eman": 219,
  "tu": 220,
  "\u2581its": 221,
  "\u2581over": 222,
  "\u2581al": 223,
  "\u2581think": 224,
  "\u2581duen": 225,
  "\u2581bada": 226,
  "c": 227,
  "\u2581That": 228,
  "\u2581say": 229,
  "\u2581egingo": 230,
  "\u2581guztiak": 231,
  "ean": 232,
  "\u2581gero": 233,
  "\u2581got": 234,
  "\u2581bi": 235,
  "?\"": 236,
  "ly": 237,
  "\u2581make": 238,
  "\u2581must": 239,
  "\u2581may": 240,
  "\u2581these": 241,
  "\u2581those": 242,
  "\u2581come": 243,
  "\u2581two": 244,
  "\u2581way": 245,
  "\u2581gehiago": 246,
  "\u2581She": 247,
  "\u2581little": 248,
  "er": 249,
  "\u2581bai": 250,
  "\u2581same": 251,
  "\u2581They": 252,
  "\u2581people": 253,
  "\u2581In": 254,
  "\u2581before": 255,
  "\u2581haren": 256,
  "ekin": 257,
  "\u2581&": 258,
  "\u2581zituen": 259,
  "\u2581To": 260,
  "\u2581made": 261,
  "\u2581first": 262,
  "\u2581ditu": 263,
  "\u2581So": 264,
  "\u2581zegoen": 265,
  "\u2581ikusi": 266,
  "\u2581too": 267,
  "\u2581gure": 268,
  "esan": 269,
  "b": 270,
  "\u2581how": 271,
  "\u2581joan": 272,
  "\u2581hitz": 273,
  "\u2581ematen": 274,
  "\u2581uste": 275,
  "A": 276,
  "\u2581use": 277,
  "\u2581much": 278,
  "in": 279,
  "\u2581gauza": 280,
  "\u2581men": 281,
  "\u2581being": 282,
  "\u2581even": 283,
  "\u2581take": 284,
  "go": 285,
  "\u2581new": 286,
  "\u2581God": 287,
  "ik": 288,
  "\u2581never": 289,
  "\u2581oso": 290,
  "\u2581For": 291,
  "\u2581where": 292,
  "\u2581going": 293,
  "\u2581There": 294,
  "\u2581such": 295,
  "\u2581own": 296,
  "\u2581batek": 297,
  "\u2581shall": 298,
  "\u2581after": 299,
  "\u2581diren": 300,
  "\u2581hartu": 301,
  "\u2581bera": 302,
  "\u2581bakarrik": 303,
  "\u2581again": 304,
  "\u2581artean": 305,
  "Ez": 306,
  "\u2581because": 307,
  "o": 308,
  "\u2581need": 309,
  "\u2581hemen": 310,
  "\u2581things": 311,
  "\u2581hura": 312,
  "\u2581also": 313,
  "eko": 314,
  "\u2581does": 315,
  "\u2581without": 316,
  "tzeko": 317,
  "\u2581am": 318,
  "x": 319,
  "\u2581hain": 320,
  "\u2581\"%": 321,
  "\u2581zela": 322,
  "f": 323,
  "tan": 324,
  "\u2581day": 325,
  "\u2581asko": 326,
  "\u2581off": 327,
  "\u2581life": 328,
  "\u2581great": 329,
  "\u2581Do": 330,
  "ka": 331,
  "\u2581another": 332,
  "\u2581Oh": 333,
  "\u2581egon": 334,
  "\u2581window": 335,
  "era": 336,
  "\u2581All": 337,
  "\u2581dena": 338,
  "\u2581something": 339,
  "\u2581gisa": 340,
  "\u2581nik": 341,
  "\u2581well": 342,
  "p": 343,
  "\u2581came": 344,
  "l": 345,
  "g": 346,
  "ki": 347,
  "\u2581batera": 348,
  "\u2581arte": 349,
  "\u2581set": 350,
  "\u2581went": 351,
  "\u2581thing": 352,
  "S": 353,
  "\u2581still": 354,
  "\u2581utzi": 355,
  "\u2581upon": 356,
  "u": 357,
  "\u2581find": 358,
  "\u2581away": 359,
  "\u2581thought": 360,
  "\u2581himself": 361,
  "\u2581long": 362,
  "\u2581beren": 363,
  "\u2581through": 364,
  "\u2581orain": 365,
  "\u2581ezer": 366,
  "\u25811": 367,
  "es": 368,
  "\u2581nintzen": 369,
  "\u2581left": 370,
  "!\"": 371,
  "\u2581last": 372,
  "\u2581nola": 373,
  "\u2581every": 374,
  "\u2581used": 375,
  "\u2581izena": 376,
  "al": 377,
  "\u2581let": 378,
  "\u2581ni": 379,
  "\u2581nothing": 380,
  "\u2581list": 381,
  "\u2581Yeah": 382,
  "\u2581ondoren": 383,
  "\u2581When": 384,
  "\u2581baita": 385,
  "\u2581ahal": 386,
  "\u2581most": 387,
  "\u2581give": 388,
  "la": 389,
  "\u2581found": 390,
  "\u2581Then": 391,
  "\u2581put": 392,
  "\u2581might": 393,
  "\u2581aurkitu": 394,
  "\u2581horiek": 395,
  "\u2581tell": 396,
  "\u2581old": 397,
  "\u2581Mr": 398,
  "tako": 399,
  "\u2581each": 400,
  "\u2581E": 401,
  "\u2581beti": 402,
  "\u2581love": 403,
  "\u2581always": 404,
  "\u2581berriro": 405,
  "\u2581jauna": 406,
  "\u2581Well": 407,
  "\u2581batzuk": 408,
  "\u2581non": 409,
  "\u2581didn": 410,
  "\u2581S": 411,
  "\u2581Yes": 412,
  "\u2581lehen": 413,
  "\u2581berri": 414,
  "\u2581GNOME": 415,
  "\u2581alde": 416,
  "\u2581Nire": 417,
  "\u2581many": 418,
  "C": 419,
  "tzat": 420,
  "\u2581bizi": 421,
  "\u2581key": 422,
  "\u2581hasi": 423,
  "\u2581How": 424,
  "\u2581work": 425,
  "\u2581place": 426,
  "\u2581look": 427,
  "\u2581under": 428,
  "\u2581while": 429,
  "\u2581berriz": 430,
  "\u2581My": 431,
  "\u2581hil": 432,
  "\u2581beharko": 433,
  "\u2581dizut": 434,
  "\u2581egiteko": 435,
  "\u2581hand": 436,
  "to": 437,
  "\u2581K": 438,
  "\u2581gizon": 439,
  "\u2581batez": 440,
  "\u2581zerbait": 441,
  "\u2581gara": 442,
  "\u2581Zure": 443,
  "B": 444,
  "\u2581really": 445,
  "\u2581C": 446,
  "\u2581honetan": 447,
  "\u2581gainean": 448,
  "\u2581hala": 449,
  "\u2581O": 450,
  "\u2581number": 451,
  "\u2581files": 452,
  "\u2581Now": 453,
  "\u2581Hori": 454,
  "\u2581open": 455,
  "\u2581fitxategia": 456,
  "arekin": 457,
  "or": 458,
  "\u2581world": 459,
  "\u2581zu": 460,
  "tzea": 461,
  "\u2581burua": 462,
  "\u2581esaten": 463,
  "\u2581duten": 464,
  "te": 465,
  "\u2581against": 466,
  "\u2581etorri": 467,
  "\u2581fitxategi": 468,
  "2": 469,
  "\u2581sartu": 470,
  "\u2581Don": 471,
  "\u2581Hautatu": 472,
  "etako": 473,
  "\u2581aukera": 474,
  "\u2581size": 475,
  "\u2581horren": 476,
  "\u2581zaude": 477,
  "\u2581baduzu": 478,
  "on": 479,
  "\u2581Could": 480,
  "\u2581besterik": 481,
  "az": 482,
  "\u2581baizik": 483,
  "\u2581berria": 484,
  "\u2581message": 485,
  "D": 486,
  "\u2581horrek": 487,
  "\u2581yet": 488,
  "\u2581house": 489,
  "M": 490,
  "\u2581image": 491,
  "\u2581ezta": 492,
  "\u2581cannot": 493,
  "\u2581three": 494,
  "\u2581folder": 495,
  "\u2581eyes": 496,
  "\u2581ondo": 497,
  "\u2581zuela": 498,
  "\u2581jakin": 499,
  "\u2581jarri": 500,
  "\u2581gonna": 501,
  "\u2581part": 502,
  "\u2581ote": 503,
  "\u2581klik": 504,
  "\u2581Hau": 505,
  "\u2581honek": 506,
  "\u2581Show": 507,
  "\u2581zitzaion": 508,
  "\u2581ba": 509,
  "zko": 510,
  "\u2581dio": 511,
  "\u2581night": 512,
  "\u2581Erakutsi": 513,
  "\u2581berak": 514,
  "\u2581orduan": 515,
  "ro": 516,
  "\u2581face": 517,
  "\u2581guztia": 518,
  "is": 519,
  "\u2581Come": 520,
  "\u2581ikusten": 521,
  "\u2581sure": 522,
  "\u2581anything": 523,
  "\u2581Select": 524,
  "\u2581dagoen": 525,
  "\u2581nor": 526,
  "\u2581nago": 527,
  "\u2581de": 528,
  "\u2581ever": 529,
  "\u2581gertatu": 530,
  "\u2581egun": 531,
  "\u2581OF": 532,
  "\u2581ongi": 533,
  "rako": 534,
  "\u2581Why": 535,
  "\u2581mean": 536,
  "\u2581ala": 537,
  "\u2581arabera": 538,
  "\u2581Let": 539,
  "\u2581head": 540,
  "\u2581help": 541,
  "\u2581Errorea": 542,
  "\u2581between": 543,
  "le": 544,
  "\u2581buruz": 545,
  "\u2581already": 546,
  "\u2581whole": 547,
  "\u2581azken": 548,
  "\u2581atera": 549,
  "\u2581bertan": 550,
  "\u2581told": 551,
  "\u2581took": 552,
  "\u2581aurrean": 553,
  "\u2581mind": 554,
  "\u2581end": 555,
  "Bai": 556,
  "\u2581home": 557,
  "\u2581Please": 558,
  "O": 559,
  "\u25812": 560,
  "\u2581laster": 561,
  "\u2581zidan": 562,
  "etik": 563,
  "\u2581hauek": 564,
  "\u2581horrela": 565,
  "\u2581nion": 566,
  "\u2581izatea": 567,
  "E": 568,
  "\u2581inoiz": 569,
  "\u2581saw": 570,
  "\u2581han": 571,
  "\u2581s": 572,
  "th": 573,
  "\u2581X": 574,
  "\u2581Your": 575,
  "\u2581ditut": 576,
  "\u2581duela": 577,
  "\u2581once": 578,
  "\u2581itself": 579,
  "\u2581Error": 580,
  "\u2581done": 581,
  "\u2581better": 582,
  "\u2581years": 583,
  "\u2581zein": 584,
  "\u2581selected": 585,
  "\u2581As": 586,
  "\u2581denbora": 587,
  "\u2581next": 588,
  "\u2581though": 589,
  "\u2581daude": 590,
  "\u2581around": 591,
  "\u2581game": 592,
  "\u2581Evolution": 593,
  "\u2581beraz": 594,
  "\u2581New": 595,
  "\u2581haien": 596,
  "ia": 597,
  "\u2581far": 598,
  "\u2581ona": 599,
  "gatik": 600,
  "K": 601,
  "\u2581called": 602,
  "\u2581having": 603,
  "\u2581true": 604,
  "3": 605,
  "\u2581erabili": 606,
  "\u2581erabiltzen": 607,
  "h": 608,
  "\u2581Nik": 609,
  "\u2581text": 610,
  "\u2581power": 611,
  "\u2581move": 612,
  "\u2581reason": 613,
  "\u2581lan": 614,
  "\u2581room": 615,
  "\u2581ko": 616,
  "\u2581bidez": 617,
  "\u2581data": 618,
  "\u2581Go": 619,
  "\u2581oraindik": 620,
  "\u2581neure": 621,
  "\u2581asked": 622,
  "\u2581jo": 623,
  "\u2581both": 624,
  "\u2581doing": 625,
  "%": 626,
  "\u2581berean": 627,
  "\u2581daiteke": 628,
  "\u2581handia": 629,
  "\u2581duzun": 630,
  "\u2581Not": 631,
  "da": 632,
  "T": 633,
  "\u2581father": 634,
  "\u2581(%": 635,
  "\u2581eraman": 636,
  "\u2581zituzten": 637,
  "\u2581gertatzen": 638,
  "\u2581myself": 639,
  "\u2581karpeta": 640,
  "\u2581call": 641,
  "\u2581why": 642,
  "\u2581dakit": 643,
  "\u2581horretan": 644,
  "\u2581zuk": 645,
  "\u2581type": 646,
  "\u2581color": 647,
  "ena": 648,
  "\u2581bezain": 649,
  "\u2581zerrenda": 650,
  "\u2581THE": 651,
  "\u2581kind": 652,
  "\u2581Zergatik": 653,
  "\u2581entzun": 654,
  "na": 655,
  "\u2581show": 656,
  "\u2581Are": 657,
  "\u2581en": 658,
  "\u2581balio": 659,
  "\u2581son": 660,
  "\u2581e": 661,
  "tze": 662,
  "\u2581current": 663,
  "\u2581/": 664,
  "You": 665,
  "\u2581hartan": 666,
  "\u2581hartzen": 667,
  "\u2581enough": 668,
  "\u2581mota": 669,
  "eta": 670,
  "\u2581B": 671,
  "\u2581menu": 672,
  "\u2581karta": 673,
  "\u2581His": 674,
  "\u2581side": 675,
  "\u2581honen": 676,
  "\u2581G": 677,
  "\u2581behin": 678,
  "\u2581sortu": 679,
  "\u2581aurretik": 680,
  "\u2581themselves": 681,
  "\u2581looked": 682,
  "\u2581Hey": 683,
  "\u2581different": 684,
  "\u2581urte": 685,
  "\u2581value": 686,
  "\u2581era": 687,
  "it": 688,
  "\u2581Bi": 689,
  "\u2581heard": 690,
  "\u2581Ni": 691,
  "P": 692,
  "\u2581information": 693,
  "\u2581together": 694,
  "\u2581dituzu": 695,
  "\u2581Egin": 696,
  "\u2581bati": 697,
  "\u2581mother": 698,
  "\u2581Bere": 699,
  "\u2581aldatu": 700,
  "\u2581soilik": 701,
  "\u2581batekin": 702,
  "etatik": 703,
  "\u2581diot": 704,
  "\u2581dezakezu": 705,
  "\u2581word": 706,
  "\u2581Orain": 707,
  "\u2581ordea": 708,
  "\u2581days": 709,
  "ok": 710,
  "\u2581handi": 711,
  "1": 712,
  "\u2581hor": 713,
  "\u2581behera": 714,
  "\u2581Oso": 715,
  "@": 716,
  "\u2581bakarra": 717,
  "\u2581given": 718,
  "\u2581baldin": 719,
  "\u2581door": 720,
  "no": 721,
  "tzera": 722,
  "\u2581izaten": 723,
  "\u2581egia": 724,
  "R": 725,
  "\u2581woman": 726,
  "\u2581everything": 727,
  "\u2581LORD": 728,
  "etara": 729,
  "man": 730,
  "\u2581nature": 731,
  "\u2581Beste": 732,
  "\u2581begira": 733,
  "\u2581Can": 734,
  "lo": 735,
  "\u2581hiru": 736,
  "N": 737,
  "\u2581osoa": 738,
  "\u2581halako": 739,
  "\u2581course": 740,
  "de": 741,
  "\u2581Orduan": 742,
  "\u2581money": 743,
  "\u2581At": 744,
  "\u2581order": 745,
  "\u2581believe": 746,
  "\u2581direla": 747,
  "\u2581EDO": 748,
  "\u2581un": 749,
  "\u2581keep": 750,
  "\u2581Okay": 751,
  "\u2581Where": 752,
  "\u2581words": 753,
  "\u2581either": 754,
  "\u2581few": 755,
  "\u2581body": 756,
  "\u2581seen": 757,
  "\u2581moment": 758,
  "Zer": 759,
  "G": 760,
  "and": 761,
  "\u2581D": 762,
  "\u2581knew": 763,
  "\u2581others": 764,
  "txo": 765,
  "\u2581dituen": 766,
  "\u2581izateko": 767,
  "L": 768,
  "\u2581bide": 769,
  "\u2581read": 770,
  "\u2581young": 771,
  "\u2581haiek": 772,
  "\u2581start": 773,
  "\u2581huts": 774,
  "\u2581option": 775,
  "\u2581change": 776,
  "\u2581gave": 777,
  "\u2581command": 778,
  "\u2581idea": 779,
  "\u2581following": 780,
  "\u2581hear": 781,
  "\u2581M": 782,
  "\u2581system": 783,
  "\u2581bila": 784,
  "\u2581F": 785,
  "us": 786,
  "\u2581P": 787,
  "\u2581ireki": 788,
  "\u2581server": 789,
  "F": 790,
  "\u2581ezagutzen": 791,
  "\u2581ia": 792,
  "\u2581error": 793,
  "tasun": 794,
  "\u2581itzuli": 795,
  "\u2581object": 796,
  "\u2581On": 797,
  "\u2581leave": 798,
  "\u2581gabeko": 799,
  "\u2581%1$": 800,
  "\u2581egongo": 801,
  "\u2581Ongi": 802,
  "\u2581king": 803,
  "\u2581since": 804,
  "\u2581egoera": 805,
  "\u2581...": 806,
  "\u2581case": 807,
  "\u2581bitartean": 808,
  "\u2581saying": 809,
  "\u2581line": 810,
  "\u2581argi": 811,
  "\u2581hands": 812,
  "\u2581esku": 813,
  "\u2581gora": 814,
  "du": 815,
  "\u2581nahiz": 816,
  "\u2581talk": 817,
  "\u25813": 818,
  "\u2581Get": 819,
  "\u2581dituzte": 820,
  "\u2581user": 821,
  "\u2581zait": 822,
  "\u2581egitea": 823,
  "\u2581understand": 824,
  "\u2581moduan": 825,
  "\u2581gainera": 826,
  "izena": 827,
  "\u2581whom": 828,
  "\u2581File": 829,
  "\u2581heart": 830,
  "5": 831,
  "\u2581Just": 832,
  "ga": 833,
  "\u2581Whether": 834,
  "ac": 835,
  "\u2581hautatu": 836,
  "\u2581edozein": 837,
  "\u2581ezazu": 838,
  "\u2581zuzen": 839,
  "\u2581else": 840,
  "\u2581begiratu": 841,
  "\u2581i": 842,
  "\u2581kontra": 843,
  "ago": 844,
  "ti": 845,
  "\u2581won": 846,
  "\u2581whether": 847,
  "\u2581erantzun": 848,
  "\u2581duzue": 849,
  "co": 850,
  "\u2581coming": 851,
  "\u2581%2$": 852,
  "\u2581aurrera": 853,
  "\u2581zioten": 854,
  "\u2581elkarrizketa": 855,
  "\u2581Erabili": 856,
  "\u2581One": 857,
  "\u2581feel": 858,
  "\u2581T": 859,
  "\u2581Use": 860,
  "\u2581OR": 861,
  "\u2581ohi": 862,
  "\u2581play": 863,
  "koa": 864,
  "\u2581zeuden": 865,
  "\u2581therefore": 866,
  "\u2581death": 867,
  "\u2581Ba": 868,
  "\u2581tamaina": 869,
  "\u2581zeren": 870,
  "ba": 871,
  "\u2581Open": 872,
  "\u2581fitxategiak": 873,
  "H": 874,
  "\u2581Good": 875,
  "\u2581white": 876,
  "\u2581view": 877,
  "\u2581certain": 878,
  "the": 879,
  "\u2581hark": 880,
  "\u2581possible": 881,
  "\u2581adierazten": 882,
  "\u2581live": 883,
  "\u2581ideia": 884,
  ":%": 885,
  "\u2581Who": 886,
  "\u2581best": 887,
  "\u2581Esan": 888,
  "\u2581matter": 889,
  "\u2581point": 890,
  "\u2581please": 891,
  "\u2581duk": 892,
  "\u2581children": 893,
  "\u2581sent": 894,
  "\u2581aldiz": 895,
  "\u2581gai": 896,
  "\u2581aita": 897,
  "\u2581state": 898,
  "\u2581bidali": 899,
  "\u2581card": 900,
  "\u2581zenuen": 901,
  "\u2581sir": 902,
  "\u2581Add": 903,
  "\u2581Fitxategi": 904,
  "\u2581lagun": 905,
  "\u2581die": 906,
  "\u2581maite": 907,
  "\u2581Tom": 908,
  "tasuna": 909,
  "\u2581irudi": 910,
  "\u2581until": 911,
  "\u2581uneko": 912,
  "\u2581ask": 913,
  "\u2581quite": 914,
  "\u2581account": 915,
  "\u2581alone": 916,
  "\u2581esker": 917,
  "\u2581zaio": 918,
  "\u2581badu": 919,
  "\u2581duena": 920,
  "\u2581geratu": 921,
  "ma": 922,
  "\u2581dead": 923,
  "\u2581means": 924,
  "\u2581girl": 925,
  "\u2581izen": 926,
  "\u2581light": 927,
  "\u2581least": 928,
  "\u2581\u266a": 929,
  "\u2581kopurua": 930,
  "\u2581Ondo": 931,
  "\u2581leku": 932,
  "\u2581rest": 933,
  "\u2581taken": 934,
  "\u2581run": 935,
  "\u2581application": 936,
  "\u2581wanted": 937,
  "\u2581Nola": 938,
  "\u2581An": 939,
  "\u2581zien": 940,
  "\u2581Beraz": 941,
  "\u2581bizitza": 942,
  "\u2581action": 943,
  "\u2581default": 944,
  "\u2581zuri": 945,
  "\u2581mode": 946,
  "4": 947,
  "\u2581ibili": 948,
  "),": 949,
  "bi": 950,
  "\u2581Hemen": 951,
  "City": 952,
  "\u2581soon": 953,
  "\u2581eduki": 954,
  "\u2581Hala": 955,
  "\u2581friend": 956,
  "\u2581onartzen": 957,
  "\u2581morning": 958,
  "\u2581display": 959,
  "\u2581iritsi": 960,
  "\u2581full": 961,
  "\u2581pentsatu": 962,
  "\u2581button": 963,
  "do": 964,
  "\u2581label": 965,
  "\u2581arren": 966,
  "\u2581black": 967,
  "\u2581using": 968,
  "\u2581present": 969,
  "\u2581sorry": 970,
  "\u2581bota": 971,
  "\u2581free": 972,
  "\u2581says": 973,
  "\u2581Zu": 974,
  "\u2581k": 975,
  "\u2581less": 976,
  "\u2581law": 977,
  "\u2581able": 978,
  "\u2581create": 979,
  "\u2581turned": 980,
  "\u2581nuke": 981,
  "\u2581genuen": 982,
  "\u2581gako": 983,
  "\u2581brought": 984,
  "\u2581aldi": 985,
  "\u2581seme": 986,
  "be": 987,
  "\u2581search": 988,
  "\u2581hautatutako": 989,
  "\u2581zaitut": 990,
  "\u2581irudia": 991,
  "\u2581buruzko": 992,
  "\u2581dudan": 993,
  "\u2581kgm": 994,
  "\u2581looking": 995,
  "\u2581lo": 996,
  "\u2581gorde": 997,
  "\u2581Name": 998,
  "\u2581modu": 999,
  "\u2581une": 1000,
  "\u2581seemed": 1001,
  "\u2581emango": 1002,
  "\u2581re": 1003,
  "ic": 1004,
  "\u2581dit": 1005,
  "\u2581batetik": 1006,
  "\u2581four": 1007,
  "tza": 1008,
  "\u2581zergatik": 1009,
  "\u2581voice": 1010,
  "\u2581leiho": 1011,
  "\u2581Huts": 1012,
  "\u2581Izan": 1013,
  "+": 1014,
  "\u2581Look": 1015,
  "\u2581GNU": 1016,
  "ers": 1017,
  "\u2581speak": 1018,
  "\u2581H": 1019,
  "\u2581address": 1020,
  "\u2581table": 1021,
  "\u2581galdu": 1022,
  "Y": 1023,
  "\u2581bete": 1024,
  "\u2581Gero": 1025,
  "\u2581didazu": 1026,
  "\u2581Jesus": 1027,
  "\u2581version": 1028,
  "\u2581real": 1029,
  "\u2581paper": 1030,
  "able": 1031,
  "\u2581bad": 1032,
  "\u2581wife": 1033,
  "\u2581ama": 1034,
  "\u2581esango": 1035,
  "\u2581txiki": 1036,
  "\u2581gutxi": 1037,
  "\u2581available": 1038,
  "\u2581rather": 1039,
  "\u2581omen": 1040,
  "\u2581save": 1041,
  "\u2581second": 1042,
  "\u2581idatzi": 1043,
  "\u2581select": 1044,
  "\u2581happened": 1045,
  "\u2581La": 1046,
  "\u2581doesn": 1047,
  "\u2581--": 1048,
  "\u2581heldu": 1049,
  "\u2581kendu": 1050,
  "\u2581neska": 1051,
  "\u2581emakume": 1052,
  "\u2581hainbat": 1053,
  "\u2581kolore": 1054,
  "\u2581felt": 1055,
  "keta": 1056,
  "\u2581sentitzen": 1057,
  "men": 1058,
  "\u2581x": 1059,
  "pa": 1060,
  "\u2581Gehitu": 1061,
  "\u2581truth": 1062,
  "\u2581cards": 1063,
  "\u2581jartzen": 1064,
  "\u2581zain": 1065,
  "\u2581ANY": 1066,
  "\u2581Thank": 1067,
  "\u2581badago": 1068,
  "\u2581copy": 1069,
  "\u2581choose": 1070,
  "\u2581<": 1071,
  "\u2581try": 1072,
  "\u2581jaso": 1073,
  "\u2581arteko": 1074,
  "\u2581Failed": 1075,
  "What": 1076,
  "\u2581water": 1077,
  "\u2581zeukan": 1078,
  "lu": 1079,
  "\u2581itxura": 1080,
  "\u2581dialog": 1081,
  "\u2581Nor": 1082,
  "entzat": 1083,
  ").": 1084,
  "\u2581directory": 1085,
  "\u2581panel": 1086,
  "\u2581land": 1087,
  "\u2581gaur": 1088,
  "\u2581dizu": 1089,
  "\u2581times": 1090,
  "ton": 1091,
  "\u2581denean": 1092,
  "w": 1093,
  "\u2581almost": 1094,
  "\u2581among": 1095,
  "\u2581duzula": 1096,
  "\u2581erre": 1097,
  "\u2581maila": 1098,
  "\u2581n": 1099,
  "\u2581Cannot": 1100,
  "\u2581pantaila": 1101,
  "rak": 1102,
  "\u2581Me": 1103,
  "riko": 1104,
  "\u2581beharra": 1105,
  "\u2581country": 1106,
  "\u2581Or": 1107,
  "\u2581sortzen": 1108,
  "\u2581gelditu": 1109,
  "\u2581hona": 1110,
  "at": 1111,
  "\u2581erakutsi": 1112,
  "\u2581lortu": 1113,
  "\u2581zaitez": 1114,
  "\u2581ondoan": 1115,
  "\u2581lot": 1116,
  "\u2581lost": 1117,
  "\u2581later": 1118,
  "\u2581hope": 1119,
  "\u2581Foundation": 1120,
  "ten": 1121,
  "\u2581person": 1122,
  "\u2581Lord": 1123,
  "\u2581big": 1124,
  "\u2581form": 1125,
  "\u2581Here": 1126,
  "\u2581add": 1127,
  "\u2581top": 1128,
  "\u2581empty": 1129,
  "\u2581%1": 1130,
  "\u2581DOCUMENT": 1131,
  "\u2581Free": 1132,
  "\u2581U": 1133,
  "\u2581Kaixo": 1134,
  "\u2581half": 1135,
  "The": 1136,
  "\u2581CD": 1137,
  "\u2581R": 1138,
  "\u2581remember": 1139,
  "\u2581wrong": 1140,
  "\u2581gain": 1141,
  "\u2581small": 1142,
  "me": 1143,
  "\u2581lau": 1144,
  "\u2581self": 1145,
  "\u2581gone": 1146,
  "\u2581hard": 1147,
  "\u2581diozu": 1148,
  "\u2581erabiltzaile": 1149,
  "\u2581dauden": 1150,
  "\u2581jarraitu": 1151,
  "\u2581zati": 1152,
  "\u2581war": 1153,
  "\u2581yourself": 1154,
  "li": 1155,
  "ness": 1156,
  "\u2581Gorde": 1157,
  "\u2581messages": 1158,
  "\u2581Ireki": 1159,
  "\u2581longer": 1160,
  "\u2581document": 1161,
  "\u2581knowledge": 1162,
  "\u2581dituzten": 1163,
  "ion": 1164,
  "\u2581denak": 1165,
  "\u2581mezu": 1166,
  "\u2581Move": 1167,
  "\u2581ikus": 1168,
  "v": 1169,
  "\u2581care": 1170,
  "\u2581began": 1171,
  "\u2581letra": 1172,
  ">": 1173,
  "\u2581kontu": 1174,
  "\u2581Non": 1175,
  "It": 1176,
  "\u2581Ikusi": 1177,
  "\u2581sort": 1178,
  "il": 1179,
  "U": 1180,
  "\u2581family": 1181,
  "\u2581fact": 1182,
  "\u2581Gure": 1183,
  "\u2581kolorea": 1184,
  "\u2581along": 1185,
  "\u2581baitan": 1186,
  "\u2581eskatu": 1187,
  "\u2581benetan": 1188,
  "And": 1189,
  "\u2581human": 1190,
  "\u2581balitz": 1191,
  "\u2581dauka": 1192,
  "\u2581bit": 1193,
  "\u2581Joan": 1194,
  "\u2581become": 1195,
  "\u2581hari": 1196,
  "\u2581city": 1197,
  "\u2581erakusten": 1198,
  "\u2581King": 1199,
  "\u2581ordu": 1200,
  "\u2581click": 1201,
  "pe": 1202,
  "\u2581takes": 1203,
  "\u2581erabat": 1204,
  "\u2581password": 1205,
  "\u2581uzten": 1206,
  "\u2581fine": 1207,
  "\u2581item": 1208,
  "\u258110": 1209,
  "\u2581bring": 1210,
  "\u2581okay": 1211,
  "\u2581eginez": 1212,
  "\u2581gu": 1213,
  "ce": 1214,
  "\u2581buru": 1215,
  "\u2581litzateke": 1216,
  "\u2581Click": 1217,
  "\u2581car": 1218,
  "\u2581options": 1219,
  "\u2581zenbait": 1220,
  "\u2581turn": 1221,
  "\u2581behind": 1222,
  "\u2581however": 1223,
  "\u2581book": 1224,
  "\u2581wait": 1225,
  "\u2581berehala": 1226,
  "gt": 1227,
  "\u2581Set": 1228,
  "\u2581o": 1229,
  "\u2581galdetu": 1230,
  "\u2581thus": 1231,
  "he": 1232,
  "ation": 1233,
  "\u2581deitu": 1234,
  "\u2581espero": 1235,
  "\u2581stop": 1236,
  "\u2581Sartu": 1237,
  "\u2581whose": 1238,
  "\u2581known": 1239,
  "\u2581V": 1240,
  "\u2581Right": 1241,
  "\u2581boy": 1242,
  "\u2581position": 1243,
  "\u2581above": 1244,
  "\u2581tekla": 1245,
  "\u2581names": 1246,
  "\u2581ditugu": 1247,
  "tsu": 1248,
  "\u2581space": 1249,
  "\u2581lege": 1250,
  "Eta": 1251,
  "\u2581child": 1252,
  "--": 1253,
  "rek": 1254,
  "\u2581Hi": 1255,
  "\u2581etxera": 1256,
  "\u2581often": 1257,
  "\u2581d": 1258,
  "po": 1259,
  "\u2581agindu": 1260,
  "6": 1261,
  "\u2581License": 1262,
  "\u2581Tira": 1263,
  "\u2581joango": 1264,
  "\u2581dagoela": 1265,
  "\u2581source": 1266,
  "\u2581baitzen": 1267,
  "\u2581guztien": 1268,
  "ar": 1269,
  "\u2581informazioa": 1270,
  "\u2581five": 1271,
  "\u2581begi": 1272,
  "\u2581Re": 1273,
  "\u2581inork": 1274,
  "\u2581agian": 1275,
  "\u2581year": 1276,
  "as": 1277,
  "tua": 1278,
  "\u2581friends": 1279,
  "\u2581herri": 1280,
  "\u2581Software": 1281,
  "\u2581mila": 1282,
  "dun": 1283,
  "\u2581mezua": 1284,
  "\u2581failed": 1285,
  "\u2581aurreko": 1286,
  "Name": 1287,
  "\u2581round": 1288,
  "\u2581Create": 1289,
  "\u2581check": 1290,
  "\u2581lehenetsia": 1291,
  "\u2581zirela": 1292,
  "am": 1293,
  "ch": 1294,
  "\u2581close": 1295,
  "ne": 1296,
  "\u25810": 1297,
  "\u2581daitezke": 1298,
  "\u2581har": 1299,
  "\u2581Sortu": 1300,
  "\u2581ginen": 1301,
  "\u2581getting": 1302,
  "ela": 1303,
  "\u2581tresna": 1304,
  "\u2581prest": 1305,
  "\u2581Barkatu": 1306,
  "png": 1307,
  "\u2581Save": 1308,
  "\u2581brother": 1309,
  "\u2581high": 1310,
  "\u2581ezarri": 1311,
  "\u2581errege": 1312,
  "ter": 1313,
  "\u2581zaizu": 1314,
  "\u2581agertzen": 1315,
  "di": 1316,
  "\u2581daukat": 1317,
  "\u2581Aldatu": 1318,
  "\u2581Horrela": 1319,
  "\u2581character": 1320,
  "\u2581falta": 1321,
  "\u2581ekarri": 1322,
  "\u2581soul": 1323,
  "\u2581mail": 1324,
  "\u2581nituen": 1325,
  "\u2581pertsona": 1326,
  "\u2581niri": 1327,
  "\u2581wasn": 1328,
  "el": 1329,
  "\u25815": 1330,
  "\u2581EZ": 1331,
  "\u2581keys": 1332,
  "\u2581area": 1333,
  "\u2581irten": 1334,
  "\u2581bed": 1335,
  "No": 1336,
  "\u2581sound": 1337,
  "so": 1338,
  "est": 1339,
  "\u2581hamar": 1340,
  "\u2581jende": 1341,
  "\u2581bateko": 1342,
  "\u2581talking": 1343,
  "\u2581inor": 1344,
  "=": 1345,
  "\u2581iruditzen": 1346,
  "\u25814": 1347,
  "\u2581N": 1348,
  "\u2581General": 1349,
  "\u2581Of": 1350,
  "\u2581Be": 1351,
  "\u2581making": 1352,
  "\u2581L": 1353,
  "\u2581aurka": 1354,
  "\u2581sense": 1355,
  "\u2581sekula": 1356,
  "\u2581pentsatzen": 1357,
  "\u2581gauzak": 1358,
  "\u2581write": 1359,
  "\u2581trying": 1360,
  "\u2581Christ": 1361,
  "\u2581ihes": 1362,
  "\u2581De": 1363,
  "\u2581pila": 1364,
  "\u2581Zuk": 1365,
  "\u2581ulertzen": 1366,
  "\u2581send": 1367,
  "ke": 1368,
  "\u2581cause": 1369,
  "ry": 1370,
  "mi": 1371,
  "\u2581aski": 1372,
  "\u2581etxe": 1373,
  "\u2581atzera": 1374,
  "\u2581ideas": 1375,
  "\u2581zehar": 1376,
  "\u2581zenean": 1377,
  "gu": 1378,
  "\u2581Y": 1379,
  "zio": 1380,
  "\u2581ekintza": 1381,
  "\u2581general": 1382,
  "\u2581wish": 1383,
  "\u2581saiatu": 1384,
  "\u2581By": 1385,
  "\u2581inguruan": 1386,
  "\u2581aukerak": 1387,
  "\u2581bakar": 1388,
  "REN": 1389,
  "ur": 1390,
  "\u2581hundred": 1391,
  "image": 1392,
  "\u2581erdi": 1393,
  "\u2581Mrs": 1394,
  "\u2581software": 1395,
  "\u2581aurkitzen": 1396,
  "\u2581location": 1397,
  "\u2581erabiltzeko": 1398,
  "\u2581View": 1399,
  "\u2581several": 1400,
  "\u2581sartzen": 1401,
  "\u2581format": 1402,
  "\u2581ready": 1403,
  "V": 1404,
  "\u2581Search": 1405,
  "\u2581Did": 1406,
  "\u2581These": 1407,
  "\u2581gaizki": 1408,
  "\u2581garbi": 1409,
  "garria": 1410,
  "for": 1411,
  "\u2581bilaketa": 1412,
  "\u2581page": 1413,
  "\u2581Goazen": 1414,
  "\u2581perhaps": 1415,
  "\u2581Unable": 1416,
  "\u2581horri": 1417,
  "optional": 1418,
  "\u2581front": 1419,
  "mo": 1420,
  "\u2581air": 1421,
  "\u2581guztiz": 1422,
  "\u2581hold": 1423,
  "\u2581women": 1424,
  "\u2581natural": 1425,
  "\u2581md": 1426,
  "bo": 1427,
  "\u2581process": 1428,
  "\u2581aukeratu": 1429,
  "\u2581Lizentzia": 1430,
  "\u2581field": 1431,
  "figures": 1432,
  "\u2581Uste": 1433,
  "\u2581Israel": 1434,
  "\u2581atsegin": 1435,
  "up": 1436,
  "\u2581kill": 1437,
  "\u2581ezezaguna": 1438,
  "\u2581fire": 1439,
  "\u2581Dena": 1440,
  "\u2581From": 1441,
  "raino": 1442,
  "\u2581Key": 1443,
  "\u2581wouldn": 1444,
  "\u2581within": 1445,
  "\u2581San": 1446,
  "\u2581business": 1447,
  "\u2581program": 1448,
  "\u2581joaten": 1449,
  "\u2581eskatzen": 1450,
  "\u2581kanpo": 1451,
  "\u2581des": 1452,
  "\u2581euren": 1453,
  "\u2581Ezarri": 1454,
  "\u2581stood": 1455,
  "\u2581ten": 1456,
  "\u2581herself": 1457,
  "\u2581answer": 1458,
  "\u2581ikusteko": 1459,
  "\u2581ezartzen": 1460,
  "\u2581etxean": 1461,
  "\u2581leihoa": 1462,
  "\u2581List": 1463,
  "un": 1464,
  "\u2581laguntza": 1465,
  "\u2581oro": 1466,
  "\u2581barruan": 1467,
  "\u2581zegoela": 1468,
  "\u2581earth": 1469,
  "\u2581honela": 1470,
  "\u2581question": 1471,
  "ity": 1472,
  "\u2581makes": 1473,
  "\u2581example": 1474,
  "\u2581posta": 1475,
  "\u2581With": 1476,
  "\u2581zera": 1477,
  "\u2581begiak": 1478,
  "\u2581mundu": 1479,
  "\u2581pixka": 1480,
  "\u2581erabaki": 1481,
  "\u2581ezagutu": 1482,
  "\u2581balioa": 1483,
  "barra": 1484,
  "\u2581Color": 1485,
  "\u2581guy": 1486,
  "\u2581ene": 1487,
  "\u2581hurrengo": 1488,
  "\u2581ur": 1489,
  "\u2581moved": 1490,
  "\u2581nau": 1491,
  "\u2581column": 1492,
  "garri": 1493,
  "\u2581dugun": 1494,
  "\u2581itxi": 1495,
  "\u2581fear": 1496,
  "ie": 1497,
  "BAR": 1498,
  "\u2581helbide": 1499,
  "\u2581horregatik": 1500,
  "tzean": 1501,
  "\u2581Bat": 1502,
  "\u2581started": 1503,
  "\u2581jotzen": 1504,
  "\u2581stay": 1505,
  "\u2581ought": 1506,
  "\u2581towards": 1507,
  "\u2581contact": 1508,
  "\u2581su": 1509,
  "\u2581Her": 1510,
  "\u2581thou": 1511,
  "\u2581thousand": 1512,
  "\u2581honi": 1513,
  "\u2581baterako": 1514,
  "\u2581mesedez": 1515,
  "ED": 1516,
  "\u2581Egia": 1517,
  "\u2581Begira": 1518,
  "\u2581bihurtu": 1519,
  "\u2581desktop": 1520,
  "\u2581shit": 1521,
  "\u2581buruari": 1522,
  "\u2581per": 1523,
  "\u2581zitzaidan": 1524,
  "\u2581group": 1525,
  "\u2581beldur": 1526,
  "\u2581deitzen": 1527,
  "W": 1528,
  "\u2581according": 1529,
  "He": 1530,
  "\u2581kopia": 1531,
  "\u2581translation": 1532,
  "\u2581emateko": 1533,
  "\u2581bertsioa": 1534,
  "\u2581ederra": 1535,
  "\u2581puntu": 1536,
  "ni": 1537,
  "\u2581couldn": 1538,
  "um": 1539,
  "\u2581Kendu": 1540,
  "\u2581guztietan": 1541,
  "sh": 1542,
  "\u2581comes": 1543,
  "\u2581bost": 1544,
  "\u2581feet": 1545,
  "\u2581hour": 1546,
  "\u2581screen": 1547,
  "\u2581public": 1548,
  "\u2581common": 1549,
  "\u2581fucking": 1550,
  "em": 1551,
  "\u2581horrelako": 1552,
  "\u2581zenbat": 1553,
  "\u2581evening": 1554,
  "\u2581ikusiko": 1555,
  "\u2581ordez": 1556,
  "son": 1557,
  "\u2581batere": 1558,
  "\u2581hutsa": 1559,
  "\u2581town": 1560,
  "\u2581azpian": 1561,
  "\u2581baitzuen": 1562,
  "\u2581giza": 1563,
  "\u2581device": 1564,
  "\u2581irakurri": 1565,
  "\u2581erabil": 1566,
  "\u2581gau": 1567,
  "ul": 1568,
  "\u2581meet": 1569,
  "\u2581large": 1570,
  "\u2581Le": 1571,
  "\u2581sat": 1572,
  "\u2581Gu": 1573,
  "\u2581indeed": 1574,
  "\u2581instead": 1575,
  "\u2581blood": 1576,
  "\u2581Jainkoaren": 1577,
  "\u2581Sir": 1578,
  "\u2581horixe": 1579,
  "\u2581batzuetan": 1580,
  "\u2581joko": 1581,
  "\u2581Badakit": 1582,
  "\u2581Egun": 1583,
  "\u2581pleasure": 1584,
  "\u2581arrazoi": 1585,
  "\u2581Image": 1586,
  "\u2581amaitu": 1587,
  "\u2581clear": 1588,
  "\u2581taking": 1589,
  "\u2581cut": 1590,
  "\u2581John": 1591,
  "\u2581received": 1592,
  "\u2581atzetik": 1593,
  "\u2581erabiliko": 1594,
  "0": 1595,
  "\u2581After": 1596,
  "egia": 1597,
  "\u2581inside": 1598,
  "\u2581thinking": 1599,
  "\u2581sleep": 1600,
  "\u2581automatikoki": 1601,
  "\u2581modua": 1602,
  "\u2581zeure": 1603,
  "\u2581return": 1604,
  "\u2581ezabatu": 1605,
  "\u2581lehenago": 1606,
  "\u2581killed": 1607,
  "\u2581hiri": 1608,
  "\u2581subject": 1609,
  "\u2581support": 1610,
  "\u2581elkar": 1611,
  "\u2581isn": 1612,
  "\u2581aldatzeko": 1613,
  "Z": 1614,
  "\u2581delako": 1615,
  "\u2581bar": 1616,
  "\u2581running": 1617,
  "\u2581audio": 1618,
  "\u2581connection": 1619,
  "\u2581Enable": 1620,
  "\u2581g": 1621,
  "\u2581Ziur": 1622,
  "\u2581happy": 1623,
  "\u2581kept": 1624,
  "\u2581necessary": 1625,
  "\u2581project": 1626,
  "\u2581afraid": 1627,
  "\u2581luke": 1628,
  "\u2581minutes": 1629,
  "\u2581particular": 1630,
  "\u25812.": 1631,
  "}": 1632,
  "\u2581luze": 1633,
  "\u2581eragin": 1634,
  "\u2581beraren": 1635,
  "\u2581lana": 1636,
  "\u2581Z": 1637,
  "\u2581icon": 1638,
  "\u2581short": 1639,
  "\u2581today": 1640,
  "\u2581poor": 1641,
  "ere": 1642,
  "\u2581sea": 1643,
  "\u2581agertu": 1644,
  "\u2581axola": 1645,
  "\u2581alegia": 1646,
  "\u2581Jauna": 1647,
  "\u2581noski": 1648,
  "\u2581nahikoa": 1649,
  "tor": 1650,
  "\u2581Eskerrik": 1651,
  "\u2581dirua": 1652,
  "\u2581Because": 1653,
  "erako": 1654,
  "\u2581baitu": 1655,
  "\u2581pass": 1656,
  "\u2581single": 1657,
  "\u2581passed": 1658,
  "\u2581testu": 1659,
  "\u2581horien": 1660,
  "\u2581knows": 1661,
  "\u2581opened": 1662,
  "\u2581Leiho": 1663,
  "8": 1664,
  "\u2581Man": 1665,
  "\u2581path": 1666,
  "\u2581nahiko": 1667,
  "\u2581nice": 1668,
  "\u2581box": 1669,
  "\u2581follow": 1670,
  "\u2581ID": 1671,
  "\u2581See": 1672,
  "\u2581guys": 1673,
  "\u2581mezuak": 1674,
  "\u2581nagusia": 1675,
  "\u2581Mo": 1676,
  "\u2581job": 1677,
  "\u2581near": 1678,
  "\u2581joateko": 1679,
  "\u2581beautiful": 1680,
  "\u2581erran": 1681,
  "\u2581Gaitu": 1682,
  "\u2581Jaunak": 1683,
  "\u2581unto": 1684,
  "\u2581living": 1685,
  "\u2581date": 1686,
  "\u2581dear": 1687,
  "ho": 1688,
  "\u2581ate": 1689,
  "\u2581Jainkoa": 1690,
  "\u2581specified": 1691,
  "\u2581@": 1692,
  "\u2581dutela": 1693,
  "\u2581pasahitza": 1694,
  "\u2581appear": 1695,
  "But": 1696,
  "agoa": 1697,
  "\u2581dudala": 1698,
  "\u2581talde": 1699,
  "gi": 1700,
  "\u2581Jainkoak": 1701,
  "\u2581past": 1702,
  "\u2581manner": 1703,
  "\u2581berriak": 1704,
  "\u2581dezagun": 1705,
  "\u2581access": 1706,
  "\u2581garai": 1707,
  "\u2581Ka": 1708,
  "\u2581laws": 1709,
  "gan": 1710,
  "ino": 1711,
  "rentzat": 1712,
  "\u2581Enter": 1713,
  "ca": 1714,
  "\u2581States": 1715,
  "zi": 1716,
  "that": 1717,
  "\u2581eat": 1718,
  "\u2581changes": 1719,
  "type": 1720,
  "\u2581datu": 1721,
  "\u2581someone": 1722,
  "\u2581ago": 1723,
  "ge": 1724,
  "\u2581gizona": 1725,
  "\u2581pretty": 1726,
  "X": 1727,
  "\u2581berdin": 1728,
  "que": 1729,
  "\u2581plugin": 1730,
  "\u2581hartuko": 1731,
  "\u2581hell": 1732,
  "\u2581hi": 1733,
  "\u2581zuena": 1734,
  "7": 1735,
  "\u2581easy": 1736,
  "\u2581DVD": 1737,
  "\u2581saioa": 1738,
  "\u2581till": 1739,
  "\u2581ze": 1740,
  "ha": 1741,
  "\u2581Benetan": 1742,
  "\u2581Aita": 1743,
  "\u2581tried": 1744,
  "\u2581Only": 1745,
  "\u2581badira": 1746,
  "\u2581atzeko": 1747,
  "\u2581la": 1748,
  "\u2581windows": 1749,
  "tuta": 1750,
  "\u2581pile": 1751,
  "\u2581guztiek": 1752,
  "\u2581bakoitzean": 1753,
  "keria": 1754,
  "\u2581dark": 1755,
  "\u2581baliogabea": 1756,
  "\u2581stand": 1757,
  "\u2581drink": 1758,
  "\u2581elementu": 1759,
  "\u2581harrapatzen": 1760,
  "\u258119": 1761,
  "\u2581gainerako": 1762,
  "\u2581Preferences": 1763,
  "\u2581gazte": 1764,
  "\u2581Zein": 1765,
  "\u2581andrea": 1766,
  "\u2581level": 1767,
  "\u2581red": 1768,
  "edo": 1769,
  "\u25816": 1770,
  "\u2581simple": 1771,
  "ku": 1772,
  "\u2581Number": 1773,
  "\u2581inolako": 1774,
  "den": 1775,
  "\u2581Hello": 1776,
  "\u2581David": 1777,
  "\u2581computer": 1778,
  "\u2581ziur": 1779,
  "tzailea": 1780,
  "\u2581Ha": 1781,
  "\u2581gainetik": 1782,
  "\u2581Aukera": 1783,
  "\u2581hemendik": 1784,
  "\u2581selection": 1785,
  "\u2581aplikazio": 1786,
  "\u2581maitea": 1787,
  "\u2581piles": 1788,
  "pi": 1789,
  "9": 1790,
  "\u2581string": 1791,
  "\u2581bezalako": 1792,
  "\u2581objektu": 1793,
  "\u2581neither": 1794,
  "\u2581Edit": 1795,
  "\u2581#": 1796,
  "\u2581answered": 1797,
  "\u2581Take": 1798,
  "batean": 1799,
  "pen": 1800,
  "\u2581batzuek": 1801,
  "\u2581Badakizu": 1802,
  "\u2581ditzakezu": 1803,
  "vi": 1804,
  "\u2581Bilatu": 1805,
  "\u2581ateratzen": 1806,
  "\u2581force": 1807,
  "\u2581zarete": 1808,
  "\u2581Azken": 1809,
  "\u2581Hor": 1810,
  "\u2581service": 1811,
  "\u2581honekin": 1812,
  "\u2581Time": 1813,
  "lt": 1814,
  "eth": 1815,
  "\u2581remove": 1816,
  "Yes": 1817,
  "\u2581diru": 1818,
  "\u2581minutu": 1819,
  "\u2581osoan": 1820,
  "\u2581nirekin": 1821,
  "ric": 1822,
  "\u2581art": 1823,
  "\u2581bigarren": 1824,
  "tar": 1825,
  "\u25811.": 1826,
  "\u2581contains": 1827,
  "\u2581letter": 1828,
  "\u2581GNOMEren": 1829,
  "\u2581hasten": 1830,
  "\u2581America": 1831,
  "\u2581lay": 1832,
  "\u2581utziko": 1833,
  "\u2581gaude": 1834,
  "\u2581ninduen": 1835,
  "ian": 1836,
  "\u2581Asia": 1837,
  "katu": 1838,
  "\u2581press": 1839,
  "\u2581values": 1840,
  "\u2581kontua": 1841,
  "\u2581sometimes": 1842,
  "\u2581nengoen": 1843,
  "\u2581Ma": 1844,
  "\u2581seem": 1845,
  "paper": 1846,
  "\u2581handik": 1847,
  "\u2581testua": 1848,
  "\u2581enter": 1849,
  "\u2581jadanik": 1850,
  "\u2581berarekin": 1851,
  "\u2581aldera": 1852,
  "ment": 1853,
  "\u2581Peter": 1854,
  "\u2581aurre": 1855,
  "\u2581Utzi": 1856,
  "tic": 1857,
  "\u2581hots": 1858,
  "\u2581Choose": 1859,
  "\u2581required": 1860,
  "\u2581seems": 1861,
  "aldi": 1862,
  "less": 1863,
  "\u2581settings": 1864,
  "\u2581aurkituko": 1865,
  "\u2581fell": 1866,
  "\u2581probabl": 1867,
  "\u2581elkarrekin": 1868,
  "\u2581behintzat": 1869,
  "\u2581hair": 1870,
  "\u2581met": 1871,
  "\u2581gutxiago": 1872,
  "\u2581network": 1873,
  "\u2581pay": 1874,
  "id": 1875,
  "\u2581mouth": 1876,
  "\u2581six": 1877,
  "\u00e9": 1878,
  "ci": 1879,
  "si": 1880,
  "\u2581seguru": 1881,
  "\u2581banatu": 1882,
  "\u2581lasai": 1883,
  "\u2581husband": 1884,
  "\u2581Han": 1885,
  "ol": 1886,
  "\u2581azaltzen": 1887,
  "\u2581feeling": 1888,
  "\u2581gela": 1889,
  "\u2581Maybe": 1890,
  "\u2581Ar": 1891,
  "\u2581betiko": 1892,
  "\u2581buruan": 1893,
  "\u2581p": 1894,
  "\u2581Type": 1895,
  "\u2581ye": 1896,
  "galdetu": 1897,
  "\u2581Text": 1898,
  "\u2581ground": 1899,
  "\u2581ea": 1900,
  "\u2581Nahi": 1901,
  "\u2581during": 1902,
  "et": 1903,
  "\u2581filled": 1904,
  "\u2581hours": 1905,
  "\u2581fall": 1906,
  "\u2581zutela": 1907,
  "\u2581Remove": 1908,
  "\u2581Gizon": 1909,
  "\u2581outside": 1910,
  "\u2581bakoitza": 1911,
  "\u2581cried": 1912,
  "\u2581egindako": 1913,
  "\u2581Haren": 1914,
  "\u2581waiting": 1915,
  "per": 1916,
  "\u2581Hitz": 1917,
  "by": 1918,
  "):": 1919,
  "\\": 1920,
  "action": 1921,
  "\u2581jaunak": 1922,
  "rez": 1923,
  "\u2581calendar": 1924,
  "\u2581Have": 1925,
  "im": 1926,
  "\u2581pasa": 1927,
  "\u2581St": 1928,
  "That": 1929,
  "\u2581mugimendu": 1930,
  "\u2581barre": 1931,
  "\u2581exist": 1932,
  "\u2581Folder": 1933,
  "\u2581zabalera": 1934,
  "\u2581manual": 1935,
  "ina": 1936,
  "\u2581daughter": 1937,
  "\u2581dezake": 1938,
  "\u2581lehenengo": 1939,
  "\u2581species": 1940,
  "\u2581spirit": 1941,
  "\u2581probably": 1942,
  "\u2581programa": 1943,
  "io": 1944,
  "ezko": 1945,
  "\u2581Mezu": 1946,
  "\u2581Some": 1947,
  "\u2581atea": 1948,
  "tzaile": 1949,
  "\u2581keyboard": 1950,
  "\u2581added": 1951,
  "\u2581Co": 1952,
  "\u2581Menu": 1953,
  "\u2581ordua": 1954,
  "\u2581effect": 1955,
  "land": 1956,
  "\u2581nauzu": 1957,
  "\u2581Ama": 1958,
  "\u2581lur": 1959,
  "\u2581spoke": 1960,
  "\u2581deal": 1961,
  "\u2581zurekin": 1962,
  "\u2581Mila": 1963,
  "\u2581configuration": 1964,
  "\u2581t": 1965,
  "ria": 1966,
  "\u2581l": 1967,
  "\u2581Display": 1968,
  "\u2581Laster": 1969,
  "\u2581onartu": 1970,
  "\u2581geratzen": 1971,
  "\u2581allowed": 1972,
  "\u2581anyone": 1973,
  "ila": 1974,
  "\u2581week": 1975,
  "\u2581W": 1976,
  "\u2581important": 1977,
  "\u2581sarrera": 1978,
  "\u2581ma": 1979,
  "\u2581sistema": 1980,
  "enak": 1981,
  "\u2581gustatzen": 1982,
  "\u2581diote": 1983,
  "ah": 1984,
  "\u2581memory": 1985,
  "\u2581auto": 1986,
  "\u2581bertsio": 1987,
  "\u2581Editatu": 1988,
  "\u2581Stop": 1989,
  "\u2581White": 1990,
  "\u2581act": 1991,
  "\u2581Entzun": 1992,
  "\u2581wants": 1993,
  "\u2581entzuten": 1994,
  "\u2581hobe": 1995,
  "\u2581gehitu": 1996,
  "\u2581jan": 1997,
  "\u2581session": 1998,
  "\u2581proxy": 1999,
  "\u2581images": 2000,
  "\u2581items": 2001,
  "\u2581bakoitzak": 2002,
  "\u2581igo": 2003,
  "\u2581jendea": 2004,
  "com": 2005,
  "\u2581Ah": 2006,
  "\u2581Invalid": 2007,
  "\u2581low": 2008,
  "etarako": 2009,
  "\u2581beltza": 2010,
  "\u2581bihurtzen": 2011,
  "\u2581Ados": 2012,
  "\u2581J": 2013,
  "\u2581indar": 2014,
  "\u2581beharreko": 2015,
  "\u2581Ko": 2016,
  "\u2581Gaur": 2017,
  "\u2581bidea": 2018,
  "\u2581moves": 2019,
  "\u2581zinen": 2020,
  "\u2581changed": 2021,
  "zerrenda": 2022,
  "\u2581fuck": 2023,
  "\u2581Delete": 2024,
  "\u2581Li": 2025,
  "\u2581parte": 2026,
  "\u2581gorputz": 2027,
  "\u2581late": 2028,
  "\u2581sight": 2029,
  "\u258120": 2030,
  "\u2581folders": 2031,
  "\u2581moduz": 2032,
  "\u2581ahaztu": 2033,
  "\u2581evil": 2034,
  "\u2581objects": 2035,
  "\u2581zaharra": 2036,
  "erantzun": 2037,
  "\u2581HTML": 2038,
  "\u2581drive": 2039,
  "\u2581mine": 2040,
  "\u2581erabiliz": 2041,
  "\u2581Idatzi": 2042,
  "\u2581Miss": 2043,
  "\u2581story": 2044,
  "\u2581below": 2045,
  "\u2581eder": 2046,
  "\u2581handiagoa": 2047,
  "\u2581parts": 2048,
  "\u2581Black": 2049,
  "\u2581azaldu": 2050,
  "\u2581seeing": 2051,
  "\u2581walk": 2052,
  "\u2581Ezabatu": 2053,
  "\u2581hainbeste": 2054,
  "\u2581horrekin": 2055,
  "\u2581c": 2056,
  "\u2581gizaki": 2057,
  "\u2581naizela": 2058,
  "\u2581trouble": 2059,
  "\u2581etxeko": 2060,
  "\u2581built": 2061,
  "\u2581direktorioa": 2062,
  "\u2581lagundu": 2063,
  "\u2581plan": 2064,
  "\u2581existence": 2065,
  "\u2581geure": 2066,
  "\u2581complete": 2067,
  "\u2581Aukeratu": 2068,
  "\u2581desire": 2069,
  "\u2581toki": 2070,
  "\u2581element": 2071,
  "\u2581Mar": 2072,
  "\u2581azkar": 2073,
  "\u2581chance": 2074,
  "qui": 2075,
  "\u2581diat": 2076,
  "\u2581actually": 2077,
  "\u2581kanpoko": 2078,
  "\u2581saio": 2079,
  "\u2581school": 2080,
  "rantz": 2081,
  "\u2581ezik": 2082,
  "\u2581eraso": 2083,
  "\u2581became": 2084,
  "\u2581Horregatik": 2085,
  "\u2581Na": 2086,
  "\u2581font": 2087,
  "\u2581returned": 2088,
  "\u2581erabilgarri": 2089,
  "\u2581supported": 2090,
  "os": 2091,
  "\u2581kasu": 2092,
  "ja": 2093,
  "\u2581local": 2094,
  "\u2581azkenean": 2095,
  "\u2581Zenbat": 2096,
  "...\"": 2097,
  "lan": 2098,
  "\u2581apur": 2099,
  "\u2581ezarpenak": 2100,
  "\u2581egotea": 2101,
  "\u2581Uneko": 2102,
  "tr": 2103,
  "\u2581erori": 2104,
  "\u2581izanez": 2105,
  "\u2581note": 2106,
  "\u2581across": 2107,
  "\u2581zenbaki": 2108,
  "koadroa": 2109,
  "\u2581gizonak": 2110,
  "\u2581ulertu": 2111,
  "ling": 2112,
  "\u2581suddenly": 2113,
  "\u2581displayed": 2114,
  "\u2581sentitu": 2115,
  "\u2581betetzen": 2116,
  "dura": 2117,
  "ine": 2118,
  "\u2581atzean": 2119,
  "\u2581problem": 2120,
  "\u2581zahar": 2121,
  "\u2581title": 2122,
  "\u2581lady": 2123,
  "\u2581zuenean": 2124,
  "\u2581fight": 2125,
  "\u2581Eraman": 2126,
  "\u2581Jonathan": 2127,
  "\u2581datuak": 2128,
  "ze": 2129,
  "ler": 2130,
  "\u2581OK": 2131,
  "\u2581held": 2132,
  "Oh": 2133,
  "\u2581cold": 2134,
  "\u2581eskua": 2135,
  "\u2581hobeto": 2136,
  "\u2581esateko": 2137,
  "\u2581{0}": 2138,
  "\u2581Mesedez": 2139,
  "ber": 2140,
  "\u2581mugitu": 2141,
  "\u2581Lo": 2142,
  "\u2581minute": 2143,
  "\u2581sit": 2144,
  "\u2581Gauza": 2145,
  "\u2581hutsik": 2146,
  "\u2581eseri": 2147,
  "\u2581saved": 2148,
  "\u2581theme": 2149,
  "\u2581Audio": 2150,
  "\u2581Wait": 2151,
  "\u2581Al": 2152,
  "\u2581gold": 2153,
  "\u2581aldetik": 2154,
  "\u2581none": 2155,
  "\u2581shown": 2156,
  "\u2581hara": 2157,
  "\u2581zehazten": 2158,
  "\u2581min": 2159,
  "\u2581dator": 2160,
  "\u2581immediately": 2161,
  "\u2581eskuineko": 2162,
  "\u2581further": 2163,
  "\u2581special": 2164,
  "\u2581doubt": 2165,
  "ratu": 2166,
  "\u2581begiratzen": 2167,
  "\u2581report": 2168,
  "\u2581zenuke": 2169,
  "\u2581benetako": 2170,
  "\u2581guk": 2171,
  "\u2581supposed": 2172,
  "\u2581existitzen": 2173,
  "\u2581working": 2174,
  "\u2581Ze": 2175,
  "\u2581lerro": 2176,
  "\u2581written": 2177,
  "one": 2178,
  "\u2581beginning": 2179,
  "\u2581meeting": 2180,
  "\u2581sun": 2181,
  "ster": 2182,
  "\u2581bestela": 2183,
  "\u2581police": 2184,
  "\u2581terms": 2185,
  "\u2581history": 2186,
  "\u2581eye": 2187,
  "\u2581Su": 2188,
  "\u2581office": 2189,
  "\u2581email": 2190,
  "\u2581yes": 2191,
  "\u2581egitera": 2192,
  "ting": 2193,
  "\u2581Default": 2194,
  "\u2581izanik": 2195,
  "\u2581tab": 2196,
  "\u2581whatever": 2197,
  "\u2581izaki": 2198,
  "\u2581esteka": 2199,
  "\u2581road": 2200,
  "\u2581AND": 2201,
  "\u2581greater": 2202,
  "\u2581adiskide": 2203,
  "\u2581placed": 2204,
  "fi": 2205,
  "\u2581askoz": 2206,
  "\u2581zuria": 2207,
  "\u2581Window": 2208,
  "\u2581Edo": 2209,
  "\u2581video": 2210,
  "\u2581arms": 2211,
  "\u2581content": 2212,
  "In": 2213,
  "\u2581kartak": 2214,
  "\u2581safe": 2215,
  "\u2581consciousness": 2216,
  "if": 2217,
  "\u2581bottom": 2218,
  "\u2581load": 2219,
  "\u2581Beti": 2220,
  "\u2581happen": 2221,
  "\u2581private": 2222,
  "\u2581Zerbait": 2223,
  "\u2581itzultzen": 2224,
  "\u2581month": 2225,
  "\u2581semea": 2226,
  "\u2581balu": 2227,
  "\u2581manager": 2228,
  "\u2581forward": 2229,
  "\u2581web": 2230,
  "\u2581ahots": 2231,
  "\u2581replied": 2232,
  "\u2581strong": 2233,
  "\u2581except": 2234,
  "\u2581pre": 2235,
  "\u2581background": 2236,
  "tara": 2237,
  "org": 2238,
  "\u2581age": 2239,
  "\u2581sign": 2240,
  "\u2581valid": 2241,
  "\u2581dakizu": 2242,
  "\u2581Hiru": 2243,
  "\u2581future": 2244,
  "\u2581horretaz": 2245,
  "\u2581remote": 2246,
  "\u2581zuek": 2247,
  "ist": 2248,
  "\u2581delete": 2249,
  "hi": 2250,
  "\u2581Unknown": 2251,
  "\u2581Auto": 2252,
  "\u2581libre": 2253,
  "\u2581arima": 2254,
  "\u2581nagusi": 2255,
  "\u2581etorriko": 2256,
  "\u2581ume": 2257,
  "\u2581suit": 2258,
  "\u2581master": 2259,
  "\u2581Zeren": 2260,
  "\u2581ekin": 2261,
  "\u2581followed": 2262,
  "\u2581jar": 2263,
  "\u2581horse": 2264,
  "\u2581sister": 2265,
  "\u2581Sistema": 2266,
  "\u2581Denbora": 2267,
  "\u2581Game": 2268,
  "\u2581watch": 2269,
  "\u2581custom": 2270,
  "\u2581zaitu": 2271,
  "\u2581zehaztu": 2272,
  "\u2581biok": 2273,
  "\u2581urrun": 2274,
  "\u2581Public": 2275,
  "\u2581street": 2276,
  "\u2581System": 2277,
  "\u2581listen": 2278,
  "dan": 2279,
  "bat": 2280,
  "\u2581jarraitzen": 2281,
  "les": 2282,
  "\u2581Itxaron": 2283,
  "\u2581army": 2284,
  "\u2581stopped": 2285,
  "\u2581expression": 2286,
  "ron": 2287,
  "We": 2288,
  "\u2581specify": 2289,
  "\u2581aurpegi": 2290,
  "\u2581mutil": 2291,
  "\u2581Pi": 2292,
  "\u2581opinion": 2293,
  "egi": 2294,
  "\u2581Jokoa": 2295,
  "\u2581exists": 2296,
  "ru": 2297,
  "\u2581suppose": 2298,
  "\u2581Sa": 2299,
  "koak": 2300,
  "\u2581beharbada": 2301,
  "\u2581control": 2302,
  "\u2581language": 2303,
  "are": 2304,
  "\u2581Will": 2305,
  "zu": 2306,
  "\u2581party": 2307,
  "\u2581Start": 2308,
  "\u2581individual": 2309,
  "\u2581mouse": 2310,
  "\u2581steps": 2311,
  "\u2581Stock": 2312,
  "ville": 2313,
  "\u2581haven": 2314,
  "tzerik": 2315,
  "\u2581died": 2316,
  "\u2581zarela": 2317,
  "\u2581liburu": 2318,
  "\u2581respect": 2319,
  "\u2581Agian": 2320,
  "\u2581Lan": 2321,
  "\u2581bildu": 2322,
  "sta": 2323,
  "\u2581bazen": 2324,
  "\u2581goes": 2325,
  "\u2581pare": 2326,
  "\u2581task": 2327,
  "\u2581bihotza": 2328,
  "\u2581forma": 2329,
  "\u2581txarra": 2330,
  "\u2581merely": 2331,
  "\u2581berari": 2332,
  "\u2581gehiegi": 2333,
  "\u2581pure": 2334,
  "\u2581row": 2335,
  "\u2581playing": 2336,
  "\u2581works": 2337,
  "ant": 2338,
  "tz": 2339,
  "\u2581DA": 2340,
  "\u2581maybe": 2341,
  "\u2581piece": 2342,
  "\u2581aurpegia": 2343,
  "\u2581erdian": 2344,
  "ekoa": 2345,
  "\u2581code": 2346,
  "ut": 2347,
  "\u2581gerra": 2348,
  "\u2581onena": 2349,
  "\u2581City": 2350,
  "\u2581break": 2351,
  "\u2581etengabe": 2352,
  "\u2581izanen": 2353,
  "\u2581status": 2354,
  "der": 2355,
  "EN": 2356,
  "\u2581noiz": 2357,
  "\u2581zaldun": 2358,
  "\u2581komando": 2359,
  "\u2581Gako": 2360,
  "\u2581fitxa": 2361,
  "\u2581zerbitzari": 2362,
  "ir": 2363,
  "\u2581saiatzen": 2364,
  "\u2581exactly": 2365,
  "j": 2366,
  "\u2581ageri": 2367,
  "\u2581igaro": 2368,
  "\u2581letters": 2369,
  "\u2581dirudi": 2370,
  "\u2581haur": 2371,
  "\u2581hilabete": 2372,
  "\u2581Like": 2373,
  "\u2581gogor": 2374,
  "\u2581arm": 2375,
  "\u2581Dr": 2376,
  "\u2581Jainko": 2377,
  "\u2581previous": 2378,
  "\u2581Ra": 2379,
  "\u2581besteak": 2380,
  "\u2581section": 2381,
  "\u2581karaktere": 2382,
  "\u2581+": 2383,
  "\u2581zaren": 2384,
  "\u2581guzti": 2385,
  "\u2581Father": 2386,
  "\u2581months": 2387,
  "\u2581Lehen": 2388,
  "\u2581errorea": 2389,
  "\u2581mugitzen": 2390,
  "\u2581moving": 2391,
  "entzako": 2392,
  "\u2581Exchange": 2393,
  "\u2581guess": 2394,
  "\u2581peace": 2395,
  "\u2581gauean": 2396,
  "\u2581li": 2397,
  "\u2581Ja": 2398,
  "\u2581familia": 2399,
  "\u2581heriotza": 2400,
  "\u2581setting": 2401,
  "\u2581Tableau": 2402,
  "\u2581URL": 2403,
  "\u2581pain": 2404,
  "\u2581iturburu": 2405,
  "\u2581third": 2406,
  "\u2581handiak": 2407,
  "\u2581muga": 2408,
  "fa": 2409,
  "\u2581sakatu": 2410,
  "Ba": 2411,
  "\u2581drop": 2412,
  "je": 2413,
  "ER": 2414,
  "\u2581Harry": 2415,
  "\u2581nuela": 2416,
  "\u2581wall": 2417,
  "\u2581norbait": 2418,
  "\u2581length": 2419,
  "retan": 2420,
  "\u2581walked": 2421,
  "\u2581Orokorra": 2422,
  "\u25818": 2423,
  "\u2581Hil": 2424,
  "\u2581harrapatu": 2425,
  "\u2581helbidea": 2426,
  "\u2581Him": 2427,
  "engatik": 2428,
  "\u2581Project": 2429,
  "\u2581everyone": 2430,
  "\u2581Michael": 2431,
  "\u2581izana": 2432,
  "Baina": 2433,
  "\u2581beyond": 2434,
  "\u2581forget": 2435,
  "\u2581government": 2436,
  "\u2581receive": 2437,
  "\u2581played": 2438,
  "\u2581disc": 2439,
  "pean": 2440,
  "\u2581Ho": 2441,
  "\u2581abiatu": 2442,
  "\u2581irribarre": 2443,
  "ate": 2444,
  "\u2581arazo": 2445,
  "\u2581zabaldu": 2446,
  "\u2581applications": 2447,
  "\u2581bilatzen": 2448,
  "\u2581bizirik": 2449,
  "\u2581ohar": 2450,
  "line": 2451,
  "\u2581middle": 2452,
  "10": 2453,
  "ea": 2454,
  "\u2581El": 2455,
  "Well": 2456,
  "ck": 2457,
  "\u2581dei": 2458,
  "\u25817": 2459,
  "op": 2460,
  "\u2581Paris": 2461,
  "\u2581ETA": 2462,
  "\u2581f": 2463,
  "kor": 2464,
  "\u2581Kaka": 2465,
  "\u2581seven": 2466,
  "\u2581botoian": 2467,
  "\u2581Gainera": 2468,
  "\u2581music": 2469,
  "\u2581places": 2470,
  "\u2581blue": 2471,
  "\u2581doa": 2472,
  "\u2581edukia": 2473,
  "\u2581aldatzen": 2474,
  "\u2581baitira": 2475,
  "\u2581link": 2476,
  "\u2581Thus": 2477,
  "\u2581experience": 2478,
  "rekiko": 2479,
  "\u2581hobespenak": 2480,
  "\u2581jokoa": 2481,
  "\u2581Size": 2482,
  "\u2581Programa": 2483,
  "ec": 2484,
  "\u2581wanna": 2485,
  "\u2581Bo": 2486,
  "\u2581Options": 2487,
  "\u2581event": 2488,
  "\u2581honako": 2489,
  "\u2581dis": 2490,
  "fitxategia": 2491,
  "\u2581Jo": 2492,
  "\u2581looks": 2493,
  "all": 2494,
  "\u2581barrena": 2495,
  "\u2581oinarri": 2496,
  "\u2581zizkion": 2497,
  "\u2581anaia": 2498,
  "\u2581class": 2499,
  "\u2581laneko": 2500,
  "\u2581original": 2501,
  "\u2581espezie": 2502,
  "11": 2503,
  "\u2581Would": 2504,
  "\u2581style": 2505,
  "\u2581aldean": 2506,
  "\u2581VERSION": 2507,
  "\u2581gutun": 2508,
  "\u2581Joe": 2509,
  "\u2581Two": 2510,
  "\u2581automatically": 2511,
  "\u2581foot": 2512,
  "\u2581informazio": 2513,
  "\u2581DOKUMENTUA": 2514,
  "\u2581tree": 2515,
  "\u258112": 2516,
  "\u2581Bera": 2517,
  "\u2581secret": 2518,
  "\u2581zin": 2519,
  "\u2581main": 2520,
  "\u2581haserre": 2521,
  "\u2581oihu": 2522,
  "BERTSIO": 2523,
  "\u2581invalid": 2524,
  "\u2581terminal": 2525,
  "\u2581Copy": 2526,
  "\u2581MODIFI": 2527,
  "\u2581y": 2528,
  "ty": 2529,
  "\u2581Data": 2530,
  "\u2581function": 2531,
  "\u2581strange": 2532,
  "ver": 2533,
  "\u2581Give": 2534,
  "\u2581alda": 2535,
  "\u2581condition": 2536,
  "\u2581eramaten": 2537,
  "\u2581actions": 2538,
  "\u2581zaldi": 2539,
  "\u2581merezi": 2540,
  "\u2581adibidez": 2541,
  "\u2581Tell": 2542,
  "\u2581kontzientzia": 2543,
  "ent": 2544,
  "\u2581denez": 2545,
  "\u2581osatu": 2546,
  "\u2581di": 2547,
  "\u2581floor": 2548,
  "name": 2549,
  "tro": 2550,
  "\u2581Har": 2551,
  "\u2581antzeko": 2552,
  "\u2581court": 2553,
  "ff": 2554,
  "\u2581duenean": 2555,
  "ld": 2556,
  "\u2581Aurreko": 2557,
  "\u2581irabazi": 2558,
  "\u2581gakoa": 2559,
  "\u2581Se": 2560,
  "\u2581twenty": 2561,
  "\u2581lives": 2562,
  "\u2581tomorrow": 2563,
  "\u2581alaba": 2564,
  "\u2581allow": 2565,
  "IN": 2566,
  "\u2581IS": 2567,
  "\u2581botere": 2568,
  "\u2581Print": 2569,
  "\u2581numbers": 2570,
  "\u2581reading": 2571,
  "Do": 2572,
  "ad": 2573,
  "\u2581hath": 2574,
  "\u2581iruditu": 2575,
  "\u2581WITH": 2576,
  "\u2581eserita": 2577,
  "\u2581trust": 2578,
  "\u2581dagoenean": 2579,
  "rentzako": 2580,
  "\u2581Erre": 2581,
  "\u2581argia": 2582,
  "but": 2583,
  "\u2581modify": 2584,
  "\u00e1": 2585,
  "\u2581Files": 2586,
  "\u2581baby": 2587,
  "\u2581contrary": 2588,
  "\u2581zituela": 2589,
  "bil": 2590,
  "ius": 2591,
  "\u2581Last": 2592,
  "\u2581gaitu": 2593,
  "\u2581carried": 2594,
  "\u2581hartzeko": 2595,
  "\u2581zabal": 2596,
  "\u2581ran": 2597,
  "\u2581gotta": 2598,
  "\u2581Sam": 2599,
  "\u2581biak": 2600,
  "\u2581dituzun": 2601,
  "\u2581eragiten": 2602,
  "\u2581food": 2603,
  "\u2581impossible": 2604,
  "ju": 2605,
  "tutako": 2606,
  "\u2581lines": 2607,
  "tuko": 2608,
  "\u2581Erabiltzaile": 2609,
  "\u2581Bar": 2610,
  "\u2581purpose": 2611,
  "ig": 2612,
  "\u2581Check": 2613,
  "\u2581giving": 2614,
  "fe": 2615,
  "\u2581Con": 2616,
  "\u2581enable": 2617,
  "\u2581gordetzen": 2618,
  "\u2581sin": 2619,
  "\u2581Change": 2620,
  "\u2581beharrik": 2621,
  "\u2581aldaketa": 2622,
  "\u2581needs": 2623,
  "\u2581sei": 2624,
  "\u2581eramango": 2625,
  "\u2581hiltzen": 2626,
  "\u2581dezaket": 2627,
  "\u2581jaitsi": 2628,
  "\u2581mendi": 2629,
  "\u2581ourselves": 2630,
  "\u2581panela": 2631,
  "\u2581thoughts": 2632,
  "\u2581unknown": 2633,
  "\u2581Amerika": 2634,
  "\u2581horretarako": 2635,
  "\u2581standing": 2636,
  "\u2581sitting": 2637,
  "\u2581property": 2638,
  "\u2581Ta": 2639,
  "\u2581entry": 2640,
  "\u2581operation": 2641,
  "\u2581botoia": 2642,
  "\u2581handiz": 2643,
  "\u2581nere": 2644,
  "\u2581nork": 2645,
  "\u2581ra": 2646,
  "\u2581strength": 2647,
  "\u2581certainly": 2648,
  "\u2581m": 2649,
  "of": 2650,
  "\u2581orduko": 2651,
  "\u2581Web": 2652,
  "\u2581Berak": 2653,
  "\u2581entered": 2654,
  "\u2581picture": 2655,
  "\u2581txikia": 2656,
  "\u2581Panel": 2657,
  "\u2581emaztea": 2658,
  "bar": 2659,
  "\u2581step": 2660,
  "\u2581atal": 2661,
  "\u2581ill": 2662,
  "\u2581Hurrengo": 2663,
  "\u2581interest": 2664,
  "\u2581bestea": 2665,
  "\u2581hitza": 2666,
  "\u2581sick": 2667,
  "\u2581sorta": 2668,
  "\u2581Lu": 2669,
  "\u2581Fitxategia": 2670,
  "\u2581useful": 2671,
  "\u2581Po": 2672,
  "\u2581le": 2673,
  "\u2581gogo": 2674,
  "rean": 2675,
  "\u2581Sentitzen": 2676,
  "\u2581izaera": 2677,
  "\u2581kontuan": 2678,
  "\u2581straight": 2679,
  "\u2581MIME": 2680,
  "\u2581barne": 2681,
  "\u2581installed": 2682,
  "\u2581stuff": 2683,
  "marka": 2684,
  "\u2581ways": 2685,
  "net": 2686,
  "\u2581Eman": 2687,
  "\u2581ontzi": 2688,
  "\u2581shut": 2689,
  "\u2581news": 2690,
  "\u2581zerbitzaria": 2691,
  "\u2581hitzak": 2692,
  "\u2581phone": 2693,
  "\u2581hurbildu": 2694,
  "\u2581noa": 2695,
  "\u2581frame": 2696,
  "\u2581writing": 2697,
  "\u2581doctor": 2698,
  "\u2581eskuliburua": 2699,
  "\u2581fellow": 2700,
  "\u2581Make": 2701,
  "mp": 2702,
  "\u2581zaie": 2703,
  "\u2581zitzaizkion": 2704,
  "turik": 2705,
  "\u2581corner": 2706,
  "\u2581Page": 2707,
  "\u2581Unit": 2708,
  "\u2581begirada": 2709,
  "\u2581gogoa": 2710,
  "\u2581lived": 2711,
  "\u2581Karpeta": 2712,
  "\u2581log": 2713,
  "\u2581bana": 2714,
  "\u2581ikustea": 2715,
  "\u2581ezagutza": 2716,
  "\u2581heaven": 2717,
  "\u2581virtue": 2718,
  "\u2581aipatu": 2719,
  "\u2581Des": 2720,
  "zioa": 2721,
  "gen": 2722,
  "lin": 2723,
  "tis": 2724,
  "\u2581company": 2725,
  "\u2581konturatu": 2726,
  "\u2581perfect": 2727,
  "\u2581oker": 2728,
  "\u2581conversation": 2729,
  "\u2581Pantaila": 2730,
  "kin": 2731,
  "\u2581eskaintzen": 2732,
  "\u2581Nothing": 2733,
  "\u2581normal": 2734,
  "\u2581tonight": 2735,
  "\u2581Estatu": 2736,
  "\u2581Hara": 2737,
  "\u2581active": 2738,
  "\u2581geruza": 2739,
  "\u2581moral": 2740,
  "\u2581width": 2741,
  "\u2581zerrendan": 2742,
  "\u2581urrats": 2743,
  "atzen": 2744,
  "au": 2745,
  "bu": 2746,
  "\u2581Pro": 2747,
  "ish": 2748,
  "\u2581aritu": 2749,
  "\u2581Bilaketa": 2750,
  "\u2581Ne": 2751,
  "\u2581Sorry": 2752,
  "\u2581Close": 2753,
  "\u2581badakizu": 2754,
  "\u2581kontatu": 2755,
  "end": 2756,
  "\u2581perform": 2757,
  "\u2581speaking": 2758,
  "\u2581Da": 2759,
  "\u2581touch": 2760,
  "\u2581ugari": 2761,
  "\u2581tool": 2762,
  "\u2581ustez": 2763,
  "\u2581jada": 2764,
  "\u2581quickly": 2765,
  "\u2581adierazi": 2766,
  "\u2581Itxi": 2767,
  "\u2581Oraindik": 2768,
  "\u2581aste": 2769,
  "\u2581pertsonalizatua": 2770,
  "\u2581Horrek": 2771,
  "tea": 2772,
  "\u2581bizia": 2773,
  "\u2581lie": 2774,
  "\u2581erraz": 2775,
  "\u2581*": 2776,
  "\u2581XML": 2777,
  "\u2581jantzi": 2778,
  "\u2581square": 2779,
  "\u2581banatzen": 2780,
  "\u2581jaun": 2781,
  "\u2581Paul": 2782,
  "\u2581eginda": 2783,
  "\u2581Tab": 2784,
  "\u2581berez": 2785,
  "\u2581direnean": 2786,
  "\u2581Honek": 2787,
  "\u2581attention": 2788,
  "\u2581aldaketak": 2789,
  "\u2581base": 2790,
  "\u2581yeah": 2791,
  "\u2581disk": 2792,
  "\u2581learn": 2793,
  "\u2581beltzak": 2794,
  "KO": 2795,
  "\u2581\\\\": 2796,
  "\u2581details": 2797,
  "\u2581naizen": 2798,
  "\u258118": 2799,
  "\u2581Bada": 2800,
  "\u2581osatzen": 2801,
  "age": 2802,
  "tekla": 2803,
  "\u2581Settings": 2804,
  "\u2581bidean": 2805,
  "ov": 2806,
  "\u2581ondorioz": 2807,
  "\u2581thank": 2808,
  "\u2581closed": 2809,
  "\u2581happiness": 2810,
  "\u2581thy": 2811,
  "\u2581ematea": 2812,
  "\u2581enemy": 2813,
  "\u2581couple": 2814,
  "agatik": 2815,
  "\u2581borroka": 2816,
  "jo": 2817,
  "ph": 2818,
  "\u2581Di": 2819,
  "\u2581zaion": 2820,
  "click": 2821,
  "\u2581Our": 2822,
  "\u2581Thanks": 2823,
  "\u2581IDa": 2824,
  "\u2581Publiko": 2825,
  "\u2581etxea": 2826,
  "va": 2827,
  "\u2581egunean": 2828,
  "\u2581pane": 2829,
  "\u2581Saint": 2830,
  "\u2581h": 2831,
  "\u2581leaving": 2832,
  "\\.": 2833,
  "\u2581sons": 2834,
  "\u2581hurt": 2835,
  "\u2581lose": 2836,
  "\u2581Lau": 2837,
  "\u2581Even": 2838,
  "\u2581adina": 2839,
  "\u2581dion": 2840,
  "\u2581disko": 2841,
  "gai": 2842,
  "iko": 2843,
  "ive": 2844,
  "\u2581bihotz": 2845,
  "\u2581hire": 2846,
  "we": 2847,
  "\u2581Help": 2848,
  "\u2581contents": 2849,
  "\u2581goi": 2850,
  "\u2581married": 2851,
  "\u2581dama": 2852,
  "\u2581easily": 2853,
  "\u2581galdera": 2854,
  "\u258115": 2855,
  "\u2581zirudien": 2856,
  "\u2581dog": 2857,
  "\u2581figure": 2858,
  "\u2581hot": 2859,
  "5=": 2860,
  "\u2581hurbil": 2861,
  "\u2581Message": 2862,
  "\u2581characters": 2863,
  "xi": 2864,
  "time": 2865,
  "har": 2866,
  "\u2581lortzeko": 2867,
  "\u2581begin": 2868,
  "\u2581pozik": 2869,
  "\u2581understanding": 2870,
  "\u2581gogoan": 2871,
  "\u2581Ene": 2872,
  "\u2581se": 2873,
  "\u2581dagokion": 2874,
  "\u2581arau": 2875,
  "\u2581gelditzen": 2876,
  "\u2581kausa": 2877,
  "\u2581loved": 2878,
  "';": 2879,
  "ous": 2880,
  "\u2581Te": 2881,
  "\u2581ilun": 2882,
  "\u2581gorri": 2883,
  "\u2581society": 2884,
  "\u2581musika": 2885,
  "\u2581draw": 2886,
  "\u2581esatea": 2887,
  "\u2581judge": 2888,
  "\u2581Nora": 2889,
  "\"?": 2890,
  "\u2581Kolore": 2891,
  "\u2581irudiak": 2892,
  "\u2581zuriak": 2893,
  "bide": 2894,
  "\u2581Begiratu": 2895,
  "\u2581hide": 2896,
  "\u2581tiro": 2897,
  "\u2581kon": 2898,
  "\u2581Ben": 2899,
  "\u2581Letra": 2900,
  "\u2581Nautilus": 2901,
  "\u2581bukatu": 2902,
  "arentzat": 2903,
  "ska": 2904,
  "\u2581beraien": 2905,
  "\u25813.": 2906,
  "\u2581itxaron": 2907,
  "\u2581b": 2908,
  "\u2581bitartez": 2909,
  "\u2581guztiei": 2910,
  "mendu": 2911,
  "\u2581lortzen": 2912,
  "\u2581zentzu": 2913,
  "\u2581silence": 2914,
  "\u2581zoaz": 2915,
  "\u2581con": 2916,
  "\u2581Izen": 2917,
  "\u2581gaia": 2918,
  "\u2581zihoan": 2919,
  "\u2581Keyboard": 2920,
  "\u2581@{": 2921,
  "\u2581bistaratzen": 2922,
  "\u2581eskuak": 2923,
  "\u2581jarriko": 2924,
  "\u2581propietateak": 2925,
  "\u2581Nork": 2926,
  "\u2581badut": 2927,
  "\u2581fast": 2928,
  "\u2581@@": 2929,
  "\u2581bezalakoa": 2930,
  "\u2581Irudi": 2931,
  "\u2581appeared": 2932,
  "ex": 2933,
  "\u2581Ai": 2934,
  "\u2581double": 2935,
  "\u2581komandoa": 2936,
  "\u2581oin": 2937,
  "\u2581share": 2938,
  "\u2581zitekeen": 2939,
  "txa": 2940,
  "\u2581queen": 2941,
  "\u2581shot": 2942,
  "If": 2943,
  "\u2581Jaunaren": 2944,
  "\u2581Agur": 2945,
  "\u2581horietako": 2946,
  "\u2581speed": 2947,
  "\u2581worry": 2948,
  "\u2581gertatuko": 2949,
  "\u2581kanpora": 2950,
  "\u2581Un": 2951,
  "\u2581Pa": 2952,
  "\u2581former": 2953,
  "\u2581created": 2954,
  "\u2581alive": 2955,
  "\u2581direnak": 2956,
  "ero": 2957,
  "\u2581currently": 2958,
  "\u2581ain": 2959,
  "\u2581connect": 2960,
  "\u2581First": 2961,
  "\u2581urruneko": 2962,
  "rei": 2963,
  "hu": 2964,
  "\u2581Windows": 2965,
  "\u2581aurkako": 2966,
  "\u2581board": 2967,
  "\u2581input": 2968,
  "\u2581kokalekua": 2969,
  "\u2581points": 2970,
  "kar": 2971,
  "ley": 2972,
  "\u2581Aurrera": 2973,
  "\u2581gives": 2974,
  "\u2581kargatu": 2975,
  "\u2581dadin": 2976,
  "\u25819": 2977,
  "\u2581beltz": 2978,
  "\u2581En": 2979,
  "tsua": 2980,
  "\u2581match": 2981,
  "\u2581rule": 2982,
  "\u2581sake": 2983,
  "\u2581forth": 2984,
  "\u2581harekin": 2985,
  "\u2581print": 2986,
  "\u2581continued": 2987,
  "\u2581equal": 2988,
  "\u2581Horixe": 2989,
  "\u2581broken": 2990,
  "\u2581finished": 2991,
  "\u2581born": 2992,
  "\u2581deep": 2993,
  "\u2581ondoko": 2994,
  "day": 2995,
  "\u2581formatua": 2996,
  "\u2581zertan": 2997,
  "\u2581dinner": 2998,
  "Why": 2999,
  "\u2581polita": 3000,
  "\u2581Document": 3001,
  "\u2581reached": 3002,
  "\u2581height": 3003,
  "\u2581Pe": 3004,
  "\u2581URI": 3005,
  "\u2581ehun": 3006,
  "\u2581emandako": 3007,
  "\u2581co": 3008,
  "\u2581hilko": 3009,
  "\u2581wine": 3010,
  "J": 3011,
  "\u2581amak": 3012,
  "\u2581bakoitzaren": 3013,
  "\u2581difference": 3014,
  "\u2581girls": 3015,
  "\u2581jasan": 3016,
  "you": 3017,
  "\u2581bistaratzeko": 3018,
  "\u2581daki": 3019,
  "\u2581Therefore": 3020,
  "\u2581Europe": 3021,
  "\u2581description": 3022,
  "\u2581i\u00e7an": 3023,
  "\u2581pro": 3024,
  "con": 3025,
  "\u2581smile": 3026,
  "\u2581ezkerreko": 3027,
  "\u2581posizioa": 3028,
  "\u2581wind": 3029,
  "\u2581Hartu": 3030,
  "\u2581Mark": 3031,
  "\u2581hit": 3032,
  "\u2581Vi": 3033,
  "\u2581atsegina": 3034,
  "\u2581goiko": 3035,
  "\u2581bestera": 3036,
  "mer": 3037,
  "\u2581bear": 3038,
  "\u2581handiena": 3039,
  "\u2581nintzela": 3040,
  "\u2581()": 3041,
  "\u2581Behin": 3042,
  "\u2581Hain": 3043,
  "\u2581dik": 3044,
  "\u2581James": 3045,
  "\u2581Sun": 3046,
  "\u2581preview": 3047,
  "\u2581May": 3048,
  "\u2581boys": 3049,
  "\u2581worth": 3050,
  "min": 3051,
  "\u2581batzuen": 3052,
  "\u2581serious": 3053,
  "\u2581universal": 3054,
  "\u258130": 3055,
  "\u2581niretzat": 3056,
  "ner": 3057,
  "\u2581considered": 3058,
  "\u2581irekitzen": 3059,
  "\u2581principle": 3060,
  "\u2581Desktop": 3061,
  "\u2581contacts": 3062,
  "\u2581gun": 3063,
  "tasunaren": 3064,
  "arazi": 3065,
  "\u2581Atzeko": 3066,
  "\u2581elementua": 3067,
  "mb": 3068,
  "mon": 3069,
  "\u2581gehien": 3070,
  "\u2581gordetzeko": 3071,
  "\u2581izeneko": 3072,
  "\u2581iritzi": 3073,
  "\u2581telling": 3074,
  "\u2581User": 3075,
  "\u2581harri": 3076,
  "\u2581onak": 3077,
  "\u2581ikasi": 3078,
  "\u2581ukitu": 3079,
  "tia": 3080,
  "\u2581Every": 3081,
  "\u2581Up": 3082,
  "\u2581greatest": 3083,
  "\u2581irekitzeko": 3084,
  "\u2581Kon": 3085,
  "\u2581bidaltzeko": 3086,
  "\u2581honetako": 3087,
  "\u2581Font": 3088,
  "\u2581beharrean": 3089,
  "\u2581ile": 3090,
  "\u2581dolar": 3091,
  "\u2581elkarri": 3092,
  "\u2581quiet": 3093,
  "\u2581Find": 3094,
  "\u2581Listen": 3095,
  "\u2581haiz": 3096,
  "\u2581nazazu": 3097,
  "\u2581odol": 3098,
  "\u2581zor": 3099,
  "\u2581inguru": 3100,
  "\u2581esanez": 3101,
  "\u2581historia": 3102,
  "\u2581bereko": 3103,
  "oi": 3104,
  "\u2581nations": 3105,
  "\u2581ziola": 3106,
  "ger": 3107,
  "\u2581due": 3108,
  "\u2581player": 3109,
  "ZEIN": 3110,
  "\u2581Games": 3111,
  "\u2581barru": 3112,
  "\u2581offer": 3113,
  "\u2581sub": 3114,
  "\u2581track": 3115,
  "\u2581Hautatutako": 3116,
  "ham": 3117,
  "ies": 3118,
  "\u2581Import": 3119,
  "\u2581Tomek": 3120,
  "\u2581meant": 3121,
  "\u2581jakingo": 3122,
  "\u2581jokatu": 3123,
  "\u2581ordena": 3124,
  "-\"": 3125,
  "gin": 3126,
  "\u2581simply": 3127,
  "ran": 3128,
  "\u2581books": 3129,
  "\u2581ardura": 3130,
  "\u2581zehatz": 3131,
  "se": 3132,
  "\u2581erosi": 3133,
  "\u2581Kim": 3134,
  "\u2581daukazu": 3135,
  "ES": 3136,
  "\u2581knight": 3137,
  "\u2581Ro": 3138,
  "\u2581sortzeko": 3139,
  "\u2581hotel": 3140,
  "\u2581instance": 3141,
  "\u2581laid": 3142,
  "\u2581removed": 3143,
  "\u2581zutabea": 3144,
  "\u2581authority": 3145,
  "\u2581egokia": 3146,
  "\u2581choice": 3147,
  "\u2581users": 3148,
  "\u2581daitekeen": 3149,
  "\u2581erakutsiko": 3150,
  "\u2581especially": 3151,
  "\u2581hauxe": 3152,
  "\u2581$": 3153,
  "\u2581ibiltzen": 3154,
  "\u2581shows": 3155,
  "gnome": 3156,
  "\u2581handle": 3157,
  "\u2581kid": 3158,
  "\u2581output": 3159,
  "\u2581raised": 3160,
  "\u2581script": 3161,
  "How": 3162,
  "\u2581gertaera": 3163,
  "\u2581gogoko": 3164,
  "\u2581Aizu": 3165,
  "\u2581Bidali": 3166,
  "\u2581Fabrizio": 3167,
  "\u2581Keep": 3168,
  "\u2581hantxe": 3169,
  "\u2581itzuliko": 3170,
  "/%": 3171,
  "\u2581konfigurazioa": 3172,
  "\u2581v": 3173,
  "\u2581Ur": 3174,
  "\u2581dizuet": 3175,
  "\u2581false": 3176,
  "\u2581hasieran": 3177,
  "\u2581zaila": 3178,
  "tin": 3179,
  "To": 3180,
  "\u2581bilatu": 3181,
  "\u2581enabled": 3182,
  "ize": 3183,
  "\u2581hanka": 3184,
  "\u2581led": 3185,
  "\u2581sinesten": 3186,
  "\u2581egoten": 3187,
  "\u2581nahiago": 3188,
  "bel": 3189,
  "ala": 3190,
  "\u2581aterako": 3191,
  "\u2581geldi": 3192,
  "\u2581consider": 3193,
  "\u2581Saiatu": 3194,
  "\u2581bero": 3195,
  "\u2581caught": 3196,
  "vo": 3197,
  "\u2581continue": 3198,
  "\u2581dabil": 3199,
  "\u2581berezi": 3200,
  "\u2581dagoeneko": 3201,
  "\u2581mahai": 3202,
  "000": 3203,
  "AK": 3204,
  "\u2581Next": 3205,
  "\u2581erabiltzea": 3206,
  "\u2581nonbait": 3207,
  "\u2581lanean": 3208,
  "LE": 3209,
  "tera": 3210,
  "\u2581heavy": 3211,
  "gar": 3212,
  "\u2581external": 3213,
  "set": 3214,
  "\u2581reality": 3215,
  "\u2581ikustera": 3216,
  "\u2581license": 3217,
  "\u2581pasatzen": 3218,
  "\u2581gorputza": 3219,
  "\u2581distance": 3220,
  "\u2581faith": 3221,
  "\u2581ados": 3222,
  "\u2581badakit": 3223,
  "\u2581media": 3224,
  "\u2581deus": 3225,
  "\u2581Rome": 3226,
  "\u2581carry": 3227,
  "\u2581difficult": 3228,
  "\u2581Mail": 3229,
  "rs": 3230,
  "\u2581goizean": 3231,
  "gabe": 3232,
  "\u2581George": 3233,
  "\u2581imagine": 3234,
  "\u2581Adibidez": 3235,
  "\u2581Lasai": 3236,
  "\u2581Run": 3237,
  "\u2581idazten": 3238,
  "\u2581Ea": 3239,
  "\u2581gehitzeko": 3240,
  "\u2581izenak": 3241,
  "gana": 3242,
  "\u2581Top": 3243,
  "izen": 3244,
  "list": 3245,
  "\u2581Red": 3246,
  "\u2581existing": 3247,
  "\u2581zebilen": 3248,
  "\u2581dutenak": 3249,
  "\u2581Dad": 3250,
  "\u2581certificate": 3251,
  "\u2581Une": 3252,
  "\u2581glass": 3253,
  "\u2581result": 3254,
  "\u2581gabea": 3255,
  "\u2581slowly": 3256,
  "\u2581unless": 3257,
  "\u2581duzunean": 3258,
  "\u2581Athenians": 3259,
  "\u2581Charles": 3260,
  "\u2581bazuen": 3261,
  "\u2581edan": 3262,
  "ide": 3263,
  "\u2581library": 3264,
  ");": 3265,
  "\u2581!": 3266,
  "\u2581Mi": 3267,
  "\u2581although": 3268,
  "\u2581green": 3269,
  "\u2581jokatzen": 3270,
  "\u2581TO": 3271,
  "\u2581crazy": 3272,
  "\u2581funtzioak": 3273,
  "\u2581hautapena": 3274,
  "\u2581ondorio": 3275,
  "tipoa": 3276,
  "\u2581erabilera": 3277,
  "\u2581zenbakia": 3278,
  "\u2581archive": 3279,
  "\u2581buy": 3280,
  "\u2581early": 3281,
  "\u2581sounds": 3282,
  "che": 3283,
  "su": 3284,
  "\u2581Neska": 3285,
  "\u2581Power": 3286,
  "\u2581errore": 3287,
  "\u2581info": 3288,
  "nes": 3289,
  "\u2581somebody": 3290,
  "out": 3291,
  "\u2581Bistaratu": 3292,
  "\u2581aitak": 3293,
  "\u2581honour": 3294,
  "\u2581kentzen": 3295,
  "\u2581hasteko": 3296,
  "\u2581berezia": 3297,
  "\u2581eight": 3298,
  "zo": 3299,
  "\u2581fit": 3300,
  "\u2581package": 3301,
  "ard": 3302,
  "chi": 3303,
  "\u2581Ivan": 3304,
  "\u2581aurrez": 3305,
  "\u2581Log": 3306,
  "\u2581dream": 3307,
  "\u2581leihoaren": 3308,
  "mota": 3309,
  "\u2581Ezer": 3310,
  "\u2581Note": 3311,
  "\u2581visible": 3312,
  "\u2581anyway": 3313,
  "\u2581erraza": 3314,
  "\u2581jakina": 3315,
  "\u2581Ikusten": 3316,
  "\u2581appears": 3317,
  "\u2581otherwise": 3318,
  "\u2581helburu": 3319,
  "\u2581po": 3320,
  "\u2581Si": 3321,
  "\u2581goiz": 3322,
  "\u2581FOR": 3323,
  "\u2581However": 3324,
  "\u2581gaztelu": 3325,
  "\u2581soil": 3326,
  "\u2581Hasi": 3327,
  "\u2581bizkor": 3328,
  "\u2581completely": 3329,
  "\u2581ex": 3330,
  "\u2581jaten": 3331,
  "mar": 3332,
  "\u2581Er": 3333,
  "\u2581indarra": 3334,
  "\u2581irudiaren": 3335,
  "\u2581latter": 3336,
  "\u2581ordaindu": 3337,
  "\u2581zitzaien": 3338,
  "\u2581glad": 3339,
  "\u2581rich": 3340,
  "\u2581toward": 3341,
  "\u2581lekuan": 3342,
  "\u2581Cards": 3343,
  "\u2581gets": 3344,
  "\u2581Joko": 3345,
  "\u2581Alice": 3346,
  "\u2581sweet": 3347,
  "\u2581emaitza": 3348,
  "\u2581layer": 3349,
  "\u2581Alde": 3350,
  "\u2581aitaren": 3351,
  "\u2581elementuak": 3352,
  "\u2581kanpoan": 3353,
  "\u2581Inoiz": 3354,
  "\u2581notes": 3355,
  "\u00e9n": 3356,
  "\u2581forms": 3357,
  "\u2581sar": 3358,
  "\u2581Send": 3359,
  "\u2581iraun": 3360,
  "\u2581kontrol": 3361,
  "\u2581marka": 3362,
  "\u2581notice": 3363,
  "\u2581pieces": 3364,
  "\u2581Egoera": 3365,
  "\u2581bestelako": 3366,
  "\u2581sinetsi": 3367,
  "\u2581plain": 3368,
  "quot": 3369,
  "\u2581bideo": 3370,
  "\u2581dokumentu": 3371,
  "\u2581jatorrizko": 3372,
  "\u2581neurri": 3373,
  "\u2581host": 3374,
  "\u2581charge": 3375,
  "\u2581events": 3376,
  "\u2581lying": 3377,
  "\u2581nizun": 3378,
  "\u2581properties": 3379,
  "bor": 3380,
  "\u2581build": 3381,
  "\u2581noble": 3382,
  "\u2581accept": 3383,
  "\u2581eten": 3384,
  "ary": 3385,
  "\u2581bezalaxe": 3386,
  "\u2581irakurtzen": 3387,
  "\u2581zuhaitz": 3388,
  "teklak": 3389,
  "\u2581=": 3390,
  "\u2581diogu": 3391,
  "\u2581Fuck": 3392,
  "\u2581Ordu": 3393,
  "\u2581bidaltzen": 3394,
  "\u2581etiketa": 3395,
  "\u2581mende": 3396,
  "\u2581et": 3397,
  "\u2581KDE": 3398,
  "\u2581worse": 3399,
  "\u2581zuretzat": 3400,
  "\u2581Each": 3401,
  "\u2581herrialde": 3402,
  "\u2581Am": 3403,
  "\u2581everybody": 3404,
  "\u2581kontrako": 3405,
  "\u2581zuzena": 3406,
  "dena": 3407,
  "\u2581eguna": 3408,
  "\u2581galtzen": 3409,
  "\u2581taula": 3410,
  "\u2581clothes": 3411,
  "\u2581Jarri": 3412,
  "\u2581badute": 3413,
  "\u2581colors": 3414,
  "\u2581allows": 3415,
  "\u2581SOC": 3416,
  "\u2581conditions": 3417,
  "\u2581eskaini": 3418,
  "\u2581proper": 3419,
  "\u2581seconds": 3420,
  "\u2581Four": 3421,
  "\u2581miniaplikazioa": 3422,
  "kuntza": 3423,
  "\u2581Max": 3424,
  "\u2581Server": 3425,
  "\u2581map": 3426,
  "RATES": 3427,
  "rengana": 3428,
  "\u2581eutsi": 3429,
  "\u2581inguruko": 3430,
  "\u2581es": 3431,
  "Hori": 3432,
  "let": 3433,
  "\u2581Gau": 3434,
  "\u2581koadro": 3435,
  "\u2581lips": 3436,
  "\u2581various": 3437,
  "\u2581lower": 3438,
  "\u2581GTK": 3439,
  "\u2581jabe": 3440,
  "\u2581oharrak": 3441,
  "\u2581gogoratzen": 3442,
  "\u2581gutxienez": 3443,
  "\u2581moduko": 3444,
  "\u2581mailako": 3445,
  "AN": 3446,
  "\u2581bikoitza": 3447,
  "\u2581sartzeko": 3448,
  "ism": 3449,
  "tatu": 3450,
  "\u2581freedom": 3451,
  "\u2581lehendik": 3452,
  "\u2581occurred": 3453,
  "\u2581pasatu": 3454,
  "\u2581ahead": 3455,
  "\u2581arrived": 3456,
  "\u2581ecen": 3457,
  "\u2581goian": 3458,
  "\u2581je": 3459,
  "\u2581dugula": 3460,
  "\u2581erregea": 3461,
  "\u2581parents": 3462,
  "\u2581Documentation": 3463,
  "\u2581Address": 3464,
  "ts": 3465,
  "\u2581Balio": 3466,
  "\u2581fun": 3467,
  "\u2581hate": 3468,
  "\u2581paid": 3469,
  "\u2581Bob": 3470,
  "\u2581Argi": 3471,
  "\u2581Line": 3472,
  "\u2581jendeak": 3473,
  "All": 3474,
  "data": 3475,
  "rio": 3476,
  "\u2581helburua": 3477,
  "\u2581entire": 3478,
  "\u2581irteera": 3479,
  "tzi": 3480,
  "\u2581Posta": 3481,
  "\u2581kaka": 3482,
  "\u2581store": 3483,
  "\u2581About": 3484,
  "\u2581elkarren": 3485,
  "\u2581escape": 3486,
  "\u2581Ca": 3487,
  "\u2581amets": 3488,
  "\u2581appearance": 3489,
  "q": 3490,
  "\u2581Lake": 3491,
  "rra": 3492,
  "\u2581norbaitek": 3493,
  "\u2581opposite": 3494,
  "\u2581pick": 3495,
  "\u2581est": 3496,
  "\u2581izenean": 3497,
  "\u2581expected": 3498,
  "\u2581root": 3499,
  "\u2581shortcut": 3500,
  "\u2581distributed": 3501,
  "Ma": 3502,
  "\u2581Dan": 3503,
  "\u2581Ed": 3504,
  "\u2581Madame": 3505,
  "\u2581contain": 3506,
  "\u2581knowing": 3507,
  "\u2581rose": 3508,
  "\u2581starting": 3509,
  "\u2581Je": 3510,
  "\u2581bazara": 3511,
  "\u2581presence": 3512,
  "\u2581gerta": 3513,
  "\u2581rate": 3514,
  "\u2581altuera": 3515,
  "\u2581ar": 3516,
  "\u2581buttons": 3517,
  "\u2581didate": 3518,
  "\u2581dokumentua": 3519,
  "\u2581needed": 3520,
  "\u2581u": 3521,
  "\u2581zieten": 3522,
  "\u2581hartuta": 3523,
  "tuak": 3524,
  "\u2581iristen": 3525,
  "\u2581toolbar": 3526,
  "ING": 3527,
  "\u2581uko": 3528,
  "\u2581Ohar": 3529,
  "\u2581geratuko": 3530,
  "\u2581badugu": 3531,
  "\u2581distira": 3532,
  "\u2581hizkuntza": 3533,
  "ey": 3534,
  "\u2581etortzen": 3535,
  "\u2581planoaren": 3536,
  "\u2581Testua": 3537,
  "\u2581kezkatu": 3538,
  "\u2581ohitura": 3539,
  "\u2581priest": 3540,
  "ier": 3541,
  "\u2581buruaren": 3542,
  "\u2581diet": 3543,
  "\u2581meaning": 3544,
  "\u2581promise": 3545,
  "\u2581ta": 3546,
  "Stock": 3547,
  "\u2581Empathy": 3548,
  "\u2581alderdi": 3549,
  "\u2581range": 3550,
  "\u2581remain": 3551,
  "ted": 3552,
  "\u2581Try": 3553,
  "\u2581editor": 3554,
  "\u2581named": 3555,
  "\u2581osoko": 3556,
  "ble": 3557,
  "\u2581Zatoz": 3558,
  "\u2581More": 3559,
  "\u2581lekua": 3560,
  "\u2581amaiera": 3561,
  "\u2581clean": 3562,
  "\u2581covered": 3563,
  "ji": 3564,
  "\u2581Honela": 3565,
  "\u2581legeak": 3566,
  "\u2581altxatu": 3567,
  "\u2581hogeita": 3568,
  "So": 3569,
  "\u2581Plugin": 3570,
  "\u2581fixed": 3571,
  "txe": 3572,
  "\u2581battle": 3573,
  "\u2581http": 3574,
  "\u2581method": 3575,
  "\u2581pa": 3576,
  "pu": 3577,
  "\u2581IN": 3578,
  "\u2581Min": 3579,
  "\u2581Very": 3580,
  "\u2581beside": 3581,
  "\u2581jasotzen": 3582,
  "zen": 3583,
  "\u2581hortik": 3584,
  "\u2581Back": 3585,
  "\u2581direktorio": 3586,
  "\u2581asking": 3587,
  "\u2581soldadu": 3588,
  "\u2581fitxategian": 3589,
  "\u2581personal": 3590,
  "\u2581zuzenean": 3591,
  "\u2581Mahai": 3592,
  "\u2581applet": 3593,
  "\u2581motion": 3594,
  "\u2581direction": 3595,
  "\u2581French": 3596,
  "\u2581baliozko": 3597,
  "\u2581Really": 3598,
  "\u2581guztian": 3599,
  "\u2581Out": 3600,
  "\u2581heinean": 3601,
  "\u2581river": 3602,
  "\u2581itsas": 3603,
  "\u2581zeharo": 3604,
  "fitxategi": 3605,
  "ita": 3606,
  "razi": 3607,
  "\u2581Ga": 3608,
  "\u2581broke": 3609,
  "\u2581fitxategiaren": 3610,
  "\u2581sword": 3611,
  "\u2581zazpi": 3612,
  "ny": 3613,
  "sistema": 3614,
  "\u2581Stephen": 3615,
  "\u2581beharrezkoa": 3616,
  "\u2581decided": 3617,
  "xe": 3618,
  "\u2581Kopiatu": 3619,
  "\u2581TRUE": 3620,
  "\u2581hasierako": 3621,
  "\u2581hautatzeko": 3622,
  "\u2581Mary": 3623,
  "\u2581Put": 3624,
  "\u2581Bost": 3625,
  "\u2581hauen": 3626,
  "\u2581trees": 3627,
  "\u2581chief": 3628,
  "dy": 3629,
  "\u2581Manual": 3630,
  "\u2581join": 3631,
  "\u2581liteke": 3632,
  "Zergatik": 3633,
  "\u2581filter": 3634,
  "\u2581header": 3635,
  "\u2581Bide": 3636,
  "\u2581geroago": 3637,
  "\u2581ikuspegi": 3638,
  "\u2581lead": 3639,
  "\u2581nazio": 3640,
  "\u2581seek": 3641,
  "mm": 3642,
  "\u2581Izena": 3643,
  "\u2581denik": 3644,
  "\u2581English": 3645,
  "\u2581Which": 3646,
  "\u2581neuk": 3647,
  "\u2581ezkutatu": 3648,
  "\u2581ka": 3649,
  "\u2581stone": 3650,
  "\u2581joatea": 3651,
  "tzaileak": 3652,
  "\u2581volume": 3653,
  "\u2581Command": 3654,
  "\u2581erabilitako": 3655,
  "oa": 3656,
  "ya": 3657,
  "\u2581Mode": 3658,
  "\u2581duty": 3659,
  "\u2581Date": 3660,
  "\u2581barra": 3661,
  "\u2581nahian": 3662,
  "\u2581Those": 3663,
  "\u2581lauki": 3664,
  "This": 3665,
  "bit": 3666,
  "\u2581Moses": 3667,
  "\u2581desagertu": 3668,
  "\u2581eskuratu": 3669,
  "\u2581formatu": 3670,
  "\u2581questions": 3671,
  "\u2581struck": 3672,
  "\u2581terrible": 3673,
  "\u2581cases": 3674,
  "ang": 3675,
  "dio": 3676,
  "\u2581Car": 3677,
  "\u2581sky": 3678,
  "engana": 3679,
  "\u2581Gai": 3680,
  "\u2581bodies": 3681,
  "\u2581tipo": 3682,
  "\u2581win": 3683,
  "\u2581si": 3684,
  "\u258117": 3685,
  "\u2581Version": 3686,
  "\u2581garden": 3687,
  "\u2581stupid": 3688,
  "\u2581tea": 3689,
  "\u2581Bu": 3690,
  "\u2581cast": 3691,
  "ab": 3692,
  "\u2581bikaina": 3693,
  "nda": 3694,
  "\u2581gaitz": 3695,
  "\u2581standard": 3696,
  "\u2581dudana": 3697,
  "\u2581kids": 3698,
  "\u2581profile": 3699,
  "\u2581substance": 3700,
  "There": 3701,
  "\u2581Street": 3702,
  "\u2581ahala": 3703,
  "\u2581based": 3704,
  "\u2581flesh": 3705,
  "\u2581hadn": 3706,
  "\u2581South": 3707,
  "\u2581hobea": 3708,
  "\u2581isilik": 3709,
  "\u2581laugh": 3710,
  "\u2581wrote": 3711,
  "\u2581Maria": 3712,
  "\u2581hardly": 3713,
  "12": 3714,
  "\u2581animals": 3715,
  "\u2581happens": 3716,
  "\u2581uh": 3717,
  "\u2581Du": 3718,
  "\u2581gaineko": 3719,
  "\u2581plugina": 3720,
  "tur": 3721,
  "ua": 3722,
  "\u2581Jakin": 3723,
  "\u2581hartzea": 3724,
  "\u2581bakoitzeko": 3725,
  "lari": 3726,
  "\u2581digu": 3727,
  "\u2581remained": 3728,
  "\u2581test": 3729,
  "\u2581Kontuz": 3730,
  "\u2581~": 3731,
  "\u2581diskoa": 3732,
  "\u2581fill": 3733,
  "\u2581missing": 3734,
  "\u2581zeinak": 3735,
  "\u2581lagunak": 3736,
  "\u2581luzea": 3737,
  "IK": 3738,
  "tsa": 3739,
  "\u2581aho": 3740,
  "\u2581material": 3741,
  "\u2581ezinezkoa": 3742,
  "\u2581widget": 3743,
  "\u2581Disko": 3744,
  "\u2581Ti": 3745,
  "\u2581buruaz": 3746,
  "\u2581erakusteko": 3747,
  "pena": 3748,
  "\u2581beauty": 3749,
  "\u2581bihar": 3750,
  "\u2581directly": 3751,
  "RIK": 3752,
  "\u2581understood": 3753,
  "\u2581danger": 3754,
  "\u2581hautsi": 3755,
  "\u2581konexioa": 3756,
  "\u2581distribute": 3757,
  "\u2581edge": 3758,
  "\u2581hutsak": 3759,
  "\u2581Henry": 3760,
  "\u2581Password": 3761,
  "\u2581regard": 3762,
  "\u2581Group": 3763,
  "\u2581Never": 3764,
  "\u2581dezan": 3765,
  "\u2581zirenean": 3766,
  "\u2581mi": 3767,
  "\u2581prestatu": 3768,
  "OUT": 3769,
  "ai": 3770,
  "keyboard": 3771,
  "tore": 3772,
  "\u2581Contact": 3773,
  "\u2581Pre": 3774,
  "\u2581pawn": 3775,
  "\u2581BESTE": 3776,
  "\u2581baimena": 3777,
  "\u2581ohartu": 3778,
  "\u258116": 3779,
  "\u2581askotan": 3780,
  "\u2581alferrik": 3781,
  "\u2581gakoak": 3782,
  "\u2581rules": 3783,
  "\u2581hat": 3784,
  "Comment": 3785,
  "\u2581Mac": 3786,
  "\u2581chair": 3787,
  "\u2581finally": 3788,
  "\u2581serve": 3789,
  "\u2581eraiki": 3790,
  "\u2581garbitu": 3791,
  "\u2581harro": 3792,
  "ndi": 3793,
  "was": 3794,
  "\u2581lurralde": 3795,
  "egin": 3796,
  "port": 3797,
  "teko": 3798,
  "\u2581justice": 3799,
  "ile": 3800,
  "\u2581baldintza": 3801,
  "\u2581browser": 3802,
  "\u2581izugarri": 3803,
  "\u2581wise": 3804,
  "\u2581Properties": 3805,
  "\u2581nora": 3806,
  "\u2581antzera": 3807,
  "\u2581Dickie": 3808,
  "\u2581Kontua": 3809,
  "\u2581askatu": 3810,
  "\u2581train": 3811,
  "file": 3812,
  "\u2581Testu": 3813,
  "\u2581arma": 3814,
  "\u2581arreta": 3815,
  "des": 3816,
  "ite": 3817,
  "\u2581Play": 3818,
  "\u2581dagokionez": 3819,
  "\u2581hidden": 3820,
  "\u2581lekuz": 3821,
  "\u2581afternoon": 3822,
  "\u2581attribute": 3823,
  "\u2581judgment": 3824,
  "\u2581kopiatu": 3825,
  "\u2581mina": 3826,
  "\u2581preferences": 3827,
  "\u2581Prince": 3828,
  "\u2581entirely": 3829,
  "\u2581Ri": 3830,
  "\u2581Was": 3831,
  "\u2581argument": 3832,
  "\u2581objektua": 3833,
  "\u2581wonder": 3834,
  "\u2581Great": 3835,
  "\u2581IMAP": 3836,
  "\u2581higher": 3837,
  "\u2581LDAP": 3838,
  "\u2581arrazoia": 3839,
  "xka": 3840,
  "\u2581cry": 3841,
  "\u2581exekutatzen": 3842,
  "\u2581gailua": 3843,
  "\u2581mugi": 3844,
  "her": 3845,
  "\u2581fair": 3846,
  "\u2581regular": 3847,
  "\u2581zero": 3848,
  "\u2581Hobe": 3849,
  "\u2581correct": 3850,
  "\u2581pixels": 3851,
  "\u2581provided": 3852,
  "\u2581baitute": 3853,
  "\u2581laguna": 3854,
  "\u2581munduko": 3855,
  "\u2581100": 3856,
  "\u2581botoi": 3857,
  "\u2581ditugun": 3858,
  "\u2581joy": 3859,
  "\u2581zeina": 3860,
  "\u2581biltzen": 3861,
  "\u2581relation": 3862,
  "\u2581Dick": 3863,
  "\u2581jarrita": 3864,
  "\u2581pentsa": 3865,
  "\u2581mo": 3866,
  "\u2581zelako": 3867,
  "\u2581Does": 3868,
  "\u2581horses": 3869,
  "\u2581piztu": 3870,
  "\u2581duzuna": 3871,
  "\u2581konfigurazio": 3872,
  "\u2581holding": 3873,
  "\u2581Alt": 3874,
  "\u2581fortune": 3875,
  "\u2581request": 3876,
  "\u2581errenkada": 3877,
  "\u2581zaharrak": 3878,
  "\u2581Era": 3879,
  "\u2581liberty": 3880,
  "\u2581spoken": 3881,
  "\u2581edota": 3882,
  "\u2581GABE": 3883,
  "\u2581Sakatu": 3884,
  "ud": 3885,
  "\u2581asmoa": 3886,
  "\u2581damn": 3887,
  "\u2581fish": 3888,
  "\u2581mad": 3889,
  "\u2581mark": 3890,
  "\u2581aztertu": 3891,
  "\u2581expect": 3892,
  "\u2581na": 3893,
  "\u2581Asko": 3894,
  "\u2581ho": 3895,
  "\u2581Fa": 3896,
  "\u2581Noiz": 3897,
  "\u2581maitasuna": 3898,
  "\u2581zi": 3899,
  "\u2581France": 3900,
  "\u2581uzteko": 3901,
  "duna": 3902,
  "\u2581Zoaz": 3903,
  "\u2581gnome": 3904,
  "\u2581follows": 3905,
  "fer": 3906,
  "\u2581GConf": 3907,
  "\u2581learned": 3908,
  "\u2581pi": 3909,
  "\u2581zutik": 3910,
  "ista": 3911,
  "not": 3912,
  "\u2581Inork": 3913,
  "\u2581determined": 3914,
  "\u2581limit": 3915,
  "\u2581motel": 3916,
  "\u2581sa": 3917,
  "\u2581Gelditu": 3918,
  "\u2581Nibbles": 3919,
  "\u2581kale": 3920,
  "\u2581mintzatu": 3921,
  "\u2581silent": 3922,
  "\u2581dituela": 3923,
  "\u2581period": 3924,
  "\u2581zaituzte": 3925,
  "retik": 3926,
  "\u2581Hold": 3927,
  "\u2581animal": 3928,
  "For": 3929,
  "\u2581blocks": 3930,
  "\u2581North": 3931,
  "\u2581Tu": 3932,
  "\u2581orokor": 3933,
  "pre": 3934,
  "\u2581Hizkuntza": 3935,
  "\u2581beldurra": 3936,
  "\u2581ezkondu": 3937,
  "\u2581maiz": 3938,
  "gandik": 3939,
  "zkoa": 3940,
  "\u2581Lagun": 3941,
  "\u2581bound": 3942,
  "\u2581urdin": 3943,
  "\u2581capable": 3944,
  "\u2581aldeko": 3945,
  "\u2581cool": 3946,
  "\u2581dezakegu": 3947,
  "\u2581estu": 3948,
  "\u2581ja": 3949,
  "\u2581polizia": 3950,
  "\u2581Anjuta": 3951,
  "\u2581visit": 3952,
  "\u2581Once": 3953,
  "\u2581edit": 3954,
  "\u2581eskubidea": 3955,
  "They": 3956,
  "\u2581baztertu": 3957,
  "00": 3958,
  "fo": 3959,
  "itu": 3960,
  "entzia": 3961,
  "\u2581wild": 3962,
  "ise": 3963,
  "\u2581Bill": 3964,
  "\u2581Jerusalem": 3965,
  "\u2581movement": 3966,
  "\u2581Fi": 3967,
  "Don": 3968,
  "\u2581Port": 3969,
  "\u2581specific": 3970,
  "\u2581talked": 3971,
  "\u2581Excuse": 3972,
  "\u2581aditu": 3973,
  "\u2581anybody": 3974,
  "\u2581servant": 3975,
  "RI": 3976,
  "color": 3977,
  "dia": 3978,
  "\u2581calling": 3979,
  "\u2581Elizabeth": 3980,
  "My": 3981,
  "txoa": 3982,
  "\u2581duenak": 3983,
  "OR": 3984,
  "ating": 3985,
  "\u2581bug": 3986,
  "\u2581usually": 3987,
  "eri": 3988,
  "rd": 3989,
  "\u2581Bigarren": 3990,
  "\u2581gertu": 3991,
  "\u2581gods": 3992,
  "\u2581tired": 3993,
  "\u2581Ab": 3994,
  "xa": 3995,
  "\u2581errua": 3996,
  "\u2581lore": 3997,
  "\u2581afterwards": 3998,
  "\u2581published": 3999,
  "\u2581Bihar": 4000,
  "\u2581advantage": 4001,
  "\u2581ikono": 4002,
  "\u2581koloreak": 4003,
  "\u2581uztea": 4004,
  "ful": 4005,
  "\u2581Men": 4006,
  "\u2581degree": 4007,
  "\u2581ezein": 4008,
  "\u2581post": 4009,
  "\u2581w": 4010,
  "$": 4011,
  "\u2581quick": 4012,
  "://": 4013,
  "\u2581beharrezko": 4014,
  "\u2581nolabait": 4015,
  "\\@": 4016,
  "\u2581Editor": 4017,
  "\u2581nation": 4018,
  "rren": 4019,
  "\u2581glory": 4020,
  "\u2581hotz": 4021,
  "\u2581te": 4022,
  "\u2581Kontaktu": 4023,
  "\u2581botatzen": 4024,
  "\u2581ha": 4025,
  "\u2581hartaz": 4026,
  "\u2581returns": 4027,
  "RA": 4028,
  "sko": 4029,
  "\u2581Exekutatu": 4030,
  "\u2581asmatu": 4031,
  "\u2581horretara": 4032,
  "\u2581kate": 4033,
  "\u2581aware": 4034,
  "\u2581baietz": 4035,
  "\u2581ber": 4036,
  "\u2581hasiera": 4037,
  "\u2581negar": 4038,
  "engandik": 4039,
  "ola": 4040,
  "tuz": 4041,
  "\u2581Clear": 4042,
  "\u2581Prop": 4043,
  "\u2581amount": 4044,
  "\u2581score": 4045,
  "\u2581GIMP": 4046,
  "\u2581printzipio": 4047,
  "\u2581Per": 4048,
  "\u2581cursor": 4049,
  "\u2581Zertan": 4050,
  "\u2581ahotsa": 4051,
  "\u2581beheko": 4052,
  "\u2581explain": 4053,
  "\u2581hasiko": 4054,
  "\u2581difficulty": 4055,
  "\u2581moztu": 4056,
  "\u2581situation": 4057,
  "down": 4058,
  "reko": 4059,
  "\u2581Spade": 4060,
  "\u2581anymore": 4061,
  "\u2581orokorra": 4062,
  "\u2581showed": 4063,
  "\u2581throw": 4064,
  "\u2581weeks": 4065,
  "off": 4066,
  "\u2581Internet": 4067,
  "\u2581hizketan": 4068,
  "koan": 4069,
  "stra": 4070,
  "\u2581Ad": 4071,
  "\u2581Inc": 4072,
  "\u2581balioak": 4073,
  "\u2581Ikus": 4074,
  "\u2581cache": 4075,
  "\u2581Bestela": 4076,
  "\u2581euskarria": 4077,
  "\u2581Shell": 4078,
  "\u2581building": 4079,
  "\u2581stream": 4080,
  "\u2581Uh": 4081,
  "\u2581Chi": 4082,
  "\u2581Egiaztatu": 4083,
  "\u2581Hona": 4084,
  "\u2581Martin": 4085,
  "\u2581jaio": 4086,
  "\u2581mahaigaineko": 4087,
  "\u2581sor": 4088,
  "\u2581zutabe": 4089,
  "\u2581agertuko": 4090,
  "\u2581import": 4091,
  "Go": 4092,
  "\u2581Za": 4093,
  "\u2581exekutatu": 4094,
  "\u2581lizentzia": 4095,
  "\u2581labur": 4096,
  "\u2581distinct": 4097,
  "ong": 4098,
  "\u2581Ia": 4099,
  "\u2581banu": 4100,
  "\u2581horietan": 4101,
  "\u2581observed": 4102,
  "ekiko": 4103,
  "zer": 4104,
  "\u2581Left": 4105,
  "\u2581interes": 4106,
  "\u2581sendo": 4107,
  "ot": 4108,
  "\u2581Disc": 4109,
  "arra": 4110,
  "\u2581Network": 4111,
  "\u2581usual": 4112,
  "\u2581Beharbada": 4113,
  "\u2581Proiektu": 4114,
  "\u2581causes": 4115,
  "\u2581daukagu": 4116,
  "\u2581egitean": 4117,
  "\u2581opening": 4118,
  "wa": 4119,
  "\u2581duelako": 4120,
  "kada": 4121,
  "\u2581Geldi": 4122,
  "\u2581pentsamendu": 4123,
  "ice": 4124,
  "\u2581erantzuna": 4125,
  "\u2581azpi": 4126,
  "\u2581berdina": 4127,
  "\u2581nearly": 4128,
  "\u2581occasion": 4129,
  "\u2581Custom": 4130,
  "\u2581blind": 4131,
  "\u2581luzatu": 4132,
  "\u2581sartuko": 4133,
  "\u2581somewhere": 4134,
  "\u2581American": 4135,
  "\u2581Spirit": 4136,
  "\u2581count": 4137,
  "\u2581drawn": 4138,
  "\u2581station": 4139,
  "\u2581IP": 4140,
  "\u2581mere": 4141,
  "\u2581update": 4142,
  "\u2581zidaten": 4143,
  "\u2581zortzi": 4144,
  "\u2581Video": 4145,
  "\u2581emazte": 4146,
  "\u2581games": 4147,
  "\u2581reply": 4148,
  "\u2581Any": 4149,
  "\u2581Ctrl": 4150,
  "\u2581Location": 4151,
  "\u2581bir": 4152,
  "nt": 4153,
  "hor": 4154,
  "rengatik": 4155,
  "\u2581Buru": 4156,
  "\u2581ahalik": 4157,
  "\u2581horretatik": 4158,
  "\u2581quality": 4159,
  "\u2581taldea": 4160,
  "\")": 4161,
  "\u2581Bideo": 4162,
  "\u2581Karta": 4163,
  "\u2581Sure": 4164,
  "\u2581bistaratu": 4165,
  "\u2581egiazko": 4166,
  "\u2581erortzen": 4167,
  "\u2581legs": 4168,
  "arazten": 4169,
  "\u2581collection": 4170,
  "\u2581jainko": 4171,
  "\u2581neck": 4172,
  "agoak": 4173,
  "\u2581Inportatu": 4174,
  "\u2581lies": 4175,
  "\u2581tira": 4176,
  "\u2581txikiak": 4177,
  "Nik": 4178,
  "bal": 4179,
  "\u258150": 4180,
  "\u2581Switch": 4181,
  "\u2581focus": 4182,
  "\u2581wide": 4183,
  "can": 4184,
  "\u2581Laguntza": 4185,
  "\u2581Son": 4186,
  "\u2581irakurtzeko": 4187,
  "Nire": 4188,
  "ida": 4189,
  "\u2581gelan": 4190,
  "\u2581Mal": 4191,
  "\u2581sentimendu": 4192,
  "\u2581vkan": 4193,
  "\u2581Jack": 4194,
  "\u2581Jackson": 4195,
  "\u2581lurrean": 4196,
  "Al": 4197,
  "\u2581bishop": 4198,
  "\u2581klase": 4199,
  "\u2581bidaia": 4200,
  "\u2581rows": 4201,
  "Ar": 4202,
  "st": 4203,
  "\u2581actual": 4204,
  "\u2581kontaktu": 4205,
  "\u2581\u0160vejk": 4206,
  "\u2581Berriro": 4207,
  "\u2581church": 4208,
  "\u2581HTTP": 4209,
  "\u2581Jakina": 4210,
  "\u2581gorroto": 4211,
  "\u2581DAMAGES": 4212,
  "\u2581arin": 4213,
  "goa": 4214,
  "\u2581linea": 4215,
  "\u2581reach": 4216,
  "\u2581speech": 4217,
  "our": 4218,
  "\u2581chosen": 4219,
  "\u2581darkness": 4220,
  "\u2581lists": 4221,
  "\u2581block": 4222,
  "\u2581urteko": 4223,
  "\u2581zehaztutako": 4224,
  "\u2581Ku": 4225,
  "\u2581egoteko": 4226,
  "\u2581fault": 4227,
  "\u2581laztana": 4228,
  "\u2581worked": 4229,
  "\u2581dangerous": 4230,
  "\u2581gizarte": 4231,
  "\u2581hatz": 4232,
  "\u2581Itzuli": 4233,
  "\u2581mundua": 4234,
  "\u2581ne": 4235,
  "\u2581Disable": 4236,
  "\u2581aplikazioa": 4237,
  "\u2581arraio": 4238,
  "\u2581busy": 4239,
  "\u2581drew": 4240,
  "\u2581jota": 4241,
  "room": 4242,
  "\u2581Dasher": 4243,
  "\u2581soldiers": 4244,
  "\u2581temple": 4245,
  "\u2581zatia": 4246,
  "New": 4247,
  "red": 4248,
  "\u2581agree": 4249,
  "\u2581ikusgai": 4250,
  "atu": 4251,
  "\u2581gogorra": 4252,
  "ee": 4253,
  "\u2581Datu": 4254,
  "\u2581MA": 4255,
  "lar": 4256,
  "\u2581hirugarren": 4257,
  "cal": 4258,
  "\u2581daukan": 4259,
  "\u2581genituen": 4260,
  "\u2581gobernu": 4261,
  "\u2581ikonoa": 4262,
  "\u2581jakitea": 4263,
  "\u2581necessity": 4264,
  "\u2581walking": 4265,
  "\u2581York": 4266,
  "\u2581cross": 4267,
  "\u2581Pan": 4268,
  "\u2581ezazue": 4269,
  "\u2581interface": 4270,
  "\u2581lock": 4271,
  "\u2581ships": 4272,
  "\u2581Danny": 4273,
  "lon": 4274,
  "unit": 4275,
  "\u2581absolute": 4276,
  "\u2581argazki": 4277,
  "\u2581bitxi": 4278,
  "\u2581breath": 4279,
  "\u2581enemies": 4280,
  "\u2581memoria": 4281,
  "\u2581vi": 4282,
  "\u2581barik": 4283,
  "\u2581z": 4284,
  "\u2581badituzu": 4285,
  "\u2581extension": 4286,
  "\u2581fat": 4287,
  "\u2581jardun": 4288,
  "\u2581Neure": 4289,
  "\u2581avoid": 4290,
  "\u2581denok": 4291,
  "\u2581persons": 4292,
  "\u2581Icon": 4293,
  "\u2581West": 4294,
  "\u2581hazi": 4295,
  "\u2581kopuru": 4296,
  "\u2581oraintxe": 4297,
  "\u2581Q": 4298,
  "\u2581besides": 4299,
  "\u2581signature": 4300,
  "\u2581tears": 4301,
  "\u2581zuzendu": 4302,
  "\u2581arrow": 4303,
  "\u2581login": 4304,
  "\u2581generally": 4305,
  "\u2581security": 4306,
  "\u2581beat": 4307,
  "\u2581People": 4308,
  "\u2581boat": 4309,
  "\u2581port": 4310,
  "\u2581emanez": 4311,
  "\u2581holy": 4312,
  "\u2581konektatu": 4313,
  "\u2581nose": 4314,
  "\u2581Tresna": 4315,
  "\u2581galdetzen": 4316,
  "\u2581Current": 4317,
  "\u2581Egypt": 4318,
  "\u2581Nick": 4319,
  "\u2581Yet": 4320,
  "etarik": 4321,
  "\u2581connected": 4322,
  "\u2581gal": 4323,
  "-8": 4324,
  "\u2581Noski": 4325,
  "\u2581eragiketa": 4326,
  "\u2581nobody": 4327,
  "\u2581obliged": 4328,
  "\u2581passion": 4329,
  "\u2581adi": 4330,
  "\u2581jartzeko": 4331,
  "desktop": 4332,
  "\u2581gentleman": 4333,
  "\u2581turning": 4334,
  "\u2581zaitezke": 4335,
  "\u2581wisdom": 4336,
  "\u2581agintzen": 4337,
  "\u2581amongst": 4338,
  "\u2581bare": 4339,
  "\u2581estiloa": 4340,
  "\u2581eremu": 4341,
  "\u2581fool": 4342,
  "\u2581inori": 4343,
  "\u2581burutu": 4344,
  "\u2581science": 4345,
  "use": 4346,
  "\u2581Helbide": 4347,
  "\u2581nolako": 4348,
  "mapa": 4349,
  "\u2581Charlotte": 4350,
  "\u2581Home": 4351,
  "ians": 4352,
  "\u2581Mor": 4353,
  "\u2581animalia": 4354,
  "\u2581Got": 4355,
  "\u2581modified": 4356,
  "\u2581saving": 4357,
  "\u2581azal": 4358,
  "\u2581kutxa": 4359,
  "\u2581prison": 4360,
  "\u2581tu": 4361,
  "\u2581Castle": 4362,
  "\u2581sudden": 4363,
  "\u2581ura": 4364,
  "LA": 4365,
  "\u2581Leku": 4366,
  "\u2581State": 4367,
  "\u2581orri": 4368,
  "\u2581Everything": 4369,
  "\u2581Ke": 4370,
  "\u2581Mezuak": 4371,
  "\u2581pair": 4372,
  "\u2581Perhaps": 4373,
  "\u2581camp": 4374,
  "\u2581itsu": 4375,
  "\u2581laguntzen": 4376,
  "\u2581machine": 4377,
  "\u2581prince": 4378,
  "\u2581Library": 4379,
  "\u2581sail": 4380,
  "\u258111": 4381,
  "\u2581bait": 4382,
  "\u2581deleted": 4383,
  "\u2581UNDER": 4384,
  "\u2581kalte": 4385,
  "\u2581weak": 4386,
  "\u2581zuelako": 4387,
  "\u2581Sare": 4388,
  "\u2581antza": 4389,
  "\u2581funny": 4390,
  "\u2581shoot": 4391,
  "cc": 4392,
  "\u2581ideiak": 4393,
  "\u2581Jane": 4394,
  "\u2581battery": 4395,
  "\u2581herria": 4396,
  "\u2581Boston": 4397,
  "\u2581Their": 4398,
  "\u2581egintza": 4399,
  "\u2581song": 4400,
  "\u2581yesterday": 4401,
  "\u2581Horra": 4402,
  "\u25814.": 4403,
  "\u2581Background": 4404,
  "\u2581Ederki": 4405,
  "\u2581Trash": 4406,
  "\u2581baldintzak": 4407,
  "\u2581cell": 4408,
  "\u2581liked": 4409,
  "\u2581Holy": 4410,
  "\u2581baitziren": 4411,
  "\u2581members": 4412,
  "\u2581sortzea": 4413,
  "Nola": 4414,
  "\u2581becomes": 4415,
  "\u2581principles": 4416,
  "\u2581rank": 4417,
  "\u2581thanks": 4418,
  "\u2581ALDATUA": 4419,
  "\u2581bereizi": 4420,
  "\u2581luck": 4421,
  "\u2581region": 4422,
  "\u2581results": 4423,
  "\u2581units": 4424,
  "\u2581PGP": 4425,
  "\u2581calm": 4426,
  "\u2581ipini": 4427,
  "\u2581Emakume": 4428,
  "\u2581Tamaina": 4429,
  "\u2581eskuan": 4430,
  "\u2581rain": 4431,
  "\u2581capital": 4432,
  "\u2581ezarpen": 4433,
  "\u2581heads": 4434,
  "\u2581silver": 4435,
  "\u2581xede": 4436,
  "tegi": 4437,
  "\u2581Other": 4438,
  "\u2581destroy": 4439,
  "\u2581gauzen": 4440,
  "\u2581lagunduko": 4441,
  "\u2581substantzia": 4442,
  "\u2581GDM": 4443,
  "\u2581bread": 4444,
  "\u2581distribution": 4445,
  "\u2581flat": 4446,
  "AL": 4447,
  "\u2581jiratu": 4448,
  "\u2581players": 4449,
  "\u2581sakon": 4450,
  "\u2581zekien": 4451,
  "\u2581believed": 4452,
  "\u2581erregeak": 4453,
  "\u2581neu": 4454,
  "\u2581munduan": 4455,
  "\u2581saldu": 4456,
  "\u2581Ktrl": 4457,
  "\u2581Monitor": 4458,
  "\u2581absolutely": 4459,
  "\u2581angry": 4460,
  "\u2581apply": 4461,
  "\u2581fresh": 4462,
  "\u2581hogei": 4463,
  "\u2581isil": 4464,
  "Nor": 4465,
  "side": 4466,
  "tela": 4467,
  "\u2581NO": 4468,
  "\u2581arazoa": 4469,
  "\u2581bazter": 4470,
  "\u2581boterea": 4471,
  "\u2581film": 4472,
  "\u2581seat": 4473,
  "\u2581zioen": 4474,
  "tamaina": 4475,
  "\u2581etsai": 4476,
  "\u2581ezkontza": 4477,
  "\u2581thinks": 4478,
  "\u2581Ulertzen": 4479,
  "\u2581database": 4480,
  "\u2581miss": 4481,
  "\u2581morroi": 4482,
  "\u25816.": 4483,
  "\u2581gailu": 4484,
  "\u2581ordinary": 4485,
  "\u2581super": 4486,
  "\u2581Es": 4487,
  "\u2581Glade": 4488,
  "\u2581arrisku": 4489,
  "\u2581laughed": 4490,
  "\u2581taste": 4491,
  "help": 4492,
  "\u2581unable": 4493,
  "tes": 4494,
  "\u2581attack": 4495,
  "\u2581spent": 4496,
  "ip": 4497,
  "katzen": 4498,
  "\u2581Cor": 4499,
  "\u2581Maite": 4500,
  "maila": 4501,
  "\u2581bereziki": 4502,
  "\u2581kokaleku": 4503,
  "\u2581aitzitik": 4504,
  "\u2581pleased": 4505,
  "my": 4506,
  "\u2581Erantzun": 4507,
  "\u2581Kar": 4508,
  "\u2581ezetz": 4509,
  "\u2581locked": 4510,
  "markak": 4511,
  "\u2581spot": 4512,
  "etariko": 4513,
  "\u2581arrunt": 4514,
  "\u2581forever": 4515,
  "ban": 4516,
  "\u2581Azkenean": 4517,
  "\u2581aren": 4518,
  "\u2581gaitezen": 4519,
  "\u2581Copyright": 4520,
  "\u2581lotu": 4521,
  "\u2581%.1": 4522,
  "\u2581hearts": 4523,
  "\u2581neskak": 4524,
  "tion": 4525,
  "\u258114": 4526,
  "\u2581berandu": 4527,
  "\u2581enjoy": 4528,
  "\u2581separate": 4529,
  "\u2581warm": 4530,
  "ira": 4531,
  "\u2581dress": 4532,
  "\u2581marriage": 4533,
  "riak": 4534,
  "\u2581Ulenspiegel": 4535,
  "\u2581accounts": 4536,
  "\u2581tik": 4537,
  "\u2581Aplikazio": 4538,
  "\u2581bekatu": 4539,
  "\u2581iragan": 4540,
  "\u2581zezakeen": 4541,
  "*": 4542,
  "ezina": 4543,
  "\u2581walls": 4544,
  "led": 4545,
  "oso": 4546,
  "\u2581eternal": 4547,
  "\u2581gonbidatu": 4548,
  "\u2581lurra": 4549,
  "\u2581Etorri": 4550,
  "\u2581mugitzeko": 4551,
  "\u2581peoi": 4552,
  "\u2581shape": 4553,
  "\u2581switch": 4554,
  "ATION": 4555,
  "\u2581fi": 4556,
  "\u2581\u00e7uen": 4557,
  "\u2581Width": 4558,
  "\u2581askatasuna": 4559,
  "\u2581fingers": 4560,
  "\u2581itzal": 4561,
  "\u2581jakiteko": 4562,
  "\u2581librea": 4563,
  "\u2581neukan": 4564,
  "\u2581preference": 4565,
  "Ondo": 4566,
  "ste": 4567,
  "\u2581Zi": 4568,
  "\u2581ring": 4569,
  "mu": 4570,
  "tiko": 4571,
  "\u2581Urte": 4572,
  "\u2581aplikazioak": 4573,
  "mail": 4574,
  "\u2581Atera": 4575,
  "\u2581ancient": 4576,
  "\u2581edozer": 4577,
  "\u2581established": 4578,
  "\u2581handiko": 4579,
  "\u2581orders": 4580,
  "\u2581target": 4581,
  "\u2581urduri": 4582,
  "Ah": 4583,
  "\u2581quit": 4584,
  "val": 4585,
  "\u2581Place": 4586,
  "\u2581notion": 4587,
  "\u2581requires": 4588,
  "\u2581snow": 4589,
  "\u2581catch": 4590,
  "\u2581kingdom": 4591,
  "\u2581serio": 4592,
  "fitxategiak": 4593,
  "\u2581genuke": 4594,
  "\u2581multiple": 4595,
  "\u2581tarte": 4596,
  "enean": 4597,
  "\u2581Insert": 4598,
  "\u2581Arrazoi": 4599,
  "\u2581Zoom": 4600,
  "\u2581abiadura": 4601,
  "\u2581zeregin": 4602,
  "korra": 4603,
  "\u2581Manager": 4604,
  "\u2581Shit": 4605,
  "\u2581gehienak": 4606,
  "\u2581ear": 4607,
  "dd": 4608,
  "\u2581Roman": 4609,
  "\u2581bestearen": 4610,
  "\u2581egunero": 4611,
  "gabea": 4612,
  "\u2581Azkar": 4613,
  "\u2581Bakarrik": 4614,
  "\u2581Europa": 4615,
  "\u2581leihoan": 4616,
  "\u2581unean": 4617,
  "format": 4618,
  "\u2581Konfiguratu": 4619,
  "\u2581korrika": 4620,
  "\u2581mu": 4621,
  "Re": 4622,
  "ski": 4623,
  "\u2581Africa": 4624,
  "\u2581bilera": 4625,
  "\u2581suffer": 4626,
  "log": 4627,
  "\u2581Beno": 4628,
  "\u2581Empty": 4629,
  "\u2581mezuaren": 4630,
  "\u2581slow": 4631,
  "uz": 4632,
  "\u2581Source": 4633,
  "\u2581aske": 4634,
  "\u2581betea": 4635,
  "\u2581ezartzeko": 4636,
  "\u2581fifty": 4637,
  "\u2581likely": 4638,
  "\u2581mistake": 4639,
  "\u2581offline": 4640,
  "\u2581weight": 4641,
  "RE": 4642,
  "\u2581Such": 4643,
  "\u2581bandera": 4644,
  "\u2581karpetak": 4645,
  "\u2581pattern": 4646,
  "\u2581shell": 4647,
  "\u2581soinu": 4648,
  "\u2581sufficient": 4649,
  "\u2581clearly": 4650,
  "\u2581daudela": 4651,
  "\u2581lord": 4652,
  "raren": 4653,
  "\u2581Robots": 4654,
  "\u2581apart": 4655,
  "len": 4656,
  "\u2581offered": 4657,
  "engan": 4658,
  "nu": 4659,
  "\u2581arrunta": 4660,
  "\u2581eskema": 4661,
  "town": 4662,
  "\u2581Richard": 4663,
  "\u2581Sarrera": 4664,
  "\u2581emakumeak": 4665,
  "\u2581hautatzen": 4666,
  "\u2581matters": 4667,
  "\u2581agur": 4668,
  "\u2581gentlemen": 4669,
  "tatik": 4670,
  "\u2581Big": 4671,
  "\u2581Lisa": 4672,
  "\u2581irteten": 4673,
  "\u2581sarri": 4674,
  "clock": 4675,
  "ium": 4676,
  "\u2581berriago": 4677,
  "\u2581fin": 4678,
  "\u2581wonderful": 4679,
  "\u2581bo": 4680,
  "\u2581elements": 4681,
  "\u2581ondorengo": 4682,
  "\u2581religion": 4683,
  "om": 4684,
  "\u2581Has": 4685,
  "\u2581Queen": 4686,
  "\u2581milioi": 4687,
  "\u2581nekez": 4688,
  "\u2581coffee": 4689,
  "\u2581concerning": 4690,
  "sia": 4691,
  "\u2581Ecen": 4692,
  "\u2581Tar": 4693,
  "\u2581Terminal": 4694,
  "\u2581alai": 4695,
  "\u2581apal": 4696,
  "\u2581lortuko": 4697,
  "\u2581threw": 4698,
  "tch": 4699,
  "\u2581calls": 4700,
  "\u2581garen": 4701,
  "\u2581ladies": 4702,
  "ow": 4703,
  "\u2581barneko": 4704,
  "\u2581progress": 4705,
  "\u2581suffering": 4706,
  "\u2581amore": 4707,
  "\u2581dance": 4708,
  "\u2581drag": 4709,
  "\u2581pressed": 4710,
  "\u2581prove": 4711,
  "\u2581samar": 4712,
  "\u2581Remember": 4713,
  "uk": 4714,
  "\u2581baso": 4715,
  "\u2581defined": 4716,
  "\u2581erro": 4717,
  "\u2581grew": 4718,
  "\u2581inola": 4719,
  "\u2581offering": 4720,
  "\u2581total": 4721,
  "She": 4722,
  "\u2581Garbitu": 4723,
  "\u2581Since": 4724,
  "\u2581drawing": 4725,
  "EZ": 4726,
  "sto": 4727,
  "\u2581naute": 4728,
  "30": 4729,
  "\u258124": 4730,
  "\u2581dizute": 4731,
  "\u2581servants": 4732,
  "pro": 4733,
  "\u2581Irten": 4734,
  "\u2581artetik": 4735,
  "\u2581dad": 4736,
  "\u2581egiaztatu": 4737,
  "\u2581prestatzen": 4738,
  "-%": 4739,
  "Now": 4740,
  "St": 4741,
  "textat": 4742,
  "\u2581albo": 4743,
  "\u2581cover": 4744,
  "\u2581produced": 4745,
  "\u2581similar": 4746,
  "ev": 4747,
  "\u2581ears": 4748,
  "\u2581luzera": 4749,
  "\u258125": 4750,
  "\u2581Ondoren": 4751,
  "\u2581desired": 4752,
  "\u2581galduko": 4753,
  "\u2581smiled": 4754,
  "\u2581bolumena": 4755,
  "\u2581Bestalde": 4756,
  "\u2581Desgaitu": 4757,
  "\u2581azkenik": 4758,
  "\u2581Atzera": 4759,
  "\u2581andreak": 4760,
  "\u2581ditudan": 4761,
  "\u2581kitchen": 4762,
  "\u2581horra": 4763,
  "\u2581proiektua": 4764,
  "\u2581qua": 4765,
  "\u2581bertsioan": 4766,
  "\u2581camera": 4767,
  "\u2581grow": 4768,
  "\u2581handirik": 4769,
  "\u2581honor": 4770,
  "Zure": 4771,
  "\u2581posible": 4772,
  "Hau": 4773,
  "\u2581Hura": 4774,
  "\u2581Lady": 4775,
  "\u2581honetatik": 4776,
  "\u2581sad": 4777,
  "\u2581ship": 4778,
  "und": 4779,
  "view": 4780,
  "\u2581bilatzeko": 4781,
  "\u2581shadow": 4782,
  "\u2581teeth": 4783,
  "ft": 4784,
  "\u2581Komando": 4785,
  "\u2581rook": 4786,
  "pin": 4787,
  "\u2581Information": 4788,
  "\u2581automatikoa": 4789,
  "\u2581circumstances": 4790,
  "\u2581harreman": 4791,
  "\u2581loaded": 4792,
  "\u2581End": 4793,
  "\u2581Horrelako": 4794,
  "\u2581cities": 4795,
  "\u2581denek": 4796,
  "\u2581spread": 4797,
  "\u2581(0": 4798,
  "\u2581stock": 4799,
  "\u2581twelve": 4800,
  "Q": 4801,
  "\u2581houses": 4802,
  "\u2581Keys": 4803,
  "\u2581pleasant": 4804,
  "\u2581surprise": 4805,
  "\u2581wood": 4806,
  "\u2581Sha": 4807,
  "\u2581documents": 4808,
  "\u2581gizakiak": 4809,
  "\u2581suntsitu": 4810,
  "\u2581pocket": 4811,
  "\u2581sell": 4812,
  "\u00e8n": 4813,
  "\u2581Gi": 4814,
  "\u2581ab": 4815,
  "ker": 4816,
  "ring": 4817,
  "\u2581erantsi": 4818,
  "\u2581perfectly": 4819,
  "\u2581sending": 4820,
  "like": 4821,
  "\u2581Libre": 4822,
  "\u2581Prest": 4823,
  "\u2581sare": 4824,
  "\u2581aldatzea": 4825,
  "\u2581arrotz": 4826,
  "\u2581eragina": 4827,
  "\u2581ezaugarri": 4828,
  "\u2581gaixo": 4829,
  "\u2581huh": 4830,
  "\u2581ikuspegia": 4831,
  "\u2581musu": 4832,
  "\u2581unitatea": 4833,
  "\u2581amaren": 4834,
  "\u2581ditzake": 4835,
  "\u2581filename": 4836,
  "\u2581pista": 4837,
  "\u2581term": 4838,
  "50": 4839,
  "AR": 4840,
  "ezin": 4841,
  "\u2581(_": 4842,
  "\u2581Darcy": 4843,
  "\u2581Inprimatu": 4844,
  "\u2581arnasa": 4845,
  "\u2581shop": 4846,
  "start": 4847,
  "\u2581authentication": 4848,
  "\u2581horrelakorik": 4849,
  "\u2581Errore": 4850,
  "\u2581Volume": 4851,
  "\u2581aurrebista": 4852,
  "\u2581makurtu": 4853,
  "\u2581mutilak": 4854,
  "\u2581normalean": 4855,
  "\u2581Halako": 4856,
  "\u2581Screen": 4857,
  "\u2581esperientzia": 4858,
  "\u2581gogoratu": 4859,
  "\u2581hartzera": 4860,
  "\u2581sinadura": 4861,
  "\u2581uses": 4862,
  "iz": 4863,
  "\u2581Call": 4864,
  "\u2581Goiko": 4865,
  "\u2581Lehenengo": 4866,
  "\u2581Zerrenda": 4867,
  "tarrak": 4868,
  "\u2581asmo": 4869,
  "\u2581joera": 4870,
  "par": 4871,
  "\u2581aurkeztu": 4872,
  "\u2581herriaren": 4873,
  "\u2581kide": 4874,
  "\u2581Program": 4875,
  "\u2581behartu": 4876,
  "ON": 4877,
  "han": 4878,
  "\u2581spend": 4879,
  "\u2581yellow": 4880,
  "\u2581odola": 4881,
  "\u2581study": 4882,
  "\u2581(\"": 4883,
  "\u2581High": 4884,
  "\u2581essence": 4885,
  "16": 4886,
  "\u2581None": 4887,
  "\u2581azaleko": 4888,
  "\u2581baitzuten": 4889,
  "\u2581dantza": 4890,
  "\u2581VPN": 4891,
  "\u2581ahalegin": 4892,
  "\u2581horiei": 4893,
  "Be": 4894,
  "\u2581daemon": 4895,
  "\u2581tone": 4896,
  "\u2581forced": 4897,
  "\u2581plazer": 4898,
  "\u2581showing": 4899,
  "\u2581workspace": 4900,
  "which": 4901,
  "\u2581jasoko": 4902,
  "\u2581properly": 4903,
  "\u2581sortzean": 4904,
  "\u2581Mom": 4905,
  "\u2581berrogeita": 4906,
  "\u2581erantzuten": 4907,
  "\u2581erregearen": 4908,
  "\u2581nitaz": 4909,
  "\u2581ordenagailu": 4910,
  "Ko": 4911,
  "Ni": 4912,
  "\u2581Duke": 4913,
  "\u2581giltza": 4914,
  "\u2581gorabehera": 4915,
  "\u2581gune": 4916,
  "\u2581icons": 4917,
  "\u2581influence": 4918,
  "\u2581zeuen": 4919,
  "\u00e7a": 4920,
  "\u2581attempt": 4921,
  "\u2581keinu": 4922,
  "\u2581proiektu": 4923,
  "muga": 4924,
  "\u2581Anna": 4925,
  "\u2581Certificate": 4926,
  "\u2581Denak": 4927,
  "\u2581ahalmena": 4928,
  "\u2581baliabide": 4929,
  "\u2581egoki": 4930,
  "\u2581eguin": 4931,
  "\u2581ends": 4932,
  "\u2581ezpata": 4933,
  "\u2581honelako": 4934,
  "\u2581burning": 4935,
  "\u2581eskuetan": 4936,
  "\u2581forgotten": 4937,
  "\u2581haize": 4938,
  "\u2581minds": 4939,
  "\u2581ostera": 4940,
  "\u2581repeated": 4941,
  "ldi": 4942,
  "tzerakoan": 4943,
  "\u2581>": 4944,
  "\u2581Hainbat": 4945,
  "\u2581Ju": 4946,
  "\u2581Pavel": 4947,
  "\u2581eremua": 4948,
  "\u2581youth": 4949,
  "\u2581appointment": 4950,
  "\u2581coat": 4951,
  "\u2581health": 4952,
  "#": 4953,
  "box": 4954,
  "\u2581lotura": 4955,
  "bb": 4956,
  "\u2581estatu": 4957,
  "\u2581kentzeko": 4958,
  "\u2581menua": 4959,
  "sio": 4960,
  "uc": 4961,
  "\u2581Swann": 4962,
  "\u2581kings": 4963,
  "\u2581permissions": 4964,
  "GFDL": 4965,
  "\u2581Leo": 4966,
  "\u2581banan": 4967,
  "hau": 4968,
  "\u2581(1": 4969,
  "\u2581Gra": 4970,
  "\u2581kar": 4971,
  "\u2581moon": 4972,
  "\u2581pe": 4973,
  "\u2581smell": 4974,
  "\u2581summer": 4975,
  "\u2581Hobespenak": 4976,
  "\u2581Hu": 4977,
  "\u2581essential": 4978,
  "\u2581gehitzen": 4979,
  "\u2581zoriontsu": 4980,
  "ID": 4981,
  "only": 4982,
  "til": 4983,
  "ure": 4984,
  "way": 4985,
  "\u2581WARRANTY": 4986,
  "\u2581\\": 4987,
  "\u2581trash": 4988,
  "\u2581bidaliko": 4989,
  "\u2581erabilgarria": 4990,
  "\u2581gorantz": 4991,
  "lea": 4992,
  "\u2581daitezkeen": 4993,
  "\u2581legea": 4994,
  "\u2581shook": 4995,
  "\u2581xehetasunak": 4996,
  "\u2581zaitezte": 4997,
  "\u2581Mike": 4998,
  "\u2581clipboard": 4999,
  "\u2581install": 5000,
  "\u2581izar": 5001,
  "\u2581murder": 5002,
  "\u2581bururatu": 5003,
  "\u2581egunkari": 5004,
  "\u2581gogoeta": 5005,
  "\u2581nagusiaren": 5006,
  "\u2581translator": 5007,
  "\u2581zitzaiola": 5008,
  "Oso": 5009,
  "\u2581careful": 5010,
  "\u2581goazen": 5011,
  "\u2581memo": 5012,
  "\u2581pean": 5013,
  "\u2581Saio": 5014,
  "\u2581formed": 5015,
  "\u2581sequence": 5016,
  "\u2581race": 5017,
  "\u25815.": 5018,
  "\u2581Calendar": 5019,
  "\u2581Waste": 5020,
  "\u2581provide": 5021,
  "tasunak": 5022,
  "br": 5023,
  "\u2581garela": 5024,
  "\u2581village": 5025,
  "\u2581za": 5026,
  "\u2581zoom": 5027,
  "\u2581armada": 5028,
  "\u2581blow": 5029,
  "\u2581fields": 5030,
  "\u2581haiei": 5031,
  "\u2581zeudela": 5032,
  "\u2581channel": 5033,
  "\u2581er": 5034,
  "were": 5035,
  "\u2581Jaun": 5036,
  "\u2581Tra": 5037,
  "\u2581Zuri": 5038,
  "\u2581agerian": 5039,
  "\u2581jartzea": 5040,
  "\u2581noticed": 5041,
  "\u2581promised": 5042,
  "\u2581zorrotz": 5043,
  "ps": 5044,
  "\u2581Mount": 5045,
  "\u2581pale": 5046,
  "\u2581crowd": 5047,
  "\u2581edukitzea": 5048,
  "\u2581gaizto": 5049,
  "\u2581mountain": 5050,
  "\u2581puzzle": 5051,
  "\u2581reasons": 5052,
  "\u2581weather": 5053,
  "Not": 5054,
  "\u2581Ver": 5055,
  "\u2581Toggle": 5056,
  "\u2581bitarteko": 5057,
  "\u2581ezarritako": 5058,
  "\u2581hartara": 5059,
  "\u2581hilda": 5060,
  "\u2581noise": 5061,
  "\u2581Ezta": 5062,
  "\u2581adierazpen": 5063,
  "\u2581banaketa": 5064,
  "\u2581froga": 5065,
  "\u2581nauk": 5066,
  "\u2581rise": 5067,
  "\u2581sal": 5068,
  "bin": 5069,
  "ial": 5070,
  "\u2581Objektu": 5071,
  "\u2581chat": 5072,
  "\u2581leaves": 5073,
  "\u2581ohiko": 5074,
  "\u2581Colin": 5075,
  "\u2581zeru": 5076,
  "date": 5077,
  "right": 5078,
  "\u2581Behar": 5079,
  "\u2581Wa": 5080,
  "\u2581hamabi": 5081,
  "\u2581types": 5082,
  "ated": 5083,
  "\u2581Bluetooth": 5084,
  "\u2581eskubide": 5085,
  "\u2581million": 5086,
  "\u2581putting": 5087,
  "\u2581thirty": 5088,
  "datu": 5089,
  "tura": 5090,
  "\u2581hiria": 5091,
  "\u2581izu": 5092,
  "\u2581political": 5093,
  "\u2581dadila": 5094,
  "\u2581puta": 5095,
  "\u2581teach": 5096,
  "Kaixo": 5097,
  "Who": 5098,
  "\u2581balira": 5099,
  "\u2581banako": 5100,
  "aldia": 5101,
  "\u2581Sudoku": 5102,
  "\u2581beso": 5103,
  "\u2581bitxia": 5104,
  "\u2581gurekin": 5105,
  "\u2581SSH": 5106,
  "\u2581amaitzen": 5107,
  "\u2581brothers": 5108,
  "\u2581jabetu": 5109,
  "\u2581kontuak": 5110,
  "\u2581Esku": 5111,
  "\u2581hango": 5112,
  "zki": 5113,
  "\u2581beldurrez": 5114,
  "\u2581gainditu": 5115,
  "\u2581ohe": 5116,
  "\u2581Law": 5117,
  "\u2581zoragarria": 5118,
  "\u2581civil": 5119,
  "\u2581smoke": 5120,
  "\u2581zeuzkan": 5121,
  "gailua": 5122,
  "oak": 5123,
  "\u2581Ban": 5124,
  "\u2581Batzuetan": 5125,
  "\u2581arra": 5126,
  "\u2581itzazu": 5127,
  "\u2581journey": 5128,
  "\u2581pal": 5129,
  "\u2581zama": 5130,
  "Then": 5131,
  "\u2581Full": 5132,
  "\u2581Three": 5133,
  "\u2581beherantz": 5134,
  "\u2581hobespen": 5135,
  "\u2581remains": 5136,
  "ance": 5137,
  "bere": 5138,
  "kide": 5139,
  "\u2581Title": 5140,
  "\u2581puska": 5141,
  "\u2581watching": 5142,
  "aba": 5143,
  "\u2581Tri": 5144,
  "\u2581ataka": 5145,
  "\u2581belong": 5146,
  "\u2581grina": 5147,
  "\u2581gris": 5148,
  "\u2581haietan": 5149,
  "\u2581ninduten": 5150,
  "\u2581rock": 5151,
  "illa": 5152,
  "ities": 5153,
  "\u2581Syme": 5154,
  "\u2581gate": 5155,
  "rengandik": 5156,
  "ros": 5157,
  "\u2581Robert": 5158,
  "\u2581aurki": 5159,
  "\u2581bakean": 5160,
  "\u2581bultzatu": 5161,
  "\u2581nekien": 5162,
  "ult": 5163,
  "\u2581Hemendik": 5164,
  "\u2581Selection": 5165,
  "\u2581argitu": 5166,
  "\u2581packages": 5167,
  "\u2581remembered": 5168,
  "koadroan": 5169,
  "tipo": 5170,
  "\u2581Baliteke": 5171,
  "\u2581Mother": 5172,
  "\u2581anderea": 5173,
  "\u2581courage": 5174,
  "\u2581gas": 5175,
  "\u2581remaining": 5176,
  "field": 5177,
  "\u2581Bur": 5178,
  "\u2581Cu": 5179,
  "\u2581Rock": 5180,
  "\u2581carefully": 5181,
  "\u2581sarrerako": 5182,
  "\u2581Control": 5183,
  "\u2581jantzita": 5184,
  "\u2581triste": 5185,
  "\u2581zerbitzu": 5186,
  "\u2581Fort": 5187,
  "\u2581ahul": 5188,
  "\u2581eramateko": 5189,
  "\u2581errepikatu": 5190,
  "\u2581kontatzen": 5191,
  "\u2581pictures": 5192,
  "15": 5193,
  "ien": 5194,
  "ng": 5195,
  "sse": 5196,
  "tarren": 5197,
  "\u2581Ezkutatu": 5198,
  "\u2581Pat": 5199,
  "\u2581pages": 5200,
  "\u2581price": 5201,
  "\u2581zatoz": 5202,
  "\u2581zedin": 5203,
  "14": 5204,
  "light": 5205,
  "\u2581Gabon": 5206,
  "\u2581drunk": 5207,
  "\u2581god": 5208,
  "\u2581hearing": 5209,
  "\u2581Five": 5210,
  "\u2581Path": 5211,
  "\u2581berbera": 5212,
  "\u2581etsi": 5213,
  "\u2581ideal": 5214,
  "\u2581zeinaren": 5215,
  "cho": 5216,
  "\u2581moments": 5217,
  "\u2581segundo": 5218,
  "\u2581bider": 5219,
  "\u2581eskola": 5220,
  "\u2581kiss": 5221,
  "\u2581zaigu": 5222,
  "\u2581Ikono": 5223,
  "\u2581completed": 5224,
  "\u2581increase": 5225,
  "map": 5226,
  "pos": 5227,
  "\u2581%2": 5228,
  "\u2581infinite": 5229,
  "\u2581teklatua": 5230,
  "\u2581andere\u00f1oa": 5231,
  "\u2581berriketa": 5232,
  "\u2581clock": 5233,
  "\u2581concerned": 5234,
  "\u2581flag": 5235,
  "\u2581azpiko": 5236,
  "\u2581fu": 5237,
  "\u2581zeuk": 5238,
  "20": 5239,
  "\u2581Applet": 5240,
  "\u2581Handik": 5241,
  "\u2581bank": 5242,
  "\u2581destroyed": 5243,
  "\u2581mugimendua": 5244,
  "\u2581senarra": 5245,
  "\u2581agindua": 5246,
  "\u2581groups": 5247,
  "buru": 5248,
  "\u2581Eskuliburu": 5249,
  "\u2581bertikala": 5250,
  "\u2581com": 5251,
  "\u2581elektronikoa": 5252,
  "\u2581willing": 5253,
  "\u2581zetorren": 5254,
  "\u2581Amaitu": 5255,
  "\u2581Ten": 5256,
  "\u2581bought": 5257,
  "\u2581gaua": 5258,
  "\u2581jokoan": 5259,
  "\u2581leihoak": 5260,
  "\u2581Before": 5261,
  "\u2581Export": 5262,
  "\u2581faces": 5263,
  "\u2581horretako": 5264,
  "\u2581lurrera": 5265,
  "\u2581menpe": 5266,
  "\u2581zeinen": 5267,
  "\u2581clicking": 5268,
  "\u2581honetara": 5269,
  "\u2581operations": 5270,
  "\u2581prepared": 5271,
  "\u2581soft": 5272,
  "\u2581Jarraitu": 5273,
  "\u2581bikain": 5274,
  "\u2581datorren": 5275,
  "\u2581finger": 5276,
  "\u2581lotsa": 5277,
  "\u2581taught": 5278,
  "ondo": 5279,
  "with": 5280,
  "\u2581aire": 5281,
  "\u2581finish": 5282,
  "\u2581friendship": 5283,
  "\u2581jarrera": 5284,
  "\u2581arab": 5285,
  "\u2581barrura": 5286,
  "\u2581esentzia": 5287,
  "\u2581eskatuko": 5288,
  "\u2581onartuta": 5289,
  "\u2581Monsieur": 5290,
  "\u2581Pasahitza": 5291,
  "\u2581River": 5292,
  "\u2581admit": 5293,
  "\u2581doan": 5294,
  "\u2581ikustean": 5295,
  "\u2581lehenik": 5296,
  "\u2581mutiko": 5297,
  "\u2581streets": 5298,
  "\u2581tasks": 5299,
  "ini": 5300,
  "ito": 5301,
  "\u2581askok": 5302,
  "\u2581jaiki": 5303,
  "eb": 5304,
  "\u2581bestalde": 5305,
  "\u2581bistaratuko": 5306,
  "\u2581mountains": 5307,
  "Let": 5308,
  "\u2581Google": 5309,
  "\u2581azalduko": 5310,
  "\u2581multzo": 5311,
  "\u2581proud": 5312,
  "\u2581Deitu": 5313,
  "\u2581URLa": 5314,
  "\u2581preso": 5315,
  "\u2581zabaltzen": 5316,
  "sti": 5317,
  "\u2581Jacob": 5318,
  "\u2581Long": 5319,
  "\u2581belongs": 5320,
  "\u2581erdiko": 5321,
  "\u2581everywhere": 5322,
  "\u2581twice": 5323,
  "\u2581zulo": 5324,
  "car": 5325,
  "ford": 5326,
  "\u2581Bizitza": 5327,
  "\u2581asleep": 5328,
  "\u2581deituko": 5329,
  "\u2581guri": 5330,
  "\u2581halaber": 5331,
  "\u2581itzali": 5332,
  "\u2581katea": 5333,
  "\u2581sareko": 5334,
  "\u2581Ezagutzen": 5335,
  "\u2581dropped": 5336,
  "\u2581harik": 5337,
  "\u2581lekuko": 5338,
  "Bi": 5339,
  "pp": 5340,
  "\u2581erdia": 5341,
  "\u2581zabiltza": 5342,
  "\u2581Mundu": 5343,
  "\u2581borrokan": 5344,
  "\u2581guard": 5345,
  "\u2581ordered": 5346,
  "\u2581osagai": 5347,
  "\u2581Jan": 5348,
  "\u2581Lege": 5349,
  "\u2581anger": 5350,
  "\u2581bizitzaren": 5351,
  "\u2581burn": 5352,
  "rera": 5353,
  "shi": 5354,
  "\u2581Irudiaren": 5355,
  "\u2581marra": 5356,
  "\u2581otoitz": 5357,
  "\u2581picked": 5358,
  "Pa": 5359,
  "\u25812002": 5360,
  "\u2581Tool": 5361,
  "\u2581Wi": 5362,
  "\u2581jaunaren": 5363,
  "\u2581pulled": 5364,
  "\u2581watched": 5365,
  "\u2581Lagundu": 5366,
  "\u2581THIS": 5367,
  "\u2581eskuin": 5368,
  "\u2581geroztik": 5369,
  "\u2581konfiantza": 5370,
  "\u2581team": 5371,
  "\u2581waited": 5372,
  "\u2581abiarazi": 5373,
  "\u2581bookmarks": 5374,
  "\u2581feature": 5375,
  "\u2581makina": 5376,
  "key": 5377,
  "\u2581hall": 5378,
  "\u2581require": 5379,
  "\u2581txanda": 5380,
  "\u2581vain": 5381,
  "\u2581zezan": 5382,
  "txi": 5383,
  "\u2581Begi": 5384,
  "\u2581affairs": 5385,
  "\u2581nondik": 5386,
  "\u2581passing": 5387,
  "\u2581Mme": 5388,
  "\u2581editorea": 5389,
  "\u2581fathers": 5390,
  "\u2581lehenetsi": 5391,
  "\u2581Frank": 5392,
  "\u2581sistemaren": 5393,
  "\u2581fully": 5394,
  "\u2581titulua": 5395,
  "\u2581topo": 5396,
  "\u2581conduct": 5397,
  "\u2581context": 5398,
  "\u2581described": 5399,
  "\u2581displays": 5400,
  "\u2581soinua": 5401,
  "\u2581stick": 5402,
  "\u2581Leave": 5403,
  "\u2581Old": 5404,
  "\u2581Value": 5405,
  "\u2581estandarra": 5406,
  "\u2581itxita": 5407,
  "\u2581shame": 5408,
  "Is": 5409,
  "ding": 5410,
  "kan": 5411,
  "\u2581eskuinera": 5412,
  "\u2581larri": 5413,
  "\u2581hang": 5414,
  "\u2581premia": 5415,
  "\u2581zeu": 5416,
  "\u2581Device": 5417,
  "\u2581irakurtzean": 5418,
  "\u2581sides": 5419,
  "mina": 5420,
  "\u2581Format": 5421,
  "\u2581correctly": 5422,
  "\u2581dare": 5423,
  "\u2581poliki": 5424,
  "\u2581record": 5425,
  "\u2581zenidan": 5426,
  "\u2581zinela": 5427,
  "\u2581denda": 5428,
  "\u2581management": 5429,
  "ada": 5430,
  "\u2581apaiz": 5431,
  "\u2581desira": 5432,
  "\u2581hauetan": 5433,
  "\u2581produce": 5434,
  "\u2581surprised": 5435,
  "\u2581via": 5436,
  "ap": 5437,
  "\u2581epaile": 5438,
  "av": 5439,
  "\u2581buruzagi": 5440,
  "\u2581eskuragarri": 5441,
  "\u2581haietako": 5442,
  "\u2581lor": 5443,
  "\u2581parse": 5444,
  "\u2581astiro": 5445,
  "\u2581geldituko": 5446,
  "\u2581marry": 5447,
  "\u2581miles": 5448,
  "\u2581wished": 5449,
  "\u2581Configure": 5450,
  "\u2581Many": 5451,
  "\u2581Shut": 5452,
  "\u2581disabled": 5453,
  "\u2581marked": 5454,
  "\u2581opari": 5455,
  "\u2581sensible": 5456,
  "\u2581BATE": 5457,
  "\u2581Dokumentazio": 5458,
  "\u2581Down": 5459,
  "\u2581ahoa": 5460,
  "\u2581barnean": 5461,
  "\u2581r": 5462,
  "tikoa": 5463,
  "tsi": 5464,
  "\u2581Atal": 5465,
  "\u2581bisita": 5466,
  "\u2581usain": 5467,
  "\u2581zeraman": 5468,
  "gel": 5469,
  "\u2581Hide": 5470,
  "\u2581Sch": 5471,
  "\u2581ended": 5472,
  "\u2581ergel": 5473,
  "\u2581esate": 5474,
  "\u2581gaztea": 5475,
  "tek": 5476,
  "lio": 5477,
  "ntzi": 5478,
  "ontzi": 5479,
  "\u2581Andy": 5480,
  "\u2581erreprodukzio": 5481,
  "\u2581mahaigaina": 5482,
  "\u2581zutenean": 5483,
  "ston": 5484,
  "\u2581Etxe": 5485,
  "\u2581Work": 5486,
  "\u2581oinarrizko": 5487,
  "\u2581ondotik": 5488,
  "\u2581shoulder": 5489,
  "Non": 5490,
  "ux": 5491,
  "\u2581SUCH": 5492,
  "\u2581colour": 5493,
  "\u2581ezberdinak": 5494,
  "\u2581id": 5495,
  "\u2581instant": 5496,
  "\u2581photo": 5497,
  "\u2581scene": 5498,
  "\u2581Irakurri": 5499,
  "\u2581Kate": 5500,
  "\u2581Python": 5501,
  "\u2581argitaratutako": 5502,
  "\u2581behe": 5503,
  "cha": 5504,
  "lia": 5505,
  "text": 5506,
  "\u2581Another": 5507,
  "\u2581Ser": 5508,
  "\u2581baditu": 5509,
  "\u2581bitch": 5510,
  "\u2581bizitzan": 5511,
  "\u2581fitxategien": 5512,
  "\u2581horizontala": 5513,
  "\u2581zientzia": 5514,
  "\u2581Always": 5515,
  "\u2581While": 5516,
  "\u2581Zehaztu": 5517,
  "\u2581aulki": 5518,
  "\u2581behean": 5519,
  "\u2581columns": 5520,
  "\u2581pistola": 5521,
  "\u2581saguaren": 5522,
  "\u2581urtean": 5523,
  "\u2581baitut": 5524,
  "\u2581idazteko": 5525,
  "nik": 5526,
  "\u2581Nahikoa": 5527,
  "\u2581interested": 5528,
  "\u2581ju": 5529,
  "\u2581midst": 5530,
  "\u2581pen": 5531,
  "\u2581planoa": 5532,
  "\u2581urre": 5533,
  "eraino": 5534,
  "\u2581Grand": 5535,
  "\u2581IRC": 5536,
  "\u2581artzain": 5537,
  "\u2581crime": 5538,
  "\u2581eusten": 5539,
  "\u2581hiltzeko": 5540,
  "\u2581ostean": 5541,
  "\u2581Filter": 5542,
  "\u2581discovered": 5543,
  "\u2581mar": 5544,
  "\u2581tag": 5545,
  "\u2581whenever": 5546,
  "32": 5547,
  "pila": 5548,
  "\u2581abar": 5549,
  "\u2581berau": 5550,
  "\u2581eskualde": 5551,
  "\u2581hartatik": 5552,
  "\u2581okerra": 5553,
  "\u2581zenuela": 5554,
  "etsi": 5555,
  "\u2581Ber": 5556,
  "\u2581Che": 5557,
  "\u2581checked": 5558,
  "Tira": 5559,
  "uka": 5560,
  "\u2581Application": 5561,
  "\u2581Zuek": 5562,
  "\u2581energia": 5563,
  "\u2581onto": 5564,
  "rru": 5565,
  "\u2581goaz": 5566,
  "\u2581lovely": 5567,
  "\u258140": 5568,
  "\u2581ezkutatzen": 5569,
  "\u2581fix": 5570,
  "\u2581maitasun": 5571,
  "\u2581scared": 5572,
  "\u2581skin": 5573,
  "\u2581Iaincoaren": 5574,
  "\u2581United": 5575,
  "\u2581complex": 5576,
  "\u2581ekarriko": 5577,
  "\u2581heltzen": 5578,
  "\u2581ikaragarri": 5579,
  "\u2581possession": 5580,
  "\u2581sing": 5581,
  "\u2581zenez": 5582,
  "\u2581Kontu": 5583,
  "\u2581Texts": 5584,
  "\u2581direlako": 5585,
  "\u2581dituena": 5586,
  "\u2581ezean": 5587,
  "\u2581fallen": 5588,
  "ence": 5589,
  "liburu": 5590,
  "ute": 5591,
  "\u2581Hortaz": 5592,
  "\u2581brain": 5593,
  "\u2581edukiko": 5594,
  "\u2581granted": 5595,
  "ude": 5596,
  "\u2581Berehala": 5597,
  "\u2581areago": 5598,
  "\u2581gedit": 5599,
  "\u2581landare": 5600,
  "\u2581manage": 5601,
  "\u2581pixel": 5602,
  "\u2581zikin": 5603,
  "\u2581Afrika": 5604,
  "\u2581jokalari": 5605,
  "\u2581loss": 5606,
  "\u2581orria": 5607,
  "\u2581prevent": 5608,
  "itate": 5609,
  "\u2581Email": 5610,
  "\u2581POP": 5611,
  "\u2581Press": 5612,
  "\u2581alfil": 5613,
  "\u2581bus": 5614,
  "\u2581consequently": 5615,
  "\u2581etc": 5616,
  "\u2581fly": 5617,
  "\u2581mention": 5618,
  "ical": 5619,
  "\u2581EMATE": 5620,
  "\u2581Errege": 5621,
  "\u2581Neu": 5622,
  "\u2581inondik": 5623,
  "\u2581jokoaren": 5624,
  "\u2581lehengo": 5625,
  "\u2581mentioned": 5626,
  "\u2581mount": 5627,
  "\u2581pointer": 5628,
  "old": 5629,
  "\u2581agreed": 5630,
  "\u2581delarik": 5631,
  "\u2581proceed": 5632,
  "\u2581semeak": 5633,
  "kudeatzailearen": 5634,
  "\u2581determine": 5635,
  "\u2581egitura": 5636,
  "\u2581imagination": 5637,
  "\u2581Florent": 5638,
  "\u2581Karaktere": 5639,
  "\u2581ezberdin": 5640,
  "\u2581eztabaida": 5641,
  "\u2581pisu": 5642,
  "\u2581samarra": 5643,
  "\u2581berde": 5644,
  "\u2581bright": 5645,
  "\u2581caused": 5646,
  "credits": 5647,
  "zale": 5648,
  "\u2581commands": 5649,
  "\u2581creating": 5650,
  "\u2581deck": 5651,
  "\u2581pull": 5652,
  "ST": 5653,
  "\u2581German": 5654,
  "\u2581anywhere": 5655,
  "\u2581bereizten": 5656,
  "\u2581divine": 5657,
  "\u2581eskuz": 5658,
  "\u2581izatera": 5659,
  "pt": 5660,
  "\u2581England": 5661,
  "\u2581adar": 5662,
  "\u2581desk": 5663,
  "\u2581dezaten": 5664,
  "\u2581dun": 5665,
  "\u2581lu": 5666,
  "\u2581measure": 5667,
  "\u2581services": 5668,
  "garriak": 5669,
  "\u2581ca": 5670,
  "\u2581containing": 5671,
  "\u2581eredu": 5672,
  "\u2581ikusita": 5673,
  "\u2581umeak": 5674,
  "\u2581arropa": 5675,
  "\u2581dying": 5676,
  "leku": 5677,
  "\u2581Txertatu": 5678,
  "\u2581ball": 5679,
  "\u2581banintz": 5680,
  "\u2581dioten": 5681,
  "\u2581dressed": 5682,
  "\u2581guztietatik": 5683,
  "\u2581herriak": 5684,
  "\u2581konexio": 5685,
  "\u2581laughing": 5686,
  "\u2581haiekin": 5687,
  "\u2581nine": 5688,
  "TIAL": 5689,
  "hai": 5690,
  "vin": 5691,
  "\u2581Lerro": 5692,
  "\u2581Niri": 5693,
  "\u2581aitortu": 5694,
  "\u2581appropriate": 5695,
  "\u2581garaian": 5696,
  "\u2581gordetako": 5697,
  "\u2581parent": 5698,
  "\u2581raise": 5699,
  "ej": 5700,
  "\u2581Eli": 5701,
  "\u2581Gora": 5702,
  "\u2581Most": 5703,
  "\u2581accident": 5704,
  "\u2581antolatu": 5705,
  "\u2581possibly": 5706,
  "\u2581Island": 5707,
  "\u2581ardo": 5708,
  "\u2581hartako": 5709,
  "\u2581kamera": 5710,
  "\u2581Ekintza": 5711,
  "\u2581Informazio": 5712,
  "\u2581honey": 5713,
  "\u2581protect": 5714,
  "\u2581prozesu": 5715,
  "\u2581usage": 5716,
  "dar": 5717,
  "ef": 5718,
  "\u2581anitz": 5719,
  "\u2581definition": 5720,
  "\u2581immediate": 5721,
  "\u2581lib": 5722,
  "var": 5723,
  "\u2581Should": 5724,
  "\u2581dry": 5725,
  "\u2581edaten": 5726,
  "\u2581metro": 5727,
  "ably": 5728,
  "ized": 5729,
  "rus": 5730,
  "zia": 5731,
  "\u2581Turn": 5732,
  "\u2581azkarra": 5733,
  "\u2581features": 5734,
  "\u2581jauzi": 5735,
  "\u2581sinatu": 5736,
  "izki": 5737,
  "kur": 5738,
  "\u2581Sometimes": 5739,
  "\u2581abstract": 5740,
  "\u2581grave": 5741,
  "\u2581kan": 5742,
  "\u2581kasuan": 5743,
  "\u2581wear": 5744,
  "Cover": 5745,
  "part": 5746,
  "\u2581Fitxategiak": 5747,
  "\u2581SSL": 5748,
  "\u2581related": 5749,
  "\u2581starts": 5750,
  "Co": 5751,
  "don": 5752,
  "wi": 5753,
  "\u2581Button": 5754,
  "\u2581Igo": 5755,
  "\u2581iron": 5756,
  "\u2581foundation": 5757,
  "\u2581honest": 5758,
  "\u2581nabil": 5759,
  "\u2581ohorea": 5760,
  "\u2581salbatu": 5761,
  "cent": 5762,
  "\u2581itzultzeko": 5763,
  "\u2581langile": 5764,
  "\u2581ukatu": 5765,
  "\u2581MB": 5766,
  "\u2581Notes": 5767,
  "\u2581ga": 5768,
  "\u2581hospital": 5769,
  "\u2581datoz": 5770,
  "\u2581ezarrita": 5771,
  "\u2581hung": 5772,
  "\u2581mintzo": 5773,
  "\u2581winter": 5774,
  "spi": 5775,
  "\u2581Bal": 5776,
  "\u2581Brasero": 5777,
  "\u2581Status": 5778,
  "\u2581ahalmen": 5779,
  "\u2581cost": 5780,
  "\u2581eraginez": 5781,
  "\u2581falling": 5782,
  "\u2581response": 5783,
  "\u2581tongue": 5784,
  "[": 5785,
  "unt": 5786,
  "\u2581aldian": 5787,
  "\u2581arrakasta": 5788,
  "\u2581border": 5789,
  "\u2581urrezko": 5790,
  "\u2581Art": 5791,
  "\u2581ezabatzen": 5792,
  "\u2581handiago": 5793,
  "\u2581inhabitants": 5794,
  "\u2581obra": 5795,
  "La": 5796,
  "\u2581DOKUMENTU": 5797,
  "\u2581Sunday": 5798,
  "\u2581adding": 5799,
  "\u2581antzinako": 5800,
  "\u2581artist": 5801,
  "\u2581bertako": 5802,
  "\u2581island": 5803,
  "\u2581zaindu": 5804,
  "ach": 5805,
  "\u2581Link": 5806,
  "\u2581elkartu": 5807,
  "\u2581older": 5808,
  "\u2581osoaren": 5809,
  "\u2581profila": 5810,
  "\u2581sarritan": 5811,
  "40": 5812,
  "dir": 5813,
  "nce": 5814,
  "tel": 5815,
  "\u2581Baldin": 5816,
  "\u2581decide": 5817,
  "\u2581explained": 5818,
  "\u2581fruit": 5819,
  "\u2581pasahitz": 5820,
  "arekiko": 5821,
  "ima": 5822,
  "oli": 5823,
  "osa": 5824,
  "\u2581atseden": 5825,
  "\u2581kargatzen": 5826,
  "\u2581spring": 5827,
  "mus": 5828,
  "\u2581Berriz": 5829,
  "\u2581Besides": 5830,
  "\u2581astindu": 5831,
  "\u2581discover": 5832,
  "\u2581ero": 5833,
  "\u2581izatearen": 5834,
  "\u2581ride": 5835,
  "gal": 5836,
  "garren": 5837,
  "ser": 5838,
  "\u2581Jainkoari": 5839,
  "\u2581Mota": 5840,
  "\u2581Something": 5841,
  "\u2581adierazteko": 5842,
  "\u2581dutena": 5843,
  "\u2581fighting": 5844,
  "\u2581heat": 5845,
  "\u2581loud": 5846,
  "\u2581mapa": 5847,
  "\u2581permanently": 5848,
  "\u2581resource": 5849,
  "kopurua": 5850,
  "\u25812003": 5851,
  "\u2581Again": 5852,
  "\u2581aside": 5853,
  "\u2581Scrooge": 5854,
  "\u2581ezaguna": 5855,
  "ssa": 5856,
  "\u2581AUTHOR": 5857,
  "\u2581GroupWise": 5858,
  "\u2581Haien": 5859,
  "\u2581bake": 5860,
  "\u2581senses": 5861,
  "\u2581CPU": 5862,
  "\u2581direct": 5863,
  "\u2581permission": 5864,
  "\u2581santu": 5865,
  "\u2581zelarik": 5866,
  "ou": 5867,
  "\u2581Book": 5868,
  "\u2581Giza": 5869,
  "\u2581Urruneko": 5870,
  "\u2581opportunity": 5871,
  "mentu": 5872,
  "\u2581Horren": 5873,
  "\u2581aipatzen": 5874,
  "\u2581baimenik": 5875,
  "\u2581bertute": 5876,
  "\u2581design": 5877,
  "\u2581emakumea": 5878,
  "\u2581hiltzea": 5879,
  "\u2581waste": 5880,
  "\u2581Den": 5881,
  "\u2581associated": 5882,
  "\u2581besteen": 5883,
  "\u2581commanded": 5884,
  "\u2581estali": 5885,
  "\u2581listening": 5886,
  "\u2581COPYING": 5887,
  "\u2581Nobody": 5888,
  "\u2581Proxy": 5889,
  "\u2581Tim": 5890,
  "\u2581Zuen": 5891,
  "\u2581euskarri": 5892,
  "\u2581flowers": 5893,
  "path": 5894,
  "\u2581ALDATU": 5895,
  "\u2581layout": 5896,
  "\u2581reference": 5897,
  "\u2581Ru": 5898,
  "\u2581iraupena": 5899,
  "\u2581jaurti": 5900,
  "\u2581segurtasun": 5901,
  "\u2581temporary": 5902,
  "\u2581zaien": 5903,
  "\u2581beterik": 5904,
  "\u2581gizakia": 5905,
  "\u2581halaxe": 5906,
  "\u2581philosophy": 5907,
  "\u2581success": 5908,
  "nek": 5909,
  "\u2581ezkerrera": 5910,
  "ick": 5911,
  "\u2581equally": 5912,
  "\u2581keeping": 5913,
  "\u2581loading": 5914,
  "\u2581mezuen": 5915,
  "\u2581oinaze": 5916,
  "\u2581swear": 5917,
  "\u2581trial": 5918,
  "\u2581arduratu": 5919,
  "\u2581beneath": 5920,
  "\u2581dezakeen": 5921,
  "\u2581dituztela": 5922,
  "\u2581para": 5923,
  "dis": 5924,
  "\u2581ISO": 5925,
  "\u2581bag": 5926,
  "\u2581cap": 5927,
  "\u2581dezala": 5928,
  "\u2581garrantzitsua": 5929,
  "uri": 5930,
  "\u2581Zerbitzaria": 5931,
  "\u2581initial": 5932,
  "\u2581secure": 5933,
  "\u2581seinale": 5934,
  "tatzen": 5935,
  "tt": 5936,
  "\u2581Cha": 5937,
  "\u2581Say": 5938,
  "\u2581Stay": 5939,
  "\u2581activity": 5940,
  "\u2581bederen": 5941,
  "\u2581bookmark": 5942,
  "\u2581dizkizut": 5943,
  "\u2581ezezagun": 5944,
  "\u2581gaituta": 5945,
  "\u2581ixten": 5946,
  "\u2581thick": 5947,
  "\u2581Deal": 5948,
  "\u2581Ekiga": 5949,
  "\u2581Etiketa": 5950,
  "\u2581crossed": 5951,
  "\u2581dudarik": 5952,
  "\u2581joined": 5953,
  "\u2581osorik": 5954,
  "\u2581signal": 5955,
  "\u2581urtez": 5956,
  "link": 5957,
  "\u25812004": 5958,
  "\u2581Specify": 5959,
  "\u2581datozen": 5960,
  "\u2581instalatuta": 5961,
  "\u2581orrialde": 5962,
  "\u2581pity": 5963,
  "\u2581schema": 5964,
  "\u2581startup": 5965,
  "ls": 5966,
  "\u2581birds": 5967,
  "\u2581nirea": 5968,
  "\u2581printze": 5969,
  "\u2581upper": 5970,
  "\u2581arazoak": 5971,
  "\u2581berdinak": 5972,
  "\u2581buelta": 5973,
  "\u2581grown": 5974,
  "\u2581izandako": 5975,
  "\u2581manners": 5976,
  "\u2581naturally": 5977,
  "\u2581sacrifice": 5978,
  "sum": 5979,
  "\u2581finding": 5980,
  "\u2581higidura": 5981,
  "dak": 5982,
  "jokoa": 5983,
  "ple": 5984,
  "tasunez": 5985,
  "\u2581Script": 5986,
  "\u2581gradu": 5987,
  "\u2581practice": 5988,
  "\u2581zerbitzariak": 5989,
  "eten": 5990,
  "\u2581East": 5991,
  "\u2581Paper": 5992,
  "\u2581Read": 5993,
  "\u2581Watch": 5994,
  "\u2581gaiztoa": 5995,
  "\u2581org": 5996,
  "\u2581tall": 5997,
  "\u2581trade": 5998,
  "well": 5999,
  "\u2581ibiltzea": 6000,
  "tarra": 6001,
  "\u2581Load": 6002,
  "\u2581Prozesu": 6003,
  "\u2581berezko": 6004,
  "\u2581natura": 6005,
  "\u2581north": 6006,
  "\u2581telefonoa": 6007,
  "Come": 6008,
  "\u2581Elementu": 6009,
  "\u2581effects": 6010,
  "\u2581portaera": 6011,
  "\u2581rooms": 6012,
  "\u2581zuenez": 6013,
  "\u00e6": 6014,
  "\u2581Simone": 6015,
  "\u2581zerizan": 6016,
  "\u2581atala": 6017,
  "\u2581bezero": 6018,
  "\u2581egutegi": 6019,
  "\u2581kontaktua": 6020,
  "\u2581soldier": 6021,
  "\u2581worthy": 6022,
  "rum": 6023,
  "\u2581Gar": 6024,
  "\u2581Sar": 6025,
  "\u2581gudu": 6026,
  "\u2581larria": 6027,
  "\u2581ordurako": 6028,
  "\u2581shoulders": 6029,
  "ix": 6030,
  "\u2581Iesus": 6031,
  "\u2581Par": 6032,
  "\u2581photos": 6033,
  "dik": 6034,
  "\u2581Sal": 6035,
  "\u2581Sin": 6036,
  "\u2581dituk": 6037,
  "\u2581nahastu": 6038,
  "\u2581pauso": 6039,
  "Gehitu": 6040,
  "apps": 6041,
  "low": 6042,
  "\u2581Ge": 6043,
  "\u2581Perry": 6044,
  "\u2581aukerarik": 6045,
  "\u2581erabiltzaileak": 6046,
  "\u2581final": 6047,
  "\u2581gezi": 6048,
  "\u2581hitzik": 6049,
  "\u2581testuaren": 6050,
  "\u2581zerrendaren": 6051,
  "\u2581Jim": 6052,
  "\u2581argazkiak": 6053,
  "\u2581buffer": 6054,
  "\u2581lodi": 6055,
  "\u2581del": 6056,
  "\u2581fate": 6057,
  "\u2581lerroa": 6058,
  "\u2581objektuak": 6059,
  "\u2581risk": 6060,
  "\u2581zalantzarik": 6061,
  "Ezin": 6062,
  "\u2581Jende": 6063,
  "\u2581barkatu": 6064,
  "\u2581beronen": 6065,
  "\u2581iragazkia": 6066,
  "\u2581legez": 6067,
  "\u2581stage": 6068,
  "dako": 6069,
  "tzailearen": 6070,
  "\u2581Sagua": 6071,
  "\u2581grace": 6072,
  "\u2581problems": 6073,
  "\u2581truly": 6074,
  "\u2581zehazteko": 6075,
  "\u2581planoko": 6076,
  "txoak": 6077,
  "\u2581Italian": 6078,
  "\u2581birth": 6079,
  "\u2581finds": 6080,
  "\u2581happening": 6081,
  "\u2581indarrez": 6082,
  "\u2581tiles": 6083,
  "\u2581warning": 6084,
  "\u2581dituzue": 6085,
  "\u2581eskuinean": 6086,
  "\u2581fotograma": 6087,
  "\u2581iezadazu": 6088,
  "\u2581refused": 6089,
  "\u2581sua": 6090,
  "\u2581zituztela": 6091,
  "Open": 6092,
  "ade": 6093,
  "\u2581hurry": 6094,
  "\u2581kode": 6095,
  "\u2581mutila": 6096,
  "\u2581observe": 6097,
  "\u2581priests": 6098,
  "\u2581Layer": 6099,
  "\u2581Nice": 6100,
  "\u2581Table": 6101,
  "\u2581auzi": 6102,
  "\u2581be\u00e7ala": 6103,
  "\u2581cat": 6104,
  "\u2581ederrak": 6105,
  "\u2581esanda": 6106,
  "\u2581hustu": 6107,
  "\u2581ostalari": 6108,
  "\u2581pride": 6109,
  "\u2581trans": 6110,
  "\u2581Ken": 6111,
  "\u2581YOU": 6112,
  "\u2581alboan": 6113,
  "\u2581arreba": 6114,
  "\u2581highest": 6115,
  "\u2581ibai": 6116,
  "\u2581kokatzen": 6117,
  "\u2581military": 6118,
  "Gu": 6119,
  "gg": 6120,
  "mena": 6121,
  "ori": 6122,
  "\u2581Little": 6123,
  "\u2581album": 6124,
  "\u2581baitago": 6125,
  "\u2581encoding": 6126,
  "\u2581im": 6127,
  "\u2581txar": 6128,
  "\u2581xehetasun": 6129,
  "Add": 6130,
  "hasiera": 6131,
  "koadro": 6132,
  "kudeatzailea": 6133,
  "menu": 6134,
  "there": 6135,
  "\u2581Bay": 6136,
  "\u2581Hauek": 6137,
  "\u2581belief": 6138,
  "\u2581fancy": 6139,
  "\u2581feelings": 6140,
  "\u2581kokatu": 6141,
  "\u2581mahaian": 6142,
  "\u2581narrow": 6143,
  "\u2581sex": 6144,
  "gailu": 6145,
  "\u2581Mont": 6146,
  "\u2581express": 6147,
  "\u2581inner": 6148,
  "\u2581irekita": 6149,
  "\u2581nintzenean": 6150,
  "\u2581practical": 6151,
  "\u2581zigorra": 6152,
  "Zu": 6153,
  "rt": 6154,
  "\u2581Herri": 6155,
  "\u2581Santa": 6156,
  "\u2581Viewer": 6157,
  "\u2581inter": 6158,
  "Gorde": 6159,
  "lak": 6160,
  "\u2581Etxera": 6161,
  "\u2581Garai": 6162,
  "\u2581Mahjongg": 6163,
  "\u2581ederki": 6164,
  "\u2581halakorik": 6165,
  "\u2581loves": 6166,
  "\u2581normala": 6167,
  "\u2581zigor": 6168,
  "\u2581Arthur": 6169,
  "\u2581Bounderby": 6170,
  "\u2581Microsoft": 6171,
  "\u2581beraiek": 6172,
  "\u2581betirako": 6173,
  "\u2581botoiarekin": 6174,
  "\u2581el": 6175,
  "\u2581excuse": 6176,
  "\u2581wake": 6177,
  "Ireki": 6178,
  "gun": 6179,
  "tzeak": 6180,
  "\u2581War": 6181,
  "\u2581erlijio": 6182,
  "\u2581kolpe": 6183,
  "\u2581Over": 6184,
  "\u2581Saul": 6185,
  "\u2581erruki": 6186,
  "\u2581igotzen": 6187,
  "\u2581naiteke": 6188,
  "\u2581ordain": 6189,
  "\u2581sartzea": 6190,
  "tse": 6191,
  "\u2581circle": 6192,
  "\u2581constant": 6193,
  "\u2581include": 6194,
  "\u2581positive": 6195,
  "ette": 6196,
  "read": 6197,
  "tal": 6198,
  "\u2581UTF": 6199,
  "\u2581esnatu": 6200,
  "\u2581onik": 6201,
  "\u2581Gela": 6202,
  "\u2581Seguru": 6203,
  "\u2581adimen": 6204,
  "\u2581baliozkoa": 6205,
  "\u2581delivered": 6206,
  "\u2581dogs": 6207,
  "\u2581etxetik": 6208,
  "\u2581haragi": 6209,
  "\u2581kontaktuak": 6210,
  "\u2581mercy": 6211,
  "\u2581touched": 6212,
  "\u2581zoriona": 6213,
  "Ja": 6214,
  "Where": 6215,
  "\u2581baxua": 6216,
  "\u2581consequence": 6217,
  "\u2581gathered": 6218,
  "\u2581plugins": 6219,
  "azio": 6220,
  "\u2581askatasun": 6221,
  "\u2581client": 6222,
  "\u2581relative": 6223,
  "\u2581settled": 6224,
  "\u2581Comment": 6225,
  "\u2581berririk": 6226,
  "\u2581buruak": 6227,
  "\u2581peculiar": 6228,
  "\u2581prozesua": 6229,
  "\u2581Pete": 6230,
  "\u2581advice": 6231,
  "\u2581erreferentzia": 6232,
  "\u2581isuri": 6233,
  "\u2581subjects": 6234,
  "\u2581ateratzeko": 6235,
  "\u2581burned": 6236,
  "\u2581burutik": 6237,
  "\u2581spaces": 6238,
  "\u2581zoro": 6239,
  "ges": 6240,
  "wood": 6241,
  "\u2581community": 6242,
  "\u2581prefer": 6243,
  "aukera": 6244,
  "\u2581Modu": 6245,
  "\u2581eskuratzen": 6246,
  "\u2581nahasi": 6247,
  "\u2581trip": 6248,
  "\u2581zukeen": 6249,
  "\u2581Bre": 6250,
  "\u2581Welcome": 6251,
  "\u2581erne": 6252,
  "\u2581libera": 6253,
  "\u2581ondasun": 6254,
  "\u2581render": 6255,
  "\u2581uncle": 6256,
  "\u2581erregina": 6257,
  "\u2581momentu": 6258,
  "\u2581txori": 6259,
  "-1": 6260,
  "\u2581atxilotu": 6261,
  "\u2581drove": 6262,
  "\u2581ohore": 6263,
  "\u2581star": 6264,
  "\u2581zigun": 6265,
  "-2": 6266,
  "RW": 6267,
  "\u2581Laneko": 6268,
  "\u2581berriaren": 6269,
  "\u2581officer": 6270,
  "\u2581sharp": 6271,
  "\u2581zintzo": 6272,
  "gue": 6273,
  "\u2581evidence": 6274,
  "\u2581iluna": 6275,
  "\u2581lukete": 6276,
  "\u2581printer": 6277,
  "ell": 6278,
  "\u2581Remote": 6279,
  "\u2581badirudi": 6280,
  "\u2581dagokienez": 6281,
  "\u2581esaldi": 6282,
  "\u2581lt": 6283,
  "\u2581smiling": 6284,
  "\u2581welcome": 6285,
  "\u2581wherein": 6286,
  "\u2581Also": 6287,
  "\u2581Double": 6288,
  "\u2581doktorea": 6289,
  "\u2581horizontal": 6290,
  "\u2581orrialdea": 6291,
  "ally": 6292,
  "gui": 6293,
  "\u2581Day": 6294,
  "\u2581arguments": 6295,
  "\u2581batentzat": 6296,
  "\u2581bottle": 6297,
  "\u2581cedin": 6298,
  "\u2581countries": 6299,
  "\u2581inportatu": 6300,
  "\u2581powerful": 6301,
  "\u2581thin": 6302,
  "24": 6303,
  "Bilatu": 6304,
  "File": 6305,
  "natu": 6306,
  "\u2581Clutter": 6307,
  "\u2581Hamar": 6308,
  "\u2581umea": 6309,
  "\u2581Hark": 6310,
  "\u2581bateria": 6311,
  "\u2581hauta": 6312,
  "\u2581mintzatzen": 6313,
  "\u2581movie": 6314,
  "\u2581nahitaez": 6315,
  "\u2581oinarritutako": 6316,
  "\u2581Common": 6317,
  "\u2581bird": 6318,
  "\u2581inguratu": 6319,
  "\u2581nolabaiteko": 6320,
  "\u2581replace": 6321,
  "\u2581Point": 6322,
  "\u2581lapurtu": 6323,
  "\u2581telefono": 6324,
  "\u2581truke": 6325,
  "\u2581utz": 6326,
  "Hara": 6327,
  "peko": 6328,
  "\u2581Maximum": 6329,
  "\u2581creature": 6330,
  "\u2581forty": 6331,
  "\u2581hartuz": 6332,
  "\u2581lawyer": 6333,
  "\u2581powers": 6334,
  "\u2581sortuko": 6335,
  "\u2581zeharkatu": 6336,
  "ue": 6337,
  "\u2581Egon": 6338,
  "\u2581confidence": 6339,
  "\u2581izendatu": 6340,
  "\u2581kentzea": 6341,
  "\u2581tokian": 6342,
  "bia": 6343,
  "\u2581abantaila": 6344,
  "\u2581dealt": 6345,
  "\u2581eskerrak": 6346,
  "\u2581esklabo": 6347,
  "\u2581txakur": 6348,
  "txu": 6349,
  "\u2581Bizi": 6350,
  "\u2581Klotski": 6351,
  "\u2581Player": 6352,
  "\u2581dagoena": 6353,
  "\u2581irain": 6354,
  "\u2581ohean": 6355,
  "\u2581oihal": 6356,
  "\u2581ordaintzen": 6357,
  "\u2581successfully": 6358,
  "\u2581untzi": 6359,
  "\u2581zakar": 6360,
  "erre": 6361,
  "zar": 6362,
  "\u2581Using": 6363,
  "\u2581Val": 6364,
  "\u2581ekintzak": 6365,
  "\u2581kinds": 6366,
  "200": 6367,
  "\u2581Ahal": 6368,
  "\u2581Bota": 6369,
  "\u2581Fabricek": 6370,
  "\u2581Tro": 6371,
  "\u2581eskaera": 6372,
  "\u2581sold": 6373,
  "\u2581botila": 6374,
  "\u2581etortzeko": 6375,
  "\u2581nintzateke": 6376,
  "\u2581proof": 6377,
  "\u2581Bennet": 6378,
  "\u2581Judah": 6379,
  "\u2581Shift": 6380,
  "\u2581frames": 6381,
  "\u2581kodea": 6382,
  "\u2581matching": 6383,
  "\u2581wearing": 6384,
  "house": 6385,
  "\u2581Disk": 6386,
  "\u2581Sekula": 6387,
  "\u2581doors": 6388,
  "\u2581existentzia": 6389,
  "\u2581gelara": 6390,
  "\u2581hirian": 6391,
  "\u2581importance": 6392,
  "\u2581served": 6393,
  "\u2581Drive": 6394,
  "\u2581Ray": 6395,
  "\u2581betetako": 6396,
  "\u2581dioen": 6397,
  "\u2581garaia": 6398,
  "\u2581systems": 6399,
  "bera": 6400,
  "eria": 6401,
  "\u2581Jean": 6402,
  "\u2581Oinarri": 6403,
  "\u2581artista": 6404,
  "\u2581markatu": 6405,
  "\u2581pantailaren": 6406,
  "\u2581extra": 6407,
  "\u2581instalatu": 6408,
  "\u2581poz": 6409,
  "\u2581stored": 6410,
  "\u2581zeukaten": 6411,
  "iv": 6412,
  "run": 6413,
  "\u2581babes": 6414,
  "\u2581center": 6415,
  "\u2581hiritar": 6416,
  "\u2581socket": 6417,
  "\u2581squares": 6418,
  "\u2581Header": 6419,
  "\u2581Setting": 6420,
  "\u2581ce\u00e7an": 6421,
  "Orduan": 6422,
  "fu": 6423,
  "\u2581Fo": 6424,
  "\u2581Mikel": 6425,
  "\u2581Pen": 6426,
  "\u2581additional": 6427,
  "\u2581emazteak": 6428,
  "\u2581fokua": 6429,
  "\u2581yourselves": 6430,
  "\u2581apartment": 6431,
  "\u2581multitude": 6432,
  "row": 6433,
  "\u2581Galdetu": 6434,
  "\u2581Ikuspegi": 6435,
  "\u2581arrazoirik": 6436,
  "\u2581fa": 6437,
  "\u2581guraso": 6438,
  "kera": 6439,
  "\u2581Anyway": 6440,
  "\u2581Australia": 6441,
  "\u2581Green": 6442,
  "\u2581atzo": 6443,
  "\u2581betetzeko": 6444,
  "\u2581excellent": 6445,
  "\u2581nabarmen": 6446,
  "\u2581osaba": 6447,
  "\u2581papers": 6448,
  "\u2581CVS": 6449,
  "\u2581Gal": 6450,
  "\u2581antzekoa": 6451,
  "\u2581gura": 6452,
  "\u2581halere": 6453,
  "\u2581interesting": 6454,
  "\u2581izugarria": 6455,
  "\u2581lasterka": 6456,
  "\u2581qualities": 6457,
  "ington": 6458,
  "\u2581Segi": 6459,
  "\u2581kalean": 6460,
  "\u2581laguntzeko": 6461,
  "\u2581shared": 6462,
  "mes": 6463,
  "\u2581Edward": 6464,
  "\u2581Linux": 6465,
  "\u2581biziko": 6466,
  "\u2581botoiak": 6467,
  "\u2581dust": 6468,
  "\u2581effort": 6469,
  "\u2581eska": 6470,
  "\u2581grabatu": 6471,
  "\u2581jai": 6472,
  "\u2581testurik": 6473,
  "Orain": 6474,
  "cy": 6475,
  "\u2581Pilon": 6476,
  "\u2581argazkia": 6477,
  "\u2581forgot": 6478,
  "\u2581par": 6479,
  "\u2581structure": 6480,
  "erdi": 6481,
  "\u2581Light": 6482,
  "\u2581Oraintxe": 6483,
  "\u2581bihurtuko": 6484,
  "\u2581biziki": 6485,
  "\u2581disable": 6486,
  "\u2581eskala": 6487,
  "\u2581eskura": 6488,
  "\u2581foreign": 6489,
  "\u2581gift": 6490,
  "\u2581irrika": 6491,
  "\u2581zintzoa": 6492,
  "Kendu": 6493,
  "\u2581Duela": 6494,
  "\u2581Itxura": 6495,
  "\u2581Norbait": 6496,
  "\u2581Object": 6497,
  "\u2581ebaki": 6498,
  "\u2581jendearen": 6499,
  "\u2581Amak": 6500,
  "\u2581Mu": 6501,
  "\u2581Sy": 6502,
  "\u2581bale": 6503,
  "\u2581beg": 6504,
  "\u2581festa": 6505,
  "\u2581ice": 6506,
  "\u2581jasotzeko": 6507,
  "\u2581tri": 6508,
  "res": 6509,
  "\u2581Bye": 6510,
  "\u2581izpiritu": 6511,
  "\u2581stranger": 6512,
  "\u2581Connection": 6513,
  "\u2581Jordan": 6514,
  "\u2581Style": 6515,
  "\u2581ertz": 6516,
  "\u2581nien": 6517,
  "\u2581random": 6518,
  "ikoa": 6519,
  "\u2581Hiri": 6520,
  "\u2581harritu": 6521,
  "\u2581horma": 6522,
  "As": 6523,
  "ator": 6524,
  "tool": 6525,
  "tresna": 6526,
  "\u2581funtzio": 6527,
  "\u2581utzita": 6528,
  "\u2581witness": 6529,
  "gv": 6530,
  "\u2581Section": 6531,
  "\u2581deliver": 6532,
  "\u2581guztiaren": 6533,
  "\u2581urruti": 6534,
  "\u2581driver": 6535,
  "\u2581dwell": 6536,
  "\u2581eramatea": 6537,
  "\u2581exit": 6538,
  "\u2581garbia": 6539,
  "\u2581jakinarazi": 6540,
  "\u2581ku": 6541,
  "\u2581quietly": 6542,
  "\u2581slot": 6543,
  "\u2581thereby": 6544,
  "atzeko": 6545,
  "\u2581addresses": 6546,
  "\u2581dituzula": 6547,
  "\u2581iritzia": 6548,
  "bai": 6549,
  "\u2581Authentication": 6550,
  "\u2581Edozein": 6551,
  "\u2581begien": 6552,
  "\u2581egoeran": 6553,
  "\u2581kargu": 6554,
  "\u2581nabari": 6555,
  "\u2581username": 6556,
  "pan": 6557,
  "ping": 6558,
  "rr": 6559,
  "\u2581Lock": 6560,
  "\u2581eguneratu": 6561,
  "\u2581guztietako": 6562,
  "\u2581konpondu": 6563,
  "\u2581ordenagailua": 6564,
  "\u2581suffered": 6565,
  "van": 6566,
  "\u2581Odette": 6567,
  "\u2581errealitate": 6568,
  "\u2581honetaz": 6569,
  "\u2581lanak": 6570,
  "\u2581nagusiak": 6571,
  "AP": 6572,
  "View": 6573,
  "lib": 6574,
  "ura": 6575,
  "\u2581Ak": 6576,
  "\u2581Local": 6577,
  "\u2581hildako": 6578,
  "\u2581intended": 6579,
  "\u2581lehena": 6580,
  "\u2581bilakatu": 6581,
  "\u2581devil": 6582,
  "\u2581irekitzean": 6583,
  "\u2581segur": 6584,
  "When": 6585,
  "\u2581Details": 6586,
  "\u2581Robinson": 6587,
  "\u2581Teklatua": 6588,
  "\u2581captain": 6589,
  "\u2581favour": 6590,
  "\u2581hondatu": 6591,
  "\u2581izanda": 6592,
  "\u2581kargatzean": 6593,
  "\u2581ofizial": 6594,
  "\u2581pot": 6595,
  "af": 6596,
  "cu": 6597,
  "get": 6598,
  "pur": 6599,
  "\u2581Chess": 6600,
  "\u2581author": 6601,
  "\u2581souls": 6602,
  "Ikusi": 6603,
  "\u2581Everyone": 6604,
  "\u2581Guk": 6605,
  "\u2581PO": 6606,
  "\u2581Smith": 6607,
  "\u2581bertze": 6608,
  "\u2581frogatu": 6609,
  "\u2581individuals": 6610,
  "\u2581jabetza": 6611,
  "\u2581resolution": 6612,
  "\u2581sistemako": 6613,
  "\u2581erresuma": 6614,
  "\u2581fashion": 6615,
  "\u2581hurbiltzen": 6616,
  "\u2581model": 6617,
  "\u2581polit": 6618,
  "\u2581Berdin": 6619,
  "\u2581ausazko": 6620,
  "\u2581babestu": 6621,
  "\u2581beldurrik": 6622,
  "\u2581erabakia": 6623,
  "\u2581keyring": 6624,
  "\u2581provides": 6625,
  "berg": 6626,
  "book": 6627,
  "\u2581Maius": 6628,
  "\u2581Mezua": 6629,
  "\u2581Replace": 6630,
  "\u2581babeskopia": 6631,
  "\u2581bizitzako": 6632,
  "\u2581dezakete": 6633,
  "\u2581egotzi": 6634,
  "\u2581knees": 6635,
  "\u2581segurua": 6636,
  "\u2581Dokumentu": 6637,
  "\u2581eh": 6638,
  "\u2581erabateko": 6639,
  "\u2581ustekabean": 6640,
  "\u2581Bete": 6641,
  "\u2581arduratzen": 6642,
  "\u2581configure": 6643,
  "\u2581gorria": 6644,
  "\u2581politika": 6645,
  "\u2581alarm": 6646,
  "\u2581aldez": 6647,
  "\u2581bizian": 6648,
  "\u2581delay": 6649,
  "\u2581ezagun": 6650,
  "\u2581xake": 6651,
  "turiko": 6652,
  "\u2581Dorian": 6653,
  "\u2581Historia": 6654,
  "\u2581genero": 6655,
  "\u2581hint": 6656,
  "\u2581pu": 6657,
  "\u2581throughout": 6658,
  "Mar": 6659,
  "\u2581BE": 6660,
  "\u2581Blue": 6661,
  "\u2581Col": 6662,
  "\u2581gogora": 6663,
  "\u2581haurrak": 6664,
  "\u2581lights": 6665,
  "\u2581mom": 6666,
  "\u2581servers": 6667,
  "\u2581Gtk": 6668,
  "\u2581Ya": 6669,
  "\u2581applied": 6670,
  "\u2581arrain": 6671,
  "\u2581mankind": 6672,
  "\u2581meat": 6673,
  "An": 6674,
  "kari": 6675,
  "share": 6676,
  "\u2581analizatu": 6677,
  "\u2581baduzue": 6678,
  "\u2581conscience": 6679,
  "\u2581ekartzen": 6680,
  "\u2581gehi": 6681,
  "\u2581gezurra": 6682,
  "\u2581gordetzean": 6683,
  "\u2581justizia": 6684,
  "\u2581landu": 6685,
  "\u2581proba": 6686,
  "\u2581unit": 6687,
  "\u2581zerbitzua": 6688,
  "\u2581Gerra": 6689,
  "\u2581Tomboy": 6690,
  "\u2581cup": 6691,
  "\u2581radio": 6692,
  "\u2581throat": 6693,
  "zten": 6694,
  "\u25812000": 6695,
  "\u2581Abraham": 6696,
  "\u2581Account": 6697,
  "\u2581Far": 6698,
  "\u2581Handia": 6699,
  "\u2581ahizpa": 6700,
  "\u2581contrast": 6701,
  "\u2581extremely": 6702,
  "\u2581goiburu": 6703,
  "\u2581kezka": 6704,
  "\u2581txo": 6705,
  "ATZEKO": 6706,
  "takoa": 6707,
  "\u258113": 6708,
  "\u2581Dis": 6709,
  "\u2581House": 6710,
  "\u2581RAID": 6711,
  "\u2581datuen": 6712,
  "\u2581flight": 6713,
  "\u2581publikoa": 6714,
  "\u2581zaudela": 6715,
  "tzearen": 6716,
  "\u2581Greek": 6717,
  "\u2581Level": 6718,
  "\u2581advanced": 6719,
  "\u2581banaka": 6720,
  "\u2581beteta": 6721,
  "\u2581dokumentazio": 6722,
  "\u2581oihuka": 6723,
  "\u2581topatu": 6724,
  "\u2581Cancel": 6725,
  "\u2581Talk": 6726,
  "\u2581aldendu": 6727,
  "\u2581hilketa": 6728,
  "\u2581iritsiko": 6729,
  "\u2581pakete": 6730,
  "\u2581partaide": 6731,
  "\u2581satisfied": 6732,
  "nd": 6733,
  "\u2581William": 6734,
  "\u2581belarri": 6735,
  "\u2581familiar": 6736,
  "\u2581harm": 6737,
  "\u2581harturik": 6738,
  "\u2581turns": 6739,
  "\u2581urrundu": 6740,
  "ILITY": 6741,
  "\u2581destination": 6742,
  "\u2581eating": 6743,
  "\u2581galde": 6744,
  "\u2581gau\u00e7a": 6745,
  "\u2581goiburua": 6746,
  "\u2581meta": 6747,
  "\u2581necessarily": 6748,
  "\u2581officers": 6749,
  "\u2581opinions": 6750,
  "itatea": 6751,
  "\u2581Alex": 6752,
  "\u2581Mag": 6753,
  "\u2581Talde": 6754,
  "\u2581janari": 6755,
  "\u2581Ali": 6756,
  "\u2581Denok": 6757,
  "\u2581bazenu": 6758,
  "\u2581scarcely": 6759,
  "\u2581updates": 6760,
  "burg": 6761,
  "\u2581Cal": 6762,
  "\u2581Cut": 6763,
  "\u2581Russian": 6764,
  "\u2581Zertarako": 6765,
  "\u2581ibiliko": 6766,
  "\u2581innocent": 6767,
  "\u2581jasotako": 6768,
  "rian": 6769,
  "\u2581Character": 6770,
  "\u2581Sc": 6771,
  "\u2581Still": 6772,
  "\u2581absurd": 6773,
  "\u2581baitzegoen": 6774,
  "\u2581devices": 6775,
  "\u2581goitik": 6776,
  "\u2581proved": 6777,
  "agu": 6778,
  "karpeta": 6779,
  "\u2581garrasi": 6780,
  "\u2581links": 6781,
  "\u2581lunch": 6782,
  "\u2581surely": 6783,
  "\u2581Hall": 6784,
  "\u2581Marie": 6785,
  "\u2581Onartu": 6786,
  "\u2581consent": 6787,
  "\u2581irakatsi": 6788,
  "\u2581zinez": 6789,
  "Ongi": 6790,
  "\u2581BERMERIK": 6791,
  "\u2581Bertan": 6792,
  "\u2581ashamed": 6793,
  "\u2581duenik": 6794,
  "\u2581gurutzatu": 6795,
  "\u2581solid": 6796,
  "Good": 6797,
  "Hala": 6798,
  "over": 6799,
  "\u2581Irudia": 6800,
  "\u2581bakea": 6801,
  "\u2581bakoitzari": 6802,
  "\u2581eguzki": 6803,
  "\u2581osoak": 6804,
  "ben": 6805,
  "hal": 6806,
  "kia": 6807,
  "\u2581Emma": 6808,
  "\u2581distinguish": 6809,
  "\u2581kenduko": 6810,
  "\u2581rational": 6811,
  "quo": 6812,
  "\u2581Pila": 6813,
  "\u2581aspect": 6814,
  "\u2581aztertzen": 6815,
  "\u2581eginkizun": 6816,
  "\u2581kanal": 6817,
  "\u2581kristau": 6818,
  "\u2581lotuta": 6819,
  "\u2581zintzilik": 6820,
  "\u2581Unicode": 6821,
  "\u2581Yo": 6822,
  "\u2581fede": 6823,
  "\u2581grass": 6824,
  "\u2581index": 6825,
  "\u2581negozio": 6826,
  "\u2581palette": 6827,
  "\u2581stayed": 6828,
  "del": 6829,
  "\u2581Mugitu": 6830,
  "\u2581blank": 6831,
  "\u2581egutegia": 6832,
  "\u2581ikurra": 6833,
  "\u2581mahaiko": 6834,
  "\u2581norberaren": 6835,
  "\u2581oharra": 6836,
  "\u2581onartuko": 6837,
  "\u2581zaizkio": 6838,
  "\u2581*.": 6839,
  "\u2581Kartak": 6840,
  "\u2581attached": 6841,
  "\u2581brush": 6842,
  "\u2581gehienezko": 6843,
  "\u2581grid": 6844,
  "\u2581including": 6845,
  "\u2581stuck": 6846,
  "\u2581Haiek": 6847,
  "\u2581Zera": 6848,
  "\u2581bent": 6849,
  "\u2581ematera": 6850,
  "\u2581pushed": 6851,
  "\u2581zaituztet": 6852,
  "\u2581zalantza": 6853,
  "Lo": 6854,
  "\u2581Kargatu": 6855,
  "\u2581citizens": 6856,
  "\u2581dutenean": 6857,
  "\u2581erakuslea": 6858,
  "\u2581fail": 6859,
  "\u2581march": 6860,
  "\u2581popup": 6861,
  "\u2581saiatuko": 6862,
  "\u25812005": 6863,
  "\u2581Block": 6864,
  "\u2581Sound": 6865,
  "\u2581Tan": 6866,
  "\u2581Va": 6867,
  "\u2581alderantziz": 6868,
  "\u2581badaude": 6869,
  "\u2581conceive": 6870,
  "\u2581extent": 6871,
  "\u2581guztiekin": 6872,
  "\u2581hedatu": 6873,
  "Type": 6874,
  "\u2581diozun": 6875,
  "\u2581habit": 6876,
  "\u2581harremanetan": 6877,
  "\u2581liburua": 6878,
  "\u2581maximum": 6879,
  "\u2581ob": 6880,
  "\u2581roll": 6881,
  "\u2581Badirudi": 6882,
  "\u2581Goes": 6883,
  "\u2581Mc": 6884,
  "\u2581USE": 6885,
  "\u2581Weather": 6886,
  "\u2581aldia": 6887,
  "\u2581erretzen": 6888,
  "\u2581exclaimed": 6889,
  "\u2581hungry": 6890,
  "\u2581ikusirik": 6891,
  "\u2581munduaren": 6892,
  "argi": 6893,
  "\u2581aritzen": 6894,
  "\u2581delight": 6895,
  "\u2581describes": 6896,
  "\u2581impression": 6897,
  "\u2581kodeketa": 6898,
  "\u2581loose": 6899,
  "\u2581worst": 6900,
  "AS": 6901,
  "DVD": 6902,
  "\u2581Everybody": 6903,
  "\u2581Ok": 6904,
  "\u2581buried": 6905,
  "\u2581gehienetan": 6906,
  "\u2581kudeatzailea": 6907,
  "\u2581vo": 6908,
  "\u2581wicked": 6909,
  "\u2581JPEG": 6910,
  "\u2581badaki": 6911,
  "\u2581distinction": 6912,
  "\u2581dotore": 6913,
  "\u2581partida": 6914,
  "\u2581pentsatuko": 6915,
  "\u2581rare": 6916,
  "Editatu": 6917,
  "ana": 6918,
  "rro": 6919,
  "\u2581Lortu": 6920,
  "\u2581Position": 6921,
  "\u2581Ume": 6922,
  "\u2581akats": 6923,
  "\u2581owner": 6924,
  "\u2581sleeping": 6925,
  "\u2581sorts": 6926,
  "\u2581stones": 6927,
  "\u2581Eugene": 6928,
  "\u2581amari": 6929,
  "\u2581duzuen": 6930,
  "\u2581feels": 6931,
  "\u2581francs": 6932,
  "\u2581headers": 6933,
  "\u2581komeni": 6934,
  "\u2581south": 6935,
  "\u2581stars": 6936,
  "ore": 6937,
  "size": 6938,
  "this": 6939,
  "\u2581KALTE": 6940,
  "\u2581ezpain": 6941,
  "\u2581forest": 6942,
  "\u2581oil": 6943,
  "\u2581performed": 6944,
  "\u2581zurbil": 6945,
  "\u00e1n": 6946,
  "\u2581Aldi": 6947,
  "\u2581Mugimendu": 6948,
  "\u2581Reserve": 6949,
  "\u2581autoa": 6950,
  "\u2581bakan": 6951,
  "\u2581egunetan": 6952,
  "\u2581gida": 6953,
  "\u2581ito": 6954,
  "\u2581zeukala": 6955,
  "13": 6956,
  "ilo": 6957,
  "mode": 6958,
  "oz": 6959,
  "ula": 6960,
  "win": 6961,
  "\u2581Ana": 6962,
  "\u2581Brand": 6963,
  "\u2581Directory": 6964,
  "\u2581THAT": 6965,
  "\u2581acts": 6966,
  "\u2581divided": 6967,
  "\u2581huge": 6968,
  "\u2581pray": 6969,
  "\u2581review": 6970,
  "\u2581sets": 6971,
  "\u2581wealth": 6972,
  "fm": 6973,
  "tzeari": 6974,
  "\u2581AN": 6975,
  "\u2581Ahaztu": 6976,
  "\u2581Count": 6977,
  "\u2581diskoan": 6978,
  "\u2581gray": 6979,
  "DE": 6980,
  "De": 6981,
  "ear": 6982,
  "ratzen": 6983,
  "\u2581Description": 6984,
  "\u2581Ordeztu": 6985,
  "\u2581jarraituko": 6986,
  "\u2581kapela": 6987,
  "\u2581separated": 6988,
  "\u2581zaiola": 6989,
  "\u2581PARTICULAR": 6990,
  "\u2581PER": 6991,
  "\u2581Preview": 6992,
  "\u2581bidezko": 6993,
  "\u2581committed": 6994,
  "\u2581documentation": 6995,
  "\u2581estutu": 6996,
  "\u2581ke": 6997,
  "\u2581monitor": 6998,
  "\u2581refuse": 6999,
  "\u2581txit": 7000,
  "Edit": 7001,
  "more": 7002,
  "\u2581Helburu": 7003,
  "\u2581batengatik": 7004,
  "\u2581behold": 7005,
  "\u2581carrying": 7006,
  "\u2581cen": 7007,
  "\u2581curious": 7008,
  "\u2581daitekeela": 7009,
  "\u2581eremuan": 7010,
  "\u2581lirateke": 7011,
  "ions": 7012,
  "\u2581Liburu": 7013,
  "\u2581Thomas": 7014,
  "\u2581aldatuko": 7015,
  "\u2581ale": 7016,
  "\u2581comfort": 7017,
  "\u2581ezker": 7018,
  "\u2581inoren": 7019,
  "\u2581itzul": 7020,
  "\u2581izate": 7021,
  "\u2581listened": 7022,
  "\u2581pena": 7023,
  "\u2581repeat": 7024,
  "\u2581salbu": 7025,
  "\u2581troops": 7026,
  "\u2581violence": 7027,
  "\u2581zihoala": 7028,
  "\u2581Berria": 7029,
  "\u2581Media": 7030,
  "\u2581aparte": 7031,
  "\u2581bazekien": 7032,
  "\u2581dollars": 7033,
  "\u2581dreams": 7034,
  "zka": 7035,
  "\u2581determinatu": 7036,
  "\u2581nuenean": 7037,
  "\u2581smart": 7038,
  "\u2581vast": 7039,
  "barrako": 7040,
  "nia": 7041,
  "ning": 7042,
  "tzan": 7043,
  "\u2581aldea": 7044,
  "\u2581declared": 7045,
  "\u2581etzan": 7046,
  "\u2581extraordinary": 7047,
  "\u2581families": 7048,
  "\u2581thrown": 7049,
  "\u258122": 7050,
  "\u2581Ace": 7051,
  "\u2581funtzioa": 7052,
  "\u2581killing": 7053,
  "\u2581restore": 7054,
  "\u2581rid": 7055,
  "\u2581sari": 7056,
  "\u2581Allow": 7057,
  "\u2581Pozt": 7058,
  "\u2581desegin": 7059,
  "\u2581osatutako": 7060,
  "\u2581shoes": 7061,
  "arazteko": 7062,
  "ight": 7063,
  "\u2581BEHAR": 7064,
  "\u2581Bor": 7065,
  "\u2581Burua": 7066,
  "\u2581Chinese": 7067,
  "\u2581Theme": 7068,
  "\u2581adin": 7069,
  "\u2581andre": 7070,
  "\u2581baimen": 7071,
  "\u2581dock": 7072,
  "\u2581egunkaria": 7073,
  "\u2581gaituzte": 7074,
  "\u2581lukeen": 7075,
  "\u2581negarrez": 7076,
  "\u2581vertical": 7077,
  "sk": 7078,
  "\u2581Berri": 7079,
  "\u2581Contacts": 7080,
  "\u2581Eliza": 7081,
  "\u2581addition": 7082,
  "\u2581closing": 7083,
  "\u2581sen": 7084,
  "Bus": 7085,
  "\u2581Mel": 7086,
  "\u2581erabilgarriak": 7087,
  "\u2581glance": 7088,
  "\u2581lizentziaren": 7089,
  "\u2581notification": 7090,
  "\u2581obey": 7091,
  "\u2581social": 7092,
  "\u2581spite": 7093,
  "\u2581tinko": 7094,
  "\u2581whilst": 7095,
  "Save": 7096,
  "eg": 7097,
  "int": 7098,
  "\u2581Bingley": 7099,
  "\u2581Pentsatu": 7100,
  "\u2581cein": 7101,
  "\u2581zauritu": 7102,
  "\u2581zerbitzariaren": 7103,
  "ele": 7104,
  "\u2581Zurekin": 7105,
  "\u2581baliatu": 7106,
  "\u2581bringing": 7107,
  "\u2581ek": 7108,
  "\u2581somewhat": 7109,
  "\u2581zarata": 7110,
  "who": 7111,
  "\u2581altogether": 7112,
  "\u2581conscious": 7113,
  "\u2581degrees": 7114,
  "\u2581eske": 7115,
  "\u2581mis": 7116,
  "\u2581passphrase": 7117,
  "\u2581soka": 7118,
  "\u2581storm": 7119,
  "\u2581sum": 7120,
  "pain": 7121,
  "\u2581arraroa": 7122,
  "\u2581barren": 7123,
  "\u2581charming": 7124,
  "\u2581erabiltzailea": 7125,
  "\u2581errors": 7126,
  "\u2581inporta": 7127,
  "\u2581pribatu": 7128,
  "\u2581sought": 7129,
  "ntz": 7130,
  "\u2581Dei": 7131,
  "\u2581Ipar": 7132,
  "\u2581array": 7133,
  "\u2581atxiki": 7134,
  "\u2581baitzion": 7135,
  "\u2581brethren": 7136,
  "\u2581daitezen": 7137,
  "\u2581decision": 7138,
  "\u2581desberdin": 7139,
  "\u2581digute": 7140,
  "\u2581ertza": 7141,
  "\u2581internal": 7142,
  "\u2581lotzen": 7143,
  "\u2581physical": 7144,
  "\u2581publiko": 7145,
  "\u2581trepeta": 7146,
  "banan": 7147,
  "gorri": 7148,
  "\u2581Ihes": 7149,
  "\u2581Jendea": 7150,
  "\u2581Loading": 7151,
  "\u2581Simon": 7152,
  "\u2581bell": 7153,
  "\u2581carriage": 7154,
  "\u2581hartzaile": 7155,
  "\u2581ikaragarria": 7156,
  "\u2581zebiltzan": 7157,
  "Fi": 7158,
  "base": 7159,
  "default": 7160,
  "irudi": 7161,
  "tasunean": 7162,
  "\u2581Europako": 7163,
  "\u2581Jews": 7164,
  "\u2581PURPOSE": 7165,
  "\u2581Politikarako": 7166,
  "\u2581Sailburuordetza": 7167,
  "\u2581atalean": 7168,
  "\u2581feed": 7169,
  "gune": 7170,
  "iar": 7171,
  "ung": 7172,
  "\u2581Maila": 7173,
  "\u2581azkena": 7174,
  "\u2581negative": 7175,
  "DOCS": 7176,
  "\u2581Marge": 7177,
  "\u2581balute": 7178,
  "\u2581berreskuratu": 7179,
  "\u2581drinking": 7180,
  "\u2581eskuliburu": 7181,
  "\u2581xume": 7182,
  "hen": 7183,
  "\u2581Gailua": 7184,
  "\u2581Gogoratu": 7185,
  "\u2581Honi": 7186,
  "\u2581Kristo": 7187,
  "\u2581Quit": 7188,
  "\u2581Too": 7189,
  "\u2581adore": 7190,
  "\u2581arrastatu": 7191,
  "\u2581colonel": 7192,
  "\u2581didan": 7193,
  "\u2581engaged": 7194,
  "\u2581gehitzea": 7195,
  "\u2581regarding": 7196,
  "law": 7197,
  "tzu": 7198,
  "\u2581Aurkitu": 7199,
  "\u2581Dirua": 7200,
  "\u2581Eseri": 7201,
  "\u2581Galdera": 7202,
  "\u2581MERCHANTAB": 7203,
  "\u2581Sarrerako": 7204,
  "\u2581Taula": 7205,
  "\u2581Vertical": 7206,
  "\u2581bestetik": 7207,
  "\u2581haserretu": 7208,
  "\u2581leg": 7209,
  "\u2581materia": 7210,
  "\u2581spiritual": 7211,
  "cat": 7212,
  "uff": 7213,
  "\u2581Captain": 7214,
  "\u2581Kontrol": 7215,
  "\u2581Laura": 7216,
  "\u2581anti": 7217,
  "\u2581attachment": 7218,
  "\u2581aurpegian": 7219,
  "\u2581bizitzeko": 7220,
  "\u2581confess": 7221,
  "\u2581forces": 7222,
  "\u2581norbera": 7223,
  "\u2581paleta": 7224,
  "\u2581scale": 7225,
  "\u2581worried": 7226,
  "lic": 7227,
  "\u2581Bazarov": 7228,
  "\u2581Charlie": 7229,
  "\u2581Cooper": 7230,
  "\u2581MERKATU": 7231,
  "\u2581agreement": 7232,
  "\u2581broad": 7233,
  "\u2581execute": 7234,
  "\u2581funtzionatzen": 7235,
  "\u2581karpetan": 7236,
  "iera": 7237,
  "nahi": 7238,
  "\u2581ase": 7239,
  "\u2581constantly": 7240,
  "\u2581eginik": 7241,
  "\u2581egokitu": 7242,
  "\u2581fr": 7243,
  "\u2581irabazten": 7244,
  "\u2581zihoazen": 7245,
  "84": 7246,
  "ct": 7247,
  "undo": 7248,
  "\u2581Access": 7249,
  "\u2581aunt": 7250,
  "\u2581elkarte": 7251,
  "\u2581ezkutuko": 7252,
  "\u2581goibel": 7253,
  "\u2581guztiok": 7254,
  "oc": 7255,
  "\u258151": 7256,
  "\u2581Beldur": 7257,
  "\u2581Foundations": 7258,
  "\u2581Jaunari": 7259,
  "\u2581Usage": 7260,
  "\u2581Win": 7261,
  "\u2581aspaldi": 7262,
  "\u2581backend": 7263,
  "\u2581exercise": 7264,
  "\u2581frequently": 7265,
  "\u2581gauez": 7266,
  "\u2581gutuna": 7267,
  "\u2581guztira": 7268,
  "\u2581ikasle": 7269,
  "\u2581irri": 7270,
  "\u2581zaintzen": 7271,
  "une": 7272,
  "what": 7273,
  "\u2581Erdi": 7274,
  "\u2581Greenleaf": 7275,
  "\u2581Indian": 7276,
  "\u2581affection": 7277,
  "\u2581expressed": 7278,
  "\u2581forgive": 7279,
  "\u2581ilea": 7280,
  "\u2581menuan": 7281,
  "\u2581sentence": 7282,
  "\u2581Mus": 7283,
  "\u2581President": 7284,
  "\u2581gizakume": 7285,
  "\u2581lasaitu": 7286,
  "\u2581pointed": 7287,
  "\u2581principal": 7288,
  "\u2581zaizkit": 7289,
  "ano": 7290,
  "ora": 7291,
  "\u2581Egutegia": 7292,
  "\u2581Palette": 7293,
  "\u2581Sei": 7294,
  "\u2581baliteke": 7295,
  "\u2581wholly": 7296,
  "\";": 7297,
  "\u2581CHAPTER": 7298,
  "\u2581Polizia": 7299,
  "\u2581Toolbar": 7300,
  "\u2581agerpen": 7301,
  "\u2581aurreratu": 7302,
  "\u2581besteek": 7303,
  "\u2581directions": 7304,
  "\u2581zizkioten": 7305,
  "egun": 7306,
  "nio": 7307,
  "\u2581Sarah": 7308,
  "\u2581beings": 7309,
  "\u2581botako": 7310,
  "\u2581byte": 7311,
  "\u2581lucky": 7312,
  "\u2581pentsatzea": 7313,
  "\u2581unity": 7314,
  "dala": 7315,
  "ente": 7316,
  "formatua": 7317,
  "mos": 7318,
  "\u2581INOLAKO": 7319,
  "\u2581arriskuan": 7320,
  "\u2581strike": 7321,
  "\u2581telephone": 7322,
  "\u2581tren": 7323,
  "ens": 7324,
  "lock": 7325,
  "pon": 7326,
  "\u2581Christian": 7327,
  "\u2581Gray": 7328,
  "\u2581Norbaitek": 7329,
  "\u2581egunez": 7330,
  "\u2581likewise": 7331,
  "\u2581navigation": 7332,
  "\u2581punishment": 7333,
  "\u2581sheep": 7334,
  "Ho": 7335,
  "gile": 7336,
  "zulo": 7337,
  "\u2581balego": 7338,
  "\u2581doinu": 7339,
  "\u2581gehigarria": 7340,
  "\u2581horiekin": 7341,
  "\u2581kotxe": 7342,
  "\u2581site": 7343,
  "\u2581st": 7344,
  "lov": 7345,
  "xml": 7346,
  "\u2581Pertsona": 7347,
  "\u2581bilduma": 7348,
  "\u2581flower": 7349,
  "\u2581zizun": 7350,
  "rri": 7351,
  "\u2581Latin": 7352,
  "\u2581Zuzen": 7353,
  "\u2581slight": 7354,
  "\u2581DIREN": 7355,
  "\u2581airean": 7356,
  "\u2581helped": 7357,
  "\u2581itxuraz": 7358,
  "\u2581oraingo": 7359,
  "\u2581ororen": 7360,
  "\u2581ridiculous": 7361,
  "\u2581saltzen": 7362,
  "\u2581stands": 7363,
  "\u2581ziurtagiria": 7364,
  "80": 7365,
  "\u2581ERABILTZEKO": 7366,
  "\u2581Jar": 7367,
  "\u2581counter": 7368,
  "\u2581eskailera": 7369,
  "\u2581evident": 7370,
  "\u2581faltsu": 7371,
  "\u2581gazteak": 7372,
  "\u2581herriko": 7373,
  "\u2581ikara": 7374,
  "\u2581larger": 7375,
  "\u2581lest": 7376,
  "\u2581signed": 7377,
  "\u2581titulu": 7378,
  "\u2581txikiagoa": 7379,
  "\u2581History": 7380,
  "\u2581Ideia": 7381,
  "\u2581bedi": 7382,
  "\u2581deabru": 7383,
  "\u2581earlier": 7384,
  "\u2581junk": 7385,
  "\u2581labour": 7386,
  "\u2581slaves": 7387,
  "\u2581th": 7388,
  "\u2581zintudan": 7389,
  "ketak": 7390,
  "tzak": 7391,
  "zain": 7392,
  "\u2581Browser": 7393,
  "\u2581Jonathanek": 7394,
  "\u2581accepted": 7395,
  "\u2581adimena": 7396,
  "\u2581burst": 7397,
  "\u2581desgaitu": 7398,
  "\u2581emperor": 7399,
  "\u2581namely": 7400,
  "\u2581soineko": 7401,
  "\u2581zehazki": 7402,
  "Are": 7403,
  "Esan": 7404,
  "MIME": 7405,
  "ille": 7406,
  "\u2581Orca": 7407,
  "\u2581Strogoff": 7408,
  "\u2581behatz": 7409,
  "\u2581izenez": 7410,
  "\u2581ogi": 7411,
  "\u2581tankera": 7412,
  "\u2581zabalik": 7413,
  "Erakutsi": 7414,
  "ney": 7415,
  "talde": 7416,
  "\u2581Christmas": 7417,
  "\u2581auzo": 7418,
  "\u2581greatly": 7419,
  ":%02": 7420,
  "ume": 7421,
  "\u2581Biratu": 7422,
  "\u2581Kasu": 7423,
  "\u2581True": 7424,
  "\u2581brown": 7425,
  "FS": 7426,
  "disabled": 7427,
  "\u25817.": 7428,
  "\u2581backup": 7429,
  "\u2581bloke": 7430,
  "\u2581dealing": 7431,
  "\u2581environment": 7432,
  "\u2581horrenbeste": 7433,
  "\u2581kategoria": 7434,
  "\u2581mehatxu": 7435,
  "\u2581politiko": 7436,
  "\u2581sekretu": 7437,
  "\u2581Action": 7438,
  "\u2581democratic": 7439,
  "\u2581deny": 7440,
  "\u2581desberdinak": 7441,
  "\u2581ergela": 7442,
  "\u2581esandakoa": 7443,
  "\u2581filosofia": 7444,
  "\u2581gizakiaren": 7445,
  "\u2581hill": 7446,
  "\u2581launch": 7447,
  "\u2581segitu": 7448,
  "Color": 7449,
  "nder": 7450,
  "\u2581borrokatu": 7451,
  "\u2581dictionary": 7452,
  "\u2581editatu": 7453,
  "\u2581parties": 7454,
  "\u2581pretend": 7455,
  "Show": 7456,
  "bol": 7457,
  "liburua": 7458,
  "tzako": 7459,
  "uch": 7460,
  "zabal": 7461,
  "zona": 7462,
  "\u2581Neuk": 7463,
  "\u2581Searching": 7464,
  "\u2581diamonds": 7465,
  "\u2581independent": 7466,
  "\u2581quarter": 7467,
  "\u2581senar": 7468,
  "\u2581sofa": 7469,
  "\u2581violent": 7470,
  "\u2581Love": 7471,
  "\u2581Parent": 7472,
  "\u2581blame": 7473,
  "\u2581exact": 7474,
  "\u2581iturburua": 7475,
  "\u2581throne": 7476,
  "back": 7477,
  "etc": 7478,
  "\u258123": 7479,
  "\u2581Fabrice": 7480,
  "\u2581despair": 7481,
  "\u2581kontuz": 7482,
  "araztea": 7483,
  "nie": 7484,
  "\u2581ira": 7485,
  "\u2581karpetaren": 7486,
  "\u2581lover": 7487,
  "berri": 7488,
  "she": 7489,
  "\u2581Configuration": 7490,
  "\u2581betez": 7491,
  "\u2581bridge": 7492,
  "\u2581ikerketa": 7493,
  "\u2581managed": 7494,
  "\u2581taxi": 7495,
  "cur": 7496,
  "\u2581Esportatu": 7497,
  "\u2581Iturburu": 7498,
  "\u2581bihur": 7499,
  "\u2581ease": 7500,
  "\u2581zaudete": 7501,
  "\u2581zutaz": 7502,
  "Utzi": 7503,
  "{": 7504,
  "\u2581Hari": 7505,
  "\u2581London": 7506,
  "\u2581Markatu": 7507,
  "\u2581dakigu": 7508,
  "\u2581datza": 7509,
  "\u2581dirty": 7510,
  "\u2581hartua": 7511,
  "\u2581makila": 7512,
  "\u2581roof": 7513,
  "\u2581tools": 7514,
  "\u2581zutitu": 7515,
  "argazkia": 7516,
  "rrak": 7517,
  "\u2581Horizontal": 7518,
  "\u2581brings": 7519,
  "\u2581changing": 7520,
  "\u2581inprimatzeko": 7521,
  "\u2581recipients": 7522,
  "\u2581Ger": 7523,
  "\u2581Mutil": 7524,
  "\u2581Sections": 7525,
  "\u2581astun": 7526,
  "\u2581copies": 7527,
  "\u2581dien": 7528,
  "\u2581dudanean": 7529,
  "\u2581eskaintza": 7530,
  "\u2581favor": 7531,
  "\u2581gaitzeko": 7532,
  "\u2581hobeki": 7533,
  "\u2581ignorant": 7534,
  "\u2581knife": 7535,
  "table": 7536,
  "\u2581Being": 7537,
  "\u2581DE": 7538,
  "\u2581Eu": 7539,
  "\u2581PNG": 7540,
  "\u2581aginduak": 7541,
  "\u2581guilty": 7542,
  "\u2581hiriko": 7543,
  "\u2581mutur": 7544,
  "\u2581sartuta": 7545,
  "\u2581surface": 7546,
  "lis": 7547,
  "\u2581Hasierako": 7548,
  "\u2581handsome": 7549,
  "\u2581hauetako": 7550,
  "\u2581hotza": 7551,
  "\u2581liburutegi": 7552,
  "\u2581signs": 7553,
  "ward": 7554,
  "\u25818.": 7555,
  "\u2581Beren": 7556,
  "\u2581Sea": 7557,
  "\u2581URIa": 7558,
  "\u2581Van": 7559,
  "\u2581aktibo": 7560,
  "\u2581baitzituen": 7561,
  "\u2581fer": 7562,
  "\u2581growing": 7563,
  "\u2581insert": 7564,
  "\u2581nator": 7565,
  "\u2581onez": 7566,
  "\u2581zertarako": 7567,
  "ama": 7568,
  "berria": 7569,
  "\u00e9c": 7570,
  "\u2581Elkarrizketa": 7571,
  "\u2581Joseph": 7572,
  "\u2581administrator": 7573,
  "\u2581hasita": 7574,
  "\u2581ikasten": 7575,
  "\u2581layers": 7576,
  "\u2581maitale": 7577,
  "\u2581proportion": 7578,
  "\u2581zur": 7579,
  "egoera": 7580,
  "toa": 7581,
  "tzetik": 7582,
  "\u2581beteko": 7583,
  "\u2581haurra": 7584,
  "\u2581highly": 7585,
  "\u2581mass": 7586,
  "\u2581pan": 7587,
  "\u2581plenty": 7588,
  "\u2581slightly": 7589,
  "window": 7590,
  "\u2581Ask": 7591,
  "\u2581Rotate": 7592,
  "\u2581atsekabe": 7593,
  "\u2581hegal": 7594,
  "aukerak": 7595,
  "pha": 7596,
  "tzeagatik": 7597,
  "\u2581Adam": 7598,
  "\u2581Bel": 7599,
  "\u2581crying": 7600,
  "\u2581jatorra": 7601,
  "\u2581luzaro": 7602,
  "\u2581restart": 7603,
  "\u2581zuhur": 7604,
  "real": 7605,
  "retara": 7606,
  "\u2581Nere": 7607,
  "\u2581Pakete": 7608,
  "\u2581abiarazteko": 7609,
  "\u2581batzuekin": 7610,
  "\u2581gidatu": 7611,
  "\u2581kanala": 7612,
  "\u2581zakarrontzira": 7613,
  "\u2581adibide": 7614,
  "\u2581chess": 7615,
  "\u2581component": 7616,
  "\u2581eskerrik": 7617,
  "\u2581hasia": 7618,
  "\u2581hedatzen": 7619,
  "\u2581maiztasuna": 7620,
  "keten": 7621,
  "tarako": 7622,
  "\u2581altxa": 7623,
  "\u2581boss": 7624,
  "\u2581diete": 7625,
  "\u2581duguna": 7626,
  "\u2581encryption": 7627,
  "\u2581ezar": 7628,
  "\u2581inongo": 7629,
  "\u2581iturri": 7630,
  "\u2581suggestion": 7631,
  "19": 7632,
  "Or": 7633,
  "gor": 7634,
  "sorta": 7635,
  "taldea": 7636,
  "\u2581Aski": 7637,
  "\u2581US": 7638,
  "\u2581Zazpi": 7639,
  "\u2581dull": 7640,
  "\u2581hortz": 7641,
  "\u2581seized": 7642,
  "\u2581uler": 7643,
  "eo": 7644,
  "ned": 7645,
  "\u2581Didn": 7646,
  "\u2581Sinadura": 7647,
  "\u2581Socrates": 7648,
  "\u2581diezu": 7649,
  "\u2581emana": 7650,
  "\u2581eran": 7651,
  "\u2581idle": 7652,
  "\u2581included": 7653,
  "\u2581satisfaction": 7654,
  "II": 7655,
  "razten": 7656,
  "user": 7657,
  "\u2581Reeves": 7658,
  "\u2581itsaso": 7659,
  "\u2581lifted": 7660,
  "\u2581maisu": 7661,
  "\u2581mediku": 7662,
  "\u2581nagoela": 7663,
  "itzen": 7664,
  "met": 7665,
  "\u00e1c": 7666,
  "\u2581Fine": 7667,
  "\u2581Vo": 7668,
  "\u2581hauei": 7669,
  "\u2581involved": 7670,
  "\u2581market": 7671,
  "\u2581sources": 7672,
  "\u2581struggle": 7673,
  "\u2581txi": 7674,
  "\u0161": 7675,
  "\u2581Lou": 7676,
  "\u2581busti": 7677,
  "\u2581depends": 7678,
  "\u2581jarduera": 7679,
  "\u2581member": 7680,
  "\u00e7\u00e1t": 7681,
  "\u2581Johnny": 7682,
  "\u2581Super": 7683,
  "\u2581arras": 7684,
  "\u2581artxiboa": 7685,
  "\u2581grand": 7686,
  "\u2581hastea": 7687,
  "\u2581jakintza": 7688,
  "\u2581scheme": 7689,
  "\u2581zereginen": 7690,
  "\u2581Bad": 7691,
  "\u2581asmoz": 7692,
  "\u2581bien": 7693,
  "\u2581bitartegabe": 7694,
  "\u2581esperantza": 7695,
  "\u2581heriotzaren": 7696,
  "\u2581jendeari": 7697,
  "\u2581neurrian": 7698,
  "\u2581origin": 7699,
  "consciousness": 7700,
  "hur": 7701,
  "\u2581GFDL": 7702,
  "\u2581Harri": 7703,
  "\u2581Persians": 7704,
  "\u2581affected": 7705,
  "\u2581becoming": 7706,
  "\u2581besoak": 7707,
  "\u2581errudun": 7708,
  "\u2581ohitu": 7709,
  "\u2581victory": 7710,
  "!...": 7711,
  "izatu": 7712,
  "\u2581berrien": 7713,
  "\u2581desires": 7714,
  "\u2581gizonen": 7715,
  "\u2581mighty": 7716,
  "ION": 7717,
  "roa": 7718,
  "\u2581Athens": 7719,
  "\u2581Paste": 7720,
  "\u2581Zeregin": 7721,
  "\u2581aldatzean": 7722,
  "\u2581aurkitzeko": 7723,
  "\u2581recently": 7724,
  "Hemen": 7725,
  "kizun": 7726,
  "\u2581Mouse": 7727,
  "\u2581Plan": 7728,
  "\u2581Sort": 7729,
  "\u2581acting": 7730,
  "\u2581amaieran": 7731,
  "\u2581fonts": 7732,
  "\u2581gorputzaren": 7733,
  "\u2581guide": 7734,
  "\u2581kontzeptu": 7735,
  "hr": 7736,
  "itz": 7737,
  "\u2581Au": 7738,
  "\u2581bihotzean": 7739,
  "\u2581closely": 7740,
  "\u2581dizugu": 7741,
  "\u2581hanging": 7742,
  "\u2581informed": 7743,
  "bete": 7744,
  "ika": 7745,
  "\u2581argiak": 7746,
  "\u2581brave": 7747,
  "\u2581euri": 7748,
  "\u2581ezartzea": 7749,
  "\u2581shouted": 7750,
  "\u2581zirenak": 7751,
  "taz": 7752,
  "\u2581Kan": 7753,
  "\u2581Nature": 7754,
  "\u2581erlazio": 7755,
  "\u2581jabea": 7756,
  "\u2581nukeen": 7757,
  "64": 7758,
  "\u2581Madam": 7759,
  "\u2581Norman": 7760,
  "\u2581Previous": 7761,
  "\u2581Today": 7762,
  "\u2581ai": 7763,
  "\u2581ezti": 7764,
  "\u2581gidatzen": 7765,
  "\u2581hamaika": 7766,
  "\u2581interfaze": 7767,
  "\u2581jateko": 7768,
  "\u2581metal": 7769,
  "\u2581requested": 7770,
  "\u2581zurea": 7771,
  "95": 7772,
  "Eskerrik": 7773,
  "\u2581Build": 7774,
  "\u2581Hego": 7775,
  "\u2581aitzakia": 7776,
  "\u2581beast": 7777,
  "\u2581credit": 7778,
  "\u2581gainezka": 7779,
  "\u2581ostatu": 7780,
  "\u2581recognize": 7781,
  "\u2581zutenak": 7782,
  "250": 7783,
  "gura": 7784,
  "lum": 7785,
  "\u2581Bir": 7786,
  "\u2581Mat": 7787,
  "\u2581easier": 7788,
  "\u2581eguzkia": 7789,
  "\u2581hiztegi": 7790,
  "\u2581kalkulatzen": 7791,
  "\u2581Zenbaki": 7792,
  "\u2581andere": 7793,
  "\u2581begun": 7794,
  "\u2581capacity": 7795,
  "\u2581driven": 7796,
  "\u2581duenez": 7797,
  "\u2581finkatu": 7798,
  "\u2581seriously": 7799,
  "\u2581unitate": 7800,
  "\u2581zauden": 7801,
  "25": 7802,
  "Egun": 7803,
  "source": 7804,
  "\u2581Ex": 7805,
  "\u2581Oharra": 7806,
  "\u2581aberats": 7807,
  "\u2581abere": 7808,
  "\u2581eguiten": 7809,
  "\u2581obtain": 7810,
  "sec": 7811,
  "\u2581Hellenes": 7812,
  "\u2581Profile": 7813,
  "\u2581aktiboa": 7814,
  "\u2581appointed": 7815,
  "\u2581concern": 7816,
  "ration": 7817,
  "\u00e4": 7818,
  "\u2581Del": 7819,
  "\u2581comment": 7820,
  "\u2581execution": 7821,
  "\u2581gozo": 7822,
  "\u2581kanta": 7823,
  "\u2581ordenatu": 7824,
  "\u2581panele": 7825,
  "\u2581salto": 7826,
  "ule": 7827,
  "year": 7828,
  "\u2581'{0}'": 7829,
  "\u2581Think": 7830,
  "\u2581certainty": 7831,
  "\u2581entries": 7832,
  "\u2581examine": 7833,
  "\u2581fought": 7834,
  "elle": 7835,
  "point": 7836,
  "\u00ed": 7837,
  "\u2581gizonaren": 7838,
  "\u2581halakoa": 7839,
  "\u2581hazten": 7840,
  "\u2581kidding": 7841,
  "\u2581maintain": 7842,
  "\u2581programs": 7843,
  "\u2581tracks": 7844,
  "\\-": 7845,
  "\u2581Atzo": 7846,
  "\u2581Oinarrizko": 7847,
  "\u2581aurreneko": 7848,
  "\u2581barruko": 7849,
  "\u2581bizitzen": 7850,
  "\u2581contained": 7851,
  "\u2581ezabatzeko": 7852,
  "\u2581gustuko": 7853,
  "\u2581lehentasuna": 7854,
  "\u2581series": 7855,
  "\u2581treated": 7856,
  "\u2581Mon": 7857,
  "\u2581Wall": 7858,
  "\u2581Whatever": 7859,
  "\u2581biltegi": 7860,
  "\u2581ci": 7861,
  "\u2581etor": 7862,
  "\u2581gordeko": 7863,
  "\u2581hamabost": 7864,
  "\u2581idatzita": 7865,
  "\u2581nengoela": 7866,
  "dunak": 7867,
  "\u2581Fe": 7868,
  "\u2581Gaizki": 7869,
  "\u2581castle": 7870,
  "\u2581chose": 7871,
  "\u2581emaitzak": 7872,
  "\u2581konfiguratzeko": 7873,
  "\u2581presented": 7874,
  "\u2581smooth": 7875,
  "\u2581sooner": 7876,
  "\u2581terror": 7877,
  "\u258190": 7878,
  "\u2581Aktibatu": 7879,
  "\u2581Bart": 7880,
  "\u2581Gertaera": 7881,
  "\u2581Main": 7882,
  "\u2581Puzzle": 7883,
  "Ezabatu": 7884,
  "Me": 7885,
  "arengatik": 7886,
  "tio": 7887,
  "\u2581Messages": 7888,
  "\u2581daily": 7889,
  "\u2581sc": 7890,
  "\u2581zubi": 7891,
  "form": 7892,
  "\u2581Biltegi": 7893,
  "\u2581Hauxe": 7894,
  "\u2581arrive": 7895,
  "\u2581barruti": 7896,
  "\u2581dagokio": 7897,
  "\u2581education": 7898,
  "\u2581hezur": 7899,
  "\u2581odd": 7900,
  "\u2581primary": 7901,
  "\u2581sinple": 7902,
  "\u2581sp": 7903,
  "Di": 7904,
  "OS": 7905,
  "bidea": 7906,
  "etaraino": 7907,
  "\u258132": 7908,
  "\u2581Franklin": 7909,
  "\u2581andereak": 7910,
  "\u2581banaiz": 7911,
  "\u2581chapter": 7912,
  "\u2581eraikin": 7913,
  "\u2581errepublika": 7914,
  "\u2581ezabatzea": 7915,
  "\u2581missed": 7916,
  "\u2581ziurtatu": 7917,
  "ub": 7918,
  "\u2581Zin": 7919,
  "\u2581bastard": 7920,
  "\u2581drank": 7921,
  "\u2581hodei": 7922,
  "\u2581leinu": 7923,
  "\u2581mugatu": 7924,
  "\u2581spirits": 7925,
  "\u2581whereas": 7926,
  "\u2581zirkular": 7927,
  "Benetan": 7928,
  "MA": 7929,
  "\u2581Aaron": 7930,
  "\u2581Anti": 7931,
  "\u2581Cisco": 7932,
  "\u2581Ederra": 7933,
  "\u2581Subject": 7934,
  "\u2581angle": 7935,
  "\u2581creation": 7936,
  "\u2581eri": 7937,
  "\u2581hortaz": 7938,
  "\u2581miserable": 7939,
  "\u2581online": 7940,
  "\u2581supply": 7941,
  "\u2581wishes": 7942,
  "THER": 7943,
  "kodea": 7944,
  "\u2581Catherine": 7945,
  "\u2581Church": 7946,
  "\u2581Felix": 7947,
  "\u2581etzanda": 7948,
  "\u2581gar": 7949,
  "\u2581hezi": 7950,
  "\u2581inon": 7951,
  "\u2581jolas": 7952,
  "\u2581kopiatzen": 7953,
  "\u2581nevertheless": 7954,
  "\u2581passions": 7955,
  "\u2581pat": 7956,
  "\u2581tartea": 7957,
  "\u2581Duchessa": 7958,
  "\u2581doi": 7959,
  "\u2581duration": 7960,
  "\u2581extreme": 7961,
  "\u2581gradient": 7962,
  "\u2581koroa": 7963,
  "\u2581realized": 7964,
  "barraren": 7965,
  "oihu": 7966,
  "takoan": 7967,
  "\u2581bereizteko": 7968,
  "\u2581hey": 7969,
  "\u2581itxaropen": 7970,
  "\u2581koloreko": 7971,
  "\u2581legal": 7972,
  "\u2581mesede": 7973,
  "\u2581pleasures": 7974,
  "gle": 7975,
  "\u2581Ala": 7976,
  "\u2581Bobby": 7977,
  "\u2581Brown": 7978,
  "\u2581charged": 7979,
  "\u2581dabilen": 7980,
  "\u2581fe": 7981,
  "\u2581hole": 7982,
  "\u2581kontsulta": 7983,
  "\u2581perception": 7984,
  "\u2581recent": 7985,
  "Egia": 7986,
  "TAKO": 7987,
  "tsuak": 7988,
  "ztu": 7989,
  "\u2581altar": 7990,
  "\u2581desberdina": 7991,
  "\u2581emotion": 7992,
  "\u2581facts": 7993,
  "\u2581gisako": 7994,
  "\u2581istorio": 7995,
  "\u2581leun": 7996,
  "non": 7997,
  "\u2581Off": 7998,
  "\u2581Sorta": 7999,
  "\u2581Tekla": 8000,
  "\u2581consists": 8001,
  "\u2581determines": 8002,
  "\u2581dorre": 8003,
  "\u2581fourth": 8004,
  "\u2581ilara": 8005,
  "\u2581ostia": 8006,
  "vis": 8007,
  "\u2581Orri": 8008,
  "\u2581arrosa": 8009,
  "\u2581breakfast": 8010,
  "\u2581diola": 8011,
  "\u2581escaped": 8012,
  "\u2581fuckin": 8013,
  "\u2581garbitzen": 8014,
  "\u2581madarikatu": 8015,
  "\u2581zarenean": 8016,
  "17": 8017,
  "ani": 8018,
  "tem": 8019,
  "\u2581Baimena": 8020,
  "\u2581Iagno": 8021,
  "\u2581arauak": 8022,
  "\u2581berba": 8023,
  "\u2581joke": 8024,
  "\u2581owe": 8025,
  "\u2581pribatua": 8026,
  "\u2581sobera": 8027,
  "\u2581ya": 8028,
  "96": 8029,
  "Help": 8030,
  "kal": 8031,
  "\u2581FREE": 8032,
  "\u2581Gogoan": 8033,
  "\u2581Mer": 8034,
  "\u2581eskutik": 8035,
  "\u2581judges": 8036,
  "\u2581nervous": 8037,
  "\u2581ordainduko": 8038,
  "\u2581permitted": 8039,
  "\u2581sortutako": 8040,
  "NGO": 8041,
  "gna": 8042,
  "\u00f6": 8043,
  "\u2581Tori": 8044,
  "\u2581barrez": 8045,
  "\u2581configured": 8046,
  "\u2581gentle": 8047,
  "\u2581ospetsu": 8048,
  "\u2581pop": 8049,
  "\u2581wore": 8050,
  "\u2581zapaldu": 8051,
  "oo": 8052,
  "\u2581Egunkari": 8053,
  "\u2581HARTU": 8054,
  "\u2581Horiek": 8055,
  "\u2581Kings": 8056,
  "\u2581LIMIT": 8057,
  "\u2581affair": 8058,
  "\u2581aplikazioaren": 8059,
  "\u2581convinced": 8060,
  "\u2581hautatuta": 8061,
  "\u2581trademarks": 8062,
  "forma": 8063,
  "lina": 8064,
  "mini": 8065,
  "\u2581ALDERDI": 8066,
  "\u2581Automatically": 8067,
  "\u2581Botoi": 8068,
  "\u2581Erabilitako": 8069,
  "\u2581HAU": 8070,
  "\u2581LOSS": 8071,
  "\u2581ausartzen": 8072,
  "\u2581burura": 8073,
  "\u2581chest": 8074,
  "\u2581resolved": 8075,
  "\u2581ziurtagiri": 8076,
  "TE": 8077,
  "iozu": 8078,
  "\u2581Base": 8079,
  "\u2581INCLUDING": 8080,
  "\u2581abiaraztean": 8081,
  "\u2581advance": 8082,
  "\u2581darling": 8083,
  "\u2581goratu": 8084,
  "\u2581zaitugu": 8085,
  "CH": 8086,
  "UN": 8087,
  "\u2581\"{0}\"": 8088,
  "\u2581Had": 8089,
  "\u2581Hurry": 8090,
  "\u2581Kor": 8091,
  "\u2581Session": 8092,
  "\u2581ertzean": 8093,
  "\u2581hesi": 8094,
  "\u2581jaunari": 8095,
  "\u2581keeps": 8096,
  "\u2581menus": 8097,
  "\u2581paketea": 8098,
  "\u2581plants": 8099,
  "\u2581states": 8100,
  "CE": 8101,
  "orde": 8102,
  "zioak": 8103,
  "\u2581Same": 8104,
  "\u2581Undo": 8105,
  "\u2581besoa": 8106,
  "\u2581bloody": 8107,
  "\u2581buddy": 8108,
  "\u2581buruarekin": 8109,
  "\u2581diegu": 8110,
  "\u2581gehienek": 8111,
  "\u2581harresi": 8112,
  "\u2581irakasle": 8113,
  "\u2581maiuskulaz": 8114,
  "\u2581mixed": 8115,
  "\u2581modukoa": 8116,
  "\u2581pieza": 8117,
  "\u2581ruin": 8118,
  "\u2581succeed": 8119,
  "\u2581voices": 8120,
  "\u2581zorian": 8121,
  "77": 8122,
  "ible": 8123,
  "toi": 8124,
  "tzar": 8125,
  "\u2581Bilera": 8126,
  "\u2581Feedback": 8127,
  "\u2581Lur": 8128,
  "\u2581Trepeta": 8129,
  "\u2581akatsen": 8130,
  "\u2581handitu": 8131,
  "\u2581hondarrera": 8132,
  "\u2581irla": 8133,
  "\u2581komun": 8134,
  "\u2581konturatzen": 8135,
  "\u2581monitorea": 8136,
  "\u2581tells": 8137,
  "work": 8138,
  "\u2581Bateria": 8139,
  "\u2581Daddy": 8140,
  "\u2581Jesusek": 8141,
  "\u2581Los": 8142,
  "\u2581Saving": 8143,
  "\u2581arriskutsua": 8144,
  "\u2581beroa": 8145,
  "\u2581bihurtzeko": 8146,
  "\u2581dado": 8147,
  "\u2581gurdi": 8148,
  "\u2581mantentzen": 8149,
  "\u2581modura": 8150,
  "\u2581superior": 8151,
  "\u2581txarrak": 8152,
  "60": 8153,
  "Delete": 8154,
  "\u2581Eutsi": 8155,
  "\u2581Rieux": 8156,
  "\u2581baititu": 8157,
  "\u2581basati": 8158,
  "\u2581bore": 8159,
  "\u2581egunen": 8160,
  "\u2581famous": 8161,
  "\u2581hutsaren": 8162,
  "\u2581multi": 8163,
  "88": 8164,
  "\u2581Bol": 8165,
  "\u2581Wendy": 8166,
  "\u2581abiarazten": 8167,
  "\u2581arretaz": 8168,
  "\u2581distinguished": 8169,
  "\u2581erregistratu": 8170,
  "\u2581identity": 8171,
  "\u2581molde": 8172,
  "bye": 8173,
  "encil": 8174,
  "gre": 8175,
  "\u00fc": 8176,
  "\u2581Az": 8177,
  "\u2581Doitu": 8178,
  "\u2581Dokumentua": 8179,
  "\u2581eguneko": 8180,
  "\u2581excited": 8181,
  "\u2581formula": 8182,
  "\u2581isildu": 8183,
  "\u2581leading": 8184,
  "\u2581legearen": 8185,
  "\u2581perceived": 8186,
  "\u2581possessed": 8187,
  "\u2581treat": 8188,
  "\u2581zenituen": 8189,
  "\u2581Adi": 8190,
  "\u2581Aitak": 8191,
  "\u2581Bit": 8192,
  "\u2581Dokumentuaren": 8193,
  "\u2581MOTA": 8194,
  "\u2581Park": 8195,
  "\u2581argibideak": 8196,
  "\u2581bederatzi": 8197,
  "\u2581belaun": 8198,
  "\u2581flags": 8199,
  "\u2581haundi": 8200,
  "\u2581ustel": 8201,
  "\u2581zibil": 8202,
  "59": 8203,
  "db": 8204,
  "kit": 8205,
  "ops": 8206,
  "pide": 8207,
  "\u2581Op": 8208,
  "\u2581attributes": 8209,
  "\u2581denaren": 8210,
  "\u2581dokumentuak": 8211,
  "\u2581esatera": 8212,
  "\u2581galtzea": 8213,
  "\u2581gaueko": 8214,
  "\u2581ibiltzeko": 8215,
  "\u2581panelean": 8216,
  "\u2581urratu": 8217,
  "\u2581zorrotza": 8218,
  "\u2581zuzentzen": 8219,
  "idazu": 8220,
  "tzearren": 8221,
  "\u2581LICENSE": 8222,
  "\u2581LIZENTZIA": 8223,
  "\u2581angel": 8224,
  "\u2581baziren": 8225,
  "\u2581breast": 8226,
  "\u2581dagoelako": 8227,
  "\u2581distiratsu": 8228,
  "\u2581goren": 8229,
  "\u2581guretzat": 8230,
  "\u2581mantendu": 8231,
  "\u2581pipe": 8232,
  "\u2581shake": 8233,
  "89": 8234,
  "zip": 8235,
  "\u2581Dur": 8236,
  "\u2581HASIERA": 8237,
  "\u2581Inor": 8238,
  "\u2581Kal": 8239,
  "\u2581RE": 8240,
  "\u2581Sit": 8241,
  "\u2581USA": 8242,
  "\u2581Um": 8243,
  "\u2581berarentzat": 8244,
  "\u2581bertatik": 8245,
  "\u2581bidalitako": 8246,
  "\u2581category": 8247,
  "\u2581daughters": 8248,
  "\u2581distant": 8249,
  "\u2581gizonek": 8250,
  "\u2581guti": 8251,
  "\u2581kudeatu": 8252,
  "\u2581nahimen": 8253,
  "\u2581rename": 8254,
  "Of": 8255,
  "beste": 8256,
  "ern": 8257,
  "\u2581Batu": 8258,
  "\u2581Bloom": 8259,
  "\u2581Pu": 8260,
  "\u2581gaiztakeria": 8261,
  "\u2581installation": 8262,
  "\u2581milk": 8263,
  "\u2581module": 8264,
  "\u2581pause": 8265,
  "\u2581sand": 8266,
  "Egin": 8267,
  "ORS": 8268,
  "keriak": 8269,
  "rrek": 8270,
  "txiki": 8271,
  "\u2581Guide": 8272,
  "\u2581Musika": 8273,
  "\u2581confused": 8274,
  "\u2581dakien": 8275,
  "\u2581iragazki": 8276,
  "\u2581irudikatzen": 8277,
  "\u2581partition": 8278,
  "\u2581recognized": 8279,
  "\u2581stairs": 8280,
  "\u2581zorion": 8281,
  "\u2581zuhurtzia": 8282,
  "teria": 8283,
  "\u2581Hank": 8284,
  "\u2581Lydia": 8285,
  "\u2581batzuei": 8286,
  "\u2581bidaltzea": 8287,
  "\u2581cigarette": 8288,
  "\u2581handiegia": 8289,
  "\u2581lehenetsiak": 8290,
  "\u2581osoki": 8291,
  "\u2581patient": 8292,
  "\u2581relations": 8293,
  "bus": 8294,
  "kusa": 8295,
  "\u2581Indeed": 8296,
  "\u2581Shall": 8297,
  "\u2581baimenak": 8298,
  "\u2581commit": 8299,
  "\u2581direnez": 8300,
  "\u2581empire": 8301,
  "\u2581particularly": 8302,
  "\u2581possess": 8303,
  "\u2581zilegi": 8304,
  "ario": 8305,
  "mal": 8306,
  "og": 8307,
  "retako": 8308,
  "\u2581BATEK": 8309,
  "\u2581Rename": 8310,
  "\u2581astean": 8311,
  "\u2581bother": 8312,
  "\u2581epel": 8313,
  "\u2581fabrika": 8314,
  "\u2581fedea": 8315,
  "\u2581mask": 8316,
  "\u2581tra": 8317,
  "\u2581usaina": 8318,
  "\u2581zizkidan": 8319,
  "cher": 8320,
  "qua": 8321,
  "tte": 8322,
  "turen": 8323,
  "xeago": 8324,
  "\u2581Isn": 8325,
  "\u2581Kansas": 8326,
  "\u2581Robotak": 8327,
  "\u2581Wade": 8328,
  "\u2581behartzen": 8329,
  "\u2581ezkerrean": 8330,
  "\u2581motor": 8331,
  "18": 8332,
  "azala": 8333,
  "rea": 8334,
  "\u2581Conte": 8335,
  "\u2581Oker": 8336,
  "\u2581ratio": 8337,
  "\u2581realize": 8338,
  "\u2581suitable": 8339,
  "\u2581taberna": 8340,
  "\u2581tough": 8341,
  "ONEN": 8342,
  "\u2581Ate": 8343,
  "\u2581Encryption": 8344,
  "\u2581Orrialde": 8345,
  "\u2581Parisen": 8346,
  "\u2581Reset": 8347,
  "\u2581disappeared": 8348,
  "\u2581friendly": 8349,
  "\u2581interfazea": 8350,
  "\u2581invited": 8351,
  "\u2581jump": 8352,
  "\u2581passage": 8353,
  "\u2581sexu": 8354,
  "\u2581tender": 8355,
  "ified": 8356,
  "tatzeko": 8357,
  "total": 8358,
  "\u2581Atea": 8359,
  "\u2581Folders": 8360,
  "\u2581PROVIDE": 8361,
  "\u2581Puntuazioa": 8362,
  "\u2581Tali": 8363,
  "\u2581aurkezten": 8364,
  "\u2581aurkitzea": 8365,
  "\u2581lokala": 8366,
  "\u2581zigortu": 8367,
  "para": 8368,
  "tasunik": 8369,
  "\u258112.": 8370,
  "\u2581lit": 8371,
  "\u2581motako": 8372,
  "\u2581nizuke": 8373,
  "\u2581ozen": 8374,
  "\u2581tartean": 8375,
  "alabak": 8376,
  "\u2581August": 8377,
  "\u2581Login": 8378,
  "\u2581Outlook": 8379,
  "\u2581Yahoo": 8380,
  "\u2581azpitik": 8381,
  "\u2581bigun": 8382,
  "\u2581garaitu": 8383,
  "\u2581gordetzea": 8384,
  "\u2581kontrolatzen": 8385,
  "\u2581xedea": 8386,
  "\u2581zaidan": 8387,
  "amount": 8388,
  "gh": 8389,
  "\u00e8": 8390,
  "\u2581AKATS": 8391,
  "\u2581Applications": 8392,
  "\u2581BERME": 8393,
  "\u2581ERANTZUKIZUN": 8394,
  "\u2581Ezezaguna": 8395,
  "\u2581Louisa": 8396,
  "\u2581gaixoa": 8397,
  "\u2581medium": 8398,
  "\u2581naked": 8399,
  "\u2581transfer": 8400,
  "TRANSLAT": 8401,
  "five": 8402,
  "wan": 8403,
  "\u2581Gazte": 8404,
  "\u2581Kanal": 8405,
  "\u2581Lance": 8406,
  "\u2581Pop": 8407,
  "\u2581T\u00f6rless": 8408,
  "\u2581arraza": 8409,
  "\u2581azalpena": 8410,
  "\u2581azkeneko": 8411,
  "\u2581begins": 8412,
  "\u2581birthday": 8413,
  "\u2581boxes": 8414,
  "\u2581download": 8415,
  "\u2581espiritu": 8416,
  "\u2581indartsu": 8417,
  "\u2581oraingoan": 8418,
  "\u2581plane": 8419,
  "\u2581unhappy": 8420,
  "\u2581whispered": 8421,
  "\u2581zenion": 8422,
  "applet": 8423,
  "ray": 8424,
  "rengan": 8425,
  "\u2581Possible": 8426,
  "\u2581Subversion": 8427,
  "\u2581Zenbait": 8428,
  "\u2581bakarrak": 8429,
  "\u2581gauzarik": 8430,
  "\u2581larru": 8431,
  "\u2581laurden": 8432,
  "\u2581metodoa": 8433,
  "90": 8434,
  "arrak": 8435,
  "\u2581Americans": 8436,
  "\u2581Clelia": 8437,
  "\u2581ERE": 8438,
  "\u2581Frame": 8439,
  "\u2581azalpen": 8440,
  "\u2581cu": 8441,
  "\u2581filosofo": 8442,
  "\u2581garaile": 8443,
  "\u2581regret": 8444,
  "arri": 8445,
  "elementua": 8446,
  "tipoaren": 8447,
  "\u2581Creating": 8448,
  "\u2581Gor": 8449,
  "\u2581komandoak": 8450,
  "ikuspegia": 8451,
  "retatik": 8452,
  "tak": 8453,
  "\u2581Est": 8454,
  "\u2581Must": 8455,
  "\u2581desert": 8456,
  "\u2581fond": 8457,
  "\u2581lama": 8458,
  "\u2581nahasten": 8459,
  "\u2581zereginak": 8460,
  "board": 8461,
  "puntua": 8462,
  "yo": 8463,
  "\u2581Temple": 8464,
  "\u2581Totem": 8465,
  "\u2581controls": 8466,
  "\u2581gera": 8467,
  "\u2581onenak": 8468,
  "\u2581smaller": 8469,
  "\u2581sugar": 8470,
  "Beste": 8471,
  "IS": 8472,
  "gconf": 8473,
  "ntzia": 8474,
  "num": 8475,
  "\u2581Jabber": 8476,
  "\u2581Task": 8477,
  "\u2581aitari": 8478,
  "\u2581bedroom": 8479,
  "\u2581departed": 8480,
  "\u2581distantzia": 8481,
  "\u2581gotorleku": 8482,
  "\u2581lamp": 8483,
  "\u2581steal": 8484,
  "\u2581zezaten": 8485,
  "ries": 8486,
  "\u2581Gaia": 8487,
  "\u2581ages": 8488,
  "\u2581cer": 8489,
  "\u2581etortzea": 8490,
  "\u2581executable": 8491,
  "\u2581mailing": 8492,
  "\u2581partikular": 8493,
  "\u2581paths": 8494,
  "\u2581posizio": 8495,
  "\u2581reported": 8496,
  "\u2581stomach": 8497,
  "Look": 8498,
  "ire": 8499,
  "\u2581Eh": 8500,
  "\u2581ON": 8501,
  "\u2581Primeran": 8502,
  "\u2581arratsalde": 8503,
  "\u2581artxibo": 8504,
  "\u2581ezagutzea": 8505,
  "\u2581foolish": 8506,
  "\u2581lehertu": 8507,
  "\u2581makur": 8508,
  "\u2581sudur": 8509,
  "game": 8510,
  "hon": 8511,
  "ose": 8512,
  "symbol": 8513,
  "\u00e7ue": 8514,
  "\u2581Archive": 8515,
  "\u2581Bitartean": 8516,
  "\u2581MP": 8517,
  "\u2581Memory": 8518,
  "\u2581Ziurtatu": 8519,
  "\u2581Zutabe": 8520,
  "\u2581aitzinean": 8521,
  "\u2581driving": 8522,
  "\u2581entrance": 8523,
  "\u2581galera": 8524,
  "\u2581irekiko": 8525,
  "\u2581konektatuta": 8526,
  "\u2581nahimenaren": 8527,
  "\u2581oinez": 8528,
  "\u2581stared": 8529,
  "\u2581younger": 8530,
  "\u2581zakur": 8531,
  "1:": 8532,
  "bro": 8533,
  "\u2581Eddie": 8534,
  "\u2581Lee": 8535,
  "\u2581Th": 8536,
  "\u2581arazorik": 8537,
  "\u2581erreala": 8538,
  "\u2581gainditzen": 8539,
  "\u2581Honen": 8540,
  "\u2581Zerbitzari": 8541,
  "\u2581aholku": 8542,
  "\u2581app": 8543,
  "\u2581dakar": 8544,
  "\u2581gaitezke": 8545,
  "\u2581kontrakoa": 8546,
  "\u2581preferred": 8547,
  "\u2581selecting": 8548,
  "\u2581zerbitzuak": 8549,
  "bizi": 8550,
  "\u2581Sub": 8551,
  "\u2581Ter": 8552,
  "\u2581asmorik": 8553,
  "\u2581goitibehera": 8554,
  "\u2581hauteman": 8555,
  "\u2581interests": 8556,
  "\u2581irentsi": 8557,
  "\u2581religious": 8558,
  "\u2581slave": 8559,
  "\u2581Aste": 8560,
  "\u2581Liburutegia": 8561,
  "\u2581Pentsa": 8562,
  "\u2581Zuhaitz": 8563,
  "\u2581administra": 8564,
  "\u2581allies": 8565,
  "\u2581bold": 8566,
  "\u2581denied": 8567,
  "\u2581handien": 8568,
  "\u2581locations": 8569,
  "\u2581moreover": 8570,
  "\u2581policy": 8571,
  "\u2581praise": 8572,
  "\u2581produktu": 8573,
  "\u2581protocol": 8574,
  "\u2581reputation": 8575,
  "iarra": 8576,
  "ikustailea": 8577,
  "irudia": 8578,
  "menta": 8579,
  "\u2581bereziak": 8580,
  "\u2581dice": 8581,
  "\u2581entzungo": 8582,
  "\u2581estaltzen": 8583,
  "\u2581gi": 8584,
  "\u2581intelligence": 8585,
  "\u2581obvious": 8586,
  "\u2581pressing": 8587,
  "ET": 8588,
  "cl": 8589,
  "gizon": 8590,
  "pli": 8591,
  "\u2581Meanwhile": 8592,
  "\u2581Os": 8593,
  "\u2581Post": 8594,
  "\u2581engine": 8595,
  "\u2581faint": 8596,
  "\u2581gertakari": 8597,
  "\u2581gizakien": 8598,
  "\u2581grey": 8599,
  "\u2581labor": 8600,
  "\u2581perceive": 8601,
  "\u2581possibility": 8602,
  "\u2581ukan": 8603,
  "\u2581zinateke": 8604,
  "auto": 8605,
  "ete": 8606,
  "\u2581Cairo": 8607,
  "\u2581Channel": 8608,
  "\u2581Convert": 8609,
  "\u2581Damn": 8610,
  "\u2581Ph": 8611,
  "\u2581SHALL": 8612,
  "\u2581arazketa": 8613,
  "\u2581berekin": 8614,
  "\u2581bizkarra": 8615,
  "\u2581din": 8616,
  "\u2581duenaren": 8617,
  "\u2581gizonezko": 8618,
  "\u2581jarrai": 8619,
  "\u2581nodded": 8620,
  "\u2581salatu": 8621,
  "\u2581segitzen": 8622,
  "WRITER": 8623,
  "etxe": 8624,
  "lor": 8625,
  "\u2581Carl": 8626,
  "\u2581Energia": 8627,
  "\u2581INI": 8628,
  "\u2581bertara": 8629,
  "\u2581franko": 8630,
  "\u2581lake": 8631,
  "\u2581praktiko": 8632,
  "\u2581weakness": 8633,
  "\u258160": 8634,
  "\u2581Bra": 8635,
  "\u2581INO": 8636,
  "\u2581Starting": 8637,
  "\u2581atributu": 8638,
  "\u2581dizkizu": 8639,
  "\u2581dutenek": 8640,
  "\u2581erreal": 8641,
  "\u2581errepresentazio": 8642,
  "\u2581horror": 8643,
  "\u2581izateak": 8644,
  "\u2581kontsola": 8645,
  "\u2581lepoa": 8646,
  "\u2581reader": 8647,
  "\u2581shortcuts": 8648,
  "\u2581soinean": 8649,
  "\u2581stories": 8650,
  "\u2581variable": 8651,
  "Bat": 8652,
  "UKATZE": 8653,
  "rina": 8654,
  "they": 8655,
  "yn": 8656,
  "\u2581EGILEA": 8657,
  "\u2581Spadek": 8658,
  "\u2581ZEHAZT": 8659,
  "\u2581beer": 8660,
  "\u2581gidari": 8661,
  "\u2581jaregin": 8662,
  "\u2581orok": 8663,
  "\u2581sentimen": 8664,
  "\u2581zerikusirik": 8665,
  "oni": 8666,
  "\u2581200": 8667,
  "\u2581CONTRIBUTOR": 8668,
  "\u2581Chloe": 8669,
  "\u2581Doctor": 8670,
  "\u2581Front": 8671,
  "\u2581Instalatu": 8672,
  "\u2581PERTSONA": 8673,
  "\u2581Word": 8674,
  "\u2581alu": 8675,
  "\u2581daukate": 8676,
  "\u2581defend": 8677,
  "\u2581demontre": 8678,
  "\u2581gelaxka": 8679,
  "\u2581guest": 8680,
  "\u2581pika": 8681,
  "\u2581upset": 8682,
  "\u2581vision": 8683,
  "\u2581weird": 8684,
  "\u2581zuelarik": 8685,
  "config": 8686,
  "dazu": 8687,
  "nor": 8688,
  "\u2581Amen": 8689,
  "\u2581BURUZKORIK": 8690,
  "\u2581DENIK": 8691,
  "\u2581DISCLAIMER": 8692,
  "\u2581Etxeko": 8693,
  "\u2581HORREK": 8694,
  "\u2581IBILTZEA": 8695,
  "\u2581IDAZLEA": 8696,
  "\u2581KOLABORATZAILE": 8697,
  "\u2581Pacific": 8698,
  "\u2581ausartu": 8699,
  "\u2581dutelako": 8700,
  "\u2581ginela": 8701,
  "\u2581hardware": 8702,
  "\u2581konfiguratu": 8703,
  "\u2581runs": 8704,
  "\u2581zegok": 8705,
  "iak": 8706,
  "\u2581Erregeak": 8707,
  "\u2581cousin": 8708,
  "\u2581gurpil": 8709,
  "\u2581kapitaina": 8710,
  "\u2581konbinazio": 8711,
  "\u2581listed": 8712,
  "burua": 8713,
  "iturburu": 8714,
  "izenak": 8715,
  "pat": 8716,
  "tum": 8717,
  "\u2581Eragiketa": 8718,
  "\u2581agure": 8719,
  "\u2581bertutea": 8720,
  "\u2581bezalakoak": 8721,
  "\u2581bikote": 8722,
  "\u2581bizkar": 8723,
  "\u2581hitzaldi": 8724,
  "\u2581idaztean": 8725,
  "\u2581mal": 8726,
  "\u2581obtained": 8727,
  "\u2581pet": 8728,
  "<": 8729,
  "\u2581Nadia": 8730,
  "\u2581Zeure": 8731,
  "\u2581areara": 8732,
  "\u2581assistant": 8733,
  "\u2581gustatuko": 8734,
  "\u2581hoped": 8735,
  "\u2581luma": 8736,
  "\u2581plague": 8737,
  "Ex": 8738,
  "Your": 8739,
  "errorea": 8740,
  "gno": 8741,
  "\u2581Tam": 8742,
  "\u2581beloved": 8743,
  "\u2581bidetik": 8744,
  "\u2581cruel": 8745,
  "\u2581editatzeko": 8746,
  "\u2581ehiza": 8747,
  "\u2581espazio": 8748,
  "\u2581gogoz": 8749,
  "\u2581idatzitako": 8750,
  "\u2581kantu": 8751,
  "\u2581noizbait": 8752,
  "\u2581songs": 8753,
  "\u2581txanpon": 8754,
  "\u2581utziz": 8755,
  "35": 8756,
  "ization": 8757,
  "\u2581Begiak": 8758,
  "\u2581Diru": 8759,
  "\u2581aise": 8760,
  "\u2581consideration": 8761,
  "\u2581hatred": 8762,
  "\u2581horrible": 8763,
  "\u2581igarotzen": 8764,
  "\u2581irakasten": 8765,
  "\u2581losing": 8766,
  "\u2581luzeak": 8767,
  "\u2581moldatu": 8768,
  "\u2581slept": 8769,
  "\u2581statement": 8770,
  "\u2581suggested": 8771,
  "oko": 8772,
  "zun": 8773,
  "\u2581Borroka": 8774,
  "\u2581Juan": 8775,
  "\u2581esanahia": 8776,
  "\u2581ezkutu": 8777,
  "\u2581hila": 8778,
  "\u2581laburra": 8779,
  "\u2581porrot": 8780,
  "ali": 8781,
  "ious": 8782,
  "via": 8783,
  "\u2581Drop": 8784,
  "\u2581European": 8785,
  "\u2581Mugi": 8786,
  "\u2581aginte": 8787,
  "\u2581armak": 8788,
  "\u2581beretzat": 8789,
  "\u2581chain": 8790,
  "\u2581domain": 8791,
  "\u2581gorpua": 8792,
  "\u2581gudaroste": 8793,
  "\u2581hero": 8794,
  "\u2581ikaratu": 8795,
  "\u2581irauten": 8796,
  "\u2581jarraiki": 8797,
  "\u2581release": 8798,
  "\u2581sekretua": 8799,
  "ona": 8800,
  "zta": 8801,
  "\u2581Bihurtu": 8802,
  "\u2581Horretarako": 8803,
  "\u2581PC": 8804,
  "\u2581Zarathustra": 8805,
  "\u2581detail": 8806,
  "\u2581generation": 8807,
  "\u2581princes": 8808,
  "\u258128": 8809,
  "\u2581Government": 8810,
  "\u2581Hence": 8811,
  "\u2581Java": 8812,
  "\u2581firm": 8813,
  "\u2581geunden": 8814,
  "\u2581gorena": 8815,
  "\u2581ignorance": 8816,
  "\u2581introduced": 8817,
  "\u2581kontrola": 8818,
  "\u2581lanpetuta": 8819,
  "\u2581saindu": 8820,
  "\u2581stretched": 8821,
  "\u2581theory": 8822,
  "\u2581waters": 8823,
  "ae": 8824,
  "toki": 8825,
  "\u2581Davis": 8826,
  "\u2581disciples": 8827,
  "\u2581frightened": 8828,
  "\u2581hiding": 8829,
  "\u2581intention": 8830,
  "\u2581oraino": 8831,
  "\u2581safety": 8832,
  "\u2581singing": 8833,
  "\u2581zalantzan": 8834,
  "cause": 8835,
  "gela": 8836,
  "\u2581Espero": 8837,
  "\u2581Italy": 8838,
  "\u2581Leon": 8839,
  "\u2581aplikatu": 8840,
  "\u2581gaixotasun": 8841,
  "\u2581harrigarria": 8842,
  "\u2581izeba": 8843,
  "\u2581objektuaren": 8844,
  "\u2581whence": 8845,
  "Search": 8846,
  "agorik": 8847,
  "gabeko": 8848,
  "place": 8849,
  "\u2581Benetako": 8850,
  "\u2581Ekarri": 8851,
  "\u2581Fu": 8852,
  "\u2581Warning": 8853,
  "\u2581constitution": 8854,
  "\u2581gates": 8855,
  "\u2581imagined": 8856,
  "\u2581menpeko": 8857,
  "\u2581tight": 8858,
  "\u2581\u00e7a": 8859,
  "06": 8860,
  "\u2581Behera": 8861,
  "\u2581Finally": 8862,
  "\u2581Nolanahi": 8863,
  "\u2581creatures": 8864,
  "\u2581ego": 8865,
  "\u2581hopes": 8866,
  "\u2581konpainia": 8867,
  "\u2581mahaigainaren": 8868,
  "\u2581opposed": 8869,
  "\u2581phrase": 8870,
  "\u2581portion": 8871,
  "\u2581tabs": 8872,
  "\u2581totally": 8873,
  "IT": 8874,
  "\u2581bones": 8875,
  "\u2581burnt": 8876,
  "\u2581cook": 8877,
  "\u2581dancing": 8878,
  "\u2581karakterea": 8879,
  "\u2581osoz": 8880,
  "\u2581rising": 8881,
  "\u2581sins": 8882,
  "42": 8883,
  "TS": 8884,
  "direktorioa": 8885,
  "ug": 8886,
  "\u2581Irudiak": 8887,
  "\u2581Though": 8888,
  "\u2581ceased": 8889,
  "\u2581doaz": 8890,
  "\u2581erabakitzen": 8891,
  "\u2581farther": 8892,
  "\u2581lotan": 8893,
  "\u2581playlist": 8894,
  "\u2581silly": 8895,
  "\u2581um": 8896,
  "\u2581zenbakiak": 8897,
  "\u2581zirrara": 8898,
  "baina": 8899,
  "new": 8900,
  "nvariant": 8901,
  "open": 8902,
  "oren": 8903,
  "tre": 8904,
  "usa": 8905,
  "\u2581Balioa": 8906,
  "\u2581au": 8907,
  "\u2581flying": 8908,
  "\u2581formerly": 8909,
  "\u2581inolaz": 8910,
  "\u2581izenburua": 8911,
  "\u2581lehia": 8912,
  "txar": 8913,
  "\u2581Leihoa": 8914,
  "\u2581delitu": 8915,
  "\u2581depend": 8916,
  "\u2581manifest": 8917,
  "\u2581opa": 8918,
  "\u2581zaldiak": 8919,
  "\u2581zizkien": 8920,
  "iti": 8921,
  "\u2581Alicek": 8922,
  "\u2581Language": 8923,
  "\u2581Sokrates": 8924,
  "\u2581Wow": 8925,
  "\u2581arraro": 8926,
  "\u2581closer": 8927,
  "\u2581elementuaren": 8928,
  "\u2581hotsa": 8929,
  "\u2581mehe": 8930,
  "\u2581relationship": 8931,
  "\u2581sacred": 8932,
[...]
