{
  "</s>": 0,
  "<unk>": 1,
  ",": 2,
  ".": 3,
  "\u2581a": 4,
  "\u2581ku": 5,
  "\u2581\"": 6,
  "\u2581the": 7,
  "\u2581hi": 8,
  "\u2581va": 9,
  "\u2581to": 10,
  "\u2581of": 11,
  "'": 12,
  "\u2581ni": 13,
  "\u2581nga": 14,
  "\u2581-": 15,
  "\u2581and": 16,
  "\u2581ya": 17,
  "\u2581in": 18,
  "?": 19,
  "\u2581wa": 20,
  "\u2581leswaku": 21,
  "\u2581u": 22,
  "\u2581ri": 23,
  "\u2581swi": 24,
  "\u2581ta": 25,
  ":": 26,
  "s": 27,
  "\u2581that": 28,
  "\u2581ka": 29,
  "wana": 30,
  "\u2581eka": 31,
  "\u2581is": 32,
  "\u2581leswi": 33,
  "\u2581yi": 34,
  "\u2581leyi": 35,
  "\u2581lava": 36,
  "\u2581for": 37,
  "\u2581ra": 38,
  "\u2581na": 39,
  "\u2581ndzi": 40,
  "\u2581ha": 41,
  "\u2581I": 42,
  "\u2581Xikwembu": 43,
  "\u2581le": 44,
  "\u2581Jehovah": 45,
  "\u2581was": 46,
  "\u2581be": 47,
  "\u2581God": 48,
  "\u2581loko": 49,
  "\u2581with": 50,
  "\u2581his": 51,
  "\u2581xa": 52,
  "\u2581you": 53,
  "\u2581xi": 54,
  "\u2581vanhu": 55,
  "\u2581not": 56,
  "\u2581vona": 57,
  "\u2581as": 58,
  "\u2581on": 59,
  "\u2581wu": 60,
  "\u2581Yehovha": 61,
  "\u2581swa": 62,
  "\u2581we": 63,
  "\u2581The": 64,
  "\u2581are": 65,
  "\u2581Hi": 66,
  "\u2581bya": 67,
  "\u2581n": 68,
  "\u2581have": 69,
  "\u2581he": 70,
  "\u2581it": 71,
  "\u2581lowu": 72,
  "\u2581": 73,
  "\u2581will": 74,
  "\u2581Ku": 75,
  "\u2581naswona": 76,
  "\u2581'": 77,
  "\u2581lexi": 78,
  "\u2581ma": 79,
  "\u2581yo": 80,
  "\u2581yena": 81,
  "\u2581[": 82,
  "\u2581by": 83,
  "\u2581A": 84,
  "\u2581ti": 85,
  "\u2581endla": 86,
  "!": 87,
  "\u2581from": 88,
  ";": 89,
  "\u2581(": 90,
  "\u2581their": 91,
  "\u2581they": 92,
  "\u2581Bible": 93,
  "\u2581ndlela": 94,
  "\u2581i": 95,
  "\u2581or": 96,
  "\u2581hina": 97,
  "\u2581yini": 98,
  "\u2581leri": 99,
  "\u2581Yesu": 100,
  "\u2581who": 101,
  "\u2581Jesus": 102,
  "\u2581this": 103,
  "\u2581tala": 104,
  "\u2581can": 105,
  "a": 106,
  "\u2581nkarhi": 107,
  ")": 108,
  "\u2581our": 109,
  "\u2581Loko": 110,
  "\u2581kumbe": 111,
  "\u2581Xana": 112,
  "wi": 113,
  "\u2581kona": 114,
  "\u2581were": 115,
  "\u2581Bibele": 116,
  "\u2581yona": 117,
  "\u2581us": 118,
  "]": 119,
  "\u2581what": 120,
  "\u2581one": 121,
  "\u2581at": 122,
  "ing": 123,
  "\u2581all": 124,
  "\u2581had": 125,
  "\u2581do": 126,
  "\u2581loyi": 127,
  "\u2581swinene": 128,
  "\u2581your": 129,
  "\u2581What": 130,
  "\u2581wo": 131,
  "\u2581an": 132,
  "\u25811": 133,
  "\u2581In": 134,
  "\u2581people": 135,
  "\u2581U": 136,
  "\u2581fanele": 137,
  "\u2581them": 138,
  "\u2581munhu": 139,
  "\u2581byi": 140,
  "\u2581wena": 141,
  "\u2581mina": 142,
  "\u2581has": 143,
  "\u2581la": 144,
  "\u2581lama": 145,
  "\u2581him": 146,
  "\u2581swilo": 147,
  "we": 148,
  "\u2581leti": 149,
  "\u2581about": 150,
  "\u2581would": 151,
  "\u2581nge": 152,
  "\u2581kambe": 153,
  "\u2581when": 154,
  "\u2581my": 155,
  "\u2581un": 156,
  "\u2581van": 157,
  "\u2581time": 158,
  "\u2581kutani": 159,
  "\u2581Kambe": 160,
  "\u2581lebyi": 161,
  "\u2581but": 162,
  "\u2581may": 163,
  "\u2581karhi": 164,
  "\u2581laha": 165,
  "\u2581did": 166,
  "\u2581life": 167,
  "\u2581mi": 168,
  "\u2581tanihi": 169,
  "\u2581How": 170,
  "\u2581swo": 171,
  "\u2581vo": 172,
  "\u2581moya": 173,
  "\u2581vula": 174,
  "\u2581sungula": 175,
  "\u2581so": 176,
  "\u2581ngopfu": 177,
  "\u2581tano": 178,
  "\u2581more": 179,
  "\u2581those": 180,
  "\u2581me": 181,
  "\u2581some": 182,
  "ka": 183,
  "\u030c": 184,
  "\u2581also": 185,
  "\u2581He": 186,
  "\u2581been": 187,
  "\u2581malembe": 188,
  "\u2581man": 189,
  "\u2581pfuna": 190,
  "\u2581/": 191,
  "\u2581her": 192,
  "\u2581out": 193,
  "\u2581misava": 194,
  "\u2581It": 195,
  "\u2581such": 196,
  "n": 197,
  "\u2581many": 198,
  "\u2581vana": 199,
  "\u2581kuma": 200,
  "\u2581ntiyiso": 201,
  "\u2581vutomi": 202,
  "\u2581Witnesses": 203,
  "\u2581swona": 204,
  "\u2581up": 205,
  "\u2581eku": 206,
  "\u2581there": 207,
  "\u2581no": 208,
  "\u2581yin": 209,
  "\u2581matimba": 210,
  "\u2581Va": 211,
  "\u2581swin": 212,
  "\u2581ntirho": 213,
  "\u2581xona": 214,
  "\u2581ntsena": 215,
  "\u2581how": 216,
  "\u2581tshama": 217,
  "\u2581Timbhoni": 218,
  "\u2581tirhisa": 219,
  "\u2581good": 220,
  "\u2581world": 221,
  "\u2581kahle": 222,
  "\u2581other": 223,
  "\u2581ro": 224,
  "\u2581tlula": 225,
  "\u2581nkoka": 226,
  "\u2581wona": 227,
  "b": 228,
  "\u2581sweswo": 229,
  "\u2581hinkwayo": 230,
  "\u2581if": 231,
  "\u2581help": 232,
  "\u2581But": 233,
  "\u2581said": 234,
  "\u2581kombisa": 235,
  "\u2581njhani": 236,
  "\u2581than": 237,
  "\u2581should": 238,
  "\u2581tiva": 239,
  "\u2581hikwalaho": 240,
  "\u2581things": 241,
  "\u2581way": 242,
  "\u2581Paul": 243,
  "\u2581does": 244,
  "\u2581xo": 245,
  "\u2581Leswi": 246,
  "\u2581even": 247,
  "\u2581these": 248,
  "\u2581work": 249,
  "\u2581ko": 250,
  "\u2581page": 251,
  "\u2581We": 252,
  "\u2581tlhela": 253,
  "ni": 254,
  "\u2581into": 255,
  "\"": 256,
  "\u2581which": 257,
  "\u2581xikombiso": 258,
  "wini": 259,
  "\u2581Pawulo": 260,
  "\u2581tluka": 261,
  "\u2581lawa": 262,
  "\u25812": 263,
  "\u2581love": 264,
  "\u2581years": 265,
  "\u2581could": 266,
  "\u2581emahlweni": 267,
  "\u2581Ha": 268,
  "\u2581Christian": 269,
  "\u2581day": 270,
  "\u2581fana": 271,
  "ed": 272,
  "\u2581Swi": 273,
  "\u2581Kutani": 274,
  "\u2581This": 275,
  "\u2581When": 276,
  "E": 277,
  "\u2581hambana": 278,
  "\u2581Yehova": 279,
  "\u2581earth": 280,
  "\u2581she": 281,
  "\u2581make": 282,
  "\u2581siku": 283,
  "\u2581mhaka": 284,
  "\u2581They": 285,
  "\u2581loku": 286,
  "\u2581Christ": 287,
  "\u2581te": 288,
  "\u258115": 289,
  "\u2581first": 290,
  "\u2581e": 291,
  "\u2581Mfumo": 292,
  "\u2581Vakreste": 293,
  "...": 294,
  "\u2581nchumu": 295,
  "\u2581Why": 296,
  "\u2581rhandza": 297,
  "\u25813": 298,
  "\u2581For": 299,
  "\u2581children": 300,
  "\u2581says": 301,
  "\u2581Kingdom": 302,
  "\u2581wakwe": 303,
  "\u2581famba": 304,
  "\u2581because": 305,
  "\u2581Ndzi": 306,
  "\u2581Christians": 307,
  "\u2581emisaveni": 308,
  "\u2581hikuva": 309,
  "ly": 310,
  "\u2581vulavula": 311,
  "\u2581only": 312,
  "\u2581lembe": 313,
  "\u2581biha": 314,
  "\u2581kota": 315,
  "\u2581others": 316,
  "\u2581Hikwalaho": 317,
  "\u2581over": 318,
  "\u2581family": 319,
  "ke": 320,
  "t": 321,
  "\u2581v": 322,
  "\u2581being": 323,
  "\u2581marito": 324,
  "\u2581rirhandzu": 325,
  "\u2581made": 326,
  "\u2581If": 327,
  "\u2581As": 328,
  "\u2581dyondza": 329,
  "the": 330,
  "\u2581hinkwawo": 331,
  "\u2581must": 332,
  "wina": 333,
  "\u2581need": 334,
  "\u2581N": 335,
  "\u2581spirit": 336,
  "\u2581endle": 337,
  "\u2581xin": 338,
  "\u2581hanya": 339,
  "\u2581like": 340,
  "\u2581its": 341,
  "\u2581faith": 342,
  "\u2581*": 343,
  "\u2581then": 344,
  "\u25812:": 345,
  "\u2581example": 346,
  "\u2581khale": 347,
  "\u2581Eka": 348,
  "\u2581wolowo": 349,
  "\u2581see": 350,
  "\u2581You": 351,
  "\u2581C": 352,
  "\u2581rin": 353,
  "\u2581hinkwaswo": 354,
  "\u2581wun": 355,
  "\u2581endlaka": 356,
  "\u2581si": 357,
  "\u2581know": 358,
  "\u2581mbilu": 359,
  "\u2581Kreste": 360,
  "\u2581And": 361,
  "weni": 362,
  "\u2581hinkwavo": 363,
  "\u2581just": 364,
  "\u25814:": 365,
  "\u2581well": 366,
  "\u2581endzhaku": 367,
  "\u2581fanaka": 368,
  "\u25816": 369,
  "\u2581vukhongeri": 370,
  "\u2581faneleke": 371,
  "\u25811:": 372,
  "\u2581come": 373,
  "\u2581true": 374,
  "\u2581take": 375,
  "\u2581malunghana": 376,
  "\u2581now": 377,
  "\u2581xana": 378,
  "\u2581congregation": 379,
  "\u2581own": 380,
  "\u2581riki": 381,
  "\u2581ndyangu": 382,
  "\u2581tirha": 383,
  "\u2581new": 384,
  "\u2581become": 385,
  "\u2581before": 386,
  "\u2581spiritual": 387,
  "\u2581minkarhi": 388,
  "\u2581ripfumelo": 389,
  "\u2581ve": 390,
  "\u25815:": 391,
  "\u2581after": 392,
  "laha": 393,
  "\u2581se": 394,
  "\u2581ivi": 395,
  "\u2581words": 396,
  "\u2581John": 397,
  "\u2581kwalaho": 398,
  "\u2581death": 399,
  "\u2581tin": 400,
  "\u2581two": 401,
  "\u2581Xifaniso": 402,
  "\u2581any": 403,
  "\u2581men": 404,
  "\u2581sweswi": 405,
  "\u2581Hambiswiritano": 406,
  "\u2581sungule": 407,
  "\u2581ones": 408,
  "\u2581tona": 409,
  "\u2581rona": 410,
  "A": 411,
  "e": 412,
  "\u2581nyika": 413,
  "\u2581Picture": 414,
  "\u2581parents": 415,
  "\u2581heart": 416,
  "\u2581\u25a1": 417,
  "\u2581another": 418,
  "\u2581chumayela": 419,
  "\u2581Hambi": 420,
  "\u2581very": 421,
  "\u2581namuntlha": 422,
  "\u2581vatswari": 423,
  "\u2581through": 424,
  "\u2581byo": 425,
  "\u2581So": 426,
  "\u2581Vanhu": 427,
  "\u2581hambi": 428,
  "\u2581tiko": 429,
  "\u2581teka": 430,
  "\u2581much": 431,
  "\u2581most": 432,
  "\u2581Endzhaku": 433,
  "o": 434,
  "\u2581Wa": 435,
  "\u25811,": 436,
  "\u2581Xi": 437,
  "d": 438,
  "\u2581yoleyo": 439,
  "\u2581exikarhi": 440,
  "\u2581name": 441,
  "I": 442,
  "\u2581rungula": 443,
  "\u2581dyondzo": 444,
  "\u2581Hosi": 445,
  "\u2581New": 446,
  "\u2581person": 447,
  "\u2581give": 448,
  "\u2581xiviri": 449,
  "\u2581E": 450,
  "\u2581rhula": 451,
  "\u2581times": 452,
  "\u2581today": 453,
  "\u25817": 454,
  "\u2581That": 455,
  "\u2581Ni": 456,
  "\u2581vito": 457,
  "\u2581tshembeka": 458,
  "\u2581truth": 459,
  "\u2581yakwe": 460,
  "\u2581might": 461,
  "\u2581study": 462,
  "\u2581hlaya": 463,
  "nga": 464,
  "\u2581To": 465,
  "\u2581where": 466,
  "\u2581say": 467,
  "\u2581Ya": 468,
  "\u2581great": 469,
  "\u2581lowukulu": 470,
  "\u2581twisisa": 471,
  "\u2581yihi": 472,
  "\u2581year": 473,
  "\u2581hlamusela": 474,
  "\u2581found": 475,
  "\u2581One": 476,
  "\u2581part": 477,
  "S": 478,
  "\u2581mali": 479,
  "\u2581tlhelo": 480,
  "\u2581home": 481,
  "\u2581book": 482,
  "\u2581human": 483,
  "\u2581ehansi": 484,
  "\u2581Nga": 485,
  "\u2581mianakanyo": 486,
  "\u2581young": 487,
  "\u2581find": 488,
  "\u2581fika": 489,
  "\u2022": 490,
  "\u2581feel": 491,
  "\u2581B": 492,
  "\u2581katsa": 493,
  "\u2581each": 494,
  "\u2581swakudya": 495,
  "\u2581huma": 496,
  "\u2581kwalomu": 497,
  "\u2581use": 498,
  "\u2581Israel": 499,
  "\u2581against": 500,
  "\u2581xiyimo": 501,
  "\u2581endleke": 502,
  "\u2581himself": 503,
  "\u2581humaka": 504,
  "\u2581same": 505,
  "\u2581Word": 506,
  "\u2581ntsako": 507,
  "\u2581David": 508,
  "\u2581milawu": 509,
  "\u2581ntshembo": 510,
  "\u2581anakanya": 511,
  "\u2581Rito": 512,
  "\u2581apostle": 513,
  "\u2581onge": 514,
  "\u2581brothers": 515,
  "\u2581xidzana": 516,
  "\u2581means": 517,
  "\u2581Some": 518,
  "\u2581However": 519,
  "\u2581vule": 520,
  "\u2581used": 521,
  "\u2581hakona": 522,
  "\u2581Yohane": 523,
  "\u2581hakunene": 524,
  "\u2581get": 525,
  "\u2581vukati": 526,
  "\u2581long": 527,
  "\u2581Sathana": 528,
  "\u2581Do": 529,
  "\u2581vakwe": 530,
  "\u2581Peter": 531,
  "\u2581upon": 532,
  "\u258113": 533,
  "\u2581dyondzisa": 534,
  "\u2581though": 535,
  "\u2581never": 536,
  "\u2581keep": 537,
  "\u2581often": 538,
  "\u2581byela": 539,
  "\u2581put": 540,
  "\u2581Satan": 541,
  "\u2581end": 542,
  "\u2581place": 543,
  "\u2581why": 544,
  "C": 545,
  "\u2581tindlela": 546,
  "\u2581Nakambe": 547,
  "\u2581wrote": 548,
  "\u2581go": 549,
  "\u2581too": 550,
  "\u2581handle": 551,
  "\u2581Leswaku": 552,
  "\u2581At": 553,
  "\u2581timhaka": 554,
  "\u2581Vukreste": 555,
  "\u2581called": 556,
  "\u2581every": 557,
  "\u2581rito": 558,
  "\u2581under": 559,
  "\u2581swiphiqo": 560,
  "\u2581xiya": 561,
  "\u2581came": 562,
  "\u2581right": 563,
  "\u2581became": 564,
  "\u2581kwetsima": 565,
  "\u2581heriki": 566,
  "\u25815": 567,
  "\u2581vulaka": 568,
  "\u2581Naswona": 569,
  "\u2581lavaka": 570,
  "\u25813:": 571,
  "\u2581among": 572,
  "\u2581navela": 573,
  "\u2581learn": 574,
  "\u2581down": 575,
  "\u2581show": 576,
  "\u25818": 577,
  "\u2581lamanene": 578,
  "\u2581back": 579,
  "\u2581hansi": 580,
  "\u2581Is": 581,
  "\u2581khombo": 582,
  "\u2581worship": 583,
  "\u2581After": 584,
  "\u2581nyikela": 585,
  "\u258120": 586,
  "\u2581tsakela": 587,
  "\u2581want": 588,
  "\u2581course": 589,
  "\u2581buku": 590,
  "\u2581Petro": 591,
  "\u2581yingisa": 592,
  "\u2581sukela": 593,
  "\u2581days": 594,
  "\u2581word": 595,
  "\u2581Davhida": 596,
  "\u2581Matthew": 597,
  "\u2581xikongomelo": 598,
  "\u258112": 599,
  "y": 600,
  "\u2581during": 601,
  "\u2581read": 602,
  "\u2581vonaka": 603,
  "\u2581news": 604,
  "\u2581important": 605,
  "\u2581hava": 606,
  "\u2581M": 607,
  "\u2581away": 608,
  "\u2581Father": 609,
  "\u2581century": 610,
  "\u2581Matewu": 611,
  "\u2581wife": 612,
  "\u2581titwa": 613,
  "\u2581still": 614,
  "\u2581later": 615,
  "\u2581fa": 616,
  "\u2581vutlhari": 617,
  "\u2581live": 618,
  "\u2581There": 619,
  "\u2581vuxaka": 620,
  "\u2581peace": 621,
  "\u2581mahungu": 622,
  "\u2581ndhawu": 623,
  "\u2581humelela": 624,
  "The": 625,
  "\u2581matiko": 626,
  "\u2581kwihi": 627,
  "\u2581kombela": 628,
  "\u2581old": 629,
  "\u2581three": 630,
  "\u2581Matsalwa": 631,
  "le": 632,
  "\u2581began": 633,
  "\u2581Ina": 634,
  "\u2581endleka": 635,
  "\u2581told": 636,
  "\u258111": 637,
  "\u2581themselves": 638,
  "\u258112:": 639,
  "\u25819": 640,
  "\u2581faithful": 641,
  "\u258110": 642,
  "\u2581view": 643,
  "\u258114": 644,
  "\u2581mani": 645,
  "\u2581vuriwaka": 646,
  "\u2581Hambileswi": 647,
  "\u2581amukela": 648,
  "\u2581mintirho": 649,
  "\u2581mati": 650,
  "ku": 651,
  "\u2581nawu": 652,
  "\u2581hope": 653,
  "\u258119": 654,
  "\u2581given": 655,
  "\u2581knowledge": 656,
  "\u2581mind": 657,
  "\u2581nkulu": 658,
  "\u2581let": 659,
  "\u2581masiku": 660,
  "\u2581am": 661,
  "\u2581hundzeke": 662,
  "\u2581rifu": 663,
  "\u2581vamakwerhu": 664,
  "\u2581By": 665,
  "\u2581Psalm": 666,
  "\u2581No": 667,
  "\u2581enkarhini": 668,
  "\u2581sunguleni": 669,
  "\u2581service": 670,
  "\u2581preaching": 671,
  "\u2581evuto": 672,
  "\u2581without": 673,
  "\u2581living": 674,
  "\u2581however": 675,
  "\u2581States": 676,
  "\u2581Yi": 677,
  "\u2581vanghana": 678,
  "\u2581ngati": 679,
  "\u2581ministry": 680,
  "),": 681,
  "\u25814.": 682,
  "\u2581With": 683,
  "\u2581On": 684,
  "\u2581holy": 685,
  "\u2581house": 686,
  "\u2581twa": 687,
  "\u2581tidyondzo": 688,
  "\u2581United": 689,
  "\u2581Vayuda": 690,
  "\u2581Xa": 691,
  "\u2581pfumela": 692,
  "\u2581entirhweni": 693,
  "\u2581power": 694,
  "\u2581doing": 695,
  "\u2581chava": 696,
  "\u25814": 697,
  "\u2581set": 698,
  "\u2581tsakisa": 699,
  "\u2581child": 700,
  "\u2581vumbhoni": 701,
  "\u258110:": 702,
  "\u2581fact": 703,
  "\u2581kume": 704,
  "\u258117": 705,
  "\u2581tsundzuka": 706,
  "\u2581Then": 707,
  "\u2581Van": 708,
  "\u2581able": 709,
  "\u2581Scriptures": 710,
  "\u2581cinca": 711,
  "\u2581vadyondzisiwa": 712,
  "\u2581vuriwa": 713,
  "\u2581veke": 714,
  "er": 715,
  "\u258111:": 716,
  "\u25812.": 717,
  "\u2581tlhele": 718,
  "\u2581gave": 719,
  "\u2581Lava": 720,
  "\u2581Ta": 721,
  "\u2581vuvabyi": 722,
  "\u2581tirhela": 723,
  "\u2581while": 724,
  "\u2581both": 725,
  "\u2581disciples": 726,
  "\u2581serve": 727,
  "\u2581She": 728,
  "\u2581ehleketa": 729,
  "\u2581wanuna": 730,
  "\u2581mahanyelo": 731,
  "\u2581religious": 732,
  "\u2581His": 733,
  "\u2581Yes": 734,
  "\u2581Vaisrayele": 735,
  "\u2581lulama": 736,
  "\u2581langutelo": 737,
  "\u2581nsati": 738,
  "\u2581King": 739,
  "\u2581wihi": 740,
  "\u2581dya": 741,
  "\u258125": 742,
  "\u2581Ka": 743,
  "\u258110.": 744,
  "\u2581Ra": 745,
  "\u2581father": 746,
  "eki": 747,
  "\u2581Many": 748,
  "\u258114.": 749,
  "\u2581ntlawa": 750,
  "\u2581mankind": 751,
  "\u2581swiyimo": 752,
  "\u2581fanelanga": 753,
  "\u2581always": 754,
  "\u2581Tanihi": 755,
  "\u2581langutana": 756,
  "\u2581Yet": 757,
  "\u2581making": 758,
  "\u2581yindlu": 759,
  "\u2581Entiyisweni": 760,
  "\u2581full": 761,
  "\u2581nyimpi": 762,
  "\u2581ringeta": 763,
  "\u2581between": 764,
  "\u2581lowo": 765,
  "m": 766,
  "\u2581hlayisa": 767,
  "\u2581tshika": 768,
  "\u2581vuyelo": 769,
  "\u2581Pisalema": 770,
  "\u2581World": 771,
  "\u2581ehenhla": 772,
  "\u25815.": 773,
  "\u2581result": 774,
  "\u2581asked": 775,
  "\u2581lerova": 776,
  "la": 777,
  "\u2581byele": 778,
  "\u2581Esaya": 779,
  "\u2581whom": 780,
  "\u2581Isaiah": 781,
  "\u2581hand": 782,
  "\u2581timiliyoni": 783,
  "\u2581really": 784,
  "\u2581ways": 785,
  "\u2581leyinene": 786,
  "\u2581Jerusalem": 787,
  "i": 788,
  "\u25818.": 789,
  "\u2581khatharis": 790,
  "\u2581leha": 791,
  "\u2581eBibeleni": 792,
  "\u2581Even": 793,
  "\u2581think": 794,
  "\u258121": 795,
  "....": 796,
  "\u2581something": 797,
  "\u2581tsaka": 798,
  "\u2581Israyele": 799,
  "Ku": 800,
  "th": 801,
  "\u2581took": 802,
  "\u2581having": 803,
  "\u2581endhawini": 804,
  "\u2581olova": 805,
  "\u2581vavanuna": 806,
  "\u2581wansati": 807,
  "\u2581order": 808,
  "\u25816:": 809,
  "\u2581tshemba": 810,
  "\u2581Ri": 811,
  "\u2581endliwa": 812,
  "\u2581Swa": 813,
  "\u2581tibuku": 814,
  "\u2581humans": 815,
  "\u258111.": 816,
  "\u2581tlangela": 817,
  "\u2581Muxe": 818,
  "\u2581ke": 819,
  "\u258113.": 820,
  "\u25817.": 821,
  "\u2581Our": 822,
  "\u2581ekaya": 823,
  "\u2581vandlha": 824,
  "\u2581woman": 825,
  "\u2581mother": 826,
  "\u2581000": 827,
  "\u2581reason": 828,
  "\u2581From": 829,
  "\u2581city": 830,
  "\u2581vutivi": 831,
  "\u2581henhla": 832,
  "\u2581loving": 833,
  "\u2581landzelaka": 834,
  "\u258112.": 835,
  "\u258130": 836,
  "\u2581swirho": 837,
  "\u2581number": 838,
  "\u2581marriage": 839,
  "\u2581Ma": 840,
  "\u258115,": 841,
  "\u2581food": 842,
  "\u2581hetelela": 843,
  "\u2581makumu": 844,
  "\u2581hileswi": 845,
  "\u2581few": 846,
  "\u2581servants": 847,
  "\u2581Son": 848,
  "\u2581kombise": 849,
  "\u2581little": 850,
  "\u2581malandza": 851,
  "\u2581Watchtower": 852,
  "\u2581consider": 853,
  "\u2581xihi": 854,
  "\u2581tshamaka": 855,
  "\u2581water": 856,
  "\u2581problems": 857,
  "\u2581purpose": 858,
  "\u2581tsakisaka": 859,
  "\u2581vavasati": 860,
  "\u25819.": 861,
  "\u2581hakanyingi": 862,
  "\u2581mfumo": 863,
  "\u2581Lexi": 864,
  "\u2581pfunaka": 865,
  "\u25813.": 866,
  "\u2581personal": 867,
  "\u2581son": 868,
  "\u2581toward": 869,
  "\u2581muapostola": 870,
  "\u2581My": 871,
  "\u258117.": 872,
  "ri": 873,
  "\u2581future": 874,
  "\u2581byona": 875,
  "\u2581together": 876,
  "\u2581Xisweswo": 877,
  "\u2581lo": 878,
  "\u2581tika": 879,
  "\u2581husband": 880,
  "\u2581since": 881,
  "\u2581swivutiso": 882,
  "\u2581Le": 883,
  "\u258116.": 884,
  "\u2581papalata": 885,
  "\u25816.": 886,
  "\u2581These": 887,
  "\u2581mpfuno": 888,
  "\u258118": 889,
  "\u2581rero": 890,
  "\u2581engetelekeke": 891,
  "\u258123": 892,
  "\u2581article": 893,
  "\u2581languta": 894,
  "\u2581hela": 895,
  "\u2581kombisaka": 896,
  "\u2581someone": 897,
  "\u2581hambeta": 898,
  "\u2581muti": 899,
  "\u2581look": 900,
  "\u2581suka": 901,
  "\u2581kambisisa": 902,
  "\u258115.": 903,
  "\u2581S": 904,
  "\u2581hatlisa": 905,
  "\u2581tirhisiwa": 906,
  "\u2581leswinene": 907,
  "\u2581again": 908,
  "\u2581helela": 909,
  "\u2581questions": 910,
  "\u2581lives": 911,
  "\u2581off": 912,
  "\u2581fear": 913,
  "\u2581women": 914,
  "\u2581care": 915,
  "\u2581nations": 916,
  "Ndzi": 917,
  "Loko": 918,
  "\u2581sin": 919,
  "\u2581vantshwa": 920,
  "\u2581blood": 921,
  "\u2581joy": 922,
  "\u2581bring": 923,
  "\u2581taka": 924,
  "\u2581nghena": 925,
  "\u2581rakwe": 926,
  "\u2581left": 927,
  "\u2581Swivuriso": 928,
  "\u2581xiboho": 929,
  "\u2581ye": 930,
  "\u2581tilweni": 931,
  "\u2581different": 932,
  "\u2581veka": 933,
  "\u2581xiphemu": 934,
  "\u2581heaven": 935,
  "\u2581last": 936,
  "\u2581brother": 937,
  "\u2581Proverbs": 938,
  "\u2581free": 939,
  "\u2581fellow": 940,
  "\u2581experience": 941,
  "\u2581ririmi": 942,
  "\u2581rhandzaka": 943,
  "\u25818:": 944,
  "\u2581known": 945,
  "\u2581ndza": 946,
  "\u2581All": 947,
  "ki": 948,
  "\u2581Ti": 949,
  "\u2581prayer": 950,
  "\u2581better": 951,
  "\u2581T": 952,
  "\u2581tiyiseka": 953,
  "u": 954,
  "\u2581kun": 955,
  "\u2581following": 956,
  "\u2581Moses": 957,
  "\u258116": 958,
  "\u2581khutaza": 959,
  "\u2581meetings": 960,
  "\u2581dlaya": 961,
  "\u2581learned": 962,
  "\u2581religion": 963,
  "na": 964,
  "\u2581nyama": 965,
  "\u2581swifaniso": 966,
  "\u2581needed": 967,
  "\u2581xivangelo": 968,
  "\u2581Ndlela": 969,
  "\u2581elders": 970,
  "\u2581done": 971,
  "\u2581vutihlamuleri": 972,
  "hweti": 973,
  "\u2581miri": 974,
  "\u2581koti": 975,
  "\u25813,": 976,
  "\u2581xisati": 977,
  "al": 978,
  "r": 979,
  "\u2581misaveni": 980,
  "\u2581ringana": 981,
  "U": 982,
  "\u2581dyambu": 983,
  "\u2581cannot": 984,
  "\u2581heta": 985,
  "\u2581matshalatshala": 986,
  "\u2581lexikulu": 987,
  "\u2581friends": 988,
  "\u2581happy": 989,
  "\u2581Eku": 990,
  "\u2581hanyaka": 991,
  "\u2581fikela": 992,
  "\u2581tshame": 993,
  "\u25819:": 994,
  "\u2581ematikweni": 995,
  "\u2581vuprofeta": 996,
  "\u2581rimbewu": 997,
  "\u2581wisdom": 998,
  "\u2581system": 999,
  "\u25818,": 1000,
  "\u2581ever": 1001,
  "\u2581mahlo": 1002,
  "\u2581khongela": 1003,
  "\u2581school": 1004,
  "\u2581hlawuleka": 1005,
  "\u2581Vakorinto": 1006,
  "\u2581counsel": 1007,
  "\u2581matter": 1008,
  "\u2581possible": 1009,
  "\u2581Corinthians": 1010,
  "\u2581leyikulu": 1011,
  "\u2581vu": 1012,
  "\u2581ntumbuluko": 1013,
  "\u2581byakwe": 1014,
  "\u2581munghana": 1015,
  "\u2581vi": 1016,
  "\u2581felt": 1017,
  "\u2581D": 1018,
  "\u2581hard": 1019,
  "\u2581titsongahata": 1020,
  "\u2581mpimo": 1021,
  "\u2581went": 1022,
  "\u2581musa": 1023,
  "\u2581believe": 1024,
  "\u2581helped": 1025,
  "\u2581mavunwa": 1026,
  "\u2581face": 1027,
  "\u2581thought": 1028,
  "\u2581self": 1029,
  "\u258124:": 1030,
  "\u2581Mukreste": 1031,
  "\u2581hosi": 1032,
  "in": 1033,
  "\u2581fine": 1034,
  "\u2581Thus": 1035,
  "\u2581age": 1036,
  "\u2581war": 1037,
  "\u2581teaching": 1038,
  "\u2581xidyoho": 1039,
  "\u2581far": 1040,
  "\u2581body": 1041,
  "\u2581bad": 1042,
  "\u2581Nhlavutelo": 1043,
  "\u2581etikweni": 1044,
  "\u2581erivaleni": 1045,
  "\u2581Revelation": 1046,
  "\u2581conduct": 1047,
  "\u2581wicked": 1048,
  "\u2581ancient": 1049,
  "\u2581hinkwato": 1050,
  "\u2581early": 1051,
  "\u2581fuma": 1052,
  "\u2581Lord": 1053,
  "\u2581money": 1054,
  "\u2581Greek": 1055,
  "\u2581present": 1056,
  "\u2581lerikulu": 1057,
  "\u2581yourself": 1058,
  "\u2581best": 1059,
  "\u2581law": 1060,
  "\u2581Bya": 1061,
  "\u2581heavenly": 1062,
  "\u2581Timothy": 1063,
  "\u2581khathalela": 1064,
  "\u2581Misava": 1065,
  "c": 1066,
  "\u2581anointed": 1067,
  "\u2581nor": 1068,
  "\u2581land": 1069,
  "\u2581Luke": 1070,
  "\u2581eyes": 1071,
  "\u2581relationship": 1072,
  "\u2581Leyi": 1073,
  "\u2581until": 1074,
  "\u258118.": 1075,
  "\u2581Nawu": 1076,
  "\u2581high": 1077,
  "\u2581Watch": 1078,
  "\u2581Hakunene": 1079,
  "\u2581Society": 1080,
  "\u2581Your": 1081,
  "\u2581Luka": 1082,
  "\u2581Israelites": 1083,
  "\u2581York": 1084,
  "\u2581mean": 1085,
  "\u2581close": 1086,
  "\u2581members": 1087,
  "\u2581Because": 1088,
  "\u2581Tatana": 1089,
  "\u2581Timotiya": 1090,
  "\u2581around": 1091,
  "\u2581xifaniso": 1092,
  "\u2581ask": 1093,
  "\u2581Tower": 1094,
  "\u2581landzela": 1095,
  "\u2581next": 1096,
  "\u2581along": 1097,
  "\u2581vakulu": 1098,
  "hi": 1099,
  "\u2581ndzayo": 1100,
  "\u2581share": 1101,
  "\u2581righteous": 1102,
  "\u2581message": 1103,
  "\u2581continue": 1104,
  "\u2581saying": 1105,
  "\u2581situation": 1106,
  "\u2581xexo": 1107,
  "\u2581Who": 1108,
  "\u2581language": 1109,
  "\u2581yet": 1110,
  "\u258117:": 1111,
  "\u2581Tata": 1112,
  "\u25819,": 1113,
  "\u2581Hilaha": 1114,
  "\u2581xiphiqo": 1115,
  "l": 1116,
  "\u2581Kriste": 1117,
  "\u2581baptized": 1118,
  "\u2581Varhoma": 1119,
  "\u2581hinkwabyo": 1120,
  "\u2581hlanganyela": 1121,
  "\u2581Can": 1122,
  "\u2581answer": 1123,
  "\u2581s": 1124,
  "\u2581thus": 1125,
  "\u2581wolawo": 1126,
  "\u2581timfanelo": 1127,
  "\u2581heteleleni": 1128,
  "\u2581enjoy": 1129,
  "\u2581evandlheni": 1130,
  "\u2581ekusuhi": 1131,
  "\u2581support": 1132,
  "\u2581king": 1133,
  "va": 1134,
  "\u2581tikhoma": 1135,
  "\u2581mune": 1136,
  "\u2581James": 1137,
  "\u2581Let": 1138,
  "\u2581nuna": 1139,
  "\u2581understand": 1140,
  "\u2581talk": 1141,
  "\u2581Abraham": 1142,
  "\u258124": 1143,
  "\u2581tsala": 1144,
  "\u2581Jews": 1145,
  "\u2581gandzela": 1146,
  "\u2581certain": 1147,
  "\u2581hlamula": 1148,
  "\u2581xitsundzuxo": 1149,
  "\u2581especially": 1150,
  "re": 1151,
  "\u2581tata": 1152,
  "\u2581small": 1153,
  "\u2581Mintirho": 1154,
  "\u2581dead": 1155,
  "li": 1156,
  "\u2581cause": 1157,
  "\u2581kind": 1158,
  "\u2581etilweni": 1159,
  "\u2581Mi": 1160,
  "v": 1161,
  "\u2581going": 1162,
  "\u2581kanakana": 1163,
  "\u2581speak": 1164,
  "\u2581case": 1165,
  "\u2581herisa": 1166,
  "\u2581brought": 1167,
  "\u2581vulavulaka": 1168,
  "\u2581nyike": 1169,
  "\u25816,": 1170,
  "\u2581health": 1171,
  "\u2581Since": 1172,
  "\u2581rivaleni": 1173,
  "\u2581vumbirhi": 1174,
  "\u2581Minkarhi": 1175,
  "\u2581light": 1176,
  "\u258120.": 1177,
  "\u2581leyintshwa": 1178,
  "\u2581hlula": 1179,
  "\u2581emhakeni": 1180,
  "\u2581including": 1181,
  "\u25815,": 1182,
  "\u2581giving": 1183,
  "\u2581avoid": 1184,
  "\u2581Sweswo": 1185,
  "\u2581anakanyisisa": 1186,
  "\u2581saw": 1187,
  "\u258119.": 1188,
  "\u2581Abrahama": 1189,
  "\u2581Na": 1190,
  "\u2581Of": 1191,
  "\u2581timbilu": 1192,
  "\u2581Munhu": 1193,
  "\u2581vone": 1194,
  "\u2581lexinene": 1195,
  "\u2581vugandzeri": 1196,
  "\u2581point": 1197,
  "\u2581kasi": 1198,
  "\u2581difficult": 1199,
  "\u2581desire": 1200,
  "\u2581antswa": 1201,
  "\u25814,": 1202,
  "\u2581Acts": 1203,
  "\u2581attention": 1204,
  "\u2581kulobye": 1205,
  "\u2581states": 1206,
  "\u2581soon": 1207,
  "\u2581vaka": 1208,
  "\u2581Yini": 1209,
  "\u2581whole": 1210,
  "\u2581died": 1211,
  "\u2581received": 1212,
  "\u2581Sweswi": 1213,
  "\u2581tlulaka": 1214,
  "\u2581sense": 1215,
  "\u2581hetiseka": 1216,
  "\u2581kotaka": 1217,
  "\u2581nhloko": 1218,
  "\u2581form": 1219,
  "\u2581real": 1220,
  "\u2581Ematsha": 1221,
  "\u2581lokukulu": 1222,
  "\u2581respect": 1223,
  "\u2581Although": 1224,
  "\u2581feelings": 1225,
  "\u2581kongoma": 1226,
  "\u2581Be": 1227,
  "\u2581ourselves": 1228,
  "\u2581kula": 1229,
  "\u2581wise": 1230,
  "\u2581Adam": 1231,
  "\u258127": 1232,
  "\u2581four": 1233,
  "\u2581Creator": 1234,
  "\u2581question": 1235,
  "\u2581tisa": 1236,
  "\u2581swihi": 1237,
  "\u2581Are": 1238,
  "\u2581wrong": 1239,
  "\u2581change": 1240,
  "\u2581homboloka": 1241,
  "\u2581tiyisela": 1242,
  "\u2581special": 1243,
  "\u2581Law": 1244,
  "\u2581swiendlo": 1245,
  "\u2581vuswikoti": 1246,
  "\u2581hundzuka": 1247,
  "\u2581tivi": 1248,
  "\u2581account": 1249,
  "\u2581needs": 1250,
  "\u2581aka": 1251,
  "\u2581seketela": 1252,
  "\u2581Kona": 1253,
  "\u2581lavi": 1254,
  "ma": 1255,
  "\u2581control": 1256,
  "\u2581nakambe": 1257,
  "\u2581O": 1258,
  "\u2581xixima": 1259,
  "\u2581o": 1260,
  "\u2581benefit": 1261,
  "\u2581Romans": 1262,
  "ti": 1263,
  "\u2581tiyisa": 1264,
  "\u2581kusuhi": 1265,
  "\u2581serving": 1266,
  "\u2581xivindzi": 1267,
  "\u2581information": 1268,
  "\u2581engetela": 1269,
  "\u2581turn": 1270,
  "\u258126": 1271,
  "\u2581tintswalo": 1272,
  "\u2581divine": 1273,
  "\u2581Marito": 1274,
  "\u2581n\u1e0di": 1275,
  "\u2581Job": 1276,
  "\u2581nation": 1277,
  "\u2581pfumelelana": 1278,
  "\u2581false": 1279,
  "wa": 1280,
  "\u258114,": 1281,
  "\u2581endliweke": 1282,
  "\u2581lunghelo": 1283,
  "\u2581Vona": 1284,
  "\u2581kumbexana": 1285,
  "\u2581sent": 1286,
  "\u2581Adamu": 1287,
  "\u2581makes": 1288,
  "\u2581provide": 1289,
  "\u2581hlangana": 1290,
  "\u2581Daniel": 1291,
  "\u2581thing": 1292,
  "\u258118:": 1293,
  "\u258122": 1294,
  "\u2581langutane": 1295,
  "\u2581seen": 1296,
  "\u2581Such": 1297,
  "\u2581temple": 1298,
  "\u2581Not": 1299,
  "\u2581nandzu": 1300,
  "\u258133": 1301,
  "\u2581Today": 1302,
  "\u2581hlawula": 1303,
  "\u2581lead": 1304,
  "\u2581Those": 1305,
  "\u2581follow": 1306,
  "Hi": 1307,
  "\u2581knew": 1308,
  "\u2581receive": 1309,
  "\u2581While": 1310,
  "\u2581taken": 1311,
  "\u2581suffering": 1312,
  "\u2581group": 1313,
  "\u2581wanted": 1314,
  "\u2581sure": 1315,
  "\u2581Yobo": 1316,
  "\u2581rihanyo": 1317,
  "\u2581nothing": 1318,
  "\u2581tirhaka": 1319,
  "\u2581Consider": 1320,
  "\u2581kingdom": 1321,
  "\u2581yisa": 1322,
  "\u2581hlamarisaka": 1323,
  "\u25812,": 1324,
  "\u2581involved": 1325,
  "\u2581principles": 1326,
  "\u2581trust": 1327,
  "\u2581Swifaniso": 1328,
  "\u2581Buku": 1329,
  "\u2581eminhlanganweni": 1330,
  "\u2581night": 1331,
  "\u2581taught": 1332,
  "\u2581likely": 1333,
  "\u258121.": 1334,
  "\u2581reading": 1335,
  "\u2581tsariweke": 1336,
  "\u2581moved": 1337,
  "\u2581tiyeke": 1338,
  "\u258116:": 1339,
  "\u2581vava": 1340,
  "\u00b7": 1341,
  "\u2581vutisa": 1342,
  "\u2581Does": 1343,
  "\u2581whether": 1344,
  "\u2581THE": 1345,
  "\u2581try": 1346,
  "\u2581strong": 1347,
  "\u258111,": 1348,
  "\u2581nhlayo": 1349,
  "\u2581large": 1350,
  "\u2581hetisisa": 1351,
  "\u2581taking": 1352,
  "\u2581simply": 1353,
  "\u2581tlhelela": 1354,
  "\u2581rifuwo": 1355,
  "\u2581An": 1356,
  "\u2581Siku": 1357,
  "\u2581tolovelekeke": 1358,
  "\u2581Vaheveru": 1359,
  "\u2581xihloko": 1360,
  "\u2581lwisana": 1361,
  "\u2581attitude": 1362,
  "\u2581problem": 1363,
  "\u2581swilaveko": 1364,
  "\u2581thinking": 1365,
  "\u258120:": 1366,
  "\u2581here": 1367,
  "\u2581swikombiso": 1368,
  "\u2581kindness": 1369,
  "\u2581Mbhoni": 1370,
  "\u2581endzela": 1371,
  "\u2581happiness": 1372,
  "ta": 1373,
  "to": 1374,
  "\u2581Vana": 1375,
  "\u2581ematshan": 1376,
  "\u2581People": 1377,
  "\u2581works": 1378,
  "\u2581heard": 1379,
  "\u2581prophet": 1380,
  "\u2581tinyiketela": 1381,
  "\u2581mambirhi": 1382,
  "\u2581similar": 1383,
  "\u2581Dur": 1384,
  "\u2581hlayanyana": 1385,
  "\u258112,": 1386,
  "\u2581act": 1387,
  "\u2581tsarile": 1388,
  "\u25817,": 1389,
  "\u2581coming": 1390,
  "\u2581tsale": 1391,
  "\u258116,": 1392,
  "\u2581Wu": 1393,
  "\u2581xikhongelo": 1394,
  "\u258131": 1395,
  "\u2581Muapostola": 1396,
  "\u2581married": 1397,
  "\u2581kaya": 1398,
  "\u2581Muvumbi": 1399,
  "\u2581country": 1400,
  "\u2581righteousness": 1401,
  "\u2581further": 1402,
  "\u2581once": 1403,
  "\u2581pfumelela": 1404,
  "\u258140": 1405,
  "\u2581lebyikulu": 1406,
  "yelana": 1407,
  "\u2581certainly": 1408,
  "\u2581Namuntlha": 1409,
  "\u2581feke": 1410,
  "etindhawini": 1411,
  "\u2581according": 1412,
  "\u2581Xiya": 1413,
  "\u2581byihi": 1414,
  "\u2581humesa": 1415,
  "\u2581followers": 1416,
  "\u2581everlasting": 1417,
  "\u2581Hebrew": 1418,
  "\u2581mikhuva": 1419,
  "\u2581According": 1420,
  "\u2581evidence": 1421,
  "\u2581khoma": 1422,
  "\u2581magidi": 1423,
  "\u2581soul": 1424,
  "\u2581lawula": 1425,
  "\u2581matters": 1426,
  "\u2581past": 1427,
  "\u2581teach": 1428,
  "\u2581Now": 1429,
  "\u2581sacrifice": 1430,
  "\u2581comes": 1431,
  "\u2581ntlhanu": 1432,
  "\u2581near": 1433,
  "\u2581nhlengeletano": 1434,
  "\u258110,": 1435,
  "\u2581valandzeri": 1436,
  "\u2581Credit": 1437,
  "\u2581komba": 1438,
  "\u2581shows": 1439,
  "\u2581nonon": 1440,
  "\u2581history": 1441,
  "\u2581second": 1442,
  "\u2581hambileswi": 1443,
  "\u2581tell": 1444,
  "\u2581gome": 1445,
  "\u2581sirhelela": 1446,
  "\u2581call": 1447,
  "\u2581Hikuva": 1448,
  "\u2581lavo": 1449,
  "\u2581nkongomiso": 1450,
  "\u2581started": 1451,
  "\u2581organization": 1452,
  "\u2581already": 1453,
  "\u2581xilaveko": 1454,
  "\u2581Yerusalema": 1455,
  "\u2581perfect": 1456,
  "\u2581khume": 1457,
  "\u2581clear": 1458,
  "\u2581tiphesente": 1459,
  "\u2581vuleke": 1460,
  "\u2581nhlamuselo": 1461,
  "\u258150": 1462,
  "\u2581gives": 1463,
  "\u2581pfumala": 1464,
  "\u2581physical": 1465,
  "\u2581resurrection": 1466,
  "\u2581sons": 1467,
  "\u2581J": 1468,
  "\u2581vuli": 1469,
  "\u2581based": 1470,
  "\u2581khomiwa": 1471,
  "\u2581material": 1472,
  "\u2581heleleke": 1473,
  "\u2581pray": 1474,
  "\u2581vonakaka": 1475,
  "\u2581local": 1476,
  "\u2581tshamela": 1477,
  "\u2581Solomon": 1478,
  "\u2581Xigriki": 1479,
  "\u2581prophecy": 1480,
  "\u2581interest": 1481,
  "\u2581timbirhi": 1482,
  "\u2581Genesa": 1483,
  "\u2581allow": 1484,
  "ra": 1485,
  "\u2581Genesis": 1486,
  "\u2581Pictures": 1487,
  "\u2581Un": 1488,
  "N": 1489,
  "\u2581swiharhi": 1490,
  "\u2581\u25aa": 1491,
  "\u2581Makwerhu": 1492,
  "\u2581Rindza": 1493,
  "\u2581ntshunxeko": 1494,
  "\u2581Their": 1495,
  "\u2581Jewish": 1496,
  "\u2581hambiloko": 1497,
  "es": 1498,
  "\u2581anyone": 1499,
  "\u2581remain": 1500,
  "\u258128": 1501,
  "\u2581truly": 1502,
  "\u2581fambisana": 1503,
  "\u2581hetisekeke": 1504,
  "\u2581xakwe": 1505,
  "\u2581Catholic": 1506,
  "\u2581leave": 1507,
  "\u2581matluka": 1508,
  "\u2581May": 1509,
  "\u2581kumekaka": 1510,
  "\u2581apostles": 1511,
  "\u2581khumba": 1512,
  "\u2581kumeka": 1513,
  "\u25817:": 1514,
  "\u2581percent": 1515,
  "\u2581return": 1516,
  "espite": 1517,
  "\u2581Rather": 1518,
  "\u2581public": 1519,
  "vi": 1520,
  "\u2581vambirhi": 1521,
  "\u2581\"[": 1522,
  "\u2581teke": 1523,
  "\u2581Xihondzo": 1524,
  "\u2581longer": 1525,
  "\u2581entiyisweni": 1526,
  "\u2581vun": 1527,
  "\u2581Life": 1528,
  "\u2581Would": 1529,
  "\u258129": 1530,
  "\u2581vutirheli": 1531,
  "\u25aa": 1532,
  "\u2581individuals": 1533,
  "\u2581countries": 1534,
  "\u2581lwa": 1535,
  "\u2581Moya": 1536,
  "\u2581fikelela": 1537,
  "\u2581muxaka": 1538,
  "\u2581Joseph": 1539,
  "\u2581therefore": 1540,
  "\u2581mentioned": 1541,
  "\u2581Hebrews": 1542,
  "\u2581Yakobo": 1543,
  "\u2581lebyinene": 1544,
  "nguva": 1545,
  "\u2581mukhuva": 1546,
  "\u2581sheep": 1547,
  "\u2581vusiwana": 1548,
  "\u2581volavo": 1549,
  "\u2581showed": 1550,
  "\u2581authority": 1551,
  "\u2581church": 1552,
  "\u2581lerinene": 1553,
  "\u2581loved": 1554,
  "\u2581pfuxiwa": 1555,
  "\u2581vhiki": 1556,
  "\u2581vaapostola": 1557,
  "\u258122:": 1558,
  "\u2581saseka": 1559,
  "\u2581tirhise": 1560,
  "si": 1561,
  "\u2581Africa": 1562,
  "\u2581humelelaka": 1563,
  "\u2581tekelela": 1564,
  "\u2581Roman": 1565,
  "\u258113:": 1566,
  "\u2581Will": 1567,
  "\u2581Nhlamuselo": 1568,
  "\u2581langutela": 1569,
  "\u258113,": 1570,
  "\u2581alone": 1571,
  "\u2581rather": 1572,
  "\u2581yaka": 1573,
  "\u2581Vakriste": 1574,
  "\u2581Rhoma": 1575,
  "\u2581fully": 1576,
  "\u2581leswo": 1577,
  "\u2581stand": 1578,
  "\u2581using": 1579,
  "\u2581ntshikilelo": 1580,
  "\u2581months": 1581,
  "\u2581makwerhu": 1582,
  "\u2581written": 1583,
  "\u2581spiritually": 1584,
  "\u258119,": 1585,
  "\u2581Solomoni": 1586,
  "\u2581common": 1587,
  "\u2581mpfhuka": 1588,
  "\u2581mindyangu": 1589,
  "\u2581lost": 1590,
  "\u2581within": 1591,
  "\u258123.": 1592,
  "\u2581KU": 1593,
  "\u2581million": 1594,
  "\u2581pioneer": 1595,
  "\u2581rini": 1596,
  "\u258122.": 1597,
  "\u2581Wena": 1598,
  "\u2581provided": 1599,
  "\u2581tele": 1600,
  "\u2581totiweke": 1601,
  "\u2581greater": 1602,
  "\u2581tshembekaka": 1603,
  "\u2581byin": 1604,
  "\u2581slave": 1605,
  "\u2581ntwanano": 1606,
  "\u2581embilwini": 1607,
  "\u2581Witness": 1608,
  "\u2581rule": 1609,
  "eni": 1610,
  "\u2581qualities": 1611,
  "\u2581sayense": 1612,
  "\u2581Kumbexana": 1613,
  "\u2581shall": 1614,
  "\u2581tlakukeke": 1615,
  "\u2581perhaps": 1616,
  "\u2581fanekisela": 1617,
  "\u2581serious": 1618,
  "\u2581ago": 1619,
  "\u2581meeting": 1620,
  "\u2581Nkarhi": 1621,
  "\u2581friend": 1622,
  "\u2581inspired": 1623,
  "\u2581five": 1624,
  ",...": 1625,
  "\u2581accept": 1626,
  "\u2581tindzimi": 1627,
  "\u2581meaning": 1628,
  "\u2581xivutiso": 1629,
  "\u2581Devil": 1630,
  "\u2581mirhi": 1631,
  "an": 1632,
  "\u2581lonkulu": 1633,
  "\u2581born": 1634,
  "\u2581vanga": 1635,
  "\u258137": 1636,
  "\u2581die": 1637,
  "\u2581kept": 1638,
  "\u2581itself": 1639,
  "\u2581vulawuri": 1640,
  "\u2581hileswaku": 1641,
  "\u2581True": 1642,
  "\u2581Mary": 1643,
  "\u2581R": 1644,
  "\u2581Vo": 1645,
  "\u2581lived": 1646,
  "\u2581kongomeke": 1647,
  "You": 1648,
  "\u2581muprofeta": 1649,
  "\u2581La": 1650,
  "\u2581government": 1651,
  "\u2581modern": 1652,
  "\u2581sisters": 1653,
  "\u2581W": 1654,
  "\u2581tindhawu": 1655,
  "\u2581anything": 1656,
  "\u2581Line": 1657,
  "\u2581mfanelo": 1658,
  "\u2581Diyavulosi": 1659,
  "\u2581sivela": 1660,
  "\u258117,": 1661,
  "\u2581tsundzuxa": 1662,
  "\u2581heavens": 1663,
  "\u2581swiendlakalo": 1664,
  "\u2581congregations": 1665,
  "\u2581matsalwa": 1666,
  "O": 1667,
  "\u2581K": 1668,
  "\u2581wonderful": 1669,
  "\u2581mafambiselo": 1670,
  "\u2581maxangu": 1671,
  "\u2581sekeriwe": 1672,
  "\u2581xaniseka": 1673,
  "\u2581kereke": 1674,
  "\u2581ntolovelo": 1675,
  "\u2581phindha": 1676,
  "\u2581area": 1677,
  "\u2581vatirhi": 1678,
  "\u2581forever": 1679,
  "\u2581tikomba": 1680,
  "\u2581got": 1681,
  "\u2581khuvuriwa": 1682,
  "\u258132": 1683,
  "\u2581effort": 1684,
  "\u2581hearts": 1685,
  "\u02b9": 1686,
  "\u2581xikolo": 1687,
  "\u2581hlamarisa": 1688,
  "\u2581sister": 1689,
  "\u2581F": 1690,
  "\u2581madzolonga": 1691,
  "\u2581vulavule": 1692,
  "\u2581speaking": 1693,
  "\u2581tlhariha": 1694,
  "\u2581strength": 1695,
  "\u2581vaaki": 1696,
  "\u2581mihandzu": 1697,
  "\u258124.": 1698,
  "\u2581circumstances": 1699,
  "\u2581witness": 1700,
  "\u2581file": 1701,
  "\u2581tivutisa": 1702,
  "\u2581promise": 1703,
  "\u2581Box": 1704,
  "\u2581Xiheveru": 1705,
  "\u2581endlela": 1706,
  "\u2581mintlhaveko": 1707,
  "\u2581mikateko": 1708,
  "\u2581pfune": 1709,
  "\u2581lowunene": 1710,
  "\u2581yima": 1711,
  "\u2581swiboho": 1712,
  "\u2581Indeed": 1713,
  "\u2581explained": 1714,
  "\u2581held": 1715,
  "\u2581tintsumi": 1716,
  "\u2581continued": 1717,
  "\u2581understanding": 1718,
  "\u2581avanyisa": 1719,
  "\u2581mana": 1720,
  "\u2581gain": 1721,
  "\u2581Handle": 1722,
  "\u2581pages": 1723,
  "\u2581swivangelo": 1724,
  "\u2581honor": 1725,
  "\u2581ntokoto": 1726,
  "\u2581hala": 1727,
  "\u2581hinkwaro": 1728,
  "\u2581nwa": 1729,
  "\u2581magazine": 1730,
  "\u2581Great": 1731,
  "\u2581P": 1732,
  "\u2581swidyoho": 1733,
  "\u2581nkhensa": 1734,
  "\u2581efforts": 1735,
  "\u2581mavabyi": 1736,
  "\u2581hands": 1737,
  "\u2581tirhisaka": 1738,
  "ne": 1739,
  "\u2581deep": 1740,
  "\u2581everything": 1741,
  "\u2581older": 1742,
  "\u2581powerful": 1743,
  "\u2581risima": 1744,
  "\u2581Bibeleni": 1745,
  "\u2581effect": 1746,
  "\u2581explains": 1747,
  "\u2581regarding": 1748,
  "\u2581hear": 1749,
  "lo": 1750,
  "\u2581judgment": 1751,
  "\u2581Laha": 1752,
  "\u2581spoke": 1753,
  "\u2581Mark": 1754,
  "\u2581prayers": 1755,
  "\u2581tihanyi": 1756,
  "\u2581Hakanyingi": 1757,
  "\u2581Endzhakunyana": 1758,
  "\u2581goza": 1759,
  "\u2581Like": 1760,
  "most": 1761,
  "\u2581rixaka": 1762,
  "\u2581millions": 1763,
  "\u258120,": 1764,
  "\u2581Lonkulu": 1765,
  "\u2581vumundzuku": 1766,
  "\u2581dyondze": 1767,
  "\u2581forth": 1768,
  "\u2581godly": 1769,
  "\u2581Hlaya": 1770,
  "\u2581Yo": 1771,
  "\u2581glory": 1772,
  "\u2581tinyimpfu": 1773,
  "\u2581gift": 1774,
  "\u258170": 1775,
  "\u2581matimu": 1776,
  "\u2581Vutomi": 1777,
  "\u2581hoxeke": 1778,
  "\u2581Hence": 1779,
  "\u2581exikolweni": 1780,
  "\u2581Did": 1781,
  "\u2581swonghasi": 1782,
  "\u2581Bokisi": 1783,
  "\u2581tsevu": 1784,
  "Xikwembu": 1785,
  "\u2581deal": 1786,
  "sa": 1787,
  "\u2581visit": 1788,
  "\u2581dzunisa": 1789,
  "\u2581issue": 1790,
  "\u2581misinya": 1791,
  "\u2581blessing": 1792,
  "\u2581led": 1793,
  "\u2581less": 1794,
  "\u2581hlamusele": 1795,
  "\u2581South": 1796,
  "\u2581\u25cf": 1797,
  "nyana": 1798,
  "\u2581hambaneke": 1799,
  "\u2581lavakulu": 1800,
  "\u2581events": 1801,
  "\u2581whose": 1802,
  "\u2581Instead": 1803,
  "\u2581tshameke": 1804,
  "\u2581doubt": 1805,
  "\u2581period": 1806,
  "\u2581named": 1807,
  "\u2581comfort": 1808,
  "\u2581enough": 1809,
  "\u2581lamakulu": 1810,
  "\u2581vusiku": 1811,
  "\u2581covenant": 1812,
  "\u2581tsakile": 1813,
  "\u2581above": 1814,
  "ers": 1815,
  "\u2581field": 1816,
  "\u2581please": 1817,
  "\u2581stated": 1818,
  "\u2581phayona": 1819,
  "\u2581letter": 1820,
  "\u2581Nowa": 1821,
  "\u2581several": 1822,
  "\u2581seem": 1823,
  "\u2581value": 1824,
  "\u2581yoloye": 1825,
  "\u2581tiyimisela": 1826,
  "\u2581Noah": 1827,
  "\u2581standards": 1828,
  "\u2581open": 1829,
  "\u2581angels": 1830,
  "\u2581hold": 1831,
  "\u2581English": 1832,
  "\u2581emalembeni": 1833,
  "or": 1834,
  "\u2581freedom": 1835,
  "ngiki": 1836,
  "\u2581class": 1837,
  "\u2581promises": 1838,
  "\u2581vutshunguri": 1839,
  "\u2581activity": 1840,
  "\u2581HI": 1841,
  "\u2581various": 1842,
  "\u2581opportunity": 1843,
  "\u2581move": 1844,
  "\u2581examples": 1845,
  "\u258118,": 1846,
  "\u2581Gilead": 1847,
  "\u2581remember": 1848,
  "\u2581Awake": 1849,
  "\u2581moral": 1850,
  "\u2581pain": 1851,
  "\u2581manana": 1852,
  "\u2581mavoko": 1853,
  "\u2581tingana": 1854,
  "\u2581ba": 1855,
  "\u2581confidence": 1856,
  "\u2581H": 1857,
  "\u2581Ntirho": 1858,
  "\u2581head": 1859,
  "\u2581violence": 1860,
  "\u2581nyiko": 1861,
  "\u2581considered": 1862,
  "\u2581families": 1863,
  "\u2581natural": 1864,
  "\u2581Most": 1865,
  "\u2581draw": 1866,
  "\u2581xichavo": 1867,
  "loko": 1868,
  "\u258122,": 1869,
  "\u2581Vatswari": 1870,
  "\u2581helps": 1871,
  "\u2581accepted": 1872,
  "\u2581endli": 1873,
  "\u2581happened": 1874,
  "\u2581prove": 1875,
  "\u2581ala": 1876,
  "\u2581served": 1877,
  "\u2581vuhosi": 1878,
  "\u2581influence": 1879,
  "\u2581easy": 1880,
  "\u2581Daniyele": 1881,
  "\u2581vapfumeri": 1882,
  "\u2581vital": 1883,
  "\u2581xihatla": 1884,
  "\u2581tsandzeka": 1885,
  "\u2581vafi": 1886,
  "\u2581vamakwavo": 1887,
  "\u2581al": 1888,
  "\u2581students": 1889,
  "\u2581listen": 1890,
  "\u2581swichudeni": 1891,
  "\u2581Scriptural": 1892,
  "\u2581ndzima": 1893,
  "\u2581magazini": 1894,
  "\u2581published": 1895,
  "\u2581six": 1896,
  "\u2581apply": 1897,
  "ic": 1898,
  "\u2581lulameke": 1899,
  "\u2581fambaka": 1900,
  "\u2581Babilona": 1901,
  "\u2581Babylon": 1902,
  "\u2581preach": 1903,
  "\u2581vululami": 1904,
  "ro": 1905,
  "\u2581Jeremiah": 1906,
  "God": 1907,
  "\u2581xinuna": 1908,
  "\u2581role": 1909,
  "\u2581lands": 1910,
  "\u2581tekiwa": 1911,
  "\u2581described": 1912,
  "\u2581privilege": 1913,
  "\u2581tried": 1914,
  "\u2581ponisa": 1915,
  "\u2581changed": 1916,
  "\u2581Samuel": 1917,
  "\u2581Yosefa": 1918,
  "Mi": 1919,
  "\u2581loyal": 1920,
  "\u2581nhluvuko": 1921,
  "\u2581affect": 1922,
  "\u2581boheka": 1923,
  "\u2581ten": 1924,
  "\u2581birth": 1925,
  "\u2581available": 1926,
  "\u2581offer": 1927,
  "\u2581tiphina": 1928,
  "\u2581See": 1929,
  "\u2581G": 1930,
  "\u2581Mesiya": 1931,
  "\u2581Read": 1932,
  "\u2581poor": 1933,
  "\u2581Swilo": 1934,
  "\u2581Still": 1935,
  "\u2581de": 1936,
  "\u2581yexe": 1937,
  "\u2581proved": 1938,
  "\u2581rihi": 1939,
  "\u2581flesh": 1940,
  "\u2581working": 1941,
  "\u2581worldwide": 1942,
  "\u2581susa": 1943,
  "\u2581blessings": 1944,
  "\u2581endzeni": 1945,
  "\u258125.": 1946,
  "\u2581branch": 1947,
  "\u2581actually": 1948,
  "\u2581chapter": 1949,
  "\u2581Or": 1950,
  "\u2581karhateka": 1951,
  "\u2581koteka": 1952,
  "\u2581single": 1953,
  "se": 1954,
  "\u2581thousands": 1955,
  "\u2581source": 1956,
  "\u258134": 1957,
  "\u2581answers": 1958,
  "\u2581sexual": 1959,
  "\u258160": 1960,
  "\u2581hundza": 1961,
  "\u2581clean": 1962,
  "\u2581murhi": 1963,
  "ya": 1964,
  "Xana": 1965,
  "Jehovah": 1966,
  "\u2581Another": 1967,
  "\u2581decision": 1968,
  "\u2581Hall": 1969,
  "\u2581indeed": 1970,
  "\u2581vukhale": 1971,
  "\u2581don": 1972,
  "\u2581ekhombyeni": 1973,
  "\u2581minhlangano": 1974,
  "\u2581miles": 1975,
  "\u2581tatana": 1976,
  "\u2581foretold": 1977,
  "\u2581jaha": 1978,
  "\u2581teachings": 1979,
  "\u2581books": 1980,
  "\u2581else": 1981,
  "\u2581swikwembu": 1982,
  "\u2581xanisiwa": 1983,
  "\u2581couple": 1984,
  "\u2581First": 1985,
  "\u2581instance": 1986,
  "hwa": 1987,
  "\u2581willing": 1988,
  "\u2581xiendlakalo": 1989,
  "\u2581youths": 1990,
  "\u2581sins": 1991,
  "\u2581Mhaka": 1992,
  "\u2581position": 1993,
  "\u2581rest": 1994,
  "\u2581everyone": 1995,
  "\u2581andza": 1996,
  "\u2581maintain": 1997,
  "\u2581swihoxo": 1998,
  "\u2581clearly": 1999,
  "\u2581vamani": 2000,
  "\u2581100": 2001,
  "us": 2002,
  "\u2581hours": 2003,
  "\u2581vonakala": 2004,
  "\u2581walk": 2005,
  "R": 2006,
  "\u2581seek": 2007,
  "\u2581kumeke": 2008,
  "\u2581met": 2009,
  "\u2581text": 2010,
  "\u2581dyi": 2011,
  "\u2581tikhilomitara": 2012,
  "\u2581activities": 2013,
  "\u2581vuyimbeleri": 2014,
  "\u2581April": 2015,
  "\u2581xisweswo": 2016,
  "\u2581destruction": 2017,
  "\u2581leswikulu": 2018,
  "\u2581endzhakunyana": 2019,
  "\u2581ransom": 2020,
  "\u2581kumaka": 2021,
  "\u2581swakwe": 2022,
  "\u2581responsibility": 2023,
  "\u2581Egypt": 2024,
  "\u2581meet": 2025,
  "\u2581vukheta": 2026,
  "\u2581ndzimana": 2027,
  "\u2581tiyimisele": 2028,
  "\u2581ability": 2029,
  "\u2581created": 2030,
  "\u2581lwela": 2031,
  "\u2581force": 2032,
  "\u2581Manana": 2033,
  "\u2581crowd": 2034,
  "\u2581War": 2035,
  "\u2581vuya": 2036,
  "\u2581build": 2037,
  "\u2581laveka": 2038,
  "\u2581kombele": 2039,
  "\u2581feet": 2040,
  "\u2581advice": 2041,
  "\u2581vuyeriwa": 2042,
  "\u2581Dyondzo": 2043,
  "\u2581hulumendhe": 2044,
  "\u2581appointed": 2045,
  "\u2581myself": 2046,
  "\u2581Vukriste": 2047,
  "\u2581accurate": 2048,
  "\u2581Christendom": 2049,
  "\u2581entire": 2050,
  "\u2581tivaka": 2051,
  "\u2581Xo": 2052,
  "\u2581gandzelo": 2053,
  "\u2581Yeremiya": 2054,
  "\u2581eat": 2055,
  "\u2581nyikeke": 2056,
  "te": 2057,
  "\u2581imitate": 2058,
  "\u2581regular": 2059,
  "\u2581promised": 2060,
  "p": 2061,
  "\u2581centuries": 2062,
  "\u2581tiawara": 2063,
  "\u2581baptism": 2064,
  "\u2581d": 2065,
  "\u2581laws": 2066,
  "\u2581learning": 2067,
  "\u2581Internet": 2068,
  "\u2581appropriate": 2069,
  "\u2581vumunhu": 2070,
  "\u2581xileriso": 2071,
  "\u2581Just": 2072,
  "\u2581recorded": 2073,
  "\u2581amukele": 2074,
  "\u2581nyikaka": 2075,
  "ness": 2076,
  "\u258114:": 2077,
  "\u2581Afrika": 2078,
  "\u2581Lowu": 2079,
  "\u2581complete": 2080,
  "\u2581Later": 2081,
  "\u2581varhumiwa": 2082,
  "\u2581write": 2083,
  "\u2581Huvo": 2084,
  "\u2581anger": 2085,
  "\u2581appreciation": 2086,
  "\u2581lwandle": 2087,
  "\u2581Nyimpi": 2088,
  "\u2581Tract": 2089,
  "\u2581earlier": 2090,
  "\u2581rivalela": 2091,
  "\u2581tiya": 2092,
  "\u2581earthly": 2093,
  "M": 2094,
  "\u2581xava": 2095,
  "\u2581least": 2096,
  "\u2581political": 2097,
  "\u2581reach": 2098,
  "\u2581vulavurisana": 2099,
  "\u2581carry": 2100,
  "\u2581neither": 2101,
  "\u2581report": 2102,
  "\u2581places": 2103,
  "\u2581justice": 2104,
  "\u2581mintlawa": 2105,
  "\u2581former": 2106,
  "\u2581Bethel": 2107,
  "\u2581'?": 2108,
  "\u2581kongomisa": 2109,
  "\u2581convention": 2110,
  "k": 2111,
  "ve": 2112,
  "\u2581nkutsulo": 2113,
  "\u2581Church": 2114,
  "\u2581building": 2115,
  "\u2581endliwaka": 2116,
  "\u2581hiseka": 2117,
  "\u2581offered": 2118,
  "\u2581tiyisekisa": 2119,
  "\u2581creation": 2120,
  "\u2581lulamisa": 2121,
  "\u25817]": 2122,
  "Hlaya": 2123,
  "\u2581Tsundzuka": 2124,
  "\u2581thoughts": 2125,
  "\u2581office": 2126,
  "\u2581manharhu": 2127,
  "\u2581xirho": 2128,
  "\u2581believers": 2129,
  "\u2581harmony": 2130,
  "\u2581swikhongelo": 2131,
  "\u2581xiye": 2132,
  "\u2581tempele": 2133,
  "\u2581half": 2134,
  "\u2581direction": 2135,
  "\u2581shown": 2136,
  "\u2581tihi": 2137,
  "\u2581Kumbe": 2138,
  "\u2581dlayiwa": 2139,
  "\u2581masocha": 2140,
  "\u2581seven": 2141,
  "\u2581Loyi": 2142,
  "\u2581hinkwerhu": 2143,
  "\u2581job": 2144,
  "\u2581L": 2145,
  "\u2581kule": 2146,
  "\u2581results": 2147,
  "\u2581voko": 2148,
  "\u2581short": 2149,
  "\u2581start": 2150,
  "\u2581takes": 2151,
  "\u2581Vantshwa": 2152,
  "\u2581minister": 2153,
  "\u2581Kahle": 2154,
  "\u2581grow": 2155,
  "\u2581vilela": 2156,
  "\u2581exihlokweni": 2157,
  "\u2581nkombo": 2158,
  "\u2581xisekelo": 2159,
  "\u2581tikarhatela": 2160,
  "\u2581humeleleke": 2161,
  "\u2581regard": 2162,
  "\u2581changes": 2163,
  "\u2581endlwini": 2164,
  "\u2581subject": 2165,
  "\u2581fulfillment": 2166,
  "hloko": 2167,
  "Read": 2168,
  "\u2581miringo": 2169,
  "\u2581returned": 2170,
  "\u2581Mina": 2171,
  "\u2581salvation": 2172,
  "\u2581tshembekile": 2173,
  "\u2581Eve": 2174,
  "\u2581fambisanaka": 2175,
  "\u2581tshuki": 2176,
  "\u2581Phela": 2177,
  "\u2581papila": 2178,
  "\u2581concern": 2179,
  "\u2581stay": 2180,
  "\u2581throughout": 2181,
  "\u2581Evha": 2182,
  "\u2581disease": 2183,
  "\u2581xitshembiso": 2184,
  "Moreover": 2185,
  "\u2581literature": 2186,
  "\u2581psalmist": 2187,
  "\u2581caused": 2188,
  "\u2581ndzilo": 2189,
  "\u2581September": 2190,
  "\u2581daughter": 2191,
  "\u2581experienced": 2192,
  "\u2581tinxaka": 2193,
  "\u2581yingisela": 2194,
  "mi": 2195,
  "\u2581side": 2196,
  "\u2581getting": 2197,
  "\u2581leaders": 2198,
  "\u2581ponisiwa": 2199,
  "\u2581seems": 2200,
  "\u2581wants": 2201,
  "\u2581Have": 2202,
  ":\"": 2203,
  "\u2581determined": 2204,
  "\u2581praise": 2205,
  "\u2581stop": 2206,
  "\u2581conscience": 2207,
  "\u2581decided": 2208,
  "\u2581animals": 2209,
  "\u2581appreciate": 2210,
  "\u2581riendzo": 2211,
  "\u2581attend": 2212,
  "\u2581makhombo": 2213,
  "\u2581occasion": 2214,
  "\u2581bula": 2215,
  "\u2581tlanga": 2216,
  "\u2581hungu": 2217,
  "\u2581reasons": 2218,
  "\u2581develop": 2219,
  "\u2581elder": 2220,
  "\u2581susumetela": 2221,
  "h": 2222,
  "\u2581missionary": 2223,
  "\u2581ripfalo": 2224,
  "\u2581kala": 2225,
  "\u2581km": 2226,
  "\u2581basis": 2227,
  "\u2581Footnote": 2228,
  "\u2581interested": 2229,
  "\u2581nyikiwa": 2230,
  "\u2581sometimes": 2231,
  "\u2581practice": 2232,
  "\u2581prison": 2233,
  "\u2581tree": 2234,
  "\u2581decisions": 2235,
  "\u2581door": 2236,
  "\u2581morning": 2237,
  "\u2581vutshila": 2238,
  "\u2581nsimu": 2239,
  "\u2581Therefore": 2240,
  "\u2581education": 2241,
  "\u2581hlundzuka": 2242,
  "\u2581Anakanya": 2243,
  "\u2581mahlweni": 2244,
  "\u2581kakwe": 2245,
  "\u2581added": 2246,
  "\u2581action": 2247,
  "\u2581m": 2248,
  "\u2581parts": 2249,
  "\u2581training": 2250,
  "\u2581raised": 2251,
  "\u2581Endla": 2252,
  "\u2581etimhakeni": 2253,
  "\u2581valala": 2254,
  "\u2581pfuniwa": 2255,
  "\u2581Though": 2256,
  "\u2581rich": 2257,
  "\u2581turned": 2258,
  "\u2581usually": 2259,
  "\u2581vafundhisi": 2260,
  "\u2581include": 2261,
  "\u2581miehleketo": 2262,
  "\u2581nandza": 2263,
  "\u2581state": 2264,
  "\u2581proper": 2265,
  "\u2581necessary": 2266,
  "\u2581sea": 2267,
  "\u2581social": 2268,
  "\u2581Matiko": 2269,
  "\u2581Ntiyiso": 2270,
  "\u2581daily": 2271,
  "\u2581\u00a9": 2272,
  "\u2581fike": 2273,
  "\u2581behind": 2274,
  "\u2581Brother": 2275,
  "\u258129.": 2276,
  "\u2581Mariya": 2277,
  "\u2581integrity": 2278,
  "\u2581regularly": 2279,
  "\u2581exercise": 2280,
  "\u2581December": 2281,
  "\u2581evil": 2282,
  "\u2581varhangeri": 2283,
  "st": 2284,
  "\u2581ensin": 2285,
  "\u2581tells": 2286,
  "\u2581Britain": 2287,
  "\u2581Hina": 2288,
  "\u2581helping": 2289,
  "\u2581vukanganyisi": 2290,
  "\u2581Holy": 2291,
  "\u2581precious": 2292,
  "\u2581eYerusalema": 2293,
  "\u2581paradise": 2294,
  "\u2581Khatoliki": 2295,
  "\u2581Vujagana": 2296,
  "\u2581kurisa": 2297,
  "\u2581program": 2298,
  "\u2581lehisa": 2299,
  "\u2581Yena": 2300,
  "\u2581tsana": 2301,
  "\u2581Australia": 2302,
  "\u2581Rirhandzu": 2303,
  "\u2581languages": 2304,
  "\u2581sign": 2305,
  "\u2581xandla": 2306,
  "\u2581pay": 2307,
  "\u2581practical": 2308,
  "\u2581week": 2309,
  "\u2581assignment": 2310,
  "\u2581individual": 2311,
  "\u2581velekiwa": 2312,
  "\u2581mulanguteri": 2313,
  "\u258121:": 2314,
  "\u2581kanakanisi": 2315,
  "T": 2316,
  "\u2581vagandzeri": 2317,
  "\u2581Nevertheless": 2318,
  "\u2581\u0160ikwembu": 2319,
  "\u2581nghenisa": 2320,
  "\u2581nyikele": 2321,
  "D": 2322,
  "\u2581August": 2323,
  "\u2581Byi": 2324,
  "\u2581letinene": 2325,
  "\u2581Njhani": 2326,
  "\u2581encouraged": 2327,
  "\u2581endliwe": 2328,
  "\u2581lack": 2329,
  "\u2581nikatsongo": 2330,
  "\u2581Vaefesa": 2331,
  "\u2581tikela": 2332,
  "\u2581allowed": 2333,
  "\u2581etlela": 2334,
  "\u2581fire": 2335,
  "\u2581realize": 2336,
  "\u2581Further": 2337,
  "\u2581kandziyisa": 2338,
  "\u2581titwaka": 2339,
  "\u2581Before": 2340,
  "\u2581wonder": 2341,
  "ll": 2342,
  "\u2581Ephesians": 2343,
  "\u2581Xihlovo": 2344,
  "\u2581beginning": 2345,
  "\u2581obey": 2346,
  "\u258128.": 2347,
  "\u2581Others": 2348,
  "en": 2349,
  "\u2581nkulumo": 2350,
  "alunghana": 2351,
  "\u258124,": 2352,
  "\u2581hisa": 2353,
  "\u2581ndzhaka": 2354,
  "\u2581followed": 2355,
  "\u2581swiambalo": 2356,
  "\u2581music": 2357,
  "\u2581voneke": 2358,
  "\u2581Yuropa": 2359,
  "\u2581khutaze": 2360,
  "\u2581tivisa": 2361,
  "\u2581antswisa": 2362,
  "\u2581milenge": 2363,
  "\u2581nhlomulo": 2364,
  "\u2581becoming": 2365,
  "\u2581knows": 2366,
  "\u2581Kunene": 2367,
  "\u2581rhumela": 2368,
  "\u2581mu": 2369,
  "\u2581mangani": 2370,
  "\u2581Yuda": 2371,
  "\u2581rhanga": 2372,
  "\u2581ekhotsweni": 2373,
  "\u2581suffer": 2374,
  "\u2581More": 2375,
  "\u2581respond": 2376,
  "\u2581kulorhi": 2377,
  "\u2581sun": 2378,
  "\u2581Messiah": 2379,
  "\u2581lavekaka": 2380,
  "\u2581Judah": 2381,
  "\u2581girl": 2382,
  "\u2581image": 2383,
  "\u2581endleleni": 2384,
  "\u2581kombetela": 2385,
  "\u2581\u25c6": 2386,
  "We": 2387,
  "\u2581October": 2388,
  "\u2581hakela": 2389,
  "\u2581speech": 2390,
  "\u2581tihosi": 2391,
  "\u2581line": 2392,
  "\u2581hlakulela": 2393,
  "\u2581happen": 2394,
  "\u2581l": 2395,
  "\u2581About": 2396,
  "\u2581vini": 2397,
  "yi": 2398,
  "\u2581lahlekeriwa": 2399,
  "\u2581vaprista": 2400,
  "\u2581Marka": 2401,
  "\u2581pressure": 2402,
  "\u2581tinyimpi": 2403,
  "\u2581invited": 2404,
  "ona": 2405,
  "\u2581member": 2406,
  "\u2581conditions": 2407,
  "\u2581pfuka": 2408,
  "\u2581record": 2409,
  "man": 2410,
  "\u2581areas": 2411,
  "\u2581hete": 2412,
  "\u2581onha": 2413,
  "\u2581vutshembeki": 2414,
  "\u2581addition": 2415,
  "\u2581ebukwini": 2416,
  "is": 2417,
  "\u2581V": 2418,
  "P": 2419,
  "\u2581discipline": 2420,
  "\u2581expression": 2421,
  "\u2581swivumbiwa": 2422,
  "\u2581greatest": 2423,
  "\u2581sweswinyana": 2424,
  "\u2581vumba": 2425,
  "\u2581sex": 2426,
  "ha": 2427,
  "\u2581mate": 2428,
  "\u2581ntwela": 2429,
  "\u2581Ezekiel": 2430,
  "\u258121,": 2431,
  "\u2581American": 2432,
  "\u2581huhuteriweke": 2433,
  "\u2581parent": 2434,
  "\u2581personality": 2435,
  "\u2581tsakelaka": 2436,
  "ko": 2437,
  "\u2581beyond": 2438,
  "\u2581feeling": 2439,
  "\u2581March": 2440,
  "\u2581condition": 2441,
  "\u2581nghenela": 2442,
  "\u2581tipolitiki": 2443,
  "\u2581sound": 2444,
  "leke": 2445,
  "\u2581fulfilled": 2446,
  "\u2581nyingiso": 2447,
  "\u2581Xalamuka": 2448,
  "\u2581priest": 2449,
  "\u2581seeking": 2450,
  "\u2581studying": 2451,
  "H": 2452,
  "\u2581provides": 2453,
  "\u2581showing": 2454,
  "\u2581quickly": 2455,
  "\u2581arrived": 2456,
  "\u2581expect": 2457,
  "\u2581mavonelo": 2458,
  "\u2581tinharhu": 2459,
  "\u2581challenge": 2460,
  "\u2581ntshungu": 2461,
  "\u258128:": 2462,
  "\u2581Mu": 2463,
  "\u2581kunene": 2464,
  "\u2581voice": 2465,
  "\u2581protect": 2466,
  "\u2581swidzidzirisi": 2467,
  "\u2581Where": 2468,
  "\u2581positive": 2469,
  "\u2581Footnotes": 2470,
  "\u2581swimbirhi": 2471,
  "\u258123]": 2472,
  "\u2581walking": 2473,
  "xi": 2474,
  "\u2581nhlamulo": 2475,
  "\u2581Saul": 2476,
  "\u2581vahuweleri": 2477,
  "\u2581worked": 2478,
  "\u2581langutele": 2479,
  "\u2581mavandlha": 2480,
  "\u2581choose": 2481,
  "\u2581lunghiselela": 2482,
  "\u2581priests": 2483,
  "he": 2484,
  "\u2581Love": 2485,
  "\u2581enjoyed": 2486,
  "\u2581strengthen": 2487,
  "\u2581either": 2488,
  "\u2581rila": 2489,
  "\u258131.": 2490,
  "\u2581hlasela": 2491,
  "\u2581pfuxa": 2492,
  "It": 2493,
  "\u2581beautiful": 2494,
  "\u2581etlhelo": 2495,
  "\u2581timali": 2496,
  "\u2581Sungula": 2497,
  "\u2581nhwanyana": 2498,
  "\u2581January": 2499,
  "\u2581endure": 2500,
  "\u2581traveling": 2501,
  "mu": 2502,
  "\u2581actions": 2503,
  "\u2581mutswari": 2504,
  "\u2581Ask": 2505,
  "\u2581devotion": 2506,
  "\u2581original": 2507,
  "\u2581vitaniwaka": 2508,
  "\u2581guidance": 2509,
  "\u2581koloko": 2510,
  "\u2581Perhaps": 2511,
  "\u2581looking": 2512,
  "\u2581medical": 2513,
  "\u2581cases": 2514,
  "\u2581tshahiweke": 2515,
  "\u2581warning": 2516,
  "\u2581noted": 2517,
  "\u2581reported": 2518,
  "\u2581Christianity": 2519,
  "\u2581fanerile": 2520,
  "\u2581nature": 2521,
  "\u2581reports": 2522,
  "\u2581recent": 2523,
  "\u2581trying": 2524,
  "\u2581vutianakanyi": 2525,
  "\u2581xivumbeko": 2526,
  "\u2581tribulation": 2527,
  "\u2581beliefs": 2528,
  "\u2581ekule": 2529,
  "\u2581tirhisana": 2530,
  "\u2581Soon": 2531,
  "\u2581completely": 2532,
  "\u2581Dr": 2533,
  "itweni": 2534,
  "\u2581related": 2535,
  "\u2581Swivutiso": 2536,
  "\u2581benefits": 2537,
  "\u2581pona": 2538,
  "\u2581Humaka": 2539,
  "\u2581tshike": 2540,
  "\u2581fambisa": 2541,
  "\u2581Ndza": 2542,
  "\u2581acts": 2543,
  "\u2581xihoxo": 2544,
  "\u2581Europe": 2545,
  "\u2581eventually": 2546,
  "\u2581prayed": 2547,
  "\u2581ready": 2548,
  "\u2581\u0161a": 2549,
  "\u2581Paradise": 2550,
  "\u2581security": 2551,
  "If": 2552,
  "\u2581Young": 2553,
  "\u2581presence": 2554,
  "\u2581youth": 2555,
  "\u258145": 2556,
  "\u2581Asia": 2557,
  "g": 2558,
  "\u2581hinkwako": 2559,
  "\u2581outside": 2560,
  "\u2581vunene": 2561,
  "\u2581doroba": 2562,
  "\u2581feni": 2563,
  "\u2581persons": 2564,
  "\u2581vunharhu": 2565,
  "\u2581blessed": 2566,
  "\u2581sacred": 2567,
  "\u258126.": 2568,
  "\u2581dumeke": 2569,
  "\u2581final": 2570,
  "\u2581\u015di": 2571,
  "\u2581Matimba": 2572,
  "\u2581angel": 2573,
  "\u2581ground": 2574,
  "\u2581spent": 2575,
  "\u2581June": 2576,
  "\u2581built": 2577,
  "\u2581endyangwini": 2578,
  "\u2581herisiwa": 2579,
  "\u2581mental": 2580,
  "\u2581month": 2581,
  "\u2581quality": 2582,
  "\u2581third": 2583,
  "\u2581studies": 2584,
  "\u2581filled": 2585,
  "\u2581School": 2586,
  "\u2581Keep": 2587,
  "\u2581begin": 2588,
  "\u2581fanela": 2589,
  "\u2581honisa": 2590,
  "\u2581interests": 2591,
  "\u2581society": 2592,
  "\u2581success": 2593,
  "\u2581AIDS": 2594,
  "\u2581Rome": 2595,
  "\u25811.": 2596,
  "\u25811914": 2597,
  "\u2581alive": 2598,
  "\u2581fall": 2599,
  "\u2581Sawulo": 2600,
  "\u2581missionaries": 2601,
  "\u2581mutsari": 2602,
  "\u2581byala": 2603,
  "\u2581chavelela": 2604,
  "\u2581hoxa": 2605,
  "as": 2606,
  "\u2581bear": 2607,
  "able": 2608,
  "\u25819]": 2609,
  "\u2581emotional": 2610,
  "\u2581\u00fa": 2611,
  "\u2581knowing": 2612,
  "\u2581humelele": 2613,
  "B": 2614,
  "\u2581July": 2615,
  "\u2581vangaka": 2616,
  "\u2581yourselves": 2617,
  "\u2581ndhavuko": 2618,
  "\u2581spend": 2619,
  "\u2581vekiweke": 2620,
  "\u2581favor": 2621,
  "\u2581vitana": 2622,
  "\u2581evutirhelini": 2623,
  "\u2581Similarly": 2624,
  "\u2581hlanganisa": 2625,
  "\u2581humble": 2626,
  "\u2581madzana": 2627,
  "\u2581tsalela": 2628,
  "\u2581vangiwa": 2629,
  "\u2581Samuwele": 2630,
  "\u2581tshinela": 2631,
  "\u2581Hambiloko": 2632,
  "\u2581tinhlamulo": 2633,
  "\u2581simple": 2634,
  "\u2581Xinghezi": 2635,
  "\u2581eminkarhini": 2636,
  "\u2581nxaniso": 2637,
  "See": 2638,
  "\u2581dedicated": 2639,
  "\u2581established": 2640,
  "\u2581khongelela": 2641,
  "\u2581meant": 2642,
  "\u2581muntshwa": 2643,
  "\u2581ehandle": 2644,
  "\u2581general": 2645,
  "\u2581masungulo": 2646,
  "\u2581imperfect": 2647,
  "\u258128,": 2648,
  "\u2581Children": 2649,
  "\u2581encourage": 2650,
  "\u2581Spain": 2651,
  "\u2581calls": 2652,
  "\u2581enemies": 2653,
  "\u2581nkarhinyana": 2654,
  "\u2581progress": 2655,
  "\u2581goal": 2656,
  "\u2581nyikiwe": 2657,
  "\u2581en": 2658,
  "\u2581Canada": 2659,
  "\u2581trials": 2660,
  "\u2581edorobeni": 2661,
  "\u2581explain": 2662,
  "\u2581servant": 2663,
  "\u2581express": 2664,
  "\u2581homes": 2665,
  "\u2581lot": 2666,
  "\u2581lovisiwa": 2667,
  "\u2581test": 2668,
  "\u2581IN": 2669,
  "\u2581major": 2670,
  "\u2581Kereke": 2671,
  "\u2581assigned": 2672,
  "\u2581tirhandzela": 2673,
  "\u2581whatever": 2674,
  "\u2581killed": 2675,
  "\u2581Remember": 2676,
  "\u2581groups": 2677,
  "\u2581business": 2678,
  "\u2581fruit": 2679,
  "\u258115]": 2680,
  "\u2581mercy": 2681,
  "\u2581revealed": 2682,
  "on": 2683,
  "\u2581Jacob": 2684,
  "-": 2685,
  "\u2581sick": 2686,
  "\u2581ana": 2687,
  "\u2581vitaniwa": 2688,
  "\u2581keeping": 2689,
  "\u2581siya": 2690,
  "\u2581lunghiselelo": 2691,
  "\u2581Vumbirhi": 2692,
  "\u2581developed": 2693,
  "\u2581emianakanyweni": 2694,
  "\u2581Amerika": 2695,
  "\u2581hunguta": 2696,
  "\u2581idea": 2697,
  "\u2581nhlangano": 2698,
  "\u2581term": 2699,
  "\u258165": 2700,
  "\u2581Sosayiti": 2701,
  "\u2581Yona": 2702,
  "\u2581venga": 2703,
  "\u2581address": 2704,
  "\u2581tengeke": 2705,
  "\u2581tindzimana": 2706,
  "\u258110]": 2707,
  "\u25814;": 2708,
  "\u2581passed": 2709,
  "Do": 2710,
  "\u2581expressed": 2711,
  "\u258130.": 2712,
  "\u2581St": 2713,
  "\u2581courage": 2714,
  "\u2581firm": 2715,
  "\u2581maphayona": 2716,
  "\u2581yimela": 2717,
  "\u2581Xikombiso": 2718,
  "\u2581encouragement": 2719,
  "\u2581mimoya": 2720,
  "\u2581vativi": 2721,
  "Yehovha": 2722,
  "\u2581rivala": 2723,
  "\u258136": 2724,
  "z": 2725,
  "\u2581deeply": 2726,
  "\u2581destroyed": 2727,
  "\u2581paradeyisi": 2728,
  "\u2581wisa": 2729,
  "\u2581History": 2730,
  "\u2581Malembe": 2731,
  "\u2581protection": 2732,
  "In": 2733,
  "\u2581dedication": 2734,
  "\u2581pfuneke": 2735,
  "LUKA": 2736,
  "\u2581emutini": 2737,
  "\u2581pfuni": 2738,
  "\u2581wives": 2739,
  "\u2581maxaka": 2740,
  "\u2581publishers": 2741,
  "\u2581Also": 2742,
  "\u2581Brooklyn": 2743,
  "\u2581Encyclopedia": 2744,
  "\u2581picture": 2745,
  "\u2581switshembiso": 2746,
  "\u2581tirhisiwaka": 2747,
  "\u2581emoyeni": 2748,
  "\u2581leyo": 2749,
  "\u2581mahlonga": 2750,
  "\u2581Well": 2751,
  "no": 2752,
  "\u2581November": 2753,
  "\u2581ahead": 2754,
  "\u2581katekisa": 2755,
  "\u2581Germany": 2756,
  "\u2581Mexico": 2757,
  "\u2581dokodela": 2758,
  "\u2581contact": 2759,
  "\u2581required": 2760,
  "\u2581prepared": 2761,
  "\u2581tiviwa": 2762,
  "\u2581Jarimani": 2763,
  "\u2581nkarhini": 2764,
  "\u2581town": 2765,
  "\u2581Nhlangano": 2766,
  "\u2581kings": 2767,
  "\u2581ringete": 2768,
  "\u2581standing": 2769,
  "\u2581teacher": 2770,
  "\u2581seemed": 2771,
  "kondza": 2772,
  "\u2581Kwetsima": 2773,
  "\u2581dyondzaka": 2774,
  "\u2581hlamarisi": 2775,
  "\u2581boy": 2776,
  "\u2581dyondzise": 2777,
  "\u2581kotile": 2778,
  "\u2581twe": 2779,
  "\u2581relief": 2780,
  "\u258114;": 2781,
  "\u2581included": 2782,
  "\u2581increase": 2783,
  "\u2581kukondza": 2784,
  "\u2581rolero": 2785,
  "\u2581Tinhlamuselo": 2786,
  "\u2581produce": 2787,
  "\u2581desires": 2788,
  "\u2581flock": 2789,
  "\u2581vutise": 2790,
  "\u2581fambiselo": 2791,
  "\u2581persecution": 2792,
  "\u2581pfumalaka": 2793,
  "\u2581observed": 2794,
  "\u2581rhavi": 2795,
  "\u2581active": 2796,
  "\u2581ntsumi": 2797,
  "\u2581treatment": 2798,
  "\u2581command": 2799,
  "\u2581titshege": 2800,
  "\u2581wela": 2801,
  "\u2581resurrected": 2802,
  "ation": 2803,
  "ga": 2804,
  "\u2581titwe": 2805,
  "\u2581overseer": 2806,
  "\u2581hambete": 2807,
  "\u2581nkucetelo": 2808,
  "\u2581behavior": 2809,
  "L": 2810,
  "\u2581Through": 2811,
  "\u258126]": 2812,
  "\u2581brings": 2813,
  "it": 2814,
  "org": 2815,
  "\u2581matilo": 2816,
  "\u2581Us": 2817,
  "\u2581hafu": 2818,
  "\u2581vangama": 2819,
  "\u2581vanharhu": 2820,
  "\u258127.": 2821,
  "\u2581Lebyi": 2822,
  "\u2581finally": 2823,
  "\u2581Times": 2824,
  "\u2581contrast": 2825,
  "\u2581forward": 2826,
  "3": 2827,
  "\u2581experiences": 2828,
  "\u258125]": 2829,
  "\u2581declared": 2830,
  "\u2581hour": 2831,
  "\u2581nileswaku": 2832,
  "\u2581pioneers": 2833,
  "\u2581Wanuna": 2834,
  "\u2581choice": 2835,
  "\u2581cities": 2836,
  "\u2581workers": 2837,
  "\u2581although": 2838,
  "\u2581movha": 2839,
  "\u2581vukona": 2840,
  "Let": 2841,
  "\u2581NGA": 2842,
  "\u2581behalf": 2843,
  "\u2581publications": 2844,
  "\u2581tinyeleti": 2845,
  "\u2581vision": 2846,
  "\u2581Man": 2847,
  "\u2581authorities": 2848,
  "\u2581ntsongo": 2849,
  "\u2581dyondzeke": 2850,
  "\u2581landzeleke": 2851,
  "\u2581pfumelaka": 2852,
  "\u2581Egipta": 2853,
  "\u2581room": 2854,
  "\u2581ndlala": 2855,
  "\u2581steps": 2856,
  "\u2581II": 2857,
  "\u2581PAGE": 2858,
  "\u2581chavisa": 2859,
  "\u2581Clearly": 2860,
  "\u2581genuine": 2861,
  "\u2581wahi": 2862,
  "\u2581existence": 2863,
  "\u2581mpatswa": 2864,
  "\u2581Each": 2865,
  "\u2581practices": 2866,
  "\u2581eR": 2867,
  "\u2581household": 2868,
  "\u2581Enkarhini": 2869,
  "\u2581mbewu": 2870,
  "\u2581heleni": 2871,
  "\u2581key": 2872,
  "\u2581Leri": 2873,
  "\u2581namarhela": 2874,
  "\u2581affection": 2875,
  "\u2581khumbaka": 2876,
  "\u2581twalaka": 2877,
  "less": 2878,
  "\u2581malunghiselelo": 2879,
  "\u2581play": 2880,
  "\u2581basic": 2881,
  "\u258135": 2882,
  "\u2581TV": 2883,
  "\u2581kombisiweke": 2884,
  "G": 2885,
  "\u2581hlonga": 2886,
  "\u2581kondlo": 2887,
  "\u2581letela": 2888,
  "\u2581realized": 2889,
  "\u2581suffered": 2890,
  "\u2581\u0161i": 2891,
  "\u2581Good": 2892,
  "\u2581khathala": 2893,
  "\u2581treat": 2894,
  "f": 2895,
  "\u258133.": 2896,
  "\u2581Brazil": 2897,
  "\u2581Version": 2898,
  "\u2581faced": 2899,
  "\u2581importance": 2900,
  "\u2581dyondzisaka": 2901,
  "\u2581unity": 2902,
  "\u2581xiavelo": 2903,
  "\u2581Translation": 2904,
  "\u2581risk": 2905,
  "\u2581carefully": 2906,
  "\u2581vika": 2907,
  "\u258110;": 2908,
  "\u2581Nilokoswiritano": 2909,
  "\u2581reflect": 2910,
  "\u2581xikarhi": 2911,
  "\u2581articles": 2912,
  "\u2581boheke": 2913,
  "\u2581LESWI": 2914,
  "\u2581quite": 2915,
  "\u2581Se": 2916,
  "\u2581cut": 2917,
  "\u2581sleep": 2918,
  "\u2581Time": 2919,
  "walungwini": 2920,
  "\u2581prevent": 2921,
  "\u2581principle": 2922,
  "\u2581Her": 2923,
  "\u2581Philippians": 2924,
  "\u2581Vafilipiya": 2925,
  "\u2581car": 2926,
  "\u2581chosen": 2927,
  "\u2581instead": 2928,
  "\u2581kan": 2929,
  "\u2581xiyekaka": 2930,
  "\u2581Ripfumelo": 2931,
  "\u2581goes": 2932,
  "\u2581visited": 2933,
  "\u2581kombiseke": 2934,
  "\u2581sort": 2935,
  "\u2581spread": 2936,
  "\u2581teto": 2937,
  "ce": 2938,
  "\u2581Tiko": 2939,
  "\u2581lowuntshwa": 2940,
  "\u2581nkandziyiso": 2941,
  "\u2581abuse": 2942,
  "\u2581involves": 2943,
  "\u2581rhandzekaka": 2944,
  "ur": 2945,
  "\u2581byebyo": 2946,
  "\u2581neighbor": 2947,
  "\u2581pure": 2948,
  "\u2581vadyondzisi": 2949,
  "He": 2950,
  "\u2581Was": 2951,
  "\u2581mafurha": 2952,
  "\u2581pfunile": 2953,
  "\u2581basa": 2954,
  "\u2581spoken": 2955,
  "\u2581universe": 2956,
  "more": 2957,
  "\u2581ndzhaku": 2958,
  "\u2581recognize": 2959,
  "1": 2960,
  "\u2581boxiweke": 2961,
  "\u2581chavisaka": 2962,
  "\u2581mixaka": 2963,
  "\u2581translation": 2964,
  "\u2581Testament": 2965,
  "\u2581aware": 2966,
  "\u2581cope": 2967,
  "\u2581tekaka": 2968,
  "\u2581tsalwa": 2969,
  "\u2581Sea": 2970,
  "\u2581hlawule": 2971,
  "\u2581air": 2972,
  "\u2581sacrifices": 2973,
  "\u2581hetisekangiki": 2974,
  "\u2581illustration": 2975,
  "\u2581truths": 2976,
  "\u258135.": 2977,
  "\u2581approach": 2978,
  "\u2581mahala": 2979,
  "\u2581maribye": 2980,
  "\u2581opened": 2981,
  "\u2581makwavo": 2982,
  "\u2581nongonoko": 2983,
  "\u2581takwe": 2984,
  "\u2581fight": 2985,
  "\u2581teachers": 2986,
  "\u2581chavaka": 2987,
  "\u2581verse": 2988,
  "\u258116;": 2989,
  "\u2581believed": 2990,
  "\u2581continues": 2991,
  "\u2581save": 2992,
  "For": 2993,
  "\u2581attended": 2994,
  "\u2581military": 2995,
  "\u2581tinyiko": 2996,
  "\u2581vugevenga": 2997,
  "\u2581Dzonga": 2998,
  "\u2581Should": 2999,
  "\u2581immediately": 3000,
  "\u2581nearly": 3001,
  "\u2581particularly": 3002,
  "V": 3003,
  "\u2581conclusion": 3004,
  "\u2581opposition": 3005,
  "\u2581bindzu": 3006,
  "\u2581growing": 3007,
  "\u2581hakelo": 3008,
  "\u2581500": 3009,
  "\u2581huwelela": 3010,
  "\u2581February": 3011,
  "\u2581gods": 3012,
  "\u2581loss": 3013,
  "\u2581mavito": 3014,
  "\u2581seed": 3015,
  "\u258118]": 3016,
  "\u2581hlamule": 3017,
  "\u2581mouth": 3018,
  "\u2581tipakani": 3019,
  "\u2581urged": 3020,
  "\u2581Eklesiasta": 3021,
  "\u2581danger": 3022,
  "\u2581drugs": 3023,
  "\u2581nhungu": 3024,
  "\u2581tsariwe": 3025,
  "\u2581Rungula": 3026,
  "\u2581huvo": 3027,
  "\u2581tiyile": 3028,
  "\u2581African": 3029,
  "\u2581race": 3030,
  "Vona": 3031,
  "\u2581Ecclesiastes": 3032,
  "\u2581onhaka": 3033,
  "\u2581swileriso": 3034,
  "\u2581ambala": 3035,
  "\u2581fambe": 3036,
  "\u2581kombisiwa": 3037,
  "\u2581names": 3038,
  "\u2581discuss": 3039,
  "\u2581display": 3040,
  "\u2581nomu": 3041,
  "\u2581Joshua": 3042,
  "\u2581nsuku": 3043,
  "\u2581swikongomelo": 3044,
  "\u2581tshembisa": 3045,
  "\u2581appear": 3046,
  "\u2581asking": 3047,
  "\u2581Only": 3048,
  "\u2581step": 3049,
  "\u2581Hiloko": 3050,
  "\u2581arrangement": 3051,
  "\u2581event": 3052,
  "\u2581manner": 3053,
  "\u2581warned": 3054,
  "\u2581London": 3055,
  "\u2581swisiwana": 3056,
  "\u2581vubihi": 3057,
  "\u2581hundzuluxela": 3058,
  "\u258190": 3059,
  "\u2581Family": 3060,
  "\u2581_": 3061,
  "\u2581forget": 3062,
  "\u2581late": 3063,
  "un": 3064,
  "\u2581claim": 3065,
  "\u2581fuweke": 3066,
  "\u2581phepha": 3067,
  "\u2581matlhari": 3068,
  "\u2581personally": 3069,
  "\u2581200": 3070,
  "\u2581patient": 3071,
  "\u2581responsible": 3072,
  "\u2581timagazini": 3073,
  "\u2581ringanaka": 3074,
  "\u2581mudyondzisi": 3075,
  "\u2581vuhomboloki": 3076,
  "\u2581reasonable": 3077,
  "\u2581thousand": 3078,
  "\u2581viewed": 3079,
  "\u2581vunghana": 3080,
  "\u2581kuleke": 3081,
  "\u2581mimpimanyeto": 3082,
  "\u2581watch": 3083,
  "\u2581WA": 3084,
  "\u2581amukeriwa": 3085,
  "\u2581answered": 3086,
  "\u2581eating": 3087,
  "\u2581re": 3088,
  "\u2581religions": 3089,
  "ar": 3090,
  "\u2581leading": 3091,
  "\u2581lerise": 3092,
  "\u2581vabya": 3093,
  "\u2581ehenhl": 3094,
  "de": 3095,
  "\u2581closer": 3096,
  "\u2581concerned": 3097,
  "\u2581limited": 3098,
  "\u2581Over": 3099,
  "\u2581elderly": 3100,
  "\u2581road": 3101,
  "\u2581weeks": 3102,
  "\u2581carried": 3103,
  "\u2581Book": 3104,
  "\u2581vangiwaka": 3105,
  "\u2581vuxokoxoko": 3106,
  "\u2581attending": 3107,
  "\u2581consequences": 3108,
  "\u2581cultivate": 3109,
  "\u2581publication": 3110,
  "\u2581causes": 3111,
  "\u2581rejoice": 3112,
  "\u2581ndzingo": 3113,
  "\u2581stress": 3114,
  "\u2581tinhlampfi": 3115,
  "\u2581Mount": 3116,
  "\u2581Wo": 3117,
  "\u2581goals": 3118,
  "\u2581accounts": 3119,
  "\u2581easily": 3120,
  "\u2581emirini": 3121,
  "\u2581vuako": 3122,
  "\u2581refused": 3123,
  "\u2581Body": 3124,
  "\u2581hisekela": 3125,
  "\u2581sharing": 3126,
  "\u2581tongue": 3127,
  "\u2581guard": 3128,
  "ho": 3129,
  "\u2581includes": 3130,
  "\u2581writer": 3131,
  "\u2581failed": 3132,
  "\u2581nkhuvo": 3133,
  "\u2581rhandzana": 3134,
  "\u258123,": 3135,
  "\u2581front": 3136,
  "\u2581Mawaku": 3137,
  "\u258112;": 3138,
  "\u2581Inc": 3139,
  "\u2581association": 3140,
  "\u2581evening": 3141,
  "\u2581points": 3142,
  "\u2581twarisa": 3143,
  "\u2581Re": 3144,
  "\u2581nsirhelelo": 3145,
  "\u2581requires": 3146,
  "\u258155": 3147,
  "\u2581big": 3148,
  "\u2581due": 3149,
  "\u2581fe": 3150,
  "\u2581reached": 3151,
  "\u2581yimbelela": 3152,
  "\u258138": 3153,
  "\u2581Elijah": 3154,
  "\u2581Hikokwalaho": 3155,
  "\u2581hlaseriwa": 3156,
  "\u2581rhangisa": 3157,
  "\u2581landza": 3158,
  "\u2581minkandziyiso": 3159,
  "\u2581seeing": 3160,
  "\u2581sight": 3161,
  "\u258180": 3162,
  "\u2581prophecies": 3163,
  "\u2581switsundzuxo": 3164,
  "el": 3165,
  "\u2581effective": 3166,
  "\u2581examine": 3167,
  "\u2581xikwembu": 3168,
  "\u2581drink": 3169,
  "\u2581imagine": 3170,
  "\u2581observe": 3171,
  "\u2581relatives": 3172,
  "\u2581titshega": 3173,
  "\u2581bread": 3174,
  "\u2581eMatsalweni": 3175,
  "\u2581tekela": 3176,
  "pi": 3177,
  "\u2581lesson": 3178,
  "\u2581letikulu": 3179,
  "\u2581vuhundzuluxeri": 3180,
  "\u2581kambisiseni": 3181,
  "\u2581loyalty": 3182,
  "\u2581maphorisa": 3183,
  "\u2581xikombelo": 3184,
  "\u2581enyimpini": 3185,
  "\u2581eye": 3186,
  "\u2581nhundzu": 3187,
  "\u2581Eliya": 3188,
  "\u2581valanguteri": 3189,
  "\u2581tisele": 3190,
  "\u2581tingani": 3191,
  "\u2581khensa": 3192,
  "\u2581valawuri": 3193,
  "\u2581ndhuma": 3194,
  "\u2581note": 3195,
  "and": 3196,
  "\u2581Ezekiyele": 3197,
  "\u2581Ndyangu": 3198,
  "\u2581looked": 3199,
  "\u2581particular": 3200,
  "\u2581village": 3201,
  "viko": 3202,
  "\u2581Japan": 3203,
  "\u2581obedient": 3204,
  "\u2581specific": 3205,
  "\u2581xiyile": 3206,
  "This": 3207,
  "\u2581xikepe": 3208,
  "\u2581yingisaka": 3209,
  "\u2581belief": 3210,
  "\u2581exiyin": 3211,
  "\u2581negative": 3212,
  "\u2581notes": 3213,
  "\u2581agree": 3214,
  "\u2581nyikiweke": 3215,
  "\u2581remained": 3216,
  "\u2581Nchumu": 3217,
  "\u2581energy": 3218,
  "\u2581response": 3219,
  "\u2581paluxa": 3220,
  "\u2581Ps": 3221,
  "\u2581TA": 3222,
  "\u2581site": 3223,
  "\u2581tinhlamuselo": 3224,
  "\u2581c": 3225,
  "\u2581xinghana": 3226,
  "\u2581Among": 3227,
  "\u2581shepherd": 3228,
  "\u2581sola": 3229,
  "\u2581preached": 3230,
  "\u2581Soviet": 3231,
  "\u2581lose": 3232,
  "\u2581Finally": 3233,
  "\u2581emasikwini": 3234,
  "\u2581affected": 3235,
  "\u2581convinced": 3236,
  "\u2581exi": 3237,
  "\u2581global": 3238,
  "\u2581lie": 3239,
  "do": 3240,
  "\u2581Yoxuwa": 3241,
  "\u2581lave": 3242,
  "\u2581vatsari": 3243,
  "\u2581Here": 3244,
  "\u2581rivengo": 3245,
  "tsongwatsongwana": 3246,
  "\u25815]": 3247,
  "\u2581France": 3248,
  "\u2581concerning": 3249,
  "\u2581eternal": 3250,
  "\u2581makaya": 3251,
  "ana": 3252,
  "\u2581wine": 3253,
  "\u2581yime": 3254,
  "\u2581crime": 3255,
  "\u2581mavuthu": 3256,
  "\u2581search": 3257,
  "\u2581sala": 3258,
  "\u2581X": 3259,
  "\u2581obedience": 3260,
  "\u2581vaakelani": 3261,
  "saka": 3262,
  "\u2581army": 3263,
  "\u2581becomes": 3264,
  "\u2581tirhe": 3265,
  "\u2581vuyerisa": 3266,
  "\u2581writing": 3267,
  "\u2581kandziyisiweke": 3268,
  "\u2581twala": 3269,
  "\u2581High": 3270,
  "\u2581Langutelo": 3271,
  "\u2581endurance": 3272,
  "\u2581hlamuseriwa": 3273,
  "\u2581voni": 3274,
  "United": 3275,
  "\u2581Biblical": 3276,
  "\u2581ho": 3277,
  "\u2581humility": 3278,
  "ion": 3279,
  "\u2581animal": 3280,
  "\u2581fail": 3281,
  "\u2581xitshuketa": 3282,
  "\u2581nxaxamelo": 3283,
  "\u2581occur": 3284,
  "Va": 3285,
  "\u2581population": 3286,
  "\u2581adds": 3287,
  "\u2581police": 3288,
  "\u2581vukarhi": 3289,
  "\u2581vangani": 3290,
  "est": 3291,
  "\u2581focus": 3292,
  "\u2581forgive": 3293,
  "pe": 3294,
  "\u2581Robert": 3295,
  "\u2581unique": 3296,
  "\u2581Ro": 3297,
  "\u2581Exodus": 3298,
  "\u258132.": 3299,
  "\u2581gifts": 3300,
  "\u2581merely": 3301,
  "\u2581mupisalema": 3302,
  "\u2581Deuteronomy": 3303,
  "\u2581Wansati": 3304,
  "\u2581hlangane": 3305,
  "\u2581purposes": 3306,
  "\u2581Really": 3307,
  "\u2581hearing": 3308,
  "\u2581situations": 3309,
  "\u2581wars": 3310,
  "\u2581judge": 3311,
  "\u2581xihlovo": 3312,
  "When": 3313,
  "\u2581pakani": 3314,
  "\u2581saved": 3315,
  "\u2581economic": 3316,
  "\u2581enter": 3317,
  "\u2581inside": 3318,
  "\u2581lonene": 3319,
  "\u2581mufana": 3320,
  "\u2581eneriseka": 3321,
  "\u2581mavhiki": 3322,
  "\u2581popular": 3323,
  "\u2581East": 3324,
  "\u2581date": 3325,
  "\u2581tinyiketeleke": 3326,
  "\u2581break": 3327,
  "\u2581talking": 3328,
  "me": 3329,
  "\u2581amount": 3330,
  "\u2581delight": 3331,
  "\u2581extreme": 3332,
  "\u2581vuriweke": 3333,
  "da": 3334,
  "\u2581Doo": 3335,
  "\u2581describes": 3336,
  "\u2581doctor": 3337,
  "\u2581ntshunxeka": 3338,
  "Ringanisa": 3339,
  "\u2581Once": 3340,
  "\u2581attack": 3341,
  "\u2581eight": 3342,
  "\u2581probably": 3343,
  "Y": 3344,
  "\u2581Other": 3345,
  "\u2581Two": 3346,
  "\u2581Vuyelo": 3347,
  "\u2581adirese": 3348,
  "\u2581bringing": 3349,
  "\u2581khuvuriwile": 3350,
  "\u2581kumiwa": 3351,
  "\u2581hundreds": 3352,
  "\u2581pfula": 3353,
  "\u2581sunguleke": 3354,
  "\u2581vanhwanyana": 3355,
  "\u2581YA": 3356,
  "\u2581mufumi": 3357,
  "\u2581overcome": 3358,
  "\u2581putt": 3359,
  "\u2581muprista": 3360,
  "\u2581territory": 3361,
  "9": 3362,
  "Compare": 3363,
  "\u2581olovi": 3364,
  "\u2581rivaleriwa": 3365,
  "\u2581Fumaka": 3366,
  "\u2581Bethele": 3367,
  "\u2581discussion": 3368,
  "\u2581environment": 3369,
  "\u2581produced": 3370,
  "\u2581secret": 3371,
  "\u2581tsekatseka": 3372,
  "\u2581National": 3373,
  "\u2581court": 3374,
  "\u2581nkateko": 3375,
  "\u2581International": 3376,
  "\u2581Vagalatiya": 3377,
  "\u2581greatly": 3378,
  "\u2581issues": 3379,
  "\u2581relative": 3380,
  "F": 3381,
  "\u2581Galatians": 3382,
  "\u2581Lembe": 3383,
  "\u2581foreign": 3384,
  "\u2581prophets": 3385,
  "\u2581tihlo": 3386,
  "\u2581dyuhaleke": 3387,
  "\u2581khomisa": 3388,
  "\u2581worth": 3389,
  "\u2581Questions": 3390,
  "\u2581oil": 3391,
  "\u2581swiphemu": 3392,
  "\u2581tsakeke": 3393,
  "\u258142": 3394,
  "\u2581Colossians": 3395,
  "\u2581evukatini": 3396,
  "\u2581Vakolosa": 3397,
  "\u2581dzaha": 3398,
  "\u2581makwanga": 3399,
  "\u2581quoted": 3400,
  "walungu": 3401,
  "\u2581placed": 3402,
  "\u2581tiendlela": 3403,
  "\u2581type": 3404,
  "\u2581Under": 3405,
  "\u2581referred": 3406,
  "\u2581worshipers": 3407,
  "XANA": 3408,
  "\u2581commanded": 3409,
  "\u2581presented": 3410,
  "\u2581appeared": 3411,
  "\u2581creatures": 3412,
  "\u2581vafumi": 3413,
  "\u2581Earth": 3414,
  "\u2581VA": 3415,
  "\u2581prospect": 3416,
  "\u2581xikhutazo": 3417,
  "\u2581Governing": 3418,
  "\u2581Hinkwawo": 3419,
  "\u2581acceptable": 3420,
  "\u2581grew": 3421,
  "\u2581lerintshwa": 3422,
  "\u2581mountain": 3423,
  "\u2581timitara": 3424,
  "\u2581vavisaka": 3425,
  "be": 3426,
  "\u2581Faith": 3427,
  "\u2581fill": 3428,
  "\u2581emakaya": 3429,
  "\u2581island": 3430,
  "\u2581non": 3431,
  "\u2581violent": 3432,
  "\u2581xinkarhana": 3433,
  "There": 3434,
  "ba": 3435,
  "\u2581forgiveness": 3436,
  "\u2581listening": 3437,
  "\u2581reward": 3438,
  "\u2581successful": 3439,
  "\u2581India": 3440,
  "\u2581demons": 3441,
  "\u2581direct": 3442,
  "\u2581khutazaka": 3443,
  "\u2581tlhelele": 3444,
  "\u2581vavisa": 3445,
  "\u2581voxe": 3446,
  "\u2581student": 3447,
  "\u2581Nations": 3448,
  "\u2581Pennsylvania": 3449,
  "\u2581challenges": 3450,
  "\u2581harm": 3451,
  "\u2581tolovelekile": 3452,
  "\u2581join": 3453,
  "\u2581minds": 3454,
  "\u2581secular": 3455,
  "\u2581swimilana": 3456,
  "\u2581grateful": 3457,
  "\u2581expected": 3458,
  "\u2581fish": 3459,
  "\u2581reality": 3460,
  "\u2581surely": 3461,
  "\u2581values": 3462,
  "\u2581Vito": 3463,
  "\u2581welcome": 3464,
  "\u2581Italy": 3465,
  "\u2581normal": 3466,
  "\u2581tsongo": 3467,
  "\u2581dangerous": 3468,
  "\u2581disciple": 3469,
  "\u2581Eksoda": 3470,
  "\u2581Its": 3471,
  "\u2581careful": 3472,
  "\u2581emakumu": 3473,
  "\u2581fanelangiki": 3474,
  "\u2581sovereignty": 3475,
  "\u2581xitalo": 3476,
  "\u2581communication": 3477,
  "\u2581tikereke": 3478,
  "\u258148": 3479,
  "\u2581god": 3480,
  "\u2581international": 3481,
  "\u2581powers": 3482,
  "\u2581baby": 3483,
  "\u2581measure": 3484,
  "\u2581run": 3485,
  "\u2581valuable": 3486,
  "ch": 3487,
  "\u258125,": 3488,
  "\u2581improve": 3489,
  "\u2581community": 3490,
  "\u2581tshuka": 3491,
  "\u2581Xitsundzuxo": 3492,
  "\u2581mere": 3493,
  "\u2581German": 3494,
  "\u2581factors": 3495,
  "\u2581Vukhongeri": 3496,
  "\u2581bandlha": 3497,
  "\u2581hundzula": 3498,
  "\u2581kote": 3499,
  "\u2581research": 3500,
  "riwa": 3501,
  "\u2581Xikongomelo": 3502,
  "\u2581Make": 3503,
  "\u2581lerisa": 3504,
  "\u2581sincere": 3505,
  "\u2581reveal": 3506,
  "\u2581xiyexe": 3507,
  "\u2581compassion": 3508,
  "\u2581Being": 3509,
  "\u2581copy": 3510,
  "\u2581growth": 3511,
  "\u2581overseers": 3512,
  "\u2581prepare": 3513,
  "\u2581process": 3514,
  "\u2581story": 3515,
  "\u2581(1)": 3516,
  "\u25816]": 3517,
  "\u2581fell": 3518,
  "\u2581gold": 3519,
  "\u2581ikhonomi": 3520,
  "\u2581forms": 3521,
  "\u2581warm": 3522,
  "\u2581kill": 3523,
  "\u2581main": 3524,
  "\u2581tsundzuxe": 3525,
  "\u258143": 3526,
  "\u2581extent": 3527,
  "\u2581heavy": 3528,
  "\u2581rindza": 3529,
  "tindhawini": 3530,
  "\u2581Khale": 3531,
  "\u2581etempeleni": 3532,
  "\u2581hlalela": 3533,
  "ry": 3534,
  "\u2581katsaka": 3535,
  "\u2581statement": 3536,
  "\u2581train": 3537,
  "\u2581Hinkwavo": 3538,
  "\u2581Mother": 3539,
  "\u2581TO": 3540,
  "\u2581magandzelo": 3541,
  "il": 3542,
  "\u2581America": 3543,
  "\u2581appears": 3544,
  "\u2581hayi": 3545,
  "\u2581twisisi": 3546,
  "\u2581wait": 3547,
  "ial": 3548,
  "\u2581Me": 3549,
  "\u2581Russell": 3550,
  "\u2581legal": 3551,
  "\u2581pass": 3552,
  "\u2581uses": 3553,
  "\u2581(2)": 3554,
  "\u2581Ruth": 3555,
  "\u2581drinking": 3556,
  "\u2581makume": 3557,
  "\u2581witnessing": 3558,
  "\u2581Leyintshwa": 3559,
  "\u2581State": 3560,
  "\u2581busy": 3561,
  "\u2581evident": 3562,
  "\u2581immorality": 3563,
  "wamatimu": 3564,
  "\u2581gone": 3565,
  "\u2581increased": 3566,
  "\u2581misav": 3567,
  "\u2581offering": 3568,
  "\u2581pfumeleli": 3569,
  "\u2581comments": 3570,
  "\u2581Blur": 3571,
  "\u2581Without": 3572,
  "\u25811990": 3573,
  "\u2581battle": 3574,
  "\u2581kambirhi": 3575,
  "\u2581translated": 3576,
  "\u2581xiendlo": 3577,
  "\u2581thyaka": 3578,
  "\u2581eHolweni": 3579,
  "\u2581khomiwe": 3580,
  "\u2581divorce": 3581,
  "\u2581listed": 3582,
  "\u2581tikuma": 3583,
  "\u2581Vafarisi": 3584,
  "\u2581forces": 3585,
  "\u2581garden": 3586,
  "\u2581hatla": 3587,
  "\u2581Dok": 3588,
  "\u2581pfumerile": 3589,
  "\u2581request": 3590,
  "\u2581Vunharhu": 3591,
  "\u2581illness": 3592,
  "\u2581lies": 3593,
  "\u00e9": 3594,
  "\u2581encouraging": 3595,
  "\u2581tlhantlha": 3596,
  "\u2581trees": 3597,
  "\u2581xiswona": 3598,
  "\u2581alcohol": 3599,
  "\u2581consideration": 3600,
  "\u2581effects": 3601,
  "\u2581younger": 3602,
  "\u2581discussed": 3603,
  "\u2581magoza": 3604,
  "\u2581cost": 3605,
  "\u2581tsaleke": 3606,
  "\u2581vutisile": 3607,
  "\u2581associated": 3608,
  "\u2581friendship": 3609,
  "\u2581indicate": 3610,
  "\u2581Day": 3611,
  "\u2581newspaper": 3612,
  "ca": 3613,
  "\u2581instruction": 3614,
  "\u2581magazines": 3615,
  "\u2581vunyingi": 3616,
  "\u2581vuoswi": 3617,
  "ngi": 3618,
  "\u2581Vamakwerhu": 3619,
  "\u2581William": 3620,
  "\u2581survive": 3621,
  "\u2581teaches": 3622,
  "\u2581amukelekaka": 3623,
  "\u2581exist": 3624,
  "\u2581gimeta": 3625,
  "\u2581remains": 3626,
  "\u2581xiyenge": 3627,
  "\u258113]": 3628,
  "\u2581drug": 3629,
  "w": 3630,
  "\u2581England": 3631,
  "\u2581vuthu": 3632,
  "\u2581Isaac": 3633,
  "\u2581caring": 3634,
  "\u2581ndzhwalo": 3635,
  "Leswi": 3636,
  "\u2581Parents": 3637,
  "\u2581Pharisees": 3638,
  "\u258141": 3639,
  "\u2581circuit": 3640,
  "\u2581khome": 3641,
  "\u2581xiviko": 3642,
  "\u2581yisiwa": 3643,
  "\u2581aid": 3644,
  "\u2581nhlana": 3645,
  "\u2581zeal": 3646,
  "\u2581conversation": 3647,
  "\u2581helpful": 3648,
  "\u2581immoral": 3649,
  "\u2581pursue": 3650,
  "\u2581Memorial": 3651,
  "\u2581manifest": 3652,
  "\u2581tenga": 3653,
  "\u2581churches": 3654,
  "\u2581darkness": 3655,
  "\u2581endlekaka": 3656,
  "\u2581hanyeke": 3657,
  "\u2581katseka": 3658,
  "\u2581letters": 3659,
  "\u2581opening": 3660,
  "\u2581organized": 3661,
  "\u2581understood": 3662,
  "\u2581xinkwa": 3663,
  "\u2581correct": 3664,
  "\u2581generation": 3665,
  "\u2581vutlharhi": 3666,
  "\u2581xiga": 3667,
  "\u2581react": 3668,
  "\u2581refers": 3669,
  "\u2581strive": 3670,
  "\u2581vangela": 3671,
  "Swi": 3672,
  "all": 3673,
  "\u2581City": 3674,
  "\u2581applied": 3675,
  "\u2581muni": 3676,
  "\u2581tihlanganisa": 3677,
  "\u2581trained": 3678,
  "7": 3679,
  "ism": 3680,
  "\u2581evidently": 3681,
  "\u2581koteki": 3682,
  "\u2581pleasure": 3683,
  "\u2581white": 3684,
  "responsibilities": 3685,
  "\u2581Greece": 3686,
  "\u2581Land": 3687,
  "\u2581approval": 3688,
  "\u2581madokodela": 3689,
  "\u2581ntlhambi": 3690,
  "\u2581Michael": 3691,
  "\u2581confident": 3692,
  "\u2581discreet": 3693,
  "\u2581endlelo": 3694,
  "\u2581Tihosi": 3695,
  "\u2581hlamuselaka": 3696,
  "\u2581makungu": 3697,
  "\u2581tekana": 3698,
  "\u2581cover": 3699,
  "\u2581fulfill": 3700,
  "\u2581kholwa": 3701,
  "\u2581Hinkwayo": 3702,
  "\u2581recently": 3703,
  "\u2581vaviseka": 3704,
  "\u2581destroy": 3705,
  "\u2581koma": 3706,
  "lu": 3707,
  "\u2581koka": 3708,
  "\u2581pfumeli": 3709,
  "\u2581slaves": 3710,
  "like": 3711,
  "\u2581impressed": 3712,
  "\u2581occurred": 3713,
  "\u2581Russia": 3714,
  "\u2581Sometimes": 3715,
  "\u2581mihloti": 3716,
  "\u2581yingisi": 3717,
  "mo": 3718,
  "\u2581Gospel": 3719,
  "\u2581advantage": 3720,
  "\u2581financial": 3721,
  "\u2581guide": 3722,
  "\u2581series": 3723,
  "\u2581distress": 3724,
  "\u2581ruler": 3725,
  "\u2581De": 3726,
  "\u2581Help": 3727,
  "\u2581hundred": 3728,
  "2": 3729,
  "\u2581camp": 3730,
  "\u2581studied": 3731,
  "\u2581wide": 3732,
  "\u2581\"\"": 3733,
  "\u2581Leti": 3734,
  "\u2581SWI": 3735,
  "\u2581baleka": 3736,
  "\u2581clergy": 3737,
  "\u2581hlela": 3738,
  "\u2581victims": 3739,
  "\u2581waters": 3740,
  "\u258126,": 3741,
  "\u2581languteka": 3742,
  "\u2581lavanene": 3743,
  "\u2581poverty": 3744,
  "\u2581decades": 3745,
  "\u2581ndzeni": 3746,
  "\u2581offspring": 3747,
  "\u2581vatotiwa": 3748,
  "nhlengeletanweni": 3749,
  "\u2581company": 3750,
  "\u2581vhinyo": 3751,
  "\u2581Peace": 3752,
  "\u2581Swichudeni": 3753,
  "\u2581aEgipta": 3754,
  "\u2581miako": 3755,
  "\u2581mpfula": 3756,
  "\u2581Tshama": 3757,
  "\u2581tise": 3758,
  "\u2581Latin": 3759,
  "\u2581evuhlongeni": 3760,
  "\u2581malwandla": 3761,
  "\u2581seriously": 3762,
  "\u2581kukota": 3763,
  "\u2581accomplish": 3764,
  "\u2581describe": 3765,
  "\u2581essential": 3766,
  "\u2581balekela": 3767,
  "\u2581blind": 3768,
  "\u2581dealing": 3769,
  "\u2581wealth": 3770,
  "\u2581Vakulu": 3771,
  "\u2581anxiety": 3772,
  "\u2581contains": 3773,
  "\u2581tiv": 3774,
  "\u2581total": 3775,
  "\u2581discovered": 3776,
  "\u2581xavisa": 3777,
  "\u2581Vuprofeta": 3778,
  "6": 3779,
  "\u2581higher": 3780,
  "\u2581hlawulekeke": 3781,
  "\u2581inhabitants": 3782,
  "\u2581landzelela": 3783,
  "\u2581swihloko": 3784,
  "ru": 3785,
  "yo": 3786,
  "\u2581teleke": 3787,
  "\u2581vayingiseri": 3788,
  "K": 3789,
  "\u2581Take": 3790,
  "\u2581Xikolo": 3791,
  "\u2581across": 3792,
  "\u2581appearance": 3793,
  "\u2581escape": 3794,
  "\u2581vaprofeta": 3795,
  "\u2581voniwa": 3796,
  "ity": 3797,
  "\u2581Furwa": 3798,
  "\u2581enhlokweni": 3799,
  "\u2581maphepha": 3800,
  "\u2581neighbors": 3801,
  "\u2581indicates": 3802,
  "\u2581low": 3803,
  "\u2581masalela": 3804,
  "\u2581tears": 3805,
  "\u2581views": 3806,
  "\u25811919": 3807,
  "\u2581joined": 3808,
  "\u2581praying": 3809,
  "\u2581tinhla": 3810,
  "\u2581tshinya": 3811,
  "\u2581hurt": 3812,
  "go": 3813,
  "\u2581300": 3814,
  "\u2581fanana": 3815,
  "\u2581ribye": 3816,
  "\u2581troubled": 3817,
  "\u2581fanelaka": 3818,
  "\u2581hatred": 3819,
  "\u2581telling": 3820,
  "\u2581etimbilwini": 3821,
  "\u2581patience": 3822,
  "\u2581tiveka": 3823,
  "\u2581Go": 3824,
  "\u2581boxa": 3825,
  "\u2581gathered": 3826,
  "\u2581hundzuke": 3827,
  "\u2581mboyamelo": 3828,
  "co": 3829,
  "\u2581singita": 3830,
  "\u2581speaks": 3831,
  "\u2581Hitler": 3832,
  "\u2581Vavanuna": 3833,
  "\u2581likewise": 3834,
  "\u2581rhwala": 3835,
  "\u2581science": 3836,
  "so": 3837,
  "ton": 3838,
  "\u2581chavi": 3839,
  "\u2581fruitage": 3840,
  "\u2581nguva": 3841,
  "\u2581vulavuriwaka": 3842,
  "\u2581119": 3843,
  "\u2581lovisa": 3844,
  "My": 3845,
  "\u2581ideas": 3846,
  "\u2581writes": 3847,
  "\u2581Deteronoma": 3848,
  "\u2581Mukriste": 3849,
  "\u2581contrary": 3850,
  "\u2581demonstrate": 3851,
  "\u2581entered": 3852,
  "\u2581filosofi": 3853,
  "\u2581mature": 3854,
  "\u2581mhangu": 3855,
  "\u2581ntsombano": 3856,
  "\u2581sele": 3857,
  "\u2581superior": 3858,
  "\u2581tintshava": 3859,
  "\u2581fambela": 3860,
  "\u2581hetelele": 3861,
  "\u2581lontsongo": 3862,
  "\u2581BIBELE": 3863,
  "\u2581wish": 3864,
  "What": 3865,
  "\u2581akiwa": 3866,
  "\u2581enemy": 3867,
  "\u2581goodness": 3868,
  "\u2581governments": 3869,
  "\u2581joyful": 3870,
  "\u2581nchavelelo": 3871,
  "\u2581setting": 3872,
  "\u2581hakatsongo": 3873,
  "\u2581lavantshwa": 3874,
  "\u2581responded": 3875,
  "\u2581closely": 3876,
  "\u2581committed": 3877,
  "\u2581emotions": 3878,
  "\u2581hlawuriweke": 3879,
  "\u2581insight": 3880,
  "\u2581rhamba": 3881,
  "\u2581w": 3882,
  "\u2581xirhambo": 3883,
  "\u2581xivono": 3884,
  "\u2581ematini": 3885,
  "\u2581husbands": 3886,
  "\u2581sindzisa": 3887,
  "pa": 3888,
  "\u2581Both": 3889,
  "\u2581depression": 3890,
  "\u2581mindhavuko": 3891,
  "riweke": 3892,
  "\u258146": 3893,
  "\u2581bumabumela": 3894,
  "\u2581formed": 3895,
  "\u2581marungula": 3896,
  "\u2581notice": 3897,
  "\u2581wild": 3898,
  "\u2581outstanding": 3899,
  "\u2581promote": 3900,
  "4": 3901,
  "\u2581Kasi": 3902,
  "\u2581recognized": 3903,
  "\u2581vuavanyisi": 3904,
  "\u2581mabindzu": 3905,
  "\u2581pfumelele": 3906,
  "\u2581Ntsako": 3907,
  "\u2581UN": 3908,
  "\u2581basisa": 3909,
  "\u2581tshungula": 3910,
  "at": 3911,
  "\u2581tihanyisa": 3912,
  "\u2581trial": 3913,
  "\u2581vast": 3914,
  "\u2581vuhandzuri": 3915,
  "\u258116]": 3916,
  "\u25818]": 3917,
  "\u2581awara": 3918,
  "\u2581Magriki": 3919,
  "\u2581chose": 3920,
  "\u2581concluded": 3921,
  "\u2581kambela": 3922,
  "um": 3923,
  "\u2581Kings": 3924,
  "\u2581drawn": 3925,
  "\u2581tisela": 3926,
  "\u2581Compare": 3927,
  "\u2581University": 3928,
  "\u2581facts": 3929,
  "\u2581waiting": 3930,
  "\u258139": 3931,
  "\u2581developing": 3932,
  "\u2581hele": 3933,
  "xa": 3934,
  "\u2581center": 3935,
  "\u2581send": 3936,
  "\u2581tshiki": 3937,
  "\u2581vungoma": 3938,
  "\u2581NW": 3939,
  "\u2581murhangeri": 3940,
  "\u2581rejected": 3941,
  "\u2581tivonela": 3942,
  "mhakeni": 3943,
  "\u2581BIBLE": 3944,
  "\u2581George": 3945,
  "\u2581Xivangelo": 3946,
  "\u2581designed": 3947,
  "\u2581malunghelo": 3948,
  "\u2581politiki": 3949,
  "\u2581riqingho": 3950,
  "\u2581satisfaction": 3951,
  "\u2581invitation": 3952,
  "\u2581Yakobe": 3953,
  "\u2581easier": 3954,
  "\u2581hundze": 3955,
  "\u2581leaving": 3956,
  "\u2581harvest": 3957,
  "\u2581tolovelekangiki": 3958,
  "\u2581treated": 3959,
  "\u2581vabyaka": 3960,
  "\u2581anakanyaka": 3961,
  "\u2581aside": 3962,
  "\u25811993": 3963,
  "\u2581Fanele": 3964,
  "\u2581buy": 3965,
  "\u2581conclude": 3966,
  "\u2581eAfrika": 3967,
  "\u2581maxelo": 3968,
  "\u2581national": 3969,
  "\u2581tsakeli": 3970,
  "\u2581fi": 3971,
  "\u2581mountains": 3972,
  "\u2581ndzavisiso": 3973,
  "\u2581shared": 3974,
  "ula": 3975,
  "\u2581Kuma": 3976,
  "\u2581nghene": 3977,
  "\u2581riches": 3978,
  "\u2581vaendzi": 3979,
  "\u2581xichudeni": 3980,
  "\u2581Could": 3981,
  "\u2581sinful": 3982,
  "\u2581thank": 3983,
  "\u2581Rhula": 3984,
  "\u2581box": 3985,
  "\u2581loves": 3986,
  "\u2581nkhathalelo": 3987,
  "\u2581rhumele": 3988,
  "\u2581eBethele": 3989,
  "\u2581esikwini": 3990,
  "\u2581meal": 3991,
  "ng": 3992,
  "\u2581Ringanisa": 3993,
  "\u2581moving": 3994,
  "\u2581Vutirheli": 3995,
  "\u2581beneficial": 3996,
  "\u2581hlamuseriweke": 3997,
  "\u2581vonile": 3998,
  "\u2581Ministry": 3999,
  "\u2581commandments": 4000,
  "\u2581lavan": 4001,
  "\u2581pattern": 4002,
  "\u2581afraid": 4003,
  "\u2581lasting": 4004,
  "langa": 4005,
  "\u2581Khombo": 4006,
  "\u2581connection": 4007,
  "\u2581soldiers": 4008,
  "\u2581News": 4009,
  "\u2581ministers": 4010,
  "\u2581released": 4011,
  "\u2581species": 4012,
  "\u2581trouble": 4013,
  "\u258134.": 4014,
  "\u2581assured": 4015,
  "\u2581hlengeleta": 4016,
  "\u2581rhangela": 4017,
  "di": 4018,
  "lava": 4019,
  "os": 4020,
  "\u2581Mutsari": 4021,
  "\u2581enteke": 4022,
  "\u2581ntikelo": 4023,
  "\u2581subjects": 4024,
  "ive": 4025,
  "\u2581Christmas": 4026,
  "\u2581Emalembeni": 4027,
  "\u2581Psalma": 4028,
  "\u2581honest": 4029,
  "\u258130,": 4030,
  "\u2581Health": 4031,
  "\u2581cry": 4032,
  "\u2581lulamile": 4033,
  "\u2581master": 4034,
  "\u2581OF": 4035,
  "\u2581assist": 4036,
  "\u2581bless": 4037,
  "\u2581bokisi": 4038,
  "\u2581healthy": 4039,
  "\u2581hikuv": 4040,
  "\u2581vuhungasi": 4041,
  "\u2581French": 4042,
  "\u2581impossible": 4043,
  "\u2581providing": 4044,
  "\u2581Exikarhi": 4045,
  "\u2581list": 4046,
  "\u2581united": 4047,
  "\u2581yes": 4048,
  "\u2581difference": 4049,
  "\u2581mpfumawulo": 4050,
  "\u2581nseketelo": 4051,
  "\u2581tinsimu": 4052,
  "\u2581hambanisa": 4053,
  "\u2581heed": 4054,
  "\u2581kaneta": 4055,
  "\u2581travel": 4056,
  "\u2581xihlawuhlawu": 4057,
  "\u258129,": 4058,
  "\u258131]": 4059,
  "\u2581Ko": 4060,
  "\u2581p": 4061,
  "\u2581safe": 4062,
  "\u2581severe": 4063,
  "\u2581Imagine": 4064,
  "\u2581gidi": 4065,
  "\u2581perform": 4066,
  "\u2581receiving": 4067,
  "\u2581scientists": 4068,
  "\u2581tsariwa": 4069,
  "\u2581zealous": 4070,
  "po": 4071,
  "\u2581ekerekeni": 4072,
  "\u2581lavatsongo": 4073,
  "\u2581mintlango": 4074,
  "\u2581mongo": 4075,
  "\u2581murisi": 4076,
  "\u2581pfuki": 4077,
  "\u25811995": 4078,
  "\u2581Khisimusi": 4079,
  "\u2581Sunday": 4080,
  "\u2581Xin": 4081,
  "\u2581hlayela": 4082,
  "\u2581kumi": 4083,
  "\u2581rhurhela": 4084,
  "\u2581Ngopfu": 4085,
  "\u2581images": 4086,
  "\u2581render": 4087,
  "\u2581ringanyeta": 4088,
  "\u2581ruin": 4089,
  "\u2581xihundla": 4090,
  "za": 4091,
  "\u258121]": 4092,
  "\u2581count": 4093,
  "\u2581dyondzisiwa": 4094,
  "\u2581kongomisiwa": 4095,
  "\u2581pointed": 4096,
  "\u2581swikepe": 4097,
  "\u2581aspects": 4098,
  "\u2581expressions": 4099,
  "\u2581prophetic": 4100,
  "\u2581separate": 4101,
  "\u2581bodies": 4102,
  "\u2581entertainment": 4103,
  "\u2581fearing": 4104,
  "\u2581pre": 4105,
  "\u2581brain": 4106,
  "\u2581constantly": 4107,
  "\u2581000.": 4108,
  "\u2581Vu": 4109,
  "\u2581endleni": 4110,
  "\u2581surprise": 4111,
  "\u2581Union": 4112,
  "\u2581capital": 4113,
  "\u2581chief": 4114,
  "\u2581delivered": 4115,
  "\u2581details": 4116,
  "\u2581rise": 4117,
  "\u2581tivona": 4118,
  "\u2581vatukulu": 4119,
  "out": 4120,
  "\u2581directed": 4121,
  "\u2581nyikeriwa": 4122,
  "\u2581lamantshwa": 4123,
  "\u2581muako": 4124,
  "\u2581pfumaleka": 4125,
  "\u2581stopped": 4126,
  "\u2581European": 4127,
  "\u2581Tim": 4128,
  "\u2581majaha": 4129,
  "\u2581thyakeke": 4130,
  "\u2581Hav": 4131,
  "\u2581directly": 4132,
  "\u2581majority": 4133,
  "\u2581sit": 4134,
  "\u2581yinhla": 4135,
  "\u2581mimfumo": 4136,
  "\u2581sword": 4137,
  "\u2581Dictionary": 4138,
  "\u2581Think": 4139,
  "\u2581daughters": 4140,
  "\u2581hospital": 4141,
  "\u2581vurhumiwa": 4142,
  "ment": 4143,
  "\u2581pagan": 4144,
  "LA": 4145,
  "jw": 4146,
  "\u2581obtain": 4147,
  "\u2581vasati": 4148,
  "\u25812000": 4149,
  "\u2581Lwandle": 4150,
  "\u2581Onge": 4151,
  "\u2581YOU": 4152,
  "\u2581decide": 4153,
  "\u2581mufundhisi": 4154,
  "\u2581silver": 4155,
  "\u2581worse": 4156,
  "\u2581Japani": 4157,
  "\u2581throne": 4158,
  "5": 4159,
  "\u2581Regard": 4160,
  "\u2581Spirit": 4161,
  "\u2581deliver": 4162,
  "\u2581Holo": 4163,
  "\u2581amukeleka": 4164,
  "\u2581endzele": 4165,
  "\u2581engeteleka": 4166,
  "\u2581rain": 4167,
  "\u2581reveals": 4168,
  "\u2581tihlawulela": 4169,
  "\u2581tindleve": 4170,
  "\u2581unable": 4171,
  "ci": 4172,
  "\u258119;": 4173,
  "\u2581Ntshembo": 4174,
  "\u2581Work": 4175,
  "\u2581fast": 4176,
  "\u2581girls": 4177,
  "\u2581hanye": 4178,
  "\u2581undeserved": 4179,
  "\u2581verses": 4180,
  "\u2581vomu": 4181,
  "\u2581Kavula": 4182,
  "\u2581adults": 4183,
  "\u2581beauty": 4184,
  "\u2581doctrine": 4185,
  "\u2581risimu": 4186,
  "ish": 4187,
  "\u2581anakanyela": 4188,
  "\u2581bearing": 4189,
  "\u2581opportunities": 4190,
  "\u2581resist": 4191,
  "\u2581tikweni": 4192,
  "\u2581Orthodox": 4193,
  "\u2581miti": 4194,
  "\u2581xinakulobye": 4195,
  "hether": 4196,
  "\u2581raise": 4197,
  "\u2581attendance": 4198,
  "\u2581glorious": 4199,
  "\u2581ill": 4200,
  "\u2581vonelo": 4201,
  "\u2581bulo": 4202,
  "ge": 4203,
  "\u2581balanced": 4204,
  "\u2581kaye": 4205,
  "\u2581Hlamusela": 4206,
  "\u2581Israelite": 4207,
  "\u2581conflict": 4208,
  "\u2581enerisa": 4209,
  "\u2581swinharhu": 4210,
  "\u2581tsutsuma": 4211,
  "All": 4212,
  "\u2581indicated": 4213,
  "\u2581leads": 4214,
  "\u2581tiviki": 4215,
  "\u2581vadyohi": 4216,
  "\u2581vekiwa": 4217,
  "\u2581(3)": 4218,
  "\u2581Has": 4219,
  "\u2581rules": 4220,
  "\u2581twisa": 4221,
  "\u2581Note": 4222,
  "\u2581Sarah": 4223,
  "\u2581kombe": 4224,
  "\u2581north": 4225,
  "\u258129]": 4226,
  "\u2581Vupela": 4227,
  "\u2581byeleke": 4228,
  "\u2581mighty": 4229,
  "hu": 4230,
  "\u2581Answer": 4231,
  "\u2581abundance": 4232,
  "\u2581carrying": 4233,
  "\u2581granted": 4234,
  "\u2581habits": 4235,
  "\u2581highly": 4236,
  "Vanhu": 4237,
  "\u258112]": 4238,
  "\u2581hleriweke": 4239,
  "\u2581journey": 4240,
  "\u2581style": 4241,
  "\u2581xanisa": 4242,
  "rs": 4243,
  "\u2581armies": 4244,
  "\u2581dealings": 4245,
  "\u2581enawini": 4246,
  "\u2581humese": 4247,
  "\u2581kondletela": 4248,
  "\u2581relates": 4249,
  "\u2581replied": 4250,
  "\u2581Charles": 4251,
  "\u2581masingita": 4252,
  "\u2581matikweni": 4253,
  "\u258124;": 4254,
  "\u2581fani": 4255,
  "\u2581ntshunxa": 4256,
  "\u2581ntshunxiwa": 4257,
  "\u2581susiwa": 4258,
  "\u2581lavisisa": 4259,
  "\u2581lay": 4260,
  "\u2581nsusumeto": 4261,
  "\u2581stake": 4262,
  "\u2581tikhemikhali": 4263,
  "\u2581timbhoni": 4264,
  "\u2581Surely": 4265,
  "\u2581Trinity": 4266,
  "\u2581development": 4267,
  "\u2581feels": 4268,
  "\u2581mintokoto": 4269,
  "\u2581\u1e45wina": 4270,
  "\u2581Armageddon": 4271,
  "\u2581nkambisiso": 4272,
  "\u2581sought": 4273,
  "\u2581tinhloko": 4274,
  "\u2581Every": 4275,
  "\u2581Spanish": 4276,
  "\u2581ehleketaka": 4277,
  "\u2581hoxile": 4278,
  "\u2581mfungho": 4279,
  "\u2581xivundza": 4280,
  "\u2581yiva": 4281,
  "Yehova": 4282,
  "\u2581Lo": 4283,
  "\u2581beloved": 4284,
  "\u2581dlayaka": 4285,
  "\u2581Look": 4286,
  "\u2581identify": 4287,
  "\u2581mapapila": 4288,
  "\u2581pride": 4289,
  "\u2581rulers": 4290,
  "\u2581song": 4291,
  "\u2581succeed": 4292,
  "\u2581Hanya": 4293,
  "\u2581NI": 4294,
  "\u2581Tiva": 4295,
  "\u2581background": 4296,
  "\u2581endlisa": 4297,
  "\u2581vuhlayiseki": 4298,
  "\u2581le\u015daku": 4299,
  "\u2581ntshunxekile": 4300,
  "\u2581copies": 4301,
  "\u2581ematin": 4302,
  "\u2581fikile": 4303,
  "\u2581hetisekile": 4304,
  "\u2581rhandzi": 4305,
  "8": 4306,
  "\u258140:": 4307,
  "\u2581Al": 4308,
  "\u2581calling": 4309,
  "tu": 4310,
  "\u2581Kwalaho": 4311,
  "\u2581dlaye": 4312,
  "\u2581faithfully": 4313,
  "\u2581paid": 4314,
  "\u2581tihulumendhe": 4315,
  "\u2581witnesses": 4316,
  "\u25811991": 4317,
  "\u2581forced": 4318,
  "\u2581nsinya": 4319,
  "\u2581ringanisela": 4320,
  "\u2581wind": 4321,
  "\u2581British": 4322,
  "\u2581Pharaoh": 4323,
  "\u2581construction": 4324,
  "\u2581diseases": 4325,
  "\u2581\u1e45wi": 4326,
  "\u2581performed": 4327,
  "\u2581tile": 4328,
  "vanhu": 4329,
  "\u2581Ezra": 4330,
  "\u2581nala": 4331,
  "sh": 4332,
  "\u2581kurile": 4333,
  "\u2581kutsula": 4334,
  "\u2581mpfumelelo": 4335,
  "\u2581nivusiku": 4336,
  "\u2581tsake": 4337,
  "\u2581ndhuna": 4338,
  "\u2581rivali": 4339,
  "ul": 4340,
  "vo": 4341,
  "\u2581apparently": 4342,
  "\u2581lying": 4343,
  "\u2581xolexo": 4344,
  "\u2581Swo": 4345,
  "\u2581applying": 4346,
  "\u2581hanyisa": 4347,
  "\u2581marvelous": 4348,
  "\u2581titsongahataka": 4349,
  "ine": 4350,
  "\u258122;": 4351,
  "\u258127,": 4352,
  "\u2581Thessalonians": 4353,
  "\u2581cold": 4354,
  "\u2581grown": 4355,
  "\u2581scriptures": 4356,
  "\u2581xifundzha": 4357,
  "\u2581conventions": 4358,
  "\u2581herself": 4359,
  "\u2581identified": 4360,
  "\u2581ringiwa": 4361,
  "\u2581temptation": 4362,
  "\u2581Vatesalonika": 4363,
  "\u2581causing": 4364,
  "\u2581freely": 4365,
  "\u2581weight": 4366,
  "\u2581averiwe": 4367,
  "\u2581hetiseki": 4368,
  "\u2581langutaka": 4369,
  "\u25811992": 4370,
  "\u2581Tinhlamulo": 4371,
  "\u2581entitled": 4372,
  "\u2581lawuriwa": 4373,
  "\u2581lwisanaka": 4374,
  "\u2581terms": 4375,
  "\u2581tintangha": 4376,
  "\u2581Mosaic": 4377,
  "\u2581fumaka": 4378,
  "\u2581hate": 4379,
  "\u2581region": 4380,
  "\u2581scholars": 4381,
  "\u2581Faro": 4382,
  "\u2581ended": 4383,
  "\u2581hlayaka": 4384,
  "\u2581Isaka": 4385,
  "\u2581Paradeyisi": 4386,
  "\u2581belong": 4387,
  "\u2581Dyondza": 4388,
  "\u2581Ematik": 4389,
  "\u2581compare": 4390,
  "\u2581contribute": 4391,
  "\u2581official": 4392,
  "\u2581pfuneta": 4393,
  "\u2581tswala": 4394,
  "\u2581vuphayona": 4395,
  "\u2581Eden": 4396,
  "\u2581culture": 4397,
  "\u2581navelaka": 4398,
  "\u2581rhandziwa": 4399,
  "\u2581struggle": 4400,
  "\u2581vahlayi": 4401,
  "\u2581kanganyisa": 4402,
  "\u2581khongele": 4403,
  "\u2581nimixo": 4404,
  "\u2581reference": 4405,
  "\u2581vekiwe": 4406,
  "\u2581wexe": 4407,
  "Loyi": 4408,
  "\u2581endeavor": 4409,
  "\u2581nearby": 4410,
  "\u2581proof": 4411,
  "\u2581refer": 4412,
  "\u2581require": 4413,
  "\u2581vutiolori": 4414,
  "\u2581cancer": 4415,
  "\u2581souls": 4416,
  "\u2581tirhiseke": 4417,
  "wu": 4418,
  "\u2581Never": 4419,
  "\u2581Religion": 4420,
  "\u2581Teach": 4421,
  "\u2581boys": 4422,
  "\u2581moment": 4423,
  "\u2581peaceful": 4424,
  "\u2581xinene": 4425,
  "\u2581inhabited": 4426,
  "\u2581kandziyise": 4427,
  "\u2581recalls": 4428,
  "\u2581thelevhixini": 4429,
  "ph": 4430,
  "\u2581Magazini": 4431,
  "\u2581Pfuna": 4432,
  "\u2581illustrate": 4433,
  "\u2581slow": 4434,
  "\u2581top": 4435,
  "\u2581Dyondzisa": 4436,
  "hundzuluxeriweke": 4437,
  "\u2581Likewise": 4438,
  "\u2581average": 4439,
  "\u2581critical": 4440,
  "\u2581hangalasa": 4441,
  "\u2581khuvuriweke": 4442,
  "\u2581wickedness": 4443,
  "\u2581apart": 4444,
  "\u2581exactly": 4445,
  "\u2581layo": 4446,
  "\u2581potential": 4447,
  "\u2581resulted": 4448,
  "sikwini": 4449,
  "\u2581Vahlayi": 4450,
  "\u2581doctors": 4451,
  "\u2581privileges": 4452,
  "\u2581stars": 4453,
  "\u2581tlakusa": 4454,
  "one": 4455,
  "\u2581Students": 4456,
  "\u2581billion": 4457,
  "\u2581Nkoka": 4458,
  "\u2581Readers": 4459,
  "\u2581determine": 4460,
  "\u2581endlekeke": 4461,
  "\u2581worshippers": 4462,
  "\u2581fole": 4463,
  "\u25813]": 4464,
  "\u2581Maria": 4465,
  "\u2581companions": 4466,
  "\u2581level": 4467,
  "\u2581tekeke": 4468,
  "\u2581worldly": 4469,
  "\u2581create": 4470,
  "\u2581lessons": 4471,
  "Ndza": 4472,
  "\u2581El": 4473,
  "\u2581assistance": 4474,
  "\u2581birds": 4475,
  "\u2581kotisa": 4476,
  "\u2581vandla": 4477,
  "\u2581xiximiwa": 4478,
  "\u258166": 4479,
  "\u2581dyaka": 4480,
  "\u2581hlaye": 4481,
  "\u2581instructions": 4482,
  "\u2581phasa": 4483,
  "%": 4484,
  "\u25811997": 4485,
  "\u2581Makhatoliki": 4486,
  "\u2581Vavasati": 4487,
  "\u2581foot": 4488,
  "\u2581fornication": 4489,
  "\u2581reject": 4490,
  "\u2581tlherisela": 4491,
  "great": 4492,
  "walomu": 4493,
  "\u2581Ntlawa": 4494,
  "\u2581solution": 4495,
  "\u2581cell": 4496,
  "\u2581plant": 4497,
  "\u2581rulership": 4498,
  "\u2581sees": 4499,
  "\u2581Sara": 4500,
  "\u2581requirements": 4501,
  "\u2581sickness": 4502,
  "\u2581vuntshwa": 4503,
  "\u2581akiweke": 4504,
  "\u2581finding": 4505,
  "\u2581involve": 4506,
  "\u2581ntsindza": 4507,
  "\u2581remarkable": 4508,
  "\u2581black": 4509,
  "\u2581hambanile": 4510,
  "\u2581huge": 4511,
  "\u2581murhumiwa": 4512,
  "\u2581remnant": 4513,
  "\u2581upright": 4514,
  "\u2581Truth": 4515,
  "\u2581nyikelaka": 4516,
  "\u2581skills": 4517,
  "rile": 4518,
  "\u258144.": 4519,
  "\u2581West": 4520,
  "\u2581assembly": 4521,
  "\u2581pfuneka": 4522,
  "\u2581phofula": 4523,
  "\u2581stood": 4524,
  "\u2581River": 4525,
  "\u2581fularhela": 4526,
  "\u2581Web": 4527,
  "\u2581scientific": 4528,
  "\u2581tender": 4529,
  "\u2581LOKO": 4530,
  "\u2581angry": 4531,
  "\u2581ntivo": 4532,
  "\u2581satisfying": 4533,
  "\u2581skin": 4534,
  "\u2581listened": 4535,
  "\u2581provisions": 4536,
  "\u2581tshembi": 4537,
  "\u2581happens": 4538,
  "\u2581marry": 4539,
  "\u2581timinete": 4540,
  "\u2581tsemakanya": 4541,
  "\u2581Lama": 4542,
  "\u2581boha": 4543,
  "\u2581exists": 4544,
  "\u2581nine": 4545,
  "\u2581significant": 4546,
  "\u2581tiyimiserile": 4547,
  "\u2581twisisekaka": 4548,
  "\u2581constant": 4549,
  "\u2581keeps": 4550,
  "\u2581ntlhontlho": 4551,
  "\u2581tinkulumo": 4552,
  "\u2581indefinite": 4553,
  "\u2581nghohe": 4554,
  "\u2581rivilo": 4555,
  "\u2581strengthened": 4556,
  "\u2581Mufumi": 4557,
  "\u2581couples": 4558,
  "\u2581kindly": 4559,
  "\u2581mutirhi": 4560,
  "im": 4561,
  "\u2581Evhangeli": 4562,
  "\u2581Out": 4563,
  "\u2581fanelekaka": 4564,
  "\u2581refuge": 4565,
  "ist": 4566,
  "\u2581Masiku": 4567,
  "\u2581dzana": 4568,
  "\u2581injustice": 4569,
  "\u2581mavondzo": 4570,
  "\u2581nkhuvulo": 4571,
  "\u2581tirhi": 4572,
  "\u2581tshovela": 4573,
  "\u2581tswariweke": 4574,
  "\u2581writings": 4575,
  "\u2581Often": 4576,
  "\u2581miracles": 4577,
  "\u2581weak": 4578,
  "ia": 4579,
  "\u2581accomplished": 4580,
  "\u2581arranged": 4581,
  "\u2581gezi": 4582,
  "\u2581minutes": 4583,
  "\u2581stick": 4584,
  "\u2581Titus": 4585,
  "\u2581difficulties": 4586,
  "\u2581supply": 4587,
  "nd": 4588,
  "\u25814]": 4589,
  "\u2581Jonah": 4590,
  "\u2581Mat": 4591,
  "\u2581Service": 4592,
  "\u2581dyuhala": 4593,
  "\u2581failure": 4594,
  "\u2581physically": 4595,
  "\u2581Kombisa": 4596,
  "\u2581engage": 4597,
  "\u2581generally": 4598,
  "\u2581munyama": 4599,
  "\u2581straight": 4600,
  "\u2581150": 4601,
  "\u2581Columbia": 4602,
  "\u2581cells": 4603,
  "\u2581compared": 4604,
  "\u2581determination": 4605,
  "\u2581dyoha": 4606,
  "\u2581herile": 4607,
  "\u2581maendzo": 4608,
  "\u2581primary": 4609,
  "\u2581street": 4610,
  "\u2581television": 4611,
  "\u2581theme": 4612,
  "\u2581widow": 4613,
  "bi": 4614,
  "\u2581Sonto": 4615,
  "\u2581factor": 4616,
  "\u2581tiyisile": 4617,
  "\u2581Xiyimo": 4618,
  "\u2581heli": 4619,
  "\u2581traveled": 4620,
  "\u2581tshembaka": 4621,
  "\u2581wundla": 4622,
  "son": 4623,
  "\u25811994": 4624,
  "\u2581below": 4625,
  "\u2581male": 4626,
  "\u2581mistakes": 4627,
  "\u2581trip": 4628,
  "\u2581agreed": 4629,
  "\u2581clothing": 4630,
  "\u2581customs": 4631,
  "\u2581eMfun": 4632,
  "\u2581ntamu": 4633,
  "\u2581occasions": 4634,
  "\u2581veleka": 4635,
  "\u2581vonakiki": 4636,
  "\u2581Almighty": 4637,
  "\u2581Mbilu": 4638,
  "\u2581balance": 4639,
  "\u2581ematihlweni": 4640,
  "\u2581stone": 4641,
  "\u258131,": 4642,
  "\u258172": 4643,
  "\u2581Ehleketa": 4644,
  "\u2581remaining": 4645,
  "\u2581swiringanyeto": 4646,
  "\u2581twisiseka": 4647,
  "\u258134,": 4648,
  "\u2581Ndhawu": 4649,
  "\u2581walked": 4650,
  "\u2581titsona": 4651,
  "\u2581Vutisa": 4652,
  "\u2581kavanyeta": 4653,
  "Psalma": 4654,
  "\u2581abundant": 4655,
  "\u2581reminded": 4656,
  "\u2581sad": 4657,
  "\u2581conscious": 4658,
  "\u2581damage": 4659,
  "\u2581muganga": 4660,
  "\u2581relationships": 4661,
  "\u2581successfully": 4662,
  "swi": 4663,
  "zi": 4664,
  "\u2581North": 4665,
  "\u2581deeds": 4666,
  "\u2581kariha": 4667,
  "J": 4668,
  "\u2581Mupisalema": 4669,
  "\u2581Rutherford": 4670,
  "\u2581color": 4671,
  "\u2581nsimbi": 4672,
  "\u2581size": 4673,
  "\u2581surprised": 4674,
  "\u2581brochure": 4675,
  "\u2581firmly": 4676,
  "\u2581khumbe": 4677,
  "\u2581lokunene": 4678,
  "\u2581madimona": 4679,
  "\u2581variety": 4680,
  "\u2581Cor": 4681,
  "\u2581Don": 4682,
  "\u2581additional": 4683,
  "\u2581dear": 4684,
  "\u2581dwell": 4685,
  "\u2581increasing": 4686,
  "\u2581mildness": 4687,
  "\u2581Rhuti": 4688,
  "\u2581cares": 4689,
  "\u2581caught": 4690,
  "\u2581khomekile": 4691,
  "\u2581none": 4692,
  "\u2581rhurhele": 4693,
  "\u2581tsalele": 4694,
  "\u2581wedding": 4695,
  "\u2581Learn": 4696,
  "\u2581WHAT": 4697,
  "\u2581heteke": 4698,
  "\u2581kanetana": 4699,
  "\u2581langute": 4700,
  "\u2581remove": 4701,
  "\u2581selfish": 4702,
  "\u2581tshembise": 4703,
  "\u2581vange": 4704,
  "\u2581vekeke": 4705,
  "\u2581visiting": 4706,
  "vandleni": 4707,
  "\u2581marhambu": 4708,
  "\u2581per": 4709,
  "\u2581rendered": 4710,
  "\u2581resolve": 4711,
  "\u2581xikan": 4712,
  "ian": 4713,
  "\u2581advance": 4714,
  "\u2581exibedlhele": 4715,
  "\u2581provision": 4716,
  "\u2581vekela": 4717,
  "\u2581baseke": 4718,
  "\u2581heartfelt": 4719,
  "\u2581task": 4720,
  "\u2581tekaneke": 4721,
  "Look": 4722,
  "ies": 4723,
  "ty": 4724,
  "\u2581Study": 4725,
  "\u2581claimed": 4726,
  "\u2581declare": 4727,
  "\u2581ekamareni": 4728,
  "\u2581noni": 4729,
  "\u2581price": 4730,
  "\u2581timhangu": 4731,
  "\u25811914.": 4732,
  "\u2581swiluva": 4733,
  "\u2581timholovo": 4734,
  "\u2581tinyika": 4735,
  "ting": 4736,
  "\u2581Britannica": 4737,
  "\u2581Tibibele": 4738,
  "\u2581leaves": 4739,
  "\u2581nun": 4740,
  "\u2581sale": 4741,
  "\u2581seketeriwa": 4742,
  "\u2581matilweni": 4743,
  "\u2581vatekani": 4744,
  "\u2581worthy": 4745,
  "\u2581Ireland": 4746,
  "\u2581Micah": 4747,
  "\u2581tisola": 4748,
  "\u2581wilderness": 4749,
  "\u2581Mahungu": 4750,
  "\u2581Yonasi": 4751,
  "\u2581entsombanweni": 4752,
  "\u2581relations": 4753,
  "\u2581vukwembu": 4754,
  "As": 4755,
  "\u2581affairs": 4756,
  "\u2581covered": 4757,
  "\u2581leyitsongo": 4758,
  "\u2581threat": 4759,
  "\u2581xilo": 4760,
  "for": 4761,
  "\u2581Swin": 4762,
  "\u2581president": 4763,
  "\u2581treasure": 4764,
  "\u2581varisi": 4765,
  "\u2581victim": 4766,
  "Jesus": 4767,
  "\u2581Pet": 4768,
  "\u2581Vuhundzuluxeri": 4769,
  "\u2581bond": 4770,
  "\u2581grand": 4771,
  "\u2581ngo": 4772,
  "\u2581numerous": 4773,
  "\u2581planet": 4774,
  "\u2581surface": 4775,
  "\u2581ark": 4776,
  "\u2581misisi": 4777,
  "\u2581pfuniki": 4778,
  "\u2581sole": 4779,
  "\u2581vuyerisaka": 4780,
  "\u2581considering": 4781,
  "\u2581humesiwa": 4782,
  "\u2581pleased": 4783,
  "\u2581shepherds": 4784,
  "\u2581tshembisiweke": 4785,
  "ye": 4786,
  "\u2581Encyclop\u00e6dia": 4787,
  "\u2581district": 4788,
  "\u2581tikukumuxa": 4789,
  "Leswaku": 4790,
  "\u2581Ndhambi": 4791,
  "\u2581abandoned": 4792,
  "\u2581humelerile": 4793,
  "\u2581leswitsongo": 4794,
  "\u2581path": 4795,
  "\u2581weapons": 4796,
  "They": 4797,
  "\u2581Pentekosta": 4798,
  "\u2581evugandzerini": 4799,
  "\u2581inner": 4800,
  "\u2581speaker": 4801,
  "\u2581switsotswana": 4802,
  "men": 4803,
  "\u2581hluriwa": 4804,
  "\u2581houses": 4805,
  "\u2581lovers": 4806,
  "\u2581turning": 4807,
  "\u2581Visit": 4808,
  "\u2581exposed": 4809,
  "\u2581pictures": 4810,
  "\u2581rock": 4811,
  "\u2581tsakisiwa": 4812,
  "\u2581Sadly": 4813,
  "\u2581fit": 4814,
  "\u2581opposite": 4815,
  "\u2581tikopi": 4816,
  "\u2581akaka": 4817,
  "\u2581byeriwe": 4818,
  "\u2581hlongorisa": 4819,
  "\u2581midst": 4820,
  "\u2581olovela": 4821,
  "\u2581restored": 4822,
  "\u2581writers": 4823,
  "\u2581forest": 4824,
  "\u2581hetaka": 4825,
  "\u2581karhata": 4826,
  "\u2581leswintshwa": 4827,
  "\u2581tlakuka": 4828,
  "\u2581vangamaka": 4829,
  "\u2581appreciated": 4830,
  "\u2581vadyuhari": 4831,
  "\u2581Milawu": 4832,
  "\u2581Nisan": 4833,
  "\u2581anxious": 4834,
  "\u2581complex": 4835,
  "\u2581mixo": 4836,
  "\u2581rebellion": 4837,
  "\u2581swiletelo": 4838,
  "\u2581Eventually": 4839,
  "\u2581mention": 4840,
  "\u2581tirhelaka": 4841,
  "\u2581velekiwe": 4842,
  "\u2581Matt": 4843,
  "\u2581nghenaka": 4844,
  "\u2581sake": 4845,
  "\u2581spouse": 4846,
  "\u2581tirhisiweke": 4847,
  "\u2581400": 4848,
  "\u2581Museum": 4849,
  "\u2581Show": 4850,
  "\u2581bed": 4851,
  "\u2581cince": 4852,
  "\u2581punishment": 4853,
  "\u2581release": 4854,
  "\u2581Muyuda": 4855,
  "\u2581Poland": 4856,
  "\u2581Timhaka": 4857,
  "\u2581tivekaka": 4858,
  "\u2581union": 4859,
  "ter": 4860,
  "\u2581dzuneka": 4861,
  "\u2581harmful": 4862,
  "\u2581innocent": 4863,
  "\u258149": 4864,
  "\u2581Flood": 4865,
  "\u2581Pentecost": 4866,
  "\u2581amukeleke": 4867,
  "\u2581dangers": 4868,
  "\u2581khutaziwa": 4869,
  "\u2581lemuka": 4870,
  "\u2581mintiyiso": 4871,
  "\u2581susumetele": 4872,
  "\u2581tax": 4873,
  "mba": 4874,
  "\u2581Eminkarhi": 4875,
  "\u2581Sovereign": 4876,
  "\u2581karhatiwa": 4877,
  "\u2581tiendla": 4878,
  "\u2581degree": 4879,
  "\u2581discernment": 4880,
  "\u2581estimated": 4881,
  "\u2581kayivela": 4882,
  "\u2581pongo": 4883,
  "\u2581susumeteleke": 4884,
  "\u2581eIsrayele": 4885,
  "\u2581swifuwo": 4886,
  "\u2581titsakisa": 4887,
  "\u2581vuxisi": 4888,
  "\u258111]": 4889,
  "\u258119]": 4890,
  "\u2581HA": 4891,
  "\u2581Knorr": 4892,
  "\u2581anymore": 4893,
  "\u2581begotten": 4894,
  "\u2581invisible": 4895,
  "\u2581private": 4896,
  "\u2581qualified": 4897,
  "\u2581represented": 4898,
  "\u2581touch": 4899,
  "\u258120]": 4900,
  "\u2581Armagedoni": 4901,
  "\u2581Says": 4902,
  "\u2581accompany": 4903,
  "\u2581karhataka": 4904,
  "\u2581nyawuriki": 4905,
  "\u2581services": 4906,
  "\u2581vulavuleke": 4907,
  "land": 4908,
  "\u2581144": 4909,
  "\u2581cross": 4910,
  "\u2581meditate": 4911,
  "\u2581methods": 4912,
  "\u2581serves": 4913,
  "\u2581wall": 4914,
  "\u2581Am": 4915,
  "\u2581grief": 4916,
  "\u2581lebyintshwa": 4917,
  "\u2581model": 4918,
  "\u2581plan": 4919,
  "\u2581represent": 4920,
  "am": 4921,
  "\u2581eripfumelweni": 4922,
  "\u2581root": 4923,
  "\u2581xitiyisekiso": 4924,
  "\u2581Photo": 4925,
  "\u2581Tito": 4926,
  "\u2581aspect": 4927,
  "\u2581holding": 4928,
  "\u2581kotiki": 4929,
  "\u2581laid": 4930,
  "\u2581minkhuvo": 4931,
  "\u2581nyutliya": 4932,
  "\u2581pfala": 4933,
  "\u2581photo": 4934,
  "\u2581plants": 4935,
  "\u2581vaaka": 4936,
  "fu": 4937,
  "mp": 4938,
  "\u2581BY": 4939,
  "\u2581Edeni": 4940,
  "\u2581Manazi": 4941,
  "\u2581Profes": 4942,
  "\u2581SONGS": 4943,
  "\u2581adultery": 4944,
  "\u2581byongo": 4945,
  "\u2581chance": 4946,
  "\u2581dyondziseke": 4947,
  "\u2581fleshly": 4948,
  "\u2581foundation": 4949,
  "\u2581influenced": 4950,
  "\u2581nyangwa": 4951,
  "weti": 4952,
  "\u2581TINSIMU": 4953,
  "\u2581adult": 4954,
  "\u2581khandziya": 4955,
  "wanyana": 4956,
  "\u2581familiar": 4957,
  "\u2581healing": 4958,
  "\u2581mild": 4959,
  "\u2581scholar": 4960,
  "\u2581swiviko": 4961,
  "\u2581tiviwaka": 4962,
  "x": 4963,
  "\u25811999": 4964,
  "\u2581eager": 4965,
  "\u2581madyambu": 4966,
  "\u2581ought": 4967,
  "\u2581HIV": 4968,
  "\u2581communicate": 4969,
  "Ha": 4970,
  "\u25811945": 4971,
  "\u2581Xikhongelo": 4972,
  "\u2581disaster": 4973,
  "\u2581ema": 4974,
  "\u2581parable": 4975,
  "\u2581reaction": 4976,
  "\u2581vatirheli": 4977,
  "\u2581vulavuriwa": 4978,
  "\u2581xiyimiso": 4979,
  "Be": 4980,
  "\u2581Nehemiah": 4981,
  "\u2581Tin": 4982,
  "\u2581angula": 4983,
  "\u2581chapters": 4984,
  "\u2581involving": 4985,
  "\u2581spirituality": 4986,
  "\u2581vatsongo": 4987,
  "\u2581wipe": 4988,
  "\u2581xandzuka": 4989,
  "moya": 4990,
  "\u2581600": 4991,
  "\u2581Second": 4992,
  "\u2581attitudes": 4993,
  "\u2581conducted": 4994,
  "\u2581river": 4995,
  "\u2581scene": 4996,
  "\u2581tilo": 4997,
  "\u2581traditional": 4998,
  "\u2581xihaha": 4999,
  "ela": 5000,
  "\u2581audience": 5001,
  "\u2581historian": 5002,
  "\u2581kombaka": 5003,
  "\u2581possess": 5004,
  "\u2581reaching": 5005,
  "\u2581secure": 5006,
  "\u2581vafana": 5007,
  "\u2581xikhundlha": 5008,
  "\u258139.": 5009,
  "\u2581Mani": 5010,
  "\u2581Recall": 5011,
  "\u2581lunghisa": 5012,
  "\u2581muchini": 5013,
  "\u2581nuclear": 5014,
  "\u2581refuse": 5015,
  "\u2581ringaneke": 5016,
  "weke": 5017,
  "\u25811940": 5018,
  "\u2581Him": 5019,
  "\u2581Vamatiko": 5020,
  "\u2581humesiweke": 5021,
  "\u2581officials": 5022,
  "\u2581rights": 5023,
  "chi": 5024,
  "\u2581Upon": 5025,
  "\u2581custom": 5026,
  "\u2581literally": 5027,
  "\u2581obligation": 5028,
  "\u2581offers": 5029,
  "\u2581sinned": 5030,
  "\u2581tribes": 5031,
  "\u2581Death": 5032,
  "\u2581arise": 5033,
  "\u2581broken": 5034,
  "\u2581career": 5035,
  "\u2581commission": 5036,
  "\u2581masangu": 5037,
  "\u25811939": 5038,
  "\u2581Emisaveni": 5039,
  "\u2581Human": 5040,
  "\u2581acted": 5041,
  "\u2581asks": 5042,
  "\u2581dust": 5043,
  "\u2581michini": 5044,
  "\u2581properly": 5045,
  "\u2581signs": 5046,
  "ck": 5047,
  "\u2581Dad": 5048,
  "\u2581burden": 5049,
  "\u2581comforting": 5050,
  "\u2581dignity": 5051,
  "\u2581muvabyi": 5052,
  "\u2581thereafter": 5053,
  "\u2581vuriwe": 5054,
  "\u2581yise": 5055,
  "\u2581Paris": 5056,
  "\u2581hisekaka": 5057,
  "\u2581kucetela": 5058,
  "\u2581nyikeleke": 5059,
  "\u2581rate": 5060,
  "\u2581red": 5061,
  "\u2581tend": 5062,
  "\u2581tshembeki": 5063,
  "\u2581vumbiwa": 5064,
  "\u258130:": 5065,
  "\u258135:": 5066,
  "\u2581dark": 5067,
  "\u2581differ": 5068,
  "\u2581distance": 5069,
  "\u2581langutiwa": 5070,
  "\u2581mbango": 5071,
  "\u2581swivumbeko": 5072,
  "\u25811970": 5073,
  "\u2581Early": 5074,
  "\u2581Thomas": 5075,
  "\u2581visits": 5076,
  "How": 5077,
  "\u2581Give": 5078,
  "\u2581Lot": 5079,
  "\u2581Vativi": 5080,
  "\u2581content": 5081,
  "\u2581elwandle": 5082,
  "\u2581etlele": 5083,
  "\u2581khathalelaka": 5084,
  "\u2581misiha": 5085,
  "\u2581motivated": 5086,
  "\u2581rhurha": 5087,
  "Keep": 5088,
  "\u2581Russian": 5089,
  "\u2581attempt": 5090,
  "\u2581demonstrated": 5091,
  "\u2581gathering": 5092,
  "\u2581kwala": 5093,
  "\u2581mudyohi": 5094,
  "\u2581supported": 5095,
  "\u2581Promised": 5096,
  "\u2581suggest": 5097,
  "ja": 5098,
  "\u2581Malachi": 5099,
  "\u2581exercising": 5100,
  "\u2581observes": 5101,
  "\u2581plans": 5102,
  "\u2581played": 5103,
  "\u2581tirhisi": 5104,
  "\u2581useful": 5105,
  "\u2581\u015da": 5106,
  "ER": 5107,
  "\u2581Paseka": 5108,
  "\u2581basile": 5109,
  "\u2581torture": 5110,
  "\u2581touched": 5111,
  "\u2581Halls": 5112,
  "\u2581Hinkwerhu": 5113,
  "\u2581Tievhangeli": 5114,
  "\u2581approached": 5115,
  "\u2581store": 5116,
  "\u2581subjection": 5117,
  "\u2581languteleke": 5118,
  "\u2581possibly": 5119,
  "\u2581suddenly": 5120,
  "\u2581vumune": 5121,
  "\u2581Eastern": 5122,
  "\u2581associate": 5123,
  "\u2581bound": 5124,
  "\u2581broxara": 5125,
  "\u2581numbers": 5126,
  "\u2581ship": 5127,
  "\u2581sinners": 5128,
  "\u2581vuhedeni": 5129,
  "\u0161i": 5130,
  "\u2581LE": 5131,
  "\u2581Republic": 5132,
  "\u2581eYuropa": 5133,
  "\u2581gradually": 5134,
  "\u2581nawini": 5135,
  "\u2581prominent": 5136,
  "\u2581tweke": 5137,
  "\u2581vusweti": 5138,
  "\u2581ximfumo": 5139,
  "Ma": 5140,
  "ate": 5141,
  "but": 5142,
  "\u258117]": 5143,
  "\u25811996": 5144,
  "\u2581607": 5145,
  "\u2581begins": 5146,
  "\u2581struck": 5147,
  "\u2581swihaha": 5148,
  "\u2581vupela": 5149,
  "\u2581xivumbiwa": 5150,
  "\u2581Tirhisa": 5151,
  "\u2581corruption": 5152,
  "\u2581famous": 5153,
  "\u2581located": 5154,
  "\u2581niloko": 5155,
  "\u2581simeka": 5156,
  "\u2581tshembiseke": 5157,
  "\u258175": 5158,
  "\u2581JEHOVAH": 5159,
  "\u2581Low": 5160,
  "\u2581Please": 5161,
  "\u2581Vandlha": 5162,
  "\u2581dream": 5163,
  "\u2581dwelling": 5164,
  "\u2581reasoning": 5165,
  "\u2581suggestions": 5166,
  "ized": 5167,
  "ol": 5168,
  "\u25811980": 5169,
  "\u2581completed": 5170,
  "\u2581computer": 5171,
  "\u2581hlamala": 5172,
  "\u2581removed": 5173,
  "\u2581resources": 5174,
  "\u2581tamele": 5175,
  "\u2581tradition": 5176,
  "\u2581vabohiwa": 5177,
  "\u258151": 5178,
  "\u2581Chronicles": 5179,
  "\u2581Whatever": 5180,
  "\u2581charge": 5181,
  "\u2581deliverance": 5182,
  "\u2581emavokweni": 5183,
  "\u2581hardly": 5184,
  "\u2581lomu": 5185,
  "\u2581tivulaka": 5186,
  "\u2581unclean": 5187,
  "gi": 5188,
  "\u2581Ke": 5189,
  "\u2581Messianic": 5190,
  "\u2581discern": 5191,
  "\u2581mupfumeri": 5192,
  "\u2581ndzo": 5193,
  "\u2581won": 5194,
  "\u2581Caesar": 5195,
  "\u2581literal": 5196,
  "\u2581noticed": 5197,
  "\u2581recall": 5198,
  "\u2581Muprofeta": 5199,
  "\u2581Nehemiya": 5200,
  "\u2581Nhlayo": 5201,
  "\u2581Nhlengeletano": 5202,
  "\u2581annual": 5203,
  "\u2581eribuweni": 5204,
  "\u2581standard": 5205,
  "\u2581tisirhelela": 5206,
  "\u2581tsakisiki": 5207,
  "\u2581tswariwa": 5208,
  "\u258137.": 5209,
  "\u2581Court": 5210,
  "\u2581Swinene": 5211,
  "\u2581Tikronika": 5212,
  "\u2581boat": 5213,
  "\u2581dry": 5214,
  "\u2581exihundleni": 5215,
  "\u2581kwetsimaka": 5216,
  "\u258138.": 5217,
  "\u2581Shortly": 5218,
  "\u2581Tihol": 5219,
  "\u2581biwa": 5220,
  "\u2581hot": 5221,
  "\u2581inheritance": 5222,
  "\u2581northern": 5223,
  "\u2581allows": 5224,
  "\u2581reflected": 5225,
  "\u2581Mianakanyo": 5226,
  "\u2581concerns": 5227,
  "\u2581reputation": 5228,
  "\u2581rharhanganeke": 5229,
  "\u2581season": 5230,
  "\u2581tinhlayo": 5231,
  "swilo": 5232,
  "\u015di": 5233,
  "\u258111;": 5234,
  "\u2581Mikiya": 5235,
  "\u2581Philip": 5236,
  "\u2581San": 5237,
  "\u2581Swirho": 5238,
  "\u2581arrested": 5239,
  "\u2581art": 5240,
  "\u2581clothes": 5241,
  "\u2581error": 5242,
  "\u2581fanelekela": 5243,
  "\u2581hlanganeke": 5244,
  "\u2581hoxe": 5245,
  "\u2581outcome": 5246,
  "\u2581ruling": 5247,
  "\u2581tsandzekile": 5248,
  "W": 5249,
  "\u2581120": 5250,
  "\u2581Bill": 5251,
  "\u2581Hinkwaswo": 5252,
  "\u2581Vutlhari": 5253,
  "\u2581altar": 5254,
  "\u2581brief": 5255,
  "\u2581byeriwa": 5256,
  "\u2581cast": 5257,
  "\u2581chefu": 5258,
  "\u2581eMisaveni": 5259,
  "\u2581katsekaka": 5260,
  "\u2581mademona": 5261,
  "\u2581minyikelo": 5262,
  "\u2581pfuxeta": 5263,
  "\u2581quit": 5264,
  "\u2581tikaka": 5265,
  "\u2581tikarhata": 5266,
  "\u2581vumbe": 5267,
  "\u2581MU": 5268,
  "\u2581labor": 5269,
  "\u2581otherwise": 5270,
  "\u2581susumetiwa": 5271,
  "\u2581vulavuli": 5272,
  "fi": 5273,
  "\u2581China": 5274,
  "\u2581atmosphere": 5275,
  "\u2581pfa": 5276,
  "\u2581principal": 5277,
  "\u2581vekaka": 5278,
  "\u258140.": 5279,
  "\u2581Mali": 5280,
  "\u2581Name": 5281,
  "\u2581acting": 5282,
  "\u2581companion": 5283,
  "\u2581ntshovelo": 5284,
  "\u2581project": 5285,
  "\u2581repentance": 5286,
  "\u2581tshwuka": 5287,
  "\u2581Organization": 5288,
  "\u2581hlengeletana": 5289,
  "\u2581quick": 5290,
  "\u2581afterward": 5291,
  "\u2581avanyisiwa": 5292,
  "\u2581contain": 5293,
  "\u2581glad": 5294,
  "\u2581rely": 5295,
  "\u2581rindzela": 5296,
  "\u2581spirits": 5297,
  "\u2581Corinth": 5298,
  "\u2581Heights": 5299,
  "\u2581hlanganisiwa": 5300,
  "\u2581mark": 5301,
  "\u2581painful": 5302,
  "\u2581printed": 5303,
  "\u2581repeatedly": 5304,
  "\u2581repentant": 5305,
  "\u2581tolovelana": 5306,
  "vu": 5307,
  "\u258144": 5308,
  "\u2581Lota": 5309,
  "\u2581assignments": 5310,
  "\u2581broke": 5311,
  "\u2581hundzuluxeriwa": 5312,
  "\u2581khomeke": 5313,
  "\u2581tiyisaka": 5314,
  "\u2581trade": 5315,
  "\u2581xaka": 5316,
  "\u2581swiyenge": 5317,
  "\u2581Bag": 5318,
  "\u2581Jonathan": 5319,
  "\u2581Nhlamulo": 5320,
  "\u2581depressed": 5321,
  "\u2581ematilweni": 5322,
  "\u2581hisiwa": 5323,
  "\u2581origin": 5324,
  "\u2581property": 5325,
  "\u2581warns": 5326,
  "\u2581widely": 5327,
  "\u2581amukelaka": 5328,
  "\u2581arms": 5329,
  "\u2581gather": 5330,
  "\u2581pressures": 5331,
  "\u2581tindlu": 5332,
  "\u2581tribe": 5333,
  "\u2581victory": 5334,
  "\u2581willingly": 5335,
  "che": 5336,
  "\u2581approved": 5337,
  "\u2581arile": 5338,
  "\u2581endured": 5339,
  "\u2581hair": 5340,
  "\u2581lunghekele": 5341,
  "\u2581ndzetelo": 5342,
  "\u2581nghenelela": 5343,
  "Munhu": 5344,
  "ns": 5345,
  "our": 5346,
  "\u25818;": 5347,
  "\u2581Henry": 5348,
  "\u2581Vukati": 5349,
  "\u2581gratitude": 5350,
  "\u2581lunghekela": 5351,
  "\u2581memory": 5352,
  "\u2581paying": 5353,
  "ary": 5354,
  "\u25811930": 5355,
  "\u2581Grand": 5356,
  "\u2581interesting": 5357,
  "\u2581meaningful": 5358,
  "\u2581mutirheli": 5359,
  "\u2581nhlonge": 5360,
  "\u2581seketelaka": 5361,
  "\u2581vavabyi": 5362,
  "\u2581wondered": 5363,
  "\u2581xaxametiweke": 5364,
  "\u2581Ben": 5365,
  "\u2581arrangements": 5366,
  "\u2581sold": 5367,
  "\u2581summer": 5368,
  "Eka": 5369,
  "Yesu": 5370,
  "\u258136.": 5371,
  "\u2581Baal": 5372,
  "\u2581Loku": 5373,
  "\u2581Pacific": 5374,
  "\u2581Septuagint": 5375,
  "\u2581Zechariah": 5376,
  "\u2581ears": 5377,
  "\u2581finish": 5378,
  "\u2581lahlekeriwe": 5379,
  "\u2581mintlangu": 5380,
  "\u2581phikelela": 5381,
  "\u2581safety": 5382,
  "\u2581tiyiselela": 5383,
  "\u2581dress": 5384,
  "\u2581guilty": 5385,
  "\u2581intense": 5386,
  "\u2581mass": 5387,
  "\u2581passing": 5388,
  "\u2581pioneering": 5389,
  "\u2581tikombe": 5390,
  "\u2581tsaneke": 5391,
  "\u2581tsema": 5392,
  "bo": 5393,
  "\u25812001": 5394,
  "\u2581Ana": 5395,
  "\u2581Explain": 5396,
  "\u2581hanana": 5397,
  "\u2581leswin": 5398,
  "\u2581mavele": 5399,
  "\u2581nyikeriweke": 5400,
  "\u2581running": 5401,
  "\u2581t\u0161hav": 5402,
  "Un": 5403,
  "ever": 5404,
  "siwaka": 5405,
  "ze": 5406,
  "\u25812010": 5407,
  "\u2581Rhandza": 5408,
  "\u2581middle": 5409,
  "\u2581pleasant": 5410,
  "\u2581theocratic": 5411,
  "\u25812009": 5412,
  "\u2581Get": 5413,
  "\u2581Josephus": 5414,
  "\u2581KA": 5415,
  "\u2581Vuvabyi": 5416,
  "\u2581WHO": 5417,
  "\u2581belongs": 5418,
  "\u2581differences": 5419,
  "\u2581except": 5420,
  "\u2581hikwawo": 5421,
  "\u2581medicine": 5422,
  "\u2581tlhariheke": 5423,
  "\u2581twaka": 5424,
  "bu": 5425,
  "que": 5426,
  "risa": 5427,
  "\u25812008": 5428,
  "\u2581Tibuku": 5429,
  "\u2581credit": 5430,
  "\u2581durha": 5431,
  "\u2581encourages": 5432,
  "\u2581kandziyisiwe": 5433,
  "\u2581khumbeka": 5434,
  "\u2581kombisi": 5435,
  "\u2581kopi": 5436,
  "\u2581rindzele": 5437,
  "\u2581soil": 5438,
  "\u2581wupfeke": 5439,
  "\u2581Fear": 5440,
  "\u2581ale": 5441,
  "\u2581anakanye": 5442,
  "\u2581corrupt": 5443,
  "\u2581courageous": 5444,
  "\u2581hemba": 5445,
  "\u2581ina": 5446,
  "\u2581leriseke": 5447,
  "\u2581tinguvu": 5448,
  "eka": 5449,
  "\u258154": 5450,
  "\u2581Mo": 5451,
  "\u2581Scripture": 5452,
  "\u2581accord": 5453,
  "\u2581mothers": 5454,
  "\u2581reign": 5455,
  "\u2581frequently": 5456,
  "\u2581gembula": 5457,
  "\u2581laya": 5458,
  "\u2581texts": 5459,
  "Testamente": 5460,
  "\u2581Lazaro": 5461,
  "\u2581Within": 5462,
  "\u2581appeal": 5463,
  "\u2581avana": 5464,
  "\u2581descendants": 5465,
  "\u2581endleriwa": 5466,
  "\u2581evokweni": 5467,
  "\u2581haha": 5468,
  "\u2581invite": 5469,
  "\u2581kunguhate": 5470,
  "\u2581wholesome": 5471,
  "\u2581Cain": 5472,
  "\u2581Source": 5473,
  "\u2581Vandla": 5474,
  "\u2581cinciwile": 5475,
  "\u2581habit": 5476,
  "\u2581persecuted": 5477,
  "\u2581readily": 5478,
  "\u2581referring": 5479,
  "\u2581routine": 5480,
  "\u2581tivekela": 5481,
  "\u2581viewpoint": 5482,
  "Hosi": 5483,
  "ING": 5484,
  "\u2581FOR": 5485,
  "\u2581Men": 5486,
  "\u2581calm": 5487,
  "\u2581excellent": 5488,
  "\u2581hlawuleke": 5489,
  "\u2581kunguhata": 5490,
  "\u2581ndhawini": 5491,
  "\u2581permanent": 5492,
  "\u2581ran": 5493,
  "\u2581silivhere": 5494,
  "\u2581twisisaka": 5495,
  "\u2581xivandla": 5496,
  "\u2581Following": 5497,
  "\u2581establish": 5498,
  "\u2581gets": 5499,
  "\u2581greed": 5500,
  "\u2581possessions": 5501,
  "\u2581smoking": 5502,
  "\u25811998": 5503,
  "\u2581Happy": 5504,
  "\u2581Nathan": 5505,
  "\u2581Old": 5506,
  "\u2581Way": 5507,
  "\u2581burning": 5508,
  "\u2581profete": 5509,
  "\u2581siva": 5510,
  "\u2581spite": 5511,
  "\u2581tshembekeke": 5512,
  "\u2581xiximekaka": 5513,
  "\u2581yisiwe": 5514,
  "\u258161": 5515,
  "\u2581ethnic": 5516,
  "\u2581focused": 5517,
  "\u2581historical": 5518,
  "\u2581hlangavetana": 5519,
  "\u2581kandziyisiwa": 5520,
  "Kutani": 5521,
  "\u258100": 5522,
  "\u25812012": 5523,
  "\u2581Malandza": 5524,
  "\u2581Passover": 5525,
  "\u2581accepting": 5526,
  "\u2581features": 5527,
  "\u2581previous": 5528,
  "\u2581tinyungubyisa": 5529,
  "\u2581translations": 5530,
  "\u25813;": 5531,
  "\u2581Lazarus": 5532,
  "\u2581fanisiwa": 5533,
  "\u2581fields": 5534,
  "\u2581khompyuta": 5535,
  "\u2581rightly": 5536,
  "\u2581survey": 5537,
  "\u2581vike": 5538,
  "\u2581displayed": 5539,
  "\u2581finished": 5540,
  "\u2581merciful": 5541,
  "\u2581sivelaka": 5542,
  "\u2581temporary": 5543,
  "\u2581tsima": 5544,
  "\u2581yelana": 5545,
  "will": 5546,
  "\u2581Doing": 5547,
  "\u2581Vatican": 5548,
  "\u2581endlanga": 5549,
  "\u2581everywhere": 5550,
  "\u2581female": 5551,
  "\u2581fourth": 5552,
  "\u2581hunguteka": 5553,
  "\u2581modest": 5554,
  "\u2581nambu": 5555,
  "\u2581reliable": 5556,
  "\u2581south": 5557,
  "su": 5558,
  "\u2581Professor": 5559,
  "\u2581Xiphiqo": 5560,
  "\u2581aged": 5561,
  "\u2581empty": 5562,
  "\u2581faneleka": 5563,
  "\u2581heleriwa": 5564,
  "\u2581marked": 5565,
  "\u2581ntima": 5566,
  "\u2581table": 5567,
  "\u2581xuma": 5568,
  "age": 5569,
  "\u2581civil": 5570,
  "\u2581co": 5571,
  "\u2581divided": 5572,
  "\u2581feature": 5573,
  "\u2581isolated": 5574,
  "\u2581khomiweke": 5575,
  "\u2581royal": 5576,
  "\u2581singing": 5577,
  "\u2581tivise": 5578,
  "ile": 5579,
  "\u25811918": 5580,
  "\u2581Vumbhoni": 5581,
  "\u2581distant": 5582,
  "\u2581pfumeleriwa": 5583,
  "\u2581songs": 5584,
  "\u2581camps": 5585,
  "\u2581fighting": 5586,
  "\u2581vuphukuphuku": 5587,
  "ant": 5588,
  "\u2581Ehansi": 5589,
  "\u2581idolatry": 5590,
  "\u2581mudyondzisiwa": 5591,
  "\u2581ordered": 5592,
  "\u2581talks": 5593,
  "\u2581terrible": 5594,
  "\u2581thanks": 5595,
  "\u2581threatened": 5596,
  "\u2581tiendlekela": 5597,
  "\u2581tiyimiseleke": 5598,
  "\u2581visitors": 5599,
  "\u2581walls": 5600,
  "wasayense": 5601,
  "\u2581Tshembisiweke": 5602,
  "\u2581Yin": 5603,
  "\u2581brotherhood": 5604,
  "\u2581condemned": 5605,
  "\u2581ntsengo": 5606,
  "\u2581proud": 5607,
  "\u2581satisfied": 5608,
  "\u2581Besides": 5609,
  "\u2581Nazi": 5610,
  "\u2581Richard": 5611,
  "\u2581alert": 5612,
  "\u2581hlawulaka": 5613,
  "\u2581khwiri": 5614,
  "\u2581nguvu": 5615,
  "Private": 5616,
  "\u258147": 5617,
  "\u2581Concern": 5618,
  "\u2581afternoon": 5619,
  "\u2581faithfulness": 5620,
  "\u2581nyoka": 5621,
  "\u2581tshaha": 5622,
  "\u2581Vutivi": 5623,
  "\u2581abilities": 5624,
  "\u2581add": 5625,
  "\u2581devoted": 5626,
  "\u2581grave": 5627,
  "\u2581kuloni": 5628,
  "\u2581newly": 5629,
  "\u2581remind": 5630,
  "\u2581switlhavi": 5631,
  "\u25812011": 5632,
  "\u2581enerisaka": 5633,
  "\u2581phone": 5634,
  "\u2581resulting": 5635,
  "\u2581scale": 5636,
  "\u2581vakaneti": 5637,
  "\u2581visible": 5638,
  "aka": 5639,
  "\u258152": 5640,
  "\u2581Esther": 5641,
  "\u2581Swiphiqo": 5642,
  "\u2581stories": 5643,
  "wile": 5644,
  "\u2581Courtesy": 5645,
  "\u2581Nikatsongo": 5646,
  "\u2581chumayeriwa": 5647,
  "\u2581emavandlheni": 5648,
  "\u2581nkaneto": 5649,
  "\u2581wisely": 5650,
  "\u2581xihoko": 5651,
  "\u2581Report": 5652,
  "\u2581equal": 5653,
  "\u2581gimete": 5654,
  "\u2581nyanya": 5655,
  "\u2581professor": 5656,
  "\u2581ringa": 5657,
  "\u2581ximumu": 5658,
  "\u2581tihele": 5659,
  "\u2581wrath": 5660,
  "\u2581Abel": 5661,
  "\u2581Kayini": 5662,
  "\u2581Minor": 5663,
  "\u2581enjoying": 5664,
  "\u2581evolution": 5665,
  "\u2581existed": 5666,
  "\u2581gained": 5667,
  "\u25811740": 5668,
  "\u2581hetisise": 5669,
  "\u2581lower": 5670,
  "\u2581mabulo": 5671,
  "\u2581suicide": 5672,
  "AL": 5673,
  "\u2581Babylonian": 5674,
  "\u2581Empire": 5675,
  "\u2581admits": 5676,
  "\u2581admonition": 5677,
  "\u2581assures": 5678,
  "\u2581discouraged": 5679,
  "\u2581elements": 5680,
  "\u2581games": 5681,
  "\u2581hamba": 5682,
  "\u2581humbly": 5683,
  "\u2581muungameri": 5684,
  "\u2581nhlaselo": 5685,
  "\u2581patients": 5686,
  "\u2581products": 5687,
  "\u2581quiet": 5688,
  "\u2581traits": 5689,
  "\u2581vandlheni": 5690,
  "\u2581xiharhi": 5691,
  "\u2581144,000": 5692,
  "\u25811988": 5693,
  "\u2581Krugersdorp": 5694,
  "\u2581Malakiya": 5695,
  "\u2581Zakariya": 5696,
  "\u2581attacks": 5697,
  "\u2581ignore": 5698,
  "\u2581lawulaka": 5699,
  "\u2581reduce": 5700,
  "\u2581tidlaya": 5701,
  "\u2581xindzhuti": 5702,
  "\u2581Come": 5703,
  "\u2581Rhaxiya": 5704,
  "\u2581Tidyondzo": 5705,
  "\u2581access": 5706,
  "\u2581experts": 5707,
  "\u2581islands": 5708,
  "\u2581shortly": 5709,
  "\u2581toleto": 5710,
  "\u2581vuenti": 5711,
  "\u2581EKA": 5712,
  "\u2581En": 5713,
  "\u2581Vanghana": 5714,
  "\u2581Welcome": 5715,
  "\u2581adopted": 5716,
  "\u2581commands": 5717,
  "\u2581hanyisana": 5718,
  "\u2581miraculous": 5719,
  "\u2581moon": 5720,
  "\u2581pfuxiweke": 5721,
  "\u2581suggests": 5722,
  "\u2581traditions": 5723,
  "\u2581wear": 5724,
  "Kambe": 5725,
  "atted": 5726,
  "\u258111201": 5727,
  "\u2581Congregation": 5728,
  "\u2581Hlayisa": 5729,
  "\u2581Three": 5730,
  "\u2581byelaka": 5731,
  "\u2581emananga": 5732,
  "\u2581g": 5733,
  "\u2581happening": 5734,
  "\u2581instructed": 5735,
  "\u2581primarily": 5736,
  "\u2581schools": 5737,
  "\u2581Luther": 5738,
  "\u2581Nkambisiso": 5739,
  "\u2581Western": 5740,
  "\u2581claims": 5741,
  "\u2581depends": 5742,
  "\u2581drawing": 5743,
  "\u2581initiative": 5744,
  "\u2581mbitsi": 5745,
  "\u2581object": 5746,
  "\u2581stayed": 5747,
  "tela": 5748,
  "\u2581Know": 5749,
  "\u2581fallen": 5750,
  "\u2581paluxe": 5751,
  "\u2581sirhelelekile": 5752,
  "\u2581xitimela": 5753,
  "\u2581xoxe": 5754,
  "ndzi": 5755,
  "not": 5756,
  "\u2581NY": 5757,
  "\u2581awake": 5758,
  "\u2581commit": 5759,
  "\u2581contained": 5760,
  "\u2581facing": 5761,
  "\u2581opinion": 5762,
  "\u2581spending": 5763,
  "\u2581unless": 5764,
  "\u25812002": 5765,
  "\u2581Alexander": 5766,
  "\u2581acknowledge": 5767,
  "\u2581current": 5768,
  "\u2581kulaka": 5769,
  "\u2581ndleve": 5770,
  "\u2581reply": 5771,
  "\u2581tibyela": 5772,
  "\u2581tiyise": 5773,
  "\u2581tiyisiwa": 5774,
  "\u2581AND": 5775,
  "\u2581blame": 5776,
  "\u2581eParadeyisini": 5777,
  "\u2581moves": 5778,
  "\u2581sustain": 5779,
  "\u2581swigevenga": 5780,
  "\u2581unusual": 5781,
  "2067,": 5782,
  "riwe": 5783,
  "\u2581Granted": 5784,
  "\u2581associates": 5785,
  "\u2581eRhoma": 5786,
  "\u2581edzongeni": 5787,
  "\u2581extended": 5788,
  "\u2581finds": 5789,
  "\u2581items": 5790,
  "\u2581reads": 5791,
  "\u2581reap": 5792,
  "\u2581vuxiyaxiya": 5793,
  "\u2581welfare": 5794,
  "ie": 5795,
  "\u258156": 5796,
  "\u2581limit": 5797,
  "\u2581vayimeri": 5798,
  "\u2581Journal": 5799,
  "\u2581Martin": 5800,
  "\u2581Xilatini": 5801,
  "\u2581Year": 5802,
  "\u2581burned": 5803,
  "\u2581context": 5804,
  "\u2581fathers": 5805,
  "\u2581figurative": 5806,
  "\u2581guilt": 5807,
  "\u2581headquarters": 5808,
  "\u2581hlayise": 5809,
  "\u2581lowa": 5810,
  "\u2581restore": 5811,
  "\u2581thekinoloji": 5812,
  "ner": 5813,
  "of": 5814,
  "with": 5815,
  "\u2581145": 5816,
  "\u2581Mavito": 5817,
  "\u2581RA": 5818,
  "\u2581Up": 5819,
  "\u2581burisana": 5820,
  "\u2581dying": 5821,
  "\u2581Elisha": 5822,
  "\u2581Nambu": 5823,
  "\u2581agreement": 5824,
  "\u2581exiluvelweni": 5825,
  "\u2581philosophy": 5826,
  "\u2581velekiweke": 5827,
  ",\"": 5828,
  "\u2581Martha": 5829,
  "\u2581Science": 5830,
  "\u2581eTikweni": 5831,
  "\u2581inclined": 5832,
  "\u2581replaced": 5833,
  "\u2581returning": 5834,
  "\u2581symbolic": 5835,
  "\u2581tests": 5836,
  "To": 5837,
  "\u2581Swakudya": 5838,
  "\u2581application": 5839,
  "\u2581eJarimani": 5840,
  "\u2581eneleke": 5841,
  "\u2581fundamental": 5842,
  "\u2581inherit": 5843,
  "\u2581kumiweke": 5844,
  "\u2581laviki": 5845,
  "\u2581slavery": 5846,
  "\u2581swingani": 5847,
  "\u2581tlurisa": 5848,
  "\u25811943": 5849,
  "\u2581Hope": 5850,
  "\u2581Vi": 5851,
  "\u2581eBabilona": 5852,
  "\u2581enable": 5853,
  "\u2581looks": 5854,
  "\u2581pornography": 5855,
  "\u2581solid": 5856,
  "\u2581wrongdoing": 5857,
  "\u2581xiphephana": 5858,
  "\u2581Khezari": 5859,
  "\u2581calamity": 5860,
  "\u2581lowutsongo": 5861,
  "\u2581missing": 5862,
  "\u2581prisoners": 5863,
  "\u2581raising": 5864,
  "\u2581review": 5865,
  "\u2581tinyiketele": 5866,
  "\u2581beast": 5867,
  "\u2581feed": 5868,
  "\u2581kale": 5869,
  "\u2581paper": 5870,
  "\u2581swiaki": 5871,
  "\u2581thankful": 5872,
  "\u2581Elixa": 5873,
  "\u2581Galilee": 5874,
  "\u2581Mudyondzisi": 5875,
  "\u2581description": 5876,
  "\u2581ntanga": 5877,
  "\u2581officer": 5878,
  "\u2581rihlaza": 5879,
  "\u2581ringanisa": 5880,
  "\u2581sorts": 5881,
  "munhu": 5882,
  "neke": 5883,
  "\u2581Est": 5884,
  "\u2581Red": 5885,
  "\u2581admitted": 5886,
  "\u2581bi": 5887,
  "\u2581deaf": 5888,
  "\u2581grain": 5889,
  "\u2581swikombelo": 5890,
  "\u2581team": 5891,
  "\u2581universal": 5892,
  "ig": 5893,
  "\u2581California": 5894,
  "\u2581Catholics": 5895,
  "\u2581Joel": 5896,
  "\u2581Korinto": 5897,
  "\u2581Tinhlayo": 5898,
  "\u2581banga": 5899,
  "\u2581employment": 5900,
  "\u2581lawlessness": 5901,
  "\u2581matlhelo": 5902,
  "\u2581mavulavulelo": 5903,
  "\u2581meno": 5904,
  "\u2581mourning": 5905,
  "\u2581vukulu": 5906,
  "oko": 5907,
  "\u2581Judea": 5908,
  "\u2581Korea": 5909,
  "\u2581Middle": 5910,
  "\u2581Truly": 5911,
  "\u2581hlundzukile": 5912,
  "\u2581illustrations": 5913,
  "\u2581lerin": 5914,
  "\u2581pa": 5915,
  "\u2581sitting": 5916,
  "\u2581suggested": 5917,
  "\u2581tshembela": 5918,
  "by": 5919,
  "\u2581abandon": 5920,
  "\u2581explanation": 5921,
  "\u2581inherited": 5922,
  "\u2581mail": 5923,
  "\u2581obtained": 5924,
  "\u2581swihinga": 5925,
  "\u2581vamanana": 5926,
  "my": 5927,
  "\u2581Albert": 5928,
  "\u2581Living": 5929,
  "\u2581Worship": 5930,
  "\u2581assurance": 5931,
  "\u2581believing": 5932,
  "\u2581diet": 5933,
  "\u2581hambane": 5934,
  "\u2581introduced": 5935,
  "\u2581lovingly": 5936,
  "\u2581mphikizano": 5937,
  "\u2581prejudice": 5938,
  "\u2581readers": 5939,
  "\u2581rhange": 5940,
  "\u2581sang": 5941,
  "\u2581tsakele": 5942,
  "www": 5943,
  "\u2581Back": 5944,
  "\u2581Hezekiah": 5945,
  "\u2581Ntwanano": 5946,
  "\u2581Rihanyo": 5947,
  "\u2581VANHU": 5948,
  "\u2581accompanied": 5949,
  "\u2581emotionally": 5950,
  "\u2581imperfection": 5951,
  "\u2581langutekaka": 5952,
  "\u2581largest": 5953,
  "\u2581maendlelo": 5954,
  "\u2581realm": 5955,
  "ww": 5956,
  "\u2581Xiyuda": 5957,
  "\u2581citizens": 5958,
  "\u2581forgiving": 5959,
  "\u2581hell": 5960,
  "\u2581hlongola": 5961,
  "\u2581messages": 5962,
  "\u2581mintshungu": 5963,
  "\u2581pela": 5964,
  "\u2581preparing": 5965,
  "\u2581rejoicing": 5966,
  "\u2581southern": 5967,
  "\u2581tindzima": 5968,
  "\u2581tsakisiwe": 5969,
  "com": 5970,
  "\u2581Ephesus": 5971,
  "\u2581acknowledged": 5972,
  "\u2581cared": 5973,
  "\u2581concentration": 5974,
  "\u2581endlile": 5975,
  "\u2581iron": 5976,
  "\u2581maintaining": 5977,
  "\u2581munyu": 5978,
  "\u2581pursuing": 5979,
  "\u2581trusted": 5980,
  "\u2581tshikilela": 5981,
  "\u2581xalamukile": 5982,
  "if": 5983,
  "\u2581Egyptian": 5984,
  "\u2581Institute": 5985,
  "\u2581langutelaka": 5986,
  "\u2581mintshikilelo": 5987,
  "\u2581muvala": 5988,
  "\u2581streets": 5989,
  "\u2581survived": 5990,
  "\u2581avelana": 5991,
  "\u2581disasters": 5992,
  "\u2581leader": 5993,
  "\u2581lowly": 5994,
  "\u2581researchers": 5995,
  "\u2581rhumeriwa": 5996,
  "\u2581shed": 5997,
  "\u2581swinyenyana": 5998,
  "\u2581tsakisi": 5999,
  "ling": 6000,
  "\u2581Phepha": 6001,
  "\u2581executed": 6002,
  "\u2581fiki": 6003,
  "\u2581watching": 6004,
  "\u2581yelanaka": 6005,
  "No": 6006,
  "\u2581conflicts": 6007,
  "\u2581contributed": 6008,
  "\u2581ne": 6009,
  "\u2581preced": 6010,
  "\u2581scripture": 6011,
  "\u2581smoke": 6012,
  "\u2581tiyindlu": 6013,
  "\u2581weaknesses": 6014,
  "\u2581xiyisisa": 6015,
  "ful": 6016,
  "\u25811986": 6017,
  "\u2581Archive": 6018,
  "\u2581Endlaka": 6019,
  "\u2581Ndzawul": 6020,
  "\u2581Nigeria": 6021,
  "\u2581entangeni": 6022,
  "\u2581faneriwiki": 6023,
  "\u2581nhlikanhi": 6024,
  "\u2581ntsandza": 6025,
  "\u2581pfule": 6026,
  "\u2581protected": 6027,
  "\u2581sets": 6028,
  "\u2581vhinya": 6029,
  "ley": 6030,
  "\u2581Protestant": 6031,
  "\u2581Rifu": 6032,
  "\u2581campaign": 6033,
  "\u2581flee": 6034,
  "\u2581heat": 6035,
  "\u2581kumiwe": 6036,
  "\u2581media": 6037,
  "\u2581mimiri": 6038,
  "\u2581surrounded": 6039,
  "\u2581tshinele": 6040,
  "\u2581widespread": 6041,
  "ent": 6042,
  "ir": 6043,
  "\u2581Munghana": 6044,
  "\u2581Swona": 6045,
  "\u2581childhood": 6046,
  "\u2581compassionate": 6047,
  "\u2581cruel": 6048,
  "\u2581design": 6049,
  "\u2581khombyeni": 6050,
  "\u2581lemukisa": 6051,
  "\u2581saleke": 6052,
  "\u2581sources": 6053,
  "\u2581vumoya": 6054,
  "KA": 6055,
  "\u2581Sweden": 6056,
  "\u2581fun": 6057,
  "\u2581impact": 6058,
  "\u2581losing": 6059,
  "\u2581pleasing": 6060,
  "\u2581systems": 6061,
  "\u2581tinyimba": 6062,
  "\u2581winter": 6063,
  "\u2581wood": 6064,
  "\u258114]": 6065,
  "\u2581Marriage": 6066,
  "\u2581Si": 6067,
  "\u2581kongomisaka": 6068,
  "\u2581leto": 6069,
  "\u2581opposed": 6070,
  "\u2581space": 6071,
  "\u2581tear": 6072,
  "\u2581win": 6073,
  "\u25811987": 6074,
  "\u2581Stephen": 6075,
  "\u2581byarha": 6076,
  "\u2581dzongeni": 6077,
  "\u2581hangalaka": 6078,
  "\u2581heads": 6079,
  "\u2581location": 6080,
  "\u2581worker": 6081,
  "siwa": 6082,
  "\u2581Asa": 6083,
  "\u2581Papalata": 6084,
  "\u2581hola": 6085,
  "\u2581lines": 6086,
  "\u2581movement": 6087,
  "\u2581murder": 6088,
  "\u2581susumeteleka": 6089,
  "\u2581vulavuriweke": 6090,
  "\u2581yoxe": 6091,
  "ES": 6092,
  "Ti": 6093,
  "op": 6094,
  "\u25812005": 6095,
  "\u2581Aaron": 6096,
  "\u2581footnote": 6097,
  "\u2581hefemula": 6098,
  "\u2581hundzukeke": 6099,
  "\u2581length": 6100,
  "\u2581lexintshwa": 6101,
  "\u2581navetisa": 6102,
  "\u2581possession": 6103,
  "\u2581tekiweke": 6104,
  "Xi": 6105,
  "his": 6106,
  "\u25811935": 6107,
  "\u2581Anna": 6108,
  "\u2581Mutumbuluxi": 6109,
  "\u2581Review": 6110,
  "\u2581Table": 6111,
  "\u2581amukeli": 6112,
  "\u2581changing": 6113,
  "\u2581creature": 6114,
  "\u2581drew": 6115,
  "\u2581harsh": 6116,
  "\u2581hetisekanga": 6117,
  "\u2581judges": 6118,
  "\u2581mine": 6119,
  "\u2581rewarding": 6120,
  "\u2581xupula": 6121,
  "\u2581yingise": 6122,
  "ito": 6123,
  "\u2581Much": 6124,
  "\u2581Pilato": 6125,
  "\u2581Switzerland": 6126,
  "\u2581Vuxa": 6127,
  "\u2581identity": 6128,
  "\u2581kinds": 6129,
  "\u2581mpfilumpfilu": 6130,
  "\u2581proceeded": 6131,
  "\u2581programs": 6132,
  "\u2581significance": 6133,
  "\u2581simekiwa": 6134,
  "\u2581timovha": 6135,
  "\u2581vulavisisi": 6136,
  "\u2581warfare": 6137,
  "\u2581Endzeni": 6138,
  "\u2581accident": 6139,
  "\u2581hidden": 6140,
  "\u2581hlwela": 6141,
  "\u2581rhendzeleka": 6142,
  "\u2581sat": 6143,
  "\u2581symbol": 6144,
  "\u2581tihanci": 6145,
  "\u2581tivula": 6146,
  "fe": 6147,
  "hwaka": 6148,
  "\u258153": 6149,
  "\u2581Tala": 6150,
  "\u2581Tyndale": 6151,
  "\u2581challenging": 6152,
  "\u2581method": 6153,
  "\u2581nimadyambu": 6154,
  "\u2581tshinelela": 6155,
  "\u2581vumakwerhu": 6156,
  "\u2581vumbhisa": 6157,
  "\u2581Committee": 6158,
  "\u2581Gidi": 6159,
  "\u2581Jean": 6160,
  "\u2581Lamanene": 6161,
  "\u2581Nhloko": 6162,
  "\u2581fears": 6163,
  "\u2581holds": 6164,
  "\u2581partner": 6165,
  "\u2581rindzile": 6166,
  "\u2581tempted": 6167,
  "\u2581tisaka": 6168,
  "\u2581urges": 6169,
  "\u2581Muavanyisi": 6170,
  "\u2581Next": 6171,
  "\u2581chavelelaka": 6172,
  "\u2581eswi": 6173,
  "\u2581evanhwini": 6174,
  "\u2581grasp": 6175,
  "\u2581miracle": 6176,
  "\u2581ntirhisano": 6177,
  "\u2581thrown": 6178,
  "\u2581tlangeriwa": 6179,
  "Lava": 6180,
  "\u2581Age": 6181,
  "\u2581Lamb": 6182,
  "\u2581Modern": 6183,
  "\u2581Notice": 6184,
  "\u2581Sa": 6185,
  "\u2581conviction": 6186,
  "\u2581extend": 6187,
  "\u2581hambetaka": 6188,
  "\u2581immortal": 6189,
  "\u2581opposers": 6190,
  "\u2581siye": 6191,
  "\u2581Evidently": 6192,
  "\u2581Jordan": 6193,
  "\u2581comment": 6194,
  "\u2581fresh": 6195,
  "\u2581searching": 6196,
  "\u2581symptoms": 6197,
  "\u2581vangele": 6198,
  "gu": 6199,
  "\u2581Child": 6200,
  "\u2581Which": 6201,
  "\u2581emadorobeni": 6202,
  "\u2581swipimelo": 6203,
  "\u2581xihlala": 6204,
  "\u2581Avele": 6205,
  "\u2581Con": 6206,
  "\u2581capable": 6207,
  "\u2581check": 6208,
  "\u2581engaged": 6209,
  "\u2581generous": 6210,
  "\u2581hikwayo": 6211,
  "\u2581hundzile": 6212,
  "\u2581rhendzeleke": 6213,
  "\u2581supplies": 6214,
  "\u2581throw": 6215,
  "\u2581twanana": 6216,
  "\u2581unrighteous": 6217,
  "\u2581COVER": 6218,
  "\u2581Leviticus": 6219,
  "\u2581Pilate": 6220,
  "\u2581Swikombiso": 6221,
  "\u2581emintirhweni": 6222,
  "\u2581mativula": 6223,
  "\u2581playing": 6224,
  "\u2581repeated": 6225,
  "\u2581talanga": 6226,
  "\u2581Gospels": 6227,
  "\u2581Kor": 6228,
  "\u2581Use": 6229,
  "\u2581boxe": 6230,
  "\u2581central": 6231,
  "\u2581debt": 6232,
  "\u2581execution": 6233,
  "\u2581katsongo": 6234,
  "\u2581solve": 6235,
  "N\u1e0di": 6236,
  "ina": 6237,
  "les": 6238,
  "that": 6239,
  "\u2581Nghilandhi": 6240,
  "\u2581choices": 6241,
  "\u2581fanisa": 6242,
  "\u2581havambirhi": 6243,
  "\u2581mistake": 6244,
  "\u2581previously": 6245,
  "\u2581tikombisa": 6246,
  "\u2581tlhava": 6247,
  "\u2581yimbirhi": 6248,
  "tra": 6249,
  "\u2581Spiritual": 6250,
  "\u2581fruits": 6251,
  "\u2581hofisi": 6252,
  "\u2581khathalaka": 6253,
  "\u2581kombisiwe": 6254,
  "\u2581larger": 6255,
  "\u2581limitations": 6256,
  "\u2581ringetaka": 6257,
  "\u2581serpent": 6258,
  "\u2581turns": 6259,
  "\u2581upbuilding": 6260,
  "ah": 6261,
  "\u2581Matimu": 6262,
  "\u2581Years": 6263,
  "\u2581acquire": 6264,
  "\u2581amazing": 6265,
  "\u2581cincile": 6266,
  "\u2581delighted": 6267,
  "\u2581enabled": 6268,
  "\u2581glorify": 6269,
  "\u2581hlayiwa": 6270,
  "\u2581humankind": 6271,
  "\u2581marital": 6272,
  "\u2581mimovha": 6273,
  "\u2581mimpatswa": 6274,
  "\u2581ndzoviso": 6275,
  "\u2581nghenele": 6276,
  "\u2581relate": 6277,
  "\u2581Car": 6278,
  "\u2581chivirika": 6279,
  "\u2581cup": 6280,
  "\u2581dlayiwile": 6281,
  "\u2581exihlaleni": 6282,
  "\u2581foolish": 6283,
  "\u2581leteriwa": 6284,
  "\u2581mukongomisi": 6285,
  "\u2581rewarded": 6286,
  "\u2581rikwavo": 6287,
  "\u2581swakunwa": 6288,
  "\u2581tired": 6289,
  "\u2581tirhiseriwa": 6290,
  "\u2581vatatana": 6291,
  "\u2581Again": 6292,
  "\u2581Herod": 6293,
  "\u2581Millions": 6294,
  "\u2581Tsakela": 6295,
  "\u2581empire": 6296,
  "\u2581listeners": 6297,
  "\u2581load": 6298,
  "\u2581necessarily": 6299,
  "\u2581patiently": 6300,
  "\u2581politics": 6301,
  "\u2581range": 6302,
  "\u2581End": 6303,
  "\u2581Manuku": 6304,
  "\u2581benefited": 6305,
  "\u2581commonly": 6306,
  "\u2581crowds": 6307,
  "\u2581torha": 6308,
  "elo": 6309,
  "ver": 6310,
  "\u258118;": 6311,
  "\u2581Center": 6312,
  "\u2581fitting": 6313,
  "\u2581gingiriteka": 6314,
  "\u2581kombisiwaka": 6315,
  "\u2581letintshwa": 6316,
  "\u2581lips": 6317,
  "\u2581makhamba": 6318,
  "\u2581rihisela": 6319,
  "\u2581Library": 6320,
  "\u2581Things": 6321,
  "\u2581ematimbeni": 6322,
  "\u2581hisaka": 6323,
  "\u2581hlamba": 6324,
  "\u2581income": 6325,
  "\u2581katekisiwa": 6326,
  "\u2581meek": 6327,
  "\u2581motives": 6328,
  "\u2581pick": 6329,
  "\u2581sula": 6330,
  "\u2581tendency": 6331,
  "\u2581virtual": 6332,
  "ngiweke": 6333,
  "\u25812004": 6334,
  "\u2581dies": 6335,
  "\u2581figure": 6336,
  "\u2581hunger": 6337,
  "\u2581karhatekile": 6338,
  "\u2581mindzulamiso": 6339,
  "\u2581technology": 6340,
  "\u2581xonga": 6341,
  "WANA": 6342,
  "\u25811950": 6343,
  "\u2581Li": 6344,
  "\u2581Near": 6345,
  "\u2581addressed": 6346,
  "\u2581approaching": 6347,
  "\u2581depend": 6348,
  "\u2581kambisisiwa": 6349,
  "\u2581kombelaka": 6350,
  "\u2581manyala": 6351,
  "\u2581mimbuyelo": 6352,
  "\u2581publicly": 6353,
  "\u2581rhumeke": 6354,
  "\u2581station": 6355,
  "eke": 6356,
  "kumbe": 6357,
  "ny": 6358,
  "ster": 6359,
  "vana": 6360,
  "\u2581View": 6361,
  "\u2581ehofisini": 6362,
  "\u2581gandzelaka": 6363,
  "\u2581huhuteriwe": 6364,
  "\u2581lero": 6365,
  "\u2581perfection": 6366,
  "\u2581pieces": 6367,
  "\u2581possibility": 6368,
  "\u2581swoleswo": 6369,
  "\u2581teki": 6370,
  "\u2581tiny": 6371,
  "\u2581varhandziwa": 6372,
  "cha": 6373,
  "kile": 6374,
  "loyi": 6375,
  "\u2581Prayer": 6376,
  "\u2581discussions": 6377,
  "\u2581eliminate": 6378,
  "\u2581poured": 6379,
  "\u2581tumbuluxa": 6380,
  "\u2581vitane": 6381,
  "wamabindzu": 6382,
  "\u2581Heroda": 6383,
  "\u2581Pictorial": 6384,
  "\u2581bride": 6385,
  "\u2581capacity": 6386,
  "\u2581ends": 6387,
  "\u2581pregnant": 6388,
  "\u2581preserve": 6389,
  "\u2581timitsu": 6390,
  "\u2581video": 6391,
  "\u2581whereas": 6392,
  "gen": 6393,
  "ros": 6394,
  "\u2581Amukela": 6395,
  "\u2581Tlu": 6396,
  "\u2581attain": 6397,
  "\u2581bitter": 6398,
  "\u2581seventh": 6399,
  "\u2581tsundzuxile": 6400,
  "\u2581vangeke": 6401,
  "con": 6402,
  "\u2581Austria": 6403,
  "\u2581Interestingly": 6404,
  "\u2581Unlike": 6405,
  "\u2581applies": 6406,
  "\u2581floor": 6407,
  "\u2581intended": 6408,
  "\u2581khorwiseka": 6409,
  "\u2581proverb": 6410,
  "\u2581refreshing": 6411,
  "\u2581ringanisiwa": 6412,
  "\u2581sports": 6413,
  "\u2581strengthening": 6414,
  "\u2581sufficient": 6415,
  "\u2581title": 6416,
  "\u2581tobacco": 6417,
  "\u2581tshami": 6418,
  "\u2581weather": 6419,
  "res": 6420,
  "\u2581Giliyadi": 6421,
  "\u2581demands": 6422,
  "\u2581feriweke": 6423,
  "\u2581judicial": 6424,
  "\u2581mid": 6425,
  "\u2581ntlhantlho": 6426,
  "\u2581ruled": 6427,
  "\u2581vudyoho": 6428,
  "\u2581Master": 6429,
  "\u2581hlawuriwa": 6430,
  "\u2581hlayisiwa": 6431,
  "\u2581marhavi": 6432,
  "\u2581meat": 6433,
  "\u2581obeying": 6434,
  "\u2581pfumelelani": 6435,
  "\u2581records": 6436,
  "\u2581similarly": 6437,
  "\u2581tihungasa": 6438,
  "\u2581vunkombo": 6439,
  "Hikwalaho": 6440,
  "ler": 6441,
  "leswi": 6442,
  "q": 6443,
  "\u2581Jew": 6444,
  "\u2581Making": 6445,
  "\u2581beat": 6446,
  "\u2581byanyi": 6447,
  "\u2581commandment": 6448,
  "\u2581crisis": 6449,
  "\u2581famine": 6450,
  "\u2581pulanete": 6451,
  "\u2581swiavelo": 6452,
  "\u2581testimony": 6453,
  "rha": 6454,
  "\u2581Gen": 6455,
  "\u2581difficulty": 6456,
  "\u2581ebandlheni": 6457,
  "\u2581market": 6458,
  "\u2581mintlhontlho": 6459,
  "\u2581nharhu": 6460,
  "\u2581theory": 6461,
  "\u2581ungodly": 6462,
  "\u2581vunwa": 6463,
  "mbe": 6464,
  "\u00e3o": 6465,
  "\u2581begun": 6466,
  "\u2581chayela": 6467,
  "\u2581enta": 6468,
  "\u2581equipped": 6469,
  "\u2581examination": 6470,
  "\u2581karhele": 6471,
  "\u2581ntshava": 6472,
  "tion": 6473,
  "\u25811941": 6474,
  "\u2581Dead": 6475,
  "\u2581Xikarhi": 6476,
  "\u2581jobs": 6477,
  "\u2581madoroba": 6478,
  "\u2581ntila": 6479,
  "\u2581residents": 6480,
  "\u2581selected": 6481,
  "\u2581sentence": 6482,
  "fa": 6483,
  "hwela": 6484,
  "\u2581Emahlweni": 6485,
  "\u2581Viewpoint": 6486,
  "\u2581Zephaniah": 6487,
  "\u2581author": 6488,
  "\u2581covering": 6489,
  "\u2581ekampeni": 6490,
  "\u2581friendly": 6491,
  "\u2581hume": 6492,
  "\u2581khuvuriwe": 6493,
  "\u2581lunghiselele": 6494,
  "\u2581milomu": 6495,
  "\u2581nyanyulaka": 6496,
  "\u2581respected": 6497,
  "\u2581stronger": 6498,
  "\u2581switirho": 6499,
  "\u2581tiyisekise": 6500,
  "0": 6501,
  "\u2581AS": 6502,
  "\u2581Japanese": 6503,
  "\u2581Riendzo": 6504,
  "\u2581Trust": 6505,
  "\u2581dzunisiwa": 6506,
  "\u2581extra": 6507,
  "\u2581koteke": 6508,
  "\u2581mo": 6509,
  "\u2581operation": 6510,
  "\u2581outlook": 6511,
  "\u2581types": 6512,
  "\u2581worry": 6513,
  "id": 6514,
  "ous": 6515,
  "\u2581declaring": 6516,
  "\u2581ear": 6517,
  "\u2581elsewhere": 6518,
  "\u2581eternity": 6519,
  "\u2581evhangeli": 6520,
  "\u2581faneriwa": 6521,
  "\u2581injury": 6522,
  "\u2581portion": 6523,
  "\u2581reside": 6524,
  "\u2581twile": 6525,
  "Near": 6526,
  "Tlhandlakambirhi": 6527,
  "bukwini": 6528,
  "j": 6529,
  "\u2581Contents": 6530,
  "\u2581Heriki": 6531,
  "\u2581Insight": 6532,
  "\u2581chumayeleni": 6533,
  "\u2581disorder": 6534,
  "\u2581east": 6535,
  "\u2581tested": 6536,
  "\u2581tifilimi": 6537,
  "\u2581xisandzu": 6538,
  "Komiti": 6539,
  "\u2581NDZI": 6540,
  "\u2581faces": 6541,
  "\u2581fambi": 6542,
  "\u2581guided": 6543,
  "\u2581kukotisa": 6544,
  "\u2581ntungu": 6545,
  "\u2581phamela": 6546,
  "\u2581twi": 6547,
  "\u2581vurhongo": 6548,
  "\u2581weigh": 6549,
  "\u25811985": 6550,
  "\u2581Constantine": 6551,
  "\u2581Map": 6552,
  "\u2581Nyika": 6553,
  "\u2581accused": 6554,
  "\u2581drama": 6555,
  "\u2581linked": 6556,
  "\u2581voninga": 6557,
  "siku": 6558,
  "\u25811947": 6559,
  "\u2581Easter": 6560,
  "\u2581Jude": 6561,
  "\u2581Lines": 6562,
  "\u2581drive": 6563,
  "\u2581khumbi": 6564,
  "\u2581rhangelaka": 6565,
  "\u2581schedule": 6566,
  "\u2581twice": 6567,
  "\u2581vakulukumba": 6568,
  "\u2581xigwevo": 6569,
  "ance": 6570,
  "\u2581Eli": 6571,
  "\u2581Elizabeth": 6572,
  "\u2581Vaegipta": 6573,
  "\u2581buildings": 6574,
  "\u2581enon": 6575,
  "\u2581kumisisa": 6576,
  "\u2581mambe": 6577,
  "\u2581mates": 6578,
  "\u2581mbirhi": 6579,
  "\u2581reminds": 6580,
  "\u2581stands": 6581,
  "\u2581yitsongo": 6582,
  "tic": 6583,
  "\u2581cure": 6584,
  "\u2581rhekhodo": 6585,
  "\u2581witnessed": 6586,
  "\u2581wutsongo": 6587,
  "shi": 6588,
  "\u2581Enoch": 6589,
  "\u2581IT": 6590,
  "\u2581Kwihi": 6591,
  "\u2581Zion": 6592,
  "\u2581bus": 6593,
  "\u2581kanetiwa": 6594,
  "\u2581peers": 6595,
  "\u2581silent": 6596,
  "\u2581suke": 6597,
  "\u2581twela": 6598,
  "AN": 6599,
  "\u2581Hezekiya": 6600,
  "\u2581eNew": 6601,
  "\u2581hit": 6602,
  "\u2581hlayisaka": 6603,
  "\u2581illustrated": 6604,
  "\u2581journal": 6605,
  "\u2581lehe": 6606,
  "\u2581mbhandzu": 6607,
  "\u2581sexually": 6608,
  "\u2581volunteers": 6609,
  "ad": 6610,
  "hla": 6611,
  "\u2581hlele": 6612,
  "\u2581holova": 6613,
  "\u2581nyiki": 6614,
  "\u2581radio": 6615,
  "\u2581sacrificing": 6616,
  "\u2581teenager": 6617,
  "\u2581telephone": 6618,
  "\u2581tinhlengeletano": 6619,
  "\u2581trusting": 6620,
  "ED": 6621,
  "\u2581103": 6622,
  "\u25811989": 6623,
  "\u258183": 6624,
  "\u2581Divine": 6625,
  "\u2581Hlamula": 6626,
  "\u2581Muprista": 6627,
  "\u2581arrival": 6628,
  "\u2581climate": 6629,
  "\u2581gambling": 6630,
  "\u2581hlamuseleke": 6631,
  "\u2581inspiring": 6632,
  "\u2581lulamangiki": 6633,
  "\u2581nsele": 6634,
  "\u2581phyuphyisa": 6635,
  "\u2581profesa": 6636,
  "\u2581prosperity": 6637,
  "\u2581remembered": 6638,
  "\u2581satisfy": 6639,
  "\u2581tinyike": 6640,
  "\u2581Close": 6641,
  "\u2581Vaavanyisi": 6642,
  "\u2581dlayiweke": 6643,
  "\u2581doors": 6644,
  "\u2581totally": 6645,
  "ji": 6646,
  "\u25811914,": 6647,
  "\u2581Little": 6648,
  "\u2581miseve": 6649,
  "\u2581pfilunganyeka": 6650,
  "\u2581profound": 6651,
  "\u2581tibiliyoni": 6652,
  "\u2581yimelaka": 6653,
  "seke": 6654,
  "\u2581Any": 6655,
  "\u2581Creation": 6656,
  "\u2581Right": 6657,
  "\u2581Tindlela": 6658,
  "\u2581Vaaki": 6659,
  "\u2581killing": 6660,
  "\u2581morally": 6661,
  "\u2581regardless": 6662,
  "\u2581vukari": 6663,
  "\u2581weakness": 6664,
  "\u258142.": 6665,
  "\u2581Avoid": 6666,
  "\u2581Pa": 6667,
  "\u2581Sam": 6668,
  "\u2581Vulavula": 6669,
  "\u2581chumayelaka": 6670,
  "\u2581educational": 6671,
  "\u2581hospitality": 6672,
  "\u2581preserved": 6673,
  "\u2581xitlhavelo": 6674,
  "\u2581700": 6675,
  "\u2581Art": 6676,
  "\u2581Netherlands": 6677,
  "\u2581coast": 6678,
  "\u2581enables": 6679,
  "\u2581fikelele": 6680,
  "\u2581imprisoned": 6681,
  "\u2581jealousy": 6682,
  "\u2581lontshwa": 6683,
  "\u2581practiced": 6684,
  "\u2581printing": 6685,
  "\u2581tlharihile": 6686,
  "By": 6687,
  "Who": 6688,
  "Your": 6689,
  "\u2581Amos": 6690,
  "\u2581Efesa": 6691,
  "\u2581periods": 6692,
  "\u2581recreation": 6693,
  "\u2581tihlamulela": 6694,
  "\u2581titimela": 6695,
  "\u2581vurhena": 6696,
  "lin": 6697,
  "ntshungu": 6698,
  "ut": 6699,
  "\u2581Muntshwa": 6700,
  "\u2581achieve": 6701,
  "\u2581flood": 6702,
  "\u2581salt": 6703,
  "\u2581tlhandlamaka": 6704,
  "&": 6705,
  "\u2581Draw": 6706,
  "\u2581Fa": 6707,
  "\u2581HOW": 6708,
  "\u2581IS": 6709,
  "\u2581Wisdom": 6710,
  "\u2581ban": 6711,
  "\u2581exert": 6712,
  "\u2581permission": 6713,
  "\u2581plenty": 6714,
  "\u2581sending": 6715,
  "\u2581sweka": 6716,
  "\u2581tisiwa": 6717,
  "\u2581tsemaka": 6718,
  "\u2581Gentiles": 6719,
  "\u2581THIS": 6720,
  "\u2581demand": 6721,
  "\u2581kokwa": 6722,
  "\u2581vapfhumba": 6723,
  "EL": 6724,
  "ated": 6725,
  "ber": 6726,
  "\u25812,000": 6727,
  "\u25812483": 6728,
  "\u2581Certainly": 6729,
  "\u2581YI": 6730,
  "\u2581double": 6731,
  "\u2581governing": 6732,
  "\u2581hlakarhela": 6733,
  "\u2581khathaleriwa": 6734,
  "\u2581kotekaka": 6735,
  "\u2581landzele": 6736,
  "\u2581proclaimers": 6737,
  "\u2581Frank": 6738,
  "\u2581Ndzimana": 6739,
  "\u2581announced": 6740,
  "\u2581green": 6741,
  "\u2581kanharhu": 6742,
  "\u2581materials": 6743,
  "\u2581mphikamakaneta": 6744,
  "\u2581ngalava": 6745,
  "\u2581prophesied": 6746,
  "\u2581rimbe": 6747,
  "\u2581survival": 6748,
  "\u2581tsandzekaka": 6749,
  "\u2581vangamisa": 6750,
  "\u2581xitekela": 6751,
  "\u2581yoke": 6752,
  "ot": 6753,
  "\u2581Ex": 6754,
  "\u2581Mati": 6755,
  "\u2581Ntshava": 6756,
  "\u2581Ukraine": 6757,
  "\u2581admit": 6758,
  "\u2581exchange": 6759,
  "\u2581informed": 6760,
  "\u2581milk": 6761,
  "\u2581minongonoko": 6762,
  "\u2581muyimeri": 6763,
  "\u2581objects": 6764,
  "\u2581settled": 6765,
  "\u2581vekele": 6766,
  "\u2581woxe": 6767,
  "ger": 6768,
  "ngelaka": 6769,
  "ted": 6770,
  "\u2581Hannah": 6771,
  "\u2581Xinyimpfana": 6772,
  "\u2581kambisise": 6773,
  "\u2581muavanyisi": 6774,
  "\u2581tekeriwa": 6775,
  "ally": 6776,
  "\u2581Ntshaveni": 6777,
  "\u2581ambale": 6778,
  "\u2581masimu": 6779,
  "\u2581occurs": 6780,
  "\u2581pima": 6781,
  "\u2581post": 6782,
  "\u2581profeta": 6783,
  "\u2581surgery": 6784,
  "\u2581xibalo": 6785,
  "masikwini": 6786,
  "\u258133:": 6787,
  "\u2581Andrew": 6788,
  "\u2581Elders": 6789,
  "\u2581Far": 6790,
  "\u2581Vahuweleri": 6791,
  "\u2581discussing": 6792,
  "\u2581entirely": 6793,
  "\u2581hoped": 6794,
  "\u2581limits": 6795,
  "\u2581privileged": 6796,
  "\u2581repent": 6797,
  "\u2581tongues": 6798,
  "Why": 6799,
  "\u2581BE": 6800,
  "\u2581Were": 6801,
  "\u2581acquainted": 6802,
  "\u2581statements": 6803,
  "\u2581tekanile": 6804,
  "\u2581vukhume": 6805,
  "wo": 6806,
  "\u2581110": 6807,
  "\u2581Ba": 6808,
  "\u2581Bali": 6809,
  "\u2581Vuxeni": 6810,
  "\u2581bihile": 6811,
  "\u2581exact": 6812,
  "\u2581fishing": 6813,
  "\u2581fought": 6814,
  "\u2581lifestyle": 6815,
  "\u2581ntshunxiwile": 6816,
  "\u2581obvious": 6817,
  "\u2581resort": 6818,
  "\u2581rivoni": 6819,
  "\u2581simeke": 6820,
  "\u2581tumbeta": 6821,
  "sta": 6822,
  "\u2581(4)": 6823,
  "\u2581karhala": 6824,
  "\u2581kumile": 6825,
  "\u2581malangutelo": 6826,
  "\u2581native": 6827,
  "\u2581switsongo": 6828,
  "\u2581talked": 6829,
  "\u2581tumbela": 6830,
  "\u2581upset": 6831,
  "\u2581vukongomisi": 6832,
  "landzeri": 6833,
  "\u2581Langutana": 6834,
  "\u2581Likely": 6835,
  "\u2581Naomi": 6836,
  "\u2581Yudiya": 6837,
  "\u2581ehleketi": 6838,
  "\u2581ehubyeni": 6839,
  "\u2581hide": 6840,
  "\u2581hlule": 6841,
  "\u2581intelligent": 6842,
  "\u2581kutsuriwa": 6843,
  "\u2581nxungeto": 6844,
  "\u2581pfuxe": 6845,
  "\u2581separated": 6846,
  "\u2581tsanile": 6847,
  "anga": 6848,
  "ern": 6849,
  "et": 6850,
  "riwile": 6851,
  "\u2581Enoko": 6852,
  "\u2581Judge": 6853,
  "\u2581Mahanyelo": 6854,
  "\u2581criminal": 6855,
  "\u2581healed": 6856,
  "\u2581hlamuseriwaka": 6857,
  "\u2581khomaka": 6858,
  "\u2581tirhisiwe": 6859,
  "\u2581xileswi": 6860,
  "Go": 6861,
  "av": 6862,
  "day": 6863,
  "\u2581%": 6864,
  "\u2581Savata": 6865,
  "\u2581Timfanelo": 6866,
  "\u2581Vugandzeri": 6867,
  "\u2581desirable": 6868,
  "\u2581director": 6869,
  "\u2581ensure": 6870,
  "\u2581funengeta": 6871,
  "\u2581hopes": 6872,
  "\u2581khomiwile": 6873,
  "\u2581mav": 6874,
  "\u2581sungulaka": 6875,
  "ld": 6876,
  "\u258173": 6877,
  "\u2581Ancient": 6878,
  "\u2581Zealand": 6879,
  "\u2581effectively": 6880,
  "\u2581entrusted": 6881,
  "\u2581hated": 6882,
  "\u2581hundzukile": 6883,
  "\u2581leteriweke": 6884,
  "\u2581milandzu": 6885,
  "\u2581miyela": 6886,
  "\u2581narrow": 6887,
  "\u2581tent": 6888,
  "\u2581(19": 6889,
  "\u258164": 6890,
  "\u2581Need": 6891,
  "\u2581Women": 6892,
  "\u2581cukumeta": 6893,
  "\u2581eXikolweni": 6894,
  "\u2581faneleki": 6895,
  "\u2581handed": 6896,
  "\u2581manuscripts": 6897,
  "\u2581storm": 6898,
  "\u2581taleke": 6899,
  "\u2581vaavanyisi": 6900,
  "\u2581vhidiyo": 6901,
  "Z": 6902,
  "\u2581Chinese": 6903,
  "\u2581Ho": 6904,
  "\u2581Last": 6905,
  "\u2581Mpfuno": 6906,
  "\u2581chela": 6907,
  "\u2581dyohile": 6908,
  "\u2581immediate": 6909,
  "\u2581namely": 6910,
  "\u2581professional": 6911,
  "\u2581shoulder": 6912,
  "\u2581speed": 6913,
  "\u2581tlhandlekela": 6914,
  "keep": 6915,
  "\u2581Additionally": 6916,
  "\u2581Answers": 6917,
  "\u2581Muti": 6918,
  "\u2581bones": 6919,
  "\u2581celebration": 6920,
  "\u2581conform": 6921,
  "\u2581considerable": 6922,
  "\u2581fled": 6923,
  "\u2581hlanganaka": 6924,
  "\u2581hlasele": 6925,
  "\u2581hungry": 6926,
  "\u2581landzula": 6927,
  "\u2581lwaka": 6928,
  "\u2581urge": 6929,
  "\u2581vahlapfa": 6930,
  "der": 6931,
  "letting": 6932,
  "\u258197": 6933,
  "\u2581Heart": 6934,
  "\u2581Hu": 6935,
  "\u2581Matshalatshala": 6936,
  "\u2581Moscow": 6937,
  "\u2581Sabbath": 6938,
  "\u2581experiencing": 6939,
  "\u2581expressing": 6940,
  "\u2581faniki": 6941,
  "\u2581mintsombano": 6942,
  "\u2581rhekhodiweke": 6943,
  "\u2581vumbeke": 6944,
  "\u2581vumbiwe": 6945,
  "\u2581Happiness": 6946,
  "\u2581Island": 6947,
  "\u2581Judges": 6948,
  "\u2581Ten": 6949,
  "\u2581angule": 6950,
  "\u2581commercial": 6951,
  "\u2581endleriwe": 6952,
  "\u2581erhavini": 6953,
  "\u2581hambukisa": 6954,
  "\u2581hlamarile": 6955,
  "\u2581ntsumbu": 6956,
  "\u2581prefer": 6957,
  "\u2581pro": 6958,
  "\u2581vamatiko": 6959,
  "\u2581vitanaka": 6960,
  "\u2581xiyi": 6961,
  "Mina": 6962,
  "RI": 6963,
  "den": 6964,
  "njhekanjhekisano": 6965,
  "ten": 6966,
  "\u258162": 6967,
  "\u2581DNA": 6968,
  "\u2581Gal": 6969,
  "\u2581Long": 6970,
  "\u2581Part": 6971,
  "\u2581YEHOVHA": 6972,
  "\u2581eagerly": 6973,
  "\u2581earnestly": 6974,
  "\u2581era": 6975,
  "\u2581leritsongo": 6976,
  "\u2581likened": 6977,
  "\u2581phikizana": 6978,
  "\u2581spring": 6979,
  "\u2581submit": 6980,
  "\u2581susumetelaka": 6981,
  "\u2581tinyikela": 6982,
  "\u2581virtue": 6983,
  "\u2581xidzedze": 6984,
  "\u2581afflicted": 6985,
  "\u2581concept": 6986,
  "\u2581emunyameni": 6987,
  "\u2581endless": 6988,
  "\u2581gamboko": 6989,
  "\u2581gandzeriwa": 6990,
  "\u2581oppression": 6991,
  "\u2581participate": 6992,
  "\u2581rendering": 6993,
  "\u2581resolved": 6994,
  "\u2581tlangelaka": 6995,
  "\u2581treasures": 6996,
  "\u2581tshikilelaka": 6997,
  "\u2581xisiwana": 6998,
  "\u25812007": 6999,
  "\u2581Medical": 7000,
  "\u2581Simon": 7001,
  "\u2581badness": 7002,
  "\u2581cultures": 7003,
  "\u2581expectations": 7004,
  "\u2581farm": 7005,
  "\u2581globe": 7006,
  "\u2581host": 7007,
  "\u2581impression": 7008,
  "\u2581passage": 7009,
  "\u2581pfumele": 7010,
  "\u2581prize": 7011,
  "\u2581producing": 7012,
  "\u2581socha": 7013,
  "\u2581strike": 7014,
  "\u2581tsakeriwa": 7015,
  "\u2581vumbiweke": 7016,
  "ac": 7017,
  "nce": 7018,
  "wayitela": 7019,
  "\u2581Aroni": 7020,
  "\u2581Sodom": 7021,
  "\u2581bank": 7022,
  "\u2581bought": 7023,
  "\u2581detail": 7024,
  "\u2581emhandzini": 7025,
  "\u2581facilities": 7026,
  "\u2581highest": 7027,
  "\u2581khotso": 7028,
  "\u2581latter": 7029,
  "\u2581nyikiwaka": 7030,
  "\u2581prospects": 7031,
  "\u2581rescue": 7032,
  "\u2581ts": 7033,
  "fo": 7034,
  "other": 7035,
  "pu": 7036,
  "\u258145.": 7037,
  "\u2581Nsati": 7038,
  "\u2581choosing": 7039,
  "\u2581despair": 7040,
  "\u2581fumiwa": 7041,
  "\u2581hohloka": 7042,
  "\u2581humeleli": 7043,
  "\u2581humi": 7044,
  "\u2581kumiwaka": 7045,
  "\u2581onhiwa": 7046,
  "\u2581tekiwe": 7047,
  "\u2581vaendli": 7048,
  "misava": 7049,
  "\u2581Department": 7050,
  "\u2581Mar": 7051,
  "\u2581fela": 7052,
  "\u2581feriwa": 7053,
  "\u2581lexitsongo": 7054,
  "\u2581presents": 7055,
  "\u2581press": 7056,
  "\u2581remote": 7057,
  "\u2581surrounding": 7058,
  "\u2581tekane": 7059,
  "\u2581tiyiseki": 7060,
  "\u2581xikweleti": 7061,
  "\u2581Bethlehem": 7062,
  "\u2581Mbewu": 7063,
  "\u2581Ndzayo": 7064,
  "\u2581ages": 7065,
  "\u2581character": 7066,
  "\u2581exciting": 7067,
  "\u2581hinkwenu": 7068,
  "\u2581joyina": 7069,
  "\u2581mahlomulo": 7070,
  "\u2581manifested": 7071,
  "\u2581onto": 7072,
  "\u2581voya": 7073,
  "anhu": 7074,
  "em": 7075,
  "qui": 7076,
  "\u25811960": 7077,
  "\u25812]": 7078,
  "\u2581Association": 7079,
  "\u2581Dan": 7080,
  "\u2581Learning": 7081,
  "\u2581adopt": 7082,
  "\u2581engetele": 7083,
  "\u2581metal": 7084,
  "\u2581nhova": 7085,
  "\u2581openly": 7086,
  "\u2581produces": 7087,
  "\u2581strange": 7088,
  "isa": 7089,
  "\u2581Murhangeri": 7090,
  "\u2581Valevhi": 7091,
  "\u2581le\u015di": 7092,
  "\u2581observing": 7093,
  "\u2581sand": 7094,
  "\u2581tamela": 7095,
  "\u2581xivulavuri": 7096,
  ">": 7097,
  "Minkarhi": 7098,
  "are": 7099,
  "\u25811942": 7100,
  "\u258163": 7101,
  "\u2581Hana": 7102,
  "\u2581Maprotestente": 7103,
  "\u2581Marta": 7104,
  "\u2581Paulo": 7105,
  "\u2581Washington": 7106,
  "\u2581Xiphemu": 7107,
  "\u2581depth": 7108,
  "\u2581objective": 7109,
  "\u2581rima": 7110,
  "\u2581staff": 7111,
  "\u2581star": 7112,
  "\u2581vuxa": 7113,
  "new": 7114,
  "rd": 7115,
  "\u2581Te": 7116,
  "\u2581emiehleketweni": 7117,
  "\u2581fault": 7118,
  "\u2581idols": 7119,
  "\u2581muhuweleri": 7120,
  "\u2581rhumeriwe": 7121,
  "\u2581seeds": 7122,
  "\u2581vain": 7123,
  "\u2581waste": 7124,
  "from": 7125,
  "je": 7126,
  "\u2581Kenya": 7127,
  "\u2581Y": 7128,
  "\u2581driving": 7129,
  "\u2581ehlekete": 7130,
  "\u2581grant": 7131,
  "\u2581hlaseriweke": 7132,
  "\u2581mucato": 7133,
  "\u2581mupfuni": 7134,
  "\u2581plain": 7135,
  "\u2581respects": 7136,
  "\u2581scribes": 7137,
  "\u2581sincerely": 7138,
  "\u2581tibomo": 7139,
  "\u2581tumbeleke": 7140,
  "\u2581wealthy": 7141,
  "\u2581yinene": 7142,
  "tinyimpfu": 7143,
  "\u258132;": 7144,
  "\u2581card": 7145,
  "\u2581eJapani": 7146,
  "\u2581hatle": 7147,
  "\u2581hlamurile": 7148,
  "\u2581hluvukaka": 7149,
  "\u2581safeguard": 7150,
  "\u2581sayings": 7151,
  "\u2581structure": 7152,
  "\u2581vatirhela": 7153,
  "\u2581xikandza": 7154,
  "\u2581xitlhavi": 7155,
  "red": 7156,
  "sis": 7157,
  "\u258132,": 7158,
  "\u258168": 7159,
  "\u2581Meanwhile": 7160,
  "\u2581Vula": 7161,
  "\u2581heal": 7162,
  "\u2581lacking": 7163,
  "\u2581miss": 7164,
  "\u2581muakelani": 7165,
  "\u2581tshikilelekile": 7166,
  "\u2581tshunguriwa": 7167,
  "\u2581xupuriwa": 7168,
  "\u25810": 7169,
  "\u2581Levhitika": 7170,
  "\u2581cloud": 7171,
  "\u2581defend": 7172,
  "\u2581norho": 7173,
  "\u2581originally": 7174,
  "\u2581rage": 7175,
  "\u2581represents": 7176,
  "\u2581reproach": 7177,
  "\u2581sky": 7178,
  "\u2581stones": 7179,
  "\u2581unknown": 7180,
  "\u2581worst": 7181,
  "\u2581xanisekaka": 7182,
  "\u2581xiyiwa": 7183,
  "Hikuva": 7184,
  "\u2581Judas": 7185,
  "\u2581MAT": 7186,
  "\u2581base": 7187,
  "\u2581bright": 7188,
  "\u2581defense": 7189,
  "\u2581desired": 7190,
  "\u2581disobedience": 7191,
  "\u2581distributed": 7192,
  "\u2581eximutanini": 7193,
  "\u2581fat": 7194,
  "\u2581regret": 7195,
  "\u2581stage": 7196,
  "\u2581switirhisiwa": 7197,
  "\u2581xitulu": 7198,
  "\u2581yingisiki": 7199,
  "Oho": 7200,
  "\u25812006": 7201,
  "\u2581Everyone": 7202,
  "\u2581Galeliya": 7203,
  "\u2581Ringeta": 7204,
  "\u2581Sermon": 7205,
  "\u2581Yoh": 7206,
  "\u2581anakanyi": 7207,
  "\u2581arrive": 7208,
  "\u2581deeper": 7209,
  "\u2581hikwa\u015do": 7210,
  "\u2581mivala": 7211,
  "\u2581plague": 7212,
  "\u2581reflects": 7213,
  "\u2581tolovele": 7214,
  "\u2581vutumbelo": 7215,
  "\u2581weekly": 7216,
  "\u2581weriwa": 7217,
  "nge": 7218,
  "wananga": 7219,
  "\u25811958": 7220,
  "\u2581Above": 7221,
  "\u2581LEYI": 7222,
  "\u2581Supreme": 7223,
  "\u2581Try": 7224,
  "\u2581comfortable": 7225,
  "\u2581emfun": 7226,
  "\u2581enyangweni": 7227,
  "\u2581expensive": 7228,
  "\u2581gondzo": 7229,
  "\u2581helper": 7230,
  "\u2581hundzisela": 7231,
  "\u2581ndhambi": 7232,
  "\u2581sing": 7233,
  "\u2581willingness": 7234,
  "\u2581\u0161ikari": 7235,
  "Rito": 7236,
  "\u2581Barnaba": 7237,
  "\u2581Chava": 7238,
  "\u2581Seed": 7239,
  "\u2581XI": 7240,
  "\u2581encounter": 7241,
  "\u2581increasingly": 7242,
  "\u2581makhumbi": 7243,
  "\u2581minded": 7244,
  "\u2581nyiketa": 7245,
  "\u2581publisher": 7246,
  "\u2581pursuit": 7247,
  "\u2581risa": 7248,
  "\u2581strangers": 7249,
  "\u2581vuleteri": 7250,
  "\u2581\u1e6dhuki": 7251,
  "\u25812013": 7252,
  "\u2581Drama": 7253,
  "\u2581Mindyangu": 7254,
  "\u2581Prov": 7255,
  "\u2581asleep": 7256,
  "\u2581compromise": 7257,
  "\u2581cried": 7258,
  "\u2581enyameni": 7259,
  "\u2581hlanganyeli": 7260,
  "\u2581lady": 7261,
  "\u2581muhlovo": 7262,
  "\u2581shine": 7263,
  "\u2581starting": 7264,
  "\u2581status": 7265,
  "\u2581xavisiwa": 7266,
  "\u258186": 7267,
  "\u2581Barnabas": 7268,
  "\u2581Knowledge": 7269,
  "\u2581Xiga": 7270,
  "\u2581continuing": 7271,
  "\u2581dating": 7272,
  "\u2581eswiyin": 7273,
  "\u2581komisa": 7274,
  "\u2581offerings": 7275,
  "\u2581poneke": 7276,
  "\u2581reasoned": 7277,
  "\u2581ricece": 7278,
  "\u2581tabernacle": 7279,
  "\u2581tihambanisa": 7280,
  "\u2581tlhandlukela": 7281,
  "\u2581vadyondzi": 7282,
  "LE": 7283,
  "Vana": 7284,
  "ard": 7285,
  "ff": 7286,
  "sinya": 7287,
  "\u2581Asiriya": 7288,
  "\u2581Tshembeka": 7289,
  "\u2581akiwe": 7290,
  "\u2581alaka": 7291,
  "\u2581attracted": 7292,
  "\u2581fambisani": 7293,
  "\u2581hlanganile": 7294,
  "\u2581influences": 7295,
  "\u2581katekile": 7296,
  "\u2581ngheni": 7297,
  "\u2581ntiko": 7298,
  "\u2581senses": 7299,
  "\u2581somewhat": 7300,
  "\u2581zealously": 7301,
  "\u2581Assembly": 7302,
  "\u2581Numbers": 7303,
  "\u2581adjustments": 7304,
  "\u2581antswaka": 7305,
  "\u2581anxieties": 7306,
  "\u2581avoided": 7307,
  "\u2581conversations": 7308,
  "\u2581emahanyelweni": 7309,
  "\u2581goats": 7310,
  "\u2581initial": 7311,
  "\u2581mbilwini": 7312,
  "\u2581motive": 7313,
  "\u2581ndlwini": 7314,
  "\u2581piece": 7315,
  "\u2581snow": 7316,
  "\u2581wheat": 7317,
  "ists": 7318,
  "ran": 7319,
  "zo": 7320,
  "\u2581Canaan": 7321,
  "\u2581bohi": 7322,
  "\u2581chukele": 7323,
  "\u2581dollars": 7324,
  "\u2581enkandziyis": 7325,
  "\u2581flowers": 7326,
  "\u2581hlanganyelaka": 7327,
  "\u2581hombolokeke": 7328,
  "\u2581lion": 7329,
  "\u2581motivate": 7330,
  "\u2581sindzisiwa": 7331,
  "\u2581suitable": 7332,
  "\u2581surprising": 7333,
  "\u2581switlhavelo": 7334,
  "\u2581t": 7335,
  "\u2581taste": 7336,
  "\u2581thoroughly": 7337,
  "\u2581timbuti": 7338,
  "\u2581titsongahatela": 7339,
  "\u2581tsakise": 7340,
  "\u2581u\u1e45wana": 7341,
  "\u2581\u0161ana": 7342,
  "ON": 7343,
  "kulumo": 7344,
  "siweke": 7345,
  "\u00e1": 7346,
  "\u2581139": 7347,
  "\u25811944": 7348,
  "\u2581250": 7349,
  "\u2581LEXI": 7350,
  "\u2581Tilweni": 7351,
  "\u2581Volume": 7352,
  "\u2581equipment": 7353,
  "\u2581fifth": 7354,
  "\u2581hlayisekile": 7355,
  "\u2581kokela": 7356,
  "\u2581nyikeriwaka": 7357,
  "\u2581peaceable": 7358,
  "\u2581tshikanga": 7359,
  "\u2581vukholwa": 7360,
  "yn": 7361,
  "\u25811951": 7362,
  "\u2581Habakkuk": 7363,
  "\u2581Jos\u00e9": 7364,
  "\u2581Vababilona": 7365,
  "\u2581Yordani": 7366,
  "\u2581assume": 7367,
  "\u2581eti": 7368,
  "\u2581exile": 7369,
  "\u2581feeding": 7370,
  "\u2581fikeke": 7371,
  "\u2581paragraph": 7372,
  "\u2581shame": 7373,
  "\u2581tolovela": 7374,
  "\u2581typical": 7375,
  "\u2581vagwinehi": 7376,
  "\u2581xihundleni": 7377,
  "\u2581xiringaniso": 7378,
  "ap": 7379,
  "\u258133,": 7380,
  "\u2581800": 7381,
  "\u2581adjust": 7382,
  "\u2581attractive": 7383,
  "\u2581dlayiwe": 7384,
  "\u2581dyiwa": 7385,
  "\u2581earnest": 7386,
  "\u2581evuxeni": 7387,
  "\u2581huwa": 7388,
  "\u2581nhlampfi": 7389,
  "\u2581omeke": 7390,
  "\u2581rewards": 7391,
  "\u2581sirheleriwa": 7392,
  "\u2581tlakukile": 7393,
  "\u2581vakokwa": 7394,
  "\u2581villages": 7395,
  "\u2581vunghwavava": 7396,
  "\u2581xinhwanyetana": 7397,
  "\u258157": 7398,
  "\u2581Di": 7399,
  "\u2581Tlakukeke": 7400,
  "\u2581Xipaniya": 7401,
  "\u2581ayisi": 7402,
  "\u2581domestic": 7403,
  "\u2581duties": 7404,
  "\u2581f": 7405,
  "\u2581festival": 7406,
  "\u2581hundzukiki": 7407,
  "\u2581khamba": 7408,
  "\u2581kungu": 7409,
  "\u2581measures": 7410,
  "\u2581owner": 7411,
  "\u2581party": 7412,
  "\u2581simekiweke": 7413,
  "\u2581vengaka": 7414,
  "\u2581\u0161ona": 7415,
  "RA": 7416,
  "ating": 7417,
  "ud": 7418,
  "\u258127]": 7419,
  "\u2581Mom": 7420,
  "\u2581Mutivi": 7421,
  "\u2581Yingisa": 7422,
  "\u2581Yudasi": 7423,
  "\u2581arose": 7424,
  "\u2581branches": 7425,
  "\u2581errors": 7426,
  "\u2581friendships": 7427,
  "\u2581fulfilling": 7428,
  "\u2581humesaka": 7429,
  "\u2581langutelanga": 7430,
  "\u2581minor": 7431,
  "\u2581musi": 7432,
  "\u2581teenage": 7433,
  "\u2581teenagers": 7434,
  "\u2581temper": 7435,
  "\u2581tirheke": 7436,
  "\u2581xihlambanyo": 7437,
  "\u2581xitiviso": 7438,
  "\u2581yirisiwa": 7439,
  "Happy": 7440,
  "nkarhi": 7441,
  "\u2581Ruler": 7442,
  "\u2581byatso": 7443,
  "\u2581hetiwa": 7444,
  "\u2581nandziha": 7445,
  "\u2581obstacles": 7446,
  "\u2581practicing": 7447,
  "\u2581racial": 7448,
  "\u2581replace": 7449,
  "\u2581route": 7450,
  "\u2581spreading": 7451,
  "\u2581unexpected": 7452,
  "\u2581Faneleke": 7453,
  "\u2581Karen": 7454,
  "\u2581Lawa": 7455,
  "\u2581MHAKA": 7456,
  "\u2581Religious": 7457,
  "\u2581armed": 7458,
  "\u2581ashamed": 7459,
  "\u2581belongings": 7460,
  "\u2581engeterile": 7461,
  "\u2581foods": 7462,
  "\u2581hlayiseka": 7463,
  "\u2581khomelela": 7464,
  "\u2581ndzhukano": 7465,
  "\u2581rebellious": 7466,
  "\u2581tinoni": 7467,
  "\u2581tragic": 7468,
  "\u2581vonake": 7469,
  "\u2581vuxeni": 7470,
  "\u2581xungeta": 7471,
  "good": 7472,
  "ngu": 7473,
  "\u2581Elihu": 7474,
  "\u2581Joy": 7475,
  "\u2581Nguva": 7476,
  "\u2581Studies": 7477,
  "\u2581Swiyimo": 7478,
  "\u2581Vadyondzisiwa": 7479,
  "\u2581Yunivhesiti": 7480,
  "\u2581cinci": 7481,
  "\u2581destructive": 7482,
  "\u2581doctrines": 7483,
  "\u2581realistic": 7484,
  "\u2581sell": 7485,
  "\u2581tivutise": 7486,
  "\u2581vambe": 7487,
  "\u2581vuyela": 7488,
  "\u2581104": 7489,
  "\u2581Matsalweni": 7490,
  "\u2581billions": 7491,
  "\u2581eNtshaveni": 7492,
  "\u2581expectation": 7493,
  "\u2581hlantswa": 7494,
  "\u2581honesty": 7495,
  "\u2581maintained": 7496,
  "\u2581peer": 7497,
  "\u2581refreshment": 7498,
  "\u2581strongly": 7499,
  "\u2581survivors": 7500,
  "\u2581tiphofula": 7501,
  "\u2581vachumayeri": 7502,
  "\u25811953": 7503,
  "\u258195": 7504,
  "\u2581Daily": 7505,
  "\u2581Ki": 7506,
  "\u2581Mepe": 7507,
  "\u2581Persian": 7508,
  "\u2581Tsalwa": 7509,
  "\u2581Xivutiso": 7510,
  "\u2581hardships": 7511,
  "\u2581hleka": 7512,
  "\u2581lift": 7513,
  "\u2581meantime": 7514,
  "\u2581permitted": 7515,
  "\u2581reduced": 7516,
  "\u2581refugees": 7517,
  "\u2581reminders": 7518,
  "\u2581tani": 7519,
  "\u2581tragedy": 7520,
  "\u2581warnings": 7521,
  "disfellowshipped": 7522,
  "\u2581Italian": 7523,
  "\u2581Jersey": 7524,
  "\u2581Mana": 7525,
  "\u2581Ririmi": 7526,
  "\u2581SWIHLOKO": 7527,
  "\u2581dramatic": 7528,
  "\u2581dye": 7529,
  "\u2581horse": 7530,
  "\u2581mahlori": 7531,
  "\u2581marriages": 7532,
  "\u2581meditation": 7533,
  "\u2581positions": 7534,
  "\u2581tshahe": 7535,
  "\u2581vuhlonga": 7536,
  "\u2581widows": 7537,
  "\u2581xikolweni": 7538,
  "IN": 7539,
  "ow": 7540,
  "\u25811938": 7541,
  "\u2581Consequently": 7542,
  "\u2581Judaism": 7543,
  "\u2581Published": 7544,
  "\u2581Vuxaka": 7545,
  "\u2581Yindlu": 7546,
  "\u2581bola": 7547,
  "\u2581declaration": 7548,
  "\u2581engatini": 7549,
  "\u2581etlhelweni": 7550,
  "\u2581follows": 7551,
  "\u2581game": 7552,
  "\u2581hlawuriwe": 7553,
  "\u2581hoping": 7554,
  "\u2581oma": 7555,
  "\u2581outset": 7556,
  "\u2581spiritism": 7557,
  "\u2581swibalo": 7558,
  "au": 7559,
  "dy": 7560,
  "lela": 7561,
  "there": 7562,
  "\u00fc": 7563,
  "\u25811952": 7564,
  "\u2581Pro": 7565,
  "\u2581WHEN": 7566,
  "\u2581bird": 7567,
  "\u2581continually": 7568,
  "\u2581emintlhavekweni": 7569,
  "\u2581engaging": 7570,
  "\u2581extensive": 7571,
  "\u2581fikaka": 7572,
  "\u2581hlambela": 7573,
  "\u2581ignored": 7574,
  "\u2581kingdoms": 7575,
  "\u2581kuceteriwa": 7576,
  "\u2581permit": 7577,
  "\u2581production": 7578,
  "\u2581recognition": 7579,
  "\u2581rid": 7580,
  "\u2581roof": 7581,
  "\u2581tikombise": 7582,
  "hlonga": 7583,
  "\u2581(\"": 7584,
  "\u2581Portugal": 7585,
  "\u2581grass": 7586,
  "\u2581hlanganisaka": 7587,
  "\u2581kamberiwa": 7588,
  "\u2581kufumela": 7589,
  "\u2581lifetime": 7590,
  "\u2581loud": 7591,
  "\u2581lulamisiwa": 7592,
  "\u2581patriarch": 7593,
  "\u2581proclaimed": 7594,
  "\u2581rose": 7595,
  "\u2581shape": 7596,
  "\u2581tempered": 7597,
  "ndhawu": 7598,
  "\u2581Indian": 7599,
  "\u2581Kambisisa": 7600,
  "\u2581Leyikulu": 7601,
  "\u2581XIFUNENGETO": 7602,
  "\u2581apparent": 7603,
  "\u2581eVuton": 7604,
  "\u2581explaining": 7605,
  "\u2581fuwa": 7606,
  "\u2581koroni": 7607,
  "\u2581lamaleke": 7608,
  "\u2581product": 7609,
  "\u2581steal": 7610,
  "\u2581swidyondzi": 7611,
  "\u2581vakokwana": 7612,
  "\u2581valley": 7613,
  "\u2581xiximi": 7614,
  "\u2581\u1e6daka": 7615,
  "70": 7616,
  "Tatana": 7617,
  "\u25811931": 7618,
  "\u2581Teacher": 7619,
  "\u2581comparison": 7620,
  "\u2581eFurwa": 7621,
  "\u2581extraordinary": 7622,
  "\u2581highlight": 7623,
  "\u2581judged": 7624,
  "\u2581khomeriwa": 7625,
  "\u2581ndzexe": 7626,
  "\u2581nonoka": 7627,
  "\u2581organizations": 7628,
  "\u2581roads": 7629,
  "\u2581sensitive": 7630,
  "\u2581sorrow": 7631,
  "\u2581swihehlo": 7632,
  "\u2581thrilling": 7633,
  "\u2581tsundzuke": 7634,
  "\u2581uphold": 7635,
  "\u258132]": 7636,
  "\u258143.": 7637,
  "\u2581Bo": 7638,
  "\u2581Xiviri": 7639,
  "\u2581appealing": 7640,
  "\u2581bow": 7641,
  "\u2581commented": 7642,
  "\u2581earthquakes": 7643,
  "\u2581entshaveni": 7644,
  "\u2581intimate": 7645,
  "\u2581makhwati": 7646,
  "\u2581mavandla": 7647,
  "\u2581rapidly": 7648,
  "\u2581ringanyete": 7649,
  "\u2581sasekile": 7650,
  "\u2581supporting": 7651,
  "\u2581supposed": 7652,
  "\u2581trustworthy": 7653,
  "\u2581voneni": 7654,
  "\u2581Faithful": 7655,
  "\u2581Food": 7656,
  "\u2581HAVE": 7657,
  "\u2581abusive": 7658,
  "\u2581dlayeke": 7659,
  "\u2581eLwandle": 7660,
  "\u2581faka": 7661,
  "\u2581firstborn": 7662,
  "\u2581gaining": 7663,
  "\u2581khampani": 7664,
  "\u2581pakanisa": 7665,
  "\u2581sides": 7666,
  "\u2581tihomu": 7667,
  "\u2581vuhunguki": 7668,
  "\u2581yimile": 7669,
  "ex": 7670,
  "leyi": 7671,
  "\u2581Josiah": 7672,
  "\u2581Languta": 7673,
  "\u2581amukerile": 7674,
  "\u2581buti": 7675,
  "\u2581emindyangwini": 7676,
  "\u2581flight": 7677,
  "\u2581horisa": 7678,
  "\u2581mangava": 7679,
  "\u2581pfaleriwa": 7680,
  "\u2581prime": 7681,
  "\u2581reserved": 7682,
  "\u2581soldier": 7683,
  "\u2581tsariwile": 7684,
  "\u2581window": 7685,
  "mon": 7686,
  "up": 7687,
  "\u25811948": 7688,
  "\u25811955": 7689,
  "\u25811975": 7690,
  "\u258198": 7691,
  "\u2581Hosea": 7692,
  "\u2581Index": 7693,
  "\u2581Knowing": 7694,
  "\u2581Search": 7695,
  "\u2581Tintsumi": 7696,
  "\u2581Xiboho": 7697,
  "\u2581chumayele": 7698,
  "\u2581duty": 7699,
  "\u2581enduring": 7700,
  "\u2581hlamuseriwe": 7701,
  "\u2581letin": 7702,
  "\u2581resident": 7703,
  "\u2581unbeliev": 7704,
  "\u2581valid": 7705,
  "ill": 7706,
  "proving": 7707,
  "riki": 7708,
  "ung": 7709,
  "was": 7710,
  "\u25811950,": 7711,
  "\u2581Bar": 7712,
  "\u2581Nebuchadnezzar": 7713,
  "\u2581RI": 7714,
  "\u2581cease": 7715,
  "\u2581doubts": 7716,
  "\u2581eswitarateni": 7717,
  "\u2581etintshaveni": 7718,
  "\u2581grandparents": 7719,
  "\u2581improved": 7720,
  "\u2581neutral": 7721,
  "\u2581overwhelming": 7722,
  "\u2581pakanisaka": 7723,
  "\u2581perfectly": 7724,
  "\u2581pfuxeriwa": 7725,
  "\u2581promotes": 7726,
  "\u2581restoration": 7727,
  "\u2581sandza": 7728,
  "\u2581swikolo": 7729,
  "\u2581tali": 7730,
  "\u2581tools": 7731,
  "\u2581transfusions": 7732,
  "\u2581Egyptians": 7733,
  "\u2581Especially": 7734,
  "\u2581MA": 7735,
  "\u2581Power": 7736,
  "\u2581catch": 7737,
  "\u2581favorable": 7738,
  "\u2581ideal": 7739,
  "\u2581lahla": 7740,
  "\u2581meals": 7741,
  "\u2581sungurile": 7742,
  "\u2581sunguriwe": 7743,
  "\u2581taxes": 7744,
  "\u2581Persia": 7745,
  "\u2581Theocratic": 7746,
  "\u2581buluka": 7747,
  "\u2581edition": 7748,
  "\u2581fiery": 7749,
  "\u2581flow": 7750,
  "\u2581hakelela": 7751,
  "\u2581khathali": 7752,
  "\u2581kotanga": 7753,
  "\u2581loneliness": 7754,
  "\u2581lova": 7755,
  "\u2581nxavo": 7756,
  "\u2581requirement": 7757,
  "\u2581sesi": 7758,
  "\u2581ships": 7759,
  "\u2581tsutsumela": 7760,
  "\u2581vugwinehi": 7761,
  "Hikokwalaho": 7762,
  "leni": 7763,
  "time": 7764,
  "tsa": 7765,
  "\u2581Hlamuri": 7766,
  "\u2581Murisi": 7767,
  "\u2581Ntshikilelo": 7768,
  "\u2581Page": 7769,
  "\u2581Pi": 7770,
  "\u2581Su": 7771,
  "\u2581di": 7772,
  "\u2581dyondzela": 7773,
  "\u2581fair": 7774,
  "\u2581fed": 7775,
  "\u2581kanakani": 7776,
  "\u2581rhume": 7777,
  "\u2581settle": 7778,
  "\u2581toloveleke": 7779,
  "\u2581yimisa": 7780,
  "\u2581yirisiwile": 7781,
  "\u25811922": 7782,
  "\u2581Abram": 7783,
  "\u2581Finland": 7784,
  "\u2581Mikateko": 7785,
  "\u2581Real": 7786,
  "\u2581Samaritan": 7787,
  "\u2581abroad": 7788,
  "\u2581advanced": 7789,
  "\u2581chemical": 7790,
  "\u2581deserve": 7791,
  "\u2581fanise": 7792,
  "\u2581judgments": 7793,
  "\u2581largely": 7794,
  "\u2581lav": 7795,
  "\u2581magandlati": 7796,
  "\u2581priesthood": 7797,
  "\u2581rhuma": 7798,
  "\u2581seemingly": 7799,
  "\u2581sirhelelaka": 7800,
  "\u2581swikweleti": 7801,
  "can": 7802,
  "mbo": 7803,
  "om": 7804,
  "\u2581Codex": 7805,
  "\u2581Listen": 7806,
  "\u2581Nuna": 7807,
  "\u2581N\u1e0di": 7808,
  "\u2581Research": 7809,
  "\u2581Swiv": 7810,
  "\u2581Vholumo": 7811,
  "\u2581apostate": 7812,
  "\u2581bumabumeriwa": 7813,
  "\u2581deaths": 7814,
  "\u2581eTi": 7815,
  "\u2581grows": 7816,
  "\u2581hates": 7817,
  "\u2581hlohlotela": 7818,
  "\u2581industry": 7819,
  "\u2581mindzhwalo": 7820,
  "\u2581muholo": 7821,
  "\u2581nyamalala": 7822,
  "\u2581nyenyetsaka": 7823,
  "\u2581ordinary": 7824,
  "\u2581qualify": 7825,
  "\u2581timhandzi": 7826,
  "\u2581xirilo": 7827,
  "xe": 7828,
  "\u2581130": 7829,
  "\u258169": 7830,
  "\u2581Against": 7831,
  "\u2581Guinea": 7832,
  "\u2581Henhla": 7833,
  "\u2581Ne": 7834,
  "\u2581Ntshunxeko": 7835,
  "\u2581border": 7836,
  "\u2581cooperation": 7837,
  "\u2581creative": 7838,
  "\u2581graduates": 7839,
  "\u2581hangalasiwa": 7840,
  "\u2581immortality": 7841,
  "\u2581loyally": 7842,
  "\u2581maletere": 7843,
  "\u2581memories": 7844,
  "\u2581nkataku": 7845,
  "\u2581obeyed": 7846,
  "\u2581overwhelmed": 7847,
  "\u2581oyili": 7848,
  "\u2581sounds": 7849,
  "\u2581traffic": 7850,
  "\u2581vusodoma": 7851,
  "\u2581xitirho": 7852,
  "\u2581xivandzana": 7853,
  "\u2581yeke": 7854,
  "mbi": 7855,
  "vandla": 7856,
  "\u2581Muisrayele": 7857,
  "\u2581Rwanda": 7858,
  "\u2581Susan": 7859,
  "\u2581expose": 7860,
  "\u2581hlengeletiwa": 7861,
  "\u2581hlundzukisa": 7862,
  "\u2581pfuxiwile": 7863,
  "\u2581risks": 7864,
  "\u2581urgent": 7865,
  "\u258129:": 7866,
  "\u2581Amazon": 7867,
  "\u2581Ar": 7868,
  "\u2581Become": 7869,
  "\u2581Pope": 7870,
  "\u2581angelic": 7871,
  "\u2581broad": 7872,
  "\u2581defined": 7873,
  "\u2581mainly": 7874,
  "\u2581miraculously": 7875,
  "\u2581ninhlikanhi": 7876,
  "\u2581outcry": 7877,
  "\u2581pounds": 7878,
  "\u2581preachers": 7879,
  "\u2581priority": 7880,
  "\u2581tirhisanaka": 7881,
  "\u2581vuxongi": 7882,
  "du": 7883,
  "\u2581Amosi": 7884,
  "\u2581Happily": 7885,
  "\u2581Hlula": 7886,
  "\u2581Obviously": 7887,
  "\u2581Z": 7888,
  "\u2581afford": 7889,
  "\u2581bears": 7890,
  "\u2581consist": 7891,
  "\u2581consult": 7892,
  "\u2581deadly": 7893,
  "\u2581disappointed": 7894,
  "\u2581formerly": 7895,
  "\u2581hetiseke": 7896,
  "\u2581incident": 7897,
  "\u2581katekise": 7898,
  "\u2581landzelelana": 7899,
  "\u2581mpfhukeni": 7900,
  "\u2581pfukela": 7901,
  "\u2581saving": 7902,
  "\u2581twali": 7903,
  "Moya": 7904,
  "Sweswi": 7905,
  "mer": 7906,
  "\u2581Home": 7907,
  "\u2581Image": 7908,
  "\u2581Live": 7909,
  "\u2581Words": 7910,
  "\u2581YINI": 7911,
  "\u2581assemblies": 7912,
  "\u2581emphasized": 7913,
  "\u2581generations": 7914,
  "\u2581hluleka": 7915,
  "\u2581humesiwe": 7916,
  "\u2581papa": 7917,
  "\u2581pimanisiwa": 7918,
  "\u2581proves": 7919,
  "\u2581sharp": 7920,
  "\u2581vutisiwa": 7921,
  "hl": 7922,
  "kandziyiso": 7923,
  "lia": 7924,
  "now": 7925,
  "phi": 7926,
  "ritweni": 7927,
  "\u25811949": 7928,
  "\u2581Actually": 7929,
  "\u2581Shepherd": 7930,
  "\u2581advancement": 7931,
  "\u2581anti": 7932,
  "\u2581arrest": 7933,
  "\u2581banned": 7934,
  "\u2581chronic": 7935,
  "\u2581con": 7936,
  "\u2581detailed": 7937,
  "\u2581diligent": 7938,
  "\u2581falls": 7939,
  "\u2581feast": 7940,
  "\u2581infant": 7941,
  "\u2581joyfully": 7942,
  "\u2581mananga": 7943,
  "\u2581swihlovo": 7944,
  "\u2581thereby": 7945,
  "\u2581titshemba": 7946,
  "\u2581tivhidiyo": 7947,
  "\u2581xitukulwana": 7948,
  "TH": 7949,
  "des": 7950,
  "mbu": 7951,
  "\u2581adding": 7952,
  "\u2581badly": 7953,
  "\u2581courageously": 7954,
  "\u2581hlongoriwa": 7955,
  "\u2581householder": 7956,
  "\u2581hurtful": 7957,
  "\u2581loose": 7958,
  "\u2581pollution": 7959,
  "\u2581preparation": 7960,
  "\u2581tirhandi": 7961,
  "\u2581university": 7962,
  "\u2581urgency": 7963,
  "\u2581vanakulobye": 7964,
  "\u2581vuntlhanu": 7965,
  "\u2581wukulu": 7966,
  "\u2581Bas": 7967,
  "\u2581Levites": 7968,
  "\u2581aleke": 7969,
  "\u2581alongside": 7970,
  "\u2581attempts": 7971,
  "\u2581code": 7972,
  "\u2581dzika": 7973,
  "\u2581exidyohweni": 7974,
  "\u2581frustration": 7975,
  "\u2581garments": 7976,
  "\u2581handling": 7977,
  "\u2581havumbirhi": 7978,
  "\u2581makwenu": 7979,
  "\u2581paths": 7980,
  "\u2581pfulela": 7981,
  "\u2581specifically": 7982,
  "\u2581strict": 7983,
  "\u2581unfaithful": 7984,
  "per": 7985,
  "rhi": 7986,
  "\u2581Tirhaka": 7987,
  "\u2581classes": 7988,
  "\u2581distinguish": 7989,
  "\u2581earn": 7990,
  "\u2581illustrates": 7991,
  "\u2581independence": 7992,
  "\u2581infected": 7993,
  "\u2581levels": 7994,
  "\u2581ntukulu": 7995,
  "\u2581planning": 7996,
  "\u2581rivers": 7997,
  "\u2581vow": 7998,
  "\u2581vukala": 7999,
  "they": 8000,
  "\u2581Ever": 8001,
  "\u2581Nkulu": 8002,
  "\u2581accurately": 8003,
  "\u2581cultivating": 8004,
  "\u2581etikampeni": 8005,
  "\u2581neglect": 8006,
  "\u2581tive": 8007,
  "\u258141.": 8008,
  "\u2581Athens": 8009,
  "\u2581Dokodela": 8010,
  "\u2581Po": 8011,
  "\u2581b": 8012,
  "\u2581communities": 8013,
  "\u2581contribution": 8014,
  "\u2581devastating": 8015,
  "\u2581hasahasa": 8016,
  "\u2581khorwisa": 8017,
  "\u2581leyin": 8018,
  "\u2581vhumbha": 8019,
  "\u25811983": 8020,
  "\u2581AWAKE": 8021,
  "\u2581Ann": 8022,
  "\u2581Biha": 8023,
  "\u2581Ohio": 8024,
  "\u2581Philippines": 8025,
  "\u2581bottom": 8026,
  "\u2581deny": 8027,
  "\u2581emperor": 8028,
  "\u2581honisiwa": 8029,
  "\u2581matsavu": 8030,
  "\u2581rhelela": 8031,
  "\u2581tremendous": 8032,
  "X": 8033,
  "love": 8034,
  "mar": 8035,
  "\u2581Central": 8036,
  "\u2581Sydney": 8037,
  "\u2581Xilalelo": 8038,
  "\u2581actual": 8039,
  "\u2581blue": 8040,
  "\u2581confirmed": 8041,
  "\u2581cooperate": 8042,
  "\u2581crown": 8043,
  "\u2581desert": 8044,
  "\u2581eAustralia": 8045,
  "\u2581ease": 8046,
  "\u2581esteem": 8047,
  "\u2581falling": 8048,
  "\u2581hlamuserile": 8049,
  "\u2581khomeriwe": 8050,
  "\u2581lawuriwaka": 8051,
  "\u2581lonely": 8052,
  "\u2581receives": 8053,
  "\u2581resurrect": 8054,
  "\u2581section": 8055,
  "\u2581stumble": 8056,
  "\u2581sweet": 8057,
  "\u2581thrilled": 8058,
  "\u2581tikurisa": 8059,
  "ndza": 8060,
  "nya": 8061,
  "ps": 8062,
  "ron": 8063,
  "tor": 8064,
  "\u2581'!": 8065,
  "\u2581LOWU": 8066,
  "\u2581Office": 8067,
  "\u2581believer": 8068,
  "\u2581conquered": 8069,
  "\u2581opinions": 8070,
  "\u2581parental": 8071,
  "\u2581rapid": 8072,
  "\u2581vatlangi": 8073,
  "20": 8074,
  "ag": 8075,
  "\u25811984": 8076,
  "\u2581BYA": 8077,
  "\u2581Denmark": 8078,
  "\u2581Freedom": 8079,
  "\u2581Indiya": 8080,
  "\u2581Sinai": 8081,
  "\u2581cycle": 8082,
  "\u2581egondzweni": 8083,
  "\u2581evuswetini": 8084,
  "\u2581exercised": 8085,
  "\u2581fixed": 8086,
  "\u2581forgotten": 8087,
  "\u2581founded": 8088,
  "\u2581hakeriwa": 8089,
  "\u2581hypocrisy": 8090,
  "\u2581kokaka": 8091,
  "\u2581kombetele": 8092,
  "\u2581mentions": 8093,
  "\u2581miliyoni": 8094,
  "\u2581nyawuli": 8095,
  "\u2581pregnancy": 8096,
  "\u2581rare": 8097,
  "\u2581seketele": 8098,
  "\u2581stream": 8099,
  "\u2581vahedeni": 8100,
  "\u2581vavaka": 8101,
  "\u2581vessels": 8102,
  ");": 8103,
  "put": 8104,
  "van": 8105,
  "\u00ed": 8106,
  "\u2581Black": 8107,
  "\u2581Cyrus": 8108,
  "\u2581DO": 8109,
  "\u2581Da": 8110,
  "\u2581Goza": 8111,
  "\u2581Habakuku": 8112,
  "\u2581Vatirhi": 8113,
  "\u2581amounts": 8114,
  "\u2581connected": 8115,
  "\u2581insects": 8116,
  "\u2581kumanga": 8117,
  "\u2581mentally": 8118,
  "\u2581slowly": 8119,
  "\u2581towns": 8120,
  "\u2581tropical": 8121,
  "\u2581vumbaka": 8122,
  "Ndlela": 8123,
  "Now": 8124,
  "Swilo": 8125,
  "wexemu": 8126,
  "\u2581Afterward": 8127,
  "\u2581Nhwanyana": 8128,
  "\u2581XA": 8129,
  "\u2581aim": 8130,
  "\u2581eHosini": 8131,
  "\u2581modesty": 8132,
  "\u2581vanuna": 8133,
  "\u2581viewing": 8134,
  "\u2581whenever": 8135,
  "NI": 8136,
  "ite": 8137,
  "kha": 8138,
  "ts": 8139,
  "\u25811956": 8140,
  "\u2581Feke": 8141,
  "\u2581GOD": 8142,
  "\u2581Gideon": 8143,
  "\u2581Mint": 8144,
  "\u2581SWIVUTISO": 8145,
  "\u2581Vakanana": 8146,
  "\u2581arrange": 8147,
  "\u2581bit": 8148,
  "\u2581faneriwaka": 8149,
  "\u2581favorite": 8150,
  "\u2581koxa": 8151,
  "\u2581pity": 8152,
  "\u2581pope": 8153,
  "\u2581prior": 8154,
  "\u2581regards": 8155,
  "\u2581ringeti": 8156,
  "\u2581tengile": 8157,
  "\u2581version": 8158,
  "\u2581waves": 8159,
  "istic": 8160,
  "\u258159": 8161,
  "\u2581Doroba": 8162,
  "\u2581Kombela": 8163,
  "\u2581Nkhuvo": 8164,
  "\u2581Samaria": 8165,
  "\u2581Siberia": 8166,
  "\u2581Sodoma": 8167,
  "\u2581awe": 8168,
  "\u2581creating": 8169,
  "\u2581delegates": 8170,
  "\u2581hlayeke": 8171,
  "\u2581mundzuku": 8172,
  "\u2581nghenisiwa": 8173,
  "\u2581pleasures": 8174,
  "\u2581smaller": 8175,
  "\u2581striking": 8176,
  "\u2581translators": 8177,
  "\u2581tshikileriwa": 8178,
  "\u2581tshinelaka": 8179,
  "\u2581vandyangu": 8180,
  "\u2581vangiwe": 8181,
  "\u2581vupfumeri": 8182,
  "\u2581xibukwana": 8183,
  "\u2581xisirhelelo": 8184,
  "cy": 8185,
  "\u2581Golden": 8186,
  "\u2581Hev": 8187,
  "\u2581Swiharhi": 8188,
  "\u2581TI": 8189,
  "\u2581Vafundhisi": 8190,
  "\u2581empfhukeni": 8191,
  "\u2581enhoveni": 8192,
  "\u2581function": 8193,
  "\u2581greedy": 8194,
  "\u2581happily": 8195,
  "\u2581maturity": 8196,
  "\u25811957": 8197,
  "\u2581Heb": 8198,
  "\u2581Varhangeri": 8199,
  "\u2581associating": 8200,
  "\u2581ate": 8201,
  "\u2581avela": 8202,
  "\u2581breast": 8203,
  "\u2581driver": 8204,
  "\u2581dyela": 8205,
  "\u2581farmers": 8206,
  "\u2581forgiven": 8207,
  "\u2581gatherings": 8208,
  "\u2581letitsongo": 8209,
  "\u2581mabandlha": 8210,
  "\u2581marhengu": 8211,
  "\u2581ntsheketo": 8212,
  "\u2581roots": 8213,
  "\u2581upper": 8214,
  "10": 8215,
  "ably": 8216,
  "lweni": 8217,
  "\u2581Estere": 8218,
  "\u2581Har": 8219,
  "\u2581Mr": 8220,
  "\u2581PFUNAKA": 8221,
  "\u2581Saturday": 8222,
  "\u2581amazed": 8223,
  "\u2581counseled": 8224,
  "\u2581fambise": 8225,
  "\u2581funds": 8226,
  "\u2581guarantee": 8227,
  "\u2581kamara": 8228,
  "\u2581mano": 8229,
  "\u2581mila": 8230,
  "\u2581ngheneke": 8231,
  "\u2581ntlango": 8232,
  "\u2581oldest": 8233,
  "\u2581olovaka": 8234,
  "\u2581online": 8235,
  "\u2581pursuits": 8236,
  "\u2581tlakuke": 8237,
  "\u2581transferred": 8238,
  "cu": 8239,
  "ions": 8240,
  "\u2581Light": 8241,
  "\u2581NASA": 8242,
  "\u2581Rose": 8243,
  "\u2581XALAMUKA": 8244,
  "\u2581containing": 8245,
  "\u2581everyday": 8246,
  "\u2581hanyi": 8247,
  "\u2581heleriwe": 8248,
  "\u2581kungani": 8249,
  "\u2581nyiketela": 8250,
  "\u2581promoted": 8251,
  "\u2581sites": 8252,
  "\u2581smile": 8253,
  "\u2581tirhisela": 8254,
  "\u2581unwise": 8255,
  "\u2581vahundzuluxeri": 8256,
  "\u2581\u1e6dhama": 8257,
  "La": 8258,
  "\u2581Chumayela": 8259,
  "\u2581Jerome": 8260,
  "\u2581Louis": 8261,
  "\u2581Press": 8262,
  "\u2581disappointment": 8263,
  "\u2581discover": 8264,
  "\u2581flying": 8265,
  "\u2581funeral": 8266,
  "\u2581hambanaka": 8267,
  "\u2581hundzaka": 8268,
  "\u2581normally": 8269,
  "\u2581parallel": 8270,
  "\u2581scattered": 8271,
  "\u2581shadow": 8272,
  "\u2581span": 8273,
  "\u2581tsaleleke": 8274,
  "tz": 8275,
  "und": 8276,
  "\u2581Future": 8277,
  "\u2581Jaha": 8278,
  "\u2581Papil": 8279,
  "\u2581Street": 8280,
  "\u2581akeke": 8281,
  "\u2581crushed": 8282,
  "\u2581fungha": 8283,
  "\u2581humeke": 8284,
  "\u2581minsusumeto": 8285,
  "\u2581morality": 8286,
  "\u2581productive": 8287,
  "\u2581references": 8288,
  "\u2581representatives": 8289,
  "\u2581roll": 8290,
  "\u2581safely": 8291,
  "\u2581shut": 8292,
  "\u2581stressed": 8293,
  "\u2581tshembekiki": 8294,
  "\u2581xixika": 8295,
  "ak": 8296,
  "ology": 8297,
  "\u2581Cinca": 8298,
  "\u2581Mupapa": 8299,
  "\u2581Rachel": 8300,
  "\u2581Self": 8301,
  "\u2581Xiyenge": 8302,
  "\u2581du": 8303,
  "\u2581eximatsini": 8304,
  "\u2581filling": 8305,
  "\u2581hundzuriwa": 8306,
  "\u2581materially": 8307,
  "\u2581tinyiketa": 8308,
  "\u2581tirhandza": 8309,
  "\u2581wings": 8310,
  "\u2581wishes": 8311,
  "\u2581xilotlelo": 8312,
  "\u2581Eric": 8313,
  "\u2581Nineveh": 8314,
  "\u2581VUTOMI": 8315,
  "\u2581actively": 8316,
  "\u2581comforted": 8317,
  "\u2581damaged": 8318,
  "\u2581enjoyable": 8319,
  "\u2581hlamarisiwa": 8320,
  "\u2581hlamarisiwe": 8321,
  "\u2581khongotela": 8322,
  "\u2581nsongwa": 8323,
  "\u2581ntlhamu": 8324,
  "\u2581priorities": 8325,
  "\u2581risuna": 8326,
  "\u2581striving": 8327,
  "\u2581yimele": 8328,
  "\u2581Co": 8329,
  "\u2581Rebekah": 8330,
  "\u2581Siriya": 8331,
  "\u2581Yonathani": 8332,
  "\u2581centered": 8333,
  "\u2581deception": 8334,
  "\u2581fierce": 8335,
  "\u2581magnificent": 8336,
  "\u2581naturally": 8337,
  "\u2581noise": 8338,
  "\u2581session": 8339,
  "\u2581sinner": 8340,
  "\u2581stating": 8341,
  "\u2581timpapa": 8342,
  "\u2581tract": 8343,
  "\u2581transmitted": 8344,
  "\u2581Ahab": 8345,
  "\u2581Arthur": 8346,
  "\u2581Tom": 8347,
  "\u2581aging": 8348,
  "\u2581breaking": 8349,
  "\u2581cars": 8350,
  "\u2581dyondzisiwe": 8351,
  "\u2581eN": 8352,
  "\u2581eS": 8353,
  "\u2581gentle": 8354,
  "\u2581glorified": 8355,
  "\u2581hleleka": 8356,
  "\u2581hlelekeke": 8357,
  "\u2581independent": 8358,
  "\u2581mintsheketo": 8359,
  "\u2581namba": 8360,
  "\u2581remarks": 8361,
  "?...": 8362,
  "HA": 8363,
  "IC": 8364,
  "Swa": 8365,
  "pro": 8366,
  "tin": 8367,
  "\u2581Akabu": 8368,
  "\u2581Belgium": 8369,
  "\u2581Du": 8370,
  "\u2581Makumu": 8371,
  "\u2581Munyiki": 8372,
  "\u2581Ntsumi": 8373,
  "\u2581Priest": 8374,
  "\u2581admonished": 8375,
  "\u2581composed": 8376,
  "\u2581contributions": 8377,
  "\u2581cultural": 8378,
  "\u2581developments": 8379,
  "\u2581hlamuriwa": 8380,
  "\u2581nhlokonho": 8381,
  "\u2581tlhari": 8382,
  "\u2581touching": 8383,
  "\u2581unscriptural": 8384,
  "\u2581vessel": 8385,
  "\u2581wash": 8386,
  "\u2581west": 8387,
  "LO": 8388,
  "utlhari": 8389,
  "\u2581Purpose": 8390,
  "\u2581YONA": 8391,
  "\u2581decade": 8392,
  "\u2581erirhandzwini": 8393,
  "\u2581foremost": 8394,
  "\u2581meditating": 8395,
  "\u2581round": 8396,
  "\u2581sudden": 8397,
  "\u2581vamakwenu": 8398,
  "\u2581velekiwaka": 8399,
  "AR": 8400,
  "ani": 8401,
  "\u258109": 8402,
  "\u2581Council": 8403,
  "\u2581Find": 8404,
  "\u2581Psalms": 8405,
  "\u2581arm": 8406,
  "\u2581averiwa": 8407,
  "\u2581clouds": 8408,
  "\u2581eparadeyisini": 8409,
  "\u2581hall": 8410,
  "\u2581haughty": 8411,
  "\u2581hetisekeni": 8412,
  "\u2581ice": 8413,
  "\u2581milorho": 8414,
  "\u2581multitude": 8415,
  "\u2581planned": 8416,
  "\u2581seat": 8417,
  "\u2581sorry": 8418,
  "\u2581vengiwa": 8419,
  "\u2581womb": 8420,
  "\u258137,": 8421,
  "\u2581Famba": 8422,
[...]
