{
  "</s>": 0,
  "<unk>": 1,
  ".": 2,
  ",": 3,
  "s": 4,
  "\u2581a": 5,
  "\u2581de": 6,
  "\u2581the": 7,
  "\u2581o": 8,
  "\u2581to": 9,
  "'": 10,
  "\u2581que": 11,
  ":": 12,
  "?": 13,
  "\u2581of": 14,
  "\u2581you": 15,
  "\u2581-": 16,
  "\u2581I": 17,
  "\u2581e": 18,
  "\u2581do": 19,
  "\u2581and": 20,
  "\u2581in": 21,
  "...": 22,
  "t": 23,
  "\u2581un": 24,
  "\u2581&": 25,
  "\u2581para": 26,
  "\u2581non": 27,
  "\u2581is": 28,
  "\u2581A": 29,
  "!": 30,
  "-": 31,
  "\u2581se": 32,
  "\u2581as": 33,
  "\u2581da": 34,
  "\u2581for": 35,
  "\u2581\u00e9": 36,
  "\u2581Non": 37,
  "\u2581os": 38,
  "\u2581it": 39,
  "r": 40,
  "\u2581(": 41,
  "\u2581not": 42,
  ";": 43,
  "\u2581unha": 44,
  "\u2581\"": 45,
  "\u2581that": 46,
  "\u2581en": 47,
  "n": 48,
  "\u2581no": 49,
  ")": 50,
  "\u2581be": 51,
  "d": 52,
  "\u2581O": 53,
  "a": 54,
  "\u2581this": 55,
  "\u2581The": 56,
  "ing": 57,
  "\u2581on": 58,
  "\u2581%": 59,
  "\u2581me": 60,
  "m": 61,
  "\u2581with": 62,
  "\u2581": 63,
  "\u25811": 64,
  "\u2581You": 65,
  "\u2581can": 66,
  "\u2581are": 67,
  "\u2581con": 68,
  "o": 69,
  "\u2581your": 70,
  "e": 71,
  "ed": 72,
  "\u2581ao": 73,
  "\u2581na": 74,
  "\u2581por": 75,
  "se": 76,
  "re": 77,
  "/": 78,
  "\u2581have": 79,
  "u": 80,
  "\u2581will": 81,
  "%": 82,
  "\u2581ou": 83,
  "\u2581or": 84,
  "\u2581was": 85,
  "\u2581E": 86,
  "\u2581como": 87,
  "c": 88,
  "Name": 89,
  "\u2581from": 90,
  "\u2581all": 91,
  "\u2581ficheiro": 92,
  "\u2581m\u00e1is": 93,
  "y": 94,
  "\u2581%1": 95,
  "\u2581est\u00e1": 96,
  "\u2581at": 97,
  "do": 98,
  "\u2581file": 99,
  "\u2581we": 100,
  "er": 101,
  "\u2581an": 102,
  "\u2581by": 103,
  "\u2581'": 104,
  "l": 105,
  "b": 106,
  "\u2581\u00e1": 107,
  "\u2581he": 108,
  "\u2581dos": 109,
  "\u2581foi": 110,
  "\u2581It": 111,
  "\u2581Se": 112,
  "\u2581pode": 113,
  "ll": 114,
  "\u2581This": 115,
  "\u2581if": 116,
  "\u2581one": 117,
  "\u2581my": 118,
  "\u2581_": 119,
  "me": 120,
  "S": 121,
  "\u2581son": 122,
  "es": 123,
  "\u2581want": 124,
  "da": 125,
  "\u2581esta": 126,
  "\u2581No": 127,
  "\u2581pos\u00edbel": 128,
  "ndo": 129,
  "te": 130,
  "i": 131,
  "\u2581co": 132,
  "lo": 133,
  "\u2581And": 134,
  "\"": 135,
  "\u2581they": 136,
  "_": 137,
  "\u2581Un": 138,
  "ve": 139,
  "\u2581here": 140,
  "\u2581like": 141,
  "\u2581so": 142,
  "\u2581seu": 143,
  "\u2581know": 144,
  "\u2581up": 145,
  "ly": 146,
  "\u2581If": 147,
  "x": 148,
  "\u2581das": 149,
  "\u2581but": 150,
  "\u2581folder": 151,
  "\u2581what": 152,
  "A": 153,
  "@": 154,
  "la": 155,
  "\u2581ser": 156,
  "al": 157,
  "\u2581What": 158,
  "mos": 159,
  "\u2581there": 160,
  "\u2581out": 161,
  "\u25812": 162,
  "\u2581re": 163,
  "p": 164,
  "en": 165,
  "\u2581C": 166,
  "\u2581about": 167,
  "\u2581K": 168,
  "\u2581when": 169,
  "ar": 170,
  "\u2581S": 171,
  "\u2581name": 172,
  "\u2581We": 173,
  "\u2581time": 174,
  "\u2581s\u00faa": 175,
  "\u2581don": 176,
  "\u00e1": 177,
  "\u2581ten": 178,
  "\u2581cando": 179,
  "\u2581get": 180,
  "\u2581his": 181,
  "\u2581nome": 182,
  "de": 183,
  "\u2581He": 184,
  "\u2581aqu\u00ed": 185,
  "g": 186,
  "\u2581has": 187,
  "\u2581ficheiros": 188,
  "\u2581Que": 189,
  ":%": 190,
  "in": 191,
  "on": 192,
  "\u2581him": 193,
  "\u2581which": 194,
  "\u2581kgm": 195,
  "C": 196,
  "\u2581hai": 197,
  "\u2581s\u00f3": 198,
  "le": 199,
  "\u2581them": 200,
  "D": 201,
  "\u2581este": 202,
  "M": 203,
  "\u2581\u00c9": 204,
  "Comment": 205,
  "I": 206,
  "ra": 207,
  "\u2581use": 208,
  "\u2581right": 209,
  "to": 210,
  "\u2581Por": 211,
  "\u2581Do": 212,
  "P": 213,
  "\u2581go": 214,
  "\u2581todo": 215,
  "\u2581opci\u00f3n": 216,
  "\u2581new": 217,
  "\u2581In": 218,
  "\u2581eu": 219,
  "\u2581lista": 220,
  "\u2581only": 221,
  "f": 222,
  "\u2581cartafol": 223,
  "3": 224,
  "\u2581see": 225,
  "\u2581facer": 226,
  "\u2581had": 227,
  "\u2581her": 228,
  "\u2581todos": 229,
  ".\"": 230,
  "E": 231,
  "O": 232,
  "\u2581been": 233,
  "\u2581more": 234,
  "\u2581just": 235,
  "k": 236,
  "ta": 237,
  "\u2581ben": 238,
  "\u2581pero": 239,
  "\u2581message": 240,
  "\u2581As": 241,
  "\u2581De": 242,
  "\u2581novo": 243,
  "T": 244,
  "\u2581sen": 245,
  "or": 246,
  ").": 247,
  "\u25813": 248,
  "2": 249,
  "\u2581But": 250,
  "\u2581@": 251,
  "\u2581Can": 252,
  "\u2581P": 253,
  "\u2581KDE": 254,
  "\u2581open": 255,
  "\u2581she": 256,
  "\u2581sobre": 257,
  "\u2581xa": 258,
  "\u2581B": 259,
  "lle": 260,
  "\u2581used": 261,
  "\u2581Os": 262,
  "R": 263,
  "\u2581now": 264,
  "\u2581X": 265,
  "que": 266,
  "mente": 267,
  "B": 268,
  "\u2581meu": 269,
  "no": 270,
  "ce": 271,
  "\u2581files": 272,
  "\u2581tempo": 273,
  "ba": 274,
  "\u2581F": 275,
  "\u2581Could": 276,
  "\u2581were": 277,
  "(": 278,
  "\u2581moi": 279,
  "\u2581lle": 280,
  "v": 281,
  "\u2581ti": 282,
  "\u2581list": 283,
  "\u2581man": 284,
  "able": 285,
  "\u2581So": 286,
  "\u2581s": 287,
  "\u2581polo": 288,
  "co": 289,
  "\u2581could": 290,
  "\u2581data": 291,
  "ro": 292,
  "\u2581\u00ab%": 293,
  "\u2581--": 294,
  "\u2581nos": 295,
  "\u2581Show": 296,
  "\u2581should": 297,
  "\u2581dun": 298,
  "\u2581Re": 299,
  "\u2581think": 300,
  "ri": 301,
  "\u2581That": 302,
  "\u2581isto": 303,
  "\u2581any": 304,
  "\u2581File": 305,
  "\u2581would": 306,
  "\u2581Mostrar": 307,
  "\u2581iso": 308,
  "\u2581mensaxe": 309,
  "ci\u00f3n": 310,
  "\u2581\u00bb": 311,
  "\u2581To": 312,
  "\u2581some": 313,
  "li": 314,
  "\u2581Si": 315,
  "is": 316,
  "\u2581They": 317,
  "\u2581come": 318,
  "\u2581into": 319,
  "\u2581other": 320,
  "\u2581then": 321,
  "\u2581vez": 322,
  "\u2581\u00ab": 323,
  "\u00e9": 324,
  "\u2581ver": 325,
  "\u2581us": 326,
  "L": 327,
  "\u2581selected": 328,
  "ma": 329,
  "ca": 330,
  "\u2581option": 331,
  "\u2581who": 332,
  "\u2581imaxe": 333,
  "\u2581mi\u00f1a": 334,
  "\u2581Select": 335,
  "F": 336,
  "\u2581/": 337,
  "\u2581el": 338,
  "\u2581...": 339,
  "\u2581Pero": 340,
  "\u00ed": 341,
  "\u2581erro": 342,
  "\u2581servidor": 343,
  "\u2581p": 344,
  "ci": 345,
  "th": 346,
  "\u2581their": 347,
  "\u2581D": 348,
  "\u2581coa": 349,
  "\u2581window": 350,
  "\u2581texto": 351,
  "\u2581home": 352,
  "\u2581back": 353,
  "4": 354,
  "\u2581info": 355,
  "\u2581G": 356,
  "\u2581Esta": 357,
  "\u2581down": 358,
  "\u2581configuraci\u00f3n": 359,
  "\u2581datos": 360,
  "\u2581,": 361,
  "\u2581g": 362,
  "\u2581got": 363,
  "\u2581correo": 364,
  "\u2581our": 365,
  "]": 366,
  "\u2581~": 367,
  "\u2581said": 368,
  "\u2581two": 369,
  "\u2581mesmo": 370,
  "as": 371,
  "\u2581over": 372,
  "mo": 373,
  "H": 374,
  "\u2581Unha": 375,
  "\u2581There": 376,
  "\u2581%2": 377,
  "\u2581cor": 378,
  "\u2581Para": 379,
  "ur": 380,
  "1": 381,
  "\u00f3": 382,
  "ti": 383,
  "\u2581Move": 384,
  "\u2581sistema": 385,
  "\u2581first": 386,
  "\u2581informaci\u00f3n": 387,
  "dos": 388,
  "\u2581make": 389,
  "go": 390,
  "\u2581nun": 391,
  "\u2581New": 392,
  "\u2581M": 393,
  "\u2581Name": 394,
  "\u2581te": 395,
  "\u2581tam\u00e9n": 396,
  "\u2581T": 397,
  "\u2581si": 398,
  "\u2581text": 399,
  "\u2581how": 400,
  "\u2581tipo": 401,
  "che": 402,
  "vi": 403,
  "\u2581Use": 404,
  "h": 405,
  "\u2581people": 406,
  "\u2581very": 407,
  "\u2581going": 408,
  "\u2581than": 409,
  "\u2581Please": 410,
  "\u2581Eu": 411,
  "\u2581onde": 412,
  "ga": 413,
  "\u2581algo": 414,
  "\u2581way": 415,
  "\u2581era": 416,
  "\u2581Este": 417,
  "\u2581type": 418,
  "\u2581usuario": 419,
  "\u2581set": 420,
  "\u2581x": 421,
  "\u25814": 422,
  "na": 423,
  "\u2581All": 424,
  "\u2581nada": 425,
  "\u2581agora": 426,
  "xe": 427,
  "N": 428,
  "\u2581did": 429,
  "\u2581good": 430,
  "\u2581En": 431,
  "G": 432,
  "\u2581t": 433,
  "\u2581programa": 434,
  "ou": 435,
  "\u2581[": 436,
  "\u2581L": 437,
  "z": 438,
  "\u2581as\u00ed": 439,
  "ic": 440,
  "\u2581actual": 441,
  "\u2581take": 442,
  "\u2581where": 443,
  "\u2581Isto": 444,
  "\u2581number": 445,
  "\u2581must": 446,
  "\u2581vai": 447,
  "\u2581Add": 448,
  "\u2581#": 449,
  "\u2581does": 450,
  "\u2581these": 451,
  "\u2581Configuraci\u00f3n": 452,
  "\u2581game": 453,
  "\u2581image": 454,
  "\u2581need": 455,
  "\u2581Con": 456,
  "\u2581Escolla": 457,
  "os": 458,
  "it": 459,
  "\u2581dous": 460,
  "\".": 461,
  "\u2581mensaxes": 462,
  "\u2581say": 463,
  "\u2581current": 464,
  "\u2581too": 465,
  "\u2581dunha": 466,
  "\u2581after": 467,
  "el": 468,
  "\u2581antes": 469,
  "\u2581When": 470,
  "\u2581button": 471,
  "\u2581key": 472,
  "\u2581cada": 473,
  "\u2581li\u00f1a": 474,
  "ron": 475,
  "\u2581may": 476,
  "nos": 477,
  "bo": 478,
  "\u2581di": 479,
  "an": 480,
  "\u2581information": 481,
  "\u2581ter": 482,
  "\u2581todas": 483,
  "\u2581bot\u00f3n": 484,
  "\u2581entre": 485,
  "\u2581min": 486,
  "\u2581She": 487,
  "\u2581Oh": 488,
  "\u2581using": 489,
  "\u2581nova": 490,
  "\u2581quere": 491,
  "\u2581found": 492,
  "\u2581left": 493,
  "\u2581pola": 494,
  "\u2581estaba": 495,
  "ul": 496,
  "\u2581seus": 497,
  "\u2581aos": 498,
  "pe": 499,
  "mp": 500,
  "\u2581conta": 501,
  "\u2581close": 502,
  "\u2581Engadir": 503,
  "\u2581system": 504,
  "\u2581Remove": 505,
  "\u2581di\u00e1logo": 506,
  "\u2581pre": 507,
  "ch": 508,
  "w": 509,
  "\u2581ir": 510,
  "\u2581server": 511,
  "\u2581work": 512,
  "ter": 513,
  "\u2581d\u00eda": 514,
  "pa": 515,
  "\u2581\u00bf": 516,
  "\u2581start": 517,
  "\u2581before": 518,
  "\u2581ela": 519,
  "\u2581How": 520,
  "\u2581Well": 521,
  "\u2581because": 522,
  "\u2581n\u00famero": 523,
  "das": 524,
  "ion": 525,
  "\u2581imaxes": 526,
  "\u2581find": 527,
  "il": 528,
  "\u2581Nome": 529,
  "\u2581k": 530,
  "di": 531,
  "\u2581porque": 532,
  "\u2581Como": 533,
  "\u2581est\u00e1n": 534,
  "ation": 535,
  "\u2581again": 536,
  "\u2581valor": 537,
  "\u2581traballo": 538,
  "dor": 539,
  "\u2581Cando": 540,
  "\u2581ca": 541,
  "ne": 542,
  "\u2581vista": 543,
  "\u2581value": 544,
  "\u2581nunha": 545,
  "\\": 546,
  "Y": 547,
  "\u2581Organiser": 548,
  "\u2581dicir": 549,
  "\u2581casa": 550,
  "\u2581\"%": 551,
  "\u25810": 552,
  "ia": 553,
  "5": 554,
  "Other": 555,
  "X": 556,
  "\u2581Not": 557,
  "\u2581a\u00ednda": 558,
  "un": 559,
  "\u25811.": 560,
  "\u2581select": 561,
  "\u2581Pode": 562,
  "\u2581next": 563,
  "\u2581really": 564,
  "\u2581its": 565,
  "V": 566,
  "\u2581default": 567,
  "U": 568,
  "\u25815": 569,
  "\u2581same": 570,
  "\u2581S\u00f3": 571,
  "\u2581mellor": 572,
  "\u2581crear": 573,
  "\u2581also": 574,
  "des": 575,
  "\u2581line": 576,
  "\u2581Xa": 577,
  "\u2581debe": 578,
  "\u2581little": 579,
  "\u2581never": 580,
  "?\"": 581,
  "\u2581tell": 582,
  "\u2581Ben": 583,
  "\u2581day": 584,
  "ver": 585,
  "\u2581>": 586,
  "\u2581URL": 587,
  "\u2581\u00e1s": 588,
  "be": 589,
  "\u00eda": 590,
  "\u2581favor": 591,
  "\u2581off": 592,
  "\u2581Mova": 593,
  "mi": 594,
  "\u2581moito": 595,
  "\u2581action": 596,
  "\u2581Est\u00e1": 597,
  "\u2581abrir": 598,
  "\u2581much": 599,
  "\u2581Open": 600,
  "\u2581Canno": 601,
  "\",": 602,
  "\u2581For": 603,
  "\u2581anos": 604,
  "\u2581desde": 605,
  "\u2581error": 606,
  "\u2581tan": 607,
  "\u2581change": 608,
  "za": 609,
  "\u2581R": 610,
  "\u2581pro": 611,
  "\u2581kde": 612,
  "\u2581temporary": 613,
  "K": 614,
  "so": 615,
  "\u2581outro": 616,
  "\u2581something": 617,
  "\u2581last": 618,
  "\u2581Error": 619,
  "\u2581Settings": 620,
  "\u2581p\u00e1xina": 621,
  "\u2581mail": 622,
  "\u2581parte": 623,
  "\u2581look": 624,
  "\u2581command": 625,
  "nte": 626,
  "\u2581dixo": 627,
  "res": 628,
  "\u2581despois": 629,
  "\u2581xogo": 630,
  "\u2581cara": 631,
  "\u2581My": 632,
  "\u2581usar": 633,
  "\u2581local": 634,
  "\u2581outra": 635,
  "\u2581W": 636,
  "\u2581Why": 637,
  "\u2581didn": 638,
  "\u2581create": 639,
  "\u2581help": 640,
  "\u2581Go": 641,
  "um": 642,
  "\u2581user": 643,
  "\u2581Don": 644,
  "\u2581View": 645,
  "\u2581xente": 646,
  "\u2581An": 647,
  "--": 648,
  "ir": 649,
  "\u2581teu": 650,
  "\u2581Na": 651,
  "\u2581barra": 652,
  "\u2581automaticamente": 653,
  "us": 654,
  "\u2581obter": 655,
  "\u2581sempre": 656,
  "\u2581view": 657,
  "ches": 658,
  "\u2581mais": 659,
  "\u2581empty": 660,
  "\u2581Edit": 661,
  "\u2581che": 662,
  "\u2581Ficheiro": 663,
  "\u00e1n": 664,
  "\u2581Hai": 665,
  "\u2581sure": 666,
  "\u2581while": 667,
  "\u2581move": 668,
  "\u2581N": 669,
  "\u2581show": 670,
  "\u2581m": 671,
  "\u2581already": 672,
  "\u2581available": 673,
  "\u2581nas": 674,
  "\u2581vostede": 675,
  "\u2581failed": 676,
  "$": 677,
  "ado": 678,
  "\u2581cousas": 679,
  "\u2581let": 680,
  "vo": 681,
  "\u2581estar": 682,
  "ment": 683,
  "\u2581Your": 684,
  "\u2581Now": 685,
  "\u2581vida": 686,
  "\u2581even": 687,
  "\u2581size": 688,
  "\u2581men\u00fa": 689,
  "\u2581another": 690,
  "\u2581Yes": 691,
  "\u2581tama\u00f1o": 692,
  "\u2581Desexa": 693,
  "\u2581well": 694,
  "\u2581Come": 695,
  "\u2581item": 696,
  "\u2581sexa": 697,
  "\u2581cannot": 698,
  "im": 699,
  "\u258100": 700,
  "\u2581calquera": 701,
  "\u2581still": 702,
  "fi": 703,
  "\u2581address": 704,
  "\u2581base": 705,
  "\u2581s\u00faas": 706,
  "\u2581mostrar": 707,
  "\u2581El": 708,
  "\u2581tres": 709,
  "\u2581each": 710,
  "\u2581ning\u00fan": 711,
  "\u2581Erro": 712,
  "\u2581entrada": 713,
  "\u2581proxecto": 714,
  "\u2581t\u00faa": 715,
  "\u2581mode": 716,
  "\u2581se\u00f1or": 717,
  "lu": 718,
  "\u2581primeiro": 719,
  "\u2581baixo": 720,
  "\u2581mundo": 721,
  "tro": 722,
  "\u2581quen": 723,
  "ase": 724,
  "\u2581fiestra": 725,
  "\u2581menu": 726,
  "\u2581many": 727,
  "\u2581such": 728,
  "\u2581Mr": 729,
  "\u2581lugar": 730,
  "\u2581sub": 731,
  "\u2581check": 732,
  "\u2581long": 733,
  "ers": 734,
  "\u2581bo": 735,
  "info": 736,
  "\u2581application": 737,
  "\u2581through": 738,
  "\u2581modo": 739,
  "\u2581per": 740,
  "\u2581noite": 741,
  "man": 742,
  "\u2581funci\u00f3n": 743,
  "\u2581onto": 744,
  "\u2581ser\u00e1": 745,
  "+": 746,
  "\u2581Co": 747,
  "at": 748,
  "\u2581espazo": 749,
  "\u2581grupo": 750,
  "\u2581different": 751,
  "\u2581Set": 752,
  "\u2581poden": 753,
  "\u2581read": 754,
  "\u00fa": 755,
  "\u2581Di": 756,
  "\u2581c": 757,
  "\u2581control": 758,
  "\u2581without": 759,
  "\u2581Cor": 760,
  "\u2581menos": 761,
  "\u2581sei": 762,
  "\u2581te\u00f1o": 763,
  "\u2581chave": 764,
  "xi": 765,
  "\u2581color": 766,
  "\u2581escoller": 767,
  "\u2581pouco": 768,
  "\u2581old": 769,
  "\u2581Synchronis": 770,
  "\u2581case": 771,
  "\u2581group": 772,
  "W": 773,
  "\u2581empregar": 774,
  "\u2581Ctrl": 775,
  "\u2581V": 776,
  "\u2581coma": 777,
  "\u2581li": 778,
  "\u2581messages": 779,
  "\u2581editor": 780,
  "\u2581ferramentas": 781,
  "\u2581web": 782,
  "\u2581Configure": 783,
  "\u2581Eliminar": 784,
  "\u2581function": 785,
  "\u2581give": 786,
  "\u2581most": 787,
  "\u2581settings": 788,
  "\u2581pantalla": 789,
  "\u2581thing": 790,
  "\u258110": 791,
  "\u2581Here": 792,
  "\u2581fai": 793,
  "\u2581three": 794,
  "\u2581things": 795,
  "ie": 796,
  "\u2581gardar": 797,
  "\u2581hora": 798,
  "\u2581rede": 799,
  "\u2581made": 800,
  "\u2581display": 801,
  "\u2581Let": 802,
  "),": 803,
  "\u2581Enter": 804,
  "\u2581exemplo": 805,
  "\u2581cun": 806,
  "\u2581own": 807,
  "\u2581existe": 808,
  "9": 809,
  "r\u00eda": 810,
  "\u2581real": 811,
  "\u2581H": 812,
  "\u2581Save": 813,
  "\u2581life": 814,
  "rei": 815,
  "\u2581under": 816,
  "\u2581always": 817,
  "\u2581forma": 818,
  "\u2581'%1": 819,
  "\u2581f": 820,
  "\u2581cos": 821,
  "\u2581years": 822,
  "\u2581mostra": 823,
  "\u2581those": 824,
  "\u2581estou": 825,
  "\u2581veces": 826,
  ",\"": 827,
  "\u2581being": 828,
  "\u2581choose": 829,
  "los": 830,
  "\u2581Fallou": 831,
  "\u2581put": 832,
  "\u2581box": 833,
  "\u2581Editar": 834,
  "\u2581CD": 835,
  "\u2581love": 836,
  "\u2581between": 837,
  "\u2581esquerda": 838,
  "\u2581conexi\u00f3n": 839,
  "\u2581Sen": 840,
  "\u2581page": 841,
  "\u2581campo": 842,
  "\u2581am": 843,
  "\u2581pai": 844,
  "\u2581Agora": 845,
  "id": 846,
  "\u2581omisi\u00f3n": 847,
  "\u2581engadir": 848,
  "\u2581program": 849,
  "\u2581org": 850,
  "\u2581La": 851,
  "\u2581away": 852,
  "\u2581world": 853,
  "\u2581poder\u00eda": 854,
  "up": 855,
  "st": 856,
  "\u2581ex": 857,
  "\u2581elemento": 858,
  "\u2581around": 859,
  "po": 860,
  "\u25816": 861,
  "\u2581xanela": 862,
  "\u2581Delete": 863,
  "\u2581J": 864,
  "\u2581d\u00faas": 865,
  "\u25818": 866,
  "\u2581dialog": 867,
  "pi": 868,
  "\u2581falar": 869,
  "\u2581Vi": 870,
  "\u2581coraz\u00f3ns": 871,
  "et": 872,
  "\u2581nin": 873,
  "\u2581version": 874,
  "ry": 875,
  "qui": 876,
  "\u2581xeito": 877,
  "\u2581U": 878,
  "est": 879,
  "\u2581Ti": 880,
  "\u2581i": 881,
  "\u00edn": 882,
  "\u2581seguinte": 883,
  "\u2581title": 884,
  "6": 885,
  "\u2581outros": 886,
  "\u2581ha": 887,
  "\u2581novas": 888,
  "\u2581point": 889,
  "\u2581images": 890,
  "ity": 891,
  "\u2581Aqu\u00ed": 892,
  "\u2581estado": 893,
  "\u2581might": 894,
  "\u2581n": 895,
  "\u2581nunca": 896,
  "\u2581end": 897,
  "\u2581Editor": 898,
  "\u2581atopar": 899,
  "\u2581d\u00edas": 900,
  "\u2581Configurar": 901,
  "\u2581dis": 902,
  "\u2581interface": 903,
  "\u2581hearts": 904,
  "\u2581sa\u00edda": 905,
  "\u2581Son": 906,
  "ten": 907,
  "\u2581won": 908,
  "\u2581formato": 909,
  "\u2581Organisation": 910,
  "\u2581realmente": 911,
  "\u2581Are": 912,
  "\u2581click": 913,
  "\u2581ti\u00f1a": 914,
  "\u2581format": 915,
  "ut": 916,
  "sh": 917,
  "\u2581ler": 918,
  "\u2581night": 919,
  "\u2581place": 920,
  "per": 921,
  "\u2581podo": 922,
  "\u2581eliminar": 923,
  "mento": 924,
  "\u2581quero": 925,
  "\u2581fondo": 926,
  "r\u00e1": 927,
  "\u2581versi\u00f3n": 928,
  "\u2581tanto": 929,
  "\u2581part": 930,
  "\u2581b": 931,
  "\u00bb": 932,
  "!\"": 933,
  "nta": 934,
  "\u2581configuration": 935,
  "\u2581eles": 936,
  "tu": 937,
  "\u2581opci\u00f3ns": 938,
  "\u2581run": 939,
  "\u2581save": 940,
  "ine": 941,
  "\u2581please": 942,
  "\u2581clubs": 943,
  "\u2581d": 944,
  "ol": 945,
  "\u2581contrasinal": 946,
  "\u2581momento": 947,
  "em": 948,
  "\u2581idea": 949,
  "ada": 950,
  "\u2581date": 951,
  "ent": 952,
  "\u2581deste": 953,
  "\u2581mean": 954,
  "\u2581spades": 955,
  "\u2581n\u00f3s": 956,
  "use": 957,
  "\u2581%1.": 958,
  "\u2581Where": 959,
  "\u2581neste": 960,
  "\u2581Ca": 961,
  "\u2581\u00a1": 962,
  "\u2581every": 963,
  "\u2581mal": 964,
  "\u2581colour": 965,
  "\u2581password": 966,
  "\u2581given": 967,
  "\u2581mentres": 968,
  "\u2581nothing": 969,
  "\u2581filter": 970,
  "\u2581dereita": 971,
  "\u2581logo": 972,
  "\u2581enderezo": 973,
  "idade": 974,
  "\u2581add": 975,
  "\u2581la": 976,
  "ber": 977,
  "\u2581Create": 978,
  "\u2581mo": 979,
  "\u2581support": 980,
  "\u2581(%": 981,
  "\u2581picas": 982,
  "ive": 983,
  "\u2581script": 984,
  "\u2581principal": 985,
  "\u2581normal": 986,
  "ate": 987,
  "\u2581=": 988,
  "\u2581directory": 989,
  "\u2581better": 990,
  "\u2581\"%1\"": 991,
  "\u2581axuda": 992,
  "=": 993,
  "\u2581rato": 994,
  "\u2581Iso": 995,
  "\u2581Ten": 996,
  "fa": 997,
  "\u2581cores": 998,
  "0": 999,
  "\u2581primeira": 1000,
  "Q": 1001,
  "\u2581Who": 1002,
  "du": 1003,
  "zo": 1004,
  "\u258119": 1005,
  "\u2581thought": 1006,
  "\u2581orde": 1007,
  "/%": 1008,
  "\u2581plugin": 1009,
  "\u2581doing": 1010,
  "\u2581\u00bb.": 1011,
  "\u2581As\u00ed": 1012,
  "\u2581ata": 1013,
  "ian": 1014,
  "\u2581Abrir": 1015,
  "\u2581example": 1016,
  "am": 1017,
  "ha": 1018,
  "\u2581field": 1019,
  "\u2581vou": 1020,
  "\u2581status": 1021,
  "\u2581te\u00f1en": 1022,
  "\u2581done": 1023,
  "\u2581canto": 1024,
  "\u2581verdade": 1025,
  "ho": 1026,
  "\u2581keep": 1027,
  "gu": 1028,
  "\u2581specified": 1029,
  "\u2581why": 1030,
  "\u2581kmail": 1031,
  "\u2581punto": 1032,
  "\u2581al\u00ed": 1033,
  "\u2581project": 1034,
  "\u2581elementos": 1035,
  "\u2581enter": 1036,
  "\u2581ningunha": 1037,
  "\u2581bar": 1038,
  "min": 1039,
  "\u2581ese": 1040,
  "\u2581Image": 1041,
  "\u2581car": 1042,
  "\u2581anything": 1043,
  "\u2581cartafoles": 1044,
  "\u2581document": 1045,
  "\u2581enviar": 1046,
  "\u00f3n": 1047,
  "\u2581call": 1048,
  "\u2581tool": 1049,
  "ei": 1050,
  "\u2581Start": 1051,
  "\u2581N\u00famero": 1052,
  "\u2581esa": 1053,
  "\u2581trevos": 1054,
  "\u2581changes": 1055,
  "\u2581Game": 1056,
  "\u2581com": 1057,
  "\u2581v\u00e1lido": 1058,
  "\u2581cousa": 1059,
  "\u2581Le": 1060,
  "\u2581durante": 1061,
  "\u2581space": 1062,
  "\u2581Be": 1063,
  "\u2581Check": 1064,
  "\u2581account": 1065,
  "\u2581Gardar": 1066,
  "\u2581Get": 1067,
  "\u2581cont\u00e9n": 1068,
  "\u2581enderezos": 1069,
  "\u2581source": 1070,
  "tor": 1071,
  "\u2581Import": 1072,
  "\u2581automatically": 1073,
  "\u2581tarefas": 1074,
  "\u2581cal": 1075,
  "\u2581Ra": 1076,
  "tar": 1077,
  "\u2581Opci\u00f3ns": 1078,
  "\u2581pasa": 1079,
  "cha": 1080,
  "ge": 1081,
  "\u2581Vista": 1082,
  "ther": 1083,
  "\u2581Tipo": 1084,
  "\u2581baleiro": 1085,
  "\u2581Ma": 1086,
  "\u2581contra": 1087,
  "\u2581permite": 1088,
  "\u2581object": 1089,
  "\u2581Q": 1090,
  "con": 1091,
  "\u2581caso": 1092,
  "\u2581days": 1093,
  "\u2581father": 1094,
  "\u2581tab": 1095,
  "bi": 1096,
  "ies": 1097,
  "\u2581Right": 1098,
  "\u2581Then": 1099,
  "\u2581following": 1100,
  "\u2581talk": 1101,
  "\u2581HTML": 1102,
  "\u2581f\u00f3ra": 1103,
  "\u2581unit": 1104,
  "llo": 1105,
  "line": 1106,
  "\u2581Es": 1107,
  "\u2581delete": 1108,
  "\u2581obxecto": 1109,
  "\u2581nai": 1110,
  "7": 1111,
  "for": 1112,
  "\u2581ma": 1113,
  "\u2581try": 1114,
  "\u2581Time": 1115,
  "ito": 1116,
  "\u2581Pa": 1117,
  "\u2581documento": 1118,
  "\u2581at\u00e9": 1119,
  "\u2581Z": 1120,
  "\u2581catro": 1121,
  "\u2581Type": 1122,
  "\u2581c\u00f3digo": 1123,
  "\u2581search": 1124,
  "\u2581top": 1125,
  "gar": 1126,
  "io": 1127,
  "\u2581acci\u00f3n": 1128,
  "\u2581Crear": 1129,
  "\u2581Y": 1130,
  "\u2581Bo": 1131,
  "lla": 1132,
  "\u2581came": 1133,
  "\u2581level": 1134,
  "\u2581noso": 1135,
  "\u2581tes": 1136,
  "\u2581*": 1137,
  "sta": 1138,
  "\u2581Text": 1139,
  "\u2581gonna": 1140,
  "\u2581procura": 1141,
  "\u2581simple": 1142,
  "\u2581cunha": 1143,
  "\u2581electr\u00f3nico": 1144,
  "cho": 1145,
  "op": 1146,
  "ran": 1147,
  "\u2581Man": 1148,
  "\u2581Search": 1149,
  "\u2581house": 1150,
  "\u2581calendario": 1151,
  "\u2581IP": 1152,
  "IN": 1153,
  "\u2581write": 1154,
  "las": 1155,
  "ke": 1156,
  "\u2581cargar": 1157,
  "\u2581course": 1158,
  "\u2581disco": 1159,
  "\u2581devolve": 1160,
  "\u2581tarefa": 1161,
  "\u2581Pe": 1162,
  "\u2581problema": 1163,
  "\u2581sir": 1164,
  "AR": 1165,
  "\u2581Data": 1166,
  "\u2581order": 1167,
  "\u2581room": 1168,
  "\u2581fonte": 1169,
  "\u2581access": 1170,
  "\u2581dispositivo": 1171,
  "\u2581Escoller": 1172,
  "\u2581Click": 1173,
  "\u2581Prema": 1174,
  "\u2581segundo": 1175,
  "\u2581remove": 1176,
  "\u2581currently": 1177,
  "\u2581bit": 1178,
  "\u2581Sa": 1179,
  "\u2581Borrar": 1180,
  "\u2581escolla": 1181,
  "\u2581ent\u00f3n": 1182,
  "the": 1183,
  "\u2581deber\u00eda": 1184,
  "\u2581branco": 1185,
  "\u2581options": 1186,
  "\u2581fin": 1187,
  "\u2581nivel": 1188,
  "\u2581Just": 1189,
  "\u2581package": 1190,
  "\u2581Me": 1191,
  "\u2581Evolution": 1192,
  "\u2581initialise": 1193,
  "anse": 1194,
  "ct": 1195,
  "\u2581certificado": 1196,
  "ist": 1197,
  "\u2581ano": 1198,
  "\u2581executar": 1199,
  "Non": 1200,
  "\u2581tarde": 1201,
  "\u2581escritorio": 1202,
  "\u2581est\u00e1s": 1203,
  "\u2581told": 1204,
  "\u2581rexistro": 1205,
  "\u2581\u00f3": 1206,
  "Generic": 1207,
  "\u2581<": 1208,
  "\u2581nomes": 1209,
  "\u2581shown": 1210,
  "ntes": 1211,
  "\u2581Choose": 1212,
  "\u2581hand": 1213,
  "\u2581Mar": 1214,
  "\u2581enough": 1215,
  "xa": 1216,
  "\u2581Pre": 1217,
  "\u2581http": 1218,
  "\u2581partida": 1219,
  "lic": 1220,
  "\u2581su": 1221,
  "ka": 1222,
  "\u2581Lista": 1223,
  "va": 1224,
  "\u2581List": 1225,
  "\u25817": 1226,
  "\u2581four": 1227,
  "nd": 1228,
  "\u2581kind": 1229,
  "\u2581possible": 1230,
  "\u2581With": 1231,
  "gue": 1232,
  "\u2581Ro": 1233,
  "\u2581tal": 1234,
  "\u2581word": 1235,
  "ban": 1236,
  "format": 1237,
  "\u2581Files": 1238,
  "\u2581One": 1239,
  "\u2581paquete": 1240,
  "ix": 1241,
  "ot": 1242,
  "ica": 1243,
  "\u2581Mo": 1244,
  "\u2581Failed": 1245,
  "\u2581a\u00ed": 1246,
  "\u2581valores": 1247,
  "):": 1248,
  "\u2581Estou": 1249,
  "\u2581Tama\u00f1o": 1250,
  "\u2581nosa": 1251,
  "\u2581path": 1252,
  "8": 1253,
  "\u2581ba": 1254,
  "\u2581inicio": 1255,
  "\u2581component": 1256,
  "\u2581Nova": 1257,
  "hi": 1258,
  "\u2581database": 1259,
  "\u2581sesi\u00f3n": 1260,
  "\u2581h": 1261,
  "\u2581leave": 1262,
  "ad": 1263,
  "\u2581Onde": 1264,
  "\u2581Xogo": 1265,
  "\u2581mediante": 1266,
  "\u2581sabe": 1267,
  "\u2581Te\u00f1o": 1268,
  "\u2581went": 1269,
  "vos": 1270,
  "\u2581men": 1271,
  "\u2581mouse": 1272,
  "\u2581log": 1273,
  "\u2581Foi": 1274,
  "\u2581returns": 1275,
  "nt": 1276,
  "\u2581ask": 1277,
  "\u2581feito": 1278,
  "ita": 1279,
  "ster": 1280,
  "\u2581paquetes": 1281,
  "tin": 1282,
  "\u2581send": 1283,
  "\u2581v": 1284,
  "\u2581muller": 1285,
  "and": 1286,
  "\u2581Default": 1287,
  "\u2581mudar": 1288,
  "\u2581filtro": 1289,
  "\u2581running": 1290,
  "\u2581play": 1291,
  "\u2581yet": 1292,
  "\u2581Enable": 1293,
  "\u2581Indica": 1294,
  "\u2581DVD": 1295,
  "\u2581Per": 1296,
  "\u2581Te": 1297,
  "\u2581vi": 1298,
  "\u2581li\u00f1as": 1299,
  "\u2581Li": 1300,
  "\u2581dialogue": 1301,
  "\u2581fillo": 1302,
  "\u2581column": 1303,
  "\u2581lot": 1304,
  "\u2581grande": 1305,
  "\u2581process": 1306,
  "\u2581great": 1307,
  "\u2581whether": 1308,
  "\u2581temos": 1309,
  "\u2581deixar": 1310,
  "\u2581See": 1311,
  "ida": 1312,
  "\u2581Ha": 1313,
  "\u2581hard": 1314,
  "\u2581meus": 1315,
  "\u2581Quen": 1316,
  "\u2581porta": 1317,
  "\u2581light": 1318,
  "ph": 1319,
  "\u2581ID": 1320,
  "\u2581Novo": 1321,
  "\u2581selecci\u00f3n": 1322,
  "\u2581Grazas": 1323,
  "\u2581side": 1324,
  "\u2581Ent\u00f3n": 1325,
  "\u2581Number": 1326,
  "\u2581head": 1327,
  "sen": 1328,
  "\u2581At": 1329,
  "\u2581mother": 1330,
  "nse": 1331,
  "\u2581network": 1332,
  "\u258112": 1333,
  "\u2581media": 1334,
  "\u2581Message": 1335,
  "\u2581few": 1336,
  "\u2581Al": 1337,
  "\u2581Ba": 1338,
  "\u2581called": 1339,
  "\u2581Ao": 1340,
  "\u2581device": 1341,
  "\u2581po": 1342,
  "\u2581Change": 1343,
  "\u2581ever": 1344,
  "\u2581installed": 1345,
  "\u2581everything": 1346,
  "\u2581connection": 1347,
  "\u2581doesn": 1348,
  "tic": 1349,
  "ven": 1350,
  "ness": 1351,
  "\u2581proceso": 1352,
  "\u2581toda": 1353,
  "\u2581main": 1354,
  "aci\u00f3n": 1355,
  "\u2581desta": 1356,
  "\u2581Export": 1357,
  "\u2581output": 1358,
  "\u2581year": 1359,
  "\u258120": 1360,
  "\u2581feel": 1361,
  "\u2581fixo": 1362,
  "\u2581stop": 1363,
  "\u2581ma\u00f1\u00e1": 1364,
  "\u2581dentro": 1365,
  "\u2581Look": 1366,
  "\u2581understand": 1367,
  "ag": 1368,
  "ria": 1369,
  "\u2581podes": 1370,
  "\u2581escribir": 1371,
  "\u2581job": 1372,
  "he": 1373,
  "ty": 1374,
  "\u2581import": 1375,
  "\u2581rei": 1376,
  "\u2581report": 1377,
  "Re": 1378,
  "\u2581cu": 1379,
  "car": 1380,
  "ting": 1381,
  "\u2581queres": 1382,
  "\u2581allows": 1383,
  "\u2581position": 1384,
  "\u2581entry": 1385,
  "\u2581Todos": 1386,
  "\u2581card": 1387,
  "\u2581prema": 1388,
  "\u2581screen": 1389,
  "\u2581Options": 1390,
  "\u2581puido": 1391,
  "\u2581Next": 1392,
  "\u2581algu\u00e9n": 1393,
  "ni": 1394,
  "\u2581Mi": 1395,
  "\u2581values": 1396,
  "\u2581OF": 1397,
  "\u2581Su": 1398,
  "\u2581copia": 1399,
  "\u2581money": 1400,
  "\u2581r": 1401,
  "\u2581specify": 1402,
  "ip": 1403,
  "\u2581email": 1404,
  "\u2581active": 1405,
  "\u2581once": 1406,
  "land": 1407,
  "\u2581iniciar": 1408,
  "BAR": 1409,
  "Que": 1410,
  "ble": 1411,
  "this": 1412,
  "\u2581etc": 1413,
  "\u2581Ga": 1414,
  "\u2581$": 1415,
  "\u2581configurar": 1416,
  "\u2581code": 1417,
  "\u2581live": 1418,
  "\u2581Note": 1419,
  "\u2581cabeza": 1420,
  "\u2581mar": 1421,
  "\u2581palabra": 1422,
  "weather": 1423,
  "\u2581le": 1424,
  "\u2581mesma": 1425,
  "\u2581lo": 1426,
  "\u2581General": 1427,
  "\u2581dende": 1428,
  "\u2581Sub": 1429,
  "\u2581coas": 1430,
  "\u2581dar": 1431,
  "rio": 1432,
  "ido": 1433,
  "\u2581Yeah": 1434,
  "\u2581tema": 1435,
  "son": 1436,
  "\u2581lado": 1437,
  "\u2581obxectos": 1438,
  "\u2581Indi": 1439,
  "xo": 1440,
  "\u258116": 1441,
  "\u2581System": 1442,
  "\u2581User": 1443,
  "\u2581wrong": 1444,
  "\u2581contido": 1445,
  "ig": 1446,
  "\u2581imp": 1447,
  "\u2581software": 1448,
  "\u2581Informaci\u00f3n": 1449,
  "\u2581Filter": 1450,
  "\u2581care": 1451,
  "\u2581igual": 1452,
  "\u2581par": 1453,
  "ER": 1454,
  "\u2581artigos": 1455,
  "\u2581means": 1456,
  "\u2581ningu\u00e9n": 1457,
  "\u2581*.": 1458,
  "\u2581Pro": 1459,
  "\u2581inmenu": 1460,
  "\u2581Ho": 1461,
  "\u2581cami\u00f1o": 1462,
  "\u2581certo": 1463,
  "\u2581problem": 1464,
  "ling": 1465,
  "ton": 1466,
  "\u2581On": 1467,
  "\u2581edit": 1468,
  "\u2581estes": 1469,
  "\u2581posici\u00f3n": 1470,
  "\u2581Da": 1471,
  "\u2581started": 1472,
  "\u2581widget": 1473,
  "\u2581black": 1474,
  "\u2581Debe": 1475,
  "\u2581activa": 1476,
  "\u2581bi": 1477,
  "\u2581instead": 1478,
  "cer": 1479,
  "\u2581Server": 1480,
  "\u2581escolle": 1481,
  "ary": 1482,
  "tion": 1483,
  "\u2581saber": 1484,
  "iro": 1485,
  "\u2581Folder": 1486,
  "\u2581homes": 1487,
  "\u2581later": 1488,
  "ant": 1489,
  "\u2581able": 1490,
  "\u2581sinatura": 1491,
  "tos": 1492,
  "\u2581least": 1493,
  "\u2581letra": 1494,
  "ck": 1495,
  "ira": 1496,
  "\u2581wait": 1497,
  "age": 1498,
  "\u2581God": 1499,
  "\u2581sent": 1500,
  "\u2581problemas": 1501,
  "\u2581Todo": 1502,
  "au": 1503,
  "\u2581Play": 1504,
  "\u2581Ve\u00f1a": 1505,
  "\u2581displayed": 1506,
  "\u2581slot": 1507,
  "\u2581state": 1508,
  "les": 1509,
  "\u2581estea": 1510,
  "eg": 1511,
  "\u2581face": 1512,
  "\u2581poder": 1513,
  "\u2581significa": 1514,
  "ger": 1515,
  "\u2581until": 1516,
  "\u2581Good": 1517,
  "\u2581al": 1518,
  "\u2581negro": 1519,
  "\u2581hear": 1520,
  "\u2581Ela": 1521,
  "\u2581second": 1522,
  "ish": 1523,
  "\u2581hoxe": 1524,
  "\u2581believe": 1525,
  "\u2581items": 1526,
  "\u2581Deus": 1527,
  "\u2581\\": 1528,
  "\u2581far": 1529,
  "\u2581comando": 1530,
  "\u2581pa": 1531,
  "\u2581Accerciser": 1532,
  "\u2581modelo": 1533,
  "\u2581\u266a": 1534,
  "\u2581Auto": 1535,
  "\u2581eventos": 1536,
  "\u2581label": 1537,
  "\u2581location": 1538,
  "\u2581contains": 1539,
  "\u2581table": 1540,
  "\u2581A\u00ednda": 1541,
  "\u2581precisa": 1542,
  "\u2581times": 1543,
  "\u2581Only": 1544,
  "\u2581alg\u00fans": 1545,
  "\u2581below": 1546,
  "por": 1547,
  "\u2581children": 1548,
  "\u2581kill": 1549,
  "\u2581wanted": 1550,
  "ide": 1551,
  "ler": 1552,
  "tra": 1553,
  "\u2581Produciu": 1554,
  "\u2581Procurar": 1555,
  "\u2581Vou": 1556,
  "tri": 1557,
  "\u2581Mais": 1558,
  "\u2581cinco": 1559,
  "\u2581alarm": 1560,
  "net": 1561,
  "\u2581Display": 1562,
  "\u2581dez": 1563,
  "\u25811\"": 1564,
  "\u2581ferramenta": 1565,
  "\u00f1a": 1566,
  "\u2581Page": 1567,
  "\u2581font": 1568,
  "\u2581folders": 1569,
  "\u2581desktop": 1570,
  "\u2581maior": 1571,
  "\u2581sa\u00edr": 1572,
  "\u2581Des": 1573,
  "\u2581del": 1574,
  "\u2581escollido": 1575,
  "\u2581girl": 1576,
  "\u2581van": 1577,
  "\u2581\u00e1rea": 1578,
  "\u2581seguro": 1579,
  "\u2581ISO": 1580,
  "\u2581Color": 1581,
  "ina": 1582,
  "\u2581programas": 1583,
  "\u2581working": 1584,
  "\u2581Sr": 1585,
  "\u2581borrar": 1586,
  "fer": 1587,
  "\u2581dispo\u00f1\u00edbel": 1588,
  "\u2581lines": 1589,
  "\u2581net": 1590,
  "\u2581tooltip": 1591,
  "\u2581yourself": 1592,
  "\u2581caracteres": 1593,
  "\u2581directorio": 1594,
  "\u2581persoas": 1595,
  "gg": 1596,
  "\u25811)": 1597,
  "\u2581Gregor": 1598,
  "\u2581operaci\u00f3n": 1599,
  "\u2581together": 1600,
  "ted": 1601,
  "\u2581Activar": 1602,
  "\u2581Thank": 1603,
  "\u2581gran": 1604,
  "port": 1605,
  "\u2581test": 1606,
  "mb": 1607,
  "\u2581ra": 1608,
  "\u2581l": 1609,
  "wa": 1610,
  "\u2581cursor": 1611,
  "\u2581final": 1612,
  "\u2581small": 1613,
  "\u2581atopou": 1614,
  "\u2581\u00faltima": 1615,
  "\u2581article": 1616,
  "\u2581channel": 1617,
  "\u25812.": 1618,
  "tou": 1619,
  "\u2581Mostra": 1620,
  "\u2581anterior": 1621,
  "\u2581desexa": 1622,
  "ouse": 1623,
  "\u2581Invalid": 1624,
  "ff": 1625,
  "\u2581Unknown": 1626,
  "\u2581else": 1627,
  "\u2581boa": 1628,
  "com": 1629,
  "\u2581By": 1630,
  "\u2581Comment": 1631,
  "\u2581carta": 1632,
  "\u2581remember": 1633,
  "\u2581shows": 1634,
  "\u2581both": 1635,
  "\u2581power": 1636,
  "\u2581today": 1637,
  "\u2581valid": 1638,
  "\u2581estas": 1639,
  "\u2581seen": 1640,
  "ap": 1641,
  "pre": 1642,
  "\u2581Empregar": 1643,
  "\u2581Window": 1644,
  "\u2581bad": 1645,
  "\u2581either": 1646,
  "\u2581Insert": 1647,
  "\u2581calendar": 1648,
  "\u2581input": 1649,
  "\u2581since": 1650,
  "\u2581video": 1651,
  "\u2581From": 1652,
  "\u2581ollos": 1653,
  "\u2581panel": 1654,
  "ru": 1655,
  "tas": 1656,
  "ci\u00f3ns": 1657,
  "\u2581whats": 1658,
  "\u2581door": 1659,
  "if": 1660,
  "\u2581foron": 1661,
  "\u2581horas": 1662,
  "\u2581auto": 1663,
  "\u2581dead": 1664,
  "\u2581dereito": 1665,
  "\u2581white": 1666,
  "\u2581Ver": 1667,
  "\u2581five": 1668,
  "\u2581outras": 1669,
  "pro": 1670,
  "q": 1671,
  "\u2581XML": 1672,
  "ente": 1673,
  "\u2581Ex": 1674,
  "\u2581Ne": 1675,
  "\u2581six": 1676,
  "\u2581artigo": 1677,
  "ance": 1678,
  "\u2581Pi": 1679,
  "\u2581Plugin": 1680,
  "ang": 1681,
  "\u2581big": 1682,
  "\u2581full": 1683,
  "\u2581t\u00edtulo": 1684,
  "ard": 1685,
  "\u2581moitos": 1686,
  "\u2581press": 1687,
  "\u2581seis": 1688,
  "\u2581standard": 1689,
  "ces": 1690,
  "\u2581medio": 1691,
  "ite": 1692,
  "\u2581Hey": 1693,
  "\u2581St": 1694,
  "\u2581comp": 1695,
  "\u2581completa": 1696,
  "\u2581free": 1697,
  "\u2581selection": 1698,
  "\u2581tra": 1699,
  "\u2581war": 1700,
  "\u2581poder\u00e1": 1701,
  "\u2581erros": 1702,
  "\u2581true": 1703,
  "\u2581users": 1704,
  "\u2581created": 1705,
  "\u2581mind": 1706,
  "\u2581volta": 1707,
  "\u2581xeral": 1708,
  "den": 1709,
  "\u2581diamantes": 1710,
  "\u2581palabras": 1711,
  "\u2581teclado": 1712,
  "J": 1713,
  "\u2581Ferramenta": 1714,
  "ng": 1715,
  "\u2581familia": 1716,
  "\u2581takes": 1717,
  "\u2581KMail": 1718,
  "\u2581amor": 1719,
  "\u2581Enviar": 1720,
  "\u2581Mover": 1721,
  "\u2581print": 1722,
  "ous": 1723,
  "\u2581stay": 1724,
  "\u2581certificate": 1725,
  "\u2581clase": 1726,
  "\u2581computer": 1727,
  "\u2581Aconteceu": 1728,
  "\u2581Close": 1729,
  "\u2581knode": 1730,
  "\u2581tipos": 1731,
  "\u2581alarma": 1732,
  "\u2581fila": 1733,
  "\u2581regular": 1734,
  "\u2581servizo": 1735,
  "\u2581libre": 1736,
  "\u2581auga": 1737,
  "\u25819": 1738,
  "\u2581GNOME": 1739,
  "\u2581tras": 1740,
  "ncil": 1741,
  "\u2581setting": 1742,
  "tivo": 1743,
  "}": 1744,
  "\u2581Network": 1745,
  "\u2581comezar": 1746,
  "\u2581extensi\u00f3n": 1747,
  "\u2581pasar": 1748,
  "\u2581Modo": 1749,
  "\u2581cartas": 1750,
  "\u2581desco\u00f1ecido": 1751,
  "\u2581mapa": 1752,
  "less": 1753,
  "\u2581Colour": 1754,
  "\u2581Stop": 1755,
  "\u2581te\u00f1a": 1756,
  "\u2581u": 1757,
  "\u2581Nunca": 1758,
  "\u2581acceso": 1759,
  "\u2581traballar": 1760,
  "mar": 1761,
  "\u2581best": 1762,
  "\u2581Barra": 1763,
  "\u2581m\u00e1ximo": 1764,
  "\u2581Mary": 1765,
  "tal": 1766,
  "\u2581guerra": 1767,
  "\u2581took": 1768,
  "\u2581Tam\u00e9n": 1769,
  "\u2581enabled": 1770,
  "\u2581seleccionado": 1771,
  "\u2581tecla": 1772,
  "ner": 1773,
  "\u2581event": 1774,
  "\u2581sa": 1775,
  "\u2581diamonds": 1776,
  "\u2581indicar": 1777,
  "\u2581These": 1778,
  "\u2581levar": 1779,
  "\u2581Xestor": 1780,
  "lles": 1781,
  "\u2581saw": 1782,
  "\u2581\u00e1rbore": 1783,
  "City": 1784,
  "\u2581Ar": 1785,
  "\u2581Project": 1786,
  "\u2581Size": 1787,
  "\u2581against": 1788,
  "\u2581operation": 1789,
  "\u2581language": 1790,
  "ure": 1791,
  "\u2581diferentes": 1792,
  "\u2581Porque": 1793,
  "\u2581estilo": 1794,
  "\u2581Did": 1795,
  "\u2581destino": 1796,
  "\u2581parece": 1797,
  "\u2581seguintes": 1798,
  "ize": 1799,
  "\u2581mover": 1800,
  "\u2581area": 1801,
  "\u2581king": 1802,
  "\u2581podemos": 1803,
  "\u2581root": 1804,
  "\u2581sinala": 1805,
  "\u2581sol": 1806,
  "\u2581Usar": 1807,
  "\u2581ra\u00ed\u00f1a": 1808,
  "ados": 1809,
  "\u2581Moi": 1810,
  "\u2581Print": 1811,
  "\u2581fi": 1812,
  "\u2581Qt": 1813,
  "\u2581Seleccion": 1814,
  "\u2581audio": 1815,
  "\u2581turn": 1816,
  "\u2581whole": 1817,
  "\u2581execuci\u00f3n": 1818,
  "\u2581ho": 1819,
  "\u2581novos": 1820,
  "\u2581etiqueta": 1821,
  "\u2581facelo": 1822,
  "\u2581load": 1823,
  "\u2581acerca": 1824,
  "\u2581map": 1825,
  "\u2581persoa": 1826,
  "\u2581pi": 1827,
  "mon": 1828,
  "\u2581estamos": 1829,
  "\u2581{": 1830,
  ";)": 1831,
  "fe": 1832,
  "\u2581checked": 1833,
  "\u2581total": 1834,
  "\u2581Vai": 1835,
  "\u2581est\u00e1ndar": 1836,
  "\u2581exp": 1837,
  "ume": 1838,
  "\u2581puntos": 1839,
  "\u2581r\u00e1pido": 1840,
  "\u2581water": 1841,
  "\u2581resposta": 1842,
  "\u2581sound": 1843,
  "\u2581memoria": 1844,
  "\u2581pensar": 1845,
  "\u2581volume": 1846,
  "\u2581\u00fanico": 1847,
  "\u2581changed": 1848,
  "\u2581fun": 1849,
  "tica": 1850,
  "encia": 1851,
  "\u2581short": 1852,
  "\u2581book": 1853,
  "\u2581string": 1854,
  "\u2581y": 1855,
  "pl": 1856,
  "\u2581eyes": 1857,
  "\u2581sabes": 1858,
  "\u2581%3": 1859,
  "\u2581copy": 1860,
  "der": 1861,
  "\u2581Bi": 1862,
  "\u2581Mudar": 1863,
  "\u2581orixinal": 1864,
  "\u2581uso": 1865,
  "\u2581person": 1866,
  "\u2581Key": 1867,
  "\u2581mi": 1868,
  "ando": 1869,
  "\u2581boy": 1870,
  "\u2581\u00faltimo": 1871,
  "\u2581alg\u00fan": 1872,
  "\u2581Quere": 1873,
  "Ste": 1874,
  "\u2581()": 1875,
  "bra": 1876,
  "sco": 1877,
  "\u2581Place": 1878,
  "\u2581informe": 1879,
  "\u2581looking": 1880,
  "\u2581queira": 1881,
  "\u2581trying": 1882,
  "\u2581cadea": 1883,
  "\u2581continuar": 1884,
  "\u2581nice": 1885,
  "\u2581plain": 1886,
  "par": 1887,
  "\u258113": 1888,
  "\u2581j": 1889,
  "\u2581queen": 1890,
  "\u2581red": 1891,
  "\u2581usuarios": 1892,
  "\u2581creo": 1893,
  "\u2581morning": 1894,
  "\u2581busca": 1895,
  "\u2581quer\u00eda": 1896,
  "\u2581sitio": 1897,
  "\u2581hope": 1898,
  "\u2581isn": 1899,
  "()": 1900,
  "\u2581Control": 1901,
  "\u2581Mu": 1902,
  "\u2581Some": 1903,
  "\u2581names": 1904,
  "ual": 1905,
  "\u2581grupos": 1906,
  "\u2581ordes": 1907,
  "\u2581Lord": 1908,
  "\u2581port": 1909,
  "\u2581sorry": 1910,
  "\u2581actually": 1911,
  "\u2581fe": 1912,
  "\u2581heard": 1913,
  "\u2581semana": 1914,
  "\u2581Tab": 1915,
  "The": 1916,
  "\u00f1o": 1917,
  "\u2581Left": 1918,
  "\u2581Polo": 1919,
  "\u2581asked": 1920,
  "\u2581cidade": 1921,
  "\u2581index": 1922,
  "\u2581matter": 1923,
  "\u2581ven": 1924,
  "\u2581Manager": 1925,
  "\u2581speed": 1926,
  "\u2581Gu": 1927,
  "\u2581exists": 1928,
  "\u2581fiestras": 1929,
  "\u2581importa": 1930,
  "pen": 1931,
  "tura": 1932,
  "\u2581high": 1933,
  "ice": 1934,
  "rd": 1935,
  "\u2581family": 1936,
  "Co": 1937,
  "ick": 1938,
  "ino": 1939,
  "\u2581chaves": 1940,
  "\u2581procurar": 1941,
  "file": 1942,
  "\u2581Internet": 1943,
  "\u2581Send": 1944,
  "\u2581cantidade": 1945,
  "\u2581inter": 1946,
  "ating": 1947,
  "br": 1948,
  "\u2581contacto": 1949,
  "cos": 1950,
  "\u2581Quero": 1951,
  "star": 1952,
  "tan": 1953,
  "\u2581Ka": 1954,
  "\u2581keys": 1955,
  "\u2581session": 1956,
  "i\u00f3n": 1957,
  "\u258130": 1958,
  "\u2581Stark": 1959,
  "\u2581pequeno": 1960,
  "\u2581caixa": 1961,
  "\u2581diferente": 1962,
  "\u2581film": 1963,
  "\u2581icon": 1964,
  "\u2581Ta": 1965,
  "\u2581taboleiro": 1966,
  "\u2581Configuration": 1967,
  "\u2581GUI": 1968,
  "\u2581configure": 1969,
  "\u2581objects": 1970,
  "Z": 1971,
  "ated": 1972,
  "dia": 1973,
  "\u2581?": 1974,
  "\u2581Group": 1975,
  "\u2581engadido": 1976,
  "\u2581perfil": 1977,
  "out": 1978,
  "\u2581luz": 1979,
  "\u2581quite": 1980,
  "\u2581remote": 1981,
  "ric": 1982,
  "\u2581Mail": 1983,
  "\u2581medo": 1984,
  "\u2581Tes": 1985,
  "\u2581Whe": 1986,
  "unit": 1987,
  "remos": 1988,
  "\u2581mu": 1989,
  "\u2581volver": 1990,
  "\u2581wish": 1991,
  "\u2581exist": 1992,
  "lar": 1993,
  "\u2581moment": 1994,
  "\u2581packages": 1995,
  "\u2581young": 1996,
  "\u2581coming": 1997,
  "\u2581profile": 1998,
  "\u2581Cu": 1999,
  "\u2581Mode": 2000,
  "\u2581manager": 2001,
  "\u2581supported": 2002,
  "\u2581Jo": 2003,
  "\u2581cuarto": 2004,
  "side": 2005,
  "\u2581escollida": 2006,
  "\u2581Queres": 2007,
  "\u2581happened": 2008,
  "\u2581Ficheiros": 2009,
  "\u2581fontes": 2010,
  "\u2581fose": 2011,
  "\u2581imos": 2012,
  "\u2581polos": 2013,
  "\u2581Cartafol": 2014,
  "\u2581business": 2015,
  "action": 2016,
  "\u00f1e": 2017,
  "\u2581Hide": 2018,
  "\u2581getting": 2019,
  "\u2581lost": 2020,
  "color": 2021,
  "\u2581100": 2022,
  "\u2581emprega": 2023,
  "\u2581fan": 2024,
  "\u2581leva": 2025,
  "\u2581lt": 2026,
  "\u00e9n": 2027,
  "\u2581important": 2028,
  "i\u00f1a": 2029,
  "\u2581Copiar": 2030,
  "\u2581Fa": 2031,
  "\u2581contactos": 2032,
  "\u2581month": 2033,
  "\u2581varios": 2034,
  "ful": 2035,
  "\u2581Help": 2036,
  "\u2581matar": 2037,
  "fo": 2038,
  "\u2581question": 2039,
  "\u2581varias": 2040,
  "10": 2041,
  "ial": 2042,
  "\u2581Vostede": 2043,
  "\u2581makes": 2044,
  "mail": 2045,
  "\u2581partir": 2046,
  "\u2581Ri": 2047,
  "\u2581articles": 2048,
  "\u2581Web": 2049,
  "\\.": 2050,
  "cion": 2051,
  "\u2581corpo": 2052,
  "\u2581Lo": 2053,
  "\u2581abaixo": 2054,
  "\u2581applications": 2055,
  "\u2581chegar": 2056,
  "\u2581section": 2057,
  "\u2581v\u00e1lida": 2058,
  "\u2581week": 2059,
  "\u2581Toolbar": 2060,
  "\u2581appear": 2061,
  "\u2581//": 2062,
  "\u2581previa": 2063,
  "\u2581words": 2064,
  "*": 2065,
  "\u2581Com": 2066,
  "\u2581Konqueror": 2067,
  "\u2581deixa": 2068,
  "\u2581resultado": 2069,
  "\u2581Clear": 2070,
  "\u2581modificar": 2071,
  "\u2581oito": 2072,
  "\u2581required": 2073,
  "\u2581special": 2074,
  "title": 2075,
  "\u2581above": 2076,
  "\u2581\u00c1": 2077,
  "\u2581during": 2078,
  "\u2581radio": 2079,
  "izaci\u00f3n": 2080,
  "\u2581Tool": 2081,
  "\u2581maneira": 2082,
  "cc": 2083,
  "\u2581human": 2084,
  "\u2581raz\u00f3n": 2085,
  "let": 2086,
  "tiva": 2087,
  "\u2581Log": 2088,
  "\u2581background": 2089,
  "\u2581secci\u00f3n": 2090,
  "\u2581ser\u00e1n": 2091,
  "\u2581sete": 2092,
  "\u2581axudar": 2093,
  "\u2581service": 2094,
  "\u2581ser\u00eda": 2095,
  "pp": 2096,
  "\u2581Or": 2097,
  "\u2581signature": 2098,
  "ud": 2099,
  "\u2581character": 2100,
  "\u2581custom": 2101,
  "j": 2102,
  "\u2581Because": 2103,
  "\u2581Free": 2104,
  "\u2581Copy": 2105,
  "\u2581digiKam": 2106,
  "\u2581impresora": 2107,
  "lt": 2108,
  "one": 2109,
  "\u2581Of": 2110,
  "\u2581Player": 2111,
  "\u2581based": 2112,
  "\u2581download": 2113,
  "\u2581vas": 2114,
  "\u2581eight": 2115,
  "\u2581p\u00e1xinas": 2116,
  "\u2581vin": 2117,
  "cio": 2118,
  "\u2581First": 2119,
  "\u2581allow": 2120,
  "\u2581columna": 2121,
  "\u2581die": 2122,
  "\u2581woman": 2123,
  "De": 2124,
  "gra": 2125,
  "\u2581Importar": 2126,
  "\u2581maior\u00eda": 2127,
  "\u2581Information": 2128,
  "\u2581detalles": 2129,
  "\u2581longo": 2130,
  "\u2581pay": 2131,
  "\u2581xestor": 2132,
  "\u2581Axuda": 2133,
  "\u2581seguir": 2134,
  "\u2581minutos": 2135,
  "\u2581rota": 2136,
  "cto": 2137,
  "ise": 2138,
  "world": 2139,
  "\u258115": 2140,
  "\u2581alone": 2141,
  "\u2581fo": 2142,
  "\u2581historia": 2143,
  "\u2581importar": 2144,
  "\u2581store": 2145,
  "\u2581Bu": 2146,
  "\u2581Est\u00e1s": 2147,
  "cen": 2148,
  "\u2581saved": 2149,
  "\u2581half": 2150,
  "\u2581host": 2151,
  "\u2581school": 2152,
  "\u2581CVS": 2153,
  "\u2581Era": 2154,
  "\u2581Mensaxe": 2155,
  "\u2581p\u00f3dese": 2156,
  "cl": 2157,
  "\u2581Ola": 2158,
  "\u2581bottom": 2159,
  "ue": 2160,
  "\u2581single": 2161,
  "\u2581Imos": 2162,
  "\u2581tree": 2163,
  "tre": 2164,
  "\u2581Black": 2165,
  "\u2581manual": 2166,
  "our": 2167,
  "\u2581cr": 2168,
  "\u2581acordo": 2169,
  "\u2581arriba": 2170,
  "\u2581importante": 2171,
  "\u2581proba": 2172,
  "ade": 2173,
  "\u2581San": 2174,
  "ID": 2175,
  "name": 2176,
  "cast": 2177,
  "\u2581Tra": 2178,
  "\u2581activar": 2179,
  "\u2581cell": 2180,
  "ntroduza": 2181,
  "dores": 2182,
  "\u2581Address": 2183,
  "\u2581modificaci\u00f3ns": 2184,
  "\u2581memory": 2185,
  "\u2581nesta": 2186,
  "\u2581premer": 2187,
  "\u25812)": 2188,
  "\u2581events": 2189,
  "\u2581recurso": 2190,
  "\u2581After": 2191,
  "\u2581kstars": 2192,
  "\u2581papel": 2193,
  "\u2581Tempo": 2194,
  "\u2581answer": 2195,
  "\u2581dados": 2196,
  "\u2581hab\u00eda": 2197,
  "\u2581superior": 2198,
  "\u2581terminal": 2199,
  "\u2581bu": 2200,
  "\u2581cifrado": 2201,
  "\u2581nenos": 2202,
  "\u2581Command": 2203,
  "\u2581Dr": 2204,
  "\u2581bits": 2205,
  "\u2581child": 2206,
  "\u2581body": 2207,
  "\u2581drop": 2208,
  "\u2581ro": 2209,
  "\u2581mulleres": 2210,
  "\u2581YOU": 2211,
  "\u2581match": 2212,
  "\u2581multiple": 2213,
  "stra": 2214,
  "\u2581Ah": 2215,
  "\u2581se\u00f1ora": 2216,
  "\u2581Take": 2217,
  "\u2581instalaci\u00f3n": 2218,
  "\u2581seven": 2219,
  "\u2581continue": 2220,
  "\u2581fillos": 2221,
  "\u2581others": 2222,
  "pt": 2223,
  "\u2581White": 2224,
  "\u2581correct": 2225,
  "\u2581speak": 2226,
  "\u2581Run": 2227,
  "\u2581algunha": 2228,
  "\u2581myself": 2229,
  "\u2581nosos": 2230,
  "\u2581predeterminado": 2231,
  "\u2581killed": 2232,
  "av": 2233,
  "\u2581Ou": 2234,
  "\u2581characters": 2235,
  "\u2581class": 2236,
  "\u2581comigo": 2237,
  "\u2581multi": 2238,
  "\u2581riba": 2239,
  "\u2581v\u00eddeo": 2240,
  "\u2581Quitar": 2241,
  "\u2581cre": 2242,
  "izar": 2243,
  "lin": 2244,
  "\u2581Draw": 2245,
  "\u2581theme": 2246,
  "\u2581death": 2247,
  "\u2581impresi\u00f3n": 2248,
  "\u2581indica": 2249,
  "\u2581sh": 2250,
  "\u25811:": 2251,
  "\u2581comes": 2252,
  "\u2581+": 2253,
  "\u2581Po": 2254,
  "\u2581Texto": 2255,
  "\u2581says": 2256,
  "nder": 2257,
  "\u2581Nepomuk": 2258,
  "\u2581proxy": 2259,
  "gt": 2260,
  "\u2581ago": 2261,
  "\u2581descrici\u00f3n": 2262,
  "\u2581form": 2263,
  "\u2581toolbar": 2264,
  "\u2581within": 2265,
  "\u2581Allow": 2266,
  "\u2581Last": 2267,
  "\u2581hours": 2268,
  "\u2581inside": 2269,
  "\u2581present": 2270,
  "\u2581Filtro": 2271,
  "\u2581chama": 2272,
  "\u2581share": 2273,
  "In": 2274,
  "ps": 2275,
  "\u2581extra": 2276,
  "\u2581post": 2277,
  "ak": 2278,
  "ras": 2279,
  "rra": 2280,
  "\u00e1bel": 2281,
  "\u2581aparece": 2282,
  "\u2581preme": 2283,
  "\u2581sleep": 2284,
  "\u2581velocidade": 2285,
  "\u2581!": 2286,
  "\u2581'%": 2287,
  "\u2581Have": 2288,
  "\u2581l\u00edmite": 2289,
  "\u2581moitas": 2290,
  "ren": 2291,
  "rt": 2292,
  "\u2581country": 2293,
  "\u2581fa": 2294,
  "\u2581st": 2295,
  "\u2581vir": 2296,
  "\u2581Comp": 2297,
  "\u2581bring": 2298,
  "\u2581cartos": 2299,
  "\u2581minutes": 2300,
  "\u2581English": 2301,
  "\u2581Se\u00f1or": 2302,
  "\u2581wouldn": 2303,
  "\u2581Description": 2304,
  "\u2581conxunto": 2305,
  "\u2581disk": 2306,
  "\u2581himself": 2307,
  "\u2581cambiar": 2308,
  "\u2581couldn": 2309,
  "\u2581morte": 2310,
  "\u2581th": 2311,
  "\u2581dispo\u00f1\u00edbeis": 2312,
  "\u2581entradas": 2313,
  "\u2581icona": 2314,
  "\u2581poida": 2315,
  "\u2581rest": 2316,
  "by": 2317,
  "gui": 2318,
  "\u2581Seleccionar": 2319,
  "\u2581gave": 2320,
  "\u2581description": 2321,
  "\u2581usa": 2322,
  "\u2581wife": 2323,
  "val": 2324,
  "\u2581Line": 2325,
  "\u2581Estado": 2326,
  "\u2581longer": 2327,
  "\u2581social": 2328,
  "\u2581Exportar": 2329,
  "\u2581gusta": 2330,
  "\u258150": 2331,
  "\u2581DE": 2332,
  "\u2581fine": 2333,
  "\u2581John": 2334,
  "\u2581Mira": 2335,
  "\u2581easy": 2336,
  "\u2581evento": 2337,
  "\u2581lixo": 2338,
  "\u2581pu": 2339,
  "\u2581wasn": 2340,
  "\u2581Will": 2341,
  "gan": 2342,
  "\u2581Enderezo": 2343,
  "\u2581city": 2344,
  "\u2581unknown": 2345,
  "\u2581deben": 2346,
  "\u2581ligaz\u00f3n": 2347,
  "\u2581useful": 2348,
  "\u2581c\u00e1mara": 2349,
  "\u2581dado": 2350,
  "\u2581demasiado": 2351,
  "\u2581d\u00e1": 2352,
  "\u2581super": 2353,
  "\u2581trav\u00e9s": 2354,
  "\u2581gone": 2355,
  "\u2581co\u00f1ece": 2356,
  "\u2581global": 2357,
  "\u2581tentar": 2358,
  "\u2581Car": 2359,
  "\u2581opened": 2360,
  "\u2581Download": 2361,
  "\u2581clicking": 2362,
  "\u2581dif\u00edcil": 2363,
  "\u2581result": 2364,
  "\u2581M\u00e1is": 2365,
  "\u2581localizaci\u00f3n": 2366,
  "\u2581\u00eda": 2367,
  "No": 2368,
  "\u2581collection": 2369,
  "\u2581manter": 2370,
  "\u2581reproduci\u00f3n": 2371,
  "\u2581soon": 2372,
  "\u2581algunhas": 2373,
  "\u2581autenticaci\u00f3n": 2374,
  "\u2581certificados": 2375,
  "\u2581espera": 2376,
  "\u2581plan": 2377,
  "ell": 2378,
  "\u2581Make": 2379,
  "\u2581diante": 2380,
  "\u2581export": 2381,
  "\u2581inicial": 2382,
  "\u2581w": 2383,
  "MB": 2384,
  "\u2581%1:": 2385,
  "\u2581Inserir": 2386,
  "\u2581Ir": 2387,
  "end": 2388,
  "\u2581Password": 2389,
  "\u2581claro": 2390,
  "\u2581someone": 2391,
  "\u2581t\u00e1boa": 2392,
  "lan": 2393,
  "\u2581details": 2394,
  "ico": 2395,
  "\u2581acci\u00f3ns": 2396,
  "\u2581alarmas": 2397,
  "\u2581gas": 2398,
  "\u2581persoal": 2399,
  "ab": 2400,
  "\u2581Connection": 2401,
  "\u2581amigo": 2402,
  "\u2581chamado": 2403,
  "\u2581coche": 2404,
  "\u2581\u00fatil": 2405,
  "ex": 2406,
  "iva": 2407,
  "\u2581fora": 2408,
  "\u2581sort": 2409,
  "of": 2410,
  "rea": 2411,
  "\u2581Descrici\u00f3n": 2412,
  "\u2581entries": 2413,
  "\u2581row": 2414,
  "\u2581amount": 2415,
  "\u2581talking": 2416,
  "\u2581Find": 2417,
  "\u2581marcadores": 2418,
  "\u2581tag": 2419,
  "bar": 2420,
  "dio": 2421,
  "\u2581along": 2422,
  "\u2581original": 2423,
  "\u2581pa\u00eds": 2424,
  "\u2581Alt": 2425,
  "\u2581Keep": 2426,
  "\u2581P\u00e1xina": 2427,
  "\u2581porto": 2428,
  "\u2581instalar": 2429,
  "\u2581invalid": 2430,
  "ator": 2431,
  "\u2581Bar": 2432,
  "\u2581colecci\u00f3n": 2433,
  "\u2581sky": 2434,
  "ence": 2435,
  "usa": 2436,
  "\u2581content": 2437,
  "\u2581expression": 2438,
  "\u2581Lu": 2439,
  "\u2581id": 2440,
  "ario": 2441,
  "\u2581Menu": 2442,
  "\u2581Autor": 2443,
  "\u2581fact": 2444,
  "\u2581shall": 2445,
  "\u2581THE": 2446,
  "\u2581completo": 2447,
  "\u2581front": 2448,
  "\u2581Temos": 2449,
  "\u2581range": 2450,
  "\u2581ve": 2451,
  "ame": 2452,
  "via": 2453,
  "\u2581fr": 2454,
  "AL": 2455,
  "\\\\": 2456,
  "\u2581bed": 2457,
  "\u2581cliente": 2458,
  "\u2581friend": 2459,
  "\u2581guy": 2460,
  "\u2581step": 2461,
  "\u2581watch": 2462,
  "\u2581mes": 2463,
  "\u2581sister": 2464,
  "\u2581target": 2465,
  "\u2581vaia": 2466,
  "\u2581pregunta": 2467,
  "\u2581sign": 2468,
  "\u2581Desktop": 2469,
  "\u2581client": 2470,
  "\u2581soporte": 2471,
  "ima": 2472,
  "\u2581contact": 2473,
  "\u2581r\u00e1pida": 2474,
  "\u2581terra": 2475,
  "nto": 2476,
  "\u2581expresi\u00f3n": 2477,
  "\u2581writing": 2478,
  "adas": 2479,
  "\u2581ceo": 2480,
  "cci\u00f3n": 2481,
  "ea": 2482,
  "ko": 2483,
  "\u2581Properties": 2484,
  "\u2581Ven": 2485,
  "\u2581importaci\u00f3n": 2486,
  "\u2581limit": 2487,
  "ack": 2488,
  "nia": 2489,
  "\u2581Cal": 2490,
  "\u2581knew": 2491,
  "\u2581IMAP": 2492,
  "\u2581needs": 2493,
  "\u2581player": 2494,
  "\u2581round": 2495,
  "\u2581Pechar": 2496,
  "\u2581commands": 2497,
  "\u2581segundos": 2498,
  "\u2581GNU": 2499,
  "\u2581Maybe": 2500,
  "\u2581amigos": 2501,
  "\u2581Application": 2502,
  "\u2581Despois": 2503,
  "\u2581bug": 2504,
  "\u2581canal": 2505,
  "\u2581contents": 2506,
  "\u2581dear": 2507,
  "\u2581dixen": 2508,
  "\u2581several": 2509,
  "OS": 2510,
  "ador": 2511,
  "bre": 2512,
  "ld": 2513,
  "\u2581empregando": 2514,
  "\u2581reason": 2515,
  "\u2581shell": 2516,
  "\u2581track": 2517,
  "#": 2518,
  "Eu": 2519,
  "cal": 2520,
  "\u2581camera": 2521,
  "\u2581moves": 2522,
  "\u2581pretty": 2523,
  "\u2581suposto": 2524,
  "eo": 2525,
  "\u2581contain": 2526,
  "\u2581pista": 2527,
  "\u2581Pois": 2528,
  "\u2581escala": 2529,
  "\u2581\u00edndice": 2530,
  "cia": 2531,
  "\u2581complete": 2532,
  "\u2581funciona": 2533,
  "\u2581nove": 2534,
  "\u2581picture": 2535,
  "\u2581voz": 2536,
  "rse": 2537,
  "\u2581Author": 2538,
  "\u2581imprimir": 2539,
  "\u2581task": 2540,
  "ncia": 2541,
  "\u2581baleira": 2542,
  "\u2581forza": 2543,
  "\u2581\u00e9xito": 2544,
  "ny": 2545,
  "\u2581install": 2546,
  "\u2581preciso": 2547,
  "\u2581predeterminada": 2548,
  "\u2581rather": 2549,
  "\u2581sab\u00eda": 2550,
  "\u2581vos": 2551,
  "ja": 2552,
  "\u2581alta": 2553,
  "\u2581falta": 2554,
  "\u2581games": 2555,
  "\u2581ter\u00e1": 2556,
  "ura": 2557,
  "\u2581Xeral": 2558,
  "\u2581irm\u00e1": 2559,
  "\u2581mans": 2560,
  "\u2581preview": 2561,
  "\u2581temporal": 2562,
  "\u2581though": 2563,
  "ah": 2564,
  "ile": 2565,
  "\u2581Main": 2566,
  "\u2581deles": 2567,
  "\u2581environment": 2568,
  "\u2581finished": 2569,
  "\u2581par\u00e1metros": 2570,
  "\u2581seleccionar": 2571,
  "\u2581\\\\": 2572,
  "\u2581axenda": 2573,
  "\u2581His": 2574,
  "\u2581Toggle": 2575,
  "\u2581comandos": 2576,
  "\u2581count": 2577,
  "\u2581preto": 2578,
  "\u258125": 2579,
  "\u2581atr\u00e1s": 2580,
  "\u2581grandes": 2581,
  "ible": 2582,
  "\u2581Ser": 2583,
  "\u2581accessible": 2584,
  "\u2581module": 2585,
  "way": 2586,
  "\u2581Cancel": 2587,
  "\u2581morrer": 2588,
  "\u2581past": 2589,
  "emos": 2590,
  "ste": 2591,
  "\u2581Formato": 2592,
  "\u2581P\u00f3dese": 2593,
  "\u2581grazas": 2594,
  "\u2581moving": 2595,
  "\u2581pasou": 2596,
  "\u2581probas": 2597,
  "\u2581stand": 2598,
  "\u2581Dis": 2599,
  "\u2581less": 2600,
  "\u2581Iniciar": 2601,
  "\u2581existing": 2602,
  "\u2581problems": 2603,
  "\u2581women": 2604,
  "ING": 2605,
  "\u2581May": 2606,
  "\u2581resource": 2607,
  "\u2581vivir": 2608,
  "\u2581windows": 2609,
  "\u2581Update": 2610,
  "\u2581header": 2611,
  "\u2581teus": 2612,
  "ung": 2613,
  "\u2581note": 2614,
  "\u2581seconds": 2615,
  "\u2581symbol": 2616,
  "\u2581tomar": 2617,
  "\u2581ce": 2618,
  "\u2581effect": 2619,
  "\u2581paso": 2620,
  "\u00e9s": 2621,
  "\u2581clear": 2622,
  "\u2581known": 2623,
  "\u2581template": 2624,
  "000": 2625,
  "\u2581almost": 2626,
  "\u2581caderno": 2627,
  "\u2581cambios": 2628,
  "\u2581especial": 2629,
  "\u2581gr\u00e1fica": 2630,
  "\u2581desa": 2631,
  "\u2581orixe": 2632,
  "ista": 2633,
  "\u258101": 2634,
  "\u258111": 2635,
  "\u2581usando": 2636,
  "ante": 2637,
  "\u2581fire": 2638,
  "\u2581\u00fanica": 2639,
  "time": 2640,
  "\u2581Hi": 2641,
  "\u2581pequena": 2642,
  "ki": 2643,
  "\u2581lu": 2644,
  "ach": 2645,
  "ier": 2646,
  "space": 2647,
  "\u2581America": 2648,
  "\u2581author": 2649,
  "\u2581du": 2650,
  "\u2581esc": 2651,
  "\u2581playing": 2652,
  "\u2581usado": 2653,
  "izado": 2654,
  "rme": 2655,
  "\u2581Cada": 2656,
  "\u2581Okay": 2657,
  "\u2581Tools": 2658,
  "\u2581conectar": 2659,
  "\u2581gr\u00e1fico": 2660,
  "\u2581xogar": 2661,
  "bel": 2662,
  "tes": 2663,
  "\u2581Other": 2664,
  "\u2581certain": 2665,
  "\u2581convert": 2666,
  "\u2581identidade": 2667,
  "\u2581minute": 2668,
  "\u2581probably": 2669,
  "\u2581upon": 2670,
  "sign": 2671,
  "\u2581dispositivos": 2672,
  "\u2581enable": 2673,
  "\u2581fall": 2674,
  "\u2581perder": 2675,
  "\u2581remate": 2676,
  "\u2581vertical": 2677,
  "\u2581vo": 2678,
  "\u2581Programa": 2679,
  "\u2581Sistema": 2680,
  "\u2581asunto": 2681,
  "\u2581baixa": 2682,
  "\u2581mesa": 2683,
  "\u2581pod\u00eda": 2684,
  "\u2581points": 2685,
  "\u2581pol\u00edtica": 2686,
  "log": 2687,
  "\u2581Give": 2688,
  "\u2581LDAP": 2689,
  "\u2581Selection": 2690,
  "\u2581Valor": 2691,
  "\u2581cha": 2692,
  "\u2581installation": 2693,
  "\u2581preguntar": 2694,
  "\u2581Executar": 2695,
  "\u2581King": 2696,
  "\u2581connect": 2697,
  "\u2581hands": 2698,
  "\u2581iconas": 2699,
  "\u2581visual": 2700,
  "\u2581wants": 2701,
  "ub": 2702,
  "\u2581Cancelar": 2703,
  "\u2581T\u00edtulo": 2704,
  "\u2581return": 2705,
  "\u2581Limpar": 2706,
  "\u2581behind": 2707,
  "\u2581heart": 2708,
  "IS": 2709,
  "we": 2710,
  "\u2581style": 2711,
  "ac": 2712,
  "non": 2713,
  "tado": 2714,
  "\u2581allowed": 2715,
  "\u2581execute": 2716,
  "\u2581happy": 2717,
  "\u2581previous": 2718,
  "i\u00f1o": 2719,
  "\u2581Akonadi": 2720,
  "\u2581autom\u00e1tica": 2721,
  "\u2581n\u00fameros": 2722,
  "\u2581Ko": 2723,
  "\u2581disabled": 2724,
  "\u2581faga": 2725,
  "\u2581late": 2726,
  "ON": 2727,
  "rc": 2728,
  "\u2581brother": 2729,
  "\u2581having": 2730,
  "\u2581looked": 2731,
  "book": 2732,
  "iz": 2733,
  "\u2581Custom": 2734,
  "\u2581Python": 2735,
  "\u2581break": 2736,
  "\u2581fore": 2737,
  "\u2581mi\u00f1as": 2738,
  "You": 2739,
  "amp": 2740,
  "white": 2741,
  "\u2581become": 2742,
  "\u2581especificar": 2743,
  "\u2581friends": 2744,
  "\u2581hold": 2745,
  "\u2581movemento": 2746,
  "\u2581m\u00fasica": 2747,
  "\u2581seguranza": 2748,
  "men": 2749,
  "\u2581Format": 2750,
  "\u2581captura": 2751,
  "\u2581update": 2752,
  "nes": 2753,
  "\u2581Sobre": 2754,
  "\u2581Try": 2755,
  "\u2581chamada": 2756,
  "\u2581eat": 2757,
  "\u2581often": 2758,
  "\u2581toma": 2759,
  "\u2581v\u00f3s": 2760,
  "\u2581Extensi\u00f3n": 2761,
  "\u2581Sempre": 2762,
  "\u2581gold": 2763,
  "\u2581lingua": 2764,
  "\u2581Advanced": 2765,
  "\u2581Location": 2766,
  "\u2581defined": 2767,
  "\u2581vello": 2768,
  "AP": 2769,
  "ST": 2770,
  "\u2581edici\u00f3n": 2771,
  "\u2581entered": 2772,
  "\u2581fl": 2773,
  "\u2581uses": 2774,
  "mba": 2775,
  "\u2581nine": 2776,
  "cor": 2777,
  "\u258124": 2778,
  "\u2581MIME": 2779,
  "\u2581Ru": 2780,
  "\u2581cards": 2781,
  "\u2581%2.": 2782,
  "\u2581More": 2783,
  "\u2581Press": 2784,
  "\u2581TV": 2785,
  "\u2581correcto": 2786,
  "\u2581neno": 2787,
  "cas": 2788,
  "si": 2789,
  "\u2581Mark": 2790,
  "\u2581carga": 2791,
  "\u2581gravar": 2792,
  "\u2581partes": 2793,
  "\u2581played": 2794,
  "\u2581sen\u00f3n": 2795,
  "EN": 2796,
  "\u2581sentido": 2797,
  "mu": 2798,
  "\u2581CA": 2799,
  "\u2581Script": 2800,
  "\u2581acceder": 2801,
  "\u2581fas": 2802,
  "\u2581lock": 2803,
  "\u2581soa": 2804,
  "\u2581utilizar": 2805,
  "ismo": 2806,
  "jo": 2807,
  "\u2581Creo": 2808,
  "\u2581Estaba": 2809,
  "\u2581comezo": 2810,
  "\u2581element": 2811,
  "\u2581fala": 2812,
  "\u2581near": 2813,
  "\u2581remoto": 2814,
  "\u2581Written": 2815,
  "\u2581funci\u00f3ns": 2816,
  "\u2581hi": 2817,
  "\u2581Contrasinal": 2818,
  "\u2581lib": 2819,
  "\u2581similar": 2820,
  "ium": 2821,
  "ow": 2822,
  "\u2581Imprimir": 2823,
  "\u2581diso": 2824,
  "ais": 2825,
  "\u2581Escolle": 2826,
  "\u2581needed": 2827,
  "\u2581premendo": 2828,
  "my": 2829,
  "nza": 2830,
  "\u2581calidade": 2831,
  "\u2581making": 2832,
  "\u2581ri": 2833,
  "New": 2834,
  "\u2581eses": 2835,
  "Por": 2836,
  "ley": 2837,
  "ze": 2838,
  "\u2581Down": 2839,
  "\u2581Fu": 2840,
  "\u2581Sha": 2841,
  "\u2581Up": 2842,
  "\u2581define": 2843,
  "\u2581mine": 2844,
  "\u2581p\u00edxeles": 2845,
  "\u2581vermello": 2846,
  "ical": 2847,
  "sion": 2848,
  "\u2581About": 2849,
  "\u2581cama": 2850,
  "\u2581hit": 2851,
  "\u2581instalado": 2852,
  "\u2581notas": 2853,
  "\u2581phone": 2854,
  "\u2581(#": 2855,
  "\u2581eran": 2856,
  "\u2581itself": 2857,
  "\u2581mor": 2858,
  "\u2581news": 2859,
  "\u2581Claro": 2860,
  "\u2581Obter": 2861,
  "\u2581Sabes": 2862,
  "\u2581Source": 2863,
  "\u2581temas": 2864,
  "t\u00e1": 2865,
  "\u2581Abre": 2866,
  "\u2581Hello": 2867,
  "\u2581Seguinte": 2868,
  "\u2581Video": 2869,
  "\u2581arquivo": 2870,
  "\u2581filename": 2871,
  "\u2581happen": 2872,
  "\u2581OpenPGP": 2873,
  "\u2581Tell": 2874,
  "\u2581haven": 2875,
  "\u2581ready": 2876,
  "ana": 2877,
  "chi": 2878,
  "cre": 2879,
  "gen": 2880,
  "je": 2881,
  "pos": 2882,
  "\u2581meses": 2883,
  "\u2581m\u00f3dulo": 2884,
  "\u2581HTTP": 2885,
  "\u2581drive": 2886,
  "\u2581large": 2887,
  "\u2581Sinal": 2888,
  "\u2581env\u00edo": 2889,
  "\u2581keyboard": 2890,
  "\u2581Monitor": 2891,
  "\u2581SSL": 2892,
  "\u2581Selected": 2893,
  "\u2581Title": 2894,
  "\u2581seleccionada": 2895,
  "card": 2896,
  "\u2581bot\u00f3ns": 2897,
  "\u2581future": 2898,
  "\u2581loaded": 2899,
  "\u2581permisos": 2900,
  "\u2581selecciona": 2901,
  "\u2581simplemente": 2902,
  "\u2581KMyMoney": 2903,
  "\u2581mira": 2904,
  "\u2581numbers": 2905,
  ">": 2906,
  "RA": 2907,
  "Se": 2908,
  "\u2581public": 2909,
  "han": 2910,
  "\u2581escollidos": 2911,
  "\u2581removed": 2912,
  "LE": 2913,
  "rre": 2914,
  "symbol": 2915,
  "\u2581queda": 2916,
  "\u2581realidade": 2917,
  "symbols": 2918,
  "\u2581Wait": 2919,
  "\u2581places": 2920,
  "\u2581star": 2921,
  "\u2581walk": 2922,
  "r\u00e1n": 2923,
  "\u2581Level": 2924,
  "\u2581Nota": 2925,
  "\u2581added": 2926,
  "\u2581categor\u00eda": 2927,
  "\u2581encryption": 2928,
  "\u2581estar\u00e1": 2929,
  "\u2581gets": 2930,
  "\u2581par\u00e1metro": 2931,
  "20": 2932,
  "\u2581atallos": 2933,
  ";}": 2934,
  "\u2581foto": 2935,
  "\u2581lectura": 2936,
  "\u2581Nothing": 2937,
  "\u2581editar": 2938,
  "\u2581lonxe": 2939,
  "\u2581taken": 2940,
  "led": 2941,
  "\u2581Cha": 2942,
  "\u2581Maximum": 2943,
  "\u2581ne": 2944,
  "\u2581act": 2945,
  "\u2581chega": 2946,
  "\u2581filla": 2947,
  "\u2581irm\u00e1n": 2948,
  "\u2581Lembre": 2949,
  "\u2581Ni": 2950,
  "\u2581aplicaci\u00f3n": 2951,
  "\u2581build": 2952,
  "\u2581comer": 2953,
  "\u2581fight": 2954,
  "\u2581propio": 2955,
  "\u2581types": 2956,
  "200": 2957,
  "\u2581Mrs": 2958,
  "\u2581cita": 2959,
  "\u2581estaban": 2960,
  "\u2581filtros": 2961,
  "\u2581learn": 2962,
  "\u2581separador": 2963,
  "mbo": 2964,
  "oso": 2965,
  "\u2581cach\u00e9": 2966,
  "\u2581centro": 2967,
  "\u2581demais": 2968,
  "\u2581estrelas": 2969,
  "\u2581particular": 2970,
  "\u2581pen": 2971,
  "\u2581penso": 2972,
  "\u2581specific": 2973,
  "\u2581Current": 2974,
  "\u2581Nada": 2975,
  "\u2581bastante": 2976,
  "\u2581cut": 2977,
  "\u2581personal": 2978,
  "12": 2979,
  "eira": 2980,
  "para": 2981,
  "r\u00ed": 2982,
  "ular": 2983,
  "\u2581animais": 2984,
  "\u2581futuro": 2985,
  "\u2581polic\u00eda": 2986,
  "\u2581saying": 2987,
  "\u2581story": 2988,
  "eiro": 2989,
  "mas": 2990,
  "\u2581baby": 2991,
  "\u2581garda": 2992,
  "\u2581hint": 2993,
  "rro": 2994,
  "\u00e1s": 2995,
  "\u25810.": 2996,
  "\u2581Alice": 2997,
  "\u2581Two": 2998,
  "\u2581converter": 2999,
  "\u2581correctamente": 3000,
  "\u2581navegador": 3001,
  "\u2581trans": 3002,
  "\u2581TRANS": 3003,
  "\u2581contigo": 3004,
  "\u2581elements": 3005,
  "\u2581missing": 3006,
  "\u2581translation": 3007,
  "LAT": 3008,
  "ula": 3009,
  "\u00edbel": 3010,
  "\u2581Escriba": 3011,
  "\u2581Windows": 3012,
  "\u2581asistente": 3013,
  "\u2581configured": 3014,
  "\u2581letter": 3015,
  "\u2581nota": 3016,
  "rs": 3017,
  "view": 3018,
  "\u2581Che": 3019,
  "\u2581goes": 3020,
  "\u2581recursos": 3021,
  "\u2581ter\u00eda": 3022,
  "\u2581tu": 3023,
  "\u2581Path": 3024,
  "\u2581campos": 3025,
  "\u2581knows": 3026,
  "\u2581mil": 3027,
  "rate": 3028,
  "\u2581Amosar": 3029,
  "\u2581Load": 3030,
  "\u2581None": 3031,
  "\u2581Verifique": 3032,
  "\u2581plugins": 3033,
  "\u2581seems": 3034,
  "\u2581yes": 3035,
  "dir": 3036,
  "rado": 3037,
  "\u2581Importaci\u00f3n": 3038,
  "\u2581Podo": 3039,
  "\u2581alto": 3040,
  "\u2581espazos": 3041,
  "\u2581months": 3042,
  "cula": 3043,
  "like": 3044,
  "\u2581TO": 3045,
  "\u2581cela": 3046,
  "\u2581entrar": 3047,
  "\u2581properties": 3048,
  "\u2581Miss": 3049,
  "\u2581Servidor": 3050,
  "\u2581age": 3051,
  "\u2581method": 3052,
  "\u2581sala": 3053,
  "\u2581tivo": 3054,
  "ORS": 3055,
  "\u2581Sol": 3056,
  "\u2581browser": 3057,
  "\u2581facendo": 3058,
  "\u2581hide": 3059,
  "\u2581reading": 3060,
  "box": 3061,
  "\u2581***": 3062,
  "\u2581Date": 3063,
  "\u2581Quick": 3064,
  "\u2581Terra": 3065,
  "\u2581br": 3066,
  "\u2581meet": 3067,
  "\u2581contrario": 3068,
  "\u2581deleted": 3069,
  "\u2581occurred": 3070,
  "ism": 3071,
  "{": 3072,
  "\u2581Vamos": 3073,
  "\u2581waiting": 3074,
  "\u2581works": 3075,
  "View": 3076,
  "ec": 3077,
  "nc": 3078,
  "\u2581Lady": 3079,
  "\u2581chamar": 3080,
  "\u2581conf": 3081,
  "\u2581desco\u00f1ecida": 3082,
  "\u2581sinxelo": 3083,
  "\u2581Output": 3084,
  "\u2581coraz\u00f3n": 3085,
  "\u2581fornece": 3086,
  "\u2581sp": 3087,
  "\u2581tomorrow": 3088,
  "DE": 3089,
  "ES": 3090,
  "\u2581PC": 3091,
  "\u2581contas": 3092,
  "\u2581poor": 3093,
  "\u2581protocolo": 3094,
  "\u2581p\u00e9": 3095,
  "ized": 3096,
  "pec": 3097,
  "\u258118": 3098,
  "\u2581Imaxe": 3099,
  "\u2581folla": 3100,
  "\u2581rapaz": 3101,
  "\u2581uh": 3102,
  "\u2581Acochar": 3103,
  "\u2581Hora": 3104,
  "\u2581Neste": 3105,
  "\u2581Podes": 3106,
  "\u2581etiquetas": 3107,
  "\u2581xogos": 3108,
  "\u2581PPP": 3109,
  "\u2581escola": 3110,
  "\u2581forte": 3111,
  "\u2581mark": 3112,
  "\u2581tried": 3113,
  "\u2581End": 3114,
  "\u2581history": 3115,
  "\u2581listen": 3116,
  "\u2581outside": 3117,
  "\u2581xesti\u00f3n": 3118,
  "table": 3119,
  "\u2581Previous": 3120,
  "\u2581Sei": 3121,
  "\u2581Total": 3122,
  "\u2581closed": 3123,
  "\u2581duro": 3124,
  "\u2581feature": 3125,
  "\u2581partici\u00f3n": 3126,
  "RE": 3127,
  "iv": 3128,
  "\u2581PDF": 3129,
  "\u2581Tu": 3130,
  "\u2581coordenadas": 3131,
  "\u2581named": 3132,
  "\u2581plano": 3133,
  "\u2581portarretallos": 3134,
  "ally": 3135,
  "\u2581OK": 3136,
  "\u2581Test": 3137,
  "\u2581amosar": 3138,
  "\u2581fill": 3139,
  "\u2581pobo": 3140,
  "\u2581propia": 3141,
  "\u2581starting": 3142,
  "\u2581tel\u00e9fono": 3143,
  "her": 3144,
  "zar": 3145,
  "\u2581link": 3146,
  "\u2581looks": 3147,
  "\u2581paper": 3148,
  "\u2581rematar": 3149,
  "top": 3150,
  "\u2581buttons": 3151,
  "\u2581direcci\u00f3n": 3152,
  "\u2581living": 3153,
  "\u2581parameter": 3154,
  "all": 3155,
  "nde": 3156,
  "rus": 3157,
  "\u00e1ronse": 3158,
  "\u2581Active": 3159,
  "\u2581Ed": 3160,
  "\u2581di\u00f1eiro": 3161,
  "\u2581marca": 3162,
  "\u2581Gi": 3163,
  "\u2581Profile": 3164,
  "\u2581estrutura": 3165,
  "\u2581fu": 3166,
  "\u2581ordenador": 3167,
  "nas": 3168,
  "\u2581Account": 3169,
  "\u2581aberto": 3170,
  "\u2581forget": 3171,
  "\u2581lose": 3172,
  "\u2581m\u00e1quina": 3173,
  "\u2581searching": 3174,
  "\u2581secuencia": 3175,
  "\u2581fast": 3176,
  "\u2581instance": 3177,
  "\u2581lei": 3178,
  "\u2581res": 3179,
  "\u2581trouble": 3180,
  "cido": 3181,
  "hu": 3182,
  "whatsthis": 3183,
  "\u2581CUPS": 3184,
  "\u2581French": 3185,
  "\u2581mill\u00f3ns": 3186,
  "\u2581okay": 3187,
  "\u2581printer": 3188,
  "\u2581widgets": 3189,
  "\u2581xuntos": 3190,
  "\u2581Esc": 3191,
  "amento": 3192,
  "oo": 3193,
  "\u2581Out": 3194,
  "\u2581bandexa": 3195,
  "\u2581clipboard": 3196,
  "\u2581cross": 3197,
  "\u2581definir": 3198,
  "\u2581escrita": 3199,
  "\u2581korganizer": 3200,
  "\u2581length": 3201,
  "\u2581servidores": 3202,
  "\u2581v\u00e9n": 3203,
  "\u2581gravaci\u00f3n": 3204,
  "\u2581layout": 3205,
  "\u2581pan": 3206,
  "\u2581via": 3207,
  "\u2581\u00e1lbum": 3208,
  "...\"": 3209,
  "rase": 3210,
  "\u2581arredor": 3211,
  "\u2581drink": 3212,
  "\u2581safe": 3213,
  "\u2581seem": 3214,
  "\u2581seguridade": 3215,
  "\u2581stored": 3216,
  "NAME": 3217,
  "\u2581Hu": 3218,
  "\u2581fallou": 3219,
  "\u2581hidden": 3220,
  "\u2581pasado": 3221,
  "\u2581turned": 3222,
  "\u2581written": 3223,
  "\u2581afraid": 3224,
  "mentos": 3225,
  "\u2581CO": 3226,
  "\u2581Espazo": 3227,
  "\u2581Estes": 3228,
  "\u2581Sorry": 3229,
  "\u2581disc": 3230,
  "\u2581music": 3231,
  "\u2581rate": 3232,
  "\u2581resultados": 3233,
  "\u2581sense": 3234,
  "cent": 3235,
  "ified": 3236,
  "tei": 3237,
  "\u2581Cargar": 3238,
  "\u2581beautiful": 3239,
  "\u2581simply": 3240,
  "UT": 3241,
  "ors": 3242,
  "\u2581(%1)": 3243,
  "\u2581Theme": 3244,
  "\u2581Top": 3245,
  "\u2581anyone": 3246,
  "\u2581depende": 3247,
  "\u2581libro": 3248,
  "\u2581ligaz\u00f3ns": 3249,
  "\u2581model": 3250,
  "\u2581voice": 3251,
  "50": 3252,
  "\u2581Screen": 3253,
  "\u2581Track": 3254,
  "\u2581fallo": 3255,
  "\u2581require": 3256,
  "\u2581visible": 3257,
  "ear": 3258,
  "til": 3259,
  "\u2581Actualizar": 3260,
  "\u2581Call": 3261,
  "\u2581Par": 3262,
  "\u2581chan": 3263,
  "\u2581cost": 3264,
  "\u2581gra": 3265,
  "\u2581Disable": 3266,
  "\u2581Fo": 3267,
  "\u2581Red": 3268,
  "\u2581enriba": 3269,
  "\u2581esquema": 3270,
  "\u2581forward": 3271,
  "\u2581taking": 3272,
  "\u2581virtual": 3273,
  "\u2581Chi": 3274,
  "\u2581Los": 3275,
  "\u2581board": 3276,
  "\u2581category": 3277,
  "\u2581nosas": 3278,
  "Stencils": 3279,
  "cado": 3280,
  "\u2581Chile": 3281,
  "\u2581Rei": 3282,
  "\u2581Watch": 3283,
  "\u2581cl": 3284,
  "\u2581horizontal": 3285,
  "\u2581listaxe": 3286,
  "\u2581pick": 3287,
  "11": 3288,
  "ju": 3289,
  "\u2581Local": 3290,
  "\u2581archive": 3291,
  "\u2581dela": 3292,
  "\u2581eh": 3293,
  "\u2581jack": 3294,
  "\u2581pages": 3295,
  "\u2581truth": 3296,
  "ire": 3297,
  "map": 3298,
  "mit": 3299,
  "\u2581Horizontal": 3300,
  "\u2581Nin": 3301,
  "\u2581Port": 3302,
  "\u2581agarda": 3303,
  "\u2581blue": 3304,
  "\u2581custo": 3305,
  "\u2581documentaci\u00f3n": 3306,
  "\u2581operaci\u00f3ns": 3307,
  "fica": 3308,
  "\u2581Ese": 3309,
  "list": 3310,
  "\u2581GnuPG": 3311,
  "\u2581Option": 3312,
  "\u2581canle": 3313,
  "\u2581land": 3314,
  "\u2581sea": 3315,
  "\u2581ta": 3316,
  "ay": 3317,
  "\u2581Shift": 3318,
  "\u2581activo": 3319,
  "\u2581dream": 3320,
  "\u2581exactly": 3321,
  "\u2581hour": 3322,
  "\u2581movementos": 3323,
  "\u2581serio": 3324,
  "\u2581Propiedades": 3325,
  "\u2581copiar": 3326,
  "\u2581lady": 3327,
  "\u2581polas": 3328,
  "\u2581Ci": 3329,
  "\u2581Deber\u00eda": 3330,
  "\u2581Font": 3331,
  "\u2581Very": 3332,
  "\u2581empresa": 3333,
  "\u2581manually": 3334,
  "\u2581perform": 3335,
  "Con": 3336,
  "act": 3337,
  "gi": 3338,
  "wi": 3339,
  "\u2581Porto": 3340,
  "\u2581blood": 3341,
  "\u2581codificaci\u00f3n": 3342,
  "\u2581context": 3343,
  "\u2581director": 3344,
  "\u2581documentos": 3345,
  "\u2581motor": 3346,
  "\u2581necessary": 3347,
  "\u2581score": 3348,
  "\u2581variable": 3349,
  "\")": 3350,
  "app": 3351,
  "\u2581Thanks": 3352,
  "\u2581buy": 3353,
  "\u2581monitor": 3354,
  "\u2581repositorio": 3355,
  "\\@": 3356,
  "enta": 3357,
  "\u2581air": 3358,
  "\u2581baseado": 3359,
  "ping": 3360,
  "stes": 3361,
  "\u2581Asia": 3362,
  "\u2581Even": 3363,
  "\u2581abondo": 3364,
  "\u2581maybe": 3365,
  "\u2581soluci\u00f3n": 3366,
  "Imp": 3367,
  "\u2581Status": 3368,
  "\u2581Would": 3369,
  "\u2581diagrama": 3370,
  "\u2581esas": 3371,
  "\u2581f\u00edos": 3372,
  "\u2581m\u00e9todo": 3373,
  "\u2581perm\u00edtelle": 3374,
  "\u2581xeo": 3375,
  "ee": 3376,
  "ress": 3377,
  "\u2581Cisco": 3378,
  "\u2581Poder\u00eda": 3379,
  "\u2581Zoom": 3380,
  "\u2581efecto": 3381,
  "\u2581partition": 3382,
  "\u2581stuff": 3383,
  "\u2581sun": 3384,
  "ign": 3385,
  "tter": 3386,
  "\u2581Gra": 3387,
  "\u2581Vertical": 3388,
  "\u2581aprender": 3389,
  "\u2581brought": 3390,
  "\u2581comprobaci\u00f3n": 3391,
  "\u2581guess": 3392,
  "\u2581marchar": 3393,
  "\u2581pechar": 3394,
  "\u2581rain": 3395,
  "ese": 3396,
  "\u2581backend": 3397,
  "\u2581fotos": 3398,
  "\u2581tolo": 3399,
  "\u2581Day": 3400,
  "\u2581Fai": 3401,
  "\u2581Har": 3402,
  "\u2581Linux": 3403,
  "\u2581bytes": 3404,
  "\u2581durmir": 3405,
  "\u2581follow": 3406,
  "\u2581record": 3407,
  "\u2581transaction": 3408,
  "\u2581OpenVPN": 3409,
  "\u2581Posici\u00f3n": 3410,
  "\u2581enerx\u00eda": 3411,
  "\u2581functions": 3412,
  "\u2581sit": 3413,
  "\u2581thinking": 3414,
  "AN": 3415,
  "MA": 3416,
  "comp": 3417,
  "text": 3418,
  "\u2581Base": 3419,
  "\u2581Listen": 3420,
  "\u2581Replace": 3421,
  "\u2581Robert": 3422,
  "\u2581datas": 3423,
  "\u2581filme": 3424,
  "oc": 3425,
  "ski": 3426,
  "tt": 3427,
  "\u00c9": 3428,
  "\u2581Consulte": 3429,
  "\u2581anti": 3430,
  "\u2581daughter": 3431,
  "\u2581escoitar": 3432,
  "\u2581grave": 3433,
  "\u2581town": 3434,
  "\u2581xunto": 3435,
  "\u2581Correo": 3436,
  "\u2581Light": 3437,
  "\u2581Velocidade": 3438,
  "\u2581actions": 3439,
  "mm": 3440,
  "\u2581Elimina": 3441,
  "\u2581PGP": 3442,
  "\u2581Session": 3443,
  "\u2581accept": 3444,
  "\u2581autor": 3445,
  "\u2581ch": 3446,
  "\u2581groups": 3447,
  "\u2581intervalo": 3448,
  "\u2581kids": 3449,
  "\u2581obxectivo": 3450,
  "\u2581worry": 3451,
  "\u2581xerar": 3452,
  "\u2581\u00bb,": 3453,
  "\u2581Max": 3454,
  "\u2581chance": 3455,
  "\u2581comeza": 3456,
  "\u2581comprobar": 3457,
  "\u2581negra": 3458,
  "\u2581orden": 3459,
  "\u2581tonight": 3460,
  "\u2581xusto": 3461,
  "ight": 3462,
  "part": 3463,
  "\u2581Our": 3464,
  "\u2581Th": 3465,
  "\u2581due": 3466,
  "\u2581everyone": 3467,
  "\u2581maximum": 3468,
  "\u2581police": 3469,
  "ute": 3470,
  "\u2581Fin": 3471,
  "\u2581protocol": 3472,
  "\u2581regras": 3473,
  "\u2581scripts": 3474,
  "\u2581usually": 3475,
  "\u2581Printer": 3476,
  "\u2581Samba": 3477,
  "\u2581cause": 3478,
  "\u2581comida": 3479,
  "\u2581trata": 3480,
  "\u2581vector": 3481,
  "met": 3482,
  "osa": 3483,
  "\u2581Tony": 3484,
  "\u2581adicionais": 3485,
  "gado": 3486,
  "\u2581Like": 3487,
  "\u2581Vin": 3488,
  "\u2581bra": 3489,
  "\u2581eye": 3490,
  "\u2581resto": 3491,
  "\u2581trust": 3492,
  "har": 3493,
  "t\u00f3n": 3494,
  "\u2581car\u00e1cter": 3495,
  "\u2581criar": 3496,
  "\u2581fix": 3497,
  "\u2581include": 3498,
  "\u2581individual": 3499,
  "\u2581moved": 3500,
  "\u2581transfer": 3501,
  "dade": 3502,
  "\u00bb:": 3503,
  "\u2581CPU": 3504,
  "\u2581hell": 3505,
  "\u2581sangue": 3506,
  "\u2581vale": 3507,
  "rte": 3508,
  "\u2581Email": 3509,
  "\u2581Esa": 3510,
  "\u2581Grupo": 3511,
  "\u2581Selecci\u00f3n": 3512,
  "\u2581animals": 3513,
  "\u2581barras": 3514,
  "\u2581hurt": 3515,
  "\u2581middle": 3516,
  "\u2581pedir": 3517,
  "\u2581pensa": 3518,
  "\u2581xogador": 3519,
  "\u258114": 3520,
  "\u2581High": 3521,
  "\u2581crazy": 3522,
  "van": 3523,
  "\u2581backup": 3524,
  "\u2581esquerdo": 3525,
  "\u2581m\u00ednimo": 3526,
  "What": 3527,
  "axe": 3528,
  "\u2581ASCII": 3529,
  "\u2581Ac": 3530,
  "\u2581Primeiro": 3531,
  "\u2581anexos": 3532,
  "\u2581esp": 3533,
  "\u2581feliz": 3534,
  "\u2581f\u00edo": 3535,
  "\u2581sorte": 3536,
  "\u2581\u266b": 3537,
  "[": 3538,
  "work": 3539,
  "\u2581German": 3540,
  "\u2581Manage": 3541,
  "\u2581piece": 3542,
  "\u2581Access": 3543,
  "\u2581Am\u00e9rica": 3544,
  "\u2581Link": 3545,
  "\u2581across": 3546,
  "\u2581attempt": 3547,
  "\u2581diff": 3548,
  "\u2581double": 3549,
  "\u2581far\u00e1": 3550,
  "\u2581identity": 3551,
  "\u2581pais": 3552,
  "\u2581various": 3553,
  "\u2581vexo": 3554,
  "\u2581xefe": 3555,
  "lf": 3556,
  "ped": 3557,
  "\u2581Du": 3558,
  "\u2581actualizar": 3559,
  "\u2581anyway": 3560,
  "\u2581comezou": 3561,
  "\u2581library": 3562,
  "\u2581sistemas": 3563,
  "TA": 3564,
  "ious": 3565,
  "\u2581Certificate": 3566,
  "\u2581Hall": 3567,
  "\u2581Modelo": 3568,
  "\u2581Nivel": 3569,
  "\u2581Ve": 3570,
  "\u2581coller": 3571,
  "\u2581engine": 3572,
  "\u2581fixen": 3573,
  "\u2581request": 3574,
  "ions": 3575,
  "\u2581Fi": 3576,
  "\u2581Preview": 3577,
  "\u2581config": 3578,
  "\u2581correcta": 3579,
  "\u2581fields": 3580,
  "\u2581met": 3581,
  "\u2581pe": 3582,
  "\u2581secret": 3583,
  "\u2581shot": 3584,
  "\u2581tri": 3585,
  "AS": 3586,
  "laci\u00f3n": 3587,
  "\u00f1": 3588,
  "\u2581Developer": 3589,
  "\u2581Permitir": 3590,
  "\u2581buscando": 3591,
  "\u2581cabeceira": 3592,
  "\u2581ex\u00e9rcito": 3593,
  "\u2581felt": 3594,
  "\u2581low": 3595,
  "\u2581quality": 3596,
  "\u2581relaci\u00f3n": 3597,
  "IT": 3598,
  "It": 3599,
  "\u2581cho": 3600,
  "\u2581cold": 3601,
  "ify": 3602,
  "uck": 3603,
  "\u2581Code": 3604,
  "\u2581Marcar": 3605,
  "\u2581Remus": 3606,
  "\u2581operations": 3607,
  "\u2581presente": 3608,
  "\u2581realizar": 3609,
  "\u2581r\u00faa": 3610,
  "\u2581successfully": 3611,
  "este": 3612,
  "not": 3613,
  "\u2581F\u00f3ra": 3614,
  "\u2581Read": 3615,
  "\u2581S\u00edntoo": 3616,
  "\u2581Versi\u00f3n": 3617,
  "\u2581Vexa": 3618,
  "\u2581drag": 3619,
  "\u2581enteiro": 3620,
  "\u2581grid": 3621,
  "\u2581qui": 3622,
  "\u2581reproducir": 3623,
  "\u2581vari\u00e1bel": 3624,
  "MP": 3625,
  "low": 3626,
  "\u2581Paris": 3627,
  "\u2581boca": 3628,
  "\u2581buscar": 3629,
  "\u2581encoding": 3630,
  "\u2581permitir": 3631,
  "\u2581rich": 3632,
  "++": 3633,
  "rar": 3634,
  "\u25811\".": 3635,
  "\u2581Dixo": 3636,
  "\u2581distancia": 3637,
  "\u2581quedar": 3638,
  "\u2581vella": 3639,
  "eiros": 3640,
  "\u2581Any": 3641,
  "\u2581Forma": 3642,
  "\u2581IN": 3643,
  "\u2581Sal": 3644,
  "\u2581Ya": 3645,
  "\u2581aplicar": 3646,
  "\u2581choice": 3647,
  "\u2581directamente": 3648,
  "\u2581disposici\u00f3n": 3649,
  "\u2581interest": 3650,
  "\u2581selecting": 3651,
  "\u2581vivo": 3652,
  "\u2581Earth": 3653,
  "\u2581Hoxe": 3654,
  "\u2581foundation": 3655,
  "\u2581hospital": 3656,
  "\u2581rules": 3657,
  "\u2581unidade": 3658,
  "ya": 3659,
  "\u2581Home": 3660,
  "\u2581Rename": 3661,
  "\u2581bloque": 3662,
  "\u2581inferior": 3663,
  "\u2581marcha": 3664,
  "\u2581saving": 3665,
  "\u2581somos": 3666,
  "\u2581upload": 3667,
  "ative": 3668,
  "ities": 3669,
  "pr": 3670,
  "rm": 3671,
  "scrib": 3672,
  "\u2581containing": 3673,
  "\u2581devices": 3674,
  "\u2581died": 3675,
  "\u2581im": 3676,
  "\u2581situaci\u00f3n": 3677,
  "fr": 3678,
  "\u2581Case": 3679,
  "\u2581Engadido": 3680,
  "\u2581Tri": 3681,
  "\u2581anexo": 3682,
  "\u2581infraestrutura": 3683,
  "\u2581modelos": 3684,
  "\u2581volve": 3685,
  "\u2581Ferramentas": 3686,
  "\u2581Procura": 3687,
  "\u2581altura": 3688,
  "\u2581apply": 3689,
  "\u2581cervisia": 3690,
  "\u2581lead": 3691,
  "\u2581private": 3692,
  "30": 3693,
  "cap": 3694,
  "llas": 3695,
  "\u2581Eles": 3696,
  "\u2581Estamos": 3697,
  "\u2581cadra": 3698,
  "\u2581incorrecto": 3699,
  "\u2581locais": 3700,
  "\u2581login": 3701,
  "\u2581management": 3702,
  "\u2581q": 3703,
  "\u2581reserva": 3704,
  "\u2581visualizaci\u00f3n": 3705,
  "ixo": 3706,
  "\u2581Background": 3707,
  "\u2581Convert": 3708,
  "\u2581draw": 3709,
  "\u2581guys": 3710,
  "\u2581inlistbox": 3711,
  "\u2581koffice": 3712,
  "\u2581morto": 3713,
  "dora": 3714,
  "str": 3715,
  "\u2581Constru\u00edr": 3716,
  "\u2581crea": 3717,
  "\u2581factor": 3718,
  "\u2581po\u00f1er": 3719,
  "ev": 3720,
  "ging": 3721,
  "\u2581Conta": 3722,
  "\u2581ace": 3723,
  "\u2581deal": 3724,
  "\u2581directly": 3725,
  "\u2581girls": 3726,
  "\u2581hot": 3727,
  "00": 3728,
  "ever": 3729,
  "iu": 3730,
  "ivo": 3731,
  "\u2581Action": 3732,
  "\u2581George": 3733,
  "\u2581Li\u00f1a": 3734,
  "\u2581Switch": 3735,
  "\u2581central": 3736,
  "\u2581puta": 3737,
  "t\u00e9": 3738,
  "\u2581Audio": 3739,
  "\u2581Parece": 3740,
  "\u2581Warning": 3741,
  "\u2581direction": 3742,
  "\u2581evitar": 3743,
  "\u2581fronte": 3744,
  "\u2581masa": 3745,
  "\u2581paz": 3746,
  "\u2581sexan": 3747,
  "\u2581\u00edtem": 3748,
  "slot": 3749,
  "\u00eddo": 3750,
  "\u2581Canto": 3751,
  "\u2581Long": 3752,
  "\u2581Visor": 3753,
  "\u2581reloxo": 3754,
  "\u2581requested": 3755,
  "\u2581z": 3756,
  "\u2581coidado": 3757,
  "\u2581entire": 3758,
  "\u2581manage": 3759,
  "\u2581moita": 3760,
  "\u2581mol": 3761,
  "\u2581vosa": 3762,
  "\u2581wrap": 3763,
  "back": 3764,
  "key": 3765,
  "ning": 3766,
  "\u2581360": 3767,
  "\u2581Back": 3768,
  "\u2581Book": 3769,
  "\u2581Never": 3770,
  "\u2581creaci\u00f3n": 3771,
  "\u2581enemy": 3772,
  "\u2581existente": 3773,
  "\u2581ve\u00f1a": 3774,
  "\u2581(1": 3775,
  "\u2581Viewer": 3776,
  "\u2581banda": 3777,
  "\u2581chosen": 3778,
  "\u2581especiais": 3779,
  "\u2581modify": 3780,
  "\u2581pr": 3781,
  "\u2581tableau": 3782,
  "\u2581Cores": 3783,
  "\u2581angle": 3784,
  "\u2581branca": 3785,
  "\u2581common": 3786,
  "\u2581daemon": 3787,
  "\u2581nel": 3788,
  "\u2581startup": 3789,
  "\u2581\u00e1ngulo": 3790,
  "\u2581Ki": 3791,
  "\u2581Point": 3792,
  "\u2581beginning": 3793,
  "\u2581block": 3794,
  "\u2581cero": 3795,
  "\u2581conversa": 3796,
  "\u2581husband": 3797,
  "\u2581manualmente": 3798,
  "\u2581p\u00fablica": 3799,
  "\u2581ton": 3800,
  "\u2581veu": 3801,
  "lia": 3802,
  "\u2581Cliente": 3803,
  "\u2581Full": 3804,
  "\u2581Original": 3805,
  "\u2581aplicativo": 3806,
  "\u2581depuraci\u00f3n": 3807,
  "\u2581evening": 3808,
  "\u2581food": 3809,
  "\u2581pr\u00f3xima": 3810,
  "\u2581velo": 3811,
  "ED": 3812,
  "Laughter": 3813,
  "bit": 3814,
  "enti": 3815,
  "\u2581c\u00e1lculo": 3816,
  "\u2581further": 3817,
  "\u2581general": 3818,
  "\u2581lower": 3819,
  "\u2581sc": 3820,
  "\u2581Agarda": 3821,
  "\u2581Post": 3822,
  "\u2581ain": 3823,
  "\u2581atopa": 3824,
  "\u2581escoita": 3825,
  "\u2581married": 3826,
  "\u2581rule": 3827,
  "\u2581stars": 3828,
  "16": 3829,
  "\u2581AT": 3830,
  "\u2581City": 3831,
  "\u2581Her": 3832,
  "\u2581Mor": 3833,
  "\u2581Object": 3834,
  "\u2581POP": 3835,
  "\u2581Public": 3836,
  "\u2581exit": 3837,
  "\u2581external": 3838,
  "\u2581handle": 3839,
  "\u2581inimigos": 3840,
  "\u2581results": 3841,
  "\u2581scheme": 3842,
  "red": 3843,
  "\u2581Album": 3844,
  "\u2581Puntuaci\u00f3n": 3845,
  "\u2581acces\u00edbel": 3846,
  "\u2581grella": 3847,
  "\u2581lonxitude": 3848,
  "\u2581ocorre": 3849,
  "\u2581parec\u00eda": 3850,
  "\u2581Every": 3851,
  "\u2581Quit": 3852,
  "\u2581additional": 3853,
  "\u2581gt": 3854,
  "\u2581privada": 3855,
  "\u2581DPI": 3856,
  "\u2581Database": 3857,
  "\u2581acaba": 3858,
  "\u2581ideas": 3859,
  "\u2581impos\u00edbel": 3860,
  "\u2581sin": 3861,
  "\u2581viewer": 3862,
  "bia": 3863,
  "ray": 3864,
  "\u2581causa": 3865,
  "\u2581computador": 3866,
  "\u2581enemies": 3867,
  "\u2581loita": 3868,
  "\u2581silencio": 3869,
  "\u2581unable": 3870,
  "IR": 3871,
  "france": 3872,
  "\u2581Directory": 3873,
  "\u2581However": 3874,
  "\u2581Proxecto": 3875,
  "\u2581Space": 3876,
  "\u2581Wi": 3877,
  "\u2581Write": 3878,
  "\u2581completamente": 3879,
  "\u2581equipo": 3880,
  "\u2581especificado": 3881,
  "\u2581pass": 3882,
  "\u2581pixels": 3883,
  "\u2581ru": 3884,
  "\u2581traduci\u00f3n": 3885,
  "EX": 3886,
  "f\u00ed": 3887,
  "item": 3888,
  "\u00edan": 3889,
  "\u2581Does": 3890,
  "\u2581Paul": 3891,
  "\u2581Sure": 3892,
  "\u2581Table": 3893,
  "\u2581fundaci\u00f3n": 3894,
  "\u2581ground": 3895,
  "\u2581otherwise": 3896,
  "\u2581security": 3897,
  "\u2581tar": 3898,
  "\u2581wiki": 3899,
  "label": 3900,
  "\u00e1beis": 3901,
  "\u2581Always": 3902,
  "\u2581Details": 3903,
  "\u2581Mac": 3904,
  "\u2581Ning\u00fan": 3905,
  "\u2581Ti\u00f1a": 3906,
  "\u2581authentication": 3907,
  "\u2581elimina": 3908,
  "\u2581rep": 3909,
  "\u2581respect": 3910,
  "\u2581teclas": 3911,
  "\u2581touch": 3912,
  "\u00fan": 3913,
  "\u2581dominio": 3914,
  "\u2581empregue": 3915,
  "\u2581happens": 3916,
  "\u2581quick": 3917,
  "\u2581semella": 3918,
  "\u2581solution": 3919,
  "\u2581suficiente": 3920,
  "OR": 3921,
  "amente": 3922,
  "org": 3923,
  "stru": 3924,
  "\u2581Multi": 3925,
  "\u2581inimigo": 3926,
  "cou": 3927,
  "illa": 3928,
  "vas": 3929,
  "\u25812009": 3930,
  "\u2581Client": 3931,
  "\u2581KB": 3932,
  "\u2581Media": 3933,
  "\u2581Pu": 3934,
  "\u2581Tom": 3935,
  "\u2581al\u00f3": 3936,
  "\u2581Daquela": 3937,
  "\u2581Localizaci\u00f3n": 3938,
  "\u2581MA": 3939,
  "\u2581People": 3940,
  "\u2581Turn": 3941,
  "\u2581asinar": 3942,
  "\u2581lives": 3943,
  "\u2581parameters": 3944,
  "\u2581sinal": 3945,
  "\u2581suma": 3946,
  "uro": 3947,
  "\u2581..": 3948,
  "\u2581Language": 3949,
  "\u2581Tick": 3950,
  "\u2581driver": 3951,
  "\u2581office": 3952,
  "\u2581peor": 3953,
  "\u2581quickly": 3954,
  "IC": 3955,
  "script": 3956,
  "\u2581Engade": 3957,
  "\u2581condition": 3958,
  "\u2581wikipedia": 3959,
  "\u2581Crea": 3960,
  "\u2581Py": 3961,
  "\u2581actualizaci\u00f3n": 3962,
  "\u2581cabalo": 3963,
  "tz": 3964,
  "\u2581Axustar": 3965,
  "\u2581KPlayer": 3966,
  "\u2581Setup": 3967,
  "\u2581animal": 3968,
  "\u2581detr\u00e1s": 3969,
  "\u2581executa": 3970,
  "\u2581rapaza": 3971,
  "\"?": 3972,
  "40": 3973,
  "IP": 3974,
  "king": 3975,
  "\u2581Trans": 3976,
  "\u2581actividade": 3977,
  "\u2581zona": 3978,
  "\u00edo": 3979,
  "\u2581Alicia": 3980,
  "\u2581Info": 3981,
  "\u2581began": 3982,
  "\u2581force": 3983,
  "\u2581ingl\u00e9s": 3984,
  "\u2581representa": 3985,
  "day": 3986,
  "\u2581Logo": 3987,
  "\u2581Meu": 3988,
  "\u2581contar": 3989,
  "\u2581haxa": 3990,
  "\u2581provides": 3991,
  "gr": 3992,
  "und": 3993,
  "\u258140": 3994,
  "\u2581IRC": 3995,
  "\u2581Par\u00eds": 3996,
  "\u2581RAW": 3997,
  "\u2581Sa\u00edr": 3998,
  "\u2581Support": 3999,
  "\u2581Ter": 4000,
  "\u2581biblioteca": 4001,
  "\u2581cambia": 4002,
  "\u2581capital": 4003,
  "\u2581clases": 4004,
  "\u2581connected": 4005,
  "\u2581cur": 4006,
  "\u2581deixe": 4007,
  "\u2581nbsp": 4008,
  "Ch": 4009,
  "late": 4010,
  "sunit": 4011,
  "\u2581Leave": 4012,
  "\u2581caer": 4013,
  "\u2581cat": 4014,
  "\u2581contexto": 4015,
  "\u2581engadidos": 4016,
  "\u2581hate": 4017,
  "\u2581merda": 4018,
  "\u2581prevent": 4019,
  "\u2581seemed": 4020,
  "\u2581segunda": 4021,
  "\u2581utilidade": 4022,
  "25": 4023,
  "dy": 4024,
  "mer": 4025,
  "uff": 4026,
  "\u258117": 4027,
  "\u2581INDI": 4028,
  "\u2581JPEG": 4029,
  "\u2581Ningu\u00e9n": 4030,
  "\u2581estra\u00f1o": 4031,
  "\u2581height": 4032,
  "\u2581kid": 4033,
  "\u2581pos": 4034,
  "\u2581posici\u00f3ns": 4035,
  "\u2581structure": 4036,
  "ME": 4037,
  "dro": 4038,
  "type": 4039,
  "\u2581Images": 4040,
  "\u2581Install": 4041,
  "\u2581US": 4042,
  "\u2581Using": 4043,
  "\u2581insert": 4044,
  "\u2581permissions": 4045,
  "\u2581regra": 4046,
  "\u2581tray": 4047,
  "kin": 4048,
  "\u2581Fondo": 4049,
  "\u2581Usuario": 4050,
  "\u2581Work": 4051,
  "\u2581curva": 4052,
  "\u2581encrypted": 4053,
  "\u2581modificado": 4054,
  "\u2581nese": 4055,
  "\u2581sl": 4056,
  "\u2581ticked": 4057,
  "ser": 4058,
  "\u00f3ns": 4059,
  "\u2581NO": 4060,
  "\u2581axustar": 4061,
  "\u2581graph": 4062,
  "\u2581pressing": 4063,
  "\u2581road": 4064,
  "az": 4065,
  "ization": 4066,
  "\u25812000": 4067,
  "\u2581Asistente": 4068,
  "\u2581Fala": 4069,
  "\u2581Specify": 4070,
  "\u2581company": 4071,
  "\u2581disable": 4072,
  "\u2581introducir": 4073,
  "\u2581kalarm": 4074,
  "\u2581lugares": 4075,
  "\u2581necesita": 4076,
  "\u2581pattern": 4077,
  "\u2581puzzle": 4078,
  "\u2581segura": 4079,
  "amos": 4080,
  "ring": 4081,
  "\u2581Dec": 4082,
  "\u2581Empregue": 4083,
  "\u2581PO": 4084,
  "\u2581Pan": 4085,
  "\u2581Va": 4086,
  "\u2581cache": 4087,
  "\u2581fluxo": 4088,
  "\u2581focus": 4089,
  "\u2581remota": 4090,
  "\u2581resumo": 4091,
  "rie": 4092,
  "\u2581Browser": 4093,
  "\u2581Channel": 4094,
  "\u2581Deixa": 4095,
  "\u2581Joe": 4096,
  "\u2581Software": 4097,
  "\u2581Vietnam": 4098,
  "\u2581adicional": 4099,
  "\u2581alcume": 4100,
  "\u2581clean": 4101,
  "\u2581completed": 4102,
  "\u2581conectado": 4103,
  "\u2581c\u00f3": 4104,
  "\u2581gives": 4105,
  "\u2581icons": 4106,
  "\u2581indi": 4107,
  "\u2581provide": 4108,
  "\u2581sometimes": 4109,
  "\u2581taxa": 4110,
  "Edit": 4111,
  "bilidade": 4112,
  "\u2581Map": 4113,
  "\u2581Sam": 4114,
  "\u2581atributos": 4115,
  "\u2581certificates": 4116,
  "\u2581dark": 4117,
  "\u2581executable": 4118,
  "\u2581fish": 4119,
  "\u2581machine": 4120,
  "\u2581var": 4121,
  "ik": 4122,
  "var": 4123,
  "\u2581Template": 4124,
  "\u2581arma": 4125,
  "\u2581encrypt": 4126,
  "\u2581gun": 4127,
  "\u2581snow": 4128,
  "set": 4129,
  "\u2581American": 4130,
  "\u2581Super": 4131,
  "\u2581alarms": 4132,
  "\u2581din": 4133,
  "\u2581estiver": 4134,
  "\u2581graos": 4135,
  "\u2581horario": 4136,
  "\u2581master": 4137,
  "\u2581medida": 4138,
  "\u2581menor": 4139,
  "\u2581modified": 4140,
  "\u2581moza": 4141,
  "\u2581received": 4142,
  "\u2581thank": 4143,
  "\u2581viaxe": 4144,
  "\u2581voso": 4145,
  "\u2581ways": 4146,
  "gua": 4147,
  "\u2581Cambiar": 4148,
  "\u2581Todas": 4149,
  "\u2581correctly": 4150,
  "\u2581dixital": 4151,
  "\u2581opening": 4152,
  "\u2581personalizado": 4153,
  "\u2581replace": 4154,
  "iza": 4155,
  "\u00eds": 4156,
  "\u2581carteira": 4157,
  "\u2581corner": 4158,
  "\u2581funcionalidade": 4159,
  "\u2581inc": 4160,
  "\u2581miles": 4161,
  "istas": 4162,
  "\u2581Paste": 4163,
  "\u2581Por\u00e9n": 4164,
  "\u2581bloques": 4165,
  "\u2581drawn": 4166,
  "\u2581equal": 4167,
  "\u2581m\u00e1xima": 4168,
  "\u2581online": 4169,
  "\u2581square": 4170,
  "cep": 4171,
  "teiro": 4172,
  "\u2581Apply": 4173,
  "\u2581York": 4174,
  "\u2581^^": 4175,
  "\u2581acepta": 4176,
  "\u2581comportamento": 4177,
  "\u2581conter": 4178,
  "\u2581culpa": 4179,
  "\u2581digo": 4180,
  "\u2581kept": 4181,
  "\u2581lume": 4182,
  "\u2581overwrite": 4183,
  "ixa": 4184,
  "ker": 4185,
  "\u2581Adeus": 4186,
  "\u2581AisleRiot": 4187,
  "\u2581Once": 4188,
  "\u2581Orde": 4189,
  "\u2581controla": 4190,
  "\u2581queren": 4191,
  "\u2581subject": 4192,
  "\u2581vexa": 4193,
  "qu\u00ed": 4194,
  "\u25812008": 4195,
  "\u2581Outra": 4196,
  "\u2581alive": 4197,
  "\u2581associated": 4198,
  "\u2581brain": 4199,
  "\u2581documentation": 4200,
  "\u2581documents": 4201,
  "\u2581frame": 4202,
  "\u2581letters": 4203,
  "\u2581t\u00e9": 4204,
  "\u2581Ei": 4205,
  "\u2581Proba": 4206,
  "\u2581busy": 4207,
  "\u2581cvs": 4208,
  "\u2581exportar": 4209,
  "ory": 4210,
  "\u2581(\"": 4211,
  "\u2581Deal": 4212,
  "\u2581Fl": 4213,
  "\u2581Real": 4214,
  "\u2581idade": 4215,
  "\u2581libros": 4216,
  "\u2581sounds": 4217,
  "\u2581split": 4218,
  "\u2581till": 4219,
  "\u2581tools": 4220,
  "ambi": 4221,
  "scar": 4222,
  "\u2581Card": 4223,
  "\u2581Opens": 4224,
  "\u2581Really": 4225,
  "\u2581Tan": 4226,
  "\u2581Which": 4227,
  "\u2581appears": 4228,
  "\u2581arm": 4229,
  "\u2581axi\u00f1a": 4230,
  "\u2581bomb": 4231,
  "\u2581exactamente": 4232,
  "\u2581km": 4233,
  "\u2581referencia": 4234,
  "\u2581returned": 4235,
  "\u2581shape": 4236,
  "\u2581situation": 4237,
  "\u2581Garda": 4238,
  "\u2581Loading": 4239,
  "\u2581Sound": 4240,
  "\u2581escolleu": 4241,
  "\u2581roupa": 4242,
  "\u2581servers": 4243,
  "cida": 4244,
  "\u2581Alg\u00fans": 4245,
  "\u2581Est\u00e1n": 4246,
  "\u2581Quanta": 4247,
  "\u2581calculate": 4248,
  "\u2581colors": 4249,
  "\u2581columns": 4250,
  "\u2581peche": 4251,
  "\u2581query": 4252,
  "\u2581resp": 4253,
  "\u2581sesi\u00f3ns": 4254,
  "\u2581units": 4255,
  "\u2581width": 4256,
  "US": 4257,
  "Un": 4258,
  "\u25813.": 4259,
  "\u2581Col": 4260,
  "\u2581autom\u00e1tico": 4261,
  "\u2581celeste": 4262,
  "\u2581f\u00e1cil": 4263,
  "\u2581none": 4264,
  "\u2581posible": 4265,
  "\u2581procesar": 4266,
  "\u2581ship": 4267,
  "\u2581torrent": 4268,
  "\u2581viu": 4269,
  "ake": 4270,
  "l\u00e9": 4271,
  "posta": 4272,
  "\u2581API": 4273,
  "\u2581Comentario": 4274,
  "\u2581Meta": 4275,
  "\u2581N\u00f3s": 4276,
  "\u2581Pensa": 4277,
  "\u2581balance": 4278,
  "\u2581definido": 4279,
  "\u2581dig": 4280,
  "\u2581feeling": 4281,
  "\u2581finish": 4282,
  "\u2581linguaxe": 4283,
  "\u2581pedido": 4284,
  "\u2581qu\u00e9": 4285,
  "old": 4286,
  "uk": 4287,
  "xico": 4288,
  "\u25812:": 4289,
  "\u2581Rota": 4290,
  "\u2581Small": 4291,
  "\u2581Task": 4292,
  "\u2581Vaia": 4293,
  "\u2581Version": 4294,
  "\u2581cambio": 4295,
  "\u2581capa": 4296,
  "\u2581equals": 4297,
  "\u2581fear": 4298,
  "\u2581immediately": 4299,
  "\u2581mass": 4300,
  "\u2581pull": 4301,
  "\u2581term": 4302,
  "\u2581transferencia": 4303,
  "\u2581village": 4304,
  "\u2581Bra": 4305,
  "\u2581Mer": 4306,
  "\u2581chegou": 4307,
  "\u2581c\u00edrculo": 4308,
  "\u2581fuck": 4309,
  "\u2581generate": 4310,
  "\u2581oportunidade": 4311,
  "\u2581progress": 4312,
  "\u2581sick": 4313,
  "\u2581whose": 4314,
  "TP": 4315,
  "ixe": 4316,
  "\u2581Build": 4317,
  "\u2581Collection": 4318,
  "\u2581Connect": 4319,
  "\u2581Manter": 4320,
  "\u2581Since": 4321,
  "\u2581aire": 4322,
  "\u2581argument": 4323,
  "\u2581casos": 4324,
  "\u2581cifrar": 4325,
  "\u2581mellores": 4326,
  "\u2581resolver": 4327,
  "\u2581sets": 4328,
  "\u2581visor": 4329,
  "TE": 4330,
  "bin": 4331,
  "ime": 4332,
  "\u25812003": 4333,
  "\u2581Sir": 4334,
  "\u2581completely": 4335,
  "\u2581execut\u00e1bel": 4336,
  "\u2581letras": 4337,
  "\u2581puntuaci\u00f3n": 4338,
  "\u2581sending": 4339,
  "link": 4340,
  "rk": 4341,
  "\u2581Bal": 4342,
  "\u2581Escribiun": 4343,
  "\u2581IS": 4344,
  "\u2581Min": 4345,
  "\u2581Outro": 4346,
  "\u2581Substitu\u00edr": 4347,
  "\u2581`%": 4348,
  "\u2581columnas": 4349,
  "\u2581disto": 4350,
  "\u2581fit": 4351,
  "\u2581parts": 4352,
  "\u2581systems": 4353,
  "\u2581t\u00edo": 4354,
  "\u2581t\u00faas": 4355,
  "\u2581usada": 4356,
  "ento": 4357,
  "ros": 4358,
  "taci\u00f3n": 4359,
  "\u2581Amarok": 4360,
  "\u2581Comprobar": 4361,
  "\u2581Di\u00e1logo": 4362,
  "\u2581Messages": 4363,
  "\u2581Position": 4364,
  "\u2581anda": 4365,
  "\u2581distribuci\u00f3n": 4366,
  "\u2581meta": 4367,
  "\u2581playlist": 4368,
  "TO": 4369,
  "can": 4370,
  "d\u00eda": 4371,
  "\u00f3s": 4372,
  "\u2581Bri": 4373,
  "\u2581Estas": 4374,
  "\u2581Fe": 4375,
  "\u2581KOrganizer": 4376,
  "\u2581Remember": 4377,
  "\u2581according": 4378,
  "\u2581album": 4379,
  "\u2581applet": 4380,
  "\u2581art": 4381,
  "\u2581empregado": 4382,
  "\u2581filters": 4383,
  "\u2581marked": 4384,
  "\u2581photo": 4385,
  "\u2581questions": 4386,
  "\u2581rec": 4387,
  "\u2581sequera": 4388,
  "\u2581site": 4389,
  "\u2581stopped": 4390,
  "\u258104": 4391,
  "\u2581Deter": 4392,
  "\u2581RE": 4393,
  "\u2581Resource": 4394,
  "\u2581corre": 4395,
  "\u2581entorno": 4396,
  "\u2581pobre": 4397,
  "\u2581reach": 4398,
  "aria": 4399,
  "sas": 4400,
  "tain": 4401,
  "\u2581300": 4402,
  "\u2581KPilot": 4403,
  "\u2581Overwrite": 4404,
  "\u2581Sh": 4405,
  "\u2581Sun": 4406,
  "\u2581calcula": 4407,
  "\u2581escrito": 4408,
  "\u2581floor": 4409,
  "\u2581foot": 4410,
  "\u2581malo": 4411,
  "\u2581matching": 4412,
  "\u2581minuto": 4413,
  "\u2581normalmente": 4414,
  "\u2581popular": 4415,
  "\u2581recommended": 4416,
  "97": 4417,
  "ob": 4418,
  "\u258190": 4419,
  "\u2581Desactivar": 4420,
  "\u2581arre": 4421,
  "\u2581cancelar": 4422,
  "\u2581expect": 4423,
  "\u2581feed": 4424,
  "\u2581policy": 4425,
  "\u2581pon": 4426,
  "\u2581repository": 4427,
  "\u2581san": 4428,
  "\u2581slow": 4429,
  "\u2581zero": 4430,
  "Do": 4431,
  "rma": 4432,
  "\u2581200": 4433,
  "\u2581Bookmarks": 4434,
  "\u2581Each": 4435,
  "\u2581Fonte": 4436,
  "\u2581Leva": 4437,
  "\u2581Program": 4438,
  "\u2581afecta": 4439,
  "\u2581begin": 4440,
  "\u2581chart": 4441,
  "\u2581mata": 4442,
  "\u2581necesario": 4443,
  "\u2581presentaci\u00f3n": 4444,
  "\u2581sentir": 4445,
  "He": 4446,
  "IM": 4447,
  "Te": 4448,
  "cente": 4449,
  "cu": 4450,
  "fra": 4451,
  "\u2581KStars": 4452,
  "\u2581Memory": 4453,
  "\u2581Tree": 4454,
  "\u2581agardar": 4455,
  "\u2581cap": 4456,
  "\u2581conseguir": 4457,
  "\u2581deep": 4458,
  "\u2581kspread": 4459,
  "\u2581links": 4460,
  "\u2581moeda": 4461,
  "\u2581pagar": 4462,
  "\u2581provided": 4463,
  "\u2581schedule": 4464,
  "\u2581servizos": 4465,
  "\u2581verde": 4466,
  "1:": 4467,
  "\u2581Far": 4468,
  "\u2581Han": 4469,
  "\u2581Most": 4470,
  "\u2581Precisa": 4471,
  "\u2581Repartir": 4472,
  "\u2581Taxa": 4473,
  "\u2581barco": 4474,
  "\u2581boys": 4475,
  "\u2581distribution": 4476,
  "\u2581doctor": 4477,
  "\u2581entende": 4478,
  "\u2581gardado": 4479,
  "\u2581magnitude": 4480,
  "\u2581mozo": 4481,
  "\u2581p\u00fablico": 4482,
  "\u2581\u00c1s": 4483,
  "Bus": 4484,
  "cada": 4485,
  "down": 4486,
  "icamente": 4487,
  "ident": 4488,
  "play": 4489,
  "row": 4490,
  "\u2581Remote": 4491,
  "\u2581Shows": 4492,
  "\u2581anymore": 4493,
  "\u2581append": 4494,
  "\u2581argumento": 4495,
  "\u2581built": 4496,
  "\u2581choiva": 4497,
  "\u2581condici\u00f3ns": 4498,
  "\u2581filtrado": 4499,
  "\u2581perhaps": 4500,
  "\u2581tr": 4501,
  "\u2581Bookmark": 4502,
  "\u2581Jamie": 4503,
  "\u2581Management": 4504,
  "\u2581among": 4505,
  "\u2581contidos": 4506,
  "\u2581couple": 4507,
  "\u2581falla": 4508,
  "\u2581serve": 4509,
  "\u2581\u00f3s": 4510,
  "dar": 4511,
  "\u2581Tema": 4512,
  "\u2581degrees": 4513,
  "\u2581listas": 4514,
  "\u2581mm": 4515,
  "\u2581nena": 4516,
  "\u2581serie": 4517,
  "ition": 4518,
  "\u2581Antes": 4519,
  "\u2581Four": 4520,
  "\u2581Lock": 4521,
  "\u2581Mont": 4522,
  "\u2581Roman": 4523,
  "\u2581Word": 4524,
  "\u2581muda": 4525,
  "\u2581quit": 4526,
  "\u2581sequence": 4527,
  "ised": 4528,
  "ola": 4529,
  "ves": 4530,
  "\u2581Interface": 4531,
  "\u2581KM": 4532,
  "\u2581Ser\u00e1": 4533,
  "\u2581UML": 4534,
  "\u2581army": 4535,
  "\u2581capaz": 4536,
  "\u2581coincide": 4537,
  "\u2581confianza": 4538,
  "\u2581editing": 4539,
  "\u2581embaixo": 4540,
  "\u2581extension": 4541,
  "\u2581rango": 4542,
  "\u2581traballa": 4543,
  "\u2581versi\u00f3ns": 4544,
  "\u2581visit": 4545,
  "\u2581(0": 4546,
  "\u25810,": 4547,
  "\u25812007": 4548,
  "\u258123": 4549,
  "\u2581Great": 4550,
  "\u2581goberno": 4551,
  "\u2581starts": 4552,
  "\u2581street": 4553,
  "cker": 4554,
  "\u2581Browse": 4555,
  "\u2581Gr": 4556,
  "\u2581KPhotoAlbum": 4557,
  "\u2581Mensaxes": 4558,
  "\u2581clock": 4559,
  "\u2581hair": 4560,
  "\u2581join": 4561,
  "\u2581paga": 4562,
  "\u2581random": 4563,
  "\u2581separate": 4564,
  "\u2581shut": 4565,
  "\u2581solar": 4566,
  "\u2581themselves": 4567,
  "AD": 4568,
  "ji": 4569,
  "you": 4570,
  "\u2581Google": 4571,
  "\u2581ROMEO": 4572,
  "\u2581Seguro": 4573,
  "\u2581abra": 4574,
  "\u2581displays": 4575,
  "\u2581domain": 4576,
  "\u2581earth": 4577,
  "\u2581million": 4578,
  "\u2581patr\u00f3n": 4579,
  "\u2581proxectos": 4580,
  "\u2581tags": 4581,
  "bus": 4582,
  "\u2581FTP": 4583,
  "\u2581UID": 4584,
  "\u2581cancel": 4585,
  "\u2581execution": 4586,
  "\u2581feet": 4587,
  "\u2581gr\u00e1ficos": 4588,
  "\u2581per\u00edodo": 4589,
  "\u2581rock": 4590,
  "\u2581win": 4591,
  "2)": 4592,
  "ela": 4593,
  "\u2581Column": 4594,
  "\u2581Package": 4595,
  "\u2581abre": 4596,
  "\u2581constante": 4597,
  "\u2581frecuencia": 4598,
  "\u2581fucking": 4599,
  "\u2581law": 4600,
  "\u2581pap\u00e1": 4601,
  "\u2581tenta": 4602,
  "\u2581terrible": 4603,
  "\u2581third": 4604,
  "SL": 4605,
  "r\u00e1s": 4606,
  "tir": 4607,
  "\u00e1tico": 4608,
  "\u2581Aplicar": 4609,
  "\u2581Automatically": 4610,
  "\u2581Van": 4611,
  "\u2581asking": 4612,
  "\u2581hardware": 4613,
  "\u2581leaving": 4614,
  "\u2581p\u00f3dense": 4615,
  "VE": 4616,
  "ao": 4617,
  "\u25812,": 4618,
  "\u2581Additional": 4619,
  "\u2581Plan": 4620,
  "\u2581Simple": 4621,
  "\u2581clic": 4622,
  "\u2581desactivar": 4623,
  "\u2581distance": 4624,
  "\u2581green": 4625,
  "\u2581liberdade": 4626,
  "\u2581pal": 4627,
  "\u2581period": 4628,
  "light": 4629,
  "\u2581Include": 4630,
  "\u2581Pon": 4631,
  "\u2581easily": 4632,
  "\u2581older": 4633,
  "\u2581ollo": 4634,
  "Pro": 4635,
  "dura": 4636,
  "gada": 4637,
  "izada": 4638,
  "\u2581Blue": 4639,
  "\u2581Kate": 4640,
  "\u2581Service": 4641,
  "\u2581corresponding": 4642,
  "\u2581obtenci\u00f3n": 4643,
  "\u2581programs": 4644,
  "\u2581p\u00f3r": 4645,
  "\u2581sae": 4646,
  "Si": 4647,
  "\u2581Lin": 4648,
  "\u2581appropriate": 4649,
  "\u2581difference": 4650,
  "\u2581seleccione": 4651,
  "\u2581strong": 4652,
  "\u2581tivese": 4653,
  "\u2581visita": 4654,
  "cr": 4655,
  "\u2581GTK": 4656,
  "\u2581Layer": 4657,
  "\u2581Net": 4658,
  "\u2581Put": 4659,
  "\u2581acontece": 4660,
  "\u2581destes": 4661,
  "\u2581features": 4662,
  "\u2581lists": 4663,
  "\u2581pezas": 4664,
  "\u2581suit": 4665,
  "\u2581xestionar": 4666,
  "\u2581Baixar": 4667,
  "\u2581Bottom": 4668,
  "\u2581Caixa": 4669,
  "\u2581Category": 4670,
  "\u2581Example": 4671,
  "\u2581Step": 4672,
  "\u2581dog": 4673,
  "\u2581interno": 4674,
  "\u2581marcar": 4675,
  "\u2581poda": 4676,
  "\u2581verdadeiro": 4677,
  "Property": 4678,
  "option": 4679,
  "tool": 4680,
  "\u2581Am": 4681,
  "\u2581Aviso": 4682,
  "\u2581Detalles": 4683,
  "\u2581Martin": 4684,
  "\u2581Toma": 4685,
  "\u2581Volume": 4686,
  "\u2581actualmente": 4687,
  "\u2581bookmarks": 4688,
  "\u2581noites": 4689,
  "\u2581personalizada": 4690,
  "\u2581photograph": 4691,
  "\u2581principio": 4692,
  "\u2581ru\u00eddo": 4693,
  "bl": 4694,
  "\u2581DNS": 4695,
  "\u2581DO": 4696,
  "\u2581Inicio": 4697,
  "\u2581Lannister": 4698,
  "\u2581Navegador": 4699,
  "\u2581Rexistro": 4700,
  "\u2581Soporte": 4701,
  "\u2581Tag": 4702,
  "\u2581cabeceiras": 4703,
  "\u2581entidade": 4704,
  "\u2581lie": 4705,
  "\u2581mirar": 4706,
  "\u2581pois": 4707,
  "gas": 4708,
  "gl": 4709,
  "ku": 4710,
  "only": 4711,
  "\u00e1monos": 4712,
  "\u2581Escoita": 4713,
  "\u2581Event": 4714,
  "\u2581Everything": 4715,
  "\u2581azul": 4716,
  "\u2581burn": 4717,
  "\u2581fetch": 4718,
  "\u2581fr\u00edo": 4719,
  "\u2581haber": 4720,
  "\u2581material": 4721,
  "\u2581party": 4722,
  "\u2581pel": 4723,
  "\u2581preguntas": 4724,
  "\u2581printing": 4725,
  "\u2581stick": 4726,
  "\u2581supposed": 4727,
  "\u2581unless": 4728,
  "\u2581wallet": 4729,
  "rico": 4730,
  "\u2581Cidade": 4731,
  "\u2581Java": 4732,
  "\u2581ante": 4733,
  "\u2581arrow": 4734,
  "\u2581categor\u00edas": 4735,
  "\u2581doado": 4736,
  "\u2581property": 4737,
  "\u2581recibir": 4738,
  "\u2581uk": 4739,
  "24": 4740,
  "gou": 4741,
  "number": 4742,
  "\u2581Available": 4743,
  "\u2581A\u00ed": 4744,
  "\u2581Gravar": 4745,
  "\u2581Houbo": 4746,
  "\u2581Rock": 4747,
  "\u2581[%": 4748,
  "\u2581ahead": 4749,
  "\u2581aplica": 4750,
  "\u2581directories": 4751,
  "\u2581early": 4752,
  "\u2581extensi\u00f3ns": 4753,
  "\u2581herself": 4754,
  "\u2581niveis": 4755,
  "om": 4756,
  "\u2581Construct": 4757,
  "\u2581EXIF": 4758,
  "\u2581Fiestra": 4759,
  "\u2581Ja": 4760,
  "\u2581KDevelop": 4761,
  "\u2581especie": 4762,
  "\u2581invitation": 4763,
  "\u2581signal": 4764,
  "idos": 4765,
  "\u2581Record": 4766,
  "\u2581Win": 4767,
  "\u2581chi": 4768,
  "\u2581moral": 4769,
  "\u2581morreu": 4770,
  "\u2581pequenos": 4771,
  "\u2581role": 4772,
  "li\u00f1a": 4773,
  "tais": 4774,
  "ude": 4775,
  "\u25812001": 4776,
  "\u2581Copia": 4777,
  "\u2581OpenGL": 4778,
  "\u2581Xoga": 4779,
  "\u2581broken": 4780,
  "\u2581cuesti\u00f3n": 4781,
  "\u2581decide": 4782,
  "\u2581determinar": 4783,
  "\u2581externo": 4784,
  "\u2581respostas": 4785,
  "\u2581segue": 4786,
  "ral": 4787,
  "\u2581Men\u00fa": 4788,
  "\u2581RGB": 4789,
  "\u2581Sets": 4790,
  "\u2581ci": 4791,
  "\u2581convite": 4792,
  "\u2581explain": 4793,
  "ans": 4794,
  "corre": 4795,
  "wrap": 4796,
  "\u2581Ata": 4797,
  "\u2581Reg": 4798,
  "\u2581Val": 4799,
  "\u2581aren": 4800,
  "\u2581connections": 4801,
  "\u2581deber\u00e1": 4802,
  "\u2581doce": 4803,
  "\u2581indicado": 4804,
  "\u2581prefix": 4805,
  "\u2581tele": 4806,
  "\u2581username": 4807,
  "ncy": 4808,
  "\u2581Mellor": 4809,
  "\u2581chamadas": 4810,
  "\u2581fonts": 4811,
  "\u2581mala": 4812,
  "\u2581rapaces": 4813,
  "\u2581s\u00edmbolo": 4814,
  "icos": 4815,
  "ily": 4816,
  "ios": 4817,
  "ye": 4818,
  "\u00edas": 4819,
  "\u2581Ignore": 4820,
  "\u2581Label": 4821,
  "\u2581Ly": 4822,
  "\u2581PNG": 4823,
  "\u2581Reproducir": 4824,
  "\u2581Vas": 4825,
  "\u2581Zawinski": 4826,
  "\u2581arguments": 4827,
  "\u2581colours": 4828,
  "\u2581configurado": 4829,
  "\u2581crime": 4830,
  "\u2581diga": 4831,
  "\u2581entender": 4832,
  "\u2581everybody": 4833,
  "\u2581expected": 4834,
  "\u2581meeting": 4835,
  "\u2581somebody": 4836,
  "96": 4837,
  "cy": 4838,
  "lock": 4839,
  "san": 4840,
  "\u2581Jon": 4841,
  "\u2581accesibilidade": 4842,
  "\u2581attachment": 4843,
  "\u2581cadeas": 4844,
  "\u2581destinatario": 4845,
  "\u2581falso": 4846,
  "\u2581mad": 4847,
  "\u2581produce": 4848,
  "\u2581self": 4849,
  "ey": 4850,
  "graph": 4851,
  "posto": 4852,
  "\u2581Comezar": 4853,
  "\u2581Cut": 4854,
  "\u2581Fun": 4855,
  "\u2581Photo": 4856,
  "\u2581Qu": 4857,
  "\u2581aviso": 4858,
  "\u2581conexi\u00f3ns": 4859,
  "\u2581controlador": 4860,
  "\u2581correcci\u00f3n": 4861,
  "\u2581daquela": 4862,
  "\u2581drawing": 4863,
  "\u2581marcador": 4864,
  "\u2581natural": 4865,
  "\u2581owner": 4866,
  "\u2581permiten": 4867,
  "\u2581pictures": 4868,
  "\u2581unread": 4869,
  "\u2581wizard": 4870,
  "We": 4871,
  "\u25811/": 4872,
  "\u25812002": 4873,
  "\u2581Acci\u00f3ns": 4874,
  "\u2581Actions": 4875,
  "\u2581Jan": 4876,
  "\u2581MP": 4877,
  "\u2581Terminal": 4878,
  "\u2581Value": 4879,
  "\u2581cells": 4880,
  "\u2581difficult": 4881,
  "\u2581efectos": 4882,
  "\u2581fair": 4883,
  "\u2581government": 4884,
  "\u2581honor": 4885,
  "\u2581listo": 4886,
  "\u2581mvillarino": 4887,
  "\u2581pase": 4888,
  "\u2581setup": 4889,
  "\u2581vistas": 4890,
  "burg": 4891,
  "iano": 4892,
  "\u00e9molo": 4893,
  "\u2581Xu": 4894,
  "\u2581attribute": 4895,
  "\u2581baixar": 4896,
  "\u2581em": 4897,
  "\u2581especifica": 4898,
  "\u2581identificador": 4899,
  "\u2581interese": 4900,
  "\u2581negocio": 4901,
  "\u2581procuras": 4902,
  "\u2581subt\u00edtulos": 4903,
  "\u2581terms": 4904,
  "\u2581xogadores": 4905,
  "ship": 4906,
  "\u2581Albert": 4907,
  "\u2581Item": 4908,
  "\u2581Marble": 4909,
  "\u2581Plasma": 4910,
  "\u2581Rede": 4911,
  "\u2581State": 4912,
  "\u2581aberta": 4913,
  "\u2581aparecen": 4914,
  "\u2581atopado": 4915,
  "\u2581celas": 4916,
  "\u2581entrega": 4917,
  "\u2581ga\u00f1ar": 4918,
  "\u2581substitu\u00edr": 4919,
  "\u2581tiven": 4920,
  "air": 4921,
  "ham": 4922,
  "lado": 4923,
  "py": 4924,
  "\u2581coci\u00f1a": 4925,
  "\u2581estean": 4926,
  "\u2581inf": 4927,
  "\u2581lived": 4928,
  "\u2581metadatos": 4929,
  "\u2581mono": 4930,
  "\u2581prioridade": 4931,
  "\u2581relative": 4932,
  "\u2581strange": 4933,
  "\u2581switch": 4934,
  "\u2581verificar": 4935,
  "AT": 4936,
  "To": 4937,
  "right": 4938,
  "torio": 4939,
  "tras": 4940,
  "\u2581Reprodutor": 4941,
  "\u2581Tor": 4942,
  "\u2581ancho": 4943,
  "\u2581border": 4944,
  "\u2581desenvolvemento": 4945,
  "\u2581ga\u00f1a": 4946,
  "\u2581miss": 4947,
  "user": 4948,
  "\u258160": 4949,
  "\u2581Ask": 4950,
  "\u2581Count": 4951,
  "\u2581Reload": 4952,
  "\u2581attack": 4953,
  "\u2581avoid": 4954,
  "\u2581compression": 4955,
  "\u2581controlar": 4956,
  "\u2581creating": 4957,
  "\u2581destination": 4958,
  "\u2581escuro": 4959,
  "\u2581querida": 4960,
  "\u2581ra\u00edz": 4961,
  "\u2581region": 4962,
  "gres": 4963,
  "ward": 4964,
  "\u2581Angeles": 4965,
  "\u2581Casa": 4966,
  "\u2581Datos": 4967,
  "\u2581Pen": 4968,
  "\u2581axente": 4969,
  "\u2581duration": 4970,
  "\u2581fame": 4971,
  "\u2581ouro": 4972,
  "\u2581soporta": 4973,
  "File": 4974,
  "\u2581\"%1\".": 4975,
  "\u2581Another": 4976,
  "\u2581Dende": 4977,
  "\u2581Penso": 4978,
  "\u2581Resumo": 4979,
  "\u2581Selector": 4980,
  "\u2581UNIX": 4981,
  "\u2581born": 4982,
  "\u2581downloaded": 4983,
  "\u2581keyword": 4984,
  "\u2581mente": 4985,
  "\u2581rostro": 4986,
  "\u2581vis\u00edbel": 4987,
  "Oh": 4988,
  "imos": 4989,
  "toria": 4990,
  "\u00e1tica": 4991,
  "\u2581\"%2\"": 4992,
  "\u2581AND": 4993,
  "\u2581C\u00f3digo": 4994,
  "\u2581Qui": 4995,
  "\u2581Report": 4996,
  "\u2581Reset": 4997,
  "\u2581deter": 4998,
  "\u2581emp": 4999,
  "\u2581medium": 5000,
  "\u2581popup": 5001,
  "\u2581prezo": 5002,
  "SI": 5003,
  "\u2581%(": 5004,
  "\u2581Capa": 5005,
  "\u2581Mag": 5006,
  "\u2581MySQL": 5007,
  "\u2581Qu\u00e9": 5008,
  "\u2581Three": 5009,
  "\u2581administrador": 5010,
  "\u2581atenci\u00f3n": 5011,
  "\u2581compresi\u00f3n": 5012,
  "\u2581dese\u00f1o": 5013,
  "\u2581except": 5014,
  "\u2581navegaci\u00f3n": 5015,
  "\u2581noutro": 5016,
  "\u2581passed": 5017,
  "\u2581ren": 5018,
  "\u2581sa\u00edu": 5019,
  "\u2581shit": 5020,
  "\u2581subir": 5021,
  "istic": 5022,
  "\u2581%4": 5023,
  "\u2581Function": 5024,
  "\u2581IPTC": 5025,
  "\u2581Over": 5026,
  "\u2581TLS": 5027,
  "\u2581Tray": 5028,
  "\u2581amo": 5029,
  "\u2581curve": 5030,
  "\u2581descarga": 5031,
  "\u2581forecast": 5032,
  "\u2581garden": 5033,
  "\u2581inserir": 5034,
  "\u2581longa": 5035,
  "\u2581metade": 5036,
  "\u2581mouth": 5037,
  "\u2581requires": 5038,
  "ball": 5039,
  "gh": 5040,
  "read": 5041,
  "tur": 5042,
  "\u00e1ndose": 5043,
  "\u258180": 5044,
  "\u2581Converter": 5045,
  "\u2581MIDI": 5046,
  "\u2581building": 5047,
  "\u2581false": 5048,
  "\u2581multimedia": 5049,
  "\u2581printed": 5050,
  "\u2581roda": 5051,
  "\u2581semanas": 5052,
  "\u2581vive": 5053,
  "UN": 5054,
  "\u2581Michael": 5055,
  "\u2581Queen": 5056,
  "\u2581admite": 5057,
  "\u2581dura": 5058,
  "\u2581d\u00f3lares": 5059,
  "\u2581esposa": 5060,
  "\u2581graphical": 5061,
  "\u2581sell": 5062,
  "\u2581\u00ab{0}\u00bb": 5063,
  "indo": 5064,
  "quot": 5065,
  "\u2581Authentication": 5066,
  "\u2581France": 5067,
  "\u2581PostScript": 5068,
  "\u2581bloqueo": 5069,
  "\u2581estr": 5070,
  "\u2581experience": 5071,
  "\u2581flag": 5072,
  "\u2581grow": 5073,
  "\u2581m\u00e1": 5074,
  "\u2581pr\u00f3ximo": 5075,
  "\u2581showing": 5076,
  "\u2581sup": 5077,
  "\u2581torrente": 5078,
  "but": 5079,
  "ificado": 5080,
  "rom": 5081,
  "\u2581Calendar": 5082,
  "\u2581Cara": 5083,
  "\u2581Double": 5084,
  "\u2581Esquerda": 5085,
  "\u2581Kexi": 5086,
  "\u2581Peter": 5087,
  "\u2581Pola": 5088,
  "\u2581Ren": 5089,
  "\u2581cover": 5090,
  "\u2581estrela": 5091,
  "\u2581ling\u00fceta": 5092,
  "\u2581posterior": 5093,
  "\u2581roll": 5094,
  "\u2581semellante": 5095,
  "\u2581tabs": 5096,
  "\u2581transactions": 5097,
  "util": 5098,
  "\u2581Document": 5099,
  "\u2581Extra": 5100,
  "\u2581Hold": 5101,
  "\u2581Job": 5102,
  "\u2581Lib": 5103,
  "\u2581Normal": 5104,
  "\u2581accounts": 5105,
  "\u2581blow": 5106,
  "\u2581debuxar": 5107,
  "\u2581deixou": 5108,
  "\u2581emails": 5109,
  "\u2581fac\u00eda": 5110,
  "\u2581interested": 5111,
  "\u2581jobs": 5112,
  "\u2581mistake": 5113,
  "\u2581moldura": 5114,
  "\u2581pile": 5115,
  "\u2581probar": 5116,
  "\u2581recentemente": 5117,
  "\u2581remata": 5118,
  "\u2581rematou": 5119,
  "\u2581te\u00f1an": 5120,
  "\u2581vela": 5121,
  "\u2581visi\u00f3n": 5122,
  "01": 5123,
  "\u2581Aplicativo": 5124,
  "\u2581Cree": 5125,
  "\u2581Johnny": 5126,
  "\u2581Xesti\u00f3n": 5127,
  "\u2581bomba": 5128,
  "\u2581charge": 5129,
  "\u2581delay": 5130,
  "\u2581directorios": 5131,
  "\u2581fago": 5132,
  "\u2581fixeron": 5133,
  "\u2581huh": 5134,
  "\u2581lecci\u00f3n": 5135,
  "\u2581mime": 5136,
  "\u2581peace": 5137,
  "\u2581seleccionadas": 5138,
  "\u2581wonderful": 5139,
  "\u2581xeitos": 5140,
  "\u25811%": 5141,
  "\u2581Archive": 5142,
  "\u2581Copyright": 5143,
  "\u2581Execute": 5144,
  "\u2581Layout": 5145,
  "\u2581NAME": 5146,
  "\u2581argumentos": 5147,
  "\u2581beat": 5148,
  "\u2581brillante": 5149,
  "\u2581com\u00fan": 5150,
  "\u2581creado": 5151,
  "\u2581lord": 5152,
  "\u2581onte": 5153,
  "\u2581permiso": 5154,
  "\u2581protect": 5155,
  "\u2581tasks": 5156,
  "\u2581wall": 5157,
  "\u2581whatever": 5158,
  "\u2581worked": 5159,
  "ane": 5160,
  "mount": 5161,
  "\u2581Anti": 5162,
  "\u2581Comprobe": 5163,
  "\u2581Holmes": 5164,
  "\u2581Reiniciar": 5165,
  "\u2581Thomas": 5166,
  "\u2581Volve": 5167,
  "\u2581Was": 5168,
  "\u2581bastard": 5169,
  "\u2581boot": 5170,
  "\u2581center": 5171,
  "\u2581cinema": 5172,
  "\u2581propiedades": 5173,
  "\u2581protector": 5174,
  "\u2581pr\u00e1ctica": 5175,
  "\u2581worse": 5176,
  "command": 5177,
  "forge": 5178,
  "\u2581Avanzado": 5179,
  "\u2581Empty": 5180,
  "\u2581empregada": 5181,
  "\u2581exportaci\u00f3n": 5182,
  "\u2581humano": 5183,
  "\u2581levels": 5184,
  "\u2581parents": 5185,
  "\u2581procesamento": 5186,
  "\u2581ran": 5187,
  "\u2581station": 5188,
  "\u2581warning": 5189,
  "\u2581xeraci\u00f3n": 5190,
  "dd": 5191,
  "ef": 5192,
  "zos": 5193,
  "zz": 5194,
  "\u2581Ademais": 5195,
  "\u2581Africa": 5196,
  "\u2581CRL": 5197,
  "\u2581Propriedades": 5198,
  "\u2581Refresh": 5199,
  "\u2581Retire": 5200,
  "\u2581contacts": 5201,
  "\u2581detallada": 5202,
  "\u2581determine": 5203,
  "\u2581edge": 5204,
  "\u2581medios": 5205,
  "\u2581mesmos": 5206,
  "\u2581onda": 5207,
  "\u2581rexi\u00f3n": 5208,
  "\u2581rid": 5209,
  "\u2581socket": 5210,
  "\u2581team": 5211,
  "ara": 5212,
  "cut": 5213,
  "off": 5214,
  "xer": 5215,
  "\u2581Desde": 5216,
  "\u2581Dous": 5217,
  "\u2581Sa\u00edda": 5218,
  "\u2581Special": 5219,
  "\u2581XMP": 5220,
  "\u2581aspect": 5221,
  "\u2581canles": 5222,
  "\u2581cerebro": 5223,
  "\u2581initial": 5224,
  "\u2581padr\u00f3n": 5225,
  "\u2581telescopio": 5226,
  "alle": 5227,
  "pin": 5228,
  "rosa": 5229,
  "t\u00e9n": 5230,
  "\u2581\"\"": 5231,
  "\u2581Continuar": 5232,
  "\u2581Pasa": 5233,
  "\u2581Street": 5234,
  "\u2581Upload": 5235,
  "\u2581Uso": 5236,
  "\u2581affect": 5237,
  "\u2581amosa": 5238,
  "\u2581capacidade": 5239,
  "\u2581decimal": 5240,
  "\u2581errors": 5241,
  "\u2581far\u00eda": 5242,
  "\u2581inmediatamente": 5243,
  "\u2581intelixente": 5244,
  "\u2581lay": 5245,
  "\u2581m\u00f3bil": 5246,
  "\u2581p\u00e9s": 5247,
  "\u2581sweet": 5248,
  "\u2581termo": 5249,
  "\u2581towards": 5250,
  "\u2581wanna": 5251,
  "ENT": 5252,
  "Page": 5253,
  "default": 5254,
  "iCal": 5255,
  "ink": 5256,
  "win": 5257,
  "\u2581Ignorar": 5258,
  "\u2581Jeeves": 5259,
  "\u2581North": 5260,
  "\u2581Permite": 5261,
  "\u2581Rematou": 5262,
  "\u2581an\u00e1lise": 5263,
  "\u2581books": 5264,
  "\u2581contrasinais": 5265,
  "\u2581darlle": 5266,
  "\u2581definici\u00f3n": 5267,
  "\u2581emerxente": 5268,
  "\u2581energy": 5269,
  "\u2581formats": 5270,
  "\u2581internet": 5271,
  "\u2581spaces": 5272,
  "\u2581sw": 5273,
  "\u2581train": 5274,
  "\u2581views": 5275,
  "AND": 5276,
  "Shortcut": 5277,
  "mark": 5278,
  "ock": 5279,
  "uid": 5280,
  "\u00fal": 5281,
  "\u2581Kontact": 5282,
  "\u2581Otherwise": 5283,
  "\u2581Sabe": 5284,
  "\u2581atributo": 5285,
  "\u2581bordo": 5286,
  "\u2581co\u00f1ecer": 5287,
  "\u2581d\u00e9": 5288,
  "\u2581escollidas": 5289,
  "\u2581esperar": 5290,
  "\u2581imagine": 5291,
  "\u2581int": 5292,
  "\u2581interesante": 5293,
  "\u2581meaning": 5294,
  "\u2581nobody": 5295,
  "\u2581price": 5296,
  "\u2581services": 5297,
  "\u2581vocabulario": 5298,
  "CE": 5299,
  "DL": 5300,
  "ins": 5301,
  "\u2581Aparencia": 5302,
  "\u2581Attach": 5303,
  "\u2581Cl": 5304,
  "\u2581Conmutar": 5305,
  "\u2581Estilo": 5306,
  "\u2581Icon": 5307,
  "\u2581Match": 5308,
  "\u2581Scale": 5309,
  "\u2581Standard": 5310,
  "\u2581Today": 5311,
  "\u2581Usage": 5312,
  "\u2581became": 5313,
  "\u2581consider": 5314,
  "\u2581miniaturas": 5315,
  "\u2581parent": 5316,
  "\u2581thou": 5317,
  "RO": 5318,
  "ned": 5319,
  "own": 5320,
  "page": 5321,
  "\u2581600": 5322,
  "\u2581TRANSLATORS": 5323,
  "\u2581Welcome": 5324,
  "\u2581adiante": 5325,
  "\u2581alma": 5326,
  "\u2581cola": 5327,
  "\u2581houbo": 5328,
  "\u2581interval": 5329,
  "\u2581nu": 5330,
  "\u2581plot": 5331,
  "\u2581ratio": 5332,
  "\u2581wonder": 5333,
  "bas": 5334,
  "dida": 5335,
  "imo": 5336,
  "\u2581720": 5337,
  "\u2581Bot\u00f3n": 5338,
  "\u2581Cho": 5339,
  "\u2581Too": 5340,
  "\u2581asociado": 5341,
  "\u2581catch": 5342,
  "\u2581cri": 5343,
  "\u2581executed": 5344,
  "\u2581fixeches": 5345,
  "\u2581f\u00e1brica": 5346,
  "\u2581glad": 5347,
  "\u2581predefinido": 5348,
  "\u2581telling": 5349,
  "\u2581textos": 5350,
  "lv": 5351,
  "mann": 5352,
  "\u2581Bit": 5353,
  "\u2581D\u00ed": 5354,
  "\u2581Ham": 5355,
  "\u2581Highlight": 5356,
  "\u2581Preme": 5357,
  "\u2581ama": 5358,
  "\u2581casar": 5359,
  "\u2581chea": 5360,
  "\u2581crash": 5361,
  "\u2581creation": 5362,
  "\u2581desprazamento": 5363,
  "\u2581entra": 5364,
  "\u2581estabelecer": 5365,
  "\u2581nela": 5366,
  "\u2581noise": 5367,
  "\u2581pensei": 5368,
  "\u2581perde": 5369,
  "\u2581permission": 5370,
  "\u2581quot": 5371,
  "\u2581reminder": 5372,
  "\u2581ver\u00e1n": 5373,
  "\u2581weeks": 5374,
  "\u2581worth": 5375,
  "GPL": 5376,
  "c\u00eda": 5377,
  "get": 5378,
  "unt": 5379,
  "\u25812005": 5380,
  "\u2581Europa": 5381,
  "\u2581Illas": 5382,
  "\u2581Quizais": 5383,
  "\u2581Speed": 5384,
  "\u2581analizar": 5385,
  "\u2581experiencia": 5386,
  "\u2581kiss": 5387,
  "\u2581metadata": 5388,
  "\u2581mostran": 5389,
  "\u2581reco\u00f1ece": 5390,
  "\u2581simples": 5391,
  "\u2581straight": 5392,
  "\u2581stream": 5393,
  "Query": 5394,
  "ain": 5395,
  "cing": 5396,
  "gos": 5397,
  "pol": 5398,
  "\u2581Traduci\u00f3n": 5399,
  "\u2581axeitado": 5400,
  "\u2581dic\u00eda": 5401,
  "\u2581gotta": 5402,
  "\u2581html": 5403,
  "\u2581ladder": 5404,
  "\u2581mam\u00e1": 5405,
  "\u2581m\u00e9dico": 5406,
  "\u2581pertence": 5407,
  "\u2581quiet": 5408,
  "\u2581ref": 5409,
  "\u2581reference": 5410,
  "\u2581seleccionados": 5411,
  "\u2581wide": 5412,
  "\u2581Cabeceira": 5413,
  "\u2581Chave": 5414,
  "\u2581Duraci\u00f3n": 5415,
  "\u2581Facer": 5416,
  "\u2581Mesmo": 5417,
  "\u2581automatic": 5418,
  "\u2581bon": 5419,
  "\u2581construci\u00f3n": 5420,
  "\u2581debuxo": 5421,
  "\u2581design": 5422,
  "\u2581diagramas": 5423,
  "\u2581divisi\u00f3n": 5424,
  "\u2581estivese": 5425,
  "\u2581fixed": 5426,
  "\u2581hole": 5427,
  "\u2581including": 5428,
  "\u2581loading": 5429,
  "\u2581murder": 5430,
  "\u2581pelo": 5431,
  "\u2581route": 5432,
  "5)": 5433,
  "edit": 5434,
  "i\u00f1as": 5435,
  "\u2581Dad": 5436,
  "\u2581Spanish": 5437,
  "\u2581clothes": 5438,
  "\u2581pair": 5439,
  "\u2581repetici\u00f3n": 5440,
  "\u2581reserve": 5441,
  "\u2581resoluci\u00f3n": 5442,
  "\u2581scale": 5443,
  "\u2581so\u00f1o": 5444,
  "\u2581wild": 5445,
  "sec": 5446,
  "\u2581Anterior": 5447,
  "\u2581Boa": 5448,
  "\u2581HotSync": 5449,
  "\u2581KDEPrint": 5450,
  "\u2581ME": 5451,
  "\u2581Model": 5452,
  "\u2581Starting": 5453,
  "\u2581USB": 5454,
  "\u2581matches": 5455,
  "\u2581oficina": 5456,
  "\u2581posto": 5457,
  "\u2581reached": 5458,
  "\u2581sendo": 5459,
  "\u2581sincronizaci\u00f3n": 5460,
  "\u2581statement": 5461,
  "\u2581Falta": 5462,
  "\u2581Found": 5463,
  "\u2581Should": 5464,
  "\u2581diario": 5465,
  "\u2581diferenzas": 5466,
  "\u2581fax": 5467,
  "\u2581mirou": 5468,
  "\u2581percent": 5469,
  "\u2581planeta": 5470,
  "\u2581priority": 5471,
  "\u2581suppose": 5472,
  "\u2581telescope": 5473,
  "\u2581vostedes": 5474,
  "\u2581yeah": 5475,
  "Es": 5476,
  "cional": 5477,
  "forma": 5478,
  "num": 5479,
  "\u2581Box": 5480,
  "\u2581Contact": 5481,
  "\u2581Part": 5482,
  "\u2581antigo": 5483,
  "\u2581bookmark": 5484,
  "\u2581boss": 5485,
  "\u2581desexe": 5486,
  "\u2581diferenza": 5487,
  "\u2581duraci\u00f3n": 5488,
  "\u2581env\u00eda": 5489,
  "\u2581pena": 5490,
  "\u2581properly": 5491,
  "\u2581ring": 5492,
  "\u2581rows": 5493,
  "\u2581sync": 5494,
  "ez": 5495,
  "rad": 5496,
  "vid": 5497,
  "\u00edr": 5498,
  "\u2581Jim": 5499,
  "\u2581LaTeX": 5500,
  "\u2581Sra": 5501,
  "\u2581Tre": 5502,
  "\u2581arte": 5503,
  "\u2581marido": 5504,
  "\u2581ves": 5505,
  "80": 5506,
  "board": 5507,
  "\u00faa": 5508,
  "\u2581Espera": 5509,
  "\u2581Host": 5510,
  "\u2581consulta": 5511,
  "\u2581dinner": 5512,
  "\u2581follas": 5513,
  "\u2581modificaci\u00f3n": 5514,
  "\u2581mortos": 5515,
  "\u2581ocupado": 5516,
  "\u2581quebracabezas": 5517,
  "\u2581querido": 5518,
  "\u2581sector": 5519,
  "\u2581shortcut": 5520,
  "\u2581suave": 5521,
  "\u2581tired": 5522,
  "60": 5523,
  "cess": 5524,
  "code": 5525,
  "d\u00ed": 5526,
  "eza": 5527,
  "ini": 5528,
  "\u2581Element": 5529,
  "\u2581Instalar": 5530,
  "\u2581Kig": 5531,
  "\u2581Kolab": 5532,
  "\u2581Private": 5533,
  "\u2581Skip": 5534,
  "\u2581actuais": 5535,
  "\u2581bitch": 5536,
  "\u2581humanos": 5537,
  "\u2581methods": 5538,
  "\u2581sal": 5539,
  "\u2581turtle": 5540,
  "\u2581utiliza": 5541,
  "Di": 5542,
  "For": 5543,
  "NT": 5544,
  "iana": 5545,
  "isto": 5546,
  "pur": 5547,
  "\u00cd": 5548,
  "\u2581Canle": 5549,
  "\u2581Grid": 5550,
  "\u2581Licenza": 5551,
  "\u2581caf\u00e9": 5552,
  "\u2581figure": 5553,
  "\u2581formatos": 5554,
  "\u2581mozos": 5555,
  "\u2581m\u00e9todos": 5556,
  "\u2581quizais": 5557,
  "\u2581reply": 5558,
  "\u2581soul": 5559,
  "\u2581unidades": 5560,
  "\u2581volva": 5561,
  "La": 5562,
  "nch": 5563,
  "vida": 5564,
  "\u2581(*": 5565,
  "\u2581ACL": 5566,
  "\u2581Automatic": 5567,
  "\u2581D\u00e9ixame": 5568,
  "\u2581Rain": 5569,
  "\u2581carne": 5570,
  "\u2581controls": 5571,
  "\u2581cool": 5572,
  "\u2581d\u00fabida": 5573,
  "\u2581fer": 5574,
  "\u2581han": 5575,
  "\u2581internal": 5576,
  "\u2581lembra": 5577,
  "\u2581province": 5578,
  "\u2581shoot": 5579,
  "\u2581spot": 5580,
  ",000": 5581,
  "FS": 5582,
  "como": 5583,
  "isation": 5584,
  "metro": 5585,
  "\u2581Wizard": 5586,
  "\u2581ball": 5587,
  "\u2581brillo": 5588,
  "\u2581caught": 5589,
  "\u2581peza": 5590,
  "\u2581pra": 5591,
  "\u2581spent": 5592,
  "\u2581stock": 5593,
  "\u2581ya": 5594,
  "Est\u00e1": 5595,
  "real": 5596,
  "\u2581Azul": 5597,
  "\u2581Bus": 5598,
  "\u2581Games": 5599,
  "\u2581Ju": 5600,
  "\u2581Maintainer": 5601,
  "\u2581Punto": 5602,
  "\u2581Row": 5603,
  "\u2581addresses": 5604,
  "\u2581anybody": 5605,
  "\u2581aware": 5606,
  "\u2581categories": 5607,
  "\u2581declaraci\u00f3n": 5608,
  "\u2581interna": 5609,
  "\u2581players": 5610,
  "\u2581ppp": 5611,
  "\u2581relationship": 5612,
  "\u2581release": 5613,
  "\u2581signed": 5614,
  "\u2581triste": 5615,
  "\u2581whenever": 5616,
  "\u2581xuro": 5617,
  "18": 5618,
  "And": 5619,
  "Part": 5620,
  "\u2581Cap": 5621,
  "\u2581Conexi\u00f3n": 5622,
  "\u2581Inter": 5623,
  "\u2581Krita": 5624,
  "\u2581Paper": 5625,
  "\u2581Subir": 5626,
  "\u2581Ubuntu": 5627,
  "\u2581Yo": 5628,
  "\u2581achou": 5629,
  "\u2581ap\u00f3s": 5630,
  "\u2581asentos": 5631,
  "\u2581atallo": 5632,
  "\u2581comunicaci\u00f3n": 5633,
  "\u2581consola": 5634,
  "\u2581continuaci\u00f3n": 5635,
  "\u2581dicionario": 5636,
  "\u2581fale": 5637,
  "\u2581filas": 5638,
  "\u2581propiedade": 5639,
  "\u2581propriedades": 5640,
  "\u2581sur": 5641,
  "era": 5642,
  "\u2581Continue": 5643,
  "\u2581Dar": 5644,
  "\u2581Elemento": 5645,
  "\u2581Palm": 5646,
  "\u2581Sometimes": 5647,
  "\u2581alterar": 5648,
  "\u2581arco": 5649,
  "\u2581cae": 5650,
  "\u2581conditions": 5651,
  "\u2581funny": 5652,
  "\u2581holding": 5653,
  "\u2581interesting": 5654,
  "\u2581mostrar\u00e1": 5655,
  "\u2581notes": 5656,
  "\u2581resolve": 5657,
  "\u2581xard\u00edn": 5658,
  "70": 5659,
  "mul": 5660,
  "nar": 5661,
  "ound": 5662,
  "rew": 5663,
  "vel": 5664,
  "\u2581Bug": 5665,
  "\u2581Etiqueta": 5666,
  "\u2581HE": 5667,
  "\u2581MS": 5668,
  "\u2581Modificar": 5669,
  "\u2581M\u00e9todo": 5670,
  "\u2581escriba": 5671,
  "\u2581licenza": 5672,
  "\u2581parada": 5673,
  "\u2581sheet": 5674,
  "\u2581sociedade": 5675,
  "\u2581somewhere": 5676,
  "\u2581toca": 5677,
  "\u2581translate": 5678,
  "nce": 5679,
  "rta": 5680,
  "\u2581BE": 5681,
  "\u2581Diff": 5682,
  "\u2581Exp": 5683,
  "\u2581Pra": 5684,
  "\u2581Rotate": 5685,
  "\u2581States": 5686,
  "\u2581aspecto": 5687,
  "\u2581bank": 5688,
  "\u2581likely": 5689,
  "\u2581photos": 5690,
  "\u2581substituci\u00f3n": 5691,
  "\u2581therefore": 5692,
  "<": 5693,
  "dici\u00f3n": 5694,
  "hand": 5695,
  "udi": 5696,
  "uso": 5697,
  "\u25812004": 5698,
  "\u2581Colle": 5699,
  "\u2581Device": 5700,
  "\u2581Keyboard": 5701,
  "\u2581algorithm": 5702,
  "\u2581asento": 5703,
  "\u2581calcular": 5704,
  "\u2581circle": 5705,
  "\u2581considera": 5706,
  "\u2581cres": 5707,
  "\u2581entendo": 5708,
  "\u2581esperanza": 5709,
  "\u2581experiment": 5710,
  "\u2581festa": 5711,
  "\u2581launch": 5712,
  "\u2581maildir": 5713,
  "\u2581nor": 5714,
  "\u2581response": 5715,
  "\u2581song": 5716,
  "\u2581tape": 5717,
  "19": 5718,
  "Bo": 5719,
  "col": 5720,
  "head": 5721,
  "\u00fc": 5722,
  "\u2581500": 5723,
  "\u2581Bart": 5724,
  "\u2581Bou": 5725,
  "\u2581SSH": 5726,
  "\u2581Transfer": 5727,
  "\u2581Writing": 5728,
  "\u2581attributes": 5729,
  "\u2581caza": 5730,
  "\u2581contorno": 5731,
  "\u2581funcionalidades": 5732,
  "\u2581headers": 5733,
  "\u2581ice": 5734,
  "\u2581knight": 5735,
  "\u2581piques": 5736,
  "ila": 5737,
  "\u2581Altura": 5738,
  "\u2581Cantidade": 5739,
  "\u2581Carson": 5740,
  "\u2581D\u00eda": 5741,
  "\u2581NOT": 5742,
  "\u2581Romeo": 5743,
  "\u2581Wall": 5744,
  "\u2581carallo": 5745,
  "\u2581developers": 5746,
  "\u2581escape": 5747,
  "\u2581hat": 5748,
  "\u2581llo": 5749,
  "\u2581pain": 5750,
  "\u2581sitting": 5751,
  "iches": 5752,
  "ui": 5753,
  "\u2581CSV": 5754,
  "\u2581Initial": 5755,
  "\u2581Marvel": 5756,
  "\u2581Operation": 5757,
  "\u2581United": 5758,
  "\u2581ac\u00f3": 5759,
  "\u2581battle": 5760,
  "\u2581channels": 5761,
  "\u2581classes": 5762,
  "\u2581debuxa": 5763,
  "\u2581descargar": 5764,
  "\u2581effects": 5765,
  "\u2581fermosa": 5766,
  "\u2581fica": 5767,
  "\u2581generation": 5768,
  "\u2581mai\u00fasculas": 5769,
  "\u2581progreso": 5770,
  "\u2581rapidamente": 5771,
  "\u2581remitente": 5772,
  "\u2581val": 5773,
  "Risas": 5774,
  "click": 5775,
  "game": 5776,
  "ient": 5777,
  "ris": 5778,
  "\u2581Before": 5779,
  "\u2581Certificado": 5780,
  "\u2581Men": 5781,
  "\u2581Mes": 5782,
  "\u2581Moitas": 5783,
  "\u2581Process": 5784,
  "\u2581estat\u00edsticas": 5785,
  "\u2581formas": 5786,
  "\u2581gdb": 5787,
  "\u2581held": 5788,
  "\u2581intento": 5789,
  "\u2581macro": 5790,
  "\u2581num\u00e9rico": 5791,
  "\u2581pasos": 5792,
  "\u2581posibilidade": 5793,
  "\u2581pppd": 5794,
  "\u2581serious": 5795,
  "\u2581shouldn": 5796,
  "\u2581traxe": 5797,
  "\u2581vira": 5798,
  "TER": 5799,
  "cua": 5800,
  "media": 5801,
  "\u00e1molo": 5802,
  "\u2581Ch": 5803,
  "\u2581Colours": 5804,
  "\u2581Sign": 5805,
  "\u2581West": 5806,
  "\u2581axuste": 5807,
  "\u2581detected": 5808,
  "\u2581env\u00ede": 5809,
  "\u2581m\u00e1scara": 5810,
  "\u2581pecha": 5811,
  "\u2581respecto": 5812,
  "\u2581ruta": 5813,
  "\u2581sad": 5814,
  "\u2581separada": 5815,
  "\u2581unique": 5816,
  "\u2581zoom": 5817,
  "\u2581\u00c1frica": 5818,
  "www": 5819,
  "\u2581Activa": 5820,
  "\u2581Creating": 5821,
  "\u2581Estados": 5822,
  "\u2581Input": 5823,
  "\u2581Ku": 5824,
  "\u2581Retirar": 5825,
  "\u2581bin": 5826,
  "\u2581f\u00f3rmula": 5827,
  "\u2581ipsec": 5828,
  "\u2581study": 5829,
  "\u2581supports": 5830,
  "\u2581s\u00edmbolos": 5831,
  "\u2581tampouco": 5832,
  "Ca": 5833,
  "LL": 5834,
  "Time": 5835,
  "cidade": 5836,
  "culo": 5837,
  "oon": 5838,
  "\u2581History": 5839,
  "\u2581True": 5840,
  "\u2581Xestion": 5841,
  "\u2581activado": 5842,
  "\u2581cases": 5843,
  "\u2581doutro": 5844,
  "\u2581ficar": 5845,
  "\u2581gpg": 5846,
  "\u2581historial": 5847,
  "\u2581illa": 5848,
  "\u2581importantes": 5849,
  "\u2581mask": 5850,
  "\u2581reduce": 5851,
  "\u2581updated": 5852,
  "14": 5853,
  "Como": 5854,
  "hose": 5855,
  "uga": 5856,
  "\u2581Ber": 5857,
  "\u2581Father": 5858,
  "\u2581Generic": 5859,
  "\u2581amar": 5860,
  "\u2581batalla": 5861,
  "\u2581correspondente": 5862,
  "\u2581costas": 5863,
  "\u2581eliminaci\u00f3n": 5864,
  "\u2581esforzo": 5865,
  "\u2581espec\u00edfico": 5866,
  "\u2581soportado": 5867,
  "\u2581waste": 5868,
  "load": 5869,
  "\u2581Daniel": 5870,
  "\u2581Fill": 5871,
  "\u2581Fuck": 5872,
  "\u2581KWord": 5873,
  "\u2581News": 5874,
  "\u2581Undo": 5875,
  "\u2581aparencia": 5876,
  "\u2581aptitude": 5877,
  "\u2581asociaci\u00f3n": 5878,
  "\u2581checking": 5879,
  "\u2581laugh": 5880,
  "\u2581listed": 5881,
  "\u2581pas": 5882,
  "\u2581pequenas": 5883,
  "\u2581pe\u00f3n": 5884,
  "\u2581scene": 5885,
  "15": 5886,
  ">,": 5887,
  "miti": 5888,
  "\u258132": 5889,
  "\u2581Aceptar": 5890,
  "\u2581Encrypt": 5891,
  "\u2581Field": 5892,
  "\u2581Low": 5893,
  "\u2581Merge": 5894,
  "\u2581Ned": 5895,
  "\u2581Phone": 5896,
  "\u2581South": 5897,
  "\u2581Vale": 5898,
  "\u2581binary": 5899,
  "\u2581blank": 5900,
  "\u2581complementos": 5901,
  "\u2581coordinates": 5902,
  "\u2581definida": 5903,
  "\u2581diagram": 5904,
  "\u2581filled": 5905,
  "\u2581foco": 5906,
  "\u2581neve": 5907,
  "\u2581opini\u00f3n": 5908,
  "\u2581rotaci\u00f3n": 5909,
  "\u2581sat": 5910,
  "\u2581sota": 5911,
  "dis": 5912,
  "kde": 5913,
  "nsa": 5914,
  "\u2581Busca": 5915,
  "\u2581Europe": 5916,
  "\u2581Folders": 5917,
  "\u2581Mon": 5918,
  "\u2581Random": 5919,
  "\u2581accessibility": 5920,
  "\u2581compa\u00f1\u00eda": 5921,
  "\u2581corte": 5922,
  "\u2581crer": 5923,
  "\u2581decided": 5924,
  "\u2581doutor": 5925,
  "\u2581higher": 5926,
  "\u2581hotel": 5927,
  "\u2581ie": 5928,
  "\u2581imported": 5929,
  "\u2581normais": 5930,
  "\u2581resolution": 5931,
  "\u2581scan": 5932,
  "TS": 5933,
  "eu": 5934,
  "graf\u00eda": 5935,
  "mite": 5936,
  "nada": 5937,
  "server": 5938,
  "\u00edbeis": 5939,
  "\u2581Bah": 5940,
  "\u2581Catro": 5941,
  "\u2581Francia": 5942,
  "\u2581Podemos": 5943,
  "\u2581Quer\u00eda": 5944,
  "\u2581bonito": 5945,
  "\u2581bother": 5946,
  "\u2581bright": 5947,
  "\u2581canci\u00f3n": 5948,
  "\u2581cinta": 5949,
  "\u2581compra": 5950,
  "\u2581doubt": 5951,
  "\u2581exception": 5952,
  "\u2581however": 5953,
  "\u2581materia": 5954,
  "\u2581notice": 5955,
  "\u2581paid": 5956,
  "\u2581perda": 5957,
  "\u2581p\u00f3": 5958,
  "\u2581screenshot": 5959,
  "\u2581sinto": 5960,
  "\u2581stood": 5961,
  "\u2581throw": 5962,
  "\u2581watching": 5963,
  "dado": 5964,
  "lib": 5965,
  "verse": 5966,
  "\u2581Acci\u00f3n": 5967,
  "\u2581BSD": 5968,
  "\u2581Bill": 5969,
  "\u2581Devolve": 5970,
  "\u2581Mentres": 5971,
  "\u2581Park": 5972,
  "\u2581Sudoku": 5973,
  "\u2581applied": 5974,
  "\u2581estexa": 5975,
  "\u2581fixa": 5976,
  "\u2581marry": 5977,
  "\u2581motion": 5978,
  "\u2581pila": 5979,
  "\u2581vento": 5980,
  "bamos": 5981,
  "inal": 5982,
  "ook": 5983,
  "ries": 5984,
  "\u00e1ndoo": 5985,
  "\u00e9monos": 5986,
  "\u00edda": 5987,
  "\u2581Algo": 5988,
  "\u2581Axuste": 5989,
  "\u2581Bel": 5990,
  "\u2581Chama": 5991,
  "\u2581Feed": 5992,
  "\u2581adjust": 5993,
  "\u2581attachments": 5994,
  "\u2581changing": 5995,
  "\u2581cheo": 5996,
  "\u2581comentarios": 5997,
  "\u2581constru\u00edr": 5998,
  "\u2581debug": 5999,
  "\u2581excepci\u00f3n": 6000,
  "\u2581framework": 6001,
  "\u2581greater": 6002,
  "\u2581noticias": 6003,
  "\u2581pawn": 6004,
  "\u2581pieces": 6005,
  "\u2581smb": 6006,
  "\u2581stupid": 6007,
  "\u2581s\u00fapeto": 6008,
  "\u2581temperatura": 6009,
  "\u2581tratar": 6010,
  "\u2581tren": 6011,
  "Man": 6012,
  "bu": 6013,
  "r\u00edan": 6014,
  "scan": 6015,
  "\u2581Also": 6016,
  "\u2581Dark": 6017,
  "\u2581Header": 6018,
  "\u2581Radio": 6019,
  "\u2581abertos": 6020,
  "\u2581aplicativos": 6021,
  "\u2581borra": 6022,
  "\u2581colle": 6023,
  "\u2581desactivado": 6024,
  "\u2581dispon\u00edbeis": 6025,
  "\u2581increase": 6026,
  "\u2581inverno": 6027,
  "\u2581privilexios": 6028,
  "\u2581revisi\u00f3n": 6029,
  "\u2581risk": 6030,
  "\u2581sabemos": 6031,
  "\u2581thanks": 6032,
  "\u2581tocar": 6033,
  "\u2581trigger": 6034,
  "\u2581wind": 6035,
  "bed": 6036,
  "client": 6037,
  "\u258122": 6038,
  "\u2581Dereita": 6039,
  "\u2581Got": 6040,
  "\u2581Inv": 6041,
  "\u2581Login": 6042,
  "\u2581P\u00f3r": 6043,
  "\u2581UN": 6044,
  "\u2581antiga": 6045,
  "\u2581bota": 6046,
  "\u2581elas": 6047,
  "\u2581enjoy": 6048,
  "\u2581gato": 6049,
  "\u2581konqueror": 6050,
  "\u2581labels": 6051,
  "\u2581mont\u00f3n": 6052,
  "\u2581nuclear": 6053,
  "\u2581phrase": 6054,
  "\u2581pinta": 6055,
  "\u2581propios": 6056,
  "\u2581quente": 6057,
  "\u2581receive": 6058,
  "\u2581recente": 6059,
  "\u2581sum": 6060,
  "\u2581thread": 6061,
  "\u2581tira": 6062,
  "3)": 6063,
  "48": 6064,
  "bias": 6065,
  "posici\u00f3n": 6066,
  "terna": 6067,
  "\u25812006": 6068,
  "\u2581Calquera": 6069,
  "\u2581DCC": 6070,
  "\u2581DTD": 6071,
  "\u2581Displays": 6072,
  "\u2581Insir": 6073,
  "\u2581Sort": 6074,
  "\u2581compartici\u00f3n": 6075,
  "\u2581confirmaci\u00f3n": 6076,
  "\u2581dependencias": 6077,
  "\u2581detailed": 6078,
  "\u2581ka": 6079,
  "\u2581pausa": 6080,
  "\u2581publica": 6081,
  "\u2581skin": 6082,
  "\u2581successful": 6083,
  "\u2581tenda": 6084,
  "\u2581thy": 6085,
  "\u2581totalmente": 6086,
  "\u2581workers": 6087,
  "%1": 6088,
  "9660": 6089,
  "itu": 6090,
  "nme": 6091,
  "shi": 6092,
  "su": 6093,
  "\u2581Centro": 6094,
  "\u2581IM": 6095,
  "\u2581Kile": 6096,
  "\u2581Microsoft": 6097,
  "\u2581Mom": 6098,
  "\u2581aparecer": 6099,
  "\u2581dates": 6100,
  "\u2581leve": 6101,
  "\u2581pistas": 6102,
  "\u2581purpose": 6103,
  "\u2581reais": 6104,
  "\u2581temperature": 6105,
  "group": 6106,
  "\u2581Australia": 6107,
  "\u2581Boas": 6108,
  "\u2581Environment": 6109,
  "\u2581GL": 6110,
  "\u2581GPS": 6111,
  "\u2581Principal": 6112,
  "\u2581Tar": 6113,
  "\u2581T\u00e1boa": 6114,
  "\u2581Utilidades": 6115,
  "\u2581camp": 6116,
  "\u2581certainly": 6117,
  "\u2581coloca": 6118,
  "\u2581consulte": 6119,
  "\u2581dance": 6120,
  "\u2581deber\u00edan": 6121,
  "\u2581fotograf\u00eda": 6122,
  "\u2581generated": 6123,
  "\u2581instalada": 6124,
  "\u2581measure": 6125,
  "\u2581mostre": 6126,
  "\u2581parse": 6127,
  "\u2581pesar": 6128,
  "\u2581puidese": 6129,
  "\u2581remain": 6130,
  "\u2581trocar": 6131,
  "\u2581t\u00f3dol": 6132,
  "\u2581verificaci\u00f3n": 6133,
  "\u2581www": 6134,
  "Applause": 6135,
  "Ctrl": 6136,
  "iste": 6137,
  "rr": 6138,
  "\u2581(%2)": 6139,
  "\u2581DA": 6140,
  "\u2581Emp": 6141,
  "\u2581Krusader": 6142,
  "\u2581L\u00edmite": 6143,
  "\u2581Mouse": 6144,
  "\u2581Nos": 6145,
  "\u2581Rabbit": 6146,
  "\u2581Tive": 6147,
  "\u2581Unidos": 6148,
  "\u2581activity": 6149,
  "\u2581armas": 6150,
  "\u2581condici\u00f3n": 6151,
  "\u2581contraste": 6152,
  "\u2581dev": 6153,
  "\u2581formula": 6154,
  "\u2581morre": 6155,
  "\u2581planificaci\u00f3n": 6156,
  "\u2581queue": 6157,
  "\u2581travel": 6158,
  "\u2581usage": 6159,
  "PS": 6160,
  "based": 6161,
  "bul": 6162,
  "point": 6163,
  "select": 6164,
  "\u2581Bandexa": 6165,
  "\u2581Carta": 6166,
  "\u2581Encoding": 6167,
  "\u2581FITS": 6168,
  "\u2581Li\u00f1as": 6169,
  "\u2581Summary": 6170,
  "\u2581Username": 6171,
  "\u2581altera": 6172,
  "\u2581arranque": 6173,
  "\u2581behavior": 6174,
  "\u2581cabezallo": 6175,
  "\u2581comece": 6176,
  "\u2581comod\u00edn": 6177,
  "\u2581filesystem": 6178,
  "\u2581heavy": 6179,
  "\u2581ignored": 6180,
  "\u2581indique": 6181,
  "\u2581introduza": 6182,
  "\u2581offer": 6183,
  "\u2581porcentaxe": 6184,
  "\u2581resources": 6185,
  "\u2581slider": 6186,
  "\u2581spend": 6187,
  "\u2581televisi\u00f3n": 6188,
  "\u2581termos": 6189,
  "===": 6190,
  "deiro": 6191,
  "emen": 6192,
  "iff": 6193,
  "\u2581Brian": 6194,
  "\u2581Comuna": 6195,
  "\u2581Engine": 6196,
  "\u2581Gr\u00e1fico": 6197,
  "\u2581IPSec": 6198,
  "\u2581Index": 6199,
  "\u2581Marce": 6200,
  "\u2581Old": 6201,
  "\u2581Pantalla": 6202,
  "\u2581P\u00f3dense": 6203,
  "\u2581espe": 6204,
  "\u2581esquece": 6205,
  "\u2581familiar": 6206,
  "\u2581frecha": 6207,
  "\u2581highlighted": 6208,
  "\u2581locked": 6209,
  "\u2581modes": 6210,
  "\u2581motivo": 6211,
  "\u2581simulaci\u00f3n": 6212,
  "\u2581sintaxe": 6213,
  "\u2581strings": 6214,
  "\u2581\u00d3": 6215,
  "ists": 6216,
  "nova": 6217,
  "\u2581Benvido": 6218,
  "\u2581Changes": 6219,
  "\u2581Codificaci\u00f3n": 6220,
  "\u2581Controlador": 6221,
  "\u2581Estat\u00edsticas": 6222,
  "\u2581Saving": 6223,
  "\u2581Style": 6224,
  "\u2581Vo": 6225,
  "\u2581anaco": 6226,
  "\u2581boat": 6227,
  "\u2581calls": 6228,
  "\u2581conversi\u00f3n": 6229,
  "\u2581curto": 6230,
  "\u2581debido": 6231,
  "\u2581defecto": 6232,
  "\u2581describe": 6233,
  "\u2581gal": 6234,
  "\u2581giving": 6235,
  "\u2581highlight": 6236,
  "\u2581ignore": 6237,
  "\u2581loan": 6238,
  "\u2581newsgroup": 6239,
  "\u2581privileges": 6240,
  "\u2581reset": 6241,
  "Well": 6242,
  "\u2581Din": 6243,
  "\u2581IT": 6244,
  "\u2581Inclu\u00edr": 6245,
  "\u2581KOffice": 6246,
  "\u2581Marca": 6247,
  "\u2581Ph": 6248,
  "\u2581Xuntar": 6249,
  "\u2581basic": 6250,
  "\u2581cantos": 6251,
  "\u2581complex": 6252,
  "\u2581d\u00edxitos": 6253,
  "\u2581effort": 6254,
  "\u2581enorme": 6255,
  "\u2581especificou": 6256,
  "\u2581graphics": 6257,
  "\u2581ignora": 6258,
  "\u2581inesperado": 6259,
  "\u2581loitar": 6260,
  "\u2581mercar": 6261,
  "\u2581ponte": 6262,
  "\u2581poucos": 6263,
  "\u2581queremos": 6264,
  "\u2581recently": 6265,
  "\u2581xoga": 6266,
  "ranse": 6267,
  "\u2581Borra": 6268,
  "\u2581Campo": 6269,
  "\u2581Filters": 6270,
  "\u2581Personal": 6271,
  "\u2581SMS": 6272,
  "\u2581Split": 6273,
  "\u2581Think": 6274,
  "\u2581Tim": 6275,
  "\u2581UI": 6276,
  "\u2581activada": 6277,
  "\u2581activated": 6278,
  "\u2581addition": 6279,
  "\u2581bases": 6280,
  "\u2581combination": 6281,
  "\u2581debera": 6282,
  "\u2581examinar": 6283,
  "\u2581facemos": 6284,
  "\u2581happening": 6285,
  "\u2581micro": 6286,
  "\u2581movement": 6287,
  "\u2581node": 6288,
  "\u2581n\u00facleo": 6289,
  "\u2581scared": 6290,
  "\u2581sta": 6291,
  "\u2581wear": 6292,
  "char": 6293,
  "\u2581Defin": 6294,
  "\u2581Emprega": 6295,
  "\u2581Gustar\u00edame": 6296,
  "\u2581Motor": 6297,
  "\u2581Subject": 6298,
  "\u2581arrived": 6299,
  "\u2581attention": 6300,
  "\u2581mudanza": 6301,
  "\u2581opcional": 6302,
  "\u2581produto": 6303,
  "\u2581raro": 6304,
  "\u2581represent": 6305,
  "\u2581sair": 6306,
  "\u2581speaking": 6307,
  "\u2581vari\u00e1beis": 6308,
  "\u2581wine": 6309,
  "ates": 6310,
  "iras": 6311,
  "rain": 6312,
  "unha": 6313,
  "v\u00e9": 6314,
  "\u2581Definir": 6315,
  "\u2581Excuse": 6316,
  "\u2581Hard": 6317,
  "\u2581Lou": 6318,
  "\u2581While": 6319,
  "\u2581Xogar": 6320,
  "\u2581adding": 6321,
  "\u2581calor": 6322,
  "\u2581coluna": 6323,
  "\u2581comment": 6324,
  "\u2581consello": 6325,
  "\u2581copias": 6326,
  "\u2581desactivada": 6327,
  "\u2581direct": 6328,
  "\u2581disp\u00f3": 6329,
  "\u2581fermoso": 6330,
  "\u2581haber\u00e1": 6331,
  "\u2581indicou": 6332,
  "\u2581ollar": 6333,
  "\u2581promise": 6334,
  "\u2581rap": 6335,
  "\u2581rect\u00e1ngulo": 6336,
  "\u2581segredo": 6337,
  "\u2581steps": 6338,
  "\u2581trasno": 6339,
  "\u2581ver\u00e1": 6340,
  "ux": 6341,
  "\u2581Completa": 6342,
  "\u2581Dialog": 6343,
  "\u2581Height": 6344,
  "\u2581KWallet": 6345,
  "\u2581Panel": 6346,
  "\u2581Pause": 6347,
  "\u2581Quality": 6348,
  "\u2581Resize": 6349,
  "\u2581Statistics": 6350,
  "\u2581Widget": 6351,
  "\u2581Xogador": 6352,
  "\u2581Year": 6353,
  "\u2581clientes": 6354,
  "\u2581development": 6355,
  "\u2581expresi\u00f3ns": 6356,
  "\u2581flat": 6357,
  "\u2581paxaro": 6358,
  "\u2581planet": 6359,
  "\u2581pop": 6360,
  "\u2581publicaci\u00f3n": 6361,
  "\u2581reprodutor": 6362,
  "\u2581suddenly": 6363,
  "\u2581tarxeta": 6364,
  "\u2581trace": 6365,
  "\u2581wrote": 6366,
  "gin": 6367,
  "z\u00f3n": 6368,
  "\u2581Desenvolvente": 6369,
  "\u2581Forward": 6370,
  "\u2581Generate": 6371,
  "\u2581Konversation": 6372,
  "\u2581Multiple": 6373,
  "\u2581Off": 6374,
  "\u2581Plugins": 6375,
  "\u2581bos": 6376,
  "\u2581bosque": 6377,
  "\u2581botar": 6378,
  "\u2581bus": 6379,
  "\u2581easier": 6380,
  "\u2581fellow": 6381,
  "\u2581fighting": 6382,
  "\u2581jump": 6383,
  "\u2581pedra": 6384,
  "\u2581projects": 6385,
  "\u2581raio": 6386,
  "\u2581shadow": 6387,
  "\u2581simulation": 6388,
  "\u2581sing": 6389,
  "Sync": 6390,
  "dash": 6391,
  "dido": 6392,
  "nio": 6393,
  "pie": 6394,
  "p\u00f3n": 6395,
  "rim": 6396,
  "\u2581Configura": 6397,
  "\u2581Islands": 6398,
  "\u2581MB": 6399,
  "\u2581carry": 6400,
  "\u2581duplo": 6401,
  "\u2581enfermidade": 6402,
  "\u2581incl\u00fae": 6403,
  "\u2581integer": 6404,
  "\u2581learning": 6405,
  "\u2581payment": 6406,
  "\u2581push": 6407,
  "\u2581tiles": 6408,
  "\u2581tirar": 6409,
  "aron": 6410,
  "iga": 6411,
  "qu": 6412,
  "rita": 6413,
  "xente": 6414,
  "\u2581Agochar": 6415,
  "\u2581Algu\u00e9n": 6416,
  "\u2581Applet": 6417,
  "\u2581Arriba": 6418,
  "\u2581Cre": 6419,
  "\u2581Entrada": 6420,
  "\u2581Fine": 6421,
  "\u2581Ge": 6422,
  "\u2581Opci\u00f3n": 6423,
  "\u2581Per\u00edodo": 6424,
  "\u2581Semella": 6425,
  "\u2581aceso": 6426,
  "\u2581avi\u00f3n": 6427,
  "\u2581beb\u00e9": 6428,
  "\u2581especially": 6429,
  "\u2581especificada": 6430,
  "\u2581fre": 6431,
  "\u2581independente": 6432,
  "\u2581lembrar": 6433,
  "\u2581meant": 6434,
  "\u2581mis": 6435,
  "\u2581mostrada": 6436,
  "\u2581notificaci\u00f3n": 6437,
  "\u2581operator": 6438,
  "\u2581parede": 6439,
  "\u2581peer": 6440,
  "\u2581rico": 6441,
  "\u2581separated": 6442,
  "\u2581society": 6443,
  "\u2581superficie": 6444,
  "\u2581upgrade": 6445,
  "\u2581vi\u00f1o": 6446,
  "\u2581\u00bb)": 6447,
  "face": 6448,
  "help": 6449,
  "riamos": 6450,
  "s\u00f3": 6451,
  "\u2581ALSA": 6452,
  "\u2581Ban": 6453,
  "\u2581Commune": 6454,
  "\u2581Filtros": 6455,
  "\u2581Green": 6456,
  "\u2581Hand": 6457,
  "\u2581Joffrey": 6458,
  "\u2581Okular": 6459,
  "\u2581VPN": 6460,
  "\u2581War": 6461,
  "\u2581ademais": 6462,
  "\u2581afternoon": 6463,
  "\u2581artist": 6464,
  "\u2581bear": 6465,
  "\u2581careful": 6466,
  "\u2581cea": 6467,
  "\u2581consist": 6468,
  "\u2581debemos": 6469,
  "\u2581estaci\u00f3n": 6470,
  "\u2581estar\u00eda": 6471,
  "\u2581levou": 6472,
  "\u2581limpar": 6473,
  "\u2581maiores": 6474,
  "\u2581pr\u00e9sa": 6475,
  "\u2581recentes": 6476,
  "\u2581replaced": 6477,
  "\u2581sacar": 6478,
  "\u2581scheduled": 6479,
  "\u2581xml": 6480,
  "All": 6481,
  "CD": 6482,
  "mica": 6483,
  "presi\u00f3n": 6484,
  "zier": 6485,
  "\u2581Debuxa": 6486,
  "\u2581D\u00e1": 6487,
  "\u2581D\u00e9": 6488,
  "\u2581Gran": 6489,
  "\u2581Mad": 6490,
  "\u2581Method": 6491,
  "\u2581Mono": 6492,
  "\u2581Nu": 6493,
  "\u2581Pat": 6494,
  "\u2581Pop": 6495,
  "\u2581Say": 6496,
  "\u2581Sheet": 6497,
  "\u2581Sync": 6498,
  "\u2581Tres": 6499,
  "\u2581alem\u00e1n": 6500,
  "\u2581constant": 6501,
  "\u2581destas": 6502,
  "\u2581d\u00ed": 6503,
  "\u2581fell": 6504,
  "\u2581ill": 6505,
  "\u2581incorrecta": 6506,
  "\u2581learned": 6507,
  "\u2581mirando": 6508,
  "\u2581ourselves": 6509,
  "\u2581playback": 6510,
  "\u2581pracer": 6511,
  "\u2581practice": 6512,
  "\u2581reuni\u00f3n": 6513,
  "Box": 6514,
  "IF": 6515,
  "Yes": 6516,
  "isi\u00f3n": 6517,
  "\u2581Agarde": 6518,
  "\u2581Bran": 6519,
  "\u2581Cami\u00f1o": 6520,
  "\u2581Component": 6521,
  "\u2581Fre": 6522,
  "\u2581MPlayer": 6523,
  "\u2581Mar\u00eda": 6524,
  "\u2581Music": 6525,
  "\u2581advanced": 6526,
  "\u2581carreira": 6527,
  "\u2581desired": 6528,
  "\u2581dixeches": 6529,
  "\u2581franc\u00e9s": 6530,
  "\u2581horse": 6531,
  "\u2581improve": 6532,
  "\u2581mudanzas": 6533,
  "\u2581percentage": 6534,
  "\u2581rename": 6535,
  "\u2581sombra": 6536,
  "\u2581vellos": 6537,
  "\u2581versions": 6538,
  "\u2581warm": 6539,
  "32": 6540,
  "Ben": 6541,
  "LA": 6542,
  "eta": 6543,
  "meter": 6544,
  "rao": 6545,
  "with": 6546,
  "\u2581Entre": 6547,
  "\u2581Japanese": 6548,
  "\u2581Minimum": 6549,
  "\u2581ROM": 6550,
  "\u2581Scan": 6551,
  "\u2581achar": 6552,
  "\u2581agree": 6553,
  "\u2581branch": 6554,
  "\u2581breve": 6555,
  "\u2581debo": 6556,
  "\u2581finally": 6557,
  "\u2581ignorar": 6558,
  "\u2581inicie": 6559,
  "\u2581instancia": 6560,
  "\u2581lembranza": 6561,
  "\u2581mbox": 6562,
  "\u2581men\u00fas": 6563,
  "\u2581mount": 6564,
  "\u2581mp": 6565,
  "\u2581ought": 6566,
  "\u2581processing": 6567,
  "\u2581qu": 6568,
  "\u2581vamos": 6569,
  "cerca": 6570,
  "config": 6571,
  "trans": 6572,
  "vido": 6573,
  "\u2581(*.": 6574,
  "\u2581Debuxar": 6575,
  "\u2581Encryption": 6576,
  "\u2581Entry": 6577,
  "\u2581James": 6578,
  "\u2581Manual": 6579,
  "\u2581Ma\u00f1\u00e1": 6580,
  "\u2581M\u00f3dulo": 6581,
  "\u2581almacenar": 6582,
  "\u2581andar": 6583,
  "\u2581baseada": 6584,
  "\u2581combinaci\u00f3n": 6585,
  "\u2581converte": 6586,
  "\u2581court": 6587,
  "\u2581desexo": 6588,
  "\u2581impossible": 6589,
  "\u2581privado": 6590,
  "\u2581tea": 6591,
  "\u2581templates": 6592,
  "ass": 6593,
  "dan": 6594,
  "ivity": 6595,
  "\u25811,": 6596,
  "\u2581Class": 6597,
  "\u2581Exportaci\u00f3n": 6598,
  "\u2581Island": 6599,
  "\u2581Mount": 6600,
  "\u2581Preguntar": 6601,
  "\u2581Second": 6602,
  "\u2581Square": 6603,
  "\u2581closing": 6604,
  "\u2581credit": 6605,
  "\u2581dereitos": 6606,
  "\u2581espadas": 6607,
  "\u2581estivo": 6608,
  "\u2581extract": 6609,
  "\u2581mat": 6610,
  "\u2581pasada": 6611,
  "\u2581persoais": 6612,
  "\u2581radius": 6613,
  "\u2581t\u00eda": 6614,
  "\u2581verify": 6615,
  "\u2581xunta": 6616,
  "\u2581zone": 6617,
  "NG": 6618,
  "ology": 6619,
  "\u00c1": 6620,
  "\u2581Frame": 6621,
  "\u2581Hab\u00eda": 6622,
  "\u2581JACK": 6623,
  "\u2581London": 6624,
  "\u2581Order": 6625,
  "\u2581Perhaps": 6626,
  "\u2581SVG": 6627,
  "\u2581Supo\u00f1o": 6628,
  "\u2581ambos": 6629,
  "\u2581grava": 6630,
  "\u2581idioma": 6631,
  "\u2581monta\u00f1a": 6632,
  "\u2581observaci\u00f3n": 6633,
  "\u2581recuperar": 6634,
  "\u2581resize": 6635,
  "\u2581sight": 6636,
  "OL": 6637,
  "irc": 6638,
  "lina": 6639,
  "misi\u00f3n": 6640,
  "print": 6641,
  "wee": 6642,
  "\u2581Alarm": 6643,
  "\u2581Camera": 6644,
  "\u2581Espero": 6645,
  "\u2581Frankie": 6646,
  "\u2581Ler": 6647,
  "\u2581Pages": 6648,
  "\u2581Reply": 6649,
  "\u2581Restore": 6650,
  "\u2581Tenta": 6651,
  "\u2581Za": 6652,
  "\u2581app": 6653,
  "\u2581blocks": 6654,
  "\u2581borrado": 6655,
  "\u2581coffee": 6656,
  "\u2581conte": 6657,
  "\u2581descubrir": 6658,
  "\u2581explicar": 6659,
  "\u2581membros": 6660,
  "\u2581neck": 6661,
  "\u2581placed": 6662,
  "\u2581ponto": 6663,
  "\u2581restart": 6664,
  "\u2581saiba": 6665,
  "\u2581suxesti\u00f3n": 6666,
  "\u2581tha": 6667,
  "\u2581ti\u00f1an": 6668,
  "\u2581trip": 6669,
  "\u2581whom": 6670,
  "\u2581\u00faltimos": 6671,
  ".\\": 6672,
  "This": 6673,
  "orn": 6674,
  "xado": 6675,
  "\u2581Basic": 6676,
  "\u2581Contorno": 6677,
  "\u2581Imaxes": 6678,
  "\u2581MD": 6679,
  "\u2581Pensei": 6680,
  "\u2581Store": 6681,
  "\u2581URLs": 6682,
  "\u2581almacenamento": 6683,
  "\u2581almac\u00e9n": 6684,
  "\u2581collect": 6685,
  "\u2581correspond": 6686,
  "\u2581destinatarios": 6687,
  "\u2581dificultade": 6688,
  "\u2581feitos": 6689,
  "\u2581followed": 6690,
  "\u2581mental": 6691,
  "\u2581occur": 6692,
  "\u2581plane": 6693,
  "\u2581poder\u00edan": 6694,
  "\u2581preparado": 6695,
  "\u2581smaller": 6696,
  "\u2581smart": 6697,
  "\u2581str": 6698,
  "\u2581suggest": 6699,
  "\u2581upper": 6700,
  "\u2581v\u00edrgulas": 6701,
  "room": 6702,
  "\u25811...": 6703,
  "\u2581Ano": 6704,
  "\u2581Bad": 6705,
  "\u2581Coido": 6706,
  "\u2581Columns": 6707,
  "\u2581D\u00e1me": 6708,
  "\u2581Ivan": 6709,
  "\u2581Somos": 6710,
  "\u2581Tradutor": 6711,
  "\u2581arrastrar": 6712,
  "\u2581cry": 6713,
  "\u2581detect": 6714,
  "\u2581escritura": 6715,
  "\u2581fagas": 6716,
  "\u2581maintainer": 6717,
  "\u2581mixed": 6718,
  "\u2581movie": 6719,
  "\u2581saben": 6720,
  "\u2581shortcuts": 6721,
  "\u2581slave": 6722,
  "\u2581toggle": 6723,
  "aba": 6724,
  "ably": 6725,
  "ciais": 6726,
  "izo": 6727,
  "ose": 6728,
  "ough": 6729,
  "unto": 6730,
  "\u2581Center": 6731,
  "\u2581DTEP": 6732,
  "\u2581Face": 6733,
  "\u2581Faga": 6734,
  "\u2581Five": 6735,
  "\u2581Glo": 6736,
  "\u2581KAlarm": 6737,
  "\u2581Latin": 6738,
  "\u2581Nesta": 6739,
  "\u2581Pecha": 6740,
  "\u2581activate": 6741,
  "\u2581cari\u00f1o": 6742,
  "\u2581casas": 6743,
  "\u2581escava": 6744,
  "\u2581extraer": 6745,
  "\u2581loss": 6746,
  "\u2581marcado": 6747,
  "\u2581pediu": 6748,
  "\u2581pensas": 6749,
  "\u2581pronto": 6750,
  "\u2581sincronizar": 6751,
  "\u2581torre": 6752,
  "\u2581traballos": 6753,
  "\u2581tracks": 6754,
  "\u2581transacci\u00f3n": 6755,
  "Alt": 6756,
  "Description": 6757,
  "OF": 6758,
  "RR": 6759,
  "abe": 6760,
  "check": 6761,
  "llada": 6762,
  "orde": 6763,
  "\u2581180": 6764,
  "\u2581Appearance": 6765,
  "\u2581Bates": 6766,
  "\u2581Coordinates": 6767,
  "\u2581Drop": 6768,
  "\u2581Fal": 6769,
  "\u2581Geoff": 6770,
  "\u2581Martha": 6771,
  "\u2581Normalmente": 6772,
  "\u2581Primeira": 6773,
  "\u2581aquel": 6774,
  "\u2581bal": 6775,
  "\u2581calling": 6776,
  "\u2581comentario": 6777,
  "\u2581conflito": 6778,
  "\u2581escribe": 6779,
  "\u2581escribiu": 6780,
  "\u2581fusi\u00f3n": 6781,
  "\u2581globais": 6782,
  "\u2581guide": 6783,
  "\u2581instalados": 6784,
  "\u2581interesa": 6785,
  "\u2581intre": 6786,
  "\u2581mestura": 6787,
  "\u2581nickname": 6788,
  "\u2581partido": 6789,
  "\u2581pet": 6790,
  "\u2581querer": 6791,
  "\u2581reasons": 6792,
  "\u2581success": 6793,
  "\u2581surface": 6794,
  "\u2581thousands": 6795,
  "\u2581tor": 6796,
  "\u2581volveu": 6797,
  "\u2581yesterday": 6798,
  "Noun": 6799,
  "arse": 6800,
  "gram": 6801,
  "nular": 6802,
  "place": 6803,
  "uch": 6804,
  "write": 6805,
  "\u2581Aumentar": 6806,
  "\u2581FOV": 6807,
  "\u2581Month": 6808,
  "\u2581Queue": 6809,
  "\u2581Raw": 6810,
  "\u2581Schedule": 6811,
  "\u2581Trasno": 6812,
  "\u2581Tro": 6813,
  "\u2581aceptar": 6814,
  "\u2581b\u00e1sica": 6815,
  "\u2581chair": 6816,
  "\u2581curta": 6817,
  "\u2581esquina": 6818,
  "\u2581failure": 6819,
  "\u2581fool": 6820,
  "\u2581fundamental": 6821,
  "\u2581glass": 6822,
  "\u2581health": 6823,
  "\u2581industria": 6824,
  "\u2581lots": 6825,
  "\u2581mag": 6826,
  "\u2581nature": 6827,
  "\u2581repeat": 6828,
  "\u2581seguros": 6829,
  "\u2581soportada": 6830,
  "\u2581transport": 6831,
  "Cal": 6832,
  "defined": 6833,
  "igo": 6834,
  "lit": 6835,
  "press": 6836,
  "see": 6837,
  "\u2581Alto": 6838,
  "\u2581Apegar": 6839,
  "\u2581Fred": 6840,
  "\u2581Internal": 6841,
  "\u2581Mapa": 6842,
  "\u2581Setting": 6843,
  "\u2581Shut": 6844,
  "\u2581Traballo": 6845,
  "\u2581Utilidade": 6846,
  "\u2581agochar": 6847,
  "\u2581aldea": 6848,
  "\u2581animaci\u00f3n": 6849,
  "\u2581apareza": 6850,
  "\u2581cedo": 6851,
  "\u2581chain": 6852,
  "\u2581compo\u00f1ente": 6853,
  "\u2581definition": 6854,
  "\u2581dobre": 6855,
  "\u2581especialmente": 6856,
  "\u2581formulario": 6857,
  "\u2581included": 6858,
  "\u2581oculta": 6859,
  "\u2581proporci\u00f3ns": 6860,
  "\u2581se\u00f1orita": 6861,
  "\u2581s\u00e9culo": 6862,
  "\u2581vis\u00edbeis": 6863,
  "DA": 6864,
  "auto": 6865,
  "itar": 6866,
  "zi": 6867,
  "\u2581Atopouse": 6868,
  "\u2581Button": 6869,
  "\u2581Cache": 6870,
  "\u2581Disk": 6871,
  "\u2581Jack": 6872,
  "\u2581Tente": 6873,
  "\u2581boas": 6874,
  "\u2581civil": 6875,
  "\u2581digital": 6876,
  "\u2581dispon\u00edbel": 6877,
  "\u2581exercicio": 6878,
  "\u2581fault": 6879,
  "\u2581l\u00edmites": 6880,
  "\u2581merge": 6881,
  "\u2581modos": 6882,
  "\u2581norte": 6883,
  "\u2581ob": 6884,
  "\u2581parva": 6885,
  "\u2581perf\u00eds": 6886,
  "\u2581positive": 6887,
  "\u2581prop\u00f3sito": 6888,
  "\u2581revision": 6889,
  "\u2581soldados": 6890,
  "\u2581sources": 6891,
  "\u2581terceiro": 6892,
  "\u2581utility": 6893,
  "uto": 6894,
  "\u25812\"": 6895,
  "\u2581Baixa": 6896,
  "\u2581Baixo": 6897,
  "\u2581Calculator": 6898,
  "\u2581Charles": 6899,
  "\u2581Mam\u00e1": 6900,
  "\u2581Mother": 6901,
  "\u2581Segundo": 6902,
  "\u2581Sy": 6903,
  "\u2581almacena": 6904,
  "\u2581attached": 6905,
  "\u2581calquer": 6906,
  "\u2581compartir": 6907,
  "\u2581considered": 6908,
  "\u2581corpos": 6909,
  "\u2581empr\u00e9gase": 6910,
  "\u2581fail": 6911,
  "\u2581fraction": 6912,
  "\u2581funcionar": 6913,
  "\u2581imaxinar": 6914,
  "\u2581inicia": 6915,
  "\u2581lanza": 6916,
  "\u2581lesson": 6917,
  "\u2581linear": 6918,
  "\u2581luck": 6919,
  "\u2581negative": 6920,
  "\u2581oficial": 6921,
  "\u2581po\u00f1a": 6922,
  "\u2581prefixo": 6923,
  "\u2581render": 6924,
  "\u2581strength": 6925,
  "=...": 6926,
  "Tag": 6927,
  "Text": 6928,
  "That": 6929,
  "ability": 6930,
  "endido": 6931,
  "leva": 6932,
  "tada": 6933,
  "\u2581Algunhas": 6934,
  "\u2581Cursor": 6935,
  "\u2581Inc": 6936,
  "\u2581Lines": 6937,
  "\u2581NFS": 6938,
  "\u2581Seino": 6939,
  "\u2581Stay": 6940,
  "\u2581Ste": 6941,
  "\u2581ambiente": 6942,
  "\u2581bater\u00eda": 6943,
  "\u2581brazos": 6944,
  "\u2581cabo": 6945,
  "\u2581cadrados": 6946,
  "\u2581calma": 6947,
  "\u2581cargado": 6948,
  "\u2581conflict": 6949,
  "\u2581determina": 6950,
  "\u2581doutra": 6951,
  "\u2581gamma": 6952,
  "\u2581indeed": 6953,
  "\u2581mestre": 6954,
  "\u2581plataforma": 6955,
  "\u2581recoller": 6956,
  "\u2581related": 6957,
  "\u2581risco": 6958,
  "\u2581rotate": 6959,
  "\u2581shares": 6960,
  "\u2581speech": 6961,
  "\u2581statistics": 6962,
  "\u2581tecnolox\u00eda": 6963,
  "But": 6964,
  "En": 6965,
  "alo": 6966,
  "ama": 6967,
  "lay": 6968,
  "\u25811999": 6969,
  "\u2581Backend": 6970,
  "\u2581Folla": 6971,
  "\u2581Graph": 6972,
  "\u2581Limit": 6973,
  "\u2581Star": 6974,
  "\u2581bl": 6975,
  "\u2581blind": 6976,
  "\u2581bread": 6977,
  "\u2581communication": 6978,
  "\u2581dicirlle": 6979,
  "\u2581escena": 6980,
  "\u2581esquecer": 6981,
  "\u2581existentes": 6982,
  "\u2581l\u00faa": 6983,
  "\u2581political": 6984,
  "\u2581pos\u00edbeis": 6985,
  "\u2581refer": 6986,
  "\u2581slowly": 6987,
  "\u2581transporte": 6988,
  "\u2581typing": 6989,
  "\u2581xene": 6990,
  "\u2581xera": 6991,
  "EL": 6992,
  "ft": 6993,
  "izing": 6994,
  "nbsp": 6995,
  "rich": 6996,
  "\u00e8": 6997,
  "\u25811440": 6998,
  "\u2581Actualizaci\u00f3n": 6999,
  "\u2581Bonobo": 7000,
  "\u2581Increase": 7001,
  "\u2581Outros": 7002,
  "\u2581aquela": 7003,
  "\u2581cales": 7004,
  "\u2581depurador": 7005,
  "\u2581deses": 7006,
  "\u2581frase": 7007,
  "\u2581fully": 7008,
  "\u2581hundred": 7009,
  "\u2581languages": 7010,
  "\u2581lateral": 7011,
  "\u2581limited": 7012,
  "\u2581mate": 7013,
  "\u2581ofrece": 7014,
  "\u2581pau": 7015,
  "\u2581plant": 7016,
  "\u2581pointer": 7017,
  "\u2581r\u00edo": 7018,
  "\u2581seguimento": 7019,
  "\u2581trazo": 7020,
  "\u2581xen": 7021,
  "%2": 7022,
  "ew": 7023,
  "exa": 7024,
  "\u2581Block": 7025,
  "\u2581Desprazamento": 7026,
  "\u2581Importa": 7027,
  "\u2581Launch": 7028,
  "\u2581Printing": 7029,
  "\u2581Puzzle": 7030,
  "\u2581SMTP": 7031,
  "\u2581SQL": 7032,
  "\u2581Same": 7033,
  "\u2581administrator": 7034,
  "\u2581agent": 7035,
  "\u2581beber": 7036,
  "\u2581bottle": 7037,
  "\u2581canta": 7038,
  "\u2581contrast": 7039,
  "\u2581estrada": 7040,
  "\u2581excepto": 7041,
  "\u2581layer": 7042,
  "\u2581lying": 7043,
  "\u2581marcas": 7044,
  "\u2581mecanismo": 7045,
  "\u2581r\u00faas": 7046,
  "\u2581salto": 7047,
  "\u2581sa\u00fade": 7048,
  "\u2581secure": 7049,
  "\u2581smooth": 7050,
  "\u2581sword": 7051,
  "\u2581teach": 7052,
  "\u2581union": 7053,
  "\u2581vermella": 7054,
  "\u2581weight": 7055,
  "600": 7056,
  "run": 7057,
  "style": 7058,
  "\u2581Curve": 7059,
  "\u2581Force": 7060,
  "\u2581Gal": 7061,
  "\u2581Miller": 7062,
  "\u2581OCR": 7063,
  "\u2581Queda": 7064,
  "\u2581Something": 7065,
  "\u2581Stock": 7066,
  "\u2581Tellico": 7067,
  "\u2581Uh": 7068,
  "\u2581Unit": 7069,
  "\u2581XSL": 7070,
  "\u2581calendarios": 7071,
  "\u2581cat\u00e1logo": 7072,
  "\u2581confi": 7073,
  "\u2581conte\u00f1en": 7074,
  "\u2581interactive": 7075,
  "\u2581pensaba": 7076,
  "\u2581powerful": 7077,
  "\u2581precisan": 7078,
  "\u2581procesos": 7079,
  "\u2581reiniciar": 7080,
  "\u2581symbols": 7081,
  "\u2581traer": 7082,
  "\u2581winter": 7083,
  "\u2581wo": 7084,
  ",--": 7085,
  "ising": 7086,
  "mais": 7087,
  "mbrello": 7088,
  "olox\u00eda": 7089,
  "path": 7090,
  "\u00bb.": 7091,
  "\u2581400": 7092,
  "\u2581Area": 7093,
  "\u2581Cala": 7094,
  "\u2581Diagram": 7095,
  "\u2581Escribir": 7096,
  "\u2581Picture": 7097,
  "\u2581String": 7098,
  "\u2581THAT": 7099,
  "\u2581arquivos": 7100,
  "\u2581bridge": 7101,
  "\u2581broke": 7102,
  "\u2581cadro": 7103,
  "\u2581delas": 7104,
  "\u2581demand": 7105,
  "\u2581depending": 7106,
  "\u2581discos": 7107,
  "\u2581galla": 7108,
  "\u2581handheld": 7109,
  "\u2581informar": 7110,
  "\u2581inserted": 7111,
  "\u2581kturtle": 7112,
  "\u2581proceed": 7113,
  "\u2581restante": 7114,
  "\u2581seeing": 7115,
  "\u2581storage": 7116,
  "\";": 7117,
  "90": 7118,
  "d\u00edn": 7119,
  "fghanistan": 7120,
  "fina": 7121,
  "how": 7122,
  "qu\u00e9": 7123,
  "unk": 7124,
  "\u258131": 7125,
  "\u2581Bloque": 7126,
  "\u2581B\u00e9": 7127,
  "\u2581Coa": 7128,
  "\u2581David": 7129,
  "\u2581Drag": 7130,
  "\u2581Estrela": 7131,
  "\u2581Geo": 7132,
  "\u2581Giuliano": 7133,
  "\u2581Graphical": 7134,
  "\u2581Je": 7135,
  "\u2581MPEG": 7136,
  "\u2581Power": 7137,
  "\u2581Reading": 7138,
  "\u2581Se\u00f1ora": 7139,
  "\u2581Tommy": 7140,
  "\u2581Verde": 7141,
  "\u2581aparecer\u00e1": 7142,
  "\u2581arms": 7143,
  "\u2581brazo": 7144,
  "\u2581choosing": 7145,
  "\u2581dato": 7146,
  "\u2581dictionary": 7147,
  "\u2581estra\u00f1a": 7148,
  "\u2581faster": 7149,
  "\u2581iCalendar": 7150,
  "\u2581mapas": 7151,
  "\u2581mom": 7152,
  "\u2581morta": 7153,
  "\u2581prison": 7154,
  "\u2581recent": 7155,
  "\u2581tw": 7156,
  "\u2581voltar": 7157,
  "\u2581worried": 7158,
  "\u2581\u00e9poca": 7159,
  "45": 7160,
  "versi\u00f3n": 7161,
  "\u2581'%1'": 7162,
  "\u2581App": 7163,
  "\u2581Cifrar": 7164,
  "\u2581Designer": 7165,
  "\u2581Grace": 7166,
  "\u2581KNode": 7167,
  "\u2581Many": 7168,
  "\u2581Perm\u00edte": 7169,
  "\u2581Playlist": 7170,
  "\u2581Variable": 7171,
  "\u2581Xestionar": 7172,
  "\u2581acochar": 7173,
  "\u2581acto": 7174,
  "\u2581centre": 7175,
  "\u2581conto": 7176,
  "\u2581decisi\u00f3n": 7177,
  "\u2581dump": 7178,
  "\u2581espect\u00e1culo": 7179,
  "\u2581fornecer": 7180,
  "\u2581gardada": 7181,
  "\u2581gentlemen": 7182,
  "\u2581hurry": 7183,
  "\u2581moon": 7184,
  "\u2581moverse": 7185,
  "\u2581nesa": 7186,
  "\u2581preocupes": 7187,
  "\u2581product": 7188,
  "\u2581quedou": 7189,
  "\u2581responder": 7190,
  "\u2581sensor": 7191,
  "\u2581shift": 7192,
  "\u2581sitios": 7193,
  "\u2581solve": 7194,
  "\u2581txt": 7195,
  "\u2581viven": 7196,
  "\u2581\u00c1rea": 7197,
  "ature": 7198,
  "ette": 7199,
  "put": 7200,
  "\u2581Calcular": 7201,
  "\u2581Debug": 7202,
  "\u2581Facebook": 7203,
  "\u2581MM": 7204,
  "\u2581Norte": 7205,
  "\u2581OSD": 7206,
  "\u2581Recent": 7207,
  "\u2581Request": 7208,
  "\u2581Tarefa": 7209,
  "\u2581Thumbnail": 7210,
  "\u2581Xos\u00e9": 7211,
  "\u2581acadar": 7212,
  "\u2581acontecer": 7213,
  "\u2581analysis": 7214,
  "\u2581cifraxe": 7215,
  "\u2581escreber": 7216,
  "\u2581fracci\u00f3n": 7217,
  "\u2581freedom": 7218,
  "\u2581indo": 7219,
  "\u2581joker": 7220,
  "\u2581military": 7221,
  "\u2581movies": 7222,
  "\u2581partidas": 7223,
  "\u2581pat": 7224,
  "\u2581precise": 7225,
  "\u2581prove": 7226,
  "\u2581represents": 7227,
  "17": 7228,
  "DATE": 7229,
  "GL": 7230,
  "MS": 7231,
  "Pero": 7232,
  "Result": 7233,
  "ched": 7234,
  "miso": 7235,
  "ov": 7236,
  "proba": 7237,
  "ua": 7238,
  "xina": 7239,
  "\u2581Artist": 7240,
  "\u2581Estabelece": 7241,
  "\u2581Has": 7242,
  "\u2581Ligaz\u00f3n": 7243,
  "\u2581Night": 7244,
  "\u2581commit": 7245,
  "\u2581estudo": 7246,
  "\u2581feita": 7247,
  "\u2581golpe": 7248,
  "\u2581hei": 7249,
  "\u2581informa": 7250,
  "\u2581moedas": 7251,
  "\u2581m\u00ednima": 7252,
  "\u2581negativo": 7253,
  "\u2581physical": 7254,
  "\u2581pul": 7255,
  "\u2581raz\u00f3ns": 7256,
  "\u2581senta": 7257,
  "\u2581separadores": 7258,
  "\u2581spirit": 7259,
  "\u2581treat": 7260,
  "\u2581twice": 7261,
  "0.000": 7262,
  "95": 7263,
  "eral": 7264,
  "hee": 7265,
  "nn": 7266,
  "\u2581%1...": 7267,
  "\u25811200": 7268,
  "\u25813)": 7269,
  "\u2581Alteza": 7270,
  "\u2581Cartafoles": 7271,
  "\u2581Desco\u00f1ecido": 7272,
  "\u2581Filename": 7273,
  "\u2581Mire": 7274,
  "\u2581Restart": 7275,
  "\u2581Sea": 7276,
  "\u2581Te\u00f1": 7277,
  "\u2581Traballa": 7278,
  "\u2581Verify": 7279,
  "\u2581aconteceu": 7280,
  "\u2581aleatoria": 7281,
  "\u2581aprende": 7282,
  "\u2581atope": 7283,
  "\u2581car\u00f3n": 7284,
  "\u2581crowd": 7285,
  "\u2581dress": 7286,
  "\u2581humana": 7287,
  "\u2581journal": 7288,
  "\u2581m\u00e1quinas": 7289,
  "\u2581nalg\u00fan": 7290,
  "\u2581pendentes": 7291,
  "\u2581platform": 7292,
  "\u2581reducir": 7293,
  "\u2581sharp": 7294,
  "\u2581signing": 7295,
  "\u2581sinxela": 7296,
  "\u2581trusted": 7297,
  "\u2581wake": 7298,
  "ano": 7299,
  "are": 7300,
  "aving": 7301,
  "cept": 7302,
  "pra": 7303,
  "rid": 7304,
  "r\u00edas": 7305,
  "\u2581British": 7306,
  "\u2581Clipboard": 7307,
  "\u2581Durante": 7308,
  "\u2581Er": 7309,
  "\u2581FOR": 7310,
  "\u2581GPG": 7311,
  "\u2581Global": 7312,
  "\u2581Lembra": 7313,
  "\u2581National": 7314,
  "\u2581Reference": 7315,
  "\u2581WE": 7316,
  "\u2581aleatorio": 7317,
  "\u2581ataque": 7318,
  "\u2581console": 7319,
  "\u2581countries": 7320,
  "\u2581desfacer": 7321,
  "\u2581escritorios": 7322,
  "\u2581falando": 7323,
  "\u2581introduce": 7324,
  "\u2581loved": 7325,
  "\u2581mailing": 7326,
  "\u2581negocios": 7327,
  "\u2581neither": 7328,
  "\u2581op": 7329,
  "\u2581parche": 7330,
  "\u2581retirar": 7331,
  "-1": 7332,
  "If": 7333,
  "SPI": 7334,
  "form": 7335,
  "lite": 7336,
  "\u00d3": 7337,
  "\u2581Adiante": 7338,
  "\u2581Artigo": 7339,
  "\u2581Define": 7340,
  "\u2581Expresi\u00f3n": 7341,
  "\u2581Kill": 7342,
  "\u2581Prince": 7343,
  "\u2581Regular": 7344,
  "\u2581Single": 7345,
  "\u2581S\u00ed": 7346,
  "\u2581Tras": 7347,
  "\u2581Uncle": 7348,
  "\u2581ampliaci\u00f3n": 7349,
  "\u2581assigned": 7350,
  "\u2581cen": 7351,
  "\u2581cl\u00e1sico": 7352,
  "\u2581combate": 7353,
  "\u2581consciente": 7354,
  "\u2581consiste": 7355,
  "\u2581cortar": 7356,
  "\u2581dare": 7357,
  "\u2581depends": 7358,
  "\u2581filmes": 7359,
  "\u2581frases": 7360,
  "\u2581listening": 7361,
  "\u2581manda": 7362,
  "\u2581orders": 7363,
  "\u2581pel\u00edcula": 7364,
  "\u2581pipe": 7365,
  "\u2581provoca": 7366,
  "\u2581spoke": 7367,
  "\u2581ssh": 7368,
  "\u2581suitable": 7369,
  "\u2581thousand": 7370,
  "\u2581va": 7371,
  "\u2581vocabulary": 7372,
  "\u2581v\u00eda": 7373,
  "Help": 7374,
  "Key": 7375,
  "TV": 7376,
  "aries": 7377,
  "eime": 7378,
  "lev": 7379,
  "nche": 7380,
  "p\u00e9": 7381,
  "uda": 7382,
  "\u2581150": 7383,
  "\u258121": 7384,
  "\u2581Article": 7385,
  "\u2581Bos": 7386,
  "\u2581Comeza": 7387,
  "\u2581Cover": 7388,
  "\u2581Frank": 7389,
  "\u2581Imp": 7390,
  "\u2581Vermello": 7391,
  "\u2581arcade": 7392,
  "\u2581banco": 7393,
  "\u2581bound": 7394,
  "\u2581chegue": 7395,
  "\u2581construct": 7396,
  "\u2581corrixir": 7397,
  "\u2581dpi": 7398,
  "\u2581fixemos": 7399,
  "\u2581gustar\u00eda": 7400,
  "\u2581igrexa": 7401,
  "\u2581liked": 7402,
  "\u2581locations": 7403,
  "\u2581officer": 7404,
  "\u2581pedi": 7405,
  "\u2581png": 7406,
  "\u2581presentar": 7407,
  "\u2581realiza": 7408,
  "\u2581shop": 7409,
  "\u2581xerado": 7410,
  "EMAIL": 7411,
  "ntido": 7412,
  "ome": 7413,
  "test": 7414,
  "tipo": 7415,
  "\u2581Bob": 7416,
  "\u2581Estive": 7417,
  "\u2581Exemplo": 7418,
  "\u2581Follow": 7419,
  "\u2581Funci\u00f3n": 7420,
  "\u2581KGet": 7421,
  "\u2581Modify": 7422,
  "\u2581Pap\u00e1": 7423,
  "\u2581Pick": 7424,
  "\u2581Ready": 7425,
  "\u2581Short": 7426,
  "\u2581Tecla": 7427,
  "\u2581URI": 7428,
  "\u2581acabar": 7429,
  "\u2581aqueles": 7430,
  "\u2581array": 7431,
  "\u2581coat": 7432,
  "\u2581contextual": 7433,
  "\u2581cookies": 7434,
  "\u2581dada": 7435,
  "\u2581debaixo": 7436,
  "\u2581digits": 7437,
  "\u2581functionality": 7438,
  "\u2581guard": 7439,
  "\u2581meat": 7440,
  "\u2581metros": 7441,
  "\u2581normally": 7442,
  "\u2581obriga": 7443,
  "\u2581operador": 7444,
  "\u2581painting": 7445,
  "\u2581poli": 7446,
  "\u2581preocupa": 7447,
  "\u2581recipe": 7448,
  "\u2581reports": 7449,
  "\u2581rexeita": 7450,
  "\u2581saltar": 7451,
  "\u2581satisfactoria": 7452,
  "\u2581standing": 7453,
  "\u2581stone": 7454,
  "\u2581stranger": 7455,
  "Class": 7456,
  "ML": 7457,
  "ata": 7458,
  "dition": 7459,
  "ongolia": 7460,
  "pping": 7461,
  "raw": 7462,
  "wn": 7463,
  "\u00d7": 7464,
  "\u2581Amount": 7465,
  "\u2581Compo\u00f1ente": 7466,
  "\u2581Cr": 7467,
  "\u2581India": 7468,
  "\u2581Introduction": 7469,
  "\u2581Matar": 7470,
  "\u2581Mi\u00f1a": 7471,
  "\u2581Moon": 7472,
  "\u2581al\u00e1": 7473,
  "\u2581buffer": 7474,
  "\u2581burning": 7475,
  "\u2581complexo": 7476,
  "\u2581configurada": 7477,
  "\u2581dad": 7478,
  "\u2581desactiva": 7479,
  "\u2581gusto": 7480,
  "\u2581lucky": 7481,
  "\u2581market": 7482,
  "\u2581organizaci\u00f3n": 7483,
  "\u2581pechada": 7484,
  "\u2581perfilado": 7485,
  "\u2581recipients": 7486,
  "\u2581recta": 7487,
  "\u2581saia": 7488,
  "\u2581separator": 7489,
  "\u2581servir": 7490,
  "Mail": 7491,
  "nome": 7492,
  "\u2581%2)": 7493,
  "\u2581'%2'": 7494,
  "\u2581Big": 7495,
  "\u2581B\u00e9zier": 7496,
  "\u2581Centre": 7497,
  "\u2581Columna": 7498,
  "\u2581Desculpe": 7499,
  "\u2581Est": 7500,
  "\u2581Examinar": 7501,
  "\u2581Identity": 7502,
  "\u2581Ningunha": 7503,
  "\u2581Opera": 7504,
  "\u2581agocha": 7505,
  "\u2581beira": 7506,
  "\u2581benvida": 7507,
  "\u2581blogue": 7508,
  "\u2581cla": 7509,
  "\u2581empr\u00e9stito": 7510,
  "\u2581ended": 7511,
  "\u2581montaxe": 7512,
  "\u2581natureza": 7513,
  "\u2581obte": 7514,
  "\u2581o\u00eddo": 7515,
  "\u2581pagamento": 7516,
  "\u2581pr\u00edncipe": 7517,
  "\u2581trae": 7518,
  "\u2581umbrell": 7519,
  "\u2581wave": 7520,
  "\u2581xer": 7521,
  "Quen": 7522,
  "eraci\u00f3n": 7523,
  "leta": 7524,
  "matic": 7525,
  "rame": 7526,
  "wood": 7527,
  "\u25811]": 7528,
  "\u258127": 7529,
  "\u2581Diagrama": 7530,
  "\u2581Factor": 7531,
  "\u2581Jean": 7532,
  "\u2581Letter": 7533,
  "\u2581Lonxitude": 7534,
  "\u2581Returns": 7535,
  "\u2581Sc": 7536,
  "\u2581Snow": 7537,
  "\u2581S\u00edmbolo": 7538,
  "\u2581Ves": 7539,
  "\u2581Without": 7540,
  "\u2581answered": 7541,
  "\u2581aplicaci\u00f3ns": 7542,
  "\u2581church": 7543,
  "\u2581conversion": 7544,
  "\u2581criminal": 7545,
  "\u2581c\u00fabica": 7546,
  "\u2581damn": 7547,
  "\u2581educaci\u00f3n": 7548,
  "\u2581honey": 7549,
  "\u2581indicador": 7550,
  "\u2581interior": 7551,
  "\u2581kioslave": 7552,
  "\u2581mi\u00fado": 7553,
  "\u2581parceiro": 7554,
  "\u2581parti": 7555,
  "\u2581patient": 7556,
  "\u2581pa\u00edses": 7557,
  "\u2581pechado": 7558,
  "\u2581recurrence": 7559,
  "\u2581rosa": 7560,
  "\u2581rotation": 7561,
  "\u2581seed": 7562,
  "\u2581seguido": 7563,
  "\u2581smell": 7564,
  "\u2581taxi": 7565,
  "\u2581te\u00f1as": 7566,
  "\u2581vila": 7567,
  "\u2581visto": 7568,
  "\u2581welcome": 7569,
  "\u2581whale": 7570,
  "Aplausos": 7571,
  "Dialog": 7572,
  "llar": 7573,
  "make": 7574,
  "max": 7575,
  "tando": 7576,
  "\u2581CDDB": 7577,
  "\u2581Captain": 7578,
  "\u2581Coma": 7579,
  "\u2581Conectar": 7580,
  "\u2581Contactos": 7581,
  "\u2581Expand": 7582,
  "\u2581Finish": 7583,
  "\u2581GDB": 7584,
  "\u2581Mont\u00f3n": 7585,
  "\u2581Pilot": 7586,
  "\u2581Query": 7587,
  "\u2581Russian": 7588,
  "\u2581Security": 7589,
  "\u2581autoridade": 7590,
  "\u2581belong": 7591,
  "\u2581finalmente": 7592,
  "\u2581identificaci\u00f3n": 7593,
  "\u2581impresoras": 7594,
  "\u2581informes": 7595,
  "\u2581kitchen": 7596,
  "\u2581lento": 7597,
  "\u2581mantenedor": 7598,
  "\u2581members": 7599,
  "\u2581montar": 7600,
  "\u2581north": 7601,
  "\u2581por\u00e9n": 7602,
  "\u2581preferencias": 7603,
  "\u2581prompt": 7604,
  "\u2581proper": 7605,
  "\u2581queiras": 7606,
  "\u2581quitar": 7607,
  "\u2581relativa": 7608,
  "\u2581ride": 7609,
  "\u2581salva": 7610,
  "\u2581streets": 7611,
  "\u2581themes": 7612,
  "\u2581verme": 7613,
  "\u2581voo": 7614,
  "Control": 7615,
  "c\u00f3": 7616,
  "fast": 7617,
  "lthough": 7618,
  "value": 7619,
  "war": 7620,
  "\u2581Activity": 7621,
  "\u2581Altitude": 7622,
  "\u2581Al\u00ed": 7623,
  "\u2581Aparece": 7624,
  "\u2581Calculadora": 7625,
  "\u2581Coidado": 7626,
  "\u2581Gil": 7627,
  "\u2581Licence": 7628,
  "\u2581Mini": 7629,
  "\u2581Outlook": 7630,
  "\u2581P\u00e1xinas": 7631,
  "\u2581Recibiu": 7632,
  "\u2581Servizo": 7633,
  "\u2581Shortcuts": 7634,
  "\u2581Sinto": 7635,
  "\u2581Sky": 7636,
  "\u2581approach": 7637,
  "\u2581apunta": 7638,
  "\u2581arranxar": 7639,
  "\u2581colocar": 7640,
  "\u2581destroy": 7641,
  "\u2581determinado": 7642,
  "\u2581discard": 7643,
  "\u2581heads": 7644,
  "\u2581hero": 7645,
  "\u2581led": 7646,
  "\u2581mant\u00e9n": 7647,
  "\u2581prefer": 7648,
  "\u2581requirido": 7649,
  "\u2581saturaci\u00f3n": 7650,
  "\u2581talked": 7651,
  "\u2581trick": 7652,
  "cle": 7653,
  "free": 7654,
  "lex": 7655,
  "lista": 7656,
  "\u2581Cri": 7657,
  "\u2581Directorio": 7658,
  "\u2581HP": 7659,
  "\u2581KSpread": 7660,
  "\u2581March": 7661,
  "\u2581Merda": 7662,
  "\u2581Saint": 7663,
  "\u2581Visualizaci\u00f3n": 7664,
  "\u2581Walt": 7665,
  "\u2581Xerar": 7666,
  "\u2581brancos": 7667,
  "\u2581despreg\u00e1bel": 7668,
  "\u2581figuras": 7669,
  "\u2581incluso": 7670,
  "\u2581located": 7671,
  "\u2581mellorar": 7672,
  "\u2581m\u00f3dem": 7673,
  "\u2581negros": 7674,
  "\u2581positivo": 7675,
  "\u2581sentado": 7676,
  "\u2581soldiers": 7677,
  "\u2581specifie": 7678,
  "\u2581suxesti\u00f3ns": 7679,
  "\u2581termina": 7680,
  "\u2581trail": 7681,
  "\u2581variables": 7682,
  "\u2581\u00bb?": 7683,
  "Play": 7684,
  "damente": 7685,
  "fen": 7686,
  "llado": 7687,
  "sol": 7688,
  "\u2581Bye": 7689,
  "\u2581Cantos": 7690,
  "\u2581Dime": 7691,
  "\u2581East": 7692,
  "\u2581Etiquetas": 7693,
  "\u2581Jabber": 7694,
  "\u2581Julie": 7695,
  "\u2581Redo": 7696,
  "\u2581Sinatura": 7697,
  "\u2581V\u00eddeo": 7698,
  "\u2581ameaza": 7699,
  "\u2581avanzada": 7700,
  "\u2581axeitada": 7701,
  "\u2581configura": 7702,
  "\u2581depth": 7703,
  "\u2581dicindo": 7704,
  "\u2581domingo": 7705,
  "\u2581hall": 7706,
  "\u2581perfect": 7707,
  "\u2581pesca": 7708,
  "\u2581preferred": 7709,
  "\u2581pretend": 7710,
  "\u2581queima": 7711,
  "\u2581reality": 7712,
  "\u2581river": 7713,
  "\u2581sender": 7714,
  "\u2581taste": 7715,
  "\u2581walking": 7716,
  "\u2581weren": 7717,
  "\u2581woods": 7718,
  "Object": 7719,
  "ache": 7720,
  "dge": 7721,
  "stein": 7722,
  "tidos": 7723,
  "\u258128": 7724,
  "\u258145": 7725,
  "\u2581Asunto": 7726,
  "\u2581Branco": 7727,
  "\u2581Executa": 7728,
  "\u2581Indian": 7729,
  "\u2581KVpnc": 7730,
  "\u2581NT": 7731,
  "\u2581Pos": 7732,
  "\u2581Wikipedia": 7733,
  "\u2581abril": 7734,
  "\u2581b\u00f3las": 7735,
  "\u2581cifrada": 7736,
  "\u2581connosco": 7737,
  "\u2581curso": 7738,
  "\u2581dangerous": 7739,
  "\u2581digas": 7740,
  "\u2581equipa": 7741,
  "\u2581grand": 7742,
  "\u2581hang": 7743,
  "\u2581honra": 7744,
  "\u2581identify": 7745,
  "\u2581lava": 7746,
  "\u2581lea": 7747,
  "\u2581meter": 7748,
  "\u2581nen": 7749,
  "\u2581profundidade": 7750,
  "\u2581relaci\u00f3ns": 7751,
  "\u2581requests": 7752,
  "\u2581resulta": 7753,
  "\u2581roman": 7754,
  "\u2581saca": 7755,
  "\u2581shared": 7756,
  "\u2581threads": 7757,
  "\u2581tola": 7758,
  "\u2581trial": 7759,
  "AM": 7760,
  "Image": 7761,
  "ectivo": 7762,
  "eep": 7763,
  "over": 7764,
  "pass": 7765,
  "\u258170": 7766,
  "\u2581Adding": 7767,
  "\u2581Cat": 7768,
  "\u2581Character": 7769,
  "\u2581Chart": 7770,
  "\u2581Enables": 7771,
  "\u2581Form": 7772,
  "\u2581Londres": 7773,
  "\u2581Proxy": 7774,
  "\u2581beyond": 7775,
  "\u2581bought": 7776,
  "\u2581core": 7777,
  "\u2581cubo": 7778,
  "\u2581engade": 7779,
  "\u2581flow": 7780,
  "\u2581foreign": 7781,
  "\u2581fosen": 7782,
  "\u2581gui": 7783,
  "\u2581island": 7784,
  "\u2581larger": 7785,
  "\u2581ocasi\u00f3n": 7786,
  "\u2581poidan": 7787,
  "\u2581precisi\u00f3n": 7788,
  "\u2581recipient": 7789,
  "\u2581remaining": 7790,
  "\u2581remotos": 7791,
  "\u2581seek": 7792,
  "\u2581swear": 7793,
  "\u2581toque": 7794,
  "\u2581t\u00f3dal": 7795,
  "\u2581vestido": 7796,
  "\u2581wr": 7797,
  "0,000": 7798,
  "Esta": 7799,
  "WM": 7800,
  "iti": 7801,
  "itude": 7802,
  "nny": 7803,
  "thing": 7804,
  "tim": 7805,
  "\u00ad": 7806,
  "\u00e1selle": 7807,
  "\u2581Calvo": 7808,
  "\u2581Colecci\u00f3n": 7809,
  "\u2581Contido": 7810,
  "\u2581Head": 7811,
  "\u2581Informe": 7812,
  "\u2581Isn": 7813,
  "\u2581Pista": 7814,
  "\u2581Ra\u00ed\u00f1a": 7815,
  "\u2581Removing": 7816,
  "\u2581Repeat": 7817,
  "\u2581Resolve": 7818,
  "\u2581Running": 7819,
  "\u2581Selecciona": 7820,
  "\u2581Sit": 7821,
  "\u2581Solar": 7822,
  "\u2581Sunday": 7823,
  "\u2581ba\u00f1o": 7824,
  "\u2581ch\u00e1mase": 7825,
  "\u2581circular": 7826,
  "\u2581demo": 7827,
  "\u2581desaparecer": 7828,
  "\u2581dir\u00eda": 7829,
  "\u2581division": 7830,
  "\u2581dollars": 7831,
  "\u2581emprego": 7832,
  "\u2581floppy": 7833,
  "\u2581impreso": 7834,
  "\u2581intenta": 7835,
  "\u2581kb": 7836,
  "\u2581knock": 7837,
  "\u2581leste": 7838,
  "\u2581mounted": 7839,
  "\u2581performance": 7840,
  "\u2581peso": 7841,
  "\u2581predefinida": 7842,
  "\u2581presenta": 7843,
  "\u2581representaci\u00f3n": 7844,
  "\u2581solicitude": 7845,
  "\u2581spam": 7846,
  "\u2581\u00daltima": 7847,
  "\u2581\u00e1rbores": 7848,
  "Select": 7849,
  "c\u00edn": 7850,
  "open": 7851,
  "pan": 7852,
  "\u2581Anyway": 7853,
  "\u2581Central": 7854,
  "\u2581Escritorio": 7855,
  "\u2581Foundation": 7856,
  "\u2581Grella": 7857,
  "\u2581Jump": 7858,
  "\u2581Raio": 7859,
  "\u2581Region": 7860,
  "\u2581Sab\u00eda": 7861,
  "\u2581Steve": 7862,
  "\u2581Unread": 7863,
  "\u2581V\u00e9n": 7864,
  "\u2581accent": 7865,
  "\u2581actividades": 7866,
  "\u2581billion": 7867,
  "\u2581calculation": 7868,
  "\u2581canvas": 7869,
  "\u2581controller": 7870,
  "\u2581c\u00e1": 7871,
  "\u2581differences": 7872,
  "\u2581disease": 7873,
  "\u2581dropped": 7874,
  "\u2581edu": 7875,
  "\u2581factory": 7876,
  "\u2581iguais": 7877,
  "\u2581lenta": 7878,
  "\u2581limpa": 7879,
  "\u2581mol\u00e9cula": 7880,
  "\u2581nodo": 7881,
  "\u2581obtain": 7882,
  "\u2581pelexa": 7883,
  "\u2581pensamento": 7884,
  "\u2581perdido": 7885,
  "\u2581pol\u00edgono": 7886,
  "\u2581selector": 7887,
  "\u2581trees": 7888,
  "\u2581walked": 7889,
  "\u2581weak": 7890,
  "\u00e1base": 7891,
  "\u2581Ab": 7892,
  "\u2581DOS": 7893,
  "\u2581FAQ": 7894,
  "\u2581Fran": 7895,
  "\u2581Kipi": 7896,
  "\u2581Nobody": 7897,
  "\u2581Poder\u00e1": 7898,
  "\u2581UTF": 7899,
  "\u2581actualizaci\u00f3ns": 7900,
  "\u2581antigos": 7901,
  "\u2581atoparon": 7902,
  "\u2581bodies": 7903,
  "\u2581breath": 7904,
  "\u2581caixas": 7905,
  "\u2581cativos": 7906,
  "\u2581decision": 7907,
  "\u2581dir": 7908,
  "\u2581heat": 7909,
  "\u2581irm\u00e1ns": 7910,
  "\u2581leg": 7911,
  "\u2581limpeza": 7912,
  "\u2581menus": 7913,
  "\u2581nearly": 7914,
  "\u2581occurrence": 7915,
  "\u2581pestana": 7916,
  "\u2581pig": 7917,
  "\u2581possibly": 7918,
  "\u2581prop": 7919,
  "\u2581protexer": 7920,
  "\u2581rsync": 7921,
  "\u2581t\u00edtulos": 7922,
  "anos": 7923,
  "esta": 7924,
  "iving": 7925,
  "ware": 7926,
  "yahoo": 7927,
  "\u00e1ronme": 7928,
  "\u2581Backup": 7929,
  "\u2581Busy": 7930,
  "\u2581CCD": 7931,
  "\u2581Caracteres": 7932,
  "\u2581Cas": 7933,
  "\u2581Dialogue": 7934,
  "\u2581Documento": 7935,
  "\u2581Dollar": 7936,
  "\u2581Estabelecer": 7937,
  "\u2581Items": 7938,
  "\u2581KiB": 7939,
  "\u2581Marcadores": 7940,
  "\u2581Nick": 7941,
  "\u2581Question": 7942,
  "\u2581Reducir": 7943,
  "\u2581Robots": 7944,
  "\u2581anywhere": 7945,
  "\u2581arc": 7946,
  "\u2581average": 7947,
  "\u2581caption": 7948,
  "\u2581compatibilidade": 7949,
  "\u2581componente": 7950,
  "\u2581co\u00f1ecido": 7951,
  "\u2581darling": 7952,
  "\u2581dia": 7953,
  "\u2581enviou": 7954,
  "\u2581experimenta": 7955,
  "\u2581facilmente": 7956,
  "\u2581hostname": 7957,
  "\u2581huge": 7958,
  "\u2581investimento": 7959,
  "\u2581labor": 7960,
  "\u2581pergunta": 7961,
  "\u2581portas": 7962,
  "\u2581previously": 7963,
  "\u2581publicar": 7964,
  "\u2581realzado": 7965,
  "\u2581south": 7966,
  "\u2581steal": 7967,
  "\u2581vidas": 7968,
  "\u2581website": 7969,
  "31": 7970,
  "Ver": 7971,
  "rais": 7972,
  "r\u00edame": 7973,
  "\u25811000": 7974,
  "\u2581Art": 7975,
  "\u2581Buscar": 7976,
  "\u2581GO": 7977,
  "\u2581Hour": 7978,
  "\u2581IDE": 7979,
  "\u2581Intervalo": 7980,
  "\u2581KS": 7981,
  "\u2581Ke": 7982,
  "\u2581Mike": 7983,
  "\u2581Posibilidade": 7984,
  "\u2581Score": 7985,
  "\u2581Scroll": 7986,
  "\u2581Te\u00f1a": 7987,
  "\u2581becomes": 7988,
  "\u2581cap\u00edtulo": 7989,
  "\u2581claim": 7990,
  "\u2581compa\u00f1eiro": 7991,
  "\u2581elecci\u00f3n": 7992,
  "\u2581empeza": 7993,
  "\u2581enfermo": 7994,
  "\u2581escollendo": 7995,
  "\u2581esperando": 7996,
  "\u2581filtering": 7997,
  "\u2581kick": 7998,
  "\u2581maintain": 7999,
  "\u2581oeste": 8000,
  "\u2581recomenda": 8001,
  "\u2581seren": 8002,
  "\u2581sessions": 8003,
  "\u2581stage": 8004,
  "\u2581turns": 8005,
  "Config": 8006,
  "IX": 8007,
  "ai": 8008,
  "mini": 8009,
  "start": 8010,
  "\u2581Autenticaci\u00f3n": 8011,
  "\u2581Chance": 8012,
  "\u2581Coordenadas": 8013,
  "\u2581Cres": 8014,
  "\u2581Dille": 8015,
  "\u2581KIO": 8016,
  "\u2581Notificaci\u00f3n": 8017,
  "\u2581Presentaci\u00f3n": 8018,
  "\u2581Rosa": 8019,
  "\u2581Shape": 8020,
  "\u2581Signature": 8021,
  "\u2581Tags": 8022,
  "\u2581Trocar": 8023,
  "\u2581baralla": 8024,
  "\u2581bird": 8025,
  "\u2581calm": 8026,
  "\u2581cami\u00f1a": 8027,
  "\u2581club": 8028,
  "\u2581complemento": 8029,
  "\u2581dimensi\u00f3ns": 8030,
  "\u2581embedded": 8031,
  "\u2581enteira": 8032,
  "\u2581espada": 8033,
  "\u2581fat": 8034,
  "\u2581fatal": 8035,
  "\u2581f\u00edsica": 8036,
  "\u2581ir\u00e1": 8037,
  "\u2581kword": 8038,
  "\u2581lados": 8039,
  "\u2581lembro": 8040,
  "\u2581lies": 8041,
  "\u2581necesaria": 8042,
  "\u2581ocupar": 8043,
  "\u2581optional": 8044,
  "\u2581pray": 8045,
  "\u2581probabelmente": 8046,
  "\u2581published": 8047,
  "\u2581realize": 8048,
  "\u2581respondeu": 8049,
  "\u2581retrieve": 8050,
  "\u2581rolda": 8051,
  "\u2581scroll": 8052,
  "\u2581suspend": 8053,
  "\u2581unexpected": 8054,
  "\u2581verifique": 8055,
  "Onde": 8056,
  "activ": 8057,
  "conf": 8058,
  "feito": 8059,
  "ificar": 8060,
  "int": 8061,
  "west": 8062,
  "\u2581Circle": 8063,
  "\u2581Colors": 8064,
  "\u2581Conversion": 8065,
  "\u2581Fillo": 8066,
  "\u2581Fox": 8067,
  "\u2581Gen": 8068,
  "\u2581Hollywood": 8069,
  "\u2581Ingl\u00e9s": 8070,
  "\u2581JavaScript": 8071,
  "\u2581Lingua": 8072,
  "\u2581Novas": 8073,
  "\u2581QIF": 8074,
  "\u2581Rec": 8075,
  "\u2581Storage": 8076,
  "\u2581Sur": 8077,
  "\u2581Thor": 8078,
  "\u2581Ton": 8079,
  "\u2581Translation": 8080,
  "\u2581Waiting": 8081,
  "\u2581alternativa": 8082,
  "\u2581apartamento": 8083,
  "\u2581apps": 8084,
  "\u2581areas": 8085,
  "\u2581bigger": 8086,
  "\u2581caeu": 8087,
  "\u2581copyright": 8088,
  "\u2581co\u00f1ezo": 8089,
  "\u2581cruza": 8090,
  "\u2581currency": 8091,
  "\u2581desgraza": 8092,
  "\u2581dispo\u00f1ible": 8093,
  "\u2581ends": 8094,
  "\u2581estimate": 8095,
  "\u2581exame": 8096,
  "\u2581exercise": 8097,
  "\u2581extensions": 8098,
  "\u2581fogar": 8099,
  "\u2581habitaci\u00f3n": 8100,
  "\u2581investigaci\u00f3n": 8101,
  "\u2581official": 8102,
  "\u2581pares": 8103,
  "\u2581pensando": 8104,
  "\u2581pleasure": 8105,
  "\u2581pobres": 8106,
  "\u2581sample": 8107,
  "\u2581signo": 8108,
  "\u2581stories": 8109,
  "\u2581wa": 8110,
  "\u2581xeogr\u00e1fica": 8111,
  "\u2581xu\u00edzo": 8112,
  "How": 8113,
  "TRANSLATORS": 8114,
  "Type": 8115,
  "ius": 8116,
  "jan": 8117,
  "redes": 8118,
  "\u00f3nico": 8119,
  "\u2581Adjust": 8120,
  "\u2581Arch": 8121,
  "\u2581Consola": 8122,
  "\u2581Escoite": 8123,
  "\u2581Ok": 8124,
  "\u2581Online": 8125,
  "\u2581Recurso": 8126,
  "\u2581Share": 8127,
  "\u2581Var": 8128,
  "\u2581World": 8129,
  "\u2581bag": 8130,
  "\u2581derradeiro": 8131,
  "\u2581education": 8132,
  "\u2581flags": 8133,
  "\u2581honest": 8134,
  "\u2581linguas": 8135,
  "\u2581marche": 8136,
  "\u2581newsgroups": 8137,
  "\u2581oil": 8138,
  "\u2581opinion": 8139,
  "\u2581pensou": 8140,
  "\u2581pol": 8141,
  "\u2581propietario": 8142,
  "\u2581scientific": 8143,
  "\u2581sentence": 8144,
  "\u2581series": 8145,
  "\u2581v\u00e1lidos": 8146,
  "\u2581xira": 8147,
  "\u2581\u00e1reas": 8148,
  "connect": 8149,
  "inda": 8150,
  "ivio": 8151,
  "mita": 8152,
  "\u2581Calidade": 8153,
  "\u2581Chega": 8154,
  "\u2581Columnas": 8155,
  "\u2581Disposici\u00f3n": 8156,
  "\u2581Downloading": 8157,
  "\u2581Duplicate": 8158,
  "\u2581Hurry": 8159,
  "\u2581Identidade": 8160,
  "\u2581License": 8161,
  "\u2581Obxecto": 8162,
  "\u2581Points": 8163,
  "\u2581Speak": 8164,
  "\u2581TeX": 8165,
  "\u2581arrastra": 8166,
  "\u2581bacteria": 8167,
  "\u2581decidir": 8168,
  "\u2581deliver": 8169,
  "\u2581downloading": 8170,
  "\u2581dying": 8171,
  "\u2581er": 8172,
  "\u2581esqueza": 8173,
  "\u2581estiven": 8174,
  "\u2581gain": 8175,
  "\u2581gr": 8176,
  "\u2581gu\u00eda": 8177,
  "\u2581kformula": 8178,
  "\u2581legal": 8179,
  "\u2581lovely": 8180,
  "\u2581mercado": 8181,
  "\u2581minimum": 8182,
  "\u2581muro": 8183,
  "\u2581nega": 8184,
  "\u2581observa": 8185,
  "\u2581passphrase": 8186,
  "\u2581performed": 8187,
  "\u2581pide": 8188,
  "\u2581presta": 8189,
  "\u2581primario": 8190,
  "\u2581recording": 8191,
  "\u2581rectangle": 8192,
  "\u2581saturation": 8193,
  "\u2581soft": 8194,
  "\u2581spell": 8195,
  "\u2581spread": 8196,
  "\u2581tente": 8197,
  "\u2581truck": 8198,
  "\u2581verte": 8199,
  "\u2581xerais": 8200,
  "IST": 8201,
  "bles": 8202,
  "change": 8203,
  "most": 8204,
  "sha": 8205,
  "\u2581Acceso": 8206,
  "\u2581Asinar": 8207,
  "\u2581Attachment": 8208,
  "\u2581Cid": 8209,
  "\u2581Computer": 8210,
  "\u2581Correcci\u00f3n": 8211,
  "\u2581Dixen": 8212,
  "\u2581ICC": 8213,
  "\u2581IPython": 8214,
  "\u2581Leo": 8215,
  "\u2581Mine": 8216,
  "\u2581Muda": 8217,
  "\u2581Paint": 8218,
  "\u2581Policy": 8219,
  "\u2581Rate": 8220,
  "\u2581Shell": 8221,
  "\u2581alimenta": 8222,
  "\u2581brightness": 8223,
  "\u2581cabaleiro": 8224,
  "\u2581cancer": 8225,
  "\u2581certa": 8226,
  "\u2581chamou": 8227,
  "\u2581conflitos": 8228,
  "\u2581cr\u00eda": 8229,
  "\u2581c\u00e1maras": 8230,
  "\u2581dabondo": 8231,
  "\u2581drug": 8232,
  "\u2581earlier": 8233,
  "\u2581farei": 8234,
  "\u2581figura": 8235,
  "\u2581gar": 8236,
  "\u2581hasn": 8237,
  "\u2581historias": 8238,
  "\u2581identifier": 8239,
  "\u2581leaves": 8240,
  "\u2581lenda": 8241,
  "\u2581marabilloso": 8242,
  "\u2581nnn": 8243,
  "\u2581planetas": 8244,
  "\u2581prepare": 8245,
  "\u2581rapazas": 8246,
  "\u2581sido": 8247,
  "\u2581simb\u00f3licas": 8248,
  "\u2581television": 8249,
  "\u2581thus": 8250,
  "\u2581viva": 8251,
  "500": 8252,
  "HTML": 8253,
  "ancia": 8254,
  "cate": 8255,
  "dict": 8256,
  "mate": 8257,
  "tive": 8258,
  "\u2581%1)": 8259,
  "\u2581Activate": 8260,
  "\u2581Bring": 8261,
  "\u2581Carsten": 8262,
  "\u2581Cinco": 8263,
  "\u2581G\u00fastame": 8264,
  "\u2581NON": 8265,
  "\u2581Santa": 8266,
  "\u2581Xirar": 8267,
  "\u2581anteriores": 8268,
  "\u2581apartment": 8269,
  "\u2581bandeira": 8270,
  "\u2581bell": 8271,
  "\u2581bro": 8272,
  "\u2581chat": 8273,
  "\u2581contin\u00faa": 8274,
  "\u2581correr": 8275,
  "\u2581cria": 8276,
  "\u2581divertido": 8277,
  "\u2581espi": 8278,
  "\u2581interactivo": 8279,
  "\u2581judge": 8280,
  "\u2581kernel": 8281,
  "\u2581member": 8282,
  "\u2581perigoso": 8283,
  "\u2581remind": 8284,
  "\u2581repetir": 8285,
  "\u2581salvar": 8286,
  "\u2581strike": 8287,
  "\u2581terror": 8288,
  "\u2581trap": 8289,
  "\u2581vinte": 8290,
  "72": 8291,
  "My": 8292,
  "Why": 8293,
  "ically": 8294,
  "that": 8295,
  "\u00da": 8296,
  "\u2581Cancelou": 8297,
  "\u2581Events": 8298,
  "\u2581Expression": 8299,
  "\u2581Fer": 8300,
  "\u2581Mal": 8301,
  "\u2581Merc": 8302,
  "\u2581Mil": 8303,
  "\u2581PATH": 8304,
  "\u2581Pregunta": 8305,
  "\u2581Robin": 8306,
  "\u2581Ser\u00eda": 8307,
  "\u2581Week": 8308,
  "\u2581Wilson": 8309,
  "\u2581Winnipeg": 8310,
  "\u2581canso": 8311,
  "\u2581crece": 8312,
  "\u2581cultura": 8313,
  "\u2581debugger": 8314,
  "\u2581deus": 8315,
  "\u2581eliminado": 8316,
  "\u2581existen": 8317,
  "\u2581experimento": 8318,
  "\u2581filtrar": 8319,
  "\u2581forzas": 8320,
  "\u2581harm": 8321,
  "\u2581inclu\u00edr": 8322,
  "\u2581interactiva": 8323,
  "\u2581kcm": 8324,
  "\u2581killing": 8325,
  "\u2581levan": 8326,
  "\u2581limitado": 8327,
  "\u2581math": 8328,
  "\u2581notification": 8329,
  "\u2581obra": 8330,
  "\u2581paleta": 8331,
  "\u2581profesor": 8332,
  "\u2581summer": 8333,
  "\u2581traffic": 8334,
  "\u2581universal": 8335,
  "\u2581ve\u00f1en": 8336,
  "-2": 8337,
  "hum": 8338,
  "i\u00f1os": 8339,
  "v\u00f3": 8340,
  "wan": 8341,
  "\u00edu": 8342,
  "\u2581Accept": 8343,
  "\u2581Angle": 8344,
  "\u2581Applications": 8345,
  "\u2581Arrow": 8346,
  "\u2581Border": 8347,
  "\u2581Calculate": 8348,
  "\u2581Especifica": 8349,
  "\u2581Finished": 8350,
  "\u2581Gtk": 8351,
  "\u2581Impresi\u00f3n": 8352,
  "\u2581Kommander": 8353,
  "\u2581Mantenedor": 8354,
  "\u2581Paso": 8355,
  "\u2581Progress": 8356,
  "\u2581Rule": 8357,
  "\u2581Sara": 8358,
  "\u2581Tal": 8359,
  "\u2581Ter\u00e1": 8360,
  "\u2581Toda": 8361,
  "\u2581VI": 8362,
  "\u2581Verificar": 8363,
  "\u2581cerca": 8364,
  "\u2581conseguiu": 8365,
  "\u2581correction": 8366,
  "\u2581dispara": 8367,
  "\u2581dr": 8368,
  "\u2581edite": 8369,
  "\u2581estades": 8370,
  "\u2581executarse": 8371,
  "\u2581ferido": 8372,
  "\u2581heaven": 8373,
  "\u2581indicates": 8374,
  "\u2581l\u00f3xico": 8375,
  "\u2581mh": 8376,
  "\u2581notificaci\u00f3ns": 8377,
  "\u2581perigo": 8378,
  "\u2581population": 8379,
  "\u2581rise": 8380,
  "\u2581separados": 8381,
  "\u2581tarda": 8382,
  "\u2581tone": 8383,
  "\u2581xirar": 8384,
  "\u2581xuntar": 8385,
  "\u2581zip": 8386,
  "\u2581\u00c1lbum": 8387,
  "56": 8388,
  "CK": 8389,
  "LET": 8390,
  "OO": 8391,
  "ani": 8392,
  "fully": 8393,
  "lgeria": 8394,
  "menu": 8395,
  "rin": 8396,
  "tia": 8397,
  "ties": 8398,
  "\u00e1bame": 8399,
  "\u2581Arabic": 8400,
  "\u2581Categor\u00eda": 8401,
  "\u2581Decrease": 8402,
  "\u2581MAN": 8403,
  "\u2581Memoria": 8404,
  "\u2581Property": 8405,
  "\u2581Referencia": 8406,
  "\u2581Six": 8407,
  "\u2581TIFF": 8408,
  "\u2581Xerador": 8409,
  "\u2581borrador": 8410,
  "\u2581brothers": 8411,
  "\u2581cadrado": 8412,
  "\u2581composer": 8413,
  "\u2581comprobe": 8414,
  "\u2581connecting": 8415,
  "\u2581defaults": 8416,
  "\u2581duty": 8417,
  "\u2581flores": 8418,
  "\u2581fuckin": 8419,
  "\u2581mentira": 8420,
  "\u2581mess": 8421,
  "\u2581niso": 8422,
  "\u2581opera": 8423,
  "\u2581pescozo": 8424,
  "\u2581polgada": 8425,
  "\u2581preferences": 8426,
  "\u2581programaci\u00f3n": 8427,
  "\u2581proud": 8428,
  "\u2581segmento": 8429,
  "\u2581thumbnail": 8430,
  "\u2581vender": 8431,
  "\u2581wash": 8432,
  "\u2581xestiona": 8433,
  "User": 8434,
  "^2": 8435,
  "case": 8436,
  "human": 8437,
  "ificaci\u00f3n": 8438,
  "m\u00e1is": 8439,
  "player": 8440,
  "zip": 8441,
  "\u2581Alexander": 8442,
  "\u2581Break": 8443,
  "\u2581Destination": 8444,
  "\u2581Development": 8445,
  "\u2581Everyone": 8446,
  "\u2581Fila": 8447,
  "\u2581Focus": 8448,
  "\u2581Groups": 8449,
  "\u2581Inicia": 8450,
  "\u2581KDM": 8451,
  "\u2581Medio": 8452,
  "\u2581Nacional": 8453,
  "\u2581Resposta": 8454,
  "\u2581T\u00e9": 8455,
  "\u2581Usa": 8456,
  "\u2581andrew": 8457,
  "\u2581awful": 8458,
  "\u2581botella": 8459,
  "\u2581colo": 8460,
  "\u2581constru\u00ed": 8461,
  "\u2581displaying": 8462,
  "\u2581edificio": 8463,
  "\u2581existir": 8464,
  "\u2581exterior": 8465,
  "\u2581mova": 8466,
  "\u2581parvo": 8467,
  "\u2581paus": 8468,
  "\u2581sake": 8469,
  "\u2581salvo": 8470,
  "\u2581se\u00f1ores": 8471,
  "\u2581siga": 8472,
  "\u2581sobrescribir": 8473,
  "\u2581testemu\u00f1a": 8474,
  "\u2581vindeira": 8475,
  "(\"": 8476,
  "Ti": 8477,
  "bug": 8478,
  "coles": 8479,
  "quen": 8480,
  "year": 8481,
  "\u2581Burn": 8482,
  "\u2581Comezo": 8483,
  "\u2581Contrast": 8484,
  "\u2581Corre": 8485,
  "\u2581Entorno": 8486,
  "\u2581Expandir": 8487,
  "\u2581House": 8488,
  "\u2581Infraestrutura": 8489,
  "\u2581KTTSD": 8490,
  "\u2581Pas": 8491,
  "\u2581Simon": 8492,
  "\u2581Someone": 8493,
  "\u2581Team": 8494,
  "\u2581avogado": 8495,
  "\u2581brackets": 8496,
  "\u2581cans": 8497,
  "\u2581combo": 8498,
  "\u2581comments": 8499,
  "\u2581conxelada": 8500,
  "\u2581costs": 8501,
  "\u2581covered": 8502,
  "\u2581disappear": 8503,
  "\u2581earn": 8504,
  "\u2581esp\u00edrito": 8505,
  "\u2581hungry": 8506,
  "\u2581insist": 8507,
  "\u2581issue": 8508,
  "\u2581kppp": 8509,
  "\u2581l\u00f3xica": 8510,
  "\u2581managed": 8511,
  "\u2581marks": 8512,
  "\u2581ocean": 8513,
  "\u2581paneis": 8514,
  "\u2581personalizadas": 8515,
  "\u2581pretende": 8516,
  "\u2581propriedade": 8517,
  "\u2581puxo": 8518,
  "\u2581recognize": 8519,
  "\u2581revolution": 8520,
  "\u2581seat": 8521,
  "\u2581sex": 8522,
  "\u2581silence": 8523,
  "\u2581stretch": 8524,
  "\u2581summary": 8525,
  "\u2581textbox": 8526,
  "\u2581uncle": 8527,
  "\u2581wood": 8528,
  "\u2581\u00c1rabe": 8529,
  "\u2581\u2013": 8530,
  "ero": 8531,
  "hard": 8532,
  "lum": 8533,
  "m\u00ed": 8534,
  "sistencia": 8535,
  "tino": 8536,
  "word": 8537,
  "\u00e1rono": 8538,
  "\u258164": 8539,
  "\u2581Abort": 8540,
  "\u2581Acaba": 8541,
  "\u2581Bru": 8542,
  "\u2581Entra": 8543,
  "\u2581Evento": 8544,
  "\u2581Half": 8545,
  "\u2581Join": 8546,
  "\u2581Konsole": 8547,
  "\u2581M\u00e9": 8548,
  "\u2581Notes": 8549,
  "\u2581Paquetes": 8550,
  "\u2581Partida": 8551,
  "\u2581Republic": 8552,
  "\u2581Sebastian": 8553,
  "\u2581Sending": 8554,
  "\u2581Used": 8555,
  "\u2581[%1]": 8556,
  "\u2581al\u00e9n": 8557,
  "\u2581copied": 8558,
  "\u2581counter": 8559,
  "\u2581dat": 8560,
  "\u2581duplicate": 8561,
  "\u2581encher": 8562,
  "\u2581established": 8563,
  "\u2581gravado": 8564,
  "\u2581hist\u00f3rico": 8565,
  "\u2581manner": 8566,
  "\u2581nick": 8567,
  "\u2581n\u00edvel": 8568,
  "\u2581pane": 8569,
  "\u2581permit": 8570,
  "\u2581pure": 8571,
  "\u2581refuse": 8572,
  "\u2581restantes": 8573,
  "\u2581secreta": 8574,
  "\u2581shame": 8575,
  "\u2581telo": 8576,
  "\u2581vCard": 8577,
  "\u2581vi\u00f1e": 8578,
  "\u2581v\u00eddeos": 8579,
  "\u2581witness": 8580,
  "35": 8581,
  "98": 8582,
  "OT": 8583,
  "ala": 8584,
  "ava": 8585,
  "china": 8586,
  "cup": 8587,
  "mada": 8588,
  "ok": 8589,
  "system": 8590,
  "\u2581Cambio": 8591,
  "\u2581Cost": 8592,
  "\u2581Klondike": 8593,
  "\u2581Nun": 8594,
  "\u2581Pattern": 8595,
  "\u2581Tarefas": 8596,
  "\u2581asasino": 8597,
  "\u2581avoa": 8598,
  "\u2581balls": 8599,
  "\u2581b\u00e1sico": 8600,
  "\u2581cancelled": 8601,
  "\u2581ciclo": 8602,
  "\u2581compa\u00f1eiros": 8603,
  "\u2581constelaci\u00f3ns": 8604,
  "\u2581conversation": 8605,
  "\u2581descanso": 8606,
  "\u2581desenvolventes": 8607,
  "\u2581developer": 8608,
  "\u2581disparar": 8609,
  "\u2581dono": 8610,
  "\u2581dry": 8611,
  "\u2581escrebe": 8612,
  "\u2581fly": 8613,
  "\u2581frequency": 8614,
  "\u2581fuxir": 8615,
  "\u2581instant\u00e1nea": 8616,
  "\u2581interpret": 8617,
  "\u2581lift": 8618,
  "\u2581membro": 8619,
  "\u2581molesta": 8620,
  "\u2581operativo": 8621,
  "\u2581predeterminados": 8622,
  "\u2581recon": 8623,
  "\u2581redes": 8624,
  "\u2581rexistros": 8625,
  "\u2581rook": 8626,
  "\u2581saver": 8627,
  "\u2581sentar": 8628,
  "\u2581soltar": 8629,
  "\u2581sucede": 8630,
  "\u2581vence": 8631,
  "\u2581vindeiro": 8632,
  "100": 8633,
  "date": 8634,
  "exp": 8635,
  "mod": 8636,
  "\u2581Alta": 8637,
  "\u2581At\u00e9": 8638,
  "\u2581Cell": 8639,
  "\u2581Comando": 8640,
  "\u2581Debo": 8641,
  "\u2581Easy": 8642,
  "\u2581PowerDevil": 8643,
  "\u2581Preferencias": 8644,
  "\u2581Scheme": 8645,
  "\u2581Stefan": 8646,
  "\u2581Tipos": 8647,
  "\u2581abrigo": 8648,
  "\u2581angular": 8649,
  "\u2581assistant": 8650,
  "\u2581bala": 8651,
  "\u2581beside": 8652,
  "\u2581chemical": 8653,
  "\u2581constellation": 8654,
  "\u2581desas": 8655,
  "\u2581engadi": 8656,
  "\u2581fal": 8657,
  "\u2581farm": 8658,
  "\u2581foreground": 8659,
  "\u2581freezing": 8660,
  "\u2581includes": 8661,
  "\u2581noticed": 8662,
  "\u2581paciente": 8663,
  "\u2581perdas": 8664,
  "\u2581potencia": 8665,
  "\u2581preparar": 8666,
  "\u2581principais": 8667,
  "\u2581reported": 8668,
  "\u2581salvaxe": 8669,
  "\u2581sec": 8670,
  "\u2581smoke": 8671,
  "\u2581trade": 8672,
  "88": 8673,
  "List": 8674,
  "field": 8675,
  "ific": 8676,
  "novo": 8677,
  "\u00e7": 8678,
  "\u2581Agard\u00e1base": 8679,
  "\u2581Board": 8680,
  "\u2581California": 8681,
  "\u2581DOC": 8682,
  "\u2581Eh": 8683,
  "\u2581Engadidos": 8684,
  "\u2581Gpg": 8685,
  "\u2581Mass": 8686,
  "\u2581Negro": 8687,
  "\u2581Perfil": 8688,
  "\u2581Priority": 8689,
  "\u2581Rematar": 8690,
  "\u2581Robinson": 8691,
  "\u2581Sally": 8692,
  "\u2581Sincroniza": 8693,
  "\u2581Thread": 8694,
  "\u2581Wor": 8695,
  "\u2581aborted": 8696,
  "\u2581axustes": 8697,
  "\u2581browse": 8698,
  "\u2581b\u00f3la": 8699,
  "\u2581capture": 8700,
  "\u2581certeza": 8701,
  "\u2581coordinate": 8702,
  "\u2581corresponde": 8703,
  "\u2581difficulty": 8704,
  "\u2581implica": 8705,
  "\u2581indicada": 8706,
  "\u2581legs": 8707,
  "\u2581lixeiro": 8708,
  "\u2581part\u00edculas": 8709,
  "\u2581positions": 8710,
  "\u2581realce": 8711,
  "\u2581revoluci\u00f3n": 8712,
  "\u2581rotas": 8713,
  "\u2581science": 8714,
  "\u2581skip": 8715,
  "\u2581smile": 8716,
  "\u2581sodes": 8717,
  "\u2581spring": 8718,
  "\u2581squares": 8719,
  "\u2581struggle": 8720,
  "\u2581symbolic": 8721,
  "\u2581walls": 8722,
  "\u2581weapons": 8723,
  "\u2581wheel": 8724,
  "+0": 8725,
  "CI\u00d3N": 8726,
  "Don": 8727,
  "bal": 8728,
  "bout": 8729,
  "dpi": 8730,
  "eite": 8731,
  "gree": 8732,
  "hailand": 8733,
  "ich": 8734,
  "local": 8735,
  "ounce": 8736,
  "ried": 8737,
  "\u2581Abaixo": 8738,
  "\u2581Ampliar": 8739,
  "\u2581GMT": 8740,
  "\u2581Grande": 8741,
  "\u2581Kopete": 8742,
  "\u2581Notas": 8743,
  "\u2581VNC": 8744,
  "\u2581Voice": 8745,
  "\u2581ainda": 8746,
  "\u2581birthday": 8747,
  "\u2581bonita": 8748,
  "\u2581carro": 8749,
  "\u2581convidado": 8750,
  "\u2581custa": 8751,
  "\u2581deber": 8752,
  "\u2581dependencies": 8753,
  "\u2581ear": 8754,
  "\u2581effective": 8755,
  "\u2581empregados": 8756,
  "\u2581enviadas": 8757,
  "\u2581faint": 8758,
  "\u2581filenames": 8759,
  "\u2581funeral": 8760,
  "\u2581matou": 8761,
  "\u2581mesmas": 8762,
  "\u2581modern": 8763,
  "\u2581ortograf\u00eda": 8764,
  "\u2581pechou": 8765,
  "\u2581pin": 8766,
  "\u2581pole": 8767,
  "\u2581polygon": 8768,
  "\u2581redor": 8769,
  "\u2581roubar": 8770,
  "\u2581spin": 8771,
  "\u2581subtitles": 8772,
  "\u2581supo\u00f1o": 8773,
  "\u2581teacher": 8774,
  "\u2581trazado": 8775,
  "\u2581vacaci\u00f3ns": 8776,
  "\u2581visibilidade": 8777,
  "--\"": 8778,
  ".000": 8779,
  "Status": 8780,
  "iar": 8781,
  "inte": 8782,
  "proc": 8783,
  "ugh": 8784,
  "\u2581Andr": 8785,
  "\u2581Best": 8786,
  "\u2581CON": 8787,
  "\u2581Contacto": 8788,
  "\u2581Driver": 8789,
  "\u2581Estase": 8790,
  "\u2581Fechar": 8791,
  "\u2581Funci\u00f3ns": 8792,
  "\u2581Functions": 8793,
  "\u2581L\u00faa": 8794,
  "\u2581Nice": 8795,
  "\u2581Pass": 8796,
  "\u2581Salva": 8797,
  "\u2581Slide": 8798,
  "\u2581Sp": 8799,
  "\u2581TCP": 8800,
  "\u2581Upgrade": 8801,
  "\u2581asegurar": 8802,
  "\u2581cambiou": 8803,
  "\u2581cami\u00f3n": 8804,
  "\u2581clara": 8805,
  "\u2581cree": 8806,
  "\u2581cried": 8807,
  "\u2581designed": 8808,
  "\u2581gr\u00e1ficas": 8809,
  "\u2581identificar": 8810,
  "\u2581lido": 8811,
  "\u2581mailbox": 8812,
  "\u2581p\u00f3de": 8813,
  "\u2581scream": 8814,
  "\u2581sensitive": 8815,
  "\u2581silent": 8816,
  "\u2581spool": 8817,
  "\u2581weather": 8818,
  "\u2581\u00c1ngulo": 8819,
  "Book": 8820,
  "Error": 8821,
  "Ficheiros": 8822,
  "Print": 8823,
  "aDat": 8824,
  "ep": 8825,
  "ili": 8826,
  "iser": 8827,
  "nel": 8828,
  "pode": 8829,
  "uno": 8830,
  "\u25811998": 8831,
  "\u2581Akregator": 8832,
  "\u2581Andrew": 8833,
  "\u2581Console": 8834,
  "\u2581Daisy": 8835,
  "\u2581Detect": 8836,
  "\u2581Fast": 8837,
  "\u2581Introduci\u00f3n": 8838,
  "\u2581KGpg": 8839,
  "\u2581KPlato": 8840,
  "\u2581M\u00e1scara": 8841,
  "\u2581Orden": 8842,
  "\u2581Parse": 8843,
  "\u2581Perform": 8844,
  "\u2581Poida": 8845,
  "\u2581Porcentaxe": 8846,
  "\u2581Restaurar": 8847,
  "\u2581Sch": 8848,
  "\u2581Specifie": 8849,
  "\u2581Tux": 8850,
  "\u2581aniversario": 8851,
  "\u2581arrive": 8852,
  "\u2581aumenta": 8853,
  "\u2581calculator": 8854,
  "\u2581cidades": 8855,
  "\u2581cook": 8856,
  "\u2581eixo": 8857,
  "\u2581escaleira": 8858,
  "\u2581fancy": 8859,
  "\u2581fresh": 8860,
  "\u2581gmail": 8861,
  "\u2581keeping": 8862,
  "\u2581marxes": 8863,
  "\u2581milk": 8864,
  "\u2581parella": 8865,
  "\u2581pseudo": 8866,
  "\u2581race": 8867,
  "\u2581renomear": 8868,
  "\u2581shoulder": 8869,
  "\u2581solicita": 8870,
  "\u2581so\u00f1os": 8871,
  "\u2581surprise": 8872,
[...]
