{
  "</s>": 0,
  "<unk>": 1,
  ",": 2,
  "\u2581na": 3,
  "\u2581ya": 4,
  ".": 5,
  "\u2581\"": 6,
  "\u2581the": 7,
  "\u2581to": 8,
  "\u2581yina": 9,
  "\u2581of": 10,
  "\u2581-": 11,
  "\u2581yandi": 12,
  "?": 13,
  "\u2581and": 14,
  "\u2581beto": 15,
  ":": 16,
  "\u2581mpi": 17,
  "\u2581nde": 18,
  "\u2581bo": 19,
  "\u2581ke": 20,
  "\u2581in": 21,
  "\u2581a": 22,
  "\u2581ti": 23,
  "\u2581that": 24,
  "\u2581kele": 25,
  "\u2581bantu": 26,
  "\u2581ve": 27,
  "s": 28,
  "\u2581sambu": 29,
  "\u2581yo": 30,
  "\u2581vandaka": 31,
  "\u2581Nzambi": 32,
  "\u2581is": 33,
  "'": 34,
  "\u2581Yehowa": 35,
  "\u2581mosi": 36,
  "\u2581Jehovah": 37,
  "\u2581mambu": 38,
  "\u2581mutindu": 39,
  "\u2581we": 40,
  "\u2581mingi": 41,
  "\u2581God": 42,
  "\u2581for": 43,
  "\u2581nge": 44,
  "\u2581yai": 45,
  "\u2581his": 46,
  "\u2581lenda": 47,
  "\u2581": 48,
  "\u2581me": 49,
  "\u2581ntangu": 50,
  "\u2581yonso": 51,
  "\u2581be": 52,
  "\u2581mbote": 53,
  "\u2581you": 54,
  "\u2581with": 55,
  "\u2581not": 56,
  "\u2581(": 57,
  "\u2581will": 58,
  "\u2581ta": 59,
  "\u2581mono": 60,
  "\u2581'": 61,
  "\u2581was": 62,
  "\u2581he": 63,
  "\u2581Inki": 64,
  "\u2581as": 65,
  "\u2581are": 66,
  "\u2581have": 67,
  ")": 68,
  "\u2581on": 69,
  "\u2581Yezu": 70,
  "\u2581Jesus": 71,
  "\u2581muntu": 72,
  "\u2581our": 73,
  "\u2581us": 74,
  "\u2581it": 75,
  ";": 76,
  "\u2581Na": 77,
  "\u25811": 78,
  "\u2581can": 79,
  "ing": 80,
  "\u2581The": 81,
  "\u2581fwete": 82,
  "\u2581by": 83,
  "\u2581from": 84,
  "\u2581What": 85,
  "\u2581I": 86,
  "\u2581nki": 87,
  "\u2581who": 88,
  "\u2581what": 89,
  "\u2581ngolo": 90,
  "\u2581their": 91,
  "\u2581Yo": 92,
  "!": 93,
  "\u2581they": 94,
  "\u2581Biblia": 95,
  "\u2581do": 96,
  "\u2581kusala": 97,
  "\u2581Sambu": 98,
  "\u2581Bible": 99,
  "\u2581ntima": 100,
  "\u2581or": 101,
  "ka": 102,
  "\u2581beno": 103,
  "\u2581this": 104,
  "\u2581[": 105,
  "\u2581him": 106,
  "\u2581ntoto": 107,
  "\u2581all": 108,
  "\u2581How": 109,
  "\u2581Kansi": 110,
  "\u2581kisalu": 111,
  "\u2581mfunu": 112,
  "a": 113,
  "\u2581your": 114,
  "\u2581them": 115,
  "\u2581yankaka": 116,
  "\u2581people": 117,
  "\u2581one": 118,
  "\u2581luzingu": 119,
  "\u2581did": 120,
  "\u2581Beto": 121,
  "\u2581mbi": 122,
  "\u2581about": 123,
  "\u2581kaka": 124,
  "\u2581kana": 125,
  "\u2581Yandi": 126,
  "\u2581at": 127,
  "\u2581were": 128,
  "\u2581In": 129,
  "\u2581bonso": 130,
  "\u2581when": 131,
  "\u2581had": 132,
  "\u2581kansi": 133,
  "\u2581nkaka": 134,
  "\u2581mpasi": 135,
  "\u2581has": 136,
  "\u2581an": 137,
  "\u2581would": 138,
  "\u2581vanda": 139,
  "\u2581mpenza": 140,
  "\u2581sala": 141,
  "\u2581nima": 142,
  "\u2581kati": 143,
  "\u2581may": 144,
  "\u2581salaka": 145,
  "\u2581those": 146,
  "\u2581ntete": 147,
  "\u2581mbandu": 148,
  "\u2581life": 149,
  "]": 150,
  "\u2581time": 151,
  "\u2581Bakristu": 152,
  "\u2581ata": 153,
  "\u2581zolaka": 154,
  "\u25812": 155,
  "\u2581kuvanda": 156,
  "\u2581Keti": 157,
  "\u2581but": 158,
  "\u2581kyeleka": 159,
  "\u2581so": 160,
  "\u2581zola": 161,
  "\u2581Ntangu": 162,
  "\u2581kukonda": 163,
  "\u2581help": 164,
  "\u2581how": 165,
  "\u2581He": 166,
  "\u2581Kana": 167,
  "\u2581nene": 168,
  "\u2581pesaka": 169,
  "\u2581yango": 170,
  "b": 171,
  "\u2581mbala": 172,
  "\u2581nzila": 173,
  "\u2581my": 174,
  "\u2581kikesa": 175,
  "\u2581kuluta": 176,
  "\u2581love": 177,
  "\u2581Paul": 178,
  "\u2581kupesa": 179,
  "\u2581Polo": 180,
  "\u2581good": 181,
  "\u2581kisika": 182,
  "\u2581bima": 183,
  "\u2581We": 184,
  "\u2581nsi": 185,
  "\u2581bampangi": 186,
  "\u2581should": 187,
  "\u2581tubaka": 188,
  "\u2581does": 189,
  "\u2581kuvandaka": 190,
  "\u2022": 191,
  "\u2581also": 192,
  "\u2581some": 193,
  "\u2581Bo": 194,
  "\u2581more": 195,
  "\u2581things": 196,
  "\u2581Why": 197,
  "\"": 198,
  "\u2581konso": 199,
  "\u25815": 200,
  "\u2581bana": 201,
  "\u2581out": 202,
  "\u2581zulu": 203,
  "\u25816": 204,
  "\u2581Bantu": 205,
  "\u2581way": 206,
  "\u2581such": 207,
  "\u2581spirit": 208,
  "\u2581Ata": 209,
  "\u2581dibundu": 210,
  "\u2581ntwala": 211,
  "ly": 212,
  "\u2581her": 213,
  "\u2581make": 214,
  "\u2581A": 215,
  "\u2581Christians": 216,
  "\u2581mayele": 217,
  "\u2581been": 218,
  "\u2581if": 219,
  "\u2581kwikama": 220,
  "\u2581tuba": 221,
  "\u2581many": 222,
  "\u2581world": 223,
  "\u2581kimpeve": 224,
  "\u2581up": 225,
  "\u2581no": 226,
  "\u2581Christ": 227,
  "\u2581Kimfumu": 228,
  "ed": 229,
  "\u2581work": 230,
  "\u2581nkento": 231,
  "\u2581It": 232,
  "\u2581said": 233,
  "\u2581earth": 234,
  "\u2581kubaka": 235,
  "\u2581Christian": 236,
  "\u2581kibeni": 237,
  "\u2581mvula": 238,
  "\u2581faith": 239,
  "\u2581bamvula": 240,
  "\u2581When": 241,
  "\u25813": 242,
  "\u2581need": 243,
  "\u2581could": 244,
  "\u2581even": 245,
  "\u2581N": 246,
  "\u2581kima": 247,
  "\u2581others": 248,
  "\u2581Kingdom": 249,
  "\u2581pesa": 250,
  "\u2581day": 251,
  "\u2581kuzaba": 252,
  "the": 253,
  "\u2581sadisa": 254,
  "\u2581man": 255,
  "\u2581other": 256,
  "\u2581kusadila": 257,
  "\u2581example": 258,
  "\u2581there": 259,
  "\u2581dyambu": 260,
  "\u2581metala": 261,
  "\u2581Kristu": 262,
  "\u2581size": 263,
  "\u2581lukwikilu": 264,
  "\u2581nzo": 265,
  "\u2581mvimba": 266,
  "\u2581For": 267,
  "\u2581Ya": 268,
  "\u2581than": 269,
  "\u2581first": 270,
  "\u2581/": 271,
  "\u2581But": 272,
  "\u2581must": 273,
  "\u2581kyese": 274,
  "\u2581kieleka": 275,
  "\u2581inki": 276,
  "\u2581Izraele": 277,
  "\u2581these": 278,
  "\u2581lukanu": 279,
  "\u2581mu": 280,
  "\u2581nsuka": 281,
  "\u2581congregation": 282,
  "\u2581because": 283,
  "\u2581zole": 284,
  "\u2581mpeve": 285,
  "\u2581kevandaka": 286,
  "\u2581nsangu": 287,
  "\u2581baka": 288,
  "\u2581They": 289,
  "\u2581label": 290,
  "\u2581into": 291,
  "\u2581dikebi": 292,
  "\u2581kesalaka": 293,
  "\u2581spiritual": 294,
  "\u2581mwana": 295,
  "\u2581ntama": 296,
  "\u2581mvu": 297,
  "\u25814": 298,
  "\u2581bilumbu": 299,
  "\u2581kusamuna": 300,
  "\u2581mambote": 301,
  "\u2581If": 302,
  "\u2581Satana": 303,
  "\u2581which": 304,
  "\u2581As": 305,
  "\u2581mabanza": 306,
  "\u2581bubu": 307,
  "\u258113": 308,
  "\u2581ketuba": 309,
  "\u2581know": 310,
  "\u2581kutuba": 311,
  "d": 312,
  "\u2581being": 313,
  "\u2581Nge": 314,
  "\u2581kumaka": 315,
  "\u25817": 316,
  "\u2581kiese": 317,
  "\u2581This": 318,
  "\u2581diaka": 319,
  "\u2581Mfumu": 320,
  "\u2581kemonisa": 321,
  "\u258110": 322,
  "\u2581bampasi": 323,
  "\u2581made": 324,
  "\u2581kilumbu": 325,
  "\u2581monisa": 326,
  "\u2581Witnesses": 327,
  "\u2581dyaka": 328,
  "\u2581kutubaka": 329,
  "\u2581see": 330,
  "\u2581Mu": 331,
  "\u2581kuzinga": 332,
  "\u2581meso": 333,
  "\u2581mpidina": 334,
  "\u2581You": 335,
  "\u2581heart": 336,
  "\u2581she": 337,
  "\u2581years": 338,
  "\u2581kumonisa": 339,
  "\u2581fyoti": 340,
  "\u2581balongoki": 341,
  "\u2581ones": 342,
  "\u2581true": 343,
  "\u25818": 344,
  "\u2581Bambangi": 345,
  "\u2581landa": 346,
  "\u258111": 347,
  "\u2581kusadisa": 348,
  "\u2581bikalulu": 349,
  "\u2581dibuta": 350,
  "\u2581like": 351,
  "\u2581only": 352,
  "\u2581Satan": 353,
  "\u2581lutiti": 354,
  "\u2581come": 355,
  "\u2581kulanda": 356,
  "\u2581Mono": 357,
  "\u2581says": 358,
  "\u2581ba": 359,
  "\u258115": 360,
  "\u2581bakaka": 361,
  "\u2581family": 362,
  "\u2581words": 363,
  "\u25811,": 364,
  "\u2581zina": 365,
  "\u2581*": 366,
  "\u2581nitu": 367,
  "\u2581kumona": 368,
  "\u2581kulonguka": 369,
  "\u2581David": 370,
  "\u2581name": 371,
  "\u2581monaka": 372,
  "\u2581become": 373,
  "\u2581children": 374,
  "\u2581take": 375,
  "...": 376,
  "\u258112": 377,
  "\u2581tadila": 378,
  "\u2581Mutindu": 379,
  "\u2581mawa": 380,
  "\u2581kepesaka": 381,
  "\u2581B": 382,
  "\u2581Davidi": 383,
  "\u2581sadisaka": 384,
  "\u2581lufwa": 385,
  "\u2581give": 386,
  "\u2581bangogo": 387,
  "\u2581bansadi": 388,
  "\u2581then": 389,
  "\u2581bakala": 390,
  "\u2581kutula": 391,
  "\u2581over": 392,
  "\u2581death": 393,
  "\u2581Word": 394,
  "\u2581zaba": 395,
  "\u2581own": 396,
  "\u2581And": 397,
  "\u2581mukanda": 398,
  "\u25819": 399,
  "\u2581lukumu": 400,
  "\u2581might": 401,
  "\u2581To": 402,
  "\u2581disolo": 403,
  "\u2581luzolo": 404,
  "\u2581mpila": 405,
  "\u2581page": 406,
  "\u2581John": 407,
  "\u2581men": 408,
  "\u2581Ndinga": 409,
  "\u2581today": 410,
  "\u2581truth": 411,
  "\u2581fioti": 412,
  "\u258117": 413,
  "i": 414,
  "\u2581mpa": 415,
  "\u2581before": 416,
  "\u2581santu": 417,
  "\u2581kivuvu": 418,
  "\u2581well": 419,
  "\u2581keep": 420,
  "\u2581kulonga": 421,
  "\u2581show": 422,
  "\u2581mpamba": 423,
  "\u2581That": 424,
  "\u2581pwelele": 425,
  "\u2581apostle": 426,
  "\u2581K": 427,
  "\u2581kupesaka": 428,
  "\u2581kusalaka": 429,
  "\u2581ebuna": 430,
  "\u2581just": 431,
  "\u2581tii": 432,
  "\u2581lombaka": 433,
  "\u2581kiteso": 434,
  "\u2581brothers": 435,
  "\u2581malongi": 436,
  "\u2581faithful": 437,
  "\u2581Mambu": 438,
  "\u2581kufwa": 439,
  "\u2581now": 440,
  "\u2581person": 441,
  "\u2581learn": 442,
  "\u2581another": 443,
  "\u2581times": 444,
  "\u2581monisaka": 445,
  "\u2581new": 446,
  "\u2581tala": 447,
  "\u2581its": 448,
  "\u2581bankaka": 449,
  "\u2581kukuma": 450,
  "\u2581kukwenda": 451,
  "\u2581Israel": 452,
  "\u258120": 453,
  "\u2581through": 454,
  "\u2581T": 455,
  "\u2581great": 456,
  "\u258124": 457,
  "\u2581tulaka": 458,
  "\u2581why": 459,
  "\u2581kikalulu": 460,
  "\u2581any": 461,
  "\u2581feel": 462,
  "\u2581boma": 463,
  "\u2581luvunu": 464,
  "\u2581Beno": 465,
  "\u2581after": 466,
  "\u2581against": 467,
  "\u2581kubakisa": 468,
  "\u2581kuzola": 469,
  "\u2581holy": 470,
  "\u258119": 471,
  "\u2581mpangi": 472,
  "\u2581mona": 473,
  "\u2581Piere": 474,
  "\u2581find": 475,
  "\u2581himself": 476,
  "\u2581Peter": 477,
  "4:": 478,
  "\u2581kwisa": 479,
  "\u258114": 480,
  "\u25813:": 481,
  "\u2581ngemba": 482,
  "\u2581Do": 483,
  "\u2581very": 484,
  "\u2581much": 485,
  "\u2581masumu": 486,
  "\u258118": 487,
  "\u2581bansiku": 488,
  "\u2581kuma": 489,
  "\u2581means": 490,
  "\u2581bankento": 491,
  "\u2581bibuti": 492,
  "\u2581news": 493,
  "\u2581Yoane": 494,
  "\u2581masonga": 495,
  "\u2581important": 496,
  "\u2581kuwakana": 497,
  "\u2581wrote": 498,
  "\u25812.": 499,
  "\u2581say": 500,
  "\u2581part": 501,
  "\u2581end": 502,
  "\u2581human": 503,
  "\u2581use": 504,
  "\u25812:": 505,
  "\u2581Father": 506,
  "e": 507,
  "\u2581right": 508,
  "\u2581tavanda": 509,
  "\u2581sadilaka": 510,
  "\u2581disciples": 511,
  "\u2581nkama": 512,
  "\u2581worship": 513,
  "\u2581put": 514,
  "\u2581ministry": 515,
  "\u258110.": 516,
  "\u2581ndinga": 517,
  "\u2581lusadisu": 518,
  "\u2581makwela": 519,
  "\u2581parents": 520,
  "\u2581study": 521,
  "\u2581two": 522,
  "\u2581word": 523,
  "paper": 524,
  "\u2581bisalu": 525,
  "\u2581sadila": 526,
  "\u258116": 527,
  "\u2581Tata": 528,
  "\u2581kezolaka": 529,
  "\u2581kutadila": 530,
  "\u2581However": 531,
  "\u2581mbongo": 532,
  "\u2581So": 533,
  "\u2581kitoko": 534,
  "\u2581bangindu": 535,
  "onso": 536,
  "\u2581Nkunga": 537,
  "\u2581kukuka": 538,
  "\u2581tula": 539,
  "\u2581lunungu": 540,
  "\u2581kuyindula": 541,
  "\u2581consider": 542,
  "\u2581upon": 543,
  "\u2581M": 544,
  "\u258121": 545,
  "\u2581let": 546,
  "\u2581Muntu": 547,
  "\u2581preaching": 548,
  "\u2581yantikaka": 549,
  "\u25818.": 550,
  "\u2581hope": 551,
  "\u2581kusosa": 552,
  "\u2581mind": 553,
  "\u2581each": 554,
  "\u2581kimvuka": 555,
  "\u2581paper": 556,
  "\u2581mwa": 557,
  "\u2581young": 558,
  "\u2581NW": 559,
  "\u2581course": 560,
  "\u25814.": 561,
  "\u2581though": 562,
  "\u2581mpusa": 563,
  "\u2581want": 564,
  "\u2581diambu": 565,
  "\u2581Psalm": 566,
  "\u2581ways": 567,
  "\u258114.": 568,
  "\u2581Masonuku": 569,
  "\u2581ketendula": 570,
  "\u2581zabaka": 571,
  "\u2581kundima": 572,
  "\u2581servants": 573,
  "\u2581long": 574,
  "\u258122": 575,
  "\u25819.": 576,
  "\u2581mabundu": 577,
  "\u2581babakala": 578,
  "\u2581found": 579,
  "\u2581most": 580,
  "\u2581Moize": 581,
  "\u2581never": 582,
  "\u2581view": 583,
  "\u2581place": 584,
  "\u2581Ba": 585,
  "\u258112.": 586,
  "\u25815.": 587,
  "\u2581One": 588,
  "\u2581kulungisa": 589,
  "\u2581same": 590,
  "I": 591,
  "\u2581sonikaka": 592,
  "\u2581Bukristu": 593,
  "\u25816.": 594,
  "\u258113.": 595,
  "\u25817.": 596,
  "\u2581anointed": 597,
  "\u258117.": 598,
  "\u2581kukanga": 599,
  "\u2581go": 600,
  "\u2581fwaka": 601,
  "\u2581Mwana": 602,
  "\u2581kukumisa": 603,
  "\u2581kwendaka": 604,
  "\u258115.": 605,
  "\u258111.": 606,
  "\u2581read": 607,
  "\u258116.": 608,
  "\u2581doing": 609,
  "\u2581disongidila": 610,
  "\u2581every": 611,
  "\u2581under": 612,
  "Beno": 613,
  "\u2581power": 614,
  "\u2581serve": 615,
  "\u2581book": 616,
  "\u2581inza": 617,
  "\u2581kutala": 618,
  "\u2581days": 619,
  "\u2581balukutakanu": 620,
  "\u2581given": 621,
  "\u2581keti": 622,
  "\u2581nsungi": 623,
  "\u2581dibaku": 624,
  "na": 625,
  "\u2581among": 626,
  "\u2581loving": 627,
  "\u2581banduku": 628,
  "\u2581peace": 629,
  "\u2581kepesa": 630,
  "\u2581kwenda": 631,
  "Mono": 632,
  "\u2581live": 633,
  "\u2581mikanda": 634,
  "\u2581bisika": 635,
  "\u2581waka": 636,
  "\u2581tatu": 637,
  "\u2581makasi": 638,
  "\u2581Bayuda": 639,
  "\u2581No": 640,
  "\u2581kumonisaka": 641,
  "\u2581where": 642,
  "\u2581kuwa": 643,
  "\u2581King": 644,
  "\u2581told": 645,
  "\u2581YA": 646,
  "\u2581lusambu": 647,
  "\u2581too": 648,
  "\u2581used": 649,
  "\u2581kuna": 650,
  "\u2581Matayo": 651,
  "\u2581Roma": 652,
  "\u2581maboko": 653,
  "\u2581Matthew": 654,
  "\u2581wife": 655,
  "\u2581Some": 656,
  "\u2581tubilaka": 657,
  "\u2581Ebuna": 658,
  "\u2581set": 659,
  "\u2581gave": 660,
  "\u2581lendaka": 661,
  "\u2581ndimaka": 662,
  "\u2581humans": 663,
  "\u2581C": 664,
  "E": 665,
  "\u2581away": 666,
  "Read": 667,
  "\u2581Picture": 668,
  "\u2581get": 669,
  "\u2581service": 670,
  "Tanga": 671,
  "\u2581article": 672,
  "\u2581Scriptures": 673,
  "\u2581fellow": 674,
  "\u2581By": 675,
  "\u2581mbotika": 676,
  "\u25813.": 677,
  "\u2581Is": 678,
  "\u2581Ntotila": 679,
  "\u2581mvutu": 680,
  "\u2581making": 681,
  "\u2581At": 682,
  "\u2581whom": 683,
  "\u2581prayer": 684,
  "\u2581kesala": 685,
  "\u2581knowledge": 686,
  "\u2581bring": 687,
  "\u2581kemonisaka": 688,
  "\u2581became": 689,
  "t": 690,
  "\u2581sin": 691,
  "B": 692,
  "\u2581S": 693,
  "\u2581Son": 694,
  "\u2581down": 695,
  "\u2581heaven": 696,
  "\u2581After": 697,
  "\u2581ketubila": 698,
  "\u2581marriage": 699,
  "\u2581tendula": 700,
  "\u2581back": 701,
  "\u2581bangwisana": 702,
  "\u2581kiyeka": 703,
  "\u2581kesadilaka": 704,
  "\u2581Our": 705,
  "\u2581Moses": 706,
  "\u2581His": 707,
  "\u2581living": 708,
  "\u2581mitindu": 709,
  "\u258123": 710,
  "\u2581bikesa": 711,
  "\u2581Israelites": 712,
  "\u2581themselves": 713,
  "\u2581during": 714,
  "\u2581century": 715,
  "\u2581reason": 716,
  "\u2581zabisaka": 717,
  "\u2581Yes": 718,
  "\u2581ntumwa": 719,
  "\u2581Tanga": 720,
  "al": 721,
  "\u2581nkutu": 722,
  "\u2581bupusi": 723,
  "\u2581pene": 724,
  "\u2581luyantiku": 725,
  "\u2581makabu": 726,
  "\u2581came": 727,
  "\u2581Abraham": 728,
  "\u2581fwet": 729,
  "\u2581often": 730,
  "\u2581Kifwanisu": 731,
  "\u2581am": 732,
  "\u2581mankind": 733,
  "The": 734,
  "\u2581With": 735,
  "\u2581penepene": 736,
  "\u2581Abrahami": 737,
  "\u2581bankuluntu": 738,
  "\u2581bantangu": 739,
  "\u2581kesadisaka": 740,
  "\u258118.": 741,
  "\u2581future": 742,
  "\u2581kelombaka": 743,
  "\u2581kezola": 744,
  "\u2581result": 745,
  "ke": 746,
  "\u2581bayina": 747,
  "\u2581Yezaya": 748,
  "\u2581counsel": 749,
  "\u2581elders": 750,
  "\u2581mukumba": 751,
  "\u2581kusonikaka": 752,
  "\u2581kuzabisa": 753,
  "\u2581purpose": 754,
  "\u2581landaka": 755,
  "\u2581personal": 756,
  "\u2581toward": 757,
  "\u2581fact": 758,
  "\u2581kudikulumusa": 759,
  "\u2581Isaiah": 760,
  "\u2581order": 761,
  "\u2581bansi": 762,
  "\u2581year": 763,
  "\u2581always": 764,
  "\u2581wicked": 765,
  "\u2581bakisaka": 766,
  "\u2581joy": 767,
  "\u2581minsiku": 768,
  "\u2581kikuma": 769,
  "\u2581masa": 770,
  "\u2581Jerusalem": 771,
  "\u25819,": 772,
  "\u2581something": 773,
  "\u2581kinsuni": 774,
  "\u25813,": 775,
  "\u2581Bubu": 776,
  "\u2581kutubila": 777,
  "\u2581questions": 778,
  "\u2581think": 779,
  "\u258125": 780,
  "\u2581still": 781,
  "\u2581nsiku": 782,
  "\u2581Yeruzalemi": 783,
  "\u2581insi": 784,
  "\u2581hand": 785,
  "\u2581able": 786,
  "\u2581fwa": 787,
  "\u2581later": 788,
  "\u2581katula": 789,
  "\u258115:": 790,
  "\u2581Kele": 791,
  "\u2581luyalu": 792,
  "\u2581kukatula": 793,
  "\u2581Let": 794,
  "\u2581Mukristu": 795,
  "\u2581yindula": 796,
  "\u2581ourselves": 797,
  "\u2581bampusa": 798,
  "\u2581bika": 799,
  "\u2581heavenly": 800,
  "S": 801,
  "\u2581home": 802,
  "\u2581mfumu": 803,
  "\u2581without": 804,
  "\u2581mbanza": 805,
  "\u258128": 806,
  "\u2581nda": 807,
  "\u2581_": 808,
  "\u25815,": 809,
  "\u2581relationship": 810,
  "\u2581songaka": 811,
  "\u2581On": 812,
  "\u2581nations": 813,
  "\u2581ntotila": 814,
  "\u2581kelanda": 815,
  "\u2581began": 816,
  "\u2581brother": 817,
  "\u2581called": 818,
  "\u2581really": 819,
  "\u2581Yobi": 820,
  "\u2581old": 821,
  "\u2581Ke": 822,
  "\u2581kulomba": 823,
  "\u2581Yet": 824,
  "\u2581bamfumu": 825,
  "\u2581however": 826,
  "\u2581benefit": 827,
  "\u2581ask": 828,
  "\u2581message": 829,
  "\u2581Read": 830,
  "\u2581Yina": 831,
  "\u2581tubila": 832,
  "\u2581Job": 833,
  "\u25816,": 834,
  "\u2581house": 835,
  "\u2581son": 836,
  "\u2581kimfumu": 837,
  "\u258119.": 838,
  "\u2581Even": 839,
  "\u2581ndima": 840,
  "\u2581helped": 841,
  "\u2581face": 842,
  "\u2581mefwana": 843,
  "\u2581full": 844,
  "y": 845,
  "\u2581needed": 846,
  "\u2581balukanu": 847,
  "\u2581close": 848,
  "\u2581three": 849,
  "\u2581meetings": 850,
  "\u258114:": 851,
  "\u2581kindness": 852,
  "\u2581kumosi": 853,
  "\u2581Then": 854,
  "\u2581father": 855,
  "\u2581moyo": 856,
  "\u2581There": 857,
  "\u2581having": 858,
  "\u2581support": 859,
  "\u2581wisdom": 860,
  "\u258133": 861,
  "\u2581kutanina": 862,
  "\u2581look": 863,
  "\u2581mawi": 864,
  "\u2581experience": 865,
  "\u2581teaching": 866,
  "\u2581righteous": 867,
  "\u2581ndongisila": 868,
  "\u2581lutwadisu": 869,
  "\u2581Adami": 870,
  "\u2581kuswaswana": 871,
  "\u2581someone": 872,
  "\u2581Many": 873,
  "Stock": 874,
  "ngidika": 875,
  "\u2581kisambu": 876,
  "\u2581Mpi": 877,
  "\u2581done": 878,
  "\u2581bisambu": 879,
  "\u2581both": 880,
  "\u2581understand": 881,
  "\u2581Mbala": 882,
  "\u2581bwala": 883,
  "\u2581continue": 884,
  "\u25818,": 885,
  "\u2581attitude": 886,
  "\u2581banda": 887,
  "\u2581nkanda": 888,
  "\u2581avoid": 889,
  "\u2581tell": 890,
  "\u2581NA": 891,
  "\u2581possible": 892,
  "\u2581together": 893,
  "\u2581zinga": 894,
  "\u2581kuyela": 895,
  "\u2581bambuma": 896,
  "\u2581kusamba": 897,
  "\u2581Timothy": 898,
  "\u2581Lord": 899,
  "\u2581ketubaka": 900,
  "\u2581bad": 901,
  "\u2581fear": 902,
  "\u2581Bika": 903,
  "\u2581kununga": 904,
  "\u2581ndambu": 905,
  "\u2581share": 906,
  "\u2581masolo": 907,
  "\u2581dikanda": 908,
  "\u258120.": 909,
  "\u2581kutanga": 910,
  "\u2581husband": 911,
  "\u2581She": 912,
  "\u2581lives": 913,
  "\u2581Adam": 914,
  "\u2581katukaka": 915,
  "\u2581kuzitisa": 916,
  "\u2581kuyituka": 917,
  "\u2581between": 918,
  "hose": 919,
  "\u2581dilongi": 920,
  "\u2581hard": 921,
  "\u2581best": 922,
  "\u2581kuyala": 923,
  "\u2581eyes": 924,
  "\u25817,": 925,
  "\u2581desire": 926,
  "\u2581last": 927,
  "\u2581Dyaka": 928,
  "\u2581matter": 929,
  "\u2581asked": 930,
  "\u2581while": 931,
  "\u2581fine": 932,
  "\u2581respect": 933,
  "\u2581Timoteo": 934,
  "\u2581maladi": 935,
  "\u2581woman": 936,
  "\u258112,": 937,
  "\u2581Luke": 938,
  "\u2581took": 939,
  "\u2581bambeni": 940,
  "\u2581kubuya": 941,
  "\u25814,": 942,
  "\u2581wa": 943,
  "\u2581mameme": 944,
  "\u2581mean": 945,
  "\u2581dezia": 946,
  "\u2581answer": 947,
  "\u2581Nsiku": 948,
  "\u258126": 949,
  "\u2581Luka": 950,
  "\u2581cannot": 951,
  "\u2581ever": 952,
  "\u2581felt": 953,
  "\u2581Law": 954,
  "\u2581kebakaka": 955,
  "\u2581nsadis": 956,
  "\u2581happy": 957,
  "\u2581slave": 958,
  "\u2581system": 959,
  "\u2581tasadisa": 960,
  "Disolo": 961,
  "\u2581conduct": 962,
  "\u2581From": 963,
  "\u2581longaka": 964,
  "tumwa": 965,
  "\u2581learned": 966,
  "\u2581Consider": 967,
  "\u2581care": 968,
  "\u2581ntonda": 969,
  "\u2581Because": 970,
  "\u2581buna": 971,
  "\u2581receive": 972,
  "\u2581enjoy": 973,
  "\u2581lomba": 974,
  "\u2581suffering": 975,
  "\u2581followers": 976,
  "\u2581sheep": 977,
  "\u2581pray": 978,
  "\u2581kusolula": 979,
  "\u2581kwisaka": 980,
  "\u2581Ve": 981,
  "\u2581act": 982,
  "\u258116,": 983,
  "\u2581tata": 984,
  "\u2581giving": 985,
  "\u2581kinduku": 986,
  "\u2581salama": 987,
  "\u2581bitumba": 988,
  "\u2581following": 989,
  "\u2581kemonaka": 990,
  "\u2581prophet": 991,
  "\u2581Mukanda": 992,
  "\u2581serving": 993,
  "\u2581follow": 994,
  "\u2581Devil": 995,
  "\u2581sure": 996,
  "\u2581bankunga": 997,
  "\u2581menga": 998,
  "\u258112:": 999,
  "\u258121.": 1000,
  "\u2581nzala": 1001,
  "\u2581disumu": 1002,
  "\u2581king": 1003,
  "\u2581kimakulu": 1004,
  "\u2581self": 1005,
  "\u2581Acts": 1006,
  "\u2581imitate": 1007,
  "\u258110,": 1008,
  "\u2581lead": 1009,
  "\u2581again": 1010,
  "\u2581kigonsa": 1011,
  "\u2581kusalama": 1012,
  "\u2581ndola": 1013,
  "\u2581trust": 1014,
  "\u2581nswalu": 1015,
  "\u2581Who": 1016,
  "\u2581remain": 1017,
  "\u2581attention": 1018,
  "\u2581sense": 1019,
  "\u2581food": 1020,
  "\u2581All": 1021,
  "\u2581kutubilaka": 1022,
  "\u2581wise": 1023,
  "\u2581bandongisila": 1024,
  "\u2581law": 1025,
  "\u2581longuka": 1026,
  "\u2581verse": 1027,
  "\u2581awa": 1028,
  "\u2581bikuma": 1029,
  "\u258127": 1030,
  "\u2581Corinthians": 1031,
  "\u2581kind": 1032,
  "\u2581apostles": 1033,
  "\u2581banzo": 1034,
  "\u2581bakisa": 1035,
  "\u2581pusa": 1036,
  "\u2581longa": 1037,
  "\u2581longukaka": 1038,
  ".)": 1039,
  "\u2581kutwadisa": 1040,
  "\u2581W": 1041,
  "\u2581ntalu": 1042,
  "\u2581sacrifice": 1043,
  "\u2581teach": 1044,
  "\u2581Yozefi": 1045,
  "\u2581meluta": 1046,
  "\u2581present": 1047,
  "\u2581makanda": 1048,
  "\u2581mpimpa": 1049,
  "\u2581ntu": 1050,
  "\u2581situation": 1051,
  "\u2581certain": 1052,
  "\u2581ntembe": 1053,
  "\u2581account": 1054,
  "\u2581resurrection": 1055,
  "\u2581child": 1056,
  "\u2581kutanaka": 1057,
  "\u2581kuzwa": 1058,
  "\u2581Daniel": 1059,
  "\u2581baptized": 1060,
  "\u25812,": 1061,
  "\u2581different": 1062,
  "\u258131": 1063,
  "\u258129": 1064,
  "\u2581Kusonga": 1065,
  "\u2581yet": 1066,
  "\u2581Does": 1067,
  "\u2581speak": 1068,
  "\u2581Romans": 1069,
  "\u2581everlasting": 1070,
  "\u2581kimuntu": 1071,
  "\u2581luta": 1072,
  "\u2581temple": 1073,
  "\u2581lulendo": 1074,
  "\u2581nation": 1075,
  "\u2581saying": 1076,
  "\u2581language": 1077,
  "\u2581strong": 1078,
  "\u2581members": 1079,
  "\u2581righteousness": 1080,
  "\u2581Bingana": 1081,
  "\u2581far": 1082,
  "\u2581kingdom": 1083,
  "\u2581wrong": 1084,
  "\u2581Joseph": 1085,
  "\u2581Revelation": 1086,
  "\u2581bangyufula": 1087,
  "\u2581lusilu": 1088,
  "\u2581problems": 1089,
  "\u2581qualities": 1090,
  "\u2581Of": 1091,
  "\u2581These": 1092,
  "\u2581knew": 1093,
  "\u2581believe": 1094,
  "\u2581yourself": 1095,
  "\u2581city": 1096,
  "\u2581yindulaka": 1097,
  "\u2581needs": 1098,
  "\u2581basoda": 1099,
  "\u2581kudipesa": 1100,
  "\u2581land": 1101,
  "\u2581ketulaka": 1102,
  "\u2581Bisalu": 1103,
  "\u2581free": 1104,
  "\u2581kunwana": 1105,
  "\u2581question": 1106,
  "\u2581balusakumunu": 1107,
  "\u2581luzitu": 1108,
  "\u2581Ntembe": 1109,
  "\u2581bantumwa": 1110,
  "\u2581light": 1111,
  "\u2581better": 1112,
  "\u2581gives": 1113,
  "\u2581mother": 1114,
  "\u2581nswa": 1115,
  "\u2581thus": 1116,
  "\u2581spiritually": 1117,
  "\u2581mezaba": 1118,
  "\u2581religious": 1119,
  "ambu": 1120,
  "\u2581Nkutu": 1121,
  "\u2581few": 1122,
  "\u2581tempelo": 1123,
  "\u2581Jews": 1124,
  "\u2581individuals": 1125,
  "\u2581works": 1126,
  "\u2581prophecy": 1127,
  "\u2581saw": 1128,
  "\u2581difficult": 1129,
  "\u2581tanga": 1130,
  "\u2581kimpika": 1131,
  "ard": 1132,
  "\u258123.": 1133,
  "\u2581cause": 1134,
  "\u2581nor": 1135,
  "\u2581katuka": 1136,
  "\u2581dikabu": 1137,
  "\u2581Proverbs": 1138,
  "\u2581Ziku": 1139,
  "\u2581false": 1140,
  "\u2581kendimaka": 1141,
  "\u2581real": 1142,
  "\u2581Your": 1143,
  "\u2581mama": 1144,
  "\u2581bumosi": 1145,
  "\u2581whole": 1146,
  "\u2581Korinto": 1147,
  "\u2581feelings": 1148,
  "\u258111:": 1149,
  "\u2581moved": 1150,
  "\u2581prayers": 1151,
  "\u2581bifu": 1152,
  "\u2581kimenga": 1153,
  "\u2581kimvwama": 1154,
  "\u2581known": 1155,
  "\u2581zingaka": 1156,
  "\u2581Dy": 1157,
  "n": 1158,
  "ther": 1159,
  "\u258140": 1160,
  "\u2581Thus": 1161,
  "\u2581Bangogo": 1162,
  "\u2581allow": 1163,
  "\u2581especially": 1164,
  "\u2581friends": 1165,
  "\u2581next": 1166,
  "\u2581turn": 1167,
  "\u2581loyal": 1168,
  "\u2581near": 1169,
  "\u2581maintain": 1170,
  "\u2581perfect": 1171,
  "\u2581tasala": 1172,
  "\u2581Noa": 1173,
  "\u2581New": 1174,
  "\u2581gift": 1175,
  "\u2581open": 1176,
  "\u2581principles": 1177,
  "\u2581makes": 1178,
  "\u2581Can": 1179,
  "\u2581kudiyula": 1180,
  "\u2581off": 1181,
  "pusaka": 1182,
  "\u2581thinking": 1183,
  "\u2581body": 1184,
  "\u2581D": 1185,
  "\u2581examples": 1186,
  "\u2581shows": 1187,
  "\u2581nduku": 1188,
  "\u2581went": 1189,
  "kumisaka": 1190,
  "\u2581likely": 1191,
  "\u2581point": 1192,
  "\u2581mikumba": 1193,
  "\u2581left": 1194,
  "\u2581sons": 1195,
  "\u2581ancient": 1196,
  "\u258132": 1197,
  "\u2581Noah": 1198,
  "\u2581blood": 1199,
  "\u2581nzayilu": 1200,
  "\u2581whe": 1201,
  "\u2581Mesia": 1202,
  "\u2581dead": 1203,
  "\u2581matters": 1204,
  "\u2581provide": 1205,
  "\u2581since": 1206,
  "\u2581Daniele": 1207,
  "\u2581Ntoto": 1208,
  "\u2581Although": 1209,
  "\u2581baleke": 1210,
  "\u2581brought": 1211,
  "\u2581kusalamaka": 1212,
  "\u2581women": 1213,
  "\u2581mbikudulu": 1214,
  "\u2581mepesaka": 1215,
  "\u2581taught": 1216,
  "Tala": 1217,
  "\u2581James": 1218,
  "\u2581comes": 1219,
  "\u2581Rather": 1220,
  "\u2581dibanza": 1221,
  "Nzambi": 1222,
  "ybo": 1223,
  "\u2581Zola": 1224,
  "\u2581number": 1225,
  "\u2581salamaka": 1226,
  "\u2581bunkete": 1227,
  "\u2581ketadila": 1228,
  "\u258130": 1229,
  "\u2581case": 1230,
  "\u2581kusambila": 1231,
  "\u2581sisters": 1232,
  "\u2581draw": 1233,
  "\u2581Stock": 1234,
  "\u2581'?": 1235,
  "\u2581Mbote": 1236,
  "\u2581little": 1237,
  "\u2581kitini": 1238,
  "....": 1239,
  "\u2581kukumaka": 1240,
  "\u2581early": 1241,
  "\u2581Ezipte": 1242,
  "uch": 1243,
  "\u2581Are": 1244,
  "\u2581bambandu": 1245,
  "\u2581kuyidika": 1246,
  "\u2581lukutakanu": 1247,
  "\u2581change": 1248,
  "\u2581Scriptural": 1249,
  "\u2581divine": 1250,
  "\u2581nku": 1251,
  "\u2581forever": 1252,
  "\u2581thought": 1253,
  "er": 1254,
  "\u2581inspired": 1255,
  "\u2581rule": 1256,
  "\u2581tiya": 1257,
  "\u2581until": 1258,
  "\u2581mesalaka": 1259,
  "\u258137": 1260,
  "\u2581Solomon": 1261,
  "\u2581kubakaka": 1262,
  "\u2581kuyambula": 1263,
  "\u2581similar": 1264,
  "\u2581More": 1265,
  "\u258122.": 1266,
  "\u2581Yindula": 1267,
  "\u2581glory": 1268,
  "\u2581lutaninu": 1269,
  "\u2581mpika": 1270,
  "\u2581truly": 1271,
  "\u2581wanted": 1272,
  "\u2581makambu": 1273,
  "\u2581blessings": 1274,
  "\u2581kekwisa": 1275,
  "\u2581loved": 1276,
  "\u2581strength": 1277,
  "\u2581bankwelani": 1278,
  "\u2581certainly": 1279,
  "\u2581coming": 1280,
  "\u2581kifwani": 1281,
  "\u2581preach": 1282,
  "See": 1283,
  "\u2581kisina": 1284,
  "\u2581prove": 1285,
  "\u2581received": 1286,
  "\u2581taking": 1287,
  "\u2581Baebreo": 1288,
  "\u2581clear": 1289,
  "\u2581Tala": 1290,
  "\u2581kezingaka": 1291,
  "Kana": 1292,
  "\u2581Ngolo": 1293,
  "\u2581basisaka": 1294,
  "\u2581lufutumuku": 1295,
  "\u2581kusadilaka": 1296,
  "\u2581sosa": 1297,
  "\u2581nti": 1298,
  "\u2581promise": 1299,
  "\u2581died": 1300,
  "\u2581kutana": 1301,
  "\u2581Eva": 1302,
  "\u2581Like": 1303,
  "\u2581mbalu": 1304,
  "\u2581comfort": 1305,
  "\u2581Kaka": 1306,
  "\u2581states": 1307,
  "\u258124.": 1308,
  "\u2581ntendula": 1309,
  "\u2581vila": 1310,
  "\u2581bambuta": 1311,
  "\u2581Today": 1312,
  "\u2581nsoni": 1313,
  "Mpangi": 1314,
  "\u2581provided": 1315,
  "\u2581witness": 1316,
  "\u2581Since": 1317,
  "\u2581THE": 1318,
  "\u2581Yai": 1319,
  "\u2581control": 1320,
  "\u2581Nkengi": 1321,
  "\u2581Salomo": 1322,
  "\u2581kukota": 1323,
  "\u2581profete": 1324,
  "\u2581accept": 1325,
  "\u2581involved": 1326,
  "\u2581organization": 1327,
  "\u2581soon": 1328,
  "\u2581try": 1329,
  "\u2581iya": 1330,
  "\u2581Hebrews": 1331,
  "\u2581Kisalu": 1332,
  "\u2581bingaka": 1333,
  "\u2581Diaka": 1334,
  "\u2581decisions": 1335,
  "\u2581Would": 1336,
  "\u2581kapu": 1337,
  "\u2581madya": 1338,
  "\u2581going": 1339,
  "\u2581mafuta": 1340,
  "\u2581strengthen": 1341,
  "\u2581understanding": 1342,
  "\u2581de": 1343,
  "\u2581honor": 1344,
  "\u2581kuta": 1345,
  "\u2581circumstances": 1346,
  "\u2581nkwelani": 1347,
  "\u2581around": 1348,
  "\u2581authority": 1349,
  "\u2581high": 1350,
  "\u2581promises": 1351,
  "\u2581reading": 1352,
  "\u2581kemonana": 1353,
  "\u2581married": 1354,
  "C": 1355,
  "\u2581Mpeve": 1356,
  "\u2581fully": 1357,
  "\u2581kusadisaka": 1358,
  "\u2581including": 1359,
  "\u2581angels": 1360,
  "\u2581%": 1361,
  "\u2581heard": 1362,
  "\u2581kuvukisa": 1363,
  "\u2581material": 1364,
  "\u2581powerful": 1365,
  "\u2581seen": 1366,
  "zozulu": 1367,
  "\u2581Yakobo": 1368,
  "\u2581mabuta": 1369,
  "\u2581heavens": 1370,
  "\u2581integrity": 1371,
  "\u2581standards": 1372,
  "\u2581tapesa": 1373,
  "\u2581Kristo": 1374,
  "\u2581believers": 1375,
  "\u2581buya": 1376,
  "\u2581ransom": 1377,
  "\u2581songa": 1378,
  "\u2581thing": 1379,
  "\u2581Kuyantika": 1380,
  "\u2581kutunga": 1381,
  "\u2581mentioned": 1382,
  "\u2581sent": 1383,
  "\u2581kuka": 1384,
  "\u2581kutambula": 1385,
  "\u2581regard": 1386,
  "\u2581shall": 1387,
  "\u2581anyone": 1388,
  "\u2581kemona": 1389,
  "\u2581Creator": 1390,
  "\u2581kelomba": 1391,
  "hile": 1392,
  "\u2581age": 1393,
  "\u2581blessing": 1394,
  "\u2581malafu": 1395,
  "\u2581Not": 1396,
  "\u2581apply": 1397,
  "\u2581nothing": 1398,
  "\u2581kukutana": 1399,
  "\u2581bilanga": 1400,
  "\u2581Bampangi": 1401,
  "\u2581tindaka": 1402,
  "\u2581confidence": 1403,
  "\u25aa": 1404,
  "\u2581kimpwanza": 1405,
  "\u2581kutudila": 1406,
  "\u2581nataka": 1407,
  "\u2581privilege": 1408,
  "You": 1409,
  "\u2581kumisa": 1410,
  "\u2581war": 1411,
  "\u2581showed": 1412,
  "\u2581deep": 1413,
  "espite": 1414,
  "\u2581Be": 1415,
  "\u2581along": 1416,
  "\u2581evidence": 1417,
  "\u2581information": 1418,
  "\u2581munu": 1419,
  "\u2581ziku": 1420,
  "\u258115,": 1421,
  "\u2581Babilone": 1422,
  "\u2581Nzo": 1423,
  "\u2581ngogo": 1424,
  "ntangu": 1425,
  "\u2581Genesis": 1426,
  "\u2581O": 1427,
  "\u2581fwana": 1428,
  "\u2581bambisi": 1429,
  "\u2581helps": 1430,
  "\u2581Instead": 1431,
  "\u2581mbuma": 1432,
  "\u2581Yeremia": 1433,
  "\u2581kumonaka": 1434,
  "\u2581E": 1435,
  "\u2581effect": 1436,
  "\u2581happiness": 1437,
  "\u2581regarding": 1438,
  "\u2581buyaka": 1439,
  "\u2581kukwisa": 1440,
  "\u2581money": 1441,
  "\u2581Nene": 1442,
  "\u2581meaning": 1443,
  "\u2581covenant": 1444,
  "\u2581baverse": 1445,
  "\u2581psalmist": 1446,
  "\u2581kusonga": 1447,
  "\u2581madia": 1448,
  "\u2581obey": 1449,
  "\u2581therefore": 1450,
  "\u2581un": 1451,
  "\u2581Ngangi": 1452,
  "\u2581nata": 1453,
  "\u2581night": 1454,
  "\u2581Jeremiah": 1455,
  "\u2581judgment": 1456,
  "\u2581kupona": 1457,
  "Jehovah": 1458,
  "\u2581Watchtower": 1459,
  "\u2581bansaka": 1460,
  "\u2581hearts": 1461,
  "\u2581Eve": 1462,
  "\u2581stand": 1463,
  "\u2581vital": 1464,
  "\u2581wonderful": 1465,
  "\u258134": 1466,
  "\u2581Ee": 1467,
  "\u2581pete": 1468,
  "less": 1469,
  "\u2581greater": 1470,
  "\u2581kunata": 1471,
  "\u2581kunwa": 1472,
  "\u2581Did": 1473,
  "\u2581Kilumbu": 1474,
  "\u2581kingana": 1475,
  "\u2581kubinga": 1476,
  "\u2581kupakulama": 1477,
  "\u2581kewakana": 1478,
  "o": 1479,
  "\u2581efforts": 1480,
  "\u2581interest": 1481,
  "\u2581bandinga": 1482,
  "\u2581foretold": 1483,
  "\u2581ku": 1484,
  "\u2581religion": 1485,
  "\u2581return": 1486,
  "\u2581s": 1487,
  "T": 1488,
  "\u2581My": 1489,
  "\u2581kufwaka": 1490,
  "\u2581past": 1491,
  "\u2581flesh": 1492,
  "\u2581nani": 1493,
  "\u2581sepelaka": 1494,
  "\u2581sikisiki": 1495,
  "godly": 1496,
  "\u2581kenataka": 1497,
  "\u2581praise": 1498,
  "\u2581special": 1499,
  "\u2581written": 1500,
  "\u2581Color": 1501,
  "\u2581affect": 1502,
  "\u2581appointed": 1503,
  "\u2581doubt": 1504,
  "\u2581sister": 1505,
  "\u2581according": 1506,
  "\u2581boloko": 1507,
  "\u2581chapter": 1508,
  "\u2581wants": 1509,
  "\u2581Still": 1510,
  "\u2581Yuda": 1511,
  "\u2581kidimbu": 1512,
  "\u2581tabaka": 1513,
  "\u2581direction": 1514,
  "\u2581kimbangi": 1515,
  "\u2581sins": 1516,
  "\u2581willing": 1517,
  "x": 1518,
  "\u2581serious": 1519,
  "\u2581opportunity": 1520,
  "bantu": 1521,
  "\u2581effort": 1522,
  "\u2581kept": 1523,
  "\u2581Will": 1524,
  "\u2581second": 1525,
  "\u2581000": 1526,
  "\u2581earthly": 1527,
  "\u2581value": 1528,
  "Na": 1529,
  "\u2581sosaka": 1530,
  "\u2581using": 1531,
  "\u2581World": 1532,
  "\u2581bamvutu": 1533,
  "\u2581listen": 1534,
  "ya": 1535,
  "\u2581deal": 1536,
  "\u2581talk": 1537,
  "\u2581Greek": 1538,
  "\u2581Luzingu": 1539,
  "\u2581promised": 1540,
  "\u2581remember": 1541,
  "\u2581samba": 1542,
  "\u2581spoke": 1543,
  "\u2581taken": 1544,
  "ITI": 1545,
  "\u2581Yesu": 1546,
  "\u2581ngindu": 1547,
  "\u2581Yonso": 1548,
  "\u2581once": 1549,
  "\u2581kelongaka": 1550,
  "\u2581soul": 1551,
  "God": 1552,
  "\u2581malembe": 1553,
  "\u2581Judah": 1554,
  "\u2581LUT": 1555,
  "\u2581determined": 1556,
  "\u2581move": 1557,
  "\u2581recorded": 1558,
  "\u2581respond": 1559,
  "\u2581water": 1560,
  "\u258114,": 1561,
  "\u2581based": 1562,
  "\u2581kulungana": 1563,
  "\u2581Hebrew": 1564,
  "\u2581courage": 1565,
  "\u2581kubikala": 1566,
  "\u2581kumanisa": 1567,
  "\u2581appreciate": 1568,
  "\u2581endure": 1569,
  "\u2581yulaka": 1570,
  "la": 1571,
  "\u2581already": 1572,
  "\u2581hold": 1573,
  "\u2581organizasio": 1574,
  "\u2581bulemfu": 1575,
  "\u2581congregations": 1576,
  "\u2581offer": 1577,
  "\u2581decision": 1578,
  "\u2581mawete": 1579,
  "\u2581zabisa": 1580,
  "\u2581events": 1581,
  "\u2581everything": 1582,
  "_": 1583,
  "\u2581kifu": 1584,
  "\u2581makuki": 1585,
  "\u2581banzenza": 1586,
  "\u2581monana": 1587,
  "\u2581lungisa": 1588,
  "\u2581L": 1589,
  "\u2581nkadilu": 1590,
  "].": 1591,
  "\u2581seek": 1592,
  "\u2581Hence": 1593,
  "\u2581bangiufula": 1594,
  "\u2581kepusaka": 1595,
  "\u2581anything": 1596,
  "\u2581illustration": 1597,
  "\u2581physical": 1598,
  "\u2581please": 1599,
  "\u2581simply": 1600,
  "\u2581Maria": 1601,
  "\u2581nkudulu": 1602,
  "\u2581valere": 1603,
  "\u2581walk": 1604,
  "\u2581Kusala": 1605,
  "\u2581lost": 1606,
  "\u2581older": 1607,
  "\u2581Dyabulu": 1608,
  "\u2581conscience": 1609,
  "\u2581stay": 1610,
  "\u2581small": 1611,
  "\u2581group": 1612,
  "\u2581kansansa": 1613,
  "\u2581Mosi": 1614,
  "\u2581perhaps": 1615,
  "\u2581silaka": 1616,
  "\u2581friend": 1617,
  "\u2581trials": 1618,
  "\u2581kanga": 1619,
  "\u2581kutina": 1620,
  "\u2581appreciation": 1621,
  "\u2581kubika": 1622,
  "\u2581Pictures": 1623,
  "Ntangu": 1624,
  "\u2581gain": 1625,
  "\u2581kangaka": 1626,
  "\u2581rather": 1627,
  "\u2581kusongaka": 1628,
  "\u2581Saule": 1629,
  "\u2581Indeed": 1630,
  "\u2581role": 1631,
  "\u2581salvation": 1632,
  "\u2581yambulaka": 1633,
  "\u2581hear": 1634,
  "\u2581mbotembote": 1635,
  "\u2581thoughts": 1636,
  "w": 1637,
  "\u2581precious": 1638,
  "\u2581banganga": 1639,
  "\u2581head": 1640,
  "\u2581kibuka": 1641,
  "\u258125.": 1642,
  "\u2581balusilu": 1643,
  "\u2581kumi": 1644,
  "\u2581nsambwadi": 1645,
  "\u2581nzambi": 1646,
  "\u2581sambaka": 1647,
  "\u2581form": 1648,
  "me": 1649,
  "\u2581speaking": 1650,
  "over": 1651,
  "\u2581Their": 1652,
  "\u2581health": 1653,
  "\u2581complete": 1654,
  "\u2581four": 1655,
  "Beto": 1656,
  "\u2581leave": 1657,
  "\u2581Bamvula": 1658,
  "\u2581Therefore": 1659,
  "\u2581harmony": 1660,
  "\u2581kulemfuka": 1661,
  "\u2581stated": 1662,
  "\u2581Kima": 1663,
  "\u2581lived": 1664,
  "\u2581mesala": 1665,
  "\u2581influence": 1666,
  "\u2581imperfect": 1667,
  "\u2581reasons": 1668,
  "wilaka": 1669,
  "\u2581nsemo": 1670,
  "\u2581kukwikila": 1671,
  "\u2581kuvutuka": 1672,
  "\u2581large": 1673,
  "\u2581clearly": 1674,
  "\u2581issue": 1675,
  "in": 1676,
  "\u2581Egypt": 1677,
  "\u2581baptism": 1678,
  "\u2581else": 1679,
  "\u2581kekatukaka": 1680,
  "\u2581happened": 1681,
  "\u2581suka": 1682,
  "\u2581Efezo": 1683,
  "\u2581clean": 1684,
  "\u2581display": 1685,
  "\u2581here": 1686,
  "\u2581kewaka": 1687,
  "\u2581kundimaka": 1688,
  "\u2581d": 1689,
  "\u2581fulfillment": 1690,
  "\u2581instance": 1691,
  "\u2581kelandaka": 1692,
  "\u2581kupusa": 1693,
  "\u2581responsibility": 1694,
  "A": 1695,
  "\u2581Footnote": 1696,
  "\u2581meeting": 1697,
  "\u2581Mbandu": 1698,
  "\u2581kusepela": 1699,
  "\u2581kusoba": 1700,
  "\u2581longer": 1701,
  "\u2581mekatuka": 1702,
  "\u2581yantika": 1703,
  "\u2581Ntima": 1704,
  "\u2581ability": 1705,
  "\u2581forth": 1706,
  "\u2581tribulation": 1707,
  "Bantu": 1708,
  "\u2581Dur": 1709,
  "\u2581humble": 1710,
  "\u2581within": 1711,
  "\u2581zelo": 1712,
  "\u2581call": 1713,
  "\u2581guidance": 1714,
  "\u2581Saul": 1715,
  "\u2581die": 1716,
  "\u2581meet": 1717,
  "\u2581People": 1718,
  "\u2581enemies": 1719,
  "\u2581Jewish": 1720,
  "\u2581actions": 1721,
  "\u2581answers": 1722,
  "\u2581teachings": 1723,
  "\u2581hands": 1724,
  "ting": 1725,
  "tudilaka": 1726,
  "\u2581alone": 1727,
  "\u2581considered": 1728,
  "\u2581couple": 1729,
  "\u2581ntetentete": 1730,
  ",...": 1731,
  "\u2581True": 1732,
  "\u2581Messiah": 1733,
  "\u2581ponaka": 1734,
  "\u2581Mbangi": 1735,
  "\u2581kezinga": 1736,
  "\u2581tafwa": 1737,
  "\u2581field": 1738,
  "\u2581further": 1739,
  "Yehowa": 1740,
  "\u258128.": 1741,
  "\u2581Now": 1742,
  "\u2581created": 1743,
  "\u2581kuyedisa": 1744,
  "\u2581mavwanga": 1745,
  "\u2581First": 1746,
  "\u2581build": 1747,
  "\u2581desires": 1748,
  "\u2581kuvukana": 1749,
  "\u2581school": 1750,
  "\u2581bamilio": 1751,
  "\u2581evident": 1752,
  "\u2581helping": 1753,
  "\u2581kusonika": 1754,
  "\u2581tasalama": 1755,
  "),": 1756,
  "\u2581Pesa": 1757,
  "\u2581expression": 1758,
  "\u2581fulfilled": 1759,
  "\u2581ketadilaka": 1760,
  "\u2581nsadi": 1761,
  "\u25811914": 1762,
  "\u2581kukangama": 1763,
  "\u2581bansangu": 1764,
  "\u2581keba": 1765,
  "\u2581leke": 1766,
  "st": 1767,
  "\u2581kulemfukila": 1768,
  "\u2581published": 1769,
  "\u2581raised": 1770,
  "\u2581kemonanaka": 1771,
  "\u2581mere": 1772,
  "\u258129.": 1773,
  "\u2581bansamuni": 1774,
  "\u2581concern": 1775,
  "\u2581creation": 1776,
  "\u2581kulandaka": 1777,
  "\u2581kuyilama": 1778,
  "\u2581mvindu": 1779,
  "\u2581focus": 1780,
  "\u2581public": 1781,
  "to": 1782,
  "\u2581history": 1783,
  "\u2581kebaka": 1784,
  "\u2581proved": 1785,
  "Mfumu": 1786,
  "\u2581See": 1787,
  "\u2581crowd": 1788,
  "\u2581got": 1789,
  "\u2581activities": 1790,
  "\u2581destruction": 1791,
  "\u2581longoki": 1792,
  "\u2581politiki": 1793,
  "\u2581May": 1794,
  "\u2581choose": 1795,
  "\u2581position": 1796,
  "\u2581express": 1797,
  "\u2581kudiyangisa": 1798,
  "\u2581mercy": 1799,
  "\u2581described": 1800,
  "\u2581humility": 1801,
  "\u2581sovereignty": 1802,
  "\u2581whose": 1803,
  "\u2581Just": 1804,
  "\u2581action": 1805,
  "\u2581elder": 1806,
  "\u2581advice": 1807,
  "\u2581evil": 1808,
  "\u2581Bifwanisu": 1809,
  "\u2581available": 1810,
  "\u2581experienced": 1811,
  "\u2581knows": 1812,
  "\u2581mekuma": 1813,
  "\u2581showing": 1814,
  "\u2581born": 1815,
  "\u2581kubalula": 1816,
  "\u2581w": 1817,
  "\u2581Jacob": 1818,
  "\u2581continued": 1819,
  "\u2581offered": 1820,
  "\u2581banzila": 1821,
  "\u2581explained": 1822,
  "\u2581laws": 1823,
  "\u2581kudia": 1824,
  "\u2581kudiwa": 1825,
  "\u2581modern": 1826,
  "\u2581kubebisa": 1827,
  "\u2581pioneer": 1828,
  "\u2581warning": 1829,
  "\u2581worldwide": 1830,
  "NW": 1831,
  "\u258111,": 1832,
  "\u2581kulutisa": 1833,
  "\u2581mvita": 1834,
  "\u2581reflect": 1835,
  "\u2581unity": 1836,
  "org": 1837,
  "\u2581practical": 1838,
  "\u2581BANKUNGA": 1839,
  "\u2581Or": 1840,
  "\u2581kutendula": 1841,
  "\u2581subject": 1842,
  "\u2581Mark": 1843,
  "\u2581nkuluntu": 1844,
  "\u2581bansoba": 1845,
  "\u2581Kimvuka": 1846,
  "\u2581Nani": 1847,
  "\u2581moral": 1848,
  "\u2581sacrifices": 1849,
  "\u2581Love": 1850,
  "\u2581diboko": 1851,
  "\u2581kezabaka": 1852,
  "\u2581kubasika": 1853,
  "\u2581kunwanisa": 1854,
  "\u2581letter": 1855,
  "\u2581start": 1856,
  "\u2581Lenda": 1857,
  "\u2581Watch": 1858,
  "\u2581government": 1859,
  "\u2581ketubilaka": 1860,
  "\u2581Tim": 1861,
  "\u2581bilele": 1862,
  "\u2581bear": 1863,
  "\u2581takes": 1864,
  "\u2581actually": 1865,
  "\u2581kudya": 1866,
  "\u2581kuzabisaka": 1867,
  "\u2581Kigreki": 1868,
  "\u2581grow": 1869,
  "\u2581served": 1870,
  "\u2581changed": 1871,
  "\u2581itself": 1872,
  "\u2581paladisu": 1873,
  "\u2581provides": 1874,
  "\u2581Yakobi": 1875,
  "\u2581everyone": 1876,
  "\u2581reach": 1877,
  "\u2581tadilaka": 1878,
  "\u258131.": 1879,
  "\u2581Kiebreo": 1880,
  "\u2581bawanzio": 1881,
  "\u2581daily": 1882,
  "\u2581mansoni": 1883,
  "\u2581ngyufula": 1884,
  "\u2581blessed": 1885,
  "\u2581easy": 1886,
  "\u2581justice": 1887,
  "\u2581particular": 1888,
  "\u2581kusimba": 1889,
  "\u2581regularly": 1890,
  "\u2581visit": 1891,
  "\u2581happen": 1892,
  "\u2581kudipesaka": 1893,
  "\u2581poor": 1894,
  "\u2581shepherd": 1895,
  "\u2581led": 1896,
  "\u2581mambi": 1897,
  "\u2581proper": 1898,
  "\u2581rest": 1899,
  "\u2581knowing": 1900,
  "\u2581kuwila": 1901,
  "\u2581mate": 1902,
  "\u2581quality": 1903,
  "\u2581seeking": 1904,
  "\u2581yibuka": 1905,
  "\u2581Great": 1906,
  "\u2581Matt": 1907,
  "\u2581benefits": 1908,
  "\u2581cultivate": 1909,
  "\u2581kimbeni": 1910,
  "\u2581kumina": 1911,
  "\u2581mingimingi": 1912,
  "\u2581period": 1913,
  "\u2581started": 1914,
  "\u2581According": 1915,
  "\u2581Have": 1916,
  "\u2581behalf": 1917,
  "\u2581resurrected": 1918,
  "\u2581vinu": 1919,
  "\u2581voice": 1920,
  "\u2581Mary": 1921,
  "\u2581mupepe": 1922,
  "\u2581Bankaka": 1923,
  "\u2581kutulaka": 1924,
  "\u2581neither": 1925,
  "\u2581freedom": 1926,
  "\u2581mebakaka": 1927,
  "\u2581protect": 1928,
  "\u2581accepted": 1929,
  "\u2581common": 1930,
  "\u2581ntuma": 1931,
  "\u2581servant": 1932,
  "\u2581bapakulami": 1933,
  "\u2581genuine": 1934,
  "\u2581indeed": 1935,
  "\u2581kubasisa": 1936,
  "\u2581Babylon": 1937,
  "\u2581Roman": 1938,
  "\u2581command": 1939,
  "\u2581pain": 1940,
  "\u2581paradise": 1941,
  "\u2581Joshua": 1942,
  "\u2581soba": 1943,
  "\u2581Ephesians": 1944,
  "\u2581kesadila": 1945,
  "\u2581Me": 1946,
  "5:": 1947,
  "\u2581Betele": 1948,
  "\u2581kulolula": 1949,
  "\u2581kuzabaka": 1950,
  "\u2581millions": 1951,
  "\u2581stop": 1952,
  "\u258113,": 1953,
  "\u2581Most": 1954,
  "\u2581eat": 1955,
  "\u2581prayed": 1956,
  "\u2581sobaka": 1957,
  "\u2581walking": 1958,
  "\u2581Internet": 1959,
  "\u2581Mvula": 1960,
  "\u2581Samuel": 1961,
  "\u2581Tower": 1962,
  "\u2581bwimi": 1963,
  "\u2581encourage": 1964,
  "\u2581keyboard": 1965,
  "\u2581local": 1966,
  "\u2581Similarly": 1967,
  "\u2581Banda": 1968,
  "\u2581Kuluta": 1969,
  "\u2581carry": 1970,
  "\u2581ketanga": 1971,
  "\u2581leaders": 1972,
  "\u2581basis": 1973,
  "\u2581develop": 1974,
  "\u2581kupusaka": 1975,
  "\u2581persecution": 1976,
  "\u2581kuvingila": 1977,
  "\u2581lesson": 1978,
  "\u2581named": 1979,
  "\u2581shown": 1980,
  "th": 1981,
  "\u2581flock": 1982,
  "\u2581include": 1983,
  "\u2581interests": 1984,
  "\u2581kugulusa": 1985,
  "\u2581sacred": 1986,
  "\u2581tanu": 1987,
  "\u2581vingila": 1988,
  "\u258170": 1989,
  "\u2581bantotila": 1990,
  "\u2581basikaka": 1991,
  "\u2581kusukinina": 1992,
  "\u2581nunga": 1993,
  "\u2581personality": 1994,
  "\u2581regular": 1995,
  "\u2581An": 1996,
  "\u2581kumonana": 1997,
  "\u2581Kuvanda": 1998,
  "\u2581Mat": 1999,
  "\u2581becoming": 2000,
  "\u2581entire": 2001,
  "\u2581force": 2002,
  "\u2581occasion": 2003,
  "\u2581realize": 2004,
  "\u2581wives": 2005,
  "\u2581worshippers": 2006,
  "\u2581Nsangu": 2007,
  "\u2581Nto": 2008,
  "\u2581bangidika": 2009,
  "\u2581priests": 2010,
  "\u2581yourselves": 2011,
  "\u2581encouragement": 2012,
  "\u2581kotaka": 2013,
  "\u2581pages": 2014,
  "\u2581tatadila": 2015,
  "\u2581Nki": 2016,
  "\u2581Yozue": 2017,
  "\u2581kesonga": 2018,
  "\u2581ntinu": 2019,
  "\u2581\"[": 2020,
  "\u2581F": 2021,
  "\u2581greatest": 2022,
  "\u2581kings": 2023,
  "\u2581kuyantika": 2024,
  "\u2581mekumaka": 2025,
  "\u2581problem": 2026,
  "\u2581Mfunu": 2027,
  "\u2581addition": 2028,
  "\u2581source": 2029,
  "ukonda": 2030,
  "\u2581ago": 2031,
  "\u2581devotion": 2032,
  "\u2581YINA": 2033,
  "\u2581angel": 2034,
  "\u2581kulemba": 2035,
  "like": 2036,
  "\u2581brings": 2037,
  "\u2581disciple": 2038,
  "\u2581expect": 2039,
  "\u2581Nsi": 2040,
  "\u2581kesosaka": 2041,
  "\u2581languages": 2042,
  "\u2581tangaka": 2043,
  "\u2581wonder": 2044,
  "\u2581Keep": 2045,
  "\u2581results": 2046,
  "\u2581alive": 2047,
  "\u2581examine": 2048,
  "\u2581individual": 2049,
  "\u2581personally": 2050,
  "ever": 2051,
  "\u2581Us": 2052,
  "\u2581country": 2053,
  "\u2581positive": 2054,
  "\u2581acts": 2055,
  "\u2581badesizio": 2056,
  "\u2581changes": 2057,
  "\u2581enable": 2058,
  "\u2581suffer": 2059,
  "\u2581training": 2060,
  "\u2581allowed": 2061,
  "\u2581earlier": 2062,
  "\u2581explains": 2063,
  "\u2581Later": 2064,
  "\u2581rich": 2065,
  "\u2581yika": 2066,
  "\u2581mavimpi": 2067,
  "\u258130.": 2068,
  "\u258133.": 2069,
  "\u2581anger": 2070,
  "\u2581birth": 2071,
  "\u2581ready": 2072,
  "\u2581various": 2073,
  "\u2581Diambu": 2074,
  "\u2581activity": 2075,
  "\u2581favor": 2076,
  "\u2581k": 2077,
  "\u2581kekutanaka": 2078,
  "\u2581kubuta": 2079,
  "\u2581firm": 2080,
  "\u2581mbisi": 2081,
  "\u2581revealed": 2082,
  "\u2581seem": 2083,
  "\u2581fruit": 2084,
  "\u2581sexual": 2085,
  "\u2581Mvutu": 2086,
  "\u2581Samuele": 2087,
  "\u2581ahead": 2088,
  "Muntu": 2089,
  "\u2581Dibundu": 2090,
  "\u2581bafwa": 2091,
  "\u2581goals": 2092,
  "\u2581tried": 2093,
  "\u2581zitisa": 2094,
  "\u2581Clearly": 2095,
  "\u2581P": 2096,
  "\u2581monanaka": 2097,
  "Yo": 2098,
  "\u2581bansukami": 2099,
  "\u2581kezaba": 2100,
  "\u2581makulu": 2101,
  "\u258138": 2102,
  "\u2581Bibuti": 2103,
  "\u2581Others": 2104,
  "\u2581bampika": 2105,
  "\u2581learning": 2106,
  "\u2581protection": 2107,
  "\u2581bampeve": 2108,
  "\u2581behind": 2109,
  "\u2581discreet": 2110,
  "\u2581seed": 2111,
  "\u2581working": 2112,
  "\u2581demonstrate": 2113,
  "\u2581desizio": 2114,
  "lutiti": 2115,
  "tuka": 2116,
  "\u258127.": 2117,
  "\u258136": 2118,
  "\u258117,": 2119,
  "\u2581Ps": 2120,
  "\u2581join": 2121,
  "\u2581challenge": 2122,
  "\u2581faced": 2123,
  "\u2581kuwaka": 2124,
  "\u2581lungisaka": 2125,
  "\u2581steps": 2126,
  "\u2581whatever": 2127,
  "\u2581Landa": 2128,
  "\u2581Really": 2129,
  "\u2581dedication": 2130,
  "\u258126.": 2131,
  "\u2581BIBLE": 2132,
  "\u2581kuvutula": 2133,
  "\u2581manaka": 2134,
  "\u2581obedience": 2135,
  "\u2581obedient": 2136,
  "\u2581speech": 2137,
  "\u2581throughout": 2138,
  "Sambu": 2139,
  "\u258160": 2140,
  "\u2581above": 2141,
  "\u2581arrangement": 2142,
  "\u2581forward": 2143,
  "\u2581pana": 2144,
  "\u2581pima": 2145,
  "\u2581takuma": 2146,
  "K": 2147,
  "\u2581Society": 2148,
  "\u2581Though": 2149,
  "\u2581enough": 2150,
  "\u2581kelongukaka": 2151,
  "\u2581kupemama": 2152,
  "\u2581Another": 2153,
  "\u2581Lukanu": 2154,
  "\u2581Un": 2155,
  "\u2581keyindulaka": 2156,
  "\u2581muyimb": 2157,
  "\u2581natural": 2158,
  "\u2581recognize": 2159,
  "\u2581treat": 2160,
  "\u2581zwa": 2161,
  "\u2581Bana": 2162,
  "\u2581approach": 2163,
  "\u2581class": 2164,
  "\u2581pite": 2165,
  "\u2581assignment": 2166,
  "\u2581beyond": 2167,
  "\u2581kubwa": 2168,
  "\u2581less": 2169,
  "\u258119,": 2170,
  "\u2581Lusungiminu": 2171,
  "\u2581completely": 2172,
  "\u2581seven": 2173,
  "\u2581talaka": 2174,
  "If": 2175,
  "\u2581Longi": 2176,
  "\u2581Mingi": 2177,
  "\u2581Ntete": 2178,
  "\u2581Perhaps": 2179,
  "\u2581bazina": 2180,
  "\u2581contribute": 2181,
  "\u2581discipline": 2182,
  "\u2581bantuma": 2183,
  "\u2581caused": 2184,
  "\u2581exercise": 2185,
  "\u2581strive": 2186,
  "muntu": 2187,
  "ungulu": 2188,
  "\u2581bamvu": 2189,
  "\u2581goal": 2190,
  "\u258150": 2191,
  "\u2581Holy": 2192,
  "\u2581Through": 2193,
  "\u2581Unis": 2194,
  "\u2581kiz": 2195,
  "\u2581119": 2196,
  "\u2581dedicated": 2197,
  "\u2581pona": 2198,
  "\u2581tamona": 2199,
  "\u2581Memorial": 2200,
  "\u2581closer": 2201,
  "\u2581kilo": 2202,
  "\u2581mabaku": 2203,
  "\u2581kulombaka": 2204,
  "\u2581ndonga": 2205,
  "Nge": 2206,
  "\u2581Life": 2207,
  "\u2581keeping": 2208,
  "\u2581kekwikilaka": 2209,
  "\u2581ten": 2210,
  "\u2581compassion": 2211,
  "di": 2212,
  "\u2581Marko": 2213,
  "\u2581lugangu": 2214,
  "\u2581record": 2215,
  "\u2581single": 2216,
  "\u2581\u00c9tat": 2217,
  "sudi": 2218,
  "\u2581Further": 2219,
  "\u2581bambikudulu": 2220,
  "\u2581choice": 2221,
  "\u2581prepare": 2222,
  "\u2581involves": 2223,
  "\u2581kendima": 2224,
  "\u2581kuvila": 2225,
  "\u2581truths": 2226,
  "\u2581tudila": 2227,
  "j": 2228,
  "\u2581endurance": 2229,
  "\u2581line": 2230,
  "\u2581observe": 2231,
  "\u2581presence": 2232,
  "\u2581publications": 2233,
  "\u258145": 2234,
  "\u2581test": 2235,
  "Do": 2236,
  "\u2581Lukwikilu": 2237,
  "\u2581Remember": 2238,
  "\u2581basusi": 2239,
  "\u2581encouraged": 2240,
  "\u2581importance": 2241,
  "\u2581kebakisaka": 2242,
  "\u2581fwanisa": 2243,
  "\u2581ketula": 2244,
  "\u2581neighbor": 2245,
  "\u2581practice": 2246,
  "\u2581yambula": 2247,
  "\u2581Vanda": 2248,
  "\u2581bread": 2249,
  "\u2581deeply": 2250,
  "\u2581kesalamaka": 2251,
  "\u2581opposition": 2252,
  "],": 2253,
  "\u258118,": 2254,
  "\u2581added": 2255,
  "\u2581kekutana": 2256,
  "\u2581kukwela": 2257,
  "\u2581studying": 2258,
  "\u25814;": 2259,
  "\u2581contrast": 2260,
  "\u2581short": 2261,
  "\u2581vision": 2262,
  "\u2581appropriate": 2263,
  "\u2581gangaka": 2264,
  "\u2581kuyindulula": 2265,
  "\u2581matadi": 2266,
  "\u2581taninaka": 2267,
  "\u2581Before": 2268,
  "\u2581discuss": 2269,
  "\u2581fruitage": 2270,
  "\u2581kumeka": 2271,
  "\u2581bikala": 2272,
  "\u2581centuries": 2273,
  "\u2581kendimisa": 2274,
  "\u2581yala": 2275,
  "\u2581attend": 2276,
  "\u2581kundimisa": 2277,
  "\u2581related": 2278,
  "\u2581specific": 2279,
  "\u2581tree": 2280,
  "\u2581carefully": 2281,
  "\u2581kukatuka": 2282,
  "\u2581necessary": 2283,
  "\u258135.": 2284,
  "\u2581progress": 2285,
  "\u2581Bansiku": 2286,
  "\u2581affection": 2287,
  "\u2581manifest": 2288,
  "\u2581asking": 2289,
  "\u2581bimvuka": 2290,
  "\u2581final": 2291,
  "\u2581kudiyala": 2292,
  "\u2581lweka": 2293,
  "\u2581beginning": 2294,
  "\u2581condition": 2295,
  "\u2581interested": 2296,
  "\u2581minunu": 2297,
  "\u2581bigangwa": 2298,
  "\u2581expressed": 2299,
  "\u2581lukebisu": 2300,
  "\u2581offering": 2301,
  "keyboard": 2302,
  "\u258110;": 2303,
  "\u2581destroyed": 2304,
  "\u2581urged": 2305,
  "oti": 2306,
  "\u2581Katula": 2307,
  "\u2581Malongi": 2308,
  "\u2581Nkento": 2309,
  "\u2581conditions": 2310,
  "\u2581kekwendaka": 2311,
  "\u2581kwikilaka": 2312,
  "\u2581bawanzyo": 2313,
  "\u2581binga": 2314,
  "\u2581kesalama": 2315,
  "\u2581kudiwaka": 2316,
  "\u2581loyalty": 2317,
  "\u2581react": 2318,
  "\u2581rejoice": 2319,
  "\u2581reward": 2320,
  "\u2581sambanu": 2321,
  "\u2581daughter": 2322,
  "\u2581general": 2323,
  "\u2581getting": 2324,
  "\u2581held": 2325,
  "\u2581mersi": 2326,
  "\u2581places": 2327,
  "\u2581success": 2328,
  "\u2581tanina": 2329,
  "\u2581violence": 2330,
  "4": 2331,
  "\u2581accurate": 2332,
  "\u2581nkinsi": 2333,
  "\u2581sort": 2334,
  "\u2581United": 2335,
  "\u2581begin": 2336,
  "\u2581fall": 2337,
  "\u2581image": 2338,
  "\u2581lands": 2339,
  "\u2581mupa": 2340,
  "\u2581Israele": 2341,
  "\u2581Kulonga": 2342,
  "\u2581accounts": 2343,
  "\u2581kuyamba": 2344,
  "\u2581mubulu": 2345,
  "\u2581situations": 2346,
  "\u2581destroy": 2347,
  "\u2581fight": 2348,
  "\u2581kubenda": 2349,
  "\u2581lusakumunu": 2350,
  "\u2581ndimisa": 2351,
  "\u2581resist": 2352,
  "\u2581banani": 2353,
  "\u2581bidimbu": 2354,
  "\u2581lack": 2355,
  "\u2581mwini": 2356,
  "\u2581sepela": 2357,
  "\u2581teaches": 2358,
  "\u2581thousands": 2359,
  "\u2581zitisaka": 2360,
  "\u2581Teach": 2361,
  "\u2581area": 2362,
  "\u2581biteki": 2363,
  "\u2581chosen": 2364,
  "\u2581quickly": 2365,
  "\u2581turned": 2366,
  "\u2581watch": 2367,
  "out": 2368,
  "\u2581balongi": 2369,
  "\u2581basika": 2370,
  "\u2581challenges": 2371,
  "\u2581myself": 2372,
  "ach": 2373,
  "ma": 2374,
  "ww": 2375,
  "\u2581batoko": 2376,
  "\u2581fulfill": 2377,
  "Let": 2378,
  "\u2581Bethel": 2379,
  "\u2581Filipi": 2380,
  "\u2581aware": 2381,
  "\u2581confident": 2382,
  "\u2581filled": 2383,
  "\u2581kifwanisu": 2384,
  "\u2581kuwidikila": 2385,
  "\u2581picture": 2386,
  "\u2581preached": 2387,
  "\u2581pressure": 2388,
  "\u2581sever": 2389,
  "ve": 2390,
  "\u2581followed": 2391,
  "\u2581loves": 2392,
  "\u2581Sara": 2393,
  "\u2581declared": 2394,
  "\u2581enjoyed": 2395,
  "\u2581kusambisa": 2396,
  "\u2581lemba": 2397,
  "\u2581trying": 2398,
  "Bo": 2399,
  "\u2581families": 2400,
  "\u2581forgive": 2401,
  "\u2581kekumaka": 2402,
  "\u2581kubula": 2403,
  "\u2581mbeni": 2404,
  "\u2581met": 2405,
  "\u2581bikalaka": 2406,
  "\u2581ngungudi": 2407,
  "mambu": 2408,
  "\u00a9": 2409,
  "\u2581Cor": 2410,
  "\u2581balulaka": 2411,
  "\u2581explain": 2412,
  "\u2581kukangula": 2413,
  "\u2581text": 2414,
  "ta": 2415,
  "\u2581Witness": 2416,
  "\u2581butukaka": 2417,
  "\u2581key": 2418,
  "\u2581looking": 2419,
  "\u2581pay": 2420,
  "\u2581reveal": 2421,
  "\u2581sign": 2422,
  "\u2581spoken": 2423,
  "\u2581standing": 2424,
  "evertheless": 2425,
  "\u2581sound": 2426,
  "\u2581bwa": 2427,
  "\u2581natila": 2428,
  "\u2581nziunga": 2429,
  "\u2581remind": 2430,
  "\u2581zeal": 2431,
  "r": 2432,
  "\u2581effective": 2433,
  "\u2581five": 2434,
  "\u2581guide": 2435,
  "\u2581kota": 2436,
  "\u2581ndilu": 2437,
  "He": 2438,
  "\u2581Bakorinto": 2439,
  "\u2581KE": 2440,
  "\u2581Ntama": 2441,
  "\u2581beautiful": 2442,
  "\u2581bless": 2443,
  "\u2581calls": 2444,
  "\u2581delight": 2445,
  "\u2581universe": 2446,
  "\u2581warned": 2447,
  "m": 2448,
  "\u2581100": 2449,
  "\u2581Sarah": 2450,
  "\u2581guard": 2451,
  "\u2581kusepedisa": 2452,
  "\u2581sharing": 2453,
  "\u2581Explain": 2454,
  "\u2581church": 2455,
  "\u2581friendship": 2456,
  "\u2581kilanga": 2457,
  "\u2581kubuyaka": 2458,
  "\u2581offspring": 2459,
  "\u2581Also": 2460,
  "\u2581BA": 2461,
  "\u2581bebisa": 2462,
  "\u2581building": 2463,
  "\u2581mudindu": 2464,
  "\u2581surely": 2465,
  "\u2581forgiveness": 2466,
  "\u2581meditate": 2467,
  "\u2581nto": 2468,
  "\u2581valuable": 2469,
  "\u2581Balongoki": 2470,
  "\u2581Questions": 2471,
  "\u2581Trac": 2472,
  "\u2581feeling": 2473,
  "\u2581kebuyaka": 2474,
  "\u2581Pennsylvania": 2475,
  "\u2581acceptable": 2476,
  "\u2581kezitisaka": 2477,
  "\u2581kusakumuna": 2478,
  "\u2581toko": 2479,
  "\u2581kukolama": 2480,
  "\u2581kulala": 2481,
  "\u2581maswa": 2482,
  "\u2581original": 2483,
  "\u2581prophecies": 2484,
  "\u2581sometimes": 2485,
  "udi": 2486,
  "\u2581bitini": 2487,
  "\u2581matabisi": 2488,
  "\u2581Elijah": 2489,
  "\u2581Paradise": 2490,
  "\u2581Ti": 2491,
  "\u2581bansambidi": 2492,
  "\u2581grateful": 2493,
  "\u2581prepared": 2494,
  "\u2581prospect": 2495,
  "\u2581R": 2496,
  "\u2581fail": 2497,
  "\u2581pure": 2498,
  "\u2581seems": 2499,
  "sepelaka": 2500,
  "\u2581Nsuka": 2501,
  "\u2581Regard": 2502,
  "\u2581commanded": 2503,
  "\u2581kusansa": 2504,
  "\u2581lose": 2505,
  "\u2581lupangu": 2506,
  "\u2581meant": 2507,
  "\u2581mebasisaka": 2508,
  "\u2581patience": 2509,
  "\u2581pursue": 2510,
  "\u2581bikaka": 2511,
  "\u2581door": 2512,
  "\u2581kuguluka": 2513,
  "\u2581m": 2514,
  "\u2581mposo": 2515,
  "\u2581nzenza": 2516,
  "\u2581requires": 2517,
  "\u2581Nk": 2518,
  "\u2581baprofete": 2519,
  "\u2581consequences": 2520,
  "\u2581decided": 2521,
  "\u2581priest": 2522,
  "\u2581Mpidina": 2523,
  "\u2581beliefs": 2524,
  "\u2581keyindula": 2525,
  "\u2581munoko": 2526,
  "\u2581returned": 2527,
  "\u2581vutukaka": 2528,
  "\u2581wila": 2529,
  "\u2581worked": 2530,
  "\u2581Ta": 2531,
  "\u2581butaka": 2532,
  "\u2581fire": 2533,
  "\u2581simba": 2534,
  "\u2581simple": 2535,
  "\u2581temptation": 2536,
  "\u2581Isaac": 2537,
  "\u2581books": 2538,
  "\u2581kufwana": 2539,
  "\u2581nungaka": 2540,
  "\u2581wine": 2541,
  "\u258132.": 2542,
  "\u2581Hall": 2543,
  "\u2581kelonguka": 2544,
  "\u2581kesadisa": 2545,
  "\u2581luguluku": 2546,
  "\u2581prophets": 2547,
  "\u2581Tendula": 2548,
  "\u2581Where": 2549,
  "\u2581banzambi": 2550,
  "\u2581formasio": 2551,
  "\u2581imagine": 2552,
  "\u2581kelonga": 2553,
  "\u2581least": 2554,
  "\u2581malanda": 2555,
  "\u2581student": 2556,
  "es": 2557,
  "\u2581accomplish": 2558,
  "\u2581existence": 2559,
  "\u2581mpukumuna": 2560,
  "bingaka": 2561,
  "ness": 2562,
  "\u2581Was": 2563,
  "\u2581association": 2564,
  "\u2581banti": 2565,
  "\u2581failed": 2566,
  "\u2581forget": 2567,
  "\u2581ngonda": 2568,
  "\u2581nzadi": 2569,
  "kudibanzaka": 2570,
  "\u2581Izaki": 2571,
  "\u2581basic": 2572,
  "\u2581convinced": 2573,
  "\u2581eventually": 2574,
  "\u2581invited": 2575,
  "\u2581security": 2576,
  "\u2581About": 2577,
  "\u2581Think": 2578,
  "\u2581commandments": 2579,
  "\u2581conclusion": 2580,
  "\u2581former": 2581,
  "\u2581includes": 2582,
  "\u2581kulongaka": 2583,
  "\u2581mampa": 2584,
  "\u2581uses": 2585,
  "\u2581prevent": 2586,
  "\u2581state": 2587,
  "\u2581undeserved": 2588,
  "ic": 2589,
  "\u2581Santu": 2590,
  "\u2581balula": 2591,
  "\u2581dia": 2592,
  "\u2581months": 2593,
  "\u2581realized": 2594,
  "\u2581sincere": 2595,
  "\u2581six": 2596,
  "\u2581students": 2597,
  "\u258141": 2598,
  "\u2581bukatikati": 2599,
  "\u2581divumu": 2600,
  "\u2581household": 2601,
  "\u2581ketendulaka": 2602,
  "\u2581kupema": 2603,
  "\u2581leta": 2604,
  "\u2581nature": 2605,
  "\u2581note": 2606,
  "\u2581response": 2607,
  "\u2581siansi": 2608,
  "\u2581wakana": 2609,
  "\u258142": 2610,
  "\u2581BIBLIA": 2611,
  "\u2581job": 2612,
  "\u2581ka": 2613,
  "\u2581parent": 2614,
  "It": 2615,
  "\u2581Ezekiele": 2616,
  "\u2581SONG": 2617,
  "\u2581nganda": 2618,
  "\u2581overcome": 2619,
  "\u2581praying": 2620,
  "\u2581zulunalu": 2621,
  "\u2581Philippians": 2622,
  "\u2581deeds": 2623,
  "\u2581lie": 2624,
  "\u2581manner": 2625,
  "\u2581required": 2626,
  "\u2581solula": 2627,
  "\u2581tina": 2628,
  "We": 2629,
  "an": 2630,
  "on": 2631,
  "\u2581Govern": 2632,
  "\u2581energy": 2633,
  "\u2581luyalanganu": 2634,
  "\u2581principle": 2635,
  "\u2581Ezekiel": 2636,
  "\u2581goodness": 2637,
  "\u2581immorality": 2638,
  "\u2581side": 2639,
  "responsibilities": 2640,
  "\u2581Mpenza": 2641,
  "\u2581aspects": 2642,
  "\u2581reject": 2643,
  "\u2581tongue": 2644,
  "\u2581understood": 2645,
  "In": 2646,
  "\u2581Ruth": 2647,
  "\u2581creatures": 2648,
  "\u2581kuyula": 2649,
  "\u2581la": 2650,
  "\u2581nkokila": 2651,
  "\u2581subjects": 2652,
  "\u2581write": 2653,
  "tilaka": 2654,
  "\u2581Kubasika": 2655,
  "\u2581encouraging": 2656,
  "\u2581lemfuka": 2657,
  "\u2581relatives": 2658,
  "\u2581sick": 2659,
  "\u2581step": 2660,
  "\u2581teachers": 2661,
  "\u2581teritware": 2662,
  "2)": 2663,
  "\u2581Micah": 2664,
  "\u2581Mount": 2665,
  "\u2581education": 2666,
  "\u2581hour": 2667,
  "\u2581kukusa": 2668,
  "\u2581practices": 2669,
  "sonikilaka": 2670,
  "\u2581Nehemia": 2671,
  "\u2581included": 2672,
  "\u2581master": 2673,
  "\u2581overseers": 2674,
  "\u2581passed": 2675,
  "This": 2676,
  "more": 2677,
  "\u2581bifwanisu": 2678,
  "\u2581cope": 2679,
  "\u2581discussed": 2680,
  "\u2581elderly": 2681,
  "\u2581fill": 2682,
  "\u2581kubakisaka": 2683,
  "\u2581kusumba": 2684,
  "\u2581wait": 2685,
  "\u2581Colossians": 2686,
  "\u2581approval": 2687,
  "\u2581articles": 2688,
  "\u2581mental": 2689,
  "\u2581monisila": 2690,
  "\u2581Kulonguka": 2691,
  "\u2581assist": 2692,
  "\u2581bangonda": 2693,
  "\u2581careful": 2694,
  "\u2581kutomisa": 2695,
  "\u2581parts": 2696,
  "balula": 2697,
  "est": 2698,
  "\u2581Edeni": 2699,
  "\u2581Paladisu": 2700,
  "\u2581Yoa": 2701,
  "\u2581assigned": 2702,
  "\u2581direct": 2703,
  "\u2581lessons": 2704,
  "\u2581Lusilu": 2705,
  "\u2581mbuta": 2706,
  "\u2581negative": 2707,
  "\u2581prison": 2708,
  "\u2581spend": 2709,
  "\u2581English": 2710,
  "\u2581Give": 2711,
  "\u2581Note": 2712,
  "\u2581Rome": 2713,
  "\u2581bearing": 2714,
  "\u2581ground": 2715,
  "\u2581request": 2716,
  "\u2581yedisa": 2717,
  "\u2581zealous": 2718,
  "-": 2719,
  "\u2581Eden": 2720,
  "\u2581Nehemiah": 2721,
  "\u2581Ngumba": 2722,
  "\u2581bandilu": 2723,
  "\u2581danger": 2724,
  "\u2581kuyibuka": 2725,
  "\u2581listening": 2726,
  "\u2581save": 2727,
  "\u2581seeing": 2728,
  "\u2581suffered": 2729,
  "\u258144": 2730,
  "\u2581Soon": 2731,
  "\u2581convention": 2732,
  "\u2581instead": 2733,
  "\u2581ketwadisaka": 2734,
  "\u2581kinsweki": 2735,
  "\u2581kuyantikaka": 2736,
  "\u2581miziki": 2737,
  "\u2581spent": 2738,
  "\u2581yidikaka": 2739,
  "\u2581BANTU": 2740,
  "\u2581Bansadi": 2741,
  "\u2581becomes": 2742,
  "\u2581concerning": 2743,
  "\u2581event": 2744,
  "\u2581political": 2745,
  "\u2581yikaka": 2746,
  "\u2581Recall": 2747,
  "\u2581assured": 2748,
  "\u2581concerned": 2749,
  "\u2581member": 2750,
  "\u2581wapi": 2751,
  "\u2581Imagine": 2752,
  "\u2581basisa": 2753,
  "\u2581faithfully": 2754,
  "\u2581kukatukaka": 2755,
  "\u2581lot": 2756,
  "\u2581play": 2757,
  "\u2581riches": 2758,
  "\u2581solulaka": 2759,
  "\u2581Kolosai": 2760,
  "\u2581Levi": 2761,
  "\u2581Pharaoh": 2762,
  "\u2581Ruti": 2763,
  "\u2581Should": 2764,
  "\u2581consideration": 2765,
  "\u2581distress": 2766,
  "\u2581experiences": 2767,
  "\u2581kefwaka": 2768,
  "\u2581limited": 2769,
  "\u2581sambisa": 2770,
  "\u2581sinful": 2771,
  "3": 2772,
  "yina": 2773,
  "\u2581Faith": 2774,
  "\u2581Kikristu": 2775,
  "\u2581chose": 2776,
  "\u2581konda": 2777,
  "\u2581kubasikaka": 2778,
  "\u2581kubumba": 2779,
  "\u2581kulwata": 2780,
  "\u2581prophetic": 2781,
  "\u2581Only": 2782,
  "\u2581States": 2783,
  "\u2581yidika": 2784,
  "\u258135": 2785,
  "\u2581branch": 2786,
  "\u2581companions": 2787,
  "\u2581enemy": 2788,
  "\u2581enter": 2789,
  "\u2581noted": 2790,
  "\u2581relief": 2791,
  "\u2581ruler": 2792,
  "\u2581simbaka": 2793,
  "\u2581yelaka": 2794,
  "\u2581active": 2795,
  "\u2581answered": 2796,
  "\u2581darkness": 2797,
  "\u2581million": 2798,
  "\u2581mutambu": 2799,
  "\u2581publishers": 2800,
  "\u2581race": 2801,
  "\u2581reasonable": 2802,
  "\u2581term": 2803,
  "\u2581third": 2804,
  "\u25811919": 2805,
  "\u2581Samaria": 2806,
  "\u2581break": 2807,
  "\u2581harvest": 2808,
  "\u2581ma": 2809,
  "\u2581referred": 2810,
  "\u2581sea": 2811,
  "\u2581Baroma": 2812,
  "\u2581attack": 2813,
  "\u2581bangunga": 2814,
  "\u2581caring": 2815,
  "\u2581evening": 2816,
  "\u2581husbands": 2817,
  "\u2581insight": 2818,
  "\u2581killed": 2819,
  "\u2581kubutuka": 2820,
  "\u2581points": 2821,
  "\u2581sight": 2822,
  "\u258120,": 2823,
  "\u2581Bankuluntu": 2824,
  "\u2581Good": 2825,
  "\u2581either": 2826,
  "\u2581nsaka": 2827,
  "\u2581tamonisa": 2828,
  "all": 2829,
  "\u2581Farao": 2830,
  "\u2581claim": 2831,
  "\u2581extent": 2832,
  "\u2581kesosa": 2833,
  "\u2581outside": 2834,
  "\u2581rulership": 2835,
  "\u2581agree": 2836,
  "\u2581deliver": 2837,
  "\u2581heartfelt": 2838,
  "\u2581nkembo": 2839,
  "\u2581pride": 2840,
  "\u2581slaves": 2841,
  "\u2581sun": 2842,
  "\u2581territory": 2843,
  "\u2581train": 2844,
  "\u2581vutuka": 2845,
  "able": 2846,
  "\u25817]": 2847,
  "\u2581Armagedoni": 2848,
  "\u2581bapas": 2849,
  "\u2581idea": 2850,
  "\u2581immoral": 2851,
  "\u2581mildness": 2852,
  "\u2581week": 2853,
  "Keti": 2854,
  "\u2581Body": 2855,
  "\u2581High": 2856,
  "\u2581Kikesa": 2857,
  "\u2581Learn": 2858,
  "\u2581Mishe": 2859,
  "\u2581Nzadi": 2860,
  "\u2581established": 2861,
  "\u2581feet": 2862,
  "\u2581mbona": 2863,
  "\u2581nkufi": 2864,
  "\u2581opened": 2865,
  "gogo": 2866,
  "uyimbi": 2867,
  "\u2581kuzingaka": 2868,
  "\u2581minds": 2869,
  "\u2581purposes": 2870,
  "c": 2871,
  "\u2581Brother": 2872,
  "\u2581diskure": 2873,
  "\u2581garden": 2874,
  "\u2581kudibongisa": 2875,
  "\u2581loss": 2876,
  "\u2581matiti": 2877,
  "\u2581yula": 2878,
  "\u2581Mpa": 2879,
  "\u2581battle": 2880,
  "\u2581continues": 2881,
  "\u2581ketaninaka": 2882,
  "\u2581kukumina": 2883,
  "\u2581luswaswanu": 2884,
  "\u2581tayala": 2885,
  "Mu": 2886,
  "\u2581affected": 2887,
  "\u2581appear": 2888,
  "\u2581bangumba": 2889,
  "\u2581describes": 2890,
  "\u2581ki": 2891,
  "\u2581kudila": 2892,
  "\u2581mumbongo": 2893,
  "\u2581observed": 2894,
  "\u2581statement": 2895,
  "\u2581vilaka": 2896,
  "\u258143": 2897,
  "\u2581Banani": 2898,
  "\u2581Kelongaka": 2899,
  "\u2581endeavor": 2900,
  "\u2581gulusa": 2901,
  "\u2581hours": 2902,
  "\u2581measure": 2903,
  "\u2581raise": 2904,
  "\u2581remained": 2905,
  "\u2581satisfaction": 2906,
  "\u2581takwisa": 2907,
  "\u2581traveling": 2908,
  "\u2581youth": 2909,
  "ually": 2910,
  "\u00b7": 2911,
  "\u2581Being": 2912,
  "\u2581York": 2913,
  "\u2581bawi": 2914,
  "\u2581helpful": 2915,
  "\u2581metulaka": 2916,
  "\u2581ngiufula": 2917,
  "\u2581opportunities": 2918,
  "\u2581Christendom": 2919,
  "\u2581Heb": 2920,
  "\u2581bansosa": 2921,
  "\u2581countries": 2922,
  "\u2581illustrate": 2923,
  "\u2581kwelaka": 2924,
  "\u2581talanda": 2925,
  "\u2581viewed": 2926,
  "Yandi": 2927,
  "\u2581babwala": 2928,
  "\u2581bakyeleka": 2929,
  "\u2581banzikisa": 2930,
  "\u2581gifts": 2931,
  "\u2581kebakisa": 2932,
  "\u2581refers": 2933,
  "\u2581tambula": 2934,
  "Ata": 2935,
  "us": 2936,
  "\u2581COVER": 2937,
  "\u2581closely": 2938,
  "\u2581kuyulaka": 2939,
  "\u2581ngumba": 2940,
  "\u2581pleasure": 2941,
  "\u2581produce": 2942,
  "\u2581tazinga": 2943,
  "\u2581united": 2944,
  "\u2581Answer": 2945,
  "\u2581Armageddon": 2946,
  "\u2581Ask": 2947,
  "\u2581Bamvutu": 2948,
  "\u2581DISOLO": 2949,
  "\u2581although": 2950,
  "\u2581beloved": 2951,
  "\u2581morning": 2952,
  "\u2581saved": 2953,
  "\u2581twadisaka": 2954,
  "\u2581workers": 2955,
  "%": 2956,
  "5": 2957,
  "When": 2958,
  "\u2581Bima": 2959,
  "\u2581Kyeleka": 2960,
  "\u2581animals": 2961,
  "\u2581anxiety": 2962,
  "\u2581dealings": 2963,
  "\u2581invitation": 2964,
  "\u2581outstanding": 2965,
  "asolo": 2966,
  "\u2581assure": 2967,
  "\u2581boy": 2968,
  "\u2581kesongaka": 2969,
  "\u2581mpembe": 2970,
  "\u2581nganga": 2971,
  "\u2581waiting": 2972,
  "Mosaic": 2973,
  "u": 2974,
  "\u2581areas": 2975,
  "\u2581dimeme": 2976,
  "\u2581immediately": 2977,
  "\u2581kufuta": 2978,
  "\u2581kuteka": 2979,
  "\u2581Deuteronomy": 2980,
  "\u2581Kifalansa": 2981,
  "\u2581attending": 2982,
  "\u2581contains": 2983,
  "\u2581girl": 2984,
  "\u2581kevingila": 2985,
  "z": 2986,
  "\u258148": 2987,
  "\u2581drink": 2988,
  "\u2581kukeba": 2989,
  "\u2581kuvutukila": 2990,
  "\u2581siki": 2991,
  "\u2581twadisa": 2992,
  "bo": 2993,
  "kwa": 2994,
  "\u2581Yibuka": 2995,
  "\u2581correct": 2996,
  "\u2581drawn": 2997,
  "\u2581eternal": 2998,
  "\u2581mefwanana": 2999,
  "\u2581mouth": 3000,
  "\u2581office": 3001,
  "\u2581successful": 3002,
  "h": 3003,
  "upasu": 3004,
  "\u2581goes": 3005,
  "\u2581harm": 3006,
  "\u2581heed": 3007,
  "\u2581indicated": 3008,
  "\u2581lasting": 3009,
  "\u2581solaka": 3010,
  "\u2581telama": 3011,
  "\u2581tender": 3012,
  "\u2581army": 3013,
  "\u2581bademo": 3014,
  "\u2581entertainment": 3015,
  "\u2581foreign": 3016,
  "\u2581kia": 3017,
  "\u2581mbangika": 3018,
  "\u2581p": 3019,
  "\u2581rejected": 3020,
  "kangaka": 3021,
  "\u2581Loti": 3022,
  "\u2581Mayele": 3023,
  "\u2581Over": 3024,
  "\u2581almo": 3025,
  "\u2581arrived": 3026,
  "\u2581demons": 3027,
  "\u2581expressions": 3028,
  "\u2581lies": 3029,
  "\u2581lolula": 3030,
  "\u2581looked": 3031,
  "\u2581seemed": 3032,
  "or": 3033,
  "\u2581(3)": 3034,
  "\u2581Rom": 3035,
  "\u2581eye": 3036,
  "\u2581leading": 3037,
  "\u2581pioneers": 3038,
  "\u2581rely": 3039,
  "\u2581report": 3040,
  "\u2581strengthened": 3041,
  "\u2581wickedness": 3042,
  "\u2581Bakala": 3043,
  "\u2581Could": 3044,
  "\u2581Lot": 3045,
  "\u2581Prov": 3046,
  "\u2581built": 3047,
  "\u2581instruction": 3048,
  "\u2581kukabula": 3049,
  "\u2581literature": 3050,
  "\u2581ndolula": 3051,
  "\u2581secular": 3052,
  "\u2581unique": 3053,
  "\u2581KELE": 3054,
  "\u2581bizumba": 3055,
  "\u2581kim": 3056,
  "\u2581overseer": 3057,
  "\u2581pattern": 3058,
  "\u2581samunaka": 3059,
  "\u2581survive": 3060,
  "\u2581Dibuta": 3061,
  "\u2581Fwete": 3062,
  "\u2581Kiteso": 3063,
  "\u2581Kyese": 3064,
  "\u2581Pilate": 3065,
  "\u2581Under": 3066,
  "\u2581ZULU": 3067,
  "\u2581cares": 3068,
  "\u2581identify": 3069,
  "\u2581judge": 3070,
  "\u2581likewise": 3071,
  "\u2581mezabanaka": 3072,
  "\u2581notice": 3073,
  "\u2581youths": 3074,
  "\u2581zwaka": 3075,
  "\u2581Bansangu": 3076,
  "\u2581Nsukansuka": 3077,
  "\u2581greatly": 3078,
  "\u2581gulusaka": 3079,
  "\u2581sees": 3080,
  "\u2581\"!": 3081,
  "\u2581France": 3082,
  "\u2581cut": 3083,
  "\u2581disipline": 3084,
  "\u2581easily": 3085,
  "\u2581recent": 3086,
  "\u2581translated": 3087,
  "\u2581tungaka": 3088,
  "vandaka": 3089,
  "\u258134.": 3090,
  "\u2581Ana": 3091,
  "\u2581improve": 3092,
  "\u2581lolulaka": 3093,
  "\u2581longi": 3094,
  "\u2581madidi": 3095,
  "\u2581provisions": 3096,
  "\u2581search": 3097,
  "\u2581succeed": 3098,
  "\u2581teacher": 3099,
  "\u2581widow": 3100,
  "\u2581ye": 3101,
  "2": 3102,
  "6": 3103,
  "\u2581Baka": 3104,
  "\u2581Young": 3105,
  "\u2581bigonsa": 3106,
  "\u2581emotional": 3107,
  "\u2581growth": 3108,
  "\u2581kufuluka": 3109,
  "\u2581reveals": 3110,
  "\u2581sakumunaka": 3111,
  "\u2581willingly": 3112,
  "\u2581yalaka": 3113,
  "\u2581Land": 3114,
  "\u2581War": 3115,
  "\u2581contrary": 3116,
  "\u2581groups": 3117,
  "\u2581inheritance": 3118,
  "\u2581kutendulaka": 3119,
  "\u2581magazine": 3120,
  "\u2581minister": 3121,
  "\u2581rebellion": 3122,
  "\u2581trial": 3123,
  "mpika": 3124,
  "\u2581decide": 3125,
  "\u2581increase": 3126,
  "\u2581kubikalaka": 3127,
  "\u2581kubumbana": 3128,
  "\u2581mepesa": 3129,
  "\u2581mpongi": 3130,
  "\u2581promote": 3131,
  "\u2581refused": 3132,
  "\u2581spread": 3133,
  "\u2581type": 3134,
  "\u2581Ecclesiastes": 3135,
  "\u2581Kuzaba": 3136,
  "\u2581Look": 3137,
  "\u2581WHAT": 3138,
  "\u2581connection": 3139,
  "\u2581half": 3140,
  "\u2581hurt": 3141,
  "\u2581kintulumukina": 3142,
  "\u2581verses": 3143,
  "te": 3144,
  "\u258139": 3145,
  "\u2581Mvimba": 3146,
  "\u2581Sovereign": 3147,
  "\u2581directed": 3148,
  "\u2581due": 3149,
  "\u2581issues": 3150,
  "\u2581kunatila": 3151,
  "\u2581mesa": 3152,
  "\u2581patient": 3153,
  "kotisaka": 3154,
  "yandi": 3155,
  "\u258122,": 3156,
  "\u2581Exodus": 3157,
  "\u2581Habakuki": 3158,
  "\u2581Luyalu": 3159,
  "\u2581U": 3160,
  "\u2581afraid": 3161,
  "\u2581bu": 3162,
  "\u2581carried": 3163,
  "\u2581conclude": 3164,
  "\u2581instructions": 3165,
  "\u2581makwisa": 3166,
  "\u2581mature": 3167,
  "\u2581nsukansuka": 3168,
  "\u2581refer": 3169,
  "\u2581susi": 3170,
  "\u2581Habakkuk": 3171,
  "\u2581Zechariah": 3172,
  "\u2581eating": 3173,
  "\u2581kesambilaka": 3174,
  "\u2581nwana": 3175,
  "\u2581occur": 3176,
  "\u2581pass": 3177,
  "\u2581studies": 3178,
  "\u2581weak": 3179,
  "Jesus": 3180,
  "\u02b9": 3181,
  "\u2581IN": 3182,
  "\u2581Nkw": 3183,
  "\u2581Spirit": 3184,
  "\u2581acted": 3185,
  "\u2581applying": 3186,
  "\u2581cover": 3187,
  "\u2581inside": 3188,
  "\u2581lemfukaka": 3189,
  "\u2581meal": 3190,
  "\u2581reality": 3191,
  "\u2581tazola": 3192,
  "\u2581trained": 3193,
  "Messianic": 3194,
  "\u2581Ezekiasi": 3195,
  "\u2581bankengi": 3196,
  "\u2581engage": 3197,
  "\u2581injustice": 3198,
  "\u2581kekuka": 3199,
  "\u2581lutisaka": 3200,
  "\u2581missionary": 3201,
  "\u2581motivate": 3202,
  "\u2581responsible": 3203,
  "\u2581road": 3204,
  "\u2581sex": 3205,
  "\u2581siamisaka": 3206,
  "\u2581sword": 3207,
  "\u2581views": 3208,
  "\u2581warm": 3209,
  "\u258110]": 3210,
  "\u2581Galatia": 3211,
  "\u2581Help": 3212,
  "\u2581Kanana": 3213,
  "\u2581Likewise": 3214,
  "\u2581Pentecost": 3215,
  "\u2581Tula": 3216,
  "\u2581appeared": 3217,
  "\u2581honest": 3218,
  "\u2581involve": 3219,
  "\u2581parable": 3220,
  "\u2581privileges": 3221,
  "\u2581speaks": 3222,
  "ikalulu": 3223,
  "\u258144.": 3224,
  "\u2581relates": 3225,
  "ngolo": 3226,
  "\u2581Enoki": 3227,
  "\u2581Mpasi": 3228,
  "\u2581faithfulness": 3229,
  "\u2581fearing": 3230,
  "\u2581kekwenda": 3231,
  "\u2581lutaka": 3232,
  "\u2581meka": 3233,
  "\u2581receiving": 3234,
  "\u2581shepherds": 3235,
  "ndimisaka": 3236,
  "\u2581Mbi": 3237,
  "\u2581Pantekoti": 3238,
  "\u2581Sala": 3239,
  "\u2581Well": 3240,
  "\u2581applied": 3241,
  "\u2581busy": 3242,
  "\u2581commission": 3243,
  "\u2581forces": 3244,
  "\u2581indicate": 3245,
  "\u2581kuzenga": 3246,
  "\u2581late": 3247,
  "\u2581society": 3248,
  "\u258115]": 3249,
  "\u2581Make": 3250,
  "\u2581Zulu": 3251,
  "\u2581bambanza": 3252,
  "\u2581buta": 3253,
  "\u2581constantly": 3254,
  "\u2581declare": 3255,
  "\u2581du": 3256,
  "\u2581essential": 3257,
  "\u2581mekudipesaka": 3258,
  "\u2581mistakes": 3259,
  "\u2581mountain": 3260,
  "\u2581pleased": 3261,
  "\u25812013": 3262,
  "\u2581Bing": 3263,
  "\u2581Galatians": 3264,
  "\u2581conversation": 3265,
  "\u2581hearing": 3266,
  "\u2581nkisi": 3267,
  "\u2581nkunga": 3268,
  "\u2581responded": 3269,
  "\u2581send": 3270,
  "\u2581telling": 3271,
  "O": 3272,
  "bikudulu": 3273,
  "\u2581Tesalonika": 3274,
  "\u2581aspect": 3275,
  "\u2581believed": 3276,
  "\u2581business": 3277,
  "\u2581comments": 3278,
  "\u2581courageous": 3279,
  "\u2581mighty": 3280,
  "\u2581peoples": 3281,
  "\u2581primary": 3282,
  "\u2581witnessing": 3283,
  "le": 3284,
  "mong": 3285,
  "\u2581Bangindu": 3286,
  "\u2581Enoch": 3287,
  "\u2581Hav": 3288,
  "\u2581advantage": 3289,
  "\u2581chapters": 3290,
  "\u2581cities": 3291,
  "\u2581deliverance": 3292,
  "\u2581ikwa": 3293,
  "\u2581kepusa": 3294,
  "\u2581legal": 3295,
  "\u2581presented": 3296,
  "\u2581refuge": 3297,
  "\u2581resolve": 3298,
  "Keep": 3299,
  "\u2581Bantotila": 3300,
  "\u2581Pet": 3301,
  "\u2581Sad": 3302,
  "\u2581eight": 3303,
  "\u2581kindly": 3304,
  "\u2581ko": 3305,
  "\u2581kukabwana": 3306,
  "\u2581mufwidi": 3307,
  "\u2581music": 3308,
  "All": 3309,
  "one": 3310,
  "\u2581Bikalulu": 3311,
  "\u2581Her": 3312,
  "\u2581Hezekiah": 3313,
  "\u2581amount": 3314,
  "\u2581contact": 3315,
  "\u2581determination": 3316,
  "\u2581discern": 3317,
  "\u2581focused": 3318,
  "\u2581joyful": 3319,
  "\u2581ketalaka": 3320,
  "\u2581kunataka": 3321,
  "\u2581mebalula": 3322,
  "\u2581requirements": 3323,
  "\u2581tears": 3324,
  "\u2581values": 3325,
  "en": 3326,
  "\u2581(1": 3327,
  "\u2581Baeb": 3328,
  "\u2581Take": 3329,
  "\u2581beneficial": 3330,
  "\u2581box": 3331,
  "\u2581drinking": 3332,
  "\u2581powers": 3333,
  "\u2581relative": 3334,
  "\u2581takuka": 3335,
  "\u2581wish": 3336,
  "\u2581Allemagne": 3337,
  "\u2581Diabulu": 3338,
  "\u2581Wh": 3339,
  "\u2581distrike": 3340,
  "\u2581homes": 3341,
  "\u2581kukwendaka": 3342,
  "\u2581kulongisilaka": 3343,
  "\u2581kutindaka": 3344,
  "\u2581setting": 3345,
  "\u2581vutulaka": 3346,
  "1": 3347,
  "What": 3348,
  "ion": 3349,
  "\u2581Catholic": 3350,
  "\u2581Christianity": 3351,
  "\u2581Israelite": 3352,
  "\u2581Kikuma": 3353,
  "\u2581ark": 3354,
  "\u2581freely": 3355,
  "\u2581kubeba": 3356,
  "re": 3357,
  "\u2581Bilumbu": 3358,
  "\u2581Mvita": 3359,
  "\u2581Parents": 3360,
  "\u2581baluyalu": 3361,
  "\u2581bamvwama": 3362,
  "\u2581mununu": 3363,
  "\u2581ruling": 3364,
  "\u2581treated": 3365,
  "and": 3366,
  "ether": 3367,
  "great": 3368,
  "is": 3369,
  "\u258121,": 3370,
  "\u258139.": 3371,
  "\u2581Kupesa": 3372,
  "\u2581Promised": 3373,
  "\u2581comforting": 3374,
  "\u2581escape": 3375,
  "\u2581grew": 3376,
  "\u2581kiti": 3377,
  "\u2581kunwanina": 3378,
  "\u2581kuvidisa": 3379,
  "\u2581seriously": 3380,
  "\u2581superior": 3381,
  "\u2581wedding": 3382,
  "\u2581aside": 3383,
  "\u2581bond": 3384,
  "\u2581cases": 3385,
  "\u2581entered": 3386,
  "\u2581finally": 3387,
  "\u2581kuditanina": 3388,
  "\u2581kuponaka": 3389,
  "\u2581occurred": 3390,
  "\u2581wealth": 3391,
  "\u2581yela": 3392,
  "\u2581yitukaka": 3393,
  "\u258118]": 3394,
  "\u2581dealing": 3395,
  "\u2581delivered": 3396,
  "\u2581details": 3397,
  "\u2581differ": 3398,
  "\u2581grasp": 3399,
  "\u2581invisible": 3400,
  "\u2581lunga": 3401,
  "\u2581mana": 3402,
  "\u2581munsiku": 3403,
  "\u2581sinned": 3404,
  "Look": 3405,
  "\u2581Abel": 3406,
  "\u2581Amosi": 3407,
  "\u2581Gospel": 3408,
  "\u2581adds": 3409,
  "\u2581bambwetete": 3410,
  "\u2581bangungudi": 3411,
  "\u2581decades": 3412,
  "\u2581kukotisa": 3413,
  "\u2581major": 3414,
  "\u2581selfish": 3415,
  "\u2581talking": 3416,
  "Mambu": 3417,
  "My": 3418,
  "\u25815]": 3419,
  "\u258165": 3420,
  "\u2581Aaron": 3421,
  "\u2581Cain": 3422,
  "\u2581arise": 3423,
  "\u2581bibansa": 3424,
  "\u2581blind": 3425,
  "\u2581communication": 3426,
  "\u2581difference": 3427,
  "\u2581kuyimba": 3428,
  "\u2581performed": 3429,
  "\u2581vidisaka": 3430,
  "l": 3431,
  "\u2581Bangyufula": 3432,
  "\u2581Ki": 3433,
  "\u2581Malachi": 3434,
  "\u2581Second": 3435,
  "\u2581Translation": 3436,
  "\u2581awake": 3437,
  "\u2581committed": 3438,
  "\u2581gods": 3439,
  "\u2581nzyunga": 3440,
  "\u2581represent": 3441,
  "9": 3442,
  "There": 3443,
  "\u25812012": 3444,
  "\u2581Afrika": 3445,
  "\u2581Amos": 3446,
  "\u2581Banzo": 3447,
  "\u2581assurance": 3448,
  "\u2581glorious": 3449,
  "\u2581illustrations": 3450,
  "\u2581kezabisa": 3451,
  "\u2581treasure": 3452,
  "\u2581worshipers": 3453,
  "\u2581worth": 3454,
  "\u2581Version": 3455,
  "\u2581Zina": 3456,
  "\u2581associated": 3457,
  "\u2581benda": 3458,
  "\u2581bingana": 3459,
  "\u2581daughters": 3460,
  "\u2581governments": 3461,
  "\u2581mebaka": 3462,
  "\u2581miles": 3463,
  "\u2581thousand": 3464,
  "\u2581vous": 3465,
  "he": 3466,
  "quite": 3467,
  "\u2581Kati": 3468,
  "\u2581bimenga": 3469,
  "\u2581developed": 3470,
  "\u2581kebinga": 3471,
  "\u2581kill": 3472,
  "\u2581lembaka": 3473,
  "\u2581n": 3474,
  "\u2581nzikisa": 3475,
  "\u2581persecuted": 3476,
  "\u2581social": 3477,
  "kapu": 3478,
  "\u2581Kusadila": 3479,
  "\u2581Paki": 3480,
  "\u2581Vers": 3481,
  "\u2581aid": 3482,
  "\u2581b": 3483,
  "\u2581describe": 3484,
  "\u2581kusilaka": 3485,
  "\u2581kuyiba": 3486,
  "\u2581listened": 3487,
  "\u2581paragraph": 3488,
  "\u2581perform": 3489,
  "\u2581provision": 3490,
  "\u2581separate": 3491,
  "\u2581translation": 3492,
  "\u2581wilderness": 3493,
  "\u2581younger": 3494,
  "ndilaka": 3495,
  "\u2581Awake": 3496,
  "\u2581Kubika": 3497,
  "\u2581Kutanga": 3498,
  "\u2581School": 3499,
  "\u2581ble": 3500,
  "\u2581corrupt": 3501,
  "\u2581factors": 3502,
  "\u2581indicates": 3503,
  "\u2581mungwa": 3504,
  "\u2581wolo": 3505,
  "\u2581Nkanda": 3506,
  "\u2581Pie": 3507,
  "\u2581bumbaka": 3508,
  "\u2581expected": 3509,
  "\u2581gathered": 3510,
  "\u2581kwikila": 3511,
  "\u2581mvwama": 3512,
  "\u2581proud": 3513,
  "\u2581samuna": 3514,
  "\u2581throne": 3515,
  "\u2581Bamfumu": 3516,
  "\u2581Banoti": 3517,
  "\u2581Kaini": 3518,
  "\u2581Katolika": 3519,
  "\u2581dangerous": 3520,
  "\u2581determine": 3521,
  "\u2581discouraged": 3522,
  "\u2581feels": 3523,
  "\u2581fell": 3524,
  "\u2581fwanana": 3525,
  "\u2581kesyamisa": 3526,
  "\u2581kukebisaka": 3527,
  "\u2581kusaka": 3528,
  "\u2581meponaka": 3529,
  "\u2581month": 3530,
  "\u2581mpusu": 3531,
  "\u2581reminders": 3532,
  "\u2581sa": 3533,
  "\u2581scriptures": 3534,
  "\u2581vutula": 3535,
  "\u2581yes": 3536,
  "\u2581Answered": 3537,
  "\u2581behavior": 3538,
  "\u2581bimvwama": 3539,
  "\u2581dikambu": 3540,
  "\u2581nordi": 3541,
  "\u2581quoted": 3542,
  "\u2581reference": 3543,
  "\u2581witnesses": 3544,
  "3:": 3545,
  "\u258149": 3546,
  "\u2581Elisha": 3547,
  "\u2581H": 3548,
  "\u2581Kuvila": 3549,
  "\u2581Rev": 3550,
  "\u2581description": 3551,
  "\u2581mefwaka": 3552,
  "\u2581merciful": 3553,
  "\u2581names": 3554,
  "\u2581proof": 3555,
  "\u2581sinners": 3556,
  "\u2581spirituality": 3557,
  "6:": 3558,
  "ought": 3559,
  "\u258138.": 3560,
  "\u2581Lufwa": 3561,
  "\u2581PAGE": 3562,
  "\u2581begotten": 3563,
  "\u2581exist": 3564,
  "\u2581front": 3565,
  "\u2581grief": 3566,
  "\u2581indefinite": 3567,
  "\u2581providing": 3568,
  "\u2581zabanaka": 3569,
  "ous": 3570,
  "p": 3571,
  "sadisaka": 3572,
  "\u258190": 3573,
  "\u2581Abele": 3574,
  "\u2581Thessalonians": 3575,
  "\u2581allows": 3576,
  "\u2581buzoba": 3577,
  "\u2581considering": 3578,
  "\u2581cry": 3579,
  "\u2581inhabited": 3580,
  "\u2581kelungisaka": 3581,
  "\u2581neighbors": 3582,
  "\u2581path": 3583,
  "\u2581secret": 3584,
  "\u2581stake": 3585,
  "\u2581strengthening": 3586,
  "\u2581INKI": 3587,
  "\u2581J": 3588,
  "\u2581Kwikama": 3589,
  "\u2581Profete": 3590,
  "\u2581accomplished": 3591,
  "\u2581kubutukaka": 3592,
  "\u2581kumenga": 3593,
  "\u2581main": 3594,
  "\u2581opposers": 3595,
  "\u2581remains": 3596,
  "\u2581repentant": 3597,
  "\u2581satisfying": 3598,
  "\u2581takatula": 3599,
  "\u2581thank": 3600,
  "\u2581wanzyo": 3601,
  "\u2581Keyibuka": 3602,
  "\u2581adultery": 3603,
  "\u2581bakilometre": 3604,
  "\u2581bandeke": 3605,
  "\u2581bantima": 3606,
  "\u2581belong": 3607,
  "\u2581bikisa": 3608,
  "\u2581chief": 3609,
  "\u2581gratitude": 3610,
  "\u2581inhabitants": 3611,
  "\u2581kebasikaka": 3612,
  "\u2581lay": 3613,
  "\u2581lemfukila": 3614,
  "\u2581makelele": 3615,
  "\u2581reports": 3616,
  "day": 3617,
  "\u2581Bampasi": 3618,
  "\u2581Family": 3619,
  "\u2581Malashi": 3620,
  "\u2581dear": 3621,
  "\u2581ditadi": 3622,
  "\u2581easier": 3623,
  "\u2581figurative": 3624,
  "\u2581growing": 3625,
  "\u2581kebutaka": 3626,
  "\u2581leads": 3627,
  "\u2581lovingly": 3628,
  "\u2581lwata": 3629,
  "\u2581mbele": 3630,
  "\u2581nkuna": 3631,
  "\u2581normal": 3632,
  "\u2581probab": 3633,
  "\u2581program": 3634,
  "\u2581recognized": 3635,
  "\u2581remarkable": 3636,
  "\u2581writer": 3637,
  "si": 3638,
  "\u2581Once": 3639,
  "\u2581Show": 3640,
  "\u2581Surely": 3641,
  "\u2581big": 3642,
  "\u2581bunkufi": 3643,
  "\u2581challenging": 3644,
  "\u2581descendants": 3645,
  "\u2581gone": 3646,
  "\u2581ideas": 3647,
  "\u2581kumonisila": 3648,
  "\u2581kusonikilaka": 3649,
  "\u2581nkengi": 3650,
  "\u2581preced": 3651,
  "\u2581publication": 3652,
  "\u2581reminded": 3653,
  "\u2581swaswana": 3654,
  "go": 3655,
  "\u25811914.": 3656,
  "\u258130:": 3657,
  "\u2581BETO": 3658,
  "\u2581concerns": 3659,
  "\u2581global": 3660,
  "\u2581mesalamaka": 3661,
  "\u2581nsamuni": 3662,
  "\u2581organized": 3663,
  "\u2581placed": 3664,
  "\u2581qualified": 3665,
  "\u2581song": 3666,
  "\u258136.": 3667,
  "\u25819]": 3668,
  "\u2581Baleke": 3669,
  "\u2581Him": 3670,
  "\u2581Passover": 3671,
  "\u2581Russell": 3672,
  "\u2581admonition": 3673,
  "\u2581bebisaka": 3674,
  "\u2581fulukaka": 3675,
  "\u2581kibuti": 3676,
  "\u2581mefwa": 3677,
  "\u2581tribe": 3678,
  "\u2581violent": 3679,
  "ers": 3680,
  "\u2581Flood": 3681,
  "\u2581Kingelesi": 3682,
  "\u2581Other": 3683,
  "\u2581compared": 3684,
  "\u2581environment": 3685,
  "\u2581fleshly": 3686,
  "\u2581funda": 3687,
  "\u2581guluka": 3688,
  "\u2581kelongisila": 3689,
  "\u2581kutelama": 3690,
  "\u2581mild": 3691,
  "\u2581nwanaka": 3692,
  "\u2581remaining": 3693,
  "\u2581render": 3694,
  "\u2581rise": 3695,
  "\u2581rulers": 3696,
  "\u2581viewpoint": 3697,
  "\u2581vukanaka": 3698,
  "lemfukilaka": 3699,
  "\u2581Children": 3700,
  "\u2581Evanzile": 3701,
  "\u2581Kings": 3702,
  "\u2581Know": 3703,
  "\u2581Kuwakana": 3704,
  "\u2581Never": 3705,
  "\u2581assistance": 3706,
  "\u2581attended": 3707,
  "\u2581choices": 3708,
  "\u2581humbly": 3709,
  "\u2581kunungaka": 3710,
  "\u2581makutu": 3711,
  "\u2581studied": 3712,
  "ypad": 3713,
  "\u258155": 3714,
  "\u2581Both": 3715,
  "\u2581Canada": 3716,
  "\u2581OF": 3717,
  "\u2581Source": 3718,
  "\u2581YOU": 3719,
  "\u2581banzala": 3720,
  "\u2581conventions": 3721,
  "\u2581kamio": 3722,
  "\u2581kulunganaka": 3723,
  "\u2581peaceful": 3724,
  "\u2581wide": 3725,
  "\u2581Book": 3726,
  "\u2581Kus": 3727,
  "\u2581armies": 3728,
  "\u2581exactly": 3729,
  "\u2581exercising": 3730,
  "\u2581fast": 3731,
  "\u2581grown": 3732,
  "\u2581kinsukami": 3733,
  "\u2581kulembisa": 3734,
  "\u2581sleep": 3735,
  "\u2581writing": 3736,
  "lu": 3737,
  "\u2581Am": 3738,
  "\u2581Aroni": 3739,
  "\u2581Kisika": 3740,
  "\u2581Pharisees": 3741,
  "\u2581bametode": 3742,
  "\u2581discussion": 3743,
  "\u2581facts": 3744,
  "\u2581mansanga": 3745,
  "\u2581reaction": 3746,
  "\u2581reflected": 3747,
  "\u2581ruin": 3748,
  "\u258137.": 3749,
  "\u2581Abrami": 3750,
  "\u2581Bafarize": 3751,
  "\u2581Mama": 3752,
  "\u2581abundant": 3753,
  "\u2581advance": 3754,
  "\u2581corruption": 3755,
  "\u2581exert": 3756,
  "\u2581granted": 3757,
  "\u2581illness": 3758,
  "\u2581tandima": 3759,
  "as": 3760,
  "\u2581Has": 3761,
  "\u2581Here": 3762,
  "\u2581Ngemba": 3763,
  "\u2581Notice": 3764,
  "\u2581Titus": 3765,
  "\u2581camp": 3766,
  "\u2581causes": 3767,
  "\u2581circuit": 3768,
  "\u2581count": 3769,
  "\u2581lying": 3770,
  "\u2581manisa": 3771,
  "\u2581mekwelaka": 3772,
  "\u2581melongukaka": 3773,
  "\u2581none": 3774,
  "\u2581talungana": 3775,
  "\u2581wanzio": 3776,
  "Lupangu": 3777,
  "\u258116]": 3778,
  "\u2581Africa": 3779,
  "\u2581G": 3780,
  "\u2581Lusambu": 3781,
  "\u2581attempt": 3782,
  "\u2581conviction": 3783,
  "\u2581designed": 3784,
  "\u2581dignity": 3785,
  "\u2581eager": 3786,
  "\u2581extend": 3787,
  "\u2581futumuka": 3788,
  "\u2581generation": 3789,
  "\u2581god": 3790,
  "\u2581meaningful": 3791,
  "\u2581media": 3792,
  "\u2581paragrafe": 3793,
  "\u2581pre": 3794,
  "\u2581re": 3795,
  "\u2581sakumuna": 3796,
  "\u2581sang": 3797,
  "\u2581\"%": 3798,
  "\u258142.": 3799,
  "\u2581Bis": 3800,
  "\u2581Grand": 3801,
  "\u2581animal": 3802,
  "\u2581authorities": 3803,
  "\u2581conflict": 3804,
  "\u2581dwell": 3805,
  "\u2581kuditambika": 3806,
  "\u2581letters": 3807,
  "\u2581makaya": 3808,
  "\u2581produced": 3809,
  "\u2581pursuing": 3810,
  "\u2581repentance": 3811,
  "\u2581run": 3812,
  "\u2581successfully": 3813,
  "\u2581talungisa": 3814,
  "\u258130,": 3815,
  "\u2581Almighty": 3816,
  "\u2581MAMBU": 3817,
  "\u2581appears": 3818,
  "\u2581biro": 3819,
  "\u2581demonstrated": 3820,
  "\u2581don": 3821,
  "\u2581forms": 3822,
  "\u2581model": 3823,
  "\u2581remove": 3824,
  "\u2581secure": 3825,
  "\u2581telefone": 3826,
  "\u2581vast": 3827,
  "bulaka": 3828,
  "longisilaka": 3829,
  "\u2581Doing": 3830,
  "\u2581Eropa": 3831,
  "\u2581II": 3832,
  "\u2581JEHOVAH": 3833,
  "\u2581Lukumu": 3834,
  "\u2581appearance": 3835,
  "\u2581belongs": 3836,
  "\u2581kekinga": 3837,
  "\u2581kukinga": 3838,
  "\u2581marvelous": 3839,
  "\u2581midst": 3840,
  "\u2581miracles": 3841,
  "\u2581review": 3842,
  "\u2581touched": 3843,
  "mingi": 3844,
  "\u2581Kivuvu": 3845,
  "\u2581Robert": 3846,
  "\u2581background": 3847,
  "\u2581happens": 3848,
  "\u2581invite": 3849,
  "\u2581kewa": 3850,
  "\u2581leaving": 3851,
  "\u2581mesimbama": 3852,
  "\u2581worthy": 3853,
  "KA": 3854,
  "ive": 3855,
  "makumi": 3856,
  "other": 3857,
  "will": 3858,
  "\u2581Di": 3859,
  "\u2581Finally": 3860,
  "\u2581Mambote": 3861,
  "\u2581Simba": 3862,
  "\u2581anxious": 3863,
  "\u2581await": 3864,
  "\u2581bantwadisi": 3865,
  "\u2581calling": 3866,
  "\u2581carrying": 3867,
  "\u2581forgiving": 3868,
  "\u2581kubasisaka": 3869,
  "\u2581kusungika": 3870,
  "\u2581memonaka": 3871,
  "\u2581moves": 3872,
  "\u2581patiently": 3873,
  "\u2581process": 3874,
  "\u2581tempted": 3875,
  "\u2581worse": 3876,
  "mameme": 3877,
  "\u25812000": 3878,
  "\u2581Draw": 3879,
  "\u2581acknowledge": 3880,
  "\u2581difficulties": 3881,
  "\u2581firmly": 3882,
  "\u2581fit": 3883,
  "\u2581habits": 3884,
  "\u2581kangula": 3885,
  "\u2581kukengila": 3886,
  "\u2581lowly": 3887,
  "\u2581marry": 3888,
  "\u2581memona": 3889,
  "\u2581operation": 3890,
  "\u2581reasoning": 3891,
  "\u2581story": 3892,
  "\u2581Sea": 3893,
  "\u2581Two": 3894,
  "\u2581Vandaka": 3895,
  "\u2581bendaka": 3896,
  "\u2581bwaka": 3897,
  "\u2581critical": 3898,
  "\u2581eksperiansi": 3899,
  "\u2581handle": 3900,
  "\u2581listeners": 3901,
  "\u2581matondo": 3902,
  "\u2581relations": 3903,
  "\u2581room": 3904,
  "\u2581sake": 3905,
  "\u2581slow": 3906,
  "kele": 3907,
  "\u258124,": 3908,
  "\u258140.": 3909,
  "\u2581Abram": 3910,
  "\u2581Chronicles": 3911,
  "\u2581Elisa": 3912,
  "\u2581Isa": 3913,
  "\u2581Kuna": 3914,
  "\u2581Scripture": 3915,
  "\u2581abundance": 3916,
  "\u2581apart": 3917,
  "\u2581balukwikilu": 3918,
  "\u2581dwelling": 3919,
  "\u2581feti": 3920,
  "\u2581fuluka": 3921,
  "\u2581kenatila": 3922,
  "\u2581kulosa": 3923,
  "\u2581mention": 3924,
  "\u2581ministers": 3925,
  "\u2581nzietelo": 3926,
  "\u2581outcome": 3927,
  "\u2581pointed": 3928,
  "\u2581sought": 3929,
  "\u2581stick": 3930,
  "\u2581upright": 3931,
  "Tata": 3932,
  "\u258146": 3933,
  "\u2581Action": 3934,
  "\u2581Nzila": 3935,
  "\u2581Ozea": 3936,
  "\u2581Tadila": 3937,
  "\u2581abuse": 3938,
  "\u2581commit": 3939,
  "\u2581displayed": 3940,
  "\u2581effects": 3941,
  "\u2581footnote": 3942,
  "\u2581identity": 3943,
  "\u2581kebasisaka": 3944,
  "\u2581kulungisaka": 3945,
  "\u2581kusambaka": 3946,
  "\u2581mekaka": 3947,
  "\u2581ungodly": 3948,
  "banza": 3949,
  "\u2581Asiria": 3950,
  "\u2581Elia": 3951,
  "\u2581appeal": 3952,
  "\u2581bitambi": 3953,
  "\u2581formed": 3954,
  "\u2581kesyamisaka": 3955,
  "\u2581lele": 3956,
  "\u2581lembisa": 3957,
  "\u2581mimekamu": 3958,
  "\u2581moving": 3959,
  "\u2581reached": 3960,
  "\u2581refuse": 3961,
  "\u2581remnant": 3962,
  "\u2581significant": 3963,
  "\u2581struggle": 3964,
  "\u2581vukisaka": 3965,
  "=": 3966,
  "For": 3967,
  "vutukilaka": 3968,
  "\u2581144": 3969,
  "\u258123,": 3970,
  "\u2581Angleterre": 3971,
  "\u2581Kor": 3972,
  "\u2581Sosa": 3973,
  "\u2581bamisionere": 3974,
  "\u2581brief": 3975,
  "\u2581couples": 3976,
  "\u2581dibulu": 3977,
  "\u2581ee": 3978,
  "\u2581filiale": 3979,
  "\u2581glorify": 3980,
  "\u2581impressed": 3981,
  "\u2581kenwana": 3982,
  "\u2581modest": 3983,
  "\u2581motivated": 3984,
  "\u2581nwanisa": 3985,
  "\u2581rendered": 3986,
  "\u2581tasadila": 3987,
  "keep": 3988,
  "pleasing": 3989,
  "\u2581Readers": 3990,
  "\u2581R\u00e9": 3991,
  "\u2581Zakaria": 3992,
  "\u2581abandon": 3993,
  "\u2581altar": 3994,
  "\u2581emotions": 3995,
  "\u2581hatred": 3996,
  "\u2581impossible": 3997,
  "\u2581inner": 3998,
  "\u2581journey": 3999,
  "\u2581kubelula": 4000,
  "\u2581require": 4001,
  "\u2581supported": 4002,
  "7": 4003,
  "Kiese": 4004,
  "bima": 4005,
  "veille": 4006,
  "\u2581NZAMBI": 4007,
  "\u2581Tapesa": 4008,
  "\u2581approached": 4009,
  "\u2581create": 4010,
  "\u2581des": 4011,
  "\u2581endured": 4012,
  "\u2581exists": 4013,
  "\u2581hundreds": 4014,
  "\u2581manisaka": 4015,
  "\u2581mefuluka": 4016,
  "\u2581melanda": 4017,
  "\u2581nsoniki": 4018,
  "\u2581persons": 4019,
  "\u2581shed": 4020,
  "\u2581tatula": 4021,
  "\u2581union": 4022,
  "\u2581visited": 4023,
  "ti": 4024,
  "\u258135:": 4025,
  "\u2581500": 4026,
  "\u2581Banduku": 4027,
  "\u2581Kukanga": 4028,
  "\u2581abilities": 4029,
  "\u2581address": 4030,
  "\u2581belief": 4031,
  "\u2581bisadilu": 4032,
  "\u2581car": 4033,
  "\u2581disu": 4034,
  "\u2581lungana": 4035,
  "\u2581mekatukaka": 4036,
  "\u2581obeying": 4037,
  "\u2581occasions": 4038,
  "\u2581poverty": 4039,
  "\u2581town": 4040,
  "\u2581trouble": 4041,
  "\u2581unclean": 4042,
  "simbaka": 4043,
  "\u2581Illustrate": 4044,
  "\u2581KETI": 4045,
  "\u2581Sinai": 4046,
  "\u2581Yudea": 4047,
  "\u2581[\"": 4048,
  "\u2581alcohol": 4049,
  "\u2581bafilme": 4050,
  "\u2581beast": 4051,
  "\u2581benefited": 4052,
  "\u2581kimpala": 4053,
  "\u2581kuyibusa": 4054,
  "\u2581lala": 4055,
  "\u2581offers": 4056,
  "\u2581shared": 4057,
  "\u2581stopped": 4058,
  "\u2581walked": 4059,
  "lutisila": 4060,
  "mbu": 4061,
  "\u258116;": 4062,
  "\u2581Box": 4063,
  "\u2581Persia": 4064,
  "\u2581extreme": 4065,
  "\u2581j": 4066,
  "\u2581km": 4067,
  "\u2581kumonanaka": 4068,
  "\u2581moment": 4069,
  "\u2581muna": 4070,
  "\u2581physically": 4071,
  "\u2581pressures": 4072,
  "\u2581reaching": 4073,
  "\u2581represented": 4074,
  "\u2581turning": 4075,
  "\u2581waters": 4076,
  "1:": 4077,
  "site": 4078,
  "\u2581Balevi": 4079,
  "\u2581Kutula": 4080,
  "\u2581YEHOWA": 4081,
  "\u2581acting": 4082,
  "\u2581keyika": 4083,
  "\u2581kigangwa": 4084,
  "\u2581kusyamisaka": 4085,
  "\u2581recall": 4086,
  "\u2581religions": 4087,
  "\u2581souls": 4088,
  "\u2581standard": 4089,
  "\u2581stress": 4090,
  "mbandu": 4091,
  "\u258153": 4092,
  "\u2581Hosea": 4093,
  "\u2581apparently": 4094,
  "\u2581balonguki": 4095,
  "\u2581compare": 4096,
  "\u2581influenced": 4097,
  "\u2581kudibanza": 4098,
  "\u2581kusikisa": 4099,
  "\u2581national": 4100,
  "\u2581oil": 4101,
  "\u2581recreation": 4102,
  "\u2581referring": 4103,
  "\u2581temporary": 4104,
  "\u2581trusted": 4105,
  "\u2581tunga": 4106,
  "\u2581vow": 4107,
  "\u2581yibukaka": 4108,
  "with": 4109,
  "\u2581Ephesus": 4110,
  "\u2581asks": 4111,
  "\u2581badute": 4112,
  "\u2581bodies": 4113,
  "\u2581encourages": 4114,
  "\u2581gathering": 4115,
  "\u2581highly": 4116,
  "\u2581kesambaka": 4117,
  "\u2581kuyoka": 4118,
  "\u2581memonisaka": 4119,
  "\u2581motives": 4120,
  "\u2581mountains": 4121,
  "\u2581status": 4122,
  "\u2581vidisa": 4123,
  "\u258147": 4124,
  "\u258166": 4125,
  "\u258180": 4126,
  "\u2581Amerika": 4127,
  "\u2581Eliya": 4128,
  "\u2581Gal": 4129,
  "\u2581Nations": 4130,
  "\u2581Worship": 4131,
  "\u2581bela": 4132,
  "\u2581contain": 4133,
  "\u2581heavy": 4134,
  "\u2581higher": 4135,
  "\u2581inclined": 4136,
  "\u2581kekatula": 4137,
  "\u2581kubotula": 4138,
  "\u2581kukuna": 4139,
  "\u2581luswasukusu": 4140,
  "\u2581ministeri": 4141,
  "\u2581nsoba": 4142,
  "\u2581properly": 4143,
  "\u2581risk": 4144,
  "\u2581royal": 4145,
  "\u2581sustain": 4146,
  "\u2581tinaka": 4147,
  "\u2581tribes": 4148,
  "\u25812010": 4149,
  "\u2581bilungi": 4150,
  "\u2581court": 4151,
  "\u2581guided": 4152,
  "\u2581kebalulaka": 4153,
  "\u2581kusyamisa": 4154,
  "\u2581methods": 4155,
  "\u2581possession": 4156,
  "\u2581relationships": 4157,
  "\u2581root": 4158,
  "\u2581straight": 4159,
  "\u2581tafutumuka": 4160,
  "\u2581treatment": 4161,
  "\u2581writes": 4162,
  "yibusaka": 4163,
  "\u25813;": 4164,
  "\u258172": 4165,
  "\u2581Germany": 4166,
  "\u2581Kiese": 4167,
  "\u2581Monisa": 4168,
  "\u2581abandoned": 4169,
  "\u2581bikanda": 4170,
  "\u2581company": 4171,
  "\u2581financial": 4172,
  "\u2581kebenda": 4173,
  "\u2581kubuyisa": 4174,
  "\u2581limit": 4175,
  "\u2581missionaries": 4176,
  "\u2581serpent": 4177,
  "\u2581severe": 4178,
  "\u2581sit": 4179,
  "\u2581tambulaka": 4180,
  "\u2581weeks": 4181,
  "Mwana": 4182,
  "be": 4183,
  "\u2581Earth": 4184,
  "\u2581La": 4185,
  "\u2581Levites": 4186,
  "\u2581bumbote": 4187,
  "\u2581date": 4188,
  "\u2581fitting": 4189,
  "\u2581fornication": 4190,
  "\u2581gradually": 4191,
  "\u2581identified": 4192,
  "\u2581ignore": 4193,
  "\u2581kuzikisa": 4194,
  "\u2581losaka": 4195,
  "\u2581noti": 4196,
  "\u2581prc": 4197,
  "\u2581reported": 4198,
  "\u2581sickness": 4199,
  "\u2581tanunga": 4200,
  "\u2581tatubila": 4201,
  "\u2581wakanaka": 4202,
  "\u2581white": 4203,
  "\u2581yoke": 4204,
  "\u2581Sometimes": 4205,
  "\u2581Students": 4206,
  "\u2581angry": 4207,
  "\u2581balukebisu": 4208,
  "\u2581bi": 4209,
  "\u2581brotherhood": 4210,
  "\u2581buyisaka": 4211,
  "\u2581causing": 4212,
  "\u2581confront": 4213,
  "\u2581directly": 4214,
  "\u2581error": 4215,
  "\u2581gold": 4216,
  "\u2581kekudiwaka": 4217,
  "\u2581kesepedisaka": 4218,
  "\u2581kunyokula": 4219,
  "\u2581literal": 4220,
  "\u2581lufutu": 4221,
  "\u2581medical": 4222,
  "\u2581mfuka": 4223,
  "\u2581restored": 4224,
  "\u2581stone": 4225,
  "\u2581unrighteous": 4226,
  "\u258125]": 4227,
  "\u258128,": 4228,
  "\u2581Hannah": 4229,
  "\u2581MASOLO": 4230,
  "\u2581associate": 4231,
  "\u2581bazulunalu": 4232,
  "\u2581binkulu": 4233,
  "\u2581bisumbula": 4234,
  "\u2581dilaka": 4235,
  "\u2581entrusted": 4236,
  "\u2581imperfection": 4237,
  "\u2581keponaka": 4238,
  "\u2581kezabisaka": 4239,
  "\u2581kudimona": 4240,
  "\u2581lovers": 4241,
  "\u2581lutisa": 4242,
  "\u2581meswaswana": 4243,
  "\u2581papa": 4244,
  "\u2581series": 4245,
  "They": 4246,
  "dia": 4247,
  "\u2581Church": 4248,
  "\u2581LUZINGU": 4249,
  "\u2581Lamb": 4250,
  "\u2581Lessons": 4251,
  "\u2581Mikanda": 4252,
  "\u2581NTANGU": 4253,
  "\u2581buy": 4254,
  "\u2581kolamaka": 4255,
  "\u2581kutinda": 4256,
  "\u2581military": 4257,
  "\u2581repeatedly": 4258,
  "\u2581safe": 4259,
  "\u2581task": 4260,
  "\u2581treasures": 4261,
  "\u2581wars": 4262,
  "\u2581zengaka": 4263,
  "ila": 4264,
  "tion": 4265,
  "\u25812009": 4266,
  "\u2581Michelle": 4267,
  "\u2581Ministry": 4268,
  "\u2581arrangements": 4269,
  "\u2581attacks": 4270,
  "\u2581attitudes": 4271,
  "\u2581balanced": 4272,
  "\u2581disaster": 4273,
  "\u2581finding": 4274,
  "\u2581fwanaka": 4275,
  "\u2581inherited": 4276,
  "\u2581kubokuta": 4277,
  "\u2581kukaba": 4278,
  "\u2581maziamu": 4279,
  "\u2581non": 4280,
  "\u2581sad": 4281,
  "\u2581soldiers": 4282,
  "\u2581suggestions": 4283,
  "\u2581unable": 4284,
  "\u25815;": 4285,
  "\u2581IS": 4286,
  "\u2581Jonathan": 4287,
  "\u2581Kisambu": 4288,
  "\u2581NGE": 4289,
  "\u2581Sam": 4290,
  "\u2581Work": 4291,
  "\u2581Zaba": 4292,
  "\u2581bamvita": 4293,
  "\u2581bikila": 4294,
  "\u2581facing": 4295,
  "\u2581kulutaka": 4296,
  "\u2581mafunda": 4297,
  "\u2581possessions": 4298,
  "\u2581reign": 4299,
  "\u2581stars": 4300,
  "\u2581video": 4301,
  "\u2581welcome": 4302,
  "\u2581Happy": 4303,
  "\u2581Naomi": 4304,
  "\u2581approved": 4305,
  "\u2581bukati": 4306,
  "\u2581disease": 4307,
  "\u2581divorce": 4308,
  "\u2581grand": 4309,
  "\u2581hate": 4310,
  "\u2581meditating": 4311,
  "\u2581nzyetelo": 4312,
  "\u2581restore": 4313,
  "\u2581resulted": 4314,
  "As": 4315,
  "\u2581144,000": 4316,
  "\u25812011": 4317,
  "\u2581Corinth": 4318,
  "\u2581Day": 4319,
  "\u2581Every": 4320,
  "\u2581Jordan": 4321,
  "\u2581Kulanda": 4322,
  "\u2581SUBJECT": 4323,
  "\u2581Table": 4324,
  "\u2581accord": 4325,
  "\u2581advancement": 4326,
  "\u2581alert": 4327,
  "\u2581bibende": 4328,
  "\u2581conscious": 4329,
  "\u2581keyibuka": 4330,
  "\u2581kielo": 4331,
  "\u2581kubondila": 4332,
  "\u2581kuzolana": 4333,
  "\u2581lunganaka": 4334,
  "\u2581nwa": 4335,
  "\u2581paragraphs": 4336,
  "\u2581resources": 4337,
  "\u2581subjection": 4338,
  "\u2581tapusa": 4339,
  "\u2581yindulula": 4340,
  "How": 4341,
  "beto": 4342,
  "sambu": 4343,
  "v": 4344,
  "\u2581Zephaniah": 4345,
  "\u2581appreciated": 4346,
  "\u2581career": 4347,
  "\u2581cost": 4348,
  "\u2581healthy": 4349,
  "\u2581holding": 4350,
  "\u2581hospitality": 4351,
  "\u2581ill": 4352,
  "\u2581mengaka": 4353,
  "\u2581poured": 4354,
  "\u2581private": 4355,
  "\u2581silver": 4356,
  "\u2581wipe": 4357,
  "1)": 4358,
  ">": 4359,
  "M": 4360,
  "metode": 4361,
  "\u2581Contents": 4362,
  "\u2581Elihu": 4363,
  "\u2581Europe": 4364,
  "\u2581Gen": 4365,
  "\u2581Granted": 4366,
  "\u2581Kingan": 4367,
  "\u2581Man": 4368,
  "\u2581Master": 4369,
  "\u2581Tito": 4370,
  "\u2581affairs": 4371,
  "\u2581boldness": 4372,
  "\u2581concluded": 4373,
  "\u2581instructed": 4374,
  "\u2581international": 4375,
  "\u2581kuyindulaka": 4376,
  "\u2581meek": 4377,
  "\u2581possess": 4378,
  "\u2581quick": 4379,
  "\u2581scripture": 4380,
  "\u2581taka": 4381,
  "\u2581wheat": 4382,
  "\u2581wild": 4383,
  "\u258121]": 4384,
  "\u2581Makanda": 4385,
  "\u2581Mawa": 4386,
  "\u2581familiar": 4387,
  "\u2581involv": 4388,
  "\u2581kuvutukaka": 4389,
  "\u2581numerous": 4390,
  "\u2581recently": 4391,
  "\u2581region": 4392,
  "\u2581rules": 4393,
  "\u2581sacrificing": 4394,
  "\u2581season": 4395,
  "\u2581serves": 4396,
  "\u2581traits": 4397,
  "\u2581writings": 4398,
  "kabulaka": 4399,
  "\u2581Inza": 4400,
  "\u2581Kubaka": 4401,
  "\u2581Prayer": 4402,
  "\u2581clothing": 4403,
  "\u2581drawing": 4404,
  "\u2581dress": 4405,
  "\u2581f": 4406,
  "\u2581governing": 4407,
  "\u2581kuseka": 4408,
  "\u2581kusukisa": 4409,
  "\u2581list": 4410,
  "\u2581ofele": 4411,
  "\u2581pornography": 4412,
  "\u2581potential": 4413,
  "\u2581weaknesses": 4414,
  "\u2581yitukisa": 4415,
  "bendaka": 4416,
  "\u2581Biblical": 4417,
  "\u2581Credit": 4418,
  "\u2581JB": 4419,
  "\u2581Makwela": 4420,
  "\u2581Testament": 4421,
  "\u2581Time": 4422,
  "\u2581bamposo": 4423,
  "\u2581bankinsi": 4424,
  "\u2581foundation": 4425,
  "\u2581kangulaka": 4426,
  "\u2581kudiyangisaka": 4427,
  "\u2581majority": 4428,
  "\u2581obtain": 4429,
  "\u2581release": 4430,
  "\u2581songs": 4431,
  "\u2581symbolic": 4432,
  "\u2581victory": 4433,
  "\u2581wind": 4434,
  "8": 4435,
  "k": 4436,
  "no": 4437,
  "\u2581Babakala": 4438,
  "\u2581Ntetentete": 4439,
  "\u2581Sadila": 4440,
  "\u2581additional": 4441,
  "\u2581attendance": 4442,
  "\u2581bam": 4443,
  "\u2581commands": 4444,
  "\u2581kuyangisa": 4445,
  "\u2581protected": 4446,
  "\u2581relate": 4447,
  "\u2581terms": 4448,
  "\u2581theocratic": 4449,
  "\u2581tinda": 4450,
  "\u2581trusting": 4451,
  "Y": 4452,
  "kopi": 4453,
  "\u2581Close": 4454,
  "\u2581Galilea": 4455,
  "\u2581Go": 4456,
  "\u2581Judea": 4457,
  "\u2581Lazare": 4458,
  "\u2581Meso": 4459,
  "\u2581Ruler": 4460,
  "\u2581bangibusa": 4461,
  "\u2581compassionate": 4462,
  "\u2581content": 4463,
  "\u2581dangers": 4464,
  "\u2581gather": 4465,
  "\u2581kuditula": 4466,
  "\u2581nsuki": 4467,
  "\u2581print": 4468,
  "\u2581supply": 4469,
  "0": 4470,
  "his": 4471,
  "\u258145.": 4472,
  "\u2581Dilongi": 4473,
  "\u2581baparagrafe": 4474,
  "\u2581bingisa": 4475,
  "\u2581increased": 4476,
  "\u2581kitamina": 4477,
  "\u2581kitata": 4478,
  "\u2581kubwisa": 4479,
  "\u2581mwinda": 4480,
  "\u2581released": 4481,
  "\u2581repent": 4482,
  "\u2581safeguard": 4483,
  "\u2581sipesiali": 4484,
  "\u2581televizio": 4485,
  "\u2581tendency": 4486,
  "\u2581thereafter": 4487,
  "bilumbu": 4488,
  "maka": 4489,
  "\u2581Mabanza": 4490,
  "\u2581Mezwa": 4491,
  "\u2581Mungwa": 4492,
  "\u2581TO": 4493,
  "\u2581Yez": 4494,
  "\u2581employment": 4495,
  "\u2581kangamaka": 4496,
  "\u2581kekuma": 4497,
  "\u2581kuvweza": 4498,
  "\u2581lifestyle": 4499,
  "\u2581literally": 4500,
  "\u2581noticed": 4501,
  "\u2581peaceable": 4502,
  "\u2581removed": 4503,
  "\u2581represents": 4504,
  "\u2581tendudila": 4505,
  "\u2581warns": 4506,
  "\u2581wisely": 4507,
  "P": 4508,
  "for": 4509,
  "\u2581Lazarus": 4510,
  "\u2581Leviticus": 4511,
  "\u2581Name": 4512,
  "\u2581Sophia": 4513,
  "\u2581accepting": 4514,
  "\u2581avoka": 4515,
  "\u2581baby": 4516,
  "\u2581bia": 4517,
  "\u2581commandment": 4518,
  "\u2581e": 4519,
  "\u2581fundamental": 4520,
  "\u2581lubutuku": 4521,
  "\u2581lwataka": 4522,
  "\u2581maturity": 4523,
  "\u2581mekutana": 4524,
  "\u2581otherwise": 4525,
  "\u2581replied": 4526,
  "\u2581research": 4527,
  "\u2581scholar": 4528,
  "\u2581sorts": 4529,
  "\u2581stood": 4530,
  "\u2581throw": 4531,
  "\u2581wrath": 4532,
  "Yezu": 4533,
  "\u2581Asa": 4534,
  "\u2581Sadisa": 4535,
  "\u2581Truth": 4536,
  "\u2581Upon": 4537,
  "\u2581attain": 4538,
  "\u2581dimpa": 4539,
  "\u2581enduring": 4540,
  "\u2581inherit": 4541,
  "\u2581kubwaka": 4542,
  "\u2581kukangisa": 4543,
  "\u2581kulongukaka": 4544,
  "\u2581kuzingila": 4545,
  "\u2581masonama": 4546,
  "\u2581monikaka": 4547,
  "\u2581pour": 4548,
  "\u2581sepedisa": 4549,
  "Be": 4550,
  "D": 4551,
  "ermon": 4552,
  "natila": 4553,
  "not": 4554,
  "\u258123]": 4555,
  "\u2581American": 4556,
  "\u2581Eph": 4557,
  "\u2581Esau": 4558,
  "\u2581Ezau": 4559,
  "\u2581Its": 4560,
  "\u2581associates": 4561,
  "\u2581beauty": 4562,
  "\u2581begins": 4563,
  "\u2581choosing": 4564,
  "\u2581declaring": 4565,
  "\u2581failure": 4566,
  "\u2581fami": 4567,
  "\u2581foto": 4568,
  "\u2581grain": 4569,
  "\u2581kingdoms": 4570,
  "\u2581kwela": 4571,
  "\u2581limitations": 4572,
  "\u2581miracle": 4573,
  "\u2581painful": 4574,
  "\u2581readily": 4575,
  "\u2581senses": 4576,
  "\u2581significance": 4577,
  "\u2581surprised": 4578,
  "\u2581tanata": 4579,
  "\u2581travel": 4580,
  "\u2581upbuilding": 4581,
  "\u2581variety": 4582,
  "\u2581win": 4583,
  "our": 4584,
  "\u2581Bankunga": 4585,
  "\u2581Galilee": 4586,
  "\u2581Lusadisu": 4587,
  "\u2581Nisani": 4588,
  "\u2581Nkinsi": 4589,
  "\u2581bansoniki": 4590,
  "\u2581churches": 4591,
  "\u2581firstborn": 4592,
  "\u2581flee": 4593,
  "\u2581kangama": 4594,
  "\u2581kelemfukaka": 4595,
  "\u2581ketangaka": 4596,
  "\u2581kiteki": 4597,
  "\u2581kukotaka": 4598,
  "\u2581kumana": 4599,
  "\u2581lusansu": 4600,
  "\u2581mimpani": 4601,
  "\u2581plan": 4602,
  "\u2581recalls": 4603,
  "\u2581siamisa": 4604,
  "\u2581spirits": 4605,
  "\u2581stronger": 4606,
  "\u2581sukisa": 4607,
  "\u2581thankful": 4608,
  "rb": 4609,
  "\u2581Asia": 4610,
  "\u2581Blu": 4611,
  "\u2581GOD": 4612,
  "\u2581Ku": 4613,
  "\u2581Muyuda": 4614,
  "\u2581Sofonia": 4615,
  "\u2581bimfumu": 4616,
  "\u2581copy": 4617,
  "\u2581divided": 4618,
  "\u2581idolatry": 4619,
  "\u2581kulembika": 4620,
  "\u2581kunaka": 4621,
  "\u2581mistake": 4622,
  "\u2581ntwadisi": 4623,
  "\u2581oppose": 4624,
  "\u2581paying": 4625,
  "\u2581perfection": 4626,
  "\u2581plans": 4627,
  "\u2581portion": 4628,
  "\u2581reproach": 4629,
  "\u2581sepedisaka": 4630,
  "\u2581surprise": 4631,
  "\u2581tekaka": 4632,
  "\u2581universal": 4633,
  "\u2581uphold": 4634,
  "\u2581useful": 4635,
  "\u2581warfare": 4636,
  "it": 4637,
  "ity": 4638,
  "ns": 4639,
  "\u25812008": 4640,
  "\u2581Aza": 4641,
  "\u2581Kepesaka": 4642,
  "\u2581balance": 4643,
  "\u2581butuka": 4644,
  "\u2581community": 4645,
  "\u2581construction": 4646,
  "\u2581differences": 4647,
  "\u2581dream": 4648,
  "\u2581kekebisa": 4649,
  "\u2581kutaka": 4650,
  "\u2581mebakisa": 4651,
  "\u2581popular": 4652,
  "\u2581provense": 4653,
  "\u2581residents": 4654,
  "\u2581rewarded": 4655,
  "\u2581strangers": 4656,
  "\u2581urgency": 4657,
  "\u2581wrongdoing": 4658,
  "nsiku": 4659,
  "sa": 4660,
  "\u2581120": 4661,
  "\u2581Concern": 4662,
  "\u2581Marta": 4663,
  "\u2581Ngang": 4664,
  "\u2581Nisan": 4665,
  "\u2581Peace": 4666,
  "\u2581YO": 4667,
  "\u2581Yefte": 4668,
  "\u2581Yordani": 4669,
  "\u2581applies": 4670,
  "\u2581calamity": 4671,
  "\u2581color": 4672,
  "\u2581earnestly": 4673,
  "\u2581emvitasio": 4674,
  "\u2581glad": 4675,
  "\u2581herself": 4676,
  "\u2581kebisaka": 4677,
  "\u2581kekatuka": 4678,
  "\u2581kubutaka": 4679,
  "\u2581laid": 4680,
  "\u2581losa": 4681,
  "\u2581ngangu": 4682,
  "\u2581offerings": 4683,
  "\u2581official": 4684,
  "\u2581pagan": 4685,
  "\u2581soda": 4686,
  "\u2581t": 4687,
  "ne": 4688,
  "\u2581Aprili": 4689,
  "\u2581Jonah": 4690,
  "\u2581Out": 4691,
  "\u2581acquire": 4692,
  "\u2581bazuzi": 4693,
  "\u2581binwaninu": 4694,
  "\u2581customs": 4695,
  "\u2581degree": 4696,
  "\u2581discernment": 4697,
  "\u2581ears": 4698,
  "\u2581excellent": 4699,
  "\u2581harmful": 4700,
  "\u2581ilungi": 4701,
  "\u2581kinzambi": 4702,
  "\u2581kuditudila": 4703,
  "\u2581meyantika": 4704,
  "\u2581shine": 4705,
  "\u2581slavery": 4706,
  "\u2581tests": 4707,
  "\u2581trees": 4708,
  "\u2581weakness": 4709,
  "\u2581worldly": 4710,
  "N": 4711,
  "ar": 4712,
  "\u2581J\u00e9hovah": 4713,
  "\u2581arranged": 4714,
  "\u2581bibaka": 4715,
  "\u2581conversations": 4716,
  "\u2581depend": 4717,
  "\u2581likened": 4718,
  "\u2581mass": 4719,
  "\u2581mates": 4720,
  "\u2581metubila": 4721,
  "\u2581possibly": 4722,
  "\u2581preserve": 4723,
  "\u2581pursuits": 4724,
  "\u2581rights": 4725,
  "\u2581sonika": 4726,
  "\u2581struck": 4727,
  "\u2581troubled": 4728,
  "man": 4729,
  "rimarily": 4730,
  "\u258117]": 4731,
  "\u25812001": 4732,
  "\u2581Gideon": 4733,
  "\u2581Kutuba": 4734,
  "\u2581Y": 4735,
  "\u2581Zole": 4736,
  "\u2581bakristo": 4737,
  "\u2581crowds": 4738,
  "\u2581enjoying": 4739,
  "\u2581establish": 4740,
  "\u2581kubela": 4741,
  "\u2581kubikaka": 4742,
  "\u2581kudisa": 4743,
  "\u2581kuvutulaka": 4744,
  "\u2581kuzolaka": 4745,
  "\u2581mark": 4746,
  "\u2581motive": 4747,
  "\u2581nkatu": 4748,
  "\u2581ordinatere": 4749,
  "\u2581percent": 4750,
  "\u2581sila": 4751,
  "\u2581temptations": 4752,
  "\u2581tomisa": 4753,
  "\u2581welfare": 4754,
  "ful": 4755,
  "mbaka": 4756,
  "\u2581Ahab": 4757,
  "\u2581Bankwelani": 4758,
  "\u2581DO": 4759,
  "\u2581Japon": 4760,
  "\u2581Kimpeve": 4761,
  "\u2581Mpus": 4762,
  "\u2581Yonasi": 4763,
  "\u2581approaching": 4764,
  "\u2581belaka": 4765,
  "\u2581bimangu": 4766,
  "\u2581burn": 4767,
  "\u2581disasters": 4768,
  "\u2581disobedience": 4769,
  "\u2581ended": 4770,
  "\u2581existed": 4771,
  "\u2581fallen": 4772,
  "\u2581features": 4773,
  "\u2581generous": 4774,
  "\u2581magazines": 4775,
  "\u2581mezola": 4776,
  "\u2581mfinda": 4777,
  "\u2581morally": 4778,
  "\u2581mourning": 4779,
  "\u2581prominent": 4780,
  "\u2581tatanina": 4781,
  "kaka": 4782,
  "kamukanda": 4783,
  "thrown": 4784,
  "\u2581April": 4785,
  "\u2581Nzayilu": 4786,
  "\u2581communicate": 4787,
  "\u2581damage": 4788,
  "\u2581discovered": 4789,
  "\u2581economic": 4790,
  "\u2581expects": 4791,
  "\u2581exposed": 4792,
  "\u2581intended": 4793,
  "\u2581joyfully": 4794,
  "\u2581mbwaki": 4795,
  "\u2581punishment": 4796,
  "\u2581soil": 4797,
  "\u2581torture": 4798,
  "\u2581tribinale": 4799,
  "\u2581urges": 4800,
  "\u2581widikila": 4801,
  "\u2581writers": 4802,
  "\u2581zolana": 4803,
  "\u25812014": 4804,
  "\u2581Judas": 4805,
  "\u2581Kwenda": 4806,
  "\u2581Martha": 4807,
  "\u2581banswa": 4808,
  "\u2581bikisaka": 4809,
  "\u2581culture": 4810,
  "\u2581detail": 4811,
  "\u2581devoted": 4812,
  "\u2581extended": 4813,
  "\u2581foti": 4814,
  "\u2581kenyokwama": 4815,
  "\u2581kunganina": 4816,
  "\u2581passing": 4817,
  "\u2581satisfied": 4818,
  "\u2581sayings": 4819,
  "\u2581seventh": 4820,
  "\u2581signs": 4821,
  "\u2581taguluka": 4822,
  "\u2581unbeliev": 4823,
  "\u2581voluntary": 4824,
  "ingness": 4825,
  "\u2581300": 4826,
  "\u2581Jephthah": 4827,
  "\u2581William": 4828,
  "\u2581adopt": 4829,
  "\u2581innocent": 4830,
  "\u2581kulauka": 4831,
  "\u2581mi": 4832,
  "\u2581mpaku": 4833,
  "\u2581observ": 4834,
  "\u2581plant": 4835,
  "\u2581realm": 4836,
  "\u2581refreshing": 4837,
  "\u2581rescue": 4838,
  "\u2581tired": 4839,
  "\u2581warnings": 4840,
  "\u2581wondered": 4841,
  "\u2581worker": 4842,
  "\u2581zealously": 4843,
  "No": 4844,
  "SAMBU": 4845,
  "kibuka": 4846,
  "\u2581Rahabi": 4847,
  "\u2581air": 4848,
  "\u2581anymore": 4849,
  "\u2581constant": 4850,
  "\u2581earnest": 4851,
  "\u2581finds": 4852,
  "\u2581hidden": 4853,
  "\u2581influences": 4854,
  "\u2581judges": 4855,
  "\u2581kesila": 4856,
  "\u2581kingolo": 4857,
  "\u2581kukotila": 4858,
  "\u2581kuzabanaka": 4859,
  "\u2581kyelo": 4860,
  "\u2581mitambu": 4861,
  "\u2581modesty": 4862,
  "\u2581pioneering": 4863,
  "\u2581prais": 4864,
  "\u2581prize": 4865,
  "\u2581psalm": 4866,
  "\u2581vingilaka": 4867,
  "\u2581yibusa": 4868,
  "mpasi": 4869,
  "\u25811999": 4870,
  "\u25818]": 4871,
  "\u2581Halls": 4872,
  "\u2581Nazi": 4873,
  "\u2581Noemi": 4874,
  "\u2581Rahab": 4875,
  "\u2581Sioni": 4876,
  "\u2581Study": 4877,
  "\u2581belongings": 4878,
  "\u2581courageously": 4879,
  "\u2581distance": 4880,
  "\u2581hates": 4881,
  "\u2581initiative": 4882,
  "\u2581keyibusa": 4883,
  "\u2581kibende": 4884,
  "\u2581kondaka": 4885,
  "\u2581looks": 4886,
  "\u2581loyally": 4887,
  "\u2581minduki": 4888,
  "\u2581murder": 4889,
  "\u2581opposite": 4890,
  "\u2581permanent": 4891,
  "\u2581prejudice": 4892,
  "\u2581privileged": 4893,
  "\u2581property": 4894,
  "\u2581reliable": 4895,
  "\u2581sudi": 4896,
  "\u2581total": 4897,
  "\u2581wholesome": 4898,
  "drew": 4899,
  "uzolo": 4900,
  "\u2581Bankento": 4901,
  "\u2581Brooklyn": 4902,
  "\u2581Kudipesa": 4903,
  "\u2581Philip": 4904,
  "\u2581THIS": 4905,
  "\u2581Yoziasi": 4906,
  "\u2581acknowledged": 4907,
  "\u2581cared": 4908,
  "\u2581depends": 4909,
  "\u2581grave": 4910,
  "\u2581hundred": 4911,
  "\u2581kelutisaka": 4912,
  "\u2581ketambula": 4913,
  "\u2581kubakila": 4914,
  "\u2581kukangaka": 4915,
  "\u2581ndosi": 4916,
  "\u2581nsola": 4917,
  "\u2581promotes": 4918,
  "\u2581regret": 4919,
  "\u2581skills": 4920,
  "\u2581store": 4921,
  "\u2581tabernacle": 4922,
  "\u2581tonda": 4923,
  "\u2581utmost": 4924,
  "\u2581vukana": 4925,
  "\u2581wall": 4926,
  "disfellowshipped": 4927,
  "\u2581Audi": 4928,
  "\u2581Babylonian": 4929,
  "\u2581Baefezo": 4930,
  "\u2581Egyptian": 4931,
  "\u2581South": 4932,
  "\u2581Stephen": 4933,
  "\u2581Yonatani": 4934,
  "\u2581adjust": 4935,
  "\u2581adjustments": 4936,
  "\u2581bampukumuna": 4937,
  "\u2581believing": 4938,
  "\u2581broken": 4939,
  "\u2581bula": 4940,
  "\u2581bumba": 4941,
  "\u2581butomfu": 4942,
  "\u2581companion": 4943,
  "\u2581dila": 4944,
  "\u2581distant": 4945,
  "\u2581dust": 4946,
  "\u2581eagerly": 4947,
  "\u2581eliminate": 4948,
  "\u2581futumukaka": 4949,
  "\u2581grant": 4950,
  "\u2581guilty": 4951,
  "\u2581intense": 4952,
  "\u2581kisakasaka": 4953,
  "\u2581kisumbula": 4954,
  "\u2581kubongisa": 4955,
  "\u2581kutendudila": 4956,
  "\u2581publicly": 4957,
  "\u2581solid": 4958,
  "\u2581steadfast": 4959,
  "\u2581submit": 4960,
  "\u2581suggest": 4961,
  "\u2581urge": 4962,
  "ntima": 4963,
  "wa": 4964,
  "\u258120]": 4965,
  "\u258151": 4966,
  "\u2581Bak": 4967,
  "\u2581Les": 4968,
  "\u2581Line": 4969,
  "\u2581Moabi": 4970,
  "\u2581Things": 4971,
  "\u2581Yudasi": 4972,
  "\u2581across": 4973,
  "\u2581arza": 4974,
  "\u2581backing": 4975,
  "\u2581bantendula": 4976,
  "\u2581cast": 4977,
  "\u2581cherish": 4978,
  "\u2581depth": 4979,
  "\u2581empower": 4980,
  "\u2581execution": 4981,
  "\u2581fondasio": 4982,
  "\u2581hardships": 4983,
  "\u2581householder": 4984,
  "\u2581houses": 4985,
  "\u2581humankind": 4986,
  "\u2581impart": 4987,
  "\u2581kwisila": 4988,
  "\u2581leader": 4989,
  "\u2581lu": 4990,
  "\u2581mpunda": 4991,
  "\u2581notes": 4992,
  "\u2581proceeded": 4993,
  "\u2581prophesied": 4994,
  "\u2581reflecting": 4995,
  "\u2581resolved": 4996,
  "\u2581sets": 4997,
  "\u2581singing": 4998,
  "\u2581takumisa": 4999,
  "\u2581takutana": 5000,
  "\u2581zikisa": 5001,
  "\u25cf": 5002,
  "To": 5003,
  "ki": 5004,
  "\u2581Faithful": 5005,
  "\u2581Leader": 5006,
  "\u2581Nkokila": 5007,
  "\u2581Pray": 5008,
  "\u2581Yuli": 5009,
  "\u2581add": 5010,
  "\u2581amazing": 5011,
  "\u2581bamiliare": 5012,
  "\u2581belulaka": 5013,
  "\u2581bow": 5014,
  "\u2581creature": 5015,
  "\u2581cruel": 5016,
  "\u2581iniversite": 5017,
  "\u2581kileke": 5018,
  "\u2581kubalulaka": 5019,
  "\u2581meditation": 5020,
  "\u2581munganga": 5021,
  "\u2581nsudi": 5022,
  "\u2581opposed": 5023,
  "\u2581paid": 5024,
  "\u2581rain": 5025,
  "\u2581raising": 5026,
  "\u2581top": 5027,
  "\u2581translations": 5028,
  "\u2581traveled": 5029,
  "\u2581yituka": 5030,
  "ED": 5031,
  "Your": 5032,
  "\u25811918": 5033,
  "\u25812015": 5034,
  "\u2581Boma": 5035,
  "\u2581Eric": 5036,
  "\u2581Gospels": 5037,
  "\u2581Rebeka": 5038,
  "\u2581Shortly": 5039,
  "\u2581US": 5040,
  "\u2581haughty": 5041,
  "\u2581ketambulaka": 5042,
  "\u2581kevukanaka": 5043,
  "\u2581kudiyulaka": 5044,
  "\u2581kukebisa": 5045,
  "\u2581low": 5046,
  "\u2581marital": 5047,
  "\u2581newly": 5048,
  "\u2581objective": 5049,
  "\u2581opera": 5050,
  "\u2581profound": 5051,
  "\u2581pursuit": 5052,
  "\u2581scholars": 5053,
  "\u2581sengumunaka": 5054,
  "\u2581sukaka": 5055,
  "\u2581tested": 5056,
  "ction": 5057,
  "\u2581Australie": 5058,
  "\u2581Batangi": 5059,
  "\u2581Encyclopedia": 5060,
  "\u2581Fear": 5061,
  "\u2581Jon": 5062,
  "\u2581Josiah": 5063,
  "\u2581Kuy": 5064,
  "\u2581Kuyindulula": 5065,
  "\u2581Longa": 5066,
  "\u2581Zion": 5067,
  "\u2581burden": 5068,
  "\u2581heal": 5069,
  "\u2581l": 5070,
  "\u2581lion": 5071,
  "\u2581minded": 5072,
  "\u2581ngunga": 5073,
  "\u2581planet": 5074,
  "\u2581preparing": 5075,
  "\u2581qualify": 5076,
  "\u2581suddenly": 5077,
  "\u2581tear": 5078,
  "\u2581thanks": 5079,
  "Happy": 5080,
  "\u258126,": 5081,
  "\u2581Canaan": 5082,
  "\u2581KULONGUKA": 5083,
  "\u2581Philippines": 5084,
  "\u2581Sisera": 5085,
  "\u2581Sodom": 5086,
  "\u2581aposta": 5087,
  "\u2581assignments": 5088,
  "\u2581bala": 5089,
  "\u2581custom": 5090,
  "\u2581forced": 5091,
  "\u2581healed": 5092,
  "\u2581kugangaka": 5093,
  "\u2581manifested": 5094,
  "\u2581nkweno": 5095,
  "\u2581obeyed": 5096,
  "\u2581pela": 5097,
  "\u2581surrounded": 5098,
  "\u2581threatened": 5099,
  "angelic": 5100,
  "ba": 5101,
  "naka": 5102,
  "print": 5103,
  "ty": 5104,
  "\u2581000.": 5105,
  "\u258116.)": 5106,
  "\u2581Come": 5107,
  "\u2581Funda": 5108,
  "\u2581HOW": 5109,
  "\u2581Longuka": 5110,
  "\u2581Oktobri": 5111,
  "\u2581birds": 5112,
  "\u2581center": 5113,
  "\u2581desirable": 5114,
  "\u2581explanation": 5115,
  "\u2581hated": 5116,
  "\u2581kubikila": 5117,
  "\u2581kusukaka": 5118,
  "\u2581kuswana": 5119,
  "\u2581kutadilaka": 5120,
  "\u2581male": 5121,
  "\u2581pictures": 5122,
  "\u2581pornografi": 5123,
  "\u2581tasakumuna": 5124,
  "\u2581temper": 5125,
  "Go": 5126,
  "good": 5127,
  "tatus": 5128,
  "\u258161": 5129,
  "\u2581Augusti": 5130,
  "\u2581Bisambu": 5131,
  "\u2581Eli": 5132,
  "\u2581Following": 5133,
  "\u2581History": 5134,
  "\u2581Knorr": 5135,
  "\u2581Siria": 5136,
  "\u2581Walk": 5137,
  "\u2581bakomantere": 5138,
  "\u2581batata": 5139,
  "\u2581bound": 5140,
  "\u2581burning": 5141,
  "\u2581convey": 5142,
  "\u2581developing": 5143,
  "\u2581empty": 5144,
  "\u2581eternity": 5145,
  "\u2581factor": 5146,
  "\u2581inspiring": 5147,
  "\u2581kemengaka": 5148,
  "\u2581ketala": 5149,
  "\u2581kuganga": 5150,
  "\u2581kutangaka": 5151,
  "\u2581lundombe": 5152,
  "\u2581miraculous": 5153,
  "\u2581mun": 5154,
  "\u2581observes": 5155,
  "\u2581oppression": 5156,
  "\u2581priesthood": 5157,
  "\u2581resurrect": 5158,
  "\u2581shortly": 5159,
  "\u2581sold": 5160,
  "\u2581stories": 5161,
  "\u2581stumble": 5162,
  "\u2581teenager": 5163,
  "\u2581tempered": 5164,
  "\u2581touch": 5165,
  "By": 5166,
  "bana": 5167,
  "but": 5168,
  "itambi": 5169,
  "\u258157": 5170,
  "\u2581Balukutakanu": 5171,
  "\u2581Baverse": 5172,
  "\u2581Dan": 5173,
  "\u2581Elders": 5174,
  "\u2581Eventually": 5175,
  "\u2581Gedeoni": 5176,
  "\u2581ME": 5177,
  "\u2581bansola": 5178,
  "\u2581caught": 5179,
  "\u2581delighted": 5180,
  "\u2581encounter": 5181,
  "\u2581famine": 5182,
  "\u2581finama": 5183,
  "\u2581heads": 5184,
  "\u2581kekudipesaka": 5185,
  "\u2581kekumina": 5186,
  "\u2581kingenga": 5187,
  "\u2581kusobaka": 5188,
  "\u2581kutelamina": 5189,
  "\u2581kuyimbaka": 5190,
  "\u2581mesalama": 5191,
  "\u2581okazio": 5192,
  "\u2581reply": 5193,
  "put": 5194,
  "yantikaka": 5195,
  "\u258141.": 5196,
  "\u2581Baal": 5197,
  "\u2581Dictionary": 5198,
  "\u2581Heart": 5199,
  "\u2581Priest": 5200,
  "\u2581Yude": 5201,
  "\u2581asleep": 5202,
  "\u2581bankisi": 5203,
  "\u2581comfortable": 5204,
  "\u2581condemned": 5205,
  "\u2581crime": 5206,
  "\u2581dies": 5207,
  "\u2581donations": 5208,
  "\u2581imene": 5209,
  "\u2581judged": 5210,
  "\u2581kukana": 5211,
  "\u2581kutambika": 5212,
  "\u2581marked": 5213,
  "\u2581menu": 5214,
  "\u2581mindondo": 5215,
  "\u2581nine": 5216,
  "\u2581proclaim": 5217,
  "\u2581reap": 5218,
  "\u2581reputation": 5219,
  "\u2581village": 5220,
  "\u2581weeds": 5221,
  "\u2581whereas": 5222,
  "\u2581yamba": 5223,
  "\u2581za": 5224,
  "bunene": 5225,
  "kilumbu": 5226,
  "\u258162": 5227,
  "\u2581Baale": 5228,
  "\u2581Basoda": 5229,
  "\u2581Charles": 5230,
  "\u2581Highlight": 5231,
  "\u2581International": 5232,
  "\u2581Jas": 5233,
  "\u2581Kumonisa": 5234,
  "\u2581Kuyindula": 5235,
  "\u2581Mabundu": 5236,
  "\u2581Mayi": 5237,
  "\u2581Nkuna": 5238,
  "\u2581Ntwadisi": 5239,
  "\u2581Thousand": 5240,
  "\u2581abroad": 5241,
  "\u2581absorb": 5242,
  "\u2581anxieties": 5243,
  "\u2581assembly": 5244,
  "\u2581audience": 5245,
  "\u2581bakapu": 5246,
  "\u2581bambefo": 5247,
  "\u2581brochure": 5248,
  "\u2581clergy": 5249,
  "\u2581east": 5250,
  "\u2581fears": 5251,
  "\u2581gained": 5252,
  "\u2581kusosaka": 5253,
  "\u2581lips": 5254,
  "\u2581mbutu": 5255,
  "\u2581menuna": 5256,
  "\u2581mvumbi": 5257,
  "\u2581nsukami": 5258,
  "\u2581obligation": 5259,
  "\u2581olive": 5260,
  "\u2581played": 5261,
  "\u2581preserved": 5262,
  "\u2581routine": 5263,
  "\u2581vutukila": 5264,
  "ally": 5265,
  "inganga": 5266,
  "\u258111]": 5267,
  "\u258129,": 5268,
  "\u2581Bafilipi": 5269,
  "\u2581Inde": 5270,
  "\u2581Jehoshaphat": 5271,
  "\u2581Jude": 5272,
  "\u2581Kudikulumusa": 5273,
  "\u2581Kuzanguka": 5274,
  "\u2581Seed": 5275,
  "\u2581Times": 5276,
  "\u2581access": 5277,
  "\u2581admit": 5278,
  "\u2581bride": 5279,
  "\u2581claimed": 5280,
  "\u2581continually": 5281,
  "\u2581cultivating": 5282,
  "\u2581ends": 5283,
  "\u2581except": 5284,
  "\u2581expand": 5285,
  "\u2581finish": 5286,
  "\u2581harsh": 5287,
  "\u2581imitating": 5288,
  "\u2581kabula": 5289,
  "\u2581kikanda": 5290,
  "\u2581kingship": 5291,
  "\u2581kufulusa": 5292,
  "\u2581kupusana": 5293,
  "\u2581labor": 5294,
  "\u2581le": 5295,
  "\u2581method": 5296,
  "\u2581miss": 5297,
  "\u2581plague": 5298,
  "\u2581principal": 5299,
  "\u2581proclaimers": 5300,
  "\u2581rapore": 5301,
  "\u2581telamaka": 5302,
  "\u2581tent": 5303,
  "\u2581uvwa": 5304,
  "\u2581zenga": 5305,
  "lo": 5306,
  "that": 5307,
  "\u2581(%": 5308,
  "\u2581Arthur": 5309,
  "\u2581July": 5310,
  "\u2581News": 5311,
  "\u2581Says": 5312,
  "\u2581Trust": 5313,
  "\u2581addressed": 5314,
  "\u2581armor": 5315,
  "\u2581badiskure": 5316,
  "\u2581bankombo": 5317,
  "\u2581broke": 5318,
  "\u2581calm": 5319,
  "\u2581capable": 5320,
  "\u2581comforted": 5321,
  "\u2581completed": 5322,
  "\u2581context": 5323,
  "\u2581entitled": 5324,
  "\u2581examination": 5325,
  "\u2581guvernema": 5326,
  "\u2581hesitate": 5327,
  "\u2581impact": 5328,
  "\u2581instruct": 5329,
  "\u2581judgments": 5330,
  "\u2581kelungisa": 5331,
  "\u2581kukolamaka": 5332,
  "\u2581kunikana": 5333,
  "\u2581lepre": 5334,
  "\u2581miraculously": 5335,
  "\u2581participate": 5336,
  "\u2581passage": 5337,
  "\u2581reads": 5338,
  "\u2581requirement": 5339,
  "\u2581rewards": 5340,
  "\u2581schedule": 5341,
  "\u2581shoulder": 5342,
  "\u2581simbama": 5343,
  "\u2581tagulusa": 5344,
  "\u2581thrilling": 5345,
  "\u2581visits": 5346,
  "07": 5347,
  "NKUNGA": 5348,
  "ere": 5349,
  "kangamaka": 5350,
  "\u25812003": 5351,
  "\u2581Kuyela": 5352,
  "\u2581aged": 5353,
  "\u2581agreed": 5354,
  "\u2581apostates": 5355,
  "\u2581appealing": 5356,
  "\u2581bambangi": 5357,
  "\u2581bikulaka": 5358,
  "\u2581bisono": 5359,
  "\u2581cup": 5360,
  "\u2581deeper": 5361,
  "\u2581doubts": 5362,
  "\u2581feature": 5363,
  "\u2581fighting": 5364,
  "\u2581happening": 5365,
  "\u2581hoped": 5366,
  "\u2581kebutukaka": 5367,
  "\u2581kenwanaka": 5368,
  "\u2581kesimba": 5369,
  "\u2581kuvukanaka": 5370,
  "\u2581kuzanguka": 5371,
  "\u2581mesadila": 5372,
  "\u2581niokwama": 5373,
  "\u2581northern": 5374,
  "\u2581officials": 5375,
  "\u2581printed": 5376,
  "\u2581respects": 5377,
  "\u2581ruled": 5378,
  "\u2581sorrow": 5379,
  "\u2581tax": 5380,
  "\u2581threat": 5381,
  "\u2581visible": 5382,
  "ROM": 5383,
  "Who": 5384,
  "time": 5385,
  "\u00e9moi": 5386,
  "\u2581200": 5387,
  "\u25812006": 5388,
  "\u258152": 5389,
  "\u2581Find": 5390,
  "\u2581Gilead": 5391,
  "\u2581Imitate": 5392,
  "\u2581Kore": 5393,
  "\u2581Lunungu": 5394,
  "\u2581Ninive": 5395,
  "\u2581Phil": 5396,
  "\u2581YANDI": 5397,
  "\u2581Yozafati": 5398,
  "\u2581bandola": 5399,
  "\u2581bankolami": 5400,
  "\u2581believer": 5401,
  "\u2581bitter": 5402,
  "\u2581chance": 5403,
  "\u2581copies": 5404,
  "\u2581declaration": 5405,
  "\u2581development": 5406,
  "\u2581futa": 5407,
  "\u2581holds": 5408,
  "\u2581memory": 5409,
  "\u2581priorities": 5410,
  "\u2581sambilaka": 5411,
  "\u2581satisfy": 5412,
  "\u2581searching": 5413,
  "\u2581sincerely": 5414,
  "\u2581spouse": 5415,
  "\u2581surface": 5416,
  "\u2581terrible": 5417,
  "\u2581victim": 5418,
  "\u2581vukisa": 5419,
  "\u2581widely": 5420,
  "ation": 5421,
  "igation": 5422,
  "\u258119]": 5423,
  "\u25812002": 5424,
  "\u2581Absalomi": 5425,
  "\u2581Butatu": 5426,
  "\u2581Makabu": 5427,
  "\u2581Making": 5428,
  "\u2581Mar": 5429,
  "\u2581Ngungudi": 5430,
  "\u2581October": 5431,
  "\u2581Septembri": 5432,
  "\u2581afflicted": 5433,
  "\u2581bamaladi": 5434,
  "\u2581campaign": 5435,
  "\u2581deserve": 5436,
  "\u2581faces": 5437,
  "\u2581fish": 5438,
  "\u2581foolish": 5439,
  "\u2581forgiven": 5440,
  "\u2581historical": 5441,
  "\u2581huge": 5442,
  "\u2581kangisa": 5443,
  "\u2581kukulumuka": 5444,
  "\u2581mekonda": 5445,
  "\u2581minganga": 5446,
  "\u2581muwi": 5447,
  "\u2581obstacles": 5448,
  "\u2581practicing": 5449,
  "\u2581prospects": 5450,
  "\u2581prosperity": 5451,
  "\u2581refrain": 5452,
  "\u2581rewarding": 5453,
  "\u2581shield": 5454,
  "\u2581tend": 5455,
  "\u2581widows": 5456,
  "\u2581yitukisaka": 5457,
  "intinu": 5458,
  "\u2581August": 5459,
  "\u2581Bangiufula": 5460,
  "\u2581Cameron": 5461,
  "\u2581Marsi": 5462,
  "\u2581Reflect": 5463,
  "\u2581River": 5464,
  "\u2581Shepherd": 5465,
  "\u2581Zulunalu": 5466,
  "\u2581associations": 5467,
  "\u2581bampunda": 5468,
  "\u2581beba": 5469,
  "\u2581comment": 5470,
  "\u2581contained": 5471,
  "\u2581defend": 5472,
  "\u2581doctor": 5473,
  "\u2581effectively": 5474,
  "\u2581emotionally": 5475,
  "\u2581exciting": 5476,
  "\u2581friendships": 5477,
  "\u2581futumunaka": 5478,
  "\u2581healing": 5479,
  "\u2581kebela": 5480,
  "\u2581kupesana": 5481,
  "\u2581kusonikila": 5482,
  "\u2581lacking": 5483,
  "\u2581misionere": 5484,
  "\u2581peer": 5485,
  "\u2581pity": 5486,
  "\u2581programe": 5487,
  "\u2581radio": 5488,
  "\u2581reflects": 5489,
  "\u2581rejoicing": 5490,
  "\u2581sheba": 5491,
  "\u2581surprising": 5492,
  "\u2581trustworthy": 5493,
  "\u2581v": 5494,
  "37": 5495,
  "mayele": 5496,
  "mpi": 5497,
  "nda": 5498,
  "\u258134,": 5499,
  "\u2581Agai": 5500,
  "\u2581Anna": 5501,
  "\u2581Besides": 5502,
  "\u2581Korah": 5503,
  "\u2581Kutadila": 5504,
  "\u2581Michael": 5505,
  "\u2581Tubila": 5506,
  "\u2581arose": 5507,
  "\u2581avoided": 5508,
  "\u2581cold": 5509,
  "\u2581debt": 5510,
  "\u2581deceived": 5511,
  "\u2581greed": 5512,
  "\u2581honesty": 5513,
  "\u2581kesakumunaka": 5514,
  "\u2581kimisionere": 5515,
  "\u2581kimununu": 5516,
  "\u2581kompani": 5517,
  "\u2581lift": 5518,
  "\u2581priority": 5519,
  "\u2581quit": 5520,
  "\u2581reside": 5521,
  "\u2581rid": 5522,
  "\u2581scene": 5523,
  "\u2581similarly": 5524,
  "\u2581talents": 5525,
  "\u2581talomba": 5526,
  "\u2581tenta": 5527,
  "\u2581watching": 5528,
  "\u258127,": 5529,
  "\u2581Absalom": 5530,
  "\u2581Awa": 5531,
  "\u2581Back": 5532,
  "\u2581Ezra": 5533,
  "\u2581Marriage": 5534,
  "\u2581Metala": 5535,
  "\u2581Numbers": 5536,
  "\u2581QUESTIONS": 5537,
  "\u2581Right": 5538,
  "\u2581Up": 5539,
  "\u2581acquainted": 5540,
  "\u2581bamfinangani": 5541,
  "\u2581banzietelo": 5542,
  "\u2581computer": 5543,
  "\u2581credit": 5544,
  "\u2581engag": 5545,
  "\u2581images": 5546,
  "\u2581kesobaka": 5547,
  "\u2581ketwadisa": 5548,
  "\u2581keyalaka": 5549,
  "\u2581kizitu": 5550,
  "\u2581kubwilaka": 5551,
  "\u2581listed": 5552,
  "\u2581maintained": 5553,
  "\u2581mendimaka": 5554,
  "\u2581mikwa": 5555,
  "\u2581namely": 5556,
  "\u2581nsadisi": 5557,
  "\u2581opinion": 5558,
  "\u2581scale": 5559,
  "\u2581solve": 5560,
  "\u2581stayed": 5561,
  "\u2581tools": 5562,
  "\u2581vain": 5563,
  "\u2581victims": 5564,
  "\u2581yimbaka": 5565,
  "ES": 5566,
  "Inki": 5567,
  "Tuka": 5568,
  "mekaka": 5569,
  "some": 5570,
  "syamisaka": 5571,
  "talu": 5572,
  "\u2581Australia": 5573,
  "\u2581Death": 5574,
  "\u2581Ebreo": 5575,
  "\u2581Esdrasi": 5576,
  "\u2581Judge": 5577,
  "\u2581Kitini": 5578,
  "\u2581Ma": 5579,
  "\u2581Next": 5580,
  "\u2581apostate": 5581,
  "\u2581assemblies": 5582,
  "\u2581bumwana": 5583,
  "\u2581cooperate": 5584,
  "\u2581diligent": 5585,
  "\u2581doctrine": 5586,
  "\u2581expectation": 5587,
  "\u2581fourth": 5588,
  "\u2581greatness": 5589,
  "\u2581kuniokula": 5590,
  "\u2581kuzika": 5591,
  "\u2581length": 5592,
  "\u2581load": 5593,
  "\u2581mebikala": 5594,
  "\u2581mebikalaka": 5595,
  "\u2581mine": 5596,
  "\u2581mpu": 5597,
  "\u2581nearby": 5598,
  "\u2581nkanu": 5599,
  "\u2581ntambudi": 5600,
  "\u2581partner": 5601,
  "\u2581pleasant": 5602,
  "\u2581reasoned": 5603,
  "\u2581rebellious": 5604,
  "\u2581rock": 5605,
  "\u2581sambila": 5606,
  "\u2581unfaithful": 5607,
  "\u2581zuzi": 5608,
  "inati": 5609,
  "lutangu": 5610,
  "yo": 5611,
  "\u25812004": 5612,
  "\u2581Congregation": 5613,
  "\u2581Empire": 5614,
  "\u2581End": 5615,
  "\u2581IT": 5616,
  "\u2581Knowing": 5617,
  "\u2581Kuzola": 5618,
  "\u2581Service": 5619,
  "\u2581View": 5620,
  "\u2581bamama": 5621,
  "\u2581blame": 5622,
  "\u2581crushed": 5623,
  "\u2581esti": 5624,
  "\u2581experiencing": 5625,
  "\u2581feed": 5626,
  "\u2581hell": 5627,
  "\u2581immediate": 5628,
  "\u2581iron": 5629,
  "\u2581mezabaka": 5630,
  "\u2581ngombe": 5631,
  "\u2581nzyetolo": 5632,
  "\u2581prompt": 5633,
  "\u2581returning": 5634,
  "\u2581tasuka": 5635,
  "\u2581tatuba": 5636,
  "\u2581tazaba": 5637,
  "\u2581thorough": 5638,
  "Kansi": 5639,
  "bikaka": 5640,
  "kotaka": 5641,
  "nointed": 5642,
  "ongoki": 5643,
  "\u25811950": 5644,
  "\u258125,": 5645,
  "\u258183": 5646,
  "\u2581Bambeni": 5647,
  "\u2581Filistia": 5648,
  "\u2581Goliati": 5649,
  "\u2581Kusosa": 5650,
  "\u2581Maintain": 5651,
  "\u2581Ngulusi": 5652,
  "\u2581Psalms": 5653,
  "\u2581Rebekah": 5654,
  "\u2581Trinity": 5655,
  "\u2581Were": 5656,
  "\u2581Which": 5657,
  "\u2581adopted": 5658,
  "\u2581agreement": 5659,
  "\u2581byese": 5660,
  "\u2581conceal": 5661,
  "\u2581conform": 5662,
  "\u2581dark": 5663,
  "\u2581educational": 5664,
  "\u2581everywhere": 5665,
  "\u2581gaining": 5666,
  "\u2581highlights": 5667,
  "\u2581i": 5668,
  "\u2581increasing": 5669,
  "\u2581kudisonga": 5670,
  "\u2581kufutumuna": 5671,
  "\u2581kunyokwama": 5672,
  "\u2581lembikaka": 5673,
  "\u2581ludimi": 5674,
  "\u2581mesonikaka": 5675,
  "\u2581nimero": 5676,
  "\u2581overwhelmed": 5677,
  "\u2581price": 5678,
  "\u2581repeated": 5679,
  "\u2581scientists": 5680,
  "\u2581sending": 5681,
  "\u2581specifically": 5682,
  "\u2581talks": 5683,
  "\u2581trip": 5684,
  "\u2581urgent": 5685,
  "/": 5686,
  "Kimfumu": 5687,
  "nduku": 5688,
  "\u258156": 5689,
  "\u2581Egyptians": 5690,
  "\u2581Haggai": 5691,
  "\u2581Kubakisa": 5692,
  "\u2581Meal": 5693,
  "\u2581Often": 5694,
  "\u2581September": 5695,
  "\u2581Sodome": 5696,
  "\u2581Speaking": 5697,
  "\u2581Thomas": 5698,
  "\u2581Yanuari": 5699,
  "\u2581Yeriko": 5700,
  "\u2581bankeni": 5701,
  "\u2581billions": 5702,
  "\u2581captivity": 5703,
  "\u2581equal": 5704,
  "\u2581ethnic": 5705,
  "\u2581foot": 5706,
  "\u2581goats": 5707,
  "\u2581hungry": 5708,
  "\u2581kukwelana": 5709,
  "\u2581kundimama": 5710,
  "\u2581kuvutukilaka": 5711,
  "\u2581kuwakanisa": 5712,
  "\u2581muyibi": 5713,
  "\u2581ntambu": 5714,
  "\u2581object": 5715,
  "\u2581refreshment": 5716,
  "\u2581spending": 5717,
  "\u2581street": 5718,
  "\u2581wear": 5719,
  "\u2581widikilaka": 5720,
  "\u2581yilama": 5721,
  "Bampangi": 5722,
  "Nani": 5723,
  "Why": 5724,
  "ies": 5725,
  "ver": 5726,
  "\u2581Britain": 5727,
  "\u2581Caesar": 5728,
  "\u2581Consequently": 5729,
  "\u2581England": 5730,
  "\u2581Herod": 5731,
  "\u2581Japan": 5732,
  "\u2581MUTINDU": 5733,
  "\u2581March": 5734,
  "\u2581Mwa": 5735,
  "\u2581Near": 5736,
  "\u2581PSALM": 5737,
  "\u2581Spiritual": 5738,
  "\u2581Truly": 5739,
  "\u2581Use": 5740,
  "\u2581adults": 5741,
  "\u2581apostasy": 5742,
  "\u2581continuing": 5743,
  "\u2581covered": 5744,
  "\u2581disappointed": 5745,
  "\u2581fulfilling": 5746,
  "\u2581gracious": 5747,
  "\u2581guilt": 5748,
  "\u2581gulukaka": 5749,
  "\u2581initial": 5750,
  "\u2581kebuya": 5751,
  "\u2581kekumisa": 5752,
  "\u2581kugulusaka": 5753,
  "\u2581kutwadisaka": 5754,
  "\u2581kuvilaka": 5755,
  "\u2581kuyinga": 5756,
  "\u2581lupitalu": 5757,
  "\u2581metadila": 5758,
  "\u2581mifwidi": 5759,
  "\u2581neutral": 5760,
  "\u2581opinions": 5761,
  "\u2581restoration": 5762,
  "\u2581sola": 5763,
  "\u2581tedimisaka": 5764,
  "\u2581testimony": 5765,
  "\u2581totally": 5766,
  "\u2581understands": 5767,
  "\u2581vivid": 5768,
  "\u2581weapons": 5769,
  "\u2581won": 5770,
  "\u2581yangisa": 5771,
  "ikabu": 5772,
  "\u2581607": 5773,
  "\u2581Become": 5774,
  "\u2581Evening": 5775,
  "\u2581Evidently": 5776,
  "\u2581Hope": 5777,
  "\u2581Moyo": 5778,
  "\u2581Please": 5779,
  "\u2581Yuni": 5780,
  "\u2581accused": 5781,
  "\u2581admits": 5782,
  "\u2581badness": 5783,
  "\u2581bangombe": 5784,
  "\u2581bansumuki": 5785,
  "\u2581capacity": 5786,
  "\u2581citizens": 5787,
  "\u2581commendation": 5788,
  "\u2581commissioned": 5789,
  "\u2581comparison": 5790,
  "\u2581dedicate": 5791,
  "\u2581errors": 5792,
  "\u2581exercised": 5793,
  "\u2581expose": 5794,
  "\u2581habit": 5795,
  "\u2581kekwisaka": 5796,
  "\u2581kesamba": 5797,
  "\u2581kimpangi": 5798,
  "\u2581kisanga": 5799,
  "\u2581kudikulumusaka": 5800,
  "\u2581kulunga": 5801,
  "\u2581kumekama": 5802,
  "\u2581kutaninaka": 5803,
  "\u2581kuzabana": 5804,
  "\u2581lalaka": 5805,
  "\u2581mbela": 5806,
  "\u2581partake": 5807,
  "\u2581patriarch": 5808,
  "\u2581perfectly": 5809,
  "\u2581positions": 5810,
  "\u2581unbelievers": 5811,
  "\u2581witnessed": 5812,
  "at": 5813,
  "mabanza": 5814,
  "nyokulaka": 5815,
  "ra": 5816,
  "ward": 5817,
  "\u2581130": 5818,
  "\u25812005": 5819,
  "\u258143.": 5820,
  "\u2581Above": 5821,
  "\u2581Etiopia": 5822,
  "\u2581Nebuchadnezzar": 5823,
  "\u2581adhere": 5824,
  "\u2581composed": 5825,
  "\u2581compromise": 5826,
  "\u2581deception": 5827,
  "\u2581depict": 5828,
  "\u2581desired": 5829,
  "\u2581discouragement": 5830,
  "\u2581executed": 5831,
  "\u2581exemplary": 5832,
  "\u2581extraordinary": 5833,
  "\u2581favorably": 5834,
  "\u2581fed": 5835,
  "\u2581hide": 5836,
  "\u2581intimate": 5837,
  "\u2581kedyaka": 5838,
  "\u2581kotisa": 5839,
  "\u2581leadership": 5840,
  "\u2581linked": 5841,
  "\u2581mekutanaka": 5842,
  "\u2581mesadilaka": 5843,
  "\u2581mukubu": 5844,
  "\u2581strike": 5845,
  "\u2581stumbling": 5846,
  "\u2581tabakisa": 5847,
  "\u2581undergo": 5848,
  "\u2581valid": 5849,
  "bonso": 5850,
  "nsangu": 5851,
  "seed": 5852,
  "\u2581110": 5853,
  "\u25811930": 5854,
  "\u2581600": 5855,
  "\u2581Additional": 5856,
  "\u2581Any": 5857,
  "\u2581Baevanzile": 5858,
  "\u2581Bansamuni": 5859,
  "\u2581Brian": 5860,
  "\u2581Christlike": 5861,
  "\u2581Desembri": 5862,
  "\u2581Ear": 5863,
  "\u2581JOHN": 5864,
  "\u2581Kudiyula": 5865,
  "\u2581Malawi": 5866,
  "\u2581Novembri": 5867,
  "\u2581Penepene": 5868,
  "\u2581Re": 5869,
  "\u2581TV": 5870,
  "\u2581appoint": 5871,
  "\u2581arms": 5872,
  "\u2581bakieleka": 5873,
  "\u2581commended": 5874,
  "\u2581depressed": 5875,
  "\u2581depression": 5876,
  "\u2581discussing": 5877,
  "\u2581dying": 5878,
  "\u2581foremost": 5879,
  "\u2581glorified": 5880,
  "\u2581hunger": 5881,
  "\u2581imperfections": 5882,
  "\u2581keyala": 5883,
  "\u2581kusa": 5884,
  "\u2581mebasika": 5885,
  "\u2581nioka": 5886,
  "\u2581ordered": 5887,
  "\u2581pleasures": 5888,
  "\u2581previously": 5889,
  "\u2581produces": 5890,
  "\u2581running": 5891,
  "\u2581sanctified": 5892,
  "\u2581silent": 5893,
  "\u2581title": 5894,
  "\u2581unusual": 5895,
  "\u2581wholeheartedly": 5896,
  "Bika": 5897,
  "\u258146.": 5898,
  "\u2581Baruki": 5899,
  "\u2581Madya": 5900,
  "\u2581Nabukodonozore": 5901,
  "\u2581Philippi": 5902,
  "\u2581Reign": 5903,
  "\u2581WHEN": 5904,
  "\u2581appointment": 5905,
  "\u2581associating": 5906,
  "\u2581channel": 5907,
  "\u2581convince": 5908,
  "\u2581distressing": 5909,
  "\u2581ear": 5910,
  "\u2581execute": 5911,
  "\u2581gets": 5912,
  "\u2581improper": 5913,
  "\u2581kevingilaka": 5914,
  "\u2581kimangu": 5915,
  "\u2581kubedisa": 5916,
  "\u2581kulaka": 5917,
  "\u2581kumonika": 5918,
  "\u2581materially": 5919,
  "\u2581mentions": 5920,
  "\u2581moon": 5921,
  "\u2581mwaye": 5922,
  "\u2581rendering": 5923,
  "\u2581selected": 5924,
  "\u2581sing": 5925,
  "\u2581sole": 5926,
  "\u2581suku": 5927,
  "\u2581weigh": 5928,
  "mpeve": 5929,
  "proving": 5930,
  "\u258115)": 5931,
  "\u258147.": 5932,
  "\u2581Baruch": 5933,
  "\u2581Dimeme": 5934,
  "\u2581Kieleka": 5935,
  "\u2581Likely": 5936,
  "\u2581Loving": 5937,
  "\u2581Nabale": 5938,
  "\u2581Samaritan": 5939,
  "\u2581Way": 5940,
  "\u2581ashamed": 5941,
  "\u2581ban": 5942,
  "\u2581bansungi": 5943,
  "\u2581charge": 5944,
  "\u2581current": 5945,
  "\u2581deepen": 5946,
  "\u2581fields": 5947,
  "\u2581fled": 5948,
  "\u2581frequently": 5949,
  "\u2581heirs": 5950,
  "\u2581helper": 5951,
  "\u2581highlight": 5952,
  "\u2581illustrated": 5953,
  "\u2581immortal": 5954,
  "\u2581kekusaka": 5955,
  "\u2581kuyikaka": 5956,
  "\u2581melutaka": 5957,
  "\u2581mesilaka": 5958,
  "\u2581missing": 5959,
  "\u2581necessarily": 5960,
  "\u2581replaced": 5961,
  "\u2581solution": 5962,
  "\u2581statements": 5963,
  "\u2581striving": 5964,
  "\u2581sufficient": 5965,
  "\u2581turns": 5966,
  "\u2581types": 5967,
  "gave": 5968,
  "isa": 5969,
  "kyeleka": 5970,
  "metre": 5971,
  "nganga": 5972,
  "\u25816]": 5973,
  "\u2581Bazuzi": 5974,
  "\u2581Col": 5975,
  "\u2581Esti": 5976,
  "\u2581Kuwa": 5977,
  "\u2581Mameme": 5978,
  "\u2581Power": 5979,
  "\u2581Rutherford": 5980,
  "\u2581Spain": 5981,
  "\u2581Yankaka": 5982,
  "\u2581accompany": 5983,
  "\u2581application": 5984,
  "\u2581awe": 5985,
  "\u2581bafeti": 5986,
  "\u2581bakila": 5987,
  "\u2581bambala": 5988,
  "\u2581bansinga": 5989,
  "\u2581belonging": 5990,
  "\u2581blesses": 5991,
  "\u2581brain": 5992,
  "\u2581delay": 5993,
  "\u2581disposition": 5994,
  "\u2581elements": 5995,
  "\u2581gnome": 5996,
  "\u2581illustrates": 5997,
  "\u2581judging": 5998,
  "\u2581kelemfukilaka": 5999,
  "\u2581lawlessness": 6000,
  "\u2581meyambulaka": 6001,
  "\u2581outlook": 6002,
  "\u2581pardo": 6003,
  "\u2581receives": 6004,
  "\u2581science": 6005,
  "\u2581sell": 6006,
  "\u2581shadow": 6007,
  "\u2581sitting": 6008,
  "\u2581texts": 6009,
  "\u2581unexpected": 6010,
  "ING": 6011,
  "nkuna": 6012,
  "there": 6013,
  "\u258197": 6014,
  "\u2581Again": 6015,
  "\u2581Albert": 6016,
  "\u2581December": 6017,
  "\u2581Head": 6018,
  "\u2581Jericho": 6019,
  "\u2581Lubutuku": 6020,
  "\u2581MATAYO": 6021,
  "\u2581Much": 6022,
  "\u2581Nabal": 6023,
  "\u2581Nduku": 6024,
  "\u2581Old": 6025,
  "\u2581Person": 6026,
  "\u2581Three": 6027,
  "\u2581alongside": 6028,
  "\u2581atmosphere": 6029,
  "\u2581bampumpa": 6030,
  "\u2581bed": 6031,
  "\u2581bondila": 6032,
  "\u2581centered": 6033,
  "\u2581claims": 6034,
  "\u2581clothes": 6035,
  "\u2581cried": 6036,
  "\u2581disposed": 6037,
  "\u2581elsewhere": 6038,
  "\u2581emphasized": 6039,
  "\u2581ensure": 6040,
  "\u2581examining": 6041,
  "\u2581exchange": 6042,
  "\u2581garments": 6043,
  "\u2581hair": 6044,
  "\u2581kebuyisaka": 6045,
  "\u2581kefwa": 6046,
  "\u2581kesukaka": 6047,
  "\u2581kezitisa": 6048,
  "\u2581kuditadila": 6049,
  "\u2581kufwanisa": 6050,
  "\u2581kukwisaka": 6051,
  "\u2581kuyitukisa": 6052,
  "\u2581melonguka": 6053,
  "\u2581messages": 6054,
  "\u2581petitions": 6055,
  "\u2581phone": 6056,
  "\u2581proclaiming": 6057,
  "\u2581protects": 6058,
  "\u2581ridicule": 6059,
  "\u2581river": 6060,
  "\u2581select": 6061,
  "\u2581settle": 6062,
  "\u2581sinner": 6063,
  "\u2581soldier": 6064,
  "\u2581spite": 6065,
  "\u2581tamana": 6066,
  "\u2581thinks": 6067,
  "\u2581unwise": 6068,
  "\u2581worry": 6069,
  "\u2581yield": 6070,
  "ye": 6071,
  "\u25812007": 6072,
  "\u25813]": 6073,
  "\u2581Bans": 6074,
  "\u2581Christmas": 6075,
  "\u2581GNOME": 6076,
  "\u2581Lukutakanu": 6077,
  "\u2581Sudi": 6078,
  "\u2581Try": 6079,
  "\u2581VANDAKA": 6080,
  "\u2581Yak": 6081,
  "\u2581awaiting": 6082,
  "\u2581billion": 6083,
  "\u2581c": 6084,
  "\u2581chaste": 6085,
  "\u2581civil": 6086,
  "\u2581comforts": 6087,
  "\u2581covering": 6088,
  "\u2581deaf": 6089,
  "\u2581drugs": 6090,
  "\u2581exhortation": 6091,
  "\u2581fier": 6092,
  "\u2581headship": 6093,
  "\u2581historian": 6094,
  "\u2581imitation": 6095,
  "\u2581kubikisa": 6096,
  "\u2581kupela": 6097,
  "\u2581kusungimina": 6098,
  "\u2581level": 6099,
  "\u2581measures": 6100,
  "\u2581minuta": 6101,
  "\u2581quiet": 6102,
  "\u2581ran": 6103,
  "\u2581tazwa": 6104,
  "\u2581unselfish": 6105,
  "\u2581wealthy": 6106,
  "4)": 6107,
  "AND": 6108,
  "ng": 6109,
  "they": 6110,
  "vukisaka": 6111,
  "was": 6112,
  "\u258131,": 6113,
  "\u2581Bar": 6114,
  "\u2581Ef": 6115,
  "\u2581Ex": 6116,
  "\u2581Goliath": 6117,
  "\u2581Human": 6118,
  "\u2581January": 6119,
  "\u2581Kub": 6120,
  "\u2581Kuzinga": 6121,
  "\u2581MPI": 6122,
  "\u2581Ndongisila": 6123,
  "\u2581OUR": 6124,
  "\u2581Year": 6125,
  "\u2581accident": 6126,
  "\u2581advanced": 6127,
  "\u2581assume": 6128,
  "\u2581baministre": 6129,
  "\u2581bones": 6130,
  "\u2581conducted": 6131,
  "\u2581conquered": 6132,
  "\u2581counseled": 6133,
  "\u2581dati": 6134,
  "\u2581exile": 6135,
  "\u2581falling": 6136,
  "\u2581finished": 6137,
  "\u2581heritage": 6138,
  "\u2581inclination": 6139,
  "\u2581intelligent": 6140,
  "\u2581judicial": 6141,
  "\u2581kebebisaka": 6142,
  "\u2581kufika": 6143,
  "\u2581kusiamisa": 6144,
  "\u2581luse": 6145,
  "\u2581melemba": 6146,
  "\u2581nyoka": 6147,
  "\u2581outcry": 6148,
  "\u2581respectful": 6149,
  "\u2581stands": 6150,
  "\u2581stones": 6151,
  "\u2581survived": 6152,
  "\u2581television": 6153,
  "\u2581unrepentant": 6154,
  "by": 6155,
  "handling": 6156,
  "new": 6157,
  "zola": 6158,
  "\u2581139": 6159,
  "\u2581Br\u00e9sil": 6160,
  "\u2581Esther": 6161,
  "\u2581Gary": 6162,
  "\u2581George": 6163,
  "\u2581Irlande": 6164,
  "\u2581Long": 6165,
  "\u2581Lufutumuku": 6166,
  "\u2581Ntendula": 6167,
  "\u2581Red": 6168,
  "\u2581Russie": 6169,
  "\u2581Theocratic": 6170,
  "\u2581bafoto": 6171,
  "\u2581boys": 6172,
  "\u2581bright": 6173,
  "\u2581contemplate": 6174,
  "\u2581discussions": 6175,
  "\u2581district": 6176,
  "\u2581emblems": 6177,
  "\u2581endless": 6178,
  "\u2581fortify": 6179,
  "\u2581generosity": 6180,
  "\u2581highlighted": 6181,
  "\u2581homeland": 6182,
  "\u2581injury": 6183,
  "\u2581kenata": 6184,
  "\u2581ketaka": 6185,
  "\u2581los": 6186,
  "\u2581mefinama": 6187,
  "\u2581mezabana": 6188,
  "\u2581nwaka": 6189,
  "\u2581previous": 6190,
  "\u2581project": 6191,
  "\u2581rebel": 6192,
  "\u2581remembered": 6193,
  "\u2581reserved": 6194,
  "\u2581respected": 6195,
  "\u2581sacrificial": 6196,
  "\u2581safety": 6197,
  "\u2581shame": 6198,
  "\u2581sikisa": 6199,
  "\u2581steal": 6200,
  "\u2581struggling": 6201,
  "\u2581submission": 6202,
  "\u2581submissive": 6203,
  "\u2581sumba": 6204,
  "\u2581tasepela": 6205,
  "\u2581trap": 6206,
  "\u2581warn": 6207,
  "\u2581westi": 6208,
  "\u2581zoba": 6209,
  "With": 6210,
  "ably": 6211,
  "ance": 6212,
  "ish": 6213,
  "konso": 6214,
  "reby": 6215,
  "we": 6216,
  "\u25811995": 6217,
  "\u258173": 6218,
  "\u2581Akabi": 6219,
  "\u2581Bamvu": 6220,
  "\u2581Barnabasi": 6221,
  "\u2581Continue": 6222,
  "\u2581Erode": 6223,
  "\u2581Grese": 6224,
  "\u2581Humans": 6225,
  "\u2581Judges": 6226,
  "\u2581MATTHEW": 6227,
  "\u2581Mexico": 6228,
  "\u2581Millions": 6229,
  "\u2581Soci\u00e9t\u00e9": 6230,
  "\u2581admonished": 6231,
  "\u2581afterward": 6232,
  "\u2581arrival": 6233,
  "\u2581avio": 6234,
  "\u2581bansende": 6235,
  "\u2581cleansed": 6236,
  "\u2581detailed": 6237,
  "\u2581dibungu": 6238,
  "\u2581drive": 6239,
  "\u2581follows": 6240,
  "\u2581gross": 6241,
  "\u2581grows": 6242,
  "\u2581hypocrisy": 6243,
  "\u2581kebasika": 6244,
  "\u2581kenwanisaka": 6245,
  "\u2581kesamunaka": 6246,
  "\u2581ketungaka": 6247,
  "\u2581kutinaka": 6248,
  "\u2581leaves": 6249,
  "\u2581ongoing": 6250,
  "\u2581origin": 6251,
  "\u2581repay": 6252,
  "\u2581seeming": 6253,
  "\u2581site": 6254,
  "\u2581standpoint": 6255,
  "\u2581suggests": 6256,
  "\u2581sumbaka": 6257,
  "\u2581supplies": 6258,
  "\u2581theme": 6259,
  "\u2581tragedy": 6260,
  "\u2581transform": 6261,
  "\u2581truthfulness": 6262,
  "dicating": 6263,
  "nsambidi": 6264,
  "\u258113]": 6265,
  "\u2581Babiblia": 6266,
  "\u2581Babylonians": 6267,
  "\u2581Bawanzyo": 6268,
  "\u2581Betelemi": 6269,
  "\u2581Bethlehem": 6270,
  "\u2581Gentiles": 6271,
  "\u2581Gogi": 6272,
  "\u2581Jairo": 6273,
  "\u2581Lives": 6274,
  "\u2581Living": 6275,
  "\u2581Men": 6276,
  "\u2581Rachel": 6277,
  "\u2581achieve": 6278,
  "\u2581badly": 6279,
  "\u2581boldly": 6280,
  "\u2581bwisa": 6281,
  "\u2581check": 6282,
  "\u2581commercial": 6283,
  "\u2581deceptive": 6284,
  "\u2581feared": 6285,
  "\u2581indication": 6286,
  "\u2581kenungaka": 6287,
  "\u2581keyitukisa": 6288,
  "\u2581leki": 6289,
  "\u2581limits": 6290,
  "\u2581metuba": 6291,
  "\u2581offended": 6292,
  "\u2581openly": 6293,
  "\u2581originally": 6294,
  "\u2581originate": 6295,
  "\u2581proclaimed": 6296,
  "\u2581producing": 6297,
  "\u2581readers": 6298,
  "\u2581sides": 6299,
  "\u2581tawa": 6300,
  "\u2581tongues": 6301,
  "\u2581tradition": 6302,
  "\u2581visions": 6303,
  "\u2581worshipped": 6304,
  "Ndinga": 6305,
  "insiku": 6306,
  "mfumu": 6307,
  "nga": 6308,
  "nsi": 6309,
  "ntoto": 6310,
  "zulu": 6311,
  "\u258114)": 6312,
  "\u2581Arch": 6313,
  "\u2581Azia": 6314,
  "\u2581FOR": 6315,
  "\u2581Kindness": 6316,
  "\u2581Nazareti": 6317,
  "\u2581Sheol": 6318,
  "\u2581Ten": 6319,
  "\u2581conflicts": 6320,
  "\u2581conquer": 6321,
  "\u2581diligently": 6322,
  "\u2581disobedient": 6323,
  "\u2581distinguish": 6324,
  "\u2581dry": 6325,
  "\u2581exact": 6326,
  "\u2581grieving": 6327,
  "\u2581hoping": 6328,
  "\u2581host": 6329,
  "\u2581intentions": 6330,
  "\u2581kanaka": 6331,
  "\u2581keen": 6332,
  "\u2581kufunda": 6333,
  "\u2581kura": 6334,
  "\u2581kutindila": 6335,
  "\u2581kuyidikaka": 6336,
  "\u2581marriages": 6337,
  "\u2581menungaka": 6338,
  "\u2581preachers": 6339,
  "\u2581reminder": 6340,
  "\u2581replace": 6341,
  "\u2581selfishness": 6342,
  "\u2581services": 6343,
  "\u2581shepherding": 6344,
  "\u2581sungika": 6345,
  "\u2581supplication": 6346,
  "\u2581unscriptural": 6347,
  "\u2581virtue": 6348,
  "\u2581weaken": 6349,
  "Mutindu": 6350,
  "Ya": 6351,
  "Yai": 6352,
  "ary": 6353,
  "beno": 6354,
  "bwisaka": 6355,
  "doubtedly": 6356,
  "moyo": 6357,
  "nt": 6358,
  "of": 6359,
  "soniki": 6360,
  "those": 6361,
  "yibukaka": 6362,
  "\u2581Abigaile": 6363,
  "\u2581Bantumwa": 6364,
  "\u2581Barnabas": 6365,
  "\u2581Certainly": 6366,
  "\u2581Gold": 6367,
  "\u2581Mean": 6368,
  "\u2581Mpika": 6369,
  "\u2581Spanish": 6370,
  "\u2581arrives": 6371,
  "\u2581beside": 6372,
  "\u2581cleanness": 6373,
  "\u2581consist": 6374,
  "\u2581equipped": 6375,
  "\u2581fruitful": 6376,
  "\u2581hurtful": 6377,
  "\u2581idols": 6378,
  "\u2581independence": 6379,
  "\u2581kelausaka": 6380,
  "\u2581kelungana": 6381,
  "\u2581kibaka": 6382,
  "\u2581kulemfukaka": 6383,
  "\u2581kusuka": 6384,
  "\u2581mekwisa": 6385,
  "\u2581minutes": 6386,
  "\u2581north": 6387,
  "\u2581paths": 6388,
  "\u2581phrase": 6389,
  "\u2581politics": 6390,
  "\u2581prior": 6391,
  "\u2581rob": 6392,
  "\u2581scribes": 6393,
  "\u2581suggested": 6394,
  "\u2581suitable": 6395,
  "Come": 6396,
  "L": 6397,
  "from": 6398,
  "kumina": 6399,
  "mwana": 6400,
  "script": 6401,
  "\u258112]": 6402,
  "\u258148.": 6403,
  "\u2581Chron": 6404,
  "\u2581City": 6405,
  "\u2581Knowledge": 6406,
  "\u2581Lo": 6407,
  "\u2581Nitu": 6408,
  "\u2581Page": 6409,
  "\u2581Rule": 6410,
  "\u2581Whom": 6411,
  "\u2581YEZU": 6412,
  "\u2581apareyi": 6413,
  "\u2581backgrounds": 6414,
  "\u2581baselile": 6415,
  "\u2581bwila": 6416,
  "\u2581clay": 6417,
  "\u2581commend": 6418,
  "\u2581correction": 6419,
  "\u2581defense": 6420,
  "\u2581dishonor": 6421,
  "\u2581duties": 6422,
  "\u2581enhance": 6423,
  "\u2581enjoyment": 6424,
  "\u2581festival": 6425,
  "\u2581fyotifyoti": 6426,
  "\u2581hinder": 6427,
  "\u2581kan": 6428,
  "\u2581kumata": 6429,
  "\u2581melunga": 6430,
  "\u2581memorial": 6431,
  "\u2581navigation": 6432,
  "\u2581needy": 6433,
  "\u2581peers": 6434,
  "\u2581plenty": 6435,
  "\u2581practiced": 6436,
  "\u2581publisher": 6437,
  "\u2581pusu": 6438,
  "\u2581saving": 6439,
  "\u2581sowing": 6440,
  "\u2581succumb": 6441,
  "\u2581table": 6442,
  "\u2581takwenda": 6443,
  "\u2581tremendous": 6444,
  "\u2581virgins": 6445,
  "\u2581walls": 6446,
  "\u2581yi": 6447,
  "ENDA": 6448,
  "angwisana": 6449,
  "creasingly": 6450,
  "ctively": 6451,
  "uke": 6452,
  "upusi": 6453,
  "\u2581150": 6454,
  "\u2581400": 6455,
  "\u258175": 6456,
  "\u2581Accordingly": 6457,
  "\u2581Balusakumunu": 6458,
  "\u2581Bambuma": 6459,
  "\u2581Bandongisila": 6460,
  "\u2581Bozi": 6461,
  "\u2581Describe": 6462,
  "\u2581Giving": 6463,
  "\u2581Happiness": 6464,
  "\u2581JESUS": 6465,
  "\u2581Le": 6466,
  "\u2581Mbwaki": 6467,
  "\u2581Nineveh": 6468,
  "\u2581Teokrasi": 6469,
  "\u2581Within": 6470,
  "\u2581absolutely": 6471,
  "\u2581ages": 6472,
  "\u2581aim": 6473,
  "\u2581bears": 6474,
  "\u2581catch": 6475,
  "\u2581constitute": 6476,
  "\u2581consult": 6477,
  "\u2581counted": 6478,
  "\u2581dikopa": 6479,
  "\u2581empire": 6480,
  "\u2581extra": 6481,
  "\u2581favorable": 6482,
  "\u2581feast": 6483,
  "\u2581fift": 6484,
  "\u2581forefathers": 6485,
  "\u2581holiness": 6486,
  "\u2581honesthearted": 6487,
  "\u2581kebasisa": 6488,
  "\u2581kefwanisa": 6489,
  "\u2581kevilaka": 6490,
  "\u2581kinds": 6491,
  "\u2581kukula": 6492,
  "\u2581kulutisaka": 6493,
  "\u2581kupukumuna": 6494,
  "\u2581lamp": 6495,
  "\u2581lean": 6496,
  "\u2581middle": 6497,
  "\u2581occurs": 6498,
  "\u2581overwhelming": 6499,
  "\u2581pick": 6500,
  "\u2581prayerful": 6501,
  "\u2581reassuring": 6502,
  "\u2581red": 6503,
  "\u2581sentence": 6504,
  "\u2581songi": 6505,
  "\u2581spiritism": 6506,
  "\u2581strongly": 6507,
  "\u2581style": 6508,
  "\u2581surrounding": 6509,
  "\u2581symbol": 6510,
  "\u2581timely": 6511,
  "\u2581yangisaka": 6512,
  "\u2581yedisaka": 6513,
  "\u2581zengila": 6514,
  "2,000": 6515,
  "ment": 6516,
  "tinaka": 6517,
  "\u00e0": 6518,
  "\u25812016": 6519,
  "\u2581Abigail": 6520,
  "\u2581Anthony": 6521,
  "\u2581Bakolosai": 6522,
  "\u2581Boaz": 6523,
  "\u2581Friend": 6524,
  "\u2581Kimvwama": 6525,
  "\u2581Kumona": 6526,
  "\u2581Latin": 6527,
  "\u2581Mbongo": 6528,
  "\u2581Mbotiki": 6529,
  "\u2581Pene": 6530,
  "\u2581Ur": 6531,
  "\u2581Zuzi": 6532,
  "\u2581adversity": 6533,
  "\u2581annual": 6534,
  "\u2581bebaka": 6535,
  "\u2581bore": 6536,
  "\u2581botulaka": 6537,
  "\u2581complex": 6538,
  "\u2581copper": 6539,
  "\u2581deliberately": 6540,
  "\u2581deserves": 6541,
  "\u2581earn": 6542,
  "\u2581exercises": 6543,
  "\u2581happier": 6544,
  "\u2581individually": 6545,
  "\u2581inspiration": 6546,
  "\u2581interesting": 6547,
  "\u2581kubuyisaka": 6548,
  "\u2581kudikotisa": 6549,
  "\u2581kudinda": 6550,
  "\u2581kuditwadisa": 6551,
  "\u2581location": 6552,
  "\u2581lula": 6553,
  "\u2581march": 6554,
  "\u2581materialism": 6555,
  "\u2581midi": 6556,
  "\u2581morality": 6557,
  "\u2581nkeni": 6558,
  "\u2581obvious": 6559,
  "\u2581partial": 6560,
  "\u2581pieces": 6561,
  "\u2581programs": 6562,
  "\u2581souled": 6563,
  "\u2581tayantika": 6564,
  "\u2581tendencies": 6565,
  "\u2581territories": 6566,
  "\u2581twice": 6567,
  "\u2581visitors": 6568,
  "nzila": 6569,
  "sikisaka": 6570,
  "who": 6571,
  "\u258113)": 6572,
  "\u258159": 6573,
  "\u2581Brazil": 6574,
  "\u2581Changes": 6575,
  "\u2581Dikebi": 6576,
  "\u2581Divine": 6577,
  "\u2581Jew": 6578,
  "\u2581Lutiti": 6579,
  "\u2581Luvunu": 6580,
  "\u2581Mexique": 6581,
  "\u2581Moab": 6582,
  "\u2581November": 6583,
  "\u2581Papa": 6584,
  "\u2581R\u00e9publique": 6585,
  "\u2581TA": 6586,
  "\u2581Teacher": 6587,
  "\u2581afford": 6588,
  "\u2581capital": 6589,
  "\u2581captive": 6590,
  "\u2581cloud": 6591,
  "\u2581confirm": 6592,
  "\u2581crown": 6593,
  "\u2581declares": 6594,
  "\u2581disastrous": 6595,
  "\u2581exclusive": 6596,
  "\u2581existing": 6597,
  "\u2581flood": 6598,
  "\u2581flow": 6599,
  "\u2581fresh": 6600,
  "\u2581futaka": 6601,
  "\u2581garment": 6602,
  "\u2581hears": 6603,
  "\u2581heat": 6604,
  "\u2581hopes": 6605,
  "\u2581implies": 6606,
  "\u2581imprisoned": 6607,
  "\u2581jealousy": 6608,
  "\u2581kinga": 6609,
  "\u2581kingolongolo": 6610,
  "\u2581kudi": 6611,
  "\u2581kudimonisa": 6612,
  "\u2581kuyitukaka": 6613,
  "\u2581malembemalembe": 6614,
  "\u2581mata": 6615,
  "\u2581mid": 6616,
  "\u2581misled": 6617,
  "\u2581neglect": 6618,
  "\u2581newspaper": 6619,
  "\u2581nsumuki": 6620,
  "\u2581ntulu": 6621,
  "\u2581opens": 6622,
  "\u2581playing": 6623,
  "\u2581prominence": 6624,
  "\u2581richly": 6625,
  "\u2581snare": 6626,
  "\u2581sorry": 6627,
  "\u2581telephone": 6628,
  "\u2581th": 6629,
  "\u2581tindila": 6630,
  "Christ": 6631,
  "either": 6632,
  "gainst": 6633,
  "\u258191": 6634,
  "\u2581Bath": 6635,
  "\u2581Don": 6636,
  "\u2581Drama": 6637,
  "\u2581Katuka": 6638,
  "\u2581Nkuluntu": 6639,
  "\u2581Personal": 6640,
  "\u2581State": 6641,
  "\u2581Yantika": 6642,
  "\u2581arrested": 6643,
  "\u2581batalanta": 6644,
  "\u2581changing": 6645,
  "\u2581conquest": 6646,
  "\u2581devote": 6647,
  "\u2581di": 6648,
  "\u2581emphasize": 6649,
  "\u2581games": 6650,
  "\u2581globe": 6651,
  "\u2581identifie": 6652,
  "\u2581isolated": 6653,
  "\u2581kuyika": 6654,
  "\u2581meyidikaka": 6655,
  "\u2581minor": 6656,
  "\u2581ndefi": 6657,
  "\u2581parallel": 6658,
  "\u2581possibility": 6659,
  "\u2581praised": 6660,
  "\u2581promoted": 6661,
  "\u2581rebelled": 6662,
  "\u2581representatives": 6663,
  "\u2581sansaka": 6664,
  "\u2581smoking": 6665,
  "\u2581spared": 6666,
  "\u2581tabikala": 6667,
  "\u2581tasambisa": 6668,
  "\u2581tragic": 6669,
  "\u2581tuma": 6670,
  "\u2581upset": 6671,
  "Now": 6672,
  "ce": 6673,
  "\u2581147": 6674,
  "\u2581Bretagne": 6675,
  "\u2581Etiene": 6676,
  "\u2581Everyone": 6677,
  "\u2581Kenataka": 6678,
  "\u2581LIFE": 6679,
  "\u2581LU": 6680,
  "\u2581Last": 6681,
  "\u2581Madia": 6682,
  "\u2581Maker": 6683,
  "\u2581Ntu": 6684,
  "\u2581accompanie": 6685,
  "\u2581average": 6686,
  "\u2581burned": 6687,
  "\u2581bus": 6688,
  "\u2581busantu": 6689,
  "\u2581cancer": 6690,
  "\u2581cease": 6691,
  "\u2581cleanse": 6692,
  "\u2581collect": 6693,
  "\u2581confirmed": 6694,
  "\u2581directions": 6695,
  "\u2581distracted": 6696,
  "\u2581emphasis": 6697,
  "\u2581engaged": 6698,
  "\u2581explaining": 6699,
  "\u2581fierce": 6700,
  "\u2581generously": 6701,
  "\u2581horse": 6702,
  "\u2581impression": 6703,
  "\u2581kufutumukaka": 6704,
  "\u2581kufwanana": 6705,
  "\u2581kusepelaka": 6706,
  "\u2581kutonga": 6707,
  "\u2581kuyobisa": 6708,
  "\u2581kwelanaka": 6709,
  "\u2581ministre": 6710,
  "\u2581mistaken": 6711,
  "\u2581niokulaka": 6712,
  "\u2581noteworthy": 6713,
  "\u2581organizations": 6714,
  "\u2581pair": 6715,
  "\u2581passages": 6716,
  "\u2581population": 6717,
  "\u2581prayerfully": 6718,
  "\u2581productive": 6719,
  "\u2581storm": 6720,
  "\u2581submitt": 6721,
  "\u2581tabwa": 6722,
  "\u2581tatendula": 6723,
  "\u2581tela": 6724,
  "\u2581thanksgiving": 6725,
  "\u2581valley": 6726,
  "\u2581widespread": 6727,
  "\u2581worthless": 6728,
  "10": 6729,
  "Mbala": 6730,
  "Nki": 6731,
  "gidika": 6732,
  "ie": 6733,
  "love": 6734,
  "zi": 6735,
  "\u258186": 6736,
  "\u2581Andrew": 6737,
  "\u2581Avoid": 6738,
  "\u2581Debora": 6739,
  "\u2581El": 6740,
  "\u2581ISSUE": 6741,
  "\u2581Kitoko": 6742,
  "\u2581Komi": 6743,
  "\u2581Kundima": 6744,
  "\u2581Kusamuna": 6745,
  "\u2581Listen": 6746,
  "\u2581Manasseh": 6747,
  "\u2581Nathan": 6748,
  "\u2581Need": 6749,
  "\u2581Nothing": 6750,
  "\u2581Paulo": 6751,
  "\u2581TI": 6752,
  "\u2581Thereafter": 6753,
  "\u2581Web": 6754,
  "\u2581Wise": 6755,
  "\u2581YAI": 6756,
  "\u2581Zekaria": 6757,
  "\u2581aksida": 6758,
  "\u2581announced": 6759,
  "\u2581bambaludi": 6760,
  "\u2581bamwense": 6761,
  "\u2581clothe": 6762,
  "\u2581condemn": 6763,
  "\u2581contentment": 6764,
  "\u2581creative": 6765,
  "\u2581deed": 6766,
  "\u2581diseases": 6767,
  "\u2581donation": 6768,
  "\u2581friendly": 6769,
  "\u2581futumuna": 6770,
  "\u2581gatherings": 6771,
  "\u2581gentle": 6772,
  "\u2581greedy": 6773,
  "\u2581guests": 6774,
  "\u2581guides": 6775,
  "\u2581handed": 6776,
  "\u2581handled": 6777,
  "\u2581happily": 6778,
  "\u2581ignored": 6779,
  "\u2581incident": 6780,
  "\u2581initially": 6781,
  "\u2581jealous": 6782,
  "\u2581kansere": 6783,
  "\u2581kapita": 6784,
  "\u2581kemonikaka": 6785,
  "\u2581keyela": 6786,
  "\u2581kufyotuna": 6787,
  "\u2581kusula": 6788,
  "\u2581liar": 6789,
  "\u2581loud": 6790,
  "\u2581metanga": 6791,
  "\u2581ndumba": 6792,
  "\u2581overlook": 6793,
  "\u2581owner": 6794,
  "\u2581perceive": 6795,
  "\u2581perish": 6796,
  "\u2581pula": 6797,
  "\u2581rebels": 6798,
  "\u2581symbolized": 6799,
  "\u2581telaminaka": 6800,
  "\u2581tries": 6801,
  "\u2581weekly": 6802,
  "\u2581wood": 6803,
  "Ebuna": 6804,
  "g": 6805,
  "kota": 6806,
  "ku": 6807,
  "my": 6808,
  "os": 6809,
  "yambulaka": 6810,
  "\u2581'!": 6811,
  "\u2581Bambikudulu": 6812,
  "\u2581Brothers": 6813,
  "\u2581Estere": 6814,
  "\u2581June": 6815,
  "\u2581Kalebi": 6816,
  "\u2581Manase": 6817,
  "\u2581Published": 6818,
  "\u2581Put": 6819,
  "\u2581Samba": 6820,
  "\u2581Sarai": 6821,
  "\u2581St": 6822,
  "\u2581Thessalonica": 6823,
  "\u2581accurately": 6824,
  "\u2581amazed": 6825,
  "\u2581analyze": 6826,
  "\u2581bedisaka": 6827,
  "\u2581befall": 6828,
  "\u2581bintuntu": 6829,
  "\u2581cells": 6830,
  "\u2581cultures": 6831,
  "\u2581developments": 6832,
  "\u2581evangelizers": 6833,
  "\u2581evolution": 6834,
  "\u2581fair": 6835,
  "\u2581fault": 6836,
  "\u2581foretell": 6837,
  "\u2581freed": 6838,
  "\u2581funeral": 6839,
  "\u2581hardship": 6840,
  "\u2581heartwarming": 6841,
  "\u2581hospital": 6842,
  "\u2581instituted": 6843,
  "\u2581island": 6844,
  "\u2581kemanaka": 6845,
  "\u2581keyelaka": 6846,
  "\u2581kubendaka": 6847,
  "\u2581kubingisa": 6848,
  "\u2581kugulukaka": 6849,
  "\u2581lifetime": 6850,
  "\u2581lisiti": 6851,
  "\u2581mabele": 6852,
  "\u2581magnificent": 6853,
  "\u2581menataka": 6854,
  "\u2581mile": 6855,
  "\u2581ordinary": 6856,
  "\u2581outset": 6857,
  "\u2581pains": 6858,
  "\u2581participation": 6859,
  "\u2581ponder": 6860,
  "\u2581requests": 6861,
  "\u2581sat": 6862,
  "\u2581schools": 6863,
  "\u2581skin": 6864,
  "\u2581suit": 6865,
  "\u2581traditions": 6866,
  "\u2581transformed": 6867,
  "\u2581utterance": 6868,
  "\u2581viewing": 6869,
  "\u2581vine": 6870,
  "\u2581vwezaka": 6871,
  "\u2581wage": 6872,
  "\u2581weight": 6873,
  "\u2581worshipp": 6874,
  "\u2581yielding": 6875,
  "NGIUFULA": 6876,
  "ni": 6877,
  "\u258126]": 6878,
  "\u2581Apply": 6879,
  "\u2581BO": 6880,
  "\u2581Batsheba": 6881,
  "\u2581Bedell": 6882,
  "\u2581Get": 6883,
  "\u2581Had": 6884,
  "\u2581Humility": 6885,
  "\u2581Joel": 6886,
  "\u2581Keba": 6887,
  "\u2581Kununga": 6888,
  "\u2581Kutambula": 6889,
  "\u2581Nkaka": 6890,
  "\u2581Potifare": 6891,
  "\u2581System": 6892,
  "\u2581Third": 6893,
  "\u2581Ure": 6894,
  "\u2581Very": 6895,
  "\u2581adapt": 6896,
  "\u2581arrive": 6897,
  "\u2581attracted": 6898,
  "\u2581author": 6899,
  "\u2581bifwa": 6900,
  "\u2581binam": 6901,
  "\u2581bought": 6902,
  "\u2581code": 6903,
  "\u2581confess": 6904,
  "\u2581corrected": 6905,
  "\u2581desperate": 6906,
  "\u2581edition": 6907,
  "\u2581fingaka": 6908,
  "\u2581forbidden": 6909,
  "\u2581guarantee": 6910,
  "\u2581inactive": 6911,
  "\u2581items": 6912,
  "\u2581kebwilaka": 6913,
  "\u2581kesolula": 6914,
  "\u2581memonisa": 6915,
  "\u2581misleading": 6916,
  "\u2581nganinaka": 6917,
  "\u2581niokwamaka": 6918,
  "\u2581performing": 6919,
  "\u2581precise": 6920,
  "\u2581propaganda": 6921,
  "\u2581purposed": 6922,
  "\u2581qualifications": 6923,
  "\u2581range": 6924,
  "\u2581resident": 6925,
  "\u2581sanctify": 6926,
  "\u2581seated": 6927,
  "\u2581sensitive": 6928,
  "\u2581settled": 6929,
  "\u2581sow": 6930,
  "\u2581spreading": 6931,
  "\u2581tamonana": 6932,
  "\u2581tasonga": 6933,
  "\u2581worthwhile": 6934,
  "apu": 6935,
  "do": 6936,
  "kisalu": 6937,
  "ll": 6938,
  "ncient": 6939,
  "nti": 6940,
  "onse": 6941,
  "stern": 6942,
  "working": 6943,
  "\u25811922": 6944,
  "\u258158": 6945,
  "\u2581Alive": 6946,
  "\u2581Batesalonika": 6947,
  "\u2581Britannica": 6948,
  "\u2581Centuries": 6949,
  "\u2581Dead": 6950,
  "\u2581Earlier": 6951,
  "\u2581East": 6952,
  "\u2581Espagne": 6953,
  "\u2581Februari": 6954,
  "\u2581German": 6955,
  "\u2581Jeroboam": 6956,
  "\u2581Kinduku": 6957,
  "\u2581Martin": 6958,
  "\u2581Nazareth": 6959,
  "\u2581Sabbath": 6960,
  "\u2581Si": 6961,
  "\u2581Suffering": 6962,
  "\u2581Volume": 6963,
  "\u2581Years": 6964,
  "\u2581Yeroboami": 6965,
  "\u2581alienate": 6966,
  "\u2581bazoba": 6967,
  "\u2581dis": 6968,
  "\u2581ease": 6969,
  "\u2581embrace": 6970,
  "\u2581era": 6971,
  "\u2581fathers": 6972,
  "\u2581foreigners": 6973,
  "\u2581fruits": 6974,
  "\u2581fun": 6975,
  "\u2581hit": 6976,
  "\u2581honestly": 6977,
  "\u2581istware": 6978,
  "\u2581keluta": 6979,
  "\u2581luyotisu": 6980,
  "\u2581mbeto": 6981,
  "\u2581mumekamu": 6982,
  "\u2581numbers": 6983,
  "\u2581reflection": 6984,
  "\u2581renewed": 6985,
  "\u2581tavila": 6986,
  "\u2581team": 6987,
  "\u2581thoroughly": 6988,
  "\u2581touching": 6989,
  "\u2581treacherous": 6990,
  "\u2581vows": 6991,
  "13": 6992,
  "their": 6993,
  "\u2581148": 6994,
  "\u258118)": 6995,
  "\u2581Baraki": 6996,
  "\u2581Benjamin": 6997,
  "\u2581Bulemfu": 6998,
  "\u2581Caleb": 6999,
  "\u2581Deborah": 7000,
  "\u2581Ezek": 7001,
  "\u2581Gog": 7002,
  "\u2581Kikongo": 7003,
  "\u2581Mun": 7004,
  "\u2581Ntonda": 7005,
  "\u2581Sandra": 7006,
  "\u2581Silasi": 7007,
  "\u2581Wa": 7008,
  "\u2581admitted": 7009,
  "\u2581alien": 7010,
  "\u2581belula": 7011,
  "\u2581bereaved": 7012,
  "\u2581bivuvu": 7013,
  "\u2581curse": 7014,
  "\u2581decisive": 7015,
  "\u2581deserving": 7016,
  "\u2581drug": 7017,
  "\u2581entirely": 7018,
  "\u2581exalted": 7019,
  "\u2581extensive": 7020,
  "\u2581fails": 7021,
  "\u2581falls": 7022,
  "\u2581famous": 7023,
  "\u2581feeding": 7024,
  "\u2581forgotten": 7025,
  "\u2581fought": 7026,
  "\u2581inclinations": 7027,
  "\u2581jobs": 7028,
  "\u2581kebwaka": 7029,
  "\u2581kesolulaka": 7030,
  "\u2581keta": 7031,
  "\u2581keyantika": 7032,
  "\u2581kezwaka": 7033,
  "\u2581kuvidisaka": 7034,
  "\u2581kuyelaka": 7035,
  "\u2581lifesaving": 7036,
  "\u2581milk": 7037,
  "\u2581mold": 7038,
  "\u2581pema": 7039,
  "\u2581permitted": 7040,
  "\u2581perspective": 7041,
  "\u2581repented": 7042,
  "\u2581responding": 7043,
  "\u2581separated": 7044,
  "\u2581unrighteousness": 7045,
  "\u2581wages": 7046,
  "Israele": 7047,
  "lutaka": 7048,
  "specially": 7049,
  "tanwanisa": 7050,
  "tulaka": 7051,
  "\u25811997": 7052,
  "\u2581Alex": 7053,
  "\u2581BE": 7054,
  "\u2581Bitumba": 7055,
  "\u2581Bumosi": 7056,
  "\u2581Far": 7057,
  "\u2581Honor": 7058,
  "\u2581Jean": 7059,
  "\u2581Kemonisa": 7060,
  "\u2581NKAKA": 7061,
  "\u2581Pay": 7062,
  "\u2581Potiphar": 7063,
  "\u2581Prisila": 7064,
  "\u2581Russia": 7065,
  "\u2581Savior": 7066,
  "\u2581Suppose": 7067,
  "\u2581Univers": 7068,
  "\u2581Zinga": 7069,
  "\u2581affliction": 7070,
  "\u2581bateritware": 7071,
  "\u2581begun": 7072,
  "\u2581behold": 7073,
  "\u2581bit": 7074,
  "\u2581circumcision": 7075,
  "\u2581complaint": 7076,
  "\u2581discover": 7077,
  "\u2581distinct": 7078,
  "\u2581distributed": 7079,
  "\u2581drop": 7080,
  "\u2581element": 7081,
  "\u2581entering": 7082,
  "\u2581expectations": 7083,
  "\u2581falsely": 7084,
  "\u2581guidelines": 7085,
  "\u2581invites": 7086,
  "\u2581katikati": 7087,
  "\u2581kusabuka": 7088,
  "\u2581mewaka": 7089,
  "\u2581mislead": 7090,
  "\u2581missed": 7091,
  "\u2581movies": 7092,
  "\u2581ndembikilu": 7093,
  "\u2581nkumbu": 7094,
  "\u2581nsa": 7095,
  "\u2581observance": 7096,
  "\u2581persecute": 7097,
  "\u2581plain": 7098,
  "\u2581pleases": 7099,
  "\u2581priceless": 7100,
  "\u2581remote": 7101,
  "\u2581sanctification": 7102,
  "\u2581smile": 7103,
  "\u2581splendor": 7104,
  "\u2581swaswanaka": 7105,
  "\u2581thrilled": 7106,
  "\u2581undermine": 7107,
  "\u2581vutudila": 7108,
  "\u2581watchful": 7109,
  "Kilumbu": 7110,
  "ambre": 7111,
  "ene": 7112,
  "\u25811879": 7113,
  "\u258163": 7114,
  "\u2581ANSWERED": 7115,
  "\u2581Apollos": 7116,
  "\u2581Assyrian": 7117,
  "\u2581CAN": 7118,
  "\u2581French": 7119,
  "\u2581Gentile": 7120,
  "\u2581Joy": 7121,
  "\u2581Kukumisa": 7122,
  "\u2581Letter": 7123,
  "\u2581Mbotika": 7124,
  "\u2581Mona": 7125,
  "\u2581Pesaka": 7126,
  "\u2581Reading": 7127,
  "\u2581Religion": 7128,
  "\u2581Sanhedrin": 7129,
  "\u2581Tak": 7130,
  "\u2581Tanina": 7131,
  "\u2581Tavutu": 7132,
  "\u2581Teaching": 7133,
  "\u2581YOANE": 7134,
  "\u2581Yezabele": 7135,
  "\u2581baprograme": 7136,
  "\u2581base": 7137,
  "\u2581bondage": 7138,
  "\u2581characteristics": 7139,
  "\u2581cross": 7140,
  "\u2581difficulty": 7141,
  "\u2581distressed": 7142,
  "\u2581dramatic": 7143,
  "\u2581enjoyable": 7144,
  "\u2581ex": 7145,
  "\u2581expresse": 7146,
  "\u2581female": 7147,
  "\u2581funds": 7148,
  "\u2581incense": 7149,
  "\u2581kelemfuka": 7150,
  "\u2581kinkonga": 7151,
  "\u2581kuzitisaka": 7152,
  "\u2581logical": 7153,
  "\u2581mafingu": 7154,
  "\u2581meantime": 7155,
  "\u2581mekatula": 7156,
  "\u2581melongaka": 7157,
  "\u2581ndumbu": 7158,
  "\u2581neutrality": 7159,
  "\u2581objects": 7160,
  "\u2581oversight": 7161,
  "\u2581owe": 7162,
  "\u2581reacted": 7163,
  "\u2581remembering": 7164,
  "\u2581revealing": 7165,
  "\u2581sharp": 7166,
  "\u2581stating": 7167,
  "\u2581steward": 7168,
  "\u2581tambusa": 7169,
  "\u2581thorn": 7170,
  "\u2581ultimately": 7171,
  "\u2581undo": 7172,
  "\u2581unnecessary": 7173,
  "\u2581vicious": 7174,
  "\u2581volume": 7175,
  "\u2581volunteers": 7176,
  "\u2581yeartext": 7177,
  "\u2581ziunga": 7178,
  "IANS": 7179,
  "Our": 7180,
  "];": 7181,
  "f": 7182,
  "\u2581103": 7183,
  "\u2581112": 7184,
  "\u258112.)": 7185,
  "\u258117)": 7186,
  "\u2581Actually": 7187,
  "\u2581Akilasi": 7188,
  "\u2581Angl": 7189,
  "\u2581Apolo": 7190,
  "\u2581Aquila": 7191,
  "\u2581Baptizer": 7192,
  "\u2581Barak": 7193,
  "\u2581Committee": 7194,
  "\u2581Filipo": 7195,
  "\u2581Giver": 7196,
  "\u2581Jezebel": 7197,
  "\u2581Lef\u00e8vre": 7198,
  "\u2581Ohio": 7199,
  "\u2581Serving": 7200,
  "\u2581Simon": 7201,
  "\u2581Thess": 7202,
  "\u2581Unti": 7203,
  "\u2581ate": 7204,
  "\u2581boat": 7205,
  "\u2581centr": 7206,
  "\u2581concentration": 7207,
  "\u2581crush": 7208,
  "\u2581deceive": 7209,
  "\u2581fearful": 7210,
  "\u2581figuratively": 7211,
  "\u2581fu": 7212,
  "\u2581girls": 7213,
  "\u2581gladly": 7214,
  "\u2581headquarters": 7215,
  "\u2581immense": 7216,
  "\u2581kalulu": 7217,
  "\u2581kekanga": 7218,
  "\u2581kenwaka": 7219,
  "\u2581kufwanisaka": 7220,
  "\u2581kulembaka": 7221,
  "\u2581kulongila": 7222,
  "\u2581kupanza": 7223,
  "\u2581kusakana": 7224,
  "\u2581manuscripts": 7225,
  "\u2581naturally": 7226,
  "\u2581ndombe": 7227,
  "\u2581per": 7228,
  "\u2581planning": 7229,
  "\u2581portray": 7230,
  "\u2581prim": 7231,
  "\u2581push": 7232,
  "\u2581realistic": 7233,
  "\u2581resort": 7234,
  "\u2581station": 7235,
  "\u2581strange": 7236,
  "\u2581talked": 7237,
  "\u2581talonguka": 7238,
  "\u2581target": 7239,
  "\u2581tasosa": 7240,
  "\u2581taste": 7241,
  "\u2581tavutuka": 7242,
  "\u2581testify": 7243,
  "\u2581truthful": 7244,
  "\u2581welcomed": 7245,
  "\u2581worshipper": 7246,
  "\u25a1": 7247,
  "Lord": 7248,
  "ant": 7249,
  "ele": 7250,
  "kisika": 7251,
  "ngemba": 7252,
  "son": 7253,
  "\u21e9": 7254,
  "\u258129]": 7255,
  "\u25814.)": 7256,
  "\u258168": 7257,
  "\u258169": 7258,
  "\u2581America": 7259,
  "\u2581Asaph": 7260,
  "\u2581Dikanda": 7261,
  "\u2581European": 7262,
  "\u2581Follow": 7263,
  "\u2581KATI": 7264,
  "\u2581Kuzitisa": 7265,
  "\u2581Luguluku": 7266,
  "\u2581Maladi": 7267,
  "\u2581Ones": 7268,
  "\u2581Persian": 7269,
  "\u2581aging": 7270,
  "\u2581apostazi": 7271,
  "\u2581bamputa": 7272,
  "\u2581bold": 7273,
  "\u2581bumbanaka": 7274,
  "\u2581burial": 7275,
  "\u2581buried": 7276,
  "\u2581cleansing": 7277,
  "\u2581comply": 7278,
  "\u2581confidently": 7279,
  "\u2581cure": 7280,
  "\u2581define": 7281,
  "\u2581definitely": 7282,
  "\u2581demand": 7283,
  "\u2581demands": 7284,
  "\u2581deny": 7285,
  "\u2581earthquake": 7286,
  "\u2581evangelizer": 7287,
  "\u2581ferme": 7288,
  "\u2581function": 7289,
  "\u2581impress": 7290,
  "\u2581kekangisa": 7291,
  "\u2581kekebaka": 7292,
  "\u2581kileki": 7293,
  "\u2581kuniokwama": 7294,
  "\u2581kusantisa": 7295,
  "\u2581located": 7296,
  "\u2581lua": 7297,
  "\u2581mendima": 7298,
  "\u2581meyantikaka": 7299,
  "\u2581misisa": 7300,
  "\u2581murmuring": 7301,
  "\u2581ntomo": 7302,
  "\u2581periods": 7303,
  "\u2581permanently": 7304,
  "\u2581permit": 7305,
  "\u2581police": 7306,
  "\u2581preacher": 7307,
  "\u2581prefer": 7308,
  "\u2581presentation": 7309,
  "\u2581remembrance": 7310,
  "\u2581scattered": 7311,
  "\u2581stage": 7312,
  "\u2581systems": 7313,
  "\u2581tasalaka": 7314,
  "\u2581tavandaka": 7315,
  "\u2581testing": 7316,
  "\u2581typical": 7317,
  "\u2581unjust": 7318,
  "\u2581violate": 7319,
  "\u2581warmly": 7320,
  "\u2581womb": 7321,
  "Is": 7322,
  "KE": 7323,
  "born": 7324,
  "eksperiansi": 7325,
  "ern": 7326,
  "ge": 7327,
  "ikesa": 7328,
  "kondaka": 7329,
  "landa": 7330,
  "lenda": 7331,
  "this": 7332,
  "\u2581118": 7333,
  "\u2581133": 7334,
  "\u25812017": 7335,
  "\u258154": 7336,
  "\u2581Amoni": 7337,
  "\u2581Asie": 7338,
  "\u2581Balukanu": 7339,
  "\u2581Deut": 7340,
  "\u2581Ethiopian": 7341,
  "\u2581Kumisa": 7342,
  "\u2581Levite": 7343,
  "\u2581Listre": 7344,
  "\u2581Lumingu": 7345,
  "\u2581Lystra": 7346,
  "\u2581Masa": 7347,
  "\u2581Mbona": 7348,
  "\u2581Must": 7349,
  "\u2581Obviously": 7350,
  "\u2581Praise": 7351,
  "\u2581Priscilla": 7352,
  "\u2581Relate": 7353,
  "\u2581Richard": 7354,
  "\u2581Uria": 7355,
  "\u2581WE": 7356,
  "\u2581abstain": 7357,
  "\u2581baaposta": 7358,
  "\u2581bamvumbi": 7359,
  "\u2581begged": 7360,
  "\u2581childhood": 7361,
  "\u2581commitment": 7362,
  "\u2581creating": 7363,
  "\u2581criminal": 7364,
  "\u2581cured": 7365,
  "\u2581delightful": 7366,
  "\u2581devour": 7367,
  "\u2581dignified": 7368,
  "\u2581directing": 7369,
  "\u2581ekole": 7370,
  "\u2581evangelizing": 7371,
  "\u2581expensive": 7372,
  "\u2581exquisite": 7373,
  "\u2581firsthand": 7374,
  "\u2581generations": 7375,
  "\u2581immortality": 7376,
  "\u2581injustices": 7377,
  "\u2581kubwila": 7378,
  "\u2581kukabisa": 7379,
  "\u2581kumwanga": 7380,
  "\u2581kutungaka": 7381,
  "\u2581levire": 7382,
  "\u2581lofty": 7383,
  "\u2581mabulu": 7384,
  "\u2581matuti": 7385,
  "\u2581memories": 7386,
  "\u2581mesobaka": 7387,
  "\u2581moments": 7388,
  "\u2581officer": 7389,
  "\u2581oneself": 7390,
  "\u2581rightful": 7391,
  "\u2581schoolmates": 7392,
  "\u2581sleeping": 7393,
  "\u2581span": 7394,
  "\u2581thief": 7395,
  "\u2581topics": 7396,
  "\u2581tract": 7397,
  "\u2581virgin": 7398,
  "\u2581weighty": 7399,
  "\u2581wishes": 7400,
  "Mbote": 7401,
  "R": 7402,
  "TRY": 7403,
  "de": 7404,
  "disaka": 7405,
  "kilo": 7406,
  "ko": 7407,
  "kukonda": 7408,
  "kwendaka": 7409,
  "\u258117.)": 7410,
  "\u25811914?": 7411,
  "\u258130]": 7412,
  "\u258151.": 7413,
  "\u2581Assyria": 7414,
  "\u2581Bant": 7415,
  "\u2581Comfort": 7416,
  "\u2581Dr": 7417,
  "\u2581Jah": 7418,
  "\u2581MOSI": 7419,
  "\u2581MU": 7420,
  "\u2581MUNTU": 7421,
  "\u2581Meka": 7422,
  "\u2581Nordi": 7423,
  "\u2581YEZ": 7424,
  "\u2581abound": 7425,
  "\u2581adresi": 7426,
  "\u2581appreciative": 7427,
  "\u2581assign": 7428,
  "\u2581bar": 7429,
  "\u2581believes": 7430,
  "\u2581bibuka": 7431,
  "\u2581blow": 7432,
  "\u2581deadly": 7433,
  "\u2581defeat": 7434,
  "\u2581defined": 7435,
  "\u2581demonstrates": 7436,
  "\u2581despair": 7437,
  "\u2581disregard": 7438,
  "\u2581equip": 7439,
  "\u2581hot": 7440,
  "\u2581imply": 7441,
  "\u2581kangudila": 7442,
  "\u2581kebikalaka": 7443,
  "\u2581keenly": 7444,
  "\u2581kulungaka": 7445,
  "\u2581kumanaka": 7446,
  "\u2581lines": 7447,
  "\u2581longing": 7448,
  "\u2581lower": 7449,
  "\u2581mepona": 7450,
  "\u2581oath": 7451,
  "\u2581occasionally": 7452,
  "\u2581orders": 7453,
  "\u2581philosophy": 7454,
  "\u2581pregnant": 7455,
  "\u2581presents": 7456,
  "\u2581pursued": 7457,
  "\u2581quotations": 7458,
  "\u2581rage": 7459,
  "\u2581regulations": 7460,
  "\u2581remembers": 7461,
  "\u2581romantic": 7462,
  "\u2581sale": 7463,
  "\u2581scientific": 7464,
  "\u2581settings": 7465,
  "\u2581somehow": 7466,
  "\u2581speaker": 7467,
  "\u2581stable": 7468,
  "\u2581starting": 7469,
  "\u2581striking": 7470,
  "\u2581stumbled": 7471,
  "\u2581succeeded": 7472,
  "\u2581sungikaka": 7473,
  "\u2581synagogue": 7474,
  "\u2581tayambula": 7475,
  "\u2581temporarily": 7476,
  "\u2581upper": 7477,
  "\u2581weeping": 7478,
  "?...": 7479,
  "biro": 7480,
  "ine": 7481,
  "ism": 7482,
  "kadilu": 7483,
  "rew": 7484,
  "se": 7485,
  "\u2581000,": 7486,
  "\u25811940": 7487,
  "\u2581Agripa": 7488,
  "\u2581Andre": 7489,
  "\u2581Bad": 7490,
  "\u2581Batoko": 7491,
  "\u2581Canaanite": 7492,
  "\u2581Fil": 7493,
  "\u2581Greece": 7494,
  "\u2581Jos\u00e9": 7495,
  "\u2581KOR": 7496,
  "\u2581Kwisa": 7497,
  "\u2581LUKA": 7498,
  "\u2581Little": 7499,
  "\u2581Mumbandu": 7500,
  "\u2581Ntwala": 7501,
  "\u2581PS": 7502,
  "\u2581Photo": 7503,
  "\u2581Purpose": 7504,
  "\u2581Salvation": 7505,
  "\u2581Silas": 7506,
  "\u2581TEACHINGS": 7507,
  "\u2581abusive": 7508,
  "\u2581accomplishing": 7509,
  "\u2581almighty": 7510,
  "\u2581apparent": 7511,
  "\u2581bapolisi": 7512,
  "\u2581camps": 7513,
  "\u2581cell": 7514,
  "\u2581cited": 7515,
  "\u2581concept": 7516,
  "\u2581design": 7517,
  "\u2581devastated": 7518,
  "\u2581devastating": 7519,
  "\u2581discourage": 7520,
  "\u2581dishonest": 7521,
  "\u2581empathy": 7522,
  "\u2581exhorted": 7523,
  "\u2581festivals": 7524,
  "\u2581foretells": 7525,
  "\u2581formerly": 7526,
  "\u2581founded": 7527,
  "\u2581inexperienced": 7528,
  "\u2581informed": 7529,
  "\u2581kelembaka": 7530,
  "\u2581kelolulaka": 7531,
  "\u2581kelunganaka": 7532,
  "\u2581kepona": 7533,
  "\u2581kio": 7534,
  "\u2581kudikusa": 7535,
  "\u2581kukusila": 7536,
  "\u2581kusola": 7537,
  "\u2581kutedimisa": 7538,
  "\u2581lamb": 7539,
  "\u2581latter": 7540,
  "\u2581lembika": 7541,
  "\u2581ludi": 7542,
  "\u2581materialistic": 7543,
  "\u2581mekumina": 7544,
  "\u2581menatila": 7545,
  "\u2581mentally": 7546,
  "\u2581mirror": 7547,
  "\u2581misuse": 7548,
  "\u2581motivation": 7549,
  "\u2581multitude": 7550,
  "\u2581petition": 7551,
  "\u2581progressively": 7552,
  "\u2581refugees": 7553,
  "\u2581sesepi": 7554,
  "\u2581silence": 7555,
  "\u2581sower": 7556,
  "\u2581spoil": 7557,
  "\u2581stuck": 7558,
  "\u2581tamanisa": 7559,
  "\u2581tedimisa": 7560,
  "\u2581uncleanness": 7561,
  "Mpeve": 7562,
  "anzio": 7563,
  "every": 7564,
  "human": 7565,
  "kiese": 7566,
  "mutindu": 7567,
  "ri": 7568,
  "tn": 7569,
  "were": 7570,
  "\u258113.)": 7571,
  "\u258119)": 7572,
  "\u258184": 7573,
  "\u258189": 7574,
  "\u25819)": 7575,
  "\u2581Agrippa": 7576,
  "\u2581Angels": 7577,
  "\u2581Answers": 7578,
  "\u2581Canaanites": 7579,
  "\u2581Compare": 7580,
  "\u2581February": 7581,
  "\u2581Kansansa": 7582,
  "\u2581Korneye": 7583,
  "\u2581Kusamba": 7584,
  "\u2581Mankind": 7585,
  "\u2581Masonga": 7586,
  "\u2581Mbeni": 7587,
  "\u2581Moder": 7588,
  "\u2581NTAMA": 7589,
  "\u2581Nkudulu": 7590,
  "\u2581Nsemo": 7591,
  "\u2581Philistines": 7592,
  "\u2581Review": 7593,
  "\u2581Rose": 7594,
  "\u2581Sin": 7595,
  "\u2581Sirusi": 7596,
  "\u2581Strong": 7597,
  "\u2581Wolo": 7598,
  "\u2581adjusted": 7599,
  "\u2581arises": 7600,
  "\u2581attribute": 7601,
  "\u2581bottom": 7602,
  "\u2581combined": 7603,
  "\u2581cooperation": 7604,
  "\u2581crucial": 7605,
  "\u2581decree": 7606,
  "\u2581difwa": 7607,
  "\u2581doctrines": 7608,
  "\u2581dread": 7609,
  "\u2581duty": 7610,
  "\u2581earthquakes": 7611,
  "\u2581filme": 7612,
  "\u2581fond": 7613,
  "\u2581golden": 7614,
  "\u2581intellectual": 7615,
  "\u2581kebumbaka": 7616,
  "\u2581kekabulaka": 7617,
  "\u2581kufinga": 7618,
  "\u2581kukuta": 7619,
  "\u2581kulamba": 7620,
  "\u2581mazi": 7621,
  "\u2581meat": 7622,
  "\u2581mpumpa": 7623,
  "\u2581muster": 7624,
  "\u2581neze": 7625,
  "\u2581niema": 7626,
  "\u2581nucle": 7627,
  "\u2581obtained": 7628,
  "\u2581party": 7629,
  "\u2581post": 7630,
  "\u2581preparation": 7631,
  "\u2581prey": 7632,
  "\u2581repair": 7633,
  "\u2581sacrificed": 7634,
  "\u2581saka": 7635,
  "\u2581spies": 7636,
  "\u2581sports": 7637,
  "\u2581stream": 7638,
  "\u2581strife": 7639,
  "\u2581sustained": 7640,
  "\u2581teens": 7641,
  "\u2581threaten": 7642,
  "\u2581tire": 7643,
  "\u2581tool": 7644,
  "\u2581ultimate": 7645,
  "\u2581vigilant": 7646,
  "\u2581weighed": 7647,
  "\u2581worried": 7648,
  "40": 7649,
  "Just": 7650,
  "Where": 7651,
  "gindu": 7652,
  "monisi": 7653,
  "mu": 7654,
  "netheless": 7655,
  "\u258110)": 7656,
  "\u258115.)": 7657,
  "\u258132,": 7658,
  "\u258133,": 7659,
  "\u258150.": 7660,
  "\u258158.": 7661,
  "\u2581Care": 7662,
  "\u2581Colossae": 7663,
  "\u2581Cultivat": 7664,
  "\u2581Cyrus": 7665,
  "\u2581Develop": 7666,
  "\u2581Emlyn": 7667,
  "\u2581Evil": 7668,
  "\u2581Example": 7669,
  "\u2581Henry": 7670,
  "\u2581India": 7671,
  "\u2581KU": 7672,
  "\u2581Language": 7673,
  "\u2581London": 7674,
  "\u2581Mari": 7675,
  "\u2581Minor": 7676,
  "\u2581NK": 7677,
  "\u2581Ngyufula": 7678,
  "\u2581Real": 7679,
  "\u2581Standard": 7680,
  "\u2581absolute": 7681,
  "\u2581acquired": 7682,
  "\u2581adult": 7683,
  "\u2581aloud": 7684,
  "\u2581anguish": 7685,
  "\u2581approaches": 7686,
  "\u2581bakamio": 7687,
  "\u2581bedisa": 7688,
  "\u2581bitterness": 7689,
  "\u2581bitwisi": 7690,
  "\u2581commonly": 7691,
  "\u2581contemporaries": 7692,
  "\u2581contribution": 7693,
  "\u2581contributions": 7694,
  "\u2581disappointment": 7695,
  "\u2581discerned": 7696,
  "\u2581doors": 7697,
  "\u2581evanzile": 7698,
  "\u2581follower": 7699,
  "\u2581guiding": 7700,
  "\u2581kaminio": 7701,
  "\u2581kimpumpa": 7702,
  "\u2581kupakula": 7703,
  "\u2581liken": 7704,
  "\u2581mabaya": 7705,
  "\u2581menunga": 7706,
  "\u2581merit": 7707,
  "\u2581metula": 7708,
  "\u2581mika": 7709,
  "\u2581mudidi": 7710,
  "\u2581niokula": 7711,
  "\u2581nswalunswalu": 7712,
  "\u2581planned": 7713,
  "\u2581plays": 7714,
  "\u2581positively": 7715,
  "\u2581poto": 7716,
  "\u2581pozisio": 7717,
  "\u2581promot": 7718,
  "\u2581psalms": 7719,
  "\u2581punish": 7720,
  "\u2581recommended": 7721,
  "\u2581records": 7722,
  "\u2581reduce": 7723,
  "\u2581references": 7724,
  "\u2581refresh": 7725,
  "\u2581ship": 7726,
  "\u2581smoke": 7727,
  "\u2581snow": 7728,
  "\u2581somewhat": 7729,
  "\u2581sources": 7730,
  "\u2581trakiti": 7731,
  "\u2581unfair": 7732,
  "\u2581uttered": 7733,
  "\u2581valued": 7734,
  "\u2581waves": 7735,
  "\u2581wholehearted": 7736,
  "\u2581yinga": 7737,
  "\u2581\u00c9critures": 7738,
  "apore": 7739,
  "imonisi": 7740,
  "ite": 7741,
  "make": 7742,
  "okazio": 7743,
  "ted": 7744,
  "ula": 7745,
  "uma": 7746,
  "while": 7747,
  "\u25813.)": 7748,
  "\u2581African": 7749,
  "\u2581Al": 7750,
  "\u2581Amen": 7751,
  "\u2581Apparently": 7752,
  "\u2581Bas": 7753,
  "\u2581Bawanzio": 7754,
  "\u2581Cornelius": 7755,
  "\u2581Everlasting": 7756,
  "\u2581Jesse": 7757,
  "\u2581Jim": 7758,
  "\u2581Library": 7759,
  "\u2581Masedonia": 7760,
  "\u2581Provider": 7761,
  "\u2581Rashele": 7762,
  "\u2581Sanedreni": 7763,
  "\u2581Self": 7764,
  "\u2581Timote": 7765,
  "\u2581Westi": 7766,
  "\u2581badolare": 7767,
  "\u2581bantekolo": 7768,
  "\u2581comprehend": 7769,
  "\u2581conquering": 7770,
  "\u2581convincing": 7771,
  "\u2581destination": 7772,
  "\u2581dominated": 7773,
  "\u2581examined": 7774,
  "\u2581file": 7775,
  "\u2581forgives": 7776,
  "\u2581fufu": 7777,
  "\u2581introduced": 7778,
  "\u2581keyedisaka": 7779,
  "\u2581kiseku": 7780,
  "\u2581kubikulaka": 7781,
  "\u2581kukondaka": 7782,
  "\u2581mafwa": 7783,
  "\u2581medicine": 7784,
  "\u2581mutubi": 7785,
  "\u2581ndeke": 7786,
  "\u2581nsinga": 7787,
  "\u2581nsongi": 7788,
  "\u2581offend": 7789,
  "\u2581petepete": 7790,
  "\u2581planted": 7791,
  "\u2581press": 7792,
  "\u2581prevail": 7793,
  "\u2581projects": 7794,
  "\u2581prosperous": 7795,
  "\u2581recalled": 7796,
  "\u2581reconciled": 7797,
  "\u2581resentment": 7798,
  "\u2581selling": 7799,
  "\u2581shut": 7800,
  "\u2581stranger": 7801,
  "\u2581tabasika": 7802,
  "\u2581tabuta": 7803,
  "\u2581tabwila": 7804,
  "\u2581tasks": 7805,
  "\u2581teolozi": 7806,
  "\u2581translators": 7807,
  "\u2581unseen": 7808,
  "\u2581vengeance": 7809,
  "\u2581waited": 7810,
  "\u2581weapon": 7811,
  "\u2581wrongdoer": 7812,
  "\u2581zuluzulu": 7813,
  "15": 7814,
  "TH": 7815,
  "antangu": 7816,
  "cent": 7817,
  "ime": 7818,
  "itindu": 7819,
  "lways": 7820,
  "mbai": 7821,
  "mono": 7822,
  "pa": 7823,
  "zenga": 7824,
  "\u25811943": 7825,
  "\u25811955": 7826,
  "\u258178": 7827,
  "\u2581Antonio": 7828,
  "\u2581Days": 7829,
  "\u2581Down": 7830,
  "\u2581Drame": 7831,
  "\u2581Fwanisa": 7832,
  "\u2581Interestingly": 7833,
  "\u2581Kesadisaka": 7834,
  "\u2581Leads": 7835,
  "\u2581Lomba": 7836,
  "\u2581Natani": 7837,
  "\u2581Natural": 7838,
  "\u2581Nzala": 7839,
  "\u2581Shunemi": 7840,
  "\u2581Sunday": 7841,
  "\u2581Ukraine": 7842,
  "\u2581Wapi": 7843,
  "\u2581accordingly": 7844,
  "\u2581actual": 7845,
  "\u2581approachable": 7846,
  "\u2581attractive": 7847,
  "\u2581bebe": 7848,
  "\u2581branches": 7849,
  "\u2581calamities": 7850,
  "\u2581challenged": 7851,
  "\u2581correctly": 7852,
  "\u2581describ": 7853,
  "\u2581desiring": 7854,
  "\u2581disobey": 7855,
  "\u2581drift": 7856,
  "\u2581dya": 7857,
  "\u2581embraced": 7858,
  "\u2581fulusaka": 7859,
  "\u2581intently": 7860,
  "\u2581joint": 7861,
  "\u2581journal": 7862,
  "\u2581kabila": 7863,
  "\u2581kekuta": 7864,
  "\u2581keyindulula": 7865,
  "\u2581kisaka": 7866,
  "\u2581kukina": 7867,
  "\u2581kukusaka": 7868,
  "\u2581kulongisila": 7869,
  "\u2581kutangila": 7870,
  "\u2581kuyikana": 7871,
  "\u2581kuyotisa": 7872,
  "\u2581mbai": 7873,
  "\u2581merchant": 7874,
  "\u2581outlined": 7875,
  "\u2581permits": 7876,
  "\u2581pointing": 7877,
  "\u2581prisoners": 7878,
  "\u2581prophesy": 7879,
  "\u2581relied": 7880,
  "\u2581reverence": 7881,
  "\u2581rising": 7882,
  "\u2581si": 7883,
  "\u2581strayed": 7884,
  "\u2581tafuluka": 7885,
  "\u2581tenderly": 7886,
  "\u2581unreasonable": 7887,
  "\u2581zolanaka": 7888,
  "That": 7889,
  "Tula": 7890,
  "kimvuka": 7891,
  "kunzi": 7892,
  "men": 7893,
  "nsuka": 7894,
  "nzambi": 7895,
  "su": 7896,
  "went": 7897,
  "weta": 7898,
  "work": 7899,
  "\u25811990": 7900,
  "\u25812.)": 7901,
  "\u258164": 7902,
  "\u258179": 7903,
  "\u258192": 7904,
  "\u2581Bagalatia": 7905,
  "\u2581Center": 7906,
  "\u2581Cho": 7907,
  "\u2581Eccl": 7908,
  "\u2581Ed": 7909,
  "\u2581Gabriel": 7910,
  "\u2581Jehu": 7911,
  "\u2581Jer": 7912,
  "\u2581Kezolaka": 7913,
  "\u2581Kufwa": 7914,
  "\u2581Kulemfuka": 7915,
  "\u2581MINGI": 7916,
  "\u2581Makasi": 7917,
  "\u2581Malembe": 7918,
  "\u2581Meditat": 7919,
  "\u2581Mother": 7920,
  "\u2581Part": 7921,
  "\u2581Prophecy": 7922,
  "\u2581Salvador": 7923,
  "\u2581Serve": 7924,
  "\u2581V": 7925,
  "\u2581Yoele": 7926,
  "\u2581adding": 7927,
  "\u2581adversities": 7928,
  "\u2581behave": 7929,
  "\u2581bilula": 7930,
  "\u2581caution": 7931,
  "\u2581chooses": 7932,
  "\u2581confusion": 7933,
  "\u2581covetousness": 7934,
  "\u2581destructive": 7935,
  "\u2581dibaya": 7936,
  "\u2581disown": 7937,
  "\u2581dominant": 7938,
  "\u2581driver": 7939,
  "\u2581driving": 7940,
  "\u2581elevated": 7941,
  "\u2581entity": 7942,
  "\u2581excessive": 7943,
  "\u2581filozofi": 7944,
  "\u2581fulusa": 7945,
  "\u2581hostile": 7946,
  "\u2581hurled": 7947,
  "\u2581imitator": 7948,
  "\u2581independent": 7949,
  "\u2581interfere": 7950,
  "\u2581kamwa": 7951,
  "\u2581kesansaka": 7952,
  "\u2581keyulaka": 7953,
  "\u2581kubaluka": 7954,
  "\u2581kuditala": 7955,
  "\u2581kulosila": 7956,
  "\u2581kuswaswanisa": 7957,
  "\u2581link": 7958,
  "\u2581listens": 7959,
  "\u2581lungaka": 7960,
  "\u2581mesimba": 7961,
  "\u2581mewa": 7962,
  "\u2581ndikila": 7963,
  "\u2581nikleyere": 7964,
  "\u2581ntenta": 7965,
  "\u2581oppressed": 7966,
  "\u2581pays": 7967,
  "\u2581piece": 7968,
  "\u2581presumptuous": 7969,
  "\u2581protective": 7970,
  "\u2581putulu": 7971,
  "\u2581rapidly": 7972,
  "\u2581revelation": 7973,
  "\u2581scroll": 7974,
  "\u2581sekaka": 7975,
  "\u2581severely": 7976,
  "\u2581shrink": 7977,
  "\u2581space": 7978,
  "\u2581survival": 7979,
  "\u2581tatwadisa": 7980,
  "\u2581tempt": 7981,
  "\u2581timing": 7982,
  "\u2581torment": 7983,
  "\u2581transferred": 7984,
  "\u2581tu": 7985,
  "\u2581vary": 7986,
  "At": 7987,
  "Everyone": 7988,
  "F": 7989,
  "Have": 7990,
  "Kima": 7991,
  "LY": 7992,
  "are": 7993,
  "because": 7994,
  "nzo": 7995,
  "reter": 7996,
  "ry": 7997,
  "\u25811970": 7998,
  "\u2581Association": 7999,
  "\u2581Author": 8000,
  "\u2581Bagreki": 8001,
  "\u2581Bambuta": 8002,
  "\u2581Bangungudi": 8003,
  "\u2581Guard": 8004,
  "\u2581Happily": 8005,
  "\u2581Kumi": 8006,
  "\u2581Leke": 8007,
  "\u2581Light": 8008,
  "\u2581Londres": 8009,
  "\u2581MBOTE": 8010,
  "\u2581MVUTU": 8011,
  "\u2581Masumu": 8012,
  "\u2581Mvu": 8013,
  "\u2581Point": 8014,
  "\u2581Sanduku": 8015,
  "\u2581Tuvalu": 8016,
  "\u2581Wisdom": 8017,
  "\u2581adjustment": 8018,
  "\u2581advantages": 8019,
  "\u2581answering": 8020,
  "\u2581art": 8021,
  "\u2581assembled": 8022,
  "\u2581attacked": 8023,
  "\u2581authorized": 8024,
  "\u2581bantembe": 8025,
  "\u2581batolotolo": 8026,
  "\u2581belonged": 8027,
  "\u2581betrayed": 8028,
  "\u2581bikobo": 8029,
  "\u2581bonds": 8030,
  "\u2581bruise": 8031,
  "\u2581bweta": 8032,
  "\u2581classmates": 8033,
  "\u2581desert": 8034,
  "\u2581dipanda": 8035,
  "\u2581dipeka": 8036,
  "\u2581displays": 8037,
  "\u2581disturbed": 8038,
  "\u2581dressed": 8039,
  "\u2581educated": 8040,
  "\u2581ekzame": 8041,
  "\u2581eyewitnesses": 8042,
  "\u2581farmer": 8043,
  "\u2581faults": 8044,
  "\u2581forsake": 8045,
  "\u2581height": 8046,
  "\u2581honorable": 8047,
  "\u2581honored": 8048,
  "\u2581honors": 8049,
  "\u2581inferior": 8050,
  "\u2581inviting": 8051,
  "\u2581kegulusaka": 8052,
  "\u2581kenwanisa": 8053,
  "\u2581kenyokula": 8054,
  "\u2581kimbuta": 8055,
  "\u2581kugungula": 8056,
  "\u2581kunoka": 8057,
  "\u2581kunwanaka": 8058,
  "\u2581kuyingisa": 8059,
  "\u2581kwa": 8060,
  "\u2581kwisilaka": 8061,
  "\u2581kwivre": 8062,
  "\u2581lacked": 8063,
  "\u2581leaven": 8064,
  "\u2581leprosy": 8065,
  "\u2581marrying": 8066,
  "\u2581misuni": 8067,
  "\u2581movement": 8068,
  "\u2581obediently": 8069,
  "\u2581onward": 8070,
  "\u2581percepti": 8071,
  "\u2581permission": 8072,
  "\u2581persuaded": 8073,
  "\u2581printing": 8074,
  "\u2581roof": 8075,
  "\u2581seeds": 8076,
  "\u2581sexually": 8077,
  "\u2581subtle": 8078,
  "\u2581suppose": 8079,
  "\u2581syamisa": 8080,
  "\u2581tabika": 8081,
  "\u2581unmarried": 8082,
  "\u2581victorious": 8083,
  "\u2581wake": 8084,
  "From": 8085,
  "INTO": 8086,
  "ONGI": 8087,
  "ata": 8088,
  "dibundu": 8089,
  "estival": 8090,
  "lere": 8091,
  "lunungu": 8092,
  "luzingu": 8093,
  "makabu": 8094,
  "mbote": 8095,
  "nkento": 8096,
  "ory": 8097,
  "pp": 8098,
  "\u25811,000": 8099,
  "\u258112)": 8100,
  "\u25811870": 8101,
  "\u25811935": 8102,
  "\u25811958": 8103,
  "\u25811980": 8104,
  "\u258131]": 8105,
  "\u258167": 8106,
  "\u2581Bear": 8107,
  "\u2581CRTC": 8108,
  "\u2581Dad": 8109,
  "\u2581De": 8110,
  "\u2581Dieu": 8111,
  "\u2581Elizabeth": 8112,
  "\u2581Fine": 8113,
  "\u2581Gileade": 8114,
  "\u2581Kusadisa": 8115,
  "\u2581MVULA": 8116,
  "\u2581Naboti": 8117,
  "\u2581Ndima": 8118,
  "\u2581North": 8119,
  "\u2581STORY": 8120,
  "\u2581WA": 8121,
  "\u2581Yehu": 8122,
  "\u2581ancestors": 8123,
  "\u2581bafige": 8124,
  "\u2581bakielo": 8125,
  "\u2581basantu": 8126,
  "\u2581calf": 8127,
  "\u2581carries": 8128,
  "\u2581certainty": 8129,
  "\u2581chariot": 8130,
  "\u2581chariots": 8131,
  "\u2581cleaning": 8132,
  "\u2581commented": 8133,
  "\u2581concludes": 8134,
  "\u2581crisis": 8135,
  "\u2581cutting": 8136,
  "\u2581enthusiasm": 8137,
  "\u2581equipment": 8138,
  "\u2581esteem": 8139,
  "\u2581exclaimed": 8140,
  "\u2581flocks": 8141,
  "\u2581flour": 8142,
  "\u2581gates": 8143,
  "\u2581grooming": 8144,
  "\u2581impell": 8145,
  "\u2581kelembisaka": 8146,
  "\u2581ketela": 8147,
  "\u2581keyangisa": 8148,
  "\u2581kitemwe": 8149,
  "\u2581komersa": 8150,
  "\u2581kunungisa": 8151,
  "\u2581kutekita": 8152,
  "\u2581kuzwaka": 8153,
  "\u2581mbefo": 8154,
  "\u2581mbonameso": 8155,
  "\u2581mebutukaka": 8156,
  "\u2581mekwenda": 8157,
  "\u2581mesoba": 8158,
  "\u2581mutual": 8159,
  "\u2581neglected": 8160,
  "\u2581normally": 8161,
  "\u2581offense": 8162,
  "\u2581princes": 8163,
  "\u2581proverb": 8164,
  "\u2581racial": 8165,
  "\u2581rebuild": 8166,
  "\u2581requested": 8167,
  "\u2581respectfully": 8168,
  "\u2581rose": 8169,
  "\u2581secretary": 8170,
  "\u2581shape": 8171,
  "\u2581southern": 8172,
  "\u2581spring": 8173,
  "\u2581stressed": 8174,
  "\u2581struggled": 8175,
  "\u2581supposed": 8176,
  "\u2581tolotolo": 8177,
  "\u2581verb": 8178,
  "\u2581waste": 8179,
  "\u2581yikanaka": 8180,
  "H": 8181,
  "Kisalu": 8182,
  "Make": 8183,
  "bisalu": 8184,
  "gifts": 8185,
  "ical": 8186,
  "sadi": 8187,
  "sila": 8188,
  "\u2581#1": 8189,
  "\u25811945": 8190,
  "\u25811949": 8191,
  "\u2581250": 8192,
  "\u258128]": 8193,
  "\u2581Abishai": 8194,
  "\u2581Anyone": 8195,
  "\u2581BI": 8196,
  "\u2581Comment": 8197,
  "\u2581Disumu": 8198,
  "\u2581Five": 8199,
  "\u2581Gomore": 8200,
  "\u2581Gomorrah": 8201,
  "\u2581Kukwenda": 8202,
  "\u2581Kuvandaka": 8203,
  "\u2581Mabuta": 8204,
  "\u2581Megan": 8205,
  "\u2581Mind": 8206,
  "\u2581Nicodemus": 8207,
  "\u2581None": 8208,
  "\u2581PENE": 8209,
  "\u2581Ponti": 8210,
  "\u2581ROMA": 8211,
  "\u2581Rehoboam": 8212,
  "\u2581Rico": 8213,
  "\u2581Search": 8214,
  "\u2581Servant": 8215,
  "\u2581alcoholic": 8216,
  "\u2581arrange": 8217,
  "\u2581arrest": 8218,
  "\u2581awaken": 8219,
  "\u2581awareness": 8220,
  "\u2581bampusu": 8221,
  "\u2581banki": 8222,
  "\u2581beasts": 8223,
  "\u2581beg": 8224,
  "\u2581bio": 8225,
  "\u2581celebrate": 8226,
  "\u2581character": 8227,
  "\u2581climate": 8228,
  "\u2581clouds": 8229,
  "\u2581committ": 8230,
  "\u2581connected": 8231,
  "\u2581contents": 8232,
  "\u2581deserved": 8233,
  "\u2581disloyal": 8234,
  "\u2581document": 8235,
  "\u2581double": 8236,
  "\u2581employer": 8237,
  "\u2581en": 8238,
  "\u2581enlightenment": 8239,
  "\u2581experts": 8240,
  "\u2581favored": 8241,
  "\u2581focuse": 8242,
  "\u2581hypocritical": 8243,
  "\u2581implied": 8244,
  "\u2581kekunaka": 8245,
  "\u2581kubelulaka": 8246,
  "\u2581kuladisa": 8247,
  "\u2581kutesana": 8248,
  "\u2581masini": 8249,
  "\u2581match": 8250,
  "\u2581mothers": 8251,
  "\u2581perceived": 8252,
  "\u2581proclamation": 8253,
  "\u2581promptly": 8254,
  "\u2581questioned": 8255,
  "\u2581rare": 8256,
  "\u2581reassure": 8257,
  "\u2581recogniz": 8258,
  "\u2581recover": 8259,
  "\u2581redeem": 8260,
  "\u2581regain": 8261,
  "\u2581relevant": 8262,
  "\u2581sadness": 8263,
  "\u2581safely": 8264,
  "\u2581salt": 8265,
  "\u2581shy": 8266,
  "\u2581stealing": 8267,
  "\u2581sukinina": 8268,
  "\u2581tents": 8269,
  "\u2581tolerate": 8270,
  "\u2581tomisaka": 8271,
  "\u2581tribulations": 8272,
  "\u2581troubles": 8273,
  "\u2581uncertain": 8274,
  "\u2581university": 8275,
  "\u2581unprecedented": 8276,
  "\u2581velo": 8277,
  "\u2581vulnerable": 8278,
  "\u2581washed": 8279,
  "\u2581worst": 8280,
  "\u2581yimba": 8281,
  "Every": 8282,
  "ch": 8283,
  "igangwa": 8284,
  "ikuma": 8285,
  "ilu": 8286,
  "last": 8287,
  "little": 8288,
  "long": 8289,
  "\u2581102": 8290,
  "\u2581107": 8291,
  "\u258111)": 8292,
  "\u25811992": 8293,
  "\u25811998": 8294,
  "\u258171": 8295,
  "\u2581Buya": 8296,
  "\u2581COR": 8297,
  "\u2581Certain": 8298,
  "\u2581DI": 8299,
  "\u2581Gabriele": 8300,
  "\u2581Gwen": 8301,
  "\u2581Jenny": 8302,
  "\u2581Kidimbu": 8303,
  "\u2581Kul": 8304,
  "\u2581Kusolula": 8305,
  "\u2581Med": 8306,
  "\u2581Megiddo": 8307,
  "\u2581Megido": 8308,
  "\u2581Mupesi": 8309,
  "\u2581NTU": 8310,
  "\u2581Neh": 8311,
  "\u2581Nikodemo": 8312,
  "\u2581Samson": 8313,
  "\u2581Shirley": 8314,
  "\u2581Stand": 8315,
  "\u2581X": 8316,
  "\u2581arm": 8317,
  "\u2581attributes": 8318,
  "\u2581bamfuka": 8319,
  "\u2581bantambu": 8320,
  "\u2581broad": 8321,
  "\u2581captives": 8322,
  "\u2581cling": 8323,
  "\u2581coping": 8324,
  "\u2581derive": 8325,
  "\u2581differently": 8326,
  "\u2581discerning": 8327,
  "\u2581doktere": 8328,
  "\u2581enthroned": 8329,
  "\u2581fellowship": 8330,
  "\u2581figure": 8331,
  "\u2581horses": 8332,
  "\u2581kabwanaka": 8333,
  "\u2581kisadilu": 8334,
  "\u2581kisoda": 8335,
  "\u2581kudikumisa": 8336,
  "\u2581kulokuta": 8337,
  "\u2581laud": 8338,
  "\u2581loose": 8339,
  "\u2581lusambisu": 8340,
  "\u2581mabungu": 8341,
  "\u2581mevanda": 8342,
  "\u2581mevilaka": 8343,
  "\u2581milolo": 8344,
  "\u2581minyokudi": 8345,
  "\u2581misery": 8346,
  "\u2581narrow": 8347,
  "\u2581noble": 8348,
  "\u2581online": 8349,
  "\u2581oppos": 8350,
  "\u2581organize": 8351,
  "\u2581output": 8352,
  "\u2581outright": 8353,
  "\u2581participating": 8354,
  "\u2581persevere": 8355,
  "\u2581pesana": 8356,
  "\u2581pr": 8357,
  "\u2581rate": 8358,
  "\u2581recommend": 8359,
  "\u2581representative": 8360,
  "\u2581scope": 8361,
  "\u2581sentiments": 8362,
  "\u2581signal": 8363,
  "\u2581singleness": 8364,
  "\u2581spot": 8365,
  "\u2581strict": 8366,
  "\u2581survivors": 8367,
  "\u2581takatuka": 8368,
  "\u2581tobacco": 8369,
  "\u2581tomorrow": 8370,
  "\u2581traditional": 8371,
  "\u2581transgressions": 8372,
  "\u2581watched": 8373,
  "\u2581website": 8374,
  "\u2581wrongdoers": 8375,
  "\u2581yindululaka": 8376,
  "\u2581zikaka": 8377,
  "5)": 8378,
  "After": 8379,
  "Babylon": 8380,
  "Photo": 8381,
  "critical": 8382,
  "eferring": 8383,
  "ia": 8384,
  "kima": 8385,
  "landi": 8386,
  "let": 8387,
  "most": 8388,
  "name": 8389,
  "people": 8390,
  "rs": 8391,
  "upreme": 8392,
  "zina": 8393,
  "\u25811931": 8394,
  "\u25811960": 8395,
  "\u25811996": 8396,
  "\u258121.)": 8397,
  "\u258177": 8398,
  "\u2581Antioch": 8399,
  "\u2581Cr\u00e9ation": 8400,
  "\u2581Espania": 8401,
  "\u2581Everything": 8402,
  "\u2581Ghana": 8403,
  "\u2581Into": 8404,
  "\u2581Karen": 8405,
  "\u2581Kisabatu": 8406,
  "\u2581Leta": 8407,
  "\u2581Lutwadisu": 8408,
  "\u2581Naboth": 8409,
  "\u2581Num": 8410,
  "\u2581TUBAKA": 8411,
  "\u2581Understandabl": 8412,
  "\u2581accepts": 8413,
  "\u2581accusations": 8414,
  "\u2581attentive": 8415,
  "\u2581bamaniskri": 8416,
  "\u2581bambona": 8417,
  "\u2581bisala": 8418,
  "\u2581burdensome": 8419,
  "\u2581cherished": 8420,
  "\u2581considerate": 8421,
  "\u2581crying": 8422,
  "\u2581delivering": 8423,
  "\u2581discourse": 8424,
  "\u2581diyaka": 8425,
  "\u2581domestics": 8426,
  "\u2581drunkenness": 8427,
  "\u2581enmity": 8428,
  "\u2581fat": 8429,
  "\u2581favorite": 8430,
  "\u2581finga": 8431,
  "\u2581fore": 8432,
  "\u2581frustration": 8433,
  "\u2581hall": 8434,
  "\u2581harmonize": 8435,
  "\u2581heel": 8436,
  "\u2581helpless": 8437,
  "\u2581hospitable": 8438,
[...]
