{
  "</s>": 0,
  "<unk>": 1,
  ".": 2,
  ",": 3,
  "\u2581a": 4,
  "\u2581the": 5,
  "s": 6,
  "\u2581de": 7,
  "'": 8,
  "?": 9,
  "\u2581que": 10,
  "\u2581to": 11,
  "\u2581o": 12,
  "\u2581-": 13,
  "\u2581I": 14,
  "\u2581you": 15,
  ":": 16,
  "\u2581of": 17,
  "\u2581e": 18,
  "!": 19,
  "...": 20,
  "\u2581do": 21,
  "\u2581in": 22,
  "\u2581and": 23,
  "\u2581non": 24,
  "\u2581un": 25,
  "t": 26,
  "\u2581is": 27,
  "\u2581para": 28,
  "\u2581\"": 29,
  "\u2581it": 30,
  "\u2581&": 31,
  "-": 32,
  "\u2581as": 33,
  "\u2581that": 34,
  "\u2581\u00e9": 35,
  "\u2581Non": 36,
  "\u2581for": 37,
  "\u2581A": 38,
  "\u2581(": 39,
  "\u2581da": 40,
  "\u2581se": 41,
  ")": 42,
  "\u2581os": 43,
  "\u2581unha": 44,
  ";": 45,
  "\u2581no": 46,
  "\u2581me": 47,
  "\u2581en": 48,
  "\u2581be": 49,
  "m": 50,
  "\u2581this": 51,
  "\u2581not": 52,
  "\u2581on": 53,
  "\u2581You": 54,
  "\u2581The": 55,
  "\u2581O": 56,
  "\u2581with": 57,
  "\u2581have": 58,
  "n": 59,
  "\u2581are": 60,
  "\u2581your": 61,
  "\u2581can": 62,
  "\u2581was": 63,
  "\u2581por": 64,
  "\u25811": 65,
  "\u2581we": 66,
  "\u2581E": 67,
  "\u2581na": 68,
  "\u2581con": 69,
  "\u2581ao": 70,
  "/": 71,
  "d": 72,
  "\u2581all": 73,
  "re": 74,
  "\u2581will": 75,
  "a": 76,
  "\u2581": 77,
  "r": 78,
  "\u2581It": 79,
  "\u2581como": 80,
  "\u2581or": 81,
  "\u2581m\u00e1is": 82,
  "\u2581he": 83,
  "\u2581ou": 84,
  "\u2581my": 85,
  "\u2581from": 86,
  "\u2581at": 87,
  "ing": 88,
  "\u2581est\u00e1": 89,
  "o": 90,
  "%": 91,
  "ll": 92,
  "se": 93,
  "\u2581And": 94,
  "\u2581%1": 95,
  "\u2581by": 96,
  "\u2581know": 97,
  ".\"": 98,
  "\u2581What": 99,
  "\u2581\u00e1": 100,
  "\u2581an": 101,
  "\u2581they": 102,
  "e": 103,
  "\u2581what": 104,
  "\u2581No": 105,
  "\u2581like": 106,
  "\u2581one": 107,
  "\u2581here": 108,
  "\u2581dos": 109,
  "\u2581son": 110,
  "\u2581if": 111,
  "\u2581don": 112,
  "\u2581We": 113,
  "\u2581up": 114,
  "\u2581Se": 115,
  "\u2581want": 116,
  "\u2581'": 117,
  "\u2581This": 118,
  "\u2581Que": 119,
  "\u2581there": 120,
  "\u2581but": 121,
  "\u2581out": 122,
  "\u2581him": 123,
  "\u2581about": 124,
  "\u2581He": 125,
  "\u2581ficheiro": 126,
  "\u2581foi": 127,
  "\u2581\u00c9": 128,
  "\u2581pode": 129,
  "\u2581so": 130,
  "\u2581file": 131,
  "\u2581seu": 132,
  "\u2581his": 133,
  "ed": 134,
  "ve": 135,
  "\u2581aqu\u00ed": 136,
  "\u2581esta": 137,
  "_": 138,
  "\"": 139,
  "\u2581ser": 140,
  "Name": 141,
  "\u2581eu": 142,
  "\u2581kg": 143,
  "\u2581get": 144,
  "\u2581them": 145,
  "me": 146,
  "\u2581time": 147,
  "\u2581s\u00faa": 148,
  "\u2581name": 149,
  "@": 150,
  "\u2581If": 151,
  "\u2581go": 152,
  "\u2581right": 153,
  "\u2581todo": 154,
  "\u2581when": 155,
  "\u2581has": 156,
  "\u2581das": 157,
  "\u2581Si": 158,
  "\u2581Por": 159,
  "\u2581just": 160,
  "\u2581see": 161,
  "\u2581ben": 162,
  "\u2581Un": 163,
  "\u2581cando": 164,
  "\u2581her": 165,
  "\u2581But": 166,
  "\u2581meu": 167,
  "\u2581hai": 168,
  "\u2581had": 169,
  "\u2581ten": 170,
  "\u2581s\u00f3": 171,
  "\u25812": 172,
  "S": 173,
  "\u2581co": 174,
  "c": 175,
  "mos": 176,
  "\u2581pero": 177,
  "\u2581That": 178,
  "\u2581%": 179,
  "\u2581been": 180,
  "\u2581facer": 181,
  "\u2581este": 182,
  "\u2581think": 183,
  "\u2581,": 184,
  "\u2581now": 185,
  "y": 186,
  "\u2581which": 187,
  "\u2581They": 188,
  "\u2581ti": 189,
  "do": 190,
  "\u2581more": 191,
  "\u2581were": 192,
  "ndo": 193,
  "\u2581only": 194,
  "\u2581...": 195,
  "\u2581iso": 196,
  "\u2581Do": 197,
  "\u2581So": 198,
  "\u2581us": 199,
  "\u2581todos": 200,
  "\u2581lle": 201,
  "\u2581she": 202,
  "i": 203,
  "\u2581man": 204,
  "\u2581moi": 205,
  "\u2581got": 206,
  "\u2581mi\u00f1a": 207,
  "\u2581Pero": 208,
  "te": 209,
  "es": 210,
  ",\"": 211,
  "\u2581who": 212,
  "\u2581nome": 213,
  "\u2581would": 214,
  "\u2581el": 215,
  "\u2581our": 216,
  "\u2581home": 217,
  "\u2581xa": 218,
  "\u2581nos": 219,
  "u": 220,
  "\u2581new": 221,
  "\u2581said": 222,
  "\u2581back": 223,
  "\u2581use": 224,
  "\u2581Os": 225,
  "\u2581sobre": 226,
  "\u2581As": 227,
  "\u2581Oh": 228,
  "lo": 229,
  "er": 230,
  "\u2581could": 231,
  "\u2581isto": 232,
  "\u2581going": 233,
  "\u2581Eu": 234,
  "x": 235,
  "\u2581some": 236,
  "\u2581tempo": 237,
  ":%": 238,
  "\u2581people": 239,
  "\u2581their": 240,
  "\u2581De": 241,
  "da": 242,
  "\u2581--": 243,
  "\u2581pos\u00edbel": 244,
  "\u2581ficheiros": 245,
  "\u2581down": 246,
  "\u2581novo": 247,
  "\u2581vez": 248,
  "\u2581sen": 249,
  "\u2581come": 250,
  "\u2581then": 251,
  "\u2581opci\u00f3n": 252,
  "\u2581into": 253,
  "\u2581\u00bf": 254,
  "\u2581good": 255,
  "\u2581did": 256,
  "\u2581say": 257,
  "City": 258,
  "\u2581era": 259,
  "\u2581should": 260,
  "\u2581In": 261,
  "\u2581algo": 262,
  "\u2581take": 263,
  "\u2581ver": 264,
  "b": 265,
  "\u2581nada": 266,
  "\u25813": 267,
  "\u2581polo": 268,
  "\u2581other": 269,
  "l": 270,
  "\u2581way": 271,
  "\u2581any": 272,
  "I": 273,
  "\u2581#": 274,
  "\u2581very": 275,
  "\u2581KDE": 276,
  "A": 277,
  "3": 278,
  "\u2581over": 279,
  "\u2581how": 280,
  "\u2581There": 281,
  "\u2581te": 282,
  "\u2581dun": 283,
  "\u2581make": 284,
  "\u2581Well": 285,
  "\u2581\"%": 286,
  "\u2581Yes": 287,
  "\u2581si": 288,
  "\u2581C": 289,
  "\u2581used": 290,
  "\u2581K": 291,
  "en": 292,
  "\u2581as\u00ed": 293,
  "\u2581agora": 294,
  "\u2581Your": 295,
  "\u2581Para": 296,
  "\u2581lista": 297,
  "\u2581onde": 298,
  "ly": 299,
  "\u2581To": 300,
  "\u2581/": 301,
  "\u2581mesmo": 302,
  "C": 303,
  "la": 304,
  "on": 305,
  "\u2581too": 306,
  "\u2581coa": 307,
  "\u2581S": 308,
  "\u2581tam\u00e9n": 309,
  "\u2581two": 310,
  "\u2581How": 311,
  "\u2581these": 312,
  "de": 313,
  "\u2581vai": 314,
  "\u2581need": 315,
  "\u2581min": 316,
  "\u2581first": 317,
  "Comment": 318,
  "\u2581She": 319,
  "\u2581data": 320,
  "\u2581must": 321,
  "\u2581than": 322,
  "\u2581@": 323,
  "\u2581All": 324,
  "lle": 325,
  "\u2581where": 326,
  "\u2581Como": 327,
  "\u2581info": 328,
  "\u2581Esta": 329,
  "\u2581list": 330,
  "\u2581nun": 331,
  "\u2581casa": 332,
  "\u2581Unha": 333,
  "\u2581Xa": 334,
  "\u2581Show": 335,
  "in": 336,
  "\u2581d\u00eda": 337,
  "2": 338,
  "\u2581tell": 339,
  "\u2581dicir": 340,
  "\u00e1": 341,
  "\u2581New": 342,
  "\u2581Why": 343,
  "\u2581never": 344,
  "\u2581estaba": 345,
  "\u2581option": 346,
  "\u2581ter": 347,
  "\u2581little": 348,
  "\u2581didn": 349,
  "\u2581because": 350,
  "\u2581tan": 351,
  "\u2581Mostrar": 352,
  "\u2581porque": 353,
  "\u2581does": 354,
  "\u2581Select": 355,
  "\u2581When": 356,
  "\u2581selected": 357,
  "\u2581tipo": 358,
  "\u2581off": 359,
  "\u2581files": 360,
  "\u2581Este": 361,
  "\u2581seus": 362,
  "\u2581En": 363,
  "\u2581antes": 364,
  "\u2581pola": 365,
  "\u2581work": 366,
  "\u2581teu": 367,
  "\u2581anos": 368,
  "\u2581really": 369,
  "\u2581Don": 370,
  "\u2581after": 371,
  "\u2581aos": 372,
  "\u2581much": 373,
  "\u2581My": 374,
  "\u2581dous": 375,
  "\u2581texto": 376,
  "\u2581moito": 377,
  "\u2581xente": 378,
  "\u2581File": 379,
  "\u2581day": 380,
  "\u2581again": 381,
  "\u2581Please": 382,
  "\u2581imaxe": 383,
  "\u2581ela": 384,
  "\u2581Mr": 385,
  "\u2581Come": 386,
  "\u2581before": 387,
  "\u2581something": 388,
  "D": 389,
  "\u2581todas": 390,
  "\u2581Isto": 391,
  "\u2581window": 392,
  "\u2581ir": 393,
  "\u2581Ben": 394,
  "\u2581look": 395,
  "\u2581B": 396,
  "\u2581dixo": 397,
  "\u2581est\u00e1n": 398,
  "E": 399,
  "\u2581Cando": 400,
  "\u2581se\u00f1or": 401,
  "to": 402,
  "\u2581servidor": 403,
  "\u2581dunha": 404,
  "\u2581traballo": 405,
  "\u2581text": 406,
  "p": 407,
  "\u2581vida": 408,
  "\u2581cada": 409,
  "\u2581actual": 410,
  "\u2581che": 411,
  "\u2581entre": 412,
  "\u2581mundo": 413,
  "\u2581Est\u00e1": 414,
  "\u2581find": 415,
  "\u2581Name": 416,
  "\u2581set": 417,
  "\u2581datos": 418,
  "\u2581quere": 419,
  "\u2581cartafol": 420,
  "\u2581Now": 421,
  "\u2581sistema": 422,
  "\u2581t\u00faa": 423,
  "\u2581favor": 424,
  "\u2581a\u00ednda": 425,
  "?\"": 426,
  "\u2581Not": 427,
  "\u2581sei": 428,
  "\u2581mellor": 429,
  "\u2581may": 430,
  "che": 431,
  "\u2581left": 432,
  "\u2581S\u00f3": 433,
  "\u2581Use": 434,
  "\u2581cousas": 435,
  "\u2581let": 436,
  "\u2581color": 437,
  "nos": 438,
  "able": 439,
  "\u2581configuraci\u00f3n": 440,
  "\u2581te\u00f1o": 441,
  "\u2581same": 442,
  "\u2581cor": 443,
  "\u2581number": 444,
  "\u2581thing": 445,
  "\u2581es": 446,
  "\u2581well": 447,
  "no": 448,
  "\u2581Let": 449,
  "\u2581quen": 450,
  "\u2581vostede": 451,
  "--": 452,
  "\u2581noite": 453,
  "\u2581open": 454,
  "\u2581estar": 455,
  "al": 456,
  "\u25814": 457,
  "\u2581\u00a1": 458,
  "\u2581last": 459,
  "\u2581even": 460,
  "\u2581item": 461,
  "\u2581button": 462,
  "\u2581found": 463,
  "\u2581coma": 464,
  "\u2581Go": 465,
  "\u2581Hai": 466,
  "\u2581nunha": 467,
  "\u2581world": 468,
  "\u2581current": 469,
  "\u2581its": 470,
  "\u2581Pode": 471,
  "4": 472,
  "\u2581type": 473,
  "\u2581mensaxe": 474,
  "\u2581start": 475,
  "\u2581outra": 476,
  "\u2581long": 477,
  "\u2581informaci\u00f3n": 478,
  "\u2581sempre": 479,
  "\u2581X": 480,
  "\u2581still": 481,
  "\u2581give": 482,
  "\u2581action": 483,
  "que": 484,
  "\u2581Escolla": 485,
  "O": 486,
  "\u2581For": 487,
  "\u2581Son": 488,
  "\u2581life": 489,
  "\u2581message": 490,
  "\u2581things": 491,
  "\u2581\u00e1s": 492,
  "k": 493,
  "\u2581mais": 494,
  "\u2581love": 495,
  "\u2581cara": 496,
  "ba": 497,
  "\u2581old": 498,
  "\u2581D": 499,
  "\u2581next": 500,
  "\u2581outro": 501,
  "\u2581erro": 502,
  "\u2581estou": 503,
  "\u2581programa": 504,
  "as": 505,
  "\u2581El": 506,
  "\u2581pouco": 507,
  "\u2581years": 508,
  "\u2581despois": 509,
  "\u2581image": 510,
  "\u2581parte": 511,
  "\u2581correo": 512,
  "\u2581also": 513,
  "\u2581vista": 514,
  "\\": 515,
  "\u2581Yeah": 516,
  "\u2581pai": 517,
  "\u2581put": 518,
  "\u2581[": 519,
  "\u2581help": 520,
  "T": 521,
  "\u2581t": 522,
  "\u2581information": 523,
  "\u2581server": 524,
  "\u2581system": 525,
  "\u2581re": 526,
  "\u2581Agora": 527,
  "\u2581folder": 528,
  "f": 529,
  "\u2581quero": 530,
  "\u2581Add": 531,
  "\u2581those": 532,
  "\u2581bot\u00f3n": 533,
  "\u2581usuario": 534,
  "g": 535,
  "\u2581Configuraci\u00f3n": 536,
  "mente": 537,
  "\u2581li\u00f1a": 538,
  "\u2581dialog": 539,
  "\u2581%2": 540,
  "\u2581sure": 541,
  "\u2581am": 542,
  "\u2581OF": 543,
  "\u2581nas": 544,
  "\u2581Move": 545,
  "\u2581n\u00famero": 546,
  "\u2581bo": 547,
  "\u2581s\u00faas": 548,
  "ar": 549,
  "\u2581using": 550,
  "\u2581won": 551,
  "\u2581T": 552,
  "\u2581away": 553,
  "\u2581another": 554,
  "\u2581through": 555,
  "an": 556,
  "\u2581podo": 557,
  "\u2581Where": 558,
  "\u2581conta": 559,
  "\u2581change": 560,
  "\u2581n\u00f3s": 561,
  "\u2581key": 562,
  "le": 563,
  "\u2581lugar": 564,
  "\u2581always": 565,
  "\u2581made": 566,
  "\u2581many": 567,
  "\u2581mean": 568,
  "\u2581menos": 569,
  "\u2581s": 570,
  "des": 571,
  "\u2581>": 572,
  "\u2581nova": 573,
  "\u2581Iso": 574,
  "\u2581value": 575,
  "\u2581fai": 576,
  "\u2581debe": 577,
  "\u2581valor": 578,
  "\u25815": 579,
  "\u2581x": 580,
  "\u2581tres": 581,
  "\u2581di\u00e1logo": 582,
  "\u2581nin": 583,
  "\u2581Here": 584,
  "\u25811.": 585,
  "\u2581falar": 586,
  "na": 587,
  "\u2581As\u00ed": 588,
  "\u2581F": 589,
  "P": 590,
  "\u2581Are": 591,
  "\u2581own": 592,
  "\u2581most": 593,
  "L": 594,
  "F": 595,
  "\u2581line": 596,
  "\u2581nunca": 597,
  "\u2581case": 598,
  "\u2581R": 599,
  "\u2581night": 600,
  "\u2581show": 601,
  "\u2581doing": 602,
  "\u2581title": 603,
  "os": 604,
  "\u2581idea": 605,
  "\u2581default": 606,
  "\u2581while": 607,
  "\u2581verdade": 608,
  "\u2581why": 609,
  "\u2581vou": 610,
  "\u2581Nome": 611,
  "\u2581sexa": 612,
  "\u2581around": 613,
  "\u2581already": 614,
  "\u2581nothing": 615,
  "\u2581Engadir": 616,
  "\u2581~": 617,
  "\u2581Remove": 618,
  "\u2581each": 619,
  "\u2581ese": 620,
  "\u2581without": 621,
  "\u2581mensaxes": 622,
  "\u2581three": 623,
  "v": 624,
  "\u2581Who": 625,
  "\u2581place": 626,
  "is": 627,
  "\u2581di": 628,
  "\u2581gonna": 629,
  "\u2581URL": 630,
  "\u2581being": 631,
  "\u2581better": 632,
  "\u2581P": 633,
  "\u2581veces": 634,
  "ra": 635,
  "\u2581View": 636,
  "\u2581calquera": 637,
  "\u2581primeiro": 638,
  "1": 639,
  "R": 640,
  "\u2581anything": 641,
  "\u2581Could": 642,
  "\u2581user": 643,
  "\u258110": 644,
  "M": 645,
  "\u2581USA": 646,
  "\u2581eles": 647,
  "\u2581local": 648,
  "\u2581select": 649,
  "\u2581desde": 650,
  "\u2581cos": 651,
  "\u25810": 652,
  "\u2581Ti": 653,
  "\u2581Con": 654,
  "\u2581cousa": 655,
  "\u2581al\u00ed": 656,
  "\u2581imaxes": 657,
  "\u2581L": 658,
  "\u2581esa": 659,
  "\u2581view": 660,
  "or": 661,
  "\u2581real": 662,
  "\u2581thought": 663,
  "\u2581kde": 664,
  "\u2581sir": 665,
  "\u2581Get": 666,
  "\u2581base": 667,
  "\u2581p\u00e1xina": 668,
  "\u2581Aqu\u00ed": 669,
  "\u2581usar": 670,
  "\u2581every": 671,
  "\u2581hora": 672,
  "\u2581father": 673,
  "\u2581command": 674,
  "\u2581G": 675,
  "\u2581Open": 676,
  "\u2581ata": 677,
  "\u2581d\u00edas": 678,
  "\u2581ti\u00f1a": 679,
  "\u2581read": 680,
  "\u2581call": 681,
  "ou": 682,
  "th": 683,
  "]": 684,
  "\u2581Settings": 685,
  "\u2581please": 686,
  "\u2581ning\u00fan": 687,
  "B": 688,
  "\u2581might": 689,
  "\u2581Edit": 690,
  "\u2581error": 691,
  "\u2581done": 692,
  "\u2581ser\u00e1": 693,
  "\u2581Then": 694,
  "\u2581cun": 695,
  "\u2581such": 696,
  "\u2581est\u00e1s": 697,
  "\u2581_": 698,
  "\u2581poden": 699,
  "\u2581xeito": 700,
  "\u2581menu": 701,
  "\u2581logo": 702,
  "\u2581Ten": 703,
  "\u2581game": 704,
  "\u2581different": 705,
  "\u2581came": 706,
  "\u2581end": 707,
  "\u2581noso": 708,
  "\u2581men": 709,
  "\u2581d\u00faas": 710,
  "ATOR": 711,
  "\u2581TRANSL": 712,
  "\u2581move": 713,
  "\u2581Na": 714,
  "\u2581baixo": 715,
  "\u2581momento": 716,
  "\u2581told": 717,
  "\u2581outros": 718,
  "\u2581talk": 719,
  "\u2581between": 720,
  "\u2581tes": 721,
  "dos": 722,
  "\u2581p": 723,
  "\u2581Estou": 724,
  "\u2581poder\u00eda": 725,
  "\u2581barra": 726,
  "\u2581Te\u00f1o": 727,
  "\u00e9": 728,
  "\u2581automaticamente": 729,
  "\u2581Hey": 730,
  "ci\u00f3n": 731,
  "ches": 732,
  "\u2581Error": 733,
  "\u2581homes": 734,
  "z": 735,
  "\u2581grupo": 736,
  "\u2581tanto": 737,
  "\u2581abrir": 738,
  "\u2581a\u00ed": 739,
  "\u2581Onde": 740,
  "\u2581check": 741,
  "\u2581mal": 742,
  "\u2581course": 743,
  "\u2581keep": 744,
  "ei": 745,
  "\u2581Just": 746,
  "\u2581f\u00f3ra": 747,
  "\u2581nosa": 748,
  "\u2581org": 749,
  "\u2581cannot": 750,
  "\u2581went": 751,
  "\u2581nai": 752,
  "\u2581control": 753,
  "\u2581W": 754,
  "\u2581Ficheiro": 755,
  "\u2581size": 756,
  "\u2581address": 757,
  "\u2581mostrar": 758,
  "ta": 759,
  "\u2581temos": 760,
  "\u2581te\u00f1en": 761,
  "ca": 762,
  "\u2581Quen": 763,
  "\u2581date": 764,
  "\u2581proxecto": 765,
  "\u2581create": 766,
  "\u2581muller": 767,
  "\u2581fiestra": 768,
  "\u2581k": 769,
  "\u2581application": 770,
  "ron": 771,
  "\u2581meus": 772,
  "mo": 773,
  "\u2581enough": 774,
  "\u2581Grazas": 775,
  "\u2581\u00f3": 776,
  "\u2581part": 777,
  "\u2581\u266a": 778,
  "\u2581g": 779,
  "\u2581men\u00fa": 780,
  "\u2581tama\u00f1o": 781,
  "\u2581contra": 782,
  "\u2581forma": 783,
  "\u2581campo": 784,
  "\u2581group": 785,
  "\u2581days": 786,
  "\u2581CD": 787,
  "\u2581escoller": 788,
  "\u258100": 789,
  "\u2581fillo": 790,
  "\u2581realmente": 791,
  "\u2581sabe": 792,
  "+": 793,
  "\u2581feel": 794,
  "\u2581N": 795,
  "\u2581Cor": 796,
  "\u2581choose": 797,
  "\u2581Ent\u00f3n": 798,
  "\u2581available": 799,
  "\u2581names": 800,
  "\u2581Enter": 801,
  "\u2581()": 802,
  "\u2581An": 803,
  "\u2581Set": 804,
  "\u2581entrada": 805,
  "\u2581lot": 806,
  "\u2581box": 807,
  "\u2581canto": 808,
  "\u2581normal": 809,
  "\u2581Can": 810,
  "\u2581Desexa": 811,
  "\u2581exemplo": 812,
  "\u2581http": 813,
  "\u2581under": 814,
  "\u2581point": 815,
  "\u2581run": 816,
  "Non": 817,
  "\u2581settings": 818,
  "\u2581doesn": 819,
  "\u2581everything": 820,
  "\u2581queres": 821,
  "\u2581Ve\u00f1a": 822,
  "\u2581leave": 823,
  "\u2581modo": 824,
  "K": 825,
  "\u2581neste": 826,
  "\u2581kind": 827,
  "\u2581understand": 828,
  "\u2581tarde": 829,
  "\u2581durante": 830,
  "\u2581One": 831,
  "\u2581ent\u00f3n": 832,
  "\u2581great": 833,
  "\u00e1n": 834,
  "\u2581page": 835,
  "\u2581ma\u00f1\u00e1": 836,
  "\u00ed": 837,
  "\u2581Sr": 838,
  "\u2581money": 839,
  "5": 840,
  "\u2581f": 841,
  "\u2581algu\u00e9n": 842,
  "!\"": 843,
  "\u2581Re": 844,
  "\u2581mentres": 845,
  "\u2581messages": 846,
  "H": 847,
  "go": 848,
  "\u2581Configure": 849,
  "\u2581Erro": 850,
  "\u2581ever": 851,
  "\u2581Color": 852,
  "\u2581house": 853,
  "\u2581ca": 854,
  "\u2581failed": 855,
  "ge": 856,
  "\u2581live": 857,
  "\u2581web": 858,
  "\u2581try": 859,
  "\u2581Mais": 860,
  "\u2581empty": 861,
  "\u2581mode": 862,
  "\u2581pre": 863,
  "\u2581room": 864,
  "\u2581pasa": 865,
  "\u25818": 866,
  "\u2581document": 867,
  "\u2581documento": 868,
  "\u2581Did": 869,
  "\u2581crear": 870,
  "\u2581problema": 871,
  "\u2581M": 872,
  "\u2581tal": 873,
  "\u2581display": 874,
  "\u2581primeira": 875,
  "\u2581bit": 876,
  "\u2581chave": 877,
  "\u2581estado": 878,
  "\u2581Right": 879,
  "G": 880,
  "\u2581ask": 881,
  "li": 882,
  "\u2581=": 883,
  "\u2581Foi": 884,
  "\u2581fondo": 885,
  "\u2581God": 886,
  "\u2581elemento": 887,
  "\u2581esquerda": 888,
  "\u2581'%1": 889,
  "\u2581Eliminar": 890,
  "\u2581Good": 891,
  "\u2581At": 892,
  "\u2581deste": 893,
  "\u2581Look": 894,
  "U": 895,
  "ic": 896,
  "ro": 897,
  "\u2581empregar": 898,
  "\u2581funci\u00f3n": 899,
  "\u2581hard": 900,
  "ase": 901,
  "\u2581mail": 902,
  "\u2581Ctrl": 903,
  "\u2581stop": 904,
  "\u2581toda": 905,
  "\u2581pantalla": 906,
  "\u2581Deus": 907,
  "h": 908,
  "\u2581hear": 909,
  "\u2581Data": 910,
  "\u2581interface": 911,
  "\u00f3": 912,
  "\u2581rede": 913,
  "\u2581seguinte": 914,
  "\u2581omisi\u00f3n": 915,
  "ce": 916,
  "\u2581format": 917,
  "\u2581Todo": 918,
  "\u2581Mova": 919,
  "\u2581Save": 920,
  "\u2581atopar": 921,
  "\u2581novas": 922,
  "=": 923,
  "\u2581girl": 924,
  "\u2581podes": 925,
  "\u2581Configurar": 926,
  "\u2581Thank": 927,
  "\u2581caso": 928,
  "\u2581Es": 929,
  "\u2581feito": 930,
  "\u2581ferramentas": 931,
  "\u2581wrong": 932,
  "\u2581grande": 933,
  "\u2581job": 934,
  "co": 935,
  "\u2581Delete": 936,
  "\u2581mother": 937,
  "\u2581save": 938,
  "\u2581.\"": 939,
  "\u2581i": 940,
  "\u2581ningu\u00e9n": 941,
  "\u2581Editar": 942,
  "\u2581Sen": 943,
  "\u2581year": 944,
  "das": 945,
  "\u25816": 946,
  "\u2581head": 947,
  "\u2581obter": 948,
  "\u2581wanted": 949,
  "\u2581kill": 950,
  "\u258116": 951,
  "\u2581dispositivo": 952,
  "\u2581yet": 953,
  "\u2581editor": 954,
  "\u2581net": 955,
  "\u2581cunha": 956,
  "\u2581m": 957,
  "\u2581ningunha": 958,
  "\u2581mostra": 959,
  "\u2581few": 960,
  "\u2581amor": 961,
  "\u2581label": 962,
  "\u2581Lord": 963,
  "\u2581believe": 964,
  "\u2581ler": 965,
  "\u2581word": 966,
  "\u2581at\u00e9": 967,
  "\u2581dead": 968,
  "\u2581search": 969,
  "\u2581called": 970,
  "\u2581punto": 971,
  "\u2581car": 972,
  "\u258120": 973,
  "\u2581Fallou": 974,
  "\u2581existe": 975,
  "\u2581function": 976,
  "\u2581HTML": 977,
  "\u2581program": 978,
  "\u2581Check": 979,
  "\u2581ano": 980,
  "\u2581given": 981,
  "\u2581(%": 982,
  "\u2581enter": 983,
  "optional": 984,
  "\u2581big": 985,
  "Que": 986,
  "\u2581once": 987,
  "\u2581yourself": 988,
  "\u2581sabes": 989,
  "\u2581simple": 990,
  "ri": 991,
  "\u00eda": 992,
  "\u2581With": 993,
  "\u2581espazo": 994,
  "\u2581hand": 995,
  "\u2581today": 996,
  "\u2581Be": 997,
  "\u2581dende": 998,
  "\u2581dentro": 999,
  "\u2581Text": 1000,
  "\u2581poder": 1001,
  "\u2581add": 1002,
  "\u2581fixo": 1003,
  "\u2581ha": 1004,
  "\u2581Image": 1005,
  "\u2581Ola": 1006,
  "\u2581field": 1007,
  "\u2581cabeza": 1008,
  "\u2581la": 1009,
  "ti": 1010,
  "\u2581bad": 1011,
  "\u2581remember": 1012,
  "\u2581Porque": 1013,
  "\u2581devolve": 1014,
  "\u2581opci\u00f3ns": 1015,
  "man": 1016,
  "):": 1017,
  "\u2581saber": 1018,
  "\u2581hoxe": 1019,
  "\u2581rato": 1020,
  "\u2581returns": 1021,
  "\u2581formato": 1022,
  "\u2581order": 1023,
  "\u2581boa": 1024,
  "\u2581children": 1025,
  "\u2581cores": 1026,
  "\u2581else": 1027,
  "\u2581gran": 1028,
  "\u2581took": 1029,
  "\u2581?": 1030,
  "\u2581Tipo": 1031,
  "\u2581orde": 1032,
  "ga": 1033,
  "\u2581estamos": 1034,
  "ia": 1035,
  "\u2581configuration": 1036,
  "\u2581face": 1037,
  "di": 1038,
  "\u2581A\u00ednda": 1039,
  "\u2581Vou": 1040,
  "\u2581sa\u00edda": 1041,
  "\u2581podemos": 1042,
  "\u2581per": 1043,
  "\u2581together": 1044,
  "\u2581Stark": 1045,
  "\u2581top": 1046,
  "N": 1047,
  "\u2581filter": 1048,
  "\u2581persoas": 1049,
  "\u2581principal": 1050,
  "\u2581status": 1051,
  "\u2581support": 1052,
  "\u2581dereita": 1053,
  "\u2581state": 1054,
  "X": 1055,
  "\u2581com": 1056,
  "\u2581click": 1057,
  "\u2581xogo": 1058,
  "\u2581saw": 1059,
  "\u2581boy": 1060,
  "\u2581conexi\u00f3n": 1061,
  "\u2581d": 1062,
  "\u2581guerra": 1063,
  "los": 1064,
  "\u2581n": 1065,
  "BAR": 1066,
  "\u2581kmail": 1067,
  "\u2581ollos": 1068,
  "\u2581units": 1069,
  "it": 1070,
  "\u2581gardar": 1071,
  "\u2581sorry": 1072,
  "ne": 1073,
  "\u2581seen": 1074,
  "\u2581users": 1075,
  "\u2581porta": 1076,
  "us": 1077,
  "\u2581Nunca": 1078,
  "\u2581Ao": 1079,
  "\u2581changes": 1080,
  "\u2581segundo": 1081,
  "nte": 1082,
  "\u2581Todos": 1083,
  "\u2581*": 1084,
  "\u2581alarm": 1085,
  "\u2581certo": 1086,
  "\u2581mind": 1087,
  "vos": 1088,
  "\u2581creo": 1089,
  "ur": 1090,
  "\u2581dar": 1091,
  "W": 1092,
  "\u2581example": 1093,
  "\u2581images": 1094,
  "\u2581contrasinal": 1095,
  "\u25817": 1096,
  "\u2581Create": 1097,
  "\u2581Nova": 1098,
  "\u2581version": 1099,
  "\u2581On": 1100,
  "\u2581Vista": 1101,
  "\u2581play": 1102,
  "\u2581space": 1103,
  "\u2581means": 1104,
  "\u2581level": 1105,
  "\u2581Abrir": 1106,
  "\u2581escritorio": 1107,
  "\u2581project": 1108,
  "\u2581water": 1109,
  "\u2581specified": 1110,
  "ci": 1111,
  "\u2581*.": 1112,
  "\u2581war": 1113,
  "\u2581month": 1114,
  "\u2581mesma": 1115,
  "\u2581side": 1116,
  "\u2581wait": 1117,
  "\u2581write": 1118,
  "\u2581!": 1119,
  "\u2581\"%1\"": 1120,
  "\u2581isn": 1121,
  "\u2581script": 1122,
  "\u2581stay": 1123,
  "\u2581estes": 1124,
  "\u2581catro": 1125,
  "\u2581fin": 1126,
  "\u2581van": 1127,
  "\u2581Quero": 1128,
  "\u2581final": 1129,
  "\u2581enderezo": 1130,
  "\u2581Okay": 1131,
  "\u2581lado": 1132,
  "\u2581care": 1133,
  "\u2581plugin": 1134,
  "\u2581problem": 1135,
  "ado": 1136,
  "\u2581engadir": 1137,
  "\u2581V": 1138,
  "\u2581deber\u00eda": 1139,
  "\u2581Stop": 1140,
  "ma": 1141,
  "\u2581axuda": 1142,
  "\u2581coming": 1143,
  "\u2581later": 1144,
  "\u2581c": 1145,
  "\u2581directory": 1146,
  "\u258113": 1147,
  "\u2581heard": 1148,
  "\u2581igual": 1149,
  "\u2581against": 1150,
  "\u2581imos": 1151,
  "\u2581looking": 1152,
  "\u2581started": 1153,
  "\u2581Vai": 1154,
  "\u2581possible": 1155,
  "\u2581H": 1156,
  "so": 1157,
  "\u2581Time": 1158,
  "weather": 1159,
  "\u2581Import": 1160,
  "\u2581medo": 1161,
  "\u2581matter": 1162,
  "\u2581vas": 1163,
  "\u2581device": 1164,
  "\u2581account": 1165,
  "\u2581auga": 1166,
  "\u2581facelo": 1167,
  "\u2581morning": 1168,
  "\u2581until": 1169,
  "\u2581best": 1170,
  "\u2581elementos": 1171,
  "\u2581procura": 1172,
  "\u2581times": 1173,
  "\u2581Canno": 1174,
  "\u2581automatically": 1175,
  "\u2581cami\u00f1o": 1176,
  "\u2581ex": 1177,
  "\u2581eyes": 1178,
  "\u2581following": 1179,
  "\u2581estas": 1180,
  "\u2581true": 1181,
  "\u2581onto": 1182,
  "\u2581four": 1183,
  "\u2581seguro": 1184,
  "ul": 1185,
  "\u2581Editor": 1186,
  "\u2581tab": 1187,
  "\u2581coas": 1188,
  "\u2581escolla": 1189,
  "\u2581permite": 1190,
  "\u2581password": 1191,
  "\u2581problemas": 1192,
  "\u2581nivel": 1193,
  "\u2581second": 1194,
  "\u2581family": 1195,
  "nse": 1196,
  "\u2581Ah": 1197,
  "\u2581xanela": 1198,
  "\u2581pasar": 1199,
  "\u2581clase": 1200,
  "un": 1201,
  "\u2581alarma": 1202,
  "\u2581Ela": 1203,
  "\u2581whole": 1204,
  "\u2581Imos": 1205,
  "\u2581sent": 1206,
  "\u2581versi\u00f3n": 1207,
  "\u2581YOU": 1208,
  "\u2581power": 1209,
  "\u2581Est\u00e1s": 1210,
  "\u2581happened": 1211,
  "the": 1212,
  "\u2581letra": 1213,
  "\u2581traballar": 1214,
  "\u2581cal": 1215,
  "\u2581column": 1216,
  "\u2581Click": 1217,
  "\u2581Me": 1218,
  "\u2581palabra": 1219,
  "\u2581medio": 1220,
  "\u2581dis": 1221,
  "\u2581historia": 1222,
  "\u2581horas": 1223,
  "\u2581least": 1224,
  "\u2581moitos": 1225,
  "\u2581Because": 1226,
  "\u2581From": 1227,
  "\u2581Moi": 1228,
  "\u2581cidade": 1229,
  "\u2581nice": 1230,
  "\u2581working": 1231,
  "\u2581See": 1232,
  "\u2581able": 1233,
  "\u2581acci\u00f3n": 1234,
  "\u2581del": 1235,
  "\u2581parece": 1236,
  "\u2581Tes": 1237,
  "\u2581y": 1238,
  "\u2581DVD": 1239,
  "\u2581Y": 1240,
  "\u2581door": 1241,
  "\u2581running": 1242,
  "\u2581Prema": 1243,
  "and": 1244,
  "\u2581ID": 1245,
  "\u2581media": 1246,
  "\u2581pensar": 1247,
  "\u2581//": 1248,
  "\u258112": 1249,
  "\u2581calendar": 1250,
  "\u2581N\u00famero": 1251,
  "\u2581asked": 1252,
  "\u2581database": 1253,
  "\u2581fonte": 1254,
  "\u2581options": 1255,
  "\u2581sa\u00edr": 1256,
  "\u2581sub": 1257,
  "\u2581Mira": 1258,
  "\u2581Take": 1259,
  "\u2581disco": 1260,
  "V": 1261,
  "\u2581Search": 1262,
  "\u2581Type": 1263,
  "encil": 1264,
  "\u2581foron": 1265,
  "\u2581familia": 1266,
  "\u2581Start": 1267,
  "\u2581Z": 1268,
  "\u2581both": 1269,
  "\u2581getting": 1270,
  "\u2581quer\u00eda": 1271,
  "\u2581send": 1272,
  "\u2581trying": 1273,
  "\u2581Opci\u00f3ns": 1274,
  "\u2581cartafoles": 1275,
  "\u2581description": 1276,
  "\u2581Escoller": 1277,
  "\u2581business": 1278,
  "\u2581desta": 1279,
  "\u2581enviar": 1280,
  "\u2581raz\u00f3n": 1281,
  "\u2581whether": 1282,
  "\u2581U": 1283,
  "\u2581alone": 1284,
  "\u2581import": 1285,
  "\u2581since": 1286,
  "amount": 1287,
  "\u2581volta": 1288,
  "\u2581woman": 1289,
  "\u2581<": 1290,
  "\u2581bar": 1291,
  "\u2581cont\u00e9n": 1292,
  "pe": 1293,
  "\u2581Man": 1294,
  "\u2581significa": 1295,
  "\u2581full": 1296,
  "\u2581email": 1297,
  "\u2581killed": 1298,
  "\u2581mulleres": 1299,
  "\u2581tema": 1300,
  "\u2581guy": 1301,
  "\u2581small": 1302,
  "\u2581turn": 1303,
  "\u2581Of": 1304,
  "ch": 1305,
  "\u2581Default": 1306,
  "\u2581eliminar": 1307,
  "\u2581far": 1308,
  "\u2581light": 1309,
  "\u2581remove": 1310,
  "\u2581shown": 1311,
  "\u2581Borrar": 1312,
  "\u2581cinco": 1313,
  "\u2581class": 1314,
  "\u2581path": 1315,
  "\u2581quite": 1316,
  "\u2581young": 1317,
  "\u2581mvillarino": 1318,
  "\u2581v\u00e1lido": 1319,
  "\u2581input": 1320,
  "dor": 1321,
  "gt": 1322,
  "\u2581Vostede": 1323,
  "\u2581b": 1324,
  "\u2581branco": 1325,
  "\u2581myself": 1326,
  "\u2581alg\u00fan": 1327,
  "\u2581rei": 1328,
  "St": 1329,
  "\u2581Era": 1330,
  "\u2581Novo": 1331,
  "\u2581comigo": 1332,
  "\u2581currently": 1333,
  "\u2581mouse": 1334,
  "\u2581nosos": 1335,
  "\u2581persoa": 1336,
  "\u2581says": 1337,
  "\u2581alg\u00fans": 1338,
  "\u2581Co": 1339,
  "\u2581acordo": 1340,
  "\u2581event": 1341,
  "\u2581source": 1342,
  "\u2581Have": 1343,
  "\u2581Indi": 1344,
  "\u2581actually": 1345,
  "\u2581tarefa": 1346,
  "r\u00eda": 1347,
  "\u2581deixar": 1348,
  "\u2581tarefas": 1349,
  "\u2581death": 1350,
  "w": 1351,
  "\u258130": 1352,
  "\u2581nomes": 1353,
  "\u25819": 1354,
  "\u2581Bo": 1355,
  "\u2581calendario": 1356,
  "\u2581ser\u00eda": 1357,
  "\u2581wouldn": 1358,
  "\u2581Canada": 1359,
  "\u2581IP": 1360,
  "\u2581La": 1361,
  "\u2581Tama\u00f1o": 1362,
  "\u2581morte": 1363,
  "\u2581mediante": 1364,
  "za": 1365,
  "\u2581checked": 1366,
  "\u2581font": 1367,
  "\u2581wasn": 1368,
  "\u2581comes": 1369,
  "\u2581five": 1370,
  "\u2581fun": 1371,
  "\u2581tool": 1372,
  "\u2581Files": 1373,
  "\u2581Export": 1374,
  "\u2581maior": 1375,
  "\u2581Di": 1376,
  "\u2581Only": 1377,
  "\u2581access": 1378,
  "\u2581active": 1379,
  "ter": 1380,
  "\u2581widget": 1381,
  "il": 1382,
  "\u2581By": 1383,
  "\u2581General": 1384,
  "\u2581dereito": 1385,
  "\u2581nenos": 1386,
  "\u2581These": 1387,
  "\u2581etc": 1388,
  "\u2581valores": 1389,
  "\u2581wife": 1390,
  "\u2581Queres": 1391,
  "\u2581hope": 1392,
  "\u2581outras": 1393,
  "\u2581free": 1394,
  "\u2581importante": 1395,
  "\u2581person": 1396,
  "\u2581semana": 1397,
  "\u2581filtro": 1398,
  "\u2581gone": 1399,
  "\u2581Choose": 1400,
  "\u2581Enable": 1401,
  "\u2581Change": 1402,
  "\u2581escribir": 1403,
  "\u2581match": 1404,
  "\u2581,\"": 1405,
  "\u2581List": 1406,
  "\u2581cartos": 1407,
  "\u2581country": 1408,
  "ers": 1409,
  "\u2581amigo": 1410,
  "\u2581fan": 1411,
  "\u2581important": 1412,
  "\u2581l": 1413,
  "\u2581modelo": 1414,
  "\u2581talking": 1415,
  "\u2581Cisco": 1416,
  "\u2581ago": 1417,
  "\u2581close": 1418,
  "\u2581pequeno": 1419,
  "\u2581proceso": 1420,
  "\u2581volver": 1421,
  "\u2581Se\u00f1or": 1422,
  "\u2581die": 1423,
  "\u2581vos": 1424,
  "EMAIL": 1425,
  "\u2581instead": 1426,
  "io": 1427,
  "\u2581Gardar": 1428,
  "\u2581se\u00f1ora": 1429,
  "\u2581certificado": 1430,
  "\u2581school": 1431,
  "\u2581\u00fanico": 1432,
  "\u2581either": 1433,
  "\u2581gave": 1434,
  "\u2581mudar": 1435,
  "\u2581report": 1436,
  "bo": 1437,
  "qui": 1438,
  "\u2581lost": 1439,
  "\u2581book": 1440,
  "\u2581emails": 1441,
  "\u2581executar": 1442,
  "}": 1443,
  "\u2581film": 1444,
  "\u2581couldn": 1445,
  "The": 1446,
  "vo": 1447,
  "\u2581connection": 1448,
  "el": 1449,
  "ver": 1450,
  "\u2581cargar": 1451,
  "\u2581friend": 1452,
  "\u2581minutes": 1453,
  "\u2581process": 1454,
  "\u2581week": 1455,
  "\u2581moment": 1456,
  "\u2581table": 1457,
  "\u2581Temos": 1458,
  "\u2581Will": 1459,
  "\u2581electr\u00f3nico": 1460,
  "\u258115": 1461,
  "\u2581dixen": 1462,
  "\u2581hab\u00eda": 1463,
  "\u2581inicio": 1464,
  "\u2581minutos": 1465,
  "\u2581rexistro": 1466,
  "\u2581Or": 1467,
  "\u2581hearts": 1468,
  "\u2581King": 1469,
  "\u2581entry": 1470,
  "\u2581soon": 1471,
  "\u2581values": 1472,
  "xe": 1473,
  "\u2581Ou": 1474,
  "\u2581someone": 1475,
  "\u2581St": 1476,
  "\u2581fose": 1477,
  "\u2581network": 1478,
  "\u2581Creo": 1479,
  "\u2581area": 1480,
  "\u2581dear": 1481,
  "\u2581main": 1482,
  "\u2581panel": 1483,
  "\u2581prema": 1484,
  "\u2581Maybe": 1485,
  "\u2581importa": 1486,
  "\u2581palabras": 1487,
  "color": 1488,
  "\u2581Filter": 1489,
  "\u2581li": 1490,
  "\u2581Message": 1491,
  "\u2581Plugin": 1492,
  "\u2581coraz\u00f3ns": 1493,
  "\u2581polos": 1494,
  "\u2581half": 1495,
  "em": 1496,
  "\u2581Next": 1497,
  "\u2581OK": 1498,
  "\u2581Pois": 1499,
  "\u2581pa\u00eds": 1500,
  "\u2581sleep": 1501,
  "sh": 1502,
  "\u2581configurar": 1503,
  "\u2581sitio": 1504,
  "tro": 1505,
  "\u2581Game": 1506,
  "\u2581fillos": 1507,
  "\u2581Tam\u00e9n": 1508,
  "\u2581eventos": 1509,
  "\u2581position": 1510,
  "\u2581selecci\u00f3n": 1511,
  "\u2581THE": 1512,
  "\u2581mans": 1513,
  "\u2581high": 1514,
  "\u2581mar": 1515,
  "\u2581allows": 1516,
  "\u2581makes": 1517,
  "\u2581screen": 1518,
  "\u2581Note": 1519,
  "\u2581diamantes": 1520,
  "\u2581whatsthis": 1521,
  "6": 1522,
  "be": 1523,
  "cho": 1524,
  "\u2581chegar": 1525,
  "\u2581wish": 1526,
  "remos": 1527,
  "\u2581pay": 1528,
  "\u2581women": 1529,
  "\u2581\u00faltima": 1530,
  "\u2581J": 1531,
  "\u2581cuarto": 1532,
  "\u2581c\u00f3digo": 1533,
  "\u2581knew": 1534,
  "\u2581li\u00f1as": 1535,
  "use": 1536,
  "anse": 1537,
  "\u2581hours": 1538,
  "\u2581shall": 1539,
  "\u2581Page": 1540,
  "\u2581amigos": 1541,
  "\u2581gusta": 1542,
  "ban": 1543,
  "\u2581Q": 1544,
  "\u2581city": 1545,
  "\u2581hands": 1546,
  "onstellation": 1547,
  "\u2581algunha": 1548,
  "\u2581artigos": 1549,
  "\u2581below": 1550,
  "\u2581fine": 1551,
  "\u2581v\u00f3s": 1552,
  "vi": 1553,
  "\u2581Failed": 1554,
  "\u2581Lady": 1555,
  "\u2581Polo": 1556,
  "\u258150": 1557,
  "\u2581Number": 1558,
  "\u2581black": 1559,
  "\u2581clubs": 1560,
  "\u2581papel": 1561,
  "\u2581diamonds": 1562,
  "\u2581estea": 1563,
  "\u2581items": 1564,
  "\u2581par": 1565,
  "\u2581teus": 1566,
  "\u2581{": 1567,
  "ada": 1568,
  "\u2581May": 1569,
  "\u2581bed": 1570,
  "\u2581matar": 1571,
  "\u2581shows": 1572,
  "\u2581vin": 1573,
  "\u2581words": 1574,
  "r\u00e1": 1575,
  "\u2581Hello": 1576,
  "\u2581Server": 1577,
  "\u2581abaixo": 1578,
  "\u2581others": 1579,
  "\u25812.": 1580,
  "\u2581contido": 1581,
  "\u2581delete": 1582,
  "\u2581levar": 1583,
  "\u25811\"": 1584,
  "\u2581System": 1585,
  "\u2581child": 1586,
  "\u2581grazas": 1587,
  "est": 1588,
  "\u2581article": 1589,
  "\u2581brother": 1590,
  "\u2581mo": 1591,
  "\u2581white": 1592,
  "Y": 1593,
  "ie": 1594,
  "pa": 1595,
  "\u2581Debe": 1596,
  "\u2581John": 1597,
  "\u2581channel": 1598,
  "\u2581changed": 1599,
  "\u2581speak": 1600,
  "\u2581\u00faltimo": 1601,
  "\u2581Options": 1602,
  "\u2581claro": 1603,
  "lu": 1604,
  "\u2581Sabes": 1605,
  "\u2581lt": 1606,
  "\u2581question": 1607,
  "\u2581Claro": 1608,
  "\u2581posici\u00f3n": 1609,
  "\u2581pretty": 1610,
  "\u2581paquete": 1611,
  "\u2581spades": 1612,
  "\u2581vivir": 1613,
  "\u2581Procurar": 1614,
  "\u2581San": 1615,
  "\u2581condition": 1616,
  "\u2581edit": 1617,
  "\u2581luz": 1618,
  "\u2581social": 1619,
  "0": 1620,
  "pi": 1621,
  "\u2581Tell": 1622,
  "\u2581r\u00e1pido": 1623,
  "\u2581Folder": 1624,
  "\u2581Some": 1625,
  "\u2581XML": 1626,
  "\u2581human": 1627,
  "\u2581pasou": 1628,
  "\u2581six": 1629,
  "\u2581specify": 1630,
  "\u2581\\": 1631,
  "\u2581happy": 1632,
  "\u2581partida": 1633,
  "\u2581sesi\u00f3n": 1634,
  "\u2581tras": 1635,
  "\u2581vir": 1636,
  "ting": 1637,
  "\u2581corpo": 1638,
  "\u2581cursor": 1639,
  "\u2581video": 1640,
  "tra": 1641,
  "\u2581bring": 1642,
  "\u2581escollido": 1643,
  "\u2581total": 1644,
  "\u2581ven": 1645,
  "llo": 1646,
  "sen": 1647,
  "\u2581alarmas": 1648,
  "\u2581object": 1649,
  "\u2581suposto": 1650,
  "\u2581wants": 1651,
  "ir": 1652,
  "\u2581Lista": 1653,
  "\u2581minute": 1654,
  "\u2581vello": 1655,
  "\u2581comezar": 1656,
  "\u2581created": 1657,
  "\u2581\u00e1rea": 1658,
  "\u2581body": 1659,
  "\u2581himself": 1660,
  "\u2581t\u00edtulo": 1661,
  "ion": 1662,
  "\u2581Display": 1663,
  "\u2581comando": 1664,
  "\u2581inside": 1665,
  "\u2581package": 1666,
  "\u2581rest": 1667,
  "\u2581yes": 1668,
  "\u2581Crear": 1669,
  "\u2581heart": 1670,
  "\u2581location": 1671,
  "\u2581sound": 1672,
  "\u2581tipos": 1673,
  "\u2581Mostra": 1674,
  "\u2581escolle": 1675,
  "\u2581obxecto": 1676,
  "\u2581precisa": 1677,
  "\u2581seis": 1678,
  "\u2581100": 1679,
  "\u2581Dr": 1680,
  "\u2581language": 1681,
  "\u2581output": 1682,
  "\u25811)": 1683,
  "\u2581Accerciser": 1684,
  "\u2581His": 1685,
  "\u2581irm\u00e1n": 1686,
  "\u2581haven": 1687,
  "\u2581Alice": 1688,
  "\u2581demasiado": 1689,
  "\u2581mi\u00f1as": 1690,
  "cu": 1691,
  "va": 1692,
  "\u2581Mary": 1693,
  "\u2581cell": 1694,
  "\u2581eat": 1695,
  "\u2581selection": 1696,
  "\u2581Vale": 1697,
  "\u2581volume": 1698,
  "\\\\": 1699,
  "\u2581Give": 1700,
  "\u2581programas": 1701,
  "\u2581Mrs": 1702,
  "\u2581anterior": 1703,
  "\u2581dez": 1704,
  "\u2581diferente": 1705,
  "\u2581displayed": 1706,
  "\u2581friends": 1707,
  "\u2581iniciar": 1708,
  "...\"": 1709,
  "\u2581Vamos": 1710,
  "\u2581Window": 1711,
  "\u2581memoria": 1712,
  "\u2581picas": 1713,
  "\u2581te\u00f1a": 1714,
  "\u2581Ir": 1715,
  "\u2581carta": 1716,
  "\u2581moitas": 1717,
  "\u2581ready": 1718,
  "\u2581red": 1719,
  "\u2581seguir": 1720,
  "\u2581xeral": 1721,
  "\u2581After": 1722,
  "\u2581Sempre": 1723,
  "\u2581baby": 1724,
  "\u2581contigo": 1725,
  "8": 1726,
  "\u2581Insert": 1727,
  "\u2581tomar": 1728,
  "\u2581Keep": 1729,
  "\u2581card": 1730,
  "\u2581coche": 1731,
  "\u2581desktop": 1732,
  "res": 1733,
  "\u2581Nada": 1734,
  "\u2581User": 1735,
  "\u2581copy": 1736,
  "\u2581icon": 1737,
  "\u2581Empregar": 1738,
  "\u2581activa": 1739,
  "\u2581baleiro": 1740,
  "\u2581certificate": 1741,
  "\u2581code": 1742,
  "\u2581diante": 1743,
  "\u2581morrer": 1744,
  "\u2581Informaci\u00f3n": 1745,
  "\u2581audio": 1746,
  "\u2581front": 1747,
  "for": 1748,
  "\u00fa": 1749,
  "\u2581lines": 1750,
  "\u2581preto": 1751,
  "\u2581City": 1752,
  "\u2581Date": 1753,
  "\u2581artigo": 1754,
  "\u2581regular": 1755,
  "\u2581story": 1756,
  "\u2581animais": 1757,
  "\u2581novos": 1758,
  "\u2581Wait": 1759,
  "\u2581meet": 1760,
  "\u2581pregunta": 1761,
  "\u2581Estaba": 1762,
  "\u2581along": 1763,
  "\u2581arriba": 1764,
  "\u2581okay": 1765,
  "\u2581penso": 1766,
  "up": 1767,
  "\u2581Hi": 1768,
  "\u2581during": 1769,
  "\u2581mes": 1770,
  "\u2581setting": 1771,
  "\u2581uh": 1772,
  "\u2581Podo": 1773,
  "\u2581neno": 1774,
  "\u2581chaves": 1775,
  "\u2581korganizer": 1776,
  "\u2581libre": 1777,
  "\u2581puido": 1778,
  "Eu": 1779,
  "\u2581become": 1780,
  "\u2581cartas": 1781,
  "\u2581$": 1782,
  "\u2581Activar": 1783,
  "\u2581America": 1784,
  "\u2581Barra": 1785,
  "\u2581Usar": 1786,
  "\u2581behind": 1787,
  "\u2581radio": 1788,
  "\u2581sort": 1789,
  "\u2581Copy": 1790,
  "\u2581installed": 1791,
  "\u2581log": 1792,
  "\u2581saying": 1793,
  "\u2581software": 1794,
  "lles": 1795,
  "\u2581copia": 1796,
  "\u2581eses": 1797,
  "\u2581reason": 1798,
  "\u2581valid": 1799,
  "\u2581Ese": 1800,
  "\u2581contains": 1801,
  "\u2581diferentes": 1802,
  "\u2581eran": 1803,
  "\u2581fight": 1804,
  "\u2581late": 1805,
  "\u2581partir": 1806,
  "\u2581rather": 1807,
  "\u2581servizo": 1808,
  "\u2581lo": 1809,
  "\u2581\u00eda": 1810,
  "\u2581ISO": 1811,
  "Generic": 1812,
  "at": 1813,
  "\u2581Unknown": 1814,
  "\u2581having": 1815,
  "\u2581press": 1816,
  "\u2581resposta": 1817,
  "\u2581though": 1818,
  "\u2581\u00e1rbore": 1819,
  "las": 1820,
  "\u2581Indica": 1821,
  "\u2581comer": 1822,
  "\u2581dif\u00edcil": 1823,
  "\u2581maior\u00eda": 1824,
  "\u2581test": 1825,
  "\u2581tomorrow": 1826,
  "ica": 1827,
  "ka": 1828,
  "\u2581Interface": 1829,
  "\u2581deles": 1830,
  "\u2581enderezos": 1831,
  "\u258111": 1832,
  "\u2581Close": 1833,
  "\u2581negro": 1834,
  "\u2581stand": 1835,
  "\u2581answer": 1836,
  "\u2581cama": 1837,
  "\u2581sourcefor": 1838,
  "Q": 1839,
  "ry": 1840,
  "zo": 1841,
  "\u2581easy": 1842,
  "\u2581fact": 1843,
  "\u2581king": 1844,
  "\u2581ma": 1845,
  "\u2581meses": 1846,
  "\u2581string": 1847,
  "\u2581Despois": 1848,
  "\u2581coraz\u00f3n": 1849,
  "\u2581rapaz": 1850,
  "emos": 1851,
  "mento": 1852,
  "\u2581caracteres": 1853,
  "\u2581longer": 1854,
  "\u2581First": 1855,
  "\u2581Network": 1856,
  "\u2581Nothing": 1857,
  "\u2581realidade": 1858,
  "\u2581single": 1859,
  "\u2581trevos": 1860,
  "\u2581Modo": 1861,
  "\u2581TO": 1862,
  "\u2581almost": 1863,
  "\u2581eh": 1864,
  "\u2581knows": 1865,
  "tu": 1866,
  "\u2581Size": 1867,
  "\u2581evento": 1868,
  "\u2581fontes": 1869,
  "\u2581nesta": 1870,
  "\u2581superior": 1871,
  "cha": 1872,
  "rei": 1873,
  "\u2581Enviar": 1874,
  "\u2581KMail": 1875,
  "\u2581fas": 1876,
  "\u2581inmenu": 1877,
  "\u2581knode": 1878,
  "\u2581cut": 1879,
  "\u2581destino": 1880,
  "\u2581diso": 1881,
  "\u2581form": 1882,
  "\u2581happen": 1883,
  "\u2581upon": 1884,
  "\u2581within": 1885,
  "\u2581desexa": 1886,
  "\u2581grandes": 1887,
  "\u2581less": 1888,
  "\u2581Aconteceu": 1889,
  "\u2581M\u00e1is": 1890,
  "\u2581picture": 1891,
  "\u2581voz": 1892,
  "\u2581\u00c1": 1893,
  "\u2581Current": 1894,
  "\u2581Group": 1895,
  "\u2581r": 1896,
  "\u2581recurso": 1897,
  "\u2581short": 1898,
  "ation": 1899,
  "\u2581Comment": 1900,
  "\u2581Print": 1901,
  "\u2581maneira": 1902,
  "Por": 1903,
  "\u2581indicar": 1904,
  "um": 1905,
  "\u2581hold": 1906,
  "\u2581living": 1907,
  "\u2581watch": 1908,
  "You": 1909,
  "\u2581Al": 1910,
  "\u2581DE": 1911,
  "\u2581atopou": 1912,
  "\u2581erros": 1913,
  "\u2581estilo": 1914,
  "\u2581events": 1915,
  "\u258119": 1916,
  "\u2581Left": 1917,
  "\u2581sen\u00f3n": 1918,
  "\u2581terra": 1919,
  "\u2581trav\u00e9s": 1920,
  "\u2581engadido": 1921,
  "\u2581Mudar": 1922,
  "\u2581keys": 1923,
  "\u2581months": 1924,
  "\u2581pod\u00eda": 1925,
  "ran": 1926,
  "\u2581Last": 1927,
  "\u2581TV": 1928,
  "\u2581borrar": 1929,
  "\u2581cadea": 1930,
  "\u2581extensi\u00f3n": 1931,
  "\u2581goes": 1932,
  "\u2581queira": 1933,
  "\u2581seems": 1934,
  "mp": 1935,
  "\u2581making": 1936,
  "\u2581poder\u00e1": 1937,
  "\u2581fila": 1938,
  "\u2581mine": 1939,
  "\u2581needs": 1940,
  "\u2581operaci\u00f3n": 1941,
  "\u2581polic\u00eda": 1942,
  "\u2581atr\u00e1s": 1943,
  "\u2581pequena": 1944,
  "Laughter": 1945,
  "\u2581Tony": 1946,
  "\u2581configure": 1947,
  "ton": 1948,
  "\u2581fire": 1949,
  "\u2581informe": 1950,
  "\u2581paquetes": 1951,
  "\u2581\u266b": 1952,
  "con": 1953,
  "\u2581Nin": 1954,
  "\u2581Quere": 1955,
  "\u2581probably": 1956,
  "\u2581v\u00e9n": 1957,
  "\u2581waiting": 1958,
  "\u2581Ven": 1959,
  "\u2581continuar": 1960,
  "\u2581fiestras": 1961,
  "\u2581mapa": 1962,
  "\u2581mover": 1963,
  "\u2581poida": 1964,
  "\u2581present": 1965,
  "\u2581special": 1966,
  "ness": 1967,
  "\u2581Texto": 1968,
  "\u2581Ver": 1969,
  "\u2581directorio": 1970,
  "\u2581hell": 1971,
  "\u2581nosas": 1972,
  "per": 1973,
  "\u2581afraid": 1974,
  "\u2581blood": 1975,
  "\u2581perfil": 1976,
  "\u2581truth": 1977,
  "\u2581uso": 1978,
  "7": 1979,
  "\u2581algunhas": 1980,
  "\u2581drink": 1981,
  "\u2581ordes": 1982,
  "\u2581anyone": 1983,
  "\u2581serio": 1984,
  "\u2581ser\u00e1n": 1985,
  "\u2581xuntos": 1986,
  "\u2581Le": 1987,
  "\u2581d\u00e1": 1988,
  "\u2581plain": 1989,
  "\u2581p\u00e9": 1990,
  "\u2581background": 1991,
  "\u2581cantidade": 1992,
  "\u2581enabled": 1993,
  "im": 1994,
  "\u2581Remus": 1995,
  "\u2581above": 1996,
  "\u2581di\u00f1eiro": 1997,
  "\u2581manter": 1998,
  "\u2581tried": 1999,
  "\u2581Estado": 2000,
  "\u2581filla": 2001,
  "\u2581speed": 2002,
  "\u2581v\u00eddeo": 2003,
  "\u25812)": 2004,
  "\u2581Send": 2005,
  "\u2581crazy": 2006,
  "\u2581dispo\u00f1\u00edbel": 2007,
  "\u2581puntos": 2008,
  "\u258118": 2009,
  "\u25811:": 2010,
  "\u2581Rei": 2011,
  "\u2581global": 2012,
  "\u2581listen": 2013,
  "\u2581m\u00e1ximo": 2014,
  "\u2581Configuration": 2015,
  "\u2581Control": 2016,
  "\u2581exists": 2017,
  "\u2581forza": 2018,
  "\u2581lists": 2019,
  "\u2581Cal": 2020,
  "\u2581Help": 2021,
  "\u2581allow": 2022,
  "\u2581sister": 2023,
  "\u2581Hall": 2024,
  "\u2581bits": 2025,
  "\u2581memory": 2026,
  "\u2581pobo": 2027,
  "\u2581self": 2028,
  "\u2581Mover": 2029,
  "\u2581Paris": 2030,
  "\u2581bottom": 2031,
  "\u2581estaban": 2032,
  "\u2581exist": 2033,
  "\u2581looked": 2034,
  "land": 2035,
  "\u2581Desktop": 2036,
  "\u2581sab\u00eda": 2037,
  "NAME": 2038,
  "\u2581..": 2039,
  "\u2581Auto": 2040,
  "\u2581grupos": 2041,
  "\u2581irm\u00e1": 2042,
  "\u2581mill\u00f3ns": 2043,
  "\u2581taking": 2044,
  "\u2581George": 2045,
  "\u2581h": 2046,
  "\u2581operation": 2047,
  "\u2581service": 2048,
  "\u2581thinking": 2049,
  "non": 2050,
  "\u2581forte": 2051,
  "ha": 2052,
  "idade": 2053,
  "\u2581orixinal": 2054,
  "\u2581taken": 2055,
  "\u2581tonight": 2056,
  "\u2581Podes": 2057,
  "\u2581forget": 2058,
  "\u2581profile": 2059,
  "\u2581share": 2060,
  "\u00edn": 2061,
  "\u2581Internet": 2062,
  "\u2581acerca": 2063,
  "\u2581auto": 2064,
  "\u2581c\u00e1mara": 2065,
  "\u2581dados": 2066,
  "\u2581future": 2067,
  "\u2581maybe": 2068,
  "\u2581\\\\": 2069,
  "\u2581gets": 2070,
  "\u2581news": 2071,
  "\u2581pro": 2072,
  "\u2581resultado": 2073,
  "\u2581%3": 2074,
  "\u2581Robert": 2075,
  "\u2581Sir": 2076,
  "\u2581drop": 2077,
  "\u2581kids": 2078,
  "\u2581mesa": 2079,
  "\u2581tooltip": 2080,
  "po": 2081,
  "\u2581beautiful": 2082,
  "\u2581completa": 2083,
  "\u2581computer": 2084,
  "\u2581execuci\u00f3n": 2085,
  "\u2581Place": 2086,
  "\u2581longo": 2087,
  "\u2581lonxe": 2088,
  "\u2581saved": 2089,
  "\u2581animals": 2090,
  "\u2581root": 2091,
  "J": 2092,
  "\u2581Hide": 2093,
  "\u2581Invalid": 2094,
  "\u2581Thanks": 2095,
  "\u2581ferramenta": 2096,
  "\u2581finished": 2097,
  "\u2581Estamos": 2098,
  "\u2581Ho": 2099,
  "\u2581S\u00edntoo": 2100,
  "\u2581escollida": 2101,
  "\u2581hit": 2102,
  "\u2581procurar": 2103,
  "\u2581su": 2104,
  "\u2581varias": 2105,
  "\u2581walk": 2106,
  ".]": 2107,
  "fa": 2108,
  "ity": 2109,
  "ntroduza": 2110,
  "sa": 2111,
  "\u2581Esa": 2112,
  "\u2581Los": 2113,
  "\u2581caixa": 2114,
  "\u2581sorte": 2115,
  "\u2581Marce": 2116,
  "\u2581bastante": 2117,
  "\u2581filme": 2118,
  "\u2581icona": 2119,
  "\u2581riba": 2120,
  "\u2581seguintes": 2121,
  "\u2581teclado": 2122,
  "\u2581usuarios": 2123,
  "\u2581Importar": 2124,
  "\u2581Make": 2125,
  "\u2581acceso": 2126,
  "\u2581manual": 2127,
  "\u2581poor": 2128,
  "\u2581Up": 2129,
  "\u2581demais": 2130,
  "\u2581guys": 2131,
  "\u2581vexo": 2132,
  "\u2581character": 2133,
  "\u2581etiqueta": 2134,
  "\u2581Our": 2135,
  "\u2581Sei": 2136,
  "\u2581durmir": 2137,
  "\u2581fixen": 2138,
  "\u2581known": 2139,
  "\u2581remote": 2140,
  "\u2581sangue": 2141,
  "am": 2142,
  "\u2581%1:": 2143,
  "\u2581axudar": 2144,
  "\u2581entrar": 2145,
  "\u2581fora": 2146,
  "\u2581kalarm": 2147,
  "of": 2148,
  "\u2581Run": 2149,
  "\u2581brought": 2150,
  "\u2581deben": 2151,
  "\u2581detalles": 2152,
  "\u2581entradas": 2153,
  "\u2581looks": 2154,
  "\u2581morto": 2155,
  "\u2581sinala": 2156,
  "\u2581somos": 2157,
  "\u2581supported": 2158,
  "\u00f3n": 2159,
  "\u2581Konqueror": 2160,
  "\u2581comida": 2161,
  "\u2581sete": 2162,
  "\u2581\u00fanica": 2163,
  "No": 2164,
  "\u2581Mode": 2165,
  "\u2581certain": 2166,
  "\u2581marchar": 2167,
  "\u2581proba": 2168,
  "id": 2169,
  "\u2581Two": 2170,
  "\u2581content": 2171,
  "\u2581folders": 2172,
  "\u2581partes": 2173,
  "\u2581resource": 2174,
  "\"?": 2175,
  "\u2581esas": 2176,
  "\u2581escola": 2177,
  "\u2581lady": 2178,
  "\u2581rota": 2179,
  "\u2581stuff": 2180,
  "tor": 2181,
  "\u2581Qt": 2182,
  "\u2581facendo": 2183,
  "\u2581hospital": 2184,
  "\u2581tentar": 2185,
  "\u2581Ca": 2186,
  "\u2581Clear": 2187,
  "\u2581load": 2188,
  "\u2581outside": 2189,
  "\u2581town": 2190,
  "\u2581Miss": 2191,
  "\u2581articles": 2192,
  "\u2581feliz": 2193,
  "\u2581preciso": 2194,
  "\u2581Cada": 2195,
  "\u2581York": 2196,
  "\u2581learn": 2197,
  "\u2581xogar": 2198,
  "\u2581obxectos": 2199,
  "\u2581playing": 2200,
  "\u2581soa": 2201,
  "\u2581Johnny": 2202,
  "\u2581North": 2203,
  "\u2581impresi\u00f3n": 2204,
  "\u2581l\u00edmite": 2205,
  "\u2581music": 2206,
  "\u2581m\u00fasica": 2207,
  "\u2581polas": 2208,
  "\u2581English": 2209,
  "\u2581Project": 2210,
  "\u2581Sub": 2211,
  "\u2581Toolbar": 2212,
  "\u2581Villarino": 2213,
  "\u2581cold": 2214,
  "\u2581hour": 2215,
  "\u2581inlistbox": 2216,
  "\u2581sign": 2217,
  "\u2581sol": 2218,
  "\u2581worry": 2219,
  "\u2581Copiar": 2220,
  "\u2581Da": 2221,
  "\u2581Like": 2222,
  "\u2581ain": 2223,
  "\u2581entries": 2224,
  "\u2581everyone": 2225,
  "\u2581itself": 2226,
  "\u2581propia": 2227,
  "\u2581return": 2228,
  "\u2581sentido": 2229,
  "\u2581\u00e9xito": 2230,
  "tar": 2231,
  "\u2581(\"": 2232,
  "\u2581Web": 2233,
  "\u2581girls": 2234,
  "\u2581paz": 2235,
  "\u2581phone": 2236,
  "ER": 2237,
  "\u2581France": 2238,
  "\u2581Key": 2239,
  "\u2581cambiar": 2240,
  "\u2581continue": 2241,
  "MB": 2242,
  "\u258125": 2243,
  "\u2581Information": 2244,
  "\u2581al": 2245,
  "\u2581desco\u00f1ecido": 2246,
  "\u2581merda": 2247,
  "he": 2248,
  "orecast": 2249,
  "\u2581French": 2250,
  "\u2581based": 2251,
  "\u2581problems": 2252,
  "\u2581ter\u00e1": 2253,
  "\u2581CVS": 2254,
  "\u2581often": 2255,
  "\u2581pasado": 2256,
  "\u2581xusto": 2257,
  "\u2581Fai": 2258,
  "\u2581Normal": 2259,
  "\u2581Par\u00eds": 2260,
  "\u2581Windows": 2261,
  "\u2581clear": 2262,
  "\u2581married": 2263,
  "\u2581varios": 2264,
  "\u2581extra": 2265,
  "\u2581paper": 2266,
  "\u2581p\u00e1xinas": 2267,
  "\u2581Exportar": 2268,
  "\u2581Sorry": 2269,
  "\u2581moving": 2270,
  "\u2581previa": 2271,
  "sta": 2272,
  "\u2581daughter": 2273,
  "\u2581takes": 2274,
  "\u2581terminal": 2275,
  "\u2581Even": 2276,
  "\u2581Seleccion": 2277,
  "\u2581movemento": 2278,
  "\u2581opened": 2279,
  "\u2581v": 2280,
  "fi": 2281,
  "\u2581Li": 2282,
  "\u2581exactly": 2283,
  "\u2581needed": 2284,
  "\u2581pais": 2285,
  "\u2581proxy": 2286,
  "ni": 2287,
  "unit": 2288,
  "\u2581Listen": 2289,
  "\u2581animal": 2290,
  "\u2581police": 2291,
  "\u2581propio": 2292,
  "\u2581tivo": 2293,
  "ira": 2294,
  "\u2581GUI": 2295,
  "\u2581block": 2296,
  "\u2581died": 2297,
  "\u2581tree": 2298,
  "lla": 2299,
  "\u00c9": 2300,
  "\u2581Dixo": 2301,
  "\u2581chamar": 2302,
  "\u2581sala": 2303,
  "\u2581sense": 2304,
  "\u2581seven": 2305,
  "gar": 2306,
  "ine": 2307,
  "\u258104": 2308,
  "\u2581Ficheiros": 2309,
  "\u2581Filtro": 2310,
  "\u2581Formato": 2311,
  "\u2581Play": 2312,
  "\u2581Video": 2313,
  "\u2581leva": 2314,
  "\u2581modificar": 2315,
  "\u2581sea": 2316,
  "\u2581sinatura": 2317,
  "\u2581standard": 2318,
  "\u2581theme": 2319,
  "real": 2320,
  "\u2581Address": 2321,
  "\u2581Alicia": 2322,
  "\u2581Daquela": 2323,
  "\u2581Vietnam": 2324,
  "\u2581estar\u00e1": 2325,
  "\u2581futuro": 2326,
  "\u2581print": 2327,
  "What": 2328,
  "ria": 2329,
  "\u2581Gregor": 2330,
  "\u2581applications": 2331,
  "\u2581lose": 2332,
  "\u2581result": 2333,
  "\u2581session": 2334,
  "\u2581trust": 2335,
  "ke": 2336,
  "\u2581+": 2337,
  "\u2581Parece": 2338,
  "\u2581centro": 2339,
  "\u2581eight": 2340,
  "\u2581foto": 2341,
  "\u2581store": 2342,
  "por": 2343,
  "\u2581Ei": 2344,
  "\u2581Lu": 2345,
  "\u2581Would": 2346,
  "\u2581appear": 2347,
  "\u2581digiKam": 2348,
  "\u2581importar": 2349,
  "\u2581impresora": 2350,
  "\u2581past": 2351,
  "\u2581persoal": 2352,
  "\u2581puta": 2353,
  "\u2581p\u00f3dese": 2354,
  "\u2581round": 2355,
  "\u2581Mi": 2356,
  "\u2581Very": 2357,
  "\u2581manager": 2358,
  "\u2581paso": 2359,
  "\u2581tolo": 2360,
  "ido": 2361,
  "\u258124": 2362,
  "\u2581Axuda": 2363,
  "\u2581Ser": 2364,
  "\u2581Tempo": 2365,
  "\u2581White": 2366,
  "\u2581buy": 2367,
  "\u2581details": 2368,
  "\u2581plan": 2369,
  "ble": 2370,
  "\u2581aparece": 2371,
  "\u2581faga": 2372,
  "\u2581tag": 2373,
  "\u2581trouble": 2374,
  "ando": 2375,
  "ex": 2376,
  "\u2581Font": 2377,
  "\u2581Pre": 2378,
  "\u2581cu": 2379,
  "\u2581install": 2380,
  "\u2581required": 2381,
  "\u2581Nepomuk": 2382,
  "\u2581boca": 2383,
  "\u2581cadra": 2384,
  "\u2581dela": 2385,
  "\u2581emprega": 2386,
  "\u2581espera": 2387,
  "\u2581food": 2388,
  "\u2581husband": 2389,
  "\u2581ve": 2390,
  "\u2581works": 2391,
  "\u2581Ha": 2392,
  "\u2581slot": 2393,
  "\u2581unknown": 2394,
  "\u2581windows": 2395,
  "\u2581Format": 2396,
  "\u2581felt": 2397,
  "\u2581history": 2398,
  "\u2581shot": 2399,
  "\u2581translation": 2400,
  "\u2581turned": 2401,
  "\u2581velocidade": 2402,
  "AR": 2403,
  "\u2581Eles": 2404,
  "\u2581Jo": 2405,
  "\u2581People": 2406,
  "\u2581air": 2407,
  "\u2581coller": 2408,
  "\u2581letter": 2409,
  "\u2581pista": 2410,
  "\u2581r\u00faa": 2411,
  "\u2581seem": 2412,
  "\u2581template": 2413,
  "\u2581ter\u00eda": 2414,
  "if": 2415,
  "\u2581American": 2416,
  "\u2581^^": 2417,
  "\u2581asunto": 2418,
  "\u2581oito": 2419,
  "\u2581rapaza": 2420,
  "\u2581style": 2421,
  "ouse": 2422,
  "\u2581Tab": 2423,
  "\u2581columna": 2424,
  "\u2581libro": 2425,
  "\u2581port": 2426,
  "ist": 2427,
  "\u2581camera": 2428,
  "\u2581characters": 2429,
  "\u2581funciona": 2430,
  "ita": 2431,
  "\u2581Inserir": 2432,
  "\u2581Meu": 2433,
  "\u2581chance": 2434,
  "\u2581colors": 2435,
  "\u2581ex\u00e9rcito": 2436,
  "\u2581seconds": 2437,
  "gue": 2438,
  "\u2581effect": 2439,
  "\u2581moita": 2440,
  "\u2581po": 2441,
  "\u2581public": 2442,
  "\u2581xefe": 2443,
  "\u2581Description": 2444,
  "\u2581Mar": 2445,
  "\u2581Sure": 2446,
  "\u2581activar": 2447,
  "\u2581al\u00f3": 2448,
  "\u2581break": 2449,
  "\u2581multiple": 2450,
  "\u2581perder": 2451,
  "9": 2452,
  "j": 2453,
  "\u2581Logo": 2454,
  "\u2581ROMEO": 2455,
  "\u2581escoitar": 2456,
  "\u2581ideas": 2457,
  "\u2581recursos": 2458,
  "ty": 2459,
  "world": 2460,
  "\u25811%": 2461,
  "\u2581complete": 2462,
  "\u2581mi": 2463,
  "\u2581particular": 2464,
  "\u2581row": 2465,
  "\u2581sit": 2466,
  "\u2581voso": 2467,
  "\u2581xestor": 2468,
  "du": 2469,
  "\u2581Copyright": 2470,
  "\u2581Does": 2471,
  "\u2581Find": 2472,
  "\u2581amount": 2473,
  "\u2581dado": 2474,
  "\u2581hurt": 2475,
  "\u2581lives": 2476,
  "\u2581queda": 2477,
  "\u2581track": 2478,
  "ment": 2479,
  "ster": 2480,
  "\u2581Akonadi": 2481,
  "\u2581P\u00e1xina": 2482,
  "\u2581fall": 2483,
  "\u2581falta": 2484,
  "\u2581writing": 2485,
  "\u2581\u00fatil": 2486,
  "integer": 2487,
  "\u2581Am\u00e9rica": 2488,
  "\u2581Xogo": 2489,
  "\u2581aprender": 2490,
  "\u2581chamada": 2491,
  "\u2581chamado": 2492,
  "\u2581gold": 2493,
  "\u2581near": 2494,
  "\u2581predeterminado": 2495,
  "\u2581seleccionado": 2496,
  "\u2581u": 2497,
  "cio": 2498,
  "ol": 2499,
  "\u2581Poder\u00eda": 2500,
  "\u2581map": 2501,
  "\u2581section": 2502,
  "\u2581segundos": 2503,
  "\u2581useful": 2504,
  "\u2581Line": 2505,
  "\u2581Media": 2506,
  "\u2581lixo": 2507,
  "mi": 2508,
  "\u2581Local": 2509,
  "\u2581enriba": 2510,
  "amp": 2511,
  "\u2581Free": 2512,
  "\u2581digo": 2513,
  "\u2581nove": 2514,
  "\u2581simplemente": 2515,
  "\u2581veu": 2516,
  "ate": 2517,
  "\u2581Manager": 2518,
  "\u2581South": 2519,
  "\u2581fucking": 2520,
  "\u2581met": 2521,
  "\u2581mil": 2522,
  "\u2581step": 2523,
  "\u2581task": 2524,
  "\u2581voice": 2525,
  "ian": 2526,
  "\u2581Document": 2527,
  "\u2581Ningu\u00e9n": 2528,
  "\u2581Vi": 2529,
  "\u2581age": 2530,
  "\u2581chan": 2531,
  "\u2581company": 2532,
  "\u2581pol\u00edtica": 2533,
  "\u2581premer": 2534,
  "\u2581Application": 2535,
  "\u2581Deixa": 2536,
  "\u2581buscar": 2537,
  "\u2581ceo": 2538,
  "\u2581est\u00e1ndar": 2539,
  "\u2581quedar": 2540,
  "#": 2541,
  "ah": 2542,
  "tic": 2543,
  "\u00f1a": 2544,
  "\u258114": 2545,
  "\u2581Lo": 2546,
  "\u2581Properties": 2547,
  "\u2581Ro": 2548,
  "\u2581alto": 2549,
  "\u2581anyway": 2550,
  "\u2581drive": 2551,
  "\u2581especial": 2552,
  "et": 2553,
  "\u2581Canto": 2554,
  "\u2581MB": 2555,
  "\u2581Xestor": 2556,
  "\u2581eye": 2557,
  "\u2581moza": 2558,
  "\u2581range": 2559,
  "by": 2560,
  "ho": 2561,
  "ntes": 2562,
  "\u2581Adeus": 2563,
  "\u2581Bar": 2564,
  "\u2581duro": 2565,
  "\u2581fotos": 2566,
  "\u2581method": 2567,
  "\u2581modificaci\u00f3ns": 2568,
  "\u2581signature": 2569,
  "\u2581Per": 2570,
  "\u2581custom": 2571,
  "\u2581ho": 2572,
  "De": 2573,
  "\u258140": 2574,
  "\u2581Alt": 2575,
  "\u2581miles": 2576,
  "\u2581ra\u00ed\u00f1a": 2577,
  "\u2581toolbar": 2578,
  "\u2581Cartafol": 2579,
  "\u2581deu": 2580,
  "\u2581existing": 2581,
  "\u2581fronte": 2582,
  "\u2581remate": 2583,
  "\u2581tel\u00e9fono": 2584,
  "white": 2585,
  "\u2581Te": 2586,
  "\u2581element": 2587,
  "\u2581original": 2588,
  "\u2581probas": 2589,
  "\u2581several": 2590,
  "Si": 2591,
  "ad": 2592,
  "\u2581Hoxe": 2593,
  "\u2581Pensa": 2594,
  "\u2581comezo": 2595,
  "\u2581din": 2596,
  "\u2581evening": 2597,
  "\u2581fala": 2598,
  "\u2581le": 2599,
  "\u2581secci\u00f3n": 2600,
  "\u2581target": 2601,
  "\u2581client": 2602,
  "\u2581cliente": 2603,
  "\u2581desa": 2604,
  "hether": 2605,
  "si": 2606,
  "\u2581acci\u00f3ns": 2607,
  "\u2581large": 2608,
  "\u2581pap\u00e1": 2609,
  "\u2581post": 2610,
  "\u2581Red": 2611,
  "\u2581v\u00e1lida": 2612,
  "\")": 2613,
  "Z": 2614,
  "ten": 2615,
  "\u2581allowed": 2616,
  "\u2581correct": 2617,
  "\u2581detr\u00e1s": 2618,
  "\u2581happens": 2619,
  "\u2581sun": 2620,
  "\u2581tecla": 2621,
  "\u2581vale": 2622,
  "\u2581Asia": 2623,
  "\u2581Log": 2624,
  "\u2581N\u00f3s": 2625,
  "\u2581alive": 2626,
  "\u2581comezou": 2627,
  "\u2581expresi\u00f3n": 2628,
  "\u2581index": 2629,
  "\u2581resto": 2630,
  "\u2581usando": 2631,
  "\u2581vosa": 2632,
  "line": 2633,
  "ling": 2634,
  "\u2581Pro": 2635,
  "\u2581P\u00f3dese": 2636,
  "\u2581blue": 2637,
  "\u2581conxunto": 2638,
  "\u2581office": 2639,
  "\u2581AND": 2640,
  "\u2581About": 2641,
  "\u2581David": 2642,
  "\u2581colecci\u00f3n": 2643,
  "\u2581due": 2644,
  "\u2581note": 2645,
  "bit": 2646,
  "son": 2647,
  "\u2581nine": 2648,
  "bi": 2649,
  "\u2581Ma": 2650,
  "\u2581vertical": 2651,
  "10": 2652,
  "\u2581Angeles": 2653,
  "\u2581Black": 2654,
  "\u2581Her": 2655,
  "\u2581Mail": 2656,
  "\u2581clicking": 2657,
  "\u2581completo": 2658,
  "\u2581contact": 2659,
  "\u2581Audio": 2660,
  "\u2581Watch": 2661,
  "\u2581descrici\u00f3n": 2662,
  "\u2581download": 2663,
  "\u2581guess": 2664,
  "\u2581hide": 2665,
  "\u2581ones": 2666,
  "\u2581vaia": 2667,
  "ies": 2668,
  "\u2581Mark": 2669,
  "\u2581director": 2670,
  "\u2581feeling": 2671,
  ";}": 2672,
  "ent": 2673,
  "\u2581Chi": 2674,
  "\u2581Down": 2675,
  "\u2581gas": 2676,
  "\u2581importaci\u00f3n": 2677,
  "\u2581alta": 2678,
  "\u2581boys": 2679,
  "\u2581bug": 2680,
  "\u2581chama": 2681,
  "\u2581closed": 2682,
  "\u2581contents": 2683,
  "\u2581disk": 2684,
  "\u2581goberno": 2685,
  "\u2581ground": 2686,
  "\u2581hot": 2687,
  "IN": 2688,
  "\u2581Est\u00e1n": 2689,
  "\u2581queren": 2690,
  "\u2581seguridade": 2691,
  "tan": 2692,
  "\u2581Ti\u00f1a": 2693,
  "\u2581culpa": 2694,
  "\u2581fast": 2695,
  "\u2581reproduci\u00f3n": 2696,
  "\u2581till": 2697,
  "\u2581Draw": 2698,
  "\u2581More": 2699,
  "\u2581Out": 2700,
  "\u2581Password": 2701,
  "\u2581canal": 2702,
  "\u2581cost": 2703,
  "Description": 2704,
  "ja": 2705,
  "\u2581Python": 2706,
  "\u2581Thomas": 2707,
  "\u2581army": 2708,
  "\u2581folla": 2709,
  "\u2581Command": 2710,
  "\u2581Never": 2711,
  "\u2581Valor": 2712,
  "\u2581category": 2713,
  "\u2581dispo\u00f1\u00edbeis": 2714,
  "\u2581feet": 2715,
  "\u2581previous": 2716,
  "\u2581contacto": 2717,
  "It": 2718,
  "\u2581Really": 2719,
  "\u2581aire": 2720,
  "\u2581entered": 2721,
  "\u2581marcadores": 2722,
  "\u2581preview": 2723,
  "\u2581sequera": 2724,
  "\u2581sick": 2725,
  "ck": 2726,
  "\u2581California": 2727,
  "\u2581Descrici\u00f3n": 2728,
  "\u2581MIME": 2729,
  "\u2581Mensaxe": 2730,
  "\u2581Sobre": 2731,
  "\u2581certificados": 2732,
  "\u2581dream": 2733,
  "\u2581r\u00e1pida": 2734,
  "\u2581sky": 2735,
  "\u00e1s": 2736,
  "\u2581Executar": 2737,
  "\u2581edici\u00f3n": 2738,
  "\u2581expression": 2739,
  "\u2581missing": 2740,
  "\u2581mozo": 2741,
  "\u2581usado": 2742,
  "\u2581yeah": 2743,
  "iro": 2744,
  "st": 2745,
  "\u258117": 2746,
  "\u2581Connection": 2747,
  "\u2581HTTP": 2748,
  "\u2581cards": 2749,
  "\u2581cause": 2750,
  "\u2581disabled": 2751,
  "\u2581header": 2752,
  "\u2581iconas": 2753,
  "\u2581lume": 2754,
  "\u2581shell": 2755,
  "\u2581una": 2756,
  "\u2581written": 2757,
  "\u2581Every": 2758,
  "\u2581Michael": 2759,
  "\u2581across": 2760,
  "\u2581contain": 2761,
  "\u2581instalaci\u00f3n": 2762,
  "\u2581nena": 2763,
  "\u2581soporte": 2764,
  "\u2581t\u00edo": 2765,
  "\u2581usa": 2766,
  "\u2581vivo": 2767,
  "car": 2768,
  "\u2581Mo": 2769,
  "\u2581Player": 2770,
  "\u2581Which": 2771,
  "\u2581axi\u00f1a": 2772,
  "\u2581comeza": 2773,
  "\u2581filename": 2774,
  "\u2581moved": 2775,
  "\u2581porto": 2776,
  "\u2581reading": 2777,
  "\u2581t\u00faas": 2778,
  "\u2581\u00edndice": 2779,
  "ish": 2780,
  "rio": 2781,
  "\u2581Base": 2782,
  "\u2581F\u00f3ra": 2783,
  "\u2581chegou": 2784,
  "\u2581count": 2785,
  "\u2581pagar": 2786,
  "\u2581player": 2787,
  "\u2581predeterminada": 2788,
  "q": 2789,
  "\u2581A\u00ed": 2790,
  "\u2581Press": 2791,
  "\u2581Xeral": 2792,
  "\u2581ahead": 2793,
  "\u2581cela": 2794,
  "\u2581escala": 2795,
  "\u2581middle": 2796,
  "\u2581preme": 2797,
  "\u2581qu\u00e9": 2798,
  "\u2581simply": 2799,
  "\u2581terrible": 2800,
  "\u2581thank": 2801,
  "ig": 2802,
  "ko": 2803,
  "time": 2804,
  "\u2581Device": 2805,
  "\u2581Ferramenta": 2806,
  "\u2581IMAP": 2807,
  "\u2581Pechar": 2808,
  "\u2581Try": 2809,
  "\u2581Written": 2810,
  "\u2581follow": 2811,
  "\u2581host": 2812,
  "\u2581po\u00f1er": 2813,
  "\u2581situaci\u00f3n": 2814,
  "op": 2815,
  "\u2581correcto": 2816,
  "\u2581direcci\u00f3n": 2817,
  "\u2581indica": 2818,
  "\u2581low": 2819,
  "\u2581relaci\u00f3n": 2820,
  "\u2581abondo": 2821,
  "\u2581couple": 2822,
  "\u2581export": 2823,
  "\u2581hair": 2824,
  "\u2581kspread": 2825,
  "\u2581objects": 2826,
  "\u2581remoto": 2827,
  "\u2581ve\u00f1a": 2828,
  "\u2581Estes": 2829,
  "\u2581Menu": 2830,
  "\u2581Selection": 2831,
  "\u2581alarms": 2832,
  "\u2581baixa": 2833,
  "\u2581cifrado": 2834,
  "\u2581comandos": 2835,
  "\u2581deal": 2836,
  "\u2581execute": 2837,
  "\u2581force": 2838,
  "\u2581idade": 2839,
  "\u2581liberdade": 2840,
  "\u2581querida": 2841,
  "bra": 2842,
  "eg": 2843,
  "ina": 2844,
  "nt": 2845,
  "one": 2846,
  "\u2581Call": 2847,
  "\u2581contar": 2848,
  "cos": 2849,
  "\u25812000": 2850,
  "\u2581Garda": 2851,
  "\u2581campos": 2852,
  "\u2581dog": 2853,
  "\u2581seleccionar": 2854,
  "\u2581Case": 2855,
  "\u2581Modificar": 2856,
  "\u2581added": 2857,
  "\u2581aplicaci\u00f3n": 2858,
  "\u2581choice": 2859,
  "\u2581context": 2860,
  "\u2581d\u00f3lares": 2861,
  "\u2581marca": 2862,
  "\u2581square": 2863,
  "r\u00e9": 2864,
  "tion": 2865,
  "\u2581Home": 2866,
  "\u2581Iniciar": 2867,
  "\u2581Port": 2868,
  "\u2581aren": 2869,
  "\u2581caderno": 2870,
  "\u2581gravar": 2871,
  "\u2581lingua": 2872,
  "\u2581minuto": 2873,
  "\u2581piece": 2874,
  "\u2581virtual": 2875,
  "ler": 2876,
  "ume": 2877,
  "\u2581None": 2878,
  "\u2581began": 2879,
  "\u2581update": 2880,
  "*": 2881,
  "\u2581%2.": 2882,
  "\u2581Joe": 2883,
  "\u2581LDAP": 2884,
  "\u2581enable": 2885,
  "\u2581government": 2886,
  "\u2581imprimir": 2887,
  "den": 2888,
  "\u2581Jeeves": 2889,
  "\u2581autenticaci\u00f3n": 2890,
  "\u2581cinema": 2891,
  "\u2581connect": 2892,
  "\u2581ligaz\u00f3n": 2893,
  "\u2581mirar": 2894,
  "\u2581z": 2895,
  "\u25810.": 2896,
  "\u2581Autor": 2897,
  "\u2581Paul": 2898,
  "\u2581calidade": 2899,
  "\u2581collection": 2900,
  "\u2581gun": 2901,
  "\u2581million": 2902,
  "\u2581nel": 2903,
  "\u2581packages": 2904,
  "\u2581party": 2905,
  "\u2581pensa": 2906,
  "\u2581road": 2907,
  "\u2581Abre": 2908,
  "\u2581Cancelar": 2909,
  "\u2581Toggle": 2910,
  "\u2581T\u00edtulo": 2911,
  "\u2581anymore": 2912,
  "\u2581fr\u00edo": 2913,
  "\u2581inicial": 2914,
  "\u2581points": 2915,
  "\u2581uses": 2916,
  "ados": 2917,
  "\u2581Custom": 2918,
  "\u2581OpenPGP": 2919,
  "\u2581Primeiro": 2920,
  "\u2581hate": 2921,
  "\u2581huh": 2922,
  "\u2581law": 2923,
  "\u2581noites": 2924,
  "\u2581starting": 2925,
  "\u2581velo": 2926,
  "hi": 2927,
  "nd": 2928,
  "nia": 2929,
  "xi": 2930,
  "\u2581Neste": 2931,
  "\u2581SSL": 2932,
  "\u2581Vaia": 2933,
  "\u2581Van": 2934,
  "\u2581asistente": 2935,
  "\u2581leaving": 2936,
  "\u2581necessary": 2937,
  "\u2581pa": 2938,
  "\u2581queen": 2939,
  "\u2581shit": 2940,
  "\u2581widgets": 2941,
  "ive": 2942,
  "\u2581Ed": 2943,
  "\u2581Limpar": 2944,
  "\u2581limit": 2945,
  "\u2581resultados": 2946,
  "name": 2947,
  "\u2581Database": 2948,
  "\u2581Main": 2949,
  "\u2581daquela": 2950,
  "\u2581draw": 2951,
  "\u2581especificar": 2952,
  "\u2581kept": 2953,
  "\u2581named": 2954,
  "\u2581orixe": 2955,
  "\u2581played": 2956,
  "\u2581sometimes": 2957,
  "Re": 2958,
  "ot": 2959,
  "ut": 2960,
  "{": 2961,
  "\u2581Lembre": 2962,
  "\u2581Total": 2963,
  "\u2581acceder": 2964,
  "\u2581asking": 2965,
  "\u2581bot\u00f3ns": 2966,
  "\u2581entire": 2967,
  "\u2581escollidos": 2968,
  "\u2581expect": 2969,
  "\u2581grave": 2970,
  "\u2581record": 2971,
  "\u2581temas": 2972,
  "\u2581thou": 2973,
  "ki": 2974,
  "stes": 2975,
  "\u2581Advanced": 2976,
  "\u2581Escolle": 2977,
  "\u2581Script": 2978,
  "\u2581Seguro": 2979,
  "\u2581Top": 2980,
  "\u2581beginning": 2981,
  "\u2581contrario": 2982,
  "\u2581fe": 2983,
  "\u2581mira": 2984,
  "\u2581mm": 2985,
  "\u2581Extensi\u00f3n": 2986,
  "\u2581Norte": 2987,
  "\u2581Put": 2988,
  "\u2581Ra": 2989,
  "\u2581Servidor": 2990,
  "\u2581Tool": 2991,
  "\u2581Update": 2992,
  "\u2581busy": 2993,
  "\u2581clipboard": 2994,
  "\u2581deixa": 2995,
  "\u2581m\u00e1quina": 2996,
  "\u2581negocio": 2997,
  "star": 2998,
  "ya": 2999,
  "\u2581Hora": 3000,
  "\u2581Pi": 3001,
  "\u2581build": 3002,
  "\u2581datas": 3003,
  "\u2581kid": 3004,
  "\u2581pan": 3005,
  "\u2581peor": 3006,
  "\u2581rate": 3007,
  "Oh": 3008,
  "Pa": 3009,
  "\u2581Leave": 3010,
  "\u2581Title": 3011,
  "\u2581cambios": 3012,
  "\u2581efecto": 3013,
  "\u2581localizaci\u00f3n": 3014,
  "\u2581loita": 3015,
  "\u2581morreu": 3016,
  "\u2581oportunidade": 3017,
  "\u2581somebody": 3018,
  "\u2581Romeo": 3019,
  "\u2581Status": 3020,
  "\u2581US": 3021,
  "\u2581agardar": 3022,
  "\u2581documentos": 3023,
  "\u2581environment": 3024,
  "\u2581forward": 3025,
  "\u2581peace": 3026,
  "\u2581rapaces": 3027,
  "\u2581similar": 3028,
  "\u2581xunto": 3029,
  "\u2581\u00c1s": 3030,
  "ng": 3031,
  "out": 3032,
  "ted": 3033,
  "\u25812007": 3034,
  "\u2581Cancel": 3035,
  "\u2581KMyMoney": 3036,
  "\u2581Martin": 3037,
  "\u2581Other": 3038,
  "\u2581author": 3039,
  "\u2581born": 3040,
  "\u2581conseguir": 3041,
  "\u2581defined": 3042,
  "\u2581encryption": 3043,
  "\u2581exactamente": 3044,
  "\u2581properties": 3045,
  "\u2581street": 3046,
  "\u2581tiven": 3047,
  "usa": 3048,
  "ven": 3049,
  "\u2581documentation": 3050,
  "\u2581instalar": 3051,
  "\u2581region": 3052,
  "xa": 3053,
  "\u2581caf\u00e9": 3054,
  "\u2581diagrama": 3055,
  "\u2581enemy": 3056,
  "\u2581equipo": 3057,
  "\u2581id": 3058,
  "\u2581private": 3059,
  "\u2581supposed": 3060,
  "\u2581wanna": 3061,
  "port": 3062,
  "ste": 3063,
  "\u258101": 3064,
  "\u2581Background": 3065,
  "\u2581Carson": 3066,
  "\u2581arquivo": 3067,
  "\u2581autom\u00e1tica": 3068,
  "\u2581carga": 3069,
  "\u2581contas": 3070,
  "\u2581everybody": 3071,
  "\u2581identidade": 3072,
  "\u2581lie": 3073,
  "\u2581n\u00fameros": 3074,
  "\u2581par\u00e1metros": 3075,
  "\u2581pobre": 3076,
  "\u2581suficiente": 3077,
  "\u2581touch": 3078,
  "ino": 3079,
  "ung": 3080,
  "\u2581300": 3081,
  "\u2581DO": 3082,
  "\u2581Lannister": 3083,
  "\u2581Location": 3084,
  "\u2581PPP": 3085,
  "\u2581Rock": 3086,
  "\u2581bandexa": 3087,
  "\u2581empregando": 3088,
  "\u2581encoding": 3089,
  "\u2581rain": 3090,
  "\u2581rematar": 3091,
  "\u2581snow": 3092,
  "\u2581sy": 3093,
  "\u2581types": 3094,
  "\u2581visual": 3095,
  "\u2581\u00f3s": 3096,
  "ING": 3097,
  "com": 3098,
  "less": 3099,
  "\u2581Escoita": 3100,
  "\u2581cre": 3101,
  "\u2581early": 3102,
  "\u2581empresa": 3103,
  "\u2581estra\u00f1o": 3104,
  "\u2581gr\u00e1fico": 3105,
  "\u2581navegador": 3106,
  "\u2581ollo": 3107,
  "\u2581partition": 3108,
  "cal": 3109,
  "\u2581Acochar": 3110,
  "\u2581Colle": 3111,
  "\u2581Eh": 3112,
  "\u2581Su": 3113,
  "\u2581Three": 3114,
  "\u2581Vas": 3115,
  "\u2581coidado": 3116,
  "\u2581fame": 3117,
  "\u2581gotta": 3118,
  "\u2581lectura": 3119,
  "\u2581lei": 3120,
  "\u2581loaded": 3121,
  "\u2581natural": 3122,
  "\u2581numbers": 3123,
  "\u2581pedir": 3124,
  "\u2581quick": 3125,
  "\u2581removed": 3126,
  "\u2581rich": 3127,
  "\u2581themselves": 3128,
  "\u2581t\u00e1boa": 3129,
  "les": 3130,
  "\u2581End": 3131,
  "\u2581Light": 3132,
  "\u2581fago": 3133,
  "\u2581perhaps": 3134,
  "\u2581viu": 3135,
  "\u2581ya": 3136,
  "\u2581ME": 3137,
  "\u2581Source": 3138,
  "\u2581Vin": 3139,
  "\u2581configured": 3140,
  "\u2581external": 3141,
  "\u2581preguntar": 3142,
  "\u2581seemed": 3143,
  "fo": 3144,
  "lar": 3145,
  "\u2581Active": 3146,
  "\u2581Download": 3147,
  "\u2581Pa": 3148,
  "\u2581Tools": 3149,
  "\u2581cambio": 3150,
  "\u2581central": 3151,
  "\u2581garda": 3152,
  "\u2581hidden": 3153,
  "\u2581safe": 3154,
  "aci\u00f3n": 3155,
  "bar": 3156,
  "\u2581\"\"": 3157,
  "\u2581Dad": 3158,
  "\u2581Todas": 3159,
  "\u2581atallos": 3160,
  "\u2581conectar": 3161,
  "\u2581interest": 3162,
  "\u2581invalid": 3163,
  "\u2581malo": 3164,
  "\u2581mam\u00e1": 3165,
  "\u2581nota": 3166,
  "\u2581specific": 3167,
  "\u2581utilizar": 3168,
  "\u2581Antes": 3169,
  "\u2581Any": 3170,
  "\u2581Everything": 3171,
  "\u2581Obter": 3172,
  "\u2581Remember": 3173,
  "\u2581Sinal": 3174,
  "\u2581arredor": 3175,
  "\u2581fuck": 3176,
  "\u2581listaxe": 3177,
  "\u2581pick": 3178,
  "\u2581portarretallos": 3179,
  "\u2581protocolo": 3180,
  "ant": 3181,
  "ista": 3182,
  "\u2581Amosar": 3183,
  "\u2581CA": 3184,
  "\u2581Contrasinal": 3185,
  "\u2581Previous": 3186,
  "\u2581Sistema": 3187,
  "\u2581begin": 3188,
  "\u2581etiquetas": 3189,
  "\u2581fear": 3190,
  "\u2581nbsp": 3191,
  "\u2581pass": 3192,
  "\u2581telling": 3193,
  "\u2581\u00e1lbum": 3194,
  "gi": 3195,
  "\u2581Peter": 3196,
  "\u2581brain": 3197,
  "\u2581double": 3198,
  "\u2581evitar": 3199,
  "\u2581feature": 3200,
  "\u2581inimigo": 3201,
  "\u2581lead": 3202,
  "\u2581secret": 3203,
  "\u2581strong": 3204,
  "\u2581temporal": 3205,
  "\u2581usually": 3206,
  "\u2581worse": 3207,
  "gu": 3208,
  "\u25812,": 3209,
  "\u2581Sam": 3210,
  "\u2581West": 3211,
  "\u2581chega": 3212,
  "\u2581common": 3213,
  "\u2581dispositivos": 3214,
  "\u2581doctor": 3215,
  "\u2581land": 3216,
  "\u2581pois": 3217,
  "\u2581roupa": 3218,
  "\u2581vermello": 3219,
  "30": 3220,
  "you": 3221,
  "\u25810,": 3222,
  "\u2581Maximum": 3223,
  "\u2581Once": 3224,
  "\u2581capital": 3225,
  "\u2581horizontal": 3226,
  "\u2581library": 3227,
  "\u2581miss": 3228,
  "\u2581quickly": 3229,
  "\u2581sexan": 3230,
  "ner": 3231,
  "\u2581AT": 3232,
  "\u2581Manual": 3233,
  "\u2581Porto": 3234,
  "\u2581Quick": 3235,
  "\u2581Since": 3236,
  "\u2581Vertical": 3237,
  "\u2581aberto": 3238,
  "\u2581act": 3239,
  "\u2581fixeches": 3240,
  "\u2581honor": 3241,
  "\u2581motor": 3242,
  "\u2581ordenador": 3243,
  "\u2581pull": 3244,
  "\u2581require": 3245,
  "\u2581shoot": 3246,
  "\u2581visible": 3247,
  "cia": 3248,
  "\u25812003": 3249,
  "\u2581Importaci\u00f3n": 3250,
  "\u2581Nota": 3251,
  "\u2581Shift": 3252,
  "\u2581Tom": 3253,
  "\u2581browser": 3254,
  "\u2581casar": 3255,
  "\u2581completamente": 3256,
  "\u2581converter": 3257,
  "\u2581daemon": 3258,
  "\u2581floor": 3259,
  "\u2581focus": 3260,
  "\u2581general": 3261,
  "\u2581mellores": 3262,
  "\u2581pon": 3263,
  "\u2581security": 3264,
  "\u2581vella": 3265,
  "\u2581worked": 3266,
  "ix": 3267,
  "mail": 3268,
  "\u2581Enderezo": 3269,
  "\u2581buttons": 3270,
  "\u2581carallo": 3271,
  "\u2581gives": 3272,
  "\u2581pages": 3273,
  "\u2581premendo": 3274,
  "\u2581request": 3275,
  "\u2581serve": 3276,
  "\u2581Screen": 3277,
  "\u2581keyboard": 3278,
  "\u2581lex": 3279,
  "\u2581model": 3280,
  "\u2581printer": 3281,
  "\u2581CUPS": 3282,
  "\u2581Marvel": 3283,
  "\u2581Penso": 3284,
  "\u2581Selected": 3285,
  "\u2581enerx\u00eda": 3286,
  "\u2581entender": 3287,
  "\u2581fields": 3288,
  "\u2581link": 3289,
  "\u2581m\u00e9todo": 3290,
  "\u2581personal": 3291,
  "\u2581semanas": 3292,
  "\u2581stopped": 3293,
  "\u2581ways": 3294,
  "\u2581whose": 3295,
  "lt": 3296,
  "tura": 3297,
  "\u2581Account": 3298,
  "\u2581art": 3299,
  "\u2581banda": 3300,
  "\u2581dark": 3301,
  "\u2581editar": 3302,
  "\u2581fixeron": 3303,
  "\u2581length": 3304,
  "\u2581nese": 3305,
  "\u2581wonderful": 3306,
  "ber": 3307,
  "cer": 3308,
  "ismo": 3309,
  "ru": 3310,
  "\u2581PDF": 3311,
  "\u2581Quitar": 3312,
  "\u2581activo": 3313,
  "\u2581center": 3314,
  "\u2581filtros": 3315,
  "\u2581ga\u00f1ar": 3316,
  "\u2581inferior": 3317,
  "\u2581inter": 3318,
  "\u2581master": 3319,
  "\u2581occurred": 3320,
  "\u2581parameter": 3321,
  "\u2581pr\u00f3xima": 3322,
  "\u2581sinxelo": 3323,
  "\u2581suppose": 3324,
  "\u2581viaxe": 3325,
  "\u2581width": 3326,
  "Se": 3327,
  "ze": 3328,
  "\u2581Linux": 3329,
  "\u2581Load": 3330,
  "\u2581Output": 3331,
  "\u2581categor\u00eda": 3332,
  "\u2581define": 3333,
  "\u2581mark": 3334,
  "\u2581parec\u00eda": 3335,
  "\u2581permisos": 3336,
  "\u2581village": 3337,
  "\u2581wonder": 3338,
  "file": 3339,
  "ima": 3340,
  "\u2581Estas": 3341,
  "\u2581James": 3342,
  "\u2581causa": 3343,
  "\u2581mortos": 3344,
  "\u2581operaci\u00f3ns": 3345,
  "\u2581200": 3346,
  "\u25812009": 3347,
  "\u2581Africa": 3348,
  "\u2581Certificate": 3349,
  "\u2581GnuPG": 3350,
  "\u2581Path": 3351,
  "\u2581Uh": 3352,
  "\u2581archive": 3353,
  "\u2581lived": 3354,
  "\u2581pechar": 3355,
  "\u2581pensei": 3356,
  "\u2581sentir": 3357,
  "\u2581so\u00f1o": 3358,
  "ard": 3359,
  "\u2581Cargar": 3360,
  "\u2581Read": 3361,
  "\u2581among": 3362,
  "\u2581clean": 3363,
  "\u2581drag": 3364,
  "\u2581libros": 3365,
  "\u2581stored": 3366,
  "ida": 3367,
  "\u258160": 3368,
  "\u2581Boa": 3369,
  "\u2581Sa": 3370,
  "\u2581espazos": 3371,
  "\u2581fill": 3372,
  "\u2581f\u00e1cil": 3373,
  "\u2581machine": 3374,
  "\u2581whatever": 3375,
  "\u2581win": 3376,
  "fe": 3377,
  "\u2581Ning\u00fan": 3378,
  "\u2581PC": 3379,
  "\u2581arma": 3380,
  "\u2581commands": 3381,
  "\u2581layout": 3382,
  "\u2581obxectivo": 3383,
  "\u2581segunda": 3384,
  "\u2581Action": 3385,
  "\u2581Email": 3386,
  "\u2581LexUriServ": 3387,
  "\u2581Preview": 3388,
  "\u2581co\u00f1ece": 3389,
  "\u2581cres": 3390,
  "\u2581driver": 3391,
  "\u2581identity": 3392,
  "\u2581marido": 3393,
  "\u2581p\u00e9s": 3394,
  "\u2581situation": 3395,
  "gan": 3396,
  "lin": 3397,
  "pre": 3398,
  "\u2581Agarda": 3399,
  "\u2581D\u00e9ixame": 3400,
  "\u2581GNOME": 3401,
  "\u2581Imaxe": 3402,
  "\u2581Link": 3403,
  "\u2581Pon": 3404,
  "\u2581Seguinte": 3405,
  "\u2581Test": 3406,
  "\u2581Was": 3407,
  "\u2581bytes": 3408,
  "\u2581groups": 3409,
  "\u2581ingl\u00e9s": 3410,
  "\u2581manage": 3411,
  "\u2581rock": 3412,
  "\u2581ves": 3413,
  "amos": 3414,
  "mar": 3415,
  "we": 3416,
  "\u2581Always": 3417,
  "\u2581Imprimir": 3418,
  "\u2581deleted": 3419,
  "\u2581documentaci\u00f3n": 3420,
  "\u2581games": 3421,
  "\u2581koffice": 3422,
  "\u2581onte": 3423,
  "\u2581silencio": 3424,
  "\u2581wiki": 3425,
  "ph": 3426,
  "su": 3427,
  "\u00e1ronse": 3428,
  "\u258190": 3429,
  "\u2581Author": 3430,
  "\u2581Quizais": 3431,
  "\u2581Verifique": 3432,
  "\u2581became": 3433,
  "\u2581carne": 3434,
  "\u2581depende": 3435,
  "\u2581funny": 3436,
  "\u2581include": 3437,
  "\u2581parents": 3438,
  "\u2581p\u00edxeles": 3439,
  "\u2581regras": 3440,
  "der": 3441,
  "ny": 3442,
  "\u2581***": 3443,
  "\u2581Ba": 3444,
  "\u2581Horizontal": 3445,
  "\u2581Toma": 3446,
  "\u2581anybody": 3447,
  "\u2581doce": 3448,
  "\u2581earth": 3449,
  "\u2581further": 3450,
  "\u2581installation": 3451,
  "\u2581par\u00e1metro": 3452,
  "\u2581tra": 3453,
  "\u2581unit": 3454,
  "\u2581via": 3455,
  "\u2581weeks": 3456,
  "au": 3457,
  "ente": 3458,
  "min": 3459,
  "ura": 3460,
  "\u2581Escriba": 3461,
  "\u2581Grupo": 3462,
  "\u2581Long": 3463,
  "\u2581NO": 3464,
  "\u2581int": 3465,
  "\u2581meeting": 3466,
  "\u2581rules": 3467,
  "\u2581tired": 3468,
  "\u2581vostedes": 3469,
  "\u25812002": 3470,
  "\u2581Calendar": 3471,
  "\u2581Ok": 3472,
  "\u2581apply": 3473,
  "\u2581cells": 3474,
  "\u2581disto": 3475,
  "\u2581mad": 3476,
  "\u2581plugins": 3477,
  "\u2581rule": 3478,
  "click": 3479,
  "ium": 3480,
  "\u2581(%1)": 3481,
  "\u2581Ko": 3482,
  "\u2581Mac": 3483,
  "\u2581Point": 3484,
  "\u2581barras": 3485,
  "\u2581bitch": 3486,
  "\u2581dinner": 3487,
  "\u2581entendo": 3488,
  "\u2581feed": 3489,
  "\u2581nobody": 3490,
  "\u2581plano": 3491,
  "\u2581sell": 3492,
  "\u2581third": 3493,
  "\u2581Actualizar": 3494,
  "\u2581Queen": 3495,
  "\u2581Sra": 3496,
  "\u2581armas": 3497,
  "\u2581completely": 3498,
  "\u2581destes": 3499,
  "\u2581esquerdo": 3500,
  "\u2581marcha": 3501,
  "\u2581material": 3502,
  "\u2581pensas": 3503,
  "\u2581perm\u00edtelle": 3504,
  "\u2581selecciona": 3505,
  "\u2581wikipedia": 3506,
  "12": 3507,
  "Yes": 3508,
  "ff": 3509,
  "i\u00f1a": 3510,
  "\u2581\")": 3511,
  "\u2581German": 3512,
  "\u2581Monitor": 3513,
  "\u2581Ser\u00e1": 3514,
  "\u2581Template": 3515,
  "\u2581canle": 3516,
  "\u2581cerebro": 3517,
  "\u2581clothes": 3518,
  "\u2581crer": 3519,
  "\u2581elements": 3520,
  "\u2581hotel": 3521,
  "\u2581immediately": 3522,
  "\u2581inimigos": 3523,
  "\u2581reloxo": 3524,
  "\u2581servidores": 3525,
  "\u2581stupid": 3526,
  "ary": 3527,
  "tri": 3528,
  "xo": 3529,
  "\u2581Holmes": 3530,
  "\u2581Podemos": 3531,
  "\u2581Remote": 3532,
  "\u2581caer": 3533,
  "\u2581cho": 3534,
  "\u2581haber": 3535,
  "\u2581instance": 3536,
  "\u2581llo": 3537,
  "\u2581progress": 3538,
  "\u2581subject": 3539,
  "\u2581Father": 3540,
  "\u2581Theme": 3541,
  "\u2581anti": 3542,
  "\u2581biblioteca": 3543,
  "\u2581celas": 3544,
  "\u2581direction": 3545,
  "\u2581lord": 3546,
  "\u2581mouth": 3547,
  "\u2581strange": 3548,
  "In": 3549,
  "chi": 3550,
  "space": 3551,
  "\u2581Ata": 3552,
  "\u2581Pe": 3553,
  "\u2581books": 3554,
  "\u2581directamente": 3555,
  "\u2581enemies": 3556,
  "\u2581interested": 3557,
  "\u2581login": 3558,
  "\u2581loitar": 3559,
  "\u2581mozos": 3560,
  "\u2581questions": 3561,
  "\u2581quiet": 3562,
  "\u2581towards": 3563,
  "Region": 3564,
  "ai": 3565,
  "ang": 3566,
  "ger": 3567,
  "\u2581360": 3568,
  "\u2581Back": 3569,
  "\u2581Cores": 3570,
  "\u2581Great": 3571,
  "\u2581Mu": 3572,
  "\u2581actions": 3573,
  "\u2581atenci\u00f3n": 3574,
  "\u2581clases": 3575,
  "\u2581correctamente": 3576,
  "\u2581deep": 3577,
  "\u2581explain": 3578,
  "\u2581foot": 3579,
  "\u2581f\u00edos": 3580,
  "\u2581vamos": 3581,
  "\u2581yo": 3582,
  "Risas": 3583,
  "\u00e9n": 3584,
  "\u2581...\"": 3585,
  "\u2581Des": 3586,
  "\u2581Viewer": 3587,
  "\u2581modelos": 3588,
  "\u2581m\u00ednimo": 3589,
  "\u2581ouro": 3590,
  "\u2581sinal": 3591,
  "\u2581taboleiro": 3592,
  "AL": 3593,
  "mb": 3594,
  "\u00e1bel": 3595,
  "\u2581(1": 3596,
  "\u2581Jim": 3597,
  "\u2581Option": 3598,
  "\u2581Rabbit": 3599,
  "\u2581backend": 3600,
  "\u2581built": 3601,
  "\u2581fish": 3602,
  "\u2581moral": 3603,
  "\u2581none": 3604,
  "\u2581otherwise": 3605,
  "\u2581presente": 3606,
  "\u2581Fun": 3607,
  "\u2581Profile": 3608,
  "\u2581Tommy": 3609,
  "\u2581William": 3610,
  "\u2581chosen": 3611,
  "\u2581convert": 3612,
  "\u2581cuesti\u00f3n": 3613,
  "\u2581definir": 3614,
  "\u2581difference": 3615,
  "\u2581existente": 3616,
  "\u2581haxa": 3617,
  "\u2581manually": 3618,
  "\u2581multi": 3619,
  "\u2581operations": 3620,
  "\u2581protect": 3621,
  "\u2581sa": 3622,
  "\u2581segura": 3623,
  "\u2581shouldn": 3624,
  "\u2581straight": 3625,
  "\u2581successfully": 3626,
  "\u2581suit": 3627,
  "eiro": 3628,
  "not": 3629,
  "\u2581London": 3630,
  "\u2581Switch": 3631,
  "\u2581connected": 3632,
  "\u2581especie": 3633,
  "\u2581glad": 3634,
  "\u2581individual": 3635,
  "\u2581places": 3636,
  "\u2581sendo": 3637,
  "\u2581sur": 3638,
  "\u2581sweet": 3639,
  "can": 3640,
  "ide": 3641,
  "nonym": 3642,
  "\u25812008": 3643,
  "\u2581Alg\u00fans": 3644,
  "\u2581Rename": 3645,
  "\u2581Saint": 3646,
  "\u2581Tu": 3647,
  "\u2581directly": 3648,
  "\u2581distancia": 3649,
  "\u2581metade": 3650,
  "\u2581preguntas": 3651,
  "\u2581p\u00fablico": 3652,
  "\u2581shape": 3653,
  "11": 3654,
  "ite": 3655,
  "pro": 3656,
  "\u2581CPU": 3657,
  "\u2581War": 3658,
  "\u2581accept": 3659,
  "\u2581adiante": 3660,
  "\u2581busca": 3661,
  "\u2581equals": 3662,
  "\u2581instalado": 3663,
  "\u2581modified": 3664,
  "\u2581paid": 3665,
  "\u2581pena": 3666,
  "\u2581repositorio": 3667,
  "\u2581separador": 3668,
  "ico": 3669,
  "r\u00e1n": 3670,
  "\u2581Earth": 3671,
  "\u2581Today": 3672,
  "\u2581creaci\u00f3n": 3673,
  "\u2581devices": 3674,
  "\u2581escrita": 3675,
  "\u2581except": 3676,
  "\u2581linguaxe": 3677,
  "\u2581m\u00e9dico": 3678,
  "\u2581rostro": 3679,
  "\u2581saving": 3680,
  "\u2581trata": 3681,
  "\u25811.\"": 3682,
  "\u2581Allow": 3683,
  "\u2581Dous": 3684,
  "\u2581OpenVPN": 3685,
  "\u2581Quit": 3686,
  "\u2581Snow": 3687,
  "\u2581Turn": 3688,
  "\u2581ac\u00f3": 3689,
  "\u2581barco": 3690,
  "\u2581beb\u00e9": 3691,
  "\u2581desco\u00f1ecida": 3692,
  "\u2581env\u00edo": 3693,
  "\u2581fair": 3694,
  "\u2581ficar": 3695,
  "\u2581herself": 3696,
  "\u2581ocorre": 3697,
  "\u2581oh": 3698,
  "\u2581selecting": 3699,
  "\u2581xeo": 3700,
  "rra": 3701,
  "\u2581Ga": 3702,
  "\u2581Joffrey": 3703,
  "\u2581bastard": 3704,
  "\u2581comportamento": 3705,
  "\u2581difficult": 3706,
  "\u2581gravaci\u00f3n": 3707,
  "\u2581houbo": 3708,
  "\u2581j": 3709,
  "\u2581maximum": 3710,
  "\u2581posible": 3711,
  "\u2581startup": 3712,
  "\u2581symbol": 3713,
  "\u2581tivese": 3714,
  "\u2581tray": 3715,
  "ese": 3716,
  "ize": 3717,
  "\u2581Excuse": 3718,
  "\u2581Po": 3719,
  "\u2581Replace": 3720,
  "\u2581cach\u00e9": 3721,
  "\u2581capaz": 3722,
  "\u2581captura": 3723,
  "\u2581decided": 3724,
  "\u2581disposici\u00f3n": 3725,
  "\u2581estrutura": 3726,
  "\u2581finish": 3727,
  "\u2581funci\u00f3ns": 3728,
  "\u2581lugares": 3729,
  "\u2581percent": 3730,
  "\u2581respect": 3731,
  "\u2581results": 3732,
  "\u2581sitting": 3733,
  "\u2581vector": 3734,
  "\u2581wrap": 3735,
  "AN": 3736,
  "Applause": 3737,
  "fer": 3738,
  "\u2581Consulte": 3739,
  "\u2581Deber\u00eda": 3740,
  "\u2581Dende": 3741,
  "\u2581Disable": 3742,
  "\u2581Printer": 3743,
  "\u2581ante": 3744,
  "\u2581balance": 3745,
  "\u2581boss": 3746,
  "\u2581catch": 3747,
  "\u2581choiva": 3748,
  "\u2581crime": 3749,
  "\u2581diff": 3750,
  "\u2581pequenos": 3751,
  "\u2581Full": 3752,
  "\u2581Sabe": 3753,
  "\u2581frame": 3754,
  "\u2581humanos": 3755,
  "\u2581impos\u00edbel": 3756,
  "\u2581lower": 3757,
  "\u2581mente": 3758,
  "\u2581parts": 3759,
  "\u2581protocol": 3760,
  "\u2581quality": 3761,
  "\u2581serious": 3762,
  "\u2581sistemas": 3763,
  "\u2581starts": 3764,
  "\u2581tampouco": 3765,
  "ier": 3766,
  "jo": 3767,
  "pt": 3768,
  "\u258122": 3769,
  "\u2581Algo": 3770,
  "\u2581NAME": 3771,
  "\u2581codificaci\u00f3n": 3772,
  "\u2581esperar": 3773,
  "\u2581passed": 3774,
  "\u2581team": 3775,
  "\u2581workers": 3776,
  "Como": 3777,
  "ito": 3778,
  "\u258123": 3779,
  "\u2581Ar": 3780,
  "\u2581Boas": 3781,
  "\u2581LaTeX": 3782,
  "\u2581baseado": 3783,
  "\u2581condici\u00f3ns": 3784,
  "\u2581contactos": 3785,
  "\u2581experience": 3786,
  "\u2581falla": 3787,
  "\u2581insert": 3788,
  "\u2581letters": 3789,
  "\u2581querido": 3790,
  "\u2581received": 3791,
  "\u2581sabemos": 3792,
  "\u2581scared": 3793,
  "\u2581visit": 3794,
  "\u2581xesti\u00f3n": 3795,
  "ator": 3796,
  "ful": 3797,
  "ville": 3798,
  "\u00e1monos": 3799,
  "\u2581Brian": 3800,
  "\u2581Commune": 3801,
  "\u2581DPI": 3802,
  "\u2581IT": 3803,
  "\u2581Max": 3804,
  "\u2581Park": 3805,
  "\u2581State": 3806,
  "\u2581Terra": 3807,
  "\u2581Volume": 3808,
  "\u2581Zoom": 3809,
  "\u2581batalla": 3810,
  "\u2581car\u00e1cter": 3811,
  "\u2581cubic": 3812,
  "\u2581intervalo": 3813,
  "\u2581intre": 3814,
  "\u2581mu": 3815,
  "\u2581opening": 3816,
  "\u2581perform": 3817,
  "\u2581quizais": 3818,
  "\u2581throw": 3819,
  "\u2581unidade": 3820,
  "end": 3821,
  "ong": 3822,
  "par": 3823,
  "\u2581ASCII": 3824,
  "\u2581Bu": 3825,
  "\u2581Francia": 3826,
  "\u2581Level": 3827,
  "\u2581Selecci\u00f3n": 3828,
  "\u2581Tree": 3829,
  "\u2581amosar": 3830,
  "\u2581autor": 3831,
  "\u2581broken": 3832,
  "\u2581coci\u00f1a": 3833,
  "\u2581criar": 3834,
  "\u2581decide": 3835,
  "\u2581han": 3836,
  "\u2581jack": 3837,
  "\u2581module": 3838,
  "\u2581notas": 3839,
  "\u2581q": 3840,
  "\u2581segue": 3841,
  "\u2581seguranza": 3842,
  "\u2581slow": 3843,
  "\u2581www": 3844,
  ";)": 3845,
  "We": 3846,
  "eo": 3847,
  "tivo": 3848,
  "\u00edan": 3849,
  "\u2581500": 3850,
  "\u2581Europa": 3851,
  "\u2581High": 3852,
  "\u2581Pola": 3853,
  "\u2581Samba": 3854,
  "\u2581Say": 3855,
  "\u2581Write": 3856,
  "\u2581alma": 3857,
  "\u2581arte": 3858,
  "\u2581caught": 3859,
  "\u2581comprobar": 3860,
  "\u2581esposa": 3861,
  "\u2581far\u00e1": 3862,
  "\u2581imagine": 3863,
  "\u2581listo": 3864,
  "\u2581marry": 3865,
  "\u2581menor": 3866,
  "\u2581pain": 3867,
  "\u2581permitir": 3868,
  "\u2581photo": 3869,
  "\u2581sinto": 3870,
  "i\u00f1o": 3871,
  "mer": 3872,
  "para": 3873,
  "van": 3874,
  "\u00f1e": 3875,
  "\u2581Bi": 3876,
  "\u2581Comuna": 3877,
  "\u2581Cut": 3878,
  "\u2581D\u00e1me": 3879,
  "\u2581EN": 3880,
  "\u2581Frankie": 3881,
  "\u2581Mesmo": 3882,
  "\u2581Space": 3883,
  "\u2581Work": 3884,
  "\u2581Xos\u00e9": 3885,
  "\u2581baleira": 3886,
  "\u2581bonito": 3887,
  "\u2581building": 3888,
  "\u2581casos": 3889,
  "\u2581completed": 3890,
  "\u2581cool": 3891,
  "\u2581cross": 3892,
  "\u2581demo": 3893,
  "\u2581dor": 3894,
  "\u2581green": 3895,
  "\u2581pattern": 3896,
  "\u2581period": 3897,
  "\u2581ra": 3898,
  "\u2581respecto": 3899,
  "\u2581ru\u00eddo": 3900,
  "\u2581sae": 3901,
  "bel": 3902,
  "nta": 3903,
  "side": 3904,
  "tou": 3905,
  "\u2581Documento": 3906,
  "\u2581However": 3907,
  "\u2581KPilot": 3908,
  "\u2581Ne": 3909,
  "\u2581PGP": 3910,
  "\u2581containing": 3911,
  "\u2581corner": 3912,
  "\u2581figure": 3913,
  "\u2581mesmos": 3914,
  "\u2581prevent": 3915,
  "\u2581p\u00f3r": 3916,
  "\u2581referencia": 3917,
  "\u2581returned": 3918,
  "\u2581spend": 3919,
  "\u2581various": 3920,
  "ial": 3921,
  "\u2581Another": 3922,
  "\u2581Fala": 3923,
  "\u2581Gustar\u00edame": 3924,
  "\u2581Has": 3925,
  "\u2581Moitas": 3926,
  "\u2581arm": 3927,
  "\u2581asinar": 3928,
  "\u2581doado": 3929,
  "\u2581festa": 3930,
  "\u2581pelo": 3931,
  "\u2581quit": 3932,
  "\u2581tocar": 3933,
  "EN": 3934,
  "ism": 3935,
  "ras": 3936,
  "\u2581Aceptar": 3937,
  "\u2581Center": 3938,
  "\u2581Cidade": 3939,
  "\u2581Correo": 3940,
  "\u2581Du": 3941,
  "\u2581Fondo": 3942,
  "\u2581Manter": 3943,
  "\u2581Sun": 3944,
  "\u2581Visor": 3945,
  "\u2581costas": 3946,
  "\u2581fighting": 3947,
  "\u2581requested": 3948,
  "\u2581scripts": 3949,
  "\u2581subir": 3950,
  "50": 3951,
  "ID": 3952,
  "bre": 3953,
  "dores": 3954,
  "ick": 3955,
  "\u2581Espero": 3956,
  "\u2581IN": 3957,
  "\u2581Programa": 3958,
  "\u2581altura": 3959,
  "\u2581border": 3960,
  "\u2581dixeches": 3961,
  "\u2581fix": 3962,
  "\u2581f\u00edo": 3963,
  "\u2581manualmente": 3964,
  "\u2581sending": 3965,
  "\u2581shut": 3966,
  "\u2581sociedade": 3967,
  "\u2581soluci\u00f3n": 3968,
  "\u2581ton": 3969,
  "\u2581vive": 3970,
  "\u2581xeitos": 3971,
  "but": 3972,
  "cen": 3973,
  "ct": 3974,
  "rd": 3975,
  "tas": 3976,
  "\u2581Access": 3977,
  "\u2581Central": 3978,
  "\u2581Got": 3979,
  "\u2581Houbo": 3980,
  "\u2581Mouse": 3981,
  "\u2581Permitir": 3982,
  "\u2581Plasma": 3983,
  "\u2581Quer\u00eda": 3984,
  "\u2581Tive": 3985,
  "\u2581Velocidade": 3986,
  "\u2581behavior": 3987,
  "\u2581exportar": 3988,
  "\u2581f\u00e1brica": 3989,
  "\u2581interesting": 3990,
  "\u2581ligaz\u00f3ns": 3991,
  "\u2581locais": 3992,
  "\u2581md": 3993,
  "\u2581m\u00f3dulo": 3994,
  "\u2581tar": 3995,
  "\u2581unless": 3996,
  "\u2581zona": 3997,
  "hose": 3998,
  "\u25812004": 3999,
  "\u2581Blue": 4000,
  "\u2581Street": 4001,
  "\u2581cervisia": 4002,
  "\u2581co\u00f1ecer": 4003,
  "\u2581infraestrutura": 4004,
  "\u2581medium": 4005,
  "\u2581partici\u00f3n": 4006,
  "\u2581pictures": 4007,
  "\u2581policy": 4008,
  "\u2581solar": 4009,
  "\u2581temporary": 4010,
  "\u2581thanks": 4011,
  "\u2581ver\u00e1n": 4012,
  "\u2581vi": 4013,
  "\u2581watching": 4014,
  "ana": 4015,
  "ap": 4016,
  "ice": 4017,
  "rc": 4018,
  "ula": 4019,
  "val": 4020,
  "\u258180": 4021,
  "\u2581Most": 4022,
  "\u2581Paste": 4023,
  "\u2581Procura": 4024,
  "\u2581buscando": 4025,
  "\u2581facemos": 4026,
  "\u2581fallou": 4027,
  "\u2581management": 4028,
  "\u2581meter": 4029,
  "\u2581oficina": 4030,
  "\u2581unicode": 4031,
  "\u2581wall": 4032,
  "And": 4033,
  "To": 4034,
  "ak": 4035,
  "ance": 4036,
  "ario": 4037,
  "select": 4038,
  "\u2581KPlayer": 4039,
  "\u2581Sometimes": 4040,
  "\u2581Warning": 4041,
  "\u2581accessible": 4042,
  "\u2581adicionais": 4043,
  "\u2581bloque": 4044,
  "\u2581calor": 4045,
  "\u2581confianza": 4046,
  "\u2581config": 4047,
  "\u2581hi": 4048,
  "\u2581ourselves": 4049,
  "\u2581ren": 4050,
  "\u2581society": 4051,
  "1:": 4052,
  "rre": 4053,
  "ud": 4054,
  "\u2581Constru\u00edr": 4055,
  "\u2581Ned": 4056,
  "\u2581Track": 4057,
  "\u2581axustar": 4058,
  "\u2581coffee": 4059,
  "\u2581debemos": 4060,
  "\u2581empregue": 4061,
  "\u2581semella": 4062,
  "IS": 4063,
  "gui": 4064,
  "lia": 4065,
  "t\u00e9": 4066,
  "\u00e1ndose": 4067,
  "\u2581Bates": 4068,
  "\u2581Directory": 4069,
  "\u2581Seleccionar": 4070,
  "\u2581United": 4071,
  "\u2581ba": 4072,
  "\u2581icons": 4073,
  "\u2581medios": 4074,
  "\u2581moves": 4075,
  "\u2581murder": 4076,
  "\u2581tools": 4077,
  "\u2581transaction": 4078,
  "\u25812:": 4079,
  "\u2581FOR": 4080,
  "\u2581Hold": 4081,
  "\u2581Public": 4082,
  "\u2581Supo\u00f1o": 4083,
  "\u2581Tag": 4084,
  "\u2581Welcome": 4085,
  "\u2581com\u00fan": 4086,
  "\u2581grella": 4087,
  "\u2581grow": 4088,
  "\u2581mor": 4089,
  "\u2581provide": 4090,
  "\u2581query": 4091,
  "\u2581regra": 4092,
  "\u2581searching": 4093,
  "\u2581somewhere": 4094,
  "\u2581Conta": 4095,
  "\u2581Illas": 4096,
  "\u2581Mom": 4097,
  "\u2581Outra": 4098,
  "\u2581Real": 4099,
  "\u2581Ve": 4100,
  "\u2581Yo": 4101,
  "\u2581agree": 4102,
  "\u2581copiar": 4103,
  "\u2581engadidos": 4104,
  "\u2581experiencia": 4105,
  "\u2581mala": 4106,
  "\u2581partido": 4107,
  "\u2581queremos": 4108,
  "\u2581thy": 4109,
  "\u2581tratar": 4110,
  "\u2581wine": 4111,
  "Country": 4112,
  "[": 4113,
  "age": 4114,
  "wa": 4115,
  "\u2581Am": 4116,
  "\u2581Bottom": 4117,
  "\u2581Code": 4118,
  "\u2581GNU": 4119,
  "\u2581Mam\u00e1": 4120,
  "\u2581Original": 4121,
  "\u2581Posici\u00f3n": 4122,
  "\u2581Precisa": 4123,
  "\u2581THAT": 4124,
  "\u2581additional": 4125,
  "\u2581agarda": 4126,
  "\u2581heavy": 4127,
  "\u2581mercar": 4128,
  "\u2581pel": 4129,
  "\u2581reproducir": 4130,
  "\u2581saben": 4131,
  "\u2581separate": 4132,
  "\u2581waste": 4133,
  "LE": 4134,
  "ac": 4135,
  "lan": 4136,
  "like": 4137,
  "nde": 4138,
  "ren": 4139,
  "\u2581Engadido": 4140,
  "\u2581Han": 4141,
  "\u2581Marcar": 4142,
  "\u2581Pensei": 4143,
  "\u2581Somos": 4144,
  "\u2581Versi\u00f3n": 4145,
  "\u2581according": 4146,
  "\u2581bus": 4147,
  "\u2581carteira": 4148,
  "\u2581casas": 4149,
  "\u2581fagas": 4150,
  "\u2581fool": 4151,
  "\u2581html": 4152,
  "\u2581ice": 4153,
  "\u2581km": 4154,
  "\u2581movie": 4155,
  "\u2581pronto": 4156,
  "\u2581province": 4157,
  "\u2581triste": 4158,
  "\u2581worth": 4159,
  "all": 4160,
  "france": 4161,
  "mon": 4162,
  "pen": 4163,
  "\u2581Charles": 4164,
  "\u2581Day": 4165,
  "\u2581Fine": 4166,
  "\u2581States": 4167,
  "\u2581Sur": 4168,
  "\u2581attribute": 4169,
  "\u2581cero": 4170,
  "\u2581contexto": 4171,
  "\u2581deixou": 4172,
  "\u2581dig": 4173,
  "\u2581diga": 4174,
  "\u2581d\u00fabida": 4175,
  "\u2581gr\u00e1fica": 4176,
  "\u2581introducir": 4177,
  "\u2581lay": 4178,
  "\u2581parvo": 4179,
  "\u2581replace": 4180,
  "\u2581serie": 4181,
  "\u2581soldados": 4182,
  "\u2581vari\u00e1bel": 4183,
  "OS": 4184,
  "let": 4185,
  "ros": 4186,
  "\u2581Coido": 4187,
  "\u2581Each": 4188,
  "\u2581East": 4189,
  "\u2581Images": 4190,
  "\u2581Private": 4191,
  "\u2581Table": 4192,
  "\u2581album": 4193,
  "\u2581aquel": 4194,
  "\u2581cari\u00f1o": 4195,
  "\u2581dic\u00eda": 4196,
  "\u2581distri": 4197,
  "\u2581estar\u00eda": 4198,
  "\u2581handle": 4199,
  "\u2581humano": 4200,
  "\u2581older": 4201,
  "\u2581online": 4202,
  "\u2581sacar": 4203,
  "\u2581seleccionada": 4204,
  "\u2581site": 4205,
  "\u2581song": 4206,
  "\u2581s\u00fapeto": 4207,
  "\u2581tea": 4208,
  "\u2581torrent": 4209,
  "\u2581variable": 4210,
  "20": 4211,
  "ios": 4212,
  "izaci\u00f3n": 4213,
  "way": 4214,
  "\u2581Desde": 4215,
  "\u2581Dialog": 4216,
  "\u2581Estilo": 4217,
  "\u2581Grace": 4218,
  "\u2581Leva": 4219,
  "\u2581Outro": 4220,
  "\u2581Rain": 4221,
  "\u2581Super": 4222,
  "\u2581beat": 4223,
  "\u2581board": 4224,
  "\u2581botar": 4225,
  "\u2581cat": 4226,
  "\u2581certificates": 4227,
  "\u2581encrypted": 4228,
  "\u2581esperanza": 4229,
  "\u2581grid": 4230,
  "\u2581permiso": 4231,
  "\u2581privada": 4232,
  "\u2581probar": 4233,
  "\u2581pr\u00e9sa": 4234,
  "\u2581spent": 4235,
  "\u2581visita": 4236,
  "\u2581vi\u00f1o": 4237,
  "\u2581xogos": 4238,
  "\u2581Engade": 4239,
  "\u2581Estados": 4240,
  "\u2581Icon": 4241,
  "\u2581Jamie": 4242,
  "\u2581Step": 4243,
  "\u2581afternoon": 4244,
  "\u2581documents": 4245,
  "\u2581height": 4246,
  "\u2581join": 4247,
  "\u2581m\u00e1xima": 4248,
  "\u2581necesario": 4249,
  "\u2581soul": 4250,
  "\u2581televisi\u00f3n": 4251,
  "\u2581wrote": 4252,
  "++": 4253,
  "Do": 4254,
  "dora": 4255,
  "ea": 4256,
  "pas": 4257,
  "tica": 4258,
  "til": 4259,
  "\u2581Album": 4260,
  "\u2581Cambiar": 4261,
  "\u2581Four": 4262,
  "\u2581Ignorar": 4263,
  "\u2581Val": 4264,
  "\u2581authentication": 4265,
  "\u2581azul": 4266,
  "\u2581carry": 4267,
  "\u2581correcta": 4268,
  "\u2581cover": 4269,
  "\u2581especiais": 4270,
  "\u2581marked": 4271,
  "\u2581meant": 4272,
  "\u2581pase": 4273,
  "\u2581principio": 4274,
  "\u2581pu": 4275,
  "\u2581suma": 4276,
  "\u2581super": 4277,
  "\u2581train": 4278,
  "Shortcut": 4279,
  "iv": 4280,
  "redes": 4281,
  "ux": 4282,
  "\u2581Casa": 4283,
  "\u2581JPEG": 4284,
  "\u2581KOrganizer": 4285,
  "\u2581Li\u00f1a": 4286,
  "\u2581Loading": 4287,
  "\u2581Miller": 4288,
  "\u2581RAW": 4289,
  "\u2581Taxa": 4290,
  "\u2581atributos": 4291,
  "\u2581baixar": 4292,
  "\u2581bos": 4293,
  "\u2581cabeceira": 4294,
  "\u2581certainly": 4295,
  "\u2581chart": 4296,
  "\u2581dad": 4297,
  "\u2581debo": 4298,
  "\u2581mass": 4299,
  "\u2581nature": 4300,
  "\u2581nor": 4301,
  "\u2581sounds": 4302,
  "\u2581volve": 4303,
  "He": 4304,
  "Well": 4305,
  "ach": 4306,
  "cts": 4307,
  "\u2581Amarok": 4308,
  "\u2581Daniel": 4309,
  "\u2581Europe": 4310,
  "\u2581Giuliano": 4311,
  "\u2581Sal": 4312,
  "\u2581Shut": 4313,
  "\u2581Using": 4314,
  "\u2581Value": 4315,
  "\u2581aplicativo": 4316,
  "\u2581depuraci\u00f3n": 4317,
  "\u2581embaixo": 4318,
  "\u2581giving": 4319,
  "\u2581rematou": 4320,
  "\u2581split": 4321,
  "Language": 4322,
  "ps": 4323,
  "self": 4324,
  "\u00fc": 4325,
  "\u2581Ask": 4326,
  "\u2581Axustar": 4327,
  "\u2581Empregue": 4328,
  "\u2581JavaScript": 4329,
  "\u2581ball": 4330,
  "\u2581cabalo": 4331,
  "\u2581fell": 4332,
  "\u2581happening": 4333,
  "\u2581learned": 4334,
  "\u2581luck": 4335,
  "\u2581neve": 4336,
  "\u2581orden": 4337,
  "\u2581photos": 4338,
  "\u2581t\u00eda": 4339,
  "\u2581wallet": 4340,
  "\u25812006": 4341,
  "\u2581600": 4342,
  "\u2581Car": 4343,
  "\u2581Desactivar": 4344,
  "\u2581Ex": 4345,
  "\u2581Stay": 4346,
  "\u2581beber": 4347,
  "\u2581cea": 4348,
  "\u2581enteiro": 4349,
  "\u2581normalmente": 4350,
  "\u2581preocupes": 4351,
  "\u2581upload": 4352,
  "adas": 4353,
  "ante": 4354,
  "kde": 4355,
  "rse": 4356,
  "\u2581(%2)": 4357,
  "\u2581Algu\u00e9n": 4358,
  "\u2581Alteza": 4359,
  "\u2581Bart": 4360,
  "\u2581Fa": 4361,
  "\u2581Hollywood": 4362,
  "\u2581Ignore": 4363,
  "\u2581Layout": 4364,
  "\u2581Mellor": 4365,
  "\u2581Modelo": 4366,
  "\u2581Think": 4367,
  "\u2581appears": 4368,
  "\u2581argument": 4369,
  "\u2581axente": 4370,
  "\u2581columns": 4371,
  "\u2581distance": 4372,
  "\u2581ga": 4373,
  "\u2581noise": 4374,
  "\u2581pracer": 4375,
  "\u2581produce": 4376,
  "\u2581resolver": 4377,
  "\u2581sa\u00edu": 4378,
  "\u2581sets": 4379,
  "net": 4380,
  "pl": 4381,
  "\u2581Espazo": 4382,
  "\u2581Espera": 4383,
  "\u2581Proxecto": 4384,
  "\u2581Tres": 4385,
  "\u2581Uncle": 4386,
  "\u2581Unidos": 4387,
  "\u2581Ves": 4388,
  "\u2581actualizaci\u00f3n": 4389,
  "\u2581aplicar": 4390,
  "\u2581escolleu": 4391,
  "\u2581far\u00eda": 4392,
  "\u2581lib": 4393,
  "\u2581opini\u00f3n": 4394,
  "\u2581promise": 4395,
  "\u2581reach": 4396,
  "\u2581sat": 4397,
  "\u2581tu": 4398,
  "\u2581verde": 4399,
  "\u2581\u00c1frica": 4400,
  "RE": 4401,
  "ces": 4402,
  "scribiuno": 4403,
  "ure": 4404,
  "\u2581Ademais": 4405,
  "\u2581Anne": 4406,
  "\u2581Islands": 4407,
  "\u2581National": 4408,
  "\u2581Pan": 4409,
  "\u2581Panel": 4410,
  "\u2581Sha": 4411,
  "\u2581Specify": 4412,
  "\u2581aberta": 4413,
  "\u2581abre": 4414,
  "\u2581andar": 4415,
  "\u2581applet": 4416,
  "\u2581attachment": 4417,
  "\u2581conversa": 4418,
  "\u2581dominio": 4419,
  "\u2581engine": 4420,
  "\u2581fault": 4421,
  "\u2581functions": 4422,
  "\u2581haber\u00e1": 4423,
  "\u2581held": 4424,
  "\u2581modify": 4425,
  "\u2581monitor": 4426,
  "\u2581pixels": 4427,
  "\u2581property": 4428,
  "\u2581pr\u00f3ximo": 4429,
  "\u2581p\u00fablica": 4430,
  "\u2581repository": 4431,
  "\u2581sa\u00fade": 4432,
  "\u2581suddenly": 4433,
  "\u2581teclas": 4434,
  "ile": 4435,
  "\u2581Developer": 4436,
  "\u2581Nivel": 4437,
  "\u2581Position": 4438,
  "\u2581Richard": 4439,
  "\u2581Seino": 4440,
  "\u2581Should": 4441,
  "\u2581Sol": 4442,
  "\u2581Substitu\u00edr": 4443,
  "\u2581avoid": 4444,
  "\u2581cedo": 4445,
  "\u2581chamadas": 4446,
  "\u2581charge": 4447,
  "\u2581doubt": 4448,
  "\u2581estiver": 4449,
  "\u2581false": 4450,
  "\u2581hardware": 4451,
  "\u2581raro": 4452,
  "\u2581recibir": 4453,
  "\u2581systems": 4454,
  "\u2581worried": 4455,
  "Un": 4456,
  "\\\\\\\\": 4457,
  "rt": 4458,
  "\u2581Ferramentas": 4459,
  "\u2581IS": 4460,
  "\u2581Kate": 4461,
  "\u2581Mentres": 4462,
  "\u2581Style": 4463,
  "\u2581estrelas": 4464,
  "\u2581health": 4465,
  "\u2581ocupado": 4466,
  "\u2581parar": 4467,
  "\u2581seeing": 4468,
  "\u2581toma": 4469,
  "\u2581usada": 4470,
  "\u2581viewer": 4471,
  "\u2581xerar": 4472,
  "3;": 4473,
  "ip": 4474,
  "izado": 4475,
  "\u2581Before": 4476,
  "\u2581Book": 4477,
  "\u2581Client": 4478,
  "\u2581Fox": 4479,
  "\u2581Java": 4480,
  "\u2581actividade": 4481,
  "\u2581cvs": 4482,
  "\u2581doutor": 4483,
  "\u2581finally": 4484,
  "\u2581mom": 4485,
  "\u2581parameters": 4486,
  "\u2581sad": 4487,
  "\u2581sight": 4488,
  "\u2581skin": 4489,
  "\u2581visualizaci\u00f3n": 4490,
  "ci\u00f3ns": 4491,
  "dy": 4492,
  "my": 4493,
  "set": 4494,
  "str": 4495,
  "wrap": 4496,
  "\u2581(#": 4497,
  "\u2581Apply": 4498,
  "\u2581Big": 4499,
  "\u2581Calvo": 4500,
  "\u2581Connect": 4501,
  "\u2581Details": 4502,
  "\u2581MAN": 4503,
  "\u2581Old": 4504,
  "\u2581Pap\u00e1": 4505,
  "\u2581Pasa": 4506,
  "\u2581Ph": 4507,
  "\u2581Too": 4508,
  "\u2581arrived": 4509,
  "\u2581attack": 4510,
  "\u2581careful": 4511,
  "\u2581compa\u00f1\u00eda": 4512,
  "\u2581escape": 4513,
  "\u2581filters": 4514,
  "\u2581funcionalidade": 4515,
  "\u2581interesante": 4516,
  "\u2581medida": 4517,
  "\u2581military": 4518,
  "\u2581moeda": 4519,
  "\u2581permissions": 4520,
  "\u2581ride": 4521,
  "\u2581shortcut": 4522,
  "\u2581showing": 4523,
  "\u2581taxa": 4524,
  "\u2581yesterday": 4525,
  "ments": 4526,
  "nce": 4527,
  "\u2581Branco": 4528,
  "\u2581Convert": 4529,
  "\u2581Matthias": 4530,
  "\u2581Men": 4531,
  "\u2581Por\u00e9n": 4532,
  "\u2581Quanta": 4533,
  "\u2581Shows": 4534,
  "\u2581Simple": 4535,
  "\u2581Small": 4536,
  "\u2581Tra": 4537,
  "\u2581associated": 4538,
  "\u2581atopa": 4539,
  "\u2581cache": 4540,
  "\u2581comprobaci\u00f3n": 4541,
  "\u2581counti": 4542,
  "\u2581deter": 4543,
  "\u2581escollidas": 4544,
  "\u2581especificado": 4545,
  "\u2581estean": 4546,
  "\u2581executable": 4547,
  "\u2581mirando": 4548,
  "\u2581pi": 4549,
  "\u2581ring": 4550,
  "\u2581tirar": 4551,
  "\u2581ti\u00f1an": 4552,
  "\u2581tren": 4553,
  "\u2581zone": 4554,
  ",--": 4555,
  "OR": 4556,
  "aba": 4557,
  "rs": 4558,
  "\u2581Bus": 4559,
  "\u2581Fin": 4560,
  "\u2581Google": 4561,
  "\u2581Island": 4562,
  "\u2581Mother": 4563,
  "\u2581Perhaps": 4564,
  "\u2581Setup": 4565,
  "\u2581Something": 4566,
  "\u2581Undo": 4567,
  "\u2581canci\u00f3n": 4568,
  "\u2581chea": 4569,
  "\u2581darlle": 4570,
  "\u2581estivo": 4571,
  "\u2581fac\u00eda": 4572,
  "\u2581holding": 4573,
  "\u2581horrible": 4574,
  "\u2581r\u00faas": 4575,
  "\u2581servers": 4576,
  "\u2581stick": 4577,
  "\u2581structure": 4578,
  "\u2581t\u00e9": 4579,
  "\u2581xogador": 4580,
  "ame": 4581,
  "br": 4582,
  "eira": 4583,
  "gra": 4584,
  "list": 4585,
  "png": 4586,
  "view": 4587,
  "\u25812001": 4588,
  "\u2581Fo": 4589,
  "\u2581calculate": 4590,
  "\u2581columnas": 4591,
  "\u2581conditions": 4592,
  "\u2581custo": 4593,
  "\u2581equal": 4594,
  "\u2581glass": 4595,
  "\u2581impossible": 4596,
  "\u2581inmediatamente": 4597,
  "\u2581lots": 4598,
  "\u2581pressing": 4599,
  "\u2581price": 4600,
  "\u2581prison": 4601,
  "\u2581provided": 4602,
  "\u2581ran": 4603,
  "\u2581totalmente": 4604,
  "\u2581verdadeiro": 4605,
  "Ben": 4606,
  "That": 4607,
  "dio": 4608,
  "map": 4609,
  "ous": 4610,
  "rie": 4611,
  "\u2581Alarm": 4612,
  "\u2581Browser": 4613,
  "\u2581Channel": 4614,
  "\u2581IRC": 4615,
  "\u2581Ma\u00f1\u00e1": 4616,
  "\u2581Merda": 4617,
  "\u2581Modify": 4618,
  "\u2581Ya": 4619,
  "\u2581fl": 4620,
  "\u2581hundred": 4621,
  "\u2581kiss": 4622,
  "\u2581meat": 4623,
  "\u2581notice": 4624,
  "\u2581political": 4625,
  "\u2581presentaci\u00f3n": 4626,
  "\u2581proxectos": 4627,
  "\u2581seleccione": 4628,
  "\u2581station": 4629,
  "\u2581term": 4630,
  "\u2581terms": 4631,
  "\u2581vistas": 4632,
  "ED": 4633,
  "ez": 4634,
  "hilippines": 4635,
  "zar": 4636,
  "\u25811/": 4637,
  "\u258121": 4638,
  "\u2581API": 4639,
  "\u2581Pat": 4640,
  "\u2581Sa\u00edr": 4641,
  "\u2581boas": 4642,
  "\u2581boat": 4643,
  "\u2581calling": 4644,
  "\u2581cancel": 4645,
  "\u2581displays": 4646,
  "\u2581fixemos": 4647,
  "\u2581freedom": 4648,
  "\u2581gt": 4649,
  "\u2581hei": 4650,
  "\u2581letras": 4651,
  "\u2581loved": 4652,
  "\u2581pr\u00edncipe": 4653,
  "\u2581quente": 4654,
  "\u2581scheme": 4655,
  "\u2581sin": 4656,
  "\u2581wear": 4657,
  "han": 4658,
  "image": 4659,
  "sion": 4660,
  "tiva": 4661,
  "\u2581Cala": 4662,
  "\u2581Card": 4663,
  "\u2581Cliente": 4664,
  "\u2581Di\u00e1logo": 4665,
  "\u2581Info": 4666,
  "\u2581Santa": 4667,
  "\u2581Session": 4668,
  "\u2581Support": 4669,
  "\u2581anexos": 4670,
  "\u2581battle": 4671,
  "\u2581diferenza": 4672,
  "\u2581expected": 4673,
  "\u2581filtrado": 4674,
  "\u2581fit": 4675,
  "\u2581lying": 4676,
  "\u2581mental": 4677,
  "\u2581m\u00f3bil": 4678,
  "\u2581nuclear": 4679,
  "\u2581orders": 4680,
  "\u2581permission": 4681,
  "\u2581realizar": 4682,
  "\u2581score": 4683,
  "\u2581transferencia": 4684,
  "\u2581visi\u00f3n": 4685,
  "\";": 4686,
  "tre": 4687,
  "type": 4688,
  "\u00f1o": 4689,
  "\u2581Automatically": 4690,
  "\u2581Colors": 4691,
  "\u2581Cu": 4692,
  "\u2581Datos": 4693,
  "\u2581Hab\u00eda": 4694,
  "\u2581Opens": 4695,
  "\u2581Paper": 4696,
  "\u2581PostScript": 4697,
  "\u2581Propiedades": 4698,
  "\u2581QString": 4699,
  "\u2581Washington": 4700,
  "\u2581attempt": 4701,
  "\u2581backup": 4702,
  "\u2581bread": 4703,
  "\u2581cry": 4704,
  "\u2581diario": 4705,
  "\u2581dollars": 4706,
  "\u2581easily": 4707,
  "\u2581elas": 4708,
  "\u2581esquema": 4709,
  "\u2581horse": 4710,
  "\u2581interno": 4711,
  "\u2581overwrite": 4712,
  "\u2581popular": 4713,
  "\u2581prezo": 4714,
  "\u2581repetici\u00f3n": 4715,
  "\u2581requires": 4716,
  "\u2581tempos": 4717,
  "\u2581te\u00f1an": 4718,
  "\u2581traballa": 4719,
  "\u2581utilidade": 4720,
  "\u2581vellos": 4721,
  "\u2581w": 4722,
  "Aplausos": 4723,
  "This": 4724,
  "mm": 4725,
  "tos": 4726,
  "\u25814,": 4727,
  "\u2581Bookmarks": 4728,
  "\u2581Gran": 4729,
  "\u2581Lock": 4730,
  "\u2581Over": 4731,
  "\u2581Resource": 4732,
  "\u2581World": 4733,
  "\u2581attention": 4734,
  "\u2581energy": 4735,
  "\u2581pel\u00edcula": 4736,
  "\u2581planeta": 4737,
  "\u2581ppp": 4738,
  "\u2581recommended": 4739,
  "\u2581roll": 4740,
  "\u2581servizos": 4741,
  "\u2581soldiers": 4742,
  "\u2581thousand": 4743,
  "2;": 4744,
  "Bus": 4745,
  "Enter": 4746,
  "Quen": 4747,
  "cto": 4748,
  "si\u00f3n": 4749,
  "t\u00ed": 4750,
  "\u2581Messages": 4751,
  "\u2581Otherwise": 4752,
  "\u2581Overwrite": 4753,
  "\u2581actualizar": 4754,
  "\u2581adicional": 4755,
  "\u2581anexo": 4756,
  "\u2581asento": 4757,
  "\u2581blind": 4758,
  "\u2581categor\u00edas": 4759,
  "\u2581corresponding": 4760,
  "\u2581empregado": 4761,
  "\u2581indeed": 4762,
  "\u2581jobs": 4763,
  "\u2581personalizado": 4764,
  "\u2581poucos": 4765,
  "\u2581schedule": 4766,
  "\u2581volveu": 4767,
  "mas": 4768,
  "\u2581720": 4769,
  "\u2581Bookmark": 4770,
  "\u2581Dis": 4771,
  "\u2581Gravar": 4772,
  "\u2581Item": 4773,
  "\u2581KPhotoAlbum": 4774,
  "\u2581al\u00e1": 4775,
  "\u2581bordo": 4776,
  "\u2581cheo": 4777,
  "\u2581constru\u00edr": 4778,
  "\u2581editing": 4779,
  "\u2581esto": 4780,
  "\u2581ought": 4781,
  "\u2581procesar": 4782,
  "\u2581procuras": 4783,
  "\u2581sheet": 4784,
  "\u2581tags": 4785,
  "\u2581taxi": 4786,
  "\u2581zero": 4787,
  "\u2581\u00faltimos": 4788,
  "Di": 4789,
  "Germany": 4790,
  "fu": 4791,
  "ible": 4792,
  "iz": 4793,
  "ku": 4794,
  "ncia": 4795,
  "old": 4796,
  "qu": 4797,
  "rate": 4798,
  "san": 4799,
  "www": 4800,
  "\u25813,": 4801,
  "\u2581Adiante": 4802,
  "\u2581Australia": 4803,
  "\u2581Bye": 4804,
  "\u2581Chama": 4805,
  "\u2581Event": 4806,
  "\u2581Green": 4807,
  "\u2581Jon": 4808,
  "\u2581Mi\u00f1a": 4809,
  "\u2581Ru": 4810,
  "\u2581Subir": 4811,
  "\u2581bought": 4812,
  "\u2581controlar": 4813,
  "\u2581digas": 4814,
  "\u2581drawn": 4815,
  "\u2581escuro": 4816,
  "\u2581espect\u00e1culo": 4817,
  "\u2581fa": 4818,
  "\u2581fo": 4819,
  "\u2581ill": 4820,
  "\u2581metros": 4821,
  "\u2581puidese": 4822,
  "\u2581solution": 4823,
  "\u2581swear": 4824,
  "\u2581translations": 4825,
  "\u2581whom": 4826,
  "16": 4827,
  "box": 4828,
  "figures": 4829,
  "ker": 4830,
  "mit": 4831,
  "\u2581Asistente": 4832,
  "\u2581Dispositivo": 4833,
  "\u2581Entre": 4834,
  "\u2581Londres": 4835,
  "\u2581POP": 4836,
  "\u2581Ri": 4837,
  "\u2581Skip": 4838,
  "\u2581URLs": 4839,
  "\u2581Version": 4840,
  "\u2581Vexa": 4841,
  "\u2581autom\u00e1tico": 4842,
  "\u2581bomb": 4843,
  "\u2581consider": 4844,
  "\u2581esquecer": 4845,
  "\u2581extension": 4846,
  "\u2581flag": 4847,
  "\u2581fornece": 4848,
  "\u2581pesar": 4849,
  "\u2581posto": 4850,
  "\u2581resources": 4851,
  "\u2581ro": 4852,
  "\u2581setup": 4853,
  "\u2581speaking": 4854,
  "\u2581stood": 4855,
  "\u2581vela": 4856,
  "\u2581\u00d3": 4857,
  "RA": 4858,
  "day": 4859,
  "ec": 4860,
  "ust": 4861,
  "\u00f6": 4862,
  "\u258128": 4863,
  "\u2581Bill": 4864,
  "\u2581Captain": 4865,
  "\u2581Layer": 4866,
  "\u2581Propriedades": 4867,
  "\u2581Standard": 4868,
  "\u2581Te\u00f1": 4869,
  "\u2581burn": 4870,
  "\u2581cabo": 4871,
  "\u2581fermosa": 4872,
  "\u2581fixed": 4873,
  "\u2581formas": 4874,
  "\u2581listas": 4875,
  "\u2581meaning": 4876,
  "\u2581mis": 4877,
  "\u2581pequenas": 4878,
  "\u2581prefer": 4879,
  "9:": 4880,
  "eu": 4881,
  "ley": 4882,
  "\u2581Capuleto": 4883,
  "\u2581Cres": 4884,
  "\u2581Input": 4885,
  "\u2581Management": 4886,
  "\u2581Tan": 4887,
  "\u2581anaco": 4888,
  "\u2581aware": 4889,
  "\u2581bra": 4890,
  "\u2581caza": 4891,
  "\u2581curva": 4892,
  "\u2581estivese": 4893,
  "\u2581interior": 4894,
  "\u2581lucky": 4895,
  "\u2581natureza": 4896,
  "\u2581pezas": 4897,
  "\u2581res": 4898,
  "\u2581se\u00f1orita": 4899,
  "\u2581streets": 4900,
  "\u2581therefore": 4901,
  "\u2581t\u00f3dol": 4902,
  "\u2581unable": 4903,
  "\u2581weren": 4904,
  "\u2581xeraci\u00f3n": 4905,
  "\u2581\u00edtem": 4906,
  "ao": 4907,
  "only": 4908,
  "\u2581Baixar": 4909,
  "\u2581China": 4910,
  "\u2581Com": 4911,
  "\u2581Geoff": 4912,
  "\u2581Isn": 4913,
  "\u2581Ja": 4914,
  "\u2581Ka": 4915,
  "\u2581MySQL": 4916,
  "\u2581Sound": 4917,
  "\u2581ace": 4918,
  "\u2581ba\u00f1o": 4919,
  "\u2581bomba": 4920,
  "\u2581brazo": 4921,
  "\u2581brillo": 4922,
  "\u2581cancelar": 4923,
  "\u2581continuaci\u00f3n": 4924,
  "\u2581court": 4925,
  "\u2581efectos": 4926,
  "\u2581falando": 4927,
  "\u2581fuckin": 4928,
  "\u2581obtenci\u00f3n": 4929,
  "\u2581preferencias": 4930,
  "\u2581p\u00f3dense": 4931,
  "\u2581reality": 4932,
  "\u2581tape": 4933,
  "\u2581teach": 4934,
  "\u2581transfer": 4935,
  "\u2581trip": 4936,
  "\u2581wizard": 4937,
  "Plugin": 4938,
  "ay": 4939,
  "great": 4940,
  "men": 4941,
  "text": 4942,
  "\u00e9monos": 4943,
  "\u258145": 4944,
  "\u2581Acci\u00f3ns": 4945,
  "\u2581Alto": 4946,
  "\u2581Fuck": 4947,
  "\u2581Ivan": 4948,
  "\u2581Kexi": 4949,
  "\u2581Manage": 4950,
  "\u2581Memory": 4951,
  "\u2581Mor": 4952,
  "\u2581Program": 4953,
  "\u2581Russia": 4954,
  "\u2581Sets": 4955,
  "\u2581S\u00ed": 4956,
  "\u2581acaba": 4957,
  "\u2581acontece": 4958,
  "\u2581appropriate": 4959,
  "\u2581calls": 4960,
  "\u2581cancer": 4961,
  "\u2581const": 4962,
  "\u2581correctly": 4963,
  "\u2581estiven": 4964,
  "\u2581familiar": 4965,
  "\u2581likely": 4966,
  "\u2581matching": 4967,
  "\u2581norte": 4968,
  "\u2581oil": 4969,
  "\u2581per\u00edodo": 4970,
  "\u2581planet": 4971,
  "\u2581printing": 4972,
  "\u2581programs": 4973,
  "\u2581provides": 4974,
  "\u2581secuencia": 4975,
  "\u2581study": 4976,
  "\u2581verte": 4977,
  "TA": 4978,
  "ala": 4979,
  "cr": 4980,
  "cre": 4981,
  "ek": 4982,
  "key": 4983,
  "nas": 4984,
  "tado": 4985,
  "\u2581(1)": 4986,
  "\u2581Dixen": 4987,
  "\u2581House": 4988,
  "\u2581Jan": 4989,
  "\u2581Mike": 4990,
  "\u2581NOT": 4991,
  "\u2581UML": 4992,
  "\u2581angle": 4993,
  "\u2581antigo": 4994,
  "\u2581argumento": 4995,
  "\u2581dance": 4996,
  "\u2581desactivar": 4997,
  "\u2581drawing": 4998,
  "\u2581interval": 4999,
  "\u2581liked": 5000,
  "\u2581respostas": 5001,
  "\u2581semellante": 5002,
  "\u2581socket": 5003,
  "\u2581star": 5004,
  "\u2581tenda": 5005,
  "\u2581termo": 5006,
  "\u2581traduci\u00f3n": 5007,
  "14": 5008,
  "cor": 5009,
  "\u00f1": 5010,
  "\u258127": 5011,
  "\u258170": 5012,
  "\u2581Anyway": 5013,
  "\u2581Applet": 5014,
  "\u2581Azul": 5015,
  "\u2581CRL": 5016,
  "\u2581Che": 5017,
  "\u2581Class": 5018,
  "\u2581Deter": 5019,
  "\u2581Double": 5020,
  "\u2581EXIF": 5021,
  "\u2581Fe": 5022,
  "\u2581Fonte": 5023,
  "\u2581Map": 5024,
  "\u2581Motor": 5025,
  "\u2581Soporte": 5026,
  "\u2581actualmente": 5027,
  "\u2581arms": 5028,
  "\u2581calma": 5029,
  "\u2581desenvolvemento": 5030,
  "\u2581execut\u00e1bel": 5031,
  "\u2581follas": 5032,
  "\u2581horario": 5033,
  "\u2581irm\u00e1ns": 5034,
  "\u2581mime": 5035,
  "\u2581pensaba": 5036,
  "\u2581piques": 5037,
  "\u2581rapidamente": 5038,
  "\u2581risk": 5039,
  "\u2581simples": 5040,
  "\u2581tenta": 5041,
  "\u2581traer": 5042,
  "\u2581translate": 5043,
  "En": 5044,
  "MA": 5045,
  "her": 5046,
  "hu": 5047,
  "pp": 5048,
  "ray": 5049,
  "\u2581(12": 5050,
  "\u2581Actions": 5051,
  "\u2581Ad": 5052,
  "\u2581Aplicar": 5053,
  "\u2581Available": 5054,
  "\u2581Dime": 5055,
  "\u2581Language": 5056,
  "\u2581Queda": 5057,
  "\u2581Sinto": 5058,
  "\u2581V\u00e9n": 5059,
  "\u2581Word": 5060,
  "\u2581Zawinski": 5061,
  "\u2581dangerous": 5062,
  "\u2581deses": 5063,
  "\u2581estades": 5064,
  "\u2581foco": 5065,
  "\u2581including": 5066,
  "\u2581incluso": 5067,
  "\u2581keyword": 5068,
  "\u2581lembrar": 5069,
  "\u2581lies": 5070,
  "\u2581matou": 5071,
  "\u2581negocios": 5072,
  "\u2581nesa": 5073,
  "\u2581peche": 5074,
  "\u2581pensando": 5075,
  "\u2581realize": 5076,
  "\u2581ship": 5077,
  "\u2581views": 5078,
  "KChar": 5079,
  "tes": 5080,
  "\u25812005": 5081,
  "\u2581Crea": 5082,
  "\u2581Meta": 5083,
  "\u2581Min": 5084,
  "\u2581Sort": 5085,
  "\u2581Spanish": 5086,
  "\u2581Wilson": 5087,
  "\u2581camp": 5088,
  "\u2581clock": 5089,
  "\u2581connosco": 5090,
  "\u2581co\u00f1ezo": 5091,
  "\u2581darling": 5092,
  "\u2581enjoy": 5093,
  "\u2581feitos": 5094,
  "\u2581gusto": 5095,
  "\u2581hurry": 5096,
  "\u2581lembro": 5097,
  "\u2581north": 5098,
  "\u2581owner": 5099,
  "\u2581spoke": 5100,
  "\u2581walking": 5101,
  "gh": 5102,
  "l\u00e9": 5103,
  "\u2581Benvido": 5104,
  "\u2581Dar": 5105,
  "\u2581Nobody": 5106,
  "\u2581Special": 5107,
  "\u2581Verde": 5108,
  "\u2581aceptar": 5109,
  "\u2581addresses": 5110,
  "\u2581cases": 5111,
  "\u2581def": 5112,
  "\u2581dereitos": 5113,
  "\u2581determine": 5114,
  "\u2581disable": 5115,
  "\u2581distribution": 5116,
  "\u2581dura": 5117,
  "\u2581execution": 5118,
  "\u2581heads": 5119,
  "\u2581priority": 5120,
  "\u2581sing": 5121,
  "\u2581strength": 5122,
  "\u2581talked": 5123,
  "\u2581versi\u00f3ns": 5124,
  "Pero": 5125,
  "ack": 5126,
  "ime": 5127,
  "ski": 5128,
  "\u2581%4": 5129,
  "\u2581Al\u00ed": 5130,
  "\u2581Coidado": 5131,
  "\u2581Esquerda": 5132,
  "\u2581Estive": 5133,
  "\u2581Hurry": 5134,
  "\u2581Nacional": 5135,
  "\u2581Pen": 5136,
  "\u2581Reset": 5137,
  "\u2581Software": 5138,
  "\u2581Tema": 5139,
  "\u2581Winnipeg": 5140,
  "\u2581brazos": 5141,
  "\u2581cantos": 5142,
  "\u2581creation": 5143,
  "\u2581features": 5144,
  "\u2581market": 5145,
  "\u2581miniaturas": 5146,
  "\u2581mirou": 5147,
  "\u2581nela": 5148,
  "\u2581niveis": 5149,
  "\u2581perfect": 5150,
  "\u2581puntuaci\u00f3n": 5151,
  "\u2581sesi\u00f3ns": 5152,
  "\u2581subjects": 5153,
  "\u2581torrente": 5154,
  "\u2581xu\u00edzo": 5155,
  "As": 5156,
  "ade": 5157,
  "encia": 5158,
  "ji": 5159,
  "wi": 5160,
  "\u2581Cara": 5161,
  "\u2581Cursor": 5162,
  "\u2581Orde": 5163,
  "\u2581[%": 5164,
  "\u2581creating": 5165,
  "\u2581destas": 5166,
  "\u2581dicindo": 5167,
  "\u2581especially": 5168,
  "\u2581exit": 5169,
  "\u2581gentlemen": 5170,
  "\u2581headers": 5171,
  "\u2581movementos": 5172,
  "\u2581propios": 5173,
  "\u2581ra\u00edz": 5174,
  "\u2581reached": 5175,
  "\u2581resumo": 5176,
  "\u2581substitu\u00edr": 5177,
  "All": 5178,
  "cas": 5179,
  "nda": 5180,
  "\u00c1": 5181,
  "\u2581Bal": 5182,
  "\u2581Bay": 5183,
  "\u2581Cantos": 5184,
  "\u2581Coma": 5185,
  "\u2581Extra": 5186,
  "\u2581Harry": 5187,
  "\u2581Kolab": 5188,
  "\u2581March": 5189,
  "\u2581Navegador": 5190,
  "\u2581Nos": 5191,
  "\u2581Reload": 5192,
  "\u2581Robinson": 5193,
  "\u2581Sit": 5194,
  "\u2581Tri": 5195,
  "\u2581ambos": 5196,
  "\u2581bear": 5197,
  "\u2581bookmarks": 5198,
  "\u2581deixe": 5199,
  "\u2581directories": 5200,
  "\u2581domingo": 5201,
  "\u2581followed": 5202,
  "\u2581listening": 5203,
  "\u2581lock": 5204,
  "\u2581multimedia": 5205,
  "\u2581notes": 5206,
  "\u2581offer": 5207,
  "\u2581prefix": 5208,
  "\u2581queiras": 5209,
  "\u2581remota": 5210,
  "\u2581representa": 5211,
  "\u2581role": 5212,
  "\u2581smart": 5213,
  "\u2581switch": 5214,
  "\u2581s\u00edmbolo": 5215,
  "\u2581vento": 5216,
  "\u2581welcome": 5217,
  "\u2581whenever": 5218,
  "25": 5219,
  "But": 5220,
  "ated": 5221,
  "gre": 5222,
  "istas": 5223,
  "je": 5224,
  "ju": 5225,
  "ls": 5226,
  "ue": 5227,
  "\u2581\"%1.\"": 5228,
  "\u2581Cat": 5229,
  "\u2581Detalles": 5230,
  "\u2581Empty": 5231,
  "\u2581Far": 5232,
  "\u2581Korea": 5233,
  "\u2581Monte": 5234,
  "\u2581Report": 5235,
  "\u2581Service": 5236,
  "\u2581Se\u00f1ora": 5237,
  "\u2581Width": 5238,
  "\u2581aqueles": 5239,
  "\u2581avi\u00f3n": 5240,
  "\u2581cadro": 5241,
  "\u2581capa": 5242,
  "\u2581cifrar": 5243,
  "\u2581cortar": 5244,
  "\u2581crea": 5245,
  "\u2581degrees": 5246,
  "\u2581determinar": 5247,
  "\u2581dev": 5248,
  "\u2581duration": 5249,
  "\u2581extensi\u00f3ns": 5250,
  "\u2581fellow": 5251,
  "\u2581hint": 5252,
  "\u2581playlist": 5253,
  "\u2581posibilidade": 5254,
  "\u2581progreso": 5255,
  "\u2581propriedades": 5256,
  "\u2581route": 5257,
  "\u2581scene": 5258,
  "\u2581stories": 5259,
  "\u2581te\u00f1as": 5260,
  "\u2581vender": 5261,
  "cou": 5262,
  "gl": 5263,
  "illa": 5264,
  "jan": 5265,
  "sme": 5266,
  "\u2581Column": 5267,
  "\u2581SO": 5268,
  "\u2581Ta": 5269,
  "\u2581UID": 5270,
  "\u2581aparecen": 5271,
  "\u2581blow": 5272,
  "\u2581cen": 5273,
  "\u2581coat": 5274,
  "\u2581connections": 5275,
  "\u2581conter": 5276,
  "\u2581describe": 5277,
  "\u2581duty": 5278,
  "\u2581fermoso": 5279,
  "\u2581graos": 5280,
  "\u2581historias": 5281,
  "\u2581imp": 5282,
  "\u2581links": 5283,
  "\u2581muda": 5284,
  "\u2581noticias": 5285,
  "\u2581perda": 5286,
  "\u2581permiten": 5287,
  "\u2581pobres": 5288,
  "\u2581stage": 5289,
  "\u2581twice": 5290,
  "\u2581verificar": 5291,
  "\u2581vidas": 5292,
  "\u2581vila": 5293,
  "har": 5294,
  "nes": 5295,
  "pos": 5296,
  "ric": 5297,
  "\u2581C\u00f3digo": 5298,
  "\u2581G\u00fastame": 5299,
  "\u2581History": 5300,
  "\u2581Love": 5301,
  "\u2581Photo": 5302,
  "\u2581RAM": 5303,
  "\u2581Radio": 5304,
  "\u2581TLS": 5305,
  "\u2581Tal": 5306,
  "\u2581atributo": 5307,
  "\u2581avoa": 5308,
  "\u2581cambia": 5309,
  "\u2581cita": 5310,
  "\u2581controlador": 5311,
  "\u2581delay": 5312,
  "\u2581destination": 5313,
  "\u2581estabas": 5314,
  "\u2581factory": 5315,
  "\u2581fonts": 5316,
  "\u2581killing": 5317,
  "\u2581properly": 5318,
  "\u2581protector": 5319,
  "\u2581responder": 5320,
  "\u2581\u00e1ngulo": 5321,
  "Onde": 5322,
  "Pos": 5323,
  "ag": 5324,
  "bin": 5325,
  "ham": 5326,
  "iva": 5327,
  "rico": 5328,
  "ritain": 5329,
  "tta": 5330,
  "\u2581Calquera": 5331,
  "\u2581Comezar": 5332,
  "\u2581Desculpe": 5333,
  "\u2581Kig": 5334,
  "\u2581RE": 5335,
  "\u2581Rematou": 5336,
  "\u2581Reproducir": 5337,
  "\u2581accounts": 5338,
  "\u2581affect": 5339,
  "\u2581ama": 5340,
  "\u2581ap\u00f3s": 5341,
  "\u2581atallo": 5342,
  "\u2581broke": 5343,
  "\u2581cadeas": 5344,
  "\u2581compa\u00f1eiro": 5345,
  "\u2581conexi\u00f3ns": 5346,
  "\u2581contacts": 5347,
  "\u2581deus": 5348,
  "\u2581edge": 5349,
  "\u2581executed": 5350,
  "\u2581exportaci\u00f3n": 5351,
  "\u2581honey": 5352,
  "\u2581indo": 5353,
  "\u2581learning": 5354,
  "\u2581maiores": 5355,
  "\u2581membros": 5356,
  "\u2581movies": 5357,
  "\u2581perigo": 5358,
  "\u2581powerful": 5359,
  "\u2581rapazas": 5360,
  "\u2581relationship": 5361,
  "\u2581xestionar": 5362,
  "Co": 5363,
  "mbo": 5364,
  "riamos": 5365,
  "\u258132": 5366,
  "\u2581Anterior": 5367,
  "\u2581Elimina": 5368,
  "\u2581Everyone": 5369,
  "\u2581FTP": 5370,
  "\u2581Include": 5371,
  "\u2581Julieta": 5372,
  "\u2581Localizaci\u00f3n": 5373,
  "\u2581Object": 5374,
  "\u2581Ontario": 5375,
  "\u2581Palm": 5376,
  "\u2581Par": 5377,
  "\u2581UNIX": 5378,
  "\u2581acces\u00edbel": 5379,
  "\u2581admite": 5380,
  "\u2581alem\u00e1n": 5381,
  "\u2581aparencia": 5382,
  "\u2581cabaleiro": 5383,
  "\u2581carro": 5384,
  "\u2581checking": 5385,
  "\u2581construci\u00f3n": 5386,
  "\u2581controls": 5387,
  "\u2581correr": 5388,
  "\u2581countries": 5389,
  "\u2581debera": 5390,
  "\u2581desexe": 5391,
  "\u2581domain": 5392,
  "\u2581entorno": 5393,
  "\u2581especifica": 5394,
  "\u2581interese": 5395,
  "\u2581interfaces": 5396,
  "\u2581inverno": 5397,
  "\u2581kitchen": 5398,
  "\u2581locked": 5399,
  "\u2581marabilloso": 5400,
  "\u2581parada": 5401,
  "\u2581pieces": 5402,
  "\u2581poder\u00edan": 5403,
  "\u2581portas": 5404,
  "\u2581reasons": 5405,
  "\u2581sake": 5406,
  "\u2581signed": 5407,
  "\u2581sodes": 5408,
  "\u2581standing": 5409,
  "\u2581strike": 5410,
  "\u2581thousands": 5411,
  "\u2581wake": 5412,
  "\u2581weapons": 5413,
  "Part": 5414,
  "amento": 5415,
  "era": 5416,
  "gen": 5417,
  "iza": 5418,
  "sunit": 5419,
  "\u2581Arriba": 5420,
  "\u2581Bring": 5421,
  "\u2581Contact": 5422,
  "\u2581Converter": 5423,
  "\u2581Deal": 5424,
  "\u2581Durante": 5425,
  "\u2581Guard": 5426,
  "\u2581Lee": 5427,
  "\u2581Post": 5428,
  "\u2581Ren": 5429,
  "\u2581Sally": 5430,
  "\u2581Terminal": 5431,
  "\u2581administrador": 5432,
  "\u2581ancho": 5433,
  "\u2581anda": 5434,
  "\u2581brothers": 5435,
  "\u2581clic": 5436,
  "\u2581component": 5437,
  "\u2581deber\u00edan": 5438,
  "\u2581destroy": 5439,
  "\u2581escrito": 5440,
  "\u2581inserir": 5441,
  "\u2581marcar": 5442,
  "\u2581plans": 5443,
  "\u2581pleasure": 5444,
  "\u2581rango": 5445,
  "\u2581reference": 5446,
  "\u2581reserva": 5447,
  "\u2581r\u00edo": 5448,
  "\u2581sexas": 5449,
  "\u2581smell": 5450,
  "\u2581sync": 5451,
  "\u2581telo": 5452,
  "\u2581wind": 5453,
  "Est\u00e1": 5454,
  "command": 5455,
  "dia": 5456,
  "ficial": 5457,
  "nme": 5458,
  "rou": 5459,
  "\u2581Christian": 5460,
  "\u2581Comprobar": 5461,
  "\u2581Debo": 5462,
  "\u2581Frank": 5463,
  "\u2581Hand": 5464,
  "\u2581Inicio": 5465,
  "\u2581KDevelop": 5466,
  "\u2581Maintainer": 5467,
  "\u2581Nun": 5468,
  "\u2581Tray": 5469,
  "\u2581abonda": 5470,
  "\u2581absoluto": 5471,
  "\u2581ademais": 5472,
  "\u2581alterar": 5473,
  "\u2581breath": 5474,
  "\u2581brillante": 5475,
  "\u2581cae": 5476,
  "\u2581comp": 5477,
  "\u2581contidos": 5478,
  "\u2581criminal": 5479,
  "\u2581c\u00e1lculo": 5480,
  "\u2581esperando": 5481,
  "\u2581filmes": 5482,
  "\u2581franc\u00e9s": 5483,
  "\u2581levels": 5484,
  "\u2581masa": 5485,
  "\u2581oficial": 5486,
  "\u2581printed": 5487,
  "ST": 5488,
  "number": 5489,
  "top": 5490,
  "\u2581%1%2": 5491,
  "\u2581150": 5492,
  "\u2581Highlight": 5493,
  "\u2581MP": 5494,
  "\u2581Marble": 5495,
  "\u2581Men\u00fa": 5496,
  "\u2581PNG": 5497,
  "\u2581Rexistro": 5498,
  "\u2581arre": 5499,
  "\u2581beyond": 5500,
  "\u2581cinta": 5501,
  "\u2581development": 5502,
  "\u2581espada": 5503,
  "\u2581fax": 5504,
  "\u2581funeral": 5505,
  "\u2581hat": 5506,
  "\u2581however": 5507,
  "\u2581igrexa": 5508,
  "\u2581importantes": 5509,
  "\u2581ladder": 5510,
  "\u2581longa": 5511,
  "\u2581lovely": 5512,
  "\u2581mistake": 5513,
  "\u2581reais": 5514,
  "\u2581reduce": 5515,
  "\u2581resoluci\u00f3n": 5516,
  "\u2581se\u00f1ores": 5517,
  "\u2581tasks": 5518,
  "\u2581wedding": 5519,
  "US": 5520,
  "card": 5521,
  "ire": 5522,
  "nto": 5523,
  "stra": 5524,
  "tin": 5525,
  "\u2581Albert": 5526,
  "\u2581At\u00e9": 5527,
  "\u2581Bos": 5528,
  "\u2581IPTC": 5529,
  "\u2581Rota": 5530,
  "\u2581Scale": 5531,
  "\u2581Sign": 5532,
  "\u2581Ter": 5533,
  "\u2581aquela": 5534,
  "\u2581axeitado": 5535,
  "\u2581basic": 5536,
  "\u2581dying": 5537,
  "\u2581fotograf\u00eda": 5538,
  "\u2581generation": 5539,
  "\u2581honra": 5540,
  "\u2581konsolekalendar": 5541,
  "\u2581lonxitude": 5542,
  "\u2581peza": 5543,
  "\u2581pin": 5544,
  "\u2581recentemente": 5545,
  "\u2581sentar": 5546,
  "\u2581signal": 5547,
  "\u2581supo\u00f1o": 5548,
  "\u2581television": 5549,
  "\u2581transactions": 5550,
  "\u2581wild": 5551,
  "AS": 5552,
  "ON": 5553,
  "VE": 5554,
  "book": 5555,
  "ized": 5556,
  "rado": 5557,
  "ties": 5558,
  "zi": 5559,
  "\u2581Acci\u00f3n": 5560,
  "\u2581Build": 5561,
  "\u2581Cre": 5562,
  "\u2581Iron": 5563,
  "\u2581Kontact": 5564,
  "\u2581Matthew": 5565,
  "\u2581Refresh": 5566,
  "\u2581Sab\u00eda": 5567,
  "\u2581Segue": 5568,
  "\u2581Segundo": 5569,
  "\u2581Talvez": 5570,
  "\u2581UN": 5571,
  "\u2581Widget": 5572,
  "\u2581alcume": 5573,
  "\u2581bank": 5574,
  "\u2581changing": 5575,
  "\u2581dare": 5576,
  "\u2581empregada": 5577,
  "\u2581graph": 5578,
  "\u2581incorrecto": 5579,
  "\u2581lateral": 5580,
  "\u2581limpar": 5581,
  "\u2581marcador": 5582,
  "\u2581mercado": 5583,
  "\u2581meta": 5584,
  "\u2581ne": 5585,
  "\u2581negra": 5586,
  "\u2581niso": 5587,
  "\u2581pistas": 5588,
  "\u2581plant": 5589,
  "\u2581poda": 5590,
  "\u2581popup": 5591,
  "\u2581preferences": 5592,
  "\u2581presentar": 5593,
  "\u2581prop\u00f3sito": 5594,
  "\u2581querer": 5595,
  "\u2581resolution": 5596,
  "\u2581services": 5597,
  "\u2581steps": 5598,
  "\u2581subt\u00edtulos": 5599,
  "\u2581xard\u00edn": 5600,
  "\u2581\u00e9poca": 5601,
  "Property": 5602,
  "UR": 5603,
  "ano": 5604,
  "ivo": 5605,
  "llas": 5606,
  "ow": 5607,
  "\u00edas": 5608,
  "\u2581Ai": 5609,
  "\u2581Boeun": 5610,
  "\u2581Cho": 5611,
  "\u2581Daisy": 5612,
  "\u2581Frame": 5613,
  "\u2581Ku": 5614,
  "\u2581Rede": 5615,
  "\u2581Sunday": 5616,
  "\u2581While": 5617,
  "\u2581ambiente": 5618,
  "\u2581av\u00f3": 5619,
  "\u2581bother": 5620,
  "\u2581cancro": 5621,
  "\u2581classes": 5622,
  "\u2581compa\u00f1eiros": 5623,
  "\u2581damn": 5624,
  "\u2581diferenzas": 5625,
  "\u2581dir\u00eda": 5626,
  "\u2581explicar": 5627,
  "\u2581factor": 5628,
  "\u2581formats": 5629,
  "\u2581gato": 5630,
  "\u2581internet": 5631,
  "\u2581investigaci\u00f3n": 5632,
  "\u2581invitation": 5633,
  "\u2581journal": 5634,
  "\u2581morta": 5635,
  "\u2581ollar": 5636,
  "\u2581ponte": 5637,
  "\u2581protexer": 5638,
  "\u2581proud": 5639,
  "\u2581rid": 5640,
  "\u2581spaces": 5641,
  "\u2581terceiro": 5642,
  "\u2581unidades": 5643,
  "\u2581visor": 5644,
  "\u2581warning": 5645,
  "2)": 5646,
  "SPI": 5647,
  "como": 5648,
  "gua": 5649,
  "head": 5650,
  "osa": 5651,
  "oso": 5652,
  "\u2581Automatic": 5653,
  "\u2581Carta": 5654,
  "\u2581Comentario": 5655,
  "\u2581Din": 5656,
  "\u2581Hu": 5657,
  "\u2581Install": 5658,
  "\u2581Japanese": 5659,
  "\u2581Nice": 5660,
  "\u2581Usuario": 5661,
  "\u2581WHAT": 5662,
  "\u2581Wall": 5663,
  "\u2581aldea": 5664,
  "\u2581compression": 5665,
  "\u2581condici\u00f3n": 5666,
  "\u2581easier": 5667,
  "\u2581esforzo": 5668,
  "\u2581esp\u00edrito": 5669,
  "\u2581fat": 5670,
  "\u2581huge": 5671,
  "\u2581metadatos": 5672,
  "\u2581pair": 5673,
  "\u2581pedido": 5674,
  "\u2581pra": 5675,
  "\u2581pr\u00e1ctica": 5676,
  "\u2581quedou": 5677,
  "\u2581ref": 5678,
  "\u2581relative": 5679,
  "\u2581summer": 5680,
  "\u2581sword": 5681,
  "\u2581textbox": 5682,
  "\u2581unique": 5683,
  "\u2581username": 5684,
  "Con": 5685,
  "amente": 5686,
  "eta": 5687,
  "field": 5688,
  "\u2581400": 5689,
  "\u2581Additional": 5690,
  "\u2581BE": 5691,
  "\u2581Chave": 5692,
  "\u2581Fergus": 5693,
  "\u2581Gi": 5694,
  "\u2581HE": 5695,
  "\u2581HotSync": 5696,
  "\u2581Low": 5697,
  "\u2581Many": 5698,
  "\u2581Ni": 5699,
  "\u2581Punto": 5700,
  "\u2581Tar": 5701,
  "\u2581Tenta": 5702,
  "\u2581arguments": 5703,
  "\u2581asasinato": 5704,
  "\u2581ataque": 5705,
  "\u2581debuxar": 5706,
  "\u2581decimal": 5707,
  "\u2581distribuci\u00f3n": 5708,
  "\u2581escena": 5709,
  "\u2581frecuencia": 5710,
  "\u2581gustar\u00eda": 5711,
  "\u2581hall": 5712,
  "\u2581higher": 5713,
  "\u2581ie": 5714,
  "\u2581intelixente": 5715,
  "\u2581ling\u00fceta": 5716,
  "\u2581members": 5717,
  "\u2581militar": 5718,
  "\u2581movement": 5719,
  "\u2581necesita": 5720,
  "\u2581neither": 5721,
  "\u2581pop": 5722,
  "\u2581propiedade": 5723,
  "\u2581push": 5724,
  "\u2581raz\u00f3ns": 5725,
  "\u2581recente": 5726,
  "\u2581textos": 5727,
  "\u2581treat": 5728,
  "\u2581ve\u00f1en": 5729,
  "\u2581wide": 5730,
  "ameroon": 5731,
  "object": 5732,
  "via": 5733,
  "\u2581(*": 5734,
  "\u2581.--": 5735,
  "\u2581Also": 5736,
  "\u2581Aviso": 5737,
  "\u2581Fiestra": 5738,
  "\u2581Howard": 5739,
  "\u2581Kill": 5740,
  "\u2581Preme": 5741,
  "\u2581asentos": 5742,
  "\u2581aspecto": 5743,
  "\u2581axenda": 5744,
  "\u2581bloques": 5745,
  "\u2581cantar": 5746,
  "\u2581certa": 5747,
  "\u2581colle": 5748,
  "\u2581debido": 5749,
  "\u2581descubrir": 5750,
  "\u2581filas": 5751,
  "\u2581historial": 5752,
  "\u2581mixed": 5753,
  "\u2581recognize": 5754,
  "\u2581recuperar": 5755,
  "\u2581vinte": 5756,
  "\u2581vis\u00edbel": 5757,
  "24": 5758,
  "How": 5759,
  "cl": 5760,
  "gou": 5761,
  "shire": 5762,
  "\u00e9s": 5763,
  "\u2581Baixa": 5764,
  "\u2581Dille": 5765,
  "\u2581Gil": 5766,
  "\u2581India": 5767,
  "\u2581Mal": 5768,
  "\u2581RGB": 5769,
  "\u2581Ra\u00ed\u00f1a": 5770,
  "\u2581Resumo": 5771,
  "\u2581Semella": 5772,
  "\u2581activity": 5773,
  "\u2581apartamento": 5774,
  "\u2581canles": 5775,
  "\u2581car\u00f3n": 5776,
  "\u2581civil": 5777,
  "\u2581destinatario": 5778,
  "\u2581imaxinar": 5779,
  "\u2581neck": 5780,
  "\u2581pet": 5781,
  "\u2581prioridade": 5782,
  "\u2581revoluci\u00f3n": 5783,
  "\u2581shop": 5784,
  "\u2581sincronizaci\u00f3n": 5785,
  "\u2581stranger": 5786,
  "\u2581tecnolox\u00eda": 5787,
  "\u2581trae": 5788,
  "\u2581winter": 5789,
  "ther": 5790,
  "water": 5791,
  "\u2581Acaba": 5792,
  "\u2581Authentication": 5793,
  "\u2581Boy": 5794,
  "\u2581Collection": 5795,
  "\u2581Execute": 5796,
  "\u2581Grid": 5797,
  "\u2581Host": 5798,
  "\u2581Krita": 5799,
  "\u2581Reiniciar": 5800,
  "\u2581Robb": 5801,
  "\u2581Sa\u00edda": 5802,
  "\u2581Selector": 5803,
  "\u2581Ser\u00eda": 5804,
  "\u2581Starting": 5805,
  "\u2581Subject": 5806,
  "\u2581Tim": 5807,
  "\u2581Va": 5808,
  "\u2581]": 5809,
  "\u2581abra": 5810,
  "\u2581acepta": 5811,
  "\u2581aconteceu": 5812,
  "\u2581americanos": 5813,
  "\u2581arranxar": 5814,
  "\u2581aspect": 5815,
  "\u2581atopado": 5816,
  "\u2581cans": 5817,
  "\u2581cativos": 5818,
  "\u2581church": 5819,
  "\u2581corte": 5820,
  "\u2581definido": 5821,
  "\u2581dixital": 5822,
  "\u2581escoita": 5823,
  "\u2581especialmente": 5824,
  "\u2581fetch": 5825,
  "\u2581forzas": 5826,
  "\u2581generate": 5827,
  "\u2581ignore": 5828,
  "\u2581m\u00e9todos": 5829,
  "\u2581ocupar": 5830,
  "\u2581pa\u00edses": 5831,
  "\u2581pediu": 5832,
  "\u2581release": 5833,
  "\u2581remata": 5834,
  "\u2581river": 5835,
  "\u2581scheduled": 5836,
  "\u2581silence": 5837,
  "\u2581tabs": 5838,
  "\u2581weight": 5839,
  "600": 5840,
  "ey": 5841,
  "izar": 5842,
  "value": 5843,
  "\u2581(*.": 5844,
  "\u2581Avanzado": 5845,
  "\u2581Continue": 5846,
  "\u2581D\u00e1": 5847,
  "\u2581Forward": 5848,
  "\u2581GO": 5849,
  "\u2581KDEPrint": 5850,
  "\u2581KOffice": 5851,
  "\u2581Krusader": 5852,
  "\u2581Label": 5853,
  "\u2581Latin": 5854,
  "\u2581Nick": 5855,
  "\u2581Okular": 5856,
  "\u2581Permite": 5857,
  "\u2581Repartir": 5858,
  "\u2581Star": 5859,
  "\u2581Traballo": 5860,
  "\u2581awful": 5861,
  "\u2581categories": 5862,
  "\u2581compresi\u00f3n": 5863,
  "\u2581conf": 5864,
  "\u2581copyright": 5865,
  "\u2581core": 5866,
  "\u2581credit": 5867,
  "\u2581educaci\u00f3n": 5868,
  "\u2581fica": 5869,
  "\u2581formatos": 5870,
  "\u2581habitaci\u00f3n": 5871,
  "\u2581humana": 5872,
  "\u2581industria": 5873,
  "\u2581loading": 5874,
  "\u2581matches": 5875,
  "\u2581mi\u00fado": 5876,
  "\u2581navegaci\u00f3n": 5877,
  "\u2581personalizada": 5878,
  "\u2581procesamento": 5879,
  "\u2581recently": 5880,
  "\u2581revolution": 5881,
  "\u2581salvar": 5882,
  "\u2581soporta": 5883,
  "\u2581so\u00f1os": 5884,
  "\u2581st": 5885,
  "\u2581stars": 5886,
  "\u2581successful": 5887,
  "\u2581tele": 5888,
  "\u2581toca": 5889,
  "\u2581tola": 5890,
  "\u2581traballos": 5891,
  "$": 5892,
  "IC": 5893,
  "View": 5894,
  "ute": 5895,
  "\u2581Align": 5896,
  "\u2581DTD": 5897,
  "\u2581Night": 5898,
  "\u2581Py": 5899,
  "\u2581Qu\u00e9": 5900,
  "\u2581Volve": 5901,
  "\u2581anywhere": 5902,
  "\u2581band": 5903,
  "\u2581branch": 5904,
  "\u2581dano": 5905,
  "\u2581deber\u00e1": 5906,
  "\u2581defend": 5907,
  "\u2581dicirlle": 5908,
  "\u2581divertido": 5909,
  "\u2581education": 5910,
  "\u2581feels": 5911,
  "\u2581hole": 5912,
  "\u2581levou": 5913,
  "\u2581mess": 5914,
  "\u2581patr\u00f3n": 5915,
  "\u2581pe": 5916,
  "\u2581propiedades": 5917,
  "\u2581reminder": 5918,
  "\u2581repeat": 5919,
  "\u2581response": 5920,
  "\u2581servir": 5921,
  "\u2581shoes": 5922,
  "\u2581trial": 5923,
  "\u2581vexa": 5924,
  "\u2581vocabulario": 5925,
  "\u2581voltar": 5926,
  "\u2581walked": 5927,
  "Please": 5928,
  "Why": 5929,
  "az": 5930,
  "dir": 5931,
  "tida": 5932,
  "ussia": 5933,
  "\u2581Creating": 5934,
  "\u2581DA": 5935,
  "\u2581Etiqueta": 5936,
  "\u2581Folders": 5937,
  "\u2581Header": 5938,
  "\u2581Jack": 5939,
  "\u2581KStars": 5940,
  "\u2581Prince": 5941,
  "\u2581Shit": 5942,
  "\u2581Sweetback": 5943,
  "\u2581abertos": 5944,
  "\u2581cales": 5945,
  "\u2581contorno": 5946,
  "\u2581c\u00edrculo": 5947,
  "\u2581dabondo": 5948,
  "\u2581diagramas": 5949,
  "\u2581divisi\u00f3n": 5950,
  "\u2581duraci\u00f3n": 5951,
  "\u2581escriba": 5952,
  "\u2581hungry": 5953,
  "\u2581mai\u00fasculas": 5954,
  "\u2581methods": 5955,
  "\u2581modificaci\u00f3n": 5956,
  "\u2581moon": 5957,
  "\u2581recoller": 5958,
  "\u2581ru": 5959,
  "\u2581senta": 5960,
  "\u2581speech": 5961,
  "\u2581termos": 5962,
  "\u2581th": 5963,
  "\u2581traballando": 5964,
  "\u2581uncle": 5965,
  "\u2581uri": 5966,
  "!--": 5967,
  "00": 5968,
  "40": 5969,
  "ear": 5970,
  "essive": 5971,
  "rro": 5972,
  "that": 5973,
  "uro": 5974,
  "valor": 5975,
  "\u2581Browse": 5976,
  "\u2581Found": 5977,
  "\u2581Global": 5978,
  "\u2581Irmao": 5979,
  "\u2581Nelson": 5980,
  "\u2581Upload": 5981,
  "\u2581apartment": 5982,
  "\u2581coidar": 5983,
  "\u2581coido": 5984,
  "\u2581depart": 5985,
  "\u2581effects": 5986,
  "\u2581ended": 5987,
  "\u2581estrada": 5988,
  "\u2581finalmente": 5989,
  "\u2581greater": 5990,
  "\u2581gr\u00e1ficos": 5991,
  "\u2581leve": 5992,
  "\u2581maintainer": 5993,
  "\u2581mestre": 5994,
  "\u2581modificado": 5995,
  "\u2581paga": 5996,
  "\u2581pausa": 5997,
  "\u2581pescozo": 5998,
  "\u2581proper": 5999,
  "\u2581quitar": 6000,
  "\u2581rexi\u00f3n": 6001,
  "\u2581series": 6002,
  "\u2581slowly": 6003,
  "\u2581statement": 6004,
  "\u2581stream": 6005,
  "\u2581union": 6006,
  "19": 6007,
  "ES": 6008,
  "If": 6009,
  "ating": 6010,
  "dan": 6011,
  "menta": 6012,
  "mu": 6013,
  "\u2581(0": 6014,
  "\u25813)": 6015,
  "\u2581Bear": 6016,
  "\u2581CAN": 6017,
  "\u2581Har": 6018,
  "\u2581JULlET": 6019,
  "\u2581Kemp": 6020,
  "\u2581Kim": 6021,
  "\u2581OpenGL": 6022,
  "\u2581Preciso": 6023,
  "\u2581Someone": 6024,
  "\u2581Ter\u00e1": 6025,
  "\u2581arco": 6026,
  "\u2581attributes": 6027,
  "\u2581cabeceiras": 6028,
  "\u2581clientes": 6029,
  "\u2581consulta": 6030,
  "\u2581coordenadas": 6031,
  "\u2581crash": 6032,
  "\u2581declaraci\u00f3n": 6033,
  "\u2581definition": 6034,
  "\u2581directorios": 6035,
  "\u2581enfermo": 6036,
  "\u2581externo": 6037,
  "\u2581fly": 6038,
  "\u2581legs": 6039,
  "\u2581l\u00faa": 6040,
  "\u2581milk": 6041,
  "\u2581mostran": 6042,
  "\u2581pal": 6043,
  "\u2581pasos": 6044,
  "\u2581precisamos": 6045,
  "\u2581ratio": 6046,
  "\u2581segredo": 6047,
  "\u2581surprise": 6048,
  "\u2581trans": 6049,
  "\u2581va": 6050,
  "\u2581xenial": 6051,
  "iga": 6052,
  "stru": 6053,
  "tz": 6054,
  "\u2581Anna": 6055,
  "\u2581CSV": 6056,
  "\u2581DNS": 6057,
  "\u2581IPSec": 6058,
  "\u2581Jane": 6059,
  "\u2581LongName": 6060,
  "\u2581Pecha": 6061,
  "\u2581Writing": 6062,
  "\u2581acadar": 6063,
  "\u2581adjust": 6064,
  "\u2581ameaza": 6065,
  "\u2581carreira": 6066,
  "\u2581dates": 6067,
  "\u2581desgraza": 6068,
  "\u2581disparar": 6069,
  "\u2581dropped": 6070,
  "\u2581enorme": 6071,
  "\u2581invisible": 6072,
  "\u2581las": 6073,
  "\u2581levan": 6074,
  "\u2581materia": 6075,
  "\u2581parent": 6076,
  "\u2581pen": 6077,
  "\u2581population": 6078,
  "\u2581ps": 6079,
  "\u2581puzzle": 6080,
  "\u2581sal": 6081,
  "\u2581success": 6082,
  "\u2581tears": 6083,
  "\u2581visto": 6084,
  "5)": 6085,
  "ador": 6086,
  "\u2581ALL": 6087,
  "\u2581Bad": 6088,
  "\u2581Controlador": 6089,
  "\u2581Environment": 6090,
  "\u2581Jacques": 6091,
  "\u2581Loki": 6092,
  "\u2581MIDI": 6093,
  "\u2581Model": 6094,
  "\u2581Retire": 6095,
  "\u2581Roman": 6096,
  "\u2581SMS": 6097,
  "\u2581ShortName": 6098,
  "\u2581Speed": 6099,
  "\u2581Square": 6100,
  "\u2581Task": 6101,
  "\u2581URI": 6102,
  "\u2581USB": 6103,
  "\u2581Without": 6104,
  "\u2581YOUR": 6105,
  "\u2581algorithm": 6106,
  "\u2581billion": 6107,
  "\u2581brancos": 6108,
  "\u2581caeu": 6109,
  "\u2581compartir": 6110,
  "\u2581consulte": 6111,
  "\u2581entra": 6112,
  "\u2581errors": 6113,
  "\u2581estaci\u00f3n": 6114,
  "\u2581experiment": 6115,
  "\u2581forever": 6116,
  "\u2581introduce": 6117,
  "\u2581led": 6118,
  "\u2581leste": 6119,
  "\u2581loan": 6120,
  "\u2581metadata": 6121,
  "\u2581mudanza": 6122,
  "\u2581podedes": 6123,
  "\u2581reco\u00f1ece": 6124,
  "\u2581remain": 6125,
  "\u2581sleeping": 6126,
  "\u2581spot": 6127,
  "\u2581tarxeta": 6128,
  "\u2581traxe": 6129,
  "\u2581vemos": 6130,
  "\u2581xornal": 6131,
  "2001": 6132,
  "cy": 6133,
  "ok": 6134,
  "row": 6135,
  "r\u00ed": 6136,
  "uk": 6137,
  "\u00edbel": 6138,
  "\u2581Bandexa": 6139,
  "\u2581Box": 6140,
  "\u2581Caixa": 6141,
  "\u2581Codificaci\u00f3n": 6142,
  "\u2581Columns": 6143,
  "\u2581Disk": 6144,
  "\u2581Doctor": 6145,
  "\u2581Five": 6146,
  "\u2581Forma": 6147,
  "\u2581Hard": 6148,
  "\u2581Jean": 6149,
  "\u2581Jesus": 6150,
  "\u2581KWord": 6151,
  "\u2581Microsoft": 6152,
  "\u2581Resize": 6153,
  "\u2581True": 6154,
  "\u2581UI": 6155,
  "\u2581XMP": 6156,
  "\u2581abrigo": 6157,
  "\u2581absolutely": 6158,
  "\u2581admit": 6159,
  "\u2581antiga": 6160,
  "\u2581argumentos": 6161,
  "\u2581bird": 6162,
  "\u2581calm": 6163,
  "\u2581ce": 6164,
  "\u2581ci": 6165,
  "\u2581conflict": 6166,
  "\u2581controla": 6167,
  "\u2581definici\u00f3n": 6168,
  "\u2581delas": 6169,
  "\u2581dese\u00f1o": 6170,
  "\u2581ensinar": 6171,
  "\u2581heat": 6172,
  "\u2581imported": 6173,
  "\u2581micro": 6174,
  "\u2581puiden": 6175,
  "\u2581sector": 6176,
  "\u2581sensaci\u00f3n": 6177,
  "18": 6178,
  "TO": 6179,
  "ally": 6180,
  "ee": 6181,
  "eime": 6182,
  "ette": 6183,
  "rme": 6184,
  "ts": 6185,
  "\u2581Agarde": 6186,
  "\u2581Bob": 6187,
  "\u2581Cha": 6188,
  "\u2581Continuar": 6189,
  "\u2581Fi": 6190,
  "\u2581License": 6191,
  "\u2581Marie": 6192,
  "\u2581Ooh": 6193,
  "\u2581Package": 6194,
  "\u2581Republic": 6195,
  "\u2581Wizard": 6196,
  "\u2581Xesti\u00f3n": 6197,
  "\u2581aparecer": 6198,
  "\u2581automatic": 6199,
  "\u2581becomes": 6200,
  "\u2581beleza": 6201,
  "\u2581bigger": 6202,
  "\u2581bookmark": 6203,
  "\u2581bottle": 6204,
  "\u2581channels": 6205,
  "\u2581club": 6206,
  "\u2581debes": 6207,
  "\u2581detected": 6208,
  "\u2581dobre": 6209,
  "\u2581downloaded": 6210,
  "\u2581everywhere": 6211,
  "\u2581fomos": 6212,
  "\u2581fought": 6213,
  "\u2581funcionalidades": 6214,
  "\u2581ipsec": 6215,
  "\u2581limpa": 6216,
  "\u2581mostre": 6217,
  "\u2581noutro": 6218,
  "\u2581pecha": 6219,
  "\u2581photograph": 6220,
  "\u2581placed": 6221,
  "\u2581roda": 6222,
  "\u2581science": 6223,
  "\u2581separated": 6224,
  "\u2581struggle": 6225,
  "\u2581substituci\u00f3n": 6226,
  "\u2581ti\u00f1amos": 6227,
  "\u2581vira": 6228,
  "LL": 6229,
  "Os": 6230,
  "ft": 6231,
  "mba": 6232,
  "tional": 6233,
  "tur": 6234,
  "uff": 6235,
  "una": 6236,
  "var": 6237,
  "vas": 6238,
  "\u2581Algunhas": 6239,
  "\u2581Catro": 6240,
  "\u2581Centro": 6241,
  "\u2581Damn": 6242,
  "\u2581Dereita": 6243,
  "\u2581Entra": 6244,
  "\u2581Example": 6245,
  "\u2581Fill": 6246,
  "\u2581Gracias": 6247,
  "\u2581Pai": 6248,
  "\u2581Papa": 6249,
  "\u2581Puntuaci\u00f3n": 6250,
  "\u2581Want": 6251,
  "\u2581Xabi": 6252,
  "\u2581achou": 6253,
  "\u2581capacidade": 6254,
  "\u2581cervexa": 6255,
  "\u2581chorar": 6256,
  "\u2581configurado": 6257,
  "\u2581cookies": 6258,
  "\u2581desexo": 6259,
  "\u2581detallada": 6260,
  "\u2581driving": 6261,
  "\u2581effort": 6262,
  "\u2581escribiu": 6263,
  "\u2581flores": 6264,
  "\u2581foundation": 6265,
  "\u2581generated": 6266,
  "\u2581illa": 6267,
  "\u2581indicado": 6268,
  "\u2581lembranza": 6269,
  "\u2581los": 6270,
  "\u2581loss": 6271,
  "\u2581papers": 6272,
  "\u2581plane": 6273,
  "\u2581reply": 6274,
  "\u2581smoke": 6275,
  "\u2581storage": 6276,
  "\u2581tedes": 6277,
  "\u2581turns": 6278,
  "\u2581unread": 6279,
  "005": 6280,
  "dar": 6281,
  "ov": 6282,
  "udi": 6283,
  "win": 6284,
  "\u0131": 6285,
  "\u2581Category": 6286,
  "\u2581DON": 6287,
  "\u2581Facer": 6288,
  "\u2581Filters": 6289,
  "\u2581Leo": 6290,
  "\u2581OS": 6291,
  "\u2581Sea": 6292,
  "\u2581activado": 6293,
  "\u2581americano": 6294,
  "\u2581arranque": 6295,
  "\u2581blank": 6296,
  "\u2581broma": 6297,
  "\u2581cadrados": 6298,
  "\u2581computador": 6299,
  "\u2581comunistas": 6300,
  "\u2581considered": 6301,
  "\u2581contrasinais": 6302,
  "\u2581conversation": 6303,
  "\u2581deber": 6304,
  "\u2581d\u00edxome": 6305,
  "\u2581eur": 6306,
  "\u2581faster": 6307,
  "\u2581gdb": 6308,
  "\u2581hang": 6309,
  "\u2581island": 6310,
  "\u2581lea": 6311,
  "\u2581leite": 6312,
  "\u2581ollada": 6313,
  "\u2581opinion": 6314,
  "\u2581owe": 6315,
  "\u2581prove": 6316,
  "\u2581purpose": 6317,
  "\u2581race": 6318,
  "\u2581random": 6319,
  "\u2581sido": 6320,
  "\u2581south": 6321,
  "\u2581technology": 6322,
  "\u2581vosos": 6323,
  "200": 6324,
  "ELEX": 6325,
  "RW": 6326,
  "cado": 6327,
  "ixe": 6328,
  "ndi": 6329,
  "optic": 6330,
  "\u2581B\u00e9": 6331,
  "\u2581Falta": 6332,
  "\u2581Juliet": 6333,
  "\u2581MPlayer": 6334,
  "\u2581MY": 6335,
  "\u2581Merge": 6336,
  "\u2581Operation": 6337,
  "\u2581Preferencias": 6338,
  "\u2581Principal": 6339,
  "\u2581Thor": 6340,
  "\u2581Traduci\u00f3n": 6341,
  "\u2581Young": 6342,
  "\u2581accidente": 6343,
  "\u2581acontecer": 6344,
  "\u2581bi": 6345,
  "\u2581chamou": 6346,
  "\u2581cola": 6347,
  "\u2581combate": 6348,
  "\u2581dirty": 6349,
  "\u2581estabamos": 6350,
  "\u2581europa": 6351,
  "\u2581farei": 6352,
  "\u2581forgotten": 6353,
  "\u2581formula": 6354,
  "\u2581framework": 6355,
  "\u2581houses": 6356,
  "\u2581identificador": 6357,
  "\u2581introduza": 6358,
  "\u2581listed": 6359,
  "\u2581mostrar\u00e1": 6360,
  "\u2581prefe": 6361,
  "\u2581remitente": 6362,
  "\u2581rifle": 6363,
  "\u2581slider": 6364,
  "\u2581tough": 6365,
  "\u2581translated": 6366,
  "\u2581usual": 6367,
  "\u2581viven": 6368,
  "\u2581vontade": 6369,
  "\u2581xml": 6370,
  "32": 6371,
  "DL": 6372,
  "bb": 6373,
  "eza": 6374,
  "light": 6375,
  "sco": 6376,
  "\u00a9": 6377,
  "\u2581Algunha": 6378,
  "\u2581Engine": 6379,
  "\u2581Keyboard": 6380,
  "\u2581Mon": 6381,
  "\u2581PO": 6382,
  "\u2581Preferences": 6383,
  "\u2581Ready": 6384,
  "\u2581Split": 6385,
  "\u2581Toda": 6386,
  "\u2581accesibilidade": 6387,
  "\u2581applied": 6388,
  "\u2581arc": 6389,
  "\u2581bloqueo": 6390,
  "\u2581cabalos": 6391,
  "\u2581circle": 6392,
  "\u2581coluna": 6393,
  "\u2581complex": 6394,
  "\u2581comunicaci\u00f3n": 6395,
  "\u2581conectado": 6396,
  "\u2581consola": 6397,
  "\u2581contraste": 6398,
  "\u2581cook": 6399,
  "\u2581desas": 6400,
  "\u2581entrega": 6401,
  "\u2581felicidade": 6402,
  "\u2581filled": 6403,
  "\u2581forgot": 6404,
  "\u2581fortes": 6405,
  "\u2581greatest": 6406,
  "\u2581lembra": 6407,
  "\u2581manda": 6408,
  "\u2581mask": 6409,
  "\u2581mont\u00f3n": 6410,
  "\u2581nalg\u00fan": 6411,
  "\u2581nose": 6412,
  "\u2581porcentaxe": 6413,
  "\u2581puxo": 6414,
  "\u2581stock": 6415,
  "\u2581surprised": 6416,
  "\u2581thread": 6417,
  "\u2581traballadores": 6418,
  "\u2581transport": 6419,
  "\u2581vergo\u00f1a": 6420,
  "\u2581verificaci\u00f3n": 6421,
  "\u2581viva": 6422,
  "21": 6423,
  "ais": 6424,
  "bro": 6425,
  "cap": 6426,
  "cc": 6427,
  "war": 6428,
  "\u2581Aren": 6429,
  "\u2581Bobbie": 6430,
  "\u2581Cantidade": 6431,
  "\u2581Conmutar": 6432,
  "\u2581Construct": 6433,
  "\u2581Count": 6434,
  "\u2581Cuba": 6435,
  "\u2581Fred": 6436,
  "\u2581Function": 6437,
  "\u2581Hill": 6438,
  "\u2581Lin": 6439,
  "\u2581Tybalt": 6440,
  "\u2581Uso": 6441,
  "\u2581actuar": 6442,
  "\u2581angry": 6443,
  "\u2581binary": 6444,
  "\u2581constant": 6445,
  "\u2581dixeron": 6446,
  "\u2581elimina": 6447,
  "\u2581estra\u00f1a": 6448,
  "\u2581falso": 6449,
  "\u2581gmail": 6450,
  "\u2581independente": 6451,
  "\u2581legal": 6452,
  "\u2581normais": 6453,
  "\u2581ocean": 6454,
  "\u2581pppd": 6455,
  "\u2581raise": 6456,
  "\u2581receive": 6457,
  "\u2581responsabilidad": 6458,
  "\u2581sitios": 6459,
  "\u2581tableau": 6460,
  "\u2581violencia": 6461,
  "\u2581warm": 6462,
  "01": 6463,
  "15": 6464,
  "1;": 6465,
  "TRANSLATORS": 6466,
  "mpa": 6467,
  "ome": 6468,
  "tis": 6469,
  "t\u00e1": 6470,
  "\u2581\"%2\"": 6471,
  "\u258126": 6472,
  "\u2581Boston": 6473,
  "\u2581Capa": 6474,
  "\u2581Chinese": 6475,
  "\u2581Encoding": 6476,
  "\u2581Ju": 6477,
  "\u2581Mire": 6478,
  "\u2581M\u00e9todo": 6479,
  "\u2581Outros": 6480,
  "\u2581Pantalla": 6481,
  "\u2581Rep\u00fablica": 6482,
  "\u2581Sansa": 6483,
  "\u2581Shall": 6484,
  "\u2581Tomorrow": 6485,
  "\u2581an\u00e1lise": 6486,
  "\u2581canceled": 6487,
  "\u2581comment": 6488,
  "\u2581consello": 6489,
  "\u2581cr": 6490,
  "\u2581debaixo": 6491,
  "\u2581eating": 6492,
  "\u2581env\u00ede": 6493,
  "\u2581fuxir": 6494,
  "\u2581garden": 6495,
  "\u2581gpg": 6496,
  "\u2581laugh": 6497,
  "\u2581leaves": 6498,
  "\u2581montar": 6499,
  "\u2581parecer": 6500,
  "\u2581pedra": 6501,
  "\u2581pertence": 6502,
  "\u2581prince": 6503,
  "\u2581probabl": 6504,
  "\u2581pure": 6505,
  "\u2581san": 6506,
  "\u2581sequence": 6507,
  "\u2581shared": 6508,
  "\u2581smaller": 6509,
  "\u2581sp": 6510,
  "\u2581supports": 6511,
  "\u2581tira": 6512,
  "\u2581trocar": 6513,
  "\u2581upset": 6514,
  "\u2581wash": 6515,
  "New": 6516,
  "UN": 6517,
  "app": 6518,
  "default": 6519,
  "led": 6520,
  "low": 6521,
  "num": 6522,
  "right": 6523,
  "\u2581Americans": 6524,
  "\u2581Anything": 6525,
  "\u2581Configura": 6526,
  "\u2581Generic": 6527,
  "\u2581Guinea": 6528,
  "\u2581Job": 6529,
  "\u2581Mag": 6530,
  "\u2581Negro": 6531,
  "\u2581Nesta": 6532,
  "\u2581Otoku": 6533,
  "\u2581Recent": 6534,
  "\u2581Short": 6535,
  "\u2581adding": 6536,
  "\u2581amosa": 6537,
  "\u2581benvida": 6538,
  "\u2581blame": 6539,
  "\u2581bloody": 6540,
  "\u2581bridge": 6541,
  "\u2581celeste": 6542,
  "\u2581conflito": 6543,
  "\u2581correspondente": 6544,
  "\u2581custa": 6545,
  "\u2581disease": 6546,
  "\u2581dry": 6547,
  "\u2581ends": 6548,
  "\u2581estexa": 6549,
  "\u2581extraer": 6550,
  "\u2581fluxo": 6551,
  "\u2581francos": 6552,
  "\u2581frase": 6553,
  "\u2581labor": 6554,
  "\u2581negative": 6555,
  "\u2581negros": 6556,
  "\u2581nnn": 6557,
  "\u2581pas": 6558,
  "\u2581planificaci\u00f3n": 6559,
  "\u2581production": 6560,
  "\u2581projects": 6561,
  "\u2581raio": 6562,
  "\u2581redor": 6563,
  "\u2581related": 6564,
  "\u2581secure": 6565,
  "\u2581sex": 6566,
  "\u2581sorpresa": 6567,
  "My": 6568,
  "Not": 6569,
  "Object": 6570,
  "Text": 6571,
  "ab": 6572,
  "cci\u00f3n": 6573,
  "fr": 6574,
  "hee": 6575,
  "king": 6576,
  "mann": 6577,
  "quot": 6578,
  "red": 6579,
  "\u2581Area": 6580,
  "\u2581Brer": 6581,
  "\u2581Drop": 6582,
  "\u2581Duraci\u00f3n": 6583,
  "\u2581Facebook": 6584,
  "\u2581Normalmente": 6585,
  "\u2581Protocol": 6586,
  "\u2581VPN": 6587,
  "\u2581V\u00eddeo": 6588,
  "\u2581asasino": 6589,
  "\u2581aviso": 6590,
  "\u2581axuste": 6591,
  "\u2581belong": 6592,
  "\u2581convite": 6593,
  "\u2581design": 6594,
  "\u2581doutro": 6595,
  "\u2581du": 6596,
  "\u2581entidade": 6597,
  "\u2581espero": 6598,
  "\u2581flat": 6599,
  "\u2581forced": 6600,
  "\u2581francs": 6601,
  "\u2581honest": 6602,
  "\u2581ignorar": 6603,
  "\u2581jump": 6604,
  "\u2581lecci\u00f3n": 6605,
  "\u2581l\u00edmites": 6606,
  "\u2581marcas": 6607,
  "\u2581motion": 6608,
  "\u2581mozas": 6609,
  "\u2581m\u00e1scara": 6610,
  "\u2581peso": 6611,
  "\u2581pr": 6612,
  "\u2581replaced": 6613,
  "\u2581salvaxe": 6614,
  "\u2581salvo": 6615,
  "\u2581screenshot": 6616,
  "\u2581states": 6617,
  "\u2581suffering": 6618,
  "\u2581terror": 6619,
  "\u2581transporte": 6620,
  "\u2581weather": 6621,
  "Esta": 6622,
  "ence": 6623,
  "vel": 6624,
  "\u00eds": 6625,
  "\u2581Anda": 6626,
  "\u2581Aparencia": 6627,
  "\u2581Backend": 6628,
  "\u2581Bran": 6629,
  "\u2581Feed": 6630,
  "\u2581Greek": 6631,
  "\u2581Instalar": 6632,
  "\u2581MS": 6633,
  "\u2581Phone": 6634,
  "\u2581Restore": 6635,
  "\u2581Saving": 6636,
  "\u2581Voice": 6637,
  "\u2581Ward": 6638,
  "\u2581acabar": 6639,
  "\u2581activated": 6640,
  "\u2581apart": 6641,
  "\u2581beauty": 6642,
  "\u2581calcula": 6643,
  "\u2581canso": 6644,
  "\u2581chief": 6645,
  "\u2581comentarios": 6646,
  "\u2581confirmaci\u00f3n": 6647,
  "\u2581constante": 6648,
  "\u2581c\u00fabica": 6649,
  "\u2581descanso": 6650,
  "\u2581escenario": 6651,
  "\u2581estabelecer": 6652,
  "\u2581estat\u00edsticas": 6653,
  "\u2581excepto": 6654,
  "\u2581fancy": 6655,
  "\u2581funcionar": 6656,
  "\u2581indique": 6657,
  "\u2581leg": 6658,
  "\u2581moldura": 6659,
  "\u2581n\u00facleo": 6660,
  "\u2581odio": 6661,
  "\u2581parella": 6662,
  "\u2581percentage": 6663,
  "\u2581poidan": 6664,
  "\u2581precisan": 6665,
  "\u2581recent": 6666,
  "\u2581remind": 6667,
  "\u2581rico": 6668,
  "\u2581rows": 6669,
  "\u2581sabelo": 6670,
  "\u2581s\u00ed": 6671,
  "\u2581utiliza": 6672,
  "5=": 6673,
  "Class": 6674,
  "El": 6675,
  "LET": 6676,
  "ense": 6677,
  "ical": 6678,
  "lado": 6679,
  "ola": 6680,
  "sp": 6681,
  "s\u00f3": 6682,
  "torio": 6683,
  "\u2581Allen": 6684,
  "\u2581Altura": 6685,
  "\u2581Chris": 6686,
  "\u2581D\u00e9ixao": 6687,
  "\u2581Francisco": 6688,
  "\u2581Inter": 6689,
  "\u2581Ler": 6690,
  "\u2581Login": 6691,
  "\u2581Mantenedor": 6692,
  "\u2581Muda": 6693,
  "\u2581P\u00f3r": 6694,
  "\u2581Usage": 6695,
  "\u2581babies": 6696,
  "\u2581bases": 6697,
  "\u2581boot": 6698,
  "\u2581calcular": 6699,
  "\u2581cars": 6700,
  "\u2581corre": 6701,
  "\u2581costs": 6702,
  "\u2581desired": 6703,
  "\u2581developers": 6704,
  "\u2581dictionary": 6705,
  "\u2581duplo": 6706,
  "\u2581earlier": 6707,
  "\u2581esquina": 6708,
  "\u2581falo": 6709,
  "\u2581idiota": 6710,
  "\u2581intenta": 6711,
  "\u2581keeping": 6712,
  "\u2581labels": 6713,
  "\u2581limited": 6714,
  "\u2581maio": 6715,
  "\u2581marzo": 6716,
  "\u2581mudanzas": 6717,
  "\u2581pensou": 6718,
  "\u2581positive": 6719,
  "\u2581produci\u00f3n": 6720,
  "\u2581risco": 6721,
  "\u2581spirit": 6722,
  "\u2581tanta": 6723,
  "\u2581tri": 6724,
  "\u2581truck": 6725,
  "bye": 6726,
  "cm": 6727,
  "ious": 6728,
  "lib": 6729,
  "log": 6730,
  "rin": 6731,
  "town": 6732,
  "uri": 6733,
  "\u2581Attach": 6734,
  "\u2581BSD": 6735,
  "\u2581Cami\u00f1o": 6736,
  "\u2581Changes": 6737,
  "\u2581Chicago": 6738,
  "\u2581Coa": 6739,
  "\u2581Crawley": 6740,
  "\u2581DCC": 6741,
  "\u2581Focus": 6742,
  "\u2581Igual": 6743,
  "\u2581Khaleesi": 6744,
  "\u2581Konversation": 6745,
  "\u2581MM": 6746,
  "\u2581Mercutio": 6747,
  "\u2581Nishi": 6748,
  "\u2581Perdoa": 6749,
  "\u2581Transfer": 6750,
  "\u2581T\u00edo": 6751,
  "\u2581VI": 6752,
  "\u2581WITH": 6753,
  "\u2581Whatever": 6754,
  "\u2581Xuntar": 6755,
  "\u2581actuais": 6756,
  "\u2581attachments": 6757,
  "\u2581consciente": 6758,
  "\u2581copias": 6759,
  "\u2581c\u00e1rcere": 6760,
  "\u2581decisi\u00f3n": 6761,
  "\u2581diagram": 6762,
  "\u2581dreams": 6763,
  "\u2581faces": 6764,
  "\u2581faith": 6765,
  "\u2581famous": 6766,
  "\u2581feita": 6767,
  "\u2581fresh": 6768,
  "\u2581innocent": 6769,
  "\u2581involved": 6770,
  "\u2581judge": 6771,
  "\u2581konqueror": 6772,
  "\u2581laboratorio": 6773,
  "\u2581lack": 6774,
  "\u2581modos": 6775,
  "\u2581noticed": 6776,
  "\u2581pernas": 6777,
  "\u2581poboaci\u00f3n": 6778,
  "\u2581represent": 6779,
  "\u2581seres": 6780,
  "\u2581templates": 6781,
  "\u2581tivera": 6782,
  "\u2581totally": 6783,
  "\u2581vacaci\u00f3ns": 6784,
  "AT": 6785,
  "aw": 6786,
  "button": 6787,
  "down": 6788,
  "ep": 6789,
  "hrew": 6790,
  "table": 6791,
  "tal": 6792,
  "tt": 6793,
  "ular": 6794,
  "year": 6795,
  "\u00e4": 6796,
  "\u258129": 6797,
  "\u2581Apegar": 6798,
  "\u2581Aye": 6799,
  "\u2581Capit\u00e1n": 6800,
  "\u2581Clipboard": 6801,
  "\u2581Gu": 6802,
  "\u2581Jaime": 6803,
  "\u2581Kile": 6804,
  "\u2581Mad": 6805,
  "\u2581Proba": 6806,
  "\u2581Running": 6807,
  "\u2581Same": 6808,
  "\u2581Summary": 6809,
  "\u2581Were": 6810,
  "\u2581accident": 6811,
  "\u2581average": 6812,
  "\u2581bater\u00eda": 6813,
  "\u2581bright": 6814,
  "\u2581caption": 6815,
  "\u2581cha": 6816,
  "\u2581contrast": 6817,
  "\u2581costa": 6818,
  "\u2581curto": 6819,
  "\u2581defecto": 6820,
  "\u2581desprazamento": 6821,
  "\u2581discovered": 6822,
  "\u2581dispon\u00edbeis": 6823,
  "\u2581drunk": 6824,
  "\u2581executa": 6825,
  "\u2581folks": 6826,
  "\u2581fosen": 6827,
  "\u2581gamma": 6828,
  "\u2581heaven": 6829,
  "\u2581ignored": 6830,
  "\u2581industry": 6831,
  "\u2581internal": 6832,
  "\u2581managed": 6833,
  "\u2581moedas": 6834,
  "\u2581mount": 6835,
  "\u2581ms": 6836,
  "\u2581obra": 6837,
  "\u2581privilexios": 6838,
  "\u2581quot": 6839,
  "\u2581recurrence": 6840,
  "\u2581romper": 6841,
  "\u2581soldado": 6842,
  "\u2581tone": 6843,
  "\u2581trees": 6844,
  "\u2581updated": 6845,
  "\u2581upper": 6846,
  "--\"": 6847,
  "RO": 6848,
  "acc": 6849,
  "bamos": 6850,
  "burg": 6851,
  "pin": 6852,
  "uch": 6853,
  "\u2581Activa": 6854,
  "\u2581BUT": 6855,
  "\u2581Copia": 6856,
  "\u2581Coulson": 6857,
  "\u2581D\u00edxenlle": 6858,
  "\u2581Exportaci\u00f3n": 6859,
  "\u2581Increase": 6860,
  "\u2581Insir": 6861,
  "\u2581Ningunha": 6862,
  "\u2581RA": 6863,
  "\u2581Regular": 6864,
  "\u2581Rotate": 6865,
  "\u2581Schedule": 6866,
  "\u2581Sp": 6867,
  "\u2581Sync": 6868,
  "\u2581Their": 6869,
  "\u2581Tre": 6870,
  "\u2581Usa": 6871,
  "\u2581Vol": 6872,
  "\u2581agochar": 6873,
  "\u2581apenas": 6874,
  "\u2581banco": 6875,
  "\u2581bell": 6876,
  "\u2581bound": 6877,
  "\u2581branca": 6878,
  "\u2581calendarios": 6879,
  "\u2581commit": 6880,
  "\u2581correcci\u00f3n": 6881,
  "\u2581curso": 6882,
  "\u2581dat": 6883,
  "\u2581depends": 6884,
  "\u2581detailed": 6885,
  "\u2581dpi": 6886,
  "\u2581existen": 6887,
  "\u2581forces": 6888,
  "\u2581f\u00edsica": 6889,
  "\u2581humor": 6890,
  "\u2581luces": 6891,
  "\u2581lunch": 6892,
  "\u2581millas": 6893,
  "\u2581monte": 6894,
  "\u2581m\u00e1quinas": 6895,
  "\u2581peito": 6896,
  "\u2581perigoso": 6897,
  "\u2581pila": 6898,
  "\u2581rir": 6899,
  "\u2581saiba": 6900,
  "\u2581sentado": 6901,
  "\u2581separator": 6902,
  "\u2581shame": 6903,
  "\u2581silly": 6904,
  "\u2581soportado": 6905,
  "\u2581sum": 6906,
  "\u2581tracks": 6907,
  "17": 6908,
  "9660": 6909,
  "Para": 6910,
  "bias": 6911,
  "eino": 6912,
  "eiros": 6913,
  "ern": 6914,
  "iu": 6915,
  "part": 6916,
  "province": 6917,
  "sha": 6918,
  "test": 6919,
  "\u2581Bor": 6920,
  "\u2581Charlie": 6921,
  "\u2581Comprobe": 6922,
  "\u2581Diagram": 6923,
  "\u2581D\u00faas": 6924,
  "\u2581Encryption": 6925,
  "\u2581KGet": 6926,
  "\u2581Konsole": 6927,
  "\u2581Mensaxes": 6928,
  "\u2581Preguntar": 6929,
  "\u2581P\u00f3dense": 6930,
  "\u2581SE": 6931,
  "\u2581Scott": 6932,
  "\u2581Username": 6933,
  "\u2581Wa": 6934,
  "\u2581Win": 6935,
  "\u2581advanced": 6936,
  "\u2581aplica": 6937,
  "\u2581bailar": 6938,
  "\u2581beg": 6939,
  "\u2581cabezallo": 6940,
  "\u2581chair": 6941,
  "\u2581closing": 6942,
  "\u2581depurador": 6943,
  "\u2581ear": 6944,
  "\u2581falou": 6945,
  "\u2581fi": 6946,
  "\u2581figura": 6947,
  "\u2581fogar": 6948,
  "\u2581incrible": 6949,
  "\u2581interesa": 6950,
  "\u2581ka": 6951,
  "\u2581onda": 6952,
  "\u2581pasada": 6953,
  "\u2581perfecto": 6954,
  "\u2581pray": 6955,
  "\u2581preparado": 6956,
  "\u2581promised": 6957,
  "\u2581reducir": 6958,
  "\u2581scale": 6959,
  "\u2581sexo": 6960,
  "\u2581showed": 6961,
  "\u2581suave": 6962,
  "\u2581s\u00e9culo": 6963,
  "\u2581taste": 6964,
  "\u2581teacher": 6965,
  "\u2581violence": 6966,
  "\u2581v\u00eda": 6967,
  "\u2581yuan": 6968,
  "\u2581\u017c": 6969,
  "cido": 6970,
  "ena": 6971,
  "ping": 6972,
  "posto": 6973,
  "with": 6974,
  "xen": 6975,
  "\u2581Archive": 6976,
  "\u2581Diff": 6977,
  "\u2581EUA": 6978,
  "\u2581Height": 6979,
  "\u2581Japan": 6980,
  "\u2581KAlarm": 6981,
  "\u2581KWallet": 6982,
  "\u2581ON": 6983,
  "\u2581Quebec": 6984,
  "\u2581Sand": 6985,
  "\u2581Sangmin": 6986,
  "\u2581Stephan": 6987,
  "\u2581activate": 6988,
  "\u2581apareceu": 6989,
  "\u2581areas": 6990,
  "\u2581arrow": 6991,
  "\u2581barrio": 6992,
  "\u2581bodies": 6993,
  "\u2581breve": 6994,
  "\u2581bro": 6995,
  "\u2581calquer": 6996,
  "\u2581compartici\u00f3n": 6997,
  "\u2581cried": 6998,
  "\u2581enfermidade": 6999,
  "\u2581entrou": 7000,
  "\u2581gift": 7001,
  "\u2581idiot": 7002,
  "\u2581informar": 7003,
  "\u2581jail": 7004,
  "\u2581kfloppy": 7005,
  "\u2581languages": 7006,
  "\u2581mant\u00e9n": 7007,
  "\u2581modern": 7008,
  "\u2581motivo": 7009,
  "\u2581nenas": 7010,
  "\u2581ok": 7011,
  "\u2581organizaci\u00f3n": 7012,
  "\u2581possibly": 7013,
  "\u2581po\u00f1a": 7014,
  "\u2581prensa": 7015,
  "\u2581prepare": 7016,
  "\u2581prepared": 7017,
  "\u2581reuni\u00f3n": 7018,
  "\u2581rice": 7019,
  "\u2581superficie": 7020,
  "\u2581temperature": 7021,
  "\u2581trasno": 7022,
  "\u2581usage": 7023,
  "\u2581verme": 7024,
  "\u2581vermella": 7025,
  "\u2581volva": 7026,
  "CH": 7027,
  "DE": 7028,
  "Ethiopia": 7029,
  "nbsp": 7030,
  "rase": 7031,
  "uga": 7032,
  "\u2581Bruno": 7033,
  "\u2581Debuxa": 7034,
  "\u2581Fan": 7035,
  "\u2581Generate": 7036,
  "\u2581Infraestrutura": 7037,
  "\u2581Minimum": 7038,
  "\u2581NON": 7039,
  "\u2581Newton": 7040,
  "\u2581Reprodutor": 7041,
  "\u2581Row": 7042,
  "\u2581Shape": 7043,
  "\u2581Te\u00f1a": 7044,
  "\u2581actor": 7045,
  "\u2581al\u00e9n": 7046,
  "\u2581chegue": 7047,
  "\u2581choosing": 7048,
  "\u2581comentario": 7049,
  "\u2581community": 7050,
  "\u2581crying": 7051,
  "\u2581empezar": 7052,
  "\u2581entende": 7053,
  "\u2581exp": 7054,
  "\u2581figuras": 7055,
  "\u2581kchar": 7056,
  "\u2581newsgroup": 7057,
  "\u2581odd": 7058,
  "\u2581pardon": 7059,
  "\u2581peixe": 7060,
  "\u2581physical": 7061,
  "\u2581practice": 7062,
  "\u2581privileges": 7063,
  "\u2581resolve": 7064,
  "\u2581students": 7065,
  "\u2581turning": 7066,
  "\u2581t\u00f3dal": 7067,
  "\u2581walls": 7068,
  "1,": 7069,
  "File": 7070,
  "For": 7071,
  "clock": 7072,
  "ctures": 7073,
  "dra": 7074,
  "gin": 7075,
  "sol": 7076,
  "ua": 7077,
  "\u00e1beis": 7078,
  "\u25811200": 7079,
  "\u2581180": 7080,
  "\u2581Ban": 7081,
  "\u2581Bueno": 7082,
  "\u2581Chega": 7083,
  "\u2581Civil": 7084,
  "\u2581Displays": 7085,
  "\u2581Faga": 7086,
  "\u2581Imaxes": 7087,
  "\u2581Internal": 7088,
  "\u2581Kid": 7089,
  "\u2581Li\u00f1as": 7090,
  "\u2581Lou": 7091,
  "\u2581Match": 7092,
  "\u2581Multi": 7093,
  "\u2581M\u00f3dulo": 7094,
  "\u2581Narin": 7095,
  "\u2581Personal": 7096,
  "\u2581Produciu": 7097,
  "\u2581Quality": 7098,
  "\u2581Scan": 7099,
  "\u2581Still": 7100,
  "\u2581THIS": 7101,
  "\u2581Um": 7102,
  "\u2581asleep": 7103,
  "\u2581bon": 7104,
  "\u2581capit\u00e1n": 7105,
  "\u2581cap\u00edtulo": 7106,
  "\u2581cear": 7107,
  "\u2581conto": 7108,
  "\u2581descargar": 7109,
  "\u2581dito": 7110,
  "\u2581edificio": 7111,
  "\u2581eg": 7112,
  "\u2581eliminaci\u00f3n": 7113,
  "\u2581est\u00fapido": 7114,
  "\u2581falamos": 7115,
  "\u2581films": 7116,
  "\u2581gardado": 7117,
  "\u2581globais": 7118,
  "\u2581helped": 7119,
  "\u2581hero": 7120,
  "\u2581joy": 7121,
  "\u2581m\u00ed": 7122,
  "\u2581nearly": 7123,
  "\u2581pinta": 7124,
  "\u2581pointer": 7125,
  "\u2581por\u00e9n": 7126,
  "\u2581profesor": 7127,
  "\u2581satisfactoria": 7128,
  "\u2581shares": 7129,
  "\u2581sota": 7130,
  "\u2581tantos": 7131,
  "\u2581trade": 7132,
  "%1": 7133,
  "3)": 7134,
  "ENT": 7135,
  "La": 7136,
  "Query": 7137,
  "Spain": 7138,
  "aste": 7139,
  "cios": 7140,
  "c\u00f3": 7141,
  "lthough": 7142,
  "nal": 7143,
  "taci\u00f3n": 7144,
  "ves": 7145,
  "\u2581Aumentar": 7146,
  "\u2581Bot\u00f3n": 7147,
  "\u2581Busy": 7148,
  "\u2581Calendario": 7149,
  "\u2581Desenvolvente": 7150,
  "\u2581D\u00e1lle": 7151,
  "\u2581D\u00eda": 7152,
  "\u2581Fu": 7153,
  "\u2581Ham": 7154,
  "\u2581Letter": 7155,
  "\u2581L\u00edmite": 7156,
  "\u2581Marcha": 7157,
  "\u2581Mount": 7158,
  "\u2581Plugins": 7159,
  "\u2581Polly": 7160,
  "\u2581Tipos": 7161,
  "\u2581Trocar": 7162,
  "\u2581Yet": 7163,
  "\u2581amable": 7164,
  "\u2581amiga": 7165,
  "\u2581belongs": 7166,
  "\u2581birth": 7167,
  "\u2581burned": 7168,
  "\u2581chamas": 7169,
  "\u2581coincide": 7170,
  "\u2581conducir": 7171,
  "\u2581debug": 7172,
  "\u2581emp": 7173,
  "\u2581frases": 7174,
  "\u2581fully": 7175,
  "\u2581handheld": 7176,
  "\u2581heroe": 7177,
  "\u2581highlight": 7178,
  "\u2581keeps": 7179,
  "\u2581kick": 7180,
  "\u2581marks": 7181,
  "\u2581millions": 7182,
  "\u2581necesidade": 7183,
  "\u2581performance": 7184,
  "\u2581pistola": 7185,
  "\u2581precise": 7186,
  "\u2581presi\u00f3n": 7187,
  "\u2581pretend": 7188,
  "\u2581primeiros": 7189,
  "\u2581privado": 7190,
  "\u2581probablemente": 7191,
  "\u2581publicar": 7192,
  "\u2581recentes": 7193,
  "\u2581reco": 7194,
  "\u2581resulta": 7195,
  "\u2581sec": 7196,
  "\u2581spring": 7197,
  "\u2581xornais": 7198,
  "\u2581zapatos": 7199,
  "500": 7200,
  "IP": 7201,
  "Ti": 7202,
  "bus": 7203,
  "cerca": 7204,
  "ero": 7205,
  "ever": 7206,
  "kin": 7207,
  "nder": 7208,
  "plugin": 7209,
  "pto": 7210,
  "p\u00e9": 7211,
  "vietnam": 7212,
  "\u2581000": 7213,
  "\u25811998": 7214,
  "\u2581Alexander": 7215,
  "\u2581Bin": 7216,
  "\u2581Camera": 7217,
  "\u2581Corre": 7218,
  "\u2581Everybody": 7219,
  "\u2581Fog": 7220,
  "\u2581HP": 7221,
  "\u2581Hail": 7222,
  "\u2581Inclu\u00edr": 7223,
  "\u2581Moitos": 7224,
  "\u2581Music": 7225,
  "\u2581OSD": 7226,
  "\u2581Outlook": 7227,
  "\u2581Pages": 7228,
  "\u2581Pepper": 7229,
  "\u2581Power": 7230,
  "\u2581Primeira": 7231,
  "\u2581Queremos": 7232,
  "\u2581Raw": 7233,
  "\u2581almac\u00e9n": 7234,
  "\u2581avogado": 7235,
  "\u2581birthday": 7236,
  "\u2581cami\u00f1ar": 7237,
  "\u2581comunista": 7238,
  "\u2581covered": 7239,
  "\u2581cultura": 7240,
  "\u2581decidir": 7241,
  "\u2581depending": 7242,
  "\u2581dogs": 7243,
  "\u2581doors": 7244,
  "\u2581dress": 7245,
  "\u2581emprego": 7246,
  "\u2581enviou": 7247,
  "\u2581estrela": 7248,
  "\u2581exterior": 7249,
  "\u2581familias": 7250,
  "\u2581gentleman": 7251,
  "\u2581golpe": 7252,
  "\u2581grises": 7253,
  "\u2581iguais": 7254,
  "\u2581importancia": 7255,
  "\u2581kinds": 7256,
  "\u2581licenza": 7257,
  "\u2581matters": 7258,
  "\u2581membro": 7259,
  "\u2581metal": 7260,
  "\u2581opens": 7261,
  "\u2581payment": 7262,
  "\u2581pos": 7263,
  "\u2581precisas": 7264,
  "\u2581relaci\u00f3ns": 7265,
  "\u2581repetir": 7266,
  "\u2581trash": 7267,
  "\u2581universal": 7268,
  "\u2581voar": 7269,
  "\u2581zoom": 7270,
  "&": 7271,
  ".000": 7272,
  "<": 7273,
  "GA": 7274,
  "d\u00eda": 7275,
  "nCity": 7276,
  "pan": 7277,
  "rte": 7278,
  "vin": 7279,
  "\u258131": 7280,
  "\u2581Ac": 7281,
  "\u2581Block": 7282,
  "\u2581CAPU": 7283,
  "\u2581Corky": 7284,
  "\u2581Devolve": 7285,
  "\u2581Director": 7286,
  "\u2581Documentation": 7287,
  "\u2581Enfermeira": 7288,
  "\u2581Escala": 7289,
  "\u2581Face": 7290,
  "\u2581Force": 7291,
  "\u2581Forte": 7292,
  "\u2581Half": 7293,
  "\u2581Hmm": 7294,
  "\u2581Ji": 7295,
  "\u2581Madame": 7296,
  "\u2581Order": 7297,
  "\u2581Russian": 7298,
  "\u2581Security": 7299,
  "\u2581Senta": 7300,
  "\u2581Setting": 7301,
  "\u2581Vermello": 7302,
  "\u2581Virtual": 7303,
  "\u2581Za": 7304,
  "\u2581administrator": 7305,
  "\u2581afecta": 7306,
  "\u2581antigos": 7307,
  "\u2581arroz": 7308,
  "\u2581bonita": 7309,
  "\u2581cm": 7310,
  "\u2581conciencia": 7311,
  "\u2581co\u00f1ecido": 7312,
  "\u2581crowd": 7313,
  "\u2581cr\u00eda": 7314,
  "\u2581decision": 7315,
  "\u2581escapar": 7316,
  "\u2581fixera": 7317,
  "\u2581forgive": 7318,
  "\u2581galla": 7319,
  "\u2581imposible": 7320,
  "\u2581included": 7321,
  "\u2581indicou": 7322,
  "\u2581inserted": 7323,
  "\u2581iu\u00e1ns": 7324,
  "\u2581member": 7325,
  "\u2581mesmas": 7326,
  "\u2581metro": 7327,
  "\u2581mirada": 7328,
  "\u2581missed": 7329,
  "\u2581ni": 7330,
  "\u2581ocorreu": 7331,
  "\u2581o\u00edn": 7332,
  "\u2581piso": 7333,
  "\u2581playback": 7334,
  "\u2581png": 7335,
  "\u2581realzado": 7336,
  "\u2581research": 7337,
  "\u2581roubar": 7338,
  "\u2581sombra": 7339,
  "\u2581talvez": 7340,
  "\u2581wave": 7341,
  "\u2581{@}": 7342,
  "\u2581\u00c1rea": 7343,
  "IR": 7344,
  "Me": 7345,
  "back": 7346,
  "dash": 7347,
  "date": 7348,
  "eite": 7349,
  "get": 7350,
  "ward": 7351,
  "young": 7352,
  "\u00e9molo": 7353,
  "\u258148": 7354,
  "\u2581Actual": 7355,
  "\u2581Allows": 7356,
  "\u2581Andreu": 7357,
  "\u2581Christine": 7358,
  "\u2581Daemon": 7359,
  "\u2581Entrada": 7360,
  "\u2581Entry": 7361,
  "\u2581Field": 7362,
  "\u2581GET": 7363,
  "\u2581Gra": 7364,
  "\u2581Hodor": 7365,
  "\u2581Inv": 7366,
  "\u2581KSpread": 7367,
  "\u2581Ken": 7368,
  "\u2581Matar": 7369,
  "\u2581Part": 7370,
  "\u2581Repeat": 7371,
  "\u2581Return": 7372,
  "\u2581Seven": 7373,
  "\u2581Sincronizar": 7374,
  "\u2581Stannis": 7375,
  "\u2581Tro": 7376,
  "\u2581WE": 7377,
  "\u2581alternativa": 7378,
  "\u2581anel": 7379,
  "\u2581atope": 7380,
  "\u2581attached": 7381,
  "\u2581bag": 7382,
  "\u2581bugs": 7383,
  "\u2581chi": 7384,
  "\u2581cidades": 7385,
  "\u2581conseguiu": 7386,
  "\u2581cubo": 7387,
  "\u2581currency": 7388,
  "\u2581dato": 7389,
  "\u2581dependencias": 7390,
  "\u2581dille": 7391,
  "\u2581evidence": 7392,
  "\u2581families": 7393,
  "\u2581filesystem": 7394,
  "\u2581folga": 7395,
  "\u2581gustan": 7396,
  "\u2581happiness": 7397,
  "\u2581highlighted": 7398,
  "\u2581increase": 7399,
  "\u2581inferno": 7400,
  "\u2581initial": 7401,
  "\u2581lava": 7402,
  "\u2581marriage": 7403,
  "\u2581nariz": 7404,
  "\u2581perdeu": 7405,
  "\u2581persoais": 7406,
  "\u2581picked": 7407,
  "\u2581pide": 7408,
  "\u2581preparar": 7409,
  "\u2581realce": 7410,
  "\u2581represents": 7411,
  "\u2581responsible": 7412,
  "\u2581restart": 7413,
  "\u2581ri": 7414,
  "\u2581scan": 7415,
  "\u2581seat": 7416,
  "\u2581seleccionados": 7417,
  "\u2581sender": 7418,
  "\u2581seren": 7419,
  "\u2581sources": 7420,
  "\u2581vimos": 7421,
  "\u2581v\u00edrgulas": 7422,
  "\u2581witness": 7423,
  "\u2581wood": 7424,
  "\u2581zip": 7425,
  "\u2581\u00e1rbores": 7426,
  "\"!": 7427,
  "000": 7428,
  "45": 7429,
  "75": 7430,
  "MP": 7431,
  "Page": 7432,
  "ama": 7433,
  "cause": 7434,
  "c\u00ed": 7435,
  "eh": 7436,
  "ini": 7437,
  "off": 7438,
  "tch": 7439,
  "tei": 7440,
  "well": 7441,
  "work": 7442,
  "\u2581Agent": 7443,
  "\u2581Agochar": 7444,
  "\u2581Ali\u00f1ar": 7445,
  "\u2581Alta": 7446,
  "\u2581Al\u00e1": 7447,
  "\u2581April": 7448,
  "\u2581Baixo": 7449,
  "\u2581Barrett": 7450,
  "\u2581Busca": 7451,
  "\u2581Ch": 7452,
  "\u2581Ci": 7453,
  "\u2581Col": 7454,
  "\u2581Component": 7455,
  "\u2581Disposici\u00f3n": 7456,
  "\u2581Filtros": 7457,
  "\u2581Form": 7458,
  "\u2581GL": 7459,
  "\u2581Garc\u00eda": 7460,
  "\u2581Hughes": 7461,
  "\u2581Je": 7462,
  "\u2581Lauri": 7463,
  "\u2581Method": 7464,
  "\u2581Mm": 7465,
  "\u2581Muro": 7466,
  "\u2581Neve": 7467,
  "\u2581River": 7468,
  "\u2581Shi": 7469,
  "\u2581Shirin": 7470,
  "\u2581Tor": 7471,
  "\u2581Utilidades": 7472,
  "\u2581Watts": 7473,
  "\u2581aceso": 7474,
  "\u2581addition": 7475,
  "\u2581alem\u00e1ns": 7476,
  "\u2581asociado": 7477,
  "\u2581burning": 7478,
  "\u2581comece": 7479,
  "\u2581corpos": 7480,
  "\u2581descarga": 7481,
  "\u2581dicilo": 7482,
  "\u2581dono": 7483,
  "\u2581escribe": 7484,
  "\u2581examinar": 7485,
  "\u2581expresi\u00f3ns": 7486,
  "\u2581fatal": 7487,
  "\u2581gmx": 7488,
  "\u2581groupware": 7489,
  "\u2581identify": 7490,
  "\u2581lados": 7491,
  "\u2581levo": 7492,
  "\u2581matrimonio": 7493,
  "\u2581merge": 7494,
  "\u2581oeste": 7495,
  "\u2581ouvir": 7496,
  "\u2581presidente": 7497,
  "\u2581shooting": 7498,
  "\u2581summary": 7499,
  "\u2581toggle": 7500,
  "\u2581wearing": 7501,
  "\u2581whisky": 7502,
  "\u2581xogadores": 7503,
  "1:00": 7504,
  "Cal": 7505,
  "ND": 7506,
  "ali": 7507,
  "has": 7508,
  "r\u00e1s": 7509,
  "tada": 7510,
  "unt": 7511,
  "wee": 7512,
  "\u2581Appearance": 7513,
  "\u2581Comp": 7514,
  "\u2581DTEP": 7515,
  "\u2581Handbook": 7516,
  "\u2581Hei": 7517,
  "\u2581Hell": 7518,
  "\u2581Lake": 7519,
  "\u2581Maria": 7520,
  "\u2581News": 7521,
  "\u2581Paso": 7522,
  "\u2581Process": 7523,
  "\u2581Record": 7524,
  "\u2581Simon": 7525,
  "\u2581Walt": 7526,
  "\u2581absolute": 7527,
  "\u2581achar": 7528,
  "\u2581agent": 7529,
  "\u2581balea": 7530,
  "\u2581birds": 7531,
  "\u2581certeza": 7532,
  "\u2581chat": 7533,
  "\u2581correspond": 7534,
  "\u2581dir": 7535,
  "\u2581direct": 7536,
  "\u2581distinto": 7537,
  "\u2581economic": 7538,
  "\u2581encrypt": 7539,
  "\u2581exercise": 7540,
  "\u2581falling": 7541,
  "\u2581flying": 7542,
  "\u2581gui": 7543,
  "\u2581hearing": 7544,
  "\u2581ideal": 7545,
  "\u2581kcm": 7546,
  "\u2581kidding": 7547,
  "\u2581knowing": 7548,
  "\u2581lento": 7549,
  "\u2581nickname": 7550,
  "\u2581obriga": 7551,
  "\u2581pool": 7552,
  "\u2581pounds": 7553,
  "\u2581processing": 7554,
  "\u2581rep": 7555,
  "\u2581republic": 7556,
  "\u2581rosa": 7557,
  "\u2581salvaxes": 7558,
  "\u2581selector": 7559,
  "\u2581significado": 7560,
  "\u2581stone": 7561,
  "\u2581s\u00edmbolos": 7562,
  "\u2581temperatura": 7563,
  "\u2581\u00e1reas": 7564,
  "Go": 7565,
  "Isto": 7566,
  "berg": 7567,
  "char": 7568,
  "long": 7569,
  "new": 7570,
  "sas": 7571,
  "wood": 7572,
  "\u25811440": 7573,
  "\u258164": 7574,
  "\u2581Article": 7575,
  "\u2581Benvolio": 7576,
  "\u2581Cifrar": 7577,
  "\u2581Desfacer": 7578,
  "\u2581Encrypt": 7579,
  "\u2581Entendo": 7580,
  "\u2581Grantham": 7581,
  "\u2581Intervalo": 7582,
  "\u2581Master": 7583,
  "\u2581Milady": 7584,
  "\u2581Proxy": 7585,
  "\u2581Tras": 7586,
  "\u2581acochar": 7587,
  "\u2581aplicaci\u00f3ns": 7588,
  "\u2581artist": 7589,
  "\u2581assistant": 7590,
  "\u2581beer": 7591,
  "\u2581beira": 7592,
  "\u2581botella": 7593,
  "\u2581cento": 7594,
  "\u2581co\u00f1eces": 7595,
  "\u2581cup": 7596,
  "\u2581cur": 7597,
  "\u2581deuses": 7598,
  "\u2581disp\u00f3": 7599,
  "\u2581enteira": 7600,
  "\u2581env\u00eda": 7601,
  "\u2581escravos": 7602,
  "\u2581escuridade": 7603,
  "\u2581float": 7604,
  "\u2581ladies": 7605,
  "\u2581license": 7606,
  "\u2581linear": 7607,
  "\u2581located": 7608,
  "\u2581loves": 7609,
  "\u2581m\u00ednima": 7610,
  "\u2581n\u00e9boa": 7611,
  "\u2581painting": 7612,
  "\u2581peixes": 7613,
  "\u2581posibilidades": 7614,
  "\u2581preocupa": 7615,
  "\u2581raised": 7616,
  "\u2581recipient": 7617,
  "\u2581refuse": 7618,
  "\u2581reino": 7619,
  "\u2581saia": 7620,
  "\u2581silent": 7621,
  "\u2581staying": 7622,
  "\u2581stuck": 7623,
  "\u2581terceira": 7624,
  "\u2581traffic": 7625,
  "\u2581trusted": 7626,
  "\u2581txt": 7627,
  "\u2581vestido": 7628,
  "\u2581weapon": 7629,
  "\u2581whe": 7630,
  "\u2581xunta": 7631,
  "ADO": 7632,
  "based": 7633,
  "bil": 7634,
  "idos": 7635,
  "ik": 7636,
  "isto": 7637,
  "kregator": 7638,
  "ky": 7639,
  "mentos": 7640,
  "nmark": 7641,
  "rum": 7642,
  "server": 7643,
  "style": 7644,
  "ub": 7645,
  "ui": 7646,
  "\u2581%2)": 7647,
  "\u2581Art": 7648,
  "\u2581Baratheon": 7649,
  "\u2581Better": 7650,
  "\u2581HAVE": 7651,
  "\u2581Italian": 7652,
  "\u2581Karl": 7653,
  "\u2581MPEG": 7654,
  "\u2581Monday": 7655,
  "\u2581OR": 7656,
  "\u2581Opci\u00f3n": 7657,
  "\u2581Pacific": 7658,
  "\u2581Perd\u00f3n": 7659,
  "\u2581Random": 7660,
  "\u2581Reply": 7661,
  "\u2581SVG": 7662,
  "\u2581TeX": 7663,
  "\u2581Times": 7664,
  "\u2581ability": 7665,
  "\u2581baseada": 7666,
  "\u2581beb\u00e9s": 7667,
  "\u2581bringing": 7668,
  "\u2581b\u00e1goas": 7669,
  "\u2581cabezas": 7670,
  "\u2581caixas": 7671,
  "\u2581cantas": 7672,
  "\u2581committed": 7673,
  "\u2581confiar": 7674,
  "\u2581conversi\u00f3n": 7675,
  "\u2581correndo": 7676,
  "\u2581cruel": 7677,
  "\u2581deber\u00edas": 7678,
  "\u2581differences": 7679,
  "\u2581dispon\u00edbel": 7680,
  "\u2581dressed": 7681,
  "\u2581empregados": 7682,
  "\u2581entendes": 7683,
  "\u2581fundamental": 7684,
  "\u2581fusi\u00f3n": 7685,
  "\u2581growing": 7686,
  "\u2581grown": 7687,
  "\u2581knife": 7688,
  "\u2581mestura": 7689,
  "\u2581obreiros": 7690,
  "\u2581ordered": 7691,
  "\u2581parede": 7692,
  "\u2581pau": 7693,
  "\u2581perfectly": 7694,
  "\u2581proporci\u00f3ns": 7695,
  "\u2581radius": 7696,
  "\u2581statistics": 7697,
  "\u2581strings": 7698,
  "\u2581understood": 7699,
  "\u2581utility": 7700,
  "\u2581vitoria": 7701,
  "\u2581voo": 7702,
  "\u2581xustiza": 7703,
  "1)": 7704,
  "7:00": 7705,
  "IE": 7706,
  "India": 7707,
  "TP": 7708,
  "fec": 7709,
  "ford": 7710,
  "gado": 7711,
  "hang": 7712,
  "ise": 7713,
  "nar": 7714,
  "ug": 7715,
  "\u2581%1...": 7716,
  "\u2581'%": 7717,
  "\u25816,": 7718,
  "\u25817,": 7719,
  "\u2581ARE": 7720,
  "\u2581Actualizaci\u00f3n": 7721,
  "\u2581Actually": 7722,
  "\u2581Arya": 7723,
  "\u2581Button": 7724,
  "\u2581Christ": 7725,
  "\u2581Configur": 7726,
  "\u2581Desprazamento": 7727,
  "\u2581Fixen": 7728,
  "\u2581Flash": 7729,
  "\u2581Forget": 7730,
  "\u2581Grande": 7731,
  "\u2581Hal": 7732,
  "\u2581Jump": 7733,
  "\u2581KB": 7734,
  "\u2581Multiple": 7735,
  "\u2581NURSE": 7736,
  "\u2581Printing": 7737,
  "\u2581Rose": 7738,
  "\u2581Second": 7739,
  "\u2581Ter\u00eda": 7740,
  "\u2581Town": 7741,
  "\u2581Traballa": 7742,
  "\u2581Widgets": 7743,
  "\u2581XSL": 7744,
  "\u2581Xoga": 7745,
  "\u2581accessibility": 7746,
  "\u2581arquivos": 7747,
  "\u2581arrastrar": 7748,
  "\u2581asistentes": 7749,
  "\u2581cambiou": 7750,
  "\u2581comunidade": 7751,
  "\u2581co\u00f1ec\u00edn": 7752,
  "\u2581crimes": 7753,
  "\u2581danger": 7754,
  "\u2581dedos": 7755,
  "\u2581designed": 7756,
  "\u2581dou": 7757,
  "\u2581empr\u00e9gase": 7758,
  "\u2581esperta": 7759,
  "\u2581guilty": 7760,
  "\u2581integer": 7761,
  "\u2581interests": 7762,
  "\u2581knock": 7763,
  "\u2581larger": 7764,
  "\u2581lesson": 7765,
  "\u2581mando": 7766,
  "\u2581mat": 7767,
  "\u2581misi\u00f3n": 7768,
  "\u2581obviously": 7769,
  "\u2581occur": 7770,
  "\u2581pile": 7771,
  "\u2581plenty": 7772,
  "\u2581posterior": 7773,
  "\u2581potencia": 7774,
  "\u2581president": 7775,
  "\u2581querer\u00eda": 7776,
  "\u2581queue": 7777,
  "\u2581singing": 7778,
  "\u2581sombreiro": 7779,
  "\u2581spread": 7780,
  "\u2581vi\u00f1a": 7781,
  "=...": 7782,
  "DA": 7783,
  "Italy": 7784,
  "Man": 7785,
  "free": 7786,
  "i\u00f3n": 7787,
  "room": 7788,
  "urkey": 7789,
  "\u00cd": 7790,
  "\u00e1tico": 7791,
  "\u25811000": 7792,
  "\u25811]": 7793,
  "\u2581Abonda": 7794,
  "\u2581AisleRiot": 7795,
  "\u2581Bug": 7796,
  "\u2581Cache": 7797,
  "\u2581Columbia": 7798,
  "\u2581Conectar": 7799,
  "\u2581Cos": 7800,
  "\u2581Deber\u00edas": 7801,
  "\u2581GTK": 7802,
  "\u2581Items": 7803,
  "\u2581Medio": 7804,
  "\u2581Ol": 7805,
  "\u2581Phineas": 7806,
  "\u2581SQL": 7807,
  "\u2581SSH": 7808,
  "\u2581Single": 7809,
  "\u2581Sybil": 7810,
  "\u2581Vaite": 7811,
  "\u2581activada": 7812,
  "\u2581assigned": 7813,
  "\u2581bico": 7814,
  "\u2581bu": 7815,
  "\u2581chain": 7816,
  "\u2581checkbox": 7817,
  "\u2581cups": 7818,
  "\u2581curta": 7819,
  "\u2581dicionario": 7820,
  "\u2581distrito": 7821,
  "\u2581ears": 7822,
  "\u2581facilmente": 7823,
  "\u2581ferro": 7824,
  "\u2581intenci\u00f3n": 7825,
  "\u2581knowledge": 7826,
  "\u2581ksnapshot": 7827,
  "\u2581limpo": 7828,
  "\u2581normally": 7829,
  "\u2581observaci\u00f3n": 7830,
  "\u2581officer": 7831,
  "\u2581pares": 7832,
  "\u2581pestana": 7833,
  "\u2581pouca": 7834,
  "\u2581prefixo": 7835,
  "\u2581prisi\u00f3n": 7836,
  "\u2581profundidade": 7837,
  "\u2581realized": 7838,
  "\u2581reports": 7839,
  "\u2581runs": 7840,
  "\u2581sensitive": 7841,
  "\u2581sides": 7842,
  "\u2581sintaxe": 7843,
  "\u2581sons": 7844,
  "\u2581steal": 7845,
  "\u2581thus": 7846,
  "\u2581vindeira": 7847,
  "\u2581willing": 7848,
  "-2": 7849,
  ";...)": 7850,
  "OF": 7851,
  "awa": 7852,
  "bu": 7853,
  "ctor": 7854,
  "kraine": 7855,
  "li\u00f1a": 7856,
  "lock": 7857,
  "ona": 7858,
  "slot": 7859,
  "z\u00f3n": 7860,
  "\u00f3ns": 7861,
  "\u25811997.": 7862,
  "\u25814)": 7863,
  "\u2581AC": 7864,
  "\u2581Abaixo": 7865,
  "\u2581Asunto": 7866,
  "\u2581Atopouse": 7867,
  "\u2581Axi\u00f1a": 7868,
  "\u2581Best": 7869,
  "\u2581CR": 7870,
  "\u2581Eva": 7871,
  "\u2581Later": 7872,
  "\u2581Lea": 7873,
  "\u2581Month": 7874,
  "\u2581Murdock": 7875,
  "\u2581Pare": 7876,
  "\u2581Pra": 7877,
  "\u2581Sete": 7878,
  "\u2581Silencio": 7879,
  "\u2581Stand": 7880,
  "\u2581Until": 7881,
  "\u2581Xogador": 7882,
  "\u2581amar": 7883,
  "\u2581amazing": 7884,
  "\u2581aparecer\u00e1": 7885,
  "\u2581bacteria": 7886,
  "\u2581canci\u00f3ns": 7887,
  "\u2581cargo": 7888,
  "\u2581century": 7889,
  "\u2581contextual": 7890,
  "\u2581copa": 7891,
  "\u2581coroa": 7892,
  "\u2581cousin": 7893,
  "\u2581c\u00e1maras": 7894,
  "\u2581derradeiro": 7895,
  "\u2581escollendo": 7896,
  "\u2581flash": 7897,
  "\u2581horses": 7898,
  "\u2581iCalendar": 7899,
  "\u2581ir\u00e1": 7900,
  "\u2581magnitude": 7901,
  "\u2581measure": 7902,
  "\u2581mellorar": 7903,
  "\u2581mention": 7904,
  "\u2581mobile": 7905,
  "\u2581montaxe": 7906,
  "\u2581monta\u00f1a": 7907,
  "\u2581mounted": 7908,
  "\u2581neighborhood": 7909,
  "\u2581n\u00edvel": 7910,
  "\u2581parecen": 7911,
  "\u2581paxaro": 7912,
  "\u2581pelexa": 7913,
  "\u2581perf\u00eds": 7914,
  "\u2581praia": 7915,
  "\u2581primavera": 7916,
  "\u2581queredes": 7917,
  "\u2581revisi\u00f3n": 7918,
  "\u2581sh": 7919,
  "\u2581shortcuts": 7920,
  "\u2581signing": 7921,
  "\u2581species": 7922,
  "\u2581suitable": 7923,
  "\u2581surface": 7924,
  "\u2581ter\u00e1s": 7925,
  "\u2581tivemos": 7926,
  "\u2581toque": 7927,
  "\u2581tranquilo": 7928,
  "\u2581understanding": 7929,
  "\u2581vendo": 7930,
  "\u2581versions": 7931,
  "60": 7932,
  "EL": 7933,
  "alo": 7934,
  "ami": 7935,
  "anos": 7936,
  "ball": 7937,
  "ifi": 7938,
  "ities": 7939,
  "ped": 7940,
  "ral": 7941,
  "rar": 7942,
  "sign": 7943,
  "ual": 7944,
  "vis": 7945,
  "\u2581(2": 7946,
  "\u25811.0": 7947,
  "\u2581Ancho": 7948,
  "\u2581August": 7949,
  "\u2581Basic": 7950,
  "\u2581CC": 7951,
  "\u2581Christmas": 7952,
  "\u2581Conexi\u00f3n": 7953,
  "\u2581Cross": 7954,
  "\u2581DOC": 7955,
  "\u2581DOS": 7956,
  "\u2581Escritorio": 7957,
  "\u2581Heavy": 7958,
  "\u2581Mah": 7959,
  "\u2581Module": 7960,
  "\u2581Pop": 7961,
  "\u2581Schumacher": 7962,
  "\u2581Steve": 7963,
  "\u2581Trash": 7964,
  "\u2581Vexo": 7965,
  "\u2581Viches": 7966,
  "\u2581Wi": 7967,
  "\u2581apoio": 7968,
  "\u2581array": 7969,
  "\u2581autoridade": 7970,
  "\u2581azuis": 7971,
  "\u2581bombas": 7972,
  "\u2581caras": 7973,
  "\u2581colocar": 7974,
  "\u2581communication": 7975,
  "\u2581companies": 7976,
  "\u2581culture": 7977,
  "\u2581depth": 7978,
  "\u2581drug": 7979,
  "\u2581escritura": 7980,
  "\u2581existentes": 7981,
  "\u2581favorite": 7982,
  "\u2581feelings": 7983,
  "\u2581f\u00f3rmula": 7984,
  "\u2581gods": 7985,
  "\u2581graphical": 7986,
  "\u2581identificaci\u00f3n": 7987,
  "\u2581incl\u00fae": 7988,
  "\u2581inicie": 7989,
  "\u2581joke": 7990,
  "\u2581m\u00e1goa": 7991,
  "\u2581m\u00f3dem": 7992,
  "\u2581nurse": 7993,
  "\u2581quixen": 7994,
  "\u2581reco\u00f1ecer": 7995,
  "\u2581rent": 7996,
  "\u2581respondeu": 7997,
  "\u2581slave": 7998,
  "\u2581sufrimento": 7999,
  "\u2581tendo": 8000,
  "\u2581usted": 8001,
  "\u2581val": 8002,
  "\u2581vo": 8003,
  "\u2581vocabulary": 8004,
  "\u2581xiro": 8005,
  ">": 8006,
  "CE": 8007,
  "Indian": 8008,
  "bas": 8009,
  "bout": 8010,
  "dura": 8011,
  "fs": 8012,
  "ificado": 8013,
  "ld": 8014,
  "oo": 8015,
  "point": 8016,
  "sky": 8017,
  "will": 8018,
  "\u2581(6": 8019,
  "\u25812\"": 8020,
  "\u258135": 8021,
  "\u258150%": 8022,
  "\u2581Borra": 8023,
  "\u2581Cathy": 8024,
  "\u2581Character": 8025,
  "\u2581Checking": 8026,
  "\u2581Cinco": 8027,
  "\u2581Curve": 8028,
  "\u2581Dan": 8029,
  "\u2581Debuxar": 8030,
  "\u2581Diga": 8031,
  "\u2581Enables": 8032,
  "\u2581Especifica": 8033,
  "\u2581Etiquetas": 8034,
  "\u2581Fillo": 8035,
  "\u2581Ge": 8036,
  "\u2581Jeannie": 8037,
  "\u2581Koshimizu": 8038,
  "\u2581MD": 8039,
  "\u2581Must": 8040,
  "\u2581Nas": 8041,
  "\u2581OCR": 8042,
  "\u2581Off": 8043,
  "\u2581Patmore": 8044,
  "\u2581Playlist": 8045,
  "\u2581Query": 8046,
  "\u2581Reading": 8047,
  "\u2581SMTP": 8048,
  "\u2581Santo": 8049,
  "\u2581Sexa": 8050,
  "\u2581Six": 8051,
  "\u2581Tags": 8052,
  "\u2581Target": 8053,
  "\u2581Versailles": 8054,
  "\u2581Won": 8055,
  "\u2581appeared": 8056,
  "\u2581asegurar": 8057,
  "\u2581cabaleiros": 8058,
  "\u2581cami\u00f3n": 8059,
  "\u2581centos": 8060,
  "\u2581ciencia": 8061,
  "\u2581compo\u00f1ente": 8062,
  "\u2581creado": 8063,
  "\u2581curve": 8064,
  "\u2581dentes": 8065,
  "\u2581desactiva": 8066,
  "\u2581described": 8067,
  "\u2581dispara": 8068,
  "\u2581doutra": 8069,
  "\u2581encontrar": 8070,
  "\u2581excelente": 8071,
  "\u2581exposici\u00f3n": 8072,
  "\u2581farm": 8073,
  "\u2581finding": 8074,
  "\u2581god": 8075,
  "\u2581hist\u00f3rico": 8076,
  "\u2581im": 8077,
  "\u2581lights": 8078,
  "\u2581losing": 8079,
  "\u2581major": 8080,
  "\u2581momentos": 8081,
  "\u2581nick": 8082,
  "\u2581o\u00eddo": 8083,
  "\u2581pagamento": 8084,
  "\u2581park": 8085,
  "\u2581part\u00edculas": 8086,
  "\u2581pasando": 8087,
  "\u2581pendentes": 8088,
  "\u2581preguntou": 8089,
  "\u2581presenta": 8090,
  "\u2581retrato": 8091,
  "\u2581rotaci\u00f3n": 8092,
  "\u2581selo": 8093,
  "\u2581shadow": 8094,
  "\u2581sinxela": 8095,
  "\u2581soft": 8096,
  "\u2581trono": 8097,
  "\u2581truly": 8098,
  "\u2581voda": 8099,
  "\u2581whale": 8100,
  "360": 8101,
  "AP": 8102,
  "Don": 8103,
  "GL": 8104,
  "act": 8105,
  "ara": 8106,
  "edes": 8107,
  "fica": 8108,
  "fin": 8109,
  "mina": 8110,
  "script": 8111,
  "see": 8112,
  "\u2581Adjust": 8113,
  "\u2581Aplicativo": 8114,
  "\u2581Bat": 8115,
  "\u2581Bunting": 8116,
  "\u2581Cap": 8117,
  "\u2581Chart": 8118,
  "\u2581Desco\u00f1ecido": 8119,
  "\u2581Designer": 8120,
  "\u2581Element": 8121,
  "\u2581Emprega": 8122,
  "\u2581Exemplo": 8123,
  "\u2581Expand": 8124,
  "\u2581Fax": 8125,
  "\u2581Finish": 8126,
  "\u2581KNOW": 8127,
  "\u2581Listo": 8128,
  "\u2581Pause": 8129,
  "\u2581Pilot": 8130,
  "\u2581Poor": 8131,
  "\u2581ROM": 8132,
  "\u2581Request": 8133,
  "\u2581Rogers": 8134,
  "\u2581Smith": 8135,
  "\u2581Srta": 8136,
  "\u2581Tyrion": 8137,
  "\u2581Union": 8138,
  "\u2581ampliaci\u00f3n": 8139,
  "\u2581answered": 8140,
  "\u2581bab": 8141,
  "\u2581breakfast": 8142,
  "\u2581cap": 8143,
  "\u2581cifraxe": 8144,
  "\u2581concern": 8145,
  "\u2581daily": 8146,
  "\u2581deb\u00eda": 8147,
  "\u2581deliver": 8148,
  "\u2581destinatarios": 8149,
  "\u2581destroyed": 8150,
  "\u2581developed": 8151,
  "\u2581entregar": 8152,
  "\u2581excepci\u00f3n": 8153,
  "\u2581explicaci\u00f3n": 8154,
  "\u2581grew": 8155,
  "\u2581issue": 8156,
  "\u2581kcalc": 8157,
  "\u2581kformula": 8158,
  "\u2581lanza": 8159,
  "\u2581lawyer": 8160,
  "\u2581organizar": 8161,
  "\u2581politics": 8162,
  "\u2581predefinido": 8163,
  "\u2581pressure": 8164,
  "\u2581pretende": 8165,
  "\u2581published": 8166,
  "\u2581recta": 8167,
  "\u2581reiniciar": 8168,
  "\u2581reserve": 8169,
  "\u2581reset": 8170,
  "\u2581resize": 8171,
  "\u2581saturaci\u00f3n": 8172,
  "\u2581sentence": 8173,
  "\u2581soldier": 8174,
  "\u2581solve": 8175,
  "\u2581songs": 8176,
  "\u2581staff": 8177,
  "\u2581taught": 8178,
  "\u2581tr": 8179,
  "\u2581trace": 8180,
  "\u2581trigger": 8181,
  "\u2581victory": 8182,
  "\u2581worst": 8183,
  "\u2581xuntar": 8184,
  "\u2581yellow": 8185,
  "22": 8186,
  "Alt": 8187,
  "Come": 8188,
  "art": 8189,
  "dpi": 8190,
  "gramo": 8191,
  "imos": 8192,
  "last": 8193,
  "lista": 8194,
  "ning": 8195,
  "nza": 8196,
  "scrib": 8197,
  "\u00e1devos": 8198,
  "\u2581Abu": 8199,
  "\u2581Anti": 8200,
  "\u2581Bass": 8201,
  "\u2581Bluetooth": 8202,
  "\u2581Bon": 8203,
  "\u2581CDDB": 8204,
  "\u2581Char": 8205,
  "\u2581Clase": 8206,
  "\u2581Directorio": 8207,
  "\u2581Estat\u00edsticas": 8208,
  "\u2581IF": 8209,
  "\u2581Icona": 8210,
  "\u2581Identity": 8211,
  "\u2581June": 8212,
  "\u2581Launch": 8213,
  "\u2581Laurent": 8214,
  "\u2581Lib": 8215,
  "\u2581Memoria": 8216,
  "\u2581NFS": 8217,
  "\u2581Qui": 8218,
  "\u2581Rachel": 8219,
  "\u2581Targaryen": 8220,
  "\u2581Week": 8221,
  "\u2581Wikipedia": 8222,
  "\u2581Xap\u00f3n": 8223,
  "\u2581Year": 8224,
  "\u2581accerciser": 8225,
  "\u2581agarde": 8226,
  "\u2581agasallo": 8227,
  "\u2581ag\u00e1s": 8228,
  "\u2581almacenar": 8229,
  "\u2581artista": 8230,
  "\u2581authority": 8231,
  "\u2581bosque": 8232,
  "\u2581brave": 8233,
  "\u2581collect": 8234,
  "\u2581comprender": 8235,
  "\u2581contento": 8236,
  "\u2581crise": 8237,
  "\u2581c\u00f3": 8238,
  "\u2581defender": 8239,
  "\u2581displaying": 8240,
  "\u2581dump": 8241,
  "\u2581empeza": 8242,
  "\u2581empr\u00e9stito": 8243,
  "\u2581feeds": 8244,
  "\u2581goin": 8245,
  "\u2581gris": 8246,
  "\u2581guard": 8247,
  "\u2581hiding": 8248,
  "\u2581identificar": 8249,
  "\u2581identifier": 8250,
  "\u2581informes": 8251,
  "\u2581iron": 8252,
  "\u2581lentes": 8253,
  "\u2581mentira": 8254,
  "\u2581operador": 8255,
  "\u2581plot": 8256,
  "\u2581pos\u00edbeis": 8257,
  "\u2581presa": 8258,
  "\u2581qui": 8259,
  "\u2581remaining": 8260,
  "\u2581reprodutor": 8261,
  "\u2581ruta": 8262,
  "\u2581saltar": 8263,
  "\u2581separada": 8264,
  "\u2581sincronizar": 8265,
  "\u2581sociais": 8266,
  "\u2581solid": 8267,
  "\u2581stayed": 8268,
  "\u2581um": 8269,
  "\u2581weird": 8270,
  "\u2581xuro": 8271,
  "\u2581youth": 8272,
  "TS": 8273,
  "bor": 8274,
  "icos": 8275,
  "ixo": 8276,
  "i\u00f1as": 8277,
  "mbrello": 8278,
  "pero": 8279,
  "pot": 8280,
  "t\u00f3n": 8281,
  "zerbai": 8282,
  "\u2581800": 8283,
  "\u2581Arabic": 8284,
  "\u2581Arthur": 8285,
  "\u2581Burton": 8286,
  "\u2581Columnas": 8287,
  "\u2581Comeza": 8288,
  "\u2581Decrease": 8289,
  "\u2581Easy": 8290,
  "\u2581Events": 8291,
  "\u2581Examinar": 8292,
  "\u2581Filename": 8293,
  "\u2581Gilles": 8294,
  "\u2581Goodbye": 8295,
  "\u2581Henfrey": 8296,
  "\u2581Imp": 8297,
  "\u2581Instead": 8298,
  "\u2581KNode": 8299,
  "\u2581Mine": 8300,
  "\u2581Mirade": 8301,
  "\u2581OH": 8302,
  "\u2581Onte": 8303,
  "\u2581Patterson": 8304,
  "\u2581Per\u00edodo": 8305,
  "\u2581Reg": 8306,
  "\u2581Sae": 8307,
  "\u2581Shell": 8308,
  "\u2581Speak": 8309,
  "\u2581Specifie": 8310,
  "\u2581Tarefa": 8311,
  "\u2581Tellico": 8312,
  "\u2581Xeneral": 8313,
  "\u2581acto": 8314,
  "\u2581amo": 8315,
  "\u2581arrested": 8316,
  "\u2581bandeira": 8317,
  "\u2581basically": 8318,
  "\u2581bastardo": 8319,
  "\u2581cala": 8320,
  "\u2581calendars": 8321,
  "\u2581cerca": 8322,
  "\u2581ch\u00e1mase": 8323,
  "\u2581cidad\u00e1ns": 8324,
  "\u2581cine": 8325,
  "\u2581coches": 8326,
  "\u2581college": 8327,
  "\u2581colleu": 8328,
  "\u2581concerned": 8329,
  "\u2581correos": 8330,
  "\u2581cp": 8331,
  "\u2581debuxo": 8332,
  "\u2581derradeira": 8333,
  "\u2581despreg\u00e1bel": 8334,
  "\u2581determina": 8335,
  "\u2581directo": 8336,
  "\u2581established": 8337,
  "\u2581failure": 8338,
  "\u2581flor": 8339,
  "\u2581graphics": 8340,
  "\u2581listbox": 8341,
  "\u2581mandar": 8342,
  "\u2581marchou": 8343,
  "\u2581mate": 8344,
  "\u2581medical": 8345,
  "\u2581moda": 8346,
  "\u2581patch": 8347,
  "\u2581preocupe": 8348,
  "\u2581probabilidade": 8349,
  "\u2581protection": 8350,
  "\u2581rolda": 8351,
  "\u2581sentimentos": 8352,
  "\u2581sold": 8353,
  "\u2581umbrell": 8354,
  "\u2581verdadeira": 8355,
  "\u2581woods": 8356,
  "31": 8357,
  "80": 8358,
  "Bo": 8359,
  "NA": 8360,
  "NG": 8361,
  "bili": 8362,
  "chu": 8363,
  "damente": 8364,
  "defined": 8365,
  "marques": 8366,
  "ors": 8367,
  "which": 8368,
  "\u2581%1%": 8369,
  "\u2581%1)": 8370,
  "\u25812008,": 8371,
  "\u2581Alema\u00f1a": 8372,
  "\u2581Bernd": 8373,
  "\u2581Besides": 8374,
  "\u2581Campo": 8375,
  "\u2581Cantas": 8376,
  "\u2581Cover": 8377,
  "\u2581Dollar": 8378,
  "\u2581Elemento": 8379,
  "\u2581Fire": 8380,
  "\u2581Index": 8381,
  "\u2581Jerry": 8382,
  "\u2581Jones": 8383,
  "\u2581Joseph": 8384,
  "\u2581Jun": 8385,
  "\u2581Mahfouf": 8386,
  "\u2581Mar\u00eda": 8387,
  "\u2581Mc": 8388,
  "\u2581Mes": 8389,
  "\u2581Motty": 8390,
  "\u2581Notes": 8391,
  "\u2581Pas": 8392,
  "\u2581Realmente": 8393,
  "\u2581Sebastian": 8394,
  "\u2581Sergeant": 8395,
  "\u2581Souleymane": 8396,
  "\u2581Through": 8397,
  "\u2581aniversario": 8398,
  "\u2581aptitude": 8399,
  "\u2581baleas": 8400,
  "\u2581bota": 8401,
  "\u2581cansa": 8402,
  "\u2581chapter": 8403,
  "\u2581climb": 8404,
  "\u2581consciencia": 8405,
  "\u2581consciousness": 8406,
  "\u2581consigo": 8407,
  "\u2581corrixir": 8408,
  "\u2581deixes": 8409,
  "\u2581demanda": 8410,
  "\u2581embedded": 8411,
  "\u2581espadas": 8412,
  "\u2581estiveches": 8413,
  "\u2581forth": 8414,
  "\u2581fu": 8415,
  "\u2581harm": 8416,
  "\u2581inesperado": 8417,
  "\u2581journey": 8418,
  "\u2581marche": 8419,
  "\u2581national": 8420,
  "\u2581nen": 8421,
  "\u2581nervous": 8422,
  "\u2581nodo": 8423,
  "\u2581obvious": 8424,
  "\u2581pechada": 8425,
  "\u2581peer": 8426,
  "\u2581pensamento": 8427,
  "\u2581pensamos": 8428,
  "\u2581perfilado": 8429,
  "\u2581phrase": 8430,
  "\u2581players": 8431,
  "\u2581poder\u00edas": 8432,
  "\u2581propias": 8433,
  "\u2581recording": 8434,
  "\u2581separados": 8435,
  "\u2581stole": 8436,
  "\u2581tiles": 8437,
  "\u2581tomou": 8438,
  "\u2581trick": 8439,
  "\u2581vari\u00e1beis": 8440,
  "\u2581\u00cda": 8441,
  "28": 8442,
  "DI": 8443,
  "TER": 8444,
  "Time": 8445,
  "hailand": 8446,
  "hy": 8447,
  "lic": 8448,
  "oma": 8449,
  "source": 8450,
  "uda": 8451,
  "zier": 8452,
  "\u25812;": 8453,
  "\u2581AS": 8454,
  "\u2581Allan": 8455,
  "\u2581Andrea": 8456,
  "\u2581Bank": 8457,
  "\u2581Bou": 8458,
  "\u2581Brown": 8459,
  "\u2581Define": 8460,
  "\u2581Dentro": 8461,
  "\u2581Enough": 8462,
  "\u2581Faure": 8463,
  "\u2581Finished": 8464,
  "\u2581Illa": 8465,
  "\u2581Mat": 8466,
  "\u2581Medium": 8467,
  "\u2581Middle": 8468,
  "\u2581Novas": 8469,
  "\u2581Perm\u00edte": 8470,
  "\u2581P\u00e1xinas": 8471,
  "\u2581Reducir": 8472,
  "\u2581S\u00fa": 8473,
  "\u2581Tarefas": 8474,
  "\u2581T\u00e1boa": 8475,
  "\u2581Versalles": 8476,
  "\u2581Waiting": 8477,
  "\u2581aceiro": 8478,
  "\u2581appearance": 8479,
  "\u2581aprendizaxe": 8480,
  "\u2581avanzada": 8481,
  "\u2581blog": 8482,
  "\u2581buffer": 8483,
  "\u2581cabelo": 8484,
  "\u2581claim": 8485,
  "\u2581clara": 8486,
  "\u2581co\u00f1ecemento": 8487,
  "\u2581desfacer": 8488,
  "\u2581d\u00edxitos": 8489,
  "\u2581escritorios": 8490,
  "\u2581eso": 8491,
  "\u2581especificada": 8492,
  "\u2581estivera": 8493,
  "\u2581evil": 8494,
  "\u2581excuse": 8495,
  "\u2581fashion": 8496,
  "\u2581finais": 8497,
  "\u2581finger": 8498,
  "\u2581fundaci\u00f3n": 8499,
  "\u2581hunting": 8500,
  "\u2581impostos": 8501,
  "\u2581inclu\u00edr": 8502,
  "\u2581intento": 8503,
  "\u2581invited": 8504,
  "\u2581kioslave": 8505,
  "\u2581kontact": 8506,
  "\u2581limitado": 8507,
  "\u2581mercy": 8508,
  "\u2581ocupa": 8509,
  "\u2581offered": 8510,
  "\u2581particularly": 8511,
  "\u2581pensan": 8512,
  "\u2581pod\u00edan": 8513,
  "\u2581preferred": 8514,
  "\u2581primeiras": 8515,
  "\u2581probabelmente": 8516,
  "\u2581procesos": 8517,
  "\u2581protecci\u00f3n": 8518,
  "\u2581requests": 8519,
  "\u2581roof": 8520,
  "\u2581saca": 8521,
  "\u2581steel": 8522,
  "\u2581student": 8523,
  "\u2581sucede": 8524,
  "\u2581terreo": 8525,
  "\u2581tight": 8526,
  "\u2581timeout": 8527,
  "\u2581travel": 8528,
  "\u2581typing": 8529,
  "\u2581t\u00edtulos": 8530,
  "\u2581t\u00fanel": 8531,
  "\u2581visitar": 8532,
  "\u2581vosas": 8533,
  "Edit": 8534,
  "Es": 8535,
  "Te": 8536,
  "hand": 8537,
  "lv": 8538,
  "names": 8539,
  "ned": 8540,
  "our": 8541,
  "ralle": 8542,
  "range": 8543,
  "read": 8544,
  "rich": 8545,
  "wan": 8546,
  "zos": 8547,
  "\u00e1deo": 8548,
  "\u2581ALSA": 8549,
  "\u2581Alaska": 8550,
  "\u2581Artist": 8551,
  "\u2581Bible": 8552,
  "\u2581Biblia": 8553,
  "\u2581Border": 8554,
  "\u2581Both": 8555,
  "\u2581Common": 8556,
  "\u2581County": 8557,
  "\u2581Debes": 8558,
  "\u2581Defin": 8559,
  "\u2581Depende": 8560,
  "\u2581Folla": 8561,
  "\u2581GDB": 8562,
  "\u2581GPG": 8563,
  "\u2581Ingl\u00e9s": 8564,
  "\u2581Introduction": 8565,
  "\u2581Inverter": 8566,
  "\u2581KMobileTools": 8567,
  "\u2581Mer": 8568,
  "\u2581Olla": 8569,
  "\u2581Resposta": 8570,
  "\u2581Retirar": 8571,
  "\u2581Sabemos": 8572,
  "\u2581Servizo": 8573,
  "\u2581Simplemente": 8574,
  "\u2581Soon": 8575,
  "\u2581Statistics": 8576,
  "\u2581Sy": 8577,
  "\u2581Toby": 8578,
  "\u2581Vietnamese": 8579,
  "\u2581Women": 8580,
  "\u2581[%1]": 8581,
  "\u2581alegr\u00eda": 8582,
  "\u2581asuntos": 8583,
  "\u2581ate": 8584,
  "\u2581balls": 8585,
  "\u2581causar": 8586,
  "\u2581certos": 8587,
  "\u2581components": 8588,
  "\u2581contrato": 8589,
  "\u2581cruza": 8590,
  "\u2581c\u00fabicos": 8591,
  "\u2581determinado": 8592,
  "\u2581discos": 8593,
  "\u2581engade": 8594,
  "\u2581especificou": 8595,
  "\u2581estudantes": 8596,
  "\u2581exact": 8597,
  "\u2581expensive": 8598,
  "\u2581felices": 8599,
  "\u2581ferido": 8600,
  "\u2581flowers": 8601,
  "\u2581foreground": 8602,
  "\u2581foreign": 8603,
  "\u2581franceses": 8604,
  "\u2581fuches": 8605,
  "\u2581functionality": 8606,
  "\u2581grab": 8607,
  "\u2581hill": 8608,
  "\u2581interna": 8609,
  "\u2581justice": 8610,
  "\u2581laid": 8611,
  "\u2581madeira": 8612,
  "\u2581mecanismo": 8613,
  "\u2581ofrece": 8614,
  "\u2581perde": 8615,
  "\u2581petr\u00f3leo": 8616,
  "\u2581pipe": 8617,
  "\u2581preocupado": 8618,
  "\u2581quebracabezas": 8619,
  "\u2581rastro": 8620,
  "\u2581sal\u00f3n": 8621,
  "\u2581vis\u00edbeis": 8622,
  "\u2581xudeus": 8623,
  "23": 8624,
  "5:00": 8625,
  "Cause": 8626,
  "Ent\u00f3n": 8627,
  "Est\u00e1s": 8628,
  "Music": 8629,
  "So": 8630,
  "ass": 8631,
  "bert": 8632,
  "c\u00eda": 8633,
  "izada": 8634,
  "met": 8635,
  "nio": 8636,
  "pr": 8637,
  "rim": 8638,
  "vid": 8639,
  "\u00e1molo": 8640,
  "\u015f": 8641,
  "\u25810)": 8642,
  "\u25814:": 8643,
  "\u2581African": 8644,
  "\u2581Birnley": 8645,
  "\u2581Bit": 8646,
  "\u2581British": 8647,
  "\u2581CON": 8648,
  "\u2581Capital": 8649,
  "\u2581Cartafoles": 8650,
  "\u2581Circle": 8651,
  "\u2581Cost": 8652,
  "\u2581Estase": 8653,
  "\u2581External": 8654,
  "\u2581Fats": 8655,
  "\u2581INDI": 8656,
  "\u2581KVpnc": 8657,
  "\u2581Limit": 8658,
  "\u2581Looks": 8659,
  "\u2581Mil": 8660,
  "\u2581Net": 8661,
  "\u2581Plan": 8662,
  "\u2581R\u00e1pido": 8663,
  "\u2581Solid": 8664,
  "\u2581Tradutor": 8665,
  "\u2581Xu": 8666,
  "\u2581abril": 8667,
  "\u2581afford": 8668,
  "\u2581agardando": 8669,
  "\u2581agradable": 8670,
  "\u2581baralla": 8671,
  "\u2581bill": 8672,
  "\u2581brightness": 8673,
  "\u2581capture": 8674,
  "\u2581contin\u00faa": 8675,
  "\u2581cuxo": 8676,
  "\u2581dancing": 8677,
  "\u2581desactivada": 8678,
  "\u2581digital": 8679,
  "\u2581dime": 8680,
  "\u2581enferma": 8681,
  "\u2581esp": 8682,
  "\u2581espec\u00edfico": 8683,
  "\u2581estudo": 8684,
  "\u2581existir": 8685,
  "\u2581fillas": 8686,
  "\u2581finds": 8687,
  "\u2581fired": 8688,
  "\u2581flow": 8689,
  "\u2581fr": 8690,
  "\u2581freezing": 8691,
  "\u2581gl": 8692,
  "\u2581gu": 8693,
  "\u2581heading": 8694,
  "\u2581herba": 8695,
  "\u2581incorrecta": 8696,
  "\u2581instalados": 8697,
  "\u2581invite": 8698,
  "\u2581levas": 8699,
  "\u2581maid": 8700,
  "\u2581mountain": 8701,
  "\u2581nation": 8702,
  "\u2581nisto": 8703,
  "\u2581notification": 8704,
  "\u2581opportunity": 8705,
  "\u2581o\u00edr": 8706,
  "\u2581padr\u00f3n": 8707,
  "\u2581perdas": 8708,
  "\u2581plataforma": 8709,
  "\u2581poderiamos": 8710,
  "\u2581previously": 8711,
  "\u2581primary": 8712,
  "\u2581producir": 8713,
  "\u2581produto": 8714,
  "\u2581protected": 8715,
  "\u2581refer": 8716,
  "\u2581refused": 8717,
  "\u2581relativa": 8718,
  "\u2581sent\u00eda": 8719,
  "\u2581sindicato": 8720,
  "\u2581ssh": 8721,
  "\u2581tantas": 8722,
  "\u2581teeth": 8723,
  "\u2581testemu\u00f1a": 8724,
  "\u2581tons": 8725,
  "\u2581vaias": 8726,
  "\u2581vaso": 8727,
  "=\\\\\\\\{@}": 8728,
  "Ctrl": 8729,
  "Image": 8730,
  "Let": 8731,
  "TE": 8732,
  "There": 8733,
  "add": 8734,
  "config": 8735,
  "dro": 8736,
  "ell": 8737,
  "ixa": 8738,
  "more": 8739,
  "seconds": 8740,
  "\u00e1ronme": 8741,
  "\u25815,": 8742,
  "\u2581Activate": 8743,
  "\u2581Aparece": 8744,
  "\u2581Arryn": 8745,
  "\u2581B\u00e9zier": 8746,
  "\u2581Chu": 8747,
  "\u2581Contra": 8748,
  "\u2581GPS": 8749,
  "\u2581Gua": 8750,
  "\u2581Lonxitude": 8751,
  "\u2581Mali": 8752,
  "\u2581Matt": 8753,
  "\u2581Mol": 8754,
  "\u2581Papel": 8755,
  "\u2581Poida": 8756,
  "\u2581Policy": 8757,
  "\u2581PowerDevil": 8758,
  "\u2581Redo": 8759,
  "\u2581Reference": 8760,
  "\u2581Returns": 8761,
  "\u2581SS": 8762,
  "\u2581TCP": 8763,
  "\u2581V\u00f3s": 8764,
  "\u2581almacenamento": 8765,
  "\u2581amarelo": 8766,
  "\u2581bunch": 8767,
  "\u2581cadrado": 8768,
  "\u2581carried": 8769,
  "\u2581chaman": 8770,
  "\u2581colunas": 8771,
  "\u2581combination": 8772,
  "\u2581copied": 8773,
  "\u2581enfermeira": 8774,
  "\u2581falas": 8775,
  "\u2581filtering": 8776,
  "\u2581flutuante": 8777,
  "\u2581ganas": 8778,
  "\u2581grao": 8779,
  "\u2581healthy": 8780,
  "\u2581hello": 8781,
  "\u2581launch": 8782,
  "\u2581leis": 8783,
  "\u2581meters": 8784,
  "\u2581mill\u00f3n": 8785,
  "\u2581mundial": 8786,
  "\u2581nacional": 8787,
  "\u2581necesidades": 8788,
  "\u2581principais": 8789,
  "\u2581pseudo": 8790,
  "\u2581rare": 8791,
[...]
