{
  "</s>": 0,
  "<unk>": 1,
  ",": 2,
  ".": 3,
  "\u2581a": 4,
  "\u2581ho": 5,
  "\u2581ba": 6,
  "\u2581le": 7,
  "\u2581\"": 8,
  "\u2581e": 9,
  "\u2581the": 10,
  "\u2581ka": 11,
  "\u2581ea": 12,
  "\u2581to": 13,
  "\u2581of": 14,
  "\u2581-": 15,
  "\u2581'": 16,
  "\u2581and": 17,
  "\u2581ke": 18,
  "\u2581o": 19,
  "\u2581hore": 20,
  "\u2581in": 21,
  "?": 22,
  "'": 23,
  "\u2581re": 24,
  "\u2581oa": 25,
  "\u2581tse": 26,
  "s": 27,
  ":": 28,
  "\u2581se": 29,
  "\u2581ile": 30,
  "\u2581that": 31,
  "\u2581ha": 32,
  "\u2581tsa": 33,
  "\u2581sa": 34,
  "\u2581ne": 35,
  "\u2581li": 36,
  "ng": 37,
  "\u2581is": 38,
  "\u2581la": 39,
  "\u2581na": 40,
  "\u2581me": 41,
  "\u2581be": 42,
  "a": 43,
  "\u2581for": 44,
  "\u2581u": 45,
  "\u2581bo": 46,
  "\u2581tla": 47,
  "\u2581Molimo": 48,
  "\u2581was": 49,
  "\u2581with": 50,
  "\u2581hae": 51,
  "\u2581Jehova": 52,
  "\u2581God": 53,
  "\u2581Jehovah": 54,
  "\u2581his": 55,
  "\u2581you": 56,
  "\u2581bona": 57,
  "\u2581not": 58,
  "\u2581eo": 59,
  "\u2581I": 60,
  "\u2581as": 61,
  "\u2581on": 62,
  "\u2581batho": 63,
  "\u2581The": 64,
  "\u2581are": 65,
  "\u2581Ho": 66,
  "\u2581we": 67,
  "\u2581have": 68,
  "\u2581it": 69,
  "\u2581Ka": 70,
  "\u2581he": 71,
  "\u2581will": 72,
  "\u2581by": 73,
  "\u2581etsa": 74,
  "!": 75,
  "\u2581neng": 76,
  "\u2581[": 77,
  "\u2581from": 78,
  "\u2581pele": 79,
  "\u2581their": 80,
  ";": 81,
  "\u2581Ke": 82,
  "\u2581(": 83,
  "\u2581kapa": 84,
  "\u2581they": 85,
  "\u2581": 86,
  "\u2581r\u014dna": 87,
  "\u2581or": 88,
  "\u2581joalo": 89,
  "\u2581Bible": 90,
  "\u2581this": 91,
  "\u2581who": 92,
  "\u2581can": 93,
  "\u2581Ha": 94,
  "\u2581Jesu": 95,
  "\u2581Jesus": 96,
  "\u2581bang": 97,
  "\u2581our": 98,
  ")": 99,
  "\u2581Bibele": 100,
  "\u2581mong": 101,
  "\u2581were": 102,
  "\u2581one": 103,
  "\u2581at": 104,
  "\u2581motho": 105,
  "\u2581all": 106,
  "\u2581what": 107,
  "ing": 108,
  "\u2581your": 109,
  "\u2581us": 110,
  "\u2581had": 111,
  "\u2581leng": 112,
  "\u2581do": 113,
  "\u2581mo": 114,
  "\u2581seo": 115,
  "\u2581an": 116,
  "\u25811": 117,
  "\u2581lintho": 118,
  "\u2581What": 119,
  "\u2581eona": 120,
  "\u2581In": 121,
  "\u2581people": 122,
  "\u2581them": 123,
  "\u2581has": 124,
  "\u2581nako": 125,
  "\u2581life": 126,
  "\u2581him": 127,
  "\u2581about": 128,
  "\u2581feela": 129,
  "]": 130,
  "\u2581would": 131,
  "\u2581haholo": 132,
  "\u2581my": 133,
  "\u2581when": 134,
  "\u2581ileng": 135,
  "\u2581tseo": 136,
  "\u2581A": 137,
  "\u2581lokela": 138,
  "\u2581ena": 139,
  "\u2581time": 140,
  "\u2581hobane": 141,
  "\u2581E": 142,
  "\u2581joang": 143,
  "\u2581may": 144,
  "\u2581empa": 145,
  "\u2581O": 146,
  "\u2581but": 147,
  "\u2581ntse": 148,
  "\u2581Na": 149,
  "\u2581tsela": 150,
  "\u2581hao": 151,
  "\u2581Ba": 152,
  "\u2581moo": 153,
  "\u2581nang": 154,
  "\u2581ngoe": 155,
  "\u2581lilemo": 156,
  "\u2581did": 157,
  "\u2581matla": 158,
  "\u2581so": 159,
  "\u2581How": 160,
  "\u2581more": 161,
  "\u2581some": 162,
  "\u2581bana": 163,
  "\u2581ling": 164,
  "\u2581bolela": 165,
  "\u2581eena": 166,
  "\u2581those": 167,
  "\u2581/": 168,
  "\u2581hona": 169,
  "\u2581bophelo": 170,
  "\u2581also": 171,
  "\u2581tsona": 172,
  "\u2581been": 173,
  "\u2581Empa": 174,
  "\u2581teng": 175,
  "\u2581lefat\u0161e": 176,
  "\u2581molemo": 177,
  "\u2581It": 178,
  "\u2581Leha": 179,
  "\u2581out": 180,
  "\u2581her": 181,
  "\u2581He": 182,
  "\u2581nete": 183,
  "\u2581U": 184,
  "\u2581moea": 185,
  "\u2581such": 186,
  "\u2581many": 187,
  "\u2581bont\u0161a": 188,
  "\u2581mor": 189,
  "\u2581Re": 190,
  "\u2581there": 191,
  "\u2581up": 192,
  "\u2581bakeng": 193,
  "\u2581no": 194,
  "\u2581Lipaki": 195,
  "\u2581Witnesses": 196,
  "\u2581hantle": 197,
  "\u2581But": 198,
  "\u2581world": 199,
  "\u2581how": 200,
  "\u2581other": 201,
  "\u2581lebaka": 202,
  "\u2581thusa": 203,
  "\u2581feta": 204,
  "\u2581seng": 205,
  "\u2581if": 206,
  "\u2581than": 207,
  "\u2581good": 208,
  "\u2581said": 209,
  "\u2581fumana": 210,
  "\u2581help": 211,
  "\u2581bua": 212,
  "\u2581even": 213,
  "b": 214,
  "\u2581bangata": 215,
  "\u2581way": 216,
  "\"": 217,
  "\u2581lefat\u0161eng": 218,
  "\u2581these": 219,
  "\u2581Bakreste": 220,
  "\u2581should": 221,
  "\u2581things": 222,
  "\u2581does": 223,
  "\u2581ngata": 224,
  "\u2581batla": 225,
  "\u2581page": 226,
  "\u2581into": 227,
  "\u2581bohlokoa": 228,
  "\u2581leqepheng": 229,
  "\u2581work": 230,
  "\u2581man": 231,
  "\u2581ra": 232,
  "\u2581mosebetsi": 233,
  "\u2581which": 234,
  "\u2581Paul": 235,
  "\u2581sebelisa": 236,
  "\u2581tseba": 237,
  "\u2581Le": 238,
  "\u2581years": 239,
  "\u2581haeba": 240,
  "\u2581We": 241,
  "\u2581could": 242,
  "\u25812": 243,
  "ed": 244,
  "\u2581sebele": 245,
  "\u2581This": 246,
  "\u2581sena": 247,
  "\u2581love": 248,
  "E": 249,
  "\u2581Christian": 250,
  "\u2581joale": 251,
  "\u2581Pauluse": 252,
  "\u2581day": 253,
  "\u2581leo": 254,
  "\u2581she": 255,
  "...": 256,
  "\u2581nka": 257,
  "e": 258,
  "\u2581They": 259,
  "\u2581hoo": 260,
  "\u2581When": 261,
  "\u2581make": 262,
  "\u2581earth": 263,
  "\u2581children": 264,
  "o": 265,
  "\u2581mohlala": 266,
  "\u2581first": 267,
  "\u2581ntho": 268,
  "\u2581says": 269,
  "\u2581see": 270,
  "\u2581mang": 271,
  "t": 272,
  "\u2581For": 273,
  "\u2581Kreste": 274,
  "\u2581Why": 275,
  "\u2581Christ": 276,
  "\u2581bile": 277,
  "\u2581eng": 278,
  "\u2581only": 279,
  "ly": 280,
  "\u258115": 281,
  "\u2581because": 282,
  "\u2581lerato": 283,
  "\u2581ithuta": 284,
  "\u2581Muso": 285,
  "\u2581tsohle": 286,
  "\u2581Kingdom": 287,
  "\u2581letsatsi": 288,
  "\u2581efe": 289,
  "\u2581ona": 290,
  "\u2581leha": 291,
  "\u2581bao": 292,
  "\u2581others": 293,
  "\u2581over": 294,
  "\u2581nahana": 295,
  "\u2581Christians": 296,
  "\u2581being": 297,
  "\u2581family": 298,
  "\u2581itseng": 299,
  "\u2581hoja": 300,
  "\u2581ua": 301,
  "\u2581its": 302,
  "\u2581karolo": 303,
  "the": 304,
  "\u2581If": 305,
  "\u2581As": 306,
  "\u2581made": 307,
  "\u25813:": 308,
  "\u2581lula": 309,
  "\u2581must": 310,
  "\u2581joaloka": 311,
  "\u2581Kahoo": 312,
  "\u2581tsena": 313,
  "\u2581t\u0161oanang": 314,
  "\u2581like": 315,
  "\u2581Haeba": 316,
  "\u2581need": 317,
  "\u2581then": 318,
  "\u2581qala": 319,
  "\u2581*": 320,
  "\u2581hlokomela": 321,
  "\u2581oo": 322,
  "\u2581You": 323,
  "\u2581example": 324,
  "\u2581spirit": 325,
  "\u2581ntle": 326,
  "\u2581fana": 327,
  "\u25812:": 328,
  "\u2581And": 329,
  "\u2581ebe": 330,
  "\u2581faith": 331,
  "\u2581maikutlo": 332,
  "\u2581sona": 333,
  "\u2581just": 334,
  "\u2581bohle": 335,
  "\u2581C": 336,
  "\u2581Tsa": 337,
  "\u2581phela": 338,
  "\u2581know": 339,
  "\u2581well": 340,
  "\u25816": 341,
  "\u2581lelapa": 342,
  "\u2581tloha": 343,
  "\u2581Set\u0161oant\u0161o": 344,
  "\u2581rata": 345,
  "\u2581tsoela": 346,
  "\u2581nakong": 347,
  "\u2581bohloko": 348,
  "\u2581etsang": 349,
  "\u25814:": 350,
  "\u2581come": 351,
  "\u2581kajeno": 352,
  "\u2581tumelo": 353,
  "\u2581now": 354,
  "\u2581take": 355,
  "\u2581kamoo": 356,
  "\u2581kh\u014dl\u014d": 357,
  "\u2581own": 358,
  "\u2581parents": 359,
  "\u2581l\u014dna": 360,
  "\u2581true": 361,
  "\u2581new": 362,
  "\u2581mantsoe": 363,
  "\u2581become": 364,
  "\u25811:": 365,
  "\u2581before": 366,
  "\u2581after": 367,
  "\u2581bolumeli": 368,
  "\u2581any": 369,
  "\u2581litaba": 370,
  "\u2581two": 371,
  "\u2581batsoali": 372,
  "\u2581Bokreste": 373,
  "\u2581death": 374,
  "\u2581spiritual": 375,
  "\u25815:": 376,
  "\u2581congregation": 377,
  "\u2581John": 378,
  "\u2581words": 379,
  "\u2581New": 380,
  "\u2581joalokaha": 381,
  "\u2581men": 382,
  "\u2581tlameha": 383,
  "\u2581hloka": 384,
  "\u2581So": 385,
  "\u2581mosali": 386,
  "\u2581molao": 387,
  "\u2581Picture": 388,
  "\u2581lumela": 389,
  "\u2581very": 390,
  "\u2581most": 391,
  "\u2581another": 392,
  "\u2581tsoa": 393,
  "\u2581much": 394,
  "\u2581ones": 395,
  "\u2581boholo": 396,
  "\u2581etsahala": 397,
  "\u2581lona": 398,
  "\u2581har": 399,
  "\u2581sebetsa": 400,
  "\u2581heart": 401,
  "\u2581through": 402,
  "\u2581ao": 403,
  "\u2581hammoho": 404,
  "\u2581lefu": 405,
  "\u2581bohlale": 406,
  "\u2581Batho": 407,
  "\u2581\u25a1": 408,
  "\u2581person": 409,
  "\u2581leka": 410,
  "d": 411,
  "\u2581holo": 412,
  "\u2581thuto": 413,
  "\u2581monna": 414,
  "S": 415,
  "\u25818": 416,
  "\u2581year": 417,
  "\u2581times": 418,
  "\u2581fetisisa": 419,
  "\u2581chelete": 420,
  "\u2581give": 421,
  "\u2581taba": 422,
  "\u2581today": 423,
  "\u2581fa": 424,
  "\u2581hlalosa": 425,
  "\u2581name": 426,
  "\u25817": 427,
  "\u2581That": 428,
  "\u2581boetse": 429,
  "\u2581say": 430,
  "\u2581utloa": 431,
  "\u25811,": 432,
  "\u2581book": 433,
  "\u2581Morena": 434,
  "\u2581where": 435,
  "\u2581thata": 436,
  "\u2581might": 437,
  "\u2581study": 438,
  "\u2581boo": 439,
  "\u2581human": 440,
  "\u2581One": 441,
  "\u2581home": 442,
  "n": 443,
  "\u2581linako": 444,
  "I": 445,
  "\u2581mabapi": 446,
  "\u2581boit\u0161oaro": 447,
  "\u2581feel": 448,
  "\u2581great": 449,
  "\u2581found": 450,
  "\u2581young": 451,
  "\u2581part": 452,
  "\u2581truth": 453,
  "\u2581eaba": 454,
  "\u2581sebeletsa": 455,
  "\u2581oona": 456,
  "\u2581B": 457,
  "\u2581latela": 458,
  "\u2581Lentsoe": 459,
  "\u2581find": 460,
  "\u2581hlokahala": 461,
  "\u2581lijo": 462,
  "\u2581bala": 463,
  "Ke": 464,
  "\u2581bolella": 465,
  "\u2581ngola": 466,
  "\u2581each": 467,
  "\u2581Me": 468,
  "\u2581To": 469,
  "ha": 470,
  "\u2581Li": 471,
  "\u2581hape": 472,
  "\u2581lebitso": 473,
  "\u2581feleng": 474,
  "\u2581mokhoa": 475,
  "\u2581use": 476,
  "\u2581haufi": 477,
  "\u2581lena": 478,
  "\u2581amohela": 479,
  "\u2581boemo": 480,
  "\u2581get": 481,
  "\u2581etse": 482,
  "\u2581against": 483,
  "\u2581same": 484,
  "\u2581mathata": 485,
  "\u2581tsamaea": 486,
  "\u2581esita": 487,
  "\u2581often": 488,
  "\u2581Some": 489,
  "\u2022": 490,
  "\u2581eka": 491,
  "\u2581nile": 492,
  "\u2581Joale": 493,
  "\u2581pelo": 494,
  "\u2581bonahala": 495,
  "\u2581himself": 496,
  "\u2581ikutloa": 497,
  "abo": 498,
  "\u2581ruta": 499,
  "\u2581However": 500,
  "\u2581moholo": 501,
  "\u2581t\u0161epo": 502,
  "\u2581means": 503,
  "\u2581Do": 504,
  "\u2581long": 505,
  "\u2581though": 506,
  "\u2581hase": 507,
  "\u2581kaha": 508,
  "\u2581used": 509,
  "\u2581kateng": 510,
  "\u2581never": 511,
  "\u2581put": 512,
  "\u2581tsoang": 513,
  "\u2581too": 514,
  "\u2581Word": 515,
  "\u2581David": 516,
  "\u2581United": 517,
  "\u2581eohle": 518,
  "\u2581bophelong": 519,
  "\u2581upon": 520,
  "\u25813": 521,
  "\u2581apostle": 522,
  "\u2581melao": 523,
  "\u2581Johanne": 524,
  "\u2581Ntate": 525,
  "\u2581khotso": 526,
  "\u2581brothers": 527,
  "\u2581sechaba": 528,
  "\u2581every": 529,
  "\u2581keep": 530,
  "\u2581qeto": 531,
  "\u2581why": 532,
  "\u2581right": 533,
  "\u2581place": 534,
  "\u2581motheo": 535,
  "\u2581end": 536,
  "\u2581thabo": 537,
  "\u2581called": 538,
  "\u2581selemo": 539,
  "\u2581Israel": 540,
  "\u2581reng": 541,
  "\u2581sebaka": 542,
  "\u2581go": 543,
  "\u2581At": 544,
  "\u2581fihlela": 545,
  "\u2581Peter": 546,
  "le": 547,
  "\u2581under": 548,
  "\u2581wrote": 549,
  "\u2581Satane": 550,
  "\u2581kotsi": 551,
  "\u2581Is": 552,
  "C": 553,
  "\u2581fetang": 554,
  "\u2581down": 555,
  "\u2581back": 556,
  "\u2581came": 557,
  "\u2581bonolo": 558,
  "\u2581ebile": 559,
  "\u2581sebakeng": 560,
  "\u2581Satan": 561,
  "\u258120": 562,
  "\u2581khona": 563,
  "\u2581became": 564,
  "\u2581kaofela": 565,
  "\u2581among": 566,
  "\u2581lekholong": 567,
  "\u258111": 568,
  "\u2581fetileng": 569,
  "\u2581feletseng": 570,
  "\u2581uena": 571,
  "\u2581want": 572,
  "\u2581s": 573,
  "\u2581t\u0161epahalang": 574,
  "\u2581Kaha": 575,
  "\u25814": 576,
  "\u2581thabela": 577,
  "A": 578,
  "\u2581ngoana": 579,
  "\u2581course": 580,
  "\u2581hang": 581,
  "\u258112": 582,
  "\u2581bacha": 583,
  "\u2581thuso": 584,
  "\u2581mehleng": 585,
  "\u2581old": 586,
  "\u2581After": 587,
  "\u2581eketsehileng": 588,
  "\u2581mamela": 589,
  "\u2581show": 590,
  "\u2581hangata": 591,
  "\u2581days": 592,
  "\u2581learn": 593,
  "\u2581away": 594,
  "\u2581during": 595,
  "\u2581century": 596,
  "\u2581still": 597,
  "\u2581word": 598,
  "The": 599,
  "\u2581worship": 600,
  "\u258110": 601,
  "\u2581States": 602,
  "\u2581important": 603,
  "\u2581There": 604,
  "\u2581Sena": 605,
  "\u2581ofe": 606,
  "\u2581bitsoang": 607,
  "\u2581Matthew": 608,
  "\u2581read": 609,
  "\u2581live": 610,
  "\u2581wife": 611,
  "\u2581fihla": 612,
  "\u2581Petrose": 613,
  "\u2581Joaloka": 614,
  "\u2581later": 615,
  "\u2581Davida": 616,
  "\u2581banna": 617,
  "\u2581mali": 618,
  "\u2581ntlo": 619,
  "y": 620,
  "\u2581peace": 621,
  "),": 622,
  "\u2581news": 623,
  "ho": 624,
  "\u2581themselves": 625,
  "\u2581kena": 626,
  "\u2581nepahetseng": 627,
  "\u2581halalelang": 628,
  "\u2581Father": 629,
  "\u2581child": 630,
  "\u2581tlas": 631,
  "\u2581tsebo": 632,
  "\u2581lentsoe": 633,
  "\u2581tsebe": 634,
  "\u2581three": 635,
  "\u25819": 636,
  "\u2581ee": 637,
  "\u2581began": 638,
  "\u2581Mangolo": 639,
  "\u2581told": 640,
  "\u2581mohla": 641,
  "\u2581basali": 642,
  "Ho": 643,
  "\u2581view": 644,
  "\u2581without": 645,
  "\u2581No": 646,
  "\u2581baka": 647,
  "\u2581hope": 648,
  "\u2581hloko": 649,
  "\u2581peli": 650,
  "\u2581phutheho": 651,
  "\u2581baholo": 652,
  "\u2581akarelletsa": 653,
  "\u25815": 654,
  "\u2581latelang": 655,
  "er": 656,
  "\u2581metsi": 657,
  "ba": 658,
  "\u2581tsotellehe": 659,
  "\u2581however": 660,
  "\u2581given": 661,
  "\u2581mind": 662,
  "\u2581morero": 663,
  "\u2581kopanela": 664,
  "\u2581By": 665,
  "\u2581let": 666,
  "\u2581rapela": 667,
  "\u2581living": 668,
  "\u2581puo": 669,
  "\u2581shoa": 670,
  "\u2581letho": 671,
  "\u258112:": 672,
  "\u2581maemo": 673,
  "\u2581boela": 674,
  "\u2581knowledge": 675,
  "\u258119": 676,
  "\u2581With": 677,
  "\u2581am": 678,
  "\u2581Pesaleme": 679,
  "\u2581fact": 680,
  "\u2581faithful": 681,
  "\u2581etsoa": 682,
  "\u2581On": 683,
  "\u2581power": 684,
  "\u2581Psalm": 685,
  "\u2581Then": 686,
  "\u2581lokelang": 687,
  "....": 688,
  "\u2581buka": 689,
  "\u2581house": 690,
  "\u2581ntoa": 691,
  "\u2581mohlomong": 692,
  "Ha": 693,
  "\u2581kamehla": 694,
  "\u258117": 695,
  "\u2581while": 696,
  "\u2581doing": 697,
  "\u2581set": 698,
  "\u2581muso": 699,
  "\u2581She": 700,
  "\u2581able": 701,
  "\u2581service": 702,
  "\u2581mele": 703,
  "\u2581religious": 704,
  "\u2581preaching": 705,
  "\u2581metsoalle": 706,
  "\u25814.": 707,
  "\u2581both": 708,
  "\u2581keletso": 709,
  "\u2581moho": 710,
  "\u2581hopola": 711,
  "\u2581hlaha": 712,
  "\u2581World": 713,
  "\u2581ministry": 714,
  "\u2581tlang": 715,
  "re": 716,
  "\u2581holy": 717,
  "\u2581hakaakang": 718,
  "\u2581fumane": 719,
  "\u2581k\u014dpa": 720,
  "\u258110:": 721,
  "\u2581father": 722,
  "\u2581Many": 723,
  "\u2581bobeli": 724,
  "\u258111:": 725,
  "\u2581gave": 726,
  "\u258125": 727,
  "\u2581between": 728,
  "\u2581Scriptures": 729,
  "\u2581Yes": 730,
  "\u2581Yet": 731,
  "\u25812.": 732,
  "\u2581always": 733,
  "\u2581really": 734,
  "\u2581Hobane": 735,
  "\u2581His": 736,
  "\u25aa": 737,
  "\u2581mother": 738,
  "\u2581loketseng": 739,
  "\u2581hamorao": 740,
  "\u2581bont\u0161ang": 741,
  "\u2581mosa": 742,
  "\u2581Baiseraele": 743,
  "\u2581Iseraele": 744,
  "\u2581making": 745,
  "\u2581bopaki": 746,
  "\u2581t\u0161ebeletso": 747,
  "\u2581fapaneng": 748,
  "\u2581serve": 749,
  "\u2581utloisisa": 750,
  "\u2581King": 751,
  "\u2581result": 752,
  "\u2581sehlopha": 753,
  "\u2581mankind": 754,
  "\u2581fetoha": 755,
  "th": 756,
  "\u2581boitsebiso": 757,
  "\u2581disciples": 758,
  "\u2581batlang": 759,
  "\u2581something": 760,
  "\u2581holimo": 761,
  "\u2581having": 762,
  "\u2581haholoanyane": 763,
  "\u2581think": 764,
  "\u2581full": 765,
  "\u258110.": 766,
  "\u2581asked": 767,
  "\u2581ana": 768,
  "\u2581beha": 769,
  "\u2581barutuoa": 770,
  "\u2581litsela": 771,
  "\u2581mesebetsi": 772,
  "\u2581hand": 773,
  "\u2581kelello": 774,
  "\u2581phahameng": 775,
  "\u2581Bibeleng": 776,
  "\u2581woman": 777,
  "\u2581entse": 778,
  "\u2581Even": 779,
  "\u2581Tse": 780,
  "\u2581little": 781,
  "\u2581bothata": 782,
  "eng": 783,
  "\u2581kae": 784,
  "\u2581number": 785,
  "\u258113:": 786,
  "\u2581reason": 787,
  "\u258114.": 788,
  "\u2581litho": 789,
  "\u2581ways": 790,
  "\u2581sehloohong": 791,
  "\u2581problems": 792,
  "\u2581Hape": 793,
  "\u2581mangata": 794,
  "\u2581Esaia": 795,
  "\u2581Isaiah": 796,
  "\u2581whom": 797,
  "\u2581took": 798,
  "\u2581From": 799,
  "\u2581order": 800,
  "\u2581few": 801,
  "\u2581000": 802,
  "\u2581tabeng": 803,
  "\u2581mosebetsing": 804,
  "\u2581tlaase": 805,
  "\u2581Mokreste": 806,
  "\u2581marriage": 807,
  "\u2581humans": 808,
  "\u2581lohle": 809,
  "\u25816:": 810,
  "\u2581food": 811,
  "\u2581K": 812,
  "\u2581blood": 813,
  "\u258113": 814,
  "\u2581My": 815,
  "\u2581Our": 816,
  "\u2581Jerusalem": 817,
  "\u2581lilemong": 818,
  "\u2581city": 819,
  "\u2581women": 820,
  "\u2581lipotso": 821,
  "\u2581water": 822,
  "\u2581buang": 823,
  "\u25818.": 824,
  "\u2581khethehileng": 825,
  "\u2581mofuta": 826,
  "\u2581t\u0161oana": 827,
  "m": 828,
  "\u258122": 829,
  "ka": 830,
  "\u258113.": 831,
  "\u2581Moshe": 832,
  "\u2581loving": 833,
  "\u2581Watchtower": 834,
  "\u2581botsa": 835,
  "\u2581future": 836,
  "\u2581sebe": 837,
  "\u2581care": 838,
  "\u2581since": 839,
  "\u2581phelang": 840,
  "\u258130": 841,
  "\u25815.": 842,
  "\u2581consider": 843,
  "\u2581off": 844,
  "\u258111.": 845,
  "\u2581bone": 846,
  "\u258112.": 847,
  "\u25817.": 848,
  "\u2581hlokang": 849,
  "\u2581mekhoa": 850,
  "bakeng": 851,
  "\u2581personal": 852,
  "\u2581purpose": 853,
  "\u258124": 854,
  "\u2581leholimo": 855,
  "\u2581ratang": 856,
  "\u258115,": 857,
  "\u2581together": 858,
  "\u2581boloka": 859,
  "\u2581borapeli": 860,
  "\u2581toward": 861,
  "\u2581religion": 862,
  "\u2581bahlanka": 863,
  "\u2581botho": 864,
  "\u2581ja": 865,
  "\u2581leqephe": 866,
  "\u2581someone": 867,
  "\u2581moeeng": 868,
  "\u2581son": 869,
  "\u2581maliboho": 870,
  "\u2581These": 871,
  "\u2581look": 872,
  "\u2581again": 873,
  "\u2581boikutlo": 874,
  "\u2581article": 875,
  "\u258118": 876,
  "\u2581lives": 877,
  "\u2581Son": 878,
  "\u2581better": 879,
  "\u2581husband": 880,
  "\u2581servants": 881,
  "\u2581Proverbs": 882,
  "\u2581Liproverbia": 883,
  "\u2581nations": 884,
  "\u2581left": 885,
  "\u2581holim": 886,
  "\u2581different": 887,
  "\u258123": 888,
  "\u2581morao": 889,
  "\u2581isa": 890,
  "\u2581leholimong": 891,
  "la": 892,
  "\u2581last": 893,
  "\u2581questions": 894,
  "\u2581pel": 895,
  "\u25819.": 896,
  "\u25813.": 897,
  "\u2581bring": 898,
  "\u2581school": 899,
  "U": 900,
  "\u2581fear": 901,
  "\u2581experience": 902,
  "\u2581limilione": 903,
  "\u258117.": 904,
  "\u2581tebileng": 905,
  "\u2581S": 906,
  "\u2581Jerusalema": 907,
  "\u2581free": 908,
  "\u25816.": 909,
  "\u2581eseng": 910,
  "\u2581bot\u0161epehi": 911,
  "\u2581lichaba": 912,
  "\u2581Se": 913,
  "\u2581botle": 914,
  "\u258115.": 915,
  "\u2581known": 916,
  "\u2581moapostola": 917,
  "\u25818,": 918,
  "\u258114": 919,
  "\u258116.": 920,
  "\u2581done": 921,
  "\u2581All": 922,
  "\u2581kamano": 923,
  "\u2581Seo": 924,
  "\u2581qeta": 925,
  "\u2581cannot": 926,
  "te": 927,
  "\u2581friends": 928,
  "\u2581sin": 929,
  "\u2581ever": 930,
  "\u2581tsamaiso": 931,
  "\u2581thaba": 932,
  "\u2581monyetla": 933,
  "\u2581brother": 934,
  "\u2581war": 935,
  "\u2581joy": 936,
  "\u258116": 937,
  "\u2581bonahalang": 938,
  "\u2581needed": 939,
  "\u2581following": 940,
  "\u2581mpe": 941,
  "\u2581ntate": 942,
  "\u2581learned": 943,
  "\u2581bobe": 944,
  "in": 945,
  "\u2581prayer": 946,
  "\u2581heaven": 947,
  "\u2581money": 948,
  "\u2581fellow": 949,
  "\u2581Hona": 950,
  "\u2581linaheng": 951,
  "\u25818:": 952,
  "\u2581Roma": 953,
  "\u2581lik": 954,
  "\u2581khahlanong": 955,
  "\u2581meetings": 956,
  "\u2581York": 957,
  "\u2581rea": 958,
  "na": 959,
  "\u2581system": 960,
  "\u2581possible": 961,
  "\u2581lit\u0161oant\u0161o": 962,
  "\u2581matter": 963,
  "\u2581phuthehong": 964,
  "\u25813,": 965,
  "\u2581body": 966,
  "\u2581t\u0161ebeletsong": 967,
  "\u2581yourself": 968,
  "\u2581motse": 969,
  "\u2581self": 970,
  "\u2581k": 971,
  "\u2581boiteko": 972,
  "\u2581hard": 973,
  "\u2581felt": 974,
  "\u2581Lefat\u0161e": 975,
  "\u2581age": 976,
  "\u2581khale": 977,
  "\u2581thought": 978,
  "al": 979,
  "\u2581believe": 980,
  "\u2581lumella": 981,
  "\u2581best": 982,
  "\u2581Thus": 983,
  "\u2581happy": 984,
  "\u2581Your": 985,
  "\u2581m\u00e8": 986,
  "\u2581far": 987,
  "\u2581lapeng": 988,
  "\u2581lenyalo": 989,
  "\u2581esale": 990,
  "u": 991,
  "\u2581Moses": 992,
  "\u2581went": 993,
  "\u2581face": 994,
  "\u2581tloaelehileng": 995,
  "\u2581Corinthians": 996,
  "\u2581high": 997,
  "\u2581sebelisoa": 998,
  "\u2581fela": 999,
  "\u2581helped": 1000,
  "\u25819:": 1001,
  "\u2581wisdom": 1002,
  "\u258126": 1003,
  "\u2581khopo": 1004,
  "\u2581elders": 1005,
  "\u2581bad": 1006,
  "\u2581telele": 1007,
  "\u2581lokileng": 1008,
  "\u2581Europe": 1009,
  "\u2581Matheu": 1010,
  "\u2581counsel": 1011,
  "\u2581Mora": 1012,
  "\u2581Molao": 1013,
  "\u2581T": 1014,
  "\u2581early": 1015,
  "\u2581naha": 1016,
  "\u2581bara": 1017,
  "\u2581hlile": 1018,
  "\u2581nor": 1019,
  "r": 1020,
  "\u2581law": 1021,
  "\u2581Bo": 1022,
  "ne": 1023,
  "\u2581T\u0161enolo": 1024,
  "\u2581around": 1025,
  "\u2581khetha": 1026,
  "\u2581present": 1027,
  "\u2581pakeng": 1028,
  "\u2581Greek": 1029,
  "\u2581Revelation": 1030,
  "\u2581matsatsi": 1031,
  "\u2581Can": 1032,
  "\u2581boima": 1033,
  "\u2581pula": 1034,
  "\u2581tletseng": 1035,
  "\u2581situation": 1036,
  "\u2581boikarabelo": 1037,
  "\u2581ncha": 1038,
  "\u2581eyes": 1039,
  "\u2581teaching": 1040,
  "\u2581ancient": 1041,
  "\u2581relationship": 1042,
  "\u2581members": 1043,
  "\u2581land": 1044,
  "\u2581itse": 1045,
  "\u2581Society": 1046,
  "\u2581Motho": 1047,
  "\u2581mean": 1048,
  "\u2581Watch": 1049,
  "\u2581conduct": 1050,
  "\u2581until": 1051,
  "\u2581puso": 1052,
  "\u2581fine": 1053,
  "\u2581enoa": 1054,
  "\u2581lithuto": 1055,
  "\u2581Timothy": 1056,
  "\u2581saying": 1057,
  "\u2581next": 1058,
  "\u2581close": 1059,
  "\u2581tlhaho": 1060,
  "\u2581sehlooho": 1061,
  "\u2581nyenyane": 1062,
  "\u2581yet": 1063,
  "\u2581boemong": 1064,
  "\u2581mabaka": 1065,
  "\u2581Tower": 1066,
  "\u2581ask": 1067,
  "\u2581molato": 1068,
  "\u2581Lord": 1069,
  "\u2581thus": 1070,
  "\u2581bong": 1071,
  "\u2581lule": 1072,
  "\u2581cause": 1073,
  "\u2581kahoo": 1074,
  "\u2581Because": 1075,
  "\u2581mora": 1076,
  "\u2581talk": 1077,
  "\u2581wicked": 1078,
  "\u2581along": 1079,
  "\u2581answer": 1080,
  "\u2581health": 1081,
  "\u2581share": 1082,
  "\u2581heavenly": 1083,
  "\u2581support": 1084,
  "\u258118.": 1085,
  "\u2581botlaase": 1086,
  "\u2581Luke": 1087,
  "\u2581molaetsa": 1088,
  "\u2581likete": 1089,
  "\u2581Luka": 1090,
  "\u2581maloa": 1091,
  "\u258114:": 1092,
  "\u2581going": 1093,
  "\u2581qetellong": 1094,
  "\u2581mocha": 1095,
  "\u2581continue": 1096,
  "\u2581Who": 1097,
  "\u2581language": 1098,
  "\u2581boprofeta": 1099,
  "\u2581buisana": 1100,
  "\u2581qoba": 1101,
  "\u2581small": 1102,
  "\u2581Timothea": 1103,
  "\u2581enjoy": 1104,
  "\u2581hlakileng": 1105,
  "\u2581especially": 1106,
  "\u2581hana": 1107,
  "\u2581certain": 1108,
  "\u2581kind": 1109,
  "\u2581dead": 1110,
  "\u2581sebete": 1111,
  "\u25819,": 1112,
  "\u2581righteous": 1113,
  "\u2581anointed": 1114,
  "\u2581qetela": 1115,
  "\u2581James": 1116,
  "\u2581Let": 1117,
  "\u2581message": 1118,
  "\u2581ohle": 1119,
  "\u2581tjena": 1120,
  "\u2581meng": 1121,
  "\u2581naheng": 1122,
  "l": 1123,
  "\u2581understand": 1124,
  "\u2581Israelites": 1125,
  "\u2581liketso": 1126,
  "\u2581Mongolo": 1127,
  "Le": 1128,
  "\u2581case": 1129,
  "\u2581Jews": 1130,
  "\u2581feelings": 1131,
  "\u2581h\u014dle": 1132,
  "\u2581mehla": 1133,
  "\u2581Mohlomong": 1134,
  "\u2581baptized": 1135,
  "\u2581makhetlo": 1136,
  "\u2581Since": 1137,
  "\u2581baahi": 1138,
  "\u2581tlhokomelo": 1139,
  "\u2581Of": 1140,
  "\u2581brought": 1141,
  "\u2581real": 1142,
  "hatholike": 1143,
  "\u2581libuka": 1144,
  "\u2581Moo": 1145,
  "\u2581states": 1146,
  "\u2581king": 1147,
  "\u2581pelaelo": 1148,
  "\u2581soon": 1149,
  "\u2581mona": 1150,
  "\u2581t\u0161oaneng": 1151,
  "\u2581Bajuda": 1152,
  "\u2581avoid": 1153,
  "\u2581control": 1154,
  "\u2581attention": 1155,
  "\u2581saw": 1156,
  "\u2581moloko": 1157,
  "\u2581point": 1158,
  "\u2581difficult": 1159,
  "\u2581form": 1160,
  "\u2581giving": 1161,
  "\u2581phaella": 1162,
  "Ka": 1163,
  "\u2581speak": 1164,
  "\u2581tle": 1165,
  "\u2581liphoofolo": 1166,
  "\u2581including": 1167,
  "\u2581light": 1168,
  "\u2581mokhatlo": 1169,
  "\u2581Pele": 1170,
  "\u2581respect": 1171,
  "\u2581sense": 1172,
  "\u2581whole": 1173,
  "\u2581Are": 1174,
  "c": 1175,
  "\u2581ama": 1176,
  "\u2581phetha": 1177,
  "\u2581change": 1178,
  "\u2581thato": 1179,
  "\u25816,": 1180,
  "\u2581khutlela": 1181,
  "\u2581Abraham": 1182,
  "\u25815,": 1183,
  "\u2581question": 1184,
  "\u2581hlahisa": 1185,
  "\u2581tharo": 1186,
  "\u2581desire": 1187,
  "\u2581sebetsana": 1188,
  "\u2581Liketso": 1189,
  "\u2581sebetsang": 1190,
  "\u2581Jakobo": 1191,
  "\u2581Footnote": 1192,
  "\u2581needs": 1193,
  "\u2581morena": 1194,
  "\u2581died": 1195,
  "\u258120.": 1196,
  "\u2581lia": 1197,
  "\u2581thoe": 1198,
  "\u2581wrong": 1199,
  "\u2581Acts": 1200,
  "\u2581Creator": 1201,
  "\u2581four": 1202,
  "\u2581Be": 1203,
  "\u2581problem": 1204,
  "\u2581kopana": 1205,
  "\u2581Although": 1206,
  "\u2581bohata": 1207,
  "\u2581received": 1208,
  "\u2581Not": 1209,
  "\u2581Teng": 1210,
  "\u2581babeli": 1211,
  "\u258121:": 1212,
  "\u2581information": 1213,
  "\u2581sohle": 1214,
  "\u2581Esit": 1215,
  "\u25814,": 1216,
  "\u2581Abrahama": 1217,
  "\u2581thing": 1218,
  "\u2581entsoeng": 1219,
  "\u2581Nahana": 1220,
  "\u2581phatlalatsa": 1221,
  "\u2581hlollang": 1222,
  "\u2581libokeng": 1223,
  "\u2581makes": 1224,
  "\u2581nama": 1225,
  "\u258119.": 1226,
  "\u2581lead": 1227,
  "\u2581takatso": 1228,
  "\u2581nke": 1229,
  "\u2581loka": 1230,
  "\u2581batle": 1231,
  "\u2581turn": 1232,
  "\u2581simply": 1233,
  "\u2581Kajeno": 1234,
  "\u2581account": 1235,
  "\u2581wise": 1236,
  "\u2581M\u014dpi": 1237,
  "\u2581nothing": 1238,
  "\u2581leshome": 1239,
  "\u2581Today": 1240,
  "\u2581Law": 1241,
  "\u2581seen": 1242,
  "\u2581wanted": 1243,
  "\u2581Adam": 1244,
  "\u2581khothalletsa": 1245,
  "\u2581ourselves": 1246,
  "\u2581nation": 1247,
  "\u258121": 1248,
  "\u2581arabela": 1249,
  "\u2581bolelang": 1250,
  "\u2581mefuta": 1251,
  "NG": 1252,
  "\u2581sireletsa": 1253,
  "\u2581taken": 1254,
  "\u2581special": 1255,
  "\u2581Such": 1256,
  "\u2581While": 1257,
  "\u2581benefit": 1258,
  "\u2581provide": 1259,
  "\u2581Hangata": 1260,
  "\u2581divine": 1261,
  "\u2581group": 1262,
  "\u2581try": 1263,
  "\u2581tokelo": 1264,
  "\u2581thusang": 1265,
  "\u2581Romans": 1266,
  "\u2581likely": 1267,
  "\u2581suffering": 1268,
  "\u2581sure": 1269,
  "\u2581false": 1270,
  "\u2581fosahetseng": 1271,
  "\u2581involved": 1272,
  "\u2581bofe": 1273,
  "\u2581hlakile": 1274,
  "O": 1275,
  "\u2581bongata": 1276,
  "\u2581Hore": 1277,
  "\u2581Does": 1278,
  "\u2581tseleng": 1279,
  "\u2581Job": 1280,
  "\u2581Dr": 1281,
  "\u2581fapana": 1282,
  "\u2581night": 1283,
  "\u2581Those": 1284,
  "\u2581hlola": 1285,
  "\u2581t\u0161epahala": 1286,
  "\u2581sent": 1287,
  "\u2581Buka": 1288,
  "\u2581knew": 1289,
  "\u258118:": 1290,
  "\u2581serving": 1291,
  "\u2581whether": 1292,
  "\u2581Consider": 1293,
  "\u2581People": 1294,
  "\u2581follow": 1295,
  "\u2581lipelo": 1296,
  "\u2581hlahloba": 1297,
  "\u2581palo": 1298,
  "\u2581nakoana": 1299,
  "\u2581An": 1300,
  "\u2581lulang": 1301,
  "\u258114,": 1302,
  "\u2581large": 1303,
  "\u2581t\u0161oara": 1304,
  "\u2581Mo": 1305,
  "\u2581percent": 1306,
  "\u2581receive": 1307,
  "\u2581taking": 1308,
  "\u2581lipuo": 1309,
  "\u2581Catholic": 1310,
  "\u2581principles": 1311,
  "\u2581THE": 1312,
  "\u2581entseng": 1313,
  "\u2581kingdom": 1314,
  "\u2581M\u00e8": 1315,
  "\u2581liphello": 1316,
  "\u2581Adama": 1317,
  "\u2581Jobo": 1318,
  "\u2581taught": 1319,
  "\u2581temple": 1320,
  "\u2581reading": 1321,
  "\u2581talima": 1322,
  "\u2581Lit\u0161oant\u0161o": 1323,
  "\u2581kileng": 1324,
  "li": 1325,
  "\u2581strong": 1326,
  "\u2581nt\u0161a": 1327,
  "\u2581hohle": 1328,
  "\u2581pono": 1329,
  "\u2581country": 1330,
  "\u2581sheba": 1331,
  "\u2581NW": 1332,
  "\u2581hakae": 1333,
  "\u2581fetola": 1334,
  "\u2581Afrika": 1335,
  "\u2581fuoa": 1336,
  "\u2581kolobetsoa": 1337,
  "\u2581makholo": 1338,
  "\u2581h\u014dla": 1339,
  "es": 1340,
  "\u2581bomolimo": 1341,
  "\u2581once": 1342,
  "\u2581thinking": 1343,
  "\u2581ngotsoeng": 1344,
  "\u2581felisa": 1345,
  "\u2581t\u0161ehetsa": 1346,
  "\u2581bosiu": 1347,
  "\u2581here": 1348,
  "\u2581Moapostola": 1349,
  "\u258127": 1350,
  "\u2581potlako": 1351,
  "\u2581trust": 1352,
  "\u258116:": 1353,
  "\u2581t\u0161epa": 1354,
  "\u2581tlisa": 1355,
  "\u2581according": 1356,
  "\u2581attitude": 1357,
  "\u2581countries": 1358,
  "\u2581moved": 1359,
  "\u2581h\u014dlileng": 1360,
  "\u2581bolaea": 1361,
  "\u2581church": 1362,
  "\u2581Ea": 1363,
  "\u2581lehlakoreng": 1364,
  "\u2581habo": 1365,
  "\u2581sekolo": 1366,
  "\u00b7": 1367,
  "\u2581similar": 1368,
  "\u2581t\u0161aba": 1369,
  "\u2581araba": 1370,
  "\u2581million": 1371,
  "\u2581married": 1372,
  "\u2581past": 1373,
  "\u2581matters": 1374,
  "\u2581Now": 1375,
  "\u2581lekhetlo": 1376,
  "\u258120:": 1377,
  "\u2581mahlo": 1378,
  "to": 1379,
  "\u2581According": 1380,
  "\u2581tlaleho": 1381,
  "\u2581coming": 1382,
  "\u2581history": 1383,
  "\u2581heard": 1384,
  "\u2581M": 1385,
  "\u2581further": 1386,
  "\u2581motseng": 1387,
  "\u2581barab": 1388,
  "\u2581works": 1389,
  "\u2581Dur": 1390,
  "\u258121.": 1391,
  "\u2581comes": 1392,
  "\u258111,": 1393,
  "\u2581act": 1394,
  "\u2581happiness": 1395,
  "\u2581thapelo": 1396,
  "\u2581hampe": 1397,
  "\u2581Nakong": 1398,
  "\u2581tell": 1399,
  "\u25812,": 1400,
  "\u258140": 1401,
  "\u2581already": 1402,
  "\u2581mamella": 1403,
  "\u2581physical": 1404,
  "\u2581soul": 1405,
  "\u2581evidence": 1406,
  "\u2581Daniel": 1407,
  "\u2581certainly": 1408,
  "\u2581toka": 1409,
  "\u258112,": 1410,
  "\u2581kindness": 1411,
  "\u2581Mokhatlo": 1412,
  "\u25817,": 1413,
  "\u2581Credit": 1414,
  "\u2581prophet": 1415,
  "\u2581teach": 1416,
  "\u2581bitsoa": 1417,
  "\u2581letsoho": 1418,
  "\u2581call": 1419,
  "\u2581malapa": 1420,
  "\u2581botona": 1421,
  "\u2581lekaneng": 1422,
  "\u258150": 1423,
  "\u2581righteousness": 1424,
  "\u2581based": 1425,
  "\u2581second": 1426,
  "\u2581started": 1427,
  "\u2581shows": 1428,
  "\u2581rate": 1429,
  "\u2581Life": 1430,
  "\u2581phethahetseng": 1431,
  "\u2581Qetellong": 1432,
  "\u258110,": 1433,
  "\u258131": 1434,
  "\u2581near": 1435,
  "\u2581litholoana": 1436,
  "\u2581atleha": 1437,
  "\u2581bileng": 1438,
  "\u2581balateli": 1439,
  "\u2581See": 1440,
  "\u2581clear": 1441,
  "\u2581local": 1442,
  "\u2581thibela": 1443,
  "\u2581phethahala": 1444,
  "\u2581everlasting": 1445,
  "\u2581interest": 1446,
  "\u2581Genesis": 1447,
  "\u2581Genese": 1448,
  "\u2581material": 1449,
  "\u2581bot\u0161ehali": 1450,
  "\u2581perfect": 1451,
  "\u2581followers": 1452,
  "\u2581Bophelo": 1453,
  "\u2581sekolong": 1454,
  "\u2581Hebrew": 1455,
  "\u2581longer": 1456,
  "\u2581alone": 1457,
  "\u2581gives": 1458,
  "\u2581phoso": 1459,
  "\u2581allow": 1460,
  "\u2581government": 1461,
  "\u2581rua": 1462,
  "\u2581etela": 1463,
  "\u2581F": 1464,
  "\u2581Will": 1465,
  "\u2581m": 1466,
  "\u258116,": 1467,
  "\u2581etsoang": 1468,
  "\u2581anyone": 1469,
  "\u2581rather": 1470,
  "\u2581nahane": 1471,
  "\u2581laela": 1472,
  "\u2581Nkiloeng": 1473,
  "\u2581Their": 1474,
  "\u2581leave": 1475,
  "\u2581sacrifice": 1476,
  "\u2581Pictures": 1477,
  "\u2581motsoalle": 1478,
  "\u2581public": 1479,
  "\u2581utloahalang": 1480,
  "\u2581Africa": 1481,
  "\u2581resurrection": 1482,
  "\u2581organization": 1483,
  "\u2581fokolang": 1484,
  "\u2581khatello": 1485,
  "\u2581W": 1486,
  "\u2581sons": 1487,
  "\u2581pray": 1488,
  "\u2581therefore": 1489,
  "\u2581HO": 1490,
  "\u2581matsoho": 1491,
  "\u258132": 1492,
  "\u2581perhaps": 1493,
  "\u2581hlokahalang": 1494,
  "i": 1495,
  "\u2581laola": 1496,
  "\u2581rule": 1497,
  "\u2581motle": 1498,
  "\u2581common": 1499,
  "\u2581prophecy": 1500,
  "\u2581Jewish": 1501,
  "\u2581libaka": 1502,
  "\u258133": 1503,
  "\u2581tiisa": 1504,
  "\u2581kapele": 1505,
  "\u2581magazine": 1506,
  "\u2581months": 1507,
  "se": 1508,
  "\u2581boletse": 1509,
  "\u2581thepa": 1510,
  "\u2581Solomon": 1511,
  "\u2581truly": 1512,
  "\u2581Rather": 1513,
  "\u2581itself": 1514,
  "\u2581Roman": 1515,
  "\u2581bophara": 1516,
  "\u2581Baroma": 1517,
  "\u2581return": 1518,
  "\u25817:": 1519,
  "\u2581remain": 1520,
  "\u2581May": 1521,
  "\u2581bolele": 1522,
  "\u2581lost": 1523,
  "\u2581KA": 1524,
  "\u2581Bana": 1525,
  "\u2581friend": 1526,
  "\u2581lecha": 1527,
  "\u2581ananela": 1528,
  "\u2581liketsahalo": 1529,
  "\u2581within": 1530,
  "\u2581molekane": 1531,
  "\u2581Molula": 1532,
  "\u2581Segerike": 1533,
  "\u2581khanya": 1534,
  "\u2581authority": 1535,
  "\u2581tataiso": 1536,
  "\u2581mentioned": 1537,
  "\u2581Would": 1538,
  "\u2581boleloa": 1539,
  "\u2581individuals": 1540,
  "\u2581Bakorinthe": 1541,
  "\u2581ago": 1542,
  "\u2581hokae": 1543,
  "\u2581t\u0161oaroa": 1544,
  "\u2581using": 1545,
  "\u2581die": 1546,
  "\u2581five": 1547,
  "\u2581loved": 1548,
  "\u2581hare": 1549,
  "\u2581serious": 1550,
  "\u2581stand": 1551,
  "\u2581showed": 1552,
  "\u2581Joseph": 1553,
  "\u2581J": 1554,
  "\u2581mengata": 1555,
  ",...": 1556,
  "\u2581fanang": 1557,
  "\u2581habohlokoa": 1558,
  "\u2581haha": 1559,
  "\u2581kahlolo": 1560,
  "\u2581mpa": 1561,
  "\u2581Hebrews": 1562,
  "\u2581katleho": 1563,
  "\u2581finyella": 1564,
  "\u2581True": 1565,
  "\u2581greater": 1566,
  "\u2581hlompha": 1567,
  "\u2581Hamorao": 1568,
  "\u2581apostles": 1569,
  "\u2581kula": 1570,
  "\u258113,": 1571,
  "\u2581born": 1572,
  "\u2581anything": 1573,
  "\u2581Mor": 1574,
  "\u2581Tlhaloso": 1575,
  "\u2581fully": 1576,
  "\u2581senya": 1577,
  "\u2581written": 1578,
  "\u2581t\u0161usumetso": 1579,
  "\u2581kereke": 1580,
  "\u2581Lintho": 1581,
  "\u2581thabisang": 1582,
  "\u2581Tsela": 1583,
  "\u2581got": 1584,
  "\u2581Witness": 1585,
  "\u2581meaning": 1586,
  "\u2581sheep": 1587,
  "\u2581Joang": 1588,
  "\u2581kutloisiso": 1589,
  "\u2581tlhompho": 1590,
  "\u2581hl\u014dla": 1591,
  "\u2581ipotsa": 1592,
  "\u2581youths": 1593,
  "\u2581meleng": 1594,
  "\u2581hlophisitsoeng": 1595,
  "\u2581explains": 1596,
  "\u2581mamello": 1597,
  "\u2581D": 1598,
  "\u2581kept": 1599,
  "\u2581Babylona": 1600,
  "\u2581provided": 1601,
  "\u2581beke": 1602,
  "\u2581meeting": 1603,
  "\u2581kile": 1604,
  "\u2581R": 1605,
  "You": 1606,
  "\u2581II": 1607,
  "\u2581modern": 1608,
  "\u2581Devil": 1609,
  "\u2581shall": 1610,
  "\u2581tlohela": 1611,
  "\u2581likhoeli": 1612,
  "\u2581explained": 1613,
  "\u2581Lebokose": 1614,
  "\u2581spiritually": 1615,
  "\u2581accept": 1616,
  "\u2581lived": 1617,
  "\u2581qualities": 1618,
  "\u2581Box": 1619,
  "\u258122.": 1620,
  "\u2581boboleli": 1621,
  "\u258137": 1622,
  "\u2581Line": 1623,
  "\u2581less": 1624,
  "\u2581matlafatsa": 1625,
  "\u2581AIDS": 1626,
  "\u2581millions": 1627,
  "\u2581inspired": 1628,
  "\u258123.": 1629,
  "\u2581effort": 1630,
  "\u2581ikemiselitse": 1631,
  "\u2581hloekileng": 1632,
  "\u2581lekholo": 1633,
  "\u2581pioneer": 1634,
  "\u2581slave": 1635,
  "\u2581Maria": 1636,
  "\u2581tsamaeang": 1637,
  "\u2581held": 1638,
  "\u2581Mary": 1639,
  "\u2581Qhooa": 1640,
  "\u2581sister": 1641,
  "\u2581forever": 1642,
  "\u2581kotsing": 1643,
  "\u2581taelo": 1644,
  "\u2581butle": 1645,
  "\u2581Kapa": 1646,
  "\u2581litaelo": 1647,
  "\u2581area": 1648,
  "\u2581Indeed": 1649,
  "\u2581enough": 1650,
  "\u2581strength": 1651,
  "\u2581baapostola": 1652,
  "\u2581heavens": 1653,
  "Molimo": 1654,
  "\u2581speaking": 1655,
  "\u258128": 1656,
  "\u2581Diabolose": 1657,
  "\u2581potso": 1658,
  "\u2581understanding": 1659,
  "\u2581Bona": 1660,
  "\u2581sisters": 1661,
  "\u2581linthong": 1662,
  "\u2581effect": 1663,
  "\u2581lithethefatsi": 1664,
  "\u2581older": 1665,
  "\u02b9": 1666,
  "\u2581continued": 1667,
  "\u2581hands": 1668,
  "\u2581everything": 1669,
  "\u2581issue": 1670,
  "\u2581lit\u0161obotsi": 1671,
  "\u2581set\u0161oant\u0161o": 1672,
  "\u2581Batsoali": 1673,
  "\u2581Mattheu": 1674,
  "\u2581lumelang": 1675,
  "\u2581Seheberu": 1676,
  "\u2581tieo": 1677,
  "\u2581P": 1678,
  "\u2581efforts": 1679,
  "\u2581hl\u014dleha": 1680,
  "\u2581lingoliloeng": 1681,
  "\u2581mangolo": 1682,
  "\u2581leboha": 1683,
  "\u2581phihlelo": 1684,
  "\u2581Moholo": 1685,
  "\u258117,": 1686,
  "\u258129": 1687,
  "\u2581khopolo": 1688,
  "\u2581circumstances": 1689,
  "\u2581maholo": 1690,
  "\u2581hlooho": 1691,
  "\u2581promise": 1692,
  "\u2581deep": 1693,
  "\u2581pages": 1694,
  "\u2581congregations": 1695,
  "\u2581named": 1696,
  "\u2581etsisa": 1697,
  "\u2581wonderful": 1698,
  "\u2581gain": 1699,
  "\u2581hearts": 1700,
  "\u258124.": 1701,
  "\u2581Daniele": 1702,
  "\u2581Awake": 1703,
  "\u2581powerful": 1704,
  "\u2581violence": 1705,
  "\u2581Paki": 1706,
  "tse": 1707,
  "\u2581Bacha": 1708,
  "\u2581seem": 1709,
  "\u2581t\u0161eletseng": 1710,
  "\u2581bohale": 1711,
  "\u258119,": 1712,
  "\u2581Moea": 1713,
  "\u2581liphetoho": 1714,
  "\u2581amanang": 1715,
  "\u2581kelellong": 1716,
  "\u2581moprofeta": 1717,
  "or": 1718,
  "\u2581witness": 1719,
  "\u2581poor": 1720,
  "\u2581regarding": 1721,
  "\u2581don": 1722,
  "\u2581habonolo": 1723,
  "\u2581honor": 1724,
  "\u2581lefa": 1725,
  "\u2581fumanoa": 1726,
  "\u2581hear": 1727,
  "\u2581bitsa": 1728,
  "\u2581liqeto": 1729,
  "\u2581English": 1730,
  "ers": 1731,
  "\u2581bocha": 1732,
  "\u2581doubt": 1733,
  "\u2581events": 1734,
  "\u2581ameha": 1735,
  "\u2581families": 1736,
  "\u2581khaotsa": 1737,
  "\u2581noa": 1738,
  "\u2581stated": 1739,
  "\u2581deal": 1740,
  "\u2581forth": 1741,
  "\u2581moral": 1742,
  "\u2581period": 1743,
  "\u2581hold": 1744,
  "\u2581mohau": 1745,
  "\u2581monyenyane": 1746,
  "an": 1747,
  "\u2581Che": 1748,
  "\u2581spoke": 1749,
  "\u2581Did": 1750,
  "\u2581prayers": 1751,
  "\u2581tlotsitsoeng": 1752,
  "\u2581beng": 1753,
  "\u2581Mark": 1754,
  "\u2581above": 1755,
  "ke": 1756,
  "\u2581likamano": 1757,
  "\u2581judgment": 1758,
  "\u2581fat\u0161e": 1759,
  "\u2581atamela": 1760,
  "\u2581easy": 1761,
  "bang": 1762,
  "\u2581liithuti": 1763,
  "\u2581whose": 1764,
  "\u2581qalong": 1765,
  "\u2581bokamoso": 1766,
  "\u2581liphoso": 1767,
  "\u2581pain": 1768,
  "ra": 1769,
  "\u2581Like": 1770,
  "\u2581boletsoeng": 1771,
  "\u2581gift": 1772,
  "\u2581freedom": 1773,
  "\u2581t\u0161abo": 1774,
  "ma": 1775,
  "\u2581tlaleha": 1776,
  "\u2581\u25cf": 1777,
  "\u2581Most": 1778,
  "\u2581monate": 1779,
  "\u2581visit": 1780,
  "\u2581sexual": 1781,
  "\u2581led": 1782,
  "\u2581Egepeta": 1783,
  "\u2581phehella": 1784,
  "\u2581mangeloi": 1785,
  "he": 1786,
  "\u2581several": 1787,
  "\u2581open": 1788,
  "\u2581pelong": 1789,
  "\u2581Lilemo": 1790,
  "\u2581khoeli": 1791,
  "\u2581mino": 1792,
  "\u2581Mantsoe": 1793,
  "\u2581eketseha": 1794,
  "\u2581value": 1795,
  "\u2581sitoa": 1796,
  "\u2581remember": 1797,
  "\u2581head": 1798,
  "\u2581morali": 1799,
  "\u2581sebelisang": 1800,
  "\u2581Hence": 1801,
  "\u2581Joshua": 1802,
  "\u2581busa": 1803,
  "\u2581ithutile": 1804,
  "\u2581kakaretso": 1805,
  "\u2581lintlha": 1806,
  "\u2581godly": 1807,
  "\u2581khoebo": 1808,
  "\u2581lumellana": 1809,
  "\u2581natural": 1810,
  "\u2581standards": 1811,
  "\u2581lemoha": 1812,
  "\u2581various": 1813,
  "\u258170": 1814,
  "\u2581Jeremane": 1815,
  "\u2581glory": 1816,
  "\u2581Instead": 1817,
  "\u2581please": 1818,
  "\u2581Nete": 1819,
  "\u2581libe": 1820,
  "\u2581tiileng": 1821,
  "\u2581ten": 1822,
  "\u2581activity": 1823,
  "\u2581class": 1824,
  "\u2581six": 1825,
  "\u2581move": 1826,
  "\u2581Noe": 1827,
  "\u2581lengolo": 1828,
  "\u2581prove": 1829,
  "\u2581Or": 1830,
  "\u2581birth": 1831,
  "\u2581influence": 1832,
  "\u2581published": 1833,
  "\u2581thousands": 1834,
  "\u2581opportunity": 1835,
  "\u2581considered": 1836,
  "\u2581paka": 1837,
  "\u2581promises": 1838,
  "\u2581tried": 1839,
  "\u2581blessing": 1840,
  "\u2581comfort": 1841,
  "\u2581letter": 1842,
  "\u2581Another": 1843,
  "\u2581single": 1844,
  "\u2581working": 1845,
  "\u2581affect": 1846,
  "\u2581Church": 1847,
  "\u2581sehlabelo": 1848,
  "\u2581South": 1849,
  "\u2581field": 1850,
  "\u2581liaparo": 1851,
  "\u2581bolokolohi": 1852,
  "\u2581available": 1853,
  "hilomithara": 1854,
  "\u2581tloaelo": 1855,
  "\u2581hakaalo": 1856,
  "\u258122,": 1857,
  "\u2581etsoe": 1858,
  "\u2581helps": 1859,
  "\u2581lands": 1860,
  "\u2581Baheberu": 1861,
  "\u2581changed": 1862,
  "ae": 1863,
  "\u2581listen": 1864,
  "\u2581students": 1865,
  "\u2581Korinthe": 1866,
  "\u2581ema": 1867,
  "\u2581mahlomola": 1868,
  "\u2581vital": 1869,
  "\u2581khaolo": 1870,
  "\u2581Jeremia": 1871,
  "\u2581happened": 1872,
  "\u2581political": 1873,
  "\u2581role": 1874,
  "\u2581accepted": 1875,
  "\u2581th\u014dko": 1876,
  "\u2581Spain": 1877,
  "\u2581War": 1878,
  "\u2581described": 1879,
  "\u2581Australia": 1880,
  "\u2581Noah": 1881,
  "\u2581hours": 1882,
  "\u258120,": 1883,
  "\u2581clean": 1884,
  "\u2581histori": 1885,
  "\u2581linku": 1886,
  "\u2581confidence": 1887,
  "\u2581worldwide": 1888,
  "\u2581bukeng": 1889,
  "\u2581khone": 1890,
  "\u2581mafu": 1891,
  "\u2581offer": 1892,
  "\u2581nkoa": 1893,
  "\u2581lebisa": 1894,
  "\u2581Great": 1895,
  "\u2581babatsehang": 1896,
  "\u2581served": 1897,
  "\u2581susumelletsa": 1898,
  "\u2581angels": 1899,
  "\u2581covenant": 1900,
  "\u2581actually": 1901,
  "\u2581answers": 1902,
  "\u2581bolaoa": 1903,
  "ic": 1904,
  "\u2581examples": 1905,
  "\u2581kenya": 1906,
  "\u2581apply": 1907,
  "\u2581least": 1908,
  "\u2581source": 1909,
  "\u2581draw": 1910,
  "\u2581mabeli": 1911,
  "\u2581proved": 1912,
  "\u2581else": 1913,
  "\u2581disease": 1914,
  "\u2581Ntho": 1915,
  "\u2581Scriptural": 1916,
  "\u2581Still": 1917,
  "\u258118,": 1918,
  "\u2581books": 1919,
  "\u2581former": 1920,
  "\u2581hlaka": 1921,
  "God": 1922,
  "\u2581indeed": 1923,
  "\u2581litsebi": 1924,
  "\u2581decision": 1925,
  "\u2581myself": 1926,
  "\u2581basebetsi": 1927,
  "\u2581atisa": 1928,
  "\u2581everyone": 1929,
  "\u2581ikhethang": 1930,
  "\u2581lit\u0161ila": 1931,
  "\u2581khonang": 1932,
  "\u2581thuse": 1933,
  "\u2581k\u014dpo": 1934,
  "\u2581Babylon": 1935,
  "\u2581mofuthu": 1936,
  "\u2581rest": 1937,
  "lo": 1938,
  "\u2581tsoele": 1939,
  "ness": 1940,
  "\u2581couple": 1941,
  "\u2581flesh": 1942,
  "me": 1943,
  "us": 1944,
  "\u2581activities": 1945,
  "\u2581lipolotiki": 1946,
  "\u2581Jeremiah": 1947,
  "\u2581position": 1948,
  "\u2581preach": 1949,
  "\u2581report": 1950,
  "ve": 1951,
  "\u2581afe": 1952,
  "\u2581lihora": 1953,
  "\u2581Hall": 1954,
  "\u2581advice": 1955,
  "\u2581created": 1956,
  "\u2581job": 1957,
  "\u2581First": 1958,
  "\u2581Josefa": 1959,
  "\u2581chapter": 1960,
  "\u2581clearly": 1961,
  "\u2581willing": 1962,
  "\u2581miles": 1963,
  "\u2581reka": 1964,
  "\u2581Hae": 1965,
  "\u258134": 1966,
  "\u258125.": 1967,
  "\u2581branch": 1968,
  "\u2581thabile": 1969,
  "\u2581privilege": 1970,
  "\u2581almost": 1971,
  "\u2581boeena": 1972,
  "\u2581de": 1973,
  "\u2581instance": 1974,
  "\u2581kannete": 1975,
  "Re": 1976,
  "\u2581lenyalong": 1977,
  "\u2581supileng": 1978,
  "\u2581force": 1979,
  "\u2581Tsoha": 1980,
  "\u2581Tlaleho": 1981,
  "\u2581ability": 1982,
  "\u2581responsibility": 1983,
  "\u2581maikutlong": 1984,
  "\u2581walk": 1985,
  "\u2581toba": 1986,
  "\u2581eketsa": 1987,
  "\u2581foretold": 1988,
  "\u2581bafu": 1989,
  "\u258160": 1990,
  "\u2581learning": 1991,
  "\u2581rona": 1992,
  "\u2581seek": 1993,
  "\u2581feet": 1994,
  "\u2581lemosa": 1995,
  "\u2581loyal": 1996,
  "\u2581lebella": 1997,
  "\u2581half": 1998,
  "\u2581Bajode": 1999,
  "\u258124:": 2000,
  "\u2581litabeng": 2001,
  "\u2581eat": 2002,
  "\u2581lokisetsa": 2003,
  "\u2581meet": 2004,
  "\u25817]": 2005,
  "\u2581destruction": 2006,
  "\u2581getting": 2007,
  "be": 2008,
  "\u2581maintain": 2009,
  "\u2581teachings": 2010,
  "\u2581entire": 2011,
  "\u2581parent": 2012,
  "\u2581tempele": 2013,
  "\u2581centuries": 2014,
  "\u2581boikokobetso": 2015,
  "\u2581lehae": 2016,
  "\u2581mpho": 2017,
  "\u2581blessings": 2018,
  "\u2581text": 2019,
  "Jehovah": 2020,
  "\u2581botsoalle": 2021,
  "\u2581Christendom": 2022,
  "\u2581Ntoa": 2023,
  "\u2581anger": 2024,
  "\u2581balumeli": 2025,
  "\u2581liteko": 2026,
  "T": 2027,
  "\u2581laws": 2028,
  "\u2581met": 2029,
  "\u2581sins": 2030,
  "\u2581Tract": 2031,
  "\u2581neither": 2032,
  "Jehova": 2033,
  "\u2581Eva": 2034,
  "\u2581L": 2035,
  "\u2581Read": 2036,
  "\u2581tlala": 2037,
  "\u2581etsetsa": 2038,
  "\u2581Just": 2039,
  "bo": 2040,
  "\u2581likarolo": 2041,
  "\u2581lokisa": 2042,
  "\u2581litekanyetso": 2043,
  "\u2581linaha": 2044,
  "\u2581write": 2045,
  "\u2581makasine": 2046,
  "\u2581file": 2047,
  "\u2581start": 2048,
  "\u2581barali": 2049,
  "\u2581Asia": 2050,
  "\u2581earlier": 2051,
  "\u2581places": 2052,
  "ea": 2053,
  "\u2581April": 2054,
  "\u2581fane": 2055,
  "\u2581animals": 2056,
  "\u2581takes": 2057,
  "\u2581appropriate": 2058,
  "\u2581seems": 2059,
  "\u2581carry": 2060,
  "\u2581crowd": 2061,
  "\u2581regular": 2062,
  "\u2581Tla": 2063,
  "\u2581bue": 2064,
  "\u2581Solomone": 2065,
  "\u2581phello": 2066,
  "\u2581complete": 2067,
  "\u2581tsebang": 2068,
  "\u2581t\u0161epe": 2069,
  "\u2581ngolla": 2070,
  "\u2581subject": 2071,
  "\u2581leholo": 2072,
  "\u2581thoughts": 2073,
  "\u2581Bala": 2074,
  "\u2581thabisa": 2075,
  "\u2581Later": 2076,
  "\u2581it\u0161etlehile": 2077,
  "\u2581results": 2078,
  "\u2581tokoloho": 2079,
  "\u2581American": 2080,
  "\u2581accurate": 2081,
  "\u2581sebelise": 2082,
  "\u2581Egypt": 2083,
  "\u2581short": 2084,
  "\u2581tletse": 2085,
  "\u2581lihlopha": 2086,
  "\u2581mabifi": 2087,
  "\u2581La": 2088,
  "\u2581baptism": 2089,
  "\u2581stop": 2090,
  "\u2581Samuel": 2091,
  "\u2581utloisise": 2092,
  "\u258117:": 2093,
  "\u2581ransom": 2094,
  "en": 2095,
  "\u2581concern": 2096,
  "\u2581Juda": 2097,
  "\u2581khothatsa": 2098,
  "\u2581convention": 2099,
  "\u2581building": 2100,
  "\u2581caused": 2101,
  "\u2581che": 2102,
  "\u2581offered": 2103,
  "\u2581promised": 2104,
  "\u2581Nako": 2105,
  "\u2581harmony": 2106,
  "\u2581motsoali": 2107,
  "\u2581reach": 2108,
  "\u2581grow": 2109,
  "\u2581meea": 2110,
  "\u2581reasons": 2111,
  "\u2581appointed": 2112,
  "\u2581seven": 2113,
  "\u2581n\u00e8": 2114,
  "\u2581state": 2115,
  "\u2581usually": 2116,
  "\u2581appreciation": 2117,
  "\u2581changes": 2118,
  "\u2581girl": 2119,
  "\u2581Bethele": 2120,
  "\u2581mehlala": 2121,
  "ri": 2122,
  "\u2581Canada": 2123,
  "\u2581H": 2124,
  "\u2581throughout": 2125,
  "\u2581develop": 2126,
  "no": 2127,
  "\u2581creation": 2128,
  "\u2581Have": 2129,
  "\u2581recorded": 2130,
  "\u2581shown": 2131,
  "\u2581sometimes": 2132,
  "\u2581earthly": 2133,
  "\u2581leaders": 2134,
  "\u2581office": 2135,
  "\u2581mebuso": 2136,
  "\u2581direction": 2137,
  "\u2581leoatle": 2138,
  "\u2581banyalani": 2139,
  "\u2581social": 2140,
  "\u2581imitate": 2141,
  "\u2581justice": 2142,
  "\u2581lebala": 2143,
  "\u2581decided": 2144,
  "\u2581G": 2145,
  "\u2581education": 2146,
  "\u2581minister": 2147,
  "\u2581pont\u0161o": 2148,
  "\u2581haufinyane": 2149,
  "\u2581practice": 2150,
  "\u2581necessary": 2151,
  "\u2581stay": 2152,
  "\u2581basis": 2153,
  "\u2581parts": 2154,
  "\u2581100": 2155,
  "\u2581regard": 2156,
  "\u2581setho": 2157,
  "\u2581daughter": 2158,
  "\u2581sex": 2159,
  "\u2581hatisa": 2160,
  "\u2581Bethel": 2161,
  "\u2581experienced": 2162,
  "\u2581kholiseha": 2163,
  "ro": 2164,
  "\u2581Ntlha": 2165,
  "\u2581pheta": 2166,
  "\u2581Lerato": 2167,
  "\u2581added": 2168,
  "\u2581lithapelo": 2169,
  "\u2581wants": 2170,
  "\u2581Matla": 2171,
  "\u2581Monna": 2172,
  "\u2581youth": 2173,
  "\u2581liphate": 2174,
  "\u2581boraro": 2175,
  "\u2581sehl\u014dh\u014d": 2176,
  "\u2581morning": 2177,
  "\u2581side": 2178,
  "\u2581ketsahalo": 2179,
  "\u2581proper": 2180,
  "\u2581appreciate": 2181,
  "\u2581attend": 2182,
  "\u2581bont\u0161e": 2183,
  "Ba": 2184,
  "\u2581t\u0161episo": 2185,
  "\u2581\"\"": 2186,
  "\u2581daily": 2187,
  "\u2581etsahalang": 2188,
  "\u2581turned": 2189,
  "\u2581tumellanong": 2190,
  "\u2581Hao": 2191,
  "\u2581behind": 2192,
  "\u2581molemong": 2193,
  "\u2581training": 2194,
  "\u2581cheseho": 2195,
  "\u2581wonder": 2196,
  "\u2581fulfillment": 2197,
  "\u2581maoto": 2198,
  "\u2581returned": 2199,
  "\u2581Lebaka": 2200,
  "\u2581believers": 2201,
  "\u2581fella": 2202,
  "\u2581pay": 2203,
  "\u2581action": 2204,
  "\u2581maemong": 2205,
  "k": 2206,
  "\u2581bofelo": 2207,
  "\u2581Therefore": 2208,
  "\u2581baeti": 2209,
  "\u2581door": 2210,
  "\u2581interested": 2211,
  "\u2581determined": 2212,
  "\u2581mashome": 2213,
  "\u2581raised": 2214,
  "\u2581rich": 2215,
  "\u2581Nevertheless": 2216,
  "\u2581leseli": 2217,
  "\u2581tree": 2218,
  "\u2581build": 2219,
  "\u2581tells": 2220,
  "\u2581occasion": 2221,
  "\u2581psalmist": 2222,
  "\u2581decisions": 2223,
  "\u2581exercise": 2224,
  "\u2581mollo": 2225,
  "\u2581t\u0161ohanyetso": 2226,
  "\u2581Eve": 2227,
  "\u2581boinehelo": 2228,
  "\u2581evil": 2229,
  "\u2581salvation": 2230,
  "\u2581conscience": 2231,
  "\u2581individual": 2232,
  "\u2581Though": 2233,
  "\u2581h\u014dlisa": 2234,
  "\u2581km": 2235,
  "\u2581tsoho": 2236,
  "\u2581hlano": 2237,
  "\u2581sefe": 2238,
  "\u2581Etsa": 2239,
  "\u2581linaleli": 2240,
  "\u2581literature": 2241,
  "\u2581India": 2242,
  "\u2581selekane": 2243,
  "\u2581emela": 2244,
  "\u2581moputso": 2245,
  "\u2581prison": 2246,
  "\u2581beginning": 2247,
  "\u2581m\u014dtoana": 2248,
  "\u2581lahleheloa": 2249,
  "\u2581melimo": 2250,
  "\u2581pefo": 2251,
  "\u2581BA": 2252,
  "\u2581mamele": 2253,
  "\u2581Moreover": 2254,
  "\u2581line": 2255,
  "\u2581Eaba": 2256,
  "\u2581September": 2257,
  "\u2581kholisehile": 2258,
  "\u2581helping": 2259,
  "\u2581praise": 2260,
  "\u2581t\u0161oarela": 2261,
  "\u2581program": 2262,
  "\u2581pressure": 2263,
  "\u2581qetella": 2264,
  "\u2581sea": 2265,
  "\u2581un": 2266,
  "ll": 2267,
  "\u2581Others": 2268,
  "\u2581lakatsa": 2269,
  "\u2581becoming": 2270,
  "\u2581medical": 2271,
  "\u2581ngaka": 2272,
  "\u2581regularly": 2273,
  "\u2581elder": 2274,
  "\u2581week": 2275,
  "\u2581December": 2276,
  "\u2581Sehlopha": 2277,
  "\u2581lack": 2278,
  "\u2581Kereke": 2279,
  "\u2581paradise": 2280,
  "\u2581suffer": 2281,
  "\u258129.": 2282,
  "\u2581Bakeng": 2283,
  "\u2581Further": 2284,
  "\u2581missionary": 2285,
  "\u2581sign": 2286,
  "moo": 2287,
  "\u2581lihlong": 2288,
  "\u2581allowed": 2289,
  "\u2581phele": 2290,
  "\u2581susumetsa": 2291,
  "\u2581Mosebetsi": 2292,
  "\u2581Young": 2293,
  "\u2581entsoe": 2294,
  "\u2581Russia": 2295,
  "\u2581limillione": 2296,
  "\u2581koloi": 2297,
  "Read": 2298,
  "\u2581baena": 2299,
  "\u2581sebeletsang": 2300,
  "\u2581sun": 2301,
  "\u2581Hopola": 2302,
  "\u2581t\u0161episa": 2303,
  "\u2581fire": 2304,
  "\u2581More": 2305,
  "is": 2306,
  "\u2581Holy": 2307,
  "\u2581speech": 2308,
  "\u2581knows": 2309,
  "\u2581precious": 2310,
  "\u2581Before": 2311,
  "\u2581include": 2312,
  "\u2581ithute": 2313,
  "\u2581August": 2314,
  "\u2581feeling": 2315,
  "\u2581saense": 2316,
  "\u2581Hlokomela": 2317,
  "\u2581meriana": 2318,
  "\u2581hoseng": 2319,
  "Bala": 2320,
  "\u2581conditions": 2321,
  "\u2581matlo": 2322,
  "\u2581tokisetso": 2323,
  "\u2581Mehl": 2324,
  "\u2581practical": 2325,
  "\u2581Ephesians": 2326,
  "\u2581languages": 2327,
  "\u2581Hase": 2328,
  "\u2581cases": 2329,
  "\u2581hlahang": 2330,
  "\u2581merero": 2331,
  "ta": 2332,
  "\u2581lihlooho": 2333,
  "\u2581mahlong": 2334,
  "\u2581either": 2335,
  "It": 2336,
  "We": 2337,
  "\u2581baruti": 2338,
  "\u2581LE": 2339,
  "\u2581reports": 2340,
  "\u2581Mexico": 2341,
  "\u2581music": 2342,
  "\u2581integrity": 2343,
  "\u2581baromuoa": 2344,
  "\u2581member": 2345,
  "\u00a9": 2346,
  "\u2581personality": 2347,
  "\u2581senola": 2348,
  "\u2581thahasello": 2349,
  "\u2581t\u0161imo": 2350,
  "\u2581encouraged": 2351,
  "\u2581followed": 2352,
  "\u2581leboea": 2353,
  "\u2581Ask": 2354,
  "\u2581persons": 2355,
  "\u2581Thuto": 2356,
  "\u2581buuoa": 2357,
  "\u2581recent": 2358,
  "\u2581romela": 2359,
  "\u2581trying": 2360,
  "D": 2361,
  "\u2581About": 2362,
  "\u2581Perhaps": 2363,
  "\u2581happen": 2364,
  "\u2581discipline": 2365,
  "\u2581khetheha": 2366,
  "\u2581realize": 2367,
  "\u258124,": 2368,
  "\u2581Baa": 2369,
  "\u2581Brother": 2370,
  "\u2581LA": 2371,
  "\u2581beyond": 2372,
  "\u2581noted": 2373,
  "\u2581mohlolo": 2374,
  "\u2581nahanang": 2375,
  "\u2581ntat": 2376,
  "\u2581October": 2377,
  "\u2581society": 2378,
  "\u2581Mosali": 2379,
  "\u2581lekala": 2380,
  "\u2581record": 2381,
  "\u2581EA": 2382,
  "\u2581areas": 2383,
  "\u2581greatest": 2384,
  "\u2581obey": 2385,
  "\u2581R\u014dna": 2386,
  "\u2581respond": 2387,
  "\u2581sound": 2388,
  "\u2581condition": 2389,
  "\u2581polelo": 2390,
  "\u2581liphutheho": 2391,
  "\u2581looking": 2392,
  "\u2581Amerika": 2393,
  "\u2581hlokahale": 2394,
  "\u2581it\u0161oara": 2395,
  "\u2581addition": 2396,
  "\u2581assignment": 2397,
  "\u2581emotional": 2398,
  "\u2581\u25c6": 2399,
  "\u2581priest": 2400,
  "\u2581quickly": 2401,
  "st": 2402,
  "P": 2403,
  "\u2581Brooklyn": 2404,
  "\u2581protect": 2405,
  "\u2581Ntle": 2406,
  "mo": 2407,
  "\u2581letsoalo": 2408,
  "\u2581mohlanka": 2409,
  "\u2581nature": 2410,
  "\u2581Har": 2411,
  "\u2581Ma": 2412,
  "\u2581bohato": 2413,
  "\u2581hlokomele": 2414,
  "\u2581melemo": 2415,
  "\u2581positive": 2416,
  "\u2581priests": 2417,
  "\u258123]": 2418,
  "\u2581Brazil": 2419,
  "\u2581ntlafatsa": 2420,
  "\u2581barapeli": 2421,
  "\u2581nileng": 2422,
  "\u258135": 2423,
  "\u2581Christianity": 2424,
  "\u2581fumanang": 2425,
  "\u2581mat\u0161oenyeho": 2426,
  "\u2581leshano": 2427,
  "\u2581beautiful": 2428,
  "\u2581mate": 2429,
  "\u2581sefate": 2430,
  "\u2581TV": 2431,
  "\u2581lot": 2432,
  "\u2581phekolo": 2433,
  "\u2581letsatsing": 2434,
  "\u2581phethahatsa": 2435,
  "\u2581Judah": 2436,
  "\u2581challenge": 2437,
  "\u2581leeme": 2438,
  "\u2581expect": 2439,
  "\u2581baprista": 2440,
  "\u2581lekhoba": 2441,
  "\u2581lira": 2442,
  "\u2581St": 2443,
  "\u2581invited": 2444,
  "\u2581seeking": 2445,
  "\u2581Children": 2446,
  "\u2581Where": 2447,
  "\u2581Samuele": 2448,
  "\u2581baeta": 2449,
  "\u2581likotsi": 2450,
  "\u2581loketse": 2451,
  "\u2581choose": 2452,
  "\u2581expression": 2453,
  "\u2581tsosa": 2454,
  "\u2581Encyclopedia": 2455,
  "\u2581lefe": 2456,
  "\u2581setsebi": 2457,
  "\u2581t\u0161ohla": 2458,
  "\u2581walking": 2459,
  "\u2581ikutloe": 2460,
  "\u2581mehato": 2461,
  "\u25819]": 2462,
  "\u2581Love": 2463,
  "\u2581Messiah": 2464,
  "\u2581bapala": 2465,
  "\u2581fokotsa": 2466,
  "\u2581reported": 2467,
  "\u2581security": 2468,
  "\u2581studying": 2469,
  "\u2581Mareka": 2470,
  "\u2581major": 2471,
  "\u2581showing": 2472,
  "\u2581voice": 2473,
  "\u2581Italy": 2474,
  "\u2581marena": 2475,
  "\u2581rapella": 2476,
  "\u2581March": 2477,
  "If": 2478,
  "\u258121,": 2479,
  "\u258145": 2480,
  "\u2581interests": 2481,
  "\u2581begin": 2482,
  "\u258128:": 2483,
  "\u2581fe": 2484,
  "\u2581tsoelang": 2485,
  "\u2581Times": 2486,
  "\u2581worked": 2487,
  "\u2581pholoha": 2488,
  "\u2581provides": 2489,
  "M": 2490,
  "\u2581sepheo": 2491,
  "\u2581arrived": 2492,
  "\u2581spend": 2493,
  "\u2581spent": 2494,
  "R": 2495,
  "\u2581outside": 2496,
  "man": 2497,
  "\u258128.": 2498,
  "\u2581completely": 2499,
  "\u2581feteletseng": 2500,
  "\u2581mental": 2501,
  "\u2581banyenyane": 2502,
  "\u2581enjoyed": 2503,
  "\u2581litlhoko": 2504,
  "\u2581N": 2505,
  "\u2581fulfilled": 2506,
  "\u2581t\u0161osang": 2507,
  "\u2581January": 2508,
  "\u2581Rome": 2509,
  "\u2581ready": 2510,
  "\u2581teba": 2511,
  "\u2581tobileng": 2512,
  "\u2581general": 2513,
  "\u2581business": 2514,
  "\u2581hlohonolofatsa": 2515,
  "\u2581simple": 2516,
  "\u2581month": 2517,
  "\u2581guidance": 2518,
  "\u2581lifate": 2519,
  "\u2581actions": 2520,
  "\u2581puisano": 2521,
  "\u2581original": 2522,
  "\u2581eventually": 2523,
  "\u2581related": 2524,
  "\u2581sebelisana": 2525,
  "\u2581Soon": 2526,
  "\u2581beliefs": 2527,
  "\u2581bula": 2528,
  "\u2581nkang": 2529,
  "\u2581robala": 2530,
  "\u2581Ruri": 2531,
  "\u2581alive": 2532,
  "\u2581filled": 2533,
  "\u2581leeto": 2534,
  "\u2581lipolelo": 2535,
  "\u2581acts": 2536,
  "\u2581eme": 2537,
  "\u2581warning": 2538,
  "\u2581built": 2539,
  "\u2581tl": 2540,
  "\u2581Germany": 2541,
  "\u2581developed": 2542,
  "\u2581devotion": 2543,
  "\u2581studies": 2544,
  "\u2581third": 2545,
  "\u2581masoabi": 2546,
  "\u2581liboka": 2547,
  "\u2581success": 2548,
  "\u2581tlosa": 2549,
  "\u2581killed": 2550,
  "\u25811914": 2551,
  "\u2581benefits": 2552,
  "\u2581t\u0161oant\u0161etso": 2553,
  "\u2581bululetsoeng": 2554,
  "\u2581fall": 2555,
  "\u2581Karolo": 2556,
  "\u2581final": 2557,
  "\u2581ground": 2558,
  "\u2581Boroa": 2559,
  "\u2581Keep": 2560,
  "\u2581homes": 2561,
  "\u2581idea": 2562,
  "\u2581kabelo": 2563,
  "\u2581Taba": 2564,
  "\u2581hopotsa": 2565,
  "\u2581prayed": 2566,
  "\u2581traveling": 2567,
  "\u258110]": 2568,
  "\u2581Letsatsi": 2569,
  "\u2581calls": 2570,
  "\u2581tl\u014dlo": 2571,
  "\u2581Bochabela": 2572,
  "\u2581loana": 2573,
  "\u2581presence": 2574,
  "\u2581thahasella": 2575,
  "\u2581Paradise": 2576,
  "\u2581June": 2577,
  "\u258131.": 2578,
  "\u2581endure": 2579,
  "\u2581khutla": 2580,
  "as": 2581,
  "\u2581strengthen": 2582,
  "\u2581quality": 2583,
  "\u2581sacred": 2584,
  "B": 2585,
  "\u2581tlung": 2586,
  "\u2581Remember": 2587,
  "\u2581lingaka": 2588,
  "\u2581pota": 2589,
  "\u2581KE": 2590,
  "\u2581behavior": 2591,
  "\u2581sick": 2592,
  "\u2581treatment": 2593,
  "\u2581Similarly": 2594,
  "pa": 2595,
  "\u2581London": 2596,
  "\u2581makatsang": 2597,
  "\u2581whatever": 2598,
  "\u2581passed": 2599,
  "f": 2600,
  "\u2581lichelete": 2601,
  "\u2581moruo": 2602,
  "\u258165": 2603,
  "\u2581groups": 2604,
  "\u2581mararo": 2605,
  "Na": 2606,
  "\u2581linnete": 2607,
  "\u2581litlaleho": 2608,
  "\u2581bear": 2609,
  "\u2581expressed": 2610,
  "\u2581tsee": 2611,
  "Haeba": 2612,
  "\u2581ela": 2613,
  "\u2581test": 2614,
  "\u258115]": 2615,
  "\u2581boit\u0161oarong": 2616,
  "\u2581boy": 2617,
  "\u2581revealed": 2618,
  "\u2581eletsa": 2619,
  "\u2581meant": 2620,
  "\u2581IN": 2621,
  "\u2581express": 2622,
  "\u2581lekana": 2623,
  "\u2581loant\u0161a": 2624,
  "\u2581tribulation": 2625,
  "\u2581tobana": 2626,
  "In": 2627,
  "\u2581progress": 2628,
  "si": 2629,
  "\u2581Also": 2630,
  "\u2581Oa": 2631,
  "\u2581Saul": 2632,
  "\u2581bont\u0161itse": 2633,
  "\u2581established": 2634,
  "\u2581favor": 2635,
  "\u2581Lilemong": 2636,
  "\u2581explain": 2637,
  "\u2581goal": 2638,
  "\u2581School": 2639,
  "\u2581abuse": 2640,
  "\u2581qalile": 2641,
  "\u2581monahano": 2642,
  "\u2581Machaba": 2643,
  "\u2581blessed": 2644,
  "\u2581missionaries": 2645,
  "\u2581July": 2646,
  "\u2581Molemo": 2647,
  "\u2581angel": 2648,
  "\u2581room": 2649,
  "\u2581sechabeng": 2650,
  "\u2581encourage": 2651,
  "\u2581lebeletse": 2652,
  "\u258126.": 2653,
  "\u2581Saule": 2654,
  "\u2581makala": 2655,
  "\u2581pe\u014d": 2656,
  "\u2581lumele": 2657,
  "\u2581drugs": 2658,
  "\u2581knowing": 2659,
  "it": 2660,
  "\u2581mongoli": 2661,
  "\u2581utloahala": 2662,
  "\u2581Greece": 2663,
  "\u2581increase": 2664,
  "\u2581tekanyo": 2665,
  "\u258128,": 2666,
  "\u2581masene": 2667,
  "\u2581yourselves": 2668,
  "\u2581Q": 2669,
  "\u2581pejana": 2670,
  "\u2581term": 2671,
  "\u2581babo": 2672,
  "\u2581contact": 2673,
  "\u2581masole": 2674,
  "pe": 2675,
  "\u2581Tumelo": 2676,
  "\u2581dedicated": 2677,
  "\u2581fapane": 2678,
  "\u2581deeply": 2679,
  "\u258130.": 2680,
  "\u2581choice": 2681,
  "\u2581enemies": 2682,
  "\u2581bararo": 2683,
  "\u2581History": 2684,
  "\u2581imperfect": 2685,
  "\u2581ithutang": 2686,
  "\u2581observed": 2687,
  "\u2581protection": 2688,
  "\u2581t\u0161oenyeha": 2689,
  "\u2581keeping": 2690,
  "\u258136": 2691,
  "\u2581lla": 2692,
  "\u2581seemed": 2693,
  "See": 2694,
  "\u2581nyatsa": 2695,
  "\u2581bokhopo": 2696,
  "\u2581humble": 2697,
  "\u2581lintoa": 2698,
  "\u2581metle": 2699,
  "Do": 2700,
  "\u2581bonahatsa": 2701,
  "\u2581fruit": 2702,
  "\u2581car": 2703,
  "\u2581finally": 2704,
  "\u2581firm": 2705,
  "\u2581produce": 2706,
  "\u2581Lefat\u0161eng": 2707,
  "\u2581kene": 2708,
  "\u2581Soviet": 2709,
  "\u2581utloisa": 2710,
  "\u2581Time": 2711,
  "\u2581sebelisoang": 2712,
  "\u2581teacher": 2713,
  "\u2581amana": 2714,
  "\u2581Japane": 2715,
  "\u2581Well": 2716,
  "\u2581City": 2717,
  "\u2581ahead": 2718,
  "\u2581Jacob": 2719,
  "\u2581makhoba": 2720,
  "\u2581halofo": 2721,
  "\u2581thabileng": 2722,
  "less": 2723,
  "\u2581Mohlala": 2724,
  "\u2581assigned": 2725,
  "\u2581molebeli": 2726,
  "\u2581required": 2727,
  "\u2581picture": 2728,
  "\u2581Hoo": 2729,
  "\u2581encouragement": 2730,
  "\u2581quite": 2731,
  "\u2581address": 2732,
  "\u2581likhopolo": 2733,
  "\u2581servant": 2734,
  "\u2581Version": 2735,
  "\u2581play": 2736,
  "\u2581litokelo": 2737,
  "\u2581menyetla": 2738,
  "\u2581paradeise": 2739,
  "\u2581tl\u014dla": 2740,
  "\u2581thehiloeng": 2741,
  "\u2581wives": 2742,
  "\u2581lesea": 2743,
  "\u2581rutang": 2744,
  "\u2581Sehlooho": 2745,
  "\u2581courage": 2746,
  "\u2581prepared": 2747,
  "\u2581although": 2748,
  "\u2581destroyed": 2749,
  "\u2581relief": 2750,
  "\u2581cities": 2751,
  "\u2581seholo": 2752,
  "\u2581selemong": 2753,
  "\u2581boroa": 2754,
  "\u2581kananelo": 2755,
  "\u2581cut": 2756,
  "\u2581sebetse": 2757,
  "\u2581town": 2758,
  "\u2581trials": 2759,
  "\u2581kopano": 2760,
  "\u2581lipapali": 2761,
  "\u2581authorities": 2762,
  "\u2581desires": 2763,
  "\u2581mercy": 2764,
  "p": 2765,
  "\u2581Lelapa": 2766,
  "ko": 2767,
  "\u2581basic": 2768,
  "\u2581hour": 2769,
  "\u2581tiisetsa": 2770,
  "\u2581articles": 2771,
  "\u2581patient": 2772,
  "\u2581hlokomoloha": 2773,
  "\u2581mohloli": 2774,
  "\u2581amohele": 2775,
  "\u2581November": 2776,
  "oa": 2777,
  "\u2581Despi": 2778,
  "\u2581included": 2779,
  "\u2581lenaneo": 2780,
  "\u2581tsuba": 2781,
  "\u2581goes": 2782,
  "\u2581household": 2783,
  "\u2581standing": 2784,
  "\u2581amang": 2785,
  "\u2581growing": 2786,
  "\u2581Should": 2787,
  "\u2581tlisetsa": 2788,
  "\u2581workers": 2789,
  "\u2581botlalo": 2790,
  "\u2581hamolemo": 2791,
  "\u2581khaitseli": 2792,
  "\u2581bina": 2793,
  "\u2581hanyenyane": 2794,
  "\u2581kopanong": 2795,
  "\u2581t\u0161oanelang": 2796,
  "\u2581dedication": 2797,
  "ation": 2798,
  "\u2581hongata": 2799,
  "\u2581publishers": 2800,
  "\u2581t\u0161ebeliso": 2801,
  "more": 2802,
  "\u2581air": 2803,
  "\u2581kings": 2804,
  "\u2581brings": 2805,
  "\u2581declared": 2806,
  "\u2581khang": 2807,
  "\u2581shoe": 2808,
  "\u2581sekepe": 2809,
  "\u2581fetohile": 2810,
  "\u2581metsing": 2811,
  "\u258125]": 2812,
  "\u2581existence": 2813,
  "\u2581hanyetsa": 2814,
  "\u2581siea": 2815,
  "\u2581command": 2816,
  "\u2581loss": 2817,
  "able": 2818,
  "\u2581Her": 2819,
  "\u2581khato": 2820,
  "\u2581stress": 2821,
  "\u2581Fora": 2822,
  "\u2581prevent": 2823,
  "\u2581isoa": 2824,
  "\u2581military": 2825,
  "\u2581treat": 2826,
  "\u2581hlokometse": 2827,
  "\u2581pholosa": 2828,
  "\u2581realized": 2829,
  "\u2581sesole": 2830,
  "\u2581suffered": 2831,
  "\u2581Mangolong": 2832,
  "\u2581SE": 2833,
  "\u2581malumeli": 2834,
  "\u2581oohle": 2835,
  "\u2581200": 2836,
  "\u2581Through": 2837,
  "\u2581likarabo": 2838,
  "\u2581matleng": 2839,
  "\u2581tlhaloso": 2840,
  "\u2581Gileade": 2841,
  "\u2581experiences": 2842,
  "\u258122:": 2843,
  "\u2581contrast": 2844,
  "\u2581forward": 2845,
  "\u2581active": 2846,
  "\u2581fight": 2847,
  "\u2581lahla": 2848,
  "\u2581shoele": 2849,
  "\u2581boithati": 2850,
  "\u2581Each": 2851,
  "\u2581cope": 2852,
  "\u2581susumetsoa": 2853,
  "\u2581Eng": 2854,
  "\u2581Gilead": 2855,
  "\u2581carefully": 2856,
  "\u2581mot\u0161ehare": 2857,
  "\u2581spread": 2858,
  "\u2581nearly": 2859,
  "\u2581flock": 2860,
  "\u2581particularly": 2861,
  "\u2581karabo": 2862,
  "\u2581religions": 2863,
  "\u2581sleep": 2864,
  "\u2581steps": 2865,
  "\u2581Boemo": 2866,
  "\u2581continues": 2867,
  "\u2581t\u0161ireletso": 2868,
  "\u2581Clearly": 2869,
  "\u2581practices": 2870,
  "\u2581ntoeng": 2871,
  "],": 2872,
  "\u2581Ezekiele": 2873,
  "\u2581boithabiso": 2874,
  "\u2581hlasela": 2875,
  "\u2581Ezekiel": 2876,
  "H": 2877,
  "on": 2878,
  "\u258114;": 2879,
  "\u2581Halalelang": 2880,
  "\u2581despite": 2881,
  "\u2581persecution": 2882,
  "\u2581Good": 2883,
  "\u2581Us": 2884,
  "\u2581Brithani": 2885,
  "Let": 2886,
  "\u258127.": 2887,
  "\u2581claim": 2888,
  "\u2581t\u0161abang": 2889,
  "\u2581Sea": 2890,
  "\u2581approach": 2891,
  "\u2581rarolla": 2892,
  "\u2581Was": 2893,
  "\u2581borena": 2894,
  "\u2581key": 2895,
  "\u2581vision": 2896,
  "\u2581genuine": 2897,
  "\u2581overseer": 2898,
  "\u2581thulana": 2899,
  "\u2581race": 2900,
  "\u2581importance": 2901,
  "\u2581principle": 2902,
  "\u2581universe": 2903,
  "\u2581resurrected": 2904,
  "\u258117]": 2905,
  "\u2581mala": 2906,
  "\u2581teachers": 2907,
  "\u2581fokola": 2908,
  "tlhohonolofatso": 2909,
  "\u2581neighbor": 2910,
  "For": 2911,
  "\u2581Nka": 2912,
  "\u2581instead": 2913,
  "\u2581mabitso": 2914,
  "g": 2915,
  "\u2581affection": 2916,
  "\u2581behalf": 2917,
  "\u2581danger": 2918,
  "\u2581baby": 2919,
  "\u2581Senyesemane": 2920,
  "\u2581publications": 2921,
  "\u2581Testament": 2922,
  "\u258190": 2923,
  "\u2581Only": 2924,
  "\u2581oela": 2925,
  "\u2581unity": 2926,
  "\u2581w": 2927,
  "\u2581Bolumeli": 2928,
  "\u2581Lipotso": 2929,
  "\u2581aware": 2930,
  "Ea": 2931,
  "\u2581Book": 2932,
  "\u2581ngotsoe": 2933,
  "\u2581risk": 2934,
  "\u2581tsamaee": 2935,
  "\u2581Ile": 2936,
  "\u2581gods": 2937,
  "\u2581malapeng": 2938,
  "\u2581mouth": 2939,
  "\u2581teronkong": 2940,
  "\u2581lefeela": 2941,
  "\u2581thousand": 2942,
  "\u2581faced": 2943,
  "\u2581immediately": 2944,
  "\u2581late": 2945,
  "\u2581tikoloho": 2946,
  "\u2581ikemisetsa": 2947,
  "\u2581temana": 2948,
  "\u2581African": 2949,
  "\u2581mahloriso": 2950,
  "\u2581sort": 2951,
  "\u2581believed": 2952,
  "\u2581bonngoe": 2953,
  "\u2581responsible": 2954,
  "\u2581ngotse": 2955,
  "\u2581recognize": 2956,
  "\u2581bapisoa": 2957,
  "\u2581t\u0161obotsi": 2958,
  "\u2581big": 2959,
  "\u2581p\u014dpo": 2960,
  "h": 2961,
  "\u2581Ecclesiastes": 2962,
  "\u2581pioneers": 2963,
  "\u2581Moeklesia": 2964,
  "\u2581T\u0161ebeletso": 2965,
  "\u2581bonyane": 2966,
  "\u2581utloe": 2967,
  "\u258133.": 2968,
  "\u2581Inc": 2969,
  "\u2581doctor": 2970,
  "\u2581lit\u0161oaneleho": 2971,
  "\u2581mohlankana": 2972,
  "\u2581economic": 2973,
  "\u2581step": 2974,
  "\u2581Etsoe": 2975,
  "\u2581Family": 2976,
  "\u2581Translation": 2977,
  "\u2581inehela": 2978,
  "\u2581limited": 2979,
  "\u2581involves": 2980,
  "el": 2981,
  "\u2581Philippians": 2982,
  "\u2581reflect": 2983,
  "\u2581Mabapi": 2984,
  "\u2581causes": 2985,
  "\u2581chosen": 2986,
  "\u2581writer": 2987,
  "\u258110;": 2988,
  "\u2581concerned": 2989,
  "\u2581khanyang": 2990,
  "\u2581sieo": 2991,
  "\u2581tlhohonolofatso": 2992,
  "\u2581America": 2993,
  "\u2581Over": 2994,
  "\u2581shoeleng": 2995,
  "\u2581watch": 2996,
  "\u2581500": 2997,
  "\u2581boleloang": 2998,
  "\u2581easily": 2999,
  "\u2581lengeloi": 3000,
  "\u2581viewed": 3001,
  "\u2581b\u014dpa": 3002,
  "\u2581consequences": 3003,
  "\u2581eating": 3004,
  "\u2581t\u0161imong": 3005,
  "org": 3006,
  "\u2581appear": 3007,
  "\u2581Japan": 3008,
  "\u2581nthusa": 3009,
  "\u2581agree": 3010,
  "\u258118]": 3011,
  "\u2581opened": 3012,
  "\u2581ratoang": 3013,
  "\u2581visited": 3014,
  "4": 3015,
  "\u2581France": 3016,
  "\u2581Kopaneng": 3017,
  "\u2581discuss": 3018,
  "\u2581population": 3019,
  "\u2581pure": 3020,
  "\u2581spoken": 3021,
  "\u2581conclusion": 3022,
  "\u2581lehloeo": 3023,
  "\u2581limela": 3024,
  "\u2581forget": 3025,
  "\u2581lefung": 3026,
  "He": 3027,
  "\u258135.": 3028,
  "z": 3029,
  "\u2581lisele": 3030,
  "\u2581ipolela": 3031,
  "\u2581khanna": 3032,
  "\u2581German": 3033,
  "\u2581PAGE": 3034,
  "\u2581robeli": 3035,
  "\u2581hlalosoa": 3036,
  "\u2581attended": 3037,
  "\u2581event": 3038,
  "\u2581it\u0161etleha": 3039,
  "\u2581save": 3040,
  "\u2581truths": 3041,
  "\u2581verse": 3042,
  "\u2581bakang": 3043,
  "\u2581due": 3044,
  "\u2581hatisitsoeng": 3045,
  "\u2581litakatso": 3046,
  "\u2581thekollo": 3047,
  "\u2581leading": 3048,
  "\u2581mat\u0161oao": 3049,
  "\u2581ahlola": 3050,
  "utloelo": 3051,
  "\u2581boloetse": 3052,
  "\u2581reasonable": 3053,
  "\u2581bolotsana": 3054,
  "\u2581lokolloa": 3055,
  "\u2581points": 3056,
  "\u2581road": 3057,
  "\u2581etella": 3058,
  "\u2581publication": 3059,
  "\u2581boholong": 3060,
  "\u2581limpho": 3061,
  "\u2581lumellane": 3062,
  "\u2581tloaelehang": 3063,
  "\u2581arrangement": 3064,
  "\u2581mabotho": 3065,
  "\u2581sight": 3066,
  "\u2581warned": 3067,
  "\u2581bont\u0161oa": 3068,
  "\u2581drug": 3069,
  "\u2581nt\u0161etsa": 3070,
  "\u2581sacrifices": 3071,
  "\u2581c": 3072,
  "\u2581lutse": 3073,
  "\u2581utloang": 3074,
  "\u2581LEQEPHE": 3075,
  "\u2581bokhoni": 3076,
  "\u2581eye": 3077,
  "\u2581qalang": 3078,
  "\u2581weeks": 3079,
  "\u2581becomes": 3080,
  "\u2581khaotse": 3081,
  "\u2581manner": 3082,
  "\u2581tlotla": 3083,
  "\u2581asking": 3084,
  "\u2581opposition": 3085,
  "\u2581Man": 3086,
  "\u2581elderly": 3087,
  "\u2581bademona": 3088,
  "\u2581likarolong": 3089,
  "and": 3090,
  "\u2581answered": 3091,
  "\u2581bolulo": 3092,
  "\u2581front": 3093,
  "\u2581animal": 3094,
  "\u2581baleha": 3095,
  "\u2581papali": 3096,
  "\u2581goals": 3097,
  "\u2581nahanisisa": 3098,
  "\u2581phetoho": 3099,
  "\u2581seed": 3100,
  "\u2581tsamaisa": 3101,
  "\u2581khafetsa": 3102,
  "ar": 3103,
  "\u2581Hitler": 3104,
  "\u2581Two": 3105,
  "\u2581probably": 3106,
  "\u2581boneng": 3107,
  "\u2581notes": 3108,
  "\u2581temoso": 3109,
  "\u2581adds": 3110,
  "\u2581divorce": 3111,
  "\u2581February": 3112,
  "\u2581drink": 3113,
  "\u2581felletseng": 3114,
  "\u2581tlokotsi": 3115,
  "\u2581translation": 3116,
  "\u2581crime": 3117,
  "\u258116;": 3118,
  "\u2581hora": 3119,
  "\u2581meholo": 3120,
  "\u2581NA": 3121,
  "\u2581carried": 3122,
  "\u2581refused": 3123,
  "\u2581bohobe": 3124,
  "\u2581illustration": 3125,
  "\u25811990": 3126,
  "\u2581metse": 3127,
  "\u2581negative": 3128,
  "\u2581police": 3129,
  "ur": 3130,
  "\u2581attending": 3131,
  "\u2581looked": 3132,
  "\u2581names": 3133,
  "\u2581phapang": 3134,
  "\u2581belief": 3135,
  "\u2581evening": 3136,
  "\u2581litlhapi": 3137,
  "olotsoeng": 3138,
  "\u2581boikemisetso": 3139,
  "\u2581failed": 3140,
  "\u2581tlile": 3141,
  "\u2581seeing": 3142,
  "\u2581urged": 3143,
  "do": 3144,
  "\u2581nkile": 3145,
  "\u2581reached": 3146,
  "\u2581Nations": 3147,
  "\u2581closer": 3148,
  "\u2581fallela": 3149,
  "\u258155": 3150,
  "\u2581ruri": 3151,
  "\u2581values": 3152,
  "\u25815]": 3153,
  "\u2581effective": 3154,
  "\u2581litokisetso": 3155,
  "\u2581personally": 3156,
  "\u2581global": 3157,
  "\u2581Mesia": 3158,
  "\u2581seb\u014dpeho": 3159,
  "\u2581affected": 3160,
  "\u2581lose": 3161,
  "tsa": 3162,
  "\u2581taeo": 3163,
  "\u2581tiile": 3164,
  "\u2581talking": 3165,
  "\u258180": 3166,
  "\u2581display": 3167,
  "\u258123,": 3168,
  "\u2581Mount": 3169,
  "\u2581wars": 3170,
  "\u2581requires": 3171,
  "\u2581sharing": 3172,
  "\u2581boh\u014dle": 3173,
  "\u2581worth": 3174,
  "\u2581relatives": 3175,
  "\u2581association": 3176,
  "\u2581image": 3177,
  "\u2581maholimo": 3178,
  "\u2581nepo": 3179,
  "\u2581tsoha": 3180,
  "\u2581Its": 3181,
  "\u2581imagine": 3182,
  "ch": 3183,
  "\u2581cultivate": 3184,
  "ia": 3185,
  "\u2581bahoeletsi": 3186,
  "\u2581lie": 3187,
  "\u2581bomong": 3188,
  "\u2581tongue": 3189,
  "\u2581balebeli": 3190,
  "\u2581observe": 3191,
  "\u2581meli": 3192,
  "\u2581metseng": 3193,
  "\u2581rejoice": 3194,
  "\u2581Blur": 3195,
  "\u2581amoheloa": 3196,
  "\u2581break": 3197,
  "\u2581fumanoang": 3198,
  "\u2581ufi": 3199,
  "ry": 3200,
  "\u2581National": 3201,
  "\u2581popular": 3202,
  "Bapisa": 3203,
  "\u258112;": 3204,
  "\u2581Ak": 3205,
  "\u2581Body": 3206,
  "\u2581Ena": 3207,
  "\u2581inside": 3208,
  "\u2581Mak": 3209,
  "\u2581extreme": 3210,
  "\u2581fail": 3211,
  "\u2581lipakane": 3212,
  "\u2581merely": 3213,
  "\u2581\"[": 3214,
  "\u2581includes": 3215,
  "\u2581kenella": 3216,
  "\u2581mokete": 3217,
  "\u2581particular": 3218,
  "\u2581Finally": 3219,
  "\u2581examine": 3220,
  "\u2581guard": 3221,
  "\u2581meharo": 3222,
  "\u2581tumelong": 3223,
  "Compare": 3224,
  "].": 3225,
  "\u2581khoneha": 3226,
  "\u2581khothatso": 3227,
  "\u2581writing": 3228,
  "\u2581Among": 3229,
  "\u2581Here": 3230,
  "\u2581bread": 3231,
  "\u2581hundreds": 3232,
  "\u25815;": 3233,
  "This": 3234,
  "\u2581Botsa": 3235,
  "\u2581Other": 3236,
  "\u2581specific": 3237,
  "\u2581eight": 3238,
  "\u2581violent": 3239,
  "\u258117;": 3240,
  "\u2581felisoa": 3241,
  "\u2581village": 3242,
  "\u2581Baefese": 3243,
  "\u2581convinced": 3244,
  "\u2581court": 3245,
  "\u2581energy": 3246,
  "\u2581hlokolosi": 3247,
  "\u2581lokile": 3248,
  "\u2581neha": 3249,
  "\u2581note": 3250,
  "\u2581morabe": 3251,
  "\u2581run": 3252,
  "\u2581ngoan": 3253,
  "\u2581response": 3254,
  "\u258138": 3255,
  "\u2581buuoang": 3256,
  "\u2581environment": 3257,
  "\u2581kenang": 3258,
  "\u2581ngoanana": 3259,
  "\u2581poloko": 3260,
  "\u2581libetsa": 3261,
  "\u2581prophecies": 3262,
  "\u2581accounts": 3263,
  "\u2581botebo": 3264,
  "\u2581t\u0161oant\u0161etsa": 3265,
  "ion": 3266,
  "\u2581fumaneha": 3267,
  "G": 3268,
  "\u2581Biblical": 3269,
  "\u2581Elijah": 3270,
  "\u2581Really": 3271,
  "\u2581search": 3272,
  "\u2581situations": 3273,
  "\u2581unique": 3274,
  "F": 3275,
  "\u2581International": 3276,
  "\u2581tlisoa": 3277,
  "\u2581amount": 3278,
  "\u2581hearing": 3279,
  "\u2581international": 3280,
  "\u2581victims": 3281,
  "\u2581lesson": 3282,
  "\u2581occur": 3283,
  "\u2581attack": 3284,
  "\u2581bochabela": 3285,
  "\u2581rorisa": 3286,
  "\u2581Parents": 3287,
  "\u2581amehile": 3288,
  "\u2581letona": 3289,
  "\u2581ma": 3290,
  "\u2581process": 3291,
  "\u2581iketsetsa": 3292,
  "\u2581overcome": 3293,
  "N": 3294,
  "\u2581Once": 3295,
  "\u2581concerning": 3296,
  "\u2581normal": 3297,
  "There": 3298,
  "\u2581gifts": 3299,
  "\u2581loyalty": 3300,
  "\u2581High": 3301,
  "\u2581dangerous": 3302,
  "\u2581song": 3303,
  "\u2581date": 3304,
  "\u2581reality": 3305,
  "7": 3306,
  "\u2581ntlha": 3307,
  "\u2581quoted": 3308,
  "\u2581relative": 3309,
  "\u2581eternal": 3310,
  "\u2581molomo": 3311,
  "\u2581obedient": 3312,
  "\u2581research": 3313,
  "\u2581thahasellisang": 3314,
  "ism": 3315,
  "\u2581rasaense": 3316,
  "When": 3317,
  "\u2581Robert": 3318,
  "\u2581mantsiboea": 3319,
  "\u2581produced": 3320,
  "\u2581sepetlele": 3321,
  "il": 3322,
  "\u2581drinking": 3323,
  "\u2581putt": 3324,
  "\u2581creatures": 3325,
  "\u2581shepherd": 3326,
  "\u25816]": 3327,
  "\u2581Efese": 3328,
  "\u2581moprista": 3329,
  "\u2581oil": 3330,
  "2": 3331,
  "\u2581enter": 3332,
  "\u2581loanela": 3333,
  "\u2581mecha": 3334,
  "\u2581remained": 3335,
  "\u2581focus": 3336,
  "\u2581metso": 3337,
  "\u2581type": 3338,
  "\u2581cost": 3339,
  "\u2581lelapeng": 3340,
  "\u2581purposes": 3341,
  "\u2581Exodus": 3342,
  "\u2581Union": 3343,
  "\u2581acceptable": 3344,
  "\u2581describes": 3345,
  "\u2581harm": 3346,
  "\u2581judge": 3347,
  "\u2581thusoa": 3348,
  "\u2581Holong": 3349,
  "\u2581obedience": 3350,
  "\u2581expected": 3351,
  "\u2581hapa": 3352,
  "ti": 3353,
  "\u2581litemana": 3354,
  "\u2581lit\u0161episo": 3355,
  "\u2581merabe": 3356,
  "\u2581Under": 3357,
  "\u2581issues": 3358,
  "\u2581qetello": 3359,
  "\u2581grew": 3360,
  "\u2581tsejoa": 3361,
  "\u2581State": 3362,
  "\u2581successful": 3363,
  "1": 3364,
  "\u2581limakasine": 3365,
  "\u2581Banna": 3366,
  "\u2581etsahetseng": 3367,
  "\u2581ketso": 3368,
  "\u2581mere": 3369,
  "\u2581newspaper": 3370,
  "\u2581preached": 3371,
  "\u2581secret": 3372,
  "\u2581teko": 3373,
  "\u2581Pono": 3374,
  "\u2581army": 3375,
  "ga": 3376,
  "\u2581bobusi": 3377,
  "\u2581fish": 3378,
  "\u2581god": 3379,
  "\u2581manifest": 3380,
  "\u2581bonnete": 3381,
  "\u2581hlalosang": 3382,
  "\u2581molimo": 3383,
  "\u2581saved": 3384,
  "\u2581bolaeang": 3385,
  "\u2581delight": 3386,
  "\u2581foreign": 3387,
  "\u2581Deuteronomy": 3388,
  "\u2581Lebitso": 3389,
  "\u2581improve": 3390,
  "\u2581England": 3391,
  "\u2581Deuteronoma": 3392,
  "\u2581community": 3393,
  "\u2581susumetsang": 3394,
  "\u2581Judea": 3395,
  "\u2581balekane": 3396,
  "\u2581effects": 3397,
  "\u2581felloa": 3398,
  "\u2581greatly": 3399,
  "\u2581growth": 3400,
  "\u2581join": 3401,
  "\u2581fanoa": 3402,
  "\u2581kill": 3403,
  "\u2581measure": 3404,
  "\u2581non": 3405,
  "\u2581placed": 3406,
  "\u2581poverty": 3407,
  "\u2581story": 3408,
  "\u2581fapa": 3409,
  "\u2581powers": 3410,
  "\u2581chesang": 3411,
  "\u2581tempeleng": 3412,
  "\u2581churches": 3413,
  "\u2581forms": 3414,
  "\u2581tlalehiloeng": 3415,
  "\u2581wine": 3416,
  "\u2581bolelele": 3417,
  "\u2581bringing": 3418,
  "\u2581direct": 3419,
  "\u2581mane": 3420,
  "\u2581hlaolela": 3421,
  "\u2581Pennsylvania": 3422,
  "\u2581fill": 3423,
  "\u2581gone": 3424,
  "\u25813;": 3425,
  "\u2581Being": 3426,
  "\u2581mat\u0161eliso": 3427,
  "\u2581bakoang": 3428,
  "\u2581alcohol": 3429,
  "\u2581appeared": 3430,
  "\u2581endurance": 3431,
  "\u2581extent": 3432,
  "\u2581island": 3433,
  "3": 3434,
  "\u2581humility": 3435,
  "\u2581Galatians": 3436,
  "\u2581bapisa": 3437,
  "\u2581bohareng": 3438,
  "\u2581discussion": 3439,
  "\u2581forgive": 3440,
  "\u2581limithara": 3441,
  "\u2581minds": 3442,
  "\u2581oli": 3443,
  "\u2581aterese": 3444,
  "\u2581secular": 3445,
  "\u2581Faith": 3446,
  "\u2581main": 3447,
  "\u2581timetsoa": 3448,
  "\u2581tsoaloa": 3449,
  "\u2581etsahetse": 3450,
  "\u2581Questions": 3451,
  "\u2581valuable": 3452,
  "\u2581Latin": 3453,
  "\u2581Puso": 3454,
  "\u2581halefa": 3455,
  "\u2581listening": 3456,
  "\u2581setsoalle": 3457,
  "\u2581commanded": 3458,
  "\u2581prophets": 3459,
  "\u2581t\u0161ireletseho": 3460,
  "\u2581Hang": 3461,
  "\u2581exist": 3462,
  "\u2581nyahama": 3463,
  "\u2581presented": 3464,
  "\u2581recently": 3465,
  "ul": 3466,
  "\u2581copy": 3467,
  "\u2581demons": 3468,
  "\u2581factors": 3469,
  "\u2581leihlo": 3470,
  "\u2581likelello": 3471,
  "\u2581potoloho": 3472,
  "\u2581t\u0161oha": 3473,
  "sa": 3474,
  "\u2581sincere": 3475,
  "\u00e9": 3476,
  "\u2581(1)": 3477,
  "\u2581increased": 3478,
  "\u2581prospect": 3479,
  "\u258132.": 3480,
  "\u2581careful": 3481,
  "\u2581pass": 3482,
  "\u2581veine": 3483,
  "\u2581Colossians": 3484,
  "\u2581Without": 3485,
  "\u2581TSE": 3486,
  "\u2581libeke": 3487,
  "\u2581Baholo": 3488,
  "de": 3489,
  "\u258124]": 3490,
  "\u2581lipelong": 3491,
  "\u2581surely": 3492,
  "\u2581tloaelehile": 3493,
  "\u258113]": 3494,
  "\u2581heavy": 3495,
  "\u2581illness": 3496,
  "\u2581mahlabelo": 3497,
  "\u2581thuisa": 3498,
  "\u2581white": 3499,
  "\u2581Khotso": 3500,
  "\u2581communication": 3501,
  "\u2581heno": 3502,
  "\u2581magazines": 3503,
  "\u2581shebella": 3504,
  "\u2581Exoda": 3505,
  "\u2581Mother": 3506,
  "\u2581bokella": 3507,
  "\u2581joala": 3508,
  "\u2581sala": 3509,
  "\u2581train": 3510,
  "\u2581fell": 3511,
  "\u2581khalefo": 3512,
  "\u2581legal": 3513,
  "\u2581phahamisa": 3514,
  "\u2581student": 3515,
  "\u2581tepella": 3516,
  "\u2581bolelloa": 3517,
  "\u2581busy": 3518,
  "\u2581comments": 3519,
  "\u2581mountain": 3520,
  "\u2581appears": 3521,
  "\u2581gold": 3522,
  "\u2581grateful": 3523,
  "\u2581referred": 3524,
  "\u2581statement": 3525,
  "\u2581tummeng": 3526,
  "\u2581mopesaleme": 3527,
  "naheng": 3528,
  "\u2581forces": 3529,
  "\u2581friendship": 3530,
  "\u2581ntlong": 3531,
  "\u2581reveal": 3532,
  "\u2581t\u0161oarelo": 3533,
  "\u2581hakaale": 3534,
  "\u2581Sometimes": 3535,
  "\u2581reward": 3536,
  "\u2581depression": 3537,
  "\u2581trees": 3538,
  "\u2581wait": 3539,
  "ive": 3540,
  "\u2581governments": 3541,
  "\u2581indicate": 3542,
  "\u2581mesebetsing": 3543,
  "\u2581warm": 3544,
  "Sheba": 3545,
  "\u2581Busang": 3546,
  "\u2581generation": 3547,
  "\u2581ikutloang": 3548,
  "\u2581territory": 3549,
  "\u2581t\u0161oane": 3550,
  "\u2581worshipers": 3551,
  "eso": 3552,
  "\u2581helpful": 3553,
  "\u2581hundred": 3554,
  "\u2581immoral": 3555,
  "ity": 3556,
  "\u2581(2)": 3557,
  "\u258142": 3558,
  "\u2581Bophirimela": 3559,
  "\u2581Health": 3560,
  "\u2581forgiveness": 3561,
  "\u2581lit\u0161enyehelo": 3562,
  "\u2581ngoloa": 3563,
  "\u2581survive": 3564,
  "\u2581tsoelo": 3565,
  "\u2581nahanela": 3566,
  "\u2581immorality": 3567,
  "\u2581khethiloeng": 3568,
  "\u2581sehlopheng": 3569,
  "\u2581hurt": 3570,
  "\u2581matlotlo": 3571,
  "\u2581total": 3572,
  "\u2581bolelle": 3573,
  "\u2581evident": 3574,
  "\u2581prepare": 3575,
  "\u2581secha": 3576,
  "\u2581battle": 3577,
  "\u2581correct": 3578,
  "\u2581lies": 3579,
  "\u2581otla": 3580,
  "\u2581younger": 3581,
  "mi": 3582,
  "\u2581Earth": 3583,
  "\u2581Help": 3584,
  "\u2581Mongoli": 3585,
  "\u2581challenges": 3586,
  "\u2581developing": 3587,
  "\u2581maruo": 3588,
  "lla": 3589,
  "\u258148": 3590,
  "\u2581Governing": 3591,
  "\u2581disciple": 3592,
  "\u2581Michael": 3593,
  "\u2581makatse": 3594,
  "\u2581caring": 3595,
  "\u2581lekhotla": 3596,
  "\u2581wide": 3597,
  "ton": 3598,
  "\u2581William": 3599,
  "\u2581instruction": 3600,
  "\u2581moelelo": 3601,
  "\u2581mohlape": 3602,
  "\u2581welcome": 3603,
  "L": 3604,
  "\u2581financial": 3605,
  "\u2581mefokolo": 3606,
  "\u258125,": 3607,
  "\u2581consideration": 3608,
  "\u2581sovereignty": 3609,
  "\u2581Boholo": 3610,
  "\u2581Liithuti": 3611,
  "\u2581chankaneng": 3612,
  "20": 3613,
  "\u2581writes": 3614,
  "\u2581Take": 3615,
  "\u2581il": 3616,
  "\u2581uses": 3617,
  "\u2581Day": 3618,
  "\u2581Elisha": 3619,
  "\u2581kahobane": 3620,
  "\u2581sitisa": 3621,
  "\u2581tsebahalang": 3622,
  "\u2581kankere": 3623,
  "ce": 3624,
  "\u2581encouraging": 3625,
  "\u2581phethahale": 3626,
  "\u2581t\u0161ehetso": 3627,
  "\u2581botumo": 3628,
  "\u2581conversation": 3629,
  "\u2581thatafalloa": 3630,
  "\u2581tobane": 3631,
  "\u2581t\u0161enyo": 3632,
  "ment": 3633,
  "\u2581anxiety": 3634,
  "\u2581behang": 3635,
  "\u2581khut\u0161oanyane": 3636,
  "\u2581kulang": 3637,
  "\u2581remains": 3638,
  "\u2581aid": 3639,
  "\u25818]": 3640,
  "\u2581Kapele": 3641,
  "\u2581discussed": 3642,
  "\u2581historing": 3643,
  "\u2581offering": 3644,
  "\u2581thabele": 3645,
  "\u2581Elia": 3646,
  "\u2581Russell": 3647,
  "\u2581advantage": 3648,
  "\u2581translated": 3649,
  "\u2581Peace": 3650,
  "\u2581company": 3651,
  "\u2581compassion": 3652,
  "\u2581hospital": 3653,
  "\u2581low": 3654,
  "\u2581overseers": 3655,
  "\u2581HA": 3656,
  "\u2581cover": 3657,
  "\u2581discovered": 3658,
  "\u2581pleasure": 3659,
  "\u2581rutoa": 3660,
  "\u2581organized": 3661,
  "\u2581pursue": 3662,
  "\u2581associated": 3663,
  "\u2581bakae": 3664,
  "\u2581hlaseloa": 3665,
  "\u2581letters": 3666,
  "\u2581seriously": 3667,
  "\u2581apara": 3668,
  "\u2581likereke": 3669,
  "\u2581listed": 3670,
  "\u2581series": 3671,
  "\u258139": 3672,
  "\u2581appearance": 3673,
  "\u2581maqephe": 3674,
  "\u2581witnessing": 3675,
  "\u2581tsebahala": 3676,
  "\u2581rera": 3677,
  "lu": 3678,
  "\u258143": 3679,
  "\u2581buella": 3680,
  "\u2581t\u0161ekamelo": 3681,
  "\u2581Memorial": 3682,
  "\u2581across": 3683,
  "\u2581decades": 3684,
  "\u2581nuclear": 3685,
  "\u2581phetolelo": 3686,
  "NW": 3687,
  "\u2581Ruth": 3688,
  "\u2581buy": 3689,
  "\u2581taolo": 3690,
  "9": 3691,
  "\u2581botsoa": 3692,
  "\u2581camp": 3693,
  "\u2581destroy": 3694,
  "\u2581likewise": 3695,
  "\u2581teaches": 3696,
  "like": 3697,
  "\u2581borapeling": 3698,
  "\u2581higher": 3699,
  "\u2581khotsofatsa": 3700,
  "\u2581senyang": 3701,
  "responsibilities": 3702,
  "vi": 3703,
  "\u2581mokuli": 3704,
  "\u2581nyala": 3705,
  "\u2581garden": 3706,
  "\u2581views": 3707,
  "\u2581it\u0161ireletsa": 3708,
  "\u2581kopanyelletsa": 3709,
  "po": 3710,
  "\u2581clergy": 3711,
  "\u2581essential": 3712,
  "\u2581girls": 3713,
  "\u2581ruler": 3714,
  "\u2581Maikutlo": 3715,
  "\u2581emotions": 3716,
  "\u2581tela": 3717,
  "\u2581thoriso": 3718,
  "\u2581understood": 3719,
  "\u2581applied": 3720,
  "\u2581opening": 3721,
  "\u2581phethahalang": 3722,
  "\u25811919": 3723,
  "\u2581brain": 3724,
  "\u2581lebelo": 3725,
  "\u2581occurred": 3726,
  "\u2581request": 3727,
  "hale": 3728,
  "pi": 3729,
  "\u2581bangoli": 3730,
  "\u2581batlotsuoa": 3731,
  "\u2581darkness": 3732,
  "\u2581lekanang": 3733,
  "\u2581setsi": 3734,
  "\u2581Bapisa": 3735,
  "\u2581letsohong": 3736,
  "\u2581tlotlisa": 3737,
  "\u2581escape": 3738,
  "\u2581t\u0161abehang": 3739,
  "\u2581waters": 3740,
  "\u2581boloke": 3741,
  "\u2581evidently": 3742,
  "di": 3743,
  "\u2581Isaac": 3744,
  "\u2581qobe": 3745,
  "\u2581react": 3746,
  "\u2581trained": 3747,
  "ci": 3748,
  "leng": 3749,
  "\u2581George": 3750,
  "\u2581amohelehang": 3751,
  "\u2581approval": 3752,
  "\u2581machaba": 3753,
  "\u2581sekete": 3754,
  "\u2581tsebong": 3755,
  "\u2581blind": 3756,
  "\u2581national": 3757,
  "\u2581scientists": 3758,
  "\u2581video": 3759,
  "\u2581Bohlokoa": 3760,
  "\u2581bolutu": 3761,
  "\u2581inehetseng": 3762,
  "\u2581iphumana": 3763,
  "\u2581vast": 3764,
  "\u2581Morero": 3765,
  "\u2581designed": 3766,
  "\u2581impressed": 3767,
  "\u2581likepe": 3768,
  "\u2581sebeletse": 3769,
  "\u2581European": 3770,
  "\u2581distress": 3771,
  "\u2581kenngoa": 3772,
  "\u2581t\u0161ebetso": 3773,
  "ial": 3774,
  "\u2581Litsebi": 3775,
  "\u2581dealing": 3776,
  "\u2581hatisoa": 3777,
  "\u2581Make": 3778,
  "\u2581Pharisees": 3779,
  "\u2581center": 3780,
  "\u2581indicates": 3781,
  "\u2581Compare": 3782,
  "\u2581Sheba": 3783,
  "\u2581atlehe": 3784,
  "\u2581create": 3785,
  "\u2581papiso": 3786,
  "\u2581De": 3787,
  "\u2581rain": 3788,
  "\u2581wealth": 3789,
  "\u2581wish": 3790,
  "\u2581Selemo": 3791,
  "\u2581Boprofeta": 3792,
  "\u2581mamelang": 3793,
  "\u2581University": 3794,
  "\u2581bokahohle": 3795,
  "\u2581guide": 3796,
  "\u2581lebotho": 3797,
  "\u2581offspring": 3798,
  "\u2581tears": 3799,
  "ww": 3800,
  "\u2581Lekhotla": 3801,
  "\u2581khetholla": 3802,
  "\u2581sireletsehile": 3803,
  "\u2581tsebeng": 3804,
  "\u2581t\u0161elisa": 3805,
  "\u2581Land": 3806,
  "\u2581futsanehileng": 3807,
  "\u2581je": 3808,
  "\u2581pholletsa": 3809,
  "\u2581rapele": 3810,
  "\u2581theha": 3811,
  "\u2581circuit": 3812,
  "\u2581East": 3813,
  "\u2581TO": 3814,
  "\u2581TSA": 3815,
  "\u2581facts": 3816,
  "\u2581lib\u014dpuoa": 3817,
  "\u2581strive": 3818,
  "all": 3819,
  "\u258141": 3820,
  "\u2581adults": 3821,
  "\u2581jara": 3822,
  "\u2581studied": 3823,
  "\u2581Lokela": 3824,
  "\u2581Marena": 3825,
  "\u2581ideas": 3826,
  "\u2581lokolla": 3827,
  "\u2581wild": 3828,
  "\u2581bale": 3829,
  "Li": 3830,
  "\u2581Bafarisi": 3831,
  "\u2581healthy": 3832,
  "My": 3833,
  "\u2581Gospel": 3834,
  "\u2581committed": 3835,
  "\u2581formed": 3836,
  "\u2581speaks": 3837,
  "\u258126,": 3838,
  "\u2581accomplish": 3839,
  "\u2581contrary": 3840,
  "\u2581nyalana": 3841,
  "\u2581send": 3842,
  "\u2581zeal": 3843,
  "at": 3844,
  "\u2581T\u0161epo": 3845,
  "\u2581contains": 3846,
  "\u2581mehlolo": 3847,
  "\u2581neighbors": 3848,
  "\u2581slaves": 3849,
  "w": 3850,
  "\u2581300": 3851,
  "\u2581Musi": 3852,
  "\u2581describe": 3853,
  "\u2581phomolo": 3854,
  "\u2581fulfill": 3855,
  "\u2581khauta": 3856,
  "\u2581leruo": 3857,
  "\u2581refers": 3858,
  "\u2581telling": 3859,
  "\u2581mapolesa": 3860,
  "\u2581rekisa": 3861,
  "\u2581senyeha": 3862,
  "\u2581bongaka": 3863,
  "\u2581inhabitants": 3864,
  "\u2581linakong": 3865,
  "\u2581matsatsing": 3866,
  "\u2581setting": 3867,
  "\u2581treated": 3868,
  "\u2581lithaba": 3869,
  "\u2581mpha": 3870,
  "\u2581qalisa": 3871,
  "\u2581bonahale": 3872,
  "\u2581confident": 3873,
  "\u2581easier": 3874,
  "\u2581Religion": 3875,
  "\u2581concluded": 3876,
  "\u2581maholimong": 3877,
  "\u258116]": 3878,
  "\u2581Anna": 3879,
  "\u2581discreet": 3880,
  "What": 3881,
  "\u2581seboka": 3882,
  "\u2581tsosoa": 3883,
  "\u2581V": 3884,
  "\u2581metsotso": 3885,
  "\u2581science": 3886,
  "\u2581Boraro": 3887,
  "\u2581Ntat": 3888,
  "\u2581box": 3889,
  "\u2581linonyana": 3890,
  "\u2581mature": 3891,
  "\u2581worse": 3892,
  "\u2581Christmas": 3893,
  "\u2581Engelane": 3894,
  "\u2581hatred": 3895,
  "\u2581khomarela": 3896,
  "\u2581tsotella": 3897,
  "\u2581difference": 3898,
  "\u2581hloekile": 3899,
  "\u2581leke": 3900,
  "\u2581p": 3901,
  "co": 3902,
  "\u2581bakuli": 3903,
  "\u2581theko": 3904,
  "\u2581tlhokahalo": 3905,
  "ian": 3906,
  "\u2581French": 3907,
  "\u2581kotlo": 3908,
  "\u2581recognized": 3909,
  "\u2581tloaetse": 3910,
  "\u2581enemy": 3911,
  "\u2581fetolela": 3912,
  "\u2581husbands": 3913,
  "\u2581impossible": 3914,
  "\u2581insight": 3915,
  "\u2581phekola": 3916,
  "\u2581News": 3917,
  "\u2581drawn": 3918,
  "\u2581praying": 3919,
  "\u2581seithuti": 3920,
  "\u2581waiting": 3921,
  "\u2581pale": 3922,
  "\u2581patience": 3923,
  "\u2581promote": 3924,
  "\u2581qotsa": 3925,
  "\u2581rejected": 3926,
  "\u2581conclude": 3927,
  "\u2581makae": 3928,
  "\u2581rute": 3929,
  "\u2581troubled": 3930,
  "so": 3931,
  "\u2581Sunday": 3932,
  "\u2581beneficial": 3933,
  "\u2581joined": 3934,
  "\u2581lipalo": 3935,
  "\u2581superior": 3936,
  "\u2581thabe": 3937,
  "K": 3938,
  "\u2581Both": 3939,
  "\u2581khahloa": 3940,
  "\u2581tjee": 3941,
  "\u2581tsoalo": 3942,
  "\u2581Ebe": 3943,
  "\u2581Phahameng": 3944,
  "\u2581babusi": 3945,
  "\u2581cry": 3946,
  "\u2581kolobetso": 3947,
  "\u2581responded": 3948,
  "\u2581basebeletsi": 3949,
  "\u2581Keresemese": 3950,
  "\u2581entered": 3951,
  "\u2581fruitage": 3952,
  "\u2581notice": 3953,
  "\u2581severe": 3954,
  "\u2581fihle": 3955,
  "\u2581molumo": 3956,
  "\u2581bakoa": 3957,
  "\u2581baprofeta": 3958,
  "\u2581bonoa": 3959,
  "um": 3960,
  "\u2581leaving": 3961,
  "\u2581pakane": 3962,
  "\u2581invitation": 3963,
  "\u2581lasting": 3964,
  "\u2581rise": 3965,
  "we": 3966,
  "\u2581count": 3967,
  "\u2581tsotehang": 3968,
  "\u2581entertainment": 3969,
  "\u2581ruin": 3970,
  "\u2581trouble": 3971,
  "\u2581Eo": 3972,
  "\u2581X": 3973,
  "\u2581closely": 3974,
  "\u2581kerekeng": 3975,
  "\u2581kholiseho": 3976,
  "\u2581list": 3977,
  "\u2581lithahasello": 3978,
  "\u2581satisfaction": 3979,
  "\u258121]": 3980,
  "\u2581BIBELE": 3981,
  "\u2581banana": 3982,
  "\u2581gathered": 3983,
  "\u2581koana": 3984,
  "\u2581style": 3985,
  "\u2581aside": 3986,
  "\u2581hakana": 3987,
  "\u2581moving": 3988,
  "un": 3989,
  "\u2581British": 3990,
  "\u2581doctors": 3991,
  "\u2581Qalong": 3992,
  "\u2581jang": 3993,
  "\u2581molemohali": 3994,
  "\u2581trial": 3995,
  "\u2581demonstrate": 3996,
  "\u2581diseases": 3997,
  "\u2581joyful": 3998,
  "\u2581letlalo": 3999,
  "\u2581Makasine": 4000,
  "\u2581bodies": 4001,
  "\u2581majority": 4002,
  "\u2581subjects": 4003,
  "\u2581t\u0161ela": 4004,
  "Y": 4005,
  "\u2581goodness": 4006,
  "\u2581h\u014dlile": 4007,
  "\u2581maloetse": 4008,
  "\u2581safe": 4009,
  "8": 4010,
  "ca": 4011,
  "\u2581Britain": 4012,
  "\u2581Hantle": 4013,
  "\u2581decide": 4014,
  "pula": 4015,
  "tla": 4016,
  "\u2581Feela": 4017,
  "\u2581honest": 4018,
  "\u2581lefifi": 4019,
  "\u2581boleng": 4020,
  "\u2581mountains": 4021,
  "\u2581thank": 4022,
  "\u2581totobetseng": 4023,
  "\u2581chose": 4024,
  "\u2581ministers": 4025,
  "\u2581000.": 4026,
  "\u2581species": 4027,
  "\u2581unable": 4028,
  "ge": 4029,
  "\u2581afraid": 4030,
  "\u2581ikarabella": 4031,
  "\u2581sit": 4032,
  "\u2581Bohle": 4033,
  "\u2581kopane": 4034,
  "\u2581outstanding": 4035,
  "\u2581surprise": 4036,
  "\u2581tsoetsoeng": 4037,
  "\u2581doctrine": 4038,
  "\u2581shared": 4039,
  "\u2581fetile": 4040,
  "\u2581leoatleng": 4041,
  "\u2581Sekolo": 4042,
  "\u2581assured": 4043,
  "\u2581beauty": 4044,
  "\u2581majoe": 4045,
  "\u2581musi": 4046,
  "\u2581baetsalibe": 4047,
  "\u2581monyako": 4048,
  "\u2581setle": 4049,
  "\u2581thusitse": 4050,
  "tsoe": 4051,
  "\u2581likoloi": 4052,
  "\u2581meal": 4053,
  "\u2581nolofalletsa": 4054,
  "\u2581receiving": 4055,
  "\u2581fast": 4056,
  "\u2581behoa": 4057,
  "\u2581development": 4058,
  "\u2581habits": 4059,
  "\u2581pattern": 4060,
  "ru": 4061,
  "\u2581Nakoana": 4062,
  "\u2581behiloeng": 4063,
  "\u2581bophirimela": 4064,
  "\u2581mekhatlo": 4065,
  "\u2581Ra": 4066,
  "\u2581recalls": 4067,
  "\u2581bamameli": 4068,
  "\u2581directly": 4069,
  "\u2581riches": 4070,
  "\u2581stopped": 4071,
  "\u2581timetsa": 4072,
  "\u2581Has": 4073,
  "\u2581Kings": 4074,
  "\u2581ill": 4075,
  "\u2581khanyetso": 4076,
  "\u2581koranta": 4077,
  "\u2581loves": 4078,
  "\u2581released": 4079,
  "\u2581travel": 4080,
  "\u2581buileng": 4081,
  "\u2581t\u0161epahale": 4082,
  "\u258112]": 4083,
  "\u2581harvest": 4084,
  "\u2581menahano": 4085,
  "\u2581television": 4086,
  "\u2581yes": 4087,
  "\u2581Dictionary": 4088,
  "\u2581Thabo": 4089,
  "\u2581connection": 4090,
  "\u2581fele": 4091,
  "\u2581tsoe": 4092,
  "\u2581Work": 4093,
  "\u2581hlalosetsa": 4094,
  "\u2581soldiers": 4095,
  "rs": 4096,
  "\u2581Orthodox": 4097,
  "\u2581constantly": 4098,
  "\u2581expressions": 4099,
  "\u2581master": 4100,
  "\u2581t\u0161oanelehang": 4101,
  "\u25812000": 4102,
  "\u258131]": 4103,
  "\u2581Basali": 4104,
  "\u2581khetho": 4105,
  "\u2581separate": 4106,
  "\u25811995": 4107,
  "\u2581Could": 4108,
  "\u2581feels": 4109,
  "\u2581let\u0161oao": 4110,
  "\u2581lipakeng": 4111,
  "\u2581lithaka": 4112,
  "\u2581pointed": 4113,
  "\u2581providing": 4114,
  "\u2581thathamisitsoe": 4115,
  "\u25811993": 4116,
  "\u2581forced": 4117,
  "\u2581lerata": 4118,
  "\u2581united": 4119,
  "\u25811991": 4120,
  "\u2581Kamehla": 4121,
  "\u2581sword": 4122,
  "\u258146": 4123,
  "\u2581Hav": 4124,
  "\u2581Lefu": 4125,
  "\u2581haelloa": 4126,
  "\u2581khotsofatsang": 4127,
  "\u2581ruileng": 4128,
  "\u2581serapa": 4129,
  "\u2581Britannica": 4130,
  "\u2581Go": 4131,
  "\u2581chief": 4132,
  "\u2581commandments": 4133,
  "\u2581elelloa": 4134,
  "\u2581tsebisa": 4135,
  "\u2581t\u0161oeroe": 4136,
  "\u2581Spanish": 4137,
  "\u2581aspects": 4138,
  "\u2581average": 4139,
  "\u2581rules": 4140,
  "ana": 4141,
  "\u2581119": 4142,
  "\u2581Imagine": 4143,
  "\u2581fetisa": 4144,
  "\u2581meeli": 4145,
  "\u2581resist": 4146,
  "\u2581akarelletsang": 4147,
  "\u2581fearing": 4148,
  "\u2581lay": 4149,
  "\u2581obtain": 4150,
  "go": 4151,
  "\u2581Every": 4152,
  "\u2581Poland": 4153,
  "\u2581bless": 4154,
  "\u2581kameho": 4155,
  "\u2581lipatlisiso": 4156,
  "\u2581liphihlelo": 4157,
  "\u2581sera": 4158,
  "\u258133:": 4159,
  "\u258134.": 4160,
  "\u2581Naha": 4161,
  "\u2581Phello": 4162,
  "\u2581YOU": 4163,
  "\u2581boko": 4164,
  "\u2581capital": 4165,
  "\u2581heed": 4166,
  "\u2581render": 4167,
  "\u2581meokho": 4168,
  "\u2581tikolohong": 4169,
  "\u2581cold": 4170,
  "\u2581directed": 4171,
  "\u2581mehaho": 4172,
  "\u2581sinful": 4173,
  "\u2581weight": 4174,
  "ty": 4175,
  "\u2581leads": 4176,
  "\u2581Charles": 4177,
  "\u2581Mona": 4178,
  "\u2581details": 4179,
  "\u2581theosa": 4180,
  "\u2581Note": 4181,
  "\u2581UN": 4182,
  "\u2581conflict": 4183,
  "\u2581highly": 4184,
  "\u2581mohaho": 4185,
  "\u2581pagan": 4186,
  "\u2581top": 4187,
  "\u2581delivered": 4188,
  "\u2581per": 4189,
  "\u2581pre": 4190,
  "\u2581Internet": 4191,
  "\u2581daughters": 4192,
  "\u2581perform": 4193,
  "\u2581cell": 4194,
  "\u2581mehopolo": 4195,
  "\u2581boys": 4196,
  "\u2581reveals": 4197,
  "\u2581thehoa": 4198,
  "5": 4199,
  "\u258129]": 4200,
  "\u2581cancer": 4201,
  "\u2581hlomphehang": 4202,
  "\u2581paid": 4203,
  "hemik": 4204,
  "\u2581Sarah": 4205,
  "\u2581rights": 4206,
  "\u2581hate": 4207,
  "\u2581ipaka": 4208,
  "\u2581balanced": 4209,
  "\u2581carrying": 4210,
  "\u2581causing": 4211,
  "\u2581official": 4212,
  "\u2581rock": 4213,
  "\u2581tataisa": 4214,
  "\u2581fetohe": 4215,
  "\u2581prophetic": 4216,
  "\u2581Think": 4217,
  "\u2581labalabela": 4218,
  "\u2581Melao": 4219,
  "\u2581OF": 4220,
  "\u2581potential": 4221,
  "\u2581potlakela": 4222,
  "All": 4223,
  "\u2581Batla": 4224,
  "\u2581Look": 4225,
  "\u2581Sechaba": 4226,
  "\u2581bearing": 4227,
  "\u2581thutong": 4228,
  "\u2581(3)": 4229,
  "\u2581BIBLE": 4230,
  "\u2581Surely": 4231,
  "\u2581tlhahiso": 4232,
  "\u2581Ministry": 4233,
  "\u2581West": 4234,
  "\u2581culture": 4235,
  "\u2581koetlisa": 4236,
  "\u2581kopanele": 4237,
  "\u258129,": 4238,
  "\u258130,": 4239,
  "\u2581opportunities": 4240,
  "\u2581Answer": 4241,
  "\u2581hatella": 4242,
  "\u2581phephetso": 4243,
  "\u2581raise": 4244,
  "\u2581iphetola": 4245,
  "\u2581timetso": 4246,
  "\u2581attendance": 4247,
  "\u2581replied": 4248,
  "\u2581lekhetho": 4249,
  "\u2581level": 4250,
  "\u2581mohopolo": 4251,
  "\u2581neteng": 4252,
  "\u2581temoho": 4253,
  "\u2581calling": 4254,
  "\u2581khalemela": 4255,
  "\u2581lipaki": 4256,
  "\u2581skin": 4257,
  "\u2581zealous": 4258,
  "\u2581Ireland": 4259,
  "\u2581Lekholong": 4260,
  "\u2581identify": 4261,
  "\u2581ratehang": 4262,
  "\u2581abundance": 4263,
  "\u2581apparently": 4264,
  "\u2581armies": 4265,
  "\u2581terms": 4266,
  "\u2581grown": 4267,
  "\u2581litumelo": 4268,
  "\u2581tebello": 4269,
  "\u2581tichere": 4270,
  "\u2581Regard": 4271,
  "\u2581Spirit": 4272,
  "\u2581bonahaleng": 4273,
  "\u2581hlahlobeng": 4274,
  "\u2581seriti": 4275,
  "\u2581struggle": 4276,
  "\u25811992": 4277,
  "\u2581Leoatle": 4278,
  "\u2581billion": 4279,
  "\u2581handle": 4280,
  "\u2581pride": 4281,
  "\u2581Heberu": 4282,
  "\u2581amehang": 4283,
  "\u2581indicated": 4284,
  "\u2581lipina": 4285,
  "\u2581qale": 4286,
  "\u2581tokollo": 4287,
  "\u2581granted": 4288,
  "\u2581moment": 4289,
  "\u2581phoofolo": 4290,
  "\u2581sesosa": 4291,
  "\u2581totobatsa": 4292,
  "one": 4293,
  "\u2581Encyclop\u00e6dia": 4294,
  "\u2581likhathatso": 4295,
  "\u2581tumello": 4296,
  "ni": 4297,
  "\u2581Bang": 4298,
  "\u2581Matsatsi": 4299,
  "\u2581bohlokoahali": 4300,
  "\u2581boletsoe": 4301,
  "\u2581rulers": 4302,
  "\u2581site": 4303,
  "\u2581verses": 4304,
  "\u2581copies": 4305,
  "\u2581hafeela": 4306,
  "\u2581herself": 4307,
  "\u2581sought": 4308,
  "\u2581Trinity": 4309,
  "\u2581forest": 4310,
  "\u2581matsohong": 4311,
  "\u2581relates": 4312,
  "\u2581throne": 4313,
  "\u2581hloekisa": 4314,
  "\u2581khatiso": 4315,
  "\u2581tlatsa": 4316,
  "\u2581Haufinyane": 4317,
  "\u2581Mong": 4318,
  "\u2581Often": 4319,
  "\u2581cells": 4320,
  "\u2581keketseho": 4321,
  "\u2581solution": 4322,
  "\u2581succeed": 4323,
  "\u2581bulehileng": 4324,
  "\u2581conventions": 4325,
  "\u2581huge": 4326,
  "\u2581kaakang": 4327,
  "\u2581moshanyana": 4328,
  "\u2581not\u0161i": 4329,
  "est": 4330,
  "ish": 4331,
  "out": 4332,
  "\u2581Leboea": 4333,
  "\u2581Tim": 4334,
  "\u2581Vatican": 4335,
  "\u2581dealings": 4336,
  "\u2581lekang": 4337,
  "\u2581'?": 4338,
  "\u2581deliver": 4339,
  "\u2581glorious": 4340,
  "\u2581performed": 4341,
  "\u2581utloile": 4342,
  "\u2581Bothata": 4343,
  "\u2581Rata": 4344,
  "\u2581bat\u0161oaruoa": 4345,
  "os": 4346,
  "\u2581Mang": 4347,
  "\u2581construction": 4348,
  "\u2581lumelloa": 4349,
  "\u2581ponahalo": 4350,
  "ine": 4351,
  "\u2581Kaofela": 4352,
  "\u2581compare": 4353,
  "\u2581critical": 4354,
  "\u2581lumelle": 4355,
  "\u2581Israelite": 4356,
  "\u2581angry": 4357,
  "\u2581background": 4358,
  "\u2581tharollo": 4359,
  "\u2581tlhalo": 4360,
  "\u2581beloved": 4361,
  "\u2581smoking": 4362,
  "jw": 4363,
  "\u2581boromuoa": 4364,
  "\u2581require": 4365,
  "\u2581skills": 4366,
  "\u2581black": 4367,
  "\u2581boiketlo": 4368,
  "\u2581foot": 4369,
  "\u2581stars": 4370,
  "\u2581theoha": 4371,
  "\u258119;": 4372,
  "\u2581Faro": 4373,
  "\u2581Fetisisa": 4374,
  "\u2581Setsebi": 4375,
  "\u2581entitled": 4376,
  "\u2581applying": 4377,
  "\u2581belong": 4378,
  "\u2581exactly": 4379,
  "\u2581hlahlobe": 4380,
  "\u2581peaceful": 4381,
  "\u2581chesa": 4382,
  "\u2581factor": 4383,
  "\u2581khothatsang": 4384,
  "\u2581lopolla": 4385,
  "\u2581male": 4386,
  "\u2581marvelous": 4387,
  "\u2581north": 4388,
  "\u2581Don": 4389,
  "\u2581ended": 4390,
  "\u2581lying": 4391,
  "\u2581minutes": 4392,
  "\u2581Armageddon": 4393,
  "\u2581bukana": 4394,
  "\u2581busang": 4395,
  "\u2581finding": 4396,
  "\u2581mighty": 4397,
  "\u2581proof": 4398,
  "\u2581supa": 4399,
  "\u2581undeserved": 4400,
  "son": 4401,
  "\u2581melaetsa": 4402,
  "\u2581qobella": 4403,
  "\u2581setseng": 4404,
  "\u2581baboleli": 4405,
  "\u2581freely": 4406,
  "\u2581fumanehang": 4407,
  "\u2581hloile": 4408,
  "\u2581identified": 4409,
  "\u2581kutlo": 4410,
  "\u2581lehlakore": 4411,
  "\u2581nehelana": 4412,
  "\u2581sees": 4413,
  "\u2581Tsoang": 4414,
  "\u2581assistance": 4415,
  "\u2581nearby": 4416,
  "\u2581significant": 4417,
  "\u2581souls": 4418,
  "\u2581Pharaoh": 4419,
  "\u2581failure": 4420,
  "\u2581ipolaea": 4421,
  "\u2581ofising": 4422,
  "\u2581rarahaneng": 4423,
  "\u2581tlatsetsa": 4424,
  "\u2581bakela": 4425,
  "\u2581boomo": 4426,
  "\u2581nine": 4427,
  "\u2581sireletsehileng": 4428,
  "\u2581victim": 4429,
  "\u2581Paris": 4430,
  "\u2581Thessalonians": 4431,
  "\u2581exists": 4432,
  "\u2581Never": 4433,
  "\u2581Rea": 4434,
  "\u2581hoba": 4435,
  "\u2581mpolella": 4436,
  "\u2581nkela": 4437,
  "\u2581wind": 4438,
  "\u2581bane": 4439,
  "\u2581macha": 4440,
  "\u2581resulted": 4441,
  "\u2581thehiloe": 4442,
  "\u2581apart": 4443,
  "\u2581bed": 4444,
  "\u2581khahlisa": 4445,
  "\u2581teboho": 4446,
  "HA": 4447,
  "\u2581contribute": 4448,
  "\u2581hlaheloa": 4449,
  "\u2581hlomphe": 4450,
  "\u2581hlophisa": 4451,
  "\u2581kantle": 4452,
  "\u2581topollo": 4453,
  "\u2581weapons": 4454,
  "\u2581Mokhoa": 4455,
  "\u2581Out": 4456,
  "\u2581adult": 4457,
  "\u2581bobona": 4458,
  "\u2581fetoletsoeng": 4459,
  "\u2581latele": 4460,
  "\u2581reference": 4461,
  "\u2581scientific": 4462,
  "\u2581scriptures": 4463,
  "\u2581Litaba": 4464,
  "\u2581Republic": 4465,
  "\u2581balance": 4466,
  "\u2581birds": 4467,
  "\u2581damage": 4468,
  "\u2581generally": 4469,
  "\u2581price": 4470,
  "\u2581size": 4471,
  "\u2581street": 4472,
  "\u2581supply": 4473,
  "\u2581witnesses": 4474,
  "\u2581khabane": 4475,
  "\u2581lefelloeng": 4476,
  "da": 4477,
  "\u258124;": 4478,
  "\u2581bafung": 4479,
  "\u2581journey": 4480,
  "\u2581makatsa": 4481,
  "hether": 4482,
  "\u2581clothing": 4483,
  "\u2581faithfully": 4484,
  "\u2581letlotlo": 4485,
  "\u2581moruti": 4486,
  "\u2581threat": 4487,
  "\u2581Thabeng": 4488,
  "\u2581endeavor": 4489,
  "\u2581inhabited": 4490,
  "\u2581sefahleho": 4491,
  "\u2581temptation": 4492,
  "\u258140:": 4493,
  "\u2581Likewise": 4494,
  "\u2581Readers": 4495,
  "\u2581balang": 4496,
  "\u2581couples": 4497,
  "\u2581fornication": 4498,
  "\u2581region": 4499,
  "\u2581determine": 4500,
  "\u2581happens": 4501,
  "\u2581increasing": 4502,
  "\u2581Holo": 4503,
  "\u2581Says": 4504,
  "\u258127,": 4505,
  "\u25813]": 4506,
  "\u2581lichabeng": 4507,
  "ist": 4508,
  "\u258122;": 4509,
  "\u2581hlorisoa": 4510,
  "\u2581leba": 4511,
  "\u2581sickness": 4512,
  "\u2581Columbia": 4513,
  "\u2581Edene": 4514,
  "\u2581Mosaic": 4515,
  "\u2581OA": 4516,
  "\u2581Tabeng": 4517,
  "\u2581Un": 4518,
  "\u2581amohelang": 4519,
  "\u2581ntsane": 4520,
  "\u2581Fumana": 4521,
  "\u2581Persia": 4522,
  "\u2581relationships": 4523,
  "\u2581stake": 4524,
  "\u2581HIV": 4525,
  "\u2581illustrate": 4526,
  "\u2581lebokose": 4527,
  "\u2581physically": 4528,
  "\u2581ratana": 4529,
  "\u2581wickedness": 4530,
  "\u2581fanoeng": 4531,
  "\u2581pakela": 4532,
  "\u2581remarkable": 4533,
  "\u2581scholars": 4534,
  "\u2581River": 4535,
  "\u2581bolaoli": 4536,
  "\u2581habeli": 4537,
  "\u2581marry": 4538,
  "\u2581none": 4539,
  "\u2581robong": 4540,
  "\u2581Sa": 4541,
  "\u2581hloke": 4542,
  "\u2581leso": 4543,
  "\u25811997": 4544,
  "\u2581El": 4545,
  "\u2581Mocha": 4546,
  "\u2581Ncha": 4547,
  "\u2581behile": 4548,
  "\u2581companions": 4549,
  "\u2581lit\u0161ebeletso": 4550,
  "\u2581mebala": 4551,
  "\u2581satisfying": 4552,
  "\u25814]": 4553,
  "\u2581Moroallo": 4554,
  "\u2581claimed": 4555,
  "\u2581meetlo": 4556,
  "\u258166": 4557,
  "\u2581fuoe": 4558,
  "\u2581matichere": 4559,
  "\u2581plant": 4560,
  "\u2581stick": 4561,
  "\u2581lenane": 4562,
  "\u2581letle": 4563,
  "\u2581phetse": 4564,
  "\u2581slow": 4565,
  "\u2581weak": 4566,
  "\u2581Eena": 4567,
  "\u2581Naomi": 4568,
  "\u2581North": 4569,
  "\u2581lehlohonolo": 4570,
  "\u2581mafolofolo": 4571,
  "\u2581molisa": 4572,
  "\u2581Paradeise": 4573,
  "\u2581compared": 4574,
  "\u2581constant": 4575,
  "\u2581sefofane": 4576,
  "\u2581stood": 4577,
  "\u2581Human": 4578,
  "\u2581atlehang": 4579,
  "\u2581Mopesaleme": 4580,
  "\u2581Musong": 4581,
  "\u2581fumaneng": 4582,
  "\u2581ithaopela": 4583,
  "\u2581koetliso": 4584,
  "\u2581t\u0161abe": 4585,
  "\u2581additional": 4586,
  "\u2581conscious": 4587,
  "\u2581estimated": 4588,
  "\u2581involve": 4589,
  "\u2581president": 4590,
  "\u2581reject": 4591,
  "\u2581successfully": 4592,
  "\u258144.": 4593,
  "\u2581assembly": 4594,
  "\u2581hlolloa": 4595,
  "\u2581straight": 4596,
  "\u2581ata": 4597,
  "\u2581bolumeling": 4598,
  "\u2581keeps": 4599,
  "\u2581variety": 4600,
  "\u2581worldly": 4601,
  "\u2581assist": 4602,
  "\u2581t\u0161epile": 4603,
  "\u2581Babali": 4604,
  "\u2581Truth": 4605,
  "\u2581instructions": 4606,
  "\u2581privileges": 4607,
  "\u2581sad": 4608,
  "\u2581upright": 4609,
  "great": 4610,
  "\u2581Lihlooho": 4611,
  "\u2581Moprofesa": 4612,
  "\u2581below": 4613,
  "\u2581hopole": 4614,
  "\u2581iketsa": 4615,
  "\u2581ipiletsa": 4616,
  "\u2581rulership": 4617,
  "\u2581150": 4618,
  "\u2581Teach": 4619,
  "\u2581agreed": 4620,
  "\u2581furalla": 4621,
  "\u2581kamohelo": 4622,
  "\u2581kindly": 4623,
  "\u2581lessons": 4624,
  "\u2581sebokeng": 4625,
  "ting": 4626,
  "\u2581Bagerike": 4627,
  "\u2581Students": 4628,
  "\u2581khethoa": 4629,
  "\u2581mosebeletsi": 4630,
  "\u2581thelevishene": 4631,
  "\u2581Hare": 4632,
  "ki": 4633,
  "\u2581chance": 4634,
  "\u2581customs": 4635,
  "\u2581listened": 4636,
  "\u2581t\u0161oere": 4637,
  "eno": 4638,
  "\u2581Paradeiseng": 4639,
  "\u2581abeloa": 4640,
  "\u2581bokhabane": 4641,
  "\u2581bophahamo": 4642,
  "\u2581engage": 4643,
  "\u2581phuputso": 4644,
  "\u2581requirements": 4645,
  "\u2581writings": 4646,
  "\u2581buisane": 4647,
  "\u2581harmful": 4648,
  "\u2581meloko": 4649,
  "\u2581miracles": 4650,
  "\u2581opposite": 4651,
  "\u2581primary": 4652,
  "\u2581nkileng": 4653,
  "\u2581silver": 4654,
  "nyana": 4655,
  "\u2581Bohlale": 4656,
  "\u2581Eden": 4657,
  "\u2581Hlalosa": 4658,
  "\u2581Sehloohong": 4659,
  "\u2581indefinite": 4660,
  "\u2581koae": 4661,
  "\u2581kopanya": 4662,
  "\u2581stone": 4663,
  "\u2581task": 4664,
  "\u2581Phela": 4665,
  "\u2581caught": 4666,
  "\u2581grief": 4667,
  "\u2581refer": 4668,
  "\u2581remnant": 4669,
  "hamphani": 4670,
  "\u2581Nazi": 4671,
  "\u2581computer": 4672,
  "\u2581relations": 4673,
  "ter": 4674,
  "\u2581Bakolose": 4675,
  "\u2581Ketsahalo": 4676,
  "\u2581Sontaha": 4677,
  "\u2581arranged": 4678,
  "\u258134,": 4679,
  "\u2581Feleng": 4680,
  "\u2581accomplished": 4681,
  "\u2581leaves": 4682,
  "\u2581mistakes": 4683,
  "\u2581photo": 4684,
  "\u2581planet": 4685,
  "\u2581potolohileng": 4686,
  "\u2581provisions": 4687,
  "\u2581trip": 4688,
  "\u2581likokoanyana": 4689,
  "\u2581mema": 4690,
  "\u2581pheha": 4691,
  "\u2581surprised": 4692,
  "\u25811994": 4693,
  "\u2581mobu": 4694,
  "\u2581surface": 4695,
  "\u2581walked": 4696,
  "ph": 4697,
  "\u2581Learn": 4698,
  "\u2581phahama": 4699,
  "\u2581selfish": 4700,
  "\u2581tender": 4701,
  "id": 4702,
  "\u258120]": 4703,
  "\u2581Almighty": 4704,
  "\u2581affairs": 4705,
  "\u2581determination": 4706,
  "\u2581innocent": 4707,
  "\u2581khutlele": 4708,
  "\u2581moruong": 4709,
  "\u2581Bill": 4710,
  "\u2581bond": 4711,
  "\u2581emisa": 4712,
  "\u2581folo": 4713,
  "\u2581tloaelana": 4714,
  "ad": 4715,
  "\u2581Eastern": 4716,
  "\u2581balehela": 4717,
  "\u2581hahang": 4718,
  "\u2581ikhethela": 4719,
  "\u2581makhotla": 4720,
  "\u2581motheong": 4721,
  "\u2581t\u0161oanela": 4722,
  "\u25811970": 4723,
  "\u2581Boit\u0161oaro": 4724,
  "\u2581Leo": 4725,
  "\u2581Sara": 4726,
  "\u2581injustice": 4727,
  "\u2581inner": 4728,
  "\u2581ipeha": 4729,
  "\u2581lipont\u0161o": 4730,
  "\u2581mobe": 4731,
  "They": 4732,
  "\u258127]": 4733,
  "\u258128]": 4734,
  "\u2581clothes": 4735,
  "\u2581kamoreng": 4736,
  "\u2581pata": 4737,
  "\u2581t\u0161oaea": 4738,
  "\u25814;": 4739,
  "\u2581meru": 4740,
  "\u2581mongolo": 4741,
  "\u2581mookameli": 4742,
  "\u2581occasions": 4743,
  "\u2581qetile": 4744,
  "\u2581tlosoa": 4745,
  "v": 4746,
  "\u2581Ohle": 4747,
  "\u2581advance": 4748,
  "\u2581etsahale": 4749,
  "\u2581firmly": 4750,
  "\u25811945": 4751,
  "\u258172": 4752,
  "\u2581Am": 4753,
  "\u2581Puo": 4754,
  "\u2581abandoned": 4755,
  "\u2581difficulties": 4756,
  "\u2581exposed": 4757,
  "\u2581visiting": 4758,
  "\u2581Cor": 4759,
  "\u2581musong": 4760,
  "\u2581remaining": 4761,
  "\u2581services": 4762,
  "\u2581strengthened": 4763,
  "\u2581utsoa": 4764,
  "\u2581arms": 4765,
  "\u2581boikaketsi": 4766,
  "\u2581hanela": 4767,
  "\u2581hlahella": 4768,
  "\u2581hlahlamang": 4769,
  "\u2581lovers": 4770,
  "\u2581tend": 4771,
  "\u2581worshippers": 4772,
  "\u258119]": 4773,
  "\u2581San": 4774,
  "\u2581cares": 4775,
  "\u2581lokang": 4776,
  "\u2581refuge": 4777,
  "\u2581t\u0161oasa": 4778,
  "\u2581anymore": 4779,
  "\u2581fit": 4780,
  "\u2581ipotse": 4781,
  "\u2581theme": 4782,
  "\u2581covered": 4783,
  "\u2581turning": 4784,
  "As": 4785,
  "bi": 4786,
  "\u2581Assyria": 4787,
  "\u2581dwell": 4788,
  "\u2581patients": 4789,
  "\u2581tholoana": 4790,
  "for": 4791,
  "\u2581Mat": 4792,
  "\u2581WHAT": 4793,
  "\u2581atile": 4794,
  "\u2581bohlola": 4795,
  "\u2581keteka": 4796,
  "\u2581officials": 4797,
  "\u2581t\u0161osa": 4798,
  "\u2581k\u014dpe": 4799,
  "\u2581widow": 4800,
  "\u2581Ruthe": 4801,
  "\u2581houses": 4802,
  "\u2581senngoa": 4803,
  "\u2581booatla": 4804,
  "\u2581dear": 4805,
  "\u2581isang": 4806,
  "\u2581model": 4807,
  "\u2581t\u0161oaneleha": 4808,
  "\u2581wedding": 4809,
  "\u2581dangers": 4810,
  "\u2581images": 4811,
  "\u2581litloholo": 4812,
  "\u2581moroetsana": 4813,
  "\u2581private": 4814,
  "\u2581remove": 4815,
  "\u25811914.": 4816,
  "\u2581numerous": 4817,
  "\u2581Eventually": 4818,
  "\u2581akaretsang": 4819,
  "\u2581bomalimabe": 4820,
  "\u2581considering": 4821,
  "\u2581deeds": 4822,
  "\u2581hlakisa": 4823,
  "\u2581khannela": 4824,
  "\u2581profeta": 4825,
  "\u2581secure": 4826,
  "\u2581talingoa": 4827,
  "\u258111]": 4828,
  "\u2581Liholo": 4829,
  "\u2581Photo": 4830,
  "\u2581broken": 4831,
  "\u2581degree": 4832,
  "\u2581disaster": 4833,
  "\u2581provision": 4834,
  "\u2581400": 4835,
  "\u2581Mathata": 4836,
  "\u2581complex": 4837,
  "\u2581leleka": 4838,
  "\u2581lumellanang": 4839,
  "\u2581masala": 4840,
  "\u2581mekete": 4841,
  "\u2581rao": 4842,
  "\u2581reminded": 4843,
  "\u2581resolve": 4844,
  "\u2581river": 4845,
  "\u2581traveled": 4846,
  "\u2581tsoekere": 4847,
  "6": 4848,
  "\u2581Jonah": 4849,
  "\u2581Phetolelo": 4850,
  "\u2581abundant": 4851,
  "\u2581habit": 4852,
  "\u2581phethe": 4853,
  "\u2581seoelo": 4854,
  "\u2581Mohloli": 4855,
  "\u2581observes": 4856,
  "\u2581phethahetse": 4857,
  "\u2581rendered": 4858,
  "\u2581tsotelle": 4859,
  "mp": 4860,
  "\u258129:": 4861,
  "\u2581principal": 4862,
  "\u2581thahasellang": 4863,
  "\u2581t\u0161oareloa": 4864,
  "\u258126]": 4865,
  "\u2581boele": 4866,
  "\u2581liphuthehong": 4867,
  "\u2581trade": 4868,
  "\u2581won": 4869,
  "\u2581Jonase": 4870,
  "\u2581Museum": 4871,
  "\u2581Second": 4872,
  "\u2581buile": 4873,
  "\u2581fokotseha": 4874,
  "\u2581plants": 4875,
  "\u2581t\u0161ehetsang": 4876,
  "\u2581Lula": 4877,
  "\u2581Study": 4878,
  "\u2581Titus": 4879,
  "\u2581hair": 4880,
  "\u2581litlhaloso": 4881,
  "\u2581mocheso": 4882,
  "\u2581offers": 4883,
  "\u2581root": 4884,
  "\u2581Catholics": 4885,
  "\u2581boitelo": 4886,
  "\u2581kholo": 4887,
  "\u2581pictures": 4888,
  "\u2581pina": 4889,
  "\u2581red": 4890,
  "\u2581treasure": 4891,
  "\u2581wall": 4892,
  "\u2581worthy": 4893,
  "\u2581Bont\u0161a": 4894,
  "\u2581hardly": 4895,
  "\u2581pleased": 4896,
  "\u2581punishment": 4897,
  "\u2581useful": 4898,
  "Batho": 4899,
  "\u2581leb\u014dpong": 4900,
  "\u2581lekoa": 4901,
  "\u2581memo": 4902,
  "\u2581mention": 4903,
  "\u2581methods": 4904,
  "hi": 4905,
  "sh": 4906,
  "\u2581Western": 4907,
  "\u2581anxious": 4908,
  "\u2581hloea": 4909,
  "\u2581scene": 4910,
  "\u2581Naheng": 4911,
  "\u2581Rutherford": 4912,
  "\u2581Syria": 4913,
  "\u2581content": 4914,
  "\u2581mafutsana": 4915,
  "\u2581mahae": 4916,
  "\u2581release": 4917,
  "\u2581senyenyane": 4918,
  "Look": 4919,
  "\u25811940": 4920,
  "\u2581familiar": 4921,
  "\u2581qotsitsoeng": 4922,
  "\u2581reaction": 4923,
  "\u2581rerile": 4924,
  "\u2581numbers": 4925,
  "\u2581path": 4926,
  "\u2581suddenly": 4927,
  "\u2581touch": 4928,
  "\u2581Bukeng": 4929,
  "\u2581accompany": 4930,
  "\u2581bofelong": 4931,
  "\u2581cross": 4932,
  "\u2581haese": 4933,
  "\u2581methapo": 4934,
  "\u2581serves": 4935,
  "\u2581signs": 4936,
  "\u2581utloela": 4937,
  "\u2581Bahlanka": 4938,
  "\u2581Service": 4939,
  "\u2581banab": 4940,
  "\u2581communicate": 4941,
  "\u2581foundation": 4942,
  "\u2581lefutso": 4943,
  "\u2581tsejoang": 4944,
  "\u2581mafolo": 4945,
  "\u2581meno": 4946,
  "\u2581Ithuta": 4947,
  "\u2581Lijo": 4948,
  "\u2581appreciated": 4949,
  "\u2581atlehileng": 4950,
  "\u2581kh\u014dlo": 4951,
  "\u2581masea": 4952,
  "\u2581thoeng": 4953,
  "\u2581totobetse": 4954,
  "\u2581writers": 4955,
  "ies": 4956,
  "\u2581Selemong": 4957,
  "\u2581kh\u014dloanyane": 4958,
  "\u2581mild": 4959,
  "\u2581mildness": 4960,
  "\u2581plan": 4961,
  "\u2581refuse": 4962,
  "\u25811999": 4963,
  "\u2581Get": 4964,
  "\u2581Mikea": 4965,
  "\u2581atmosphere": 4966,
  "\u2581brochure": 4967,
  "\u2581declare": 4968,
  "\u2581heartfelt": 4969,
  "\u2581lekanyetsa": 4970,
  "\u2581motlakase": 4971,
  "\u2581ofisi": 4972,
  "\u2581wilderness": 4973,
  "\u2581wipe": 4974,
  "\u2581Flood": 4975,
  "\u2581Micah": 4976,
  "\u2581botlamuoeng": 4977,
  "\u2581enabl": 4978,
  "\u2581fosahetse": 4979,
  "\u2581laid": 4980,
  "\u2581lipelaelo": 4981,
  "\u2581tsosolosa": 4982,
  "Jesus": 4983,
  "Morena": 4984,
  "\u2581Phutheho": 4985,
  "\u2581attempt": 4986,
  "\u2581depressed": 4987,
  "\u2581mohlolohali": 4988,
  "\u2581restored": 4989,
  "\u25811980": 4990,
  "\u2581Dad": 4991,
  "\u2581Moena": 4992,
  "\u2581fetole": 4993,
  "\u2581represent": 4994,
  "\u2581Bagalata": 4995,
  "\u2581healing": 4996,
  "\u2581invisible": 4997,
  "\u2581jeoa": 4998,
  "\u2581possess": 4999,
  "\u2581qenehelo": 5000,
  "\u2581Tsebo": 5001,
  "\u2581folisa": 5002,
  "\u2581ikokobelitseng": 5003,
  "\u2581mafura": 5004,
  "\u2581rebellion": 5005,
  "\u2581represented": 5006,
  "\u2581Switzerland": 5007,
  "\u2581baahelani": 5008,
  "\u2581grand": 5009,
  "\u2581hoeletsa": 5010,
  "\u2581properly": 5011,
  "\u2581warns": 5012,
  "men": 5013,
  "\u258131,": 5014,
  "\u2581Matt": 5015,
  "\u2581Pet": 5016,
  "\u2581attitudes": 5017,
  "\u2581audience": 5018,
  "\u2581burden": 5019,
  "\u2581dark": 5020,
  "\u2581historian": 5021,
  "\u2581influenced": 5022,
  "\u2581mahlomoleng": 5023,
  "\u2581possibly": 5024,
  "\u2581sake": 5025,
  "\u2581tahi": 5026,
  "\u2581traditional": 5027,
  "\u2581tsoetseng": 5028,
  "\u2581Neng": 5029,
  "\u2581ark": 5030,
  "\u2581asks": 5031,
  "\u2581maeto": 5032,
  "\u2581mothers": 5033,
  "\u2581qualified": 5034,
  "Be": 5035,
  "\u2581Thomas": 5036,
  "\u2581halalela": 5037,
  "\u2581midst": 5038,
  "\u2581nepahetse": 5039,
  "\u2581shepherds": 5040,
  "\u2581Death": 5041,
  "\u2581Sadly": 5042,
  "\u2581babatsa": 5043,
  "\u2581district": 5044,
  "\u2581Whatever": 5045,
  "\u2581conducted": 5046,
  "\u2581etelang": 5047,
  "\u2581hl\u014dloa": 5048,
  "\u2581literally": 5049,
  "\u2581nameng": 5050,
  "\u2581plans": 5051,
  "\u2581rahistori": 5052,
  "\u2581balisa": 5053,
  "\u2581discernment": 5054,
  "\u2581liranta": 5055,
  "\u2581moriri": 5056,
  "\u2581thabelang": 5057,
  "ate": 5058,
  "fi": 5059,
  "\u2581Maemong": 5060,
  "\u2581aspect": 5061,
  "\u2581fetohela": 5062,
  "\u2581mahaeng": 5063,
  "\u2581obligation": 5064,
  "\u2581quit": 5065,
  "\u2581speaker": 5066,
  "\u2581store": 5067,
  "\u258175": 5068,
  "\u2581career": 5069,
  "\u2581jala": 5070,
  "\u2581kotula": 5071,
  "\u2581mebe": 5072,
  "\u2581ought": 5073,
  "\u2581painful": 5074,
  "\u2581ratoa": 5075,
  "\u2581romeloa": 5076,
  "\u2581tlh\u014dlo": 5077,
  "\u2581Lik": 5078,
  "\u2581chapters": 5079,
  "\u2581holding": 5080,
  "\u2581played": 5081,
  "\u2581resources": 5082,
  "\u2581sports": 5083,
  "\u2581differ": 5084,
  "\u2581dignity": 5085,
  "\u2581involving": 5086,
  "\u2581tlhoko": 5087,
  "\u258149": 5088,
  "\u2581Balichaba": 5089,
  "\u2581adultery": 5090,
  "\u2581belaela": 5091,
  "\u2581bofokoli": 5092,
  "\u2581fepa": 5093,
  "\u2581mamelle": 5094,
  "\u2581smoke": 5095,
  "but": 5096,
  "land": 5097,
  "\u2581Pacific": 5098,
  "\u2581ipha": 5099,
  "\u2581mananeo": 5100,
  "\u2581Litho": 5101,
  "\u2581SA": 5102,
  "\u2581broke": 5103,
  "\u2581dust": 5104,
  "ie": 5105,
  "za": 5106,
  "\u2581Thapelo": 5107,
  "\u2581Visit": 5108,
  "\u2581WHO": 5109,
  "\u2581sengoliloeng": 5110,
  "\u2581[\"": 5111,
  "\u2581begins": 5112,
  "\u2581gradually": 5113,
  "\u2581kholisa": 5114,
  "che": 5115,
  "\u2581nkhono": 5116,
  "\u2581standard": 5117,
  "\u2581Court": 5118,
  "\u2581Fana": 5119,
  "\u2581bofutsana": 5120,
  "\u2581gets": 5121,
  "\u2581likokoana": 5122,
  "\u2581litlhahiso": 5123,
  "\u2581mechine": 5124,
  "\u2581prominent": 5125,
  "\u2581suggest": 5126,
  "\u2581Messia": 5127,
  "\u2581Moprofeta": 5128,
  "\u2581Sekolong": 5129,
  "\u2581behe": 5130,
  "\u2581dress": 5131,
  "\u2581ntlheng": 5132,
  "\u2581reaching": 5133,
  "\u2581Lengolo": 5134,
  "\u2581distance": 5135,
  "\u2581kamor": 5136,
  "\u2581meditate": 5137,
  "\u2581nt\u0161e": 5138,
  "\u2581tax": 5139,
  "How": 5140,
  "\u25811998": 5141,
  "\u2581Ngaka": 5142,
  "\u2581RE": 5143,
  "\u2581masapo": 5144,
  "\u2581recall": 5145,
  "\u2581spouse": 5146,
  "\u2581suicide": 5147,
  "19": 5148,
  "\u2581California": 5149,
  "\u2581dream": 5150,
  "\u2581fleshly": 5151,
  "\u2581mathateng": 5152,
  "\u2581spirituality": 5153,
  "\u2581tlohele": 5154,
  "\u2581tradition": 5155,
  "im": 5156,
  "\u2581BY": 5157,
  "\u2581Sovereign": 5158,
  "\u2581demonstrated": 5159,
  "\u2581suggestions": 5160,
  "\u2581Morali": 5161,
  "\u2581Pentekonta": 5162,
  "\u2581Uena": 5163,
  "\u2581concerns": 5164,
  "\u2581hlaphoheloa": 5165,
  "\u2581motivated": 5166,
  "\u25811987": 5167,
  "\u2581associate": 5168,
  "\u2581begotten": 5169,
  "\u2581lipale": 5170,
  "\u2581lipolotiking": 5171,
  "\u2581quick": 5172,
  "\u2581scholar": 5173,
  "\u2581tlhokofatso": 5174,
  "ck": 5175,
  "\u2581Letsatsing": 5176,
  "\u2581Please": 5177,
  "\u2581Recall": 5178,
  "\u2581eager": 5179,
  "\u2581famous": 5180,
  "\u2581hloma": 5181,
  "\u2581seatla": 5182,
  "\u2581survey": 5183,
  "\u2581t\u0161ebelisano": 5184,
  "\u2581t\u0161ohile": 5185,
  "\u2581Keletso": 5186,
  "\u2581Lot": 5187,
  "\u2581Samaria": 5188,
  "\u2581arise": 5189,
  "\u2581ears": 5190,
  "\u2581experts": 5191,
  "\u2581tobacco": 5192,
  "\u2581Give": 5193,
  "\u2581Him": 5194,
  "\u2581Leka": 5195,
  "\u2581latola": 5196,
  "\u2581talimang": 5197,
  "\u2581tlhaselo": 5198,
  "Bona": 5199,
  "loa": 5200,
  "\u2581Journal": 5201,
  "\u2581Russian": 5202,
  "\u2581struck": 5203,
  "\u2581Al": 5204,
  "\u2581admits": 5205,
  "\u2581charge": 5206,
  "\u2581comforting": 5207,
  "\u2581differences": 5208,
  "\u2581removed": 5209,
  "\u2581victory": 5210,
  "\u2581Nigeria": 5211,
  "\u2581hot": 5212,
  "\u2581lekane": 5213,
  "\u2581meraro": 5214,
  "\u2581thereafter": 5215,
  "\u2581visits": 5216,
  "AL": 5217,
  "\u2581Jonathan": 5218,
  "\u2581hahamalla": 5219,
  "\u2581qhoma": 5220,
  "\u2581sabole": 5221,
  "\u2581tribes": 5222,
  "ir": 5223,
  "\u2581144": 5224,
  "\u25811996": 5225,
  "\u258139.": 5226,
  "\u2581allows": 5227,
  "\u2581bound": 5228,
  "\u2581gathering": 5229,
  "\u2581litseleng": 5230,
  "\u2581mokhatlong": 5231,
  "\u2581pressures": 5232,
  "\u2581sold": 5233,
  "\u258130:": 5234,
  "\u2581Bar": 5235,
  "\u2581Besides": 5236,
  "\u2581Knorr": 5237,
  "\u2581Pentecost": 5238,
  "\u2581Professor": 5239,
  "\u2581commission": 5240,
  "\u2581phatlalatso": 5241,
  "\u2581phone": 5242,
  "\u2581spite": 5243,
  "\u2581calm": 5244,
  "\u2581color": 5245,
  "\u2581habohloko": 5246,
  "\u2581leleme": 5247,
  "\u2581parable": 5248,
  "\u2581reputation": 5249,
  "\u2581ruling": 5250,
  "\u2581torture": 5251,
  "\u2581Nehemia": 5252,
  "\u2581Nehemiah": 5253,
  "\u2581Organization": 5254,
  "\u2581labo": 5255,
  "\u2581located": 5256,
  "\u2581mahlohonolo": 5257,
  "\u2581middle": 5258,
  "\u2581reasoning": 5259,
  "\u2581sinned": 5260,
  "\u2581Sinai": 5261,
  "\u2581hlokomeloa": 5262,
  "\u2581labor": 5263,
  "\u2581let\u0161oele": 5264,
  "\u2581serapeng": 5265,
  "\u2581soil": 5266,
  "\u25812001": 5267,
  "\u2581Sehopotso": 5268,
  "\u2581Way": 5269,
  "\u2581hl\u014dle": 5270,
  "\u2581i": 5271,
  "\u2581lekunutu": 5272,
  "\u2581silevera": 5273,
  "\u2581Early": 5274,
  "\u2581Old": 5275,
  "\u2581Upon": 5276,
  "\u2581arrested": 5277,
  "\u2581bont\u0161itsoeng": 5278,
  "\u2581error": 5279,
  "\u2581kolobelitsoeng": 5280,
  "\u2581medicine": 5281,
  "\u2581touched": 5282,
  "Koranta": 5283,
  "\u25811939": 5284,
  "\u25811988": 5285,
  "\u2581Philip": 5286,
  "\u2581Sebelisa": 5287,
  "\u2581annual": 5288,
  "\u2581approached": 5289,
  "\u2581completed": 5290,
  "\u2581dwelling": 5291,
  "\u2581faneng": 5292,
  "\u2581fihlile": 5293,
  "\u2581mohato": 5294,
  "\u2581repeatedly": 5295,
  "\u2581running": 5296,
  "\u2581safety": 5297,
  "\u25811930": 5298,
  "\u2581Korea": 5299,
  "\u2581Luther": 5300,
  "\u2581matlafatsang": 5301,
  "\u2581season": 5302,
  "\u2581seretse": 5303,
  "\u2581subjection": 5304,
  "\u2581supported": 5305,
  "homphieutha": 5306,
  "\u2581LIPINA": 5307,
  "\u2581Tseba": 5308,
  "\u2581afterward": 5309,
  "\u2581kemiso": 5310,
  "\u2581paying": 5311,
  "\u2581reflected": 5312,
  "\u2581wear": 5313,
  "Motho": 5314,
  "\u2581SONGS": 5315,
  "\u2581acting": 5316,
  "\u2581intense": 5317,
  "\u2581mahareng": 5318,
  "\u2581nkeloa": 5319,
  "\u2581phetseng": 5320,
  "\u2581Hosea": 5321,
  "\u2581acted": 5322,
  "\u2581athe": 5323,
  "\u2581professor": 5324,
  "batho": 5325,
  "\u2581Halls": 5326,
  "\u2581Sebaka": 5327,
  "\u2581bitsang": 5328,
  "\u2581claims": 5329,
  "\u2581mochine": 5330,
  "\u2581oabo": 5331,
  "Keep": 5332,
  "\u2581Bafilipi": 5333,
  "\u2581Phuputso": 5334,
  "\u2581bokana": 5335,
  "\u2581companion": 5336,
  "\u2581greed": 5337,
  "\u2581interesting": 5338,
  "\u2581noticed": 5339,
  "\u2581phelela": 5340,
  "\u2581add": 5341,
  "\u2581fetisetsa": 5342,
  "\u2581ikokobetsa": 5343,
  "\u2581lema": 5344,
  "\u2581moromuoa": 5345,
  "\u2581Tumellano": 5346,
  "\u2581bahanyetsi": 5347,
  "\u2581boat": 5348,
  "\u2581corruption": 5349,
  "\u2581divided": 5350,
  "\u2581khutlisetsa": 5351,
  "\u2581literal": 5352,
  "\u2581otherwise": 5353,
  "\u2581reduce": 5354,
  "\u2581schools": 5355,
  "\u2581previous": 5356,
  "\u2581sinners": 5357,
  "gi": 5358,
  "\u2581Richard": 5359,
  "\u2581Shortly": 5360,
  "\u2581female": 5361,
  "\u2581let\u0161ehali": 5362,
  "\u2581origin": 5363,
  "\u2581tumellano": 5364,
  "ary": 5365,
  "\u2581Messianic": 5366,
  "\u2581Motse": 5367,
  "\u2581altar": 5368,
  "\u2581custom": 5369,
  "\u2581exercising": 5370,
  "\u2581fighting": 5371,
  "\u2581hlokomelang": 5372,
  "\u2581hlokomelisa": 5373,
  "\u2581pleasant": 5374,
  "Jesu": 5375,
  "\u2581boteng": 5376,
  "\u2581guilty": 5377,
  "\u2581outcome": 5378,
  "\u2581products": 5379,
  "\u2581property": 5380,
  "\u2581frequently": 5381,
  "\u2581northern": 5382,
  "\u2581passing": 5383,
  "\u2581tlil": 5384,
  "\u2581Chelete": 5385,
  "\u2581Haholo": 5386,
  "\u2581Malachi": 5387,
  "\u2581unclean": 5388,
  "\u258140.": 5389,
  "\u2581Malakia": 5390,
  "\u2581Sweden": 5391,
  "\u2581bokahohleng": 5392,
  "\u2581haesita": 5393,
  "\u2581Mehla": 5394,
  "\u2581Promised": 5395,
  "\u2581ship": 5396,
  "\u2581terrible": 5397,
  "\u2581t\u0161episitsoeng": 5398,
  "\u2581appeal": 5399,
  "\u2581arrangements": 5400,
  "\u2581bohetene": 5401,
  "\u2581cast": 5402,
  "\u2581diet": 5403,
  "\u2581finish": 5404,
  "\u2581itekanetseng": 5405,
  "\u2581lieha": 5406,
  "\u2581mark": 5407,
  "\u2581meaningful": 5408,
  "\u2581n\u014dka": 5409,
  "\u2581theknoloji": 5410,
  "\u2581t\u0161oanelehe": 5411,
  "con": 5412,
  "not": 5413,
  "\u258137.": 5414,
  "\u2581Araba": 5415,
  "\u2581Selekane": 5416,
  "\u2581burning": 5417,
  "\u2581mela": 5418,
  "\u2581memory": 5419,
  "\u2581summer": 5420,
  "\u2581thibelang": 5421,
  "\u2581t\u0161oenyehile": 5422,
  "\u2581viewpoint": 5423,
  "\u2581widely": 5424,
  "\u258147": 5425,
  "\u2581brief": 5426,
  "\u2581camps": 5427,
  "\u2581discern": 5428,
  "am": 5429,
  "tu": 5430,
  "\u258144": 5431,
  "\u2581Ps": 5432,
  "\u2581art": 5433,
  "\u2581deliverance": 5434,
  "\u2581dry": 5435,
  "\u2581guilt": 5436,
  "\u2581hlaheletseng": 5437,
  "\u2581rely": 5438,
  "les": 5439,
  "ver": 5440,
  "\u2581120": 5441,
  "\u2581behela": 5442,
  "\u2581mass": 5443,
  "\u2581nthong": 5444,
  "\u2581routine": 5445,
  "\u2581thetsa": 5446,
  "\u2581wondered": 5447,
  "\u2581Chronicles": 5448,
  "\u2581N\u014dka": 5449,
  "\u2581boikhathollo": 5450,
  "\u2581condemned": 5451,
  "\u2581except": 5452,
  "\u2581inheritance": 5453,
  "\u2581opinion": 5454,
  "\u2581teroneng": 5455,
  "ER": 5456,
  "\u258122]": 5457,
  "\u2581Boikutlo": 5458,
  "\u2581Caesar": 5459,
  "\u2581Eona": 5460,
  "\u2581Source": 5461,
  "\u2581boikhohomoso": 5462,
  "\u2581chesehang": 5463,
  "\u2581hlalositse": 5464,
  "\u2581JEHOVAH": 5465,
  "\u2581Men": 5466,
  "\u2581credit": 5467,
  "\u2581games": 5468,
  "\u2581likopi": 5469,
  "\u2581litsebe": 5470,
  "\u2581printed": 5471,
  "\u2581spirits": 5472,
  "\u2581threatened": 5473,
  "\u2581union": 5474,
  "if": 5475,
  "ig": 5476,
  "\u2581Grand": 5477,
  "\u2581Year": 5478,
  "\u2581corrupt": 5479,
  "\u2581features": 5480,
  "\u2581gather": 5481,
  "\u2581hlokofatsoa": 5482,
  "\u2581lower": 5483,
  "\u2581motivate": 5484,
  "\u2581abilities": 5485,
  "\u2581admitted": 5486,
  "\u2581approved": 5487,
  "\u2581assignments": 5488,
  "\u2581boletseng": 5489,
  "\u2581civil": 5490,
  "\u2581dying": 5491,
  "\u2581hlahe": 5492,
  "\u2581temporary": 5493,
  "\u258154": 5494,
  "\u2581Ua": 5495,
  "\u2581Within": 5496,
  "\u2581blame": 5497,
  "\u2581filoe": 5498,
  "\u2581fourth": 5499,
  "\u2581lokolohile": 5500,
  "\u2581Bopaki": 5501,
  "\u2581bofebe": 5502,
  "\u2581empty": 5503,
  "\u2581glad": 5504,
  "\u2581hlahile": 5505,
  "\u2581setereke": 5506,
  "\u2581symptoms": 5507,
  "\u2581607": 5508,
  "\u2581Henry": 5509,
  "\u2581Japanese": 5510,
  "\u2581Likronike": 5511,
  "\u2581Protestant": 5512,
  "\u2581contain": 5513,
  "\u2581establish": 5514,
  "\u2581letoto": 5515,
  "\u2581permanent": 5516,
  "\u2581readily": 5517,
  "\u2581sebelisetsoa": 5518,
  "\u2581songs": 5519,
  "\u2581wholesome": 5520,
  "\u258138.": 5521,
  "\u2581Bag": 5522,
  "\u2581Kosepele": 5523,
  "\u2581Report": 5524,
  "\u2581fumanoe": 5525,
  "\u2581historical": 5526,
  "\u2581khethang": 5527,
  "\u2581possessions": 5528,
  "\u2581sephiri": 5529,
  "\u2581Libibele": 5530,
  "\u2581ignore": 5531,
  "\u2581marked": 5532,
  "\u2581molaoli": 5533,
  "\u2581molaong": 5534,
  "\u2581tsoileng": 5535,
  "\u2581visitors": 5536,
  "\u2581Lota": 5537,
  "\u2581everywhere": 5538,
  "\u2581excellent": 5539,
  "will": 5540,
  "\u2581Fear": 5541,
  "\u2581evolution": 5542,
  "\u2581items": 5543,
  "\u2581laolang": 5544,
  "\u2581ran": 5545,
  "\u258151": 5546,
  "\u2581Heights": 5547,
  "\u2581hlakola": 5548,
  "\u2581tlamo": 5549,
  "\u2581Explain": 5550,
  "\u2581encourages": 5551,
  "\u2581endured": 5552,
  "\u2581finished": 5553,
  "\u2581koahela": 5554,
  "\u2581koluoa": 5555,
  "\u2581lejoe": 5556,
  "\u2581lipalesa": 5557,
  "\u2581moena": 5558,
  "\u2581Ko": 5559,
  "\u2581baemeli": 5560,
  "\u2581invite": 5561,
  "\u2581memela": 5562,
  "\u2581table": 5563,
  "fa": 5564,
  "gen": 5565,
  "ling": 5566,
  "\u2581Tite": 5567,
  "\u2581metsoako": 5568,
  "\u2581repentance": 5569,
  "\u258100": 5570,
  "\u2581Josephus": 5571,
  "\u2581gratitude": 5572,
  "\u2581kampong": 5573,
  "\u2581khotsofalo": 5574,
  "\u2581lifofane": 5575,
  "\u2581replaced": 5576,
  "\u2581scale": 5577,
  "\u2581spending": 5578,
  "\u2581t\u0161ohloa": 5579,
  "\u2581Up": 5580,
  "\u2581aged": 5581,
  "\u2581belongs": 5582,
  "\u2581hlahisang": 5583,
  "\u2581likelellong": 5584,
  "\u2581modest": 5585,
  "\u2581moqoqo": 5586,
  "\u2581movement": 5587,
  "\u2581project": 5588,
  "\u2581qoqa": 5589,
  "\u2581repentant": 5590,
  "\u2581watching": 5591,
  "\u2581win": 5592,
  "wa": 5593,
  "\u2581Corinth": 5594,
  "\u2581Doing": 5595,
  "\u2581grave": 5596,
  "\u2581phahametse": 5597,
  "\u2581unless": 5598,
  "\u2581walls": 5599,
  "ant": 5600,
  "\u2581Thuso": 5601,
  "\u2581ethnic": 5602,
  "\u2581t\u0161oaretsoe": 5603,
  "\u258136.": 5604,
  "\u2581Concern": 5605,
  "\u2581Jude": 5606,
  "\u2581pioneering": 5607,
  "\u2581willingly": 5608,
  "Joale": 5609,
  "To": 5610,
  "\u2581Following": 5611,
  "\u2581Karabo": 5612,
  "\u2581Salomone": 5613,
  "\u2581Zechariah": 5614,
  "\u2581accepting": 5615,
  "\u2581angoa": 5616,
  "\u2581rapelang": 5617,
  "\u2581rightly": 5618,
  "\u2581welfare": 5619,
  "\u2581Hope": 5620,
  "\u2581courageous": 5621,
  "\u2581fun": 5622,
  "\u2581lihele": 5623,
  "\u2581looks": 5624,
  "\u2581Paseka": 5625,
  "\u2581attacks": 5626,
  "\u2581citizens": 5627,
  "\u2581likoluoa": 5628,
  "\u2581remind": 5629,
  "\u2581stories": 5630,
  "lle": 5631,
  "\u2581Filippi": 5632,
  "\u2581bochaba": 5633,
  "\u2581equal": 5634,
  "\u2581nyahame": 5635,
  "\u2581quiet": 5636,
  "\u2581referring": 5637,
  "\u2581reliable": 5638,
  "\u2581talks": 5639,
  "\u2581widespread": 5640,
  "oe": 5641,
  "\u2581Child": 5642,
  "\u2581Come": 5643,
  "\u2581Scripture": 5644,
  "\u2581accord": 5645,
  "\u2581elements": 5646,
  "\u2581khethollo": 5647,
  "\u2581lefella": 5648,
  "\u2581proud": 5649,
  "\u2581team": 5650,
  "\u2581texts": 5651,
  "\u2581tribe": 5652,
  "\u25811986": 5653,
  "\u2581Bara": 5654,
  "\u2581Three": 5655,
  "\u2581co": 5656,
  "\u2581displayed": 5657,
  "\u2581enjoying": 5658,
  "\u2581facing": 5659,
  "\u2581fields": 5660,
  "\u2581h\u014dlang": 5661,
  "\u2581phepo": 5662,
  "\u2581setse": 5663,
  "\u2581shoela": 5664,
  "su": 5665,
  "\u2581Austria": 5666,
  "\u2581Kenya": 5667,
  "\u2581alert": 5668,
  "\u2581etseng": 5669,
  "\u2581leratong": 5670,
  "\u2581moon": 5671,
  "\u2581seaparo": 5672,
  "\u2581south": 5673,
  "\u2581Alexander": 5674,
  "\u2581access": 5675,
  "\u2581existed": 5676,
  "\u2581hamonate": 5677,
  "\u2581pusong": 5678,
  "\u2581researchers": 5679,
  "\u2581wisely": 5680,
  "bu": 5681,
  "\u2581Granted": 5682,
  "\u2581Isaka": 5683,
  "\u2581Zakaria": 5684,
  "\u2581emotionally": 5685,
  "\u2581happening": 5686,
  "\u2581introduced": 5687,
  "\u2581isolated": 5688,
  "\u2581lebisang": 5689,
  "\u2581matsoalo": 5690,
  "\u2581pornography": 5691,
  "\u2581reign": 5692,
  "W": 5693,
  "ever": 5694,
  "\u2581Esther": 5695,
  "\u2581brotherhood": 5696,
  "\u2581depends": 5697,
  "\u2581fathers": 5698,
  "\u2581feature": 5699,
  "\u2581feed": 5700,
  "\u2581gained": 5701,
  "\u2581gambling": 5702,
  "\u2581initiative": 5703,
  "\u2581600": 5704,
  "\u2581concentration": 5705,
  "\u2581descendants": 5706,
  "\u2581extended": 5707,
  "\u2581fanoang": 5708,
  "\u2581focused": 5709,
  "\u2581theocratic": 5710,
  "tic": 5711,
  "\u2581L\u014dna": 5712,
  "\u2581afternoon": 5713,
  "\u2581falimehile": 5714,
  "\u2581felise": 5715,
  "\u2581paper": 5716,
  "\u2581qete": 5717,
  "\u2581solid": 5718,
  "\u258114]": 5719,
  "\u2581Happy": 5720,
  "\u2581Martin": 5721,
  "\u2581adopted": 5722,
  "\u2581deaf": 5723,
  "\u2581lit\u0161itiso": 5724,
  "\u2581ordered": 5725,
  "\u2581persecuted": 5726,
  "No": 5727,
  "Se": 5728,
  "\u25812011": 5729,
  "\u2581AND": 5730,
  "\u2581Babylonian": 5731,
  "\u2581Bobeli": 5732,
  "\u2581Know": 5733,
  "\u2581Metsoalle": 5734,
  "\u2581Passover": 5735,
  "\u2581burned": 5736,
  "\u2581finyelle": 5737,
  "\u2581murder": 5738,
  "\u2581noha": 5739,
  "\u2581Lazarus": 5740,
  "\u2581Tlas": 5741,
  "\u2581belaella": 5742,
  "\u2581hlahisoa": 5743,
  "\u2581morara": 5744,
  "\u2581pherekano": 5745,
  "\u2581space": 5746,
  "\u2581streets": 5747,
  "\u2581unusual": 5748,
  "\u2581Cain": 5749,
  "\u2581Pelo": 5750,
  "\u2581Septuagint": 5751,
  "\u2581commands": 5752,
  "\u2581commit": 5753,
  "\u2581distant": 5754,
  "\u2581solve": 5755,
  "\u2581suggests": 5756,
  "\u2581translations": 5757,
  "\u25811943": 5758,
  "\u2581Netherlands": 5759,
  "\u2581finds": 5760,
  "\u2581China": 5761,
  "\u2581Ithute": 5762,
  "\u2581Khale": 5763,
  "\u2581accident": 5764,
  "\u2581limit": 5765,
  "\u2581royal": 5766,
  "\u2581satisfied": 5767,
  "x": 5768,
  "\u2581Empire": 5769,
  "\u2581Ngoana": 5770,
  "\u2581Tsoela": 5771,
  "\u2581resulting": 5772,
  "\u2581sireletsang": 5773,
  "\u2581thanks": 5774,
  "fe": 5775,
  "hu": 5776,
  "lintho": 5777,
  "\u2581Lazaro": 5778,
  "\u2581Thaba": 5779,
  "\u2581agreement": 5780,
  "\u2581coast": 5781,
  "\u2581fallen": 5782,
  "\u2581latsoa": 5783,
  "\u2581newly": 5784,
  "que": 5785,
  "\u2581devoted": 5786,
  "\u2581drawing": 5787,
  "\u2581leader": 5788,
  "\u2581lebetse": 5789,
  "\u2581object": 5790,
  "\u2581palama": 5791,
  "\u2581t\u0161oare": 5792,
  "\u258161": 5793,
  "\u2581Borapeli": 5794,
  "\u2581Living": 5795,
  "\u2581Privat": 5796,
  "\u2581amohetse": 5797,
  "\u2581ferekana": 5798,
  "\u2581hleka": 5799,
  "\u2581losing": 5800,
  "\u2581mopresidente": 5801,
  "\u2581ponong": 5802,
  "\u2581review": 5803,
  "\u258152": 5804,
  "\u2581Ben": 5805,
  "\u2581beast": 5806,
  "\u2581botebong": 5807,
  "\u2581capable": 5808,
  "\u2581fetotsoe": 5809,
  "\u2581idolatry": 5810,
  "\u2581ikoetlisa": 5811,
  "\u2581inclined": 5812,
  "\u2581leetong": 5813,
  "\u2581merciful": 5814,
  "\u2581motsamaisi": 5815,
  "\u2581primarily": 5816,
  "\u2581traditions": 5817,
  "\u2581traits": 5818,
  "atted": 5819,
  "\u258153": 5820,
  "\u2581Banyalani": 5821,
  "\u2581Inthanete": 5822,
  "\u2581balaoli": 5823,
  "\u2581hoholo": 5824,
  "\u2581instructed": 5825,
  "\u2581potoloha": 5826,
  "\u2581programs": 5827,
  "\u2581restore": 5828,
  "\u2581stayed": 5829,
  "ED": 5830,
  "kapa": 5831,
  "\u2581NY": 5832,
  "\u2581Nathan": 5833,
  "\u2581childhood": 5834,
  "\u2581iron": 5835,
  "\u2581phethahatsoa": 5836,
  "\u2581singing": 5837,
  "\u2581sitting": 5838,
  "\u2581visible": 5839,
  "ja": 5840,
  "q": 5841,
  "\u2581Mekhoa": 5842,
  "\u2581falla": 5843,
  "\u2581headquarters": 5844,
  "\u2581lebela": 5845,
  "\u2581matha": 5846,
  "\u2581philosophy": 5847,
  "\u2581tests": 5848,
  "\u2581wood": 5849,
  "\u2581Name": 5850,
  "\u2581Thusa": 5851,
  "\u2581acknowledge": 5852,
  "\u2581admonition": 5853,
  "\u2581assures": 5854,
  "\u2581faithfulness": 5855,
  "\u2581felile": 5856,
  "\u2581lekanyetsoang": 5857,
  "\u2581mashano": 5858,
  "\u2581playing": 5859,
  "\u2581raising": 5860,
  "\u2581shortly": 5861,
  "\u2581sustain": 5862,
  "\u2581wrath": 5863,
  "\u2581Kaine": 5864,
  "\u2581grain": 5865,
  "\u2581morutuoa": 5866,
  "\u2581tletleba": 5867,
  "\u2581tsepamisa": 5868,
  "with": 5869,
  "\u25812008": 5870,
  "\u2581Medical": 5871,
  "\u2581Selatine": 5872,
  "\u2581T\u0161episitsoeng": 5873,
  "\u2581khahlisang": 5874,
  "\u2581khathala": 5875,
  "\u2581politics": 5876,
  "\u2581qetang": 5877,
  "\u2581reads": 5878,
  "\u2581reap": 5879,
  "ah": 5880,
  "\u2581FOR": 5881,
  "\u2581arolelana": 5882,
  "\u2581associates": 5883,
  "\u2581bolokoa": 5884,
  "\u2581cared": 5885,
  "\u2581contained": 5886,
  "\u2581discouraged": 5887,
  "\u2581heat": 5888,
  "\u2581mopapa": 5889,
  "\u2581necessarily": 5890,
  "\u2581qapa": 5891,
  "\u2581retelehela": 5892,
  "\u2581virtual": 5893,
  "vo": 5894,
  "\u2581nyaloa": 5895,
  "\u2581obtained": 5896,
  "\u2581phahametseng": 5897,
  "\u2581potlakileng": 5898,
  "\u2581tsoala": 5899,
  "by": 5900,
  "nt": 5901,
  "ol": 5902,
  "\u25812009": 5903,
  "\u2581Women": 5904,
  "\u2581chesehela": 5905,
  "\u2581fears": 5906,
  "\u2581ikarabellang": 5907,
  "\u2581terene": 5908,
  "\u2581universal": 5909,
  "\u2581Liphello": 5910,
  "\u2581laoloa": 5911,
  "\u2581miraculous": 5912,
  "\u2581mourning": 5913,
  "\u2581suggested": 5914,
  "\u25811740": 5915,
  "\u2581conflicts": 5916,
  "\u2581description": 5917,
  "\u2581employment": 5918,
  "\u2581itokisetsa": 5919,
  "\u2581kopi": 5920,
  "\u2581moetlo": 5921,
  "\u2581talimane": 5922,
  "V": 5923,
  "tha": 5924,
  "\u25812012": 5925,
  "\u2581Abel": 5926,
  "\u2581JEHOVA": 5927,
  "\u2581Millions": 5928,
  "\u2581arohana": 5929,
  "\u2581context": 5930,
  "\u2581enable": 5931,
  "\u2581mail": 5932,
  "\u2581missing": 5933,
  "\u2581moves": 5934,
  "\u2581Bophelong": 5935,
  "\u2581Courtesy": 5936,
  "\u2581Krugersdorp": 5937,
  "\u2581Show": 5938,
  "\u2581fundamental": 5939,
  "\u2581hlephileng": 5940,
  "\u2581nt\u0161oa": 5941,
  "\u2581t\u0161epang": 5942,
  "\u2581Back": 5943,
  "\u2581Rutang": 5944,
  "\u2581journal": 5945,
  "\u2581khathetse": 5946,
  "\u2581kinds": 5947,
  "\u2581moeta": 5948,
  "\u2581polao": 5949,
  "\u2581systems": 5950,
  "ized": 5951,
  "\u25812010": 5952,
  "\u2581Jean": 5953,
  "\u2581Marriage": 5954,
  "\u2581author": 5955,
  "\u2581impact": 5956,
  "\u2581media": 5957,
  "\u2581nahanne": 5958,
  "\u2581sebeng": 5959,
  "fuputsi": 5960,
  "my": 5961,
  "ster": 5962,
  "\u2581atileng": 5963,
  "\u2581lakatsang": 5964,
  "\u2581mehloli": 5965,
  "\u2581tiisetso": 5966,
  "his": 5967,
  "\u2581Congregation": 5968,
  "\u2581Institute": 5969,
  "\u2581hlohonolofalits": 5970,
  "\u2581puong": 5971,
  "\u2581reply": 5972,
  "\u2581slavery": 5973,
  "\u2581survived": 5974,
  "J": 5975,
  "ted": 5976,
  "\u2581144,000": 5977,
  "\u2581ear": 5978,
  "\u2581humbly": 5979,
  "\u2581inherit": 5980,
  "\u2581lines": 5981,
  "\u2581ngole": 5982,
  "\u2581schedule": 5983,
  "\u2581setso": 5984,
  "\u2581symbolic": 5985,
  "\u2581Center": 5986,
  "\u2581Science": 5987,
  "\u2581View": 5988,
  "\u2581calamity": 5989,
  "\u2581explanation": 5990,
  "\u2581fetela": 5991,
  "\u2581islands": 5992,
  "\u2581messages": 5993,
  "\u2581seterateng": 5994,
  "\u2581talimana": 5995,
  "\u2581wrongdoing": 5996,
  "ance": 5997,
  "ous": 5998,
  "\u258111201": 5999,
  "\u2581Egyptian": 6000,
  "\u2581Lia": 6001,
  "\u2581cruel": 6002,
  "\u2581debt": 6003,
  "\u2581figure": 6004,
  "\u2581officer": 6005,
  "\u2581tiny": 6006,
  "\u2581Inthaneteng": 6007,
  "\u2581Philippines": 6008,
  "\u2581amoheleha": 6009,
  "\u2581arola": 6010,
  "\u2581current": 6011,
  "\u2581filosofi": 6012,
  "\u2581heads": 6013,
  "\u2581hla": 6014,
  "\u2581libukeng": 6015,
  "\u2581moroalo": 6016,
  "\u2581returning": 6017,
  "\u2581trusted": 6018,
  "\u2581Bosiu": 6019,
  "\u2581check": 6020,
  "\u2581contributed": 6021,
  "\u2581jobs": 6022,
  "\u2581mat\u0161oafo": 6023,
  "\u2581prisoners": 6024,
  "\u2581sources": 6025,
  "\u25812002": 6026,
  "\u2581Much": 6027,
  "\u2581crisis": 6028,
  "\u2581market": 6029,
  "\u2581moahelani": 6030,
  "\u2581southern": 6031,
  "2067,": 6032,
  "nye": 6033,
  "that": 6034,
  "\u2581Botle": 6035,
  "\u2581Interestingly": 6036,
  "\u2581abandon": 6037,
  "\u2581accompanied": 6038,
  "\u2581baratuoa": 6039,
  "\u2581believing": 6040,
  "\u2581empire": 6041,
  "\u2581heso": 6042,
  "\u2581partner": 6043,
  "\u2581tloaela": 6044,
  "tor": 6045,
  "\u2581Mar": 6046,
  "\u2581Mediterranean": 6047,
  "\u2581bafe": 6048,
  "\u2581hell": 6049,
  "\u2581maintaining": 6050,
  "\u2581mekae": 6051,
  "\u2581proverb": 6052,
  "\u2581set\u0161abelo": 6053,
  "age": 6054,
  "au": 6055,
  "ful": 6056,
  "\u2581holds": 6057,
  "\u2581karolelano": 6058,
  "\u2581khaello": 6059,
  "\u2581manyala": 6060,
  "\u2581pursuing": 6061,
  "\u2581readers": 6062,
  "\u2581sets": 6063,
  "\u2581Minor": 6064,
  "\u2581changing": 6065,
  "\u2581hatisitsoe": 6066,
  "\u2581ikopanya": 6067,
  "\u2581income": 6068,
  "\u2581kenela": 6069,
  "\u2581weaknesses": 6070,
  "lin": 6071,
  "\u2581Viewpoint": 6072,
  "\u2581boithatelo": 6073,
  "\u2581k\u014dpang": 6074,
  "\u2581lit\u0161ebelisano": 6075,
  "\u2581malaria": 6076,
  "\u2581mine": 6077,
  "\u2581preparing": 6078,
  "\u2581sorts": 6079,
  "\u2581thupeng": 6080,
  "\u2581winter": 6081,
  "\u25811918": 6082,
  "\u2581Baale": 6083,
  "\u2581Est": 6084,
  "\u2581Galilea": 6085,
  "\u2581creature": 6086,
  "\u2581design": 6087,
  "\u2581filoeng": 6088,
  "\u2581jele": 6089,
  "\u2581putsa": 6090,
  "\u2581soma": 6091,
  "ane": 6092,
  "chi": 6093,
  "moea": 6094,
  "\u2581BE": 6095,
  "\u2581Lichaba": 6096,
  "\u2581campaign": 6097,
  "\u2581drive": 6098,
  "\u2581imperfection": 6099,
  "\u2581largest": 6100,
  "\u2581lokoloha": 6101,
  "\u2581protected": 6102,
  "\u2581sexually": 6103,
  "\u2581symbol": 6104,
  "\u2581thankful": 6105,
  "\u2581warfare": 6106,
  "Empa": 6107,
  "ner": 6108,
  "\u2581Esau": 6109,
  "\u2581Tsena": 6110,
  "\u2581acknowledged": 6111,
  "\u2581etelletsa": 6112,
  "\u2581length": 6113,
  "\u2581lipere": 6114,
  "\u2581phahame": 6115,
  "\u2581shed": 6116,
  "ile": 6117,
  "\u2581Baal": 6118,
  "\u2581Moahloli": 6119,
  "\u2581Moscow": 6120,
  "\u2581Review": 6121,
  "\u2581Washington": 6122,
  "\u2581atametse": 6123,
  "\u2581bosupa": 6124,
  "\u2581disasters": 6125,
  "\u2581eliminate": 6126,
  "\u2581karabelo": 6127,
  "\u2581mistake": 6128,
  "\u2581polokelo": 6129,
  "\u2581qobelloa": 6130,
  "\u2581radio": 6131,
  "\u2581repeated": 6132,
  "\u2581seli": 6133,
  "com": 6134,
  "\u2581inherited": 6135,
  "\u2581lihlahisoa": 6136,
  "\u2581nyeoe": 6137,
  "\u2581realm": 6138,
  "\u2581turns": 6139,
  "\u2581worker": 6140,
  "ING": 6141,
  "\u2581Red": 6142,
  "\u2581awake": 6143,
  "\u2581khalemelo": 6144,
  "\u2581letsopa": 6145,
  "\u2581marital": 6146,
  "\u2581pick": 6147,
  "\u2581sebelisoe": 6148,
  "\u2581Chaena": 6149,
  "\u2581Lethathamo": 6150,
  "\u2581Martha": 6151,
  "\u2581beat": 6152,
  "\u2581b\u014dptjoa": 6153,
  "\u2581cup": 6154,
  "\u2581figurative": 6155,
  "\u2581floor": 6156,
  "\u2581hunger": 6157,
  "\u2581lawlessness": 6158,
  "\u2581likopano": 6159,
  "\u2581location": 6160,
  "\u2581matle": 6161,
  "\u2581prejudice": 6162,
  "eo": 6163,
  "va": 6164,
  "\u2581engaged": 6165,
  "\u2581flee": 6166,
  "\u2581grasp": 6167,
  "\u2581hlatsoa": 6168,
  "\u2581kotulo": 6169,
  "\u2581larger": 6170,
  "\u2581load": 6171,
  "\u2581pregnant": 6172,
  "\u2581Albert": 6173,
  "\u2581Likarabo": 6174,
  "\u2581assurance": 6175,
  "\u2581kolobetsoe": 6176,
  "\u2581toropong": 6177,
  "zi": 6178,
  "\u2581ends": 6179,
  "\u2581fresh": 6180,
  "\u2581illustrations": 6181,
  "\u2581koro": 6182,
  "\u2581lebitsong": 6183,
  "\u2581mat\u0161oele": 6184,
  "\u2581method": 6185,
  "\u2581searching": 6186,
  "\u2581sireletse": 6187,
  "\u2581surrounded": 6188,
  "\u2581t\u0161oant\u0161a": 6189,
  "\u2581Joel": 6190,
  "\u2581executed": 6191,
  "\u2581opposed": 6192,
  "\u2581pleasing": 6193,
  "ya": 6194,
  "\u2581Ex": 6195,
  "\u2581achieve": 6196,
  "\u2581drew": 6197,
  "\u2581khonehang": 6198,
  "\u2581killing": 6199,
  "\u2581lihlomo": 6200,
  "\u2581limitations": 6201,
  "\u2581lino": 6202,
  "\u2581scripture": 6203,
  "\u2581setulo": 6204,
  "our": 6205,
  "\u2581Welcome": 6206,
  "\u2581Which": 6207,
  "\u2581central": 6208,
  "\u2581difficulty": 6209,
  "\u2581harsh": 6210,
  "\u2581hlahela": 6211,
  "\u2581lowly": 6212,
  "\u2581motsoako": 6213,
  "\u2581nahanoa": 6214,
  "\u2581peers": 6215,
  "\u2581sefuba": 6216,
  "\u2581145": 6217,
  "\u2581Bohareng": 6218,
  "\u2581Lamb": 6219,
  "\u2581Modern": 6220,
  "\u2581Truly": 6221,
  "\u2581bokhoba": 6222,
  "\u2581hidden": 6223,
  "\u2581humankind": 6224,
  "\u2581liphallelo": 6225,
  "\u2581pako": 6226,
  "\u2581preceding": 6227,
  "\u2581proceeded": 6228,
  "\u2581range": 6229,
  "\u2581thrown": 6230,
  "\u2581tired": 6231,
  "\u2581tlisang": 6232,
  "\u2581urges": 6233,
  "\u2581Again": 6234,
  "\u2581BATHO": 6235,
  "\u2581Pes": 6236,
  "\u2581comment": 6237,
  "\u2581halefile": 6238,
  "\u2581khothalletsoa": 6239,
  "\u2581previously": 6240,
  "\u2581qojoa": 6241,
  "\u2581sebelisitse": 6242,
  "\u2581supplies": 6243,
  "\u2581tempted": 6244,
  "\u2581Little": 6245,
  "\u2581Table": 6246,
  "\u2581Worship": 6247,
  "\u2581bakileng": 6248,
  "\u2581bont\u0161itsoe": 6249,
  "\u2581dies": 6250,
  "\u2581fruits": 6251,
  "\u2581lisebelisoa": 6252,
  "\u2581mahlano": 6253,
  "\u2581ntan": 6254,
  "\u2581sang": 6255,
  "\u2581tendency": 6256,
  "\u2581worry": 6257,
  "\u25811935": 6258,
  "\u2581Galilee": 6259,
  "\u2581Leqephe": 6260,
  "\u2581Litlhaloso": 6261,
  "\u2581Mopapa": 6262,
  "\u2581Things": 6263,
  "\u2581conviction": 6264,
  "\u2581immortal": 6265,
  "\u2581lelekoa": 6266,
  "\u2581liphuputso": 6267,
  "\u2581mametse": 6268,
  "\u2581miracle": 6269,
  "\u2581rejoicing": 6270,
  "\u2581significance": 6271,
  "\u2581similarly": 6272,
  "\u2581thelefono": 6273,
  "\u2581Lecha": 6274,
  "\u2581Lenyalo": 6275,
  "\u2581Mabitso": 6276,
  "\u2581Manazi": 6277,
  "\u2581Stephen": 6278,
  "\u2581bora": 6279,
  "\u2581commonly": 6280,
  "\u2581etetse": 6281,
  "\u2581foolish": 6282,
  "\u2581judges": 6283,
  "\u2581mahe": 6284,
  "\u2581tlileng": 6285,
  "itse": 6286,
  "\u2581Ana": 6287,
  "\u2581BO": 6288,
  "\u2581Hezekiah": 6289,
  "\u2581MO": 6290,
  "\u2581Next": 6291,
  "\u2581bitter": 6292,
  "\u2581botsitso": 6293,
  "\u2581capacity": 6294,
  "\u2581driving": 6295,
  "\u2581extra": 6296,
  "\u2581forgiving": 6297,
  "\u2581possibility": 6298,
  "\u2581rue": 6299,
  "\u2581sufficient": 6300,
  "\u2581throw": 6301,
  "\u2581tiea": 6302,
  "ros": 6303,
  "\u2581compassionate": 6304,
  "\u2581depend": 6305,
  "\u2581fetoleloa": 6306,
  "\u2581intended": 6307,
  "\u2581iphetetsa": 6308,
  "\u2581motives": 6309,
  "\u2581surgery": 6310,
  "\u2581technology": 6311,
  "\u2581teenager": 6312,
  "\u2581Map": 6313,
  "\u2581etsahalla": 6314,
  "\u2581fetoloa": 6315,
  "\u2581identity": 6316,
  "\u2581lovingly": 6317,
  "\u2581thabeng": 6318,
  "\u2581thabetse": 6319,
  "\u2581Ephesus": 6320,
  "\u2581Lo": 6321,
  "\u2581amazing": 6322,
  "\u2581boeona": 6323,
  "\u2581maling": 6324,
  "\u2581ngotseng": 6325,
  "\u2581possession": 6326,
  "Mo": 6327,
  "are": 6328,
  "\u25812005": 6329,
  "\u2581End": 6330,
  "\u2581Kateng": 6331,
  "\u2581Maemo": 6332,
  "\u2581challenging": 6333,
  "\u2581choices": 6334,
  "\u2581disorder": 6335,
  "\u2581famine": 6336,
  "\u2581g": 6337,
  "\u2581lekanya": 6338,
  "\u2581mantsoeng": 6339,
  "\u2581sebelisitsoeng": 6340,
  "\u2581title": 6341,
  "\u2581types": 6342,
  "&": 6343,
  "\u2581Prayer": 6344,
  "\u2581Ukraine": 6345,
  "\u2581approaching": 6346,
  "\u2581demands": 6347,
  "\u2581operation": 6348,
  "\u2581Mesebetsi": 6349,
  "\u2581Notice": 6350,
  "\u2581Ntlo": 6351,
  "\u2581hit": 6352,
  "\u2581khethile": 6353,
  "\u2581khoela": 6354,
  "\u2581lips": 6355,
  "\u2581sat": 6356,
  "\u2581tlohe": 6357,
  "ent": 6358,
  "of": 6359,
  "tseng": 6360,
  "\u2581areka": 6361,
  "\u2581crowds": 6362,
  "\u2581emetse": 6363,
  "\u2581letsoai": 6364,
  "\u2581mahlonoko": 6365,
  "\u2581teenage": 6366,
  "\u2581upbuilding": 6367,
  "tsoa": 6368,
  "\u2581Avoid": 6369,
  "\u2581bride": 6370,
  "\u2581cure": 6371,
  "\u2581execution": 6372,
  "\u2581likampong": 6373,
  "\u2581lithabeng": 6374,
  "\u2581theory": 6375,
  "\u2581totally": 6376,
  "neng": 6377,
  "phatsa": 6378,
  "\u2581bolokang": 6379,
  "\u2581hatela": 6380,
  "\u2581kha": 6381,
  "\u2581pieces": 6382,
  "\u2581preserve": 6383,
  "\u2581teenagers": 6384,
  "\u2581testimony": 6385,
  "\u2581upset": 6386,
  "ut": 6387,
  "\u258156": 6388,
  "\u2581Abele": 6389,
  "\u2581Litlaleho": 6390,
  "\u2581Mok": 6391,
  "\u2581bonngoeng": 6392,
  "\u2581extend": 6393,
  "\u2581generous": 6394,
  "\u2581leseling": 6395,
  "\u2581litloaelo": 6396,
  "\u2581outlook": 6397,
  "\u2581relate": 6398,
  "\u2581resort": 6399,
  "\u2581unrighteous": 6400,
  "sis": 6401,
  "\u2581Association": 6402,
  "\u2581Mali": 6403,
  "\u2581Sona": 6404,
  "\u2581demand": 6405,
  "\u2581mid": 6406,
  "\u2581tlalehoa": 6407,
  "\u2581COVER": 6408,
  "\u2581Evidently": 6409,
  "\u2581Histori": 6410,
  "\u2581Making": 6411,
  "\u2581amehileng": 6412,
  "\u2581fat": 6413,
  "\u2581footnote": 6414,
  "\u2581moshemane": 6415,
  "\u2581nyutlelie": 6416,
  "\u2581sefefo": 6417,
  "\u2581Constantine": 6418,
  "\u2581Pilato": 6419,
  "\u2581Qoba": 6420,
  "\u2581Years": 6421,
  "\u2581hloohong": 6422,
  "\u2581maqhubu": 6423,
  "\u2581respected": 6424,
  "\u2581telephone": 6425,
  "etsa": 6426,
  "nd": 6427,
  "ris": 6428,
  "\u25811950": 6429,
  "\u2581Di": 6430,
  "\u2581Leviticus": 6431,
  "\u2581discussions": 6432,
  "\u2581fellang": 6433,
  "\u2581hloahloa": 6434,
  "\u2581khethollang": 6435,
  "\u2581opposers": 6436,
  "\u2581twice": 6437,
  "nya": 6438,
  "\u2581Bathesalonika": 6439,
  "\u2581Palo": 6440,
  "\u2581Spiritual": 6441,
  "\u2581Use": 6442,
  "\u2581commercial": 6443,
  "\u2581elsewhere": 6444,
  "\u2581hlaba": 6445,
  "\u2581meat": 6446,
  "\u2581nyolohela": 6447,
  "\u2581perfection": 6448,
  "\u2581phethang": 6449,
  "\u2581robetse": 6450,
  "ao": 6451,
  "\u2581Certainly": 6452,
  "\u2581Levitike": 6453,
  "\u2581addressed": 6454,
  "\u2581baloa": 6455,
  "\u2581hlalose": 6456,
  "\u2581thapelong": 6457,
  "der": 6458,
  "\u2581Aaron": 6459,
  "\u2581Bot\u0161epehi": 6460,
  "\u2581builoeng": 6461,
  "\u2581entirely": 6462,
  "\u2581lefifing": 6463,
  "\u2581phaello": 6464,
  "\u2581putsoa": 6465,
  "\u2581tlalehiloe": 6466,
  "\u2581tsamaisang": 6467,
  "\u2581Gospels": 6468,
  "\u2581acquire": 6469,
  "\u2581benefited": 6470,
  "\u2581bobebe": 6471,
  "\u2581finyelloa": 6472,
  "\u2581koala": 6473,
  "\u2581publicly": 6474,
  "\u2581regardless": 6475,
  "\u2581rewarded": 6476,
  "ating": 6477,
  "\u2581Leng": 6478,
  "\u2581Ten": 6479,
  "\u2581equipped": 6480,
  "\u2581examination": 6481,
  "\u2581friendly": 6482,
  "\u2581t\u0161oarehile": 6483,
  "\u2581t\u0161oarele": 6484,
  "\u2581Part": 6485,
  "\u2581Right": 6486,
  "\u2581attain": 6487,
  "\u2581babe": 6488,
  "\u2581chefo": 6489,
  "\u2581educational": 6490,
  "\u2581hlohonolofatsoa": 6491,
  "\u2581mongata": 6492,
  "\u2581phomola": 6493,
  "\u2581rewarding": 6494,
  "\u2581susumelletseha": 6495,
  "16": 6496,
  "fo": 6497,
  "\u2581Kopano": 6498,
  "\u2581begun": 6499,
  "\u2581delighted": 6500,
  "\u2581kopaneng": 6501,
  "\u2581lebelloang": 6502,
  "\u2581obvious": 6503,
  "\u2581whereas": 6504,
  "io": 6505,
  "litse": 6506,
  "\u2581bohloeki": 6507,
  "\u2581director": 6508,
  "\u2581practiced": 6509,
  "\u2581reminds": 6510,
  "\u2581tlalehong": 6511,
  "\u2581Libuka": 6512,
  "\u2581admit": 6513,
  "\u2581fitting": 6514,
  "\u2581lehong": 6515,
  "\u2581lithutong": 6516,
  "\u2581phethoa": 6517,
  "\u2581records": 6518,
  "\u2581ruled": 6519,
  "\u2581talked": 6520,
  "\u2581ungodly": 6521,
  "\u2581waste": 6522,
  "op": 6523,
  "\u2581Asa": 6524,
  "\u2581Ne": 6525,
  "\u2581Pilate": 6526,
  "\u2581Temana": 6527,
  "\u2581ahloleloa": 6528,
  "\u2581glorify": 6529,
  "\u2581laeloa": 6530,
  "\u2581linked": 6531,
  "\u2581phethahatso": 6532,
  "\u2581refreshing": 6533,
  "\u2581satisfy": 6534,
  "\u2581serpent": 6535,
  "\u2581stands": 6536,
  "\u2581tear": 6537,
  "\u2581tsebahatsa": 6538,
  "ated": 6539,
  "\u00e3o": 6540,
  "\u2581Baegepeta": 6541,
  "\u2581Leoatleng": 6542,
  "\u2581Pe\u014d": 6543,
  "\u2581applies": 6544,
  "\u2581bahlano": 6545,
  "\u2581climate": 6546,
  "\u2581ikemiselitseng": 6547,
  "\u2581memeloa": 6548,
  "\u2581Tyndale": 6549,
  "\u2581bashanyana": 6550,
  "\u2581covering": 6551,
  "\u2581f": 6552,
  "\u2581hlokahaleng": 6553,
  "\u2581lebese": 6554,
  "\u2581mahlaseli": 6555,
  "\u2581meek": 6556,
  "\u2581molomong": 6557,
  "\u2581plenty": 6558,
  "\u2581poured": 6559,
  "\u2581residents": 6560,
  "\u2581sehlekehlekeng": 6561,
  "\u2581strengthening": 6562,
  "Ma": 6563,
  "\u2581Andrew": 6564,
  "\u2581Master": 6565,
  "\u2581injury": 6566,
  "\u2581itima": 6567,
  "\u2581listeners": 6568,
  "\u2581moleli": 6569,
  "\u2581moso": 6570,
  "\u2581obeying": 6571,
  "\u2581patiently": 6572,
  "\u2581qalileng": 6573,
  "\u2581station": 6574,
  "\u2581Art": 6575,
  "\u2581Long": 6576,
  "\u2581Unlike": 6577,
  "\u2581bohlano": 6578,
  "\u2581botsofali": 6579,
  "\u2581faces": 6580,
  "\u2581ferekane": 6581,
  "\u2581judicial": 6582,
  "\u2581laole": 6583,
  "\u2581letetse": 6584,
  "\u2581utloisisang": 6585,
  "\u2581weather": 6586,
  "et": 6587,
  "ff": 6588,
  "ina": 6589,
  "loe": 6590,
  "per": 6591,
  "\u2581Armagedone": 6592,
  "\u2581ate": 6593,
  "\u2581boetsalibe": 6594,
  "\u2581commandment": 6595,
  "\u2581khelosa": 6596,
  "\u2581laoloang": 6597,
  "\u2581mariha": 6598,
  "\u2581seventh": 6599,
  "\u25811941": 6600,
  "\u25811960": 6601,
  "\u2581Creation": 6602,
  "\u2581Need": 6603,
  "\u2581SEHLOOHO": 6604,
  "\u2581Sekete": 6605,
  "\u2581accused": 6606,
  "\u2581emelang": 6607,
  "\u2581hl\u014dlehile": 6608,
  "\u2581illustrated": 6609,
  "\u2581informed": 6610,
  "\u2581lebaleng": 6611,
  "\u2581lehaeng": 6612,
  "\u2581lekanngoa": 6613,
  "\u2581mathoaso": 6614,
  "\u2581menehelo": 6615,
  "\u2581motlotlo": 6616,
  "\u2581neano": 6617,
  "\u2581thibeloa": 6618,
  "\u2581t\u0161epahaleng": 6619,
  "ac": 6620,
  "ard": 6621,
  "\u258118;": 6622,
  "\u25812]": 6623,
  "\u2581Any": 6624,
  "\u2581Etsang": 6625,
  "\u2581criminal": 6626,
  "\u2581esele": 6627,
  "\u2581evangeli": 6628,
  "\u2581lineano": 6629,
  "\u2581lipuisano": 6630,
  "\u2581stronger": 6631,
  "\u2581tsejoe": 6632,
  "\u2581t\u0161oeu": 6633,
  "ran": 6634,
  "\u2581Mom": 6635,
  "\u2581Trust": 6636,
  "\u2581bus": 6637,
  "\u2581hlahise": 6638,
  "\u2581infected": 6639,
  "\u2581sekhahla": 6640,
  "\u2581tested": 6641,
  "Why": 6642,
  "qui": 6643,
  "\u2581Jordan": 6644,
  "\u2581pollution": 6645,
  "\u2581qosa": 6646,
  "\u2581shebile": 6647,
  "\u2581survival": 6648,
  "\u2581Island": 6649,
  "\u2581Sebele": 6650,
  "\u2581amahanngoa": 6651,
  "\u2581hlahlobisisa": 6652,
  "\u2581setopo": 6653,
  "\u2581t\u0161itiso": 6654,
  "\u2581AS": 6655,
  "\u2581Archive": 6656,
  "\u2581Herod": 6657,
  "\u2581Ro": 6658,
  "\u2581akaretsa": 6659,
  "\u2581likopanong": 6660,
  "\u2581mano": 6661,
  "\u2581mapheo": 6662,
  "\u2581portion": 6663,
  "\u2581sentence": 6664,
  "18": 6665,
  "\u2581Baahi": 6666,
  "\u2581Dead": 6667,
  "\u2581Ezekiase": 6668,
  "\u2581Library": 6669,
  "\u2581bahlaseluoa": 6670,
  "\u2581immediate": 6671,
  "\u2581makasineng": 6672,
  "\u2581reside": 6673,
  "\u2581shoang": 6674,
  "\u2581silent": 6675,
  "\u2581staff": 6676,
  "\u2581Bolela": 6677,
  "\u2581Heroda": 6678,
  "\u2581Iseraeleng": 6679,
  "\u2581NE": 6680,
  "\u2581Portugal": 6681,
  "\u2581baphaphathehi": 6682,
  "\u2581fuoang": 6683,
  "\u2581hle": 6684,
  "\u2581hula": 6685,
  "\u2581maele": 6686,
  "\u2581recreation": 6687,
  "\u25812004": 6688,
  "\u2581Age": 6689,
  "\u2581Likhoeli": 6690,
  "\u2581bolellang": 6691,
  "\u2581buildings": 6692,
  "\u2581discussing": 6693,
  "\u2581doors": 6694,
  "\u2581fought": 6695,
  "\u2581guided": 6696,
  "\u2581jealousy": 6697,
  "\u2581mates": 6698,
  "\u2581milk": 6699,
  "\u2581t\u0161elisang": 6700,
  "\u2581urge": 6701,
  "By": 6702,
  "ela": 6703,
  "\u2581IT": 6704,
  "\u2581Macedonia": 6705,
  "\u2581Molaetsa": 6706,
  "\u2581ban": 6707,
  "\u2581morally": 6708,
  "\u2581profound": 6709,
  "\u2581tekano": 6710,
  "\u2581tlohang": 6711,
  "\u2581t\u0161ilafalo": 6712,
  "\u2581witnessed": 6713,
  "LE": 6714,
  "\u25812,000": 6715,
  "\u2581Near": 6716,
  "\u2581baahisani": 6717,
  "\u2581bootsoa": 6718,
  "\u2581hlekeng": 6719,
  "\u2581hoped": 6720,
  "\u2581inspiring": 6721,
  "\u2581iphelisa": 6722,
  "\u2581lefeelleng": 6723,
  "\u2581lumellang": 6724,
  "\u2581weakness": 6725,
  "\u2581Far": 6726,
  "\u2581Motsoalle": 6727,
  "\u2581Sofonia": 6728,
  "\u2581bones": 6729,
  "\u2581celebration": 6730,
  "\u2581concept": 6731,
  "\u2581dollars": 6732,
  "\u2581exchange": 6733,
  "\u2581liha": 6734,
  "\u2581likeletso": 6735,
  "\u2581periods": 6736,
  "\u2581permission": 6737,
  "\u258115;": 6738,
  "\u2581Committee": 6739,
  "\u2581Page": 6740,
  "\u2581Y": 6741,
  "\u2581ahiloeng": 6742,
  "\u2581application": 6743,
  "\u2581chesoa": 6744,
  "\u2581ikitlaetsa": 6745,
  "\u2581laea": 6746,
  "\u2581speed": 6747,
  "\u2581Boloka": 6748,
  "\u2581Dan": 6749,
  "\u2581Linako": 6750,
  "\u2581Were": 6751,
  "\u2581boipheliso": 6752,
  "\u2581hopotse": 6753,
  "\u2581limits": 6754,
  "\u2581litlhaku": 6755,
  "\u2581prosperity": 6756,
  "\u2581t\u0161oarang": 6757,
  "\u2581t\u0161oenyang": 6758,
  "pho": 6759,
  "\u2581700": 6760,
  "\u2581Contents": 6761,
  "\u2581Lines": 6762,
  "\u2581Moprista": 6763,
  "\u2581Vi": 6764,
  "\u2581arrival": 6765,
  "\u2581east": 6766,
  "\u2581eternity": 6767,
  "\u2581likolo": 6768,
  "\u2581lokisoa": 6769,
  "\u2581mesuoe": 6770,
  "\u2581producing": 6771,
  "\u2581sending": 6772,
  "\u2581temo": 6773,
  "\u2581theola": 6774,
  "\u2581t\u0161imolohong": 6775,
  "om": 6776,
  "\u2581Index": 6777,
  "\u2581Zephaniah": 6778,
  "\u2581forests": 6779,
  "\u2581hopes": 6780,
  "\u2581ikokobelletsa": 6781,
  "\u2581khomo": 6782,
  "\u2581lithibelo": 6783,
  "\u2581tongues": 6784,
  "\u258164": 6785,
  "\u2581Eteloa": 6786,
  "\u2581Frank": 6787,
  "\u2581IS": 6788,
  "\u2581Lenaneo": 6789,
  "\u2581Zealand": 6790,
  "\u2581bokoenehi": 6791,
  "\u2581declaring": 6792,
  "\u2581lengolong": 6793,
  "\u2581qoso": 6794,
  "\u2581remembered": 6795,
  "cha": 6796,
  "\u2581Berlin": 6797,
  "\u2581Middle": 6798,
  "\u2581Tseo": 6799,
  "\u2581Wisdom": 6800,
  "\u2581iphapanyetsa": 6801,
  "\u2581kh\u014dl\u014dhali": 6802,
  "\u2581ler\u014dle": 6803,
  "\u2581monehelo": 6804,
  "\u2581ruile": 6805,
  "Ntate": 6806,
  "\u2581(\"": 6807,
  "\u25811984": 6808,
  "\u25812003": 6809,
  "\u2581Lintlha": 6810,
  "\u2581Mojuda": 6811,
  "\u2581bafo": 6812,
  "\u2581game": 6813,
  "\u2581professional": 6814,
  "\u2581separated": 6815,
  "\u2581thollo": 6816,
  "\u2581trusting": 6817,
  "\u25811947": 6818,
  "\u2581Chinese": 6819,
  "\u2581Insight": 6820,
  "\u2581Jah": 6821,
  "\u2581Ngoanana": 6822,
  "\u2581Polelo": 6823,
  "\u2581Pope": 6824,
  "\u2581SEO": 6825,
  "\u2581Siberia": 6826,
  "\u2581double": 6827,
  "\u2581enables": 6828,
  "\u2581facilities": 6829,
  "\u2581metal": 6830,
  "\u2581moeli": 6831,
  "\u2581Eli": 6832,
  "\u2581Gen": 6833,
  "\u2581Jehu": 6834,
  "\u2581Komiti": 6835,
  "\u2581Try": 6836,
  "\u2581baahloli": 6837,
  "\u2581exact": 6838,
  "\u2581hide": 6839,
  "\u2581nehela": 6840,
  "\u2581post": 6841,
  "\u2581preserved": 6842,
  "\u2581sacrificing": 6843,
  "\u25811914,": 6844,
  "\u2581abela": 6845,
  "\u2581ages": 6846,
  "\u2581bake": 6847,
  "\u2581defense": 6848,
  "\u2581di": 6849,
  "\u2581expensive": 6850,
  "\u2581fumanoeng": 6851,
  "\u2581imprisoned": 6852,
  "\u2581latter": 6853,
  "\u2581nkoang": 6854,
  "\u2581objects": 6855,
  "\u2581occurs": 6856,
  "\u2581plague": 6857,
  "\u2581strange": 6858,
  "\u2581(4)": 6859,
  "\u258142.": 6860,
  "\u2581Judge": 6861,
  "\u2581Likosepele": 6862,
  "\u2581bokhobeng": 6863,
  "\u2581era": 6864,
  "\u2581hungry": 6865,
  "\u2581lipono": 6866,
  "\u2581pope": 6867,
  "\u2581prefer": 6868,
  "\u2581surprising": 6869,
  "\u2581tlhapi": 6870,
  "ally": 6871,
  "\u2581Liketsahalo": 6872,
  "\u2581carbon": 6873,
  "\u2581ensure": 6874,
  "\u2581intelligent": 6875,
  "\u2581103": 6876,
  "\u2581Answers": 6877,
  "\u2581Linaha": 6878,
  "\u2581dating": 6879,
  "\u2581ikemisetse": 6880,
  "\u2581khethe": 6881,
  "\u2581lithunya": 6882,
  "\u2581ntlafala": 6883,
  "\u2581sell": 6884,
  "\u2581timela": 6885,
  "\u2581Boiteko": 6886,
  "\u2581Haufi": 6887,
  "\u2581Last": 6888,
  "\u2581Pictorial": 6889,
  "\u2581Zion": 6890,
  "\u2581announced": 6891,
  "\u2581character": 6892,
  "\u2581effectively": 6893,
  "\u2581hospitality": 6894,
  "\u2581ipakile": 6895,
  "\u2581manyalo": 6896,
  "\u2581printing": 6897,
  "\u2581salt": 6898,
  "\u2581storm": 6899,
  "\u2581utloahaleng": 6900,
  "\u2581volunteers": 6901,
  "Near": 6902,
  "ku": 6903,
  "she": 6904,
  "tz": 6905,
  "\u25811983": 6906,
  "\u2581Metsi": 6907,
  "\u2581Sam": 6908,
  "\u2581acquainted": 6909,
  "\u2581impression": 6910,
  "\u2581khutso": 6911,
  "\u2581moahloli": 6912,
  "\u2581spring": 6913,
  "mon": 6914,
  "\u2581(19": 6915,
  "\u2581Bomolimo": 6916,
  "\u2581Malapa": 6917,
  "\u2581cha": 6918,
  "\u2581industry": 6919,
  "\u2581materials": 6920,
  "\u2581worst": 6921,
  "ze": 6922,
  "\u258183": 6923,
  "\u2581HOW": 6924,
  "\u2581akareletsa": 6925,
  "\u2581expressing": 6926,
  "\u2581likhatello": 6927,
  "\u2581oppression": 6928,
  "\u2581participate": 6929,
  "\u2581prize": 6930,
  "\u2581tsatsi": 6931,
  "\u2581tsositsoeng": 6932,
  "Who": 6933,
  "\u2581Lona": 6934,
  "\u2581Paulo": 6935,
  "\u2581Sejuda": 6936,
  "\u2581bafuputsi": 6937,
  "\u2581bomoea": 6938,
  "\u2581cried": 6939,
  "\u2581desirable": 6940,
  "\u2581despair": 6941,
  "\u2581expectations": 6942,
  "\u2581green": 6943,
  "\u2581handed": 6944,
  "\u2581moprofesa": 6945,
  "\u2581phatloha": 6946,
  "\u2581settled": 6947,
  "\u2581transfusions": 6948,
  "tso": 6949,
  "\u2581Enoch": 6950,
  "\u2581anti": 6951,
  "\u2581baithaopi": 6952,
  "\u2581bank": 6953,
  "\u2581bolaoe": 6954,
  "\u2581boroko": 6955,
  "\u2581considerable": 6956,
  "\u2581kamanong": 6957,
  "\u2581khothaletsa": 6958,
  "\u2581lift": 6959,
  "\u2581limo": 6960,
  "\u2581narrow": 6961,
  "\u2581press": 6962,
  "\u2581prophesied": 6963,
  "\u2581statements": 6964,
  "Hobane": 6965,
  "IN": 6966,
  "\u2581highest": 6967,
  "\u2581hlahlojoa": 6968,
  "\u2581increasingly": 6969,
  "\u2581letsa": 6970,
  "\u2581muelli": 6971,
  "\u2581privileged": 6972,
  "\u2581tragedy": 6973,
  "\u2581tsitsitseng": 6974,
  "Your": 6975,
  "lefat\u0161e": 6976,
  "\u25811989,": 6977,
  "\u2581Divine": 6978,
  "\u2581Meanwhile": 6979,
  "\u2581THIS": 6980,
  "\u2581Testamente": 6981,
  "\u2581globe": 6982,
  "\u2581hleke": 6983,
  "\u2581ima": 6984,
  "\u2581lutseng": 6985,
  "\u2581mene": 6986,
  "\u2581plain": 6987,
  "\u2581produces": 6988,
  "\u2581prospects": 6989,
  "\u2581rescue": 6990,
  "\u2581thibelo": 6991,
  "\u2581tiiso": 6992,
  "\u2581tloaetseng": 6993,
  "AN": 6994,
  "\u2581En": 6995,
  "\u2581Learning": 6996,
  "\u2581fault": 6997,
  "\u2581masholu": 6998,
  "\u2581racial": 6999,
  "\u2581sebetsane": 7000,
  "\u2581shoulder": 7001,
  "\u2581star": 7002,
  "\u2581status": 7003,
  "motho": 7004,
  "red": 7005,
  "tion": 7006,
  "\u258173": 7007,
  "\u2581DNA": 7008,
  "\u2581exert": 7009,
  "\u2581lijong": 7010,
  "\u2581mabe": 7011,
  "\u2581masimo": 7012,
  "\u2581product": 7013,
  "\u2581tlh\u014dlisano": 7014,
  "\u2581t\u0161oanetseng": 7015,
  "shi": 7016,
  "\u258132,": 7017,
  "\u2581Baahloli": 7018,
  "\u2581Elizabeth": 7019,
  "\u2581Galata": 7020,
  "\u2581Hannah": 7021,
  "\u2581Jordane": 7022,
  "\u2581LI": 7023,
  "\u2581destructive": 7024,
  "\u2581governing": 7025,
  "\u2581ikokobelitse": 7026,
  "\u2581kokoana": 7027,
  "bongata": 7028,
  "gu": 7029,
  "\u2581Department": 7030,
  "\u2581Draw": 7031,
  "\u2581Finland": 7032,
  "\u2581bright": 7033,
  "\u2581mpefala": 7034,
  "\u2581namely": 7035,
  "\u2581openly": 7036,
  "\u2581tlalehile": 7037,
  "\u2581yoke": 7038,
  "letting": 7039,
  "\u2581Mokete": 7040,
  "\u2581deeper": 7041,
  "\u2581farm": 7042,
  "\u2581hated": 7043,
  "\u2581holofetseng": 7044,
  "\u2581maleme": 7045,
  "\u2581poleloana": 7046,
  "\u2581presents": 7047,
  "\u2581proclaimers": 7048,
  "\u2581shape": 7049,
  "hang": 7050,
  "heng": 7051,
  "hla": 7052,
  "keep": 7053,
  "\u258133,": 7054,
  "\u2581800": 7055,
  "\u2581Bohloko": 7056,
  "\u2581Italian": 7057,
  "\u2581Kotsi": 7058,
  "\u2581afflicted": 7059,
  "\u2581kopa": 7060,
  "\u2581lateloa": 7061,
  "\u2581tiisoa": 7062,
  "\u2581vain": 7063,
  "Bo": 7064,
  "ists": 7065,
  "\u2581Gentiles": 7066,
  "\u2581Konyana": 7067,
  "\u2581Monghali": 7068,
  "\u2581discover": 7069,
  "\u2581experiencing": 7070,
  "\u2581fetohang": 7071,
  "\u2581lika": 7072,
  "\u2581maiketsetso": 7073,
  "\u2581measures": 7074,
  "\u2581minded": 7075,
  "\u2581shame": 7076,
  "ical": 7077,
  "\u2581Additionally": 7078,
  "\u2581Co": 7079,
  "\u2581Mamela": 7080,
  "\u2581attractive": 7081,
  "\u2581feto": 7082,
  "\u2581liketsong": 7083,
  "\u2581t\u0161episitse": 7084,
  "\u2581virtue": 7085,
  "Bonang": 7086,
  "ise": 7087,
  "rd": 7088,
  "\u25812006": 7089,
  "\u25812483": 7090,
  "\u2581250": 7091,
  "\u2581Bongata": 7092,
  "\u2581Close": 7093,
  "\u2581Denmark": 7094,
  "\u2581Jonathane": 7095,
  "\u2581adopt": 7096,
  "\u2581babies": 7097,
  "\u2581endless": 7098,
  "\u2581foods": 7099,
  "\u2581healed": 7100,
  "\u2581manuscripts": 7101,
  "\u2581n\u0123a": 7102,
  "\u2581repent": 7103,
  "\u2581stage": 7104,
  "\u2581strike": 7105,
  "\u2581tekanyetso": 7106,
  "\u2581tent": 7107,
  "\u2581tragic": 7108,
  "\u2581t\u0161ehetse": 7109,
  "j": 7110,
  "ley": 7111,
  "new": 7112,
  "\u2581Seboka": 7113,
  "\u2581fifth": 7114,
  "\u2581haella": 7115,
  "\u2581khathollang": 7116,
  "\u2581khotsong": 7117,
  "\u2581lacking": 7118,
  "\u2581lintoeng": 7119,
  "\u2581mekhoeng": 7120,
  "\u2581pa": 7121,
  "\u2581structure": 7122,
  "mu": 7123,
  "\u25811946": 7124,
  "\u2581apere": 7125,
  "\u2581bought": 7126,
  "\u2581fetisisang": 7127,
  "\u2581leloko": 7128,
  "\u2581lifestyle": 7129,
  "\u2581native": 7130,
  "\u2581otloa": 7131,
  "\u2581t": 7132,
  "\u2581taste": 7133,
  "\u2581tona": 7134,
  "17": 7135,
  "\u2581Barab": 7136,
  "\u2581Ebile": 7137,
  "\u2581babali": 7138,
  "\u2581bokolla": 7139,
  "\u2581grandparents": 7140,
  "\u2581hanyane": 7141,
  "\u2581mokhoeng": 7142,
  "\u2581mosuoe": 7143,
  "\u2581sky": 7144,
  "ele": 7145,
  "\u2581Bokamoso": 7146,
  "\u2581Rwanda": 7147,
  "\u2581Tom": 7148,
  "\u2581apparent": 7149,
  "\u2581buellang": 7150,
  "\u2581choosing": 7151,
  "\u2581comfortable": 7152,
  "\u2581detail": 7153,
  "\u2581exciting": 7154,
  "\u2581flood": 7155,
  "\u2581hlabang": 7156,
  "\u2581hloa": 7157,
  "\u2581lady": 7158,
  "\u2581onto": 7159,
  "\u2581originally": 7160,
  "\u2581party": 7161,
  "\u2581rage": 7162,
  "\u2581weekly": 7163,
  "Go": 7164,
  "\u2581Ann": 7165,
  "\u2581Belgium": 7166,
  "\u2581Likely": 7167,
  "\u2581badness": 7168,
  "\u2581bobolu": 7169,
  "\u2581b\u014dpileng": 7170,
  "\u2581fishing": 7171,
  "\u2581khaotseng": 7172,
  "\u2581khatholla": 7173,
  "\u2581khotsofala": 7174,
  "\u2581nyahamisa": 7175,
  "\u2581piece": 7176,
  "\u2581pursuit": 7177,
  "\u2581senses": 7178,
  "\u2581surrounding": 7179,
  "ler": 7180,
  "\u2581Barutuoa": 7181,
  "\u2581Boitsebiso": 7182,
  "\u2581Lithuto": 7183,
  "\u2581domestic": 7184,
  "\u2581h\u014dletse": 7185,
  "\u2581moru": 7186,
  "\u2581nthusitse": 7187,
  "\u2581nyehela": 7188,
  "\u2581passage": 7189,
  "\u2581ratile": 7190,
  "\u2581remote": 7191,
  "\u2581sekisetseng": 7192,
  "\u2581shebahala": 7193,
  "\u2581tataisoa": 7194,
  "ria": 7195,
  "\u2581Con": 7196,
  "\u2581balla": 7197,
  "\u2581host": 7198,
  "\u2581int\u0161a": 7199,
  "\u2581likened": 7200,
  "\u2581miss": 7201,
  "\u2581nt\u0161ang": 7202,
  "\u2581qetellang": 7203,
  "\u2581shebe": 7204,
  "\u2581silafatsa": 7205,
  "\u2581supposed": 7206,
  "\u2581tlhahlobo": 7207,
  "fapheng": 7208,
  "\u2581assume": 7209,
  "\u2581avoided": 7210,
  "\u2581compromise": 7211,
  "\u2581eketsehile": 7212,
  "\u2581fled": 7213,
  "\u2581lethathamo": 7214,
  "\u2581meantime": 7215,
  "\u2581production": 7216,
  "\u2581qhekella": 7217,
  "\u2581sing": 7218,
  "\u2581unknown": 7219,
  "matla": 7220,
  "\u25811942": 7221,
  "\u258163": 7222,
  "\u2581Everyone": 7223,
  "\u2581Happiness": 7224,
  "\u2581Indian": 7225,
  "\u2581Nisane": 7226,
  "\u2581Religious": 7227,
  "\u2581card": 7228,
  "\u2581cultures": 7229,
  "\u2581defend": 7230,
  "\u2581entrusted": 7231,
  "\u2581molemonyana": 7232,
  "\u2581observing": 7233,
  "\u2581permitted": 7234,
  "\u2581thoroughly": 7235,
  "\u2581typical": 7236,
  "hile": 7237,
  "\u2581Hu": 7238,
  "\u2581Nisan": 7239,
  "\u2581Sabbath": 7240,
  "\u2581Thutong": 7241,
  "\u2581ak": 7242,
  "\u2581alcoholic": 7243,
  "\u2581barui": 7244,
  "\u2581equipment": 7245,
  "\u2581heal": 7246,
  "\u2581influences": 7247,
  "\u2581literateng": 7248,
  "\u2581rendering": 7249,
  "\u2581submit": 7250,
  "\u2581tlaasana": 7251,
  "\u2581t\u0161oarella": 7252,
  "Kea": 7253,
  "\u2581Heart": 7254,
  "\u2581Mapa": 7255,
  "\u2581commented": 7256,
  "\u2581eagerly": 7257,
  "\u2581earnestly": 7258,
  "\u2581feeding": 7259,
  "\u2581levels": 7260,
  "\u2581lumelisa": 7261,
  "\u2581memories": 7262,
  "\u2581realistic": 7263,
  "\u2581respects": 7264,
  "\u2581sole": 7265,
  "\u2581temper": 7266,
  "\u2581Bua": 7267,
  "\u2581Elders": 7268,
  "\u2581deaths": 7269,
  "\u2581desired": 7270,
  "\u2581duties": 7271,
  "\u2581mosi": 7272,
  "\u2581qaleha": 7273,
  "\u2581sensitive": 7274,
  "tsoeng": 7275,
  "\u2581Ar": 7276,
  "\u2581Live": 7277,
  "\u2581ashamed": 7278,
  "\u2581depth": 7279,
  "\u2581leta": 7280,
  "\u2581marriages": 7281,
  "\u2581minor": 7282,
  "\u2581nyakallo": 7283,
  "\u2581objective": 7284,
  "\u2581strongly": 7285,
  "\u2581treasures": 7286,
  "\u2581t\u0161oaetsanoang": 7287,
  "\u2581Kanana": 7288,
  "\u2581Pale": 7289,
  "\u2581Qeto": 7290,
  "\u2581anxieties": 7291,
  "\u2581fofa": 7292,
  "\u2581infant": 7293,
  "\u2581kete": 7294,
  "\u2581mesifa": 7295,
  "\u2581moroallo": 7296,
  "\u2581resolved": 7297,
  "\u2581sekhukhu": 7298,
  "\u2581starting": 7299,
  "\u2581tekong": 7300,
  "\u2581110": 7301,
  "\u2581Supreme": 7302,
  "\u2581Tsamaiso": 7303,
  "\u2581adjust": 7304,
  "\u2581atlehile": 7305,
  "\u2581grant": 7306,
  "\u2581hlajoa": 7307,
  "\u2581hlorisa": 7308,
  "\u2581ideal": 7309,
  "\u2581lemohe": 7310,
  "\u2581mohono": 7311,
  "\u2581outset": 7312,
  "\u2581tsoile": 7313,
  "\u2581willingness": 7314,
  "pu": 7315,
  "\u2581Ancient": 7316,
  "\u2581Jersey": 7317,
  "\u2581Judges": 7318,
  "\u2581Power": 7319,
  "\u2581Sodom": 7320,
  "\u2581Sydney": 7321,
  "\u2581afford": 7322,
  "\u2581bashemane": 7323,
  "\u2581driver": 7324,
  "\u2581hakanngoa": 7325,
  "\u2581initial": 7326,
  "\u2581manifested": 7327,
  "\u2581meputso": 7328,
  "\u2581motive": 7329,
  "\u2581nyelisa": 7330,
  "\u2581parental": 7331,
  "\u2581rapelle": 7332,
  "\u2581rapidly": 7333,
  "\u2581sincerely": 7334,
  "\u2581toropo": 7335,
  "\u2581utloisoa": 7336,
  "LI": 7337,
  "\u2581Against": 7338,
  "\u2581Daily": 7339,
  "\u2581Po": 7340,
  "\u2581amoha": 7341,
  "\u2581gossip": 7342,
  "\u2581hlahelletseng": 7343,
  "\u2581hlalositsoeng": 7344,
  "\u2581qosoa": 7345,
  "\u2581temohisiso": 7346,
  "\u2581toro": 7347,
  "\u2581t\u0161oant\u0161oa": 7348,
  "\u2581utloeng": 7349,
  "\u2581Ever": 7350,
  "\u2581Judas": 7351,
  "\u2581Morao": 7352,
  "\u2581Setsi": 7353,
  "\u2581chemical": 7354,
  "\u2581fete": 7355,
  "\u2581idols": 7356,
  "\u2581lahlela": 7357,
  "\u2581lentsoeng": 7358,
  "\u2581maintained": 7359,
  "\u2581rid": 7360,
  "\u2581strangers": 7361,
  "\u2581traffic": 7362,
  "%": 7363,
  "ite": 7364,
  "time": 7365,
  "\u2581Lu": 7366,
  "\u2581ahloloa": 7367,
  "\u2581bird": 7368,
  "\u2581distributed": 7369,
  "\u2581koalloa": 7370,
  "\u2581loneliness": 7371,
  "\u2581sayings": 7372,
  "\u2581thahaselle": 7373,
  "\u2581t\u0161oarellang": 7374,
  "kha": 7375,
  "mar": 7376,
  "\u25811985": 7377,
  "\u2581Web": 7378,
  "\u2581armed": 7379,
  "\u2581disobedience": 7380,
  "\u2581fair": 7381,
  "\u2581reflects": 7382,
  "\u2581represents": 7383,
  "\u2581seeds": 7384,
  "\u2581theiloeng": 7385,
  "other": 7386,
  "res": 7387,
  "\u258145.": 7388,
  "\u2581Above": 7389,
  "\u2581Ohio": 7390,
  "\u2581Sch": 7391,
  "\u2581arrive": 7392,
  "\u2581bakile": 7393,
  "\u2581behileng": 7394,
  "\u2581billions": 7395,
  "\u2581friendships": 7396,
  "\u2581hanyetsang": 7397,
  "\u2581hatellang": 7398,
  "\u2581noe": 7399,
  "\u2581safeguard": 7400,
  "\u2581survivors": 7401,
  "\u2581tsosang": 7402,
  "\u2581wealthy": 7403,
  "ld": 7404,
  "there": 7405,
  "tra": 7406,
  "\u25811975": 7407,
  "\u2581Bethlehem": 7408,
  "\u2581Prov": 7409,
  "\u2581Sepheo": 7410,
  "\u2581Univesithing": 7411,
  "\u2581bahalaleli": 7412,
  "\u2581conversations": 7413,
  "\u2581dramatic": 7414,
  "\u2581flowers": 7415,
  "\u2581follows": 7416,
  "\u2581horse": 7417,
  "\u2581pepesa": 7418,
  "\u2581reduced": 7419,
  "\u2581regret": 7420,
  "\u2581ruisa": 7421,
  "\u2581sounds": 7422,
  "\u2581t\u0161okelo": 7423,
  "iv": 7424,
  "ron": 7425,
  "ten": 7426,
  "\u25812007": 7427,
  "\u2581Bakor": 7428,
  "\u2581Hungary": 7429,
  "\u2581Sodoma": 7430,
  "\u2581Te": 7431,
  "\u2581asleep": 7432,
  "\u2581catch": 7433,
  "\u2581deadly": 7434,
  "\u2581festival": 7435,
  "\u2581habobebe": 7436,
  "\u2581haesale": 7437,
  "\u2581hahoa": 7438,
  "\u2581kutloano": 7439,
  "\u2581nyonyehang": 7440,
  "\u2581peer": 7441,
  "\u2581permit": 7442,
  "\u2581reasoned": 7443,
  "\u2581warnings": 7444,
  "\u25811944": 7445,
  "\u2581Balevi": 7446,
  "\u2581botse": 7447,
  "\u2581halefisa": 7448,
  "\u2581khutsitseng": 7449,
  "\u2581lehloa": 7450,
  "\u2581melomo": 7451,
  "\u2581overwhelming": 7452,
  "\u2581practicing": 7453,
  "\u2581somewhat": 7454,
  "\u2581talime": 7455,
  "\u2581totobala": 7456,
  "\u2581valid": 7457,
  "\u2581virus": 7458,
  "\u014d": 7459,
  "\u258162": 7460,
  "\u2581Bonneteng": 7461,
  "\u2581Council": 7462,
  "\u2581Katleho": 7463,
  "\u2581adjustments": 7464,
  "\u2581gaining": 7465,
  "\u2581goats": 7466,
  "\u2581helper": 7467,
  "\u2581hohela": 7468,
  "\u2581litebello": 7469,
  "\u2581nyalane": 7470,
  "\u2581pharaletseng": 7471,
  "\u2581qaqileng": 7472,
  "\u2581risks": 7473,
  "\u2581spreading": 7474,
  "70": 7475,
  "\u258157": 7476,
  "\u258197": 7477,
  "\u2581Thailand": 7478,
  "\u2581bolo": 7479,
  "\u2581continuing": 7480,
  "\u2581ikhohomosang": 7481,
  "\u2581ikitlaelletsa": 7482,
  "\u2581mongobo": 7483,
  "\u2581nepahala": 7484,
  "\u2581sand": 7485,
  "\u2581stones": 7486,
  "\u2581suitable": 7487,
  "\u2581tataisang": 7488,
  "linku": 7489,
  "\u2581139": 7490,
  "\u2581Amos": 7491,
  "\u2581Food": 7492,
  "\u2581Future": 7493,
  "\u2581Jos\u00e9": 7494,
  "\u2581Pi": 7495,
  "\u2581Tokyo": 7496,
  "\u2581boahloli": 7497,
  "\u2581chronic": 7498,
  "\u2581esteem": 7499,
  "\u2581hlole": 7500,
  "\u2581litsebeng": 7501,
  "\u2581owner": 7502,
  "\u2581reproach": 7503,
  "\u2581sehleke": 7504,
  "\u2581sides": 7505,
  "\u258168": 7506,
  "\u2581Enoke": 7507,
  "\u2581Joy": 7508,
  "\u2581Kh\u014dl\u014d": 7509,
  "\u2581Mehlala": 7510,
  "\u2581Obviously": 7511,
  "\u2581bola": 7512,
  "\u2581encounter": 7513,
  "\u2581hobe": 7514,
  "\u2581ignored": 7515,
  "\u2581itlhahisa": 7516,
  "\u2581koetlisitsoeng": 7517,
  "\u2581lion": 7518,
  "\u2581organizations": 7519,
  "\u2581phatlalatsoa": 7520,
  "\u2581phekoloa": 7521,
  "\u2581prime": 7522,
  "\u2581rewards": 7523,
  "\u2581thupelo": 7524,
  "yn": 7525,
  "\u2581Fe": 7526,
  "\u2581Math": 7527,
  "\u2581adding": 7528,
  "\u2581honesty": 7529,
  "\u2581papisong": 7530,
  "\u2581scribes": 7531,
  "\u2581t\u0161oaneloa": 7532,
  "istic": 7533,
  "lekhoba": 7534,
  "\u2581Amose": 7535,
  "\u2581Central": 7536,
  "\u2581Easter": 7537,
  "\u2581Ezra": 7538,
  "\u2581Knowledge": 7539,
  "\u2581attracted": 7540,
  "\u2581bakoenehi": 7541,
  "\u2581bokelloa": 7542,
  "\u2581doctrines": 7543,
  "\u2581gas": 7544,
  "\u2581lebelloa": 7545,
  "\u2581lelekisa": 7546,
  "\u2581loud": 7547,
  "\u2581p\u014dpelong": 7548,
  "\u2581route": 7549,
  "\u2581sorrow": 7550,
  "\u2581t\u0161eha": 7551,
  "\u25811982": 7552,
  "\u2581Atlantic": 7553,
  "\u2581Sermon": 7554,
  "\u2581WHEN": 7555,
  "\u2581bot\u0161elela": 7556,
  "\u2581cease": 7557,
  "\u2581devastating": 7558,
  "\u2581inahanela": 7559,
  "\u2581moketeng": 7560,
  "\u2581sireletsoa": 7561,
  "\u2581sithabetsang": 7562,
  "\u2581stroke": 7563,
  "\u2581tropical": 7564,
  "\u2581zealously": 7565,
  "good": 7566,
  "\u2581Amazon": 7567,
  "\u2581b": 7568,
  "\u2581batlisisa": 7569,
  "\u2581duty": 7570,
  "\u2581flow": 7571,
  "\u2581generations": 7572,
  "\u2581karohano": 7573,
  "\u2581peaceable": 7574,
  "\u2581seb\u014dpuoa": 7575,
  "tsi": 7576,
  "\u2581Assembly": 7577,
  "\u2581Barnabas": 7578,
  "\u2581Mangeloi": 7579,
  "\u2581Ntoeng": 7580,
  "\u2581Search": 7581,
  "\u2581Simon": 7582,
  "\u2581abortion": 7583,
  "\u2581advanced": 7584,
  "\u2581bahlankana": 7585,
  "\u2581fulfilling": 7586,
  "\u2581grass": 7587,
  "\u2581hoping": 7588,
  "\u2581improved": 7589,
  "\u2581independence": 7590,
  "\u2581k\u014dptjoa": 7591,
  "\u2581leoto": 7592,
  "\u2581likoranta": 7593,
  "\u2581lisosa": 7594,
  "\u2581lonely": 7595,
  "\u2581mose": 7596,
  "\u2581opinions": 7597,
  "\u2581strict": 7598,
  "\u25811958": 7599,
  "\u2581Barnabase": 7600,
  "\u2581Khopolo": 7601,
  "\u2581Maamerika": 7602,
  "\u2581Studies": 7603,
  "\u2581Su": 7604,
  "\u2581Susan": 7605,
  "\u2581doubts": 7606,
  "\u2581earn": 7607,
  "\u2581explaining": 7608,
  "\u2581khopotso": 7609,
  "\u2581khutlisetsoa": 7610,
  "\u2581kingdoms": 7611,
  "\u2581lesole": 7612,
  "\u2581neglect": 7613,
  "\u2581phathahane": 7614,
  "\u2581priority": 7615,
  "\u2581proclaimed": 7616,
  "\u2581publisher": 7617,
  "\u2581rateng": 7618,
  "\u2581replace": 7619,
  "\u2581utloileng": 7620,
  "fu": 7621,
  "\u2581Hoja": 7622,
  "\u2581Mofuta": 7623,
  "\u2581Numbers": 7624,
  "\u2581Sebeletsa": 7625,
  "\u2581base": 7626,
  "\u2581blue": 7627,
  "\u2581errors": 7628,
  "\u2581hanang": 7629,
  "\u2581ketsahalong": 7630,
  "\u2581khaoloa": 7631,
  "\u2581khoebong": 7632,
  "\u2581kopanngoa": 7633,
  "\u2581largely": 7634,
  "\u2581mehlape": 7635,
  "\u2581positions": 7636,
  "\u2581pregnancy": 7637,
  "\u2581tlhophiso": 7638,
  "\u2581wheat": 7639,
  "EN": 7640,
  "letsatsi": 7641,
  "\u25811938": 7642,
  "\u2581Canaan": 7643,
  "\u2581Gu": 7644,
  "\u2581abusive": 7645,
  "\u2581belongings": 7646,
  "\u2581boea": 7647,
  "\u2581code": 7648,
  "\u2581exile": 7649,
  "\u2581extensive": 7650,
  "\u2581likhohlano": 7651,
  "\u2581likhomo": 7652,
  "\u2581lipapiso": 7653,
  "\u2581lit\u0161isinyeho": 7654,
  "\u2581sekametse": 7655,
  "\u2581thereby": 7656,
  "\u2581tsitlella": 7657,
  "Lintho": 7658,
  "SE": 7659,
  "ot": 7660,
  "sta": 7661,
  "\u258186": 7662,
  "\u2581Bababylona": 7663,
  "\u2581Knowing": 7664,
  "\u2581Potso": 7665,
  "\u2581declaration": 7666,
  "\u2581grows": 7667,
  "\u2581intimate": 7668,
  "\u2581offerings": 7669,
  "\u2581patriarch": 7670,
  "\u2581tremendous": 7671,
  "\u2581t\u0161oeroeng": 7672,
  "\u2581university": 7673,
  "\u25811948": 7674,
  "\u25811951": 7675,
  "\u2581amahanya": 7676,
  "\u2581badly": 7677,
  "\u2581bolaee": 7678,
  "\u2581cloud": 7679,
  "\u2581expectation": 7680,
  "\u2581fed": 7681,
  "\u2581hlahisoang": 7682,
  "\u2581lumeloa": 7683,
  "\u2581planning": 7684,
  "\u2581rebellious": 7685,
  "\u2581refreshment": 7686,
  "\u2581supporting": 7687,
  "\u2581tabernacle": 7688,
  "day": 7689,
  "\u2581Consequently": 7690,
  "\u2581Esdrase": 7691,
  "\u2581Judase": 7692,
  "\u2581Mino": 7693,
  "\u2581attempts": 7694,
  "\u2581enneng": 7695,
  "\u2581firstborn": 7696,
  "\u2581hloeka": 7697,
  "\u2581kentse": 7698,
  "\u2581lifetime": 7699,
  "\u2581loose": 7700,
  "\u2581meditation": 7701,
  "\u2581perfectly": 7702,
  "\u2581villages": 7703,
  ">": 7704,
  "LO": 7705,
  "ai": 7706,
  "\u00e1": 7707,
  "\u2581Filipi": 7708,
  "\u2581Judaism": 7709,
  "\u2581Lena": 7710,
  "\u2581Ruler": 7711,
  "\u2581Sebakeng": 7712,
  "\u2581Seed": 7713,
  "\u2581Self": 7714,
  "\u2581actual": 7715,
  "\u2581behiloe": 7716,
  "\u2581comparison": 7717,
  "\u2581cooperation": 7718,
  "\u2581ferekanya": 7719,
  "\u2581function": 7720,
  "\u2581hardships": 7721,
  "\u2581judged": 7722,
  "\u2581obstacles": 7723,
  "\u2581paragraph": 7724,
  "\u2581roof": 7725,
  "\u2581unexpected": 7726,
  "\u258143.": 7727,
  "\u2581BOPHELO": 7728,
  "\u2581Habakuke": 7729,
  "\u2581Rahistori": 7730,
  "\u2581amounts": 7731,
  "\u2581appealing": 7732,
  "\u2581defined": 7733,
  "\u2581handling": 7734,
  "\u2581immune": 7735,
  "\u2581liphetolelo": 7736,
  "\u2581reserved": 7737,
  "\u2581sireletseha": 7738,
  "\u2581Elihu": 7739,
  "\u2581Mozambique": 7740,
  "\u2581Phihlelo": 7741,
  "\u2581bofetoheli": 7742,
  "\u2581earnest": 7743,
  "\u2581earthquakes": 7744,
  "\u2581fetelletseng": 7745,
  "\u2581ice": 7746,
  "\u2581khotsofalla": 7747,
  "\u2581lebeletsoe": 7748,
  "\u2581litsi": 7749,
  "\u2581loant\u0161ana": 7750,
  "\u2581moahi": 7751,
  "\u2581mpotsa": 7752,
  "\u2581pounds": 7753,
  "\u2581snow": 7754,
  "\u2581theohela": 7755,
  "\u2581t\u0161episitseng": 7756,
  "Happy": 7757,
  "kho": 7758,
  "tlo": 7759,
  "ung": 7760,
  "\u2581Codex": 7761,
  "\u2581arose": 7762,
  "\u2581bow": 7763,
  "\u2581branches": 7764,
  "\u2581continually": 7765,
  "\u2581ease": 7766,
  "\u2581etele": 7767,
  "\u2581flying": 7768,
  "\u2581kano": 7769,
  "\u2581lijalo": 7770,
  "\u2581litl\u014dlo": 7771,
  "\u2581masimong": 7772,
  "\u2581menyaka": 7773,
  "\u2581qetileng": 7774,
  "\u2581rafilosofi": 7775,
  "\u2581rarely": 7776,
  "\u2581refugees": 7777,
  "\u2581steal": 7778,
  "now": 7779,
  "proving": 7780,
  "\u25811931": 7781,
  "\u258132]": 7782,
  "\u2581Habakkuk": 7783,
  "\u2581Published": 7784,
  "\u2581founded": 7785,
  "\u2581lirapa": 7786,
  "\u2581meals": 7787,
  "\u2581outcry": 7788,
  "\u2581soldier": 7789,
  "\u2581taxes": 7790,
  "\u2581thabisoa": 7791,
  "\u25811950,": 7792,
  "\u2581Faithful": 7793,
  "\u2581Haggai": 7794,
  "\u2581Lingaka": 7795,
  "\u2581Litsela": 7796,
  "\u2581Moiseraele": 7797,
  "\u2581Pro": 7798,
  "\u2581cooperate": 7799,
  "\u2581extraordinary": 7800,
  "\u2581hurtful": 7801,
  "\u2581ithata": 7802,
  "\u2581khahla": 7803,
  "\u2581mainly": 7804,
  "\u2581settle": 7805,
  "\u2581transfusion": 7806,
  "\u2581tsotellang": 7807,
  "\u2581uphold": 7808,
  "\u2581Numere": 7809,
  "\u2581Sepanishe": 7810,
  "\u2581bakiloeng": 7811,
  "\u2581engaging": 7812,
  "\u2581frustration": 7813,
  "\u2581highlight": 7814,
  "\u2581kids": 7815,
  "\u2581seemingly": 7816,
  "\u2581thibetsoe": 7817,
  "\u2581t\u0161eloa": 7818,
  "\u2581viewing": 7819,
  "\u2581Bethlehema": 7820,
  "\u2581Especially": 7821,
  "\u2581Home": 7822,
  "\u2581Hoseng": 7823,
  "\u2581Mosa": 7824,
  "\u2581ananele": 7825,
  "\u2581d": 7826,
  "\u2581ehlile": 7827,
  "\u2581khutsitse": 7828,
  "\u2581laoleheng": 7829,
  "\u2581motsotso": 7830,
  "\u2581sebui": 7831,
  "\u2581smaller": 7832,
  "\u2581square": 7833,
  "OR": 7834,
  "den": 7835,
  "em": 7836,
  "\u2581Guinea": 7837,
  "\u2581HAVE": 7838,
  "\u2581Happily": 7839,
  "\u2581Karen": 7840,
  "\u2581Street": 7841,
  "\u2581banned": 7842,
  "\u2581classes": 7843,
  "\u2581cycle": 7844,
  "\u2581emphasized": 7845,
  "\u2581immortality": 7846,
  "\u2581khaola": 7847,
  "\u2581khothalletsang": 7848,
  "\u2581lik\u014dpo": 7849,
  "\u2581linot\u0161i": 7850,
  "\u2581liqoso": 7851,
  "\u2581mentally": 7852,
  "\u2581nepile": 7853,
  "\u2581neutral": 7854,
  "\u2581nkoe": 7855,
  "\u2581nyamela": 7856,
  "\u2581pheko": 7857,
  "\u2581reminders": 7858,
  "\u2581requirement": 7859,
  "\u2581restoration": 7860,
  "\u2581roads": 7861,
  "\u2581roma": 7862,
  "\u2581sharp": 7863,
  "\u2581spiritism": 7864,
  "\u2581thetsang": 7865,
  "\u2581\u02bc": 7866,
  "hilograma": 7867,
  "hobane": 7868,
  "mer": 7869,
  "min": 7870,
  "\u2581Actually": 7871,
  "\u2581Theocratic": 7872,
  "\u2581aletare": 7873,
  "\u2581delegates": 7874,
  "\u2581falls": 7875,
  "\u2581flight": 7876,
  "\u2581garments": 7877,
  "\u2581hlomphuoa": 7878,
  "\u2581incident": 7879,
  "\u2581kamore": 7880,
  "\u2581khopisa": 7881,
  "\u2581khubelu": 7882,
  "\u2581ordinary": 7883,
  "\u2581overwhelmed": 7884,
  "\u2581reretsoeng": 7885,
  "\u2581tempered": 7886,
  "\u2581th\u014dmo": 7887,
  "\u2581transmitted": 7888,
  "\u2581urgent": 7889,
  "\u25811952": 7890,
  "\u2581Jew": 7891,
  "\u2581Lokelang": 7892,
  "\u2581Maindia": 7893,
  "\u2581addiction": 7894,
  "\u2581behetse": 7895,
  "\u2581deserve": 7896,
  "\u2581ikokobeletsa": 7897,
  "\u2581mahlale": 7898,
  "\u2581masoha": 7899,
  "\u2581senyehileng": 7900,
  "\u2581widows": 7901,
  "disfellowshipped": 7902,
  "pha": 7903,
  "\u25811953": 7904,
  "\u2581bahlolohali": 7905,
  "\u2581conform": 7906,
  "\u2581enduring": 7907,
  "\u2581falling": 7908,
  "\u2581filling": 7909,
  "\u2581inehetse": 7910,
  "\u2581mothusi": 7911,
  "\u2581movies": 7912,
  "\u2581paradeiseng": 7913,
  "\u2581rare": 7914,
  "\u2581shine": 7915,
  "\u2581ships": 7916,
  "\u2581sudden": 7917,
  "\u2581tsamaisana": 7918,
  "\u2581t\u0161elo": 7919,
  "\u2581v": 7920,
  "\u2581valley": 7921,
  "\u2581whenever": 7922,
  "can": 7923,
  "letse": 7924,
  "tselitseng": 7925,
  "\u2581Esthere": 7926,
  "\u2581Persian": 7927,
  "\u2581Post": 7928,
  "\u2581batang": 7929,
  "\u2581breaking": 7930,
  "\u2581favorite": 7931,
  "\u2581it\u0161oarang": 7932,
  "\u2581makatsoa": 7933,
  "\u2581morung": 7934,
  "\u2581rapid": 7935,
  "\u2581receives": 7936,
  "\u2581tlamehile": 7937,
  "\u2581tons": 7938,
  "\u2581wearing": 7939,
  "ger": 7940,
  "ralib": 7941,
  "\u2581Car": 7942,
  "\u2581Lea": 7943,
  "\u2581Volume": 7944,
  "\u2581favorable": 7945,
  "\u2581ikhopotsa": 7946,
  "\u2581khohlano": 7947,
  "\u2581litoro": 7948,
  "\u2581lokise": 7949,
  "\u2581makhabane": 7950,
  "\u2581rivers": 7951,
  "\u2581slowly": 7952,
  "\u2581stream": 7953,
  "\u2581thrilling": 7954,
  "\u2581tloaelane": 7955,
  "\u2581tsofala": 7956,
  "\u2581wishes": 7957,
  "je": 7958,
  "\u25811922": 7959,
  "\u2581Josiah": 7960,
  "\u2581Plato": 7961,
  "\u2581Press": 7962,
  "\u2581border": 7963,
  "\u2581creative": 7964,
  "\u2581decade": 7965,
  "\u2581fiery": 7966,
  "\u2581hlekefetsoa": 7967,
  "\u2581ipehela": 7968,
  "\u2581laetseng": 7969,
  "\u2581letela": 7970,
  "\u2581likhatiso": 7971,
  "\u2581meroho": 7972,
  "\u2581moemeli": 7973,
  "\u2581moetsalibe": 7974,
  "\u2581moriana": 7975,
  "\u2581promotes": 7976,
  "\u2581qualify": 7977,
  "\u2581section": 7978,
  "\u2581sethunya": 7979,
  "dy": 7980,
  "\u2581130": 7981,
  "\u258195": 7982,
  "\u2581Mabaka": 7983,
  "\u2581Maretha": 7984,
  "\u2581Molisa": 7985,
  "\u2581Research": 7986,
  "\u2581Words": 7987,
  "\u2581bit": 7988,
  "\u2581edition": 7989,
  "\u2581leqhoa": 7990,
  "\u2581letsibolo": 7991,
  "\u2581otlolla": 7992,
  "\u2581prior": 7993,
  "\u2581proves": 7994,
  "\u2581sweet": 7995,
  "ern": 7996,
  "nang": 7997,
  "tho": 7998,
  "\u2581104": 7999,
  "\u2581Athens": 8000,
  "\u2581Botho": 8001,
  "\u2581Maprostanta": 8002,
  "\u2581Nile": 8003,
  "\u2581deny": 8004,
  "\u2581farmers": 8005,
  "\u2581morality": 8006,
  "\u2581phallela": 8007,
  "\u2581priesthood": 8008,
  "\u2581stressed": 8009,
  "\u2581towns": 8010,
  "\u2581Joh": 8011,
  "\u2581aim": 8012,
  "\u2581bottom": 8013,
  "\u2581confirmed": 8014,
  "\u2581crying": 8015,
  "\u2581damaged": 8016,
  "\u2581ithabisa": 8017,
  "\u2581lo": 8018,
  "\u2581nkiloeng": 8019,
  "\u2581obeyed": 8020,
  "\u2581pampiri": 8021,
  "\u2581pere": 8022,
  "\u2581pleasures": 8023,
  "\u2581trustworthy": 8024,
  "Lentsoe": 8025,
  "they": 8026,
  "\u25811955": 8027,
  "\u2581Egyptians": 8028,
  "\u2581Mr": 8029,
  "\u2581conquered": 8030,
  "\u2581expose": 8031,
  "\u2581forgotten": 8032,
  "\u2581hates": 8033,
  "\u2581leraba": 8034,
  "\u2581litopo": 8035,
  "\u2581mahlakoreng": 8036,
  "\u2581nyehelo": 8037,
  "\u2581shoeloa": 8038,
  "\u2581tea": 8039,
  "nako": 8040,
  "ow": 8041,
  "t\u0161oasi": 8042,
  "\u25810": 8043,
  "\u25811989": 8044,
  "\u2581Alexandria": 8045,
  "\u2581Drama": 8046,
  "\u2581Nebuchadnezzar": 8047,
  "\u2581Office": 8048,
  "\u2581Saturday": 8049,
  "\u2581Thessalonika": 8050,
  "\u2581arohane": 8051,
  "\u2581bokhut\u0161oanyane": 8052,
  "\u2581centered": 8053,
  "\u2581disappointed": 8054,
  "\u2581formerly": 8055,
  "\u2581illustrates": 8056,
  "\u2581ipitsa": 8057,
  "\u2581lebelletse": 8058,
  "\u2581libomo": 8059,
  "\u2581matlafatsoa": 8060,
  "\u2581pity": 8061,
  "\u2581priorities": 8062,
  "\u2581round": 8063,
  "\u2581saving": 8064,
  "\u2581t\u0161oaroe": 8065,
  "\u2581weigh": 8066,
  "\u25811920": 8067,
  "\u2581Josiase": 8068,
  "\u2581Kahlolo": 8069,
  "\u2581Kolosse": 8070,
  "\u2581Money": 8071,
  "\u2581Scientists": 8072,
  "\u2581abroad": 8073,
  "\u2581apostate": 8074,
  "\u2581bears": 8075,
  "\u2581broad": 8076,
  "\u2581courageously": 8077,
  "\u2581detailed": 8078,
  "\u2581emperor": 8079,
  "\u2581fever": 8080,
  "\u2581fihlang": 8081,
  "\u2581hlabisa": 8082,
  "\u2581it\u0161oere": 8083,
  "\u2581likhaolo": 8084,
  "\u2581pholohe": 8085,
  "\u2581recognition": 8086,
  "\u2581sareloa": 8087,
  "ors": 8088,
  "\u2581Ge": 8089,
  "\u2581Los": 8090,
  "\u2581consist": 8091,
  "\u2581desert": 8092,
  "\u2581diligent": 8093,
  "\u2581distinguish": 8094,
  "\u2581drop": 8095,
  "\u2581fola": 8096,
  "\u2581laba": 8097,
  "\u2581lebale": 8098,
  "\u2581lieta": 8099,
  "\u2581rutile": 8100,
  "\u2581seea": 8101,
  "put": 8102,
  "\u258169": 8103,
  "\u2581Cesare": 8104,
  "\u2581Khatello": 8105,
  "\u2581Sebetsana": 8106,
  "\u2581Sebetsang": 8107,
  "\u2581Teacher": 8108,
  "\u2581arrest": 8109,
  "\u2581bont\u0161oang": 8110,
  "\u2581consult": 8111,
  "\u2581costs": 8112,
  "\u2581exercised": 8113,
  "\u2581funds": 8114,
  "\u2581lin\u014dka": 8115,
  "\u2581marabele": 8116,
  "\u2581mofumahali": 8117,
  "\u2581naturally": 8118,
  "\u2581productive": 8119,
  "\u2581safely": 8120,
  "\u2581striking": 8121,
  "\u2581teens": 8122,
  "\u2581unbeliev": 8123,
  "\u2581Become": 8124,
  "\u2581Newsweek": 8125,
  "\u2581cultural": 8126,
  "\u2581etsise": 8127,
  "\u2581feast": 8128,
  "\u2581khotsofetse": 8129,
  "\u2581preachers": 8130,
  "\u2581preparation": 8131,
  "\u2581promoted": 8132,
  "\u2581selling": 8133,
  "\u2581silafetseng": 8134,
  "\u2581t\u0161isinyeho": 8135,
  "up": 8136,
  "\u25811949": 8137,
  "\u258198": 8138,
  "\u2581Bao": 8139,
  "\u2581Lithapelo": 8140,
  "\u2581Ruta": 8141,
  "\u2581Sehopotsong": 8142,
  "\u2581blow": 8143,
  "\u2581funeral": 8144,
  "\u2581joyfully": 8145,
  "\u2581lero": 8146,
  "\u2581loyally": 8147,
  "\u2581manage": 8148,
  "\u2581molai": 8149,
  "\u2581motsaneng": 8150,
  "\u2581oxygen": 8151,
  "\u2581paths": 8152,
  "\u2581physician": 8153,
  "\u2581sesoleng": 8154,
  "\u2581sitisang": 8155,
  "\u2581specifically": 8156,
  "\u2581susumeletsa": 8157,
  "\u2581tsamaisoa": 8158,
  "IC": 8159,
  "hlo": 8160,
  "llo": 8161,
  "\u258135,": 8162,
  "\u2581Thato": 8163,
  "\u2581alongside": 8164,
  "\u2581atamelang": 8165,
  "\u2581khothatsoa": 8166,
  "\u2581laetse": 8167,
  "\u2581likahlolo": 8168,
  "\u2581malimabe": 8169,
  "\u2581miraculously": 8170,
  "\u2581representatives": 8171,
  "\u2581resentment": 8172,
  "\u2581thrilled": 8173,
  "\u2581womb": 8174,
  "\u2581Blood": 8175,
  "\u2581Eric": 8176,
  "\u2581Lefaph": 8177,
  "\u2581Nebukadnezare": 8178,
  "\u2581Puisano": 8179,
  "\u2581assemblies": 8180,
  "\u2581atolosa": 8181,
  "\u2581bothateng": 8182,
  "\u2581cultivating": 8183,
  "\u2581marako": 8184,
  "\u2581regards": 8185,
  "\u2581roots": 8186,
  "Ntho": 8187,
  "TH": 8188,
  "ence": 8189,
  "gg": 8190,
  "\u2581Bakanana": 8191,
  "\u2581Care": 8192,
  "\u2581Ethiopia": 8193,
  "\u2581accurately": 8194,
  "\u2581arm": 8195,
  "\u2581arrange": 8196,
  "\u2581bonohe": 8197,
  "\u2581bulela": 8198,
  "\u2581document": 8199,
  "\u2581greedy": 8200,
  "\u2581hlokomolohuoa": 8201,
  "\u2581independent": 8202,
  "\u2581judgments": 8203,
  "\u2581lebeletseng": 8204,
  "\u2581lip\u014dli": 8205,
  "\u2581normally": 8206,
  "\u2581rape": 8207,
  "\u2581senotlolo": 8208,
  "\u2581shock": 8209,
  "\u2581t\u0161eptjoang": 8210,
  "ag": 8211,
  "ex": 8212,
  "was": 8213,
  "\u25811933": 8214,
  "\u2581Ghana": 8215,
  "\u2581Lengolong": 8216,
  "\u2581Wall": 8217,
  "\u2581absolutely": 8218,
  "\u2581angelic": 8219,
  "\u2581arohaneng": 8220,
  "\u2581cars": 8221,
  "\u2581communities": 8222,
  "\u2581criticism": 8223,
  "\u2581everyday": 8224,
  "\u2581fuel": 8225,
  "\u2581happily": 8226,
  "\u2581hypocrisy": 8227,
  "\u2581it\u0161epa": 8228,
  "\u2581lekanyelitsoeng": 8229,
  "\u2581lekhotleng": 8230,
  "\u2581lifilimi": 8231,
  "\u2581molumeli": 8232,
  "\u2581nku": 8233,
  "\u2581nonyana": 8234,
  "\u2581pholosoa": 8235,
  "\u2581t\u0161ehetsoa": 8236,
  "RA": 8237,
  "\u2581AWAKE": 8238,
  "\u2581Third": 8239,
  "\u2581Tlhahlobo": 8240,
  "\u2581T\u0161abo": 8241,
  "\u2581baesekele": 8242,
  "\u2581graduates": 8243,
  "\u2581insurance": 8244,
  "\u2581likabelo": 8245,
  "\u2581matlafatse": 8246,
  "\u2581mutual": 8247,
  "\u2581sekisetsa": 8248,
  "\u2581tools": 8249,
  "line": 8250,
  "ola": 8251,
  "\u25812013": 8252,
  "\u2581Hloka": 8253,
  "\u2581Shepherd": 8254,
  "\u2581Univesithi": 8255,
  "\u2581advertising": 8256,
  "\u2581awe": 8257,
  "\u2581contribution": 8258,
  "\u2581crushed": 8259,
  "\u2581emphasis": 8260,
  "\u2581fanoe": 8261,
  "\u2581guarantee": 8262,
  "\u2581imeloa": 8263,
  "\u2581lechato": 8264,
  "\u2581matlong": 8265,
  "\u2581mokhanni": 8266,
  "\u2581oldest": 8267,
  "\u2581rose": 8268,
  "\u2581seketsoana": 8269,
  "\u2581vessels": 8270,
  "\u2581waves": 8271,
  "EL": 8272,
  "hileng": 8273,
  "rt": 8274,
  "\u2581Cyrus": 8275,
  "\u2581Golden": 8276,
  "\u2581Light": 8277,
  "\u2581breath": 8278,
  "\u2581creating": 8279,
  "\u2581crown": 8280,
  "\u2581ipiletsang": 8281,
  "\u2581ko": 8282,
  "\u2581legs": 8283,
  "\u2581mentions": 8284,
  "\u2581phonyoha": 8285,
  "\u2581t\u0161elisoa": 8286,
  "?...": 8287,
  "LA": 8288,
  "\u2581DO": 8289,
  "\u2581Isa": 8290,
  "\u2581Jerome": 8291,
  "\u2581confronted": 8292,
  "\u2581insects": 8293,
  "\u2581mafelo": 8294,
  "\u2581managed": 8295,
  "\u2581shut": 8296,
  "\u2581silence": 8297,
  "\u2581stupid": 8298,
  ");": 8299,
  "cy": 8300,
  "\u25811974": 8301,
  "\u2581Freedom": 8302,
  "\u2581Lake": 8303,
  "\u2581Real": 8304,
  "\u2581Yugoslavia": 8305,
  "\u2581baitlami": 8306,
  "\u2581breast": 8307,
  "\u2581clay": 8308,
  "\u2581joko": 8309,
  "\u2581sebelelitse": 8310,
  "\u2581sleeping": 8311,
  "\u2581smile": 8312,
  "\u2581thetsoa": 8313,
  "\u2581tsosolosoa": 8314,
  "\u2581urgency": 8315,
  "\u2581wash": 8316,
  "ize": 8317,
  "\u2581Heb": 8318,
  "\u2581Louis": 8319,
  "\u2581Pre": 8320,
  "\u2581advancement": 8321,
  "\u2581associations": 8322,
  "\u2581boikhethelo": 8323,
  "\u2581finyellang": 8324,
  "\u2581fixed": 8325,
  "\u2581kholisang": 8326,
  "\u2581rekisoa": 8327,
  "\u2581setsing": 8328,
  "\u2581stumble": 8329,
  "\u2581tract": 8330,
  "\u2581utloisisoa": 8331,
  "\u2581vow": 8332,
  "Bana": 8333,
  "epolli": 8334,
  "\u2581Athene": 8335,
  "\u2581Leseli": 8336,
  "\u2581Levites": 8337,
  "\u2581Tokoloho": 8338,
  "\u2581actively": 8339,
  "\u2581bokhelohi": 8340,
  "\u2581bont\u0161itseng": 8341,
  "\u2581combined": 8342,
  "\u2581dis": 8343,
  "\u2581enjoyable": 8344,
  "\u2581fokolisa": 8345,
  "\u2581householder": 8346,
  "\u2581makeup": 8347,
  "\u2581policy": 8348,
  "\u2581set\u0161oant\u0161ong": 8349,
  "\u2581transferred": 8350,
  "\u2581unwise": 8351,
  "Now": 8352,
  "let": 8353,
  "\u2581Afterward": 8354,
  "\u2581Moreneng": 8355,
  "\u2581Si": 8356,
  "\u2581believer": 8357,
  "\u2581bohlooho": 8358,
  "\u2581borabele": 8359,
  "\u2581b\u014dpiloe": 8360,
  "\u2581celebrate": 8361,
  "\u2581containing": 8362,
  "\u2581it\u0161oare": 8363,
  "\u2581neutrality": 8364,
  "\u2581resurrect": 8365,
  "\u2581scattered": 8366,
  "\u2581siela": 8367,
  "\u2581tahlehelo": 8368,
  "\u2581target": 8369,
  "\u2581t\u0161oenya": 8370,
  "\u2581Baboleli": 8371,
  "\u2581Bad": 8372,
  "\u2581Scotland": 8373,
  "\u2581Toronto": 8374,
  "\u2581associating": 8375,
  "\u2581expert": 8376,
  "\u2581fierce": 8377,
  "\u2581halelele": 8378,
  "\u2581instrument": 8379,
  "\u2581lehlabula": 8380,
  "\u2581lenaneong": 8381,
  "\u2581litemoso": 8382,
  "\u2581mabenkeleng": 8383,
  "\u2581makhasi": 8384,
  "\u2581modesty": 8385,
  "\u2581noise": 8386,
  "\u2581reretsoe": 8387,
  "\u2581span": 8388,
  "\u2581terone": 8389,
  "\u2581thahasellisa": 8390,
  "\u2581version": 8391,
  "\u2581wings": 8392,
  "mor": 8393,
  "\u25811979": 8394,
[...]
