{
  "</s>": 0,
  "<unk>": 1,
  ".": 2,
  ",": 3,
  "\u2581\"": 4,
  "\u2581the": 5,
  "\u2581li": 6,
  "\u2581a": 7,
  "\u2581to": 8,
  "\u2581": 9,
  ":": 10,
  "\u2581of": 11,
  "?": 12,
  "\u2581and": 13,
  "\u2581-": 14,
  "\u2581in": 15,
  "\u2581na": 16,
  "\u2581that": 17,
  "a": 18,
  "s": 19,
  "\u2581va": 20,
  "\u2581okwa": 21,
  "\u2581kutya": 22,
  "\u2581(": 23,
  "\u2581ka": 24,
  "\u2581tu": 25,
  "'": 26,
  "\u2581we": 27,
  "\u2581Jehovah": 28,
  "\u2581is": 29,
  "\u2581e": 30,
  "\u2581for": 31,
  "\u2581O": 32,
  "\u2581God": 33,
  "\u2581sha": 34,
  "\u2581Jesus": 35,
  "\u2581his": 36,
  "\u2581you": 37,
  "\u2581po": 38,
  "\u2581yo": 39,
  "\u2581dulu": 40,
  "\u2581oo": 41,
  "\u2581be": 42,
  "\u2581kala": 43,
  "\u2581with": 44,
  "\u2581I": 45,
  "\u2581'": 46,
  "\u2581was": 47,
  ")": 48,
  "\u2581not": 49,
  "\u2581he": 50,
  "\u2581ti": 51,
  "\u2581will": 52,
  "\u2581Jehova": 53,
  "\u2581ko": 54,
  "ing": 55,
  "\u2581have": 56,
  "\u2581o": 57,
  "\u2581as": 58,
  "\u2581ya": 59,
  "\u2581our": 60,
  "\u2581ova": 61,
  "\u2581opo": 62,
  "\u2581mu": 63,
  "\u2581us": 64,
  "\u2581oku": 65,
  "\u2581on": 66,
  "\u2581are": 67,
  "\u2581can": 68,
  "\u2581shi": 69,
  "\u2581eshi": 70,
  "\u2581osho": 71,
  "\u2581it": 72,
  "\u2581mo": 73,
  "\u2581ve": 74,
  "\u2581oyo": 75,
  "\u2581ta": 76,
  "\u2581hatu": 77,
  ";": 78,
  "\u2581The": 79,
  "\u2581ovo": 80,
  "\u2581from": 81,
  "\u25811": 82,
  "\u2581who": 83,
  "\u2581do": 84,
  "\u2581What": 85,
  "\u2581no": 86,
  "\u2581what": 87,
  "\u2581Bible": 88,
  "\u2581by": 89,
  "\u2581olo": 90,
  "\u2581they": 91,
  "\u2581kale": 92,
  "\u2581their": 93,
  "ngeenge": 94,
  "\u2581u": 95,
  "\u2581ovanhu": 96,
  "\u2581i": 97,
  "\u2581ile": 98,
  "\u2581okukala": 99,
  "\u2581or": 100,
  "\u2581la": 101,
  "\u2581him": 102,
  "\u2581your": 103,
  "tashi": 104,
  "\u2581this": 105,
  "\u2581Kalunga": 106,
  "!": 107,
  "\u2581nosho": 108,
  "\u2581about": 109,
  "\u2581people": 110,
  "\u2581twa": 111,
  "\u2581had": 112,
  "\u2581ashike": 113,
  "\u2581tava": 114,
  "\u2581How": 115,
  "\u2581all": 116,
  "\u2581ota": 117,
  "\u2581hala": 118,
  "\u2581them": 119,
  "hatu": 120,
  "\u2581dulika": 121,
  "\u2581did": 122,
  "\u2581ndele": 123,
  "otashi": 124,
  "ed": 125,
  "\u2581wa": 126,
  "\u2581nda": 127,
  "\u2581were": 128,
  "\u2581at": 129,
  "\u2581would": 130,
  "\u2581n": 131,
  "\u25813": 132,
  "\u2581when": 133,
  "\u2581ke": 134,
  "o": 135,
  "\u2581one": 136,
  "\u2581In": 137,
  "\u25814": 138,
  "\u2581Ndele": 139,
  "\u2581an": 140,
  "\u2581my": 141,
  "\u2581ku": 142,
  "handi": 143,
  "\u2581E": 144,
  "e": 145,
  "\u2581time": 146,
  "\u2581has": 147,
  "\u2581oha": 148,
  "\u25815": 149,
  "\u2581ngaho": 150,
  "\u2581help": 151,
  "\u2581otwa": 152,
  "\u2581life": 153,
  "\u2581oya": 154,
  "\u2581kwafela": 155,
  "\u2581ninga": 156,
  "\u2581so": 157,
  "\u2581how": 158,
  "\u2581may": 159,
  "\u2581ina": 160,
  "\u2581vamwe": 161,
  "Ngeenge": 162,
  "\u2581me": 163,
  "\u2581Mbel": 164,
  "\u2581those": 165,
  "\u2581da": 166,
  "kombinga": 167,
  "\u2581ndi": 168,
  "\u2581ngaashi": 169,
  "\u2581We": 170,
  "\u2581He": 171,
  "\u2581osha": 172,
  "\u2581but": 173,
  "\u2581shii": 174,
  "\u2581vali": 175,
  "\u2581[": 176,
  "\u25816": 177,
  "\u2581hava": 178,
  "\u25812": 179,
  "\u2581ngahelipi": 180,
  "\u2581Okwa": 181,
  "\u2581umwe": 182,
  "\u2581tya": 183,
  "\u2581ha": 184,
  "b": 185,
  "\u2581odo": 186,
  "\u2581mona": 187,
  "\u258115": 188,
  "\u2581di": 189,
  "\u2581her": 190,
  "\u2581she": 191,
  "\u2581nge": 192,
  "\u2581tai": 193,
  "i": 194,
  "\u2581waye": 195,
  "ly": 196,
  "\u2581oinima": 197,
  "\u2581more": 198,
  "\u2581pumbwa": 199,
  "\u2581love": 200,
  "]": 201,
  "\u2581Ombibeli": 202,
  "\u2581molwaashi": 203,
  "\u2581good": 204,
  "\u2581keshe": 205,
  "\u2581okuninga": 206,
  "\u2581also": 207,
  "\u2581some": 208,
  "\u2581should": 209,
  "\u2581noku": 210,
  "\u2581ou": 211,
  "\u2581onda": 212,
  "\u2581laye": 213,
  "\u2581make": 214,
  "\u2581Paul": 215,
  "\u2581ulike": 216,
  "\u2581pa": 217,
  "\u2581if": 218,
  "\u2581popya": 219,
  "\u2581been": 220,
  "\u2581way": 221,
  "\u2581out": 222,
  "\u2581does": 223,
  "\u2581many": 224,
  "\u258111": 225,
  "\u2581neenghono": 226,
  "\u2581work": 227,
  "\u25817": 228,
  "\u2581Ongahelipi": 229,
  "\u2581things": 230,
  "\u2581ove": 231,
  "\u2581could": 232,
  "\u2581It": 233,
  "\u2581But": 234,
  "\u2581Why": 235,
  "\u2581ngoo": 236,
  "\u2581When": 237,
  "\u2581A": 238,
  "\u2581M": 239,
  "\u2581hano": 240,
  "\u2581Omolwashike": 241,
  "\u2581otu": 242,
  "\u2581ola": 243,
  "\u2581Paulus": 244,
  "wa": 245,
  "\u2581owa": 246,
  "\u2581kwafele": 247,
  "\u2581ningi": 248,
  "\u2581need": 249,
  "ohava": 250,
  "\u2581up": 251,
  "nande": 252,
  "\u258110": 253,
  "\u25818": 254,
  "\u2581spirit": 255,
  "\u2581shike": 256,
  "\u2581hole": 257,
  "\u2581others": 258,
  "\u2581such": 259,
  "\u2581pamwe": 260,
  "\u2581otava": 261,
  "\u258113": 262,
  "\u2581Ashike": 263,
  "\u2581David": 264,
  "\u2581Eshi": 265,
  "\u258114": 266,
  "\u2581example": 267,
  "\u2581Onghee": 268,
  "\u2581udite": 269,
  "\u2581nee": 270,
  "\u2581vaye": 271,
  "\u2581No": 272,
  "\u2581w": 273,
  "\u2581world": 274,
  "\u2581said": 275,
  "\u2581there": 276,
  "\u2581omo": 277,
  "tadi": 278,
  "\u25819": 279,
  "\u2581even": 280,
  "\u2581omunhu": 281,
  "\u2581Kingdom": 282,
  "\u2581other": 283,
  "\u2581vahapu": 284,
  "\u2581nawa": 285,
  "\u2581faith": 286,
  "\u2581tali": 287,
  "\u2581congregation": 288,
  "\u2581Ovakriste": 289,
  "\u2581mbela": 290,
  "\u2581first": 291,
  "\u2581longifa": 292,
  "\u2581dule": 293,
  "\u2581otai": 294,
  "\u258112": 295,
  "\u2581earth": 296,
  "\u2581For": 297,
  "\u2581yaye": 298,
  "\u2581Oshike": 299,
  "\u2581oye": 300,
  "\u2581lombwela": 301,
  "\u2581l": 302,
  "\u2581family": 303,
  "\u2581ye": 304,
  "ku": 305,
  "\u2581day": 306,
  "\u2581P": 307,
  "\u258116": 308,
  "\u2581imwe": 309,
  "\u2581than": 310,
  "\u2581Osho": 311,
  "\u25812:": 312,
  "\u2581nande": 313,
  "\u2581Christians": 314,
  "\u2581man": 315,
  "\u2581see": 316,
  "\u2581tuu": 317,
  "\u2581years": 318,
  "\u2581Christian": 319,
  "\u2581know": 320,
  "\u2581As": 321,
  "\u2581N": 322,
  "\u2581because": 323,
  "\u2581They": 324,
  "\u2581these": 325,
  "\u2581If": 326,
  "\u2581oilonga": 327,
  "\u2581nokwa": 328,
  "\u2581fi": 329,
  "\u2581efimbo": 330,
  "\u258117": 331,
  "\u2581longo": 332,
  "\"": 333,
  "\u2581must": 334,
  "\u2581letu": 335,
  "\u2581K": 336,
  "\u2581Christ": 337,
  "\u2581*": 338,
  "\u25811:": 339,
  "\u2581ninge": 340,
  "\u2581k": 341,
  "\u2581says": 342,
  "\u2581naye": 343,
  "\u2581brothers": 344,
  "\u258120": 345,
  "the": 346,
  "\u2581into": 347,
  "\u2581okwe": 348,
  "\u2581fa": 349,
  "\u2581made": 350,
  "\u2581alushe": 351,
  "\u25811,": 352,
  "\u2581uya": 353,
  "\u2581yetu": 354,
  "\u2581Witnesses": 355,
  "\u2581This": 356,
  "\u2581Onda": 357,
  "\u2581spiritual": 358,
  "\u2581You": 359,
  "\u2581nghee": 360,
  "\u2581diladila": 361,
  "\u2581pula": 362,
  "\u2581aveshe": 363,
  "\u2581moilonga": 364,
  "endjovo": 365,
  "\u2581(1": 366,
  "\u2581oko": 367,
  "\u2581only": 368,
  "d": 369,
  "\u2581Opo": 370,
  "\u2581fiyo": 371,
  "\u2581fimana": 372,
  "\u2581being": 373,
  "\u2581children": 374,
  "\u2581heart": 375,
  "\u2581take": 376,
  "\u2581like": 377,
  "\u2581ningwa": 378,
  "\u258119": 379,
  "\u2581iwa": 380,
  "\u2581which": 381,
  "\u258124": 382,
  "\u2581m": 383,
  "\u2581te": 384,
  "\u2581pefimbo": 385,
  "\u2581yedu": 386,
  "\u2581And": 387,
  "\u2581might": 388,
  "\u2581keep": 389,
  "\u2581popi": 390,
  "\u2581true": 391,
  "\u2581unene": 392,
  "\u2581komesho": 393,
  "\u2581Satan": 394,
  "\u2581That": 395,
  "\u2581become": 396,
  "\u2581over": 397,
  "\u2581shili": 398,
  "\u2581eitavelo": 399,
  "\u2581otali": 400,
  "t": 401,
  "\u2581come": 402,
  "\u2581feel": 403,
  "\u2581Pashihopaenenwa": 404,
  "\u2581yandje": 405,
  "\u2581give": 406,
  "\u2581then": 407,
  "\u2581pewa": 408,
  "\u2581Moses": 409,
  "...": 410,
  "\u2581aishe": 411,
  "\u2581learn": 412,
  "\u2581pe": 413,
  "\u2581daJehova": 414,
  "\u2581ouwa": 415,
  "\u2581nokuli": 416,
  "\u2022": 417,
  "\u2581show": 418,
  "\u2581amwe": 419,
  "\u2581So": 420,
  "\u2581hovela": 421,
  "\u258121": 422,
  "\u2581mone": 423,
  "\u2581words": 424,
  "\u2581name": 425,
  "\u2581oto": 426,
  "\u2581well": 427,
  "\u2581now": 428,
  "u": 429,
  "\u2581Ombiibeli": 430,
  "\u2581kombada": 431,
  "\u2581navo": 432,
  "\u2581laKalunga": 433,
  "\u2581own": 434,
  "\u2581just": 435,
  "Read": 436,
  "Lesha": 437,
  "\u2581ningifa": 438,
  "\u2581ones": 439,
  "\u2581new": 440,
  "\u2581before": 441,
  "\u2581naasho": 442,
  "\u2581wetu": 443,
  "O": 444,
  "\u2581death": 445,
  "\u2581kuJehova": 446,
  "\u2581taa": 447,
  "li": 448,
  "\u2581after": 449,
  "\u2581aushe": 450,
  "\u2581person": 451,
  "\u2581inav": 452,
  "\u2581tale": 453,
  "\u2581Word": 454,
  "\u2581why": 455,
  "\u2581oda": 456,
  "\u2581John": 457,
  "\u2581another": 458,
  "\u2581ulika": 459,
  "\u2581hafa": 460,
  "\u2581important": 461,
  "\u2581Abraham": 462,
  "\u258118": 463,
  "\u2581times": 464,
  "\u2581very": 465,
  "\u2581mounyuni": 466,
  "\u2581liwa": 467,
  "\u2581truth": 468,
  "\u2581longele": 469,
  ".)": 470,
  "\u2581oule": 471,
  "\u2581ngeno": 472,
  "\u2581oshinima": 473,
  "\u2581much": 474,
  "\u2581nova": 475,
  "Ovanhu": 476,
  "la": 477,
  "\u2581men": 478,
  "\u2581yavo": 479,
  "\u2581laJehova": 480,
  "\u2581lili": 481,
  "tu": 482,
  "\u2581dja": 483,
  "\u2581To": 484,
  "\u2581vo": 485,
  "\u258128": 486,
  "\u2581use": 487,
  "\u2581two": 488,
  "\u2581want": 489,
  "\u2581serve": 490,
  "\u2581Do": 491,
  "\u2581tala": 492,
  "\u2581today": 493,
  "\u2581right": 494,
  "\u2581waKalunga": 495,
  "\u2581say": 496,
  "\u2581Ova": 497,
  "\u2581filufilu": 498,
  "\u258122": 499,
  "\u2581parents": 500,
  "\u2581any": 501,
  "\u2581daKalunga": 502,
  "\u2581nale": 503,
  "\u2581faithful": 504,
  "\u2581oshiwana": 505,
  "\u2581find": 506,
  "\u2581limwe": 507,
  "\u2581T": 508,
  "\u2581yaKalunga": 509,
  "\u2581okumona": 510,
  "\u2581kuKalunga": 511,
  "Natu": 512,
  "\u2581ministry": 513,
  "\u2581konima": 514,
  "\u2581mono": 515,
  "\u2581monghedi": 516,
  "\u2581efiku": 517,
  "\u2581part": 518,
  "\u2581consider": 519,
  "\u2581end": 520,
  "\u2581kunena": 521,
  "\u2581young": 522,
  "I": 523,
  "\u2581noupuna": 524,
  "\u2581iyapuki": 525,
  "\u2581ohole": 526,
  "\u2581kundafana": 527,
  "\u2581Adam": 528,
  "le": 529,
  "\u2581efa": 530,
  "\u2581tau": 531,
  "\u2581apostle": 532,
  "y": 533,
  "\u2581each": 534,
  "\u2581yaasho": 535,
  "\u2581great": 536,
  "onima": 537,
  "\u2581Israel": 538,
  "\u2581read": 539,
  "\u2581iha": 540,
  "\u2581holy": 541,
  "\u2581through": 542,
  "\u2581daye": 543,
  "\u2581omido": 544,
  "\u2581put": 545,
  "\u2581fimanenena": 546,
  "\u2581omhepo": 547,
  "\u2581tokola": 548,
  "\u2581faafana": 549,
  "\u2581study": 550,
  "\u2581Father": 551,
  "\u2581told": 552,
  "\u2581kwa": 553,
  "\u2581found": 554,
  "\u2581oshike": 555,
  "\u2581Satana": 556,
  "\u2581where": 557,
  "\u25818.": 558,
  "\u2581Peter": 559,
  "\u2581never": 560,
  "\u2581Otw": 561,
  "\u2581wete": 562,
  "\u2581However": 563,
  "\u2581kwata": 564,
  "\u2581meongalo": 565,
  "\u2581article": 566,
  "\u2581kendabala": 567,
  "\u2581lavo": 568,
  "\u2581means": 569,
  "\u2581ovadiinini": 570,
  "\u2581Kristus": 571,
  "\u2581wife": 572,
  "\u2581though": 573,
  "\u2581(2": 574,
  "\u258123": 575,
  "\u2581preaching": 576,
  "\u2581teelela": 577,
  "\u2581news": 578,
  "\u2581shaye": 579,
  "\u258125": 580,
  "\u25819.": 581,
  "\u2581womido": 582,
  "\u2581worship": 583,
  "\u2581Read": 584,
  "\u2581most": 585,
  "\u2581One": 586,
  "\u2581hai": 587,
  "\u2581omukumo": 588,
  "/": 589,
  "\u2581d": 590,
  "\u25812.": 591,
  "\u2581oshili": 592,
  "\u2581Lesha": 593,
  "\u2581Omwene": 594,
  "\u2581avo": 595,
  "\u2581let": 596,
  "\u2581oshi": 597,
  "\u2581himself": 598,
  "\u2581get": 599,
  "\u2581shimwe": 600,
  "\u2581fimbo": 601,
  "\u2581okudja": 602,
  "\u2581go": 603,
  "\u2581y": 604,
  "\u2581ilipi": 605,
  "\u258117.": 606,
  "\u2581wrote": 607,
  "\u2581natango": 608,
  "\u2581same": 609,
  "\u2581omwenyo": 610,
  "\u25814.": 611,
  "\u2581etu": 612,
  "\u2581edina": 613,
  "\u2581gave": 614,
  "\u2581mind": 615,
  "\u2581oshihopaenenwa": 616,
  "olwaashi": 617,
  "\u2581Petrus": 618,
  "\u2581against": 619,
  "ka": 620,
  "\u2581After": 621,
  "\u2581okupitila": 622,
  "E": 623,
  "\u2581ekwatafano": 624,
  "epandja": 625,
  "\u2581mwa": 626,
  "\u2581omolw": 627,
  "\u2581yandja": 628,
  "onhele": 629,
  "\u2581p": 630,
  "shi": 631,
  "\u2581service": 632,
  "have": 633,
  "\u2581its": 634,
  "\u25813,": 635,
  "gaashi": 636,
  "ni": 637,
  "\u2581fike": 638,
  "\u258130": 639,
  "\u2581live": 640,
  "\u2581oshisho": 641,
  "\u2581ita": 642,
  "\u2581doing": 643,
  "\u2581Otu": 644,
  "\u258110.": 645,
  "\u2581ongaho": 646,
  "\u2581Eendombwedi": 647,
  "\u2581Job": 648,
  "\u2581eenghono": 649,
  "\u2581ihapu": 650,
  "\u258114.": 651,
  "\u2581Scriptures": 652,
  "\u2581long": 653,
  "\u2581wange": 654,
  "Mat": 655,
  "\u2581used": 656,
  "\u2581ho": 657,
  "\u258112.": 658,
  "\u2581course": 659,
  "\u2581disciples": 660,
  "\u2581omolwashike": 661,
  "\u2581yela": 662,
  "\u2581brother": 663,
  "\u2581sh": 664,
  "\u2581eendjovo": 665,
  "\u2581human": 666,
  "\u2581too": 667,
  "Tala": 668,
  "\u258126": 669,
  "\u25817.": 670,
  "\u2581anointed": 671,
  "\u2581aye": 672,
  "\u2581lesha": 673,
  "\u2581omayele": 674,
  "\u2581popepi": 675,
  "\u2581Some": 676,
  "\u2581elders": 677,
  "\u2581ovamwatate": 678,
  "\u2581place": 679,
  "\u2581Ovaisrael": 680,
  "n": 681,
  "\u2581okutya": 682,
  "\u25815.": 683,
  "\u258116.": 684,
  "\u2581lihonga": 685,
  "\u2581think": 686,
  "\u2581mahapu": 687,
  "\u2581ote": 688,
  "\u2581vavo": 689,
  "\u258115.": 690,
  "\u2581Kor": 691,
  "\u2581dulife": 692,
  "\u2581paife": 693,
  "\u2581servants": 694,
  "\u2581helped": 695,
  "\u2581marriage": 696,
  "\u2581yaJehova": 697,
  "\u2581She": 698,
  "\u258113.": 699,
  "\u2581ways": 700,
  "\u2581ombinga": 701,
  "\u258111.": 702,
  "\u2581later": 703,
  "\u2581view": 704,
  "\u2581Osha": 705,
  "\u2581kwatela": 706,
  "\u2581became": 707,
  "\u2581lineekela": 708,
  "\u2581loye": 709,
  "nghee": 710,
  "\u2581onghedi": 711,
  "\u2581during": 712,
  "\u2581given": 713,
  "\u2581peace": 714,
  "nghundana": 715,
  "\u2581itavela": 716,
  "\u2581At": 717,
  "\u2581C": 718,
  "\u2581ponhele": 719,
  "\u2581/": 720,
  "\u2581nasha": 721,
  "\u2581home": 722,
  "\u2581fya": 723,
  "\u2581onghalamwenyo": 724,
  "\u2581King": 725,
  "\u2581elipi": 726,
  "al": 727,
  "\u2581Johannes": 728,
  "See": 729,
  "\u2581hope": 730,
  "\u2581oshitukulwa": 731,
  "\u2581every": 732,
  "\u2581hongo": 733,
  "\u2581konakona": 734,
  "\u2581omu": 735,
  "\u2581set": 736,
  "\u2581Tim": 737,
  "\u2581days": 738,
  "\u2581elitulemo": 739,
  "\u2581future": 740,
  "\u2581mwene": 741,
  "\u2581okukwafela": 742,
  "taleko": 743,
  "\u2581am": 744,
  "\u2581away": 745,
  "\u2581humans": 746,
  "ndi": 747,
  "\u2581support": 748,
  "\u2581something": 749,
  "ovakulunhuongalo": 750,
  "\u2581always": 751,
  "\u2581osheshi": 752,
  "\u2581questions": 753,
  "ther": 754,
  "\u2581back": 755,
  "\u2581came": 756,
  "\u2581ombili": 757,
  "\u2581wana": 758,
  "\u2581word": 759,
  "\u2581kuye": 760,
  "\u2581meulu": 761,
  "\u2581moiti": 762,
  "fimbo": 763,
  "\u2581omatokolo": 764,
  "\u2581still": 765,
  "\u2581ekwafo": 766,
  "\u2581heaven": 767,
  "\u2581naJehova": 768,
  "\u2581nokukala": 769,
  "\u2581often": 770,
  "\u2581With": 771,
  "\u2581Daniel": 772,
  "\u2581ask": 773,
  "\u2581ovadali": 774,
  "\u2581needed": 775,
  "\u2581moshitukulwa": 776,
  "\u258129": 777,
  "\u2581began": 778,
  "\u2581ovana": 779,
  "\u2581twikile": 780,
  "\u25816,": 781,
  "\u2581novanhu": 782,
  "\u2581ope": 783,
  "\u2581understand": 784,
  "\u2581living": 785,
  "\u2581whom": 786,
  "\u25816.": 787,
  "\u258132": 788,
  "\u2581serving": 789,
  "\u2581sin": 790,
  "\u2581lilipi": 791,
  "\u2581shiiva": 792,
  "\u258118.": 793,
  "\u2581ilikana": 794,
  "\u2581nomwenyo": 795,
  "ve": 796,
  "\u2581ei": 797,
  "\u2581Psalm": 798,
  "\u2581oluhodi": 799,
  "\u2581twe": 800,
  "\u2581year": 801,
  "\u2581NW": 802,
  "\u2581laJesus": 803,
  "\u2581monghalamwenyo": 804,
  "\u2581oi": 805,
  "edina": 806,
  "\u2581remain": 807,
  "\u2581tave": 808,
  "\u2581ounona": 809,
  "\u2581Our": 810,
  "\u2581eenghendabala": 811,
  "\u2581wavo": 812,
  "\u2581ovahongwa": 813,
  "\u2581able": 814,
  "\u2581detu": 815,
  "\u2581ouyelele": 816,
  "\u2581woye": 817,
  "\u2581kufa": 818,
  "\u2581peni": 819,
  "\u2581joy": 820,
  "\u2581landula": 821,
  "\u2581really": 822,
  "\u2581benefit": 823,
  "\u2581prayer": 824,
  "\u2581Pet": 825,
  "\u2581By": 826,
  "\u2581tambula": 827,
  "\u2581under": 828,
  "\u2581felt": 829,
  "\u2581fellow": 830,
  "\u2581pandula": 831,
  "\u2581ovapiya": 832,
  "\u2581loving": 833,
  "\u2581nafye": 834,
  "\u2581omudiinini": 835,
  "\u2581Israelites": 836,
  "\u2581ehalo": 837,
  "\u2581okulonga": 838,
  "\u2581making": 839,
  "\u2581Matthew": 840,
  "\u2581aeshe": 841,
  "\u2581power": 842,
  "\u2581Then": 843,
  "\u2581Let": 844,
  "\u25813.": 845,
  "\u2581husband": 846,
  "\u2581meetings": 847,
  "\u2581shihapu": 848,
  "\u2581son": 849,
  "\u2581together": 850,
  "\u2581old": 851,
  "\u2581uda": 852,
  "\u2581personal": 853,
  "\u2581popiwa": 854,
  "\u2581denga": 855,
  "\u2581dula": 856,
  "\u2581Son": 857,
  "\u2581okuya": 858,
  "\u2581vene": 859,
  "\u2581father": 860,
  "\u2581close": 861,
  "\u2581Is": 862,
  "\u2581natu": 863,
  "\u2581down": 864,
  "\u2581best": 865,
  "\u25aa": 866,
  "metwokumwe": 867,
  "\u2581S": 868,
  "\u2581asked": 869,
  "\u2581bring": 870,
  "\u2581lihongo": 871,
  "\u2581wanenena": 872,
  "\u2581Yes": 873,
  "\u2581ourselves": 874,
  "\u2581sisters": 875,
  "\u2581Many": 876,
  "\u2581Ouhamba": 877,
  "\u2581among": 878,
  "\u2581vehe": 879,
  "\u2581page": 880,
  "\u2581lombwele": 881,
  "\u2581Mo": 882,
  "\u2581baptized": 883,
  "\u2581dihapu": 884,
  "\u2581noudiinini": 885,
  "\u2581tell": 886,
  "muyapostoli": 887,
  "\u2581pita": 888,
  "\u2581book": 889,
  "\u2581purpose": 890,
  "\u2581three": 891,
  "\u258112,": 892,
  "\u2581nai": 893,
  "\u2581counsel": 894,
  "\u2581linyengifa": 895,
  "\u2581nde": 896,
  "\u2581result": 897,
  "\u2581someone": 898,
  "\u2581themselves": 899,
  "\u2581Even": 900,
  "\u2581hafele": 901,
  "\u2581reason": 902,
  "\u2581century": 903,
  "\u2581His": 904,
  "inima": 905,
  "\u2581dimwe": 906,
  "\u2581learned": 907,
  "\u2581wanifa": 908,
  "\u2581yokuudifa": 909,
  "\u2581davo": 910,
  "\u2581udifa": 911,
  "\u2581Jerusalem": 912,
  "\u2581happy": 913,
  "\u2581hashi": 914,
  "\u2581nyamukula": 915,
  "\u2581relationship": 916,
  "\u2581nyik": 917,
  "\u2581full": 918,
  "\u2581lela": 919,
  "\u2581lipula": 920,
  "\u2581possible": 921,
  "\u258131": 922,
  "\u2581without": 923,
  "\u2581look": 924,
  "\u2581hangwa": 925,
  "\u2581ungaunga": 926,
  "\u2581yange": 927,
  "\u258119.": 928,
  "\u2581kava": 929,
  "\u2581vakwao": 930,
  "\u258133": 931,
  "\u2581On": 932,
  "\u2581lead": 933,
  "\u2581moukalele": 934,
  "\u2581shaKalunga": 935,
  "\u2581yuka": 936,
  "Oto": 937,
  "\u2581didilika": 938,
  "\u2581fact": 939,
  "S": 940,
  "\u2581continue": 941,
  "\u2581hand": 942,
  "\u2581care": 943,
  "Kala": 944,
  "\u2581last": 945,
  "\u2581oli": 946,
  "\u2581order": 947,
  "\u2581There": 948,
  "\u2581language": 949,
  "\u2581Yet": 950,
  "\u2581called": 951,
  "\u2581opa": 952,
  "\u2581message": 953,
  "efimbo": 954,
  "\u2581share": 955,
  "\u2581mother": 956,
  "\u2581ninginifwa": 957,
  "\u2581pokati": 958,
  "\u2581sure": 959,
  "\u2581yopamhepo": 960,
  "\u2581both": 961,
  "\u2581house": 962,
  "\u2581okulongifa": 963,
  "\u2581Because": 964,
  "\u2581ever": 965,
  "\u2581Epsalme": 966,
  "\u2581experience": 967,
  "\u2581mbada": 968,
  "\u2581knew": 969,
  "\u2581shiwa": 970,
  "A": 971,
  "\u2581hard": 972,
  "\u2581yoye": 973,
  "\u2581New": 974,
  "\u2581lange": 975,
  "nehalo": 976,
  "\u2581wanted": 977,
  "\u2581kumwe": 978,
  "Eps": 979,
  "\u2581ehafo": 980,
  "\u2581ende": 981,
  "\u2581eteelelo": 982,
  "\u2581koye": 983,
  "\u2581omhito": 984,
  "\u2581okulihonga": 985,
  "\u2581ovavaekwa": 986,
  "\u25812,": 987,
  "\u2581avoid": 988,
  "\u258134": 989,
  "\u2581friends": 990,
  "\u2581while": 991,
  "\u2581oshinakuwanifwa": 992,
  "\u2581ino": 993,
  "\u2581took": 994,
  "\u2581yelifa": 995,
  "\u258127": 996,
  "\u2581Ovakorinto": 997,
  "\u2581wicked": 998,
  "\u2581inene": 999,
  "\u2581mankind": 1000,
  "\u2581mean": 1001,
  "he": 1002,
  "pefimbo": 1003,
  "er": 1004,
  "\u2581enjoy": 1005,
  "\u2581face": 1006,
  "\u2581nota": 1007,
  "The": 1008,
  "\u2581bad": 1009,
  "\u2581hombola": 1010,
  "\u2581diva": 1011,
  "\u2581done": 1012,
  "\u2581omapulo": 1013,
  "\u2581pamhepo": 1014,
  "\u2581tila": 1015,
  "\u258110,": 1016,
  "Mateus": 1017,
  "\u2581child": 1018,
  "\u2581gift": 1019,
  "\u2581desire": 1020,
  "\u2581imitate": 1021,
  "\u2581omulumenhu": 1022,
  "\u2581edu": 1023,
  "\u2581okuulika": 1024,
  "P": 1025,
  "\u2581Consider": 1026,
  "\u2581adishe": 1027,
  "\u2581kaume": 1028,
  "\u258110)": 1029,
  "\u2581Timoteus": 1030,
  "\u2581trust": 1031,
  "\u2581omaukwatya": 1032,
  "Diladil": 1033,
  "\u2581knowledge": 1034,
  "\u2581loku": 1035,
  "\u2581My": 1036,
  "ongahelipi": 1037,
  "\u2581naave": 1038,
  "\u2581puka": 1039,
  "\u2581sister": 1040,
  "\u2581preach": 1041,
  "\u2581having": 1042,
  "\u2581Kake": 1043,
  "\u2581itatu": 1044,
  "\u2581likalekelwa": 1045,
  "\u2581naanaa": 1046,
  "\u2581woman": 1047,
  "\u2581different": 1048,
  "\u2581elalakano": 1049,
  "\u2581matter": 1050,
  "\u2581ndee": 1051,
  "\u2581lenga": 1052,
  "\u2581strong": 1053,
  "\u2581nandenande": 1054,
  "\u2581yoku": 1055,
  "\u258137": 1056,
  "\u2581oukwaneumbo": 1057,
  "\u2581longa": 1058,
  "\u2581lwaapo": 1059,
  "\u2581married": 1060,
  "\u2581mondjila": 1061,
  "\u2581okulongela": 1062,
  "\u258140": 1063,
  "\u2581toward": 1064,
  "\u2581difficult": 1065,
  "\u2581lives": 1066,
  "\u2581monika": 1067,
  "\u2581vakwetu": 1068,
  "pa": 1069,
  "\u2581receive": 1070,
  "\u2581cannot": 1071,
  "\u2581longe": 1072,
  "\u2581okaana": 1073,
  "\u2581upon": 1074,
  "udo": 1075,
  "\u258120.": 1076,
  "\u2581respect": 1077,
  "ha": 1078,
  "\u2581lashili": 1079,
  "\u258113)": 1080,
  "\u2581All": 1081,
  "\u2581halelela": 1082,
  "\u25814)": 1083,
  "\u2581few": 1084,
  "\u258115)": 1085,
  "\u2581free": 1086,
  "\u2581oka": 1087,
  "\u2581omaupyakadi": 1088,
  "\u2581organization": 1089,
  "\u2581ounyuni": 1090,
  "\u2581okupopya": 1091,
  "\u2581thinking": 1092,
  "di": 1093,
  "\u25818)": 1094,
  "\u2581pandunge": 1095,
  "\u2581saw": 1096,
  "delenee": 1097,
  "\u2581Mateus": 1098,
  "\u2581again": 1099,
  "\u2581naKalunga": 1100,
  "\u2581situation": 1101,
  "\u258111)": 1102,
  "\u2581however": 1103,
  "\u2581kwatelwa": 1104,
  "\u2581answer": 1105,
  "\u2581next": 1106,
  "\u2581Joseph": 1107,
  "\u2581fye": 1108,
  "\u2581de": 1109,
  "\u2581loyal": 1110,
  "\u2581yonhumba": 1111,
  "\u2581yourself": 1112,
  "\u2581better": 1113,
  "\u2581believe": 1114,
  "\u2581needs": 1115,
  "\u2581alishe": 1116,
  "\u2581heavenly": 1117,
  "malongelokalunga": 1118,
  "\u2581linene": 1119,
  "\u2581giving": 1120,
  "\u2581ovanyasha": 1121,
  "\u2581speak": 1122,
  "\u2581between": 1123,
  "\u2581kwaasho": 1124,
  "\u2581okuyandja": 1125,
  "hose": 1126,
  "\u2581hali": 1127,
  "\u2581kopahombo": 1128,
  "\u2581luhapu": 1129,
  "\u2581World": 1130,
  "\u2581Isaiah": 1131,
  "\u2581Vamwe": 1132,
  "\u2581eyes": 1133,
  "\u2581oshilonga": 1134,
  "\u2581problems": 1135,
  "\u2581tye": 1136,
  "\u25819)": 1137,
  "\u2581kovanhu": 1138,
  "\u2581oufembanghenda": 1139,
  "\u2581wisdom": 1140,
  "\u2581Genesis": 1141,
  "\u258117)": 1142,
  "\u258118,": 1143,
  "\u2581Oilonga": 1144,
  "\u2581koshoka": 1145,
  "\u2581Omukriste": 1146,
  "\u2581teach": 1147,
  "\u25813)": 1148,
  "\u2581W": 1149,
  "mu": 1150,
  "na": 1151,
  "\u2581faneke": 1152,
  "\u2581omadiladilo": 1153,
  "\u2581omalunduluko": 1154,
  "\u2581ondi": 1155,
  "\u2581shidjuu": 1156,
  "\u2581eongalo": 1157,
  "\u2581ohamba": 1158,
  "shikuli": 1159,
  "\u2581OMAIMBILO": 1160,
  "\u2581eli": 1161,
  "\u2581lotete": 1162,
  "\u2581real": 1163,
  "\u2581kindness": 1164,
  "\u2581omafimbo": 1165,
  "\u2581dimbuluka": 1166,
  "\u2581omwa": 1167,
  "\u2581wrong": 1168,
  "\u2581From": 1169,
  "\u2581eenghatu": 1170,
  "\u2581kind": 1171,
  "\u2581allow": 1172,
  "\u2581v": 1173,
  "\u2581kashi": 1174,
  "\u2581nopehe": 1175,
  "\u2581omumwatate": 1176,
  "twa": 1177,
  "\u2581nonda": 1178,
  "\u2581yOuhamba": 1179,
  "\u2581ookaume": 1180,
  "\u2581tete": 1181,
  "\u258112)": 1182,
  "\u258121.": 1183,
  "\u2581following": 1184,
  "\u2581holoka": 1185,
  "\u2581thought": 1186,
  "\u2581Lord": 1187,
  "\u2581ehe": 1188,
  "\u2581pray": 1189,
  "\u2581Samuel": 1190,
  "\u2581Timothy": 1191,
  "\u2581dimina": 1192,
  "\u2581king": 1193,
  "\u2581left": 1194,
  "\u2581try": 1195,
  "\u2581yambidida": 1196,
  "\u2581follow": 1197,
  "\u2581moku": 1198,
  "\u2581oixuna": 1199,
  "\u2581pehovelo": 1200,
  "\u25815)": 1201,
  "\u2581Joh": 1202,
  "\u2581likely": 1203,
  "\u2581moved": 1204,
  "\u2581Ina": 1205,
  "\u2581These": 1206,
  "\u2581feelings": 1207,
  "\u2581honga": 1208,
  "\u2581Luke": 1209,
  "\u2581members": 1210,
  "\u2581omukulukadi": 1211,
  "\u2581willing": 1212,
  "\u2581momadiladilo": 1213,
  "\u2581special": 1214,
  "\u2581conduct": 1215,
  "\u2581honor": 1216,
  "\u2581lwoikando": 1217,
  "\u2581went": 1218,
  "\u2581whe": 1219,
  "\u2581Acts": 1220,
  "\u2581account": 1221,
  "\u2581decisions": 1222,
  "\u2581haa": 1223,
  "\u2581okukonakona": 1224,
  "\u2581yefimbo": 1225,
  "inashi": 1226,
  "\u2581Although": 1227,
  "\u2581kongo": 1228,
  "\u2581shanga": 1229,
  "\u2581efyo": 1230,
  "\u2581ningilwa": 1231,
  "\u2581tamu": 1232,
  "\u2581yadi": 1233,
  "\u2581Your": 1234,
  "twe": 1235,
  "\u258116)": 1236,
  "\u2581Rom": 1237,
  "\u2581died": 1238,
  "\u2581omutima": 1239,
  "\u2581wise": 1240,
  "\u2581qualities": 1241,
  "\u2581ude": 1242,
  "\u2581munene": 1243,
  "\u2581Of": 1244,
  "\u2581Watchtower": 1245,
  "\u2581especially": 1246,
  "\u2581ihav": 1247,
  "\u2581kaasho": 1248,
  "\u2581received": 1249,
  "\u2581system": 1250,
  "\u258114)": 1251,
  "\u2581etokolo": 1252,
  "\u2581loved": 1253,
  "\u2581talk": 1254,
  "\u2581Ovajuda": 1255,
  "\u2581oikala": 1256,
  "\u2581Be": 1257,
  "\u2581fimaneka": 1258,
  "\u2581kuma": 1259,
  "\u2581near": 1260,
  "\u2581nwefw": 1261,
  "\u2581self": 1262,
  "\u25816)": 1263,
  "\u25817)": 1264,
  "\u2581change": 1265,
  "\u2581fine": 1266,
  "\u2581hoolola": 1267,
  "\u2581Does": 1268,
  "\u2581followers": 1269,
  "\u2581omunyasha": 1270,
  "\u2581voye": 1271,
  "\u2581law": 1272,
  "\u2581okushiiva": 1273,
  "\u2581pioneer": 1274,
  "\u2581pondola": 1275,
  "Omayeletumbulo": 1276,
  "\u2581hanga": 1277,
  "\u2581un": 1278,
  "\u2581waalushe": 1279,
  "\u2581Oshoshili": 1280,
  "\u2581lo": 1281,
  "\u2581oipupulu": 1282,
  "\u2581apostles": 1283,
  "\u2581attitude": 1284,
  "\u2581le": 1285,
  "\u2581oma": 1286,
  "\u2581spiritually": 1287,
  "\u2581wants": 1288,
  "\u2581Lwanima": 1289,
  "\u2581Ohamba": 1290,
  "\u2581ifanwa": 1291,
  "\u2581past": 1292,
  "\u2581Law": 1293,
  "\u2581city": 1294,
  "\u2581act": 1295,
  "\u2581enda": 1296,
  "\u2581examples": 1297,
  "\u2581hadi": 1298,
  "\u2581ransom": 1299,
  "\u2581soon": 1300,
  "\u2581known": 1301,
  "\u2581Ame": 1302,
  "\u2581Watch": 1303,
  "\u2581novamwameme": 1304,
  "\u2581pwilikine": 1305,
  "\u2581sacrifice": 1306,
  "\u2581sense": 1307,
  "\u2581sheep": 1308,
  "\u2581U": 1309,
  "\u2581katuka": 1310,
  "\u2581question": 1311,
  "\u2581little": 1312,
  "\u2581onghalo": 1313,
  "\u2581similar": 1314,
  "\u2581tumbulwa": 1315,
  "\u2581ame": 1316,
  "\u2581point": 1317,
  "\u2581resurrection": 1318,
  "\u2581righteous": 1319,
  "\u2581food": 1320,
  "\u2581gives": 1321,
  "\u2581omushamane": 1322,
  "\u2581shangwa": 1323,
  "\u2581SONGS": 1324,
  "\u2581etifa": 1325,
  "\u2581maintain": 1326,
  "\u2581obey": 1327,
  "\u2581teaching": 1328,
  "\u258115,": 1329,
  "\u2581Noah": 1330,
  "\u2581principles": 1331,
  "\u2581shiive": 1332,
  "\u2581taking": 1333,
  "\u2581wanifwa": 1334,
  "\u258112:": 1335,
  "\u2581dilipi": 1336,
  "\u2581nation": 1337,
  "\u2581oimaliwa": 1338,
  "eni": 1339,
  "\u2581THE": 1340,
  "\u2581vaKalunga": 1341,
  "\u2581vetu": 1342,
  "\u2581longifwa": 1343,
  "\u2581remember": 1344,
  "ohadi": 1345,
  "org": 1346,
  "\u2581Jews": 1347,
  "\u2581Omona": 1348,
  "\u2581eenghalo": 1349,
  "\u2581mokukala": 1350,
  "\u2581provide": 1351,
  "\u2581yokuhola": 1352,
  "\u2581kula": 1353,
  "\u2581mbudi": 1354,
  "\u2581mokati": 1355,
  "\u2581perfect": 1356,
  "\u2581shikula": 1357,
  "\u2581Who": 1358,
  "\u2581etumwalaka": 1359,
  "\u2581false": 1360,
  "\u2581got": 1361,
  "\u2581likolelela": 1362,
  "\u2581move": 1363,
  "\u2581number": 1364,
  "\u2581ovalihomboli": 1365,
  "\u2581ovalumenhu": 1366,
  "Rom": 1367,
  "\u2581certain": 1368,
  "\u2581kaye": 1369,
  "\u2581mOmbibeli": 1370,
  "\u2581forever": 1371,
  "\u2581ito": 1372,
  "\u2581mana": 1373,
  "\u2581shows": 1374,
  "\u2581wed": 1375,
  "\u2581yet": 1376,
  "\u25812)": 1377,
  "\u2581present": 1378,
  "\u2581privilege": 1379,
  "Omayel": 1380,
  "\u2581clear": 1381,
  "\u2581decision": 1382,
  "\u2581rule": 1383,
  "\u2581saying": 1384,
  "\u2581Corinthians": 1385,
  "\u2581Sha": 1386,
  "\u2581hokwa": 1387,
  "\u2581waJehova": 1388,
  "\u258123.": 1389,
  "\u2581Instead": 1390,
  "\u2581Jesaja": 1391,
  "\u2581dana": 1392,
  "\u2581money": 1393,
  "\u2581slave": 1394,
  "\u2581strengthen": 1395,
  "\u2581taught": 1396,
  "Gen": 1397,
  "mbo": 1398,
  "\u2581Paife": 1399,
  "\u2581die": 1400,
  "\u2581nations": 1401,
  "\u2581off": 1402,
  "\u2581reading": 1403,
  "\u2581Omishangwa": 1404,
  "\u2581case": 1405,
  "\u2581ketu": 1406,
  "\u2581oshali": 1407,
  "\u2581pama": 1408,
  "\u2581small": 1409,
  "\u2581twikila": 1410,
  "Oil": 1411,
  "mafiku": 1412,
  "\u2581makes": 1413,
  "\u2581Saul": 1414,
  "\u2581everlasting": 1415,
  "\u2581EPANDJA": 1416,
  "\u2581fully": 1417,
  "\u2581Heb": 1418,
  "\u2581Thus": 1419,
  "\u2581promise": 1420,
  "\u2581war": 1421,
  "tukulwa": 1422,
  "\u2581D": 1423,
  "\u2581information": 1424,
  "\u2581Jakob": 1425,
  "\u2581cause": 1426,
  "\u2581olupandu": 1427,
  "\u2581vavali": 1428,
  "\u2581circumstances": 1429,
  "\u2581mentioned": 1430,
  "\u2581oshiponga": 1431,
  "\u2581etela": 1432,
  "\u2581far": 1433,
  "\u2581prophet": 1434,
  "\u2581sons": 1435,
  "\u2581Romans": 1436,
  "\u2581comfort": 1437,
  "\u2581lOuhamba": 1438,
  "\u2581mawa": 1439,
  "\u2581oushili": 1440,
  "mahongo": 1441,
  "\u2581mupe": 1442,
  "mumwatate": 1443,
  "ya": 1444,
  "\u2581draw": 1445,
  "\u2581Mat": 1446,
  "\u2581accept": 1447,
  "\u2581around": 1448,
  "\u2581going": 1449,
  "\u2581hasho": 1450,
  "\u2581sent": 1451,
  "\u2581vaJehova": 1452,
  "\u2581Eps": 1453,
  "\u2581control": 1454,
  "\u2581religious": 1455,
  "\u2581second": 1456,
  "\u2581Eve": 1457,
  "\u2581age": 1458,
  "\u2581eta": 1459,
  "\u2581greater": 1460,
  "\u2581nouladi": 1461,
  "\u2581oho": 1462,
  "\u2581oinakuwanifwa": 1463,
  "\u2581prayers": 1464,
  "\u2581'?": 1465,
  "\u2581Ka": 1466,
  "\u2581blessings": 1467,
  "\u2581comes": 1468,
  "\u2581fika": 1469,
  "\u2581nangekw": 1470,
  "\u2581navamwe": 1471,
  "\u2581okuhenuka": 1472,
  "\u2581opportunity": 1473,
  "\u2581shonhumba": 1474,
  "\u2581thus": 1475,
  "\u2581moinima": 1476,
  "\u2581muwa": 1477,
  "\u2581okatend": 1478,
  "\u2581until": 1479,
  "\u2581heard": 1480,
  "\u2581noha": 1481,
  "\u2581righteousness": 1482,
  "\u2581turn": 1483,
  "\u2581Are": 1484,
  "\u2581Oku": 1485,
  "\u2581file": 1486,
  "\u2581okuuda": 1487,
  "\u2581truly": 1488,
  "keshe": 1489,
  "\u2581Can": 1490,
  "\u2581early": 1491,
  "\u2581temple": 1492,
  "Onda": 1493,
  "\u2581Tala": 1494,
  "\u2581matters": 1495,
  "less": 1496,
  "\u2581brought": 1497,
  "\u2581dimine": 1498,
  "\u2581itava": 1499,
  "\u2581pokwoongala": 1500,
  "\u2581prove": 1501,
  "\u2581visit": 1502,
  "\u2581women": 1503,
  "Joh": 1504,
  "\u2581okutala": 1505,
  "\u2581omalimbililo": 1506,
  "\u2581prophecy": 1507,
  "\u2581stay": 1508,
  "st": 1509,
  "\u2581ancient": 1510,
  "\u2581coming": 1511,
  "\u2581vange": 1512,
  "es": 1513,
  "\u2581omuyapostoli": 1514,
  "\u2581taleni": 1515,
  "\u2581Kunena": 1516,
  "\u2581Rather": 1517,
  "\u2581kufye": 1518,
  "\u2581ouladi": 1519,
  "\u2581wo": 1520,
  "\u2581yoolokafana": 1521,
  "mwe": 1522,
  "m": 1523,
  "\u2581Okukala": 1524,
  "\u2581Omafimbo": 1525,
  "\u2581attention": 1526,
  "\u2581ladipika": 1527,
  "\u2581inspired": 1528,
  "\u2581katu": 1529,
  "\u2581kwetu": 1530,
  "\u2581naavo": 1531,
  "\u2581nomutima": 1532,
  "\u2581nor": 1533,
  "\u2581omaliudo": 1534,
  "\u2581omukainhu": 1535,
  "\u2581Tate": 1536,
  "\u2581nangeka": 1537,
  "\u2581ehangano": 1538,
  "\u2581elder": 1539,
  "\u2581serious": 1540,
  "\u2581using": 1541,
  "ukwatya": 1542,
  "\u2581notu": 1543,
  "\u2581apply": 1544,
  "\u2581involved": 1545,
  "\u2581land": 1546,
  "\u2581seem": 1547,
  "\u2581started": 1548,
  "\u2581meaning": 1549,
  "ifa": 1550,
  "\u258118)": 1551,
  "\u2581Me": 1552,
  "\u2581Shi": 1553,
  "\u2581Solomon": 1554,
  "\u2581okudulika": 1555,
  "\u2581shaJehova": 1556,
  "Luk": 1557,
  "\u2581More": 1558,
  "\u2581Picture": 1559,
  "\u2581shotete": 1560,
  "\u25811914": 1561,
  "\u2581Today": 1562,
  "\u2581courage": 1563,
  "\u2581pameke": 1564,
  "\u2581000": 1565,
  "\u2581body": 1566,
  "\u2581hafifa": 1567,
  "\u2581longela": 1568,
  "\u2581since": 1569,
  "\u2581PAGE": 1570,
  "\u2581dead": 1571,
  "\u2581reflect": 1572,
  "\u2581s": 1573,
  "kept": 1574,
  "\u2581Did": 1575,
  "\u2581Okudja": 1576,
  "\u2581ava": 1577,
  "\u2581elaka": 1578,
  "\u2581freedom": 1579,
  "\u2581friend": 1580,
  "\u2581monghal": 1581,
  "\u2581oupyakadi": 1582,
  "\u2581please": 1583,
  "\u2581promises": 1584,
  "\u258138": 1585,
  "\u2581nonokutya": 1586,
  "\u2581ondjabi": 1587,
  "\u2581whole": 1588,
  "\u2581witness": 1589,
  "spite": 1590,
  "\u2581Josef": 1591,
  "\u2581everything": 1592,
  "\u2581helps": 1593,
  "\u2581twala": 1594,
  "\u2581Natango": 1595,
  "\u2581focus": 1596,
  "\u2581four": 1597,
  "\u2581kw": 1598,
  "\u2581ondjila": 1599,
  "\u2581James": 1600,
  "\u2581Mark": 1601,
  "\u2581Mary": 1602,
  "\u2581oudiinini": 1603,
  "\u2581oupafi": 1604,
  "\u2581yovanhu": 1605,
  "to": 1606,
  "\u258124.": 1607,
  "\u2581country": 1608,
  "\u2581provided": 1609,
  "\u2581reach": 1610,
  "\u2581school": 1611,
  "\u258122.": 1612,
  "\u2581Oye": 1613,
  "\u2581material": 1614,
  "\u2581nomolwaasho": 1615,
  "\u2581ohe": 1616,
  "\u2581ohombo": 1617,
  "\u2581owii": 1618,
  "\u2581strength": 1619,
  "\u2581Fi": 1620,
  "\u2581Like": 1621,
  "\u2581affect": 1622,
  "\u2581blessing": 1623,
  "\u2581meumbo": 1624,
  "\u2581oukaume": 1625,
  "shinima": 1626,
  "\u2581Ps": 1627,
  "\u2581along": 1628,
  "\u2581direction": 1629,
  "\u2581kape": 1630,
  "\u2581wonhumba": 1631,
  "\u2581Matt": 1632,
  "\u2581anyone": 1633,
  "\u2581eenghedi": 1634,
  "\u2581emanguluko": 1635,
  "\u2581lipe": 1636,
  "\u2581nove": 1637,
  "\u2581yooloka": 1638,
  "Oshitukulwa": 1639,
  "\u25812012": 1640,
  "\u2581couple": 1641,
  "\u2581muJehova": 1642,
  "\u2581okutul": 1643,
  "\u2581states": 1644,
  "\u2581taalela": 1645,
  "\u2581wom": 1646,
  "\u258119)": 1647,
  "\u2581Society": 1648,
  "\u2581etele": 1649,
  "\u2581embo": 1650,
  "\u2581lile": 1651,
  "\u2581Would": 1652,
  "\u2581fear": 1653,
  "\u2581individuals": 1654,
  "\u2581meeting": 1655,
  "\u2581suffering": 1656,
  "mido": 1657,
  "\u2581apa": 1658,
  "\u2581appreciate": 1659,
  "\u2581deep": 1660,
  "\u2581happened": 1661,
  "\u2581older": 1662,
  "\u2581pandjikilile": 1663,
  "\u2581start": 1664,
  "\u2581understanding": 1665,
  "\u2581elineekelo": 1666,
  "\u2581kingdom": 1667,
  "\u2581promised": 1668,
  "\u2581return": 1669,
  "\u2581Ovo": 1670,
  "\u2581odi": 1671,
  "\u2581events": 1672,
  "\u2581field": 1673,
  "\u2581nothing": 1674,
  "\u2581sins": 1675,
  "You": 1676,
  "\u2581Will": 1677,
  "\u2581baptism": 1678,
  "\u2581else": 1679,
  "\u2581oumbangi": 1680,
  "\u2581standards": 1681,
  "\u2581Bethel": 1682,
  "\u2581axuuninwa": 1683,
  "\u2581naame": 1684,
  "\u2581toko": 1685,
  "\u2581vashili": 1686,
  "\u2581Kungaho": 1687,
  "\u2581Proverbs": 1688,
  "\u2581Revelation": 1689,
  "\u2581showed": 1690,
  "fiku": 1691,
  "\u2581B": 1692,
  "\u2581doubt": 1693,
  "\u2581group": 1694,
  "\u2581shipu": 1695,
  "\u2581thing": 1696,
  "\u2581covenant": 1697,
  "\u2581omhumbwe": 1698,
  "\u2581ouyuki": 1699,
  "\u2581pumbiwa": 1700,
  "\u2581womeulu": 1701,
  "\u2581Sam": 1702,
  "\u2581aJehova": 1703,
  "\u2581already": 1704,
  "\u2581congregations": 1705,
  "\u2581loshitukulwa": 1706,
  "\u2581night": 1707,
  "\u2581omulongo": 1708,
  "\u2581shita": 1709,
  "tulila": 1710,
  "\u2581Omhepo": 1711,
  "\u2581angels": 1712,
  "\u2581large": 1713,
  "\u2581ombedi": 1714,
  "hile": 1715,
  "\u258120)": 1716,
  "\u2581F": 1717,
  "\u2581See": 1718,
  "\u2581determined": 1719,
  "\u2581effort": 1720,
  "\u2581koshi": 1721,
  "\u2581unity": 1722,
  "\u2581Scriptural": 1723,
  "\u2581udifile": 1724,
  "\u2581Devil": 1725,
  "\u2581Dur": 1726,
  "\u2581Not": 1727,
  "\u2581Ovaroma": 1728,
  "\u2581activities": 1729,
  "\u2581kokule": 1730,
  "\u2581lost": 1731,
  "\u2581oikulya": 1732,
  "\u2581once": 1733,
  "kuninga": 1734,
  "ness": 1735,
  "\u2581exulilo": 1736,
  "\u2581health": 1737,
  "\u2581tribulation": 1738,
  "\u2581written": 1739,
  "in": 1740,
  "\u2581Onghedi": 1741,
  "\u2581nelalakano": 1742,
  "shihe": 1743,
  "\u2581anything": 1744,
  "\u2581appreciation": 1745,
  "\u2581interest": 1746,
  "\u2581nyanyangidwa": 1747,
  "\u2581ohokwe": 1748,
  "\u2581Efan": 1749,
  "\u2581leave": 1750,
  "\u2581nomolwashike": 1751,
  "\u2581wanife": 1752,
  "\u2581Still": 1753,
  "\u2581mate": 1754,
  "\u2581nyona": 1755,
  "\u2581opening": 1756,
  "uch": 1757,
  "\u2581hear": 1758,
  "\u2581nokwe": 1759,
  "\u2581nye": 1760,
  "\u2581religion": 1761,
  "\u2581wapalele": 1762,
  "\u2581People": 1763,
  "\u2581expect": 1764,
  "\u2581issue": 1765,
  "\u2581lived": 1766,
  "\u2581ounongo": 1767,
  "\u2581changed": 1768,
  "\u2581efano": 1769,
  "\u2581nomukulukadi": 1770,
  "\u2581Creator": 1771,
  "\u2581effect": 1772,
  "\u2581experienced": 1773,
  "\u2581lopamhepo": 1774,
  "\u2581ningila": 1775,
  "Heb": 1776,
  "\u2581mbali": 1777,
  "\u2581omitima": 1778,
  "\u2581xunganeka": 1779,
  "\u2581Nopehe": 1780,
  "\u2581eumbo": 1781,
  "\u2581evidence": 1782,
  "\u2581seen": 1783,
  "nge": 1784,
  "\u2581advice": 1785,
  "\u2581choose": 1786,
  "\u2581including": 1787,
  "\u2581kange": 1788,
  "\u2581lopaKriste": 1789,
  "\u2581rather": 1790,
  "\u2581spoke": 1791,
  "mulumenhu": 1792,
  "\u2581hau": 1793,
  "\u2581ine": 1794,
  "\u2581okuhopaenena": 1795,
  "\u2581perhaps": 1796,
  "\u2581regarding": 1797,
  "\u2581works": 1798,
  "\u25819,": 1799,
  "\u2581aeke": 1800,
  "\u2581ange": 1801,
  "\u2581confidence": 1802,
  "\u2581gain": 1803,
  "\u2581hombolwa": 1804,
  "\u2581oilyo": 1805,
  "\u258114,": 1806,
  "\u2581Since": 1807,
  "\u2581assignment": 1808,
  "\u2581here": 1809,
  "\u2581discuss": 1810,
  "able": 1811,
  "\u2581Greek": 1812,
  "\u2581Jeremiah": 1813,
  "\u2581Lukas": 1814,
  "\u2581Trac": 1815,
  "\u2581concern": 1816,
  "\u2581elongelokalunga": 1817,
  "\u2581muhapu": 1818,
  "\u2581thoughts": 1819,
  "\u2581yokukala": 1820,
  "\u25815,": 1821,
  "\u2581Hebrew": 1822,
  "\u2581Omunhu": 1823,
  "\u2581lOmbibeli": 1824,
  "\u2581lonhumba": 1825,
  "\u2581mOmbiibeli": 1826,
  "\u2581manguluka": 1827,
  "\u2581ongudu": 1828,
  "\u2581omamiliyona": 1829,
  "\u2581pangela": 1830,
  "\u2581ulipi": 1831,
  "Epsalme": 1832,
  "matomheno": 1833,
  "\u2581Ovaheberi": 1834,
  "\u2581answers": 1835,
  "\u2581appointed": 1836,
  "\u2581chapter": 1837,
  "\u2581encourage": 1838,
  "\u2581helping": 1839,
  "\u2581kwatwa": 1840,
  "\u2581monakwiiwa": 1841,
  "\u2581wefimbo": 1842,
  "\u2581wonderful": 1843,
  "\u2581worshippers": 1844,
  "Jehovah": 1845,
  "\u2581Nomolwaasho": 1846,
  "\u2581clearly": 1847,
  "\u2581dalwa": 1848,
  "\u2581efforts": 1849,
  "\u2581encouragement": 1850,
  "\u2581hearts": 1851,
  "\u2581holola": 1852,
  "\u2581listen": 1853,
  "\u2581naJesus": 1854,
  "omhito": 1855,
  "\u2581owe": 1856,
  "\u2581pameka": 1857,
  "\u2581picture": 1858,
  "\u2581Brother": 1859,
  "\u2581Now": 1860,
  "\u2581okudiladila": 1861,
  "\u2581stand": 1862,
  "\u2581Ovadali": 1863,
  "\u2581Ove": 1864,
  "\u2581epangelo": 1865,
  "\u2581high": 1866,
  "\u2581imperfect": 1867,
  "\u2581named": 1868,
  "\u2581powerful": 1869,
  "\u2581precious": 1870,
  "\u2581realize": 1871,
  "\u2581responsibility": 1872,
  "omukulunhuongalo": 1873,
  "\u2581certainly": 1874,
  "\u2581goal": 1875,
  "\u2581kola": 1876,
  "\u2581kuvo": 1877,
  "\u2581kwaye": 1878,
  "\u2581Just": 1879,
  "\u2581Pennsylvania": 1880,
  "\u2581amene": 1881,
  "\u2581available": 1882,
  "\u2581fila": 1883,
  "\u2581hange": 1884,
  "\u2581influence": 1885,
  "\u2581omalalakano": 1886,
  "\u2581taken": 1887,
  "\u2581Translation": 1888,
  "\u2581believers": 1889,
  "\u2581form": 1890,
  "\u2581head": 1891,
  "\u2581kanini": 1892,
  "\u2581lwanima": 1893,
  "\u2581nehafo": 1894,
  "\u2581pages": 1895,
  "\u2581regularly": 1896,
  "\u2581respond": 1897,
  "\u2581teka": 1898,
  "\u2581vaha": 1899,
  "\u258145": 1900,
  "\u2581longer": 1901,
  "\u2581simply": 1902,
  "\u2581tried": 1903,
  "\u2581working": 1904,
  "\u258135": 1905,
  "\u2581Ehololo": 1906,
  "\u2581shakeneke": 1907,
  "va": 1908,
  "\u00a9": 1909,
  "\u2581foretold": 1910,
  "\u2581glory": 1911,
  "\u2581offer": 1912,
  "\u2581regard": 1913,
  "\u2581xulifa": 1914,
  "avo": 1915,
  "w": 1916,
  "\u2581Omolwaashi": 1917,
  "\u2581actions": 1918,
  "\u2581ii": 1919,
  "\u2581kavo": 1920,
  "\u2581linyenga": 1921,
  "\u2581nombili": 1922,
  "\u2581okulesha": 1923,
  "\u2581tuma": 1924,
  "okutambula": 1925,
  "\u2581exumokomesho": 1926,
  "\u2581humble": 1927,
  "\u2581letter": 1928,
  "\u2581omupiya": 1929,
  "\u2581served": 1930,
  "\u2581deal": 1931,
  "\u2581desires": 1932,
  "\u2581hamu": 1933,
  "\u2581hokiwa": 1934,
  "\u2581kwatele": 1935,
  "\u2581onhele": 1936,
  "\u2581rest": 1937,
  "\u2581water": 1938,
  "ww": 1939,
  "\u2581carry": 1940,
  "\u2581onghandangala": 1941,
  "\u258125.": 1942,
  "\u25818,": 1943,
  "\u2581Egypt": 1944,
  "\u2581Maria": 1945,
  "\u2581Their": 1946,
  "\u2581hekeleke": 1947,
  "\u2581light": 1948,
  "\u2581lundulula": 1949,
  "\u2581moule": 1950,
  "\u2581shangela": 1951,
  "\u2581Noa": 1952,
  "\u2581Va": 1953,
  "\u2581based": 1954,
  "\u2581changes": 1955,
  "\u2581created": 1956,
  "\u2581explained": 1957,
  "\u2581fiya": 1958,
  "\u2581illustration": 1959,
  "\u2581okuwanif": 1960,
  "Y": 1961,
  "\u2581H": 1962,
  "\u2581easy": 1963,
  "\u2581everyone": 1964,
  "\u2581noinima": 1965,
  "\u2581omafano": 1966,
  "\u2581omanangeko": 1967,
  "\u258121)": 1968,
  "\u2581Ovamwatate": 1969,
  "\u2581accepted": 1970,
  "\u2581conscience": 1971,
  "\u2581ewiliko": 1972,
  "\u2581flesh": 1973,
  "\u2581hopaenene": 1974,
  "\u2581meet": 1975,
  "\u2581okuudifa": 1976,
  "\u2581authority": 1977,
  "\u2581complete": 1978,
  "\u2581hafela": 1979,
  "\u2581haku": 1980,
  "oshikando": 1981,
  "sheshi": 1982,
  "ye": 1983,
  "\u258123)": 1984,
  "\u258139": 1985,
  "\u2581Later": 1986,
  "\u2581endure": 1987,
  "\u2581mE": 1988,
  "\u2581pitif": 1989,
  "Ef": 1990,
  "\u2581alone": 1991,
  "\u2581kokwoongala": 1992,
  "\u2581ladipike": 1993,
  "\u2581shavo": 1994,
  "\u2581yoinima": 1995,
  "\u2581branch": 1996,
  "\u2581donhumba": 1997,
  "\u2581examine": 1998,
  "\u2581lonale": 1999,
  "\u2581vaJesus": 2000,
  "\u2581wilike": 2001,
  "\u2581goals": 2002,
  "\u2581shange": 2003,
  "\u2581stated": 2004,
  "\u2581vital": 2005,
  "Johannes": 2006,
  "\u2581Also": 2007,
  "\u2581Messiah": 2008,
  "\u2581car": 2009,
  "\u2581discipline": 2010,
  "\u2581earthly": 2011,
  "\u2581grow": 2012,
  "\u2581ivali": 2013,
  "\u2581knows": 2014,
  "\u2581ngenge": 2015,
  "\u2581nom": 2016,
  "\u2581physical": 2017,
  "\u2581yokukalamwenyo": 2018,
  "\u2581happiness": 2019,
  "\u2581heavens": 2020,
  "\u2581okweefa": 2021,
  "\u2581pauhandimwe": 2022,
  "\u2581training": 2023,
  "\u258122,": 2024,
  "\u2581Salomo": 2025,
  "\u2581Ye": 2026,
  "\u2581continued": 2027,
  "\u2581practical": 2028,
  "\u2581build": 2029,
  "\u2581hands": 2030,
  "\u2581keumbo": 2031,
  "\u2581onhumba": 2032,
  "\u2581pangele": 2033,
  "\u2581trials": 2034,
  "\u2581worldwide": 2035,
  "Jes": 2036,
  "nda": 2037,
  "\u25817,": 2038,
  "\u2581Hebrews": 2039,
  "\u2581Indeed": 2040,
  "\u2581eshiivo": 2041,
  "\u2581force": 2042,
  "\u2581happen": 2043,
  "\u2581oidjemo": 2044,
  "\u2581oukalele": 2045,
  "\u258116,": 2046,
  "\u2581Have": 2047,
  "\u2581Omayel": 2048,
  "\u2581Or": 2049,
  "\u2581ability": 2050,
  "\u2581decided": 2051,
  "\u2581hanaunw": 2052,
  "\u2581ihe": 2053,
  "\u2581imagine": 2054,
  "\u2581open": 2055,
  "\u2581reasons": 2056,
  "\u2581uye": 2057,
  "omahalo": 2058,
  "pingafan": 2059,
  "vapiya": 2060,
  "\u2581Cor": 2061,
  "\u2581Ile": 2062,
  "\u2581Ohole": 2063,
  "\u2581Ota": 2064,
  "\u2581efe": 2065,
  "\u2581nosha": 2066,
  "\u2581speaking": 2067,
  "\u2581born": 2068,
  "\u2581divine": 2069,
  "\u2581mohombo": 2070,
  "\u2581naEva": 2071,
  "\u2581position": 2072,
  "\u2581recorded": 2073,
  "\u2581regular": 2074,
  "\u2581value": 2075,
  "\u258129.": 2076,
  "\u2581May": 2077,
  "\u2581lilongekida": 2078,
  "\u2581lipyakidila": 2079,
  "\u2581udu": 2080,
  "\u2581whose": 2081,
  "\u25812013": 2082,
  "\u2581Oshi": 2083,
  "\u2581Sarah": 2084,
  "\u2581encouraged": 2085,
  "\u2581join": 2086,
  "\u2581onghenda": 2087,
  "Eh": 2088,
  "God": 2089,
  "\u258150": 2090,
  "\u2581Gen": 2091,
  "\u2581kaleke": 2092,
  "\u2581okwiilikana": 2093,
  "\u2581published": 2094,
  "\u2581sexual": 2095,
  "\u2581shilipi": 2096,
  "\u2581First": 2097,
  "\u2581Ou": 2098,
  "\u2581Roman": 2099,
  "\u2581daughter": 2100,
  "\u2581kwefimbo": 2101,
  "\u2581led": 2102,
  "\u2581public": 2103,
  "over": 2104,
  "\u2581blood": 2105,
  "\u2581closer": 2106,
  "\u2581greatest": 2107,
  "\u2581kumwa": 2108,
  "\u2581pauyadi": 2109,
  "\u2581showing": 2110,
  "th": 2111,
  "\u2581Tu": 2112,
  "\u2581hovele": 2113,
  "\u2581local": 2114,
  "\u2581ne": 2115,
  "\u2581nok": 2116,
  "\u2581note": 2117,
  "\u2581noukwaneumbo": 2118,
  "\u2581noupu": 2119,
  "\u2581okukong": 2120,
  "\u2581stop": 2121,
  "itai": 2122,
  "\u258143": 2123,
  "\u2581Omapulo": 2124,
  "\u2581common": 2125,
  "\u2581udanekela": 2126,
  "\u2581vom": 2127,
  "\u2581Oil": 2128,
  "\u2581allowed": 2129,
  "\u2581develop": 2130,
  "\u2581dimbulukifa": 2131,
  "\u2581nokuninga": 2132,
  "\u2581udaneka": 2133,
  "hapu": 2134,
  "itali": 2135,
  "pexulifodiladilo": 2136,
  "\u258141": 2137,
  "\u2581Kashi": 2138,
  "\u2581explains": 2139,
  "\u2581express": 2140,
  "\u2581government": 2141,
  "\u2581kwaav": 2142,
  "\u2581problem": 2143,
  "\u2581pyokoka": 2144,
  "\u2581ulikila": 2145,
  "\u2581xumif": 2146,
  "\u258122)": 2147,
  "\u2581Therefore": 2148,
  "\u2581forgive": 2149,
  "\u2581tomhwa": 2150,
  "\u2581warning": 2151,
  "\u25814,": 2152,
  "\u2581York": 2153,
  "\u2581considered": 2154,
  "\u2581nayo": 2155,
  "\u2581protect": 2156,
  "\u2581Jewish": 2157,
  "\u2581diladile": 2158,
  "\u2581harmony": 2159,
  "\u2581modolongo": 2160,
  "\u2581ovayapostoli": 2161,
  "\u2581ten": 2162,
  "Omwene": 2163,
  "longelokalunga": 2164,
  "on": 2165,
  "\u2581ashishe": 2166,
  "\u2581humility": 2167,
  "\u2581komhepo": 2168,
  "\u2581okukuf": 2169,
  "\u2581okulipula": 2170,
  "\u2581ondilo": 2171,
  "\u2581pioneers": 2172,
  "\u258111,": 2173,
  "\u258128.": 2174,
  "\u2581Omumwameme": 2175,
  "\u2581amena": 2176,
  "\u2581handuka": 2177,
  "\u2581ikwao": 2178,
  "\u2581okukalek": 2179,
  "\u2581okuungaung": 2180,
  "\u2581raised": 2181,
  "\u2581role": 2182,
  "\u2581single": 2183,
  "\u2581clean": 2184,
  "\u2581earlier": 2185,
  "\u2581noilonga": 2186,
  "\u2581oiimati": 2187,
  "\u2581publications": 2188,
  "\u2581quickly": 2189,
  "\u2581seek": 2190,
  "\u2581tonde": 2191,
  "\u2581BIBLE": 2192,
  "\u2581Nokuli": 2193,
  "\u2581aha": 2194,
  "\u2581hold": 2195,
  "\u2581nonghalamwenyo": 2196,
  "\u2581paragraph": 2197,
  "\u2581sho": 2198,
  "wiliki": 2199,
  "\u2581Jeremia": 2200,
  "\u2581call": 2201,
  "\u2581lihonge": 2202,
  "\u2581meditate": 2203,
  "\u2581oludalo": 2204,
  "\u2581oufemba": 2205,
  "\u2581Jacob": 2206,
  "\u2581aKalunga": 2207,
  "\u2581described": 2208,
  "\u2581eityo": 2209,
  "\u2581lesson": 2210,
  "\u2581ovamwaxe": 2211,
  "\u2581prayed": 2212,
  "\u2581ready": 2213,
  "C": 2214,
  "\u25812011": 2215,
  "\u2581daily": 2216,
  "\u2581eedi": 2217,
  "\u2581enemies": 2218,
  "\u2581forward": 2219,
  "\u2581omunahole": 2220,
  "\u2581onde": 2221,
  "\u2581sever": 2222,
  "\u2581100": 2223,
  "\u2581Prov": 2224,
  "\u2581benefits": 2225,
  "\u2581enough": 2226,
  "\u2581itavele": 2227,
  "\u2581komutima": 2228,
  "\u2581seeking": 2229,
  "\u2581vanini": 2230,
  "r": 2231,
  "\u2581Kape": 2232,
  "\u2581Ope": 2233,
  "\u2581ahead": 2234,
  "\u2581dilonga": 2235,
  "\u2581eemhumbwe": 2236,
  "\u2581judgment": 2237,
  "\u2581kEendombwedi": 2238,
  "\u2581laws": 2239,
  "\u2581longwa": 2240,
  "\u2581offered": 2241,
  "\u2581omayeleko": 2242,
  "\u2581onghee": 2243,
  "\u2581personality": 2244,
  "\u258133.": 2245,
  "\u2581Tower": 2246,
  "\u2581enjoyed": 2247,
  "\u2581months": 2248,
  "\u2581myself": 2249,
  "\u2581ningile": 2250,
  "\u2581noka": 2251,
  "\u2581overseer": 2252,
  "\u2581prepare": 2253,
  "\u2581proved": 2254,
  "\u2581servant": 2255,
  "\u2581worked": 2256,
  "hokololo": 2257,
  "\u258130.": 2258,
  "\u2581action": 2259,
  "\u2581creation": 2260,
  "\u2581dovanhu": 2261,
  "\u2581history": 2262,
  "\u2581kanifa": 2263,
  "\u2581languages": 2264,
  "\u2581moshilongo": 2265,
  "\u2581omeva": 2266,
  "\u2581oshe": 2267,
  "\u2581ulikile": 2268,
  "fikola": 2269,
  "sha": 2270,
  "\u258113,": 2271,
  "\u2581L": 2272,
  "\u2581ehene": 2273,
  "\u2581omukokolindjila": 2274,
  "\u2581oukumwe": 2275,
  "\u2581oundombwedi": 2276,
  "\u2581praise": 2277,
  "\u2581therefore": 2278,
  "N": 2279,
  "en": 2280,
  "\u2581Before": 2281,
  "\u2581Life": 2282,
  "\u2581Oshungonangelo": 2283,
  "\u2581alive": 2284,
  "\u2581lot": 2285,
  "\u2581oihopaenenwa": 2286,
  "\u2581okwoongala": 2287,
  "\u2581otave": 2288,
  "\u2581pain": 2289,
  "\u2581teachings": 2290,
  "\u2581woku": 2291,
  "\u2581xupifa": 2292,
  "\u2581yomido": 2293,
  "\u2581Asa": 2294,
  "\u2581Perhaps": 2295,
  "\u2581contain": 2296,
  "\u2581lopedu": 2297,
  "\u2581psalmist": 2298,
  "\u2581sacrifices": 2299,
  "\u258136": 2300,
  "\u2581States": 2301,
  "\u2581muKalunga": 2302,
  "\u2581ovaitaveli": 2303,
  "\u2581Really": 2304,
  "\u2581choice": 2305,
  "\u2581cultivate": 2306,
  "\u2581elela": 2307,
  "\u2581kanghame": 2308,
  "\u2581lombwelwa": 2309,
  "\u2581ovaengeli": 2310,
  "\u2581ovanamido": 2311,
  "\u258124,": 2312,
  "\u2581Luhapu": 2313,
  "\u2581Xe": 2314,
  "\u2581doye": 2315,
  "\u2581evident": 2316,
  "\u2581grateful": 2317,
  "\u2581instance": 2318,
  "\u2581lihapu": 2319,
  "\u2581londwela": 2320,
  "\u2581notashi": 2321,
  "\u2581omafiku": 2322,
  "\u2581subject": 2323,
  "Kalunga": 2324,
  "da": 2325,
  "hashi": 2326,
  "\u258127.": 2327,
  "\u2581Hall": 2328,
  "\u2581Oha": 2329,
  "\u2581according": 2330,
  "\u2581challenges": 2331,
  "\u2581ehongo": 2332,
  "\u2581fight": 2333,
  "\u2581learning": 2334,
  "\u2581oita": 2335,
  "\u2581omhango": 2336,
  "\u2581oulunde": 2337,
  "\u2581within": 2338,
  "\u2581Others": 2339,
  "\u2581convention": 2340,
  "\u2581dipaa": 2341,
  "\u2581fulfilled": 2342,
  "\u2581membo": 2343,
  "\u2581publishers": 2344,
  "\u2581shuna": 2345,
  "\u2581tumbula": 2346,
  "\u2581wapala": 2347,
  "Genesis": 2348,
  "In": 2349,
  "elo": 2350,
  "\u2581Most": 2351,
  "\u2581henuke": 2352,
  "\u2581noushili": 2353,
  "\u2581pauyuki": 2354,
  "\u2581wonder": 2355,
  "\u258117,": 2356,
  "\u2581An": 2357,
  "\u2581United": 2358,
  "\u2581articles": 2359,
  "\u2581beautiful": 2360,
  "\u2581getting": 2361,
  "\u2581meenghal": 2362,
  "\u2581meenghedi": 2363,
  "\u2581nwefa": 2364,
  "\u2581omumwameme": 2365,
  "\u2581treat": 2366,
  "\u2581xe": 2367,
  "mhito": 2368,
  "\u2581119": 2369,
  "\u2581books": 2370,
  "\u2581epulo": 2371,
  "\u2581knowing": 2372,
  "\u2581occasion": 2373,
  "\u2581omafinamhango": 2374,
  "\u2581shakeneka": 2375,
  "\u2581tetekela": 2376,
  "\u2581Babylon": 2377,
  "\u2581Luk": 2378,
  "\u2581Messias": 2379,
  "\u2581begin": 2380,
  "\u2581guidance": 2381,
  "\u2581ifana": 2382,
  "\u2581invited": 2383,
  "\u2581noya": 2384,
  "\u2581oipala": 2385,
  "\u2581paradise": 2386,
  "\u2581resurrected": 2387,
  "\u2581uditile": 2388,
  "ihopaenenwa": 2389,
  "\u258131.": 2390,
  "\u2581Ondiaboli": 2391,
  "\u2581Un": 2392,
  "\u2581assigned": 2393,
  "\u2581integrity": 2394,
  "\u2581looking": 2395,
  "\u2581millions": 2396,
  "\u2581modern": 2397,
  "\u2581omonamati": 2398,
  "\u2581pressure": 2399,
  "\u2581realized": 2400,
  "\u258160": 2401,
  "\u2581circuit": 2402,
  "\u2581command": 2403,
  "\u2581explain": 2404,
  "\u2581liyapulila": 2405,
  "\u2581met": 2406,
  "\u2581office": 2407,
  "\u2581provides": 2408,
  "\u2581revealed": 2409,
  "\u258125)": 2410,
  "\u2581area": 2411,
  "\u2581dimbwa": 2412,
  "\u2581friendship": 2413,
  "\u2581fulfillment": 2414,
  "\u2581lokukala": 2415,
  "\u2581okutwikila": 2416,
  "\u2581olyelye": 2417,
  "\u2581omayovi": 2418,
  "\u2581outekuduliko": 2419,
  "\u2581positive": 2420,
  "\u2581steps": 2421,
  "\u2581yaJesus": 2422,
  "\u2581younyuni": 2423,
  "Ovaroma": 2424,
  "\u2581Hence": 2425,
  "\u2581ago": 2426,
  "\u2581arrangement": 2427,
  "\u2581attend": 2428,
  "\u2581becoming": 2429,
  "\u2581include": 2430,
  "\u2581interests": 2431,
  "\u2581lunduluka": 2432,
  "\u2581ngaha": 2433,
  "\u2581oukolele": 2434,
  "\u2581sovereignty": 2435,
  "\u2581tembukila": 2436,
  "\u2581undeserved": 2437,
  "re": 2438,
  "tomheno": 2439,
  "vela": 2440,
  "\u2581Hasho": 2441,
  "\u2581Y": 2442,
  "\u2581behind": 2443,
  "\u2581loves": 2444,
  "\u2581metetekelo": 2445,
  "\u2581original": 2446,
  "\u2581popye": 2447,
  "\u2581pulwa": 2448,
  "\u2581situations": 2449,
  "\u2581takes": 2450,
  "Ame": 2451,
  "itukulwa": 2452,
  "oshitukulwa": 2453,
  "we": 2454,
  "\u2581eliudo": 2455,
  "\u2581koshipala": 2456,
  "\u2581nohole": 2457,
  "\u2581onghatu": 2458,
  "\u2581ovatondi": 2459,
  "\u2581yeni": 2460,
  "ever": 2461,
  "maukwatya": 2462,
  "\u258144": 2463,
  "\u2581Oshidjemo": 2464,
  "\u2581Was": 2465,
  "\u2581blessed": 2466,
  "\u2581faced": 2467,
  "\u2581hanauna": 2468,
  "\u2581hapupala": 2469,
  "\u2581literature": 2470,
  "\u2581ohau": 2471,
  "\u2581oishangomwa": 2472,
  "\u2581sometimes": 2473,
  "\u2581students": 2474,
  "jw": 2475,
  "kokola": 2476,
  "\u2581COVER": 2477,
  "\u2581Heeno": 2478,
  "\u2581accounts": 2479,
  "\u2581actually": 2480,
  "\u2581angel": 2481,
  "\u2581behalf": 2482,
  "\u2581carefully": 2483,
  "\u2581didjuu": 2484,
  "\u2581further": 2485,
  "\u2581konga": 2486,
  "\u2581lokuning": 2487,
  "\u2581ovaudifi": 2488,
  "\u2581salvation": 2489,
  "\u2581turned": 2490,
  "\u2581weni": 2491,
  "\u2581Eeh": 2492,
  "\u2581deeply": 2493,
  "\u2581neitavelo": 2494,
  "\u2581omanyamukulo": 2495,
  "\u2581omapuko": 2496,
  "\u2581personally": 2497,
  "\u2581progress": 2498,
  "Ex": 2499,
  "\u258124)": 2500,
  "\u2581Eh": 2501,
  "\u2581Remember": 2502,
  "\u2581chosen": 2503,
  "\u2581genuine": 2504,
  "\u2581interested": 2505,
  "\u2581okudimbuluka": 2506,
  "\u2581tree": 2507,
  "Jesus": 2508,
  "Ovakulunhuongalo": 2509,
  "ach": 2510,
  "lyelye": 2511,
  "\u2581Ask": 2512,
  "\u2581Elijah": 2513,
  "\u2581Omushiti": 2514,
  "\u2581kulike": 2515,
  "\u2581shall": 2516,
  "\u2581tulwa": 2517,
  "godly": 2518,
  "\u2581Keep": 2519,
  "\u2581koilonga": 2520,
  "\u2581koshihopaenenwa": 2521,
  "\u2581mai": 2522,
  "\u2581oupamhepo": 2523,
  "\u2581talela": 2524,
  "\u2581traveling": 2525,
  ",...": 2526,
  "\u2581De": 2527,
  "\u2581bear": 2528,
  "\u2581convinced": 2529,
  "\u2581crowd": 2530,
  "\u2581eat": 2531,
  "\u2581job": 2532,
  "\u2581obedient": 2533,
  "\u2581omashongo": 2534,
  "\u2581ovakokolindjila": 2535,
  "\u2581shilipaleka": 2536,
  "tifwa": 2537,
  "ting": 2538,
  "\u258170": 2539,
  "\u2581Omhango": 2540,
  "\u2581True": 2541,
  "\u2581church": 2542,
  "\u2581daJesus": 2543,
  "\u2581kumwifa": 2544,
  "\u2581leaders": 2545,
  "\u2581okupewa": 2546,
  "\u2581overcome": 2547,
  "\u2581pahole": 2548,
  "\u2581play": 2549,
  "\u2581strive": 2550,
  "\u2581Memorial": 2551,
  "\u2581Think": 2552,
  "\u2581completely": 2553,
  "\u2581efaneko": 2554,
  "\u2581evening": 2555,
  "\u2581kundafanen": 2556,
  "\u2581nongahelipi": 2557,
  "\u2581nyono": 2558,
  "\u2581omuprofeti": 2559,
  "\u2581ovakainhu": 2560,
  "\u2581quality": 2561,
  "\u2581speech": 2562,
  "\u2581studying": 2563,
  "\u2581watch": 2564,
  "mukulukadi": 2565,
  "\u258119,": 2566,
  "\u258135.": 2567,
  "\u258155": 2568,
  "\u2581Holy": 2569,
  "\u2581addition": 2570,
  "\u2581dedication": 2571,
  "\u2581ehokololo": 2572,
  "\u2581filwa": 2573,
  "\u2581five": 2574,
  "\u2581kings": 2575,
  "\u2581leni": 2576,
  "\u2581reward": 2577,
  "\u2581shepherd": 2578,
  "\u2581trying": 2579,
  "\u2581walk": 2580,
  "kaume": 2581,
  "us": 2582,
  "\u2581confident": 2583,
  "\u2581eenghonopangelo": 2584,
  "\u2581fruit": 2585,
  "\u2581less": 2586,
  "\u2581meilikano": 2587,
  "\u2581momhepo": 2588,
  "\u2581omutumba": 2589,
  "\u2581opamhepo": 2590,
  "\u2581period": 2591,
  "\u2581proper": 2592,
  "\u2581seems": 2593,
  "\u2581specific": 2594,
  "\u2581various": 2595,
  "\u2581waSatana": 2596,
  "\u2581yOmbibeli": 2597,
  "oshiwana": 2598,
  "\u2581Ahab": 2599,
  "\u2581kumu": 2600,
  "\u2581lalakanene": 2601,
  "\u2581member": 2602,
  "\u2581neighbor": 2603,
  "\u2581okupangela": 2604,
  "\u2581omambo": 2605,
  "\u2581particular": 2606,
  "\u2581short": 2607,
  "\u2581simple": 2608,
  "\u2581tolokwa": 2609,
  "\u2581voice": 2610,
  "hava": 2611,
  "like": 2612,
  "meenghedi": 2613,
  "\u2581Another": 2614,
  "\u2581Love": 2615,
  "\u2581beyond": 2616,
  "\u2581exercise": 2617,
  "\u2581flock": 2618,
  "\u2581image": 2619,
  "\u2581okupwilikina": 2620,
  "\u2581omailikano": 2621,
  "\u2581ouhamba": 2622,
  "\u2581relatives": 2623,
  "\u2581whatever": 2624,
  "\u2581added": 2625,
  "\u2581challenge": 2626,
  "\u2581families": 2627,
  "\u2581favor": 2628,
  "\u2581individual": 2629,
  "\u2581lounyuni": 2630,
  "\u2581nokutya": 2631,
  "\u2581oilanduliko": 2632,
  "\u2581oitukulwa": 2633,
  "\u2581pewe": 2634,
  "\u2581throughout": 2635,
  "\u2581wives": 2636,
  "eityo": 2637,
  "nyikif": 2638,
  "\u2581Gal": 2639,
  "\u2581Similarly": 2640,
  "\u2581diwa": 2641,
  "\u2581enter": 2642,
  "\u2581entire": 2643,
  "\u2581eudaneko": 2644,
  "\u2581fimaneke": 2645,
  "\u2581held": 2646,
  "\u2581lOmwene": 2647,
  "\u2581mere": 2648,
  "\u2581negative": 2649,
  "\u2581omishangwa": 2650,
  "\u2581ongala": 2651,
  "\u2581pondole": 2652,
  "\u2581react": 2653,
  "\u2581shitwa": 2654,
  "\u2581shown": 2655,
  "\u2581valuable": 2656,
  "\u2581wilikw": 2657,
  "\u258126.": 2658,
  "\u2581Clearly": 2659,
  "\u2581above": 2660,
  "\u2581asking": 2661,
  "\u2581dedicated": 2662,
  "\u2581expression": 2663,
  "\u2581omukulunhu": 2664,
  "....": 2665,
  "\u2581Omaf": 2666,
  "\u2581door": 2667,
  "\u2581dopa": 2668,
  "\u2581ole": 2669,
  "\u2581taka": 2670,
  "\u2581truths": 2671,
  "\u2581yandjwa": 2672,
  "shikandjo": 2673,
  "\u258165": 2674,
  "\u2581Dimbuluka": 2675,
  "\u2581assist": 2676,
  "\u2581finda": 2677,
  "\u2581kashili": 2678,
  "\u2581mefiku": 2679,
  "\u2581nangeke": 2680,
  "\u2581necessary": 2681,
  "\u2581notava": 2682,
  "\u2581okukundafana": 2683,
  "\u2581parable": 2684,
  "\u2581results": 2685,
  "\u2581side": 2686,
  "Ovakriste": 2687,
  "shihopaenenwa": 2688,
  "\u258148": 2689,
  "\u2581Govern": 2690,
  "\u2581Joshua": 2691,
  "\u2581Markus": 2692,
  "\u2581anger": 2693,
  "\u2581foreign": 2694,
  "\u2581former": 2695,
  "\u2581inaa": 2696,
  "\u2581nomhepo": 2697,
  "\u2581novamwatate": 2698,
  "\u2581omona": 2699,
  "\u2581oushima": 2700,
  "\u2581ovapambele": 2701,
  "\u2581shaIsrael": 2702,
  "\u2581shetu": 2703,
  "\u2581spent": 2704,
  "nghedindjikilile": 2705,
  "\u25812010": 2706,
  "\u2581destruction": 2707,
  "\u2581feeling": 2708,
  "\u2581kuvamwe": 2709,
  "\u2581spend": 2710,
  "\u2581wait": 2711,
  "fana": 2712,
  "ngudu": 2713,
  "\u2581Ondombwedi": 2714,
  "\u2581Though": 2715,
  "\u2581associate": 2716,
  "\u2581building": 2717,
  "\u2581display": 2718,
  "\u2581forgiveness": 2719,
  "\u2581indeed": 2720,
  "\u2581kali": 2721,
  "\u2581lididimikile": 2722,
  "\u2581line": 2723,
  "\u2581momalaka": 2724,
  "\u2581moshiponga": 2725,
  "\u2581omayambidido": 2726,
  "\u2581poor": 2727,
  "\u2581preached": 2728,
  "\u2581six": 2729,
  "\u2581territory": 2730,
  "\u2581understood": 2731,
  "\u2581verse": 2732,
  "\u2581week": 2733,
  "or": 2734,
  "\u2581Eden": 2735,
  "\u2581Elia": 2736,
  "\u2581Embo": 2737,
  "\u2581Great": 2738,
  "\u2581Oma": 2739,
  "\u2581affection": 2740,
  "\u2581contrast": 2741,
  "\u2581destroyed": 2742,
  "\u2581didilike": 2743,
  "\u2581efimano": 2744,
  "\u2581garden": 2745,
  "\u2581lose": 2746,
  "\u2581moipafi": 2747,
  "\u2581race": 2748,
  "\u2581teaches": 2749,
  "eshe": 2750,
  "ila": 2751,
  "meta": 2752,
  "po": 2753,
  "\u258146": 2754,
  "\u2581dopamhepo": 2755,
  "\u2581etomheno": 2756,
  "\u2581loyalty": 2757,
  "\u2581omalihafifo": 2758,
  "\u2581recognize": 2759,
  "\u2581returned": 2760,
  "\u2581surely": 2761,
  "\u2581Body": 2762,
  "\u2581Efimbo": 2763,
  "\u2581arrived": 2764,
  "\u2581basis": 2765,
  "\u2581beginning": 2766,
  "\u2581expressed": 2767,
  "\u2581imba": 2768,
  "\u2581imbi": 2769,
  "\u2581late": 2770,
  "\u2581mafiku": 2771,
  "\u2581muye": 2772,
  "\u2581omifikamhango": 2773,
  "\u2581onale": 2774,
  "\u2581patience": 2775,
  "\u2581shonale": 2776,
  "\u2581sick": 2777,
  "\u2581youkwaneumbo": 2778,
  "ower": 2779,
  "\u2581approach": 2780,
  "\u2581dange": 2781,
  "\u2581eendunge": 2782,
  "\u2581kwaame": 2783,
  "\u2581moitukulwa": 2784,
  "\u2581naini": 2785,
  "\u2581omatimba": 2786,
  "\u2581send": 2787,
  "\u2581source": 2788,
  "\u2581success": 2789,
  "\u2581test": 2790,
  "\u2581ungaung": 2791,
  "est": 2792,
  "exunganeko": 2793,
  "\u2581\"[": 2794,
  "\u2581Imagine": 2795,
  "\u2581Robert": 2796,
  "\u2581condition": 2797,
  "\u2581don": 2798,
  "\u2581firm": 2799,
  "\u2581importance": 2800,
  "\u2581mercy": 2801,
  "\u2581nefyo": 2802,
  "\u2581nei": 2803,
  "\u2581omaongalo": 2804,
  "\u2581protection": 2805,
  "\u2581votete": 2806,
  "\u2581English": 2807,
  "\u2581Footnote": 2808,
  "\u2581Ndelenee": 2809,
  "\u2581anya": 2810,
  "\u2581lessons": 2811,
  "\u2581limbililwa": 2812,
  "\u2581meendelelo": 2813,
  "\u2581noukeka": 2814,
  "\u2581okupula": 2815,
  "\u2581remind": 2816,
  "\u2581resist": 2817,
  "\u2581tambule": 2818,
  "\u2581vOuhamba": 2819,
  "ounamapangelo": 2820,
  "\u2581Isaac": 2821,
  "\u2581caused": 2822,
  "\u2581ee": 2823,
  "\u2581moshinima": 2824,
  "\u2581moukwaneumbo": 2825,
  "\u2581rich": 2826,
  "eemhito": 2827,
  "h": 2828,
  "\u2581Witness": 2829,
  "\u2581activity": 2830,
  "\u2581agree": 2831,
  "\u2581attack": 2832,
  "\u2581demonstrate": 2833,
  "\u2581dulike": 2834,
  "\u2581henuka": 2835,
  "\u2581missionary": 2836,
  "\u2581pwilikina": 2837,
  "\u2581vele": 2838,
  "\u2581xupa": 2839,
  "Do": 2840,
  "It": 2841,
  "Oilonga": 2842,
  "inamu": 2843,
  "\u2581Ngen": 2844,
  "\u2581Tes": 2845,
  "\u2581atusheni": 2846,
  "\u2581beliefs": 2847,
  "\u2581careful": 2848,
  "\u2581fiku": 2849,
  "\u2581justice": 2850,
  "\u2581konakone": 2851,
  "\u2581mefelem": 2852,
  "\u2581natural": 2853,
  "\u2581pitilila": 2854,
  "\u2581prison": 2855,
  "\u2581seven": 2856,
  "\u2581shar": 2857,
  "\u2581train": 2858,
  "\u2581united": 2859,
  "\u2581urged": 2860,
  "\u2581zeal": 2861,
  "If": 2862,
  "ic": 2863,
  "shiivika": 2864,
  "\u2581About": 2865,
  "\u2581Ephesians": 2866,
  "\u2581Ex": 2867,
  "\u2581answered": 2868,
  "\u2581approval": 2869,
  "\u2581encouraging": 2870,
  "\u2581hepekwa": 2871,
  "\u2581key": 2872,
  "\u2581ongushu": 2873,
  "\u2581oshilyo": 2874,
  "\u2581priests": 2875,
  "\u2581sign": 2876,
  "\u2581sound": 2877,
  "\u2581vatatu": 2878,
  "\u2581Soon": 2879,
  "\u2581Teach": 2880,
  "\u2581Where": 2881,
  "\u2581amenwa": 2882,
  "\u2581forth": 2883,
  "\u2581invitation": 2884,
  "\u2581kundafanwa": 2885,
  "\u2581parent": 2886,
  "\u2581practice": 2887,
  "\u2581prospect": 2888,
  "\u2581record": 2889,
  "\u2581yakula": 2890,
  "\u2581yopamaliko": 2891,
  "ilyo": 2892,
  "\u2581Awake": 2893,
  "\u2581Jes": 2894,
  "\u2581Judas": 2895,
  "\u2581Omu": 2896,
  "\u2581Ondi": 2897,
  "\u2581Paradise": 2898,
  "\u2581class": 2899,
  "\u2581compassion": 2900,
  "\u2581conditions": 2901,
  "\u2581contact": 2902,
  "\u2581hour": 2903,
  "\u2581immediately": 2904,
  "\u2581laKristus": 2905,
  "\u2581mistakes": 2906,
  "\u2581naashi": 2907,
  "\u2581pitika": 2908,
  "\u2581womufye": 2909,
  "\u2581xunganekwa": 2910,
  "\u2581yelekanifa": 2911,
  "eshangelo": 2912,
  "mushamane": 2913,
  "\u258127)": 2914,
  "\u2581School": 2915,
  "\u2581Young": 2916,
  "\u2581birth": 2917,
  "\u2581event": 2918,
  "\u2581experiences": 2919,
  "\u2581filled": 2920,
  "\u2581household": 2921,
  "\u2581involves": 2922,
  "\u2581moshilando": 2923,
  "\u2581nou": 2924,
  "\u2581nyumunwa": 2925,
  "\u2581okukondjifa": 2926,
  "\u2581okulundulula": 2927,
  "\u2581okweenda": 2928,
  "\u2581praying": 2929,
  "\u2581text": 2930,
  "\u2581write": 2931,
  "Oule": 2932,
  "We": 2933,
  "ilihongomwa": 2934,
  "\u2581Abel": 2935,
  "\u2581Marta": 2936,
  "\u2581attended": 2937,
  "\u2581attending": 2938,
  "\u2581bless": 2939,
  "\u2581education": 2940,
  "\u2581effective": 2941,
  "\u2581eilikano": 2942,
  "\u2581eventually": 2943,
  "\u2581fimanekifa": 2944,
  "\u2581final": 2945,
  "\u2581fyuulula": 2946,
  "\u2581kofikola": 2947,
  "\u2581manene": 2948,
  "\u2581moral": 2949,
  "\u2581offspring": 2950,
  "\u2581reveal": 2951,
  "\u2581veni": 2952,
  "Ohandi": 2953,
  "velishe": 2954,
  "\u2581Her": 2955,
  "\u2581Through": 2956,
  "\u2581centuries": 2957,
  "\u2581conversation": 2958,
  "\u2581focused": 2959,
  "\u2581kOvakriste": 2960,
  "\u2581momutima": 2961,
  "\u2581morning": 2962,
  "\u2581oiningwanima": 2963,
  "\u2581omudali": 2964,
  "\u2581paragraphs": 2965,
  "Lukas": 2966,
  "M": 2967,
  "afye": 2968,
  "ghee": 2969,
  "talele": 2970,
  "\u2581Ovanyasha": 2971,
  "\u2581Rahab": 2972,
  "\u2581appropriate": 2973,
  "\u2581battle": 2974,
  "\u2581brings": 2975,
  "\u2581cope": 2976,
  "\u2581djala": 2977,
  "\u2581eemhango": 2978,
  "\u2581enable": 2979,
  "\u2581lack": 2980,
  "\u2581legal": 2981,
  "\u2581mehangano": 2982,
  "\u2581okudimina": 2983,
  "\u2581okuli": 2984,
  "\u2581pandjele": 2985,
  "\u2581pride": 2986,
  "\u2581rely": 2987,
  "\u2581seed": 2988,
  "\u2581soul": 2989,
  "\u2581tate": 2990,
  "\u2581thousands": 2991,
  "\u2581vOmbibeli": 2992,
  "iteelelwa": 2993,
  "\u2581acts": 2994,
  "\u2581chose": 2995,
  "\u2581consequences": 2996,
  "\u2581notice": 2997,
  "\u2581uses": 2998,
  "\u2581wililw": 2999,
  "3)": 3000,
  "Job": 3001,
  "Omuudifi": 3002,
  "eenhele": 3003,
  "endafana": 3004,
  "\u2581Give": 3005,
  "\u2581eemwenyo": 3006,
  "\u2581elininipiko": 3007,
  "\u2581evil": 3008,
  "\u2581followed": 3009,
  "\u2581hours": 3010,
  "\u2581kuJesus": 3011,
  "\u2581nowa": 3012,
  "\u2581offering": 3013,
  "\u2581okukatuka": 3014,
  "\u2581ovalininipiki": 3015,
  "\u2581passed": 3016,
  "\u2581vision": 3017,
  "\u2581yOshiingilisha": 3018,
  "When": 3019,
  "out": 3020,
  "\u2581IN": 3021,
  "\u2581Yandj": 3022,
  "\u2581elihumbato": 3023,
  "\u2581entertainment": 3024,
  "\u2581guide": 3025,
  "\u2581koilongo": 3026,
  "\u2581kufwa": 3027,
  "\u2581month": 3028,
  "\u2581omanyono": 3029,
  "\u2581sincere": 3030,
  "\u2581universe": 3031,
  "\u2581wanenwa": 3032,
  "Oshiwana": 3033,
  "fa": 3034,
  "\u2581Esau": 3035,
  "\u2581Okwe": 3036,
  "\u2581Shikwao": 3037,
  "\u2581army": 3038,
  "\u2581aware": 3039,
  "\u2581danger": 3040,
  "\u2581destroy": 3041,
  "\u2581eight": 3042,
  "\u2581kalelele": 3043,
  "\u2581longife": 3044,
  "\u2581moshihopaenenwa": 3045,
  "\u2581neumbo": 3046,
  "\u2581opportunities": 3047,
  "\u2581outumbulilo": 3048,
  "\u2581ovakwaita": 3049,
  "\u2581priest": 3050,
  "\u2581related": 3051,
  "\u2581response": 3052,
  "\u2581sheni": 3053,
  "Deuteronomion": 3054,
  "Oilongo": 3055,
  "\u2581Ita": 3056,
  "\u2581accomplish": 3057,
  "\u2581bread": 3058,
  "\u2581enemy": 3059,
  "\u2581enyamukulo": 3060,
  "\u2581kai": 3061,
  "\u2581kwavo": 3062,
  "\u2581leenghono": 3063,
  "\u2581loukwaneumbo": 3064,
  "\u2581meant": 3065,
  "\u2581nefimbo": 3066,
  "\u2581omupashukili": 3067,
  "\u2581omutwe": 3068,
  "\u2581otembeli": 3069,
  "\u2581privileges": 3070,
  "\u2581re": 3071,
  "\u2581sort": 3072,
  "\u2581suffer": 3073,
  "\u2581temptation": 3074,
  "\u2581walking": 3075,
  "ewiliko": 3076,
  "j": 3077,
  "ne": 3078,
  "\u2581According": 3079,
  "\u2581Josua": 3080,
  "\u2581Judah": 3081,
  "\u2581Know": 3082,
  "\u2581elongekido": 3083,
  "\u2581immorality": 3084,
  "\u2581inini": 3085,
  "\u2581political": 3086,
  "\u2581sacred": 3087,
  "\u2581yelekwa": 3088,
  "\u2581zealous": 3089,
  "ekwatafano": 3090,
  "okukendabala": 3091,
  "ould": 3092,
  "\u2581OF": 3093,
  "\u2581avali": 3094,
  "\u2581eemhito": 3095,
  "\u2581eudeko": 3096,
  "\u2581failed": 3097,
  "\u2581forget": 3098,
  "\u2581hangana": 3099,
  "\u2581instead": 3100,
  "\u2581itself": 3101,
  "\u2581nhatu": 3102,
  "\u2581nounona": 3103,
  "\u2581okulineekelwa": 3104,
  "\u2581okuningwa": 3105,
  "\u2581places": 3106,
  "\u2581prepared": 3107,
  "\u2581scriptures": 3108,
  "\u2581sex": 3109,
  "\u2581spoken": 3110,
  "\u2581yeongalo": 3111,
  "Jak": 3112,
  "Let": 3113,
  "c": 3114,
  "uhe": 3115,
  "\u2581Eva": 3116,
  "\u2581WHAT": 3117,
  "\u2581atatu": 3118,
  "\u2581countries": 3119,
  "\u2581fire": 3120,
  "\u2581fulfill": 3121,
  "\u2581improve": 3122,
  "\u2581included": 3123,
  "\u2581meme": 3124,
  "\u2581oiwana": 3125,
  "\u2581omudo": 3126,
  "\u2581owino": 3127,
  "\u2581promote": 3128,
  "\u2581shilipaleke": 3129,
  "\u2581tongomana": 3130,
  "Gal": 3131,
  "der": 3132,
  "\u258127,": 3133,
  "\u258132.": 3134,
  "\u258134.": 3135,
  "\u2581Katu": 3136,
  "\u2581Sara": 3137,
  "\u2581association": 3138,
  "\u2581devotion": 3139,
  "\u2581easier": 3140,
  "\u2581ipe": 3141,
  "\u2581mention": 3142,
  "\u2581nawanawa": 3143,
  "\u2581novakainhu": 3144,
  "\u2581observe": 3145,
  "\u2581ohoni": 3146,
  "\u2581okuhonga": 3147,
  "\u2581omafele": 3148,
  "\u2581prevent": 3149,
  "idilika": 3150,
  "\u2581Hangana": 3151,
  "\u2581Hezekiah": 3152,
  "\u2581Mu": 3153,
  "\u2581Rome": 3154,
  "\u2581STUD": 3155,
  "\u2581aspects": 3156,
  "\u2581decide": 3157,
  "\u2581eenghundafana": 3158,
  "\u2581hurt": 3159,
  "\u2581persecution": 3160,
  "\u2581refers": 3161,
  "\u2581udife": 3162,
  "\u2581Explain": 3163,
  "\u2581Jehu": 3164,
  "\u2581muJerusalem": 3165,
  "\u2581omalombwelo": 3166,
  "\u2581pay": 3167,
  "\u2581reasonable": 3168,
  "\u2581relates": 3169,
  "\u2581violence": 3170,
  "eenghalo": 3171,
  "\u2581Diva": 3172,
  "\u2581Ezekiel": 3173,
  "\u2581G": 3174,
  "\u2581Martha": 3175,
  "\u2581Mokweendela": 3176,
  "\u2581Russell": 3177,
  "\u2581disciple": 3178,
  "\u2581exactly": 3179,
  "\u2581least": 3180,
  "\u2581nodjuulufi": 3181,
  "\u2581patient": 3182,
  "\u2581paushili": 3183,
  "\u2581rejoice": 3184,
  "\u2581survive": 3185,
  "\u2581yourselves": 3186,
  "lo": 3187,
  "okulongela": 3188,
  "responsibilities": 3189,
  "\u2581Spirit": 3190,
  "\u2581energy": 3191,
  "\u2581fruitage": 3192,
  "\u2581linyenge": 3193,
  "\u2581madjuu": 3194,
  "\u2581meal": 3195,
  "\u2581vonale": 3196,
  "\u2581wotete": 3197,
  "].": 3198,
  "ile": 3199,
  "lwa": 3200,
  "\u2581Over": 3201,
  "\u2581affected": 3202,
  "\u2581areas": 3203,
  "\u2581calls": 3204,
  "\u2581eshongo": 3205,
  "\u2581existence": 3206,
  "\u2581heartfelt": 3207,
  "\u2581includes": 3208,
  "\u2581komunhu": 3209,
  "\u2581looked": 3210,
  "\u2581nEendombwedi": 3211,
  "\u2581pambafana": 3212,
  "\u2581pleased": 3213,
  "\u2581raise": 3214,
  "\u2581refuge": 3215,
  "\u2581seeing": 3216,
  "\u2581term": 3217,
  "\u2581tiwa": 3218,
  "an": 3219,
  "ulikwa": 3220,
  "\u2581Ef": 3221,
  "\u2581Elalakano": 3222,
  "\u2581Sophia": 3223,
  "\u2581boy": 3224,
  "\u2581discreet": 3225,
  "\u2581either": 3226,
  "\u2581immoral": 3227,
  "\u2581manga": 3228,
  "\u2581omahokololo": 3229,
  "\u2581omuvalu": 3230,
  "\u2581onhapo": 3231,
  "\u2581step": 3232,
  "\u2581town": 3233,
  "\u2581vomefelem": 3234,
  "\u2581warned": 3235,
  "\u2581yaMoses": 3236,
  "Otava": 3237,
  "\u25815;": 3238,
  "\u2581LI": 3239,
  "\u2581idea": 3240,
  "\u2581kondadalunde": 3241,
  "\u2581noi": 3242,
  "\u2581oikutu": 3243,
  "\u2581shaJesus": 3244,
  "\u2581shoye": 3245,
  "\u2581successful": 3246,
  "\u2581youth": 3247,
  "ful": 3248,
  "linyengifwa": 3249,
  "\u25812;": 3250,
  "\u258151": 3251,
  "\u2581discussed": 3252,
  "\u2581endurance": 3253,
  "\u2581konakoneni": 3254,
  "\u2581listening": 3255,
  "\u2581lungama": 3256,
  "\u2581lya": 3257,
  "\u2581nokungaho": 3258,
  "\u2581nyumuna": 3259,
  "\u2581reject": 3260,
  "\u2581standing": 3261,
  "\u2581studies": 3262,
  "\u2581xupifwa": 3263,
  "Ina": 3264,
  "omifikamhango": 3265,
  "\u2581Armageddon": 3266,
  "\u2581Ovaefeso": 3267,
  "\u2581acceptable": 3268,
  "\u2581conclusion": 3269,
  "\u2581delight": 3270,
  "\u2581edi": 3271,
  "\u2581general": 3272,
  "\u2581killed": 3273,
  "\u2581kwoove": 3274,
  "\u2581loloka": 3275,
  "\u2581nelininipiko": 3276,
  "\u2581okukulika": 3277,
  "\u2581onga": 3278,
  "\u2581sinful": 3279,
  "\u2581succeed": 3280,
  "\u2581tuminwa": 3281,
  "\u2581yomhepo": 3282,
  "Ehololo": 3283,
  "ITUKULWA": 3284,
  "kufa": 3285,
  "\u2581Regard": 3286,
  "\u2581Students": 3287,
  "\u2581almo": 3288,
  "\u2581beloved": 3289,
  "\u2581concerned": 3290,
  "\u2581epuko": 3291,
  "\u2581insight": 3292,
  "\u2581issues": 3293,
  "\u2581lopofingo": 3294,
  "\u2581novana": 3295,
  "\u2581oishitwa": 3296,
  "\u2581okushikula": 3297,
  "\u2581omuholike": 3298,
  "\u2581oolyelye": 3299,
  "\u2581pornography": 3300,
  "Eshi": 3301,
  "Fil": 3302,
  "Ovaheberi": 3303,
  "monghedi": 3304,
  "\u2581Michelle": 3305,
  "\u2581correct": 3306,
  "\u2581eti": 3307,
  "\u2581koshiwana": 3308,
  "\u2581lihole": 3309,
  "\u2581loss": 3310,
  "\u2581master": 3311,
  "\u2581moshili": 3312,
  "\u2581nedu": 3313,
  "\u2581oshitya": 3314,
  "\u2581rejected": 3315,
  "\u2581shipe": 3316,
  "\u2581shoku": 3317,
  "\u2581tile": 3318,
  "referred": 3319,
  "\u2581Ovalihomboli": 3320,
  "\u2581Question": 3321,
  "\u2581TO": 3322,
  "\u2581basic": 3323,
  "\u2581break": 3324,
  "\u2581deni": 3325,
  "\u2581fail": 3326,
  "\u2581miles": 3327,
  "\u2581moilong": 3328,
  "\u2581nelididimiko": 3329,
  "\u2581oileshomwa": 3330,
  "\u2581olukeno": 3331,
  "\u2581state": 3332,
  "\u2581yelifila": 3333,
  "futa": 3334,
  "\u2581Isa": 3335,
  "\u2581afraid": 3336,
  "\u2581courageous": 3337,
  "\u2581hekeleka": 3338,
  "\u2581indicated": 3339,
  "\u2581medin": 3340,
  "\u2581melaka": 3341,
  "\u2581nature": 3342,
  "\u2581nokonima": 3343,
  "\u2581nu": 3344,
  "\u2581opposition": 3345,
  "\u2581ounhwa": 3346,
  "\u2581parts": 3347,
  "\u2581practices": 3348,
  "\u2581presence": 3349,
  "\u2581prophecies": 3350,
  "\u2581pursue": 3351,
  "\u2581security": 3352,
  "\u2581vaKristus": 3353,
  "\u2581vomuvo": 3354,
  "\u2581workers": 3355,
  "\u2581xula": 3356,
  "\u2581Africa": 3357,
  "\u2581Knorr": 3358,
  "\u2581Philippians": 3359,
  "\u2581appeared": 3360,
  "\u2581busy": 3361,
  "\u2581dipawa": 3362,
  "\u2581drink": 3363,
  "\u2581elderly": 3364,
  "\u2581enyono": 3365,
  "\u2581fikama": 3366,
  "\u2581grew": 3367,
  "\u2581hongwa": 3368,
  "\u2581konge": 3369,
  "\u2581lelalela": 3370,
  "\u2581limited": 3371,
  "\u2581mOmishangwa": 3372,
  "\u2581momilele": 3373,
  "\u2581okulombwela": 3374,
  "\u2581omapangelo": 3375,
  "\u2581omaukwaneumbo": 3376,
  "\u2581opened": 3377,
  "\u2581oshipalanyole": 3378,
  "\u2581paunafangwa": 3379,
  "\u2581request": 3380,
  "\u2581required": 3381,
  "\u2581saved": 3382,
  "\u2581shinene": 3383,
  "\u2581story": 3384,
  "\u2581vape": 3385,
  "all": 3386,
  "finamhango": 3387,
  "uyelele": 3388,
  "\u258133)": 3389,
  "\u2581Deut": 3390,
  "\u2581Drama": 3391,
  "\u2581Karen": 3392,
  "\u2581Pharaoh": 3393,
  "\u2581Rev": 3394,
  "\u2581contribute": 3395,
  "\u2581footnote": 3396,
  "\u2581guard": 3397,
  "\u2581kindly": 3398,
  "\u2581magazine": 3399,
  "\u2581minds": 3400,
  "\u2581oikalunga": 3401,
  "\u2581okuhaudafana": 3402,
  "\u2581omaliyambo": 3403,
  "\u2581oukolokoshi": 3404,
  "\u2581studied": 3405,
  "\u2581younger": 3406,
  "kulongela": 3407,
  "\u2581Isak": 3408,
  "\u2581claim": 3409,
  "\u2581deliver": 3410,
  "\u2581direct": 3411,
  "\u2581ediladilo": 3412,
  "\u2581katuke": 3413,
  "\u2581komayele": 3414,
  "\u2581kufe": 3415,
  "\u2581kulu": 3416,
  "\u2581kumaida": 3417,
  "\u2581kwafelwa": 3418,
  "\u2581lands": 3419,
  "\u2581momitima": 3420,
  "\u2581nola": 3421,
  "\u2581nomunhu": 3422,
  "\u2581opanhu": 3423,
  "\u2581pioneering": 3424,
  "\u2581produce": 3425,
  "\u2581rulership": 3426,
  "\u2581strengthened": 3427,
  "\u2581waiting": 3428,
  "\u2581warm": 3429,
  "\u2581yayo": 3430,
  "Exodus": 3431,
  "ion": 3432,
  "mukokomoko": 3433,
  "\u2581Further": 3434,
  "\u2581anxiety": 3435,
  "\u2581big": 3436,
  "\u2581communication": 3437,
  "\u2581discern": 3438,
  "\u2581ehena": 3439,
  "\u2581faithfully": 3440,
  "\u2581fill": 3441,
  "\u2581handukila": 3442,
  "\u2581identify": 3443,
  "\u2581kondjifa": 3444,
  "\u2581motivate": 3445,
  "\u2581nado": 3446,
  "\u2581onhumwafo": 3447,
  "\u2581oshipopiwa": 3448,
  "\u2581save": 3449,
  "\u2581secular": 3450,
  "\u2581slaves": 3451,
  "\u2581talking": 3452,
  "\u2581trained": 3453,
  "\u2581translation": 3454,
  "iningwanima": 3455,
  "moniwa": 3456,
  "\u258131)": 3457,
  "\u2581assured": 3458,
  "\u2581diinine": 3459,
  "\u2581feet": 3460,
  "\u2581indile": 3461,
  "\u2581kovadali": 3462,
  "\u2581kwete": 3463,
  "\u2581kwopaKriste": 3464,
  "\u2581lie": 3465,
  "\u2581nanye": 3466,
  "\u2581nomunaendunge": 3467,
  "\u2581okupondola": 3468,
  "\u2581omweengeli": 3469,
  "\u2581type": 3470,
  "\u2581yOmwene": 3471,
  "Jehova": 3472,
  "mashangelo": 3473,
  "okuninga": 3474,
  "yo": 3475,
  "\u25811919": 3476,
  "\u2581Family": 3477,
  "\u2581Jer": 3478,
  "\u2581Well": 3479,
  "\u2581attempt": 3480,
  "\u2581comments": 3481,
  "\u2581freely": 3482,
  "\u2581groups": 3483,
  "\u2581half": 3484,
  "\u2581idjuu": 3485,
  "\u2581obedience": 3486,
  "\u2581onakwiiwa": 3487,
  "\u2581suffered": 3488,
  "\u2581telling": 3489,
  "\u2581witnessing": 3490,
  "\u2581yEendombwedi": 3491,
  "divilika": 3492,
  "evertheless": 3493,
  "ko": 3494,
  "olyelye": 3495,
  "unene": 3496,
  "xunganeko": 3497,
  "\u258120,": 3498,
  "\u2581Elisha": 3499,
  "\u2581Internet": 3500,
  "\u2581R": 3501,
  "\u2581Should": 3502,
  "\u2581amount": 3503,
  "\u2581eamo": 3504,
  "\u2581faafanif": 3505,
  "\u2581fall": 3506,
  "\u2581injustice": 3507,
  "\u2581instructions": 3508,
  "\u2581kOmbibeli": 3509,
  "\u2581lididimike": 3510,
  "\u2581moluhaelo": 3511,
  "\u2581moshipala": 3512,
  "\u2581omaudaneko": 3513,
  "\u2581ovaenda": 3514,
  "\u2581ovaladi": 3515,
  "\u2581overseers": 3516,
  "\u2581pule": 3517,
  "\u2581tungu": 3518,
  "\u2581udifila": 3519,
  "\u2581verses": 3520,
  "\u2581visited": 3521,
  "Ou": 3522,
  "This": 3523,
  "au": 3524,
  "ually": 3525,
  "\u2581Aaron": 3526,
  "\u2581Atusheni": 3527,
  "\u2581accurate": 3528,
  "\u2581appear": 3529,
  "\u2581closely": 3530,
  "\u2581determine": 3531,
  "\u2581endelela": 3532,
  "\u2581gifts": 3533,
  "\u2581invite": 3534,
  "\u2581kofa": 3535,
  "\u2581koitukulwa": 3536,
  "\u2581lomhepo": 3537,
  "\u2581million": 3538,
  "\u2581mokukalamwenyo": 3539,
  "\u2581okupamek": 3540,
  "\u2581omhi": 3541,
  "\u2581ovalunde": 3542,
  "\u2581refused": 3543,
  "\u2581room": 3544,
  "\u2581wine": 3545,
  "shangelo": 3546,
  "ta": 3547,
  "te": 3548,
  "\u2581Eric": 3549,
  "\u2581Good": 3550,
  "\u2581Land": 3551,
  "\u2581Ovakonakoni": 3552,
  "\u2581Us": 3553,
  "\u2581describes": 3554,
  "\u2581eehamba": 3555,
  "\u2581ground": 3556,
  "\u2581harvest": 3557,
  "\u2581hokolola": 3558,
  "\u2581honest": 3559,
  "\u2581mature": 3560,
  "\u2581oshilando": 3561,
  "\u2581oshosho": 3562,
  "\u2581otae": 3563,
  "\u2581pombada": 3564,
  "\u2581viewed": 3565,
  "\u2581wickedness": 3566,
  "\u2581wovanhu": 3567,
  "LE": 3568,
  "ies": 3569,
  "muprofeti": 3570,
  "okumona": 3571,
  "veshe": 3572,
  "\u258144.": 3573,
  "\u2581Eehamba": 3574,
  "\u2581Gilead": 3575,
  "\u2581J": 3576,
  "\u2581Learn": 3577,
  "\u2581Oho": 3578,
  "\u2581YOU": 3579,
  "\u2581active": 3580,
  "\u2581commanded": 3581,
  "\u2581helpful": 3582,
  "\u2581makwao": 3583,
  "\u2581moupika": 3584,
  "\u2581muJesus": 3585,
  "\u2581okuningifa": 3586,
  "\u2581omesho": 3587,
  "\u2581omushangwa": 3588,
  "\u2581ongaonga": 3589,
  "\u2581outside": 3590,
  "\u2581proud": 3591,
  "\u2581riches": 3592,
  "\u2581ruling": 3593,
  "\u2581spirituality": 3594,
  "\u2581weeks": 3595,
  "He": 3596,
  "epulo": 3597,
  "halo": 3598,
  "palongelokalunga": 3599,
  "\u258135)": 3600,
  "\u2581OO": 3601,
  "\u2581Tete": 3602,
  "\u2581applied": 3603,
  "\u2581await": 3604,
  "\u2581believed": 3605,
  "\u2581cut": 3606,
  "\u2581demons": 3607,
  "\u2581design": 3608,
  "\u2581difference": 3609,
  "\u2581discouraged": 3610,
  "\u2581endeavor": 3611,
  "\u2581extent": 3612,
  "\u2581homes": 3613,
  "\u2581lundulule": 3614,
  "\u2581mOshungonangelo": 3615,
  "\u2581mangulula": 3616,
  "\u2581marry": 3617,
  "\u2581moita": 3618,
  "\u2581molweendo": 3619,
  "\u2581momudo": 3620,
  "\u2581muEgipti": 3621,
  "\u2581nookaume": 3622,
  "\u2581oudjuu": 3623,
  "\u2581oupu": 3624,
  "\u2581pashukile": 3625,
  "\u2581recreation": 3626,
  "\u2581thank": 3627,
  "\u2581translated": 3628,
  "\u2581vokunena": 3629,
  "\u2581wOmwene": 3630,
  "\u2581wish": 3631,
  "\u2581wokukala": 3632,
  "2)": 3633,
  "oshiningwanima": 3634,
  "\u258149": 3635,
  "\u2581Eitavelo": 3636,
  "\u2581Pa": 3637,
  "\u2581Sad": 3638,
  "\u2581Yelif": 3639,
  "\u2581built": 3640,
  "\u2581eameno": 3641,
  "\u2581engage": 3642,
  "\u2581forgiving": 3643,
  "\u2581lOmbiibeli": 3644,
  "\u2581names": 3645,
  "\u2581nava": 3646,
  "\u2581ohonde": 3647,
  "\u2581okuninginifwa": 3648,
  "\u2581okunyona": 3649,
  "\u2581omayambo": 3650,
  "\u2581pedu": 3651,
  "\u2581stopped": 3652,
  "\u2581tambulwa": 3653,
  "\u2581trial": 3654,
  "\u2581yOmbiibeli": 3655,
  "\u2581yotete": 3656,
  "and": 3657,
  "okupanga": 3658,
  "shikumwifilonga": 3659,
  "ushili": 3660,
  "utumbulilo": 3661,
  "\u258142": 3662,
  "\u258172": 3663,
  "\u258173": 3664,
  "\u2581Make": 3665,
  "\u2581Ngahelipi": 3666,
  "\u2581Ovatessaloniki": 3667,
  "\u2581South": 3668,
  "\u2581animals": 3669,
  "\u2581applying": 3670,
  "\u2581choices": 3671,
  "\u2581conclude": 3672,
  "\u2581directed": 3673,
  "\u2581distress": 3674,
  "\u2581facts": 3675,
  "\u2581feels": 3676,
  "\u2581koshilongo": 3677,
  "\u2581lies": 3678,
  "\u2581manner": 3679,
  "\u2581moukwatwa": 3680,
  "\u2581mukwao": 3681,
  "\u2581neendjovo": 3682,
  "\u2581normal": 3683,
  "\u2581nyemata": 3684,
  "\u2581omuyuki": 3685,
  "\u2581pange": 3686,
  "\u2581relief": 3687,
  "\u2581teachers": 3688,
  "\u2581unique": 3689,
  "\u2581willingly": 3690,
  "\u2581worse": 3691,
  "\u2581yomoule": 3692,
  "My": 3693,
  "ashi": 3694,
  "fiye": 3695,
  "ina": 3696,
  "mo": 3697,
  "\u2581Jon": 3698,
  "\u2581Only": 3699,
  "\u2581Titus": 3700,
  "\u2581War": 3701,
  "\u2581adds": 3702,
  "\u2581angry": 3703,
  "\u2581becomes": 3704,
  "\u2581box": 3705,
  "\u2581cases": 3706,
  "\u2581dala": 3707,
  "\u2581emotional": 3708,
  "\u2581front": 3709,
  "\u2581governments": 3710,
  "\u2581kO": 3711,
  "\u2581lembo": 3712,
  "\u2581lilongekidile": 3713,
  "\u2581londwele": 3714,
  "\u2581manifest": 3715,
  "\u2581nondi": 3716,
  "\u2581noshike": 3717,
  "\u2581novadali": 3718,
  "\u2581nyumuka": 3719,
  "\u2581okuudifila": 3720,
  "\u2581pleasure": 3721,
  "\u2581recent": 3722,
  "\u2581satisfaction": 3723,
  "\u2581sees": 3724,
  "itwa": 3725,
  "ke": 3726,
  "komiti": 3727,
  "kukonakona": 3728,
  "oludi": 3729,
  "\u2581Am": 3730,
  "\u2581Ehangano": 3731,
  "\u2581Omolw": 3732,
  "\u2581Ovafilippi": 3733,
  "\u2581cities": 3734,
  "\u2581continues": 3735,
  "\u2581creatures": 3736,
  "\u2581declared": 3737,
  "\u2581dinini": 3738,
  "\u2581increase": 3739,
  "\u2581ite": 3740,
  "\u2581kulupa": 3741,
  "\u2581likewise": 3742,
  "\u2581moving": 3743,
  "\u2581olutu": 3744,
  "\u2581omauwa": 3745,
  "\u2581omufita": 3746,
  "\u2581ovakolokoshi": 3747,
  "\u2581receiving": 3748,
  "\u2581shivi": 3749,
  "\u2581teelelwa": 3750,
  "\u2581treasure": 3751,
  "\u2581views": 3752,
  "2:": 3753,
  "okudula": 3754,
  "\u2581Germany": 3755,
  "\u2581WE": 3756,
  "\u2581aspect": 3757,
  "\u2581dOmbibeli": 3758,
  "\u2581dear": 3759,
  "\u2581descendants": 3760,
  "\u2581elongifo": 3761,
  "\u2581emotions": 3762,
  "\u2581girl": 3763,
  "\u2581greatly": 3764,
  "\u2581illustrate": 3765,
  "\u2581kondjife": 3766,
  "\u2581lasting": 3767,
  "\u2581leading": 3768,
  "\u2581lipule": 3769,
  "\u2581medu": 3770,
  "\u2581nomushamane": 3771,
  "\u2581omakaya": 3772,
  "\u2581ovayuki": 3773,
  "\u2581patiently": 3774,
  "\u2581poshoongalele": 3775,
  "\u2581report": 3776,
  "\u2581represent": 3777,
  "\u2581seriously": 3778,
  "\u2581shedina": 3779,
  "\u2581sleep": 3780,
  "\u2581uha": 3781,
  "\u2581vane": 3782,
  "\u2581worth": 3783,
  "1)": 3784,
  "Mark": 3785,
  "Omupsalme": 3786,
  "],": 3787,
  "ers": 3788,
  "shimha": 3789,
  "\u2581Nathan": 3790,
  "\u2581Once": 3791,
  "\u2581Pentecost": 3792,
  "\u2581Table": 3793,
  "\u2581acted": 3794,
  "\u2581assure": 3795,
  "\u2581awake": 3796,
  "\u2581divorce": 3797,
  "\u2581gone": 3798,
  "\u2581keongalo": 3799,
  "\u2581letters": 3800,
  "\u2581measure": 3801,
  "\u2581momesho": 3802,
  "\u2581non": 3803,
  "\u2581omaetepo": 3804,
  "\u2581organized": 3805,
  "\u2581oshiwa": 3806,
  "\u2581rebellion": 3807,
  "\u2581student": 3808,
  "\u2581subjects": 3809,
  "\u2581tongue": 3810,
  "\u2581witnesses": 3811,
  "Deut": 3812,
  "Kol": 3813,
  "enghatu": 3814,
  "likongela": 3815,
  "lupale": 3816,
  "omoiwana": 3817,
  "quite": 3818,
  "\u258154": 3819,
  "\u2581TV": 3820,
  "\u2581aame": 3821,
  "\u2581belong": 3822,
  "\u2581committed": 3823,
  "\u2581companions": 3824,
  "\u2581concerns": 3825,
  "\u2581dingilila": 3826,
  "\u2581drawn": 3827,
  "\u2581eager": 3828,
  "\u2581expected": 3829,
  "\u2581eye": 3830,
  "\u2581gratitude": 3831,
  "\u2581judge": 3832,
  "\u2581nasho": 3833,
  "\u2581okudilonga": 3834,
  "\u2581oumbada": 3835,
  "\u2581ovakulunhu": 3836,
  "\u2581pingen": 3837,
  "\u2581requires": 3838,
  "\u2581reveals": 3839,
  "\u2581treated": 3840,
  "\u2581und": 3841,
  "Olupale": 3842,
  "mbelewa": 3843,
  "melongelokalunga": 3844,
  "ula": 3845,
  "\u2581Ahowe": 3846,
  "\u2581Ap": 3847,
  "\u2581Contents": 3848,
  "\u2581High": 3849,
  "\u2581Hiskia": 3850,
  "\u2581Jephthah": 3851,
  "\u2581Oka": 3852,
  "\u2581Oshikalimo": 3853,
  "\u2581Worship": 3854,
  "\u2581aluka": 3855,
  "\u2581atushe": 3856,
  "\u2581fell": 3857,
  "\u2581grasp": 3858,
  "\u2581km": 3859,
  "\u2581kondwa": 3860,
  "\u2581muo": 3861,
  "\u2581nali": 3862,
  "\u2581noina": 3863,
  "\u2581oinamwenyo": 3864,
  "\u2581okakadona": 3865,
  "\u2581okuhenouyuki": 3866,
  "\u2581ouyahame": 3867,
  "\u2581points": 3868,
  "\u2581principle": 3869,
  "\u2581pure": 3870,
  "\u2581pwa": 3871,
  "\u2581resolve": 3872,
  "\u2581setting": 3873,
  "\u2581sight": 3874,
  "\u2581statement": 3875,
  "\u2581violent": 3876,
  "\u2581yes": 3877,
  "Eendombwedi": 3878,
  "Jesaja": 3879,
  "eengudu": 3880,
  "filoshisho": 3881,
  "galati": 3882,
  "ovanhu": 3883,
  "\u258153": 3884,
  "\u2581Cameron": 3885,
  "\u2581Faith": 3886,
  "\u2581Finally": 3887,
  "\u2581Gideon": 3888,
  "\u2581Note": 3889,
  "\u2581Onde": 3890,
  "\u2581Work": 3891,
  "\u2581challenging": 3892,
  "\u2581ehandu": 3893,
  "\u2581entered": 3894,
  "\u2581hearing": 3895,
  "\u2581kondje": 3896,
  "\u2581listened": 3897,
  "\u2581liwetikile": 3898,
  "\u2581ngabekwa": 3899,
  "\u2581nokulonga": 3900,
  "\u2581okuhoolola": 3901,
  "\u2581omalongekido": 3902,
  "\u2581omulininipiki": 3903,
  "\u2581omundilo": 3904,
  "\u2581oparadisa": 3905,
  "\u2581probabl": 3906,
  "\u2581responded": 3907,
  "\u2581shaEden": 3908,
  "\u2581shivwa": 3909,
  "\u2581spread": 3910,
  "\u2581teya": 3911,
  "\u2581third": 3912,
  "\u2581widow": 3913,
  "\u2581yomo": 3914,
  "disfellowshipped": 3915,
  "l": 3916,
  "mafimbo": 3917,
  "maudaneko": 3918,
  "okuhovela": 3919,
  "\u2581Eph": 3920,
  "\u2581Lot": 3921,
  "\u2581Zechariah": 3922,
  "\u2581address": 3923,
  "\u2581adjust": 3924,
  "\u2581adopt": 3925,
  "\u2581aside": 3926,
  "\u2581bond": 3927,
  "\u2581decades": 3928,
  "\u2581essential": 3929,
  "\u2581finde": 3930,
  "\u2581ist": 3931,
  "\u2581mwaasho": 3932,
  "\u2581nokudilonga": 3933,
  "\u2581nomadiladilo": 3934,
  "\u2581okufila": 3935,
  "\u2581okwiitavela": 3936,
  "\u2581omaumbo": 3937,
  "\u2581pass": 3938,
  "\u2581pitike": 3939,
  "\u2581pour": 3940,
  "\u2581wheat": 3941,
  "Jer": 3942,
  "Num": 3943,
  "Omuud": 3944,
  "konakonimbibeli": 3945,
  "one": 3946,
  "\u258166": 3947,
  "\u2581Likewise": 3948,
  "\u2581Name": 3949,
  "\u2581Opa": 3950,
  "\u2581Ovalumenhu": 3951,
  "\u2581Whe": 3952,
  "\u2581allows": 3953,
  "\u2581dOshiheberi": 3954,
  "\u2581details": 3955,
  "\u2581du": 3956,
  "\u2581due": 3957,
  "\u2581ehekeleko": 3958,
  "\u2581enyumuko": 3959,
  "\u2581established": 3960,
  "\u2581finally": 3961,
  "\u2581humbata": 3962,
  "\u2581koshitukulwa": 3963,
  "\u2581lifestyle": 3964,
  "\u2581meendjovo": 3965,
  "\u2581music": 3966,
  "\u2581nefimaneko": 3967,
  "\u2581noita": 3968,
  "\u2581nomaupyakadi": 3969,
  "\u2581noted": 3970,
  "\u2581oKalunga": 3971,
  "\u2581okufika": 3972,
  "\u2581okunena": 3973,
  "\u2581okuudiwa": 3974,
  "\u2581ovaholike": 3975,
  "\u2581shakena": 3976,
  "\u2581yeleka": 3977,
  "Epangelo": 3978,
  "Keep": 3979,
  "No": 3980,
  "fiya": 3981,
  "\u2581Elisa": 3982,
  "\u2581France": 3983,
  "\u2581OSH": 3984,
  "\u2581Oshifo": 3985,
  "\u2581Parents": 3986,
  "\u2581Sometimes": 3987,
  "\u2581assistance": 3988,
  "\u2581bearing": 3989,
  "\u2581cares": 3990,
  "\u2581conventions": 3991,
  "\u2581dangerous": 3992,
  "\u2581difficulties": 3993,
  "\u2581doku": 3994,
  "\u2581eyooloko": 3995,
  "\u2581grief": 3996,
  "\u2581kehangano": 3997,
  "\u2581naKristus": 3998,
  "\u2581nelineekelo": 3999,
  "\u2581ningwe": 4000,
  "\u2581nonakwiiwa": 4001,
  "\u2581noshi": 4002,
  "\u2581omalaka": 4003,
  "\u2581oufiku": 4004,
  "\u2581outstanding": 4005,
  "\u2581piti": 4006,
  "\u2581represented": 4007,
  "\u2581run": 4008,
  "\u2581separate": 4009,
  "\u2581sinners": 4010,
  "\u2581weak": 4011,
  "eemwedi": 4012,
  "enwefemo": 4013,
  "manangekonoupuna": 4014,
  "more": 4015,
  "\u25812014": 4016,
  "\u2581Hav": 4017,
  "\u2581Pictures": 4018,
  "\u2581Two": 4019,
  "\u2581discussion": 4020,
  "\u2581donations": 4021,
  "\u2581easily": 4022,
  "\u2581eni": 4023,
  "\u2581harm": 4024,
  "\u2581journey": 4025,
  "\u2581kondjo": 4026,
  "\u2581kungaho": 4027,
  "\u2581kwafa": 4028,
  "\u2581leshe": 4029,
  "\u2581lopaumwene": 4030,
  "\u2581mangululwa": 4031,
  "\u2581mefaneko": 4032,
  "\u2581moshikunino": 4033,
  "\u2581mwe": 4034,
  "\u2581nalo": 4035,
  "\u2581nelitulemo": 4036,
  "\u2581nonghalo": 4037,
  "\u2581ohamu": 4038,
  "\u2581om": 4039,
  "\u2581oshilongo": 4040,
  "\u2581perform": 4041,
  "\u2581road": 4042,
  "\u2581selfish": 4043,
  "\u2581teelele": 4044,
  "\u2581totwa": 4045,
  "\u2581unganekwa": 4046,
  "elalakano": 4047,
  "ive": 4048,
  "mahokololo": 4049,
  "ongudu": 4050,
  "osaic": 4051,
  "ous": 4052,
  "\u2581Jak": 4053,
  "\u2581Om": 4054,
  "\u2581Promised": 4055,
  "\u2581Readers": 4056,
  "\u2581Second": 4057,
  "\u2581ark": 4058,
  "\u2581daughters": 4059,
  "\u2581hola": 4060,
  "\u2581lalakanena": 4061,
  "\u2581nangala": 4062,
  "\u2581okutokola": 4063,
  "\u2581omaxunganeko": 4064,
  "\u2581omolwo": 4065,
  "\u2581onaini": 4066,
  "\u2581oshibofa": 4067,
  "\u2581proof": 4068,
  "\u2581refer": 4069,
  "\u2581stress": 4070,
  "\u2581teacher": 4071,
  "longo": 4072,
  "mifikamhango": 4073,
  "shipango": 4074,
  "\u2581Enoch": 4075,
  "\u2581NA": 4076,
  "\u2581Ruth": 4077,
  "\u2581THIS": 4078,
  "\u2581Take": 4079,
  "\u2581eevili": 4080,
  "\u2581fleshly": 4081,
  "\u2581hospitality": 4082,
  "\u2581husbands": 4083,
  "\u2581indicate": 4084,
  "\u2581lEudaneko": 4085,
  "\u2581lixupi": 4086,
  "\u2581main": 4087,
  "\u2581moukumwe": 4088,
  "\u2581nomupondo": 4089,
  "\u2581okuhafela": 4090,
  "\u2581omauyelele": 4091,
  "\u2581pexulilo": 4092,
  "\u2581recognized": 4093,
  "\u2581relative": 4094,
  "\u2581responsible": 4095,
  "\u2581scripture": 4096,
  "\u2581soldiers": 4097,
  "\u2581touched": 4098,
  "\u2581xulifw": 4099,
  "-": 4100,
  "Omona": 4101,
  "ekonakonombibeli": 4102,
  "ll": 4103,
  "ment": 4104,
  "\u2581Alex": 4105,
  "\u2581Catholic": 4106,
  "\u2581Fil": 4107,
  "\u2581Levites": 4108,
  "\u2581Under": 4109,
  "\u2581accomplished": 4110,
  "\u2581adultery": 4111,
  "\u2581anxious": 4112,
  "\u2581considering": 4113,
  "\u2581eendja": 4114,
  "\u2581elididimiko": 4115,
  "\u2581exert": 4116,
  "\u2581heed": 4117,
  "\u2581inheritance": 4118,
  "\u2581keendjovo": 4119,
  "\u2581kwoye": 4120,
  "\u2581layo": 4121,
  "\u2581lovanhu": 4122,
  "\u2581meni": 4123,
  "\u2581occurred": 4124,
  "\u2581omafininiko": 4125,
  "\u2581oonakufya": 4126,
  "\u2581ovanailongo": 4127,
  "\u2581prophets": 4128,
  "\u2581quoted": 4129,
  "\u2581stronger": 4130,
  "\u2581struggle": 4131,
  "\u2581theocratic": 4132,
  "\u2581values": 4133,
  "\u2581xwepo": 4134,
  "\u2581yO": 4135,
  "\u2581yeleke": 4136,
  "Otw": 4137,
  "kudiladila": 4138,
  "madiladilo": 4139,
  "mong": 4140,
  "nawa": 4141,
  "\u25812015": 4142,
  "\u2581Edina": 4143,
  "\u2581Illustrate": 4144,
  "\u2581Messianic": 4145,
  "\u2581Naash": 4146,
  "\u2581Passover": 4147,
  "\u2581benefited": 4148,
  "\u2581count": 4149,
  "\u2581deula": 4150,
  "\u2581drinking": 4151,
  "\u2581growing": 4152,
  "\u2581hangik": 4153,
  "\u2581kOmwene": 4154,
  "\u2581manini": 4155,
  "\u2581momaongalo": 4156,
  "\u2581moment": 4157,
  "\u2581mondjokonona": 4158,
  "\u2581nonghedi": 4159,
  "\u2581okulididimikila": 4160,
  "\u2581ongula": 4161,
  "\u2581oufita": 4162,
  "\u2581oumwe": 4163,
  "\u2581provision": 4164,
  "\u2581search": 4165,
  "\u2581surprise": 4166,
  "\u2581waRoma": 4167,
  "\u2581yao": 4168,
  "\u258138.": 4169,
  "\u2581Deuteronomy": 4170,
  "\u2581Help": 4171,
  "\u2581Na": 4172,
  "\u2581Ounona": 4173,
  "\u2581arise": 4174,
  "\u2581communicate": 4175,
  "\u2581compared": 4176,
  "\u2581differ": 4177,
  "\u2581expressions": 4178,
  "\u2581inside": 4179,
  "\u2581kopofingo": 4180,
  "\u2581kuminwa": 4181,
  "\u2581novakulunhu": 4182,
  "\u2581occur": 4183,
  "\u2581ofye": 4184,
  "\u2581okuyambidida": 4185,
  "\u2581omadina": 4186,
  "\u2581omuti": 4187,
  "\u2581ondjele": 4188,
  "\u2581shared": 4189,
  "\u2581shepherds": 4190,
  "\u2581sinned": 4191,
  "\u2581stick": 4192,
  "\u2581sword": 4193,
  "\u2581teenager": 4194,
  "\u2581tomhafana": 4195,
  "\u2581velula": 4196,
  "K": 4197,
  "Ondi": 4198,
  "kele": 4199,
  "oinima": 4200,
  "\u2581Absalom": 4201,
  "\u2581Hano": 4202,
  "\u2581Has": 4203,
  "\u2581Look": 4204,
  "\u2581apeshe": 4205,
  "\u2581dealings": 4206,
  "\u2581developed": 4207,
  "\u2581dje": 4208,
  "\u2581etwomukumo": 4209,
  "\u2581extreme": 4210,
  "\u2581f": 4211,
  "\u2581ill": 4212,
  "\u2581impressed": 4213,
  "\u2581kamwe": 4214,
  "\u2581lopahole": 4215,
  "\u2581missionaries": 4216,
  "\u2581momaumbo": 4217,
  "\u2581nghundipala": 4218,
  "\u2581nokutala": 4219,
  "\u2581observed": 4220,
  "\u2581oitya": 4221,
  "\u2581oluhaelo": 4222,
  "\u2581onhondo": 4223,
  "\u2581ovaendi": 4224,
  "\u2581presented": 4225,
  "\u2581tempted": 4226,
  "\u2581viewpoint": 4227,
  "\u2581vow": 4228,
  "\u2581walked": 4229,
  "WA": 4230,
  "great": 4231,
  "shiningwanima": 4232,
  "\u2581Both": 4233,
  "\u2581Christianity": 4234,
  "\u2581Gospel": 4235,
  "\u2581Kal": 4236,
  "\u2581Omafano": 4237,
  "\u2581Phil": 4238,
  "\u2581although": 4239,
  "\u2581ane": 4240,
  "\u2581consideration": 4241,
  "\u2581efilonghenda": 4242,
  "\u2581eternal": 4243,
  "\u2581ideas": 4244,
  "\u2581inner": 4245,
  "\u2581joyful": 4246,
  "\u2581lididimikila": 4247,
  "\u2581liyandja": 4248,
  "\u2581nokuya": 4249,
  "\u2581okuhanga": 4250,
  "\u2581okupa": 4251,
  "\u2581okweetif": 4252,
  "\u2581ondjala": 4253,
  "\u2581ounghulungu": 4254,
  "\u2581path": 4255,
  "\u2581pauxupi": 4256,
  "\u2581suggestions": 4257,
  "\u2581sun": 4258,
  "\u2581temporary": 4259,
  "\u2581tunhukwa": 4260,
  "\u2581wilika": 4261,
  "\u2581win": 4262,
  "\u2581womunhu": 4263,
  "\u2581yaSatana": 4264,
  "How": 4265,
  "ted": 4266,
  "\u258137.": 4267,
  "\u2581Doshili": 4268,
  "\u2581Exodus": 4269,
  "\u2581Sovereign": 4270,
  "\u2581deeds": 4271,
  "\u2581describe": 4272,
  "\u2581honge": 4273,
  "\u2581impossible": 4274,
  "\u2581instruction": 4275,
  "\u2581komuti": 4276,
  "\u2581kovamwatate": 4277,
  "\u2581liti": 4278,
  "\u2581ministeri": 4279,
  "\u2581mumwe": 4280,
  "\u2581naayo": 4281,
  "\u2581naipala": 4282,
  "\u2581okuteelela": 4283,
  "\u2581omwiitaveli": 4284,
  "\u2581oshitivali": 4285,
  "\u2581oshivike": 4286,
  "\u2581oukwa": 4287,
  "\u2581ovatumwa": 4288,
  "\u2581primary": 4289,
  "\u2581recall": 4290,
  "\u2581review": 4291,
  "\u2581shehangano": 4292,
  "\u2581shiva": 4293,
  "\u2581shoukwaneumbo": 4294,
  "\u2581sought": 4295,
  "\u2581speaks": 4296,
  "\u2581superior": 4297,
  "\u2581tax": 4298,
  "\u2581yambidide": 4299,
  "\u2581yashili": 4300,
  "IPALA": 4301,
  "ikifa": 4302,
  "kanyatela": 4303,
  "kondo": 4304,
  "mafinamhango": 4305,
  "okulongifa": 4306,
  "pi": 4307,
  "\u258180": 4308,
  "\u2581Cain": 4309,
  "\u2581Here": 4310,
  "\u2581Nehemiah": 4311,
  "\u2581Nisan": 4312,
  "\u2581Olutuwiliki": 4313,
  "\u2581Omayele": 4314,
  "\u2581Oshitya": 4315,
  "\u2581Ovakolossi": 4316,
  "\u2581Study": 4317,
  "\u2581advantage": 4318,
  "\u2581behavior": 4319,
  "\u2581career": 4320,
  "\u2581court": 4321,
  "\u2581culture": 4322,
  "\u2581dimbuluke": 4323,
  "\u2581eke": 4324,
  "\u2581etangakwaita": 4325,
  "\u2581fininike": 4326,
  "\u2581gods": 4327,
  "\u2581hopaenena": 4328,
  "\u2581laAbraham": 4329,
  "\u2581lokuya": 4330,
  "\u2581neendunge": 4331,
  "\u2581neighbors": 4332,
  "\u2581omungome": 4333,
  "\u2581publication": 4334,
  "\u2581replied": 4335,
  "\u2581requirements": 4336,
  "\u2581woukolokoshi": 4337,
  "NYO": 4338,
  "as": 4339,
  "efiku": 4340,
  "nhumb": 4341,
  "\u258139.": 4342,
  "\u258183": 4343,
  "\u2581April": 4344,
  "\u2581Israelite": 4345,
  "\u2581Rut": 4346,
  "\u2581appears": 4347,
  "\u2581begotten": 4348,
  "\u2581compare": 4349,
  "\u2581date": 4350,
  "\u2581eyambo": 4351,
  "\u2581formed": 4352,
  "\u2581gradually": 4353,
  "\u2581handle": 4354,
  "\u2581hoololwa": 4355,
  "\u2581hundreds": 4356,
  "\u2581itaa": 4357,
  "\u2581kohole": 4358,
  "\u2581lexulilo": 4359,
  "\u2581odjo": 4360,
  "\u2581ovalongeli": 4361,
  "\u2581placed": 4362,
  "\u2581reached": 4363,
  "\u2581satisfying": 4364,
  "\u2581sea": 4365,
  "\u2581shomo": 4366,
  "\u2581travel": 4367,
  "\u2581trusted": 4368,
  "\u2581wild": 4369,
  "\u2581xwepopaleke": 4370,
  "\u2581youths": 4371,
  "\u2581yovaudifi": 4372,
  "eembinga": 4373,
  "liyapulila": 4374,
  "mapulo": 4375,
  "omalipyakidilo": 4376,
  "\u25816.)": 4377,
  "\u2581City": 4378,
  "\u2581Draw": 4379,
  "\u2581Him": 4380,
  "\u2581Recall": 4381,
  "\u2581Thessalonians": 4382,
  "\u2581aJesus": 4383,
  "\u2581alcohol": 4384,
  "\u2581appeal": 4385,
  "\u2581beast": 4386,
  "\u2581comforting": 4387,
  "\u2581exist": 4388,
  "\u2581god": 4389,
  "\u2581holafane": 4390,
  "\u2581military": 4391,
  "\u2581motivated": 4392,
  "\u2581mwii": 4393,
  "\u2581nohe": 4394,
  "\u2581nyata": 4395,
  "\u2581oke": 4396,
  "\u2581okufinda": 4397,
  "\u2581okukalamwenyo": 4398,
  "\u2581okulalakanena": 4399,
  "\u2581okulya": 4400,
  "\u2581omangabeko": 4401,
  "\u2581omilongo": 4402,
  "\u2581omutondi": 4403,
  "\u2581ovapashukili": 4404,
  "\u2581pattern": 4405,
  "\u2581plan": 4406,
  "\u2581preced": 4407,
  "\u2581provisions": 4408,
  "\u2581reality": 4409,
  "\u2581research": 4410,
  "\u2581rise": 4411,
  "\u2581secure": 4412,
  "\u2581wopamhepo": 4413,
  "\u2581yado": 4414,
  "\u2581yasho": 4415,
  ">": 4416,
  "What": 4417,
  "ekwafo": 4418,
  "kulongifa": 4419,
  "kuulika": 4420,
  "vo": 4421,
  "\u2581144": 4422,
  "\u25811950": 4423,
  "\u2581Brian": 4424,
  "\u2581Edimbuluko": 4425,
  "\u2581July": 4426,
  "\u2581Other": 4427,
  "\u2581abilities": 4428,
  "\u2581advance": 4429,
  "\u2581assignments": 4430,
  "\u2581company": 4431,
  "\u2581couples": 4432,
  "\u2581determination": 4433,
  "\u2581factors": 4434,
  "\u2581findana": 4435,
  "\u2581generous": 4436,
  "\u2581itunhula": 4437,
  "\u2581kE": 4438,
  "\u2581kendabale": 4439,
  "\u2581momake": 4440,
  "\u2581momayeleko": 4441,
  "\u2581momwenyo": 4442,
  "\u2581nokunena": 4443,
  "\u2581nuninwa": 4444,
  "\u2581okunwa": 4445,
  "\u2581olune": 4446,
  "\u2581opandunge": 4447,
  "\u2581peaceful": 4448,
  "\u2581pleas": 4449,
  "\u2581throne": 4450,
  "\u2581vaekwa": 4451,
  "eudaneko": 4452,
  "mwa": 4453,
  "okaume": 4454,
  "\u2581Answer": 4455,
  "\u2581August": 4456,
  "\u2581Canada": 4457,
  "\u2581SHOKOMBADA": 4458,
  "\u2581SUBJECT": 4459,
  "\u2581adjustments": 4460,
  "\u2581business": 4461,
  "\u2581connection": 4462,
  "\u2581contrary": 4463,
  "\u2581dealing": 4464,
  "\u2581eating": 4465,
  "\u2581eendafano": 4466,
  "\u2581eeshali": 4467,
  "\u2581etimba": 4468,
  "\u2581higher": 4469,
  "\u2581humbly": 4470,
  "\u2581influenced": 4471,
  "\u2581keemhango": 4472,
  "\u2581kuJerusalem": 4473,
  "\u2581lomunhu": 4474,
  "\u2581mEpsalme": 4475,
  "\u2581meditating": 4476,
  "\u2581mistake": 4477,
  "\u2581mohole": 4478,
  "\u2581momaukwaneumbo": 4479,
  "\u2581nokudulika": 4480,
  "\u2581oiniwe": 4481,
  "\u2581palutu": 4482,
  "\u2581prejudice": 4483,
  "\u2581preparing": 4484,
  "\u2581remarkable": 4485,
  "\u2581shopamhepo": 4486,
  "\u2581sit": 4487,
  "\u2581social": 4488,
  "\u2581tender": 4489,
  "\u2581traveled": 4490,
  "\u2581wanifwe": 4491,
  "All": 4492,
  "New": 4493,
  "day": 4494,
  "omido": 4495,
  "toloko": 4496,
  "ufa": 4497,
  "\u258128,": 4498,
  "\u2581Christendom": 4499,
  "\u2581Dan": 4500,
  "\u2581Ecclesiast": 4501,
  "\u2581Hesekiel": 4502,
  "\u2581Jonathan": 4503,
  "\u2581Omupangeli": 4504,
  "\u2581Ovalevi": 4505,
  "\u2581calm": 4506,
  "\u2581chapters": 4507,
  "\u2581dihe": 4508,
  "\u2581dwelling": 4509,
  "\u2581fanekwa": 4510,
  "\u2581granted": 4511,
  "\u2581imbe": 4512,
  "\u2581invisible": 4513,
  "\u2581koshitaimbelewa": 4514,
  "\u2581limit": 4515,
  "\u2581nedina": 4516,
  "\u2581okutwa": 4517,
  "\u2581omboloto": 4518,
  "\u2581oove": 4519,
  "\u2581program": 4520,
  "\u2581provid": 4521,
  "\u2581qualified": 4522,
  "\u2581reaching": 4523,
  "\u2581ruin": 4524,
  "\u2581thankful": 4525,
  "\u2581thousand": 4526,
  "\u2581writings": 4527,
  "\u2581xupifwe": 4528,
  "\u2581youlunde": 4529,
  "Jakob": 4530,
  "ily": 4531,
  "ity": 4532,
  "most": 4533,
  "\u25811914.": 4534,
  "\u258123,": 4535,
  "\u2581Anna": 4536,
  "\u2581Children": 4537,
  "\u2581Kol": 4538,
  "\u2581Up": 4539,
  "\u2581Version": 4540,
  "\u2581YA": 4541,
  "\u2581abandon": 4542,
  "\u2581directly": 4543,
  "\u2581eendjila": 4544,
  "\u2581ekuliloyambo": 4545,
  "\u2581guided": 4546,
  "\u2581indila": 4547,
  "\u2581involve": 4548,
  "\u2581lihe": 4549,
  "\u2581list": 4550,
  "\u2581meitavelo": 4551,
  "\u2581neteelelo": 4552,
  "\u2581nyamukulwa": 4553,
  "\u2581occasions": 4554,
  "\u2581offers": 4555,
  "\u2581omunamido": 4556,
  "\u2581otherwise": 4557,
  "\u2581season": 4558,
  "\u2581tule": 4559,
  "\u2581vomoshitukulwa": 4560,
  "\u2581weeds": 4561,
  "\u2581yopombada": 4562,
  "There": 4563,
  "imoniwa": 4564,
  "\u2581103": 4565,
  "\u2581500": 4566,
  "\u258163": 4567,
  "\u2581EFANO": 4568,
  "\u2581Japan": 4569,
  "\u2581Omukainhu": 4570,
  "\u2581Scripture": 4571,
  "\u2581akushe": 4572,
  "\u2581appearance": 4573,
  "\u2581associates": 4574,
  "\u2581attitudes": 4575,
  "\u2581choos": 4576,
  "\u2581create": 4577,
  "\u2581das": 4578,
  "\u2581declare": 4579,
  "\u2581dikwao": 4580,
  "\u2581highlight": 4581,
  "\u2581illness": 4582,
  "\u2581illustrations": 4583,
  "\u2581increasing": 4584,
  "\u2581indicates": 4585,
  "\u2581kwe": 4586,
  "\u2581leaving": 4587,
  "\u2581major": 4588,
  "\u2581mighty": 4589,
  "\u2581miracles": 4590,
  "\u2581moishangomwa": 4591,
  "\u2581moka": 4592,
  "\u2581noda": 4593,
  "\u2581nyone": 4594,
  "\u2581oimoniwa": 4595,
  "\u2581okukuma": 4596,
  "\u2581omwedi": 4597,
  "\u2581ondjo": 4598,
  "\u2581opaKriste": 4599,
  "\u2581oshimhungu": 4600,
  "\u2581reference": 4601,
  "\u2581series": 4602,
  "\u2581songs": 4603,
  "\u2581successfully": 4604,
  "\u2581sustain": 4605,
  "\u2581tumbala": 4606,
  "\u2581writing": 4607,
  "\u2581yOunyuni": 4608,
  "Look": 4609,
  "mukulunhuongalo": 4610,
  "naini": 4611,
  "ndjokonona": 4612,
  "no": 4613,
  "okuuya": 4614,
  "\u2581Aame": 4615,
  "\u2581Australia": 4616,
  "\u2581Barak": 4617,
  "\u2581Charles": 4618,
  "\u2581Colossians": 4619,
  "\u2581GOD": 4620,
  "\u2581Long": 4621,
  "\u2581Micah": 4622,
  "\u2581Mount": 4623,
  "\u2581Num": 4624,
  "\u2581October": 4625,
  "\u2581Onghalo": 4626,
  "\u2581alukile": 4627,
  "\u2581auke": 4628,
  "\u2581beneficial": 4629,
  "\u2581constantly": 4630,
  "\u2581dinene": 4631,
  "\u2581dress": 4632,
  "\u2581eemhangela": 4633,
  "\u2581elipangelo": 4634,
  "\u2581elondwelo": 4635,
  "\u2581environment": 4636,
  "\u2581establish": 4637,
  "\u2581exciting": 4638,
  "\u2581exists": 4639,
  "\u2581extend": 4640,
  "\u2581generation": 4641,
  "\u2581goes": 4642,
  "\u2581growth": 4643,
  "\u2581hepa": 4644,
  "\u2581holike": 4645,
  "\u2581international": 4646,
  "\u2581kandul": 4647,
  "\u2581kwatwe": 4648,
  "\u2581mOuhamba": 4649,
  "\u2581mouth": 4650,
  "\u2581nako": 4651,
  "\u2581nomukainhu": 4652,
  "\u2581nyikif": 4653,
  "\u2581ovafita": 4654,
  "\u2581ovanamati": 4655,
  "\u2581ovapristeri": 4656,
  "\u2581recalls": 4657,
  "\u2581refuse": 4658,
  "\u2581reminded": 4659,
  "\u2581seventh": 4660,
  "\u2581surprised": 4661,
  "\u2581wetike": 4662,
  "\u2581white": 4663,
  "ELA": 4664,
  "Ovaefeso": 4665,
  "ally": 4666,
  "ela": 4667,
  "kudulika": 4668,
  "malalakano": 4669,
  "omefelem": 4670,
  "udjuu": 4671,
  "wanif": 4672,
  "\u25812009": 4673,
  "\u2581Every": 4674,
  "\u2581Kanda": 4675,
  "\u2581Lazarus": 4676,
  "\u2581Oshitivali": 4677,
  "\u2581September": 4678,
  "\u2581Shinene": 4679,
  "\u2581Shiny": 4680,
  "\u2581Shotete": 4681,
  "\u2581acknowledge": 4682,
  "\u2581apart": 4683,
  "\u2581appreciated": 4684,
  "\u2581background": 4685,
  "\u2581brief": 4686,
  "\u2581calling": 4687,
  "\u2581carried": 4688,
  "\u2581commit": 4689,
  "\u2581corrupt": 4690,
  "\u2581delivered": 4691,
  "\u2581ehenif": 4692,
  "\u2581exercis": 4693,
  "\u2581forces": 4694,
  "\u2581global": 4695,
  "\u2581governing": 4696,
  "\u2581mountain": 4697,
  "\u2581nomu": 4698,
  "\u2581nyonauka": 4699,
  "\u2581okuxulif": 4700,
  "\u2581omupristeri": 4701,
  "\u2581ovapangelwa": 4702,
  "\u2581performed": 4703,
  "\u2581reaction": 4704,
  "\u2581remains": 4705,
  "\u2581repentant": 4706,
  "\u2581require": 4707,
  "\u2581rewarded": 4708,
  "\u2581shiivifa": 4709,
  "\u2581shiivike": 4710,
  "\u2581trouble": 4711,
  "\u2581tumwa": 4712,
  "\u2581womounyuni": 4713,
  "\u2581yaGilead": 4714,
  "\u2581yashike": 4715,
  "\u2581yeliyambo": 4716,
  "Tate": 4717,
  "ation": 4718,
  "kwoongala": 4719,
  "longelikalunga": 4720,
  "ololo": 4721,
  "upyakadi": 4722,
  "\u25812008": 4723,
  "\u2581Ha": 4724,
  "\u2581JEHOVAH": 4725,
  "\u2581Samantha": 4726,
  "\u2581Surely": 4727,
  "\u2581clothing": 4728,
  "\u2581cover": 4729,
  "\u2581damage": 4730,
  "\u2581dangers": 4731,
  "\u2581defend": 4732,
  "\u2581divilik": 4733,
  "\u2581dokuyoolola": 4734,
  "\u2581dream": 4735,
  "\u2581edition": 4736,
  "\u2581eekilo": 4737,
  "\u2581eenhele": 4738,
  "\u2581evangeli": 4739,
  "\u2581fiki": 4740,
  "\u2581firmly": 4741,
  "\u2581heeno": 4742,
  "\u2581keni": 4743,
  "\u2581lOukwaneumbo": 4744,
  "\u2581landifa": 4745,
  "\u2581loudjuu": 4746,
  "\u2581mboli": 4747,
  "\u2581mental": 4748,
  "\u2581mokweendela": 4749,
  "\u2581nokuyandja": 4750,
  "\u2581noludalo": 4751,
  "\u2581okunwef": 4752,
  "\u2581ombadilila": 4753,
  "\u2581omutumwa": 4754,
  "\u2581oshilihongomwa": 4755,
  "\u2581pafaneko": 4756,
  "\u2581protected": 4757,
  "\u2581regret": 4758,
  "\u2581safe": 4759,
  "\u2581voluntary": 4760,
  "\u2581waJesus": 4761,
  "\u2581yomounyuni": 4762,
  "konakonimbiibeli": 4763,
  "kuyandja": 4764,
  "nga": 4765,
  "ulika": 4766,
  "\u258136.": 4767,
  "\u258142.": 4768,
  "\u2581Col": 4769,
  "\u2581Doing": 4770,
  "\u2581Ee": 4771,
  "\u2581Europe": 4772,
  "\u2581German": 4773,
  "\u2581Gospels": 4774,
  "\u2581Michael": 4775,
  "\u2581Notice": 4776,
  "\u2581arrangements": 4777,
  "\u2581asleep": 4778,
  "\u2581assurance": 4779,
  "\u2581causes": 4780,
  "\u2581deulwa": 4781,
  "\u2581discovered": 4782,
  "\u2581effects": 4783,
  "\u2581eshito": 4784,
  "\u2581eshivo": 4785,
  "\u2581etofwemo": 4786,
  "\u2581financial": 4787,
  "\u2581heavy": 4788,
  "\u2581ilikane": 4789,
  "\u2581inhabited": 4790,
  "\u2581kova": 4791,
  "\u2581kwaJesus": 4792,
  "\u2581ledina": 4793,
  "\u2581monhumwafo": 4794,
  "\u2581moulunde": 4795,
  "\u2581naumwe": 4796,
  "\u2581noticed": 4797,
  "\u2581ofika": 4798,
  "\u2581okunyamukula": 4799,
  "\u2581ondodo": 4800,
  "\u2581ovelishe": 4801,
  "\u2581painful": 4802,
  "\u2581process": 4803,
  "\u2581quick": 4804,
  "\u2581significant": 4805,
  "\u2581singing": 4806,
  "\u2581stake": 4807,
  "\u2581writers": 4808,
  "\u25cf": 4809,
  "Osho": 4810,
  "Ounyuni": 4811,
  "for": 4812,
  "malipyakidilo": 4813,
  "omalutu": 4814,
  "omaufembanghenda": 4815,
  "ought": 4816,
  "tendo": 4817,
  "\u02b9": 4818,
  "\u2581HOW": 4819,
  "\u2581Halls": 4820,
  "\u2581IS": 4821,
  "\u2581Ki": 4822,
  "\u2581admonition": 4823,
  "\u2581asks": 4824,
  "\u2581brotherhood": 4825,
  "\u2581confront": 4826,
  "\u2581ekonakono": 4827,
  "\u2581elombwelo": 4828,
  "\u2581ended": 4829,
  "\u2581etimaumbwile": 4830,
  "\u2581grown": 4831,
  "\u2581happens": 4832,
  "\u2581inclined": 4833,
  "\u2581increased": 4834,
  "\u2581instructed": 4835,
  "\u2581koshoongalele": 4836,
  "\u2581mates": 4837,
  "\u2581naava": 4838,
  "\u2581nomaliudo": 4839,
  "\u2581omuladi": 4840,
  "\u2581omupangeli": 4841,
  "\u2581opedu": 4842,
  "\u2581ovalongi": 4843,
  "\u2581powers": 4844,
  "\u2581property": 4845,
  "\u2581prophetic": 4846,
  "\u2581region": 4847,
  "\u2581remove": 4848,
  "\u2581rules": 4849,
  "\u2581site": 4850,
  "\u2581tekula": 4851,
  "\u2581tunga": 4852,
  "\u2581wanifilwa": 4853,
  "\u2581womuvo": 4854,
  "\u2581wondered": 4855,
  "\u2581worry": 4856,
  "\u2581xwama": 4857,
  "\u2581yukil": 4858,
  "Kesh": 4859,
  "elongekido": 4860,
  "is": 4861,
  "kekwafo": 4862,
  "ng": 4863,
  "\u2581BE": 4864,
  "\u2581Dec": 4865,
  "\u2581Edu": 4866,
  "\u2581Lamb": 4867,
  "\u2581Olo": 4868,
  "\u2581Sea": 4869,
  "\u2581accepting": 4870,
  "\u2581accord": 4871,
  "\u2581alukil": 4872,
  "\u2581assembly": 4873,
  "\u2581buy": 4874,
  "\u2581conviction": 4875,
  "\u2581drawing": 4876,
  "\u2581eemhata": 4877,
  "\u2581escape": 4878,
  "\u2581etivali": 4879,
  "\u2581excellent": 4880,
  "\u2581fast": 4881,
  "\u2581gathered": 4882,
  "\u2581gathering": 4883,
  "\u2581heal": 4884,
  "\u2581highly": 4885,
  "\u2581kwaashi": 4886,
  "\u2581lay": 4887,
  "\u2581lihange": 4888,
  "\u2581lovingly": 4889,
  "\u2581nokutul": 4890,
  "\u2581okufimaneka": 4891,
  "\u2581omuhongwa": 4892,
  "\u2581ondjovo": 4893,
  "\u2581oshipango": 4894,
  "\u2581ovapwilikini": 4895,
  "\u2581phone": 4896,
  "\u2581plans": 4897,
  "\u2581polimana": 4898,
  "\u2581potential": 4899,
  "\u2581pu": 4900,
  "\u2581relations": 4901,
  "\u2581repeatedly": 4902,
  "\u2581rescue": 4903,
  "\u2581restore": 4904,
  "\u2581stayed": 4905,
  "\u2581t": 4906,
  "\u2581useful": 4907,
  "\u2581village": 4908,
  "\u2581visits": 4909,
  "\u2581wOmunhu": 4910,
  "\u2581weaknesses": 4911,
  "\u2581yanafangwa": 4912,
  "Ove": 4913,
  "ary": 4914,
  "be": 4915,
  "ember": 4916,
  "fifa": 4917,
  "kudeula": 4918,
  "nghalamwenyo": 4919,
  "omesho": 4920,
  "paid": 4921,
  "tula": 4922,
  "\u2581Committee": 4923,
  "\u2581Go": 4924,
  "\u2581Jas": 4925,
  "\u2581OKU": 4926,
  "\u2581abundant": 4927,
  "\u2581admit": 4928,
  "\u2581attendance": 4929,
  "\u2581bride": 4930,
  "\u2581camp": 4931,
  "\u2581dii": 4932,
  "\u2581dopaenghedi": 4933,
  "\u2581dounyuni": 4934,
  "\u2581figurative": 4935,
  "\u2581forms": 4936,
  "\u2581goodness": 4937,
  "\u2581kaku": 4938,
  "\u2581konghedi": 4939,
  "\u2581medical": 4940,
  "\u2581meke": 4941,
  "\u2581mountains": 4942,
  "\u2581muIsrael": 4943,
  "\u2581nicht": 4944,
  "\u2581none": 4945,
  "\u2581nopaife": 4946,
  "\u2581obtain": 4947,
  "\u2581oipopiwa": 4948,
  "\u2581okutunga": 4949,
  "\u2581okuyakula": 4950,
  "\u2581oomakula": 4951,
  "\u2581opashimaliwa": 4952,
  "\u2581quit": 4953,
  "\u2581sang": 4954,
  "\u2581shune": 4955,
  "\u2581spouse": 4956,
  "\u2581ungodly": 4957,
  "\u2581wars": 4958,
  "\u2581womudo": 4959,
  "\u2581xupife": 4960,
  "\u2581yeitavelo": 4961,
  "\u2581yepangelo": 4962,
  "\u2581yokuhonga": 4963,
  "\u2581yukifa": 4964,
  "R": 4965,
  "do": 4966,
  "eedi": 4967,
  "eedula": 4968,
  "mutwe": 4969,
  "ule": 4970,
  "vavaekwa": 4971,
  "will": 4972,
  "yambididwa": 4973,
  "\u258147": 4974,
  "\u258191": 4975,
  "\u2581Anthony": 4976,
  "\u2581Arthur": 4977,
  "\u2581Close": 4978,
  "\u2581George": 4979,
  "\u2581Hannah": 4980,
  "\u2581Hol": 4981,
  "\u2581Sisera": 4982,
  "\u2581aveke": 4983,
  "\u2581chief": 4984,
  "\u2581copies": 4985,
  "\u2581eedula": 4986,
  "\u2581encourages": 4987,
  "\u2581endelele": 4988,
  "\u2581etango": 4989,
  "\u2581facing": 4990,
  "\u2581hololela": 4991,
  "\u2581imperfection": 4992,
  "\u2581j": 4993,
  "\u2581kamu": 4994,
  "\u2581kepangelo": 4995,
  "\u2581kill": 4996,
  "\u2581kointaneta": 4997,
  "\u2581kuSatana": 4998,
  "\u2581kuyo": 4999,
  "\u2581lomoule": 5000,
  "\u2581lwifa": 5001,
  "\u2581magazines": 5002,
  "\u2581meaningful": 5003,
  "\u2581methods": 5004,
  "\u2581modest": 5005,
  "\u2581ningif": 5006,
  "\u2581oikumwifilonga": 5007,
  "\u2581okuxwepopaleka": 5008,
  "\u2581omadidiliko": 5009,
  "\u2581omaliko": 5010,
  "\u2581ombelela": 5011,
  "\u2581omilele": 5012,
  "\u2581ondubo": 5013,
  "\u2581outcome": 5014,
  "\u2581ovanaendunge": 5015,
  "\u2581ovanailonga": 5016,
  "\u2581ovayapuki": 5017,
  "\u2581paumwene": 5018,
  "\u2581ponokela": 5019,
  "\u2581prize": 5020,
  "\u2581produced": 5021,
  "\u2581reports": 5022,
  "\u2581root": 5023,
  "\u2581ruler": 5024,
  "\u2581sad": 5025,
  "\u2581schedule": 5026,
  "\u2581society": 5027,
  "\u2581tembukile": 5028,
  "\u2581worthy": 5029,
  "\u2581writer": 5030,
  "\u2581xulu": 5031,
  "\u2581yefyo": 5032,
  "5.)": 5033,
  "kudilonga": 5034,
  "malunduluko": 5035,
  "ovakulukadi": 5036,
  "\u258156": 5037,
  "\u2581Corinth": 5038,
  "\u2581Flood": 5039,
  "\u2581Fye": 5040,
  "\u2581Gary": 5041,
  "\u2581Mika": 5042,
  "\u2581Natan": 5043,
  "\u2581OSHO": 5044,
  "\u2581abroad": 5045,
  "\u2581authorities": 5046,
  "\u2581cared": 5047,
  "\u2581content": 5048,
  "\u2581cooperate": 5049,
  "\u2581depend": 5050,
  "\u2581disease": 5051,
  "\u2581divided": 5052,
  "\u2581entrust": 5053,
  "\u2581eyeleko": 5054,
  "\u2581hao": 5055,
  "\u2581hatred": 5056,
  "\u2581hokololwa": 5057,
  "\u2581intended": 5058,
  "\u2581kushike": 5059,
  "\u2581laxuuninwa": 5060,
  "\u2581lipa": 5061,
  "\u2581lye": 5062,
  "\u2581mepangelo": 5063,
  "\u2581movanhu": 5064,
  "\u2581nokwiilikana": 5065,
  "\u2581oil": 5066,
  "\u2581omunaendunge": 5067,
  "\u2581omunaenghono": 5068,
  "\u2581onghal": 5069,
  "\u2581ovashamane": 5070,
  "\u2581possess": 5071,
  "\u2581qualify": 5072,
  "\u2581release": 5073,
  "\u2581resulted": 5074,
  "\u2581risk": 5075,
  "\u2581slow": 5076,
  "\u2581stood": 5077,
  "\u2581thereafter": 5078,
  "\u2581tukauka": 5079,
  "\u2581unbeliev": 5080,
  "\u2581vOmbiibeli": 5081,
  "\u2581welcome": 5082,
  "\u2581yonghalamwenyo": 5083,
  "\u2581yopaKriste": 5084,
  "For": 5085,
  "Ovatokolipangeli": 5086,
  "ROM": 5087,
  "ipango": 5088,
  "leni": 5089,
  "me": 5090,
  "nyala": 5091,
  "ovapiya": 5092,
  "rb": 5093,
  "\u2581Almighty": 5094,
  "\u2581Blu": 5095,
  "\u2581Enyamukulo": 5096,
  "\u2581Meme": 5097,
  "\u2581Ministry": 5098,
  "\u2581NG": 5099,
  "\u2581Never": 5100,
  "\u2581PO": 5101,
  "\u2581Ruler": 5102,
  "\u2581bus": 5103,
  "\u2581commandments": 5104,
  "\u2581cry": 5105,
  "\u2581edeulo": 5106,
  "\u2581edidiliko": 5107,
  "\u2581efyuululo": 5108,
  "\u2581faithfulness": 5109,
  "\u2581glad": 5110,
  "\u2581haka": 5111,
  "\u2581householder": 5112,
  "\u2581kulila": 5113,
  "\u2581lasha": 5114,
  "\u2581lefimbo": 5115,
  "\u2581linini": 5116,
  "\u2581londa": 5117,
  "\u2581memoniko": 5118,
  "\u2581momalihafifo": 5119,
  "\u2581nakanini": 5120,
  "\u2581nenyumuko": 5121,
  "\u2581noiha": 5122,
  "\u2581nokweenda": 5123,
  "\u2581nyengwa": 5124,
  "\u2581obeyed": 5125,
  "\u2581okamonakadona": 5126,
  "\u2581okulitulila": 5127,
  "\u2581omahepeko": 5128,
  "\u2581omupsalme": 5129,
  "\u2581omuudifi": 5130,
  "\u2581portion": 5131,
  "\u2581pre": 5132,
  "\u2581pukifa": 5133,
  "\u2581purposes": 5134,
  "\u2581referring": 5135,
  "\u2581relate": 5136,
  "\u2581released": 5137,
  "\u2581residents": 5138,
  "\u2581serpent": 5139,
  "\u2581shiya": 5140,
  "\u2581store": 5141,
  "\u2581talks": 5142,
  "\u2581udanekwa": 5143,
  "\u2581union": 5144,
  "\u2581wedding": 5145,
  "\u2581wide": 5146,
  "\u2581wokafimbo": 5147,
  "\u2581yokupangela": 5148,
  "Be": 5149,
  "T": 5150,
  "ava": 5151,
  "hongo": 5152,
  "\u2581000.": 5153,
  "\u258145.": 5154,
  "\u258190": 5155,
  "\u2581Efaneko": 5156,
  "\u2581Galatians": 5157,
  "\u2581Henok": 5158,
  "\u2581Ich": 5159,
  "\u2581MB": 5160,
  "\u2581Ovahongwa": 5161,
  "\u2581Xuuninwa": 5162,
  "\u2581abandoned": 5163,
  "\u2581attacks": 5164,
  "\u2581avamwe": 5165,
  "\u2581citizens": 5166,
  "\u2581critical": 5167,
  "\u2581darkness": 5168,
  "\u2581dika": 5169,
  "\u2581employment": 5170,
  "\u2581endifa": 5171,
  "\u2581etumba": 5172,
  "\u2581finish": 5173,
  "\u2581fitting": 5174,
  "\u2581habits": 5175,
  "\u2581healthy": 5176,
  "\u2581komaupyakadi": 5177,
  "\u2581los": 5178,
  "\u2581mefimbo": 5179,
  "\u2581mildness": 5180,
  "\u2581motembeli": 5181,
  "\u2581nhee": 5182,
  "\u2581ningeni": 5183,
  "\u2581nokukwafela": 5184,
  "\u2581nouyuki": 5185,
  "\u2581okuyelekwa": 5186,
  "\u2581okweehen": 5187,
  "\u2581omalinyengo": 5188,
  "\u2581omhangela": 5189,
  "\u2581omikifi": 5190,
  "\u2581owina": 5191,
  "\u2581pEdimbuluko": 5192,
  "\u2581partner": 5193,
  "\u2581pointed": 5194,
  "\u2581poshi": 5195,
  "\u2581scholars": 5196,
  "\u2581slavery": 5197,
  "\u2581spending": 5198,
  "\u2581struck": 5199,
  "\u2581tribe": 5200,
  "\u2581understands": 5201,
  "\u2581vakweni": 5202,
  "\u2581venevene": 5203,
  "\u2581vomeongalo": 5204,
  "\u2581vomufye": 5205,
  "\u2581womafiku": 5206,
  "\u2581wrongdoing": 5207,
  "\u2581yokutunga": 5208,
  "\u2581yomwenyo": 5209,
  "ATU": 5210,
  "eemhumbwe": 5211,
  "ishitwa": 5212,
  "k": 5213,
  "konakonombiibeli": 5214,
  "ma": 5215,
  "ovanafikola": 5216,
  "p": 5217,
  "tiwa": 5218,
  "tumwalaka": 5219,
  "vaengeli": 5220,
  "ver": 5221,
  "\u00b7": 5222,
  "\u2581120": 5223,
  "\u25812016": 5224,
  "\u2581Kendabal": 5225,
  "\u2581Mafiku": 5226,
  "\u2581Mefelem": 5227,
  "\u2581Oshili": 5228,
  "\u2581Rutherford": 5229,
  "\u2581Und": 5230,
  "\u2581animal": 5231,
  "\u2581baby": 5232,
  "\u2581balanced": 5233,
  "\u2581conflict": 5234,
  "\u2581dwell": 5235,
  "\u2581eliminate": 5236,
  "\u2581im": 5237,
  "\u2581inherited": 5238,
  "\u2581kohamba": 5239,
  "\u2581kuumwe": 5240,
  "\u2581kwatafan": 5241,
  "\u2581laNoa": 5242,
  "\u2581literal": 5243,
  "\u2581mOparadisa": 5244,
  "\u2581minister": 5245,
  "\u2581modesty": 5246,
  "\u2581mokuyandja": 5247,
  "\u2581muyo": 5248,
  "\u2581noshili": 5249,
  "\u2581oisho": 5250,
  "\u2581okudidilika": 5251,
  "\u2581okufya": 5252,
  "\u2581okukandul": 5253,
  "\u2581okulongifwa": 5254,
  "\u2581ondjokonona": 5255,
  "\u2581onghone": 5256,
  "\u2581openi": 5257,
  "\u2581penduka": 5258,
  "\u2581pursuing": 5259,
  "\u2581reign": 5260,
  "\u2581represents": 5261,
  "\u2581ruled": 5262,
  "\u2581sheke": 5263,
  "\u2581straight": 5264,
  "\u2581surround": 5265,
  "\u2581tears": 5266,
  "\u2581treatment": 5267,
  "\u2581tumina": 5268,
  "\u2581watchful": 5269,
  "\u2581wayo": 5270,
  "\u2581weshito": 5271,
  "\u2581wondjikilile": 5272,
  "epupi": 5273,
  "g": 5274,
  "iddle": 5275,
  "keep": 5276,
  "kukwafela": 5277,
  "okudeula": 5278,
  "omukokomoko": 5279,
  "tumbalekifa": 5280,
  "utya": 5281,
  "with": 5282,
  "\u2581133": 5283,
  "\u2581145": 5284,
  "\u258140.": 5285,
  "\u258186": 5286,
  "\u258197": 5287,
  "\u2581DO": 5288,
  "\u2581Friend": 5289,
  "\u2581Jonatan": 5290,
  "\u2581Mexico": 5291,
  "\u2581Person": 5292,
  "\u2581Sakaria": 5293,
  "\u2581Shortly": 5294,
  "\u2581Web": 5295,
  "\u2581arrang": 5296,
  "\u2581audience": 5297,
  "\u2581cost": 5298,
  "\u2581daPaulus": 5299,
  "\u2581deepen": 5300,
  "\u2581diinina": 5301,
  "\u2581disappointed": 5302,
  "\u2581distance": 5303,
  "\u2581district": 5304,
  "\u2581emona": 5305,
  "\u2581endele": 5306,
  "\u2581finding": 5307,
  "\u2581futu": 5308,
  "\u2581hapa": 5309,
  "\u2581hesitate": 5310,
  "\u2581keenghono": 5311,
  "\u2581koBetel": 5312,
  "\u2581komido": 5313,
  "\u2581kotembeli": 5314,
  "\u2581kounona": 5315,
  "\u2581lininipika": 5316,
  "\u2581lover": 5317,
  "\u2581lyelye": 5318,
  "\u2581mOmwene": 5319,
  "\u2581marital": 5320,
  "\u2581mefiyafanepo": 5321,
  "\u2581mild": 5322,
  "\u2581mokule": 5323,
  "\u2581muKristus": 5324,
  "\u2581neilikano": 5325,
  "\u2581neongalo": 5326,
  "\u2581nolukeno": 5327,
  "\u2581noupyakadi": 5328,
  "\u2581novayapostoli": 5329,
  "\u2581ode": 5330,
  "\u2581okuulikila": 5331,
  "\u2581okuwanifwa": 5332,
  "\u2581okwiimba": 5333,
  "\u2581omaimbilo": 5334,
  "\u2581oyoo": 5335,
  "\u2581panga": 5336,
  "\u2581pendula": 5337,
  "\u2581preserve": 5338,
  "\u2581pukulula": 5339,
  "\u2581religions": 5340,
  "\u2581rights": 5341,
  "\u2581sentence": 5342,
  "\u2581severe": 5343,
  "\u2581stone": 5344,
  "\u2581tired": 5345,
  "\u2581tota": 5346,
  "\u2581victory": 5347,
  "\u2581yambe": 5348,
  "\u2581yehangano": 5349,
  "elongelokalunga": 5350,
  "kala": 5351,
  "kupopya": 5352,
  "man": 5353,
  "munyasha": 5354,
  "okati": 5355,
  "okushuna": 5356,
  "other": 5357,
  "\u258129,": 5358,
  "\u2581EPS": 5359,
  "\u2581Follow": 5360,
  "\u2581Jairo": 5361,
  "\u2581Kain": 5362,
  "\u2581Leviticus": 5363,
  "\u2581Man": 5364,
  "\u2581Ovaudifi": 5365,
  "\u2581Service": 5366,
  "\u2581abundance": 5367,
  "\u2581acting": 5368,
  "\u2581alert": 5369,
  "\u2581belongs": 5370,
  "\u2581dengwa": 5371,
  "\u2581devoted": 5372,
  "\u2581djuulukwa": 5373,
  "\u2581donation": 5374,
  "\u2581familiar": 5375,
  "\u2581gold": 5376,
  "\u2581hate": 5377,
  "\u2581ich": 5378,
  "\u2581ingida": 5379,
  "\u2581kanife": 5380,
  "\u2581lande": 5381,
  "\u2581lett": 5382,
  "\u2581lihumbata": 5383,
  "\u2581limitations": 5384,
  "\u2581mane": 5385,
  "\u2581mekuliloyambo": 5386,
  "\u2581molwoodi": 5387,
  "\u2581motives": 5388,
  "\u2581mowii": 5389,
  "\u2581nokupopya": 5390,
  "\u2581novahongwa": 5391,
  "\u2581official": 5392,
  "\u2581ofikola": 5393,
  "\u2581okuhawanenena": 5394,
  "\u2581okwaamena": 5395,
  "\u2581okweendafana": 5396,
  "\u2581omapataneko": 5397,
  "\u2581omuhongi": 5398,
  "\u2581pagan": 5399,
  "\u2581physically": 5400,
  "\u2581reasoning": 5401,
  "\u2581shokuudifa": 5402,
  "\u2581solid": 5403,
  "\u2581spirits": 5404,
  "\u2581suddenly": 5405,
  "\u2581talwa": 5406,
  "\u2581touch": 5407,
  "\u2581trip": 5408,
  "\u2581turning": 5409,
  "\u2581vonhumba": 5410,
  "\u2581washili": 5411,
  "\u2581weigh": 5412,
  "\u2581woilonga": 5413,
  "\u2581yokuyandja": 5414,
  "1:": 5415,
  "Aame": 5416,
  "As": 5417,
  "D": 5418,
  "ING": 5419,
  "Kal": 5420,
  "Otamu": 5421,
  "drew": 5422,
  "etangakwaita": 5423,
  "fimanekifa": 5424,
  "ika": 5425,
  "nene": 5426,
  "omashangelo": 5427,
  "shitwa": 5428,
  "\u2581Come": 5429,
  "\u2581Don": 5430,
  "\u2581Lipul": 5431,
  "\u2581Master": 5432,
  "\u2581Omadina": 5433,
  "\u2581William": 5434,
  "\u2581blind": 5435,
  "\u2581commission": 5436,
  "\u2581construction": 5437,
  "\u2581cruel": 5438,
  "\u2581detail": 5439,
  "\u2581dimbulukwa": 5440,
  "\u2581disaster": 5441,
  "\u2581eindilo": 5442,
  "\u2581ekelashi": 5443,
  "\u2581ekulilo": 5444,
  "\u2581etwa": 5445,
  "\u2581foolish": 5446,
  "\u2581glorify": 5447,
  "\u2581ikumwifi": 5448,
  "\u2581kelela": 5449,
  "\u2581kulika": 5450,
  "\u2581listeners": 5451,
  "\u2581merciful": 5452,
  "\u2581meshito": 5453,
  "\u2581moma": 5454,
  "\u2581momailikano": 5455,
  "\u2581monakudiwa": 5456,
  "\u2581moparadisa": 5457,
  "\u2581munenenene": 5458,
  "\u2581neendemoni": 5459,
  "\u2581nokukonakona": 5460,
  "\u2581numerous": 5461,
  "\u2581okuha": 5462,
  "\u2581okulineekela": 5463,
  "\u2581omaudjuu": 5464,
  "\u2581omolwaashi": 5465,
  "\u2581omolwoilonga": 5466,
  "\u2581omufiyekadi": 5467,
  "\u2581oshoshili": 5468,
  "\u2581ovalongwa": 5469,
  "\u2581pite": 5470,
  "\u2581quiet": 5471,
  "\u2581resources": 5472,
  "\u2581satisfied": 5473,
  "\u2581shOshigreka": 5474,
  "\u2581strengthening": 5475,
  "\u2581talked": 5476,
  "\u2581terrible": 5477,
  "\u2581thinks": 5478,
  "\u2581twalwa": 5479,
  "\u2581variety": 5480,
  "\u2581waBabilon": 5481,
  "\u2581warnings": 5482,
  "\u2581yaIsrael": 5483,
  "07": 5484,
  "Nge": 5485,
  "ish": 5486,
  "maxunganeko": 5487,
  "mweengeli": 5488,
  "pewa": 5489,
  "tali": 5490,
  "udifilwa": 5491,
  "\u25812004": 5492,
  "\u258157": 5493,
  "\u2581Britain": 5494,
  "\u2581Epulo": 5495,
  "\u2581Farao": 5496,
  "\u2581Mar": 5497,
  "\u2581OVA": 5498,
  "\u2581Omavangeli": 5499,
  "\u2581agreed": 5500,
  "\u2581air": 5501,
  "\u2581approached": 5502,
  "\u2581belief": 5503,
  "\u2581dalelwa": 5504,
  "\u2581eehombo": 5505,
  "\u2581eifano": 5506,
  "\u2581eulu": 5507,
  "\u2581expand": 5508,
  "\u2581exupifo": 5509,
  "\u2581glorious": 5510,
  "\u2581haalushe": 5511,
  "\u2581heads": 5512,
  "\u2581herself": 5513,
  "\u2581inaku": 5514,
  "\u2581kadi": 5515,
  "\u2581keulu": 5516,
  "\u2581kovaleshi": 5517,
  "\u2581kule": 5518,
  "\u2581lashike": 5519,
  "\u2581loshili": 5520,
  "\u2581model": 5521,
  "\u2581mulo": 5522,
  "\u2581nhano": 5523,
  "\u2581noshisho": 5524,
  "\u2581novapambele": 5525,
  "\u2581novapiya": 5526,
  "\u2581oifendela": 5527,
  "\u2581okufaafanif": 5528,
  "\u2581okuyelekanif": 5529,
  "\u2581oohandimwe": 5530,
  "\u2581opamishangwa": 5531,
  "\u2581paenghedi": 5532,
  "\u2581recently": 5533,
  "\u2581render": 5534,
  "\u2581scholar": 5535,
  "\u2581secret": 5536,
  "\u2581shed": 5537,
  "\u2581sholola": 5538,
  "\u2581waKristus": 5539,
  "\u2581wananghali": 5540,
  "\u2581website": 5541,
  "\u2581won": 5542,
  "\u2581yoilonga": 5543,
  "\u2581yongaho": 5544,
  "VO": 5545,
  "dditional": 5546,
  "enghundafana": 5547,
  "eshili": 5548,
  "kwa": 5549,
  "okutala": 5550,
  "okuxupifa": 5551,
  "oludalo": 5552,
  "ovaitaveli": 5553,
  "\u2581104": 5554,
  "\u258136)": 5555,
  "\u2581ARTICLES": 5556,
  "\u2581Aron": 5557,
  "\u2581Chron": 5558,
  "\u2581Eventually": 5559,
  "\u2581Jefta": 5560,
  "\u2581Mak": 5561,
  "\u2581OB": 5562,
  "\u2581Oikal": 5563,
  "\u2581Omushangwa": 5564,
  "\u2581YOKUKONAKONWA": 5565,
  "\u2581amazing": 5566,
  "\u2581approved": 5567,
  "\u2581attain": 5568,
  "\u2581brochure": 5569,
  "\u2581broke": 5570,
  "\u2581dina": 5571,
  "\u2581eagerly": 5572,
  "\u2581endulula": 5573,
  "\u2581endured": 5574,
  "\u2581enjoying": 5575,
  "\u2581hae": 5576,
  "\u2581holding": 5577,
  "\u2581judged": 5578,
  "\u2581laAdam": 5579,
  "\u2581laSatana": 5580,
  "\u2581ladipikwa": 5581,
  "\u2581leader": 5582,
  "\u2581mid": 5583,
  "\u2581mombuwa": 5584,
  "\u2581munini": 5585,
  "\u2581nOuhamba": 5586,
  "\u2581nokunwa": 5587,
  "\u2581nomumwatate": 5588,
  "\u2581nop": 5589,
  "\u2581noukumwe": 5590,
  "\u2581okupitif": 5591,
  "\u2581omamona": 5592,
  "\u2581omaviinyu": 5593,
  "\u2581omufika": 5594,
  "\u2581omweendi": 5595,
  "\u2581omwene": 5596,
  "\u2581oshoongalele": 5597,
  "\u2581oupuna": 5598,
  "\u2581ovapangeli": 5599,
  "\u2581overwhelmed": 5600,
  "\u2581pepelelwa": 5601,
  "\u2581promotes": 5602,
  "\u2581repent": 5603,
  "\u2581resurrect": 5604,
  "\u2581sacrificing": 5605,
  "\u2581sell": 5606,
  "\u2581sold": 5607,
  "\u2581song": 5608,
  "\u2581strangers": 5609,
  "\u2581supply": 5610,
  "\u2581upbuilding": 5611,
  "\u2581vayo": 5612,
  "\u2581watching": 5613,
  "\u2581wilderness": 5614,
  "\u2581wopafaneko": 5615,
  "\u2581yukilila": 5616,
  "Dan": 5617,
  "Evangeli": 5618,
  "Ndele": 5619,
  "TRY": 5620,
  "estament": 5621,
  "kumaido": 5622,
  "kumona": 5623,
  "lifa": 5624,
  "molwaashi": 5625,
  "nghandangala": 5626,
  "shilipaleko": 5627,
  "uliko": 5628,
  "uvalelo": 5629,
  "\u2581200": 5630,
  "\u2581Brazil": 5631,
  "\u2581HA": 5632,
  "\u2581Judea": 5633,
  "\u2581Korah": 5634,
  "\u2581Lasarus": 5635,
  "\u2581Leader": 5636,
  "\u2581Marcus": 5637,
  "\u2581Ola": 5638,
  "\u2581Oshilihongomwa": 5639,
  "\u2581Time": 5640,
  "\u2581Twikil": 5641,
  "\u2581VA": 5642,
  "\u2581alike": 5643,
  "\u2581armies": 5644,
  "\u2581balance": 5645,
  "\u2581comforted": 5646,
  "\u2581compassionate": 5647,
  "\u2581earnest": 5648,
  "\u2581empower": 5649,
  "\u2581guilty": 5650,
  "\u2581identified": 5651,
  "\u2581innocent": 5652,
  "\u2581kefimbo": 5653,
  "\u2581kingdoms": 5654,
  "\u2581kundafane": 5655,
  "\u2581kwovanhu": 5656,
  "\u2581landifwa": 5657,
  "\u2581lefyo": 5658,
  "\u2581limonikila": 5659,
  "\u2581litulile": 5660,
  "\u2581lomeulu": 5661,
  "\u2581loyally": 5662,
  "\u2581marvelous": 5663,
  "\u2581mehokololo": 5664,
  "\u2581nelungi": 5665,
  "\u2581neutral": 5666,
  "\u2581newly": 5667,
  "\u2581ngahenya": 5668,
  "\u2581ningilwe": 5669,
  "\u2581nokuudifa": 5670,
  "\u2581nolupandu": 5671,
  "\u2581nolwanima": 5672,
  "\u2581okukwatel": 5673,
  "\u2581okushil": 5674,
  "\u2581ovakulukadi": 5675,
  "\u2581ovamati": 5676,
  "\u2581ovamwameme": 5677,
  "\u2581ovapika": 5678,
  "\u2581pamaliudo": 5679,
  "\u2581pataneke": 5680,
  "\u2581paushitwe": 5681,
  "\u2581pleasant": 5682,
  "\u2581private": 5683,
  "\u2581profound": 5684,
  "\u2581properly": 5685,
  "\u2581pursuits": 5686,
  "\u2581royal": 5687,
  "\u2581shangelwa": 5688,
  "\u2581shihafifa": 5689,
  "\u2581talents": 5690,
  "\u2581team": 5691,
  "\u2581tendency": 5692,
  "\u2581threatened": 5693,
  "\u2581trees": 5694,
  "\u2581unganeka": 5695,
  "\u2581urgency": 5696,
  "\u2581vongaho": 5697,
  "\u2581wapalela": 5698,
  "\u2581warfare": 5699,
  "\u2581waters": 5700,
  "\u2581wealth": 5701,
  "\u2581wopofingo": 5702,
  "LA": 5703,
  "Ova": 5704,
  "They": 5705,
  "W": 5706,
  "mupiya": 5707,
  "oipango": 5708,
  "tembukila": 5709,
  "\u258110.)": 5710,
  "\u2581106": 5711,
  "\u2581Baal": 5712,
  "\u2581Elders": 5713,
  "\u2581Gog": 5714,
  "\u2581LIFE": 5715,
  "\u2581Malachi": 5716,
  "\u2581OUR": 5717,
  "\u2581Out": 5718,
  "\u2581PUBLISHERS": 5719,
  "\u2581Rebekah": 5720,
  "\u2581Ro": 5721,
  "\u2581Septuagint": 5722,
  "\u2581accompany": 5723,
  "\u2581across": 5724,
  "\u2581addressed": 5725,
  "\u2581ado": 5726,
  "\u2581affairs": 5727,
  "\u2581apparently": 5728,
  "\u2581begins": 5729,
  "\u2581blesse": 5730,
  "\u2581churches": 5731,
  "\u2581clay": 5732,
  "\u2581copy": 5733,
  "\u2581current": 5734,
  "\u2581demonstrated": 5735,
  "\u2581differences": 5736,
  "\u2581enangeko": 5737,
  "\u2581ep": 5738,
  "\u2581fighting": 5739,
  "\u2581fininikwa": 5740,
  "\u2581finished": 5741,
  "\u2581firstborn": 5742,
  "\u2581goats": 5743,
  "\u2581headquarters": 5744,
  "\u2581hepaulula": 5745,
  "\u2581inhabitants": 5746,
  "\u2581kau": 5747,
  "\u2581komailikano": 5748,
  "\u2581komwenyo": 5749,
  "\u2581lO": 5750,
  "\u2581lado": 5751,
  "\u2581lilongekidila": 5752,
  "\u2581mEdu": 5753,
  "\u2581mefyo": 5754,
  "\u2581nohombo": 5755,
  "\u2581noke": 5756,
  "\u2581nomafimbo": 5757,
  "\u2581nonghenda": 5758,
  "\u2581nonyanya": 5759,
  "\u2581nowii": 5760,
  "\u2581okuhanaun": 5761,
  "\u2581okupandula": 5762,
  "\u2581omolwouwa": 5763,
  "\u2581omutenya": 5764,
  "\u2581onhivali": 5765,
  "\u2581oshinano": 5766,
  "\u2581palula": 5767,
  "\u2581pangelwa": 5768,
  "\u2581planet": 5769,
  "\u2581popila": 5770,
  "\u2581publisher": 5771,
  "\u2581relationships": 5772,
  "\u2581reminders": 5773,
  "\u2581repentance": 5774,
  "\u2581sides": 5775,
  "\u2581sing": 5776,
  "\u2581tend": 5777,
  "\u2581throw": 5778,
  "\u2581tokolwa": 5779,
  "\u2581toloka": 5780,
  "\u2581vast": 5781,
  "\u2581weongalo": 5782,
  "\u2581yaKristus": 5783,
  "\u2581youkolokoshi": 5784,
  "Ouhamba": 5785,
  "good": 5786,
  "hokolola": 5787,
  "ine": 5788,
  "kushiiva": 5789,
  "live": 5790,
  "mufita": 5791,
  "nyanyangida": 5792,
  "omukainhu": 5793,
  "our": 5794,
  "pp": 5795,
  "rogram": 5796,
  "\u2581300": 5797,
  "\u2581600": 5798,
  "\u25817]": 5799,
  "\u2581Aprili": 5800,
  "\u2581Iha": 5801,
  "\u2581Juli": 5802,
  "\u2581June": 5803,
  "\u2581KOMBINGA": 5804,
  "\u2581La": 5805,
  "\u2581OMAPUL": 5806,
  "\u2581OVAUDIFI": 5807,
  "\u2581Odjo": 5808,
  "\u2581ROM": 5809,
  "\u2581Re": 5810,
  "\u2581TI": 5811,
  "\u2581Try": 5812,
  "\u2581WHEN": 5813,
  "\u2581alulila": 5814,
  "\u2581burden": 5815,
  "\u2581concluded": 5816,
  "\u2581conquer": 5817,
  "\u2581dididilikwedi": 5818,
  "\u2581eyovi": 5819,
  "\u2581fearing": 5820,
  "\u2581fit": 5821,
  "\u2581hates": 5822,
  "\u2581hekelekwa": 5823,
  "\u2581ignore": 5824,
  "\u2581kana": 5825,
  "\u2581kokukala": 5826,
  "\u2581koleke": 5827,
  "\u2581kwange": 5828,
  "\u2581load": 5829,
  "\u2581longekida": 5830,
  "\u2581miss": 5831,
  "\u2581modoolopa": 5832,
  "\u2581mufye": 5833,
  "\u2581naXe": 5834,
  "\u2581nehangano": 5835,
  "\u2581nepangelo": 5836,
  "\u2581nine": 5837,
  "\u2581nounongo": 5838,
  "\u2581objective": 5839,
  "\u2581okuhafifa": 5840,
  "\u2581okuhombola": 5841,
  "\u2581okuyelifa": 5842,
  "\u2581omiti": 5843,
  "\u2581omolweitavelo": 5844,
  "\u2581ongodi": 5845,
  "\u2581onye": 5846,
  "\u2581oukadona": 5847,
  "\u2581pamekwa": 5848,
  "\u2581preserved": 5849,
  "\u2581raising": 5850,
  "\u2581rendered": 5851,
  "\u2581restored": 5852,
  "\u2581sake": 5853,
  "\u2581shikule": 5854,
  "\u2581shine": 5855,
  "\u2581shokukala": 5856,
  "\u2581solve": 5857,
  "\u2581sorts": 5858,
  "\u2581stars": 5859,
  "\u2581symbolic": 5860,
  "\u2581temptations": 5861,
  "\u2581upset": 5862,
  "\u2581wear": 5863,
  "\u2581weemwedi": 5864,
  "\u2581wrath": 5865,
  "\u2581yahameka": 5866,
  "\u2581yopaushitwe": 5867,
  "\u2581yoshiwana": 5868,
  "\u2581zealously": 5869,
  "NONA": 5870,
  "OSHITUKULWA": 5871,
  "eka": 5872,
  "emba": 5873,
  "matokolo": 5874,
  "nghi": 5875,
  "nye": 5876,
  "oitya": 5877,
  "okuhenuka": 5878,
  "okukanyatela": 5879,
  "\u25812000": 5880,
  "\u25812017": 5881,
  "\u2581Biblical": 5882,
  "\u2581Brooklyn": 5883,
  "\u2581ESHI": 5884,
  "\u2581KA": 5885,
  "\u2581MATT": 5886,
  "\u2581Naomi": 5887,
  "\u2581Ouwa": 5888,
  "\u2581Pehovelo": 5889,
  "\u2581Pharisees": 5890,
  "\u2581Prayer": 5891,
  "\u2581Show": 5892,
  "\u2581Trust": 5893,
  "\u2581V": 5894,
  "\u2581aid": 5895,
  "\u2581applies": 5896,
  "\u2581approaching": 5897,
  "\u2581believing": 5898,
  "\u2581consult": 5899,
  "\u2581depth": 5900,
  "\u2581disobedience": 5901,
  "\u2581diyapuki": 5902,
  "\u2581dopaKriste": 5903,
  "\u2581douyuki": 5904,
  "\u2581eendombwedi": 5905,
  "\u2581enduring": 5906,
  "\u2581fundamental": 5907,
  "\u2581impact": 5908,
  "\u2581isolated": 5909,
  "\u2581judges": 5910,
  "\u2581kj": 5911,
  "\u2581kookaume": 5912,
  "\u2581kuame": 5913,
  "\u2581kuo": 5914,
  "\u2581laXe": 5915,
  "\u2581lomwenyo": 5916,
  "\u2581male": 5917,
  "\u2581miracle": 5918,
  "\u2581mokupopya": 5919,
  "\u2581mukwetu": 5920,
  "\u2581ngungumana": 5921,
  "\u2581nomayambidido": 5922,
  "\u2581notes": 5923,
  "\u2581oilya": 5924,
  "\u2581okulandula": 5925,
  "\u2581opambelela": 5926,
  "\u2581ovanamitimadiwa": 5927,
  "\u2581ovanashili": 5928,
  "\u2581permanent": 5929,
  "\u2581persecuted": 5930,
  "\u2581peumbo": 5931,
  "\u2581pictures": 5932,
  "\u2581plant": 5933,
  "\u2581prominent": 5934,
  "\u2581reliable": 5935,
  "\u2581reported": 5936,
  "\u2581significance": 5937,
  "\u2581standard": 5938,
  "\u2581tomha": 5939,
  "\u2581treasures": 5940,
  "\u2581udifwa": 5941,
  "\u2581universal": 5942,
  "\u2581virgins": 5943,
  "\u2581wOuhamba": 5944,
  "\u2581womafelemido": 5945,
  "\u2581yavamwe": 5946,
  "\u2581yelifwa": 5947,
  "\u2581yoalkoholi": 5948,
  "Markus": 5949,
  "Oita": 5950,
  "Omhepo": 5951,
  "afana": 5952,
  "ashishe": 5953,
  "etwokumwe": 5954,
  "his": 5955,
  "lwe": 5956,
  "muvalu": 5957,
  "okukwafela": 5958,
  "pe": 5959,
  "shikando": 5960,
  "umbangi": 5961,
  "\u2581144,000": 5962,
  "\u2581147": 5963,
  "\u25811995": 5964,
  "\u258126,": 5965,
  "\u2581Book": 5966,
  "\u2581Brothers": 5967,
  "\u2581Church": 5968,
  "\u2581Deborah": 5969,
  "\u2581Goliath": 5970,
  "\u2581II": 5971,
  "\u2581KALA": 5972,
  "\u2581MAT": 5973,
  "\u2581Oita": 5974,
  "\u2581Omuwiliki": 5975,
  "\u2581Oukwaneumbo": 5976,
  "\u2581Peace": 5977,
  "\u2581Rebekka": 5978,
  "\u2581Thousand": 5979,
  "\u2581Year": 5980,
  "\u2581Yearbook": 5981,
  "\u2581clothes": 5982,
  "\u2581cold": 5983,
  "\u2581ehoololo": 5984,
  "\u2581encounter": 5985,
  "\u2581error": 5986,
  "\u2581fallen": 5987,
  "\u2581fimanekwa": 5988,
  "\u2581grave": 5989,
  "\u2581habit": 5990,
  "\u2581hair": 5991,
  "\u2581hamano": 5992,
  "\u2581impression": 5993,
  "\u2581indefinite": 5994,
  "\u2581initiative": 5995,
  "\u2581kedina": 5996,
  "\u2581keenghalo": 5997,
  "\u2581kinds": 5998,
  "\u2581konenene": 5999,
  "\u2581kounyuni": 6000,
  "\u2581kovalumenhu": 6001,
  "\u2581laPaulus": 6002,
  "\u2581likola": 6003,
  "\u2581lipwililikile": 6004,
  "\u2581lopanhu": 6005,
  "\u2581lopaveta": 6006,
  "\u2581momudingonoko": 6007,
  "\u2581naJohannes": 6008,
  "\u2581nefiku": 6009,
  "\u2581nokuninginifwa": 6010,
  "\u2581noli": 6011,
  "\u2581obvious": 6012,
  "\u2581officials": 6013,
  "\u2581oikunwa": 6014,
  "\u2581oilwifo": 6015,
  "\u2581okambo": 6016,
  "\u2581omunyoni": 6017,
  "\u2581ongaashi": 6018,
  "\u2581opinions": 6019,
  "\u2581oppose": 6020,
  "\u2581ovaduliki": 6021,
  "\u2581pitikwa": 6022,
  "\u2581pressures": 6023,
  "\u2581privileged": 6024,
  "\u2581readily": 6025,
  "\u2581shepherding": 6026,
  "\u2581smoking": 6027,
  "\u2581stories": 6028,
  "\u2581subjection": 6029,
  "\u2581tofa": 6030,
  "\u2581tools": 6031,
  "\u2581total": 6032,
  "\u2581translations": 6033,
  "\u2581tribes": 6034,
  "\u2581urge": 6035,
  "\u2581urgent": 6036,
  "\u2581warns": 6037,
  "\u2581washa": 6038,
  "\u2581wisely": 6039,
  "\u2581worshipped": 6040,
  "\u2581yaaishe": 6041,
  "\u2581yomaukwaneumbo": 6042,
  "\u2581yonale": 6043,
  "Lev": 6044,
  "go": 6045,
  "it": 6046,
  "lilongekidila": 6047,
  "luhapu": 6048,
  "mudo": 6049,
  "omafimbo": 6050,
  "ty": 6051,
  "\u258131,": 6052,
  "\u2581Chronicles": 6053,
  "\u2581Eenghalo": 6054,
  "\u2581Hauxuuninwa": 6055,
  "\u2581JEHOVA": 6056,
  "\u2581Jude": 6057,
  "\u2581March": 6058,
  "\u2581Nehemia": 6059,
  "\u2581OMBIIBELI": 6060,
  "\u2581Oktoba": 6061,
  "\u2581Oove": 6062,
  "\u2581Oshiwa": 6063,
  "\u2581Oyo": 6064,
  "\u2581Stephen": 6065,
  "\u2581acquire": 6066,
  "\u2581admits": 6067,
  "\u2581campaign": 6068,
  "\u2581comforts": 6069,
  "\u2581courageously": 6070,
  "\u2581covered": 6071,
  "\u2581credit": 6072,
  "\u2581cross": 6073,
  "\u2581dipae": 6074,
  "\u2581distan": 6075,
  "\u2581earnestly": 6076,
  "\u2581ears": 6077,
  "\u2581educational": 6078,
  "\u2581eemhunga": 6079,
  "\u2581foundation": 6080,
  "\u2581gained": 6081,
  "\u2581hardships": 6082,
  "\u2581impart": 6083,
  "\u2581influences": 6084,
  "\u2581koilanduliko": 6085,
  "\u2581kuXe": 6086,
  "\u2581longifw": 6087,
  "\u2581louhamba": 6088,
  "\u2581loukalele": 6089,
  "\u2581lowly": 6090,
  "\u2581mail": 6091,
  "\u2581mold": 6092,
  "\u2581moudjuu": 6093,
  "\u2581nadi": 6094,
  "\u2581noma": 6095,
  "\u2581nyemateka": 6096,
  "\u2581odikilila": 6097,
  "\u2581oifo": 6098,
  "\u2581okamati": 6099,
  "\u2581omaoko": 6100,
  "\u2581omatyekosha": 6101,
  "\u2581omusholondodo": 6102,
  "\u2581ouwanghenda": 6103,
  "\u2581ovanaipupulu": 6104,
  "\u2581ovaprofeti": 6105,
  "\u2581paveta": 6106,
  "\u2581peer": 6107,
  "\u2581refreshing": 6108,
  "\u2581scene": 6109,
  "\u2581shokombada": 6110,
  "\u2581sickness": 6111,
  "\u2581skills": 6112,
  "\u2581street": 6113,
  "\u2581tange": 6114,
  "\u2581unexpected": 6115,
  "\u2581unrighteous": 6116,
  "\u2581vopamhepo": 6117,
  "\u2581wolela": 6118,
  "\u2581wopaKriste": 6119,
  "\u2581yokombada": 6120,
  "\u2581yomilele": 6121,
  "ED": 6122,
  "South": 6123,
  "U": 6124,
  "at": 6125,
  "dula": 6126,
  "eliudo": 6127,
  "ern": 6128,
  "kuwanifwa": 6129,
  "ngaashi": 6130,
  "ngafano": 6131,
  "not": 6132,
  "omauhamba": 6133,
  "tivali": 6134,
  "\u25811918": 6135,
  "\u25811955": 6136,
  "\u258161": 6137,
  "\u258164": 6138,
  "\u2581Earth": 6139,
  "\u2581Gaius": 6140,
  "\u2581Jehoshaphat": 6141,
  "\u2581Naboth": 6142,
  "\u2581Neh": 6143,
  "\u2581Nov": 6144,
  "\u2581Opaasa": 6145,
  "\u2581SH": 6146,
  "\u2581Th": 6147,
  "\u2581Things": 6148,
  "\u2581abuse": 6149,
  "\u2581acknowledged": 6150,
  "\u2581anymore": 6151,
  "\u2581arms": 6152,
  "\u2581assemblies": 6153,
  "\u2581boat": 6154,
  "\u2581dOshigreka": 6155,
  "\u2581developing": 6156,
  "\u2581discussing": 6157,
  "\u2581doctor": 6158,
  "\u2581domaukwaneumbo": 6159,
  "\u2581eano": 6160,
  "\u2581emanya": 6161,
  "\u2581engag": 6162,
  "\u2581exhort": 6163,
  "\u2581feed": 6164,
  "\u2581healed": 6165,
  "\u2581huge": 6166,
  "\u2581initial": 6167,
  "\u2581komhunda": 6168,
  "\u2581kwo": 6169,
  "\u2581likumwifi": 6170,
  "\u2581lokulong": 6171,
  "\u2581lopehovelo": 6172,
  "\u2581lopombada": 6173,
  "\u2581mit": 6174,
  "\u2581neendelelo": 6175,
  "\u2581nomesho": 6176,
  "\u2581okutalela": 6177,
  "\u2581okuyukif": 6178,
  "\u2581olwisho": 6179,
  "\u2581omabiliyona": 6180,
  "\u2581omukifi": 6181,
  "\u2581omuwiliki": 6182,
  "\u2581opaumwene": 6183,
  "\u2581oshifo": 6184,
  "\u2581perfection": 6185,
  "\u2581planning": 6186,
  "\u2581pomutenya": 6187,
  "\u2581poyoongalele": 6188,
  "\u2581printed": 6189,
  "\u2581priority": 6190,
  "\u2581project": 6191,
  "\u2581reads": 6192,
  "\u2581realm": 6193,
  "\u2581removed": 6194,
  "\u2581reserved": 6195,
  "\u2581routine": 6196,
  "\u2581wOmbibeli": 6197,
  "\u2581writes": 6198,
  "\u2581yoshili": 6199,
  "13": 6200,
  "IES": 6201,
  "OTO": 6202,
  "Opo": 6203,
  "ULA": 6204,
  "eembelewa": 6205,
  "eenghendabala": 6206,
  "luka": 6207,
  "mitate": 6208,
  "muhongwanhu": 6209,
  "my": 6210,
  "tn": 6211,
  "ufembanghenda": 6212,
  "vahongwanhu": 6213,
  "vakwaita": 6214,
  "\u2581110": 6215,
  "\u258112.)": 6216,
  "\u25813.)": 6217,
  "\u258145)": 6218,
  "\u258175": 6219,
  "\u258184": 6220,
  "\u2581AL": 6221,
  "\u2581Babilon": 6222,
  "\u2581Death": 6223,
  "\u2581Hanna": 6224,
  "\u2581January": 6225,
  "\u2581Kash": 6226,
  "\u2581Li": 6227,
  "\u2581Serv": 6228,
  "\u2581Simon": 6229,
  "\u2581ayo": 6230,
  "\u2581believer": 6231,
  "\u2581cherish": 6232,
  "\u2581clergy": 6233,
  "\u2581comfortable": 6234,
  "\u2581crime": 6235,
  "\u2581degree": 6236,
  "\u2581delighted": 6237,
  "\u2581dingilil": 6238,
  "\u2581ehama": 6239,
  "\u2581etanda": 6240,
  "\u2581explaining": 6241,
  "\u2581extended": 6242,
  "\u2581faneka": 6243,
  "\u2581gather": 6244,
  "\u2581generosity": 6245,
  "\u2581gentle": 6246,
  "\u2581grieving": 6247,
  "\u2581guilt": 6248,
  "\u2581headship": 6249,
  "\u2581humankind": 6250,
  "\u2581identity": 6251,
  "\u2581imperfections": 6252,
  "\u2581inherit": 6253,
  "\u2581komhango": 6254,
  "\u2581lEendombwedi": 6255,
  "\u2581letokolo": 6256,
  "\u2581midst": 6257,
  "\u2581minded": 6258,
  "\u2581ministers": 6259,
  "\u2581okushanga": 6260,
  "\u2581okushilipalek": 6261,
  "\u2581okuxum": 6262,
  "\u2581okweet": 6263,
  "\u2581omautumbulilo": 6264,
  "\u2581omutengi": 6265,
  "\u2581ovahongi": 6266,
  "\u2581participate": 6267,
  "\u2581shoulder": 6268,
  "\u2581task": 6269,
  "\u2581tests": 6270,
  "\u2581thanks": 6271,
  "\u2581wipe": 6272,
  "\u2581yelife": 6273,
  "\u2581yomomapya": 6274,
  "\u2581youdjeko": 6275,
  "5": 6276,
  "ekanghameno": 6277,
  "etumwalaka": 6278,
  "liko": 6279,
  "okwa": 6280,
  "omupiya": 6281,
  "ponokelo": 6282,
  "ri": 6283,
  "\u25811879": 6284,
  "\u25811940": 6285,
  "\u25812006": 6286,
  "\u258137)": 6287,
  "\u258142)": 6288,
  "\u2581Barnabas": 6289,
  "\u2581Granted": 6290,
  "\u2581Marriage": 6291,
  "\u2581Okutala": 6292,
  "\u2581Omushangi": 6293,
  "\u2581PS": 6294,
  "\u2581Pray": 6295,
  "\u2581Septemba": 6296,
  "\u2581Sie": 6297,
  "\u2581Spiritual": 6298,
  "\u2581Use": 6299,
  "\u2581add": 6300,
  "\u2581arrive": 6301,
  "\u2581bed": 6302,
  "\u2581bodies": 6303,
  "\u2581captivity": 6304,
  "\u2581corruption": 6305,
  "\u2581dedicate": 6306,
  "\u2581emphasize": 6307,
  "\u2581eninginifo": 6308,
  "\u2581entitled": 6309,
  "\u2581epitikilo": 6310,
  "\u2581eternity": 6311,
  "\u2581existed": 6312,
  "\u2581fears": 6313,
  "\u2581features": 6314,
  "\u2581forgiven": 6315,
  "\u2581grand": 6316,
  "\u2581hanaune": 6317,
  "\u2581hoped": 6318,
  "\u2581intense": 6319,
  "\u2581involv": 6320,
  "\u2581ketumwalaka": 6321,
  "\u2581komahalo": 6322,
  "\u2581kusho": 6323,
  "\u2581kwaao": 6324,
  "\u2581lOvakriste": 6325,
  "\u2581lasho": 6326,
  "\u2581ledu": 6327,
  "\u2581lihanga": 6328,
  "\u2581livele": 6329,
  "\u2581liyandje": 6330,
  "\u2581lokushiiva": 6331,
  "\u2581looks": 6332,
  "\u2581lying": 6333,
  "\u2581maintained": 6334,
  "\u2581majority": 6335,
  "\u2581marked": 6336,
  "\u2581miraculously": 6337,
  "\u2581mokulonga": 6338,
  "\u2581monduda": 6339,
  "\u2581nameme": 6340,
  "\u2581nena": 6341,
  "\u2581nokufila": 6342,
  "\u2581nokweef": 6343,
  "\u2581nomo": 6344,
  "\u2581nouwa": 6345,
  "\u2581novalumenhu": 6346,
  "\u2581okudjala": 6347,
  "\u2581ominyonena": 6348,
  "\u2581onheni": 6349,
  "\u2581opaife": 6350,
  "\u2581opinion": 6351,
  "\u2581outondwe": 6352,
  "\u2581pikwa": 6353,
  "\u2581possessions": 6354,
  "\u2581priesthood": 6355,
  "\u2581priorities": 6356,
  "\u2581ran": 6357,
  "\u2581respected": 6358,
  "\u2581sale": 6359,
  "\u2581shididilikwedi": 6360,
  "\u2581soldier": 6361,
  "\u2581thrilling": 6362,
  "\u2581tokole": 6363,
  "\u2581transform": 6364,
  "\u2581tungwa": 6365,
  "\u2581uphold": 6366,
  "\u2581vomounyuni": 6367,
  "\u2581yomomeva": 6368,
  "\u2581yomunhu": 6369,
  "7.)": 6370,
  "konakonombibeli": 6371,
  "konga": 6372,
  "kulalakanena": 6373,
  "lombwelo": 6374,
  "mauwa": 6375,
  "mupristeri": 6376,
  "ndodo": 6377,
  "oikando": 6378,
  "yooloko": 6379,
  "\u258169": 6380,
  "\u2581AND": 6381,
  "\u2581Again": 6382,
  "\u2581America": 6383,
  "\u2581American": 6384,
  "\u2581COR": 6385,
  "\u2581Creation": 6386,
  "\u2581Das": 6387,
  "\u2581Desemba": 6388,
  "\u2581England": 6389,
  "\u2581Isabel": 6390,
  "\u2581Jim": 6391,
  "\u2581Jordan": 6392,
  "\u2581LUHAPU": 6393,
  "\u2581November": 6394,
  "\u2581OVANHU": 6395,
  "\u2581Omuud": 6396,
  "\u2581Philippi": 6397,
  "\u2581beauty": 6398,
  "\u2581belongings": 6399,
  "\u2581broken": 6400,
  "\u2581caught": 6401,
  "\u2581commandment": 6402,
  "\u2581commendation": 6403,
  "\u2581comment": 6404,
  "\u2581deeper": 6405,
  "\u2581didilikwa": 6406,
  "\u2581directions": 6407,
  "\u2581dom": 6408,
  "\u2581efele": 6409,
  "\u2581effectively": 6410,
  "\u2581emotionally": 6411,
  "\u2581entity": 6412,
  "\u2581failure": 6413,
  "\u2581finds": 6414,
  "\u2581hafife": 6415,
  "\u2581handukifa": 6416,
  "\u2581haye": 6417,
  "\u2581hombole": 6418,
  "\u2581iho": 6419,
  "\u2581instruct": 6420,
  "\u2581interesting": 6421,
  "\u2581komumwatate": 6422,
  "\u2581kudo": 6423,
  "\u2581laDaniel": 6424,
  "\u2581laSalomo": 6425,
  "\u2581longhal": 6426,
  "\u2581mO": 6427,
  "\u2581meholeko": 6428,
  "\u2581mepi": 6429,
  "\u2581mouhamba": 6430,
  "\u2581national": 6431,
  "\u2581noimaliwa": 6432,
  "\u2581nomalimbililo": 6433,
  "\u2581nongudu": 6434,
  "\u2581odula": 6435,
  "\u2581omupika": 6436,
  "\u2581ondombwedi": 6437,
  "\u2581owo": 6438,
  "\u2581remote": 6439,
  "\u2581rewards": 6440,
  "\u2581senses": 6441,
  "\u2581traits": 6442,
  "\u2581types": 6443,
  "\u2581unfaithful": 6444,
  "\u2581vake": 6445,
  "\u2581victim": 6446,
  "\u2581worshipp": 6447,
  "\u2581xulif": 6448,
  "\u2581yahama": 6449,
  "\u2581yalo": 6450,
  "\u2581yelifile": 6451,
  "4)": 6452,
  "Daniel": 6453,
  "Hes": 6454,
  "Mbel": 6455,
  "Ovafilippi": 6456,
  "To": 6457,
  "etomheno": 6458,
  "f": 6459,
  "fiyo": 6460,
  "fyuululo": 6461,
  "kwatafano": 6462,
  "lihumbato": 6463,
  "nyumuko": 6464,
  "omafiku": 6465,
  "omihoko": 6466,
  "ry": 6467,
  "yelekanifa": 6468,
  "yelongelokalunga": 6469,
  "\u2581(201": 6470,
  "\u258189": 6471,
  "\u2581Andrew": 6472,
  "\u2581Avoid": 6473,
  "\u2581Egyptian": 6474,
  "\u2581Ehen": 6475,
  "\u2581Esther": 6476,
  "\u2581FOR": 6477,
  "\u2581French": 6478,
  "\u2581Hans": 6479,
  "\u2581Lev": 6480,
  "\u2581Malakia": 6481,
  "\u2581Mei": 6482,
  "\u2581OMO": 6483,
  "\u2581Omukulunhu": 6484,
  "\u2581Owe": 6485,
  "\u2581Says": 6486,
  "\u2581Shim": 6487,
  "\u2581Thank": 6488,
  "\u2581aSatana": 6489,
  "\u2581analyze": 6490,
  "\u2581auf": 6491,
  "\u2581avoided": 6492,
  "\u2581companion": 6493,
  "\u2581conversations": 6494,
  "\u2581danwa": 6495,
  "\u2581distracted": 6496,
  "\u2581eevelishe": 6497,
  "\u2581fed": 6498,
  "\u2581fields": 6499,
  "\u2581hide": 6500,
  "\u2581hundred": 6501,
  "\u2581imitat": 6502,
  "\u2581koiponga": 6503,
  "\u2581koiwana": 6504,
  "\u2581kuAdam": 6505,
  "\u2581landa": 6506,
  "\u2581lidjuu": 6507,
  "\u2581likalela": 6508,
  "\u2581limemesha": 6509,
  "\u2581litunhula": 6510,
  "\u2581lom": 6511,
  "\u2581longelwa": 6512,
  "\u2581mokutala": 6513,
  "\u2581mourning": 6514,
  "\u2581murder": 6515,
  "\u2581nOmona": 6516,
  "\u2581nokav": 6517,
  "\u2581nokupwilikina": 6518,
  "\u2581nyemateke": 6519,
  "\u2581okafimbo": 6520,
  "\u2581omahangano": 6521,
  "\u2581omounyuni": 6522,
  "\u2581omumati": 6523,
  "\u2581ongulu": 6524,
  "\u2581opposite": 6525,
  "\u2581oshikunino": 6526,
  "\u2581oshitwa": 6527,
  "\u2581oulingilingi": 6528,
  "\u2581pamba": 6529,
  "\u2581passing": 6530,
  "\u2581popifa": 6531,
  "\u2581primar": 6532,
  "\u2581push": 6533,
  "\u2581rejoicing": 6534,
  "\u2581sich": 6535,
  "\u2581sincerely": 6536,
  "\u2581submit": 6537,
  "\u2581suggested": 6538,
  "\u2581waimina": 6539,
  "\u2581wokupangela": 6540,
  "\u2581yahameke": 6541,
  "Kape": 6542,
  "Mika": 6543,
  "Omesho": 6544,
  "Paife": 6545,
  "ULWA": 6546,
  "by": 6547,
  "de": 6548,
  "kanghameno": 6549,
  "kulihonga": 6550,
  "lila": 6551,
  "ndjila": 6552,
  "okutila": 6553,
  "ou": 6554,
  "shimhungu": 6555,
  "thrown": 6556,
  "tries": 6557,
  "\u2581116": 6558,
  "\u2581Abigail": 6559,
  "\u2581Congregation": 6560,
  "\u2581Evening": 6561,
  "\u2581Grand": 6562,
  "\u2581Herod": 6563,
  "\u2581Iyapuki": 6564,
  "\u2581Joel": 6565,
  "\u2581Judges": 6566,
  "\u2581Megan": 6567,
  "\u2581Mother": 6568,
  "\u2581Nabal": 6569,
  "\u2581PET": 6570,
  "\u2581achieve": 6571,
  "\u2581adhere": 6572,
  "\u2581anye": 6573,
  "\u2581associating": 6574,
  "\u2581assume": 6575,
  "\u2581badly": 6576,
  "\u2581blame": 6577,
  "\u2581boldness": 6578,
  "\u2581color": 6579,
  "\u2581commands": 6580,
  "\u2581conducted": 6581,
  "\u2581conscious": 6582,
  "\u2581convince": 6583,
  "\u2581economic": 6584,
  "\u2581ehandukilo": 6585,
  "\u2581enaenghono": 6586,
  "\u2581explanation": 6587,
  "\u2581extra": 6588,
  "\u2581factor": 6589,
  "\u2581flee": 6590,
  "\u2581friendships": 6591,
  "\u2581intentions": 6592,
  "\u2581iron": 6593,
  "\u2581island": 6594,
  "\u2581lOmhango": 6595,
  "\u2581laDavid": 6596,
  "\u2581lihololela": 6597,
  "\u2581likened": 6598,
  "\u2581limits": 6599,
  "\u2581lion": 6600,
  "\u2581movies": 6601,
  "\u2581nokukundafana": 6602,
  "\u2581oilongifo": 6603,
  "\u2581okudiinin": 6604,
  "\u2581okulila": 6605,
  "\u2581okulungama": 6606,
  "\u2581omafaneko": 6607,
  "\u2581omaunghundi": 6608,
  "\u2581onguloshi": 6609,
  "\u2581ordered": 6610,
  "\u2581oulai": 6611,
  "\u2581ovashunimonima": 6612,
  "\u2581oyoongalele": 6613,
  "\u2581passage": 6614,
  "\u2581peers": 6615,
  "\u2581poverty": 6616,
  "\u2581recognition": 6617,
  "\u2581refugees": 6618,
  "\u2581repeated": 6619,
  "\u2581reply": 6620,
  "\u2581resolved": 6621,
  "\u2581ride": 6622,
  "\u2581searching": 6623,
  "\u2581settle": 6624,
  "\u2581shangele": 6625,
  "\u2581shaxuuninwa": 6626,
  "\u2581shiivifile": 6627,
  "\u2581shoshitukulwa": 6628,
  "\u2581signs": 6629,
  "\u2581specifically": 6630,
  "\u2581tabernacle": 6631,
  "\u2581terms": 6632,
  "\u2581ut": 6633,
  "\u2581valley": 6634,
  "\u2581vati": 6635,
  "\u2581welfare": 6636,
  "\u2581worried": 6637,
  "\u2581yokondadalunde": 6638,
  "\u2581yukife": 6639,
  "Januali": 6640,
  "Jos": 6641,
  "OKUKONAKONWA": 6642,
  "Okwa": 6643,
  "faneni": 6644,
  "hadi": 6645,
  "kape": 6646,
  "liyamba": 6647,
  "ocratic": 6648,
  "ovakalimo": 6649,
  "ovakwaita": 6650,
  "popyo": 6651,
  "pupi": 6652,
  "vakwatelikomesho": 6653,
  "\u2581130": 6654,
  "\u25811999": 6655,
  "\u258130,": 6656,
  "\u258141.": 6657,
  "\u258145,": 6658,
  "\u258168": 6659,
  "\u2581Egyptians": 6660,
  "\u2581Etokolo": 6661,
  "\u2581Faithful": 6662,
  "\u2581ISSUE": 6663,
  "\u2581Judge": 6664,
  "\u2581Juni": 6665,
  "\u2581Mal": 6666,
  "\u2581Meal": 6667,
  "\u2581Momud": 6668,
  "\u2581Naav": 6669,
  "\u2581Omunamapangelo": 6670,
  "\u2581Oshiingilisha": 6671,
  "\u2581QUESTIONS": 6672,
  "\u2581Richard": 6673,
  "\u2581Shirley": 6674,
  "\u2581[\"": 6675,
  "\u2581amushe": 6676,
  "\u2581belonging": 6677,
  "\u2581center": 6678,
  "\u2581claimed": 6679,
  "\u2581comparison": 6680,
  "\u2581constant": 6681,
  "\u2581continually": 6682,
  "\u2581continuing": 6683,
  "\u2581cup": 6684,
  "\u2581custom": 6685,
  "\u2581deliverance": 6686,
  "\u2581depict": 6687,
  "\u2581destination": 6688,
  "\u2581distressing": 6689,
  "\u2581dust": 6690,
  "\u2581earn": 6691,
  "\u2581ehanauno": 6692,
  "\u2581embrace": 6693,
  "\u2581emoniko": 6694,
  "\u2581etulumuko": 6695,
  "\u2581fininika": 6696,
  "\u2581fourth": 6697,
  "\u2581freed": 6698,
  "\u2581grain": 6699,
  "\u2581hat": 6700,
  "\u2581ihafifa": 6701,
  "\u2581imike": 6702,
  "\u2581imitation": 6703,
  "\u2581jealous": 6704,
  "\u2581kObetel": 6705,
  "\u2581kaKalunga": 6706,
  "\u2581katukil": 6707,
  "\u2581kehafo": 6708,
  "\u2581laMoses": 6709,
  "\u2581lopafaneko": 6710,
  "\u2581meditation": 6711,
  "\u2581memory": 6712,
  "\u2581minutes": 6713,
  "\u2581mongudu": 6714,
  "\u2581naalo": 6715,
  "\u2581navakwao": 6716,
  "\u2581nearby": 6717,
  "\u2581nokukale": 6718,
  "\u2581norther": 6719,
  "\u2581noukolele": 6720,
  "\u2581okahalu": 6721,
  "\u2581omuyakuliongalo": 6722,
  "\u2581oppression": 6723,
  "\u2581ovakaleli": 6724,
  "\u2581persons": 6725,
  "\u2581reside": 6726,
  "\u2581sanctified": 6727,
  "\u2581shiivifila": 6728,
  "\u2581shounyuni": 6729,
  "\u2581silver": 6730,
  "\u2581singleness": 6731,
  "\u2581smile": 6732,
  "\u2581speaker": 6733,
  "\u2581strike": 6734,
  "\u2581stumbling": 6735,
  "\u2581tamunun": 6736,
  "\u2581testimony": 6737,
  "\u2581tukula": 6738,
  "\u2581tulumukifa": 6739,
  "\u2581twice": 6740,
  "\u2581unclean": 6741,
  "\u2581waBetel": 6742,
  "\u2581wall": 6743,
  "\u2581waxuuninwa": 6744,
  "\u2581womahepeko": 6745,
  "\u2581xuuninwa": 6746,
  "\u2581xwepopala": 6747,
  "\u2581yaHarmagedon": 6748,
  "ES": 6749,
  "Eudaneko": 6750,
  "Februali": 6751,
  "Omuhongi": 6752,
  "SO": 6753,
  "but": 6754,
  "doolopa": 6755,
  "maukwaneumbo": 6756,
  "okolola": 6757,
  "okuyambidida": 6758,
  "omunhu": 6759,
  "omupangeli": 6760,
  "onghedi": 6761,
  "shinakuwanifwa": 6762,
  "ungaunga": 6763,
  "\u258130:": 6764,
  "\u2581400": 6765,
  "\u258194": 6766,
  "\u258195": 6767,
  "\u2581Archives": 6768,
  "\u2581Asia": 6769,
  "\u2581CAN": 6770,
  "\u2581Court": 6771,
  "\u2581Empire": 6772,
  "\u2581Eongalo": 6773,
  "\u2581OTA": 6774,
  "\u2581Ovayapostoli": 6775,
  "\u2581Philippines": 6776,
  "\u2581TU": 6777,
  "\u2581Times": 6778,
  "\u2581Years": 6779,
  "\u2581application": 6780,
  "\u2581arose": 6781,
  "\u2581birds": 6782,
  "\u2581bound": 6783,
  "\u2581cancer": 6784,
  "\u2581community": 6785,
  "\u2581computer": 6786,
  "\u2581cried": 6787,
  "\u2581debt": 6788,
  "\u2581deserve": 6789,
  "\u2581developments": 6790,
  "\u2581efimaneko": 6791,
  "\u2581elements": 6792,
  "\u2581equal": 6793,
  "\u2581except": 6794,
  "\u2581expectation": 6795,
  "\u2581exposed": 6796,
  "\u2581feature": 6797,
  "\u2581foot": 6798,
  "\u2581funds": 6799,
  "\u2581happily": 6800,
  "\u2581hated": 6801,
  "\u2581houses": 6802,
  "\u2581keam": 6803,
  "\u2581kolulyo": 6804,
  "\u2581kuEgipti": 6805,
  "\u2581lao": 6806,
  "\u2581lawlessness": 6807,
  "\u2581lineekele": 6808,
  "\u2581lixwa": 6809,
  "\u2581liyapuki": 6810,
  "\u2581miraculous": 6811,
  "\u2581mofikola": 6812,
  "\u2581mosh": 6813,
  "\u2581naMaria": 6814,
  "\u2581neameno": 6815,
  "\u2581nelipangelo": 6816,
  "\u2581newiliko": 6817,
  "\u2581nokuhonga": 6818,
  "\u2581obstacles": 6819,
  "\u2581okudipaa": 6820,
  "\u2581okutomhafana": 6821,
  "\u2581olwoodi": 6822,
  "\u2581omapekapeko": 6823,
  "\u2581omolwohole": 6824,
  "\u2581omuvaekwa": 6825,
  "\u2581oshidjuu": 6826,
  "\u2581oshinge": 6827,
  "\u2581pambelela": 6828,
  "\u2581pleasures": 6829,
  "\u2581police": 6830,
  "\u2581radio": 6831,
  "\u2581remembered": 6832,
  "\u2581replaced": 6833,
  "\u2581ridicule": 6834,
  "\u2581running": 6835,
  "\u2581solution": 6836,
  "\u2581sorry": 6837,
  "\u2581tembuka": 6838,
  "\u2581tondoka": 6839,
  "\u2581torture": 6840,
  "\u2581video": 6841,
  "\u2581viewing": 6842,
  "\u2581visions": 6843,
  "\u2581womwaavo": 6844,
  "\u2581yOvajuda": 6845,
  "Omutima": 6846,
  "Photo": 6847,
  "Who": 6848,
  "body": 6849,
  "ce": 6850,
  "embo": 6851,
  "eshiivo": 6852,
  "ge": 6853,
  "lela": 6854,
  "omanyono": 6855,
  "pokati": 6856,
  "\u2581115": 6857,
  "\u258115.)": 6858,
  "\u25811930": 6859,
  "\u25811949": 6860,
  "\u25811958": 6861,
  "\u258146.": 6862,
  "\u2581Branch": 6863,
  "\u2581Eilikano": 6864,
  "\u2581Ewifa": 6865,
  "\u2581February": 6866,
  "\u2581Find": 6867,
  "\u2581Heart": 6868,
  "\u2581Josafat": 6869,
  "\u2581Kings": 6870,
  "\u2581Much": 6871,
  "\u2581Rachel": 6872,
  "\u2581Reflect": 6873,
  "\u2581Rule": 6874,
  "\u2581aIsrael": 6875,
  "\u2581access": 6876,
  "\u2581aged": 6877,
  "\u2581appealing": 6878,
  "\u2581appoint": 6879,
  "\u2581appointment": 6880,
  "\u2581arrival": 6881,
  "\u2581associations": 6882,
  "\u2581bereaved": 6883,
  "\u2581billions": 6884,
  "\u2581calamity": 6885,
  "\u2581caus": 6886,
  "\u2581commended": 6887,
  "\u2581commissioned": 6888,
  "\u2581context": 6889,
  "\u2581cultivating": 6890,
  "\u2581depends": 6891,
  "\u2581discernment": 6892,
  "\u2581displayed": 6893,
  "\u2581donate": 6894,
  "\u2581doubts": 6895,
  "\u2581elandulafano": 6896,
  "\u2581empty": 6897,
  "\u2581etitatu": 6898,
  "\u2581eu": 6899,
  "\u2581executed": 6900,
  "\u2581fun": 6901,
  "\u2581gets": 6902,
  "\u2581greed": 6903,
  "\u2581harmful": 6904,
  "\u2581helper": 6905,
  "\u2581hidden": 6906,
  "\u2581hit": 6907,
  "\u2581images": 6908,
  "\u2581kedu": 6909,
  "\u2581kitakana": 6910,
  "\u2581kolundume": 6911,
  "\u2581koma": 6912,
  "\u2581konguloshi": 6913,
  "\u2581kovana": 6914,
  "\u2581lOshijuda": 6915,
  "\u2581lifa": 6916,
  "\u2581loinima": 6917,
  "\u2581lombili": 6918,
  "\u2581mark": 6919,
  "\u2581meendjila": 6920,
  "\u2581minikile": 6921,
  "\u2581muRoma": 6922,
  "\u2581nodi": 6923,
  "\u2581nokaana": 6924,
  "\u2581nokulihonga": 6925,
  "\u2581nomafinamhango": 6926,
  "\u2581nomonamati": 6927,
  "\u2581nomupiya": 6928,
  "\u2581north": 6929,
  "\u2581nounyuni": 6930,
  "\u2581novaengeli": 6931,
  "\u2581observes": 6932,
  "\u2581okondadalunde": 6933,
  "\u2581okudana": 6934,
  "\u2581okulongwa": 6935,
  "\u2581omaudano": 6936,
  "\u2581omukwanyanya": 6937,
  "\u2581ongoing": 6938,
  "\u2581opposers": 6939,
  "\u2581oshiimati": 6940,
  "\u2581oshishitwa": 6941,
  "\u2581ouhaku": 6942,
  "\u2581ovashangi": 6943,
  "\u2581pepalekwa": 6944,
  "\u2581perfectly": 6945,
  "\u2581possession": 6946,
  "\u2581rebuild": 6947,
  "\u2581settled": 6948,
  "\u2581taste": 6949,
  "\u2581tekulwa": 6950,
  "\u2581threat": 6951,
  "\u2581tukululil": 6952,
  "\u2581tumu": 6953,
  "\u2581visible": 6954,
  "\u2581wind": 6955,
  "\u2581yoke": 6956,
  "\u2581yomudo": 6957,
  "\u2581youmwainafana": 6958,
  "By": 6959,
  "Jeremia": 6960,
  "KO": 6961,
  "Ohamba": 6962,
  "Omhangu": 6963,
  "ably": 6964,
  "ameka": 6965,
  "dila": 6966,
  "elaka": 6967,
  "elondwelo": 6968,
  "eri": 6969,
  "han": 6970,
  "hombo": 6971,
  "honde": 6972,
  "kombada": 6973,
  "monamati": 6974,
  "nde": 6975,
  "nt": 6976,
  "omapulo": 6977,
  "oudjuu": 6978,
  "ovalumenhu": 6979,
  "ovana": 6980,
  "reafter": 6981,
  "shiwana": 6982,
  "tally": 6983,
  "ti": 6984,
  "vamwatate": 6985,
  "working": 6986,
  "\u25811990": 6987,
  "\u2581Box": 6988,
  "\u2581Efyo": 6989,
  "\u2581Ephesus": 6990,
  "\u2581Jericho": 6991,
  "\u2581Lives": 6992,
  "\u2581Maintain": 6993,
  "\u2581Ning": 6994,
  "\u2581Ovana": 6995,
  "\u2581Potete": 6996,
  "\u2581Priest": 6997,
  "\u2581Seek": 6998,
  "\u2581absorb": 6999,
  "\u2581adapt": 7000,
  "\u2581afford": 7001,
  "\u2581afterward": 7002,
  "\u2581announced": 7003,
  "\u2581atmosphere": 7004,
  "\u2581bones": 7005,
  "\u2581burn": 7006,
  "\u2581capable": 7007,
  "\u2581condemned": 7008,
  "\u2581deserves": 7009,
  "\u2581dipe": 7010,
  "\u2581discover": 7011,
  "\u2581discusse": 7012,
  "\u2581discussions": 7013,
  "\u2581eehepele": 7014,
  "\u2581eenyofi": 7015,
  "\u2581empire": 7016,
  "\u2581ends": 7017,
  "\u2581ensure": 7018,
  "\u2581examination": 7019,
  "\u2581exile": 7020,
  "\u2581fathers": 7021,
  "\u2581hanganifa": 7022,
  "\u2581hapupalifa": 7023,
  "\u2581initially": 7024,
  "\u2581intelligent": 7025,
  "\u2581joyfully": 7026,
  "\u2581kOmbiibeli": 7027,
  "\u2581kee": 7028,
  "\u2581kembaula": 7029,
  "\u2581komayeleko": 7030,
  "\u2581kongeleka": 7031,
  "\u2581koshili": 7032,
  "\u2581lOmona": 7033,
  "\u2581lOshungonangelo": 7034,
  "\u2581length": 7035,
  "\u2581lididilikwedi": 7036,
  "\u2581litala": 7037,
  "\u2581location": 7038,
  "\u2581lokondadalunde": 7039,
  "\u2581lopamishangwa": 7040,
  "\u2581lwife": 7041,
  "\u2581meameno": 7042,
  "\u2581moBetel": 7043,
  "\u2581molw": 7044,
  "\u2581nOvaisrael": 7045,
  "\u2581netata": 7046,
  "\u2581nomayele": 7047,
  "\u2581officer": 7048,
  "\u2581oimuna": 7049,
  "\u2581okulinyenga": 7050,
  "\u2581okwoongaonga": 7051,
  "\u2581olilipi": 7052,
  "\u2581omai": 7053,
  "\u2581oumhulile": 7054,
  "\u2581ovahongwanhu": 7055,
  "\u2581ovanashibofa": 7056,
  "\u2581painiwe": 7057,
  "\u2581patriarch": 7058,
  "\u2581paulelalela": 7059,
  "\u2581percent": 7060,
  "\u2581playing": 7061,
  "\u2581prompt": 7062,
  "\u2581punishment": 7063,
  "\u2581reassuring": 7064,
  "\u2581shingi": 7065,
  "\u2581shortly": 7066,
  "\u2581sinner": 7067,
  "\u2581souls": 7068,
  "\u2581surface": 7069,
  "\u2581survived": 7070,
  "\u2581temper": 7071,
  "\u2581tent": 7072,
  "\u2581thorough": 7073,
  "\u2581undergo": 7074,
  "\u2581unselfish": 7075,
  "\u2581urges": 7076,
  "\u2581wako": 7077,
  "\u2581wholesome": 7078,
  "\u2581woukwaneumbo": 7079,
  "\u2581yOvaisrael": 7080,
  "\u2581yokuliholamwene": 7081,
  "\u2581yokuya": 7082,
  "\u2581yomeulu": 7083,
  "\u2581yonakwiiwa": 7084,
  "\u2581yopapolotika": 7085,
  "AS": 7086,
  "Fi": 7087,
  "Ohatu": 7088,
  "Otete": 7089,
  "Your": 7090,
  "hu": 7091,
  "ight": 7092,
  "kandule": 7093,
  "kupitila": 7094,
  "kuyakula": 7095,
  "likonakona": 7096,
  "longifo": 7097,
  "lwifa": 7098,
  "nduluka": 7099,
  "ohandimwe": 7100,
  "omwenyo": 7101,
  "ouhamba": 7102,
  "there": 7103,
  "udif": 7104,
  "\u2581\"!": 7105,
  "\u2581139": 7106,
  "\u2581Apollos": 7107,
  "\u2581Ear": 7108,
  "\u2581Human": 7109,
  "\u2581IT": 7110,
  "\u2581Index": 7111,
  "\u2581Jael": 7112,
  "\u2581Josiah": 7113,
  "\u2581Kaum": 7114,
  "\u2581Mounyuni": 7115,
  "\u2581Mum": 7116,
  "\u2581Pilate": 7117,
  "\u2581Red": 7118,
  "\u2581Russia": 7119,
  "\u2581Sodom": 7120,
  "\u2581State": 7121,
  "\u2581admitted": 7122,
  "\u2581agreement": 7123,
  "\u2581aike": 7124,
  "\u2581annual": 7125,
  "\u2581bought": 7126,
  "\u2581check": 7127,
  "\u2581commend": 7128,
  "\u2581conflicts": 7129,
  "\u2581contributed": 7130,
  "\u2581crushed": 7131,
  "\u2581daSatana": 7132,
  "\u2581denge": 7133,
  "\u2581description": 7134,
  "\u2581detailed": 7135,
  "\u2581dile": 7136,
  "\u2581disasters": 7137,
  "\u2581distinguish": 7138,
  "\u2581dopalutu": 7139,
  "\u2581drugs": 7140,
  "\u2581eenhamanana": 7141,
  "\u2581efiloshisho": 7142,
  "\u2581enangekonoupuna": 7143,
  "\u2581envy": 7144,
  "\u2581eongamukonda": 7145,
  "\u2581etukauko": 7146,
  "\u2581everywhere": 7147,
  "\u2581evolution": 7148,
  "\u2581exact": 7149,
  "\u2581experiencing": 7150,
  "\u2581flow": 7151,
  "\u2581handed": 7152,
  "\u2581harsh": 7153,
  "\u2581hololwa": 7154,
  "\u2581intent": 7155,
  "\u2581jobs": 7156,
  "\u2581kingship": 7157,
  "\u2581kovapambele": 7158,
  "\u2581kwate": 7159,
  "\u2581laYe": 7160,
  "\u2581loipupulu": 7161,
  "\u2581loud": 7162,
  "\u2581lwopexulilo": 7163,
  "\u2581mape": 7164,
  "\u2581memories": 7165,
  "\u2581missed": 7166,
  "\u2581momambo": 7167,
  "\u2581moshifo": 7168,
  "\u2581motive": 7169,
  "\u2581mwena": 7170,
  "\u2581naAbraham": 7171,
  "\u2581naSara": 7172,
  "\u2581nomumwameme": 7173,
  "\u2581oiponga": 7174,
  "\u2581ok": 7175,
  "\u2581okufuta": 7176,
  "\u2581okukwata": 7177,
  "\u2581okuliholamwene": 7178,
  "\u2581okwiindila": 7179,
  "\u2581omaano": 7180,
  "\u2581omonakadona": 7181,
  "\u2581ongeleka": 7182,
  "\u2581opaMbibeli": 7183,
  "\u2581peaceable": 7184,
  "\u2581plague": 7185,
  "\u2581pondje": 7186,
  "\u2581potete": 7187,
  "\u2581prophesied": 7188,
  "\u2581protects": 7189,
  "\u2581prov": 7190,
  "\u2581rewarding": 7191,
  "\u2581rulers": 7192,
  "\u2581shOlutuwiliki": 7193,
  "\u2581shakene": 7194,
  "\u2581shilikwa": 7195,
  "\u2581statements": 7196,
  "\u2581tear": 7197,
  "\u2581transformed": 7198,
  "\u2581tunge": 7199,
  "\u2581ulikilwa": 7200,
  "\u2581valid": 7201,
  "\u2581weapons": 7202,
  "\u2581worker": 7203,
  "\u2581worthless": 7204,
  "\u2581wouyuki": 7205,
  "\u2581yamba": 7206,
  "DWA": 7207,
  "INGA": 7208,
  "Osha": 7209,
  "eendjila": 7210,
  "elekanifa": 7211,
  "etoloko": 7212,
  "ifo": 7213,
  "inute": 7214,
  "kamonakadona": 7215,
  "kulonga": 7216,
  "kweefa": 7217,
  "laka": 7218,
  "maupyakadi": 7219,
  "ndinga": 7220,
  "oiimati": 7221,
  "omhepo": 7222,
  "omulumenhu": 7223,
  "omutima": 7224,
  "reby": 7225,
  "tanga": 7226,
  "ung": 7227,
  "\u2581118": 7228,
  "\u258113.)": 7229,
  "\u2581135": 7230,
  "\u25811952": 7231,
  "\u25812007": 7232,
  "\u258134,": 7233,
  "\u2581Above": 7234,
  "\u2581Antonio": 7235,
  "\u2581Babylonian": 7236,
  "\u2581Become": 7237,
  "\u2581Day": 7238,
  "\u2581Eyelu": 7239,
  "\u2581Eyovi": 7240,
  "\u2581Five": 7241,
  "\u2581Galilee": 7242,
  "\u2581Ireland": 7243,
  "\u2581Listen": 7244,
  "\u2581Marsa": 7245,
  "\u2581OMBIBELI": 7246,
  "\u2581ONGHALAMWENYO": 7247,
  "\u2581Often": 7248,
  "\u2581Omunaenghono": 7249,
  "\u2581Rico": 7250,
  "\u2581River": 7251,
  "\u2581STORY": 7252,
  "\u2581West": 7253,
  "\u2581Which": 7254,
  "\u2581attractive": 7255,
  "\u2581burned": 7256,
  "\u2581burning": 7257,
  "\u2581charge": 7258,
  "\u2581deceptive": 7259,
  "\u2581depressed": 7260,
  "\u2581devote": 7261,
  "\u2581diligent": 7262,
  "\u2581dimbwe": 7263,
  "\u2581drive": 7264,
  "\u2581eemwedi": 7265,
  "\u2581execution": 7266,
  "\u2581fier": 7267,
  "\u2581fled": 7268,
  "\u2581fortify": 7269,
  "\u2581fulfilling": 7270,
  "\u2581hall": 7271,
  "\u2581hinder": 7272,
  "\u2581holoke": 7273,
  "\u2581hoolole": 7274,
  "\u2581idolatry": 7275,
  "\u2581ilikanene": 7276,
  "\u2581imagined": 7277,
  "\u2581imprisoned": 7278,
  "\u2581kOmhango": 7279,
  "\u2581kaJehova": 7280,
  "\u2581kelele": 7281,
  "\u2581kwaayo": 7282,
  "\u2581leaves": 7283,
  "\u2581lomoshitukulwa": 7284,
  "\u2581longekidila": 7285,
  "\u2581longhalamwenyo": 7286,
  "\u2581low": 7287,
  "\u2581lungamena": 7288,
  "\u2581metulumuko": 7289,
  "\u2581morally": 7290,
  "\u2581moufiku": 7291,
  "\u2581muBabilon": 7292,
  "\u2581mukweni": 7293,
  "\u2581nelao": 7294,
  "\u2581nelihumbato": 7295,
  "\u2581ninginifwe": 7296,
  "\u2581nohamba": 7297,
  "\u2581nokufya": 7298,
  "\u2581nomido": 7299,
  "\u2581nomoilonga": 7300,
  "\u2581noye": 7301,
  "\u2581nwefe": 7302,
  "\u2581okudimin": 7303,
  "\u2581okufimanekwa": 7304,
  "\u2581okulididimika": 7305,
  "\u2581olunyala": 7306,
  "\u2581omake": 7307,
  "\u2581omalondwelo": 7308,
  "\u2581omukwaita": 7309,
  "\u2581oshitaimbelewa": 7310,
  "\u2581oumwainafana": 7311,
  "\u2581outline": 7312,
  "\u2581ovanaudu": 7313,
  "\u2581pOpentekoste": 7314,
  "\u2581poku": 7315,
  "\u2581previously": 7316,
  "\u2581punduka": 7317,
  "\u2581pwaasho": 7318,
  "\u2581quotations": 7319,
  "\u2581reasoned": 7320,
  "\u2581safeguard": 7321,
  "\u2581satisfy": 7322,
  "\u2581seated": 7323,
  "\u2581select": 7324,
  "\u2581sheilikano": 7325,
  "\u2581shihokwifa": 7326,
  "\u2581sholudalo": 7327,
  "\u2581stones": 7328,
  "\u2581strict": 7329,
  "\u2581sufficient": 7330,
  "\u2581tauluka": 7331,
  "\u2581tendencies": 7332,
  "\u2581typical": 7333,
  "\u2581upright": 7334,
  "\u2581vain": 7335,
  "\u2581vary": 7336,
  "\u2581waited": 7337,
  "\u2581weekly": 7338,
  "\u2581womeni": 7339,
  "\u2581wondjokonona": 7340,
  "\u2581worshipper": 7341,
  "\u2581yomupiya": 7342,
  "\u2581yopaumwene": 7343,
  "\u2581youdiinini": 7344,
  "5)": 7345,
  "EENGE": 7346,
  "Konakona": 7347,
  "ard": 7348,
  "asho": 7349,
  "eemhadi": 7350,
  "eenghono": 7351,
  "file": 7352,
  "fulness": 7353,
  "ius": 7354,
  "kulesha": 7355,
  "longside": 7356,
  "mukunda": 7357,
  "nhumwafo": 7358,
  "niwe": 7359,
  "son": 7360,
  "specially": 7361,
  "umbo": 7362,
  "vashangi": 7363,
  "was": 7364,
  "wila": 7365,
  "woinima": 7366,
  "\u2581(\"": 7367,
  "\u2581127": 7368,
  "\u25811943": 7369,
  "\u25811956": 7370,
  "\u258152": 7371,
  "\u2581Auguste": 7372,
  "\u2581Bethlehem": 7373,
  "\u2581Bill": 7374,
  "\u2581Canaan": 7375,
  "\u2581Dead": 7376,
  "\u2581Describe": 7377,
  "\u2581Elininipiko": 7378,
  "\u2581End": 7379,
  "\u2581Gold": 7380,
  "\u2581Happy": 7381,
  "\u2581Moilong": 7382,
  "\u2581ONDJO": 7383,
  "\u2581Ohe": 7384,
  "\u2581Old": 7385,
  "\u2581Paulelalela": 7386,
  "\u2581Photo": 7387,
  "\u2581Power": 7388,
  "\u2581Purpose": 7389,
  "\u2581Reign": 7390,
  "\u2581Truth": 7391,
  "\u2581Ur": 7392,
  "\u2581Way": 7393,
  "\u2581accused": 7394,
  "\u2581acquainted": 7395,
  "\u2581adjusted": 7396,
  "\u2581andike": 7397,
  "\u2581anxieties": 7398,
  "\u2581backing": 7399,
  "\u2581chance": 7400,
  "\u2581crowds": 7401,
  "\u2581desired": 7402,
  "\u2581didilik": 7403,
  "\u2581dilonge": 7404,
  "\u2581eenhauki": 7405,
  "\u2581eenhumwafo": 7406,
  "\u2581foreigners": 7407,
  "\u2581foremost": 7408,
  "\u2581gaining": 7409,
  "\u2581games": 7410,
  "\u2581guides": 7411,
  "\u2581hambelele": 7412,
  "\u2581happening": 7413,
  "\u2581holds": 7414,
  "\u2581illustrates": 7415,
  "\u2581kalele": 7416,
  "\u2581konda": 7417,
  "\u2581kume": 7418,
  "\u2581leteyo": 7419,
  "\u2581lokomudo": 7420,
  "\u2581lovayapostoli": 7421,
  "\u2581mal": 7422,
  "\u2581marriages": 7423,
  "\u2581maturity": 7424,
  "\u2581mee": 7425,
  "\u2581moshilonga": 7426,
  "\u2581mouwa": 7427,
  "\u2581muJohannes": 7428,
  "\u2581nOmushiti": 7429,
  "\u2581naina": 7430,
  "\u2581nashike": 7431,
  "\u2581nokahalu": 7432,
  "\u2581nomwa": 7433,
  "\u2581notau": 7434,
  "\u2581oath": 7435,
  "\u2581ohauto": 7436,
  "\u2581okupandulwa": 7437,
  "\u2581omadimbulukifo": 7438,
  "\u2581omumwaina": 7439,
  "\u2581omunalukeno": 7440,
  "\u2581ongela": 7441,
  "\u2581opposed": 7442,
  "\u2581oshimaliwa": 7443,
  "\u2581oshiteelelwa": 7444,
  "\u2581ounashibofa": 7445,
  "\u2581ounye": 7446,
  "\u2581outset": 7447,
  "\u2581ovamwaxo": 7448,
  "\u2581ovanaenghono": 7449,
  "\u2581passages": 7450,
  "\u2581paying": 7451,
  "\u2581planned": 7452,
  "\u2581possibly": 7453,
  "\u2581proclaimed": 7454,
  "\u2581programs": 7455,
  "\u2581rain": 7456,
  "\u2581reflects": 7457,
  "\u2581replace": 7458,
  "\u2581reputation": 7459,
  "\u2581rid": 7460,
  "\u2581selected": 7461,
  "\u2581shiyapuki": 7462,
  "\u2581stands": 7463,
  "\u2581star": 7464,
  "\u2581station": 7465,
  "\u2581steal": 7466,
  "\u2581struggling": 7467,
  "\u2581stumble": 7468,
  "\u2581telephone": 7469,
  "\u2581thrilled": 7470,
  "\u2581tremendous": 7471,
  "\u2581tuka": 7472,
  "\u2581unusual": 7473,
  "\u2581veluka": 7474,
  "\u2581weaken": 7475,
  "\u2581widely": 7476,
  "\u2581woko": 7477,
  "\u2581wokombada": 7478,
  "\u2581yemanguluko": 7479,
  "\u2581yokupopya": 7480,
  "AI": 7481,
  "Come": 7482,
  "DULU": 7483,
  "Go": 7484,
  "Ito": 7485,
  "Ovajuda": 7486,
  "alulilwa": 7487,
  "ana": 7488,
  "angelic": 7489,
  "hat": 7490,
  "kolukadi": 7491,
  "kuyambidida": 7492,
  "lelongelokalunga": 7493,
  "lokamukondapweyu": 7494,
  "make": 7495,
  "mwene": 7496,
  "shOshiheberi": 7497,
  "teelelo": 7498,
  "uka": 7499,
  "valeshi": 7500,
  "ward": 7501,
  "\u25811,000": 7502,
  "\u25811953": 7503,
  "\u258162": 7504,
  "\u2581Changes": 7505,
  "\u2581Chinese": 7506,
  "\u2581Christmas": 7507,
  "\u2581Dad": 7508,
  "\u2581Debora": 7509,
  "\u2581Die": 7510,
  "\u2581Eccl": 7511,
  "\u2581Eembibeli": 7512,
  "\u2581Habakkuk": 7513,
  "\u2581JW": 7514,
  "\u2581KALUNGA": 7515,
  "\u2581KOR": 7516,
  "\u2581Ke": 7517,
  "\u2581Living": 7518,
  "\u2581Munene": 7519,
  "\u2581Ovaegipti": 7520,
  "\u2581Ovakokolindjila": 7521,
  "\u2581Please": 7522,
  "\u2581Shepherd": 7523,
  "\u2581Source": 7524,
  "\u2581Trinity": 7525,
  "\u2581WA": 7526,
  "\u2581Whom": 7527,
  "\u2581YETU": 7528,
  "\u2581aKristus": 7529,
  "\u2581accident": 7530,
  "\u2581adult": 7531,
  "\u2581aim": 7532,
  "\u2581average": 7533,
  "\u2581behave": 7534,
  "\u2581bitter": 7535,
  "\u2581brain": 7536,
  "\u2581c": 7537,
  "\u2581card": 7538,
  "\u2581cleansing": 7539,
  "\u2581commercial": 7540,
  "\u2581conform": 7541,
  "\u2581contemplate": 7542,
  "\u2581correction": 7543,
  "\u2581dark": 7544,
  "\u2581discouragement": 7545,
  "\u2581drop": 7546,
  "\u2581dying": 7547,
  "\u2581enhance": 7548,
  "\u2581enjoyable": 7549,
  "\u2581faces": 7550,
  "\u2581fornication": 7551,
  "\u2581garments": 7552,
  "\u2581grows": 7553,
  "\u2581guests": 7554,
  "\u2581happier": 7555,
  "\u2581highlighted": 7556,
  "\u2581holeka": 7557,
  "\u2581hungry": 7558,
  "\u2581ilikanena": 7559,
  "\u2581illustrated": 7560,
  "\u2581immediate": 7561,
  "\u2581independence": 7562,
  "\u2581inspiring": 7563,
  "\u2581konghalo": 7564,
  "\u2581koshilando": 7565,
  "\u2581kovatondi": 7566,
  "\u2581lavamwe": 7567,
  "\u2581liha": 7568,
  "\u2581lohamba": 7569,
  "\u2581loita": 7570,
  "\u2581lwa": 7571,
  "\u2581mOlupale": 7572,
  "\u2581mehongo": 7573,
  "\u2581mir": 7574,
  "\u2581momundilo": 7575,
  "\u2581moukwaita": 7576,
  "\u2581naai": 7577,
  "\u2581noho": 7578,
  "\u2581nomilele": 7579,
  "\u2581offended": 7580,
  "\u2581oilongo": 7581,
  "\u2581oingangamifi": 7582,
  "\u2581okangudu": 7583,
  "\u2581okulanda": 7584,
  "\u2581okweetel": 7585,
  "\u2581omaadi": 7586,
  "\u2581omahodi": 7587,
  "\u2581omuna": 7588,
  "\u2581omuneumbo": 7589,
  "\u2581organizations": 7590,
  "\u2581oshimhu": 7591,
  "\u2581ounghundi": 7592,
  "\u2581popular": 7593,
  "\u2581preachers": 7594,
  "\u2581prefer": 7595,
  "\u2581previous": 7596,
  "\u2581readers": 7597,
  "\u2581rebel": 7598,
  "\u2581red": 7599,
  "\u2581remnant": 7600,
  "\u2581rent": 7601,
  "\u2581repair": 7602,
  "\u2581resentment": 7603,
  "\u2581returning": 7604,
  "\u2581schools": 7605,
  "\u2581selfishness": 7606,
  "\u2581sie": 7607,
  "\u2581sitting": 7608,
  "\u2581stage": 7609,
  "\u2581steadfast": 7610,
  "\u2581storm": 7611,
  "\u2581television": 7612,
  "\u2581timing": 7613,
  "\u2581tonga": 7614,
  "\u2581unrepentant": 7615,
  "\u2581vatano": 7616,
  "\u2581vomwaavo": 7617,
  "\u2581warn": 7618,
  "\u2581weakness": 7619,
  "\u2581welcomed": 7620,
  "\u2581wir": 7621,
  "\u2581wohamba": 7622,
  "\u2581wokulonga": 7623,
  "\u2581yield": 7624,
  "Herodes": 7625,
  "SED": 7626,
  "ba": 7627,
  "doubtedly": 7628,
  "eendunge": 7629,
  "efaneko": 7630,
  "fi": 7631,
  "gave": 7632,
  "hondameno": 7633,
  "ical": 7634,
  "iwa": 7635,
  "kakam": 7636,
  "kamo": 7637,
  "kunwa": 7638,
  "nhunhu": 7639,
  "olo": 7640,
  "omhango": 7641,
  "omupambele": 7642,
  "oovene": 7643,
  "os": 7644,
  "oshikumwifilonga": 7645,
  "rs": 7646,
  "set": 7647,
  "unganeke": 7648,
  "yambididi": 7649,
  "\u258133,": 7650,
  "\u2581ARTICLE": 7651,
  "\u2581Actually": 7652,
  "\u2581Answered": 7653,
  "\u2581Any": 7654,
  "\u2581Eenghedi": 7655,
  "\u2581Eli": 7656,
  "\u2581European": 7657,
  "\u2581Henuk": 7658,
  "\u2581Ilikana": 7659,
  "\u2581JESUS": 7660,
  "\u2581Latin": 7661,
  "\u2581Library": 7662,
  "\u2581Linda": 7663,
  "\u2581Martin": 7664,
  "\u2581Mean": 7665,
  "\u2581NGAHELIPI": 7666,
  "\u2581News": 7667,
  "\u2581Omujuda": 7668,
  "\u2581Testament": 7669,
  "\u2581Thess": 7670,
  "\u2581Ver": 7671,
  "\u2581View": 7672,
  "\u2581aPaulus": 7673,
  "\u2581altar": 7674,
  "\u2581attracted": 7675,
  "\u2581centered": 7676,
  "\u2581childhood": 7677,
  "\u2581completed": 7678,
  "\u2581deaf": 7679,
  "\u2581den": 7680,
  "\u2581development": 7681,
  "\u2581dikwa": 7682,
  "\u2581distributed": 7683,
  "\u2581doctrine": 7684,
  "\u2581dopavali": 7685,
  "\u2581doshili": 7686,
  "\u2581dread": 7687,
  "\u2581driver": 7688,
  "\u2581dry": 7689,
  "\u2581equipped": 7690,
  "\u2581ewifa": 7691,
  "\u2581exclusive": 7692,
  "\u2581exemplary": 7693,
  "\u2581extraordinary": 7694,
  "\u2581fish": 7695,
  "\u2581friendly": 7696,
  "\u2581garment": 7697,
  "\u2581hepeke": 7698,
  "\u2581hospitable": 7699,
  "\u2581hospital": 7700,
  "\u2581implies": 7701,
  "\u2581inspiration": 7702,
  "\u2581items": 7703,
  "\u2581kanyatel": 7704,
  "\u2581koku": 7705,
  "\u2581lE": 7706,
  "\u2581laMateus": 7707,
  "\u2581lean": 7708,
  "\u2581lips": 7709,
  "\u2581liyapulile": 7710,
  "\u2581lohonde": 7711,
  "\u2581mass": 7712,
  "\u2581menyumuko": 7713,
  "\u2581muGenesis": 7714,
  "\u2581muhe": 7715,
  "\u2581naDavid": 7716,
  "\u2581neti": 7717,
  "\u2581noihav": 7718,
  "\u2581noikal": 7719,
  "\u2581nokand": 7720,
  "\u2581nokave": 7721,
  "\u2581nokukong": 7722,
  "\u2581nolune": 7723,
  "\u2581noshipo": 7724,
  "\u2581noudjuu": 7725,
  "\u2581noy": 7726,
  "\u2581nwe": 7727,
  "\u2581object": 7728,
  "\u2581observ": 7729,
  "\u2581obtained": 7730,
  "\u2581oilando": 7731,
  "\u2581ointaneta": 7732,
  "\u2581okamonamati": 7733,
  "\u2581okuhekeleka": 7734,
  "\u2581okuholoka": 7735,
  "\u2581okunangek": 7736,
  "\u2581okuyamba": 7737,
  "\u2581omalenga": 7738,
  "\u2581omatilifo": 7739,
  "\u2581ongele": 7740,
  "\u2581operation": 7741,
  "\u2581oufo": 7742,
  "\u2581oukokolindjila": 7743,
  "\u2581ovakwanyanya": 7744,
  "\u2581overlook": 7745,
  "\u2581pOlupale": 7746,
  "\u2581plent": 7747,
  "\u2581principal": 7748,
  "\u2581refrain": 7749,
  "\u2581requirement": 7750,
  "\u2581rock": 7751,
  "\u2581safety": 7752,
  "\u2581science": 7753,
  "\u2581seeming": 7754,
  "\u2581sets": 7755,
  "\u2581ship": 7756,
  "\u2581silent": 7757,
  "\u2581sports": 7758,
  "\u2581surprising": 7759,
  "\u2581th": 7760,
  "\u2581tokolelwa": 7761,
  "\u2581topic": 7762,
  "\u2581tradition": 7763,
  "\u2581treacherous": 7764,
  "\u2581troubled": 7765,
  "\u2581unwise": 7766,
  "\u2581victims": 7767,
  "\u2581vomuJerusalem": 7768,
  "\u2581wage": 7769,
  "\u2581wokuudifa": 7770,
  "\u2581wopaMessias": 7771,
  "\u2581xupe": 7772,
  "\u2581yeartext": 7773,
  "\u2581yoolola": 7774,
  "\u2581youpashukili": 7775,
  "\u2581youtumwa": 7776,
  "\u2581yukifwa": 7777,
  "9": 7778,
  "KU": 7779,
  "Lihong": 7780,
  "Mal": 7781,
  "ONGHALAMWENYO": 7782,
  "ONGO": 7783,
  "Onde": 7784,
  "Ovatok": 7785,
  "SUS": 7786,
  "ado": 7787,
  "ch": 7788,
  "efyo": 7789,
  "el": 7790,
  "ga": 7791,
  "manyamukulo": 7792,
  "mapangelo": 7793,
  "mba": 7794,
  "omapandja": 7795,
  "ova": 7796,
  "ral": 7797,
  "ree": 7798,
  "shangifa": 7799,
  "some": 7800,
  "\u2581136": 7801,
  "\u25811948": 7802,
  "\u25811957": 7803,
  "\u25811960": 7804,
  "\u258143.": 7805,
  "\u258159": 7806,
  "\u258178": 7807,
  "\u2581ANSWER": 7808,
  "\u2581Allen": 7809,
  "\u2581Ana": 7810,
  "\u2581Elizabeth": 7811,
  "\u2581Evangeli": 7812,
  "\u2581Evidently": 7813,
  "\u2581Full": 7814,
  "\u2581Giving": 7815,
  "\u2581Goljat": 7816,
  "\u2581Had": 7817,
  "\u2581IUD": 7818,
  "\u2581Looking": 7819,
  "\u2581Mutter": 7820,
  "\u2581Near": 7821,
  "\u2581Nebuchadnezzar": 7822,
  "\u2581North": 7823,
  "\u2581OM": 7824,
  "\u2581Ombili": 7825,
  "\u2581Ovamwameme": 7826,
  "\u2581Persia": 7827,
  "\u2581Potter": 7828,
  "\u2581Serve": 7829,
  "\u2581Sunday": 7830,
  "\u2581Thessalonica": 7831,
  "\u2581Third": 7832,
  "\u2581addiction": 7833,
  "\u2581amazed": 7834,
  "\u2581apartment": 7835,
  "\u2581badness": 7836,
  "\u2581bank": 7837,
  "\u2581believes": 7838,
  "\u2581black": 7839,
  "\u2581capital": 7840,
  "\u2581chariots": 7841,
  "\u2581claims": 7842,
  "\u2581complain": 7843,
  "\u2581composed": 7844,
  "\u2581conquest": 7845,
  "\u2581convey": 7846,
  "\u2581customs": 7847,
  "\u2581declaring": 7848,
  "\u2581delay": 7849,
  "\u2581dignity": 7850,
  "\u2581ease": 7851,
  "\u2581eehoni": 7852,
  "\u2581eembuto": 7853,
  "\u2581examining": 7854,
  "\u2581exchange": 7855,
  "\u2581execute": 7856,
  "\u2581exercised": 7857,
  "\u2581farm": 7858,
  "\u2581fyaal": 7859,
  "\u2581h": 7860,
  "\u2581hopes": 7861,
  "\u2581ikolokoshi": 7862,
  "\u2581interfere": 7863,
  "\u2581introduced": 7864,
  "\u2581kOvaisrael": 7865,
  "\u2581keemhunda": 7866,
  "\u2581komaumbo": 7867,
  "\u2581komushamane": 7868,
  "\u2581kondjifafana": 7869,
  "\u2581kuDavid": 7870,
  "\u2581kunye": 7871,
  "\u2581kweongalo": 7872,
  "\u2581laJerusalem": 7873,
  "\u2581lacking": 7874,
  "\u2581learner": 7875,
  "\u2581lexunganeko": 7876,
  "\u2581literally": 7877,
  "\u2581materially": 7878,
  "\u2581mokamba": 7879,
  "\u2581mongulu": 7880,
  "\u2581moon": 7881,
  "\u2581naPaulus": 7882,
  "\u2581navahapu": 7883,
  "\u2581neliyapulo": 7884,
  "\u2581neu": 7885,
  "\u2581nokudja": 7886,
  "\u2581nokupula": 7887,
  "\u2581nyamukul": 7888,
  "\u2581oikulila": 7889,
  "\u2581okufaneka": 7890,
  "\u2581okukwafelwa": 7891,
  "\u2581okulungamena": 7892,
  "\u2581okwiim": 7893,
  "\u2581online": 7894,
  "\u2581opehovelo": 7895,
  "\u2581oshixup": 7896,
  "\u2581outlook": 7897,
  "\u2581ovanahole": 7898,
  "\u2581perspective": 7899,
  "\u2581pick": 7900,
  "\u2581pongolol": 7901,
  "\u2581poshivelo": 7902,
  "\u2581proceeded": 7903,
  "\u2581prominence": 7904,
  "\u2581punish": 7905,
  "\u2581recalled": 7906,
  "\u2581representatives": 7907,
  "\u2581river": 7908,
  "\u2581sanctify": 7909,
  "\u2581services": 7910,
  "\u2581shito": 7911,
  "\u2581sites": 7912,
  "\u2581suggests": 7913,
  "\u2581taxes": 7914,
  "\u2581teens": 7915,
  "\u2581territories": 7916,
  "\u2581tested": 7917,
  "\u2581texts": 7918,
  "\u2581tilifa": 7919,
  "\u2581tobacco": 7920,
  "\u2581tracts": 7921,
  "\u2581translate": 7922,
  "\u2581unnecessary": 7923,
  "\u2581virgin": 7924,
  "\u2581volunteers": 7925,
  "\u2581waAbraham": 7926,
  "\u2581yOmhango": 7927,
  "\u2581yaKatolika": 7928,
  "\u2581yefiku": 7929,
  "\u2581yohombo": 7930,
  "\u2581yokukonakona": 7931,
  "2;": 7932,
  "David": 7933,
  "Ka": 7934,
  "Omishangwa": 7935,
  "Why": 7936,
  "ano": 7937,
  "eisho": 7938,
  "eliko": 7939,
  "filonghenda": 7940,
  "ilonga": 7941,
  "kufila": 7942,
  "kuliloyambo": 7943,
  "kulya": 7944,
  "lafaneni": 7945,
  "lilwa": 7946,
  "longa": 7947,
  "moniko": 7948,
  "okatend": 7949,
  "okombada": 7950,
  "okuhafela": 7951,
  "palula": 7952,
  "paragraph": 7953,
  "se": 7954,
  "talelepo": 7955,
  "they": 7956,
  "til": 7957,
  "um": 7958,
  "\u258111.)": 7959,
  "\u258115]": 7960,
  "\u25811931": 7961,
  "\u258141)": 7962,
  "\u258147.": 7963,
  "\u2581Additional": 7964,
  "\u2581Amos": 7965,
  "\u2581Benefit": 7966,
  "\u2581Di": 7967,
  "\u2581Get": 7968,
  "\u2581Hear": 7969,
  "\u2581Italy": 7970,
  "\u2581JE": 7971,
  "\u2581Jezebel": 7972,
  "\u2581Lystra": 7973,
  "\u2581MO": 7974,
  "\u2581Next": 7975,
  "\u2581Nokunena": 7976,
  "\u2581OKUN": 7977,
  "\u2581Omupashukili": 7978,
  "\u2581Origin": 7979,
  "\u2581Ovabetel": 7980,
  "\u2581Ovakainhu": 7981,
  "\u2581Pierce": 7982,
  "\u2581Put": 7983,
  "\u2581Right": 7984,
  "\u2581Speaking": 7985,
  "\u2581Story": 7986,
  "\u2581absolutely": 7987,
  "\u2581advancement": 7988,
  "\u2581ahowe": 7989,
  "\u2581ama": 7990,
  "\u2581apostasy": 7991,
  "\u2581apostate": 7992,
  "\u2581appreciative": 7993,
  "\u2581auxiliary": 7994,
  "\u2581bow": 7995,
  "\u2581confirm": 7996,
  "\u2581confirmed": 7997,
  "\u2581consist": 7998,
  "\u2581consistent": 7999,
  "\u2581distinct": 8000,
  "\u2581doctrines": 8001,
  "\u2581east": 8002,
  "\u2581eholokepo": 8003,
  "\u2581eimbilo": 8004,
  "\u2581elao": 8005,
  "\u2581emblems": 8006,
  "\u2581eyoka": 8007,
  "\u2581favorably": 8008,
  "\u2581fe": 8009,
  "\u2581feared": 8010,
  "\u2581fixed": 8011,
  "\u2581gracious": 8012,
  "\u2581handukile": 8013,
  "\u2581haughty": 8014,
  "\u2581hepeka": 8015,
  "\u2581holekwa": 8016,
  "\u2581horse": 8017,
  "\u2581inda": 8018,
  "\u2581indication": 8019,
  "\u2581keitavelo": 8020,
  "\u2581komulumenhu": 8021,
  "\u2581laRoma": 8022,
  "\u2581laalushe": 8023,
  "\u2581labor": 8024,
  "\u2581level": 8025,
  "\u2581likulu": 8026,
  "\u2581located": 8027,
  "\u2581longing": 8028,
  "\u2581measures": 8029,
  "\u2581meehombo": 8030,
  "\u2581memorial": 8031,
  "\u2581mine": 8032,
  "\u2581moiwana": 8033,
  "\u2581mokulesha": 8034,
  "\u2581moments": 8035,
  "\u2581muvo": 8036,
  "\u2581nE": 8037,
  "\u2581nO": 8038,
  "\u2581naJakob": 8039,
  "\u2581needi": 8040,
  "\u2581nohamu": 8041,
  "\u2581nohonde": 8042,
  "\u2581nonhele": 8043,
  "\u2581noshilonga": 8044,
  "\u2581novanailongo": 8045,
  "\u2581novapristeri": 8046,
  "\u2581oipumbiwa": 8047,
  "\u2581okulinyengif": 8048,
  "\u2581omalipopilo": 8049,
  "\u2581omatwi": 8050,
  "\u2581omulonga": 8051,
  "\u2581omunashili": 8052,
  "\u2581omunaudu": 8053,
  "\u2581omushangi": 8054,
  "\u2581omuwoi": 8055,
  "\u2581ooxe": 8056,
  "\u2581opavali": 8057,
  "\u2581openly": 8058,
  "\u2581ovapaani": 8059,
  "\u2581ponder": 8060,
  "\u2581ponokelwa": 8061,
  "\u2581possibility": 8062,
  "\u2581prayerfully": 8063,
  "\u2581priceless": 8064,
  "\u2581printing": 8065,
  "\u2581prior": 8066,
  "\u2581publicly": 8067,
  "\u2581rare": 8068,
  "\u2581rebelled": 8069,
  "\u2581rebellious": 8070,
  "\u2581regain": 8071,
  "\u2581relied": 8072,
  "\u2581repeat": 8073,
  "\u2581reproach": 8074,
  "\u2581revealing": 8075,
  "\u2581sat": 8076,
  "\u2581shape": 8077,
  "\u2581sheba": 8078,
  "\u2581shield": 8079,
  "\u2581shomu": 8080,
  "\u2581simplify": 8081,
  "\u2581space": 8082,
  "\u2581struggled": 8083,
  "\u2581supplication": 8084,
  "\u2581technology": 8085,
  "\u2581tengauka": 8086,
  "\u2581towns": 8087,
  "\u2581trap": 8088,
  "\u2581twila": 8089,
  "\u2581udile": 8090,
  "\u2581undermine": 8091,
  "\u2581unlike": 8092,
  "\u2581unmarried": 8093,
  "\u2581visitors": 8094,
  "\u2581vomo": 8095,
  "\u2581washo": 8096,
  "\u2581wefiku": 8097,
  "\u2581wholeheartedly": 8098,
  "\u2581yoita": 8099,
  "\u2581yokukonakonwa": 8100,
  "\u2581yopaMbiibeli": 8101,
  "\u2581yopamishangwa": 8102,
  "HE": 8103,
  "Lord": 8104,
  "Mu": 8105,
  "Ovakolossi": 8106,
  "ali": 8107,
  "deulo": 8108,
  "epata": 8109,
  "felikokolindjila": 8110,
  "hafo": 8111,
  "hauto": 8112,
  "il": 8113,
  "ima": 8114,
  "ist": 8115,
  "mayambo": 8116,
  "mukokolindjila": 8117,
  "those": 8118,
  "ulula": 8119,
  "utekuduliko": 8120,
  "\u25811946": 8121,
  "\u25812.)": 8122,
  "\u258171": 8123,
  "\u2581Alice": 8124,
  "\u2581Atushe": 8125,
  "\u2581Benjamin": 8126,
  "\u2581Caesar": 8127,
  "\u2581Continue": 8128,
  "\u2581DAJEHOVA": 8129,
  "\u2581Everyone": 8130,
  "\u2581Happily": 8131,
  "\u2581Ho": 8132,
  "\u2581India": 8133,
  "\u2581Korea": 8134,
  "\u2581Likely": 8135,
  "\u2581Maybe": 8136,
  "\u2581Mona": 8137,
  "\u2581Myanmar": 8138,
  "\u2581Nale": 8139,
  "\u2581Nations": 8140,
  "\u2581Okulongela": 8141,
  "\u2581Oparadisa": 8142,
  "\u2581Philip": 8143,
  "\u2581Pilatus": 8144,
  "\u2581Republic": 8145,
  "\u2581Rose": 8146,
  "\u2581Samaritan": 8147,
  "\u2581Shihokwifa": 8148,
  "\u2581Sin": 8149,
  "\u2581attacked": 8150,
  "\u2581base": 8151,
  "\u2581bit": 8152,
  "\u2581civil": 8153,
  "\u2581collect": 8154,
  "\u2581compromise": 8155,
  "\u2581conquered": 8156,
  "\u2581creature": 8157,
  "\u2581crush": 8158,
  "\u2581curious": 8159,
  "\u2581declaration": 8160,
  "\u2581deule": 8161,
  "\u2581disobedient": 8162,
  "\u2581disregard": 8163,
  "\u2581doctors": 8164,
  "\u2581duties": 8165,
  "\u2581eeko": 8166,
  "\u2581eemhadi": 8167,
  "\u2581eemhepo": 8168,
  "\u2581elunduluko": 8169,
  "\u2581enthusiasm": 8170,
  "\u2581fair": 8171,
  "\u2581falling": 8172,
  "\u2581famous": 8173,
  "\u2581findane": 8174,
  "\u2581findil": 8175,
  "\u2581follows": 8176,
  "\u2581fuda": 8177,
  "\u2581grant": 8178,
  "\u2581halela": 8179,
  "\u2581hop": 8180,
  "\u2581ihokwifa": 8181,
  "\u2581improper": 8182,
  "\u2581inenenene": 8183,
  "\u2581kolek": 8184,
  "\u2581konakonwa": 8185,
  "\u2581kuTate": 8186,
  "\u2581kulo": 8187,
  "\u2581kuna": 8188,
  "\u2581kwatakanif": 8189,
  "\u2581lift": 8190,
  "\u2581liked": 8191,
  "\u2581lineekelelwa": 8192,
  "\u2581listed": 8193,
  "\u2581lohombo": 8194,
  "\u2581longekidwa": 8195,
  "\u2581lu": 8196,
  "\u2581lumwe": 8197,
  "\u2581materialism": 8198,
  "\u2581momishangwa": 8199,
  "\u2581noikombo": 8200,
  "\u2581nomaviinyu": 8201,
  "\u2581nomitima": 8202,
  "\u2581nomuneumbo": 8203,
  "\u2581novanamati": 8204,
  "\u2581okuhombolwa": 8205,
  "\u2581omidi": 8206,
  "\u2581omulongi": 8207,
  "\u2581omusika": 8208,
  "\u2581oshikalunga": 8209,
  "\u2581otuwa": 8210,
  "\u2581ovafi": 8211,
  "\u2581overwhelming": 8212,
  "\u2581pandulwa": 8213,
  "\u2581partake": 8214,
  "\u2581party": 8215,
  "\u2581poduka": 8216,
  "\u2581ponokele": 8217,
  "\u2581population": 8218,
  "\u2581positions": 8219,
  "\u2581produces": 8220,
  "\u2581projects": 8221,
  "\u2581propaganda": 8222,
  "\u2581puHarmagedon": 8223,
  "\u2581pukifwa": 8224,
  "\u2581putuka": 8225,
  "\u2581refreshment": 8226,
  "\u2581respects": 8227,
  "\u2581scientists": 8228,
  "\u2581siblings": 8229,
  "\u2581skin": 8230,
  "\u2581sleeping": 8231,
  "\u2581sorrow": 8232,
  "\u2581starts": 8233,
  "\u2581striv": 8234,
  "\u2581talala": 8235,
  "\u2581theme": 8236,
  "\u2581traditions": 8237,
  "\u2581tragedy": 8238,
  "\u2581unfair": 8239,
  "\u2581ungaungiw": 8240,
  "\u2581vilima": 8241,
  "\u2581volunteer": 8242,
  "\u2581weight": 8243,
  "\u2581weighty": 8244,
  "\u2581wile": 8245,
  "\u2581wokushiiv": 8246,
  "\u2581woshitukulwa": 8247,
  "\u2581yaalushe": 8248,
  "\u2581yaaveshe": 8249,
  "\u2581yomeva": 8250,
  "\u2581yopamadiladilo": 8251,
  "\u2581youyuki": 8252,
  "\u2581zu": 8253,
  "ASHI": 8254,
  "Esra": 8255,
  "Inda": 8256,
  "Neh": 8257,
  "eenghonopangelo": 8258,
  "enge": 8259,
  "idjemo": 8260,
  "itaimbelewa": 8261,
  "ite": 8262,
  "kaana": 8263,
  "kumwe": 8264,
  "lafulul": 8265,
  "land": 8266,
  "ling": 8267,
  "lukwa": 8268,
  "maetepo": 8269,
  "mahangano": 8270,
  "mapuko": 8271,
  "mitima": 8272,
  "moinima": 8273,
  "molwefilonghenda": 8274,
  "ndjabi": 8275,
  "nenwa": 8276,
  "nghenda": 8277,
  "oikundafanwa": 8278,
  "omuprofeti": 8279,
  "onhumwafo": 8280,
  "ouhalu": 8281,
  "put": 8282,
  "tapa": 8283,
  "tifi": 8284,
  "time": 8285,
  "un": 8286,
  "\u2581105": 8287,
  "\u25811951": 8288,
  "\u25811970": 8289,
  "\u25812,000": 8290,
  "\u258158.": 8291,
  "\u2581Austria": 8292,
  "\u2581CHANGE": 8293,
  "\u2581Department": 8294,
  "\u2581East": 8295,
  "\u2581Eedi": 8296,
  "\u2581Franz": 8297,
  "\u2581Hes": 8298,
  "\u2581International": 8299,
  "\u2581JO": 8300,
  "\u2581Le": 8301,
  "\u2581Lef\u00e8vre": 8302,
  "\u2581Lett": 8303,
  "\u2581Loving": 8304,
  "\u2581MOmbibeli": 8305,
  "\u2581Nero": 8306,
  "\u2581Nothing": 8307,
  "\u2581Ovafita": 8308,
  "\u2581Pexulilo": 8309,
  "\u2581Potiphar": 8310,
  "\u2581Reading": 8311,
  "\u2581Se": 8312,
  "\u2581Silas": 8313,
  "\u2581VALI": 8314,
  "\u2581acquir": 8315,
  "\u2581advertise": 8316,
  "\u2581aging": 8317,
  "\u2581approachable": 8318,
  "\u2581arrives": 8319,
  "\u2581awaken": 8320,
  "\u2581begun": 8321,
  "\u2581board": 8322,
  "\u2581counted": 8323,
  "\u2581cultures": 8324,
  "\u2581dem": 8325,
  "\u2581dengela": 8326,
  "\u2581differently": 8327,
  "\u2581dipaifa": 8328,
  "\u2581dipawe": 8329,
  "\u2581dishonor": 8330,
  "\u2581distract": 8331,
  "\u2581document": 8332,
  "\u2581dokondadalunde": 8333,
  "\u2581dokupangela": 8334,
  "\u2581eengeleka": 8335,
  "\u2581eeshi": 8336,
  "\u2581eputuko": 8337,
  "\u2581expectations": 8338,
  "\u2581fruitful": 8339,
  "\u2581grandmother": 8340,
  "\u2581greet": 8341,
  "\u2581haben": 8342,
  "\u2581haluka": 8343,
  "\u2581headed": 8344,
  "\u2581hears": 8345,
  "\u2581hetatu": 8346,
  "\u2581heyali": 8347,
  "\u2581historical": 8348,
  "\u2581hypocrisy": 8349,
  "\u2581inclinations": 8350,
  "\u2581ipu": 8351,
  "\u2581kOmishangwa": 8352,
  "\u2581kokanhun": 8353,
  "\u2581komaliudo": 8354,
  "\u2581komu": 8355,
  "\u2581kondaka": 8356,
  "\u2581koshipopiwa": 8357,
  "\u2581kovahongwa": 8358,
  "\u2581lEhololo": 8359,
  "\u2581loevolusi": 8360,
  "\u2581lohole": 8361,
  "\u2581lokolulyo": 8362,
  "\u2581lomafiku": 8363,
  "\u2581lomounyuni": 8364,
  "\u2581lovadali": 8365,
  "\u2581mOmhango": 8366,
  "\u2581mOshiingilisha": 8367,
  "\u2581manuscripts": 8368,
  "\u2581match": 8369,
  "\u2581method": 8370,
  "\u2581missing": 8371,
  "\u2581mokanya": 8372,
  "\u2581mokuudifa": 8373,
  "\u2581mukulu": 8374,
  "\u2581naxe": 8375,
  "\u2581nefimano": 8376,
  "\u2581nexulilo": 8377,
  "\u2581nol": 8378,
  "\u2581nomamanya": 8379,
  "\u2581nomashongo": 8380,
  "\u2581noshitaimbelewa": 8381,
  "\u2581noufiku": 8382,
  "\u2581offend": 8383,
  "\u2581okuningila": 8384,
  "\u2581omitwe": 8385,
  "\u2581omunanghenda": 8386,
  "\u2581omwe": 8387,
  "\u2581outright": 8388,
  "\u2581ovakonakoni": 8389,
  "\u2581ovanyoni": 8390,
  "\u2581ovapataneki": 8391,
  "\u2581pamishangwa": 8392,
  "\u2581phrase": 8393,
  "\u2581piyaaneke": 8394,
  "\u2581prais": 8395,
  "\u2581prayerful": 8396,
  "\u2581prisoners": 8397,
  "\u2581pumba": 8398,
  "\u2581punapala": 8399,
  "\u2581reap": 8400,
  "\u2581receives": 8401,
  "\u2581rendering": 8402,
  "\u2581scrolls": 8403,
  "\u2581seize": 8404,
  "\u2581sharp": 8405,
  "\u2581shekwa": 8406,
  "\u2581sheongalo": 8407,
  "\u2581shom": 8408,
  "\u2581smoke": 8409,
  "\u2581stretch": 8410,
  "\u2581suitable": 8411,
  "\u2581tanga": 8412,
  "\u2581top": 8413,
  "\u2581trace": 8414,
  "\u2581transferred": 8415,
  "\u2581udanekelwa": 8416,
  "\u2581walls": 8417,
  "\u2581warmly": 8418,
  "\u2581weumbo": 8419,
  "\u2581xwaxwameke": 8420,
  "\u2581yokwoongala": 8421,
  "\u2581yomeumbo": 8422,
  "\u2581yondilo": 8423,
  "\u2581yopaMbibeli": 8424,
  "4": 8425,
  "EMO": 8426,
  "ENI": 8427,
  "LUNDULU": 8428,
  "Now": 8429,
  "Okukala": 8430,
  "Our": 8431,
  "Ovakonakoni": 8432,
  "Sak": 8433,
  "Tu": 8434,
  "With": 8435,
  "apo": 8436,
  "aveshe": 8437,
  "eexwiki": 8438,
  "either": 8439,
  "inakuwanifwa": 8440,
  "kuheliholamwene": 8441,
  "lifila": 8442,
  "longekida": 8443,
  "mhango": 8444,
  "nghalo": 8445,
  "ngwa": 8446,
  "note": 8447,
  "now": 8448,
  "omaputuko": 8449,
  "oshoongalele": 8450,
  "ss": 8451,
  "stand": 8452,
  "ukwaneumbo": 8453,
  "\u25811947": 8454,
  "\u25811993": 8455,
  "\u25812002": 8456,
  "\u258144,": 8457,
  "\u258198": 8458,
  "\u258199": 8459,
  "\u2581ANSWERED": 8460,
  "\u2581Anointed": 8461,
  "\u2581Assembly": 8462,
  "\u2581Bath": 8463,
  "\u2581Bethelites": 8464,
  "\u2581Comfort": 8465,
  "\u2581Concern": 8466,
  "\u2581EX": 8467,
  "\u2581Easter": 8468,
  "\u2581Eewa": 8469,
  "\u2581Evelyn": 8470,
  "\u2581Four": 8471,
  "\u2581Harmagedon": 8472,
  "\u2581IMAGE": 8473,
  "\u2581Jew": 8474,
  "\u2581Jo": 8475,
  "\u2581Joy": 8476,
  "\u2581Last": 8477,
  "\u2581London": 8478,
  "\u2581OSHIKE": 8479,
  "\u2581Ohio": 8480,
  "\u2581Oiwana": 8481,
  "\u2581Onhele": 8482,
  "\u2581Preach": 8483,
  "\u2581Que": 8484,
  "\u2581Rehoboam": 8485,
  "\u2581Thomas": 8486,
  "\u2581Vo": 8487,
  "\u2581argue": 8488,
  "\u2581ate": 8489,
  "\u2581backgrounds": 8490,
  "\u2581bears": 8491,
  "\u2581begged": 8492,
  "\u2581branches": 8493,
  "\u2581catch": 8494,
  "\u2581chariot": 8495,
  "\u2581chaste": 8496,
[...]
