{
  "</s>": 0,
  "<unk>": 1,
  ",": 2,
  ".": 3,
  "'": 4,
  "\u2581the": 5,
  "\u2581\"": 6,
  "\u2581to": 7,
  "\u2581of": 8,
  "\u2581mu": 9,
  "\u2581a": 10,
  "\u2581and": 11,
  "\u2581in": 12,
  "\u2581n": 13,
  "s": 14,
  ":": 15,
  "?": 16,
  "\u2581-": 17,
  "\u2581ku": 18,
  "\u2581ko": 19,
  "\u2581that": 20,
  "\u2581": 21,
  "\u2581is": 22,
  "\u2581i": 23,
  "\u2581y": 24,
  "\u2581we": 25,
  "\u2581for": 26,
  "\u2581kandi": 27,
  "\u2581be": 28,
  "\u2581na": 29,
  "\u2581by": 30,
  "\u2581ni": 31,
  ";": 32,
  "\u2581you": 33,
  "\u2581Jehovah": 34,
  "\u2581not": 35,
  "\u2581Yehova": 36,
  "\u2581ya": 37,
  "\u2581with": 38,
  "\u2581God": 39,
  "\u2581I": 40,
  "\u2581his": 41,
  "\u2581muri": 42,
  "\u2581(": 43,
  "\u2581was": 44,
  "\u2581'": 45,
  "\u2581The": 46,
  "\u2581Kuri": 47,
  "\u2581on": 48,
  "\u2581as": 49,
  "\u2581no": 50,
  "\u2581will": 51,
  "\u2581w": 52,
  "\u2581ari": 53,
  "\u2581are": 54,
  "\u2581have": 55,
  "\u2581it": 56,
  "\u2581he": 57,
  "\u2581ngo": 58,
  ")": 59,
  "\u2581gihe": 60,
  "\u2581ba": 61,
  "\u2581bw": 62,
  "\u2581from": 63,
  "\u2581kugira": 64,
  "\u2581wa": 65,
  "\u2581yo": 66,
  "\u2581A": 67,
  "\u2581this": 68,
  "\u2581or": 69,
  "\u2581buryo": 70,
  "\u2581can": 71,
  "\u2581Ni": 72,
  "\u2581Imana": 73,
  "\u2581yari": 74,
  "\u2581abantu": 75,
  "\u2581Yesu": 76,
  "\u2581&": 77,
  "ing": 78,
  "\u2581Jesus": 79,
  "\u2581our": 80,
  "\u2581Bibiliya": 81,
  "\u2581b": 82,
  "\u2581ibyo": 83,
  "\u2581[": 84,
  "\u2581their": 85,
  "\u2581Bible": 86,
  "...": 87,
  "\u2581they": 88,
  "\u2581_": 89,
  "\u2581who": 90,
  "\u2581kuba": 91,
  "\u2581%": 92,
  "!": 93,
  "\u2581us": 94,
  "a": 95,
  "Imana": 96,
  "\u2581Bya": 97,
  "\u2581iki": 98,
  "\u2581your": 99,
  "\u2581ati": 100,
  "\u2581cyane": 101,
  "\u2581all": 102,
  "-": 103,
  "ga": 104,
  "\u2581what": 105,
  "\u25811": 106,
  "\u2581do": 107,
  "\u2581an": 108,
  "\u2581What": 109,
  "\u2581at": 110,
  "\u2581ry": 111,
  "\u2581Mu": 112,
  "\u2581cyangwa": 113,
  "\u2581one": 114,
  "\u2581were": 115,
  "\u2581cy": 116,
  "uko": 117,
  "\u2581had": 118,
  "\u2581nk": 119,
  "\u2581igihe": 120,
  "\u2581them": 121,
  "\u2581In": 122,
  "\u2581bari": 123,
  "\u2581bo": 124,
  "\u2581has": 125,
  "]": 126,
  "\u2581when": 127,
  "\u2581him": 128,
  "\u2581kuri": 129,
  "\u2581people": 130,
  "\u2581uko": 131,
  "\u2581icyo": 132,
  "\u2581z": 133,
  "\u2581wo": 134,
  "\u2581about": 135,
  "\u2581time": 136,
  "\u2581iyo": 137,
  "\u2581u": 138,
  "\u2581would": 139,
  "\u2581How": 140,
  "\u2581did": 141,
  "i": 142,
  "\u2581bwo": 143,
  "\u2581Na": 144,
  "\u2581but": 145,
  "\u2581my": 146,
  "\u2581may": 147,
  "\u2581/": 148,
  "\"": 149,
  "\u2581mbere": 150,
  "\u2581byo": 151,
  "\u2581cya": 152,
  "\u2581umuntu": 153,
  "\u2581life": 154,
  "\u2581B": 155,
  "\u2581se": 156,
  "\u2581so": 157,
  "\u2581OYA": 158,
  "\u2581isi": 159,
  "t": 160,
  "\u2581cyo": 161,
  "\u2581those": 162,
  "d": 163,
  "\u2581iyi": 164,
  "\u2581nta": 165,
  "\u2581.\"": 166,
  "\u2581neza": 167,
  "\u2581uwo": 168,
  "\u2581ibintu": 169,
  "\u2581maze": 170,
  "\u2581hari": 171,
  "b": 172,
  "\u2581Ariko": 173,
  "\u2581He": 174,
  "_": 175,
  "\u2581more": 176,
  "ho": 177,
  "\u2581also": 178,
  "\u2581if": 179,
  "ed": 180,
  "\u2581some": 181,
  "\u2581This": 182,
  "\u2581should": 183,
  "\u2581me": 184,
  "\u2581out": 185,
  "\u2581been": 186,
  "\u2581help": 187,
  "\u2581up": 188,
  "e": 189,
  "\u2581how": 190,
  "\u2581ariko": 191,
  "ibyo": 192,
  "\u2581does": 193,
  "\u2581kugirango": 194,
  "\u2581If": 195,
  "\u2581such": 196,
  "\u2581za": 197,
  "\u2581It": 198,
  "ukuri": 199,
  "\u2581Ku": 200,
  "\u2581her": 201,
  "mo": 202,
  "\u2581Paul": 203,
  "\u2581good": 204,
  "\u2581name": 205,
  "\u25812": 206,
  "\u2581which": 207,
  "\u2581We": 208,
  "\u2581aho": 209,
  "\u2581file": 210,
  "umwuka": 211,
  "\u2581buri": 212,
  "\u2581Ibyo": 213,
  "abantu": 214,
  "\u2581rw": 215,
  "\u2581U": 216,
  "\u2581make": 217,
  "\u2581many": 218,
  "\u2581there": 219,
  "\u2581other": 220,
  "\u2581way": 221,
  "\u2581You": 222,
  "\u2581byose": 223,
  "\u2581gukora": 224,
  "\u2581Cyangwa": 225,
  "n": 226,
  "\u2581Pawulo": 227,
  "\u2581love": 228,
  "\u2581could": 229,
  "\u2581work": 230,
  "\u2581things": 231,
  "\u2581ipaji": 232,
  "\u2581Witnesses": 233,
  "\u2581bwa": 234,
  "\u2581rya": 235,
  "\u2581into": 236,
  "\u2581Igihe": 237,
  "\u2581k": 238,
  "\u2581world": 239,
  "\u2581tu": 240,
  "\u2581When": 241,
  "\u2581new": 242,
  "\u2581only": 243,
  "\u2581bya": 244,
  "\u2581than": 245,
  "\u2581said": 246,
  "\u2581hamwe": 247,
  "\u2581these": 248,
  "\u2581day": 249,
  "\u2581Y": 250,
  "\u2581page": 251,
  "\u2581Christian": 252,
  "\u2581benshi": 253,
  "\u2581first": 254,
  "\u2581even": 255,
  "\u2581<": 256,
  "\u2581Why": 257,
  "\u2581IDOSIYE": 258,
  "na": 259,
  "\u2581For": 260,
  "\u2581man": 261,
  "\u2581Idosiye": 262,
  "\u2581wari": 263,
  "\u2581Christ": 264,
  "\u2581Kristo": 265,
  "ly": 266,
  "\u2581agira": 267,
  "\u2581mwaka": 268,
  "\u2581Christians": 269,
  "\u2581Ubutumwa": 270,
  "\u2581earth": 271,
  "\u2581Iyo": 272,
  "\u2581ubwo": 273,
  "\u2581bose": 274,
  "\u2581aba": 275,
  "\u2581bi": 276,
  "shobora": 277,
  "\u25813:": 278,
  "\u2581must": 279,
  "\u2581Kingdom": 280,
  "\u2581tw": 281,
  "\u2581abandi": 282,
  "\u2581need": 283,
  "\u2581use": 284,
  "\u2581yose": 285,
  "\u2581N": 286,
  "\u2581gute": 287,
  "\u2581gusa": 288,
  "\u2581years": 289,
  "\u2581others": 290,
  "\u2581because": 291,
  "\u2581faith": 292,
  "\u2581But": 293,
  "\u2581example": 294,
  "agombye": 295,
  "\u2581then": 296,
  "\u2581spirit": 297,
  "\u2581They": 298,
  "\u2581Ese": 299,
  "\u2581rero": 300,
  "\u2581As": 301,
  "\u2581umurimo": 302,
  "\u2581Abakristo": 303,
  "\u2581Hari": 304,
  "I": 305,
  "\u2581like": 306,
  "the": 307,
  "\u2581*": 308,
  "\u2581iby": 309,
  "/": 310,
  "\u25812:": 311,
  "ra": 312,
  "\u2581ukuntu": 313,
  "\u2581made": 314,
  "\u2581kuko": 315,
  "\u2581see": 316,
  "\u2581she": 317,
  "\u2581Muri": 318,
  "\u2581family": 319,
  "\u2581C": 320,
  "\u2581afite": 321,
  "\u2581being": 322,
  "\u2581true": 323,
  "\u2581Izina": 324,
  "aho": 325,
  "\u2581over": 326,
  "\u2581Kuki": 327,
  "\u2581zo": 328,
  "\u2581children": 329,
  "\u25811:": 330,
  "\u2581bafite": 331,
  "\u2581used": 332,
  "\u2581its": 333,
  "\u2581spiritual": 334,
  "\u2581Nanone": 335,
  "\u2581zi": 336,
  "\u258115": 337,
  "\u2581says": 338,
  "\u2581si": 339,
  "\u2581'%": 340,
  "\u25814:": 341,
  "\u2581abo": 342,
  "\u2581abana": 343,
  "u": 344,
  "\u2581set": 345,
  "\u2581ye": 346,
  "\u2581bantu": 347,
  "\u2581size": 348,
  "\u2581bishobora": 349,
  "\u2581To": 350,
  "\u2022": 351,
  "\u2581any": 352,
  "\u2581imyaka": 353,
  "\u2581congregation": 354,
  "\u2581Ububiko": 355,
  "\u2581bintu": 356,
  "\u2581know": 357,
  "\u2581kubwiriza": 358,
  "\u2581before": 359,
  "\u2581byinshi": 360,
  "\u2581Icyakora": 361,
  "\u2581byari": 362,
  "\u2581nyuma": 363,
  "ingenzi": 364,
  "\u2581two": 365,
  "\u2581words": 366,
  "\u2581bu": 367,
  "\u2581kubona": 368,
  "\u2581Icyo": 369,
  "\u2581urugero": 370,
  "\u2581Urugero": 371,
  "\u2581message": 372,
  "\u2581want": 373,
  "\u2581dushobora": 374,
  "\u25815:": 375,
  "\u2581kumenya": 376,
  "ubwo": 377,
  "\u2581own": 378,
  "igihe": 379,
  "\u2581come": 380,
  "\u2581take": 381,
  "\u2581ijuru": 382,
  "\u2581No": 383,
  "\u2581heart": 384,
  "\u2581well": 385,
  "\u2581kubera": 386,
  "\u2581baba": 387,
  "\u2581just": 388,
  "\u2581ones": 389,
  "\u2581after": 390,
  "\u2581wacu": 391,
  "\u2581Kubera": 392,
  "\u2581S": 393,
  "\u2581cyose": 394,
  "\u2581Could": 395,
  "\u2581Nka": 396,
  "\u25816:": 397,
  "\u2581another": 398,
  "\u2581Ubwoko": 399,
  "isi": 400,
  "\u2581become": 401,
  "\u2581rwa": 402,
  "\u2581ubuzima": 403,
  "\u2581ukuri": 404,
  "\u2581munsi": 405,
  "\u2581murimo": 406,
  "\u2581ndetse": 407,
  "mu": 408,
  "\u2581death": 409,
  "\u2581now": 410,
  "\u2581find": 411,
  "\u2581through": 412,
  "\u2581urukundo": 413,
  "\u2581Satani": 414,
  "\u2581And": 415,
  "\u2581'.": 416,
  "\u2581Do": 417,
  "\u2581ahubwo": 418,
  "B": 419,
  "\u2581umwe": 420,
  "\u2581bashobora": 421,
  "\u2581gutuma": 422,
  "\u2581John": 423,
  "Ubwami": 424,
  "\u2581yabo": 425,
  "\u2581Abahamya": 426,
  "y": 427,
  "\u2581give": 428,
  "\u2581men": 429,
  "\u2581Nta": 430,
  "S": 431,
  "\u2581yacu": 432,
  "\u2581Ijambo": 433,
  "\u2581might": 434,
  "E": 435,
  "\u2581bamwe": 436,
  "\u2581show": 437,
  "\u2581found": 438,
  "\u2581view": 439,
  "\u2581New": 440,
  "\u25813": 441,
  "\u2581ri": 442,
  "\u2581birebana": 443,
  "\u2581Ishusho": 444,
  "\u2581>": 445,
  "\u2581right": 446,
  "\u2581ki": 447,
  "\u2581text": 448,
  "\u2581Mbese": 449,
  "\u2581bihereranye": 450,
  "\u2581That": 451,
  "\u2581each": 452,
  "\u2581By": 453,
  "\u2581amagambo": 454,
  "\u2581Nyuma": 455,
  "\u2581Word": 456,
  "\u2581itorero": 457,
  "\u2581where": 458,
  "\u2581part": 459,
  "\u2581ashobora": 460,
  "\u2581akaba": 461,
  "\u2581rwose": 462,
  "\u2581very": 463,
  "\u2581folder": 464,
  "\u2581today": 465,
  "\u25811,": 466,
  "\u2581David": 467,
  "\u2581truth": 468,
  "\u2581times": 469,
  "\u2581yavuze": 470,
  "\u2581ubutumwa": 471,
  "\u2581izina": 472,
  "\u2581read": 473,
  "\u2581iti": 474,
  "\u2581bwe": 475,
  "\u2581kuvuga": 476,
  "\u2581bwiza": 477,
  "\u25812.": 478,
  "\u2581babo": 479,
  "\u2581same": 480,
  "\u2581wese": 481,
  "\u2581Urutonde": 482,
  "C": 483,
  "\u2581great": 484,
  "\u2581kimwe": 485,
  "\u2581niba": 486,
  "\u2581Byahiswemo": 487,
  "\u2581selected": 488,
  "rushaho": 489,
  "\u2581ukwizera": 490,
  "\u2581runaka": 491,
  "\u2581Idirishya": 492,
  "\u2581much": 493,
  "\u2581Uko": 494,
  "\u2581\"%": 495,
  ").": 496,
  "\u2581person": 497,
  "\u2581window": 498,
  "\u2581Israel": 499,
  "\u2581end": 500,
  "\u2581key": 501,
  "shoboraga": 502,
  "\u2581Gishya": 503,
  "\u2581ibyishimo": 504,
  "\u2581So": 505,
  "\u2581Ibisobanuro": 506,
  "\u2581inama": 507,
  "\u2581study": 508,
  "\u2581kde": 509,
  "\u25815": 510,
  "\u2581Satan": 511,
  "re": 512,
  "\u2581apostle": 513,
  "\u2581most": 514,
  "\u2581ushobora": 515,
  "\u2581ryo": 516,
  "abandi": 517,
  "\u2581Byose": 518,
  "\u2581get": 519,
  "\u2581label": 520,
  "\u2581brothers": 521,
  "\u2581means": 522,
  "\u2581witwa": 523,
  "\u2581under": 524,
  "\u2581inkunga": 525,
  "\u2581hafi": 526,
  "\u25814": 527,
  "\u2581word": 528,
  "\u2581uburyo": 529,
  "\u2581book": 530,
  "\u2581Dawidi": 531,
  "\u2581parents": 532,
  "\u2581against": 533,
  "\u2581imbere": 534,
  "\u2581Picture": 535,
  "\u2581keep": 536,
  "ni": 537,
  "\u258113": 538,
  "\u2581mutima": 539,
  "\u2581kujya": 540,
  "\u2581Porogaramu": 541,
  "\u2581list": 542,
  "\u2581umwuka": 543,
  "\u2581himself": 544,
  "\u2581rimwe": 545,
  "\u2581Peter": 546,
  "\u2581files": 547,
  "\u2581Niba": 548,
  "\u2581human": 549,
  "\u2581kera": 550,
  "\u2581Umwandiko": 551,
  "\u25818": 552,
  "\u2581bitewe": 553,
  "\u2581tugomba": 554,
  "\u2581say": 555,
  "\u2581magambo": 556,
  "\u2581nyinshi": 557,
  "\u2581One": 558,
  "\u2581bituma": 559,
  "\u2581muntu": 560,
  "\u2581Urufunguzo": 561,
  "\u2581hagati": 562,
  "\u258112": 563,
  "\u2581There": 564,
  "%": 565,
  "\u2581Ibara": 566,
  "\u2581abigishwa": 567,
  "\u2581Kuva": 568,
  "\u2581Ifoto": 569,
  "\u2581learn": 570,
  "\u2581du": 571,
  "\u2581gukomeza": 572,
  "\u2581down": 573,
  "\u2581Zaburi": 574,
  "\u2581Yohana": 575,
  "\u2581wrote": 576,
  "\u2581gahunda": 577,
  "\u2581Gufungura": 578,
  "\u2581worship": 579,
  "\u2581number": 580,
  "\u2581home": 581,
  "\u2581place": 582,
  "\u2581put": 583,
  "\u2581However": 584,
  "\u2581Petero": 585,
  "\u2581igira": 586,
  "\u2581upon": 587,
  "\u2581umuryango": 588,
  "\u2581every": 589,
  "\u2581Show": 590,
  "\u2581feel": 591,
  "\u25814.": 592,
  "\u2581Aho": 593,
  "\u2581go": 594,
  "\u2581Hanyuma": 595,
  "\u2581Kubika": 596,
  "\u2581Bivuye": 597,
  "\u2581why": 598,
  "\u258110": 599,
  "\u2581bugufi": 600,
  "\u25816": 601,
  "\u2581young": 602,
  "\u2581Some": 603,
  "\u2581ubu": 604,
  "\u2581ayo": 605,
  "\u2581faithful": 606,
  "we": 607,
  "\u2581yagize": 608,
  "\u2581never": 609,
  "\u2581\u25a1": 610,
  "\u2581kwa": 611,
  "\u2581T": 612,
  "\u2581Ihitamo": 613,
  "\u2581image": 614,
  "\u2581command": 615,
  "),": 616,
  "A": 617,
  "\u2581ufite": 618,
  "\u2581wanjye": 619,
  "\u2581long": 620,
  "\u2581days": 621,
  "\u2581system": 622,
  "iyo": 623,
  "\u2581ikintu": 624,
  "\u2581course": 625,
  "\u2581given": 626,
  "\u2581bacu": 627,
  "\u2581open": 628,
  "\u2581important": 629,
  "\u2581ivuga": 630,
  "\u2581though": 631,
  "\u2581imbaraga": 632,
  "\u2581Father": 633,
  "\u2581At": 634,
  "\u2581back": 635,
  "\u2581news": 636,
  "\u2581information": 637,
  "\u2581iryo": 638,
  "\u2581Abantu": 639,
  "\u2581color": 640,
  "\u2581too": 641,
  "\u2581kugeza": 642,
  "\u2581Du": 643,
  "umuntu": 644,
  "\u258112:": 645,
  "in": 646,
  "\u2581All": 647,
  "\u2581year": 648,
  "\u2581let": 649,
  "\u2581turi": 650,
  "\u258117": 651,
  "er": 652,
  "\u2581nka": 653,
  "\u2581between": 654,
  "\u2581koko": 655,
  "\u25817": 656,
  "m": 657,
  "\u2581Kugira": 658,
  "\u2581Nubwo": 659,
  "\u2581while": 660,
  "Abahamya": 661,
  "\u25813.": 662,
  "\u258114": 663,
  "\u258119": 664,
  "\u2581service": 665,
  "\u2581ministry": 666,
  "\u2581mind": 667,
  "\u2581holy": 668,
  "\u2581After": 669,
  "\u2581nari": 670,
  "\u2581became": 671,
  "\u2581bagize": 672,
  "\u2581Gukoresha": 673,
  "\u2581NIBA": 674,
  "\u2581left": 675,
  "\u2581cannot": 676,
  "\u2581order": 677,
  "\u2581came": 678,
  "\u2581ngombwa": 679,
  "\u2581M": 680,
  "\u2581Matthew": 681,
  "\u2581current": 682,
  "\u2581umutima": 683,
  "\u2581among": 684,
  "\u2581knowledge": 685,
  "\u2581Guhindura": 686,
  "\u258111": 687,
  "\u2581am": 688,
  "\u2581impamvu": 689,
  "\u2581Gushyiraho": 690,
  "\u2581ubwoko": 691,
  "\u258110.": 692,
  "\u2581hope": 693,
  "\u2581ibibazo": 694,
  "\u2581Matayo": 695,
  "\u2581gusenga": 696,
  "\u2581On": 697,
  "\u2581ho": 698,
  "\u2581ababyeyi": 699,
  "\u25819": 700,
  "\u258121": 701,
  "\u2581during": 702,
  "\u2581inshingano": 703,
  "\u2581wife": 704,
  "\u2581later": 705,
  "ri": 706,
  "\u2581called": 707,
  "\u2581Is": 708,
  "\u2581dufite": 709,
  "\u2581value": 710,
  "\u2581Mbere": 711,
  "\u2581preaching": 712,
  "\u2581twa": 713,
  "\u2581following": 714,
  "\u2581often": 715,
  "\u2581umwana": 716,
  "\u2581kurusha": 717,
  "\u2581atari": 718,
  "\u2581yaravuze": 719,
  "\u2581ijambo": 720,
  "al": 721,
  "\u2581KIGEZWEHO": 722,
  "\u2581away": 723,
  "\u2581Ryari": 724,
  "\u2581live": 725,
  "\u2581ha": 726,
  "\u2581without": 727,
  "\u2581ingaruka": 728,
  "\u2581Psalm": 729,
  "\u2581Uwo": 730,
  "\u258110:": 731,
  "\u2581ways": 732,
  "c": 733,
  "\u2581able": 734,
  "\u2581told": 735,
  "\u2581doing": 736,
  "\u2581serve": 737,
  "\u2581City": 738,
  "\u2581disciples": 739,
  "\u2581Scriptures": 740,
  "\u2581Seriveri": 741,
  "\u2581three": 742,
  "\u2581power": 743,
  "ne": 744,
  "\u2581ru": 745,
  "\u2581still": 746,
  "\u2581With": 747,
  "\u2581century": 748,
  "\u2581using": 749,
  "\u2581bagenzi": 750,
  "\u2581bikorwa": 751,
  "\u2581peace": 752,
  "\u2581ubwenge": 753,
  "\u258114.": 754,
  "\u2581sin": 755,
  "\u2581Ba": 756,
  "\u2581gu": 757,
  "\u258111:": 758,
  "\u2581Inyandiko": 759,
  "\u2581themselves": 760,
  "\u2581Ikintu": 761,
  "\u25818.": 762,
  "\u2581last": 763,
  "\u2581old": 764,
  "\u2581Yes": 765,
  "\u2581K": 766,
  "\u2581mpamvu": 767,
  "\u2581nziza": 768,
  "The": 769,
  "\u258120": 770,
  "\u2581hose": 771,
  "\u2581kubaho": 772,
  "\u2581servants": 773,
  "\u2581King": 774,
  "\u2581kw": 775,
  "\u2581dialog": 776,
  "\u2581Z": 777,
  "\u2581began": 778,
  "\u2581Abisirayeli": 779,
  "\u2581Ikindi": 780,
  "\u2581Mose": 781,
  "\u2581avuga": 782,
  "\u2581sure": 783,
  "\u2581full": 784,
  "ya": 785,
  "\u25817.": 786,
  "ze": 787,
  "\u2581next": 788,
  "r": 789,
  "\u2581gave": 790,
  "\u258113.": 791,
  "o": 792,
  "\u2581kinyejana": 793,
  "\u2581making": 794,
  "uwo": 795,
  "\u2581umugabo": 796,
  "\u258112.": 797,
  "\u2581consider": 798,
  "\u2581izo": 799,
  "agombaga": 800,
  "\u2581Error": 801,
  "\u2581His": 802,
  "\u2581Oya": 803,
  "\u2581move": 804,
  "\u2581always": 805,
  "\u2581server": 806,
  "\u2581Umwami": 807,
  "\u2581aza": 808,
  "\u25815.": 809,
  "\u258125": 810,
  "\u2581different": 811,
  "\u2581bara": 812,
  "\u2581nyakuri": 813,
  "\u2581kurushaho": 814,
  "\u2581gihugu": 815,
  "\u2581Ikiganiro": 816,
  "\u2581None": 817,
  "\u2581intumwa": 818,
  "\u25817:": 819,
  "\u2581again": 820,
  "\u2581type": 821,
  "\u2581yaba": 822,
  "\u2581ze": 823,
  "\u2581both": 824,
  "\u25819.": 825,
  "\u2581Jerusalem": 826,
  "\u2581living": 827,
  "\u2581E": 828,
  "\u2581agaciro": 829,
  "\u2581byatumye": 830,
  "\u258111.": 831,
  "\u2581however": 832,
  "\u2581wawe": 833,
  "\u2581wera": 834,
  "\u2581loving": 835,
  "\u2581Isirayeli": 836,
  "\u2581Our": 837,
  "\u2581azi": 838,
  "\u2581Kandi": 839,
  "\u258116.": 840,
  "\u2581Umwanya": 841,
  "\u2581uri": 842,
  "\u2581wabo": 843,
  "\u2581result": 844,
  "\u2581rwo": 845,
  "\u2581Select": 846,
  "\u25811.": 847,
  "\u2581change": 848,
  "\u2581house": 849,
  "\u2581buhe": 850,
  "\u2581child": 851,
  "\u2581kumva": 852,
  "\u2581whom": 853,
  "\u2581binyuriye": 854,
  "\u2581iteka": 855,
  "\u2581Gushaka": 856,
  "\u258117.": 857,
  "\u25816.": 858,
  "\u2581bakaba": 859,
  "\u2581Ikosa": 860,
  "\u2581Ingano": 861,
  "\u2581Yerusalemu": 862,
  "\u2581byiza": 863,
  "\u2581father": 864,
  "\u2581Then": 865,
  "\u2581Whether": 866,
  "\u2581article": 867,
  "\u2581Ibikubiyemo": 868,
  "\u2581biba": 869,
  "\u2581mankind": 870,
  "\u2581From": 871,
  "\u2581purpose": 872,
  "\u2581account": 873,
  "imyaka": 874,
  "umugore": 875,
  "\u2581fellow": 876,
  "\u2581humans": 877,
  "\u2581muryango": 878,
  "\u2581Igikorwa": 879,
  "\u2581File": 880,
  "\u258115.": 881,
  "\u2581Mburabuzi": 882,
  "\u2581fact": 883,
  "\u2581States": 884,
  "\u2581amaze": 885,
  "\u2581gi": 886,
  "\u2581nti": 887,
  "\u2581Mbe": 888,
  "\u2581hand": 889,
  "\u2581ibi": 890,
  "za": 891,
  "icyo": 892,
  "\u2581support": 893,
  "\u2581gitabo": 894,
  "\u2581Uwiteka": 895,
  "\u2581ibihe": 896,
  "\u2581kwiga": 897,
  "\u2581Ubwo": 898,
  "\u2581bwose": 899,
  "\u2581personal": 900,
  "\u2581reason": 901,
  "\u258118": 902,
  "\u2581hasi": 903,
  "\u2581Hejuru": 904,
  "\u2581Reka": 905,
  "\u2581ibindi": 906,
  "\u2581bityo": 907,
  "ku": 908,
  "\u2581ukuvuga": 909,
  "\u2581Umurongo": 910,
  "\u2581Kurema": 911,
  "p": 912,
  "\u2581amahoro": 913,
  "\u2581son": 914,
  "\u2581Yesaya": 915,
  "\u2581Son": 916,
  "\u2581asked": 917,
  "\u2581maso": 918,
  "\u2581took": 919,
  "\u2581aha": 920,
  "\u2581amategeko": 921,
  "\u258130": 922,
  "\u2581Isaiah": 923,
  "\u2581Bityo": 924,
  "\u2581ifite": 925,
  "\u2581myinshi": 926,
  "\u2581H": 927,
  "\u2581myiza": 928,
  "\u2581display": 929,
  "\u2581zose": 930,
  "\u2581Mana": 931,
  "\u2581Imiterere": 932,
  "\u2581byaba": 933,
  "\u2581kose": 934,
  "\u2581gutanga": 935,
  "\u2581yawe": 936,
  "\u2581joy": 937,
  "abo": 938,
  "\u2581umugore": 939,
  "\u2581ryari": 940,
  "action": 941,
  "\u2581something": 942,
  "\u2581kintu": 943,
  "\u2581yaho": 944,
  "\u2581abagize": 945,
  "\u2581close": 946,
  "ubwenge": 947,
  "\u2581s": 948,
  "\u2581anointed": 949,
  "\u2581questions": 950,
  "\u2581Yet": 951,
  "\u2581look": 952,
  "\u2581gusoma": 953,
  "\u25810": 954,
  "\u2581Kugaragaza": 955,
  "\u2581Canno": 956,
  "\u2581toward": 957,
  "\u2581together": 958,
  "\u2581Many": 959,
  "paper": 960,
  "\u2581future": 961,
  "\u2581She": 962,
  "\u2581bigaragaza": 963,
  "\u2581think": 964,
  "\u2581gukorera": 965,
  "\u2581bimeze": 966,
  "\u2581start": 967,
  "\u2581possible": 968,
  "\u2581bagira": 969,
  "\u2581Moses": 970,
  "\u2581Even": 971,
  "\u2581language": 972,
  "\u2581having": 973,
  "\u2581prayer": 974,
  "\u2581bato": 975,
  "\u2581marriage": 976,
  "ye": 977,
  "\u2581bagomba": 978,
  "\u2581error": 979,
  "\u2581create": 980,
  "\u2581line": 981,
  "\u2581counsel": 982,
  "\u2581kugaragaza": 983,
  "\u2581hejuru": 984,
  "\u2581really": 985,
  "\u2581bakora": 986,
  "\u2581free": 987,
  "\u2581abagaragu": 988,
  "\u2581twe": 989,
  "to": 990,
  "\u2581brother": 991,
  "\u2581cyari": 992,
  "\u2581wisdom": 993,
  "\u2581bring": 994,
  "\u2581default": 995,
  "\u2581Agaciro": 996,
  "ro": 997,
  "\u2581religious": 998,
  "\u2581Guhitamo": 999,
  "\u2581ask": 1000,
  "\u258116": 1001,
  "\u25813,": 1002,
  "\u2581Israelites": 1003,
  "\u2581ibitekerezo": 1004,
  "\u2581messages": 1005,
  "\u25818:": 1006,
  "\u2581available": 1007,
  "\u2581Kuba": 1008,
  "\u2581abavandimwe": 1009,
  "\u2581Are": 1010,
  "\u2581rye": 1011,
  "\u2581;": 1012,
  "\u2581yar": 1013,
  "\u2581bimwe": 1014,
  "igeze": 1015,
  "\u2581Abraham": 1016,
  "\u2581Open": 1017,
  "\u2581heaven": 1018,
  "\u2581Data": 1019,
  "\u2581meetings": 1020,
  "\u2581yakoze": 1021,
  "Abakristo": 1022,
  "\u2581nde": 1023,
  "\u2581nzu": 1024,
  "\u2581city": 1025,
  "\u2581bagiye": 1026,
  "\u2581rugero": 1027,
  "\u2581group": 1028,
  "\u2581done": 1029,
  "\u2581inyigisho": 1030,
  "\u2581needed": 1031,
  "\u2581kwizera": 1032,
  "\u2581menu": 1033,
  "\u2581already": 1034,
  "\u2581wicked": 1035,
  "\u2581X": 1036,
  "\u2581igitabo": 1037,
  "M": 1038,
  "\u2581elders": 1039,
  "\u2581gutekereza": 1040,
  "\u2581Your": 1041,
  "\u2581kibazo": 1042,
  "\u2581yagaragaje": 1043,
  "\u2581off": 1044,
  "\u2581ikoresha": 1045,
  "\u2581someone": 1046,
  "ibintu": 1047,
  "\u2581share": 1048,
  "\u2581My": 1049,
  "\u2581These": 1050,
  "\u2581aka": 1051,
  "\u2581gushidikanya": 1052,
  "\u2581P": 1053,
  "\u2581nubwo": 1054,
  "\u258124:": 1055,
  "\u258115:": 1056,
  "\u2581case": 1057,
  "\u2581Greek": 1058,
  "\u2581D": 1059,
  "\u2581mimerere": 1060,
  "\u2581bihugu": 1061,
  "\u2581Let": 1062,
  "\u2581heavenly": 1063,
  "\u2581woman": 1064,
  "\u2581mibereho": 1065,
  "\u2581iyihe": 1066,
  "\u2581husband": 1067,
  "\u2581akamaro": 1068,
  "\u2581nations": 1069,
  "l": 1070,
  "abwiye": 1071,
  "\u2581Umubare": 1072,
  "\u2581bite": 1073,
  "\u2581continue": 1074,
  "\u2581O": 1075,
  "\u2581myaka": 1076,
  "\u2581kuza": 1077,
  "aba": 1078,
  "\u258115,": 1079,
  "\u2581Please": 1080,
  "\u2581bati": 1081,
  "\u2581tuba": 1082,
  "\u2581R": 1083,
  "\u2581Rimwe": 1084,
  "\u2581learned": 1085,
  "\u2581experience": 1086,
  "\u2581fine": 1087,
  "\u2581yatanze": 1088,
  "\u2581cye": 1089,
  "\u25815,": 1090,
  "\u2581ibyiringiro": 1091,
  "\u2581nabi": 1092,
  "\u2581Gusiba": 1093,
  "\u258118.": 1094,
  "\u2581happy": 1095,
  "ta": 1096,
  "\u2581teaching": 1097,
  "\u2581data": 1098,
  "\u2581mother": 1099,
  "\u2581point": 1100,
  "\u2581amatwi": 1101,
  "je": 1102,
  "\u2581user": 1103,
  "\u2581ubushobozi": 1104,
  "\u25819,": 1105,
  "\u2581known": 1106,
  "\u2581kumwe": 1107,
  "\u2581face": 1108,
  "\u2581helped": 1109,
  "\u2581Proverbs": 1110,
  "\u2581bavuga": 1111,
  "\u2581imishyikirano": 1112,
  "\u2581materaniro": 1113,
  "\u2581rugo": 1114,
  "\u2581option": 1115,
  "iteka": 1116,
  "\u2581yara": 1117,
  "\u2581reading": 1118,
  "\u2581Can": 1119,
  "\u2581twari": 1120,
  "\u2581gukoresha": 1121,
  "\u2581present": 1122,
  "ba": 1123,
  "\u2581Umuntu": 1124,
  "\u2581conduct": 1125,
  "\u2581amafaranga": 1126,
  "th": 1127,
  "\u2581select": 1128,
  "\u2581incuti": 1129,
  "\u2581special": 1130,
  "\u258128": 1131,
  "\u2581Aburahamu": 1132,
  "\u2581Job": 1133,
  "geze": 1134,
  "\u2581eyes": 1135,
  "\u25819:": 1136,
  "\u2581few": 1137,
  "\u2581kwirinda": 1138,
  "\u2581Ubwami": 1139,
  "\u2581king": 1140,
  "\u2581Yakobo": 1141,
  "\u2581relationship": 1142,
  "\u2581felt": 1143,
  "\u2581ishobora": 1144,
  "\u2581lives": 1145,
  "ahagana": 1146,
  "\u2581Gutangira": 1147,
  "\u2581since": 1148,
  "\u2581kabiri": 1149,
  "\u2581righteous": 1150,
  "\u2581source": 1151,
  "g": 1152,
  "\u2581little": 1153,
  "\u2581iri": 1154,
  "\u2581until": 1155,
  "\u2581bibazo": 1156,
  "\u2581fear": 1157,
  "\u2581Amahitamo": 1158,
  "\u2581light": 1159,
  "\u2581understand": 1160,
  "\u2581Timothy": 1161,
  "\u2581law": 1162,
  "\u25816,": 1163,
  "\u2581uruhare": 1164,
  "\u2581whether": 1165,
  "\u2581action": 1166,
  "\u2581nshya": 1167,
  "\u2581local": 1168,
  "\u2581answer": 1169,
  "\u2581Jya": 1170,
  "abana": 1171,
  "\u2581ako": 1172,
  "\u2581Gikristo": 1173,
  "\u2581ahantu": 1174,
  "\u2581Watchtower": 1175,
  "\u2581mbi": 1176,
  "\u2581gufata": 1177,
  "\u258119.": 1178,
  "\u2581around": 1179,
  "\u2581ourselves": 1180,
  "\u2581care": 1181,
  "\u2581Luke": 1182,
  "\u2581sent": 1183,
  "\u2581bad": 1184,
  "\u2581try": 1185,
  "\u2581matter": 1186,
  "\u2581best": 1187,
  "\u2581Yobu": 1188,
  "\u2581food": 1189,
  "\u2581certain": 1190,
  "\u2581gukiranuka": 1191,
  "\u2581search": 1192,
  "\u2581F": 1193,
  "\u2581bihe": 1194,
  "\u2581imigisha": 1195,
  "\u2581imwe": 1196,
  "\u2581Luka": 1197,
  "\u2581allow": 1198,
  "\u2581bar": 1199,
  "\u2581imibereho": 1200,
  "\u2581Failed": 1201,
  "\u2581yet": 1202,
  "\u2581Timoteyo": 1203,
  "\u2581buzima": 1204,
  "\u2581ever": 1205,
  "\u2581here": 1206,
  "\u2581imirimo": 1207,
  "\u2581An": 1208,
  "idini": 1209,
  "\u2581Lord": 1210,
  "or": 1211,
  "\u2581indahemuka": 1212,
  "\u2581G": 1213,
  "\u2581better": 1214,
  "\u2581Law": 1215,
  "\u2581benefit": 1216,
  "\u2581Use": 1217,
  "\u2581Jews": 1218,
  "\u2581game": 1219,
  "\u2581nor": 1220,
  "\u2581ibikorwa": 1221,
  "\u2581ancient": 1222,
  "\u2581ntiy": 1223,
  "\u25814,": 1224,
  "\u2581Ipaji": 1225,
  "\u2581hard": 1226,
  "\u2581nanone": 1227,
  "\u2581gito": 1228,
  "\u2581babona": 1229,
  "\u2581address": 1230,
  "\u2581menshi": 1231,
  "\u2581bamaze": 1232,
  "\u2581intege": 1233,
  "\u2581sense": 1234,
  "\u2581bazi": 1235,
  "\u2581Because": 1236,
  "\u2581m": 1237,
  "yo": 1238,
  "\u2581program": 1239,
  "\u2581kuva": 1240,
  "\u2581Corinthians": 1241,
  "\u2581ryose": 1242,
  "\u2581inkuru": 1243,
  "\u2581kuki": 1244,
  "\u2581rwego": 1245,
  "\u2581temple": 1246,
  "\u2581problems": 1247,
  "\u2581akora": 1248,
  "\u2581kind": 1249,
  "\u2581Kanda": 1250,
  "\u2581Unit": 1251,
  "ubu": 1252,
  "\u2581went": 1253,
  "\u2581Koko": 1254,
  "\u2581self": 1255,
  "\u2581gufasha": 1256,
  "\u258123": 1257,
  "\u2581Agasanduku": 1258,
  "\u2581Ahubwo": 1259,
  "\u2581gikristo": 1260,
  "\u2581moved": 1261,
  "\u2581mean": 1262,
  "\u2581desire": 1263,
  "\u2581ka": 1264,
  "\u2581akazi": 1265,
  "hose": 1266,
  "\u2581giving": 1267,
  "\u2581avoid": 1268,
  "gu": 1269,
  "\u2581icyaha": 1270,
  "zi": 1271,
  "\u2581Abakorinto": 1272,
  "\u2581received": 1273,
  "\u2581war": 1274,
  "\u2581field": 1275,
  "\u2581receive": 1276,
  "\u2581ikibazo": 1277,
  "\u258120.": 1278,
  "\u2581Save": 1279,
  "\u2581wise": 1280,
  "\u258131": 1281,
  "\u2581baza": 1282,
  "\u2581far": 1283,
  "\u2581gice": 1284,
  "\u2581Acts": 1285,
  "\u2581mukuru": 1286,
  ",\"": 1287,
  "\u2581muto": 1288,
  "\u2581land": 1289,
  "ha": 1290,
  "\u2581members": 1291,
  "\u2581Name": 1292,
  "\u2581agomba": 1293,
  "\u2581control": 1294,
  "\u2581itariki": 1295,
  "\u2581ntibi": 1296,
  "\u2581idini": 1297,
  "\u2581save": 1298,
  "\u2581Adam": 1299,
  "\u2581Tu": 1300,
  "\u2581paper": 1301,
  "\u2581amahame": 1302,
  "\u2581enjoy": 1303,
  "h": 1304,
  "\u258114,": 1305,
  "\u2581wrong": 1306,
  "\u2581Revelation": 1307,
  "\u2581serving": 1308,
  "ko": 1309,
  "\u2581Kwimura": 1310,
  "\u2581Nk": 1311,
  "\u2581Leta": 1312,
  "\u2581follow": 1313,
  "k": 1314,
  "\u2581Buri": 1315,
  "\u2581Not": 1316,
  "\u2581ashaka": 1317,
  "\u2581bwacu": 1318,
  "\u2581choose": 1319,
  "\u2581James": 1320,
  "\u2581yourself": 1321,
  "\u2581early": 1322,
  "\u2581gushaka": 1323,
  "\u2581mail": 1324,
  "\u25818,": 1325,
  "\u2581Ubu": 1326,
  "\u2581biri": 1327,
  "\u258127": 1328,
  "\u2581keyboard": 1329,
  "\u2581Thus": 1330,
  "\u2581bikaba": 1331,
  "\u2581Byanditswe": 1332,
  "\u2581believe": 1333,
  "\u2581Intumwa": 1334,
  "umuryango": 1335,
  "iyi": 1336,
  "\u25812,": 1337,
  "\u2581yanjye": 1338,
  "\u2581whole": 1339,
  "\u2581yaje": 1340,
  "\u2581baka": 1341,
  "\u2581along": 1342,
  "\u2581Akabuto": 1343,
  "\u2581saying": 1344,
  "\u2581nkuru": 1345,
  "\u2581thought": 1346,
  "\u2581shows": 1347,
  "atumye": 1348,
  "\u2581kindness": 1349,
  "\u2581button": 1350,
  "\u2581kwemera": 1351,
  "\u2581Gicurasi": 1352,
  "\u2581Of": 1353,
  "\u2581Who": 1354,
  "\u2581kenshi": 1355,
  "\u2581position": 1356,
  "ka": 1357,
  "ubuzima": 1358,
  "\u2581Create": 1359,
  "\u2581changes": 1360,
  "\u2581kuruta": 1361,
  "\u2581baptized": 1362,
  "\u2581Ibyatanzwe": 1363,
  "\u2581tab": 1364,
  "Umwami": 1365,
  "\u2581bwabo": 1366,
  "\u2581provide": 1367,
  "\u2581umutwe": 1368,
  "\u2581wifuza": 1369,
  "\u2581ukomeye": 1370,
  "\u2581bwari": 1371,
  "\u258140": 1372,
  "\u2581ngingo": 1373,
  "\u2581thus": 1374,
  "\u2581needs": 1375,
  "x": 1376,
  "\u2581second": 1377,
  "\u2581Consider": 1378,
  "\u2581uvuga": 1379,
  "ma": 1380,
  "\u2581friends": 1381,
  "\u2581incuro": 1382,
  "\u2581Intego": 1383,
  "\u2581directory": 1384,
  "\u2581bigaragara": 1385,
  "\u2581brought": 1386,
  "\u2581guhindura": 1387,
  "\u2581trust": 1388,
  "\u2581Koresha": 1389,
  "\u2581hagira": 1390,
  "\u2581turn": 1391,
  "ile": 1392,
  "\u25817,": 1393,
  "\u2581speak": 1394,
  "\u2581cause": 1395,
  "\u2581kamere": 1396,
  "\u2581bushyinguro": 1397,
  "\u2581real": 1398,
  "\u2581saw": 1399,
  "\u2581izihe": 1400,
  "\u2581question": 1401,
  "\u2581World": 1402,
  "\u258122": 1403,
  "\u2581ibihereranye": 1404,
  "\u2581situation": 1405,
  "bene": 1406,
  "\u2581false": 1407,
  "\u2581small": 1408,
  "\u2581isano": 1409,
  "\u2581body": 1410,
  "\u258121.": 1411,
  "\u2581ntiba": 1412,
  "\u2581yabaga": 1413,
  "\u2581mfite": 1414,
  "\u2581umwete": 1415,
  "\u2581meeting": 1416,
  "\u2581mwanya": 1417,
  "\u2581Aderesi": 1418,
  "\u2581Be": 1419,
  "bu": 1420,
  "urukundo": 1421,
  "\u2581attention": 1422,
  "\u2581harimo": 1423,
  "\u2581works": 1424,
  "\u2581Abo": 1425,
  "te": 1426,
  "\u2581including": 1427,
  "kurikije": 1428,
  "\u2581attitude": 1429,
  "\u2581uti": 1430,
  "\u2581jye": 1431,
  "\u2581divine": 1432,
  "\u2581prophet": 1433,
  "\u2581=": 1434,
  "\u2581Itariki": 1435,
  "\u2581likely": 1436,
  "\u258110,": 1437,
  "\u2581bwite": 1438,
  "\u2581states": 1439,
  "\u258112,": 1440,
  "\u2581especially": 1441,
  "\u2581age": 1442,
  "\u2581religion": 1443,
  "\u258126": 1444,
  "no": 1445,
  "\u2581kure": 1446,
  "\u2581women": 1447,
  "\u2581Inkingi": 1448,
  "\u2581gushyira": 1449,
  "\u2581hanyuma": 1450,
  "\u258111,": 1451,
  "\u2581Add": 1452,
  "\u2581mugi": 1453,
  "\u2581Would": 1454,
  "\u2581Amagambo": 1455,
  "\u2581uba": 1456,
  "umubiri": 1457,
  "\u2581Adamu": 1458,
  "\u2581failed": 1459,
  "\u2581lead": 1460,
  "\u2581makes": 1461,
  "\u2581followers": 1462,
  "\u2581gukunda": 1463,
  "\u2581abari": 1464,
  "\u2581Ya": 1465,
  "\u2581intego": 1466,
  "\u2581Inyuguti": 1467,
  "\u2581dead": 1468,
  "\u2581difficult": 1469,
  "\u2581respect": 1470,
  "\u2581knew": 1471,
  "\u2581act": 1472,
  "\u2581imyifatire": 1473,
  "nya": 1474,
  "\u2581Abayahudi": 1475,
  "U": 1476,
  "\u2581Romans": 1477,
  "\u2581history": 1478,
  "\u2581nation": 1479,
  "\u2581Although": 1480,
  "\u258116:": 1481,
  "\u2581Ifashayobora": 1482,
  "\u2581document": 1483,
  "\u2581babaga": 1484,
  "\u2581Ctrl": 1485,
  "\u2581add": 1486,
  "nyuguti": 1487,
  "\u2581format": 1488,
  "\u2581money": 1489,
  "Umurinzi": 1490,
  "\u2581Solomon": 1491,
  "\u2581ate": 1492,
  "\u2581umunsi": 1493,
  "\u2581Ijambobanga": 1494,
  "\u2581Since": 1495,
  "\u2581suffering": 1496,
  "\u258118:": 1497,
  "\u2581kwigisha": 1498,
  "\u2581ubusa": 1499,
  "iki": 1500,
  "\u2581gusobanukirwa": 1501,
  "ukuntu": 1502,
  "\u2581Itangira": 1503,
  "\u2581Umwana": 1504,
  "\u2581gato": 1505,
  "\u2581Color": 1506,
  "\u2581Hebrew": 1507,
  "\u2581Nyamara": 1508,
  "\u2581Birumvikana": 1509,
  "\u2581ndi": 1510,
  "\u2581miriyoni": 1511,
  "\u2581application": 1512,
  "\u2581urwo": 1513,
  "\u2581Salomo": 1514,
  "\u2581happiness": 1515,
  "\u2581Creator": 1516,
  "\u2581mode": 1517,
  "\u2581water": 1518,
  "\u2581natwe": 1519,
  "\u2581de": 1520,
  "\u2581events": 1521,
  "\u2581Time": 1522,
  "\u2581soon": 1523,
  "\u2581bakeneye": 1524,
  "\u2581going": 1525,
  "\u2581nzira": 1526,
  "\u2581ibyaha": 1527,
  "\u2581yagiye": 1528,
  "\u2581byerekeye": 1529,
  "\u2581died": 1530,
  "\u2581igaragaza": 1531,
  "\u2581Daniel": 1532,
  "\u2581Ibyanditswe": 1533,
  "\u2581everlasting": 1534,
  "\u258129": 1535,
  "\u2581principles": 1536,
  "\u2581feelings": 1537,
  "\u2581sacrifice": 1538,
  "\u2581ubwoba": 1539,
  "\u2581ubutegetsi": 1540,
  "\u258116,": 1541,
  "\u2581Sisitemu": 1542,
  "\u2581Watch": 1543,
  "itorero": 1544,
  "Uwiteka": 1545,
  "\u2581View": 1546,
  "\u2581igice": 1547,
  "\u2581thinking": 1548,
  "\u2581Se": 1549,
  "\u2581karere": 1550,
  "\u2581four": 1551,
  "\u2581provided": 1552,
  "\u2581kingdom": 1553,
  "\u258133": 1554,
  "\u2581Soma": 1555,
  "\u2581please": 1556,
  "retse": 1557,
  "\u2581Does": 1558,
  "\u2581yanditse": 1559,
  "ru": 1560,
  "\u2581W": 1561,
  "\u2581gives": 1562,
  "\u2581high": 1563,
  "\u2581sons": 1564,
  "\u2581Mark": 1565,
  "\u2581kwita": 1566,
  "\u2581taken": 1567,
  "\u2581Joseph": 1568,
  "\u2581Such": 1569,
  "\u2581large": 1570,
  "Y": 1571,
  "se": 1572,
  "\u2581Society": 1573,
  "\u2581zari": 1574,
  "\u2581impano": 1575,
  "\u2581bibi": 1576,
  "\u2581options": 1577,
  "\u2581ugira": 1578,
  "\u2581Iburyo": 1579,
  "\u2581based": 1580,
  "\u2581teach": 1581,
  "\u2581Ibikorwa": 1582,
  "\u2581zabo": 1583,
  "\u2581THE": 1584,
  "\u2581shown": 1585,
  ":%": 1586,
  "\u2581strong": 1587,
  "\u258113,": 1588,
  "\u258123.": 1589,
  "\u2581iminsi": 1590,
  "\u2581abasaza": 1591,
  "\u2581remain": 1592,
  "\u2581imimerere": 1593,
  "\u2581izindi": 1594,
  "\u2581taught": 1595,
  "\u2581Kimwe": 1596,
  "\u2581area": 1597,
  "\u2581prophecy": 1598,
  "P": 1599,
  "jye": 1600,
  "\u2581slave": 1601,
  "\u2581Read": 1602,
  "\u2581similar": 1603,
  "\u2581Wh": 1604,
  "\u2581righteousness": 1605,
  "\u2581byacu": 1606,
  "\u2581married": 1607,
  "\u2581Iboneza": 1608,
  "\u2581spiritually": 1609,
  "\u2581started": 1610,
  "\u2581Today": 1611,
  "\u2581apostles": 1612,
  "\u2581ibitabo": 1613,
  "\u2581Ikurikiranya": 1614,
  "\u2581matters": 1615,
  "\u2581thing": 1616,
  "unze": 1617,
  "\u2581school": 1618,
  "\u2581individuals": 1619,
  "\u2581certainly": 1620,
  "\u2581expression": 1621,
  "\u2581umwanzuro": 1622,
  "\u2581Komandi": 1623,
  "\u2581Umutwe": 1624,
  "\u2581ata": 1625,
  "\u2581gaciro": 1626,
  "\u2581bata": 1627,
  "\u2581resurrection": 1628,
  "\u2581kwihangana": 1629,
  "\u2581wose": 1630,
  "\u2581d": 1631,
  "\u2581blood": 1632,
  "\u2581yayo": 1633,
  "\u2581J": 1634,
  "\u2581date": 1635,
  "Read": 1636,
  "\u2581item": 1637,
  "\u2581umuco": 1638,
  "iby": 1639,
  "\u2581pray": 1640,
  "\u2581wanted": 1641,
  "\u2581box": 1642,
  "\u2581Reba": 1643,
  "\u2581talk": 1644,
  "\u2581waba": 1645,
  "ibanze": 1646,
  "\u2581banjye": 1647,
  "\u2581imihati": 1648,
  "\u2581accept": 1649,
  "\u2581return": 1650,
  "be": 1651,
  "\u258122:": 1652,
  "\u2581Inzira": 1653,
  "es": 1654,
  "\u2581inyuma": 1655,
  "\u2581Agashushondanga": 1656,
  "\u2581babiri": 1657,
  "\u2581changed": 1658,
  "\u2581nothing": 1659,
  "\u2581written": 1660,
  "\u258120:": 1661,
  "\u2581clear": 1662,
  "go": 1663,
  "\u2581near": 1664,
  "\u2581call": 1665,
  "\u2581Unable": 1666,
  "uje": 1667,
  "\u2581password": 1668,
  "\u2581complete": 1669,
  "ti": 1670,
  "\u2581sheep": 1671,
  "gire": 1672,
  "\u2581imbuto": 1673,
  "\u2581draw": 1674,
  "\u2581ishuri": 1675,
  "\u2581un": 1676,
  "\u2581pages": 1677,
  "\u2581rwe": 1678,
  "\u2581'?": 1679,
  "Imigani": 1680,
  "\u2581night": 1681,
  "\u2581meaning": 1682,
  "\u2581once": 1683,
  "\u2581Utubuto": 1684,
  "\u2581location": 1685,
  "\u2581qualities": 1686,
  "\u2581perfect": 1687,
  "\u2581Umukristo": 1688,
  "\u2581comes": 1689,
  "\u2581enter": 1690,
  "\u2581heard": 1691,
  "\u2581Rather": 1692,
  "\u2581Go": 1693,
  "\u2581bisobanura": 1694,
  "\u2581hearts": 1695,
  "\u2581ibirebana": 1696,
  "\u2581string": 1697,
  "\u2581event": 1698,
  "\u2581ubumenyi": 1699,
  "\u2581effect": 1700,
  "\u2581babarirwa": 1701,
  "\u2581seen": 1702,
  "\u258113:": 1703,
  "\u2581Ibiro": 1704,
  "\u2581further": 1705,
  "\u2581taking": 1706,
  "Soma": 1707,
  "\u258124": 1708,
  "\u2581according": 1709,
  "li": 1710,
  "\u2581icon": 1711,
  "\u2581(%": 1712,
  "\u2581inspired": 1713,
  "\u2581Kureba": 1714,
  "he": 1715,
  "\u2581fully": 1716,
  "\u2581kizaza": 1717,
  "\u2581Key": 1718,
  "':": 1719,
  "\u2581Devil": 1720,
  "\u2581mirongo": 1721,
  "nda": 1722,
  "\u2581Move": 1723,
  "\u25aa": 1724,
  "si": 1725,
  "ibindi": 1726,
  "\u2581ubumwe": 1727,
  "\u2581yakomeje": 1728,
  "\u2581Did": 1729,
  "\u2581Jewish": 1730,
  "\u2581rule": 1731,
  "\u2581vuba": 1732,
  "\u2581byabo": 1733,
  "\u2581contains": 1734,
  "\u2581truly": 1735,
  "\u2581yaranditse": 1736,
  "\u2581abona": 1737,
  "ibibazo": 1738,
  "\u2581involved": 1739,
  "\u2581lost": 1740,
  "\u2581abagabo": 1741,
  "\u2581task": 1742,
  "\u2581uza": 1743,
  "\u2581undi": 1744,
  "\u2581kugera": 1745,
  "ibi": 1746,
  "\u2581evidence": 1747,
  "\u2581indwara": 1748,
  "\u2581simply": 1749,
  "\u2581Footnote": 1750,
  "\u2581Tower": 1751,
  "\u2581Birenzeho": 1752,
  "\u2581ara": 1753,
  "\u2581mentioned": 1754,
  "\u2581organization": 1755,
  "\u2581umwami": 1756,
  "\u2581kwiringira": 1757,
  "\u2581coming": 1758,
  "\u2581inzira": 1759,
  "\u2581material": 1760,
  "\u2581within": 1761,
  "tu": 1762,
  "\u2581loved": 1763,
  "\u2581form": 1764,
  "\u2581gupfa": 1765,
  "\u2581iba": 1766,
  "\u2581write": 1767,
  "\u2581giti": 1768,
  "\u2581tugira": 1769,
  "\u2581yahaye": 1770,
  "\u2581bukuru": 1771,
  "\u2581haba": 1772,
  "\u2581Set": 1773,
  "\u2581dukora": 1774,
  "H": 1775,
  "\u258122.": 1776,
  "\u2581Now": 1777,
  "\u2581configuration": 1778,
  "type": 1779,
  "\u2581bita": 1780,
  "\u2581hati": 1781,
  "\u2581Genesis": 1782,
  "\u2581kumvira": 1783,
  "\u2581strength": 1784,
  "gizwe": 1785,
  "\u2581access": 1786,
  "urupfu": 1787,
  "\u2581ururimi": 1788,
  "genzi": 1789,
  "\u258137": 1790,
  "\u2581mwiza": 1791,
  "\u2581selection": 1792,
  "\u2581agaragaza": 1793,
  "\u2581ishaka": 1794,
  "\u258132": 1795,
  "\u2581bawe": 1796,
  "\u2581dute": 1797,
  "\u2581greater": 1798,
  "umwe": 1799,
  "indahemuka": 1800,
  "\u2581Hebrews": 1801,
  "\u2581nawe": 1802,
  "\u2581kirekire": 1803,
  "\u258119,": 1804,
  "\u2581sisters": 1805,
  "\u2581ubugingo": 1806,
  "\u2581ubutunzi": 1807,
  "\u2581regular": 1808,
  "\u2581bye": 1809,
  "\u2581examples": 1810,
  "\u2581leave": 1811,
  "\u2581regard": 1812,
  "T": 1813,
  "\u2581calendar": 1814,
  "\u2581public": 1815,
  "\u2581Kubona": 1816,
  "\u2581tell": 1817,
  "Itangiriro": 1818,
  "us": 1819,
  "\u2581background": 1820,
  "\u2581disikuru": 1821,
  "agaciro": 1822,
  "\u2581Bi": 1823,
  "\u258117,": 1824,
  "wa": 1825,
  "\u2581amatorero": 1826,
  "\u2581shall": 1827,
  "\u2581imico": 1828,
  "\u2581Yari": 1829,
  "\u2581apply": 1830,
  "N": 1831,
  "\u2581circumstances": 1832,
  "\u2581minsi": 1833,
  "\u2581understanding": 1834,
  "\u2581longer": 1835,
  "\u2581therefore": 1836,
  "\u2581wonderful": 1837,
  "\u2581wowe": 1838,
  "\u2581binyuze": 1839,
  "\u2581kwifatanya": 1840,
  "\u2581past": 1841,
  "\u2581Noah": 1842,
  "\u2581contact": 1843,
  "\u2581urubanza": 1844,
  "\u2581values": 1845,
  "Ibyanditswe": 1846,
  "\u2581Gu": 1847,
  "\u2581Ukoresha": 1848,
  "\u2581batari": 1849,
  "\u2581York": 1850,
  "\u2581authority": 1851,
  "\u2581kugirana": 1852,
  "f": 1853,
  "\u2581Dur": 1854,
  "\u2581stand": 1855,
  "\u2581soul": 1856,
  "\u2581urupfu": 1857,
  "\u2581Game": 1858,
  "\u2581allowed": 1859,
  "\u2581state": 1860,
  "\u2581gift": 1861,
  "\u2581heavens": 1862,
  "\u2581kureba": 1863,
  "\u2581ab": 1864,
  "\u2581check": 1865,
  "\u2581isengesho": 1866,
  "\u2581unit": 1867,
  "\u2581Hasi": 1868,
  "\u2581rather": 1869,
  "\u2581Nowa": 1870,
  "\u2581forever": 1871,
  "imperuka": 1872,
  "\u2581above": 1873,
  "\u2581showed": 1874,
  "\u2581sister": 1875,
  "\u2581anyone": 1876,
  "\u2581bwuzuye": 1877,
  "\u2581none": 1878,
  "\u2581Ibumoso": 1879,
  "\u2581kept": 1880,
  "\u2581Ibintu": 1881,
  "\u2581Scriptural": 1882,
  "\u2581direction": 1883,
  "\u2581See": 1884,
  "\u2581displayed": 1885,
  "\u2581itself": 1886,
  "yongeye": 1887,
  "z": 1888,
  "\u2581rurimi": 1889,
  "yi": 1890,
  "\u2581bazaba": 1891,
  "2": 1892,
  "\u2581Igice": 1893,
  "\u2581process": 1894,
  "le": 1895,
  "\u2581Ibirimo": 1896,
  "\u2581NW": 1897,
  "\u2581run": 1898,
  "\u2581loyal": 1899,
  "\u2581yatumye": 1900,
  "\u2581connection": 1901,
  "\u2581promise": 1902,
  "\u2581Itsinda": 1903,
  "\u2581guha": 1904,
  "\u2581gain": 1905,
  "\u2581bumva": 1906,
  "\u2581itegeko": 1907,
  "\u2581nama": 1908,
  "iya": 1909,
  "\u2581bikomeye": 1910,
  "\u2581zimwe": 1911,
  "\u2581chapter": 1912,
  "\u2581column": 1913,
  "\u2581Like": 1914,
  "\u2581Ahantu": 1915,
  "\u2581congregations": 1916,
  "\u2581imitima": 1917,
  "\u2581glory": 1918,
  "\u2581ruhande": 1919,
  "\u2581bashiki": 1920,
  "\u2581Kongeramo": 1921,
  "\u2581affect": 1922,
  "\u2581bandi": 1923,
  "\u2581created": 1924,
  "\u2581wayo": 1925,
  "\u2581comfort": 1926,
  "\u2581Their": 1927,
  "\u2581barimo": 1928,
  "\u2581usanga": 1929,
  "\u2581imitate": 1930,
  "dusuzume": 1931,
  "\u2581Roman": 1932,
  "ki": 1933,
  "\u2581Inyuma": 1934,
  "\u2581health": 1935,
  "on": 1936,
  "\u258124.": 1937,
  "\u2581named": 1938,
  "\u2581single": 1939,
  "\u2581witness": 1940,
  "\u2581interest": 1941,
  "\u2581interineti": 1942,
  "\u2581instead": 1943,
  "\u2581isezerano": 1944,
  "\u2581lived": 1945,
  "an": 1946,
  "ve": 1947,
  "\u2581Gusoma": 1948,
  "\u2581Will": 1949,
  "\u2581bagera": 1950,
  "\u2581confidence": 1951,
  "\u2581effort": 1952,
  "\u2581wenda": 1953,
  "\u2581Yozefu": 1954,
  "\u2581blessing": 1955,
  "\u258118,": 1956,
  "\u2581Kugenzura": 1957,
  "\u2581Abaroma": 1958,
  "\u2581gusuzuma": 1959,
  "\u2581icyizere": 1960,
  "\u2581imyanzuro": 1961,
  "\u2581kubaha": 1962,
  "\u2581Impera": 1963,
  "\u2581Ushobora": 1964,
  "\u2581kiri": 1965,
  "You": 1966,
  "\u2581powerful": 1967,
  "aravuze": 1968,
  "gira": 1969,
  "\u2581imbabazi": 1970,
  "\u2581h": 1971,
  "\u2581tree": 1972,
  "\u2581Bihari": 1973,
  "\u2581judgment": 1974,
  "\u00b7": 1975,
  "\u2581tubona": 1976,
  "ge": 1977,
  "\u258120,": 1978,
  "\u2581class": 1979,
  "amategeko": 1980,
  "ic": 1981,
  "\u2581blessings": 1982,
  "\u2581Twa": 1983,
  ">>": 1984,
  "\u2581kuzaba": 1985,
  "la": 1986,
  "\u2581letter": 1987,
  "\u2581object": 1988,
  "\u2581working": 1989,
  "\u2581Babuloni": 1990,
  "\u2581actions": 1991,
  "\u2581anything": 1992,
  "\u2581spoke": 1993,
  "\u2581Daniyeli": 1994,
  "\u2581akaga": 1995,
  "\u2581various": 1996,
  "\u2581hold": 1997,
  "\u2581ibisobanuro": 1998,
  "\u2581twese": 1999,
  "bi": 2000,
  "\u2581covenant": 2001,
  "\u2581bagombaga": 2002,
  "\u2581instance": 2003,
  "ke": 2004,
  "\u2581pioneer": 2005,
  "\u2581speaking": 2006,
  "\u2581ikomeye": 2007,
  "gera": 2008,
  "\u2581Delete": 2009,
  "\u2581amaso": 2010,
  "\u2581godly": 2011,
  "abavandimwe": 2012,
  "\u2581Yeremiya": 2013,
  "\u2581privilege": 2014,
  "\u2581aga": 2015,
  "\u2581ibyiza": 2016,
  "\u2581regarding": 2017,
  "shiki": 2018,
  "\u2581arimo": 2019,
  "\u2581abagore": 2020,
  "\u2581imvugo": 2021,
  "\u2581umugambi": 2022,
  "w": 2023,
  "\u2581copy": 2024,
  "\u2581click": 2025,
  "\u2581common": 2026,
  "\u2581yabonye": 2027,
  "\u2581intambara": 2028,
  "nye": 2029,
  "\u2581Pictures": 2030,
  "\u2581Jeremiah": 2031,
  "\u2581font": 2032,
  "\u2581iza": 2033,
  "\u2581gukurikiza": 2034,
  "\u2581promises": 2035,
  "\u2581physical": 2036,
  "\u2581ushaka": 2037,
  "\u2581perhaps": 2038,
  "\u2581Instead": 2039,
  "\u2581amaraso": 2040,
  "\u2581doubt": 2041,
  "\u2581ingingo": 2042,
  "\u2581prayers": 2043,
  "\u2581rusange": 2044,
  "\u2581country": 2045,
  "\u2581images": 2046,
  "\u2581older": 2047,
  "ryo": 2048,
  "\u2581Evolution": 2049,
  "\u2581nyuguti": 2050,
  "\u2581sound": 2051,
  "\u2581Eva": 2052,
  "\u2581inyungu": 2053,
  "\u2581problem": 2054,
  "\u2581ubwe": 2055,
  "\u2581remember": 2056,
  "\u2581Display": 2057,
  "\u2581level": 2058,
  "\u2581deep": 2059,
  "\u2581ituma": 2060,
  "\u2581opportunity": 2061,
  "\u2581born": 2062,
  "\u2581bwayo": 2063,
  "\u2581idosiye": 2064,
  "\u2581Iy": 2065,
  "\u2581kwi": 2066,
  "\u2581nko": 2067,
  "\u2581\"\"": 2068,
  "\u2581build": 2069,
  "\u2581ubufasha": 2070,
  "\u2581Search": 2071,
  "\u2581ibyokurya": 2072,
  "\u2581ukaba": 2073,
  "\u2581True": 2074,
  "\u2581Ubugari": 2075,
  "\u2581bifite": 2076,
  "\u2581deal": 2077,
  "\u2581gikomeye": 2078,
  "\u2581porogaramu": 2079,
  "\u2581published": 2080,
  "\u2581uburenganzira": 2081,
  "\u2581ubutwari": 2082,
  "\u2581Mary": 2083,
  "\u2581delete": 2084,
  "\u2581got": 2085,
  "en": 2086,
  "\u2581kiti": 2087,
  "\u2581month": 2088,
  "\u2581ikindi": 2089,
  "\u2581Umuremyi": 2090,
  "\u2581entire": 2091,
  "\u258125.": 2092,
  "\u2581Ibyakozwe": 2093,
  "\u2581efforts": 2094,
  "\u2581naho": 2095,
  "\u2581--": 2096,
  "\u2581easy": 2097,
  "\u2581saved": 2098,
  "\u2581Enter": 2099,
  "\u2581bwawe": 2100,
  "\u2581prove": 2101,
  "Jehovah": 2102,
  "\u2581Kalindari": 2103,
  "\u2581People": 2104,
  "\u2581standards": 2105,
  "D": 2106,
  "\u2581bana": 2107,
  "\u2581Mesiya": 2108,
  "rebana": 2109,
  "\u2581First": 2110,
  "\u2581Image": 2111,
  "\u2581helps": 2112,
  "agize": 2113,
  "\u2581Ibigize": 2114,
  "\u2581akenshi": 2115,
  "\u2581forth": 2116,
  "\u2581L": 2117,
  "\u2581believers": 2118,
  "\u2581considered": 2119,
  "\u2581noneho": 2120,
  "\u2581hands": 2121,
  "me": 2122,
  "\u2581whose": 2123,
  "fitiye": 2124,
  "\u2581Hence": 2125,
  "\u2581According": 2126,
  "\u2581bakoze": 2127,
  "\u2581described": 2128,
  "\u2581ibiri": 2129,
  "\u2581style": 2130,
  "\u2581specified": 2131,
  "\u2581Kabiri": 2132,
  "\u2581YA": 2133,
  "\u2581recorded": 2134,
  "\u2581willing": 2135,
  "\u2581kongera": 2136,
  "\u2581remove": 2137,
  "\u2581ubuyobozi": 2138,
  "\u2581angels": 2139,
  "\u2581everything": 2140,
  "umugabo": 2141,
  "God": 2142,
  "\u2581Default": 2143,
  "\u2581hear": 2144,
  "\u2581Hitamo": 2145,
  "\u2581serious": 2146,
  "\u2581Ayo": 2147,
  "\u2581maintain": 2148,
  "\u2581yavugaga": 2149,
  "\u2581Ndetse": 2150,
  "\u2581side": 2151,
  "text": 2152,
  "\u2581served": 2153,
  "\u2581vital": 2154,
  "\u2581continued": 2155,
  "\u2581period": 2156,
  "\u2581honor": 2157,
  "\u2581twaba": 2158,
  "\u2581several": 2159,
  "\u2581sins": 2160,
  "\u2581uzi": 2161,
  "\u2581role": 2162,
  "\u2581Enable": 2163,
  "\u2581Still": 2164,
  "\u2581path": 2165,
  "\u2581preach": 2166,
  "\u2581Byanze": 2167,
  "\u2581Samuel": 2168,
  "\u2581nke": 2169,
  "\u2581May": 2170,
  "\u2581active": 2171,
  "\u2581Kohereza": 2172,
  "\u2581either": 2173,
  "\u2581panel": 2174,
  "gomba": 2175,
  "\u2581die": 2176,
  "\u2581guhabwa": 2177,
  "\u2581guhangana": 2178,
  "\u2581original": 2179,
  "\u2581Aba": 2180,
  "\u2581Click": 2181,
  "\u2581foretold": 2182,
  "\u2581kigaragaza": 2183,
  "\u2581umugisha": 2184,
  "Abayahudi": 2185,
  "\u2581desktop": 2186,
  "ramutse": 2187,
  "umutima": 2188,
  "\u2581answers": 2189,
  "\u2581kurya": 2190,
  "Stock": 2191,
  "\u2581gusohoza": 2192,
  "\u2581dukeneye": 2193,
  "\u2581flesh": 2194,
  "\u2581turebe": 2195,
  "\u2581ubundi": 2196,
  "inzu": 2197,
  "\u2581provides": 2198,
  "ruta": 2199,
  "\u2581Igenamiterere": 2200,
  "\u2581appointed": 2201,
  "\u2581stated": 2202,
  "\u2581wenyine": 2203,
  "1": 2204,
  "\u2581theme": 2205,
  "\u2581empty": 2206,
  "\u2581umu": 2207,
  "garagaza": 2208,
  "\u2581load": 2209,
  "\u2581main": 2210,
  "\u2581mujyi": 2211,
  "\u2581wants": 2212,
  "\u2581keys": 2213,
  "\u2581offer": 2214,
  "\u2581Beteli": 2215,
  "\u2581decisions": 2216,
  "\u2581listen": 2217,
  "\u2581note": 2218,
  "\u2581required": 2219,
  "\u2581settings": 2220,
  "\u2581alone": 2221,
  "\u2581appreciation": 2222,
  "\u2581basizwe": 2223,
  "\u2581week": 2224,
  "\u2581[\"": 2225,
  "\u2581ikaba": 2226,
  "\u2581modern": 2227,
  "\u2581tuzi": 2228,
  "\u2581Nimucyo": 2229,
  "\u2581ability": 2230,
  "\u2581friend": 2231,
  "\u258170": 2232,
  "K": 2233,
  "\u2581Close": 2234,
  "\u2581List": 2235,
  "\u2581appear": 2236,
  "\u2581hakubiyemo": 2237,
  "\u2581determined": 2238,
  "\u2581decision": 2239,
  "\u2581Indeed": 2240,
  "\u2581teachings": 2241,
  "\u2581itsinda": 2242,
  "\u2581led": 2243,
  "\u2581mugabo": 2244,
  "\u2581character": 2245,
  "\u2581icyubahiro": 2246,
  "\u2581seek": 2247,
  "\u2581bwinshi": 2248,
  "\u2581mba": 2249,
  "ubwami": 2250,
  "\u2581United": 2251,
  "\u2581Stock": 2252,
  "\u2581bakunda": 2253,
  "\u2581creation": 2254,
  "\u2581languages": 2255,
  "\u2581Ubumwe": 2256,
  "\u2581babi": 2257,
  "\u2581Byakoreshejwe": 2258,
  "\u2581Egypt": 2259,
  "\u2581influence": 2260,
  "\u2581items": 2261,
  "\u2581murongo": 2262,
  "\u2581send": 2263,
  "\u2581fulfillment": 2264,
  "\u2581accepted": 2265,
  "\u2581ransom": 2266,
  "\u2581urwego": 2267,
  "\u2581walk": 2268,
  "\u2581Find": 2269,
  "\u2581earthly": 2270,
  "\u2581integrity": 2271,
  "\u2581setting": 2272,
  "\u2581Uburyo": 2273,
  "\u2581appropriate": 2274,
  "\u2581Life": 2275,
  "\u2581Witness": 2276,
  "\u2581activity": 2277,
  "\u2581added": 2278,
  "\u2581Amategeko": 2279,
  "\u2581baje": 2280,
  "\u2581thoughts": 2281,
  "Yehova": 2282,
  "\u2581Mo": 2283,
  "\u2581freedom": 2284,
  "\u2581yatangiye": 2285,
  "st": 2286,
  "\u2581Eve": 2287,
  "\u2581praise": 2288,
  "\u2581held": 2289,
  "\u2581ishyaka": 2290,
  "\u2581shortcut": 2291,
  "\u2581sign": 2292,
  "\u2581project": 2293,
  "\u2581layer": 2294,
  "\u2581mahanga": 2295,
  "\u2581visit": 2296,
  "\u2581kwe": 2297,
  "\u2581ukora": 2298,
  "is": 2299,
  "\u2581Ibyahishuwe": 2300,
  "\u2581months": 2301,
  "\u2581mwuka": 2302,
  "\u2581showing": 2303,
  "\u2581baga": 2304,
  "\u2581kugenda": 2305,
  "\u2581couple": 2306,
  "\u2581harmony": 2307,
  "\u2581promised": 2308,
  "\u2581happened": 2309,
  "\u2581hino": 2310,
  "\u2581nda": 2311,
  "\u2581Imbere": 2312,
  "\u2581less": 2313,
  "\u2581Note": 2314,
  "\u2581activities": 2315,
  "\u2581bumwe": 2316,
  "\u2581tuka": 2317,
  "\u258114:": 2318,
  "\u2581Nti": 2319,
  "\u2581appreciate": 2320,
  "\u2581enough": 2321,
  "\u2581Number": 2322,
  "\u2581amazi": 2323,
  "\u2581head": 2324,
  "\u2581rusengero": 2325,
  "\u2581umugaragu": 2326,
  "\u2581Saul": 2327,
  "\u2581actually": 2328,
  "\u2581psalmist": 2329,
  "\u2581IP": 2330,
  "\u2581five": 2331,
  "\u2581ikuzo": 2332,
  "\u2581supported": 2333,
  "amagambo": 2334,
  "ujye": 2335,
  "\u2581Inkomoko": 2336,
  "\u2581biza": 2337,
  "\u2581ikihe": 2338,
  "umurimo": 2339,
  "\u2581bakiri": 2340,
  "\u2581umubiri": 2341,
  "ibyishimo": 2342,
  "\u2581Hall": 2343,
  "\u2581abenshi": 2344,
  "\u2581results": 2345,
  "\u258134": 2346,
  "\u2581Samweli": 2347,
  "\u2581kumu": 2348,
  "O": 2349,
  "maze": 2350,
  "\u258150": 2351,
  "\u2581Mbuganyuma": 2352,
  "\u2581Babylon": 2353,
  "\u2581Igitabo": 2354,
  "\u2581branch": 2355,
  "\u2581session": 2356,
  "\u2581\"[": 2357,
  "\u2581quality": 2358,
  "\u2581yakoresheje": 2359,
  "\u2581issue": 2360,
  "\u2581yuko": 2361,
  "\u2581church": 2362,
  "\u2581conscience": 2363,
  "ness": 2364,
  "\u2581bigatuma": 2365,
  "\u2581ndimi": 2366,
  "\u2581proved": 2367,
  "\u2581Line": 2368,
  "\u2581buhanuzi": 2369,
  "\u2581experienced": 2370,
  "\u2581wumva": 2371,
  "\u02b9": 2372,
  "\u2581Text": 2373,
  "\u2581umuburo": 2374,
  "do": 2375,
  "\u2581Igikoresho": 2376,
  "able": 2377,
  "\u2581Folder": 2378,
  "\u2581accurate": 2379,
  "\u2581ibibi": 2380,
  "\u2581irihe": 2381,
  "\u2581clearly": 2382,
  "\u2581Mariya": 2383,
  "\u2581Garagaza": 2384,
  "\u2581Imirongo": 2385,
  "\u2581express": 2386,
  "mba": 2387,
  "\u2581explained": 2388,
  "\u2581URL": 2389,
  "\u2581ibyiyumvo": 2390,
  "\u2581version": 2391,
  "attr": 2392,
  "\u2581Iheruka": 2393,
  "\u2581umubare": 2394,
  "\u2581else": 2395,
  "\u2581kwigana": 2396,
  "\u2581indi": 2397,
  "\u2581yumva": 2398,
  "\u2581Amafoto": 2399,
  "\u2581Re": 2400,
  "\u2581ago": 2401,
  "bo": 2402,
  "abagore": 2403,
  "ugomba": 2404,
  "\u2581offered": 2405,
  "\u2581yitwa": 2406,
  "\u2581bishingiye": 2407,
  "\u2581least": 2408,
  "\u2581necessary": 2409,
  "\u2581nyina": 2410,
  "\u2581Bethel": 2411,
  "\u2581bate": 2412,
  "\u2581opened": 2413,
  "\u2581yashakaga": 2414,
  "\u2581Choose": 2415,
  "\u2581bikwiriye": 2416,
  "\u2581returned": 2417,
  "\u2581strengthen": 2418,
  "\u2581bajya": 2419,
  "\u2581buhuje": 2420,
  "\u2581bwenge": 2421,
  "\u2581ijana": 2422,
  "\u2581irangwa": 2423,
  "\u2581Edit": 2424,
  "\u2581rest": 2425,
  "\u2581yanyu": 2426,
  "kwicisha": 2427,
  "\u2581job": 2428,
  "\u2581nyandiko": 2429,
  "\u2581training": 2430,
  "\u2581imibabaro": 2431,
  "\u2581moral": 2432,
  "\u2581play": 2433,
  "\u2581students": 2434,
  "va": 2435,
  "\u2581Kugena": 2436,
  "\u2581Ongera": 2437,
  "\u2581Most": 2438,
  "\u2581Sawuli": 2439,
  "\u2581status": 2440,
  "\u2581warning": 2441,
  "amahoro": 2442,
  "\u2581byabaye": 2443,
  "\u2581umwanya": 2444,
  "\u2581indeed": 2445,
  "\u2581worldwide": 2446,
  "\u2581aya": 2447,
  "\u2581baptism": 2448,
  "\u2581bwihariye": 2449,
  "\u2581mwe": 2450,
  "\u2581subject": 2451,
  "\u2581Just": 2452,
  "\u2581bigize": 2453,
  "ikigereranyo": 2454,
  "\u2581kudufasha": 2455,
  "\u2581Iki": 2456,
  "\u2581inside": 2457,
  "\u2581takes": 2458,
  "\u2581Kigaragara": 2459,
  "\u2581force": 2460,
  "\u2581inzu": 2461,
  "\u2581precious": 2462,
  "\u2581responsibility": 2463,
  "da": 2464,
  "\u2581include": 2465,
  "intumwa": 2466,
  "\u2581Komeza": 2467,
  "\u2581Or": 2468,
  "\u2581Roma": 2469,
  "\u2581Wa": 2470,
  "\u2581respond": 2471,
  "R": 2472,
  "\u2581More": 2473,
  "\u2581Great": 2474,
  "\u2581crowd": 2475,
  "\u2581meet": 2476,
  "\u2581riti": 2477,
  "\u2581Funga": 2478,
  "hereranye": 2479,
  "\u258160": 2480,
  "ca": 2481,
  "\u2581Mugaragaza": 2482,
  "\u2581ntiya": 2483,
  "\u2581ten": 2484,
  "\u2581ifoto": 2485,
  "\u2581individual": 2486,
  "\u2581salvation": 2487,
  "\u2581icyigisho": 2488,
  "\u2581ijwi": 2489,
  "\u2581reasons": 2490,
  "\u2581umudendezo": 2491,
  "\u2581yabaye": 2492,
  "\u2581Therefore": 2493,
  "\u2581hirya": 2494,
  "F": 2495,
  "\u2581Bakristo": 2496,
  "\u2581Messiah": 2497,
  "\u2581bitabo": 2498,
  "\u2581English": 2499,
  "\u2581agahinda": 2500,
  "\u2581leta": 2501,
  "\u2581mbese": 2502,
  "\u2581valid": 2503,
  "\u258117:": 2504,
  "\u2581Have": 2505,
  "\u2581kindi": 2506,
  "ingirakamaro": 2507,
  "\u2581bwoko": 2508,
  "\u2581Abaheburayo": 2509,
  "\u2581places": 2510,
  "\u2581ID": 2511,
  "\u2581bitandukanye": 2512,
  "\u2581trials": 2513,
  "4": 2514,
  "\u2581kazi": 2515,
  "\u2581yigisha": 2516,
  "\u2581operation": 2517,
  "\u2581trying": 2518,
  "\u2581Only": 2519,
  "\u2581bwanjye": 2520,
  "\u2581poor": 2521,
  "nta": 2522,
  "\u2581Umuhamya": 2523,
  "\u2581laws": 2524,
  "\u2581reba": 2525,
  "sa": 2526,
  "\u2581Judah": 2527,
  "\u2581hashize": 2528,
  "\u2581Itangiriro": 2529,
  "\u2581Kwandika": 2530,
  "\u2581abe": 2531,
  "\u2581bageze": 2532,
  "\u2581short": 2533,
  "\u258129.": 2534,
  "\u2581amaherezo": 2535,
  "\u2581print": 2536,
  "\u2581seem": 2537,
  "\u2581ute": 2538,
  "Reba": 2539,
  "\u2581attend": 2540,
  "\u2581Byabonetse": 2541,
  "\u2581Moreover": 2542,
  "\u2581Umushinga": 2543,
  "\u2581bigira": 2544,
  "\u2581destruction": 2545,
  "\u2581kubaka": 2546,
  "shi": 2547,
  "\u2581helping": 2548,
  "\u2581igera": 2549,
  "\u2581inyandiko": 2550,
  "\u2581nshingano": 2551,
  "\u2581paradizo": 2552,
  "\u2581burundu": 2553,
  "\u2581neither": 2554,
  "\u2581screen": 2555,
  "du": 2556,
  "less": 2557,
  "\u2581Hagati": 2558,
  "\u2581#": 2559,
  "\u2581Verisiyo": 2560,
  "\u2581impuhwe": 2561,
  "\u2581occasion": 2562,
  "\u2581Bisanzwe": 2563,
  "\u2581abaturage": 2564,
  "\u2581advice": 2565,
  "\u2581enable": 2566,
  "L": 2567,
  "\u2581Brother": 2568,
  "\u2581umuvandimwe": 2569,
  "5": 2570,
  "\u2581earlier": 2571,
  "\u2581folders": 2572,
  "\u2581Another": 2573,
  "\u2581assignment": 2574,
  "\u2581simple": 2575,
  "\u2581test": 2576,
  "\u2581uyu": 2577,
  "\u258128.": 2578,
  "\u2581clean": 2579,
  "ibusamo": 2580,
  "\u2581Icyinjijwe": 2581,
  "\u2581Igiteranyo": 2582,
  "\u2581ibya": 2583,
  "\u2581tried": 2584,
  "\u2581filled": 2585,
  "\u2581obey": 2586,
  "\u2581reach": 2587,
  "\u2581Copy": 2588,
  "\u2581Gukoporora": 2589,
  "\u2581Later": 2590,
  "Umwanyabikoresho": 2591,
  "abagize": 2592,
  "\u2581ubuhanuzi": 2593,
  "\u2581Ikiranga": 2594,
  "\u2581bashaka": 2595,
  "\u2581gace": 2596,
  "\u2581everyone": 2597,
  "\u2581turned": 2598,
  "as": 2599,
  "\u2581Invalid": 2600,
  "\u2581amakosa": 2601,
  "ibikorwa": 2602,
  "\u2581Amahinduka": 2603,
  "\u2581abakiri": 2604,
  "\u2581lands": 2605,
  "\u2581allows": 2606,
  "\u2581carry": 2607,
  "ayo": 2608,
  "sha": 2609,
  "\u2581bemera": 2610,
  "\u2581concern": 2611,
  "\u2581raised": 2612,
  "\u2581tribulation": 2613,
  ".\"": 2614,
  "\u2581mugore": 2615,
  "gi": 2616,
  "\u2581assigned": 2617,
  "\u2581progress": 2618,
  "\u2581six": 2619,
  "\u2581addition": 2620,
  "Umwana": 2621,
  "\u2581buhoro": 2622,
  "\u2581justice": 2623,
  "\u2581office": 2624,
  "\u2581stop": 2625,
  "],": 2626,
  "imbaraga": 2627,
  "\u2581Settings": 2628,
  "\u2581enabled": 2629,
  "\u2581speech": 2630,
  "Name": 2631,
  "hi": 2632,
  "\u2581100": 2633,
  "\u2581Akugara": 2634,
  "\u2581gutera": 2635,
  "\u2581met": 2636,
  "ers": 2637,
  "\u2581Ha": 2638,
  "\u2581Mariko": 2639,
  "\u2581element": 2640,
  "\u2581learning": 2641,
  "\u2581yavuye": 2642,
  "mi": 2643,
  "\u2581bada": 2644,
  "\u2581bikubiyemo": 2645,
  "\u2581birth": 2646,
  "\u2581cyitwa": 2647,
  "\u2581ubucuti": 2648,
  "\u2581books": 2649,
  "\u2581grow": 2650,
  "\u2581moves": 2651,
  "\u2581stay": 2652,
  "3": 2653,
  "\u2581rwiza": 2654,
  "\u2581sort": 2655,
  "\u2581Before": 2656,
  "\u2581Though": 2657,
  "\u2581rigira": 2658,
  "\u2581convention": 2659,
  "\u2581igihugu": 2660,
  "\u2581names": 2661,
  "\u2581Tw": 2662,
  "incuti": 2663,
  "org": 2664,
  "\u2581government": 2665,
  "\u2581nyigisho": 2666,
  "G": 2667,
  "\u2581exist": 2668,
  "\u2581org": 2669,
  "\u2581voice": 2670,
  "\u2581families": 2671,
  "\u2581practical": 2672,
  "\u2581rishya": 2673,
  "See": 2674,
  "\u2581About": 2675,
  "\u2581NIBYO": 2676,
  "\u2581ikimenyetso": 2677,
  "\u2581ngaruka": 2678,
  "\u2581icumi": 2679,
  "\u2581uhereye": 2680,
  "\u2581zacu": 2681,
  "\u2581parent": 2682,
  "AJI": 2683,
  "\u2581bizatuma": 2684,
  "\u2581specific": 2685,
  "umwaka": 2686,
  "\u2581amasengesho": 2687,
  "\u2581habaho": 2688,
  "\u2581humble": 2689,
  "\u258131.": 2690,
  "\u2581hours": 2691,
  "\u2581urusobe": 2692,
  "\u2581width": 2693,
  "\u2581Tekereza": 2694,
  "\u2581dukunda": 2695,
  "\u2581endure": 2696,
  "\u2581fulfilled": 2697,
  "\u2581yemera": 2698,
  "\u2581Ukwihuza": 2699,
  "\u2581umurongo": 2700,
  "\u2581Igaragazambere": 2701,
  "\u2581courage": 2702,
  "\u2581terminal": 2703,
  "\u2581Umukoro": 2704,
  "\u2581anger": 2705,
  "\u2581myself": 2706,
  "\u2581correct": 2707,
  "\u2581getting": 2708,
  "\u2581guidance": 2709,
  "hu": 2710,
  "kunze": 2711,
  "\u2581babonye": 2712,
  "\u2581regularly": 2713,
  "\u2581millions": 2714,
  "\u2581missionary": 2715,
  "\u2581visible": 2716,
  "\u2581Make": 2717,
  "\u2581uw": 2718,
  "amadini": 2719,
  "\u2581elder": 2720,
  "\u2581kureka": 2721,
  "\u2581proper": 2722,
  "\u2581beginning": 2723,
  "\u2581bifuza": 2724,
  "\u2581Umwanditsi": 2725,
  "\u2581pain": 2726,
  "\u2581evil": 2727,
  "\u2581forward": 2728,
  "\u2581igitambo": 2729,
  "\u2581seven": 2730,
  "\u2581Bamwe": 2731,
  "\u2581Imyandikire": 2732,
  "\u2581knows": 2733,
  "\u2581space": 2734,
  "de": 2735,
  "kubera": 2736,
  "ubugingo": 2737,
  "\u2581entry": 2738,
  "\u2581imiryango": 2739,
  "\u2581interested": 2740,
  "BAR": 2741,
  "\u2581Remove": 2742,
  "\u2581explains": 2743,
  "nwa": 2744,
  "\u2581Ibirindiro": 2745,
  "\u2581Umunsi": 2746,
  "\u2581discipline": 2747,
  "\u2581lines": 2748,
  "\u2581servant": 2749,
  "\u2581ubwami": 2750,
  "\u2581focus": 2751,
  "\u2581kwacu": 2752,
  "\u2581record": 2753,
  "uburyo": 2754,
  "\u2581develop": 2755,
  "\u2581response": 2756,
  "\u2581Others": 2757,
  "\u2581behind": 2758,
  "\u2581eat": 2759,
  "\u2581tells": 2760,
  "\u2581Help": 2761,
  "\u2581umuhungu": 2762,
  "\u2581blessed": 2763,
  "\u2581atanga": 2764,
  "\u2581rich": 2765,
  "\u2581throughout": 2766,
  "\u2581Gufunga": 2767,
  "\u2581Gukuraho": 2768,
  "\u2581enemies": 2769,
  "\u2581presence": 2770,
  "\u2581bamu": 2771,
  "\u2581basis": 2772,
  "\u2581centuries": 2773,
  "\u2581daily": 2774,
  "\u2581kwabo": 2775,
  "\u2581natural": 2776,
  "\u25811914": 2777,
  "\u2581Catholic": 2778,
  "\u2581Kwihuza": 2779,
  "\u2581daughter": 2780,
  "\u2581uta": 2781,
  "\u2581Jacob": 2782,
  "In": 2783,
  "\u2581MU": 2784,
  "\u2581Unknown": 2785,
  "\u2581siyansi": 2786,
  "\u2581mw": 2787,
  "el": 2788,
  "ikirenga": 2789,
  "\u2581Uduciro": 2790,
  "\u2581accounts": 2791,
  "\u2581bibiri": 2792,
  "\u2581completely": 2793,
  "\u2581link": 2794,
  "\u2581ntambara": 2795,
  "\u2581nanjye": 2796,
  "\u2581building": 2797,
  "\u2581imitekerereze": 2798,
  "\u2581tool": 2799,
  "ar": 2800,
  "\u2581bishoboka": 2801,
  "\u2581challenge": 2802,
  "\u2581irimo": 2803,
  "ababyeyi": 2804,
  "imwe": 2805,
  "\u2581Ibibazo": 2806,
  "\u2581exists": 2807,
  "\u2581remote": 2808,
  "\u2581kwibaza": 2809,
  "\u2581chosen": 2810,
  "\u2581education": 2811,
  "\u2581followed": 2812,
  "ikinyoma": 2813,
  "\u2581bihumbi": 2814,
  "\u2581Injiza": 2815,
  "\u2581computer": 2816,
  "\u2581Gukora": 2817,
  "\u2581bakomeza": 2818,
  "\u2581encouraged": 2819,
  "\u2581ready": 2820,
  "\u2581rwari": 2821,
  "\u2581final": 2822,
  "ubutegetsi": 2823,
  "\u2581interests": 2824,
  "\u2581positive": 2825,
  "\u2581writing": 2826,
  "ion": 2827,
  "\u2581Type": 2828,
  "\u2581hour": 2829,
  "\u2581paradise": 2830,
  "\u2581personality": 2831,
  "\u2581GNOME": 2832,
  "\u2581bisaba": 2833,
  "\u2581happen": 2834,
  "\u2581imperfect": 2835,
  "\u2581kwiyumvisha": 2836,
  "\u2581top": 2837,
  "\u2581Keep": 2838,
  "\u2581azaba": 2839,
  "\u2581calls": 2840,
  "\u2581izaba": 2841,
  "\u2581mama": 2842,
  "Abisirayeli": 2843,
  "muvandimwe": 2844,
  "\u2581Kureka": 2845,
  "\u2581ntego": 2846,
  "\u2581yabonaga": 2847,
  "\u2581akoresha": 2848,
  "\u2581mitima": 2849,
  "\u2581walking": 2850,
  "Abaroma": 2851,
  "nga": 2852,
  "\u2581Ephesians": 2853,
  "\u2581KU": 2854,
  "\u2581choice": 2855,
  "\u258124,": 2856,
  "\u2581Birashoboka": 2857,
  "\u2581Umutwempangano": 2858,
  "\u2581exercise": 2859,
  "\u2581practice": 2860,
  "\u2581seeking": 2861,
  "\u2581Work": 2862,
  "\u2581bindi": 2863,
  "\u2581windows": 2864,
  "\u2581ajya": 2865,
  "\u2581mico": 2866,
  "\u2581opening": 2867,
  "\u2581articles": 2868,
  "\u2581decided": 2869,
  "\u2581x": 2870,
  "\u2581Amaherezo": 2871,
  "\u2581Holy": 2872,
  "\u2581ababwiriza": 2873,
  "\u2581mate": 2874,
  "\u2581non": 2875,
  "\u2581uku": 2876,
  "\u2581prayed": 2877,
  "\u2581related": 2878,
  "\u2581caused": 2879,
  "\u2581favor": 2880,
  "\u2581gutinya": 2881,
  "Do": 2882,
  "\u2581Umukoresha": 2883,
  "\u2581mercy": 2884,
  "\u2581knowing": 2885,
  "\u2581reflect": 2886,
  "\u2581traveling": 2887,
  "\u2581description": 2888,
  "\u2581ryayo": 2889,
  "\u2581tuza": 2890,
  "\u2581Umumaro": 2891,
  "\u2581abayobozi": 2892,
  "\u2581thousands": 2893,
  "\u2581studying": 2894,
  "\u2581below": 2895,
  "\u2581literature": 2896,
  "\u2581goal": 2897,
  "\u2581title": 2898,
  "man": 2899,
  "\u2581ukiri": 2900,
  "\u2581ebyiri": 2901,
  "\u2581ishyanga": 2902,
  "\u2581security": 2903,
  "\u00a9": 2904,
  "\u2581Amerika": 2905,
  "\u2581Perhaps": 2906,
  "\u2581looking": 2907,
  "\u2581video": 2908,
  "\u2581Eliya": 2909,
  "\u2581network": 2910,
  "ab": 2911,
  "\u2581email": 2912,
  "\u2581acts": 2913,
  "\u2581ada": 2914,
  "\u2581expect": 2915,
  "\u2581frame": 2916,
  "\u2581leaders": 2917,
  "\u258122,": 2918,
  "\u2581bear": 2919,
  "\u2581gusura": 2920,
  "\u2581translation": 2921,
  "amateka": 2922,
  "\u258121:": 2923,
  "\u2581begin": 2924,
  "\u2581invited": 2925,
  "\u2581beyond": 2926,
  "\u2581former": 2927,
  "\u2581root": 2928,
  "\u2581Egiputa": 2929,
  "\u2581ibisubizo": 2930,
  "\u2581prison": 2931,
  "\u25cf": 2932,
  "\u2581Start": 2933,
  "\u2581contrast": 2934,
  "\u2581kinini": 2935,
  "\u2581re": 2936,
  "\u2581uka": 2937,
  "\u2581ziri": 2938,
  "reka": 2939,
  "\u2581priest": 2940,
  "\u2581steps": 2941,
  "6": 2942,
  "umuco": 2943,
  "\u2581Keyboard": 2944,
  "\u2581custom": 2945,
  "\u2581cyabo": 2946,
  "\u2581editor": 2947,
  "\u2581step": 2948,
  "\u2581Love": 2949,
  "\u2581Remember": 2950,
  "\u2581cyiza": 2951,
  "\u2581don": 2952,
  "\u2581itanga": 2953,
  "\u2581priests": 2954,
  "\u2581umutimanama": 2955,
  "\u2581violence": 2956,
  "If": 2957,
  "\u2581due": 2958,
  "\u2581iherezo": 2959,
  "\u2581Mwandikisho": 2960,
  "\u2581parts": 2961,
  "\u2581()": 2962,
  "\u2581zaburi": 2963,
  "\u2581IMISUSIRE": 2964,
  "\u2581brings": 2965,
  "\u2581devotion": 2966,
  "\u2581Itondekanya": 2967,
  "\u2581Print": 2968,
  "\u2581myifatire": 2969,
  "\u2581standard": 2970,
  "\u2581Imigaragarire": 2971,
  "\u2581Muhinduzi": 2972,
  "\u2581alive": 2973,
  "\u2581ingero": 2974,
  "\u2581uses": 2975,
  "\u2581Here": 2976,
  "\u2581Inkuru": 2977,
  "\u2581LOG": 2978,
  "\u2581becoming": 2979,
  "\u2581yifuza": 2980,
  "\u2581$": 2981,
  "\u2581Ikadiri": 2982,
  "\u2581Ibaruwa": 2983,
  "\u2581mwana": 2984,
  "\u2581realize": 2985,
  "\u2581Elijah": 2986,
  "\u2581Ihuza": 2987,
  "\u2581enjoyed": 2988,
  "\u2581mahame": 2989,
  "\u2581quickly": 2990,
  "\u2581request": 2991,
  "\u2581tukaba": 2992,
  "\u2581Intera": 2993,
  "\u2581encouragement": 2994,
  "\u2581running": 2995,
  "\u2581sacred": 2996,
  "\u2581unity": 2997,
  "\u2581manager": 2998,
  "\u2581worked": 2999,
  "ry": 3000,
  "\u258126.": 3001,
  "\u2581illustration": 3002,
  "\u2581Bari": 3003,
  "\u2581conditions": 3004,
  "\u2581kurwanya": 3005,
  "\u2581suffer": 3006,
  "\u2581hariho": 3007,
  "\u2581umwanditsi": 3008,
  "\u2581desires": 3009,
  "\u2581included": 3010,
  "#": 3011,
  "iryo": 3012,
  "\u2581bizerwa": 3013,
  "\u2581Ikigize": 3014,
  "\u2581encourage": 3015,
  "\u2581greatest": 3016,
  "\u2581relative": 3017,
  "\u2581Muyunguruzi": 3018,
  "\u2581countries": 3019,
  "\u2581gatatu": 3020,
  "\u2581gutegeka": 3021,
  "\u2581itatu": 3022,
  "\u2581turimo": 3023,
  "\u2581wait": 3024,
  "umu": 3025,
  "\u258135": 3026,
  "\u2581Similarly": 3027,
  "\u2581ahead": 3028,
  "\u2581installed": 3029,
  "izindi": 3030,
  "\u2581Byemewe": 3031,
  "\u2581hano": 3032,
  "\u2581benefits": 3033,
  "\u2581mirimo": 3034,
  "All": 3035,
  "\u2581built": 3036,
  "\u2581report": 3037,
  "\u2581Home": 3038,
  "\u2581Muyobozi": 3039,
  "\u2581Where": 3040,
  "\u2581bake": 3041,
  "\u2581Byahinduwe": 3042,
  "\u2581akiri": 3043,
  "\u2581channel": 3044,
  "ijuru": 3045,
  "ishami": 3046,
  "\u2581igitekerezo": 3047,
  "\u2581log": 3048,
  "amahame": 3049,
  "\u2581Joshua": 3050,
  "\u2581bika": 3051,
  "ce": 3052,
  "ibinyoma": 3053,
  "\u2581dedicated": 3054,
  "ll": 3055,
  "\u2581Hashi": 3056,
  "\u2581condition": 3057,
  "\u2581door": 3058,
  "\u2581mutwe": 3059,
  "\u2581pattern": 3060,
  "ubwoko": 3061,
  "\u2581Credit": 3062,
  "\u2581Cyasibwe": 3063,
  "lmost": 3064,
  "\u2581Amagenamiterere": 3065,
  "\u2581Izo": 3066,
  "\u2581keeping": 3067,
  "\u2581requires": 3068,
  "\u2581seems": 3069,
  "\u2581Abandi": 3070,
  "\u2581Source": 3071,
  "\u2581associated": 3072,
  "\u2581sacrifices": 3073,
  "\u2581urugendo": 3074,
  "\u258145": 3075,
  "by": 3076,
  "\u2581Si": 3077,
  "\u2581behalf": 3078,
  "\u2581yourselves": 3079,
  "\u2581ibivugwa": 3080,
  "\u2581numva": 3081,
  "\u2581sexual": 3082,
  "\u2581yakundaga": 3083,
  "\u258127.": 3084,
  "\u2581Bahamya": 3085,
  "\u2581amu": 3086,
  "\u2581deeply": 3087,
  "\u2581deleted": 3088,
  "\u2581feet": 3089,
  "\u2581fire": 3090,
  "\u2581angel": 3091,
  "\u2581humility": 3092,
  "\u2581umuhanuzi": 3093,
  "\u2581umutekano": 3094,
  "\u2581Buyuda": 3095,
  "\u2581loyalty": 3096,
  "\u2581member": 3097,
  "\u2581riri": 3098,
  "\u2581Each": 3099,
  "\u258135.": 3100,
  "\u2581Message": 3101,
  "\u2581bukwiriye": 3102,
  "\u2581firm": 3103,
  "\u2581miles": 3104,
  "\u2581previous": 3105,
  "\u2581usually": 3106,
  "\u2581Brooklyn": 3107,
  "\u2581bashakanye": 3108,
  "\u2581points": 3109,
  "\u2581sea": 3110,
  "imucyo": 3111,
  "all": 3112,
  "\u2581Imimerere": 3113,
  "\u2581V": 3114,
  "\u2581bayo": 3115,
  "\u2581flock": 3116,
  "\u2581kings": 3117,
  "izo": 3118,
  "\u2581uwa": 3119,
  "\u2581wonder": 3120,
  "\u2581Other": 3121,
  "\u2581bira": 3122,
  "\u2581kigira": 3123,
  "intama": 3124,
  "\u2581protect": 3125,
  "intambara": 3126,
  "\u2581Window": 3127,
  "\u2581mwa": 3128,
  "\u2581appears": 3129,
  "\u2581bukomeye": 3130,
  "\u2581occurred": 3131,
  "\u2581persecution": 3132,
  "\u2581politiki": 3133,
  "\u2581amajyambere": 3134,
  "\u2581ikoraniro": 3135,
  "\u2581seed": 3136,
  "\u2581uwuhe": 3137,
  "\u2581Nevertheless": 3138,
  "\u2581nza": 3139,
  "Amerika": 3140,
  "gerageza": 3141,
  "\u2581Size": 3142,
  "\u00e9": 3143,
  "\u2581fall": 3144,
  "\u2581mategeko": 3145,
  "\u2581whatever": 3146,
  "and": 3147,
  "\u2581agiye": 3148,
  "\u2581batangiye": 3149,
  "\u2581dedication": 3150,
  "\u2581fruit": 3151,
  "\u2581ma": 3152,
  "\u258130.": 3153,
  "\u2581South": 3154,
  "\u2581cyumweru": 3155,
  "\u2581imirongo": 3156,
  "\u2581mouse": 3157,
  "\u2581political": 3158,
  "Despite": 3159,
  "\u2581namwe": 3160,
  "\u2581picture": 3161,
  "\u2581specify": 3162,
  "\u2581Box": 3163,
  "\u2581code": 3164,
  "\u2581p": 3165,
  "komeza": 3166,
  "\u2581Modire": 3167,
  "\u2581handle": 3168,
  "\u2581War": 3169,
  "\u2581cultivate": 3170,
  "\u2581revealed": 3171,
  "\u2581rukundo": 3172,
  "kira": 3173,
  "vi": 3174,
  "\u2581arrived": 3175,
  "\u2581biro": 3176,
  "\u2581sometimes": 3177,
  "\u258133.": 3178,
  "\u2581HTML": 3179,
  "\u2581ubona": 3180,
  "\u2581visited": 3181,
  "umwana": 3182,
  "\u2581Umurimo": 3183,
  "\u2581Urukundo": 3184,
  "\u2581fill": 3185,
  "rwa": 3186,
  "\u2581Bigyanye": 3187,
  "\u2581gushyiraho": 3188,
  "\u2581Sibyo": 3189,
  "imimerere": 3190,
  "\u2581amasaha": 3191,
  "basutsweho": 3192,
  "idosiye": 3193,
  "vu": 3194,
  "\u2581destroyed": 3195,
  "\u2581lesson": 3196,
  "\u2581safe": 3197,
  "\u2581expressed": 3198,
  "\u2581function": 3199,
  "\u2581yita": 3200,
  "\u2581faced": 3201,
  "\u2581kaga": 3202,
  "\u2581ntiyari": 3203,
  "\u2581resurrected": 3204,
  "\u2581ingeso": 3205,
  "\u2581yaremye": 3206,
  "\u2581akeneye": 3207,
  "\u2581contents": 3208,
  "\u2581gifite": 3209,
  "\u2581lack": 3210,
  "\u2581publications": 3211,
  "\u2581success": 3212,
  "\u2581zivuga": 3213,
  "atangiye": 3214,
  "\u2581invalid": 3215,
  "\u2581spent": 3216,
  "fashe": 3217,
  "it": 3218,
  "\u2581Amabara": 3219,
  "\u2581eventually": 3220,
  "\u2581pay": 3221,
  "We": 3222,
  "\u2581Bwami": 3223,
  "\u2581preview": 3224,
  "\u2581wives": 3225,
  "\u2581batatu": 3226,
  "\u2581groups": 3227,
  "\u2581Byuzuye": 3228,
  "\u2581Kiliziya": 3229,
  "\u2581www": 3230,
  "\u2581connect": 3231,
  "\u2581outside": 3232,
  "\u2581umubyeyi": 3233,
  "\u2581urimo": 3234,
  "\u258138": 3235,
  "\u2581Really": 3236,
  "\u2581areas": 3237,
  "\u2581cyacu": 3238,
  "\u2581passed": 3239,
  "\u2581Gitoya": 3240,
  "\u2581prepared": 3241,
  "\u2581twi": 3242,
  "lo": 3243,
  "\u2581meant": 3244,
  "\u2581morning": 3245,
  "\u2581output": 3246,
  "\u2581yahise": 3247,
  "format": 3248,
  "\u2581Afurika": 3249,
  "\u2581Ibisohoka": 3250,
  "\u2581Page": 3251,
  "\u2581Urubariro": 3252,
  "\u2581Yosuwa": 3253,
  "\u2581immediately": 3254,
  "ibigeragezo": 3255,
  "\u2581amateraniro": 3256,
  "\u2581half": 3257,
  "\u2581tuti": 3258,
  "tera": 3259,
  "\u2581BIBILIYA": 3260,
  "\u2581Migani": 3261,
  "\u2581mibi": 3262,
  "\u2581asking": 3263,
  "\u2581Rome": 3264,
  "\u2581biga": 3265,
  "\u2581importance": 3266,
  "\u2581term": 3267,
  "\u2581Next": 3268,
  "\u2581Ubuhagarike": 3269,
  "\u2581affection": 3270,
  "huje": 3271,
  "nge": 3272,
  "\u2581batyo": 3273,
  "\u2581ingabo": 3274,
  "\u2581sun": 3275,
  "\u2581Through": 3276,
  "\u2581aware": 3277,
  "\u2581beliefs": 3278,
  "\u2581ntama": 3279,
  "\u2581zituma": 3280,
  "\u2581approach": 3281,
  "\u2581bihuje": 3282,
  "New": 3283,
  "\u2581+": 3284,
  "\u2581amasezerano": 3285,
  "\u2581bahawe": 3286,
  "\u2581general": 3287,
  "\u2581mateka": 3288,
  "\u2581toolbar": 3289,
  "\u2581yemeye": 3290,
  "\u2581Ababyeyi": 3291,
  "\u2581bavandimwe": 3292,
  "imirimo": 3293,
  "\u258136": 3294,
  "\u2581applications": 3295,
  "\u2581bahuje": 3296,
  "\u2581bizaba": 3297,
  "irikana": 3298,
  "ubuhanuzi": 3299,
  "\u2581Igishushanyo": 3300,
  "\u2581ububasha": 3301,
  "\u2581urged": 3302,
  "7": 3303,
  "mw": 3304,
  "\u2581Impamvu": 3305,
  "\u2581butumwa": 3306,
  "\u2581explain": 3307,
  "\u2581guhitamo": 3308,
  "\u2581standing": 3309,
  "\u2581yandikiye": 3310,
  "\u2581Soon": 3311,
  "\u2581amahanga": 3312,
  "\u2581ineza": 3313,
  "\u2581Christendom": 3314,
  "\u2581vision": 3315,
  "\u2581Icyiciro": 3316,
  "\u2581bakomeje": 3317,
  "\u2581genuine": 3318,
  "\u2581notes": 3319,
  "\u2581third": 3320,
  "\u2581Book": 3321,
  "\u2581Yahagaritswe": 3322,
  "ubupayiniya": 3323,
  "\u2581Imbeba": 3324,
  "\u2581prevent": 3325,
  "\u2581yamaze": 3326,
  "abigiranye": 3327,
  "\u2581State": 3328,
  "\u2581bakuru": 3329,
  "\u2581contain": 3330,
  "\u2581Clearly": 3331,
  "\u2581details": 3332,
  "\u2581examine": 3333,
  "\u2581ubuhe": 3334,
  "\u2581abamarayika": 3335,
  "\u2581association": 3336,
  "\u2581hakaba": 3337,
  "\u2581km": 3338,
  "\u2581Also": 3339,
  "\u2581Igenzura": 3340,
  "\u2581automatically": 3341,
  "\u2581press": 3342,
  "\u2581truths": 3343,
  "\u2581twifuza": 3344,
  "\u2581akunda": 3345,
  "\u2581bitari": 3346,
  "\u2581ishyingiranwa": 3347,
  "\u2581mpera": 3348,
  "\u2581ubuhanga": 3349,
  "\u2581Gilead": 3350,
  "\u2581characters": 3351,
  "\u2581hantu": 3352,
  "\u2581principle": 3353,
  "\u2581ugusenga": 3354,
  "\u2581amabwiriza": 3355,
  "\u2581million": 3356,
  "\u2581Ask": 3357,
  "\u2581context": 3358,
  "\u2581killed": 3359,
  "\u2581kubariza": 3360,
  "\u258114;": 3361,
  "\u2581established": 3362,
  "\u2581ibyabaye": 3363,
  "\u2581ubuntu": 3364,
  "\u2581abakozi": 3365,
  "\u2581cell": 3366,
  "\u2581tumaze": 3367,
  "um": 3368,
  "\u2581arrangement": 3369,
  "\u2581gituma": 3370,
  "\u2581idea": 3371,
  "\u2581overseer": 3372,
  "\u2581ubutware": 3373,
  "Isi": 3374,
  "\u2581beautiful": 3375,
  "\u2581endurance": 3376,
  "v": 3377,
  "\u2581bakorera": 3378,
  "\u2581personally": 3379,
  "9": 3380,
  "ingabo": 3381,
  "\u2581Mukuru": 3382,
  "\u2581recognize": 3383,
  "\u2581Akarango": 3384,
  "\u2581KURI": 3385,
  "\u2581kivuga": 3386,
  "\u2581kuzirikana": 3387,
  "=": 3388,
  "\u2581(1)": 3389,
  "\u2581Kirimo": 3390,
  "\u2581agakiza": 3391,
  "\u2581rejoice": 3392,
  "\u2581urugomo": 3393,
  "amazi": 3394,
  "\u2581igikundiro": 3395,
  "\u2581kunywa": 3396,
  "\u2581protection": 3397,
  "inyigisho": 3398,
  "mp": 3399,
  "\u258123,": 3400,
  "\u2581High": 3401,
  "\u2581Mount": 3402,
  "\u2581ameze": 3403,
  "\u2581isomo": 3404,
  "\u258116;": 3405,
  "\u2581Church": 3406,
  "\u2581Icyabaye": 3407,
  "\u2581Version": 3408,
  "\u2581expected": 3409,
  "\u2581iya": 3410,
  "\u2581ubushakashatsi": 3411,
  "icyaha": 3412,
  "uwa": 3413,
  "\u2581Pennsylvania": 3414,
  "\u2581nzi": 3415,
  "Tugomba": 3416,
  "rwe": 3417,
  "\u2581kari": 3418,
  "\u2581Christianity": 3419,
  "\u2581kwihanganira": 3420,
  "imibereho": 3421,
  "\u2581Burayi": 3422,
  "\u2581dutyo": 3423,
  "\u2581ibice": 3424,
  "\u2581pixels": 3425,
  "\u2581yakoraga": 3426,
  "shinzwe": 3427,
  "\u2581amount": 3428,
  "\u2581bagaragaza": 3429,
  "\u2581banyu": 3430,
  "\u2581busy": 3431,
  "\u2581colors": 3432,
  "\u2581gushimira": 3433,
  "\u2581icy": 3434,
  "\u2581pane": 3435,
  "\u2581sovereignty": 3436,
  "\u2581urusengero": 3437,
  "\u2581Font": 3438,
  "\u2581forget": 3439,
  "\u2581involves": 3440,
  "\u2581kubatizwa": 3441,
  "day": 3442,
  "\u2581Akazi": 3443,
  "\u2581batekereza": 3444,
  "\u2581missionaries": 3445,
  "\u2581spoken": 3446,
  "\u2581Change": 3447,
  "\u2581Imibare": 3448,
  "\u2581normal": 3449,
  "\u2581basic": 3450,
  "\u2581obedient": 3451,
  "\u2581bivugwa": 3452,
  "\u2581kubi": 3453,
  "\u2581meza": 3454,
  "\u2581easily": 3455,
  "\u2581entered": 3456,
  "\u2581guhura": 3457,
  "\u2581verse": 3458,
  "Ikigiriki": 3459,
  "\u2581Kitazwi": 3460,
  "\u2581batuye": 3461,
  "\u2581cyanditswe": 3462,
  "\u2581kubigenza": 3463,
  "\u2581realized": 3464,
  "\u2581twumva": 3465,
  "\u2581uzaba": 3466,
  "koresheje": 3467,
  "\u2581Options": 3468,
  "\u2581feeling": 3469,
  "\u2581filter": 3470,
  "\u2581mazi": 3471,
  "ation": 3472,
  "\u2581animals": 3473,
  "\u2581archive": 3474,
  "\u2581environment": 3475,
  "nt": 3476,
  "\u2581BIBLE": 3477,
  "\u2581Icya": 3478,
  "\u2581goals": 3479,
  "\u2581observe": 3480,
  "\u2581particular": 3481,
  "\u2581sharing": 3482,
  "It": 3483,
  "\u2581includes": 3484,
  "shaka": 3485,
  "\u2581rikomeye": 3486,
  "abari": 3487,
  "\u2581opposition": 3488,
  "\u2581Good": 3489,
  "\u2581Ururimi": 3490,
  "\u2581ama": 3491,
  "\u2581carefully": 3492,
  "\u2581imanza": 3493,
  "\u2581limited": 3494,
  "iminsi": 3495,
  "\u2581School": 3496,
  "\u2581bagaragaje": 3497,
  "\u2581bice": 3498,
  "\u2581disciple": 3499,
  "\u2581gereza": 3500,
  "\u2581II": 3501,
  "\u2581Was": 3502,
  "\u2581prepare": 3503,
  "\u2581rundi": 3504,
  "\u2581ground": 3505,
  "\u2581Bikora": 3506,
  "\u2581Translation": 3507,
  "\u2581nature": 3508,
  "\u2581recent": 3509,
  "\u2581Urwego": 3510,
  "co": 3511,
  "girira": 3512,
  "\u2581Gushigikira": 3513,
  "\u2581Two": 3514,
  "\u2581umusaza": 3515,
  "He": 3516,
  "\u2581neighbor": 3517,
  "for": 3518,
  "\u2581currently": 3519,
  "\u2581dufate": 3520,
  "\u2581guteza": 3521,
  "\u2581pressure": 3522,
  "\u258123]": 3523,
  "\u2581Ingingo": 3524,
  "\u2581closer": 3525,
  "\u2581header": 3526,
  "\u2581manner": 3527,
  "\u2581shepherd": 3528,
  "Let": 3529,
  "komeze": 3530,
  "ment": 3531,
  "\u2581yahawe": 3532,
  "\u258128,": 3533,
  "\u2581igikorwa": 3534,
  "\u2581mugani": 3535,
  "\u2581mwashakanye": 3536,
  "This": 3537,
  "\u2581Ruth": 3538,
  "\u2581Shyira": 3539,
  "\u2581umuyobozi": 3540,
  "\u2581Ijwi": 3541,
  "\u2581declared": 3542,
  "\u2581percent": 3543,
  "\u2581ryawe": 3544,
  "\u2581wish": 3545,
  "\u2581gitondo": 3546,
  "\u2581memory": 3547,
  "\u2581tuda": 3548,
  "\u2581Ama": 3549,
  "\u2581byagenze": 3550,
  "\u2581challenges": 3551,
  "\u2581edit": 3552,
  "\u2581umukobwa": 3553,
  "\u2581zikomeye": 3554,
  "\u2581household": 3555,
  "\u2581studies": 3556,
  ">": 3557,
  "amahanga": 3558,
  "\u2581compassion": 3559,
  "\u2581magazine": 3560,
  "\u2581prophets": 3561,
  "\u2581ibyerekeye": 3562,
  "\u2581lot": 3563,
  "\u2581mental": 3564,
  "\u2581music": 3565,
  "\u2581baki": 3566,
  "\u2581burangwa": 3567,
  "\u2581content": 3568,
  "\u2581kuyi": 3569,
  "\u2581ukundi": 3570,
  "\u2581kare": 3571,
  "\u2581height": 3572,
  "\u2581mbona": 3573,
  "\u2581umaze": 3574,
  "iy": 3575,
  "pi": 3576,
  "\u2581Isunika": 3577,
  "\u2581amatsiko": 3578,
  "\u2581pioneers": 3579,
  "\u2581turere": 3580,
  "espite": 3581,
  "nde": 3582,
  "\u2581Ma": 3583,
  "\u2581kwezi": 3584,
  "\u2581correctly": 3585,
  "\u2581discuss": 3586,
  "\u2581hanze": 3587,
  "\u2581Ezekiel": 3588,
  "\u2581discreet": 3589,
  "\u2581town": 3590,
  "\u2581yanditswe": 3591,
  "OYA": 3592,
  "\u2581kubikora": 3593,
  "\u2581Udushushondanga": 3594,
  "\u2581icons": 3595,
  "\u2581kwibuka": 3596,
  "\u2581prophecies": 3597,
  "\u2581range": 3598,
  "\u2581umucyo": 3599,
  "\u2581jambo": 3600,
  "\u2581pass": 3601,
  "\u2581Gucapa": 3602,
  "\u2581Urubuga": 3603,
  "\u2581experiences": 3604,
  "\u2581madini": 3605,
  "Impamyabushobozi": 3606,
  "\u2581Akadomo": 3607,
  "\u2581Yuda": 3608,
  "\u2581bakoresha": 3609,
  "\u2581rumwe": 3610,
  "@": 3611,
  "imfashanyigisho": 3612,
  "\u2581Questions": 3613,
  "\u2581Ru": 3614,
  "\u2581atyo": 3615,
  "\u2581clipboard": 3616,
  "\u2581conclusion": 3617,
  "\u2581forgiveness": 3618,
  "\u2581front": 3619,
  "\u2581imana": 3620,
  "\u2581isoni": 3621,
  "\u2581surely": 3622,
  "ive": 3623,
  "\u2581bonyine": 3624,
  "\u2581kwandika": 3625,
  "\u2581pure": 3626,
  "\u2581spend": 3627,
  "abami": 3628,
  "\u2581Budage": 3629,
  "\u2581Pigiseli": 3630,
  "\u2581abahanga": 3631,
  "\u2581budahemuka": 3632,
  "\u2581cases": 3633,
  "\u2581device": 3634,
  "\u2581obedience": 3635,
  "ur": 3636,
  "\u2581cut": 3637,
  "\u2581kanya": 3638,
  "\u2581negative": 3639,
  "est": 3640,
  "shyira": 3641,
  "\u2581(2)": 3642,
  "\u2581g": 3643,
  "\u2581ira": 3644,
  "\u2581kugendera": 3645,
  "\u2581kugwa": 3646,
  "di": 3647,
  "\u258165": 3648,
  "\u2581fail": 3649,
  "\u2581minutes": 3650,
  "\u2581offering": 3651,
  "\u2581strive": 3652,
  "\u2581useful": 3653,
  "Umuna": 3654,
  "\u2581dukomeza": 3655,
  "\u2581input": 3656,
  "she": 3657,
  "\u2581Address": 3658,
  "\u2581forgive": 3659,
  "\u2581kubana": 3660,
  "\u2581yavuzwe": 3661,
  "mail": 3662,
  "\u2581Body": 3663,
  "\u2581Hindura": 3664,
  "\u2581Yose": 3665,
  "\u2581ishize": 3666,
  "\u2581publishers": 3667,
  "\u2581bumenyi": 3668,
  "\u2581gikurikira": 3669,
  "\u2581gusaba": 3670,
  "\u2581igisubizo": 3671,
  "\u2581nyanja": 3672,
  "\u2581reference": 3673,
  "\u2581noted": 3674,
  "\u2581unknown": 3675,
  "8": 3676,
  "giye": 3677,
  "ver": 3678,
  "\u2581Well": 3679,
  "\u2581wagize": 3680,
  "\u2581Ibanjirije": 3681,
  "\u2581Paradise": 3682,
  "\u2581Philippians": 3683,
  "\u2581produce": 3684,
  "\u2581relief": 3685,
  "ese": 3686,
  "fite": 3687,
  "\u2581Once": 3688,
  "\u2581Should": 3689,
  "\u2581zigaragaza": 3690,
  "kura": 3691,
  "symbol": 3692,
  "zongera": 3693,
  "\u2581PAGE": 3694,
  "\u2581abanzi": 3695,
  "\u2581bread": 3696,
  "\u2581break": 3697,
  "\u2581bwikora": 3698,
  "\u2581probably": 3699,
  "\u2581Byakozwe": 3700,
  "njizaporogaramu": 3701,
  "zwa": 3702,
  "\u2581Table": 3703,
  "\u2581layers": 3704,
  "\u2581teachers": 3705,
  "\u2581tongue": 3706,
  "\u2581IN": 3707,
  "\u2581although": 3708,
  "\u2581guard": 3709,
  "akomeje": 3710,
  "\u258115]": 3711,
  "\u2581Ezekiyeli": 3712,
  "\u25817]": 3713,
  "\u2581Abenshi": 3714,
  "\u2581Colossians": 3715,
  "\u2581e": 3716,
  "\u2581ishusho": 3717,
  "\u2581uburemere": 3718,
  "\u2581host": 3719,
  "\u2581ntangiriro": 3720,
  "\u2581purposes": 3721,
  "\u2581seemed": 3722,
  "\u2581Gihinguranya": 3723,
  "\u2581Over": 3724,
  "\u2581uretse": 3725,
  "\u2581worshippers": 3726,
  "\u2581yiteguye": 3727,
  "hesha": 3728,
  "\u2581existence": 3729,
  "\u2581fight": 3730,
  "\u2581gukomeye": 3731,
  "\u2581per": 3732,
  "\u2581wundi": 3733,
  "\u2581Mexico": 3734,
  "\u2581Tim": 3735,
  "\u2581bameze": 3736,
  "\u2581destroy": 3737,
  "\u2581dukwiriye": 3738,
  "byi": 3739,
  "cu": 3740,
  "\u2581konqueror": 3741,
  "\u2581kuganira": 3742,
  "\u2581l": 3743,
  "\u2581practices": 3744,
  "\u2581situations": 3745,
  "\u2581warned": 3746,
  "indi": 3747,
  "umwami": 3748,
  "\u2581Awake": 3749,
  "\u2581History": 3750,
  "\u2581Igisubizo": 3751,
  "\u2581Import": 3752,
  "\u2581table": 3753,
  "\u2581tasks": 3754,
  "ncuro": 3755,
  "\u2581Internet": 3756,
  "\u2581Times": 3757,
  "\u2581amadini": 3758,
  "il": 3759,
  "\u2581Check": 3760,
  "\u2581Nzu": 3761,
  "\u2581bitekerezo": 3762,
  "\u2581delight": 3763,
  "\u2581imagine": 3764,
  "\u2581yagiraga": 3765,
  "\u258110]": 3766,
  "\u2581Ihindurangano": 3767,
  "\u2581overseers": 3768,
  "\u2581presented": 3769,
  "\u2581viewed": 3770,
  "\u2581Abefeso": 3771,
  "\u2581attending": 3772,
  "\u2581bufite": 3773,
  "\u2581fulfill": 3774,
  "\u2581iy": 3775,
  "\u2581putt": 3776,
  "\u2581race": 3777,
  "\u2581sick": 3778,
  "\u2581suffered": 3779,
  "\u2581treat": 3780,
  "\u2581Ki": 3781,
  "\u2581bapfuye": 3782,
  "\u2581bike": 3783,
  "\u2581objects": 3784,
  "\u2581observed": 3785,
  "\u2581reasonable": 3786,
  "\u2581umwaka": 3787,
  "imiryango": 3788,
  "pe": 3789,
  "\u2581akomeza": 3790,
  "\u2581business": 3791,
  "\u2581preached": 3792,
  "\u2581Mwami": 3793,
  "\u2581evening": 3794,
  "po": 3795,
  "\u2581Bite": 3796,
  "\u2581communication": 3797,
  "\u2581Bidasanzwe": 3798,
  "\u2581Kigiriki": 3799,
  "\u2581commanded": 3800,
  "\u2581ita": 3801,
  "gize": 3802,
  "\u2581Iyinjiza": 3803,
  "\u2581amwe": 3804,
  "\u2581dukomeze": 3805,
  "\u2581universe": 3806,
  "ashakaga": 3807,
  "mwene": 3808,
  "umunsi": 3809,
  "\u2581Configure": 3810,
  "\u2581Gikora": 3811,
  "\u2581Gutegeka": 3812,
  "\u2581Impugukirwa": 3813,
  "\u2581Take": 3814,
  "\u2581answered": 3815,
  "\u2581duhuje": 3816,
  "\u2581imeli": 3817,
  "\u2581moving": 3818,
  "+": 3819,
  "\u2581convinced": 3820,
  "\u2581foreign": 3821,
  "\u2581ihinduka": 3822,
  "\u258141": 3823,
  "\u2581APAREYE": 3824,
  "\u2581Ecclesiastes": 3825,
  "\u2581Right": 3826,
  "\u2581Videwo": 3827,
  "\u2581kuyobora": 3828,
  "\u2581tuta": 3829,
  "\u2581watch": 3830,
  "\u2581yerekeza": 3831,
  "\u2581consequences": 3832,
  "\u2581homes": 3833,
  "\u2581rishobora": 3834,
  "\u2581sight": 3835,
  "\u2581unique": 3836,
  "keyboard": 3837,
  "\u2581bikurikira": 3838,
  "\u2581gushikama": 3839,
  "\u2581refused": 3840,
  "\u2581white": 3841,
  "hawe": 3842,
  "\u2581Memorial": 3843,
  "\u2581Date": 3844,
  "\u2581La": 3845,
  "\u2581Nuko": 3846,
  "\u2581imyizerere": 3847,
  "\u2581rwabo": 3848,
  "\u2581Mat": 3849,
  "\u2581army": 3850,
  "\u2581effective": 3851,
  "\u2581global": 3852,
  "\u2581listed": 3853,
  "\u2581seeing": 3854,
  "Short": 3855,
  "nteko": 3856,
  "sh": 3857,
  "\u2581Isaac": 3858,
  "\u2581Ububikokoporora": 3859,
  "\u2581commands": 3860,
  "\u2581gukomera": 3861,
  "\u2581zeal": 3862,
  "\u2581boy": 3863,
  "\u2581expressions": 3864,
  "\u2581gifts": 3865,
  "\u2581gushyikirana": 3866,
  "\u2581gusubiza": 3867,
  "\u2581Nyobozi": 3868,
  "\u2581attended": 3869,
  "\u2581bottom": 3870,
  "\u2581certificate": 3871,
  "\u2581demonstrate": 3872,
  "\u2581girl": 3873,
  "\u2581nyir": 3874,
  "\u2581placed": 3875,
  "\u2581section": 3876,
  "\u2581shared": 3877,
  "amafaranga": 3878,
  "quite": 3879,
  "\u2581Faith": 3880,
  "\u2581Ibyabaye": 3881,
  "\u2581St": 3882,
  "\u2581finally": 3883,
  "\u2581grateful": 3884,
  "\u2581guide": 3885,
  "\u2581sincere": 3886,
  "\u2581understood": 3887,
  "\u2581valuable": 3888,
  "tura": 3889,
  "\u2581Bwongereza": 3890,
  "\u2581Uruhushya": 3891,
  "\u2581mubiri": 3892,
  "\u2581referred": 3893,
  "\u2581remained": 3894,
  "wu": 3895,
  "\u2581Mar": 3896,
  "\u2581bigishwa": 3897,
  "\u2581butandukanye": 3898,
  "\u2581drawn": 3899,
  "\u2581izi": 3900,
  "\u2581Isinya": 3901,
  "\u2581Matt": 3902,
  "\u2581bombi": 3903,
  "\u2581bringing": 3904,
  "\u2581ishingiye": 3905,
  "\u2581kuzi": 3906,
  "\u2581kwiyongera": 3907,
  "\u2581permissions": 3908,
  "\u2581row": 3909,
  "\u2581vendor": 3910,
  "ama": 3911,
  "erekana": 3912,
  "undi": 3913,
  "\u2581Umugabo": 3914,
  "\u2581ahandi": 3915,
  "\u2581hidden": 3916,
  "\u2581ibitambo": 3917,
  "\u2581indanga": 3918,
  "\u2581Canada": 3919,
  "\u2581banga": 3920,
  "\u2581leading": 3921,
  "unzwe": 3922,
  "\u2581119": 3923,
  "\u2581Tangi": 3924,
  "\u2581reveal": 3925,
  "\u2581views": 3926,
  "\u2581Govern": 3927,
  "\u2581bitatu": 3928,
  "\u2581gukura": 3929,
  "\u2581rukomeye": 3930,
  "\u2581umukumbi": 3931,
  "at": 3932,
  "muri": 3933,
  "\u258132.": 3934,
  "\u2581describes": 3935,
  "\u2581o": 3936,
  "\u2581yumvaga": 3937,
  "so": 3938,
  "\u2581babigiranye": 3939,
  "\u2581concerned": 3940,
  "\u2581reward": 3941,
  "\u2581umumaro": 3942,
  "\u2581Editor": 3943,
  "\u2581comments": 3944,
  "\u2581gikwiriye": 3945,
  "\u2581miryango": 3946,
  "\u2581pursue": 3947,
  "\u2581zishingiye": 3948,
  "\u2581Byahishuwe": 3949,
  "\u2581confident": 3950,
  "\u2581icyifuzo": 3951,
  "\u2581late": 3952,
  "\u2581total": 3953,
  "nyi": 3954,
  "\u2581identify": 3955,
  "\u2581Imyanya": 3956,
  "\u2581User": 3957,
  "\u2581energy": 3958,
  "\u2581room": 3959,
  "hari": 3960,
  "\u258155": 3961,
  "\u2581Young": 3962,
  "\u2581danger": 3963,
  "\u2581ibimenyetso": 3964,
  "\u2581letters": 3965,
  "\u2581muco": 3966,
  "\u2581patience": 3967,
  "\u2581Background": 3968,
  "\u2581Imizi": 3969,
  "\u2581Yego": 3970,
  "\u2581cope": 3971,
  "\u2581elderly": 3972,
  "\u2581mubi": 3973,
  "\u2581ntiby": 3974,
  "\u2581translated": 3975,
  "agaragaje": 3976,
  "quot": 3977,
  "\u2581@": 3978,
  "\u2581End": 3979,
  "\u2581Rusange": 3980,
  "\u2581bagaragu": 3981,
  "\u2581behavior": 3982,
  "\u2581byiyumvo": 3983,
  "\u2581continues": 3984,
  "\u2581ibarirwa": 3985,
  "\u2581spread": 3986,
  "like": 3987,
  "nqueror": 3988,
  "\u2581abanyeshuri": 3989,
  "\u2581acceptable": 3990,
  "\u2581bigenda": 3991,
  "\u2581bunyuranye": 3992,
  "\u2581rifite": 3993,
  "ubundi": 3994,
  "\u258142": 3995,
  "\u2581Africa": 3996,
  "\u2581agree": 3997,
  "\u2581c": 3998,
  "\u2581prospect": 3999,
  "\u2581umeze": 4000,
  "\u2581umukozi": 4001,
  "\u2581youth": 4002,
  "imibabaro": 4003,
  "ingorane": 4004,
  "\u2581akwiriye": 4005,
  "\u2581direct": 4006,
  "\u2581gusobanura": 4007,
  "\u2581yaduhaye": 4008,
  "\u2581becomes": 4009,
  "\u2581increase": 4010,
  "\u2581ingororano": 4011,
  "\u2581perform": 4012,
  "\u2581users": 4013,
  "\u2581workers": 4014,
  "\u258118]": 4015,
  "\u2581lose": 4016,
  "ikibazo": 4017,
  "pa": 4018,
  "umubabaro": 4019,
  "\u2581Heb": 4020,
  "\u2581amazu": 4021,
  "\u2581kimuntu": 4022,
  "\u2581responsible": 4023,
  "abigishwa": 4024,
  "tw": 4025,
  "\u2581Preferences": 4026,
  "\u2581Us": 4027,
  "\u2581aki": 4028,
  "\u2581approval": 4029,
  "\u2581invitation": 4030,
  "\u2581module": 4031,
  "\u2581mwanzuro": 4032,
  "\u2581statement": 4033,
  "\u2581volume": 4034,
  "\u2581developed": 4035,
  "\u2581dushaka": 4036,
  "\u2581gods": 4037,
  "\u2581kubwira": 4038,
  "\u2581CUPS": 4039,
  "\u2581mike": 4040,
  "\u2581reached": 4041,
  "\u2581utekereza": 4042,
  "\u2581mark": 4043,
  "\u2581minister": 4044,
  "\u2581zayo": 4045,
  "responsibilities": 4046,
  "\u2581bwimbitse": 4047,
  "\u2581major": 4048,
  "\u2581pre": 4049,
  "\u2581secular": 4050,
  "\u2581tegeko": 4051,
  "\u2581widget": 4052,
  "\u2581Ibirango": 4053,
  "\u2581gushyigikira": 4054,
  "\u2581jya": 4055,
  "\u2581method": 4056,
  "\u2581teaches": 4057,
  "\u2581zawe": 4058,
  "Amategeko": 4059,
  "igitabo": 4060,
  "terwa": 4061,
  "\u2581Rom": 4062,
  "\u2581bisa": 4063,
  "\u2581kwishimira": 4064,
  "V": 4065,
  "ibitabo": 4066,
  "rwo": 4067,
  "rya": 4068,
  "\u2581Bish": 4069,
  "\u2581Pet": 4070,
  "\u2581eye": 4071,
  "\u2581itandukanye": 4072,
  "ity": 4073,
  "\u2581Kuzana": 4074,
  "\u2581Me": 4075,
  "\u2581attribute": 4076,
  "\u2581buttons": 4077,
  "\u2581ikwiriye": 4078,
  "\u2581izuba": 4079,
  "\u2581profile": 4080,
  "shyigikira": 4081,
  "\u2581Abami": 4082,
  "\u2581Germany": 4083,
  "\u2581Ububikoshingiro": 4084,
  "\u2581improve": 4085,
  "\u2581model": 4086,
  "\u2581refers": 4087,
  "\u2581rules": 4088,
  "\u2581student": 4089,
  "\u2581ukiranuka": 4090,
  "\u2581Twebwe": 4091,
  "\u2581instruction": 4092,
  "\u2581wine": 4093,
  "ashoboye": 4094,
  "buka": 4095,
  "shimishwa": 4096,
  "un": 4097,
  "\u2581Sea": 4098,
  "\u2581directly": 4099,
  "\u2581gikorwa": 4100,
  "\u2581master": 4101,
  "\u2581social": 4102,
  "cy": 4103,
  "soma": 4104,
  "\u25819]": 4105,
  "\u2581De": 4106,
  "\u2581Deuteronomy": 4107,
  "\u2581INDIRIMBO": 4108,
  "\u2581TO": 4109,
  "\u2581escape": 4110,
  "\u2581extent": 4111,
  "\u2581society": 4112,
  "\u2581Akazu": 4113,
  "\u2581Ikimenyetso": 4114,
  "\u2581Ikomeye": 4115,
  "\u2581SONGS": 4116,
  "\u2581amakuru": 4117,
  "\u2581bavuze": 4118,
  "\u2581concerning": 4119,
  "\u2581consideration": 4120,
  "\u2581goes": 4121,
  "\u2581numbers": 4122,
  ":\"": 4123,
  "\u258148": 4124,
  "\u2581Ri": 4125,
  "\u2581occur": 4126,
  "\u2581papa": 4127,
  "bera": 4128,
  "umunyabwenge": 4129,
  "\u2581Files": 4130,
  "\u2581Man": 4131,
  "\u2581Ps": 4132,
  "\u2581bisobanuro": 4133,
  "\u2581emotional": 4134,
  "\u2581fit": 4135,
  "\u2581ntumwa": 4136,
  "\u25811919": 4137,
  "\u2581bahura": 4138,
  "\u2581butegetsi": 4139,
  "\u2581hide": 4140,
  "\u2581imyenda": 4141,
  "\u2581isohozwa": 4142,
  "\u2581refer": 4143,
  "\u2581relatives": 4144,
  "\u2581ryabo": 4145,
  "\u2581secret": 4146,
  "\u2581umuhanga": 4147,
  "\u2581welcome": 4148,
  "tekereza": 4149,
  "\u2581akoresheje": 4150,
  "\u2581applied": 4151,
  "\u2581basaga": 4152,
  "\u2581listening": 4153,
  "\u2581teacher": 4154,
  "\u2581ukwiriye": 4155,
  "\u2581uruhe": 4156,
  "\u2581badatunganye": 4157,
  "\u2581disk": 4158,
  "\u2581igihano": 4159,
  "\u2581matorero": 4160,
  "\u2581ruler": 4161,
  "icyubahiro": 4162,
  "\u258190": 4163,
  "\u2581Amabwiriza": 4164,
  "\u2581Umu": 4165,
  "\u2581babonaga": 4166,
  "\u2581eshatu": 4167,
  "\u2581ingorane": 4168,
  "\u2581merely": 4169,
  "\u2581offspring": 4170,
  "\u2581overcome": 4171,
  "\u2581reka": 4172,
  "\u2581remind": 4173,
  "\u2581youths": 4174,
  "im": 4175,
  "ubutumwa": 4176,
  "\u2581Server": 4177,
  "\u2581bashoboye": 4178,
  "\u2581mouth": 4179,
  "\u2581mpano": 4180,
  "\u2581utari": 4181,
  "\u2581Kuvamo": 4182,
  "\u2581Un": 4183,
  "\u2581bagabo": 4184,
  "\u2581birashoboka": 4185,
  "\u2581bugira": 4186,
  "\u2581bwami": 4187,
  "\u2581cyaha": 4188,
  "\u2581encouraging": 4189,
  "\u2581kuzabaho": 4190,
  "\u2581nijoro": 4191,
  "gura": 4192,
  "\u2581Galatians": 4193,
  "\u2581believed": 4194,
  "\u2581kumara": 4195,
  "\u2581ntitw": 4196,
  "\u2581sounds": 4197,
  "RA": 4198,
  "nd": 4199,
  "\u2581affected": 4200,
  "\u2581buza": 4201,
  "\u2581map": 4202,
  "Ijambo": 4203,
  "rusheho": 4204,
  "\u2581Base": 4205,
  "\u2581Exodus": 4206,
  "\u2581Ikibazo": 4207,
  "\u2581Ishuri": 4208,
  "\u2581atangira": 4209,
  "\u2581gazeti": 4210,
  "\u2581guhinduka": 4211,
  "\u2581indicate": 4212,
  "\u2581reports": 4213,
  "\u2581territory": 4214,
  "fata": 4215,
  "shishikazwa": 4216,
  "ul": 4217,
  "\u2581Gospel": 4218,
  "\u2581Munar": 4219,
  "\u2581bakoraga": 4220,
  "\u2581greatly": 4221,
  "\u2581grew": 4222,
  "\u2581nkenerwa": 4223,
  "\u2581undo": 4224,
  "\u2581Cor": 4225,
  "\u2581Kugarura": 4226,
  "\u2581bida": 4227,
  "\u2581center": 4228,
  "\u2581fruitage": 4229,
  "When": 4230,
  "incungu": 4231,
  "\u2581Rusi": 4232,
  "\u2581appointment": 4233,
  "\u2581byabaga": 4234,
  "\u2581evident": 4235,
  "\u2581manifest": 4236,
  "\u2581permanently": 4237,
  "\u2581somo": 4238,
  "imyifatire": 4239,
  "jw": 4240,
  "\u258180": 4241,
  "\u2581Amakadiri": 4242,
  "\u2581accomplish": 4243,
  "\u2581batanga": 4244,
  "\u2581existing": 4245,
  "\u2581friendship": 4246,
  "\u2581imbaga": 4247,
  "\u2581parse": 4248,
  "\u2581Among": 4249,
  "\u2581adds": 4250,
  "\u2581babwiriza": 4251,
  "\u2581immorality": 4252,
  "\u2581loss": 4253,
  "\u2581risobanura": 4254,
  "\u2581ukunda": 4255,
  "\u2581(_": 4256,
  "\u2581France": 4257,
  "\u2581discussion": 4258,
  "\u2581eternal": 4259,
  "\u2581ika": 4260,
  "\u2581judge": 4261,
  "\u2581kwakira": 4262,
  "igomba": 4263,
  "nze": 4264,
  "\u2581General": 4265,
  "\u2581Ko": 4266,
  "\u2581goodness": 4267,
  "\u2581Amazina": 4268,
  "\u2581Group": 4269,
  "\u2581Ifashayinjira": 4270,
  "\u2581Umutekano": 4271,
  "\u2581insight": 4272,
  "\u2581issues": 4273,
  "\u2581pleasure": 4274,
  "\u258126]": 4275,
  "\u2581Co": 4276,
  "\u2581Family": 4277,
  "\u2581abapfuye": 4278,
  "\u2581assist": 4279,
  "\u2581features": 4280,
  "\u2581looked": 4281,
  "\u2581tudashidikanya": 4282,
  "Aba": 4283,
  "tuma": 4284,
  "\u2581Akenshi": 4285,
  "\u2581Tab": 4286,
  "\u2581Umwe": 4287,
  "\u2581bafashe": 4288,
  "\u2581carried": 4289,
  "\u2581circuit": 4290,
  "\u2581commandments": 4291,
  "\u2581discussed": 4292,
  "\u2581indicates": 4293,
  "\u2581kiliziya": 4294,
  "name": 4295,
  "ter": 4296,
  "\u2581August": 4297,
  "\u2581byagiye": 4298,
  "\u2581contribute": 4299,
  "\u2581login": 4300,
  "\u2581mwinshi": 4301,
  "\u2581performed": 4302,
  "\u2581quit": 4303,
  "\u2581tuga": 4304,
  "ci": 4305,
  "\u2581Gusimbura": 4306,
  "\u2581bat": 4307,
  "\u2581claim": 4308,
  "\u2581com": 4309,
  "\u2581filozofiya": 4310,
  "\u2581measure": 4311,
  "\u2581yindi": 4312,
  "son": 4313,
  "\u2581bakwiriye": 4314,
  "\u2581react": 4315,
  "\u2581riches": 4316,
  "\u2581site": 4317,
  "\u2581successful": 4318,
  "\u2581umwigishwa": 4319,
  "bajije": 4320,
  "indwara": 4321,
  "\u2581Custom": 4322,
  "\u2581Gushyira": 4323,
  "\u2581Paradizo": 4324,
  "\u2581Umutuku": 4325,
  "\u2581Zoom": 4326,
  "\u2581lie": 4327,
  "\u2581t": 4328,
  "sobanuramiterere": 4329,
  "\u2581creatures": 4330,
  "\u2581gutangira": 4331,
  "\u2581memo": 4332,
  "\u2581unable": 4333,
  "\u2581yateye": 4334,
  "\u2581zanjye": 4335,
  "Igiheburayo": 4336,
  "J": 4337,
  "\u2581July": 4338,
  "\u2581Kugaragara": 4339,
  "\u2581aspects": 4340,
  "\u2581gold": 4341,
  "\u2581ibigirwamana": 4342,
  "\u2581temporary": 4343,
  "\u2581Ibiranga": 4344,
  "\u2581feature": 4345,
  "\u2581particularly": 4346,
  "\u2581Document": 4347,
  "\u2581notice": 4348,
  "\u2581secure": 4349,
  "\u2581separate": 4350,
  "\u2581sinful": 4351,
  "\u2581yamu": 4352,
  "W": 4353,
  "\u2581car": 4354,
  "\u2581drop": 4355,
  "\u2581kwica": 4356,
  "inyamaswa": 4357,
  "\u2581Day": 4358,
  "\u2581MN": 4359,
  "\u2581big": 4360,
  "\u2581biteguye": 4361,
  "\u2581chose": 4362,
  "\u2581cursor": 4363,
  "0": 4364,
  "\u2581yasabye": 4365,
  "\u2581yihariye": 4366,
  "\u2581yishimira": 4367,
  "munara": 4368,
  "zo": 4369,
  "\u2581Children": 4370,
  "\u2581Yera": 4371,
  "\u2581aside": 4372,
  "\u2581caring": 4373,
  "\u2581kigo": 4374,
  "\u2581kirwa": 4375,
  "\u2581minds": 4376,
  "\u2581ncuro": 4377,
  "\u2581thousand": 4378,
  "isezerano": 4379,
  "\u2581careful": 4380,
  "\u2581road": 4381,
  "\u2581rubanda": 4382,
  "\u2581Being": 4383,
  "\u2581Teach": 4384,
  "\u258117]": 4385,
  "\u2581byiringiro": 4386,
  "\u2581intama": 4387,
  "\u2581tuvuga": 4388,
  "su": 4389,
  "\u2581Testament": 4390,
  "\u2581darkness": 4391,
  "\u2581demons": 4392,
  "\u2581evidently": 4393,
  "\u2581kiba": 4394,
  "\u2581mishyikirano": 4395,
  "\u2581Finally": 4396,
  "\u2581Screen": 4397,
  "\u2581aspect": 4398,
  "\u2581elements": 4399,
  "\u2581hearing": 4400,
  "\u2581imperuka": 4401,
  "\u2581join": 4402,
  "\u2581majyaruguru": 4403,
  "\u2581mazu": 4404,
  "\u2581zealous": 4405,
  "ny": 4406,
  "\u2581cyavuze": 4407,
  "\u2581gukemura": 4408,
  "\u2581indicated": 4409,
  "\u2581media": 4410,
  "\u2581quoted": 4411,
  "\u2581removed": 4412,
  "\u2581Her": 4413,
  "\u2581Imbonerahamwe": 4414,
  "\u2581Isaka": 4415,
  "\u2581appeared": 4416,
  "\u2581configure": 4417,
  "\u2581guhora": 4418,
  "\u2581inyangamugayo": 4419,
  "\u2581praying": 4420,
  "\u2581umupayiniya": 4421,
  "\u2581yuzuye": 4422,
  "\u2581wizerwa": 4423,
  "\u2581Insert": 4424,
  "\u2581eight": 4425,
  "\u2581icyiza": 4426,
  "shya": 4427,
  "\u2581Ibi": 4428,
  "\u2581Properties": 4429,
  "\u2581Under": 4430,
  "\u2581Yoherejwe": 4431,
  "\u2581abayoboke": 4432,
  "\u2581aduha": 4433,
  "\u2581gukoreshwa": 4434,
  "\u2581gukorwa": 4435,
  "\u2581kubafasha": 4436,
  "\u2581undeserved": 4437,
  "jya": 4438,
  "\u2581Ingaruka": 4439,
  "\u2581Toggle": 4440,
  "\u2581aderesi": 4441,
  "\u2581anxiety": 4442,
  "\u2581drive": 4443,
  "\u2581umuriro": 4444,
  "For": 4445,
  "abagabo": 4446,
  "porogaramu": 4447,
  "\u2581mudugudu": 4448,
  "\u2581responded": 4449,
  "saa": 4450,
  "\u2581bifitanye": 4451,
  "\u2581cities": 4452,
  "\u2581ended": 4453,
  "\u2581imbonerahamwe": 4454,
  "id": 4455,
  "umuhungu": 4456,
  "\u2581Send": 4457,
  "\u2581bivuga": 4458,
  "\u2581ibikoresho": 4459,
  "garagaze": 4460,
  "\u258123:": 4461,
  "\u2581authorities": 4462,
  "\u2581bayi": 4463,
  "\u2581numvaga": 4464,
  "\u2581satisfaction": 4465,
  "ch": 4466,
  "rinda": 4467,
  "twa": 4468,
  "\u2581Clear": 4469,
  "\u2581Natwe": 4470,
  "\u2581Paulo": 4471,
  "\u2581Sarah": 4472,
  "\u2581mere": 4473,
  "\u2581operations": 4474,
  "\u2581prophetic": 4475,
  "\u2581web": 4476,
  "ibitsina": 4477,
  "\u2581Kor": 4478,
  "\u2581joyful": 4479,
  "\u2581kurinda": 4480,
  "\u2581verses": 4481,
  "\u2581attack": 4482,
  "\u2581ibitangaza": 4483,
  "\u2581indangakintu": 4484,
  "ibyiringiro": 4485,
  "\u2581Europe": 4486,
  "\u2581amezi": 4487,
  "\u2581drink": 4488,
  "\u2581irari": 4489,
  "\u2581kubabarira": 4490,
  "\u2581privileges": 4491,
  "\u2581rejected": 4492,
  "\u2581ura": 4493,
  "\u2581warm": 4494,
  "\u2581IKIMENYETSO": 4495,
  "\u2581Land": 4496,
  "\u2581Le": 4497,
  "\u2581Location": 4498,
  "\u2581assured": 4499,
  "\u2581endeavor": 4500,
  "\u2581garden": 4501,
  "\u2581helpful": 4502,
  "\u2581ibirenze": 4503,
  "mode": 4504,
  "shobore": 4505,
  "\u2581audio": 4506,
  "\u2581bearing": 4507,
  "\u2581navigation": 4508,
  "\u2581yafashe": 4509,
  "binyejana": 4510,
  "icya": 4511,
  "keneye": 4512,
  "nyije": 4513,
  "\u258125,": 4514,
  "\u2581Umwuka": 4515,
  "\u2581amazina": 4516,
  "\u2581bless": 4517,
  "\u2581frames": 4518,
  "\u2581legal": 4519,
  "\u2581offline": 4520,
  "\u2581primary": 4521,
  "inyuriye": 4522,
  "\u2581Password": 4523,
  "\u2581Zab": 4524,
  "\u2581battle": 4525,
  "\u2581fish": 4526,
  "\u2581outstanding": 4527,
  "\u2581yan": 4528,
  "\u2581yonyine": 4529,
  "vuzwe": 4530,
  "\u258139": 4531,
  "\u2581abiri": 4532,
  "\u2581displaying": 4533,
  "\u2581enemy": 4534,
  "\u2581properties": 4535,
  "\u2581worshipers": 4536,
  "\u2581zifite": 4537,
  "komeje": 4538,
  "kuraho": 4539,
  "yobora": 4540,
  "\u2581wealth": 4541,
  "shimira": 4542,
  "ton": 4543,
  "\u2581Indangakintu": 4544,
  "\u2581Mucukumbuzi": 4545,
  "\u2581bigeze": 4546,
  "\u2581cumi": 4547,
  "\u2581lay": 4548,
  "\u2581raporo": 4549,
  "bwira": 4550,
  "\u2581GDM": 4551,
  "\u2581Robert": 4552,
  "\u2581ayahe": 4553,
  "\u2581court": 4554,
  "\u2581execute": 4555,
  "\u2581kubonera": 4556,
  "\u2581subjects": 4557,
  "\u2581ziba": 4558,
  "\u2581Ikibabaje": 4559,
  "\u2581Papa": 4560,
  "\u2581additional": 4561,
  "\u2581bafitanye": 4562,
  "\u2581byagize": 4563,
  "\u2581ibiganiro": 4564,
  "\u2581medical": 4565,
  "\u2581nearly": 4566,
  "\u2581ryanjye": 4567,
  "\u2581saving": 4568,
  "\u2581temptation": 4569,
  "\u2581worth": 4570,
  "\u2581Gushakisha": 4571,
  "\u2581Nari": 4572,
  "\u2581bakoresheje": 4573,
  "\u2581military": 4574,
  "\u2581nkora": 4575,
  "\u2581obtain": 4576,
  "\u2581resource": 4577,
  "\u2581weeks": 4578,
  "amaraso": 4579,
  "ie": 4580,
  "\u2581Russell": 4581,
  "\u2581asaba": 4582,
  "\u2581causes": 4583,
  "\u2581remaining": 4584,
  "\u2581resist": 4585,
  "\u2581trash": 4586,
  "\u2581umubabaro": 4587,
  "\u2581umugenzuzi": 4588,
  "\u2581utuma": 4589,
  "MB": 4590,
  "ijambo": 4591,
  "\u2581Galeedi": 4592,
  "\u2581andi": 4593,
  "\u2581beloved": 4594,
  "\u2581isoko": 4595,
  "\u2581magana": 4596,
  "\u2581property": 4597,
  "\u2581wide": 4598,
  "\u2581Australia": 4599,
  "\u2581bakuze": 4600,
  "\u2581bubata": 4601,
  "\u2581duce": 4602,
  "\u2581powers": 4603,
  "umugaragu": 4604,
  "\u2581Out": 4605,
  "\u2581babe": 4606,
  "\u2581designed": 4607,
  "\u2581patient": 4608,
  "\u2581reality": 4609,
  "fasha": 4610,
  "fitanye": 4611,
  "\u2581German": 4612,
  "\u2581Shift": 4613,
  "\u2581closely": 4614,
  "\u2581faithfully": 4615,
  "\u2581gutegereza": 4616,
  "\u2581kaminuza": 4617,
  "\u2581organized": 4618,
  "\u2581store": 4619,
  "\u2581train": 4620,
  "My": 4621,
  "bicometse": 4622,
  "\u2581Icyerekezo": 4623,
  "\u2581Switch": 4624,
  "\u2581comment": 4625,
  "\u2581corrupt": 4626,
  "\u2581wanyu": 4627,
  "\u2581wavuze": 4628,
  "\u258143": 4629,
  "\u2581Israelite": 4630,
  "\u2581mountain": 4631,
  "\u2581produced": 4632,
  "\u2581reported": 4633,
  "ubutunzi": 4634,
  "umuriro": 4635,
  "\u2581Hav": 4636,
  "\u2581Up": 4637,
  "\u2581advantage": 4638,
  "\u2581amashuri": 4639,
  "\u2581conversation": 4640,
  "\u2581describe": 4641,
  "\u2581successfully": 4642,
  "\u2581Calendar": 4643,
  "\u2581publication": 4644,
  "\u2581receiving": 4645,
  "hatira": 4646,
  "up": 4647,
  "\u2581(3)": 4648,
  "\u2581Furthermore": 4649,
  "\u2581Imisobekere": 4650,
  "\u2581Run": 4651,
  "\u2581baha": 4652,
  "\u2581harvest": 4653,
  "\u2581ibinyoma": 4654,
  "\u2581imodoka": 4655,
  "\u2581loves": 4656,
  "\u2581studied": 4657,
  "\u2581succeed": 4658,
  "\u2581trained": 4659,
  "\u2581tubwiriza": 4660,
  "\u2581waiting": 4661,
  "ty": 4662,
  "\u2581Dictionary": 4663,
  "\u2581Kinini": 4664,
  "\u2581ingirakamaro": 4665,
  "\u2581Bufaransa": 4666,
  "\u2581Using": 4667,
  "\u2581amateka": 4668,
  "\u2581bizera": 4669,
  "\u2581containing": 4670,
  "\u2581destination": 4671,
  "\u2581munini": 4672,
  "\u2581render": 4673,
  "Umukristo": 4674,
  "vuye": 4675,
  "\u2581200": 4676,
  "\u258129,": 4677,
  "\u2581Abafilipi": 4678,
  "\u2581immoral": 4679,
  "\u2581kwanga": 4680,
  "\u2581wakora": 4681,
  "bagize": 4682,
  "gendana": 4683,
  "\u2581Ibikurikira": 4684,
  "\u2581Inzu": 4685,
  "\u2581Look": 4686,
  "\u2581babaye": 4687,
  "\u2581kuvana": 4688,
  "\u2581tugiye": 4689,
  "akaga": 4690,
  "gere": 4691,
  "\u2581Abana": 4692,
  "\u2581Wenda": 4693,
  "\u2581abashyitsi": 4694,
  "\u2581disease": 4695,
  "\u2581harm": 4696,
  "\u2581replace": 4697,
  "\u25815]": 4698,
  "\u2581Biblical": 4699,
  "\u2581byabayeho": 4700,
  "\u2581duhura": 4701,
  "\u2581recently": 4702,
  "\u2581ubwabo": 4703,
  "huza": 4704,
  "\u2581Kunoza": 4705,
  "\u2581bamenye": 4706,
  "\u2581batangira": 4707,
  "\u2581facts": 4708,
  "\u2581ntu": 4709,
  "\u2581paragarafu": 4710,
  "\u2581writer": 4711,
  "\u2581yashyizeho": 4712,
  "There": 4713,
  "ndi": 4714,
  "twara": 4715,
  "\u2581Uwitwa": 4716,
  "\u2581basenga": 4717,
  "\u2581bishimira": 4718,
  "\u2581daughters": 4719,
  "\u2581determine": 4720,
  "\u2581kwegera": 4721,
  "\u2581opportunities": 4722,
  "\u2581tears": 4723,
  "lu": 4724,
  "out": 4725,
  "\u258134.": 4726,
  "\u2581Gukina": 4727,
  "\u2581Imagine": 4728,
  "\u2581Mika": 4729,
  "\u2581aboneka": 4730,
  "\u2581agera": 4731,
  "\u2581dealings": 4732,
  "\u2581nibura": 4733,
  "\u2581restored": 4734,
  "\u2581stars": 4735,
  "\u2581younger": 4736,
  "\u2581Imisusire": 4737,
  "\u2581cover": 4738,
  "\u2581distress": 4739,
  "\u2581easier": 4740,
  "\u2581f": 4741,
  "\u2581fell": 4742,
  "\u2581promote": 4743,
  "\u2581troubled": 4744,
  "\u2581uburakari": 4745,
  "ian": 4746,
  "\u2581alarm": 4747,
  "\u2581conclude": 4748,
  "\u2581r": 4749,
  "\u2581tubigiranye": 4750,
  "amaso": 4751,
  "gereranywa": 4752,
  "nywe": 4753,
  "\u2581NONEAHA": 4754,
  "\u2581delivered": 4755,
  "\u2581indirimbo": 4756,
  "\u2581kuboneka": 4757,
  "\u2581kuzabona": 4758,
  "\u2581signature": 4759,
  "ikibi": 4760,
  "kora": 4761,
  "size": 4762,
  "\u2581Get": 4763,
  "\u2581Kings": 4764,
  "\u2581applying": 4765,
  "\u2581ban": 4766,
  "\u2581kwawe": 4767,
  "\u2581raise": 4768,
  "banje": 4769,
  "ubumisiyonari": 4770,
  "\u2581Nehemiah": 4771,
  "\u2581Sa": 4772,
  "\u2581Value": 4773,
  "\u2581animal": 4774,
  "\u2581bafata": 4775,
  "\u2581religions": 4776,
  "ling": 4777,
  "\u25812011": 4778,
  "\u2581Kristendomu": 4779,
  "\u2581browser": 4780,
  "\u2581defined": 4781,
  "\u2581ibisabwa": 4782,
  "\u2581ihebuje": 4783,
  "\u2581imeze": 4784,
  "\u2581muhanuzi": 4785,
  "\u2581resolve": 4786,
  "\u2581wongeraho": 4787,
  "\u258126,": 4788,
  "\u2581Mosaic": 4789,
  "\u2581MukusanyaKDE": 4790,
  "\u2581contrary": 4791,
  "\u2581ihumure": 4792,
  "\u2581imigambi": 4793,
  "\u2581uhebuje": 4794,
  "\u2581yajyaga": 4795,
  "erekeranye": 4796,
  "ol": 4797,
  "\u2581Apuleti": 4798,
  "\u2581gone": 4799,
  "\u2581guca": 4800,
  "\u2581gukiza": 4801,
  "\u2581heed": 4802,
  "\u2581tuki": 4803,
  "\u2581yumvise": 4804,
  "ineza": 4805,
  "wi": 4806,
  "\u2581Bu": 4807,
  "\u2581Ibisanzwe": 4808,
  "\u2581bikunze": 4809,
  "\u2581committed": 4810,
  "\u2581dufitanye": 4811,
  "\u2581lies": 4812,
  "\u2581yabivuze": 4813,
  "\u2581Abigishwa": 4814,
  "\u2581Alt": 4815,
  "\u2581Q": 4816,
  "\u2581agenda": 4817,
  "\u2581atuma": 4818,
  "\u2581persons": 4819,
  "\u2581require": 4820,
  "\u2581ubuhamya": 4821,
  "abagaragu": 4822,
  "gt": 4823,
  "\u2581Ihindurangero": 4824,
  "\u2581Kwinjiza": 4825,
  "\u2581RY": 4826,
  "\u2581Replace": 4827,
  "\u2581Trash": 4828,
  "\u2581abi": 4829,
  "\u2581amakenga": 4830,
  "\u2581butuma": 4831,
  "\u2581deeds": 4832,
  "\u2581eating": 4833,
  "\u2581fast": 4834,
  "\u2581ibigeragezo": 4835,
  "\u2581reveals": 4836,
  "\u2581yifuzaga": 4837,
  "ibihuje": 4838,
  "rinde": 4839,
  "\u2581Both": 4840,
  "\u2581Earth": 4841,
  "\u2581Give": 4842,
  "\u2581Regard": 4843,
  "\u2581Think": 4844,
  "\u2581aid": 4845,
  "\u2581appearance": 4846,
  "\u2581assure": 4847,
  "\u2581gathered": 4848,
  "\u2581isaga": 4849,
  "\u2581nabonye": 4850,
  "\u2581neighbors": 4851,
  "ibyaha": 4852,
  "\u2581Abakolosayi": 4853,
  "\u2581Gatolika": 4854,
  "\u2581Never": 4855,
  "\u2581Play": 4856,
  "\u2581Tract": 4857,
  "\u2581bigera": 4858,
  "\u2581bworoshye": 4859,
  "\u2581count": 4860,
  "\u2581duto": 4861,
  "\u2581kirere": 4862,
  "\u2581lasting": 4863,
  "\u2581migisha": 4864,
  "\u2581yasobanuye": 4865,
  "\u2581OF": 4866,
  "\u2581completed": 4867,
  "\u2581god": 4868,
  "\u2581ida": 4869,
  "gendera": 4870,
  "sohoze": 4871,
  "\u258125]": 4872,
  "\u2581companions": 4873,
  "\u2581twebwe": 4874,
  "\u2581ukuboko": 4875,
  "abasaza": 4876,
  "sanga": 4877,
  "\u2581beneficial": 4878,
  "\u2581bit": 4879,
  "\u2581international": 4880,
  "\u2581joined": 4881,
  "\u2581lessons": 4882,
  "\u2581startup": 4883,
  "\u2581wickedness": 4884,
  "\u2581workspace": 4885,
  "Inkoranyamagambo": 4886,
  "inyanja": 4887,
  "\u2581Uburenganzira": 4888,
  "\u2581directed": 4889,
  "\u2581impaka": 4890,
  "\u2581meal": 4891,
  "\u2581mildness": 4892,
  "\u2581ngero": 4893,
  "\u2581sex": 4894,
  "\u2581ubwa": 4895,
  "\u2581violent": 4896,
  "gaho": 4897,
  "\u2581Contact": 4898,
  "\u2581Isi": 4899,
  "\u2581dusoma": 4900,
  "\u2581heartfelt": 4901,
  "\u2581ugu": 4902,
  "pfa": 4903,
  "time": 4904,
  "tse": 4905,
  "urusengero": 4906,
  "\u2581CD": 4907,
  "\u2581Menu": 4908,
  "\u2581Nehemiya": 4909,
  "\u2581bahabwa": 4910,
  "\u2581birimo": 4911,
  "\u2581factors": 4912,
  "\u2581gukorana": 4913,
  "\u2581recognized": 4914,
  "\u2581region": 4915,
  "Look": 4916,
  "ay": 4917,
  "koreshejwe": 4918,
  "\u2581Language": 4919,
  "\u2581Umugore": 4920,
  "\u2581abafite": 4921,
  "\u2581asobanura": 4922,
  "\u2581decide": 4923,
  "\u2581extreme": 4924,
  "\u2581kwinjira": 4925,
  "\u2581likewise": 4926,
  "\u2581pride": 4927,
  "\u2581rugendo": 4928,
  "\u2581target": 4929,
  "\u2581ububiko": 4930,
  "\u2581witnessing": 4931,
  "\u2581zitandukanye": 4932,
  "Ikirenga": 4933,
  "\u25812012": 4934,
  "\u258146": 4935,
  "\u2581bidufasha": 4936,
  "\u2581biterwa": 4937,
  "\u2581deliver": 4938,
  "\u2581intoki": 4939,
  "\u2581playing": 4940,
  "\u2581providing": 4941,
  "\u2581sets": 4942,
  "\u2581speaks": 4943,
  "\u2581tag": 4944,
  "\u2581telling": 4945,
  "kiri": 4946,
  "undo": 4947,
  "\u2581Gushisha": 4948,
  "\u2581Ibijyana": 4949,
  "\u2581essential": 4950,
  "\u2581impressed": 4951,
  "\u2581umunani": 4952,
  "As": 4953,
  "\u2581Explain": 4954,
  "\u2581Paste": 4955,
  "\u2581difference": 4956,
  "\u2581mighty": 4957,
  "\u2581sezerano": 4958,
  "\u2581slaves": 4959,
  "gena": 4960,
  "if": 4961,
  "umuzuko": 4962,
  "\u2581banze": 4963,
  "\u2581butayu": 4964,
  "\u2581exactly": 4965,
  "\u2581illustrate": 4966,
  "\u2581mbega": 4967,
  "\u2581requirements": 4968,
  "\u2581rows": 4969,
  "\u2581story": 4970,
  "\u2581twakora": 4971,
  "\u2581types": 4972,
  "Isezerano": 4973,
  "\u2581WHAT": 4974,
  "\u2581dealing": 4975,
  "\u2581drawing": 4976,
  "\u2581effects": 4977,
  "\u2581kwiyigisha": 4978,
  "\u2581marked": 4979,
  "\u2581ukoresha": 4980,
  "abatambyi": 4981,
  "\u2581Sara": 4982,
  "\u2581calling": 4983,
  "\u2581growth": 4984,
  "\u2581limit": 4985,
  "\u2581reject": 4986,
  "\u2581remains": 4987,
  "\u2581rivuga": 4988,
  "ngo": 4989,
  "\u2581Encyclopedia": 4990,
  "\u2581Ta": 4991,
  "\u2581fearing": 4992,
  "\u2581gisirikare": 4993,
  "\u2581icya": 4994,
  "\u2581iz": 4995,
  "\u2581kikaba": 4996,
  "\u2581kwemerwa": 4997,
  "\u2581ntib": 4998,
  "\u2581trial": 4999,
  "\u2581yatanzwe": 5000,
  "bona": 5001,
  "\u2581beza": 5002,
  "\u2581entertainment": 5003,
  "\u2581gusubira": 5004,
  "\u2581inhabitants": 5005,
  "\u2581iriho": 5006,
  "\u2581leaving": 5007,
  "\u2581mutego": 5008,
  "\u2581ujya": 5009,
  "ISO": 5010,
  "ies": 5011,
  "\u258124;": 5012,
  "\u2581Center": 5013,
  "\u2581Current": 5014,
  "\u2581Try": 5015,
  "\u2581abashakanye": 5016,
  "\u2581creating": 5017,
  "\u2581filename": 5018,
  "\u2581ryacu": 5019,
  "\u2581thank": 5020,
  "\u2581zina": 5021,
  "ism": 5022,
  "\u2581bahanganye": 5023,
  "\u2581inyamaswa": 5024,
  "\u2581yagiriye": 5025,
  "\u2581System": 5026,
  "\u2581bigoye": 5027,
  "\u2581bookmarks": 5028,
  "\u2581dangerous": 5029,
  "\u2581guhita": 5030,
  "\u2581honest": 5031,
  "\u2581restore": 5032,
  "\u2581song": 5033,
  "\u2581abapayiniya": 5034,
  "\u2581bane": 5035,
  "\u2581hurt": 5036,
  "\u2581kwitoza": 5037,
  "\u2581sending": 5038,
  "ukomeza": 5039,
  "\u2581Command": 5040,
  "\u2581Itagi": 5041,
  "\u2581bagenda": 5042,
  "\u2581ijoro": 5043,
  "\u2581kuta": 5044,
  "\u2581printed": 5045,
  "\u2581strengthened": 5046,
  "\u2581switch": 5047,
  "\u2581talking": 5048,
  "fu": 5049,
  "\u2581Learn": 5050,
  "\u2581Project": 5051,
  "\u2581byoroshye": 5052,
  "\u2581divayi": 5053,
  "\u2581guterwa": 5054,
  "\u2581higher": 5055,
  "\u2581instructions": 5056,
  "\u2581sees": 5057,
  "\u2581slow": 5058,
  "baza": 5059,
  "\u2581April": 5060,
  "\u2581Windows": 5061,
  "\u2581played": 5062,
  "\u2581red": 5063,
  "\u2581twavuga": 5064,
  "\u2581yapfuye": 5065,
  "kwiriye": 5066,
  "our": 5067,
  "tumye": 5068,
  "\u2581Ishungura": 5069,
  "\u2581Trac": 5070,
  "\u2581attendance": 5071,
  "\u2581bishimishije": 5072,
  "\u2581formed": 5073,
  "\u2581printing": 5074,
  "\u2581series": 5075,
  "\u2581ubw": 5076,
  "\u2581Giheburayo": 5077,
  "\u2581Ibyahiswemo": 5078,
  "\u2581Tanga": 5079,
  "\u2581decades": 5080,
  "\u2581emotions": 5081,
  "\u2581forces": 5082,
  "\u2581freely": 5083,
  "\u2581kwifuza": 5084,
  "\u2581ugeze": 5085,
  "ine": 5086,
  "tanga": 5087,
  "\u258113]": 5088,
  "\u258127,": 5089,
  "\u2581Second": 5090,
  "\u2581forms": 5091,
  "\u2581ibiro": 5092,
  "\u2581inzoga": 5093,
  "\u2581kill": 5094,
  "\u2581plugin": 5095,
  "\u2581throne": 5096,
  "\u2581tools": 5097,
  "\u2581uda": 5098,
  "\u2581village": 5099,
  "ubucuruzi": 5100,
  "\u2581Information": 5101,
  "\u2581buba": 5102,
  "\u2581clicking": 5103,
  "\u2581kugerageza": 5104,
  "NW": 5105,
  "jwe": 5106,
  "\u2581Latin": 5107,
  "\u2581Network": 5108,
  "\u2581Pharaoh": 5109,
  "\u2581Without": 5110,
  "\u2581apfuye": 5111,
  "\u2581border": 5112,
  "\u2581disabled": 5113,
  "\u2581foundation": 5114,
  "\u2581otherwise": 5115,
  "\u2581programs": 5116,
  "\u2581reply": 5117,
  "\u2581rulership": 5118,
  "\u2581ukugira": 5119,
  "\u2581widow": 5120,
  "urugomo": 5121,
  "\u2581Baroma": 5122,
  "\u2581Gyayo": 5123,
  "\u2581Mata": 5124,
  "\u2581Width": 5125,
  "\u2581blind": 5126,
  "\u2581byanditswe": 5127,
  "\u2581factor": 5128,
  "\u2581kibi": 5129,
  "\u2581rendered": 5130,
  "\u2581risk": 5131,
  "abamarayika": 5132,
  "igice": 5133,
  "ukoresha": 5134,
  "umwimerere": 5135,
  "\u2581Edeni": 5136,
  "\u2581belief": 5137,
  "\u2581community": 5138,
  "\u2581relates": 5139,
  "\u2581scholars": 5140,
  "\u2581scriptures": 5141,
  "\u2581superior": 5142,
  "ibyiyumvo": 5143,
  "\u258134,": 5144,
  "\u2581Ako": 5145,
  "\u2581Birambuye": 5146,
  "\u2581Micah": 5147,
  "\u2581Ngoma": 5148,
  "\u2581Spirit": 5149,
  "\u2581YOU": 5150,
  "\u2581abategetsi": 5151,
  "\u2581barangwa": 5152,
  "\u2581havuga": 5153,
  "\u2581mbwirizamuco": 5154,
  "\u2581provisions": 5155,
  "\u2581umutware": 5156,
  "kurikiza": 5157,
  "\u2581Its": 5158,
  "\u2581Kuvugurura": 5159,
  "\u2581Likewise": 5160,
  "\u2581belong": 5161,
  "\u2581hatred": 5162,
  "\u2581kugufasha": 5163,
  "\u2581star": 5164,
  "\u2581tender": 5165,
  "fi": 5166,
  "umukobwa": 5167,
  "\u2581Intangiriro": 5168,
  "\u2581Last": 5169,
  "\u2581UMWE": 5170,
  "\u2581Yona": 5171,
  "\u2581etc": 5172,
  "\u2581husbands": 5173,
  "\u2581imizi": 5174,
  "\u2581yanze": 5175,
  "impano": 5176,
  "kuba": 5177,
  "\u2581Kiyahudi": 5178,
  "\u2581Michael": 5179,
  "\u2581imihangayiko": 5180,
  "\u2581resources": 5181,
  "imbere": 5182,
  "\u2581Biblia": 5183,
  "\u2581Light": 5184,
  "\u2581ageze": 5185,
  "\u2581armies": 5186,
  "\u2581financial": 5187,
  "\u2581gishya": 5188,
  "\u2581journey": 5189,
  "\u2581ngira": 5190,
  "\u2581tuzaba": 5191,
  "ari": 5192,
  "ikinyejana": 5193,
  "ubwiyandarike": 5194,
  "\u2581Imbariro": 5195,
  "\u2581June": 5196,
  "\u2581babone": 5197,
  "\u2581fields": 5198,
  "\u2581growing": 5199,
  "\u2581itari": 5200,
  "\u2581low": 5201,
  "\u2581nyungu": 5202,
  "\u2581yes": 5203,
  "\u2581Isubiramo": 5204,
  "\u2581across": 5205,
  "\u2581speed": 5206,
  "\u2581trouble": 5207,
  "To": 5208,
  "ibiremwa": 5209,
  "kimara": 5210,
  "\u258166": 5211,
  "\u2581Jye": 5212,
  "\u2581critical": 5213,
  "\u2581fonts": 5214,
  "\u2581glorious": 5215,
  "\u2581treatment": 5216,
  "\u2581united": 5217,
  "\u2581urangwa": 5218,
  "\u2581yandi": 5219,
  "vuge": 5220,
  "\u2581Bidakora": 5221,
  "\u2581Dore": 5222,
  "\u2581Umuryango": 5223,
  "\u2581Web": 5224,
  "\u2581bakundaga": 5225,
  "\u2581dock": 5226,
  "\u2581ideas": 5227,
  "\u2581ntara": 5228,
  "\u2581nyamara": 5229,
  "\u2581pointed": 5230,
  "\u2581seriously": 5231,
  "\u2581zigera": 5232,
  "ins": 5233,
  "\u2581//": 5234,
  "\u25812010": 5235,
  "\u2581Sin": 5236,
  "\u2581abami": 5237,
  "\u2581bookmark": 5238,
  "\u2581cells": 5239,
  "\u2581conventions": 5240,
  "\u2581dictionary": 5241,
  "\u2581kwizihiza": 5242,
  "\u2581loading": 5243,
  "ck": 5244,
  "fa": 5245,
  "igihugu": 5246,
  "imi": 5247,
  "iza": 5248,
  "jyana": 5249,
  "ubushobozi": 5250,
  "\u258129]": 5251,
  "\u258149": 5252,
  "\u2581Welcome": 5253,
  "\u2581atandukanye": 5254,
  "\u2581mwi": 5255,
  "\u2581sword": 5256,
  "\u2581yanga": 5257,
  "\u2581Rwanda": 5258,
  "\u2581double": 5259,
  "\u2581granted": 5260,
  "\u2581island": 5261,
  "\u2581kmail": 5262,
  "\u2581ministers": 5263,
  "\u2581sleep": 5264,
  "abadayimoni": 5265,
  "icishije": 5266,
  "ikirere": 5267,
  "\u2581Has": 5268,
  "\u2581Readers": 5269,
  "\u2581Study": 5270,
  "\u2581Twagombye": 5271,
  "\u2581abanyabyaha": 5272,
  "\u2581abundance": 5273,
  "\u2581ark": 5274,
  "\u2581bitwigisha": 5275,
  "\u2581camp": 5276,
  "\u2581entries": 5277,
  "\u2581hundreds": 5278,
  "\u2581impamyabumenyi": 5279,
  "\u2581kugirira": 5280,
  "\u2581satisfying": 5281,
  "\u2581ubugwaneza": 5282,
  "\u2581umuteguro": 5283,
  "What": 5284,
  "ako": 5285,
  "bonera": 5286,
  "\u2581Draw": 5287,
  "\u2581Farawo": 5288,
  "\u2581Korinto": 5289,
  "\u2581company": 5290,
  "\u2581copies": 5291,
  "\u2581vast": 5292,
  "\u2581wabaga": 5293,
  "\u2581waters": 5294,
  "imbabazi": 5295,
  "shimiye": 5296,
  "\u2581Aziya": 5297,
  "\u2581bavuye": 5298,
  "\u2581bihebuje": 5299,
  "\u2581cares": 5300,
  "\u2581filimi": 5301,
  "\u2581kindly": 5302,
  "\u2581ruhame": 5303,
  "\u2581stopped": 5304,
  "hindura": 5305,
  "ibihe": 5306,
  "\u258151": 5307,
  "\u2581Pharisees": 5308,
  "\u2581ibona": 5309,
  "\u2581tujya": 5310,
  "\u2581ubutabera": 5311,
  "ous": 5312,
  "\u2581Answer": 5313,
  "\u2581Burasirazuba": 5314,
  "\u2581Mother": 5315,
  "\u2581bavugwa": 5316,
  "\u2581gutsinda": 5317,
  "\u2581injustice": 5318,
  "\u2581inyenyeri": 5319,
  "\u2581ukeneye": 5320,
  "TRANSLATORS": 5321,
  "\u2581Jonah": 5322,
  "\u2581applet": 5323,
  "\u2581bagerageza": 5324,
  "\u2581dear": 5325,
  "\u2581keeps": 5326,
  "\u2581mature": 5327,
  "\u2581properly": 5328,
  "hangana": 5329,
  "\u2581Spain": 5330,
  "\u2581akajya": 5331,
  "\u2581commission": 5332,
  "\u2581intwaro": 5333,
  "\u2581kurangwa": 5334,
  "\u2581kwifata": 5335,
  "\u2581terms": 5336,
  "umugambi": 5337,
  "\u2581Am": 5338,
  "\u2581Certificate": 5339,
  "\u2581Every": 5340,
  "\u2581Imeli": 5341,
  "\u2581Umubwiriza": 5342,
  "\u2581released": 5343,
  "\u2581writes": 5344,
  "gwa": 5345,
  "nywa": 5346,
  "\u2581Kumenya": 5347,
  "\u2581afitanye": 5348,
  "\u2581bumvira": 5349,
  "\u2581byatumaga": 5350,
  "\u2581kwera": 5351,
  "\u2581match": 5352,
  "\u2581meditate": 5353,
  "\u2581nini": 5354,
  "\u2581shepherds": 5355,
  "\u2581wedding": 5356,
  "\u25812009": 5357,
  "\u2581East": 5358,
  "\u2581Left": 5359,
  "\u2581Titus": 5360,
  "\u2581abagenzuzi": 5361,
  "\u2581afraid": 5362,
  "\u2581atekereza": 5363,
  "\u2581iburyo": 5364,
  "\u2581incungu": 5365,
  "\u2581shyanga": 5366,
  "eretse": 5367,
  "saba": 5368,
  "urwo": 5369,
  "uw": 5370,
  "\u2581December": 5371,
  "\u2581Eden": 5372,
  "\u2581George": 5373,
  "\u2581XML": 5374,
  "\u2581acted": 5375,
  "\u2581intiti": 5376,
  "\u2581maboko": 5377,
  "\u2581ntibyari": 5378,
  "\u2581quick": 5379,
  "\u2581yigishije": 5380,
  "ingaruka": 5381,
  "\u2581ATARIIGIHARWE": 5382,
  "\u2581Abasaza": 5383,
  "\u2581Service": 5384,
  "\u2581air": 5385,
  "\u2581belongs": 5386,
  "\u2581bundi": 5387,
  "\u2581documentation": 5388,
  "\u2581gushimisha": 5389,
  "\u2581mistakes": 5390,
  "\u2581mountains": 5391,
  "\u2581scale": 5392,
  "\u2581trees": 5393,
  "\u2581tura": 5394,
  "\u2581writings": 5395,
  "\u2581yahanuye": 5396,
  "birometero": 5397,
  "nsanganyamatsiko": 5398,
  "\u2581300": 5399,
  "\u2581Musozi": 5400,
  "\u2581September": 5401,
  "\u2581black": 5402,
  "\u2581length": 5403,
  "\u2581televiziyo": 5404,
  "\u2581unless": 5405,
  "iz": 5406,
  "toza": 5407,
  "\u2581Back": 5408,
  "\u2581England": 5409,
  "\u2581chief": 5410,
  "\u2581constantly": 5411,
  "\u2581install": 5412,
  "\u2581intambwe": 5413,
  "\u2581release": 5414,
  "\u2581survive": 5415,
  "\u2581yabigenje": 5416,
  "\u2581yategetse": 5417,
  "\u2581Grand": 5418,
  "\u2581Ivivuwe": 5419,
  "\u2581abamisiyonari": 5420,
  "\u2581akahe": 5421,
  "\u2581finished": 5422,
  "\u2581indefinite": 5423,
  "\u2581remnant": 5424,
  "\u2581yarimo": 5425,
  "Edit": 5426,
  "RE": 5427,
  "impamvu": 5428,
  "\u2581El": 5429,
  "\u2581Mode": 5430,
  "\u2581babayeho": 5431,
  "\u2581dusaba": 5432,
  "\u2581engage": 5433,
  "\u2581impossible": 5434,
  "\u2581leads": 5435,
  "\u2581listened": 5436,
  "\u2581research": 5437,
  "\u2581rulers": 5438,
  "ifitanye": 5439,
  "\u2581argument": 5440,
  "\u2581biti": 5441,
  "\u2581bumvaga": 5442,
  "\u2581treated": 5443,
  "X": 5444,
  "one": 5445,
  "\u2581Abagalatiya": 5446,
  "\u2581Bidatinze": 5447,
  "\u2581Recall": 5448,
  "\u2581Sad": 5449,
  "\u2581abakene": 5450,
  "\u2581compare": 5451,
  "\u2581drinking": 5452,
  "\u2581poverty": 5453,
  "\u2581significant": 5454,
  "\u2581utyo": 5455,
  "\u2581yigeze": 5456,
  "birwa": 5457,
  "emeye": 5458,
  "uyu": 5459,
  "yatsindagirijwe": 5460,
  "\u2581Contents": 5461,
  "\u2581compared": 5462,
  "\u2581concluded": 5463,
  "\u2581guhera": 5464,
  "\u2581kubika": 5465,
  "\u2581muteguro": 5466,
  "\u2581provision": 5467,
  "\u2581reminder": 5468,
  "\u2581ugenda": 5469,
  "ED": 5470,
  "abaturage": 5471,
  "hura": 5472,
  "mara": 5473,
  "\u2581>.": 5474,
  "\u2581Intambara": 5475,
  "\u2581Yavuze": 5476,
  "\u2581abera": 5477,
  "\u2581akomeye": 5478,
  "\u2581amahuza": 5479,
  "\u2581bunyage": 5480,
  "\u2581contacts": 5481,
  "\u2581heavy": 5482,
  "\u2581itaryarya": 5483,
  "\u2581iyerekwa": 5484,
  "\u2581sit": 5485,
  "\u2581symbolic": 5486,
  "\u2581upright": 5487,
  "afashije": 5488,
  "kikije": 5489,
  "raga": 5490,
  "\u2581Inc": 5491,
  "\u2581bakomeye": 5492,
  "\u2581balanced": 5493,
  "\u2581identified": 5494,
  "\u2581kdm": 5495,
  "\u2581rise": 5496,
  "Jesus": 5497,
  "izina": 5498,
  "tugire": 5499,
  "\u25816]": 5500,
  "\u2581Harimagedoni": 5501,
  "\u2581accomplished": 5502,
  "\u2581batagira": 5503,
  "\u2581carrying": 5504,
  "\u2581construction": 5505,
  "\u2581determination": 5506,
  "\u2581discern": 5507,
  "\u2581involve": 5508,
  "\u2581itanu": 5509,
  "\u2581mikuru": 5510,
  "\u2581rwacu": 5511,
  "abayobozi": 5512,
  "kugira": 5513,
  "nti": 5514,
  "rwanya": 5515,
  "\u258121,": 5516,
  "\u2581Mategeko": 5517,
  "\u2581Path": 5518,
  "\u2581arrow": 5519,
  "\u2581cyagize": 5520,
  "\u2581generation": 5521,
  "\u2581oil": 5522,
  "\u2581silver": 5523,
  "\u2581stake": 5524,
  "\u2581waje": 5525,
  "\u2581weak": 5526,
  "igitangaza": 5527,
  "ite": 5528,
  "\u2581Columbia": 5529,
  "\u2581Elisa": 5530,
  "\u2581Maze": 5531,
  "\u2581bakorana": 5532,
  "\u2581wars": 5533,
  "\u2581Armageddon": 5534,
  "\u2581Students": 5535,
  "\u2581rebellion": 5536,
  "dakomeza": 5537,
  "pp": 5538,
  "\u2581Selection": 5539,
  "\u2581akamenyero": 5540,
  "\u2581assistance": 5541,
  "\u2581bihagije": 5542,
  "\u2581discernment": 5543,
  "\u2581makoraniro": 5544,
  "\u2581misozi": 5545,
  "\u2581missing": 5546,
  "\u2581mpuzamahanga": 5547,
  "\u2581private": 5548,
  "\u2581systems": 5549,
  "kazi": 5550,
  "ranga": 5551,
  "\u25812000": 5552,
  "\u2581Nathan": 5553,
  "\u2581Nzeri": 5554,
  "\u2581Thessalonians": 5555,
  "\u2581bavugaga": 5556,
  "\u2581blocks": 5557,
  "\u2581kumera": 5558,
  "\u2581mbuto": 5559,
  "\u2581moment": 5560,
  "\u2581mugambi": 5561,
  "abakobwa": 5562,
  "akazi": 5563,
  "avugaga": 5564,
  "turutse": 5565,
  "\u2581American": 5566,
  "\u2581Nazi": 5567,
  "\u2581firmly": 5568,
  "\u2581igazeti": 5569,
  "\u2581offers": 5570,
  "ary": 5571,
  "\u2581CVS": 5572,
  "\u2581Ubuturo": 5573,
  "\u2581baho": 5574,
  "\u2581balance": 5575,
  "\u2581binyuranye": 5576,
  "\u2581contained": 5577,
  "\u2581highly": 5578,
  "\u2581illness": 5579,
  "\u2581lower": 5580,
  "\u2581nabaga": 5581,
  "\u2581straight": 5582,
  "\u2581uru": 5583,
  "Save": 5584,
  "not": 5585,
  "umuna": 5586,
  "\u2581Ntoya": 5587,
  "\u2581cost": 5588,
  "\u2581dwell": 5589,
  "\u2581sought": 5590,
  "Keep": 5591,
  "abasomyi": 5592,
  "ishyaka": 5593,
  "\u2581Misiri": 5594,
  "\u2581Vuba": 5595,
  "\u2581amarira": 5596,
  "\u2581authentication": 5597,
  "\u2581conflict": 5598,
  "\u2581happens": 5599,
  "\u2581http": 5600,
  "\u2581ifasi": 5601,
  "\u2581kuzajya": 5602,
  "\u2581screenshot": 5603,
  "kiza": 5604,
  "sobanura": 5605,
  "\u258116]": 5606,
  "\u2581Ibyahisemo": 5607,
  "\u2581Pentecost": 5608,
  "\u2581Sometimes": 5609,
  "\u2581Sovereign": 5610,
  "\u2581Tegereza": 5611,
  "\u2581abatambyi": 5612,
  "\u2581gutega": 5613,
  "\u2581hate": 5614,
  "\u2581imaze": 5615,
  "\u2581iwabo": 5616,
  "\u2581lying": 5617,
  "\u2581mild": 5618,
  "\u2581orudinateri": 5619,
  "\u2581remarkable": 5620,
  "\u2581reminded": 5621,
  "\u2581seconds": 5622,
  "\u2581spouse": 5623,
  "\u2581willingly": 5624,
  "Umu": 5625,
  "ng": 5626,
  "nk": 5627,
  "os": 5628,
  "\u2581French": 5629,
  "\u2581ISEGONDA": 5630,
  "\u2581Ibyinjijwe": 5631,
  "\u2581Ubururu": 5632,
  "\u2581desired": 5633,
  "\u2581grown": 5634,
  "\u2581inhabited": 5635,
  "\u2581mahoro": 5636,
  "\u2581mitekerereze": 5637,
  "\u2581printer": 5638,
  "\u2581supply": 5639,
  "andi": 5640,
  "hamagara": 5641,
  "\u2581Amajwi": 5642,
  "\u2581abuse": 5643,
  "\u2581buy": 5644,
  "\u2581dark": 5645,
  "\u2581kunesha": 5646,
  "\u2581kwihitiramo": 5647,
  "\u2581literal": 5648,
  "\u2581majyepfo": 5649,
  "\u2581mushya": 5650,
  "\u2581ntibari": 5651,
  "\u2581wilderness": 5652,
  "j": 5653,
  "vuga": 5654,
  "\u2581Baheburayo": 5655,
  "\u2581Blurb": 5656,
  "\u2581Ndi": 5657,
  "\u2581October": 5658,
  "\u2581commit": 5659,
  "\u2581cry": 5660,
  "\u2581duhabwa": 5661,
  "\u2581habits": 5662,
  "\u2581kidini": 5663,
  "\u2581meaningful": 5664,
  "\u2581represent": 5665,
  "\u2581stress": 5666,
  "\u2581walked": 5667,
  "akarere": 5668,
  "icyizere": 5669,
  "menya": 5670,
  "riza": 5671,
  "with": 5672,
  "\u25811999": 5673,
  "\u2581Abavandimwe": 5674,
  "\u2581Akamenyetso": 5675,
  "\u2581URI": 5676,
  "\u2581Yoh": 5677,
  "\u2581board": 5678,
  "\u2581ignored": 5679,
  "\u2581ikosa": 5680,
  "\u2581pleased": 5681,
  "\u2581ryahinduwemo": 5682,
  "\u2581yongeye": 5683,
  "amezi": 5684,
  "hereye": 5685,
  "\u2581Gushoboza": 5686,
  "\u2581Kwi": 5687,
  "\u2581bashya": 5688,
  "\u2581dukorera": 5689,
  "\u2581gitekerezo": 5690,
  "\u2581increased": 5691,
  "\u2581newly": 5692,
  "\u2581stone": 5693,
  "\u2581treasure": 5694,
  "ibibi": 5695,
  "korera": 5696,
  "\u2581Icyumweru": 5697,
  "\u2581Mama": 5698,
  "\u2581Parents": 5699,
  "\u2581Ubuso": 5700,
  "\u2581abundant": 5701,
  "\u2581differ": 5702,
  "\u2581gutangaza": 5703,
  "\u2581interface": 5704,
  "\u2581lt": 5705,
  "\u2581njya": 5706,
  "\u2581popular": 5707,
  "\u2581yasezeranyije": 5708,
  "iragaragara": 5709,
  "\u2581Knorr": 5710,
  "\u2581Lot": 5711,
  "\u2581Messianic": 5712,
  "\u2581Mucapyi": 5713,
  "\u2581Surely": 5714,
  "\u2581equal": 5715,
  "\u2581ibumoso": 5716,
  "\u2581replied": 5717,
  "\u2581struggle": 5718,
  "\u2581ubwiza": 5719,
  "file": 5720,
  "ful": 5721,
  "guye": 5722,
  "\u2581Abakoresha": 5723,
  "\u2581January": 5724,
  "\u2581Kugeza": 5725,
  "\u2581bushake": 5726,
  "\u2581communicate": 5727,
  "\u2581miriyari": 5728,
  "\u2581spirituality": 5729,
  "\u2581ugereranyije": 5730,
  "\u2581witnesses": 5731,
  "gereranyije": 5732,
  "kwa": 5733,
  "tega": 5734,
  "\u2581Abatesalonike": 5735,
  "\u2581European": 5736,
  "\u2581choosing": 5737,
  "\u2581considering": 5738,
  "\u2581gratitude": 5739,
  "\u2581occasions": 5740,
  "\u2581severe": 5741,
  "\u2581umusore": 5742,
  "\u2581utunganye": 5743,
  "ibyabaye": 5744,
  "zagira": 5745,
  "\u2581Changes": 5746,
  "\u2581Format": 5747,
  "\u2581IMAP": 5748,
  "\u2581amasomo": 5749,
  "\u2581external": 5750,
  "\u2581hundred": 5751,
  "\u2581kuvuka": 5752,
  "\u2581muvandimwe": 5753,
  "\u2581telefoni": 5754,
  "\u2581tsinda": 5755,
  "\u2581uyobora": 5756,
  "\u2581variable": 5757,
  "ia": 5758,
  "rira": 5759,
  "subiza": 5760,
  "tazigera": 5761,
  "tegereje": 5762,
  "umuteguro": 5763,
  "wo": 5764,
  "zatuma": 5765,
  "\u258144.": 5766,
  "\u2581Ab": 5767,
  "\u2581bakagira": 5768,
  "\u2581ihame": 5769,
  "\u2581kwitwa": 5770,
  "\u2581surprise": 5771,
  "\u2581ubwayo": 5772,
  "\u2581yerekeje": 5773,
  "bwa": 5774,
  "ishimiye": 5775,
  "mbu": 5776,
  "\u2581ahanini": 5777,
  "\u2581bashyira": 5778,
  "\u2581bound": 5779,
  "\u2581discovered": 5780,
  "\u2581gusingiza": 5781,
  "\u2581inzara": 5782,
  "\u2581kirimo": 5783,
  "\u2581mbaraga": 5784,
  "\u2581multiple": 5785,
  "\u2581tumenya": 5786,
  "No": 5787,
  "ja": 5788,
  "total": 5789,
  "\u2581Baal": 5790,
  "\u2581Ibimenyetso": 5791,
  "\u2581Log": 5792,
  "\u2581bamenya": 5793,
  "\u2581byera": 5794,
  "\u2581encoding": 5795,
  "\u2581familiar": 5796,
  "\u2581identity": 5797,
  "\u2581ikiganiro": 5798,
  "\u2581im": 5799,
  "\u2581pagan": 5800,
  "\u2581serves": 5801,
  "\u2581travel": 5802,
  "ical": 5803,
  "ut": 5804,
  "\u2581Visit": 5805,
  "\u2581altar": 5806,
  "\u2581basura": 5807,
  "\u2581documents": 5808,
  "\u2581kwigomwa": 5809,
  "\u2581nagiye": 5810,
  "\u2581script": 5811,
  "\u2581utangire": 5812,
  "great": 5813,
  "vutse": 5814,
  "\u2581%1": 5815,
  "\u25812008": 5816,
  "\u2581Any": 5817,
  "\u2581Inama": 5818,
  "\u2581inheritance": 5819,
  "\u2581kiza": 5820,
  "\u2581nine": 5821,
  "\u2581north": 5822,
  "\u2581proof": 5823,
  "\u2581review": 5824,
  "\u2581selfish": 5825,
  "\u2581stood": 5826,
  "\u2581touched": 5827,
  "ESE": 5828,
  "jyanye": 5829,
  "ran": 5830,
  "\u2581International": 5831,
  "\u2581Kuko": 5832,
  "\u2581declare": 5833,
  "\u2581gihamya": 5834,
  "\u2581ought": 5835,
  "\u2581twiga": 5836,
  "\u2581wemera": 5837,
  "bikuye": 5838,
  "\u258124]": 5839,
  "\u2581Esther": 5840,
  "\u2581Flood": 5841,
  "\u2581Umwirondoro": 5842,
  "\u2581amajwi": 5843,
  "\u2581apart": 5844,
  "\u2581iboneka": 5845,
  "\u2581igihamya": 5846,
  "\u2581mvugo": 5847,
  "\u2581tugirana": 5848,
  "riye": 5849,
  "\u25811950": 5850,
  "\u2581Jonathan": 5851,
  "\u2581Tool": 5852,
  "\u2581amavuta": 5853,
  "\u2581attempt": 5854,
  "\u2581biteye": 5855,
  "\u2581byanze": 5856,
  "\u2581courageous": 5857,
  "\u2581echo": 5858,
  "\u2581kwiyegurira": 5859,
  "\u2581launch": 5860,
  "\u2581replaced": 5861,
  "\u2581ryiza": 5862,
  "\u2581uvugwa": 5863,
  "tewe": 5864,
  "\u2581607": 5865,
  "\u2581Mail": 5866,
  "\u2581adultery": 5867,
  "\u2581amahwemo": 5868,
  "\u2581bond": 5869,
  "\u2581ese": 5870,
  "\u2581imi": 5871,
  "\u2581imvura": 5872,
  "\u2581miracles": 5873,
  "\u2581ntidu": 5874,
  "\u2581twemera": 5875,
  "shima": 5876,
  "\u258133,": 5877,
  "\u2581Elisha": 5878,
  "\u2581Imvugiro": 5879,
  "\u2581afata": 5880,
  "\u2581butangwa": 5881,
  "\u2581columns": 5882,
  "\u2581ibaruwa": 5883,
  "\u2581igi": 5884,
  "\u2581ishyari": 5885,
  "\u2581isobanura": 5886,
  "\u2581kane": 5887,
  "\u2581kubanza": 5888,
  "\u2581qualified": 5889,
  "\u2581random": 5890,
  "\u2581ruin": 5891,
  "\u2581Promised": 5892,
  "\u2581Sort": 5893,
  "\u2581Umuvuduko": 5894,
  "\u2581abonye": 5895,
  "\u2581begotten": 5896,
  "\u2581ill": 5897,
  "\u2581parable": 5898,
  "\u2581represented": 5899,
  "amwe": 5900,
  "sura": 5901,
  "zakomeza": 5902,
  "\u2581Email": 5903,
  "\u2581HTTP": 5904,
  "\u2581Indango": 5905,
  "\u2581Red": 5906,
  "\u2581busitani": 5907,
  "\u2581churches": 5908,
  "\u2581tugaragaza": 5909,
  "ju": 5910,
  "\u2581Exchange": 5911,
  "\u2581Ishyika": 5912,
  "\u2581Konti": 5913,
  "\u2581Ositaraliya": 5914,
  "\u2581biturutse": 5915,
  "\u2581byanjye": 5916,
  "\u2581byara": 5917,
  "\u2581distance": 5918,
  "\u2581entitled": 5919,
  "\u2581ikurikira": 5920,
  "\u2581ine": 5921,
  "\u2581links": 5922,
  "\u2581ryabereye": 5923,
  "\u2581twabaga": 5924,
  "\u2581ubudahemuka": 5925,
  "\u2581ugaragaza": 5926,
  "\u2581urufatiro": 5927,
  "\u2581worthy": 5928,
  "\u2581wuzuye": 5929,
  "intara": 5930,
  "nzi": 5931,
  "tibitangaje": 5932,
  "\u2581Charles": 5933,
  "\u2581Christmas": 5934,
  "\u2581Sound": 5935,
  "\u2581atatu": 5936,
  "\u2581bihesha": 5937,
  "\u2581byayo": 5938,
  "\u2581ibanga": 5939,
  "ahanganye": 5940,
  "lt": 5941,
  "tsi": 5942,
  "ubw": 5943,
  "\u2581Convert": 5944,
  "\u2581Loti": 5945,
  "\u2581Noheli": 5946,
  "\u2581Pasika": 5947,
  "\u2581buvuga": 5948,
  "\u2581dwelling": 5949,
  "\u2581focused": 5950,
  "\u2581indimi": 5951,
  "\u2581invisible": 5952,
  "\u2581ke": 5953,
  "\u2581levels": 5954,
  "\u2581starting": 5955,
  "genda": 5956,
  "mbi": 5957,
  "niba": 5958,
  "\u2581Asa": 5959,
  "\u2581Asia": 5960,
  "\u2581COVER": 5961,
  "\u2581Cain": 5962,
  "\u2581Komeka": 5963,
  "\u2581advance": 5964,
  "\u2581apfa": 5965,
  "\u2581bodies": 5966,
  "\u2581chapters": 5967,
  "\u2581comforting": 5968,
  "\u2581kurakara": 5969,
  "\u2581methods": 5970,
  "\u2581mugaragu": 5971,
  "\u2581wall": 5972,
  "\u2581Akambi": 5973,
  "\u2581Chinese": 5974,
  "\u2581KDE": 5975,
  "\u2581Kwemera": 5976,
  "\u2581Ntangiriro": 5977,
  "\u2581Subiza": 5978,
  "\u2581eager": 5979,
  "\u2581feels": 5980,
  "\u2581ikora": 5981,
  "\u2581ite": 5982,
  "\u2581scholar": 5983,
  "\u2581uga": 5984,
  "dukurikije": 5985,
  "tubera": 5986,
  "\u258139.": 5987,
  "\u2581abwira": 5988,
  "\u2581card": 5989,
  "\u2581extended": 5990,
  "\u2581imiterere": 5991,
  "\u2581import": 5992,
  "\u2581initial": 5993,
  "\u2581inner": 5994,
  "\u2581marvelous": 5995,
  "\u2581motivated": 5996,
  "\u2581numerous": 5997,
  "\u2581peaceful": 5998,
  "\u2581players": 5999,
  "\u2581umugi": 6000,
  "\u2581watumye": 6001,
  "/%": 6002,
  "gatuma": 6003,
  "\u258144": 6004,
  "\u2581Icon": 6005,
  "\u2581Kyongewe": 6006,
  "\u2581Map": 6007,
  "\u2581Spanish": 6008,
  "\u2581Ubusanzwe": 6009,
  "\u2581Western": 6010,
  "\u2581ava": 6011,
  "\u2581ay": 6012,
  "\u2581checked": 6013,
  "\u2581component": 6014,
  "\u2581constant": 6015,
  "\u2581deliverance": 6016,
  "\u2581economic": 6017,
  "\u2581ibishoboka": 6018,
  "\u2581ihuje": 6019,
  "\u2581opposite": 6020,
  "\u2581resulted": 6021,
  "Delete": 6022,
  "ah": 6023,
  "uru": 6024,
  "\u2581Himura": 6025,
  "\u2581Imbibi": 6026,
  "\u2581Joel": 6027,
  "\u2581arise": 6028,
  "\u2581bizadufasha": 6029,
  "\u2581expects": 6030,
  "\u2581holding": 6031,
  "\u2581ikibi": 6032,
  "\u2581imfungwa": 6033,
  "\u2581irindwi": 6034,
  "\u2581kigero": 6035,
  "\u2581kugenzura": 6036,
  "\u2581kunyurwa": 6037,
  "\u2581rugaragaza": 6038,
  "\u2581twahawe": 6039,
  "\u2581wild": 6040,
  "koresha": 6041,
  "\u2581Bashobora": 6042,
  "\u2581administrator": 6043,
  "\u2581appreciated": 6044,
  "\u2581basigaye": 6045,
  "\u2581demonstrated": 6046,
  "\u2581inda": 6047,
  "\u2581repentant": 6048,
  "\u2581sinned": 6049,
  "\u2581template": 6050,
  "\u2581ubwato": 6051,
  "\u2581wind": 6052,
  "\u2581worse": 6053,
  "bigenza": 6054,
  "nu": 6055,
  "ure": 6056,
  "\u258153": 6057,
  "\u2581Amasimbuka": 6058,
  "\u2581Byombi": 6059,
  "\u2581Mutarama": 6060,
  "\u2581assembly": 6061,
  "\u2581capital": 6062,
  "\u2581grasp": 6063,
  "\u2581kugaragariza": 6064,
  "\u2581kugura": 6065,
  "\u2581ruling": 6066,
  "\u2581soldiers": 6067,
  "duha": 6068,
  "hangayikishwa": 6069,
  "\u2581Al": 6070,
  "\u2581Con": 6071,
  "\u2581Imyak": 6072,
  "\u2581Islands": 6073,
  "\u2581Malaki": 6074,
  "\u2581March": 6075,
  "\u2581Pentekote": 6076,
  "\u2581abahungu": 6077,
  "\u2581exercising": 6078,
  "\u2581ibyifuzo": 6079,
  "\u2581ignore": 6080,
  "\u2581refuge": 6081,
  "\u2581500": 6082,
  "\u2581Free": 6083,
  "\u2581Ingero": 6084,
  "\u2581North": 6085,
  "\u2581amaboko": 6086,
  "\u2581apparently": 6087,
  "\u2581badafite": 6088,
  "\u2581base": 6089,
  "\u2581district": 6090,
  "\u2581finding": 6091,
  "\u2581umujinya": 6092,
  "land": 6093,
  "\u2581Iyi": 6094,
  "\u2581butaka": 6095,
  "\u2581kalarm": 6096,
  "\u2581kutagira": 6097,
  "\u2581midst": 6098,
  "\u2581muhanda": 6099,
  "\u2581musozi": 6100,
  "\u2581theocratic": 6101,
  "\u2581yabahaye": 6102,
  "\u2581zahabu": 6103,
  "boneye": 6104,
  "com": 6105,
  "menye": 6106,
  "\u258110;": 6107,
  "\u2581Almighty": 6108,
  "\u2581Header": 6109,
  "\u2581musaza": 6110,
  "\u2581national": 6111,
  "\u2581shell": 6112,
  "shimisha": 6113,
  "urubanza": 6114,
  "\u2581Iminsi": 6115,
  "\u2581NY": 6116,
  "\u2581Noneho": 6117,
  "\u2581Pa": 6118,
  "\u2581William": 6119,
  "\u2581Zechariah": 6120,
  "\u2581arguments": 6121,
  "\u2581covered": 6122,
  "\u2581executed": 6123,
  "\u2581kurera": 6124,
  "\u2581kwari": 6125,
  "\u2581magazines": 6126,
  "\u2581paragraph": 6127,
  "\u2581repentance": 6128,
  "bwiriza": 6129,
  "umwanditsi": 6130,
  "\u258156": 6131,
  "\u2581Kigenga": 6132,
  "\u2581Malachi": 6133,
  "\u2581Possible": 6134,
  "\u2581UNIX": 6135,
  "\u2581amasogonda": 6136,
  "\u2581bande": 6137,
  "\u2581bishimye": 6138,
  "\u2581bwato": 6139,
  "\u2581career": 6140,
  "\u2581isiganwa": 6141,
  "\u2581reasoning": 6142,
  "\u2581rupapuro": 6143,
  "\u2581souls": 6144,
  "igiti": 6145,
  "\u2581GIMP": 6146,
  "\u2581Yudaya": 6147,
  "\u2581anxious": 6148,
  "\u2581aravuga": 6149,
  "\u2581arranged": 6150,
  "\u2581descendants": 6151,
  "\u2581governments": 6152,
  "\u2581grief": 6153,
  "\u2581humbly": 6154,
  "\u2581rikaba": 6155,
  "\u2581urubyaro": 6156,
  "shwa": 6157,
  "\u2581IYANDIKA": 6158,
  "\u2581Kanama": 6159,
  "\u2581Nyakanga": 6160,
  "\u2581awake": 6161,
  "\u2581motivate": 6162,
  "\u2581vertical": 6163,
  "\u2581yasenze": 6164,
  "):": 6165,
  "Help": 6166,
  "ahoraga": 6167,
  "but": 6168,
  "mizo": 6169,
  "\u258140.": 6170,
  "\u2581Export": 6171,
  "\u2581Gukomeza": 6172,
  "\u2581Hana": 6173,
  "\u2581Ikinyamakuru": 6174,
  "\u2581cards": 6175,
  "\u2581figurative": 6176,
  "\u2581paths": 6177,
  "\u2581recipients": 6178,
  "\u2581umubwiriza": 6179,
  "\u2581umuzuko": 6180,
  "ikinege": 6181,
  "\u258138.": 6182,
  "\u2581Igikubo": 6183,
  "\u2581LDAP": 6184,
  "\u2581Maria": 6185,
  "\u2581Shakisha": 6186,
  "\u2581associate": 6187,
  "\u2581assurance": 6188,
  "\u2581bakurikiza": 6189,
  "\u2581faithfulness": 6190,
  "\u2581influenced": 6191,
  "\u2581kurwana": 6192,
  "\u2581lock": 6193,
  "\u2581mention": 6194,
  "\u2581ntabwo": 6195,
  "\u2581symbol": 6196,
  "\u2581translations": 6197,
  "\u2581via": 6198,
  "\u2581yahumetswe": 6199,
  "andikira": 6200,
  "\u2581Amazu": 6201,
  "\u2581amanga": 6202,
  "\u2581concerns": 6203,
  "\u2581deaf": 6204,
  "\u2581development": 6205,
  "\u2581dusenga": 6206,
  "\u2581execution": 6207,
  "\u2581metero": 6208,
  "\u2581ngoma": 6209,
  "\u2581ubusanzwe": 6210,
  "-8": 6211,
  "ahaye": 6212,
  "\u2581amabuye": 6213,
  "\u2581aramutse": 6214,
  "\u2581depends": 6215,
  "\u2581duhanganye": 6216,
  "\u2581passphrase": 6217,
  "\u2581traveled": 6218,
  "bandikiwe": 6219,
  "zirikana": 6220,
  "\u2581Gushushanya": 6221,
  "\u2581Inyandikorugero": 6222,
  "\u2581Iyega": 6223,
  "\u2581Java": 6224,
  "\u2581affairs": 6225,
  "\u2581bagirana": 6226,
  "\u2581bishya": 6227,
  "\u2581butunganye": 6228,
  "\u2581extend": 6229,
  "\u2581gradient": 6230,
  "\u2581kwishyira": 6231,
  "\u2581marry": 6232,
  "\u2581nshobora": 6233,
  "\u2581subjection": 6234,
  "\u2581translator": 6235,
  "\u2581turning": 6236,
  "\u2581universal": 6237,
  "\u2581vous": 6238,
  "Yesu": 6239,
  "mwa": 6240,
  "nuko": 6241,
  "senga": 6242,
  "\u2581Ho": 6243,
  "\u2581JEHOVAH": 6244,
  "\u2581babyeyi": 6245,
  "\u2581block": 6246,
  "\u2581byar": 6247,
  "\u2581endured": 6248,
  "\u2581excellent": 6249,
  "\u2581loaded": 6250,
  "\u2581twishimira": 6251,
  "\u2581ukwezi": 6252,
  "\u2581usoma": 6253,
  "NUZI": 6254,
  "ubukungu": 6255,
  "\u2581Bar": 6256,
  "\u2581abizerwa": 6257,
  "\u2581ahari": 6258,
  "\u2581basa": 6259,
  "\u2581bigeragezo": 6260,
  "\u2581igiti": 6261,
  "\u2581ikinyamakuru": 6262,
  "\u2581kwerekeza": 6263,
  "\u2581ruhebuje": 6264,
  "\u2581sang": 6265,
  "\u2581season": 6266,
  "\u2581sickness": 6267,
  "\u2581yagendaga": 6268,
  "geza": 6269,
  "\u258172": 6270,
  "\u2581Byoroheje": 6271,
  "\u2581Efeso": 6272,
  "\u2581Naho": 6273,
  "\u2581Ubuhanuzi": 6274,
  "\u2581baby": 6275,
  "\u2581corruption": 6276,
  "\u2581dutekereza": 6277,
  "\u2581gathering": 6278,
  "\u2581idolatry": 6279,
  "\u2581itabi": 6280,
  "\u2581possibly": 6281,
  "nyu": 6282,
  "\u2581Aha": 6283,
  "\u2581Bisirayeli": 6284,
  "\u2581Chronicles": 6285,
  "\u2581Configuration": 6286,
  "\u2581Rutherford": 6287,
  "\u2581SHINGIRO": 6288,
  "\u2581Stop": 6289,
  "\u2581Zekariya": 6290,
  "\u2581amashusho": 6291,
  "\u2581dufata": 6292,
  "\u2581karindwi": 6293,
  "\u2581modoka": 6294,
  "\u2581nkaba": 6295,
  "\u2581port": 6296,
  "\u2581union": 6297,
  "\u2581v": 6298,
  "ir": 6299,
  "of": 6300,
  "q": 6301,
  "ting": 6302,
  "ukwizera": 6303,
  "\u25812002": 6304,
  "\u2581Halls": 6305,
  "\u2581Hannah": 6306,
  "\u2581San": 6307,
  "\u2581abone": 6308,
  "\u2581differences": 6309,
  "\u2581displays": 6310,
  "\u2581fleshly": 6311,
  "\u2581looks": 6312,
  "\u2581mihati": 6313,
  "\u2581police": 6314,
  "\u2581track": 6315,
  "RI": 6316,
  "et": 6317,
  "ibara": 6318,
  "sigaye": 6319,
  "\u2581Further": 6320,
  "\u2581MIME": 6321,
  "\u2581asks": 6322,
  "\u2581batinya": 6323,
  "\u2581cyumba": 6324,
  "\u2581exert": 6325,
  "\u2581kopi": 6326,
  "\u2581kurimbura": 6327,
  "\u2581rain": 6328,
  "\u2581tubone": 6329,
  "\u2581zindi": 6330,
  "abakozi": 6331,
  "\u25810%": 6332,
  "\u2581Binini": 6333,
  "\u2581Truth": 6334,
  "\u2581Ubukristo": 6335,
  "\u2581amagazeti": 6336,
  "\u2581bitangaje": 6337,
  "\u2581culture": 6338,
  "\u2581dore": 6339,
  "\u2581errors": 6340,
  "\u2581extra": 6341,
  "\u2581majority": 6342,
  "\u2581physically": 6343,
  "\u2581reaching": 6344,
  "\u2581sake": 6345,
  "\u2581thereafter": 6346,
  "\u2581ugiye": 6347,
  "\u2581wigisha": 6348,
  "Umuhanga": 6349,
  "umuyaga": 6350,
  "\u2581Action": 6351,
  "\u2581Apply": 6352,
  "\u2581Eli": 6353,
  "\u2581GTK": 6354,
  "\u2581Gi": 6355,
  "\u2581Kanada": 6356,
  "\u2581alert": 6357,
  "\u2581extension": 6358,
  "\u2581fornication": 6359,
  "\u2581ibihugu": 6360,
  "\u2581masezerano": 6361,
  "\u2581mbuganyuma": 6362,
  "\u2581nyamaswa": 6363,
  "\u2581rupfu": 6364,
  "\u2581starts": 6365,
  "View": 6366,
  "atumaga": 6367,
  "ikintu": 6368,
  "ize": 6369,
  "ner": 6370,
  "\u2581Ibindi": 6371,
  "\u2581admonition": 6372,
  "\u2581customs": 6373,
  "\u2581gutegura": 6374,
  "\u2581kunga": 6375,
  "\u2581reflected": 6376,
  "\u2581rely": 6377,
  "IN": 6378,
  "dukomeza": 6379,
  "some": 6380,
  "zu": 6381,
  "\u258137.": 6382,
  "\u2581BE": 6383,
  "\u2581Kayini": 6384,
  "\u2581Ujye": 6385,
  "\u2581Wi": 6386,
  "\u2581abakiranutsi": 6387,
  "\u2581acting": 6388,
  "\u2581audience": 6389,
  "\u2581challenging": 6390,
  "\u2581choices": 6391,
  "\u2581divorce": 6392,
  "\u2581ibaho": 6393,
  "\u2581kuyoborwa": 6394,
  "\u2581mwami": 6395,
  "\u2581rungana": 6396,
  "\u2581worldly": 6397,
  "Go": 6398,
  "They": 6399,
  "kunda": 6400,
  "\u2581Impinduragaciro": 6401,
  "\u2581Notice": 6402,
  "\u2581buzaba": 6403,
  "\u2581complex": 6404,
  "\u2581relations": 6405,
  "\u2581science": 6406,
  "\u2581tuzasuzuma": 6407,
  "\u2581umukono": 6408,
  "\u2581visiting": 6409,
  "Compare": 6410,
  "abahanga": 6411,
  "word": 6412,
  "\u25811914.": 6413,
  "\u2581Aaron": 6414,
  "\u2581Corinth": 6415,
  "\u2581Loading": 6416,
  "\u2581Prov": 6417,
  "\u2581atera": 6418,
  "\u2581ibyari": 6419,
  "\u2581mashuri": 6420,
  "\u2581sad": 6421,
  "\u2581schedule": 6422,
  "\u2581schema": 6423,
  "\u2581wakoze": 6424,
  "\u2581yahuye": 6425,
  "ate": 6426,
  "fate": 6427,
  "ije": 6428,
  "mbo": 6429,
  "que": 6430,
  "\u2581Umugereka": 6431,
  "\u2581author": 6432,
  "\u2581broken": 6433,
  "\u2581causing": 6434,
  "\u2581merciful": 6435,
  "\u2581sinners": 6436,
  "lez": 6437,
  "ron": 6438,
  "\u2581News": 6439,
  "\u2581ak": 6440,
  "\u2581approached": 6441,
  "\u2581average": 6442,
  "\u2581bajyaga": 6443,
  "\u2581bisanzwe": 6444,
  "\u2581herself": 6445,
  "\u2581involving": 6446,
  "\u2581kugaragara": 6447,
  "\u2581kuwu": 6448,
  "\u2581muganga": 6449,
  "\u2581reminders": 6450,
  "\u2581rutonde": 6451,
  "\u2581rwandiko": 6452,
  "\u2581score": 6453,
  "\u2581shadow": 6454,
  "\u2581torero": 6455,
  "\u2581umutwaro": 6456,
  "agenga": 6457,
  "arushijeho": 6458,
  "bura": 6459,
  "\u2581Ikoresha": 6460,
  "\u2581Link": 6461,
  "\u2581byonyine": 6462,
  "\u2581cyawe": 6463,
  "\u2581inkota": 6464,
  "\u2581net": 6465,
  "\u2581outcome": 6466,
  "\u2581umugani": 6467,
  "\u2581update": 6468,
  "Gererany": 6469,
  "fatanya": 6470,
  "imitima": 6471,
  "itsinda": 6472,
  "\u2581@.": 6473,
  "\u2581Bugiriki": 6474,
  "\u2581Hezekiya": 6475,
  "\u2581Manager": 6476,
  "\u2581Sam": 6477,
  "\u2581kwiheba": 6478,
  "\u2581online": 6479,
  "\u2581persecuted": 6480,
  "Abagiriki": 6481,
  "habwa": 6482,
  "\u2581FOR": 6483,
  "\u2581Iburira": 6484,
  "\u2581Ka": 6485,
  "\u2581Scripture": 6486,
  "\u2581Specify": 6487,
  "\u2581Werurwe": 6488,
  "\u2581assignments": 6489,
  "\u2581brochure": 6490,
  "\u2581determines": 6491,
  "\u2581glad": 6492,
  "\u2581grand": 6493,
  "\u2581nearby": 6494,
  "\u2581official": 6495,
  "\u2581skills": 6496,
  "\u2581tax": 6497,
  "\u2581ubushishozi": 6498,
  "\u2581umuti": 6499,
  "Umuremyi": 6500,
  "my": 6501,
  "\u2581Babylonian": 6502,
  "\u2581Central": 6503,
  "\u2581IZINA": 6504,
  "\u2581Layer": 6505,
  "\u2581Passover": 6506,
  "\u2581bava": 6507,
  "\u2581bemeye": 6508,
  "\u2581bigisha": 6509,
  "\u2581healing": 6510,
  "\u2581kanwa": 6511,
  "\u2581la": 6512,
  "\u2581located": 6513,
  "\u2581mva": 6514,
  "\u2581player": 6515,
  "\u2581referring": 6516,
  "\u2581tribe": 6517,
  "\u2581utanga": 6518,
  "impuhwe": 6519,
  "list": 6520,
  "mye": 6521,
  "nyigisho": 6522,
  "only": 6523,
  "vo": 6524,
  "\u2581Description": 6525,
  "\u2581Igaragaza": 6526,
  "\u2581Japan": 6527,
  "\u2581Reset": 6528,
  "\u2581Status": 6529,
  "\u2581Twese": 6530,
  "\u2581agamije": 6531,
  "\u2581brief": 6532,
  "\u2581ikubiyemo": 6533,
  "\u2581impanuka": 6534,
  "\u2581kubyara": 6535,
  "\u2581movement": 6536,
  "\u2581riba": 6537,
  "\u2581texts": 6538,
  "inama": 6539,
  "inyenyeri": 6540,
  "men": 6541,
  "sohoza": 6542,
  "ubuyobozi": 6543,
  "yoborwa": 6544,
  "\u2581Him": 6545,
  "\u2581Shaka": 6546,
  "\u2581Whatever": 6547,
  "\u2581abandoned": 6548,
  "\u2581arrangements": 6549,
  "\u2581ashingiye": 6550,
  "\u2581invite": 6551,
  "\u2581kiguzi": 6552,
  "\u2581koraniro": 6553,
  "\u2581lowly": 6554,
  "\u2581manywa": 6555,
  "\u2581possessions": 6556,
  "\u2581ukorwa": 6557,
  "\u2581unexpectedly": 6558,
  "atangajwe": 6559,
  "ubusambanyi": 6560,
  "\u2581Burusiya": 6561,
  "\u2581Hezekiah": 6562,
  "\u2581Martha": 6563,
  "\u2581Tito": 6564,
  "\u2581Ubuzima": 6565,
  "\u2581Upon": 6566,
  "\u2581dignity": 6567,
  "\u2581gather": 6568,
  "\u2581gedit": 6569,
  "\u2581isuku": 6570,
  "\u2581palette": 6571,
  "\u2581permission": 6572,
  "\u2581ruswa": 6573,
  "\u2581stored": 6574,
  "\u2581tests": 6575,
  "\u2581ubwitonzi": 6576,
  "\u2581urubyiruko": 6577,
  "\u2581yashyize": 6578,
  "Add": 6579,
  "Show": 6580,
  "ent": 6581,
  "gakomeza": 6582,
  "ibitekerezo": 6583,
  "shyigikiye": 6584,
  "vana": 6585,
  "\u2581Bika": 6586,
  "\u2581Buyapani": 6587,
  "\u2581Cut": 6588,
  "\u2581Urwung": 6589,
  "\u2581attachment": 6590,
  "\u2581bapfa": 6591,
  "\u2581batanze": 6592,
  "\u2581des": 6593,
  "\u2581historian": 6594,
  "\u2581ibara": 6595,
  "\u2581kate": 6596,
  "\u2581layout": 6597,
  "\u2581locations": 6598,
  "\u2581paid": 6599,
  "\u2581pursuing": 6600,
  "\u2581repeatedly": 6601,
  "\u2581tut": 6602,
  "\u2581usage": 6603,
  "dore": 6604,
  "inyongera": 6605,
  "\u25812013": 6606,
  "\u258136.": 6607,
  "\u2581Li": 6608,
  "\u2581clergy": 6609,
  "\u2581configured": 6610,
  "\u2581couples": 6611,
  "\u2581degree": 6612,
  "\u2581divided": 6613,
  "\u2581ends": 6614,
  "\u2581kwihingamo": 6615,
  "\u2581punishment": 6616,
  "\u2581rights": 6617,
  "Z": 6618,
  "abanyamahanga": 6619,
  "bit": 6620,
  "buza": 6621,
  "hera": 6622,
  "line": 6623,
  "sobanukirwa": 6624,
  "tunga": 6625,
  "\u2581Gal": 6626,
  "\u2581Program": 6627,
  "\u2581Toolbar": 6628,
  "\u2581approved": 6629,
  "\u2581difficulties": 6630,
  "\u2581failure": 6631,
  "\u2581kwitega": 6632,
  "\u2581laid": 6633,
  "\u2581ndwara": 6634,
  "\u2581rename": 6635,
  "\u2581surprised": 6636,
  "\u2581writers": 6637,
  "\u2581zoom": 6638,
  "Be": 6639,
  "Search": 6640,
  "atewe": 6641,
  "ibarirwa": 6642,
  "inyandiko": 6643,
  "inzira": 6644,
  "iri": 6645,
  "tugomba": 6646,
  "\u25812004": 6647,
  "\u2581Bene": 6648,
  "\u2581Bihagaritse": 6649,
  "\u2581Preview": 6650,
  "\u2581bimaze": 6651,
  "\u2581blue": 6652,
  "\u2581butangaje": 6653,
  "\u2581crime": 6654,
  "\u2581delay": 6655,
  "\u2581discouraged": 6656,
  "\u2581gushakisha": 6657,
  "\u2581imyitozo": 6658,
  "\u2581kubaza": 6659,
  "\u2581variety": 6660,
  "\u2581yafashije": 6661,
  "\u2581zikaba": 6662,
  "\u2581Gospels": 6663,
  "\u2581Know": 6664,
  "\u2581Lazaro": 6665,
  "\u2581Ubwihisho": 6666,
  "\u2581agreed": 6667,
  "\u2581brotherhood": 6668,
  "\u2581gucika": 6669,
  "\u2581ibishushanyo": 6670,
  "\u2581kumufasha": 6671,
  "\u2581previously": 6672,
  "ING": 6673,
  "Open": 6674,
  "ariko": 6675,
  "byara": 6676,
  "hisha": 6677,
  "ubusa": 6678,
  "vuze": 6679,
  "\u2581Dr": 6680,
  "\u2581Kongera": 6681,
  "\u2581Kuzuza": 6682,
  "\u2581bibaye": 6683,
  "\u2581bigaragazwa": 6684,
  "\u2581gutoza": 6685,
  "\u2581nimugoroba": 6686,
  "\u2581rwawe": 6687,
  "\u2581songs": 6688,
  "\u2581surface": 6689,
  "\u2581viewpoint": 6690,
  "BAVU": 6691,
  "File": 6692,
  "babwira": 6693,
  "ever": 6694,
  "mererwa": 6695,
  "tegereza": 6696,
  "will": 6697,
  "\u2581BIHUYE": 6698,
  "\u2581Biturutse": 6699,
  "\u2581Don": 6700,
  "\u2581ICYO": 6701,
  "\u2581Yarandits": 6702,
  "\u2581acknowledge": 6703,
  "\u2581ayi": 6704,
  "\u2581dushoboye": 6705,
  "\u2581functions": 6706,
  "\u2581gradually": 6707,
  "\u2581mukobwa": 6708,
  "\u2581possess": 6709,
  "\u2581recall": 6710,
  "\u2581relationships": 6711,
  "\u2581ship": 6712,
  "abahungu": 6713,
  "koze": 6714,
  "rd": 6715,
  "ubutabera": 6716,
  "\u2581Always": 6717,
  "\u2581Full": 6718,
  "\u2581Gushyiramo": 6719,
  "\u2581Igerageza": 6720,
  "\u2581Linux": 6721,
  "\u2581Lo": 6722,
  "\u2581Ministry": 6723,
  "\u2581NI": 6724,
  "\u2581Quit": 6725,
  "\u2581ashoboye": 6726,
  "\u2581bugaragara": 6727,
  "\u2581busuzume": 6728,
  "\u2581byatuma": 6729,
  "\u2581dream": 6730,
  "\u2581kavukire": 6731,
  "\u2581kuzuka": 6732,
  "\u2581ubusambanyi": 6733,
  "kumva": 6734,
  "mbese": 6735,
  "other": 6736,
  "tangira": 6737,
  "\u2581144.000": 6738,
  "\u2581Mwibutsa": 6739,
  "\u2581Uburoso": 6740,
  "\u2581abigisha": 6741,
  "\u2581alcohol": 6742,
  "\u2581buhoraho": 6743,
  "\u2581guhuza": 6744,
  "\u2581ibyigisho": 6745,
  "\u2581igomba": 6746,
  "\u2581kamaro": 6747,
  "\u2581noticed": 6748,
  "\u2581owner": 6749,
  "\u2581plan": 6750,
  "\u2581reaction": 6751,
  "\u2581wipe": 6752,
  "\\": 6753,
  "amoko": 6754,
  "pu": 6755,
  "ubumenyi": 6756,
  "\u2581Happy": 6757,
  "\u2581akagira": 6758,
  "\u2581depth": 6759,
  "\u2581forced": 6760,
  "\u2581gafite": 6761,
  "\u2581igitero": 6762,
  "\u2581ihema": 6763,
  "\u2581illustrations": 6764,
  "\u2581isura": 6765,
  "\u2581kubahiriza": 6766,
  "\u2581lovers": 6767,
  "\u2581modest": 6768,
  "\u2581potential": 6769,
  "\u2581rightly": 6770,
  "\u2581royal": 6771,
  "\u2581super": 6772,
  "\u2581tribes": 6773,
  "\u2581umutegetsi": 6774,
  "\u2581umwandiko": 6775,
  "AS": 6776,
  "How": 6777,
  "gizi": 6778,
  "umuhanga": 6779,
  "\u2581150": 6780,
  "\u2581Doing": 6781,
  "\u2581abilities": 6782,
  "\u2581batandukanye": 6783,
  "\u2581bihatira": 6784,
  "\u2581encryption": 6785,
  "\u2581fatizo": 6786,
  "\u2581kwigomeka": 6787,
  "\u2581ministeri": 6788,
  "\u2581modify": 6789,
  "\u2581ngiye": 6790,
  "\u2581stick": 6791,
  "\u2581tekereza": 6792,
  "\u2581trusted": 6793,
  "\u2581yongeyeho": 6794,
  "Windows": 6795,
  "kore": 6796,
  "mera": 6797,
  "meze": 6798,
  "\u2581120": 6799,
  "\u2581Amapaji": 6800,
  "\u2581Int": 6801,
  "\u2581cyanjye": 6802,
  "\u2581forgiving": 6803,
  "\u2581garagaza": 6804,
  "\u2581highlight": 6805,
  "\u2581lovingly": 6806,
  "\u2581ngaho": 6807,
  "\u2581ngeso": 6808,
  "\u2581passing": 6809,
  "\u2581pioneering": 6810,
  "\u2581resulting": 6811,
  "\u2581umuzika": 6812,
  "\u2581visits": 6813,
  "bitewe": 6814,
  "ice": 6815,
  "ist": 6816,
  "view": 6817,
  "\u258128]": 6818,
  "\u2581Abel": 6819,
  "\u2581Frame": 6820,
  "\u2581Greece": 6821,
  "\u2581POP": 6822,
  "\u2581Shortly": 6823,
  "\u2581Ukwizera": 6824,
  "\u2581beauty": 6825,
  "\u2581generous": 6826,
  "\u2581ncuti": 6827,
  "\u2581nkunda": 6828,
  "\u2581opposers": 6829,
  "bonye": 6830,
  "sumba": 6831,
  "\u2581(&": 6832,
  "\u258147": 6833,
  "\u2581Isubiranyuma": 6834,
  "\u2581Wibuk": 6835,
  "\u2581accepting": 6836,
  "\u2581akarengane": 6837,
  "\u2581batazi": 6838,
  "\u2581gutwara": 6839,
  "\u2581healthy": 6840,
  "\u2581imigenzo": 6841,
  "\u2581kuda": 6842,
  "\u2581kurimbuka": 6843,
  "\u2581kwambara": 6844,
  "\u2581sources": 6845,
  "agahinda": 6846,
  "banze": 6847,
  "disabled": 6848,
  "\u25818]": 6849,
  "\u2581Umubarendanga": 6850,
  "\u2581bishaje": 6851,
  "\u2581conviction": 6852,
  "\u2581ngorane": 6853,
  "\u2581ntebe": 6854,
  "\u2581proud": 6855,
  "\u2581radio": 6856,
  "\u2581tumwe": 6857,
  "\u2581ubi": 6858,
  "\u2581yabajije": 6859,
  "inyungu": 6860,
  "\u25812003": 6861,
  "\u2581Enoch": 6862,
  "\u2581Ibyiciro": 6863,
  "\u2581Icy": 6864,
  "\u2581Messages": 6865,
  "\u2581bakajya": 6866,
  "\u2581basaba": 6867,
  "\u2581buva": 6868,
  "\u2581byumvikanisha": 6869,
  "\u2581cyaba": 6870,
  "\u2581gets": 6871,
  "\u2581yakabaye": 6872,
  "\u2581yasohotse": 6873,
  "kire": 6874,
  "\u258112;": 6875,
  "\u2581Express": 6876,
  "\u2581Mujye": 6877,
  "\u2581Ntiy": 6878,
  "\u2581Umukiriya": 6879,
  "\u2581abahanuzi": 6880,
  "\u2581accord": 6881,
  "\u2581associates": 6882,
  "\u2581bushya": 6883,
  "\u2581clothing": 6884,
  "\u2581editing": 6885,
  "\u2581houses": 6886,
  "\u2581ingano": 6887,
  "\u2581kub": 6888,
  "\u2581literally": 6889,
  "\u2581preced": 6890,
  "\u2581priority": 6891,
  "\u2581reign": 6892,
  "uri": 6893,
  "\u2581Concern": 6894,
  "\u2581Cy": 6895,
  "\u2581Ikizamuko": 6896,
  "\u2581Ng": 6897,
  "\u2581Peace": 6898,
  "\u2581Vi": 6899,
  "\u2581Zi": 6900,
  "\u2581angry": 6901,
  "\u2581bak": 6902,
  "\u2581brush": 6903,
  "\u2581establish": 6904,
  "\u2581murwa": 6905,
  "\u2581muti": 6906,
  "\u2581ntari": 6907,
  "\u2581scene": 6908,
  "\u2581servers": 6909,
  "\u2581speaker": 6910,
  "\u2581tabs": 6911,
  "\u2581tugenda": 6912,
  "\u2581umukiranutsi": 6913,
  "\u2581unclean": 6914,
  "\u2581upper": 6915,
  "\u2581utwo": 6916,
  "\u2581yakoreshaga": 6917,
  "\u2581~": 6918,
  "ngu": 6919,
  "twereka": 6920,
  "\u2581Channel": 6921,
  "\u2581Isezerano": 6922,
  "\u2581Lazarus": 6923,
  "\u2581Level": 6924,
  "\u2581Saint": 6925,
  "\u2581Volume": 6926,
  "\u2581baturutse": 6927,
  "\u2581co": 6928,
  "\u2581consist": 6929,
  "\u2581drag": 6930,
  "\u2581ivurunganye": 6931,
  "\u2581searching": 6932,
  "\u2581solution": 6933,
  "\u2581tutari": 6934,
  "Mac": 6935,
  "nira": 6936,
  "\u2581Kamena": 6937,
  "\u2581Kayisari": 6938,
  "\u2581Way": 6939,
  "\u2581bahuye": 6940,
  "\u2581bimu": 6941,
  "\u2581birenzeho": 6942,
  "\u2581byagenda": 6943,
  "\u2581kwiyemeza": 6944,
  "\u2581mistake": 6945,
  "\u2581pictures": 6946,
  "\u2581plans": 6947,
  "\u2581suggestions": 6948,
  "\u2581wondered": 6949,
  "Epfo": 6950,
  "aratumye": 6951,
  "ig": 6952,
  "ish": 6953,
  "kwe": 6954,
  "\u258154": 6955,
  "\u2581Abalewi": 6956,
  "\u2581Eastern": 6957,
  "\u2581Icapa": 6958,
  "\u2581Imig": 6959,
  "\u2581Luther": 6960,
  "\u2581Subject": 6961,
  "\u2581Umuhanuzi": 6962,
  "\u2581begins": 6963,
  "\u2581benefited": 6964,
  "\u2581butoni": 6965,
  "\u2581isa": 6966,
  "\u2581listeners": 6967,
  "\u2581strengthening": 6968,
  "\u2581struck": 6969,
  "\u2581umutambyi": 6970,
  "\u2581won": 6971,
  "\u2581yamuhaye": 6972,
  "OF": 6973,
  "kw": 6974,
  "ndo": 6975,
  "\u25811997": 6976,
  "\u2581Caesar": 6977,
  "\u2581Desktop": 6978,
  "\u2581Style": 6979,
  "\u2581basanzwe": 6980,
  "\u2581bashimishijwe": 6981,
  "\u2581grid": 6982,
  "\u2581mo": 6983,
  "\u2581permanent": 6984,
  "\u2581readily": 6985,
  "\u2581ubuyanja": 6986,
  "\u2581yageze": 6987,
  "am": 6988,
  "mbe": 6989,
  "res": 6990,
  "shakira": 6991,
  "\u258111;": 6992,
  "\u2581Ephesus": 6993,
  "\u2581Imitwe": 6994,
  "\u2581Load": 6995,
  "\u2581Title": 6996,
  "\u2581UMUNSI": 6997,
  "\u2581cache": 6998,
  "\u2581middle": 6999,
  "\u2581rushobora": 7000,
  "\u2581scroll": 7001,
  "\u2581services": 7002,
  "\u2581suggest": 7003,
  "\u2581uki": 7004,
  "\u2581win": 7005,
  "AN": 7006,
  "baze": 7007,
  "coming": 7008,
  "rangije": 7009,
  "shyize": 7010,
  "\u25811945": 7011,
  "\u2581Master": 7012,
  "\u2581Paris": 7013,
  "\u2581West": 7014,
  "\u2581attitudes": 7015,
  "\u2581bafasha": 7016,
  "\u2581broke": 7017,
  "\u2581iruhande": 7018,
  "\u2581itandatu": 7019,
  "\u2581kwishingikiriza": 7020,
  "\u2581musore": 7021,
  "\u2581query": 7022,
  "\u2581tube": 7023,
  "\u2581umurage": 7024,
  "\u2581yakorewe": 7025,
  "abanzi": 7026,
  "bazaga": 7027,
  "rusobetudirishya": 7028,
  "tar": 7029,
  "teze": 7030,
  "\u2581Following": 7031,
  "\u2581Irahuze": 7032,
  "\u2581Ro": 7033,
  "\u2581amagara": 7034,
  "\u2581buffer": 7035,
  "\u2581bumvise": 7036,
  "\u2581ears": 7037,
  "\u2581plain": 7038,
  "\u2581victory": 7039,
  "basha": 7040,
  "fuza": 7041,
  "imfura": 7042,
  "kozwe": 7043,
  "mira": 7044,
  "sobanukiwe": 7045,
  "\u258120]": 7046,
  "\u2581Po": 7047,
  "\u2581adjust": 7048,
  "\u2581ariho": 7049,
  "\u2581database": 7050,
  "\u2581expand": 7051,
  "\u2581konsole": 7052,
  "\u2581kwibanda": 7053,
  "\u2581ndush": 7054,
  "\u2581pick": 7055,
  "\u2581refuse": 7056,
  "\u2581rito": 7057,
  "\u2581routine": 7058,
  "\u2581summary": 7059,
  "\u2581yamenye": 7060,
  "\u2581yiyita": 7061,
  "here": 7062,
  "imico": 7063,
  "ishyingiranwa": 7064,
  "\u2581Eventually": 7065,
  "\u2581Trust": 7066,
  "\u2581ababi": 7067,
  "\u2581bubaha": 7068,
  "\u2581byavuzwe": 7069,
  "\u2581devoted": 7070,
  "\u2581kumukorera": 7071,
  "\u2581kuntu": 7072,
  "\u2581plugins": 7073,
  "\u2581reputation": 7074,
  "\u2581yagiranye": 7075,
  "AL": 7076,
  "Use": 7077,
  "igi": 7078,
  "\u2581Aroni": 7079,
  "\u2581November": 7080,
  "\u2581R\u00e9veil": 7081,
  "\u2581applies": 7082,
  "\u2581attain": 7083,
  "\u2581buhinduzi": 7084,
  "\u2581cold": 7085,
  "\u2581companion": 7086,
  "\u2581exit": 7087,
  "\u2581fundamental": 7088,
  "\u2581gutura": 7089,
  "\u2581ishingiro": 7090,
  "\u2581modified": 7091,
  "\u2581mugoroba": 7092,
  "\u2581reliable": 7093,
  "\u2581sacrificing": 7094,
  "\u2581shed": 7095,
  "\u2581touch": 7096,
  "\u2581urutonde": 7097,
  "\u2581wihariye": 7098,
  "RO": 7099,
  "ibivugwa": 7100,
  "tegeka": 7101,
  "teza": 7102,
  "\u2581Byaba": 7103,
  "\u2581Control": 7104,
  "\u2581Imimaro": 7105,
  "\u2581bagore": 7106,
  "\u2581compassionate": 7107,
  "\u2581conducted": 7108,
  "\u2581enye": 7109,
  "\u2581gutunga": 7110,
  "\u2581imyidagaduro": 7111,
  "\u2581miraculous": 7112,
  "\u2581nkiri": 7113,
  "\u2581solid": 7114,
  "\u2581urw": 7115,
  "ance": 7116,
  "ubwikunde": 7117,
  "zwe": 7118,
  "\u2581Abahanga": 7119,
  "\u2581BA": 7120,
  "\u2581Judea": 7121,
  "\u2581Tuzi": 7122,
  "\u2581Zephaniah": 7123,
  "\u2581ajye": 7124,
  "\u2581burden": 7125,
  "\u2581conscious": 7126,
  "\u2581dukoresha": 7127,
  "\u2581finish": 7128,
  "\u2581instructed": 7129,
  "\u2581irindi": 7130,
  "\u2581kugerwaho": 7131,
  "\u2581obligation": 7132,
  "\u2581pleasing": 7133,
  "\u2581prominent": 7134,
  "\u2581reap": 7135,
  "\u2581signs": 7136,
  "\u2581sita": 7137,
  "\u2581trip": 7138,
  "ubudahemuka": 7139,
  "\u2581Gusubiramo": 7140,
  "\u2581Lines": 7141,
  "\u2581Object": 7142,
  "\u2581Philip": 7143,
  "\u2581butagereranywa": 7144,
  "\u2581guided": 7145,
  "\u2581limitations": 7146,
  "\u2581matongo": 7147,
  "\u2581proxy": 7148,
  "\u2581rendering": 7149,
  "\u2581stream": 7150,
  "201": 7151,
  "ateye": 7152,
  "imigambi": 7153,
  "ruka": 7154,
  "\u2581Agatabo": 7155,
  "\u2581UTSINDAGIYE": 7156,
  "\u2581Utudomo": 7157,
  "\u2581abasenga": 7158,
  "\u2581acquire": 7159,
  "\u2581arwaye": 7160,
  "\u2581bazira": 7161,
  "\u2581cross": 7162,
  "\u2581doctor": 7163,
  "\u2581dress": 7164,
  "\u2581except": 7165,
  "\u2581fixed": 7166,
  "\u2581mwijima": 7167,
  "\u2581ntibya": 7168,
  "\u2581rejoicing": 7169,
  "\u2581twara": 7170,
  "\u2581ungodly": 7171,
  "\u2581welfare": 7172,
  "\u2581yabwiraga": 7173,
  "\u2581yakurikiyeho": 7174,
  "EN": 7175,
  "amakuba": 7176,
  "buri": 7177,
  "dufasha": 7178,
  "era": 7179,
  "fashwe": 7180,
  "rs": 7181,
  "\u2581Heights": 7182,
  "\u2581OK": 7183,
  "\u2581ROLE": 7184,
  "\u2581akiranuka": 7185,
  "\u2581bushingiye": 7186,
  "\u2581capable": 7187,
  "\u2581doctrine": 7188,
  "\u2581exposed": 7189,
  "\u2581gukundana": 7190,
  "\u2581habaga": 7191,
  "\u2581inherit": 7192,
  "\u2581iteye": 7193,
  "\u2581male": 7194,
  "\u2581nshaka": 7195,
  "\u2581photo": 7196,
  "\u2581recalls": 7197,
  "\u2581traits": 7198,
  "\u2581twabonye": 7199,
  "\u2581uburyarya": 7200,
  "\u2581yabi": 7201,
  "\u2581yaramubwiye": 7202,
  "imana": 7203,
  "\u258111]": 7204,
  "\u258119]": 7205,
  "\u2581Function": 7206,
  "\u2581Ibikoresho": 7207,
  "\u2581Igikonoshwa": 7208,
  "\u2581Rename": 7209,
  "\u2581Standard": 7210,
  "\u2581Worship": 7211,
  "\u2581encourages": 7212,
  "\u2581facing": 7213,
  "\u2581imyambaro": 7214,
  "\u2581inclined": 7215,
  "\u2581itandukaniro": 7216,
  "\u2581mazima": 7217,
  "\u2581officials": 7218,
  "\u2581shuri": 7219,
  "bivanye": 7220,
  "gezweho": 7221,
  "hana": 7222,
  "nesha": 7223,
  "rangiza": 7224,
  "\u25811995": 7225,
  "\u2581Compare": 7226,
  "\u2581Megizike": 7227,
  "\u2581Ra": 7228,
  "\u2581YEHOVA": 7229,
  "\u2581Zefaniya": 7230,
  "\u2581abaha": 7231,
  "\u2581employment": 7232,
  "\u2581evolution": 7233,
  "\u2581index": 7234,
  "\u2581represents": 7235,
  "\u2581rugamba": 7236,
  "\u2581sustain": 7237,
  "\u2581torture": 7238,
  "\u2581yiteze": 7239,
  "imbuto": 7240,
  "kubiyemo": 7241,
  "wakwemera": 7242,
  "zigera": 7243,
  "\u2581(1": 7244,
  "\u2581Bayahudi": 7245,
  "\u2581En": 7246,
  "\u2581Ubwiza": 7247,
  "\u2581bagire": 7248,
  "\u2581byaje": 7249,
  "\u2581ibihamya": 7250,
  "\u2581mpuzabitsina": 7251,
  "\u2581ryera": 7252,
  "\u2581significance": 7253,
  "\u2581umugayo": 7254,
  "\u2581upbuilding": 7255,
  "\u2581yiyemeje": 7256,
  "10": 7257,
  "gana": 7258,
  "himba": 7259,
  "irari": 7260,
  "umuvandimwe": 7261,
  "\u2581Amos": 7262,
  "\u2581University": 7263,
  "\u2581abasirikare": 7264,
  "\u2581cyigisho": 7265,
  "\u2581harmful": 7266,
  "\u2581imperfection": 7267,
  "\u2581innocent": 7268,
  "\u2581kwitondera": 7269,
  "\u2581possession": 7270,
  "\u2581sorts": 7271,
  "\u2581supports": 7272,
  "\u2581wibuka": 7273,
  "Isirayeli": 7274,
  "imisozi": 7275,
  "io": 7276,
  "izuba": 7277,
  "new": 7278,
  "\u2581Byaremwe": 7279,
  "\u2581Public": 7280,
  "\u2581Zeru": 7281,
  "\u2581gitewokarasi": 7282,
  "\u2581grave": 7283,
  "\u2581judges": 7284,
  "\u2581kivandimwe": 7285,
  "\u2581kungukirwa": 7286,
  "\u2581pair": 7287,
  "\u2581popup": 7288,
  "\u2581wishes": 7289,
  "age": 7290,
  "kure": 7291,
  "ris": 7292,
  "\u2581Allow": 7293,
  "\u2581Amosi": 7294,
  "\u2581Bad": 7295,
  "\u2581Butaliyani": 7296,
  "\u2581Gutekereza": 7297,
  "\u2581Old": 7298,
  "\u2581Sobanura": 7299,
  "\u2581Sunday": 7300,
  "\u2581Te": 7301,
  "\u2581Ubundi": 7302,
  "\u2581Undi": 7303,
  "\u2581bagamije": 7304,
  "\u2581bamara": 7305,
  "\u2581baya": 7306,
  "\u2581birenze": 7307,
  "\u2581gushobora": 7308,
  "\u2581hint": 7309,
  "\u2581iduha": 7310,
  "\u2581igihumbi": 7311,
  "\u2581intended": 7312,
  "\u2581moon": 7313,
  "\u2581preparing": 7314,
  "PAGES": 7315,
  "ant": 7316,
  "bye": 7317,
  "cap": 7318,
  "color": 7319,
  "\u2581Comment": 7320,
  "\u2581arangwa": 7321,
  "\u2581biboneka": 7322,
  "\u2581client": 7323,
  "\u2581damage": 7324,
  "\u2581disaster": 7325,
  "\u2581ibiti": 7326,
  "\u2581ibyago": 7327,
  "\u2581kinyamakuru": 7328,
  "\u2581kubura": 7329,
  "\u2581nimu": 7330,
  "\u2581satisfied": 7331,
  "\u2581unrighteous": 7332,
  "\u2581wisely": 7333,
  "\u2581yabayeho": 7334,
  "aya": 7335,
  "genewe": 7336,
  "\u25811996": 7337,
  "\u2581Ibyak": 7338,
  "\u2581Imyifatire": 7339,
  "\u2581Mukristo": 7340,
  "\u2581Numbers": 7341,
  "\u2581Position": 7342,
  "\u2581River": 7343,
  "\u2581Stephen": 7344,
  "\u2581ZA": 7345,
  "\u2581anymore": 7346,
  "\u2581asa": 7347,
  "\u2581byawe": 7348,
  "\u2581byombi": 7349,
  "\u2581flee": 7350,
  "\u2581gukurikira": 7351,
  "\u2581gusurwa": 7352,
  "\u2581hospital": 7353,
  "\u2581larger": 7354,
  "\u2581mur": 7355,
  "\u2581piece": 7356,
  "\u2581population": 7357,
  "\u2581reads": 7358,
  "\u2581requests": 7359,
  "\u2581south": 7360,
  "\u2581umenye": 7361,
  "\u2581umutungo": 7362,
  "Mu": 7363,
  "ill": 7364,
  "kuko": 7365,
  "\u2581145": 7366,
  "\u2581ABA": 7367,
  "\u2581Abari": 7368,
  "\u2581Amakuru": 7369,
  "\u2581Inshamake": 7370,
  "\u2581Kind": 7371,
  "\u2581THIS": 7372,
  "\u2581backup": 7373,
  "\u2581basaza": 7374,
  "\u2581bifatanya": 7375,
  "\u2581caught": 7376,
  "\u2581dushimira": 7377,
  "\u2581grain": 7378,
  "\u2581installation": 7379,
  "\u2581refreshing": 7380,
  "\u2581tabernacle": 7381,
  "ukwezi": 7382,
  "umugi": 7383,
  "\u2581Gihugu": 7384,
  "\u2581atara": 7385,
  "\u2581bugaragaza": 7386,
  "\u2581export": 7387,
  "\u2581intense": 7388,
  "\u2581maintaining": 7389,
  "\u2581numvise": 7390,
  "\u2581patiently": 7391,
  "\u2581ryerekeza": 7392,
  "\u2581trade": 7393,
  "iwabo": 7394,
  "shu": 7395,
  "tangiriye": 7396,
  "\u2581Pilato": 7397,
  "\u2581Yonatani": 7398,
  "\u2581Yongeye": 7399,
  "\u2581abakobwa": 7400,
  "\u2581bagakora": 7401,
  "\u2581bashyiraho": 7402,
  "\u2581beast": 7403,
  "\u2581birakwiriye": 7404,
  "\u2581changing": 7405,
  "\u2581detail": 7406,
  "\u2581dusanga": 7407,
  "\u2581handled": 7408,
  "\u2581wita": 7409,
  "Abaheburayo": 7410,
  "bw": 7411,
  "gereranya": 7412,
  "ld": 7413,
  "urungano": 7414,
  "\u2581Filter": 7415,
  "\u2581Lamb": 7416,
  "\u2581Martin": 7417,
  "\u2581bajye": 7418,
  "\u2581connected": 7419,
  "\u2581disable": 7420,
  "\u2581distant": 7421,
  "\u2581drew": 7422,
  "\u2581en": 7423,
  "\u2581existed": 7424,
  "\u2581gutandukanya": 7425,
  "\u2581historical": 7426,
  "\u2581hospitality": 7427,
  "\u2581kuvugwa": 7428,
  "\u2581motion": 7429,
  "\u2581pleasant": 7430,
  "\u2581street": 7431,
  "\u2581tries": 7432,
  "\u2581typical": 7433,
  "\u2581ubuhinduzi": 7434,
  "WE": 7435,
  "ibya": 7436,
  "singiza": 7437,
  "\u2581Pu": 7438,
  "\u2581Republic": 7439,
  "\u2581Undo": 7440,
  "\u2581akanya": 7441,
  "\u2581bahise": 7442,
  "\u2581bukeye": 7443,
  "\u2581filters": 7444,
  "\u2581ibirenge": 7445,
  "\u2581igenda": 7446,
  "\u2581origin": 7447,
  "\u2581pressures": 7448,
  "\u2581topic": 7449,
  "\u2581umumarayika": 7450,
  "\u2581umwarimu": 7451,
  "\u2581yabanje": 7452,
  "ard": 7453,
  "beshya": 7454,
  "kagaragaza": 7455,
  "omite": 7456,
  "\u258142.": 7457,
  "\u2581HOW": 7458,
  "\u2581Library": 7459,
  "\u2581Naomi": 7460,
  "\u2581Which": 7461,
  "\u2581bashobore": 7462,
  "\u2581foot": 7463,
  "\u2581ikunogeye": 7464,
  "\u2581izahinduka": 7465,
  "\u2581kwihatira": 7466,
  "\u2581kwirengagiza": 7467,
  "\u2581meek": 7468,
  "\u2581nto": 7469,
  "\u2581preferences": 7470,
  "\u2581seventh": 7471,
  "\u2581tukagira": 7472,
  "\u2581widely": 7473,
  "\u2581yongera": 7474,
  "directory": 7475,
  "key": 7476,
  "style": 7477,
  "tandukanya": 7478,
  "tubwira": 7479,
  "\u2581Empire": 7480,
  "\u2581Unlike": 7481,
  "\u2581abandon": 7482,
  "\u2581akorera": 7483,
  "\u2581appeal": 7484,
  "\u2581barenga": 7485,
  "\u2581bigo": 7486,
  "\u2581huge": 7487,
  "\u2581icyenda": 7488,
  "\u2581moshi": 7489,
  "\u2581motives": 7490,
  "\u2581relate": 7491,
  "\u2581shortly": 7492,
  "\u2581thankful": 7493,
  "\u2581ubwikunde": 7494,
  ".;..": 7495,
  "Urukiko": 7496,
  "ibyokurya": 7497,
  "renga": 7498,
  "\u258145.": 7499,
  "\u2581Gihe": 7500,
  "\u2581Human": 7501,
  "\u2581INGARUKA": 7502,
  "\u2581INGINGO": 7503,
  "\u2581Island": 7504,
  "\u2581Kurura": 7505,
  "\u2581Pilate": 7506,
  "\u2581Ukwezi": 7507,
  "\u2581dust": 7508,
  "\u2581eg": 7509,
  "\u2581kya": 7510,
  "\u2581muriro": 7511,
  "\u2581nar": 7512,
  "\u2581ran": 7513,
  "\u2581spirits": 7514,
  "\u2581ugusura": 7515,
  "\u2581weather": 7516,
  "set": 7517,
  "ubutware": 7518,
  "yamigaragarire": 7519,
  "\u258161": 7520,
  "\u2581Continue": 7521,
  "\u2581Inyuran": 7522,
  "\u2581Kubara": 7523,
  "\u2581MURI": 7524,
  "\u2581birinda": 7525,
  "\u2581dangers": 7526,
  "\u2581entrusted": 7527,
  "\u2581eternity": 7528,
  "\u2581gatabo": 7529,
  "\u2581green": 7530,
  "\u2581holds": 7531,
  "\u2581ishema": 7532,
  "\u2581kuyoboka": 7533,
  "\u2581serpent": 7534,
  "\u2581stayed": 7535,
  "\u2581wara": 7536,
  "\u2581weaknesses": 7537,
  "\u2581yohereje": 7538,
  "garura": 7539,
  "genze": 7540,
  "\u2581Abeli": 7541,
  "\u2581Bose": 7542,
  "\u2581Brazil": 7543,
  "\u2581California": 7544,
  "\u2581Ear": 7545,
  "\u2581GIFUBIKO": 7546,
  "\u2581Guhagarara": 7547,
  "\u2581Jordan": 7548,
  "\u2581Turi": 7549,
  "\u2581buti": 7550,
  "\u2581developing": 7551,
  "\u2581enjoying": 7552,
  "\u2581mafaranga": 7553,
  "\u2581mi": 7554,
  "\u2581paying": 7555,
  "\u2581pointer": 7556,
  "\u2581relevant": 7557,
  "\u2581scripture": 7558,
  "\u2581tempted": 7559,
  "\u2581wrath": 7560,
  "ahuye": 7561,
  "kirwa": 7562,
  "komera": 7563,
  "pfu": 7564,
  "shatse": 7565,
  "\u2581144,000": 7566,
  "\u25811994": 7567,
  "\u2581Nations": 7568,
  "\u2581Task": 7569,
  "\u2581Workspace": 7570,
  "\u2581bamuteze": 7571,
  "\u2581bishishikaje": 7572,
  "\u2581charge": 7573,
  "\u2581gained": 7574,
  "\u2581games": 7575,
  "\u2581guhesha": 7576,
  "\u2581gutangiza": 7577,
  "\u2581imipaka": 7578,
  "\u2581ivugwa": 7579,
  "\u2581kiganiro": 7580,
  "\u2581ngabo": 7581,
  "\u2581planet": 7582,
  "\u2581remembered": 7583,
  "\u2581rewarded": 7584,
  "\u2581surrounded": 7585,
  "\u2581umwenda": 7586,
  "\u2581zabaga": 7587,
  "Abagaragu": 7588,
  "gamo": 7589,
  "iye": 7590,
  "\u25811990": 7591,
  "\u2581African": 7592,
  "\u2581Byari": 7593,
  "\u2581Josiah": 7594,
  "\u2581Nawomi": 7595,
  "\u2581abanyamahanga": 7596,
  "\u2581bigana": 7597,
  "\u2581butunguranye": 7598,
  "\u2581byimbitse": 7599,
  "\u2581closing": 7600,
  "\u2581cyihariye": 7601,
  "\u2581moko": 7602,
  "\u2581mube": 7603,
  "\u2581nkombe": 7604,
  "\u2581northern": 7605,
  "\u2581safeguard": 7606,
  "\u2581thanks": 7607,
  "\u2581twiringira": 7608,
  "\u2581umukara": 7609,
  "\u2581wabaye": 7610,
  "\u2581wiga": 7611,
  "ME": 7612,
  "OR": 7613,
  "buze": 7614,
  "gusha": 7615,
  "ibiti": 7616,
  "keep": 7617,
  "riwe": 7618,
  "tswe": 7619,
  "uburakari": 7620,
  "\u258164": 7621,
  "\u2581Five": 7622,
  "\u2581Gen": 7623,
  "\u2581Nu": 7624,
  "\u2581Numva": 7625,
  "\u2581Previous": 7626,
  "\u2581afterward": 7627,
  "\u2581avuye": 7628,
  "\u2581commandment": 7629,
  "\u2581contributed": 7630,
  "\u2581fourth": 7631,
  "\u2581gari": 7632,
  "\u2581lifestyle": 7633,
  "\u2581linked": 7634,
  "\u2581ntibu": 7635,
  "\u2581plant": 7636,
  "\u2581proceeded": 7637,
  "\u2581protected": 7638,
  "\u2581riboneka": 7639,
  "\u2581twagiye": 7640,
  "\u2581victims": 7641,
  "\u2581yakoreye": 7642,
  "Abibumbye": 7643,
  "igitambo": 7644,
  "ingorabahizi": 7645,
  "right": 7646,
  "tic": 7647,
  "\u25811918": 7648,
  "\u25811993": 7649,
  "\u2581Anna": 7650,
  "\u2581Empty": 7651,
  "\u2581Jude": 7652,
  "\u2581Ukuboza": 7653,
  "\u2581angle": 7654,
  "\u2581bahindura": 7655,
  "\u2581bibaho": 7656,
  "\u2581bidatinze": 7657,
  "\u2581boys": 7658,
  "\u2581gitambo": 7659,
  "\u2581gutaka": 7660,
  "\u2581kwanjye": 7661,
  "\u2581kwigwa": 7662,
  "\u2581raising": 7663,
  "\u2581uha": 7664,
  "\u2581umwungeri": 7665,
  "\u2581urugo": 7666,
  "\u2581yahisemo": 7667,
  "Imyak": 7668,
  "gerwaho": 7669,
  "rengeje": 7670,
  "ufitanye": 7671,
  "use": 7672,
  "\u258152": 7673,
  "\u2581Class": 7674,
  "\u2581Sets": 7675,
  "\u2581UTF": 7676,
  "\u2581abanditsi": 7677,
  "\u2581advanced": 7678,
  "\u2581ar": 7679,
  "\u2581bazabona": 7680,
  "\u2581biranga": 7681,
  "\u2581buntu": 7682,
  "\u2581gukiranirwa": 7683,
  "\u2581increasing": 7684,
  "\u2581isanzure": 7685,
  "\u2581mana": 7686,
  "\u2581repeated": 7687,
  "\u2581suitable": 7688,
  "\u2581yiga": 7689,
  "-%": 7690,
  "garagarira": 7691,
  "ingingo": 7692,
  "ndu": 7693,
  "suzumye": 7694,
  "umutekano": 7695,
  "\u2581Aga": 7696,
  "\u2581ITEGEKONGENGA": 7697,
  "\u2581Italy": 7698,
  "\u2581Umuyoboro": 7699,
  "\u2581attached": 7700,
  "\u2581bed": 7701,
  "\u2581bitera": 7702,
  "\u2581burning": 7703,
  "\u2581calamity": 7704,
  "\u2581gutahura": 7705,
  "\u2581hame": 7706,
  "\u2581hehe": 7707,
  "\u2581ibiyobyabwenge": 7708,
  "\u2581inherited": 7709,
  "\u2581retrieve": 7710,
  "\u2581sequence": 7711,
  "\u2581yahindutse": 7712,
  "\u2581yandikaga": 7713,
  "License": 7714,
  "Umurimo": 7715,
  "nza": 7716,
  "rirwa": 7717,
  "\u2581Akayunguruzo": 7718,
  "\u2581Egyptian": 7719,
  "\u2581Forward": 7720,
  "\u2581Hide": 7721,
  "\u2581birangwa": 7722,
  "\u2581bushakashatsi": 7723,
  "\u2581cast": 7724,
  "\u2581claimed": 7725,
  "\u2581fitting": 7726,
  "\u2581leaves": 7727,
  "\u2581mufite": 7728,
  "\u2581ntitu": 7729,
  "\u2581parameters": 7730,
  "\u2581rate": 7731,
  "\u2581sensitive": 7732,
  "\u2581software": 7733,
  "\u2581stretch": 7734,
  "\u2581tear": 7735,
  "\u2581tend": 7736,
  "\u2581videwo": 7737,
  "Ibyahishuwe": 7738,
  "kandi": 7739,
  "\u25814]": 7740,
  "\u2581Habakkuk": 7741,
  "\u2581Igishimishije": 7742,
  "\u2581Ivanjiri": 7743,
  "\u2581Yatangiye": 7744,
  "\u2581Yosiya": 7745,
  "\u2581agreement": 7746,
  "\u2581ahabwa": 7747,
  "\u2581campaign": 7748,
  "\u2581hazabaho": 7749,
  "\u2581kugeraho": 7750,
  "\u2581lists": 7751,
  "\u2581mine": 7752,
  "\u2581obeying": 7753,
  "\u2581preserve": 7754,
  "\u2581primarily": 7755,
  "\u2581rock": 7756,
  "\u2581yabereye": 7757,
  "abanyabwenge": 7758,
  "komere": 7759,
  "reke": 7760,
  "subira": 7761,
  "umuhanuzi": 7762,
  "\u2581Cya": 7763,
  "\u2581Ezra": 7764,
  "\u2581Remote": 7765,
  "\u2581Specifie": 7766,
  "\u2581areba": 7767,
  "\u2581attacks": 7768,
  "\u2581buke": 7769,
  "\u2581ingendo": 7770,
  "\u2581kuzagira": 7771,
  "\u2581mass": 7772,
  "\u2581perfection": 7773,
  "\u2581tested": 7774,
  "\u2581ubwibone": 7775,
  "\u2581urges": 7776,
  "\u2581viewing": 7777,
  "\u2581yakora": 7778,
  "City": 7779,
  "credits": 7780,
  "cya": 7781,
  "his": 7782,
  "kubita": 7783,
  "les": 7784,
  "\u2581Auto": 7785,
  "\u2581Barnabas": 7786,
  "\u2581Come": 7787,
  "\u2581February": 7788,
  "\u2581Men": 7789,
  "\u2581Must": 7790,
  "\u2581Umwanzi": 7791,
  "\u2581brain": 7792,
  "\u2581cared": 7793,
  "\u2581foolish": 7794,
  "\u2581frequently": 7795,
  "\u2581generally": 7796,
  "\u2581icyitegererezo": 7797,
  "\u2581kumuha": 7798,
  "\u2581ngomba": 7799,
  "\u2581presentation": 7800,
  "\u2581singing": 7801,
  "\u2581wanditse": 7802,
  "\u2581wholesome": 7803,
  "\\\\": 7804,
  "ibihugu": 7805,
  "impamyabushobozi": 7806,
  "uburwayi": 7807,
  "\u2581Habakuki": 7808,
  "\u2581Nawe": 7809,
  "\u2581Prayer": 7810,
  "\u2581Year": 7811,
  "\u2581accompany": 7812,
  "\u2581akuyoborer": 7813,
  "\u2581bine": 7814,
  "\u2581glorify": 7815,
  "\u2581ibihumbi": 7816,
  "\u2581initiative": 7817,
  "\u2581iwacu": 7818,
  "\u2581korganizer": 7819,
  "\u2581kuguma": 7820,
  "\u2581masengesho": 7821,
  "\u2581migi": 7822,
  "\u2581returning": 7823,
  "\u2581river": 7824,
  "483,": 7825,
  "ibimburira": 7826,
  "kwi": 7827,
  "mpa": 7828,
  "op": 7829,
  "shyiraho": 7830,
  "ubutwari": 7831,
  "\u2581Ezira": 7832,
  "\u2581Ishoborabyose": 7833,
  "\u2581Mwana": 7834,
  "\u2581amahitamo": 7835,
  "\u2581amenya": 7836,
  "\u2581bicisha": 7837,
  "\u2581bize": 7838,
  "\u2581bwagaragaje": 7839,
  "\u2581empire": 7840,
  "\u2581encounter": 7841,
  "\u2581gusanga": 7842,
  "\u2581irenga": 7843,
  "\u2581itubwira": 7844,
  "\u2581kudu": 7845,
  "\u2581menubar": 7846,
  "\u2581newspaper": 7847,
  "\u2581opposed": 7848,
  "\u2581philosophy": 7849,
  "\u2581readers": 7850,
  "\u2581shebuja": 7851,
  "\u2581team": 7852,
  "\u2581ziva": 7853,
  "Abaporotesitanti": 7854,
  "full": 7855,
  "hishe": 7856,
  "kagira": 7857,
  "print": 7858,
  "rusha": 7859,
  "\u2581(\"": 7860,
  "\u2581Spiritual": 7861,
  "\u2581amafunguro": 7862,
  "\u2581bitaro": 7863,
  "\u2581bukabije": 7864,
  "\u2581edge": 7865,
  "\u2581kugandukira": 7866,
  "\u2581poured": 7867,
  "\u2581recreation": 7868,
  "\u2581scientists": 7869,
  "\u2581tubonye": 7870,
  "\u2581ubwacu": 7871,
  "\u2581urumuri": 7872,
  "\u2581warns": 7873,
  "\u2581yombi": 7874,
  "\u2581zumvikana": 7875,
  "\u2581Itegeko": 7876,
  "\u2581Kubaza": 7877,
  "\u2581Ngenderwaho": 7878,
  "\u2581agatabo": 7879,
  "\u2581agize": 7880,
  "\u2581asenga": 7881,
  "\u2581atandatu": 7882,
  "\u2581bakumva": 7883,
  "\u2581corner": 7884,
  "\u2581desirable": 7885,
  "\u2581draws": 7886,
  "\u2581gushyingiranwa": 7887,
  "\u2581mailing": 7888,
  "\u2581pieces": 7889,
  "\u2581resolved": 7890,
  "\u2581suggests": 7891,
  "\u2581umugongo": 7892,
  "ized": 7893,
  "\u2581Galilaya": 7894,
  "\u2581Granted": 7895,
  "\u2581Igihumbi": 7896,
  "\u2581acknowledged": 7897,
  "\u2581bibaza": 7898,
  "\u2581igitsina": 7899,
  "\u2581kalindari": 7900,
  "\u2581opinion": 7901,
  "\u2581ruhare": 7902,
  "\u2581soil": 7903,
  "\u2581threatened": 7904,
  "\u2581trusting": 7905,
  "\u2581ushoboye": 7906,
  "\u2581whenever": 7907,
  "hinduye": 7908,
  "indimi": 7909,
  "inger": 7910,
  "\u2581Congregation": 7911,
  "\u2581Ibinyurany": 7912,
  "\u2581agakora": 7913,
  "\u2581bashakaga": 7914,
  "\u2581birwa": 7915,
  "\u2581clock": 7916,
  "\u2581fallen": 7917,
  "\u2581finds": 7918,
  "\u2581kwayo": 7919,
  "\u2581ordered": 7920,
  "\u2581sold": 7921,
  "\u2581teleport": 7922,
  "By": 7923,
  "abamisiyonari": 7924,
  "abanyabyaha": 7925,
  "dusunikira": 7926,
  "end": 7927,
  "ibirometero": 7928,
  "ingeso": 7929,
  "shishikajwe": 7930,
  "ubwiza": 7931,
  "\u2581400": 7932,
  "\u2581Besides": 7933,
  "\u2581Far": 7934,
  "\u2581Height": 7935,
  "\u2581Nautilus": 7936,
  "\u2581Press": 7937,
  "\u2581Rev": 7938,
  "\u2581Trinity": 7939,
  "\u2581Twakora": 7940,
  "\u2581babaho": 7941,
  "\u2581bitanga": 7942,
  "\u2581calm": 7943,
  "\u2581cruel": 7944,
  "\u2581explanation": 7945,
  "\u2581icyemezo": 7946,
  "\u2581ijisho": 7947,
  "\u2581meditation": 7948,
  "\u2581mourning": 7949,
  "\u2581wrongdoing": 7950,
  "\u2581zivugwa": 7951,
  "han": 7952,
  "rganizer": 7953,
  "shyi": 7954,
  "urubyaro": 7955,
  "\u2581Audio": 7956,
  "\u2581Canaan": 7957,
  "\u2581Esiteri": 7958,
  "\u2581Tools": 7959,
  "\u2581aged": 7960,
  "\u2581dini": 7961,
  "\u2581gihishwe": 7962,
  "\u2581iminota": 7963,
  "\u2581kubigeraho": 7964,
  "\u2581observes": 7965,
  "\u2581phrase": 7966,
  "\u2581plague": 7967,
  "\u2581records": 7968,
  "\u2581tendency": 7969,
  "\u2581twice": 7970,
  "\u2581uwitwa": 7971,
  "\u2581whereas": 7972,
  "\u2581yigishaga": 7973,
  "agendekeye": 7974,
  "that": 7975,
  "\u2581Alufa": 7976,
  "\u2581Author": 7977,
  "\u2581Iyimura": 7978,
  "\u2581adding": 7979,
  "\u2581adopt": 7980,
  "\u2581arms": 7981,
  "\u2581ategeka": 7982,
  "\u2581bahagarara": 7983,
  "\u2581footnote": 7984,
  "\u2581gusohora": 7985,
  "\u2581harsh": 7986,
  "\u2581ikirenge": 7987,
  "\u2581judicial": 7988,
  "\u2581kujyana": 7989,
  "\u2581kuvugana": 7990,
  "\u2581locate": 7991,
  "\u2581marayika": 7992,
  "\u2581preserved": 7993,
  "\u2581principal": 7994,
  "\u2581sufficient": 7995,
  "\u2581ukorera": 7996,
  "\u2581utagira": 7997,
  "\u2581virtual": 7998,
  "ababwiriza": 7999,
  "ashimishijwe": 8000,
  "avuganye": 8001,
  "\u2581Above": 8002,
  "\u2581Bikorwa": 8003,
  "\u2581ISGPLLGPL": 8004,
  "\u2581Ifishi": 8005,
  "\u2581Kongeraho": 8006,
  "\u2581Nisani": 8007,
  "\u2581Return": 8008,
  "\u2581ahindura": 8009,
  "\u2581areka": 8010,
  "\u2581batara": 8011,
  "\u2581bukaba": 8012,
  "\u2581busa": 8013,
  "\u2581ibivugaho": 8014,
  "\u2581keza": 8015,
  "\u2581kitari": 8016,
  "\u2581kudatungana": 8017,
  "\u2581labor": 8018,
  "\u2581package": 8019,
  "\u2581price": 8020,
  "\u2581realm": 8021,
  "\u2581tubi": 8022,
  "\u2581ubugome": 8023,
  "\u2581umunyabyaha": 8024,
  "\u2581urwikekwe": 8025,
  "\u2581virtue": 8026,
  "\":": 8027,
  "atanze": 8028,
  "bika": 8029,
  "dd": 8030,
  "ibitotezo": 8031,
  "intego": 8032,
  "ire": 8033,
  "irema": 8034,
  "\u2581Disable": 8035,
  "\u2581Herod": 8036,
  "\u2581Leviticus": 8037,
  "\u2581Things": 8038,
  "\u2581UKO": 8039,
  "\u2581believing": 8040,
  "\u2581bingana": 8041,
  "\u2581buyobozi": 8042,
  "\u2581chance": 8043,
  "\u2581depression": 8044,
  "\u2581dying": 8045,
  "\u2581earnestly": 8046,
  "\u2581exact": 8047,
  "\u2581humankind": 8048,
  "\u2581keyring": 8049,
  "\u2581kwemeza": 8050,
  "\u2581lips": 8051,
  "\u2581requested": 8052,
  "\u2581risobanurwa": 8053,
  "\u2581stories": 8054,
  "\u2581umugereka": 8055,
  "inararibonye": 8056,
  "naga": 8057,
  "struct": 8058,
  "tsinda": 8059,
  "umwihariko": 8060,
  "\u2581Inyibutsa": 8061,
  "\u2581Itorero": 8062,
  "\u2581Nisan": 8063,
  "\u2581Urwibutso": 8064,
  "\u2581bazishimira": 8065,
  "\u2581detailed": 8066,
  "\u2581devices": 8067,
  "\u2581drugs": 8068,
  "\u2581quiet": 8069,
  "\u2581sessions": 8070,
  "\u2581suddenly": 8071,
  "\u2581tent": 8072,
  "Yakomeje": 8073,
  "ber": 8074,
  "dutera": 8075,
  "tangaza": 8076,
  "\u2581Ben": 8077,
  "\u2581Dad": 8078,
  "\u2581Esipanye": 8079,
  "\u2581Indi": 8080,
  "\u2581Marita": 8081,
  "\u2581Religion": 8082,
  "\u2581Russia": 8083,
  "\u2581Special": 8084,
  "\u2581amafoto": 8085,
  "\u2581amakimbirane": 8086,
  "\u2581amubwira": 8087,
  "\u2581birori": 8088,
  "\u2581covering": 8089,
  "\u2581habayeho": 8090,
  "\u2581interesting": 8091,
  "\u2581ireme": 8092,
  "\u2581ntizi": 8093,
  "\u2581positions": 8094,
  "\u2581structure": 8095,
  "\u2581talks": 8096,
  "\u2581threat": 8097,
  "TE": 8098,
  "US": 8099,
  "bushobozi": 8100,
  "siga": 8101,
  "ubuntu": 8102,
  "yobya": 8103,
  "\u25811935": 8104,
  "\u258183": 8105,
  "\u2581Archive": 8106,
  "\u2581Assembly": 8107,
  "\u2581CA": 8108,
  "\u2581Gererany": 8109,
  "\u2581Henoki": 8110,
  "\u2581Nimukanguke": 8111,
  "\u2581Umubyeyi": 8112,
  "\u2581Umwimerere": 8113,
  "\u2581bakomoka": 8114,
  "\u2581bifuzaga": 8115,
  "\u2581comparison": 8116,
  "\u2581greed": 8117,
  "\u2581gt": 8118,
  "\u2581hashobora": 8119,
  "\u2581headers": 8120,
  "\u2581headquarters": 8121,
  "\u2581kopete": 8122,
  "\u2581mato": 8123,
  "\u2581painful": 8124,
  "\u2581slavery": 8125,
  "\u2581utu": 8126,
  "\u2581yemeraga": 8127,
  "\u2581zitangwa": 8128,
  "ajyaga": 8129,
  "are": 8130,
  "bwirwa": 8131,
  "che": 8132,
  "der": 8133,
  "garagazwa": 8134,
  "tion": 8135,
  "umucyo": 8136,
  "\u25811943": 8137,
  "\u2581Gashyantare": 8138,
  "\u2581Heart": 8139,
  "\u2581Index": 8140,
  "\u2581Subversion": 8141,
  "\u2581addresses": 8142,
  "\u2581adults": 8143,
  "\u2581akana": 8144,
  "\u2581amakuba": 8145,
  "\u2581bareka": 8146,
  "\u2581burn": 8147,
  "\u2581conflicts": 8148,
  "\u2581eliminate": 8149,
  "\u2581guilty": 8150,
  "\u2581obtained": 8151,
  "\u2581phone": 8152,
  "\u2581turns": 8153,
  "\u2581twiteguye": 8154,
  "\u2581yera": 8155,
  "\u2581zira": 8156,
  "\u2581{0}": 8157,
  "imihangayiko": 8158,
  "shinga": 8159,
  "turuka": 8160,
  "\u2581Connection": 8161,
  "\u2581Directory": 8162,
  "\u2581Ga": 8163,
  "\u2581Icyatsi": 8164,
  "\u2581Long": 8165,
  "\u2581Rotate": 8166,
  "\u2581Ubwenge": 8167,
  "\u2581Years": 8168,
  "\u2581abaganga": 8169,
  "\u2581ahita": 8170,
  "\u2581annual": 8171,
  "\u2581atmosphere": 8172,
  "\u2581bageraho": 8173,
  "\u2581capacity": 8174,
  "\u2581delighted": 8175,
  "\u2581famous": 8176,
  "\u2581habit": 8177,
  "\u2581hardly": 8178,
  "\u2581ikirere": 8179,
  "\u2581kwicwa": 8180,
  "\u2581mwandiko": 8181,
  "\u2581objective": 8182,
  "\u2581suggested": 8183,
  "\u2581usenga": 8184,
  "Copy": 8185,
  "bere": 8186,
  "geraho": 8187,
  "impanuka": 8188,
  "ji": 8189,
  "murikira": 8190,
  "niye": 8191,
  "rangira": 8192,
  "ubugwaneza": 8193,
  "\u25811940": 8194,
  "\u2581AND": 8195,
  "\u2581Account": 8196,
  "\u2581British": 8197,
  "\u2581Ubutegetsi": 8198,
  "\u2581Warning": 8199,
  "\u2581addressed": 8200,
  "\u2581bibabaje": 8201,
  "\u2581buhebuje": 8202,
  "\u2581design": 8203,
  "\u2581everywhere": 8204,
  "\u2581kabuza": 8205,
  "\u2581kurangiza": 8206,
  "\u2581kwihana": 8207,
  "\u2581likened": 8208,
  "\u2581loyally": 8209,
  "\u2581matsinda": 8210,
  "\u2581muburo": 8211,
  "\u2581partner": 8212,
  "\u2581post": 8213,
  "\u2581repository": 8214,
  "\u2581rutum": 8215,
  "\u2581rwagati": 8216,
  "\u2581separated": 8217,
  "\u2581wabayeho": 8218,
  "\u2581zombi": 8219,
  "KA": 8220,
  "humuriza": 8221,
  "simbura": 8222,
  "\u2581Akira": 8223,
  "\u2581Dufite": 8224,
  "\u2581Jean": 8225,
  "\u2581Kwemerera": 8226,
  "\u2581Levites": 8227,
  "\u2581Review": 8228,
  "\u2581YO": 8229,
  "\u2581bura": 8230,
  "\u2581cyinshi": 8231,
  "\u2581declaring": 8232,
  "\u2581floating": 8233,
  "\u2581formatted": 8234,
  "\u2581gucira": 8235,
  "\u2581hot": 8236,
  "\u2581icyitonderwa": 8237,
  "\u2581imibare": 8238,
  "\u2581mailbox": 8239,
  "\u2581manual": 8240,
  "\u2581mid": 8241,
  "\u2581possibility": 8242,
  "\u2581ruled": 8243,
  "Close": 8244,
  "abanje": 8245,
  "guru": 8246,
  "imigisha": 8247,
  "izi": 8248,
  "sohora": 8249,
  "www": 8250,
  "\u2581Cyavanyweho": 8251,
  "\u2581Gentiles": 8252,
  "\u2581Guhanga": 8253,
  "\u2581Often": 8254,
  "\u2581Personal": 8255,
  "\u2581Point": 8256,
  "\u2581Seed": 8257,
  "\u2581Three": 8258,
  "\u2581Uburebure": 8259,
  "\u2581Umubarwa": 8260,
  "\u2581badness": 8261,
  "\u2581bateraniye": 8262,
  "\u2581bwanyu": 8263,
  "\u2581imyitwarire": 8264,
  "\u2581mashya": 8265,
  "\u2581miracle": 8266,
  "\u2581mugaragaro": 8267,
  "\u2581rewarding": 8268,
  "\u2581sky": 8269,
  "\u2581slot": 8270,
  "\u2581umwanzi": 8271,
  "\u2581uribuka": 8272,
  "\u2581warfare": 8273,
  "\u2581yiringiye": 8274,
  "\u2581zika": 8275,
  "\u2581zirimo": 8276,
  "HO": 8277,
  "iry": 8278,
  "irya": 8279,
  "shyirwa": 8280,
  "tegekwa": 8281,
  "turwa": 8282,
  "\u2581Coordinate": 8283,
  "\u2581Galilee": 8284,
  "\u2581Gukata": 8285,
  "\u2581Museum": 8286,
  "\u2581Sermon": 8287,
  "\u2581Within": 8288,
  "\u2581accompanie": 8289,
  "\u2581byifashe": 8290,
  "\u2581leader": 8291,
  "\u2581mezi": 8292,
  "\u2581normally": 8293,
  "\u2581references": 8294,
  "\u2581restart": 8295,
  "\u2581sub": 8296,
  "\u2581twakoze": 8297,
  "\u2581walls": 8298,
  "\u2581yahinduye": 8299,
  "\u2581zealously": 8300,
  "gabanya": 8301,
  "off": 8302,
  "reba": 8303,
  "side": 8304,
  "umvise": 8305,
  "\u25811939": 8306,
  "\u2581Albert": 8307,
  "\u2581Application": 8308,
  "\u2581Bo": 8309,
  "\u2581Character": 8310,
  "\u2581Cyane": 8311,
  "\u2581Dan": 8312,
  "\u2581INT": 8313,
  "\u2581Nyir": 8314,
  "\u2581abasigaye": 8315,
  "\u2581arrested": 8316,
  "\u2581baramu": 8317,
  "\u2581bazima": 8318,
  "\u2581kugaruka": 8319,
  "\u2581minute": 8320,
  "\u2581porunogarafiya": 8321,
  "\u2581treasures": 8322,
  "\u2581twigana": 8323,
  "\u2581usura": 8324,
  "\u2581viewer": 8325,
  "\u2581yashubije": 8326,
  "%%": 8327,
  "asabye": 8328,
  "bone": 8329,
  "guma": 8330,
  "inshingano": 8331,
  "kde": 8332,
  "let": 8333,
  "tinye": 8334,
  "umvaga": 8335,
  "ural": 8336,
  "\u2581Fear": 8337,
  "\u2581Images": 8338,
  "\u2581Isengesho": 8339,
  "\u2581Kigali": 8340,
  "\u2581Ntiba": 8341,
  "\u2581Thomas": 8342,
  "\u2581Ukwakira": 8343,
  "\u2581arrive": 8344,
  "\u2581bayobozi": 8345,
  "\u2581convert": 8346,
  "\u2581creature": 8347,
  "\u2581crowds": 8348,
  "\u2581cyadufasha": 8349,
  "\u2581ensure": 8350,
  "\u2581expectation": 8351,
  "\u2581hardships": 8352,
  "\u2581highlighted": 8353,
  "\u2581ibikwiriye": 8354,
  "\u2581imyanya": 8355,
  "\u2581kimurika": 8356,
  "\u2581remov": 8357,
  "\u2581udu": 8358,
  "\u2581umurwa": 8359,
  "\u2581yatekerezaga": 8360,
  "akundaga": 8361,
  "au": 8362,
  "barirwa": 8363,
  "ff": 8364,
  "ibikoresho": 8365,
  "kesha": 8366,
  "nyuze": 8367,
  "rokora": 8368,
  "uk": 8369,
  "\u25811998": 8370,
  "\u2581529": 8371,
  "\u2581Di": 8372,
  "\u2581Fill": 8373,
  "\u2581Ibyerekeye": 8374,
  "\u2581bazagira": 8375,
  "\u2581duha": 8376,
  "\u2581encountered": 8377,
  "\u2581machine": 8378,
  "\u2581offerings": 8379,
  "\u2581publicly": 8380,
  "\u2581rwayo": 8381,
  "\u2581scheme": 8382,
  "\u2581sentence": 8383,
  "\u2581twiringiye": 8384,
  "\u2581uvuye": 8385,
  "\u2581uzwi": 8386,
  "\u2581yaramu": 8387,
  "GPL": 8388,
  "banza": 8389,
  "click": 8390,
  "from": 8391,
  "\u2581Bihindagurika": 8392,
  "\u2581Elihu": 8393,
  "\u2581Emera": 8394,
  "\u2581Evidently": 8395,
  "\u2581Gifaransa": 8396,
  "\u2581Gusohoka": 8397,
  "\u2581Malawi": 8398,
  "\u2581Mukomatanya": 8399,
  "\u2581abakuru": 8400,
  "\u2581approaching": 8401,
  "\u2581assume": 8402,
  "\u2581bidakwiriye": 8403,
  "\u2581depend": 8404,
  "\u2581entering": 8405,
  "\u2581hair": 8406,
  "\u2581iron": 8407,
  "\u2581kuduha": 8408,
  "\u2581kwiruka": 8409,
  "\u2581makuba": 8410,
  "\u2581nya": 8411,
  "\u2581stones": 8412,
  "\u2581tradition": 8413,
  "\u2581umunyabwenge": 8414,
  "\u2581yumvikana": 8415,
  "abakuru": 8416,
  "garagara": 8417,
  "gurira": 8418,
  "hwanye": 8419,
  "koreshwa": 8420,
  "zaga": 8421,
  "\u2581(4)": 8422,
  "\u25811991": 8423,
  "\u2581Content": 8424,
  "\u2581Highlight": 8425,
  "\u2581Ikivugwaho": 8426,
  "\u2581Put": 8427,
  "\u2581Truly": 8428,
  "\u2581Ubumenyi": 8429,
  "\u2581Umuyobozi": 8430,
  "\u2581abatware": 8431,
  "\u2581iwawe": 8432,
  "\u2581knode": 8433,
  "\u2581locally": 8434,
  "\u2581portion": 8435,
  "\u2581pressing": 8436,
  "\u2581privileged": 8437,
  "\u2581profound": 8438,
  "\u2581thrown": 8439,
  "\u2581weakness": 8440,
  "\u2581yitwaga": 8441,
  "aka": 8442,
  "bereye": 8443,
  "goye": 8444,
  "kosora": 8445,
  "\u012b": 8446,
  "\u2581Richard": 8447,
  "\u2581Sign": 8448,
  "\u2581Ukugaragara": 8449,
  "\u2581Umusemuzi": 8450,
  "\u2581abungeri": 8451,
  "\u2581ageraho": 8452,
  "\u2581badu": 8453,
  "\u2581credit": 8454,
  "\u2581disasters": 8455,
  "\u2581gutamba": 8456,
  "\u2581guteranira": 8457,
  "\u2581habaye": 8458,
  "\u2581insert": 8459,
  "\u2581isaha": 8460,
  "\u2581iyindi": 8461,
  "\u2581kwangiza": 8462,
  "\u2581library": 8463,
  "\u2581maximum": 8464,
  "\u2581mubare": 8465,
  "\u2581pa": 8466,
  "\u2581proclaimers": 8467,
  "\u2581survived": 8468,
  "\u2581twizera": 8469,
  "\u2581ukwihangana": 8470,
  "20": 8471,
  "GA": 8472,
  "amatungo": 8473,
  "ell": 8474,
  "fe": 8475,
  "help": 8476,
  "hitamo": 8477,
  "inkuru": 8478,
  "ious": 8479,
  "lot": 8480,
  "mm": 8481,
  "ubutaka": 8482,
  "\u2581Barinaba": 8483,
  "\u2581IS": 8484,
  "\u2581Screenshot": 8485,
  "\u2581abarwayi": 8486,
  "\u2581ayobora": 8487,
  "\u2581basobanukiwe": 8488,
  "\u2581civil": 8489,
  "\u2581cyabaye": 8490,
  "\u2581definition": 8491,
  "\u2581eagerly": 8492,
  "\u2581guhunga": 8493,
  "\u2581igare": 8494,
  "\u2581imibonano": 8495,
  "\u2581inspiring": 8496,
  "\u2581kizaba": 8497,
  "\u2581kp": 8498,
  "\u2581kwiyoroshya": 8499,
  "\u2581passwords": 8500,
  "\u2581terrible": 8501,
  "\u2581tumenye": 8502,
  "\u2581versions": 8503,
  "girire": 8504,
  "ira": 8505,
  "kitezwe": 8506,
  "per": 8507,
  "\u2581103": 8508,
  "\u2581IGIHE": 8509,
  "\u2581Igiti": 8510,
  "\u2581Kera": 8511,
  "\u2581Robots": 8512,
  "\u2581abadayimoni": 8513,
  "\u2581abageze": 8514,
  "\u2581adopted": 8515,
  "\u2581bijya": 8516,
  "\u2581bikabije": 8517,
  "\u2581courageously": 8518,
  "\u2581expanded": 8519,
  "\u2581firstborn": 8520,
  "\u2581helper": 8521,
  "\u2581iha": 8522,
  "\u2581ituruka": 8523,
  "\u2581ntera": 8524,
  "\u2581sat": 8525,
  "\u2581ushyira": 8526,
  "\u2581uwizerwa": 8527,
  "Move": 8528,
  "Your": 8529,
  "cika": 8530,
  "mubera": 8531,
  "node": 8532,
  "\u00e1": 8533,
  "\u2581Befeso": 8534,
  "\u2581Iminota": 8535,
  "\u2581Japanese": 8536,
  "\u2581Judges": 8537,
  "\u2581avugwa": 8538,
  "\u2581bufasha": 8539,
  "\u2581condemned": 8540,
  "\u2581conversations": 8541,
  "\u2581encrypted": 8542,
  "\u2581kuzura": 8543,
  "\u2581locked": 8544,
  "\u2581magara": 8545,
  "\u2581prefer": 8546,
  "\u2581toggle": 8547,
  "\u2581ububi": 8548,
  "\u2581visitors": 8549,
  "\u2581watching": 8550,
  "\u2581weight": 8551,
  "\u2581yagerageje": 8552,
  "Na": 8553,
  "abapfuye": 8554,
  "bar": 8555,
  "log": 8556,
  "menyesha": 8557,
  "ngwa": 8558,
  "tubuza": 8559,
  "uzuyemo": 8560,
  "\u25811992": 8561,
  "\u258132,": 8562,
  "\u2581America": 8563,
  "\u2581Arabic": 8564,
  "\u2581Details": 8565,
  "\u2581IT": 8566,
  "\u2581Igishinwa": 8567,
  "\u2581Imikorere": 8568,
  "\u2581Ohio": 8569,
  "\u2581Redo": 8570,
  "\u2581Umweru": 8571,
  "\u2581Uri": 8572,
  "\u2581acquainted": 8573,
  "\u2581afashe": 8574,
  "\u2581attach": 8575,
  "\u2581baturage": 8576,
  "\u2581bikoresho": 8577,
  "\u2581bituruka": 8578,
  "\u2581follows": 8579,
  "\u2581horizontal": 8580,
  "\u2581ihoraho": 8581,
  "\u2581matching": 8582,
  "\u2581ntangira": 8583,
  "\u2581nyayo": 8584,
  "\u2581observing": 8585,
  "\u2581operate": 8586,
  "\u2581performing": 8587,
  "\u2581prisoners": 8588,
  "\u2581rubanza": 8589,
  "\u2581rubuga": 8590,
  "\u2581ryinshi": 8591,
  "\u2581silent": 8592,
  "\u2581uhagarariye": 8593,
  "agaragazaga": 8594,
  "ated": 8595,
  "gandukira": 8596,
  "hita": 8597,
  "rangwamo": 8598,
  "rize": 8599,
  "suzuma": 8600,
  "tinya": 8601,
  "ubugome": 8602,
  "vugwaho": 8603,
  "\u2581Byihuta": 8604,
  "\u2581Committee": 8605,
  "\u2581Gusimbuza": 8606,
  "\u2581Maximum": 8607,
  "\u2581Nineve": 8608,
  "\u2581Sabbath": 8609,
  "\u2581Update": 8610,
  "\u2581atunze": 8611,
  "\u2581birds": 8612,
  "\u2581corresponding": 8613,
  "\u2581info": 8614,
  "\u2581kuzuza": 8615,
  "\u2581meditating": 8616,
  "\u2581mpande": 8617,
  "\u2581solve": 8618,
  "\u2581spite": 8619,
  "\u2581strike": 8620,
  "\u2581supporting": 8621,
  "\u2581unexpected": 8622,
  "\u2581yamubwiye": 8623,
  "000": 8624,
  "Ubukristo": 8625,
  "WA": 8626,
  "letting": 8627,
  "ntu": 8628,
  "rimbura": 8629,
  "\u2581Ahabu": 8630,
  "\u2581Ibishushanyo": 8631,
  "\u2581Reading": 8632,
  "\u2581Ukuri": 8633,
  "\u2581WA": 8634,
  "\u2581amadosiye": 8635,
  "\u2581governing": 8636,
  "\u2581introduced": 8637,
  "\u2581manifested": 8638,
  "\u2581patriarch": 8639,
  "\u2581permitted": 8640,
  "\u2581smaller": 8641,
  "hagaritse": 8642,
  "kin": 8643,
  "shishikariza": 8644,
  "tere": 8645,
  "uruhererekane": 8646,
  "\u25813]": 8647,
  "\u2581Ahab": 8648,
  "\u2581Col": 8649,
  "\u2581MAHARAKUBIRI": 8650,
  "\u2581Making": 8651,
  "\u2581Office": 8652,
  "\u2581Prompt": 8653,
  "\u2581Says": 8654,
  "\u2581bahora": 8655,
  "\u2581bakoreshaga": 8656,
  "\u2581bategereje": 8657,
  "\u2581dutegereje": 8658,
  "\u2581effectively": 8659,
  "\u2581girls": 8660,
  "\u2581kabone": 8661,
  "\u2581motive": 8662,
  "\u2581planning": 8663,
  "\u2581sayings": 8664,
  "\u2581scientific": 8665,
  "\u2581sitting": 8666,
  "\u2581skin": 8667,
  "\u2581summer": 8668,
  "\u2581tired": 8669,
  "\u2581ufata": 8670,
  "\u2581warnings": 8671,
  "\u2581willingness": 8672,
  "amubajije": 8673,
  "babaza": 8674,
  "ham": 8675,
  "haranira": 8676,
  "shimishije": 8677,
  "thing": 8678,
  "zajya": 8679,
  "\u2581Abayobozi": 8680,
  "\u2581Down": 8681,
  "\u2581Pre": 8682,
  "\u2581Rwibutso": 8683,
  "\u2581aje": 8684,
  "\u2581asobanukiwe": 8685,
  "\u2581banyeshuri": 8686,
[...]
