{
  "</s>": 0,
  "<unk>": 1,
  ".": 2,
  ",": 3,
  "\u2581\"": 4,
  "\u2581the": 5,
  "\u02bc": 6,
  "\u2581to": 7,
  "'": 8,
  "\u2581of": 9,
  "?": 10,
  ":": 11,
  "\u2581and": 12,
  "\u2581ta": 13,
  "\u2581akka": 14,
  "\u2581in": 15,
  "\u2581-": 16,
  "\u2581a": 17,
  "s": 18,
  "\u2581kan": 19,
  "\u2581that": 20,
  "\u2581hin": 21,
  "a": 22,
  "\u2581is": 23,
  "\u2581Jehovah": 24,
  "\u2581we": 25,
  "\u2581for": 26,
  "e": 27,
  "u": 28,
  "\u2581tokko": 29,
  "\u2581(": 30,
  "\u2581God": 31,
  "\u2581his": 32,
  "ee": 33,
  "\u2581you": 34,
  "\u2581isa": 35,
  "\u2581'": 36,
  "\u2581be": 37,
  "\u2581with": 38,
  "\u2581yeroo": 39,
  ";": 40,
  "n": 41,
  "\u2581not": 42,
  "an": 43,
  "\u2581was": 44,
  "\u2581ture": 45,
  "\u2581danda": 46,
  "\u2581will": 47,
  "\u2581on": 48,
  "\u2581as": 49,
  "\u2581he": 50,
  "\u2581have": 51,
  "\u2581I": 52,
  "\u2581fi": 53,
  "\u2581our": 54,
  "\u2581are": 55,
  "ing": 56,
  "\u2581itti": 57,
  "\u2581": 58,
  "!": 59,
  ")": 60,
  "\u2581Jesus": 61,
  "\u2581can": 62,
  "\u2581it": 63,
  "\u2581us": 64,
  "\u2581keenya": 65,
  "\u25811": 66,
  "\u2581The": 67,
  "tti": 68,
  "\u2581waan": 69,
  "\u2581from": 70,
  "\u2581wajjin": 71,
  "\u2581by": 72,
  "\u2581kun": 73,
  "\u2581isaa": 74,
  "\u2581What": 75,
  "\u2581who": 76,
  "uu": 77,
  "fi": 78,
  "\u2581nu": 79,
  "\u2581what": 80,
  "\u2581their": 81,
  "\u2581Yihowaa": 82,
  "\u2581kana": 83,
  "\u2581Yesus": 84,
  "\u2581Bible": 85,
  "\u2581Yihowaan": 86,
  "\u2581do": 87,
  "\u2581they": 88,
  "\u2581isaan": 89,
  "\u2581keessatti": 90,
  "\u2581or": 91,
  "\u2581your": 92,
  "\u2581baay": 93,
  "\u2581qabu": 94,
  "\u2581ni": 95,
  "\u2581Waaqayyoo": 96,
  "\u2581this": 97,
  "\u2581akkamitti": 98,
  "\u2581irratti": 99,
  "aa": 100,
  "\u2581him": 101,
  "\u2581inni": 102,
  "\u2581How": 103,
  "\u2581all": 104,
  "\u2581Waaqayyo": 105,
  "\u2581wanta": 106,
  "\u2581had": 107,
  "\u2581namoota": 108,
  "\u2581gara": 109,
  "\u2581keessa": 110,
  "\u2581nama": 111,
  "\u2581them": 112,
  "\u2581at": 113,
  "\u2581were": 114,
  "\u2581one": 115,
  "\u2581yommuu": 116,
  "\u2581about": 117,
  "\u2581people": 118,
  "\u2581did": 119,
  "\u2581yoo": 120,
  "\u2581an": 121,
  "\u25812": 122,
  "\u2581In": 123,
  "\u2581wal": 124,
  "\u2581would": 125,
  "\u2581maal": 126,
  "\u2581si": 127,
  "\u2581guddaa": 128,
  "\u2581malee": 129,
  "\u2581when": 130,
  "\u2581ykn": 131,
  "\u2581warra": 132,
  "\u2581Qulqulluu": 133,
  "\u2581[": 134,
  "\u2581Yeroo": 135,
  "\u2581ga": 136,
  "\u2581has": 137,
  "\u2581jiru": 138,
  "\u2581may": 139,
  "\u2581time": 140,
  "\u2581namoonni": 141,
  "\u2581my": 142,
  "\u2581keessaa": 143,
  "\u2581life": 144,
  "\u2581turan": 145,
  "\u2581dha": 146,
  "\u2581karaa": 147,
  "\u2581utuu": 148,
  "\u2581those": 149,
  "\u2581isaanii": 150,
  "\u2581booda": 151,
  "\u2581so": 152,
  "\u2581help": 153,
  "\u2581how": 154,
  "\u2581but": 155,
  "]": 156,
  "\u2581waa": 157,
  "\u2581dhaga": 158,
  "\u2581na": 159,
  "\u2581gochuu": 160,
  "dhaan": 161,
  "b": 162,
  "\u2581Macaafa": 163,
  "\u2581irraa": 164,
  "\u2581bara": 165,
  "\u25814": 166,
  "\u2581He": 167,
  "ed": 168,
  "\u2581gaarii": 169,
  "\u2581love": 170,
  "\u2581irra": 171,
  "us": 172,
  "\u2581We": 173,
  "\u2581me": 174,
  "i": 175,
  "\u2581hojii": 176,
  "\u2581some": 177,
  "\u2581more": 178,
  "\u2581du": 179,
  "\u2581good": 180,
  "\u2581her": 181,
  "\u25816": 182,
  "wwan": 183,
  "\u2581should": 184,
  "\u2581garuu": 185,
  "\u2581A": 186,
  "\u2581out": 187,
  "\u2581also": 188,
  "ly": 189,
  "\u2581dhugaa": 190,
  "\u2581Paul": 191,
  "\u25813": 192,
  "\u2581ilaalchisee": 193,
  "rratti": 194,
  "\u2581qaban": 195,
  "\u2581been": 196,
  "\u2581things": 197,
  "\u2581make": 198,
  "\u2581Why": 199,
  "\u2581does": 200,
  "\u2581way": 201,
  "\u2581if": 202,
  "\u2581such": 203,
  "\u2581Namoonni": 204,
  "\u2581akkasumas": 205,
  "ni": 206,
  "\u2581work": 207,
  "\u2581bu": 208,
  "\u258115": 209,
  "\u2581Phaawulos": 210,
  "\u2581akkamii": 211,
  "\u2581spirit": 212,
  "\u2581up": 213,
  "\u2581qaba": 214,
  "\u2581It": 215,
  "\u2581many": 216,
  "\u2581Kana": 217,
  "\u2581akkas": 218,
  "\u2581hafuuraa": 219,
  "in": 220,
  "\u2581hunda": 221,
  "\u2581could": 222,
  "\u2581When": 223,
  "\u2581yaada": 224,
  "\u2581koo": 225,
  "anii": 226,
  "\u2581need": 227,
  "\u2581sana": 228,
  "\u2581ka": 229,
  "\u2022": 230,
  "\u2581garaa": 231,
  "\u2581qabnu": 232,
  "\u258110": 233,
  "uuf": 234,
  "\u2581congregation": 235,
  "\u2581Qulqulluun": 236,
  "\u2581others": 237,
  "\u2581no": 238,
  "\u2581Dhugaa": 239,
  "\u2581Kingdom": 240,
  "\u2581jechuudhaan": 241,
  "\u2581Christian": 242,
  "\u2581haa": 243,
  "\u2581ba": 244,
  "\u2581said": 245,
  "\u2581other": 246,
  "\u25815": 247,
  "\u2581Christians": 248,
  "\u2581Haata": 249,
  "\u2581world": 250,
  "\u2581haala": 251,
  "\u2581even": 252,
  "\u2581dura": 253,
  "\u2581example": 254,
  "\u2581biyya": 255,
  "rraa": 256,
  "\u2581amantii": 257,
  "\u2581maaliifi": 258,
  "is": 259,
  "\u2581faith": 260,
  "\u2581Christ": 261,
  "\u2581For": 262,
  "\u2581day": 263,
  "\u2581nuu": 264,
  "\u2581akkasii": 265,
  "\u2581mana": 266,
  "\u2581man": 267,
  "\u2581jireenya": 268,
  "\u2581there": 269,
  "\"": 270,
  "\u258111": 271,
  "\u2581earth": 272,
  "\u2581first": 273,
  "\u2581hundumaa": 274,
  "\u2581gaa": 275,
  "\u2581than": 276,
  "\u2581gumii": 277,
  "\u25817": 278,
  "\u2581she": 279,
  "\u2581But": 280,
  "el": 281,
  "\u2581erga": 282,
  "een": 283,
  "\u2581qabna": 284,
  "\u258112": 285,
  "ii": 286,
  "\u2581bakka": 287,
  "\u2581spiritual": 288,
  "\u2581jedhu": 289,
  "the": 290,
  "\u2581manaa": 291,
  "\u2581these": 292,
  "\u2581immoo": 293,
  "\u2581into": 294,
  "\u2581jedheera": 295,
  "\u2581As": 296,
  "\u2581If": 297,
  "\u25818": 298,
  "\u2581dandeenya": 299,
  "\u2581Ta": 300,
  "\u2581family": 301,
  "tu": 302,
  "\u2581years": 303,
  "\u2581They": 304,
  "\u2581walitti": 305,
  "\u2581kee": 306,
  "\u2581must": 307,
  "\u2581jedhee": 308,
  "\u2581Israa": 309,
  "\u258113": 310,
  "\u2581keessan": 311,
  "\u2581*": 312,
  "\u2581which": 313,
  "\u2581being": 314,
  "\u2581Kanaaf": 315,
  "\u2581see": 316,
  "\u2581made": 317,
  "\u2581dandeenyu": 318,
  "\u2581You": 319,
  "\u2581children": 320,
  "\u2581namni": 321,
  "\u2581qofa": 322,
  "\u2581kaan": 323,
  "\u2581because": 324,
  "\u2581dubbisi": 325,
  "\u2581This": 326,
  "\u2581know": 327,
  "\u2581jiran": 328,
  "\u25811,": 329,
  "\u2581waggaa": 330,
  "\u2581jaalala": 331,
  "\u258114": 332,
  "\u2581sirrii": 333,
  "\u2581says": 334,
  "\u2581page": 335,
  "\u2581Macaaf": 336,
  "\u2581isaaf": 337,
  "\u258116": 338,
  "\u2581wanti": 339,
  "\u2581Kitaaba": 340,
  "\u2581isin": 341,
  "\u2581heart": 342,
  "\u2581Witnesses": 343,
  "\u2581only": 344,
  "saanii": 345,
  "d": 346,
  "\u2581iyyuu": 347,
  "\u2581hedduu": 348,
  "\u2581take": 349,
  "...": 350,
  "\u2581fakkeenya": 351,
  "\u2581warri": 352,
  "\u2581barbaachisaa": 353,
  "\u2581hedduun": 354,
  "\u2581akkuma": 355,
  "\u2581might": 356,
  "f": 357,
  "\u2581abdii": 358,
  "\u2581Satan": 359,
  "uusaa": 360,
  "\u2581tti": 361,
  "\u2581brothers": 362,
  "\u2581over": 363,
  "\u2581true": 364,
  "\u2581become": 365,
  "\u2581like": 366,
  "\u258117": 367,
  "\u2581come": 368,
  "\u2581words": 369,
  "\u2581hundi": 370,
  "\u2581give": 371,
  "\u2581namootaa": 372,
  "\u2581then": 373,
  "\u2581David": 374,
  "\u2581ones": 375,
  "\u2581hundaa": 376,
  "\u2581That": 377,
  ".)": 378,
  "saa": 379,
  "\u2581ishee": 380,
  "\u25819": 381,
  "\u2581fedhii": 382,
  "\u2581ija": 383,
  "\u2581own": 384,
  "\u2581nan": 385,
  "\u2581wantoota": 386,
  "\u2581kanaa": 387,
  "\u2581ilaali": 388,
  "\u2581kanatti": 389,
  "oo": 390,
  "\u2581jechuunis": 391,
  "\u2581isaaniif": 392,
  "\u2581well": 393,
  "\u2581before": 394,
  "\u2581qabne": 395,
  "\u2581Kiristiyaanonni": 396,
  "\u2581argachuu": 397,
  "\u2581hamma": 398,
  "\u2581ol": 399,
  "\u2581caalaatti": 400,
  "\u258118": 401,
  "\u2581jira": 402,
  "\u2581Haa": 403,
  "uun": 404,
  "\u2581har": 405,
  "\u2581guyyaa": 406,
  "\u2581just": 407,
  "\u2581ilmaan": 408,
  "\u2581lafaa": 409,
  "\u2581name": 410,
  "\u2581argachuuf": 411,
  "\u258120": 412,
  "\u2581sun": 413,
  "\u2581miti": 414,
  "eera": 415,
  "\u2581gammachuu": 416,
  "\u2581death": 417,
  "\u2581Fakkeenyaaf": 418,
  "\u2581barbaachisu": 419,
  "\u2581Namni": 420,
  "\u258119": 421,
  "\u2581Word": 422,
  "\u2581iddoo": 423,
  "\u2581now": 424,
  "\u2581show": 425,
  "\u2581ilaalcha": 426,
  "ama": 427,
  "\u2581And": 428,
  "\u2581new": 429,
  "\u2581kenne": 430,
  "\u2581godhu": 431,
  "\u2581cimaa": 432,
  "\u2581addunyaa": 433,
  "\u2581malees": 434,
  "\u2581keep": 435,
  "\u2581person": 436,
  "\u2581adda": 437,
  "\u2581Do": 438,
  "\u2581Waaqayyoon": 439,
  "\u2581after": 440,
  "\u2581cubbuu": 441,
  "\u2581walga": 442,
  "\u2581men": 443,
  "\u2581ani": 444,
  "\u2581To": 445,
  "\u2581gad": 446,
  "\u2581kanaan": 447,
  "\u2581John": 448,
  "\u2581learn": 449,
  "\u258124": 450,
  "\u2581truth": 451,
  "\u2581times": 452,
  "\u2581akkan": 453,
  "\u2581another": 454,
  "\u2581mannaa": 455,
  "\u2581feel": 456,
  "\u2581two": 457,
  "\u2581gochuuf": 458,
  "\u2581caalaa": 459,
  "\u2581taane": 460,
  "\u2581nuuf": 461,
  "\u2581isaanitti": 462,
  "\u2581why": 463,
  "\u2581lafa": 464,
  "\u2581any": 465,
  "\u2581parents": 466,
  "\u2581apostle": 467,
  "\u2581deebi": 468,
  "\u2581faithful": 469,
  "\u2581godhe": 470,
  "\u2581consider": 471,
  "\u2581ministry": 472,
  "\u2581much": 473,
  "\u2581hafuura": 474,
  "\u2581Picture": 475,
  "\u2581through": 476,
  "\u2581today": 477,
  "eef": 478,
  "\u2581jedha": 479,
  "\u2581gargaaru": 480,
  "\u2581maatii": 481,
  "\u2581holy": 482,
  "\u2581saba": 483,
  "\u2581find": 484,
  "\u2581its": 485,
  "\u2581Father": 486,
  "\u2581part": 487,
  "\u2581study": 488,
  "\u2581great": 489,
  "aan": 490,
  "\u2581gargaara": 491,
  "I": 492,
  "Read": 493,
  "\u2581mul": 494,
  "\u2581argisiisu": 495,
  "\u258121": 496,
  "\u2581Daawit": 497,
  "amu": 498,
  "\u2581/": 499,
  "\u2581use": 500,
  "\u2581important": 501,
  "\u2581Kiristos": 502,
  "\u2581mo": 503,
  "\u2581However": 504,
  "\u2581kennu": 505,
  "\u2581Kiristiyaanota": 506,
  "\u2581rakkina": 507,
  "\u2581put": 508,
  "\u2581serve": 509,
  "\u2581qulqulluu": 510,
  "\u2581maqaa": 511,
  "iifi": 512,
  "\u2581himself": 513,
  "tiin": 514,
  "\u2581each": 515,
  "\u2581guutummaatti": 516,
  "\u2581say": 517,
  "\u2581isatti": 518,
  "\u25813:": 519,
  "\u2581ijoollee": 520,
  "\u2581Kun": 521,
  "\u2581afaan": 522,
  "\u2581ishii": 523,
  "\u2581gargaaruu": 524,
  "\u2581humna": 525,
  "uudhaan": 526,
  "\u2581naannoo": 527,
  "\u2581haaraa": 528,
  "\u2581worship": 529,
  "\u2581Yesuus": 530,
  "\u2581deebii": 531,
  "\u2581nutti": 532,
  "\u2581young": 533,
  "\u2581ulfina": 534,
  "\u2581qabaachuu": 535,
  "\u2581So": 536,
  "\u2581found": 537,
  "\u2581faayidaa": 538,
  "\u2581very": 539,
  "\u2581against": 540,
  "\u2581wrote": 541,
  "\u2581Wanta": 542,
  "\u2581Israel": 543,
  "\u2581means": 544,
  "\u2581Peter": 545,
  "\u2581Seexanni": 546,
  "\u2581turre": 547,
  "\u258122": 548,
  "\u2581gochuun": 549,
  "\u2581where": 550,
  "\u2581mind": 551,
  "\u2581course": 552,
  "\u2581gorsa": 553,
  "\u2581want": 554,
  "\u2581wife": 555,
  "\u2581dhiibbaa": 556,
  "dha": 557,
  "\u25812.": 558,
  "\u258115,": 559,
  "\u2581preaching": 560,
  "\u25815:": 561,
  "\u2581though": 562,
  "\u2581godhan": 563,
  "\u2581barumsa": 564,
  "\u2581biraa": 565,
  "\u2581never": 566,
  "\u2581news": 567,
  "\u2581most": 568,
  "\u2581service": 569,
  "\u2581One": 570,
  "itti": 571,
  "\u2581dubbate": 572,
  "\u2581right": 573,
  "\u2581article": 574,
  "\u2581disciples": 575,
  "\u2581amala": 576,
  "\u2581same": 577,
  "\u2581end": 578,
  "\u2581human": 579,
  "\u2581Akkuma": 580,
  "\u2581Mootummaa": 581,
  "\u2581carraaqqii": 582,
  "\u2581servants": 583,
  "\u2581Some": 584,
  "\u2581Wanti": 585,
  "\u2581Akka": 586,
  "\u2581place": 587,
  "\u2581amanamoo": 588,
  "\u2581read": 589,
  "/": 590,
  "t": 591,
  "\u2581told": 592,
  "\u2581gaariitti": 593,
  "\u2581Waaqayyoof": 594,
  "\u2581ways": 595,
  "\u2581mirga": 596,
  "\u2581let": 597,
  "\u2581view": 598,
  "elaa": 599,
  "\u258110.": 600,
  "\u2581jechuu": 601,
  "\u2581hope": 602,
  "\u2581turte": 603,
  "\u2581qophaa": 604,
  "\u2581abbaa": 605,
  "tiif": 606,
  "\u2581tajaajila": 607,
  "\u2581jiraachuu": 608,
  "\u2581argamu": 609,
  "\u2581get": 610,
  "dhaaf": 611,
  "\u2581marriage": 612,
  "\u2581After": 613,
  "\u2581obboloota": 614,
  "\u2581ibsa": 615,
  "\u2581jedhamu": 616,
  "\u2581murtoo": 617,
  "\u2581Baatota": 618,
  "\u2581jalaa": 619,
  "\u2581keenyaa": 620,
  "\u2581doing": 621,
  "\u2581Namoota": 622,
  "\u2581Kitaabni": 623,
  "\u2581kutaa": 624,
  "\u25818.": 625,
  "\u2581too": 626,
  "\u2581T": 627,
  "es": 628,
  "\u2581fellow": 629,
  "\u2581godha": 630,
  "\u2581kadhannaa": 631,
  "\u2581home": 632,
  "\u2581Warri": 633,
  "\u2581sin": 634,
  "\u2581anointed": 635,
  "\u2581used": 636,
  "\u2581Yihowaadhaaf": 637,
  "\u2581Bara": 638,
  "\u2581Scriptures": 639,
  "\u2581long": 640,
  "\u25814.": 641,
  "\u2581illee": 642,
  "\u2581C": 643,
  "\u2581maalidha": 644,
  "\u2581jechuun": 645,
  "\u2581argaman": 646,
  "\u2581qabdu": 647,
  "\u2581Kan": 648,
  "\u2581go": 649,
  "\u2581elders": 650,
  "\u2581akkana": 651,
  "\u2581godheera": 652,
  "\u2581word": 653,
  "\u258125": 654,
  "\u2581aarsaa": 655,
  "\u2581guddaan": 656,
  "\u2581became": 657,
  "y": 658,
  "\u2581given": 659,
  "\u2581under": 660,
  "\u2581At": 661,
  "\u2581every": 662,
  "\u2581Isa": 663,
  "\u2581Fakkeenya": 664,
  "\u2581sanatti": 665,
  "\u2581live": 666,
  "\u2581during": 667,
  "\u2581jalqabaa": 668,
  "\u2581jedhanii": 669,
  "\u2581set": 670,
  "\u258112.": 671,
  "oota": 672,
  "\u2581gave": 673,
  "\u258113.": 674,
  "\u2581By": 675,
  "\u25819.": 676,
  "\u25817.": 677,
  "\u2581gargaarsa": 678,
  "\u258111.": 679,
  "\u2581lakkaa": 680,
  "\u2581whom": 681,
  "\u2581brother": 682,
  "\u2581duratti": 683,
  "\u2581guutuu": 684,
  "\u2581days": 685,
  "\u2581sitti": 686,
  "\u2581waggoota": 687,
  "oonni": 688,
  "\u2581often": 689,
  "\u2581Read": 690,
  "ther": 691,
  "\u2581making": 692,
  "\u2581qajeelfama": 693,
  "koo": 694,
  "\u2581prayer": 695,
  "E": 696,
  "\u2581kennuu": 697,
  "\u2581later": 698,
  "\u258123": 699,
  "\u2581away": 700,
  "\u2581With": 701,
  "\u2581S": 702,
  "\u2581among": 703,
  "\u2581jecha": 704,
  "\u2581argisiisuu": 705,
  "\u2581No": 706,
  "ela": 707,
  "\u258117.": 708,
  "\u258130": 709,
  "\u2581Our": 710,
  "\u25815.": 711,
  "\u2581seera": 712,
  "\u2581upon": 713,
  "\u258114.": 714,
  "\u2581Qulqullaa": 715,
  "\u2581Son": 716,
  "\u2581joy": 717,
  "\u2581dandeenye": 718,
  "\u2581fuula": 719,
  "\u2581am": 720,
  "\u2581back": 721,
  "\u2581questions": 722,
  "K": 723,
  "\u25813,": 724,
  "\u2581Moses": 725,
  "\u2581argisiisa": 726,
  "\u2581maaliif": 727,
  "\u2581able": 728,
  "\u2581came": 729,
  "\u258115.": 730,
  "\u2581dubbateera": 731,
  "\u2581namaa": 732,
  "\u2581His": 733,
  "\u2581King": 734,
  "\u2581loving": 735,
  "afi": 736,
  "\u2581dandeessu": 737,
  "\u2581haadha": 738,
  "\u2581peace": 739,
  "\u2581harka": 740,
  "\u2581began": 741,
  "\u2581personal": 742,
  "\u2581Karaa": 743,
  "\u2581muraasa": 744,
  "\u25816.": 745,
  "\u2581jaarraa": 746,
  "\u25815,": 747,
  "\u2581tajaajilaa": 748,
  "\u2581book": 749,
  "\u2581tokkoo": 750,
  "\u2581down": 751,
  "\u258116.": 752,
  "\u2581jedhe": 753,
  "\u2581themselves": 754,
  "\u2581Hojii": 755,
  "aniif": 756,
  "aniiru": 757,
  "\u2581Is": 758,
  "\u2581Phexros": 759,
  "\u2581ibsu": 760,
  "\u2581jiraatan": 761,
  "\u2581child": 762,
  "\u2581babal": 763,
  "\u2581jalqabe": 764,
  "\u25819,": 765,
  "\u2581barbaadu": 766,
  "\u2581ilaallu": 767,
  "\u2581living": 768,
  "\u2581Psalm": 769,
  "\u2581kanaaf": 770,
  "\u2581Dubbii": 771,
  "\u2581ofii": 772,
  "\u2581jalqaba": 773,
  "\u2581nagaa": 774,
  "\u2581old": 775,
  "\u2581think": 776,
  "\u2581future": 777,
  "\u2581reason": 778,
  "\u2581year": 779,
  "\u2581On": 780,
  "\u2581humans": 781,
  "\u2581always": 782,
  "\u258128": 783,
  "\u2581husband": 784,
  "\u2581Of": 785,
  "\u2581full": 786,
  "\u2581ti": 787,
  "S": 788,
  "\u2581dhufeenya": 789,
  "\u2581three": 790,
  "\u2581lama": 791,
  "\u2581heaven": 792,
  "kee": 793,
  "\u25816,": 794,
  "\u2581argatan": 795,
  "\u2581benefit": 796,
  "\u2581helped": 797,
  "\u2581Kiristiyaanaa": 798,
  "\u2581house": 799,
  "\u2581counsel": 800,
  "\u2581hubachuu": 801,
  "\u2581Israelites": 802,
  "\u2581power": 803,
  "\u2581result": 804,
  "\u2581Kanaafuu": 805,
  "\u2581both": 806,
  "\u2581face": 807,
  "\u2581still": 808,
  "\u2581purpose": 809,
  "\u2581together": 810,
  "\u2581She": 811,
  "\u2581dubbatu": 812,
  "\u2581kenna": 813,
  "\u2581meetings": 814,
  "\u258127": 815,
  "\u2581Yihowaatti": 816,
  "\u2581ibseera": 817,
  "\u2581ammaatti": 818,
  "\u2581hojiirra": 819,
  "\u2581sababii": 820,
  "\u25813.": 821,
  "\u2581hand": 822,
  "\u2581support": 823,
  "\u2581barreesseera": 824,
  "\u2581order": 825,
  "\u2581bring": 826,
  "\u2581fact": 827,
  "\u2581kam": 828,
  "\u2581tarkaanfii": 829,
  "etti": 830,
  "\u2581Yes": 831,
  "\u2581taanaan": 832,
  "\u2581without": 833,
  "\u2581something": 834,
  "\u2581hamaa": 835,
  "\u2581Mul": 836,
  "\u2581beekamaadha": 837,
  "ame": 838,
  "\u2581jiraatu": 839,
  "\u2581beeku": 840,
  "\u2581experience": 841,
  "\u2581father": 842,
  "\u2581Then": 843,
  "\u2581Mee": 844,
  "\u2581beekuu": 845,
  "\u2581ourselves": 846,
  "\u2581toward": 847,
  "\u2581Akkas": 848,
  "\u2581ask": 849,
  "\u2581Yet": 850,
  "\u2581waliin": 851,
  "\u2581Mootummichaa": 852,
  "\u2581ergamaan": 853,
  "\u2581son": 854,
  "\u2581Consider": 855,
  "\u2581jetteetti": 856,
  "\u2581needed": 857,
  "\u2581amanamummaa": 858,
  "Far": 859,
  "\u2581Abraham": 860,
  "uuraa": 861,
  "\u2581Matthew": 862,
  "\u2581close": 863,
  "\u2581qabeessa": 864,
  "\u2581Let": 865,
  "\u2581gaaffii": 866,
  "\u2581Achiis": 867,
  "\u2581share": 868,
  "\u258118.": 869,
  "\u2581amanamaa": 870,
  "\u2581xiyyeeffannaa": 871,
  "\u2581heavenly": 872,
  "\u2581asked": 873,
  "\u2581felt": 874,
  "\u2581Roomaa": 875,
  "\u2581relationship": 876,
  "\u2581Kanaa": 877,
  "ina": 878,
  "\u2581ati": 879,
  "\u2581sanaa": 880,
  "\u2581Baatonni": 881,
  "\u2581mankind": 882,
  "\u2581knowledge": 883,
  "\u258114,": 884,
  "\u2581samii": 885,
  "\u2581gaafatamummaa": 886,
  "\u2581understand": 887,
  "\u25814,": 888,
  "\u2581Many": 889,
  "\u2581dandeessa": 890,
  "\u25818,": 891,
  "\u2581really": 892,
  "\u2581language": 893,
  "\u2581avoid": 894,
  "\u2581called": 895,
  "\u2581biratti": 896,
  "\u2581lead": 897,
  "\u2581akkaataa": 898,
  "\u2581however": 899,
  "\u2581raajii": 900,
  "\u2581abbaan": 901,
  "\u2581possible": 902,
  "\u2581FUULA": 903,
  "\u2581century": 904,
  "\u2581Yohannis": 905,
  "\u2581remain": 906,
  "\u2581Akkasumas": 907,
  "\u2581dabalataa": 908,
  "\u2581waaqeffannaa": 909,
  "A": 910,
  "\u2581Maatewos": 911,
  "\u2581ittiin": 912,
  "\u2581kennaa": 913,
  "\u258133": 914,
  "\u2581jijjiirama": 915,
  "\u25817,": 916,
  "\u2581ijoolleen": 917,
  "\u2581Faarfannaa": 918,
  "\u2581having": 919,
  "\u258132": 920,
  "\u2581Job": 921,
  "\u25aa": 922,
  "\u2581There": 923,
  "\u2581serving": 924,
  "\u2581walii": 925,
  "\u2581took": 926,
  "\u2581wisdom": 927,
  "\u2581desire": 928,
  "\u258129": 929,
  "\u2581look": 930,
  "\u2581rratti": 931,
  "\u2581fudhachuu": 932,
  "\u2581learned": 933,
  "\u2581while": 934,
  "aatti": 935,
  "\u2581obboloonni": 936,
  "\u2581Even": 937,
  "\u2581care": 938,
  "\u2581Caaffata": 939,
  "\u2581caalu": 940,
  "\u2581jiraachuuf": 941,
  "The": 942,
  "ifi": 943,
  "\u258111,": 944,
  "\u2581Eeyyee": 945,
  "\u2581Yaada": 946,
  "\u2581ogummaa": 947,
  "\u2581message": 948,
  "\u2581hanga": 949,
  "\u2581rakkinni": 950,
  "\u2581dogoggora": 951,
  "\u2581kenname": 952,
  "\u2581gargaaruuf": 953,
  "\u2581Waaqa": 954,
  "al": 955,
  "\u2581continue": 956,
  "\u2581haati": 957,
  "\u2581matumaa": 958,
  "\u2581best": 959,
  "\u2581someone": 960,
  "\u2581tell": 961,
  "\u2581barbaachisa": 962,
  "\u2581Inni": 963,
  "\u2581done": 964,
  "\u2581happy": 965,
  "ata": 966,
  "\u258119.": 967,
  "\u2581respect": 968,
  "eloonni": 969,
  "\u2581following": 970,
  "\u2581Luke": 971,
  "\u2581barbaachisaadha": 972,
  "\u2581durii": 973,
  "\u2581wicked": 974,
  "\u2581Waa": 975,
  "\u2581Jerusalem": 976,
  "\u2581maalii": 977,
  "shee": 978,
  "\u2581baptized": 979,
  "\u2581answer": 980,
  "\u2581dhimma": 981,
  "\u2581fudhatama": 982,
  "\u2581jireenyaa": 983,
  "\u2581nyaata": 984,
  "\u258112,": 985,
  "\u2581ever": 986,
  "\u2581mother": 987,
  "\u2581between": 988,
  "\u2581eyes": 989,
  "\u2581matter": 990,
  "\u2581fakkaatu": 991,
  "\u2581fayyaa": 992,
  "\u2581PAGE": 993,
  "\u2581boqonnaa": 994,
  "\u2581receive": 995,
  "\u2581situation": 996,
  "\u2581hiika": 997,
  "\u2581sisters": 998,
  "rra": 999,
  "\u2581dhufu": 1000,
  "\u2581ifa": 1001,
  "\u2581Dh": 1002,
  "\u2581amma": 1003,
  "\u2581woman": 1004,
  "\u2581giving": 1005,
  "\u2581From": 1006,
  "\u258126": 1007,
  "\u258131": 1008,
  "\u2581miira": 1009,
  "\u2581ergaa": 1010,
  "\u2581kennan": 1011,
  "\u2581enjoy": 1012,
  "\u2581mean": 1013,
  "\u2581kaa": 1014,
  "\u2581Your": 1015,
  "\u2581mari": 1016,
  "\u2581yeroon": 1017,
  "\u2581Isaiah": 1018,
  "\u2581naa": 1019,
  "\u2581(1": 1020,
  "\u2581gadhee": 1021,
  "\u2581yourself": 1022,
  "atu": 1023,
  "\u258110,": 1024,
  "\u2581mirkanaa": 1025,
  "\u2581righteous": 1026,
  "\u2581system": 1027,
  "\u2581conduct": 1028,
  "\u2581Obboloonni": 1029,
  "\u2581kanarratti": 1030,
  "\u2581bira": 1031,
  "\u2581food": 1032,
  "\u2581hard": 1033,
  "\u2581Because": 1034,
  "\u2581members": 1035,
  "\u2581sure": 1036,
  "\u2581beeka": 1037,
  "\u2581sirriitti": 1038,
  "\u2581carraa": 1039,
  "\u2581jal": 1040,
  "\u2581kenneera": 1041,
  "\u2581dhiifama": 1042,
  "\u2581lives": 1043,
  "\u258113,": 1044,
  "\u2581Timothy": 1045,
  "\u25812,": 1046,
  "\u2581few": 1047,
  "\u2581eebba": 1048,
  "\u2581teaching": 1049,
  "eefi": 1050,
  "\u2581Abbaan": 1051,
  "\u2581addaa": 1052,
  "\u2581again": 1053,
  "\u2581Adam": 1054,
  "\u2581follow": 1055,
  "nni": 1056,
  "\u2581lamaan": 1057,
  "\u258116,": 1058,
  "\u2581friends": 1059,
  "\u2581cannot": 1060,
  "\u2581fine": 1061,
  "\u2581rakkisaa": 1062,
  "\u2581likely": 1063,
  "\u2581needs": 1064,
  "\u2581lallabaa": 1065,
  "\u2581gochuudhaan": 1066,
  "\u2581tokkoon": 1067,
  "\u2581kaayyoo": 1068,
  "See": 1069,
  "\u258112:": 1070,
  "\u2581argatu": 1071,
  "\u2581bad": 1072,
  "\u2581moved": 1073,
  "\u2581received": 1074,
  "\u2581sa": 1075,
  "aatii": 1076,
  "\u2581duuka": 1077,
  "\u2581hundinuu": 1078,
  "\u2581last": 1079,
  "\u2581wise": 1080,
  "\u2581followers": 1081,
  "\u2581speak": 1082,
  "\u2581different": 1083,
  "\u2581un": 1084,
  "\u2581feelings": 1085,
  "\u2581slave": 1086,
  "\u2581thinking": 1087,
  "\u258117,": 1088,
  "\u2581qajeelaa": 1089,
  "\u2581Abrahaam": 1090,
  "\u2581dabalatee": 1091,
  "\u2581gidduu": 1092,
  "\u2581sii": 1093,
  "\u2581tajaajiluu": 1094,
  "\u2581haalli": 1095,
  "\u2581imitate": 1096,
  "B": 1097,
  "hose": 1098,
  "\u2581These": 1099,
  "\u2581seenaa": 1100,
  "\u2581Maal": 1101,
  "\u2581present": 1102,
  "\u2581gift": 1103,
  "\u2581knew": 1104,
  "\u2581All": 1105,
  "\u2581pray": 1106,
  "af": 1107,
  "\u2581Itti": 1108,
  "\u2581dandeettii": 1109,
  "\u2581sister": 1110,
  "\u2581raawwachuu": 1111,
  "\u2581act": 1112,
  "\u2581sense": 1113,
  "\u2581Joseph": 1114,
  "\u2581attitude": 1115,
  "\u2581certain": 1116,
  "\u2581left": 1117,
  "\u2581married": 1118,
  "\u2581Lord": 1119,
  "\u2581miidhaa": 1120,
  "\u2581point": 1121,
  "\u2581sheep": 1122,
  "\u2581hojjechuu": 1123,
  "\u2581problems": 1124,
  "\u2581bal": 1125,
  "\u2581goonu": 1126,
  "\u2581My": 1127,
  "\u2581better": 1128,
  "\u2581qualities": 1129,
  "\u2581turetti": 1130,
  "\u2581Masaraa": 1131,
  "\u2581dubbii": 1132,
  "\u2581free": 1133,
  "\u2581saw": 1134,
  "\u2581self": 1135,
  "\u2581Maaliif": 1136,
  "\u2581Nama": 1137,
  "\u2581kind": 1138,
  "\u2581Abbaa": 1139,
  "\u2581allow": 1140,
  "\u2581spiritually": 1141,
  "\u2581strong": 1142,
  "\u258134": 1143,
  "\u2581THE": 1144,
  "\u2581siif": 1145,
  "\u2581trust": 1146,
  "\u2581account": 1147,
  "aniifi": 1148,
  "\u2581Acts": 1149,
  "\u2581question": 1150,
  "\u2581argisiisan": 1151,
  "\u2581mootummaa": 1152,
  "\u2581arm": 1153,
  "\u2581hir": 1154,
  "\u2581apostles": 1155,
  "\u2581Isaayaas": 1156,
  "\u2581fuulduraatti": 1157,
  "\u2581principles": 1158,
  "\u258137": 1159,
  "\u2581hubachuun": 1160,
  "\u2581jabina": 1161,
  "achuu": 1162,
  "\u2581ennaa": 1163,
  "\u2581gidduutti": 1164,
  "\u2581qarshii": 1165,
  "\u2581Does": 1166,
  "\u2581magaalaa": 1167,
  "\u2581provide": 1168,
  "\u2581fear": 1169,
  "lthough": 1170,
  "\u2581gaarummaa": 1171,
  "\u2581saying": 1172,
  "\u258140": 1173,
  "\u2581known": 1174,
  "\u2581thus": 1175,
  "\u2581jechuudha": 1176,
  "\u2581sadii": 1177,
  "\u2581B": 1178,
  "\u2581hordofuu": 1179,
  "\u2581kindness": 1180,
  "\u2581matters": 1181,
  "\u2581fakkaata": 1182,
  "\u2581gaaffiiwwan": 1183,
  "\u2581kaka": 1184,
  "\u2581Addunyaa": 1185,
  "\u2581argamsiisu": 1186,
  "\u2581jala": 1187,
  "\u2581sacrifice": 1188,
  "\u2581thought": 1189,
  "\u2581Eegumsaa": 1190,
  "\u2581yet": 1191,
  "D": 1192,
  "\u258120.": 1193,
  "\u2581Thus": 1194,
  "\u2581prayers": 1195,
  "\u2581reading": 1196,
  "\u2581whe": 1197,
  "\u2581yaaduu": 1198,
  "\u2581believe": 1199,
  "\u2581near": 1200,
  "\u2581next": 1201,
  "\u2581kaasee": 1202,
  "\u2581keenyatti": 1203,
  "aman": 1204,
  "\u2581Warra": 1205,
  "\u2581fayyadamuu": 1206,
  "\u2581Rom": 1207,
  "\u2581everlasting": 1208,
  "\u2581Jews": 1209,
  "\u2581case": 1210,
  "\u2581gargaareera": 1211,
  "\u2581lubbuu": 1212,
  "\u2581nations": 1213,
  "\u2581qabaachuun": 1214,
  "\u2581wanted": 1215,
  "\u2581went": 1216,
  "\u2581Mat": 1217,
  "\u2581barbaada": 1218,
  "\u2581sammuu": 1219,
  "\u2581age": 1220,
  "ti": 1221,
  "uma": 1222,
  "\u2581New": 1223,
  "\u2581city": 1224,
  "\u2581difficult": 1225,
  "\u2581especially": 1226,
  "\u2581nation": 1227,
  "\u2581Afaan": 1228,
  "\u2581Far": 1229,
  "\u2581wrong": 1230,
  "\u2581dubbachuu": 1231,
  "\u2581hojjetu": 1232,
  "\u2581special": 1233,
  "\u2581tokkotti": 1234,
  "\u2581number": 1235,
  "\u2581lafarra": 1236,
  "\u2581prophet": 1237,
  "\u2581taate": 1238,
  "\u2581E": 1239,
  "\u2581Law": 1240,
  "\u2581mataa": 1241,
  "uufi": 1242,
  "\u258118,": 1243,
  "\u2581godhee": 1244,
  "\u2581king": 1245,
  "\u2581real": 1246,
  "\u2581teach": 1247,
  "\u2581FAARFANNAA": 1248,
  "\u2581Iyoob": 1249,
  "\u2581dhiisuu": 1250,
  "\u2581hojjetan": 1251,
  "iiwwan": 1252,
  "\u2581attention": 1253,
  "\u2581kennuuf": 1254,
  "\u2581waadaa": 1255,
  "\u2581willing": 1256,
  "ever": 1257,
  "\u2581circumstances": 1258,
  "\u2581organization": 1259,
  "\u2581tajaajiltoota": 1260,
  "Waaqayyo": 1261,
  "\u2581barbaadan": 1262,
  "mmoo": 1263,
  "\u2581biraan": 1264,
  "\u2581nor": 1265,
  "\u2581qulqullummaa": 1266,
  "\u2581salphaa": 1267,
  "idha": 1268,
  "\u2581perfect": 1269,
  "\u2581raawwatamu": 1270,
  "\u2581until": 1271,
  "\u2581hiriyaa": 1272,
  "\u2581keenyaaf": 1273,
  "\u2581ari": 1274,
  "\u2581dheeraa": 1275,
  "\u2581tajaajiluuf": 1276,
  "\u2581kaanii": 1277,
  "\u2581off": 1278,
  "\u258121.": 1279,
  "\u2581decisions": 1280,
  "\u2581xinnoo": 1281,
  "\u2581Qorontos": 1282,
  "\u2581cause": 1283,
  "\u2581jennee": 1284,
  "\u2581similar": 1285,
  "\u2581qabuu": 1286,
  "\u2581achi": 1287,
  "\u2581little": 1288,
  "\u2581shows": 1289,
  "\u2581Can": 1290,
  "\u2581dhumaa": 1291,
  "\u2581false": 1292,
  "\u2581hubachuuf": 1293,
  "\u2581privilege": 1294,
  "\u2581Devil": 1295,
  "\u2581Noah": 1296,
  "\u2581early": 1297,
  "\u2581examples": 1298,
  "\u2581law": 1299,
  "\u2581NW": 1300,
  "\u2581Who": 1301,
  "\u2581body": 1302,
  "\u2581gatii": 1303,
  "\u2581dubbata": 1304,
  "\u2581kunis": 1305,
  "\u2581Seexanaa": 1306,
  "\u2581SONGS": 1307,
  "\u2581Scriptural": 1308,
  "\u2581qabateen": 1309,
  "\u2581yaadu": 1310,
  "\u2581Proverbs": 1311,
  "\u2581Rather": 1312,
  "\u2581ancient": 1313,
  "\u2581makes": 1314,
  "\u2581turn": 1315,
  "luma": 1316,
  "\u2581blessings": 1317,
  "\u2581Matt": 1318,
  "\u2581gooftaa": 1319,
  "\u2581isaatti": 1320,
  "\u2581whole": 1321,
  "\u2581Ijoolleen": 1322,
  "\u2581nurra": 1323,
  "\u2581states": 1324,
  "\u2581temple": 1325,
  "\u2581sons": 1326,
  "\u2581Watchtower": 1327,
  "\u2581Kanaan": 1328,
  "\u2581far": 1329,
  "\u2581Corinthians": 1330,
  "\u2581individuals": 1331,
  "\u2581More": 1332,
  "\u2581ibsame": 1333,
  "\u2581loyal": 1334,
  "\u2581brought": 1335,
  "\u2581isiniif": 1336,
  "\u2581loved": 1337,
  "\u2581talk": 1338,
  "uyyuu": 1339,
  "\u2581Haala": 1340,
  "\u2581Ximotewos": 1341,
  "\u2581fully": 1342,
  "\u2581maratti": 1343,
  "\u2581Solomon": 1344,
  "\u2581qophii": 1345,
  "\u2581religious": 1346,
  "\u2581truly": 1347,
  "\u2581suffering": 1348,
  "\u2581gives": 1349,
  "\u2581honor": 1350,
  "\u2581including": 1351,
  "\u2581righteousness": 1352,
  "\u2581duukaa": 1353,
  "\u2581Mataduree": 1354,
  "\u258119,": 1355,
  "\u2581Obboleessi": 1356,
  "\u2581taking": 1357,
  "\u2581try": 1358,
  "\u2581involved": 1359,
  "er": 1360,
  "iin": 1361,
  "\u2581draw": 1362,
  "\u2581inspired": 1363,
  "\u2581isheen": 1364,
  "\u2581material": 1365,
  "\u2581move": 1366,
  "\u2581yaalii": 1367,
  "\u2581Walga": 1368,
  "\u2581resurrection": 1369,
  "\u2581deddeebi": 1370,
  "\u2581maintain": 1371,
  "Uma": 1372,
  "irraa": 1373,
  "\u2581pioneer": 1374,
  "\u2581w": 1375,
  "\u2581milkaa": 1376,
  "\u2581mudaa": 1377,
  "\u2581provided": 1378,
  "\u2581Are": 1379,
  "\u2581dhufan": 1380,
  "\u2581fedha": 1381,
  "\u2581ilma": 1382,
  "\u2581kingdom": 1383,
  "\u2581soon": 1384,
  "\u2581works": 1385,
  "Fak": 1386,
  "\u2581galma": 1387,
  "uch": 1388,
  "\u2581Footnote": 1389,
  "\u2581clear": 1390,
  "\u2581along": 1391,
  "\u2581change": 1392,
  "\u2581dhufe": 1393,
  "\u2581gocha": 1394,
  "\u2581information": 1395,
  "\u2581Museen": 1396,
  "\u2581Yommuu": 1397,
  "\u2581dubbatan": 1398,
  "\u2581greater": 1399,
  "\u2581regard": 1400,
  "\u2581al": 1401,
  "\u2581land": 1402,
  "\u2581taught": 1403,
  "\u25819:": 1404,
  "\u2581Isaan": 1405,
  "\u2581died": 1406,
  "\u2581eenyu": 1407,
  "\u2581comes": 1408,
  "\u2581gaafachuu": 1409,
  "\u2581hoo": 1410,
  "\u2581qaama": 1411,
  "\u2581women": 1412,
  "\u2581mentioned": 1413,
  "\u2581nuti": 1414,
  "\u2581Romans": 1415,
  "\u2581since": 1416,
  "\u2581Be": 1417,
  "\u2581qabeenya": 1418,
  "\u2581arganna": 1419,
  "\u2581qajeelchaa": 1420,
  "\u2581going": 1421,
  "\u2581prove": 1422,
  "\u2581raawwachuuf": 1423,
  "\u2581sent": 1424,
  "\u2581Yaaqoob": 1425,
  "\u2581dursa": 1426,
  "uunsaa": 1427,
  "\u2581Dubbiin": 1428,
  "\u2581apply": 1429,
  "\u2581argamsiisa": 1430,
  "\u2581sobaa": 1431,
  "\u2581Bet": 1432,
  "\u2581ana": 1433,
  "\u2581integrity": 1434,
  "\u2581ransom": 1435,
  "\u2581rra": 1436,
  "\u2581Kiristiyaana": 1437,
  "\u2581ilaaluu": 1438,
  "less": 1439,
  "\u2581money": 1440,
  "\u2581prophecy": 1441,
  "\u2581Wantoota": 1442,
  "ile": 1443,
  "\u2581(2": 1444,
  "\u2581believers": 1445,
  "\u2581ji": 1446,
  "\u2581opportunity": 1447,
  "\u2581James": 1448,
  "\u2581mootii": 1449,
  "\u2581oolu": 1450,
  "\u2581raawwatu": 1451,
  "\u2581accept": 1452,
  "\u2581garmalee": 1453,
  "\u2581health": 1454,
  "\u2581Wh": 1455,
  "\u2581barreeffamoota": 1456,
  "\u2581kaaniif": 1457,
  "\u2581taanee": 1458,
  "\u2581Mana": 1459,
  "\u2581Yoseef": 1460,
  "\u2581beekamaa": 1461,
  "\u2581rule": 1462,
  "espite": 1463,
  "\u2581Ps": 1464,
  "\u2581hinaaffaa": 1465,
  "\u2581argisiisudha": 1466,
  "\u2581shakkisiisu": 1467,
  "\u2581understanding": 1468,
  "\u2581gammachiisu": 1469,
  "\u2581jiruu": 1470,
  "\u2581sanyii": 1471,
  "\u2581beekuuf": 1472,
  "\u2581past": 1473,
  "\u2581heard": 1474,
  "\u2581preach": 1475,
  "\u2581Galma": 1476,
  "\u2581eeguu": 1477,
  "\u2581gargaaran": 1478,
  "\u2581raawwatan": 1479,
  "\u2581using": 1480,
  "\u2581s": 1481,
  "\u2581second": 1482,
  "\u2581D": 1483,
  "\u2581strengthen": 1484,
  "\u2581Daani": 1485,
  "\u2581congregations": 1486,
  "\u2581dhukkuba": 1487,
  "\u2581water": 1488,
  "\u2581dead": 1489,
  "\u2581balaa": 1490,
  "\u2581forever": 1491,
  "\u2581jennu": 1492,
  "\u2581promise": 1493,
  "\u2581role": 1494,
  "\u2581comfort": 1495,
  "\u2581gargaare": 1496,
  "\u2581guutuudhaan": 1497,
  "\u2581hojiin": 1498,
  "\u2581affect": 1499,
  "\u2581strength": 1500,
  "\u2581baraa": 1501,
  "\u2581serious": 1502,
  "\u2581naaf": 1503,
  "\u2581Instead": 1504,
  "\u2581Revelation": 1505,
  "\u2581effort": 1506,
  "\u2581amalawwan": 1507,
  "\u2581guutummaa": 1508,
  "\u2581jaalalli": 1509,
  "\u2581Haalli": 1510,
  "\u2581Ni": 1511,
  "\u258123.": 1512,
  "\u2581control": 1513,
  "\u2581direction": 1514,
  "\u2581doubt": 1515,
  "\u2581kitaaba": 1516,
  "\u2581Would": 1517,
  "\u2581couple": 1518,
  "\u2581fakkaatuun": 1519,
  "\u2581Musee": 1520,
  "\u2581around": 1521,
  "\u2581garaadhaa": 1522,
  "\u2581Mark": 1523,
  "\u2581Not": 1524,
  "\u2581bishaan": 1525,
  "\u2581blessing": 1526,
  "\u2581evidence": 1527,
  "\u2581helps": 1528,
  "\u2581jajjabina": 1529,
  "\u2581seen": 1530,
  "\u2581Akkamitti": 1531,
  "\u2581barachuu": 1532,
  "\u2581beekuun": 1533,
  "\u2581argisiise": 1534,
  "\u2581ragaa": 1535,
  "\u2581school": 1536,
  "Faarfannaa": 1537,
  "utti": 1538,
  "\u2581baptism": 1539,
  "\u2581certainly": 1540,
  "\u2581hafuurri": 1541,
  "\u2581raawwatame": 1542,
  "\u2581Today": 1543,
  "\u2581decision": 1544,
  "\u2581geggeessaa": 1545,
  "\u2581hammam": 1546,
  "\u2581nothing": 1547,
  "\u2581sirna": 1548,
  "\u2581aanaa": 1549,
  "\u2581courage": 1550,
  "\u2581hubannaa": 1551,
  "\u2581sagalee": 1552,
  "\u2581witness": 1553,
  "ol": 1554,
  "\u2581bulchiinsa": 1555,
  "\u2581effect": 1556,
  "\u2581muuxannoo": 1557,
  "\u2581qo": 1558,
  "\u2581Seera": 1559,
  "\u2581gammachiisa": 1560,
  "\u2581dinqisiisaa": 1561,
  "\u2581events": 1562,
  "\u2581regarding": 1563,
  "anitti": 1564,
  "\u2581World": 1565,
  "\u2581anyone": 1566,
  "\u2581confidence": 1567,
  "\u2581tokkummaa": 1568,
  "\u2581issue": 1569,
  "\u2581visit": 1570,
  "org": 1571,
  "\u2581Sam": 1572,
  "\u2581angels": 1573,
  "\u2581deep": 1574,
  "\u2581dhugaan": 1575,
  "\u2581kanarraa": 1576,
  "\u2581listen": 1577,
  "\u2581meaning": 1578,
  "\u2581Ba": 1579,
  "\u2581Guyyaa": 1580,
  "\u2581deal": 1581,
  "\u2581small": 1582,
  "\u2581Did": 1583,
  "\u2581Like": 1584,
  "\u2581Mary": 1585,
  "\u2581Mootummaan": 1586,
  "\u2581written": 1587,
  "\u2581Daniel": 1588,
  "\u2581gochaa": 1589,
  "\u2581kept": 1590,
  "oon": 1591,
  "\u2581Solomoon": 1592,
  "\u2581activities": 1593,
  "\u2581appreciation": 1594,
  "\u2581showed": 1595,
  "\u2581Jaalalli": 1596,
  "\u2581Mata": 1597,
  "\u2581Qor": 1598,
  "\u2581isaanirra": 1599,
  "\u2581addaddaa": 1600,
  "\u2581goone": 1601,
  "\u2581jaallatu": 1602,
  "\u2581Kiristiyaanni": 1603,
  "\u2581experienced": 1604,
  "\u2581field": 1605,
  "\u2581ulfaataa": 1606,
  "\u2581Watch": 1607,
  "\u2581appreciate": 1608,
  "\u2581coming": 1609,
  "\u2581meeting": 1610,
  "\u2581ree": 1611,
  "\u2581tokkoof": 1612,
  "\u2581turee": 1613,
  "\u2581older": 1614,
  "Namni": 1615,
  "\u25811914": 1616,
  "\u2581Creator": 1617,
  "\u2581Saa": 1618,
  "\u2581appointed": 1619,
  "\u2581form": 1620,
  ",...": 1621,
  "amuu": 1622,
  "\u2581duraa": 1623,
  "\u2581hearts": 1624,
  "\u2581hime": 1625,
  "\u2581remember": 1626,
  "\u2581determined": 1627,
  "\u2581efforts": 1628,
  "\u2581interest": 1629,
  "\u2581return": 1630,
  "\u2581wants": 1631,
  "You": 1632,
  "\u2581Will": 1633,
  "\u2581elder": 1634,
  "\u2581focus": 1635,
  "\u2581hidhata": 1636,
  "\u2581high": 1637,
  "\u2581wantoonni": 1638,
  "\u2581beekumsa": 1639,
  "\u2581Jireenya": 1640,
  "\u2581already": 1641,
  "\u2581earthly": 1642,
  "\u2581recorded": 1643,
  "\u2581yaadaa": 1644,
  "\u2581saalqunnamtii": 1645,
  "\u2581Hin": 1646,
  "\u2581argisiiseera": 1647,
  "\u2581illustration": 1648,
  "\u2581Bethel": 1649,
  "\u2581kamiyyuu": 1650,
  "\u2581miliyoona": 1651,
  "\u2581speaking": 1652,
  "\u258122.": 1653,
  "\u2581Deebii": 1654,
  "\u2581Eve": 1655,
  "\u2581Sana": 1656,
  "\u2581anaaf": 1657,
  "\u2581heavens": 1658,
  "\u2581raawwate": 1659,
  "\u2581stand": 1660,
  "onni": 1661,
  "yyuu": 1662,
  "\u2581Ani": 1663,
  "\u2581Dur": 1664,
  "\u2581Still": 1665,
  "\u2581reflect": 1666,
  "\u2581thoughts": 1667,
  "\u2581Greek": 1668,
  "\u2581respond": 1669,
  "\u2581thing": 1670,
  "\u2581got": 1671,
  "\u2581jaarsolii": 1672,
  "\u2581leave": 1673,
  "\u2581lost": 1674,
  "\u2581qulqulluun": 1675,
  "\u2581happiness": 1676,
  "\u2581jettee": 1677,
  "\u2581promised": 1678,
  "\u2581served": 1679,
  "\u2581tureef": 1680,
  "\u2581uumama": 1681,
  "Isa": 1682,
  "\u258124.": 1683,
  "\u2581covenant": 1684,
  "\u2581gadi": 1685,
  "\u2581divine": 1686,
  "\u2581jaallachuu": 1687,
  "llee": 1688,
  "\u2581fayyadamee": 1689,
  "aba": 1690,
  "\u2581Luqaas": 1691,
  "\u2581based": 1692,
  "\u2581mate": 1693,
  "\u2581night": 1694,
  "\u2581ammaa": 1695,
  "\u2581conscience": 1696,
  "\u2581ifatti": 1697,
  "\u2581Yaanni": 1698,
  "\u2581duree": 1699,
  "\u2581qabaatan": 1700,
  "\u2581rather": 1701,
  "\u2581anything": 1702,
  "\u2581group": 1703,
  "\u2581jedhan": 1704,
  "\u2581olaanaa": 1705,
  "\u2581argannu": 1706,
  "\u2581four": 1707,
  "\u2581gammachiisaa": 1708,
  "\u2581physical": 1709,
  "\u2581once": 1710,
  "\u2581perhaps": 1711,
  "\u2581rakkoowwan": 1712,
  "\u2581sabni": 1713,
  "\u2581argisiisuuf": 1714,
  "\u2581authority": 1715,
  "\u2581standards": 1716,
  "m": 1717,
  "\u2581geessisu": 1718,
  "\u2581instance": 1719,
  "\u2581light": 1720,
  "\u2581Since": 1721,
  "\u2581isinitti": 1722,
  "\u2581large": 1723,
  "able": 1724,
  "\u2581N": 1725,
  "\u2581local": 1726,
  "\u2581maali": 1727,
  "\u2581spoke": 1728,
  "\u2581stated": 1729,
  "\u2581taken": 1730,
  "\u2581dhugumaan": 1731,
  "\u2581Now": 1732,
  "\u2581argachuun": 1733,
  "\u2581friend": 1734,
  "\u2581dhuunfaa": 1735,
  "God": 1736,
  "\u2581Yoh": 1737,
  "\u2581everything": 1738,
  "\u2581foretold": 1739,
  "\u2581guddina": 1740,
  "\u2581umrii": 1741,
  "\u2581Yesusiin": 1742,
  "\u2581jedhamee": 1743,
  "\u2581trials": 1744,
  "\u2581karaawwan": 1745,
  "\u2581lived": 1746,
  "\u2581promises": 1747,
  "\u2581start": 1748,
  "Ani": 1749,
  "\u2581Amma": 1750,
  "\u2581Indeed": 1751,
  "\u2581See": 1752,
  "\u2581pages": 1753,
  "\u2581yaadi": 1754,
  "....": 1755,
  "\u2581according": 1756,
  "\u2581amanu": 1757,
  "\u2581qabate": 1758,
  "\u2581sins": 1759,
  "\u2581ability": 1760,
  "\u2581amantaa": 1761,
  "\u2581country": 1762,
  "\u2581isaatiin": 1763,
  "\u2581letter": 1764,
  "\u2581olitti": 1765,
  "\u258135": 1766,
  "\u2581Gibxii": 1767,
  "\u2581gama": 1768,
  "\u2581happened": 1769,
  "\u2581qayyabannaa": 1770,
  "\u2581Cor": 1771,
  "\u2581Waaqayyootti": 1772,
  "\u2581offer": 1773,
  "\u2581religion": 1774,
  "\u2581simply": 1775,
  "irratti": 1776,
  "\u2581Therefore": 1777,
  "\u2581beekan": 1778,
  "\u2581ilaalu": 1779,
  "\u2581obboleessa": 1780,
  "\u2581Gara": 1781,
  "\u2581barreesse": 1782,
  "\u2581hedduudhaaf": 1783,
  "\u2581mi": 1784,
  "ness": 1785,
  "uusaarrayyuu": 1786,
  "\u2581M": 1787,
  "\u2581available": 1788,
  "\u2581gaafatu": 1789,
  "\u2581mitii": 1790,
  "\u2581please": 1791,
  "\u2581considered": 1792,
  "\u2581hariiroo": 1793,
  "\u2581head": 1794,
  "\u2581responsibility": 1795,
  "\u2581vital": 1796,
  "\u2581yaanni": 1797,
  "\u2581Want": 1798,
  "\u2581clearly": 1799,
  "\u2581jalqabee": 1800,
  "ri": 1801,
  "\u2581aangoo": 1802,
  "\u2581actions": 1803,
  "\u2581jalatti": 1804,
  "\u2581named": 1805,
  "\u2581tribulation": 1806,
  "\u2581advice": 1807,
  "\u2581Saul": 1808,
  "\u2581dhuunfaatti": 1809,
  "\u2581worshippers": 1810,
  "\u2581Yerusaalem": 1811,
  "\u2581changed": 1812,
  "\u2581uume": 1813,
  "\u2581Yihudoonni": 1814,
  "\u2581value": 1815,
  "Jehovah": 1816,
  "\u2581Hebrew": 1817,
  "\u2581powerful": 1818,
  "\u2581therefore": 1819,
  "\u2581within": 1820,
  "\u2581Hence": 1821,
  "\u2581blood": 1822,
  "\u2581damee": 1823,
  "\u2581jirtu": 1824,
  "\u2581Jaarsoliin": 1825,
  "\u2581mudate": 1826,
  "\u2581practical": 1827,
  "\u2581born": 1828,
  "N": 1829,
  "\u2581Messiah": 1830,
  "\u2581mudatu": 1831,
  "\u2581showing": 1832,
  "\u2581Waggaa": 1833,
  "\u2581else": 1834,
  "\u2581fagaachuu": 1835,
  "\u2581gammachuudhaan": 1836,
  "\u258120,": 1837,
  "\u2581answers": 1838,
  "\u2581barabaraa": 1839,
  "\u2581glory": 1840,
  "\u2581hands": 1841,
  "\u2581isaas": 1842,
  "\u2581jaallatan": 1843,
  "\u2581jaarmiyaa": 1844,
  "\u2581reasons": 1845,
  "\u2581wonderful": 1846,
  "\u2581argate": 1847,
  "\u2581build": 1848,
  "\u2581gaariin": 1849,
  "\u2581jaarsoliin": 1850,
  "\u2581jajjabeessu": 1851,
  "\u2581obey": 1852,
  "ate": 1853,
  "over": 1854,
  "\u2581ibsi": 1855,
  "\u2581lallabuu": 1856,
  "\u2581longer": 1857,
  "\u2581addaan": 1858,
  "\u2581gain": 1859,
  "\u2581laata": 1860,
  "\u2581public": 1861,
  "\u2581Their": 1862,
  "\u2581arganne": 1863,
  "\u2581barabaraaf": 1864,
  "\u2581helping": 1865,
  "\u2581precious": 1866,
  "\u2581taaneef": 1867,
  "\u2581training": 1868,
  "ta": 1869,
  "\u2581reach": 1870,
  "\u2581regular": 1871,
  "godly": 1872,
  "\u2581Seenaa": 1873,
  "\u2581Tarii": 1874,
  "\u2581bartoota": 1875,
  "\u2581gargar": 1876,
  "\u2581guidance": 1877,
  "\u2581started": 1878,
  "anis": 1879,
  "\u2581Haati": 1880,
  "\u2581Kunis": 1881,
  "\u2581[\"": 1882,
  "\u2581complete": 1883,
  "\u2581flesh": 1884,
  "\u2581godhame": 1885,
  "\u2581meet": 1886,
  "Ba": 1887,
  "\u2581An": 1888,
  "\u2581Mootii": 1889,
  "\u2581hear": 1890,
  "\u2581judgment": 1891,
  "\u2581misiraachoo": 1892,
  "\u2581sovereignty": 1893,
  "\u2581turin": 1894,
  "\u2581worldwide": 1895,
  "\u258150": 1896,
  "\u2581Hebrews": 1897,
  "\u2581barumsaa": 1898,
  "\u2581chapter": 1899,
  "\u2581eegumsa": 1900,
  "\u2581examine": 1901,
  "\u2581fudhatan": 1902,
  "\u2581here": 1903,
  "\u2581imperfect": 1904,
  "\u2581jedheen": 1905,
  "\u2581Or": 1906,
  "\u2581keessanii": 1907,
  "\u2581position": 1908,
  "\u2581qabaatu": 1909,
  "\u2581suuta": 1910,
  "\u2581tajaajilan": 1911,
  "\u2581unity": 1912,
  "\u2581waaqa": 1913,
  "\u258125.": 1914,
  "\u2581beekne": 1915,
  "\u2581darbee": 1916,
  "\u2581mucaa": 1917,
  "\u258145": 1918,
  "\u2581May": 1919,
  "\u2581accepted": 1920,
  "\u2581endure": 1921,
  "\u2581hojjetaa": 1922,
  "\u2581hold": 1923,
  "\u2581kakuu": 1924,
  "\u2581seek": 1925,
  "nis": 1926,
  "saatiin": 1927,
  "\u2581Fakkeenyi": 1928,
  "\u2581Have": 1929,
  "\u2581Saamu": 1930,
  "\u2581alone": 1931,
  "\u2581choose": 1932,
  "\u2581jireenyi": 1933,
  "\u258122,": 1934,
  "\u2581akkamiitu": 1935,
  "\u2581Baatuu": 1936,
  "\u2581harmony": 1937,
  "\u2581influence": 1938,
  "\u2581shall": 1939,
  "\u2581dubbatee": 1940,
  "\u2581express": 1941,
  "\u2581fidu": 1942,
  "\u2581innis": 1943,
  "\u2581proved": 1944,
  "\u2581argamuu": 1945,
  "\u2581creation": 1946,
  "\u2581oo": 1947,
  "amee": 1948,
  "\u2581dinqisiifannaa": 1949,
  "\u2581encouragement": 1950,
  "\u2581kennuudhaan": 1951,
  "\u2581Hafuurri": 1952,
  "\u2581grow": 1953,
  "\u2581isaatiif": 1954,
  "\u2581speech": 1955,
  "\u2581Hewwaan": 1956,
  "\u2581O": 1957,
  "\u2581bifa": 1958,
  "o": 1959,
  "\u2581akeekkachiisa": 1960,
  "\u2581firdii": 1961,
  "\u2581force": 1962,
  "\u2581freedom": 1963,
  "\u2581goal": 1964,
  "\u2581isarra": 1965,
  "\u2581whose": 1966,
  "w": 1967,
  "\u2581Genesis": 1968,
  "\u2581Just": 1969,
  "\u2581die": 1970,
  "\u2581war": 1971,
  "\u2581jalqaban": 1972,
  "\u2581obboleessi": 1973,
  "\u2581challenges": 1974,
  "\u2581interests": 1975,
  "inaan": 1976,
  "\u2581Amantii": 1977,
  "\u2581dhuma": 1978,
  "\u2581fayyadamu": 1979,
  "\u2581gale": 1980,
  "\u2581ilaalla": 1981,
  "\u2581led": 1982,
  "saatiif": 1983,
  "\u2581desires": 1984,
  "\u2581psalmist": 1985,
  "tii": 1986,
  "\u2581Egypt": 1987,
  "\u2581Later": 1988,
  "\u2581Love": 1989,
  "\u2581branch": 1990,
  "\u2581d": 1991,
  "\u2581First": 1992,
  "\u2581Jeremiah": 1993,
  "\u2581nuyi": 1994,
  "\u2581Fak": 1995,
  "\u2581Jewish": 1996,
  "\u2581Yihudaa": 1997,
  "\u2581seerawwan": 1998,
  "\u2581explained": 1999,
  "\u2581kallattiidhaan": 2000,
  "\u2581raised": 2001,
  "saatti": 2002,
  "\u2581jaalalaan": 2003,
  "\u2581jiraachuun": 2004,
  "\u2581oolchuu": 2005,
  "\u2581Akkaataa": 2006,
  "\u2581action": 2007,
  "\u2581barsiisa": 2008,
  "\u2581stay": 2009,
  "\u2581Yeroon": 2010,
  "\u2581further": 2011,
  "\u2581hidhaa": 2012,
  "\u2581Jaalala": 2013,
  "\u2581dubartii": 2014,
  "\u2581hundumaatti": 2015,
  "\u2581open": 2016,
  "\u2581Kiristoos": 2017,
  "\u2581Maariyaam": 2018,
  "\u2581barbaanne": 2019,
  "\u2581biyyoota": 2020,
  "\u2581encourage": 2021,
  "\u2581gaafate": 2022,
  "\u2581servant": 2023,
  "\u2581arge": 2024,
  "\u2581common": 2025,
  "\u2581qorumsa": 2026,
  "\u2581P": 2027,
  "\u2581fulfillment": 2028,
  "\u2581provides": 2029,
  "\u2581waraana": 2030,
  "\u2581birth": 2031,
  "\u2581develop": 2032,
  "\u2581goals": 2033,
  "\u2581kennuun": 2034,
  "\u2581namootaaf": 2035,
  "hoo": 2036,
  "umsa": 2037,
  "\u2581Giriikii": 2038,
  "\u2581assignment": 2039,
  "\u2581call": 2040,
  "\u2581dheeraadhaaf": 2041,
  "ww": 2042,
  "\u2581Brother": 2043,
  "\u2581Ergamootaa": 2044,
  "\u2581Tajaajila": 2045,
  "\u2581created": 2046,
  "\u2581jabeessa": 2047,
  "\u2581regularly": 2048,
  "\u2581waajjira": 2049,
  "\u2581Yihowaatiin": 2050,
  "\u2581carry": 2051,
  "\u2581discipline": 2052,
  "\u2581gadii": 2053,
  "\u2581hubatan": 2054,
  "\u2581humility": 2055,
  "\u2581qulqullaa": 2056,
  "\u2581working": 2057,
  "ota": 2058,
  "\u2581Addaam": 2059,
  "\u2581clean": 2060,
  "\u2581concern": 2061,
  "\u2581earlier": 2062,
  "\u2581haaraan": 2063,
  "\u2581praise": 2064,
  "\u2581waaqaa": 2065,
  "\u2581MATADUREE": 2066,
  "\u2581attend": 2067,
  "\u2581particular": 2068,
  "\u2581prayed": 2069,
  "\u2581qofadha": 2070,
  "dhaa": 2071,
  "\u2581keessumaa": 2072,
  "\u2581modern": 2073,
  "\u2581rest": 2074,
  "\u258136": 2075,
  "\u2581discuss": 2076,
  "\u2581Kristos": 2077,
  "\u2581display": 2078,
  "\u2581sababa": 2079,
  "\u2581benefits": 2080,
  "th": 2081,
  "\u2581Hojiin": 2082,
  "\u2581barsiisuu": 2083,
  "\u2581continued": 2084,
  "\u2581dhiheesse": 2085,
  "\u2581hirmaachuu": 2086,
  "),": 2087,
  "\u2581mercy": 2088,
  "\u2581realize": 2089,
  "\u2581subject": 2090,
  "\u2581odeeffannoo": 2091,
  "\u2581qabaachuuf": 2092,
  "\u2581single": 2093,
  "\u2581Waaqayyootiin": 2094,
  "\u2581easy": 2095,
  "\u2581proper": 2096,
  "\u2581tried": 2097,
  "\u2581Gaa": 2098,
  "\u2581Waggoota": 2099,
  "\u2581daughter": 2100,
  "\u2581fufuu": 2101,
  "\u2581haasa": 2102,
  "\u2581kabaja": 2103,
  "\u2581lafarratti": 2104,
  "\u2581lesson": 2105,
  "\u2581seem": 2106,
  "on": 2107,
  "\u2581ahead": 2108,
  "\u2581akkasuma": 2109,
  "\u2581enemies": 2110,
  "\u2581knowing": 2111,
  "\u2581tajaajilarratti": 2112,
  "\u2581Pennsylvania": 2113,
  "\u2581People": 2114,
  "\u2581TO": 2115,
  "\u2581behalf": 2116,
  "\u2581kadhachuu": 2117,
  "\u2581kennamu": 2118,
  "\u2581offered": 2119,
  "\u2581barbaachisan": 2120,
  "\u2581beekna": 2121,
  "\u2581changes": 2122,
  "\u2581greatest": 2123,
  "\u2581include": 2124,
  "\u2581mataduree": 2125,
  "\u2581occasion": 2126,
  "\u2581F": 2127,
  "\u2581challenge": 2128,
  "\u2581ilaalaa": 2129,
  "\u2581keenyaan": 2130,
  "\u2581knows": 2131,
  "\u2581miseensota": 2132,
  "\u2581obsaan": 2133,
  "Y": 2134,
  "\u2581arguu": 2135,
  "\u2581dabalatu": 2136,
  "\u2581fayyadamuudhaan": 2137,
  "\u2581furii": 2138,
  "\u2581opening": 2139,
  "\u2581seeking": 2140,
  "\u2581strive": 2141,
  "\u2581teachings": 2142,
  "\u2581warning": 2143,
  "\u2581Addaamii": 2144,
  "\u2581Baay": 2145,
  "\u2581Ibr": 2146,
  "\u2581Mootichi": 2147,
  "\u2581Roman": 2148,
  "\u2581class": 2149,
  "\u2581described": 2150,
  "\u2581dogoggoraa": 2151,
  "\u2581explains": 2152,
  "\u2581expression": 2153,
  "\u2581government": 2154,
  "\u2581protect": 2155,
  "\u2581BIBLE": 2156,
  "\u2581Baabilon": 2157,
  "\u2581bear": 2158,
  "\u2581daily": 2159,
  "\u2581fudhatu": 2160,
  "\u2581history": 2161,
  "\u2581problem": 2162,
  "\u2581Qulqulluurratti": 2163,
  "\u2581True": 2164,
  "\u2581arrangement": 2165,
  "\u2581encouraged": 2166,
  "\u2581wives": 2167,
  "\u25812012": 2168,
  "\u2581argama": 2169,
  "\u2581expect": 2170,
  "\u2581sacred": 2171,
  "\u2581short": 2172,
  "Keeyyat": 2173,
  "\u258141": 2174,
  "\u25816)": 2175,
  "\u2581Prov": 2176,
  "eessa": 2177,
  "\u2581Nohi": 2178,
  "\u2581Similarly": 2179,
  "\u2581dubbisuu": 2180,
  "\u2581jabinaan": 2181,
  "\u2581personality": 2182,
  "\u2581Ermiyaas": 2183,
  "\u2581practice": 2184,
  "\u2581raawwataman": 2185,
  "\u2581soul": 2186,
  "\u2581various": 2187,
  "WWAN": 2188,
  "most": 2189,
  "\u2581ajaa": 2190,
  "\u2581haalawwan": 2191,
  "C": 2192,
  "ting": 2193,
  "\u2581above": 2194,
  "\u2581cultivate": 2195,
  "\u2581laws": 2196,
  "\u2581loyalty": 2197,
  "\u258123,": 2198,
  "\u2581ho": 2199,
  "\u2581torban": 2200,
  "eloota": 2201,
  "\u2581Keep": 2202,
  "\u2581dhiheessuu": 2203,
  "\u2581faced": 2204,
  "\u2581maqaan": 2205,
  "Uumama": 2206,
  "\u00a9": 2207,
  "\u2581HoE": 2208,
  "\u2581Sabni": 2209,
  "\u2581Waan": 2210,
  "\u2581ja": 2211,
  "\u2581mere": 2212,
  "\u2581michoota": 2213,
  "\u2581several": 2214,
  "\u2581waraanaa": 2215,
  "as": 2216,
  "uusaanii": 2217,
  "\u2581Maarqos": 2218,
  "\u2581barsiisu": 2219,
  "\u2581flock": 2220,
  "\u2581happen": 2221,
  "\u2581individual": 2222,
  "\u2581less": 2223,
  "\u2581pain": 2224,
  "\u2581personally": 2225,
  "\u2581treat": 2226,
  "\u2581Uumama": 2227,
  "\u2581Yihowaafi": 2228,
  "\u2581addition": 2229,
  "\u2581dhiheessan": 2230,
  "\u2581dibamoo": 2231,
  "\u2581jalqabaatti": 2232,
  "\u2581sexual": 2233,
  "\u2581Akkana": 2234,
  "\u2581Ayyaana": 2235,
  "\u2581Danda": 2236,
  "\u2581Gaaffiiwwan": 2237,
  "\u2581Heb": 2238,
  "\u2581Joshua": 2239,
  "\u2581baranna": 2240,
  "\u2581behind": 2241,
  "\u2581dhi": 2242,
  "\u2581dhihaatu": 2243,
  "\u2581jajjabeessuu": 2244,
  "\u2581jiraachaa": 2245,
  "\u2581join": 2246,
  "\u2581positive": 2247,
  "\u2581stop": 2248,
  "\u25817)": 2249,
  "\u2581walk": 2250,
  "Fakkeenya": 2251,
  "ichi": 2252,
  "\u2581Bakka": 2253,
  "\u2581Before": 2254,
  "\u2581eeguuf": 2255,
  "\u2581jedhaman": 2256,
  "\u2581amantiin": 2257,
  "\u2581dabalata": 2258,
  "\u2581fuulduraa": 2259,
  "\u2581jiranii": 2260,
  "\u2581sacrifices": 2261,
  "\u25812011": 2262,
  "\u258138": 2263,
  "\u2581Efesoon": 2264,
  "\u2581Obboleettiin": 2265,
  "\u2581allowed": 2266,
  "\u2581months": 2267,
  "\u2581pressure": 2268,
  "\u2581revealed": 2269,
  "\u2581Hall": 2270,
  "\u2581area": 2271,
  "\u2581articles": 2272,
  "\u2581barbaade": 2273,
  "\u2581barreeffame": 2274,
  "\u2581genuine": 2275,
  "\u2581jiraa": 2276,
  "\u2581ready": 2277,
  "\u2581takes": 2278,
  "\u2581Dargaggoonni": 2279,
  "\u2581blessed": 2280,
  "\u2581choice": 2281,
  "\u2581fedhiidhaan": 2282,
  "\u2581foonii": 2283,
  "\u2581galan": 2284,
  "\u2581isaaniitti": 2285,
  "\u2581period": 2286,
  "\u2581quality": 2287,
  "\u2581Hunda": 2288,
  "\u2581Tim": 2289,
  "\u2581gargaarsi": 2290,
  "\u2581held": 2291,
  "\u2581Dhugumayyuu": 2292,
  "\u2581United": 2293,
  "\u2581angel": 2294,
  "\u2581crowd": 2295,
  "\u2581everyone": 2296,
  "\u2581evil": 2297,
  "\u2581fagoo": 2298,
  "\u2581godhamu": 2299,
  "\u2581hawwii": 2300,
  "\u2581ibsan": 2301,
  "\u2581myself": 2302,
  "\u2581office": 2303,
  "\u2581published": 2304,
  "\u2581rich": 2305,
  "\u258111)": 2306,
  "\u2581Obboloota": 2307,
  "\u2581activity": 2308,
  "\u2581daandii": 2309,
  "\u2581enough": 2310,
  "\u2581fulfilled": 2311,
  "\u2581misiraachicha": 2312,
  "\u2581prepare": 2313,
  "\u2581steps": 2314,
  "icha": 2315,
  "\u25812009": 2316,
  "\u2581Most": 2317,
  "\u2581command": 2318,
  "\u2581dandeessan": 2319,
  "\u2581godhaa": 2320,
  "\u2581hubatu": 2321,
  "\u2581Babylon": 2322,
  "\u2581Seexana": 2323,
  "\u2581deeply": 2324,
  "\u2581hojjechaa": 2325,
  "\u2581importance": 2326,
  "\u2581isaanis": 2327,
  "\u2581jajjabeessa": 2328,
  "\u2581progress": 2329,
  "\u2581qalbii": 2330,
  "\u258129.": 2331,
  "\u2581assigned": 2332,
  "\u2581eegu": 2333,
  "\u2581five": 2334,
  "\u2581humble": 2335,
  "\u2581qabanii": 2336,
  "\u2581tajaajilu": 2337,
  "\u2581tarii": 2338,
  "\u2581119": 2339,
  "\u2581Samuel": 2340,
  "\u2581ago": 2341,
  "\u2581approach": 2342,
  "\u2581becoming": 2343,
  "\u2581firm": 2344,
  "\u2581mallattoo": 2345,
  "\u2581meeshaa": 2346,
  "\u2581muka": 2347,
  "\u2581yaadawwan": 2348,
  "\u2581yaaduun": 2349,
  "\u25813)": 2350,
  "\u25818)": 2351,
  "\u2581Ilma": 2352,
  "\u2581cimaan": 2353,
  "\u2581hundaaf": 2354,
  "\u2581image": 2355,
  "\u2581learning": 2356,
  "\u2581results": 2357,
  "\u2581salvation": 2358,
  "\u2581wonder": 2359,
  "\u2581Gaaffii": 2360,
  "\u2581Kutaa": 2361,
  "\u2581Perhaps": 2362,
  "\u2581exercise": 2363,
  "\u2581qabuun": 2364,
  "\u2581qajeelummaa": 2365,
  "\u258124,": 2366,
  "\u2581Elijah": 2367,
  "\u2581Mot": 2368,
  "\u2581Others": 2369,
  "\u2581furmaata": 2370,
  "\u2581guyyaadhaan": 2371,
  "\u2581namatti": 2372,
  "\u2581shown": 2373,
  "\u2581Bu": 2374,
  "\u2581Life": 2375,
  "\u2581beyond": 2376,
  "\u2581convention": 2377,
  "\u2581enable": 2378,
  "\u2581families": 2379,
  "\u2581fufu": 2380,
  "\u2581ibse": 2381,
  "\u2581jirutti": 2382,
  "\u2581namootaatiif": 2383,
  "\u2581obedient": 2384,
  "ach": 2385,
  "j": 2386,
  "\u2581Fakkii": 2387,
  "\u2581alive": 2388,
  "\u2581contribute": 2389,
  "\u2581forth": 2390,
  "\u2581negative": 2391,
  "\u2581patience": 2392,
  "\u2581waliif": 2393,
  "\u2581yaa": 2394,
  "Yaa": 2395,
  "p": 2396,
  "to": 2397,
  "\u2581Holy": 2398,
  "\u2581basis": 2399,
  "\u2581decided": 2400,
  "\u2581gammadu": 2401,
  "\u2581geessisuu": 2402,
  "\u2581ibsuuf": 2403,
  "\u2581indeed": 2404,
  "\u2581mata": 2405,
  "\u2581necessary": 2406,
  "\u2581studying": 2407,
  "saaniitiif": 2408,
  "\u258128.": 2409,
  "\u258133.": 2410,
  "\u258170": 2411,
  "\u2581Jechi": 2412,
  "\u2581accounts": 2413,
  "\u2581actually": 2414,
  "\u2581closer": 2415,
  "\u2581principle": 2416,
  "\u2581publications": 2417,
  "\u2581quickly": 2418,
  "\u2581uumame": 2419,
  "\u258121,": 2420,
  "\u25814)": 2421,
  "\u2581Study": 2422,
  "\u2581Tower": 2423,
  "\u2581gurguddaa": 2424,
  "\u2581hundatti": 2425,
  "\u2581murteessuu": 2426,
  "\u2581nei": 2427,
  "\u2581publishers": 2428,
  "\u2581throughout": 2429,
  "\u2581umurii": 2430,
  "iyyuu": 2431,
  "saaniitiin": 2432,
  "\u2581Another": 2433,
  "\u2581akkanaa": 2434,
  "\u2581ala": 2435,
  "\u2581deemuu": 2436,
  "\u2581invited": 2437,
  "\u2581justice": 2438,
  "\u2581overseer": 2439,
  "\u2581Really": 2440,
  "\u2581Remember": 2441,
  "\u2581achitti": 2442,
  "\u2581amanannaa": 2443,
  "\u2581beekamu": 2444,
  "\u2581dhiheenyatti": 2445,
  "\u2581jiraannu": 2446,
  "\u2581kootti": 2447,
  "r": 2448,
  "\u2581ergamoota": 2449,
  "\u2581manaasaa": 2450,
  "\u2581obsa": 2451,
  "\u2581sign": 2452,
  "\u2581students": 2453,
  "\u258155": 2454,
  "\u2581Jacob": 2455,
  "\u2581fakkeenyaan": 2456,
  "\u2581lack": 2457,
  "\u2581met": 2458,
  "\u2581picture": 2459,
  "\u2581poor": 2460,
  "\u2581qabda": 2461,
  "\u2581Ijoollee": 2462,
  "\u2581hoolota": 2463,
  "\u2581kaanitti": 2464,
  "\u2581michuu": 2465,
  "\u2581pioneers": 2466,
  "\u2581samiirratti": 2467,
  "\u2581truths": 2468,
  "\u2581100": 2469,
  "\u2581Luq": 2470,
  "\u2581Xim": 2471,
  "\u2581building": 2472,
  "\u2581dedicated": 2473,
  "\u2581entire": 2474,
  "\u2581forward": 2475,
  "\u2581job": 2476,
  "\u2581konkolaataa": 2477,
  "\u2581test": 2478,
  "amne": 2479,
  "\u2581Yohaannis": 2480,
  "\u2581begin": 2481,
  "\u2581expressed": 2482,
  "\u2581ful": 2483,
  "\u2581gumiiwwan": 2484,
  "\u2581keeping": 2485,
  "\u2581source": 2486,
  "\u2581Great": 2487,
  "\u2581Utuu": 2488,
  "\u2581voice": 2489,
  "\u2581Gal": 2490,
  "\u2581Gorsa": 2491,
  "\u2581Ibrootaa": 2492,
  "\u2581assist": 2493,
  "\u2581dedication": 2494,
  "\u2581dhiphina": 2495,
  "\u2581friendship": 2496,
  "\u2581looking": 2497,
  "\u2581seed": 2498,
  "\u2581worked": 2499,
  "\u2581According": 2500,
  "\u2581Phe": 2501,
  "\u2581guyyoota": 2502,
  "\u2581line": 2503,
  "\u2581millions": 2504,
  "\u2581qabaannu": 2505,
  "\u2581recognize": 2506,
  "\u2581reward": 2507,
  "\u2581Kunimmoo": 2508,
  "\u2581Witness": 2509,
  "\u2581books": 2510,
  "\u2581demonstrate": 2511,
  "\u2581galuu": 2512,
  "\u2581involves": 2513,
  "\u2581jedhamtu": 2514,
  "\u2581kennee": 2515,
  "\u2581moral": 2516,
  "\u2581resurrected": 2517,
  "\u258128,": 2518,
  "\u2581Ephesians": 2519,
  "\u2581lafaatti": 2520,
  "\u2581seven": 2521,
  "\u2581utuma": 2522,
  "\u25812008": 2523,
  "\u25812010": 2524,
  "\u258139": 2525,
  "\u2581deebisuu": 2526,
  "\u2581destruction": 2527,
  "\u2581duubatti": 2528,
  "\u2581enjoyed": 2529,
  "\u2581favor": 2530,
  "\u2581gootu": 2531,
  "\u2581qaamaa": 2532,
  "\u2581turned": 2533,
  "edha": 2534,
  "\u2581Jalqaba": 2535,
  "\u2581explain": 2536,
  "\u2581manaashee": 2537,
  "\u2581miseensa": 2538,
  "\u2581qabuuf": 2539,
  "iinsa": 2540,
  "\u2581anger": 2541,
  "\u2581aware": 2542,
  "\u2581enter": 2543,
  "\u2581keenyarratti": 2544,
  "\u2581original": 2545,
  "\u2581qayyabachuu": 2546,
  "\u2581sabasaa": 2547,
  "atan": 2548,
  "\u2581Ati": 2549,
  "\u2581appropriate": 2550,
  "\u2581boodas": 2551,
  "\u2581door": 2552,
  "\u2581obedience": 2553,
  "\u2581record": 2554,
  "\u2581seems": 2555,
  "\u2581urged": 2556,
  "\u2581Haaraa": 2557,
  "\u2581Yihudoota": 2558,
  "\u2581carefully": 2559,
  "\u2581caused": 2560,
  "\u2581galgala": 2561,
  "\u2581neighbor": 2562,
  "\u2581qabuufi": 2563,
  "\u258115)": 2564,
  "\u2581Qayyabannaa": 2565,
  "\u2581argisiisuun": 2566,
  "\u2581asking": 2567,
  "\u2581dhihaate": 2568,
  "\u2581gaafata": 2569,
  "\u2581presence": 2570,
  "\u2581tajaajiltoonni": 2571,
  "\u2581Maatii": 2572,
  "\u2581beginning": 2573,
  "\u2581caqasa": 2574,
  "\u2581forgive": 2575,
  "\u2581gaggaarii": 2576,
  "\u2581ibsaman": 2577,
  "\u2581ten": 2578,
  "\u2581claim": 2579,
  "\u2581foon": 2580,
  "\u2581hafe": 2581,
  "\u2581parent": 2582,
  "\u2581sound": 2583,
  "\u2581xiyyeeffachuu": 2584,
  "\u2581Keessan": 2585,
  "\u2581aadaa": 2586,
  "\u2581chosen": 2587,
  "\u2581disciple": 2588,
  "\u2581getting": 2589,
  "\u2581languages": 2590,
  "\u2581sochii": 2591,
  "\u2581BE": 2592,
  "\u2581Clearly": 2593,
  "\u2581Govern": 2594,
  "\u2581Seenaan": 2595,
  "\u2581eat": 2596,
  "\u2581fufuuf": 2597,
  "\u2581hirmaatan": 2598,
  "\u2581oolchuuf": 2599,
  "\u2581react": 2600,
  "\u2581related": 2601,
  "\u2581traveling": 2602,
  "\u2581yourselves": 2603,
  "like": 2604,
  "\u2581Du": 2605,
  "\u2581Yihowaarratti": 2606,
  "\u2581deemu": 2607,
  "\u2581dhufa": 2608,
  "\u2581resist": 2609,
  "\u2581yaadan": 2610,
  "elli": 2611,
  "est": 2612,
  "ic": 2613,
  "\u2581Hafuura": 2614,
  "\u2581ergamoonni": 2615,
  "achaa": 2616,
  "or": 2617,
  "\u25812013": 2618,
  "\u2581Keessumaa": 2619,
  "\u2581Waaqayyootiif": 2620,
  "\u2581completely": 2621,
  "\u2581imagine": 2622,
  "\u2581isaatii": 2623,
  "annaa": 2624,
  "\u258112)": 2625,
  "\u2581Amala": 2626,
  "\u2581States": 2627,
  "\u2581Waaqeffannaa": 2628,
  "\u2581argan": 2629,
  "\u2581gabaabaa": 2630,
  "\u2581hojjechuuf": 2631,
  "\u2581literature": 2632,
  "\u2581protection": 2633,
  "\u2581yeruma": 2634,
  "ttan": 2635,
  "\u258165": 2636,
  "\u2581Barumsaa": 2637,
  "\u2581Hiriyoonni": 2638,
  "\u2581barsiisuuf": 2639,
  "\u2581ishiin": 2640,
  "\u2581shepherd": 2641,
  "\u2581suffer": 2642,
  "\u2581taatu": 2643,
  "\u2581amanuu": 2644,
  "\u2581hima": 2645,
  "\u2581walking": 2646,
  "If": 2647,
  "amaa": 2648,
  "inni": 2649,
  "\u2581Hundi": 2650,
  "\u2581balleessaa": 2651,
  "\u2581itself": 2652,
  "\u2581xuraa": 2653,
  "\u258118)": 2654,
  "\u2581Kadhannaa": 2655,
  "\u2581dursee": 2656,
  "\u2581olaantummaa": 2657,
  "\u2581qabatan": 2658,
  "\u2581Also": 2659,
  "\u2581Body": 2660,
  "\u2581Memorial": 2661,
  "\u2581dhiheessu": 2662,
  "\u2581fayyadaman": 2663,
  "\u2581godhachuu": 2664,
  "\u2581shar": 2665,
  "\u2581situations": 2666,
  "\u2581Caaffa": 2667,
  "\u2581Ibroota": 2668,
  "\u2581affection": 2669,
  "\u2581jechoota": 2670,
  "\u2581jirra": 2671,
  "\u2581leaders": 2672,
  "\u2581paradise": 2673,
  "\u2581relatives": 2674,
  "\u2581sometimes": 2675,
  "\u2581week": 2676,
  "saaniitti": 2677,
  "\u2581English": 2678,
  "\u2581Pet": 2679,
  "\u2581Teach": 2680,
  "\u2581Though": 2681,
  "\u2581added": 2682,
  "\u2581badiisa": 2683,
  "\u2581eega": 2684,
  "\u2581kings": 2685,
  "atti": 2686,
  "\u258114)": 2687,
  "\u2581circuit": 2688,
  "\u2581homaa": 2689,
  "\u2581interested": 2690,
  "\u2581realized": 2691,
  "\u2581returned": 2692,
  "\u2581teaches": 2693,
  "\u2581Nutis": 2694,
  "\u2581contrast": 2695,
  "\u2581isaaniitiin": 2696,
  "\u2581uffata": 2697,
  "Yeroo": 2698,
  "\u2581Eliyaas": 2699,
  "\u2581Further": 2700,
  "\u2581Matadureen": 2701,
  "\u2581Yaadannoo": 2702,
  "\u2581cope": 2703,
  "\u2581dibamoon": 2704,
  "\u2581filannaa": 2705,
  "\u2581keetti": 2706,
  "\u2581leenjii": 2707,
  "\u2581pursue": 2708,
  "\u2581abboomamuu": 2709,
  "\u2581arrived": 2710,
  "\u2581brings": 2711,
  "\u2581buutota": 2712,
  "\u2581condition": 2713,
  "\u2581fo": 2714,
  "\u2581hordofuudhaan": 2715,
  "\u2581hundumaaf": 2716,
  "\u2581jechi": 2717,
  "\u2581member": 2718,
  "\u2581specific": 2719,
  "ty": 2720,
  "\u258117)": 2721,
  "\u25812)": 2722,
  "\u258160": 2723,
  "\u2581acts": 2724,
  "\u2581dhiiga": 2725,
  "\u2581dhumaatti": 2726,
  "\u2581forgiveness": 2727,
  "\u2581garee": 2728,
  "\u2581geggeeffamu": 2729,
  "\u2581general": 2730,
  "\u2581response": 2731,
  "\u2581thousands": 2732,
  "\u2581valuable": 2733,
  "\u2581Isin": 2734,
  "\u2581Sababii": 2735,
  "\u2581Sen": 2736,
  "\u2581devotion": 2737,
  "\u2581experiences": 2738,
  "\u2581key": 2739,
  "\u2581mucaan": 2740,
  "\u2581natural": 2741,
  "\u2581qabeeyyii": 2742,
  "\u2581qorumsi": 2743,
  "\u2581required": 2744,
  "\u2581surely": 2745,
  "Do": 2746,
  "evertheless": 2747,
  "\u2581Aaron": 2748,
  "\u2581Ilaalcha": 2749,
  "\u2581Us": 2750,
  "\u2581conditions": 2751,
  "\u2581ijoolleesaanii": 2752,
  "\u2581jirru": 2753,
  "\u2581lands": 2754,
  "\u2581missionary": 2755,
  "\u2581muraasaaf": 2756,
  "\u2581re": 2757,
  "\u2581trying": 2758,
  "\u258126.": 2759,
  "\u2581Barumsa": 2760,
  "\u2581amanan": 2761,
  "\u2581endurance": 2762,
  "\u2581evening": 2763,
  "\u2581final": 2764,
  "\u2581followed": 2765,
  "\u2581fulfill": 2766,
  "\u2581gooftaan": 2767,
  "\u2581isaaniin": 2768,
  "\u2581kaanimmoo": 2769,
  "\u2581opposition": 2770,
  "\u2581undeserved": 2771,
  "\u2581Ilmaan": 2772,
  "\u2581Sarah": 2773,
  "\u2581argame": 2774,
  "\u2581dhabuu": 2775,
  "\u2581effective": 2776,
  "\u2581jirre": 2777,
  "\u2581murteesse": 2778,
  "\u258113)": 2779,
  "\u2581Un": 2780,
  "\u2581Uumaa": 2781,
  "\u2581bilisa": 2782,
  "\u2581confident": 2783,
  "\u2581ejjennoo": 2784,
  "\u2581fire": 2785,
  "\u2581himuu": 2786,
  "\u2581jalqabaatiif": 2787,
  "\u2581ofitti": 2788,
  "\u2581overcome": 2789,
  "\u2581rejoice": 2790,
  "\u2581reveal": 2791,
  "\u2581success": 2792,
  "\u2581About": 2793,
  "\u2581Karaan": 2794,
  "\u2581Raajiin": 2795,
  "\u2581aboo": 2796,
  "\u2581dubbachuuf": 2797,
  "\u2581fruit": 2798,
  "\u2581jedhame": 2799,
  "\u2581qulqulluutiin": 2800,
  "\u2581six": 2801,
  "k": 2802,
  "nsaanii": 2803,
  "\u258131.": 2804,
  "\u2581Tajaajiltoonni": 2805,
  "\u2581balleessuuf": 2806,
  "\u2581dinqisiisu": 2807,
  "\u2581feeling": 2808,
  "\u2581fudhachuuf": 2809,
  "\u2581gaariidha": 2810,
  "\u2581qabdan": 2811,
  "\u2581simple": 2812,
  "\u2581spend": 2813,
  "\u2581spoken": 2814,
  "Let": 2815,
  "\u2581Biyya": 2816,
  "\u2581Gama": 2817,
  "\u2581Yihowaatiif": 2818,
  "\u2581eeggachuu": 2819,
  "\u2581eventually": 2820,
  "\u2581grateful": 2821,
  "\u2581jaarsa": 2822,
  "\u2581sirreeffama": 2823,
  "\u2581sort": 2824,
  "\u2581spent": 2825,
  "\u2581standing": 2826,
  "\u2581taatee": 2827,
  "\u2581discreet": 2828,
  "\u2581hiriyoonni": 2829,
  "\u2581hours": 2830,
  "\u2581household": 2831,
  "\u2581ilaala": 2832,
  "\u2581sagantaa": 2833,
  "\u2581zeal": 2834,
  "\u2581Maqaa": 2835,
  "\u2581bread": 2836,
  "\u2581centuries": 2837,
  "\u2581consequences": 2838,
  "\u2581fudhate": 2839,
  "\u2581keetii": 2840,
  "\u2581siyaasaa": 2841,
  "\u2581waldaa": 2842,
  "\u2581walsimuun": 2843,
  "\u258129,": 2844,
  "\u2581Gumii": 2845,
  "\u2581Rakkinni": 2846,
  "\u2581ajaja": 2847,
  "\u2581baasu": 2848,
  "\u2581duriitti": 2849,
  "l": 2850,
  "\u2581School": 2851,
  "\u2581Waaqayyoofi": 2852,
  "\u2581agree": 2853,
  "\u2581amanamuu": 2854,
  "\u2581compassion": 2855,
  "\u2581included": 2856,
  "\u2581namaaf": 2857,
  "\u2581places": 2858,
  "\u2581sanaaf": 2859,
  "\u2581umuriin": 2860,
  "\u2581universe": 2861,
  "We": 2862,
  "out": 2863,
  "\u2581Erga": 2864,
  "\u2581fight": 2865,
  "\u2581godhanii": 2866,
  "\u2581jiraniif": 2867,
  "\u2581prepared": 2868,
  "\u2581prevent": 2869,
  "\u2581territory": 2870,
  "\u2581ulaagaa": 2871,
  "\u2581Amantiin": 2872,
  "\u2581dubbatame": 2873,
  "\u2581elderly": 2874,
  "\u2581energy": 2875,
  "\u2581gifts": 2876,
  "\u2581isinii": 2877,
  "\u2581jedhutti": 2878,
  "\u2581priests": 2879,
  "\u2581prophecies": 2880,
  "\u2581sadarkaa": 2881,
  "\u2581yoom": 2882,
  "Isaayaas": 2883,
  "responsibilities": 2884,
  "\u258135.": 2885,
  "\u2581Bishaan": 2886,
  "\u2581Qaama": 2887,
  "\u2581baratan": 2888,
  "\u2581filled": 2889,
  "\u2581godhaniiru": 2890,
  "\u2581haasaa": 2891,
  "\u2581macaafa": 2892,
  "\u2581salphaatti": 2893,
  "\u2581Abbaasaa": 2894,
  "\u2581Where": 2895,
  "\u2581answered": 2896,
  "\u2581areas": 2897,
  "\u2581guide": 2898,
  "\u2581outside": 2899,
  "\u2581verse": 2900,
  "\u2581yaadda": 2901,
  "\u2581Hiika": 2902,
  "\u2581Seerri": 2903,
  "\u2581barbaannu": 2904,
  "\u2581foreign": 2905,
  "\u2581invitation": 2906,
  "\u2581manifest": 2907,
  "\u2581offering": 2908,
  "\u2581paragraph": 2909,
  "\u2581side": 2910,
  "\u2581yaadachuu": 2911,
  "\u2581144,000": 2912,
  "\u2581Ilmi": 2913,
  "\u2581Rev": 2914,
  "\u2581Through": 2915,
  "\u2581accomplish": 2916,
  "\u2581anxiety": 2917,
  "\u2581attending": 2918,
  "\u2581jedhaniiru": 2919,
  "\u2581kurnanii": 2920,
  "\u2581mudatan": 2921,
  "\u2581ogeessa": 2922,
  "\u2581tajaajiluun": 2923,
  "\u2581write": 2924,
  "\u2581yaadadhu": 2925,
  "\u258148": 2926,
  "\u2581Gooftaa": 2927,
  "\u2581Kennaa": 2928,
  "\u2581Maarree": 2929,
  "\u2581Rakkina": 2930,
  "\u2581Saba": 2931,
  "\u2581approval": 2932,
  "\u2581dargaggoota": 2933,
  "\u2581guard": 2934,
  "\u2581ibsuu": 2935,
  "\u2581kakaasa": 2936,
  "\u2581mirkaneessa": 2937,
  "\u2581pure": 2938,
  "\u2581uumamu": 2939,
  "iif": 2940,
  "jw": 2941,
  "\u2581dabalatudha": 2942,
  "\u2581education": 2943,
  "\u2581gaddisiisu": 2944,
  "\u2581garaan": 2945,
  "\u2581gumaacha": 2946,
  "\u2581guyyaan": 2947,
  "\u2581hojjete": 2948,
  "\u2581lessons": 2949,
  "\u2581qabaa": 2950,
  "\u2581step": 2951,
  "\u2581turanii": 2952,
  "\u2581xalayaa": 2953,
  "\u2581Ija": 2954,
  "\u2581barreeffama": 2955,
  "\u2581dinqii": 2956,
  "\u2581hubadhu": 2957,
  "\u2581lose": 2958,
  "\u2581persecution": 2959,
  "\u2581Explain": 2960,
  "\u2581association": 2961,
  "\u2581biraatti": 2962,
  "\u2581either": 2963,
  "\u2581gargaaraa": 2964,
  "\u2581goote": 2965,
  "\u2581hangam": 2966,
  "\u2581jaallannu": 2967,
  "\u2581kadhannaadhaan": 2968,
  "\u2581kakaasuu": 2969,
  "\u2581lammaffaa": 2970,
  "\u2581nutis": 2971,
  "\u2581observe": 2972,
  "\u2581p": 2973,
  "\u2581sadan": 2974,
  "\u2581train": 2975,
  "Isin": 2976,
  "NI": 2977,
  "\u258143": 2978,
  "\u2581G": 2979,
  "\u2581Ga": 2980,
  "\u2581deliver": 2981,
  "\u2581guddaadhaan": 2982,
  "\u2581least": 2983,
  "\u2581manaakoo": 2984,
  "\u2581travel": 2985,
  "\u2581xiinxaluun": 2986,
  "\u2581Ergamoonni": 2987,
  "\u2581Judah": 2988,
  "\u2581biyyi": 2989,
  "\u2581convinced": 2990,
  "\u2581erge": 2991,
  "\u2581failed": 2992,
  "\u2581fakkeenyaatti": 2993,
  "\u2581gosa": 2994,
  "\u2581practices": 2995,
  "\u2581student": 2996,
  "\u2581uumamaa": 2997,
  "\u2581workers": 2998,
  "atee": 2999,
  "\u2581Ask": 3000,
  "\u2581Give": 3001,
  "\u2581Pictures": 3002,
  "\u2581baase": 3003,
  "\u2581bantii": 3004,
  "\u2581ergamaa": 3005,
  "\u2581jireenyaaf": 3006,
  "\u2581lot": 3007,
  "\u2581request": 3008,
  "\u2581sochiiwwan": 3009,
  "\u2581tokkicha": 3010,
  "\u2581Hundumaa": 3011,
  "\u2581Matumaa": 3012,
  "\u2581aspects": 3013,
  "\u2581baatus": 3014,
  "\u2581balleessuu": 3015,
  "\u2581conclusion": 3016,
  "\u2581destroy": 3017,
  "\u2581fall": 3018,
  "\u2581heartfelt": 3019,
  "\u2581jedhamuu": 3020,
  "\u2581keessaniif": 3021,
  "\u2581qooqa": 3022,
  "\u2581sodaa": 3023,
  "It": 3024,
  "\u2581Dhuguma": 3025,
  "\u2581Murtoo": 3026,
  "\u2581Was": 3027,
  "\u2581aanu": 3028,
  "\u2581deebisee": 3029,
  "\u2581ejja": 3030,
  "\u2581fudhachuun": 3031,
  "\u2581mirkaneesseera": 3032,
  "\u2581morning": 3033,
  "\u2581qorannaa": 3034,
  "\u2581term": 3035,
  "\u25811)": 3036,
  "\u2581Abdii": 3037,
  "\u2581Regard": 3038,
  "\u2581Society": 3039,
  "\u2581barsiisaa": 3040,
  "\u2581calls": 3041,
  "\u2581dhagna": 3042,
  "\u2581improve": 3043,
  "\u2581kaanis": 3044,
  "\u2581loves": 3045,
  "\u2581opportunities": 3046,
  "\u2581temptation": 3047,
  "\u2581understood": 3048,
  "immoo": 3049,
  "\u2581dargaggoonni": 3050,
  "\u2581dhimmawwan": 3051,
  "\u2581discern": 3052,
  "\u2581hiriyoota": 3053,
  "\u2581manner": 3054,
  "\u2581overseers": 3055,
  "\u2581wait": 3056,
  "c": 3057,
  "\u2581Ilmasaa": 3058,
  "\u2581Rome": 3059,
  "\u2581dhihaatan": 3060,
  "\u2581encouraging": 3061,
  "\u2581fayyadamaa": 3062,
  "\u2581fayyadame": 3063,
  "\u2581filannoo": 3064,
  "\u2581lallabuuf": 3065,
  "\u2581listening": 3066,
  "\u2581Eden": 3067,
  "\u2581Qajeelfama": 3068,
  "\u2581baasuu": 3069,
  "\u2581beautiful": 3070,
  "\u2581dhagaa": 3071,
  "\u2581dhufee": 3072,
  "\u2581fill": 3073,
  "\u2581hamoo": 3074,
  "\u2581jannata": 3075,
  "\u2581midhaan": 3076,
  "\u2581opened": 3077,
  "\u2581tokkorratti": 3078,
  "\u258130.": 3079,
  "\u2581USE": 3080,
  "\u2581attended": 3081,
  "\u2581contain": 3082,
  "\u2581danger": 3083,
  "\u2581mee": 3084,
  "\u2581miseensonni": 3085,
  "\u2581play": 3086,
  "istoonni": 3087,
  "\u258127,": 3088,
  "\u258146": 3089,
  "\u2581Eeden": 3090,
  "\u2581Garaa": 3091,
  "\u2581argamsiisuu": 3092,
  "\u2581argataniiru": 3093,
  "\u2581ayyaana": 3094,
  "\u2581discussed": 3095,
  "\u2581ergan": 3096,
  "\u2581kakaasu": 3097,
  "\u2581meant": 3098,
  "\u2581satisfaction": 3099,
  "\u2581warned": 3100,
  "\u258144": 3101,
  "\u2581caring": 3102,
  "\u2581destroyed": 3103,
  "\u2581dubbachuun": 3104,
  "\u2581manca": 3105,
  "\u2581offspring": 3106,
  "\u2581tree": 3107,
  "\u2581uses": 3108,
  "\u2581zealous": 3109,
  "Fakkii": 3110,
  "\u2581bulchaa": 3111,
  "\u2581ceepha": 3112,
  "\u2581don": 3113,
  "\u2581event": 3114,
  "\u2581includes": 3115,
  "\u2581jiraate": 3116,
  "\u2581jiraattu": 3117,
  "\u2581mala": 3118,
  "\u2581month": 3119,
  "\u2581patient": 3120,
  "\u2581praying": 3121,
  "\u2581rakkoo": 3122,
  "\u2581reasonable": 3123,
  "\u2581seeing": 3124,
  "In": 3125,
  "\u258151": 3126,
  "\u2581Nuyis": 3127,
  "\u2581Soon": 3128,
  "\u2581conversation": 3129,
  "\u2581fooyya": 3130,
  "\u2581garabiraa": 3131,
  "\u2581qabaniif": 3132,
  "\u2581qeentee": 3133,
  "\u2581text": 3134,
  "\u2581yaaduudhaan": 3135,
  "moo": 3136,
  "\u2581\"[": 3137,
  "\u2581Family": 3138,
  "\u2581Maqaan": 3139,
  "\u2581Think": 3140,
  "\u2581ammas": 3141,
  "\u2581barattoota": 3142,
  "\u2581beliefs": 3143,
  "\u2581break": 3144,
  "\u2581declared": 3145,
  "\u2581fail": 3146,
  "\u2581gati": 3147,
  "\u2581husbands": 3148,
  "\u2581isarratti": 3149,
  "\u2581limited": 3150,
  "\u2581priest": 3151,
  "\u2581refers": 3152,
  "\u2581sex": 3153,
  "\u2581Learn": 3154,
  "\u2581Philippians": 3155,
  "\u2581boo": 3156,
  "\u2581contact": 3157,
  "\u2581dhiisuun": 3158,
  "\u2581geessu": 3159,
  "\u2581himu": 3160,
  "\u2581immediately": 3161,
  "\u2581kamiini": 3162,
  "\u2581late": 3163,
  "\u2581miles": 3164,
  "\u2581ofiin": 3165,
  "\u2581reject": 3166,
  "\u2581remind": 3167,
  "\u2581seemed": 3168,
  "\u2581tongue": 3169,
  "\u258126,": 3170,
  "\u2581Pheexiros": 3171,
  "\u2581Questions": 3172,
  "\u2581argisiisnu": 3173,
  "\u2581dafee": 3174,
  "\u2581deeman": 3175,
  "\u2581emotional": 3176,
  "\u2581forget": 3177,
  "\u2581hour": 3178,
  "\u2581jedhamuufi": 3179,
  "\u2581points": 3180,
  "\u2581subjects": 3181,
  "\u2581COVER": 3182,
  "\u2581IN": 3183,
  "\u2581Naannoo": 3184,
  "\u2581Wali": 3185,
  "\u2581afur": 3186,
  "\u2581barsiiseera": 3187,
  "\u2581bless": 3188,
  "\u2581gaafatan": 3189,
  "\u2581hojjechuun": 3190,
  "\u2581master": 3191,
  "\u2581mental": 3192,
  "\u2581names": 3193,
  "\u2581prison": 3194,
  "\u2581studies": 3195,
  "\u2581taanu": 3196,
  "\u2581tasaa": 3197,
  "\u2581waanuma": 3198,
  "ve": 3199,
  "\u2581chose": 3200,
  "\u2581delight": 3201,
  "\u2581dhuguma": 3202,
  "\u2581duraan": 3203,
  "\u2581hubatee": 3204,
  "\u2581manni": 3205,
  "\u2581qabaniifi": 3206,
  "\u2581riches": 3207,
  "\u2581sincere": 3208,
  "\u2581visited": 3209,
  "\u2581watch": 3210,
  "\u2581yaadni": 3211,
  "When": 3212,
  "\u2581Giil": 3213,
  "\u2581Niiwu": 3214,
  "\u2581OF": 3215,
  "\u2581Tokkoffaa": 3216,
  "\u2581abdiin": 3217,
  "\u2581amansiisaa": 3218,
  "\u2581bond": 3219,
  "\u2581communication": 3220,
  "\u2581dandeessisu": 3221,
  "\u2581dhiisee": 3222,
  "\u2581dhugaatii": 3223,
  "\u2581eight": 3224,
  "\u2581isheetti": 3225,
  "\u2581lafti": 3226,
  "\u2581referred": 3227,
  "\u2581vision": 3228,
  "ar": 3229,
  "\u2581U": 3230,
  "\u2581achiis": 3231,
  "\u2581becomes": 3232,
  "\u2581concerned": 3233,
  "\u2581dhihaachuu": 3234,
  "\u2581gaafadhu": 3235,
  "\u2581gorseera": 3236,
  "\u2581irrattis": 3237,
  "\u2581kunimmoo": 3238,
  "\u2581meditate": 3239,
  "\u2581qofti": 3240,
  "achuuf": 3241,
  "\u2581Hamma": 3242,
  "\u2581Innis": 3243,
  "\u2581Waaqni": 3244,
  "\u2581extent": 3245,
  "\u2581goona": 3246,
  "\u2581halkan": 3247,
  "\u2581indicated": 3248,
  "\u2581insight": 3249,
  "\u2581prospect": 3250,
  "\u2581sinful": 3251,
  "\u2581state": 3252,
  "\u2581Qaamni": 3253,
  "\u2581Yunaay": 3254,
  "\u2581affected": 3255,
  "\u2581ajajamuu": 3256,
  "\u2581balleessu": 3257,
  "\u2581countries": 3258,
  "\u2581engage": 3259,
  "\u2581existence": 3260,
  "\u2581hamaan": 3261,
  "\u2581nature": 3262,
  "itid": 3263,
  "more": 3264,
  "st": 3265,
  "\u2581Fedhii": 3266,
  "\u2581Good": 3267,
  "\u2581Maaliifi": 3268,
  "\u2581accurate": 3269,
  "\u2581assured": 3270,
  "\u2581baasee": 3271,
  "\u2581balaadhaaf": 3272,
  "\u2581dhimm": 3273,
  "\u2581enemy": 3274,
  "\u2581eye": 3275,
  "\u2581former": 3276,
  "\u2581gaarummaadhaan": 3277,
  "\u2581hiriyaan": 3278,
  "\u2581isaaniitiif": 3279,
  "\u2581political": 3280,
  "\u2581Cubbuu": 3281,
  "\u2581Dhimma": 3282,
  "\u2581Gammachuu": 3283,
  "\u2581Over": 3284,
  "\u2581STUD": 3285,
  "\u2581fageenyaan": 3286,
  "\u2581fruitage": 3287,
  "\u2581privileges": 3288,
  "\u2581produce": 3289,
  "\u2581qabateera": 3290,
  "\u2581requires": 3291,
  "\u2581suffered": 3292,
  "\u2581yaadadhaa": 3293,
  ",\"": 3294,
  "iirratti": 3295,
  "nsaa": 3296,
  "\u2581Gilead": 3297,
  "\u2581H": 3298,
  "\u2581Nu": 3299,
  "\u2581Taanaan": 3300,
  "\u2581Translation": 3301,
  "\u2581acceptable": 3302,
  "\u2581basic": 3303,
  "\u2581beeknu": 3304,
  "\u2581comments": 3305,
  "\u2581godhi": 3306,
  "\u2581ko": 3307,
  "\u2581lafarraa": 3308,
  "\u2581note": 3309,
  "\u2581parts": 3310,
  "\u2581raawwatamaa": 3311,
  "\u2581raise": 3312,
  "\u2581seerri": 3313,
  "\u2581soba": 3314,
  "\u258142": 3315,
  "\u2581Imagine": 3316,
  "\u2581Should": 3317,
  "\u2581adeemu": 3318,
  "\u2581army": 3319,
  "\u2581bartootasaa": 3320,
  "\u2581hirmaachuuf": 3321,
  "\u2581judge": 3322,
  "\u2581mandara": 3323,
  "\u2581measure": 3324,
  "\u2581minds": 3325,
  "\u2581passed": 3326,
  "\u2581raajichi": 3327,
  "\u2581warm": 3328,
  "achuun": 3329,
  "\u2581Keessa": 3330,
  "\u2581Make": 3331,
  "\u2581Young": 3332,
  "\u2581buutonni": 3333,
  "\u2581concerning": 3334,
  "\u2581creatures": 3335,
  "\u2581entertainment": 3336,
  "\u2581namichi": 3337,
  "\u2581occur": 3338,
  "\u2581qorra": 3339,
  "\u2581secular": 3340,
  "\u2581third": 3341,
  "\u2581yookii": 3342,
  "\u2581youth": 3343,
  "ree": 3344,
  "\u2581Paradise": 3345,
  "\u2581active": 3346,
  "\u2581appear": 3347,
  "\u2581beloved": 3348,
  "\u2581hafuuraan": 3349,
  "\u2581issues": 3350,
  "\u2581jaalalaa": 3351,
  "\u2581kakaase": 3352,
  "\u2581kamiin": 3353,
  "\u2581pay": 3354,
  "\u2581qoruu": 3355,
  "\u2581relates": 3356,
  "\u2581sick": 3357,
  "\u2581unique": 3358,
  "\u2581Know": 3359,
  "\u2581Nehemiah": 3360,
  "\u2581Yoo": 3361,
  "\u2581alaa": 3362,
  "\u2581battle": 3363,
  "\u2581careful": 3364,
  "\u2581half": 3365,
  "\u2581increase": 3366,
  "\u2581indicate": 3367,
  "\u2581maatiin": 3368,
  "\u2581murteessan": 3369,
  "\u2581pleasure": 3370,
  "\u2581prophets": 3371,
  "\u2581security": 3372,
  "\u258132.": 3373,
  "\u2581Al": 3374,
  "\u2581Being": 3375,
  "\u2581Note": 3376,
  "\u2581applied": 3377,
  "\u2581faallaa": 3378,
  "\u2581filachuu": 3379,
  "\u2581gaafachuun": 3380,
  "\u2581karaan": 3381,
  "\u2581kitaabota": 3382,
  "\u2581obboleettii": 3383,
  "\u2581promote": 3384,
  "\u2581seeraa": 3385,
  "anne": 3386,
  "\u2581Isaac": 3387,
  "\u2581Wal": 3388,
  "\u2581abboommii": 3389,
  "\u2581fudhanne": 3390,
  "\u2581guddachaa": 3391,
  "\u2581ilaaluuf": 3392,
  "\u2581ooluu": 3393,
  "\u2581shepherds": 3394,
  "\u2581violence": 3395,
  "\u2581Gaarii": 3396,
  "\u2581Guddaa": 3397,
  "\u2581Tract": 3398,
  "\u2581aside": 3399,
  "\u2581dabalaa": 3400,
  "\u2581hordofuuf": 3401,
  "\u2581hubanne": 3402,
  "\u2581ibsameera": 3403,
  "\u2581identify": 3404,
  "\u2581preached": 3405,
  "\u2581qabatee": 3406,
  "\u2581waaqeffachuu": 3407,
  "\u2581Abdiin": 3408,
  "\u2581Anis": 3409,
  "\u2581Gargaarsa": 3410,
  "\u2581dhihoo": 3411,
  "\u2581dhiisuuf": 3412,
  "\u2581fufeera": 3413,
  "\u2581greatly": 3414,
  "\u2581miirri": 3415,
  "\u2581naan": 3416,
  "\u2581qaamni": 3417,
  "\u2581receiving": 3418,
  "inaa": 3419,
  "\u2581(3)": 3420,
  "\u2581Keenya": 3421,
  "\u2581Nagaa": 3422,
  "\u2581barbaaddu": 3423,
  "\u2581consideration": 3424,
  "\u2581daf": 3425,
  "\u2581fiduu": 3426,
  "\u2581illustrate": 3427,
  "\u2581immorality": 3428,
  "\u2581jalqabu": 3429,
  "\u2581trained": 3430,
  "\u2581worth": 3431,
  "\u2581yaadaan": 3432,
  "\u2581younger": 3433,
  "aniin": 3434,
  "h": 3435,
  "\u258125,": 3436,
  "\u2581Zechariah": 3437,
  "\u2581argatte": 3438,
  "\u2581assure": 3439,
  "\u2581buusii": 3440,
  "\u2581darbe": 3441,
  "\u2581dhaggeeffachuu": 3442,
  "\u2581drawn": 3443,
  "\u2581dubartoonni": 3444,
  "\u2581evident": 3445,
  "\u2581faithfully": 3446,
  "\u2581garbummaa": 3447,
  "\u2581hurt": 3448,
  "\u2581kootii": 3449,
  "\u2581manaatti": 3450,
  "\u2581noted": 3451,
  "\u2581seeraan": 3452,
  "\u2581spouse": 3453,
  "\u2581successful": 3454,
  "ould": 3455,
  "tan": 3456,
  "ually": 3457,
  "ummaa": 3458,
  "\u2581Barumsi": 3459,
  "\u2581Her": 3460,
  "\u2581Isteetis": 3461,
  "\u2581argamsiiseera": 3462,
  "\u2581church": 3463,
  "\u2581dubartoota": 3464,
  "\u2581gammada": 3465,
  "\u2581gammadan": 3466,
  "\u2581ilaalchi": 3467,
  "\u2581remained": 3468,
  "\u2581statement": 3469,
  "\u2581wine": 3470,
  "Amaariffa": 3471,
  "aansoo": 3472,
  "niiru": 3473,
  "\u2581Dubartii": 3474,
  "\u2581Duuka": 3475,
  "\u2581feet": 3476,
  "\u2581growth": 3477,
  "\u2581hafuurota": 3478,
  "\u2581homes": 3479,
  "\u2581ilaaluun": 3480,
  "\u2581race": 3481,
  "\u2581relative": 3482,
  "\u2581town": 3483,
  "\u2581type": 3484,
  "\u2581waaqayyolii": 3485,
  "\u2581Spirit": 3486,
  "\u2581Yihudootaa": 3487,
  "\u2581arguun": 3488,
  "\u2581attack": 3489,
  "\u2581beektu": 3490,
  "\u2581biraatiin": 3491,
  "\u2581essential": 3492,
  "\u2581keenyas": 3493,
  "\u2581ofittummaa": 3494,
  "\u2581save": 3495,
  "\u2581shan": 3496,
  "\u2581Help": 3497,
  "\u2581J": 3498,
  "\u2581Kunoo": 3499,
  "\u2581Yihowaanis": 3500,
  "\u2581Yihudii": 3501,
  "\u2581afeerrii": 3502,
  "\u2581argisiisaa": 3503,
  "\u2581established": 3504,
  "\u2581evidently": 3505,
  "\u2581garden": 3506,
  "\u2581instead": 3507,
  "\u2581looked": 3508,
  "\u2581notice": 3509,
  "\u2581qabaachuudhaan": 3510,
  "\u2581recent": 3511,
  "\u2581report": 3512,
  "\u2581succeed": 3513,
  "\u2581teachers": 3514,
  "\u2581turanitti": 3515,
  "\u2581witnessing": 3516,
  "\u2581yoon": 3517,
  "\u2581Efe": 3518,
  "\u2581Iddoo": 3519,
  "\u2581adaba": 3520,
  "\u2581caqasame": 3521,
  "\u2581gorsi": 3522,
  "\u2581grew": 3523,
  "\u2581hundarra": 3524,
  "\u2581immoral": 3525,
  "\u2581jiruuf": 3526,
  "\u2581nuyis": 3527,
  "\u2581turaniif": 3528,
  "isa": 3529,
  "\u258131,": 3530,
  "\u2581Gospel": 3531,
  "\u2581Kaayyoon": 3532,
  "\u2581Lammaffaa": 3533,
  "\u2581argisiisuudhaan": 3534,
  "\u2581companions": 3535,
  "\u2581directed": 3536,
  "\u2581eeggannoodhaan": 3537,
  "\u2581harm": 3538,
  "\u2581hearing": 3539,
  "\u2581maraa": 3540,
  "\u2581qoricha": 3541,
  "This": 3542,
  "g": 3543,
  "\u2581Isaanis": 3544,
  "\u2581Namichi": 3545,
  "\u2581WHAT": 3546,
  "\u2581barsiise": 3547,
  "\u2581dhiiraa": 3548,
  "\u2581fayyadama": 3549,
  "\u2581garaagaraa": 3550,
  "\u2581girl": 3551,
  "\u2581helpful": 3552,
  "\u2581hojjennu": 3553,
  "\u2581humni": 3554,
  "\u2581ilmi": 3555,
  "\u2581jireenyasaa": 3556,
  "\u2581tolu": 3557,
  "\u2581viewed": 3558,
  "U": 3559,
  "\u2581appeared": 3560,
  "\u2581built": 3561,
  "\u2581commanded": 3562,
  "\u2581conclude": 3563,
  "\u2581continues": 3564,
  "\u2581deggeruu": 3565,
  "\u2581dhihootti": 3566,
  "\u2581direct": 3567,
  "\u2581discussion": 3568,
  "\u2581distress": 3569,
  "\u2581eeggannoo": 3570,
  "\u2581factors": 3571,
  "\u2581gadda": 3572,
  "\u2581galu": 3573,
  "\u2581gootan": 3574,
  "\u2581guutame": 3575,
  "\u2581idea": 3576,
  "\u2581inside": 3577,
  "\u2581intala": 3578,
  "\u2581manneen": 3579,
  "\u2581qabnee": 3580,
  "\u2581represent": 3581,
  "\u2581taayitaa": 3582,
  "\u2581abbootii": 3583,
  "\u2581amount": 3584,
  "\u2581aspect": 3585,
  "\u2581drink": 3586,
  "\u2581facts": 3587,
  "\u2581harvest": 3588,
  "\u2581hojjeta": 3589,
  "\u2581kootiin": 3590,
  "\u2581maatiisaa": 3591,
  "\u2581murtaa": 3592,
  "\u2581outstanding": 3593,
  "\u2581xiyyeeffatu": 3594,
  "\u2581yaadatti": 3595,
  "te": 3596,
  "\u2581Children": 3597,
  "\u2581Haalawwan": 3598,
  "\u2581Hannah": 3599,
  "\u2581High": 3600,
  "\u2581KITAAB": 3601,
  "\u2581Qolosaayis": 3602,
  "\u2581War": 3603,
  "\u2581argamne": 3604,
  "\u2581barbaanna": 3605,
  "\u2581booddee": 3606,
  "\u2581kenninu": 3607,
  "\u2581km": 3608,
  "\u2581lie": 3609,
  "\u2581mature": 3610,
  "\u2581mistakes": 3611,
  "\u2581pleased": 3612,
  "\u2581room": 3613,
  "\u2581strengthened": 3614,
  "\u2581verses": 3615,
  "\u2581widow": 3616,
  "Kiristiyaanummaa": 3617,
  "Lal": 3618,
  "\u2581Atoo": 3619,
  "\u2581Barattoonni": 3620,
  "\u2581Jireenyi": 3621,
  "\u2581Kadhannaan": 3622,
  "\u2581Mount": 3623,
  "\u2581Pharaoh": 3624,
  "\u2581Qabu": 3625,
  "\u2581although": 3626,
  "\u2581correct": 3627,
  "\u2581demons": 3628,
  "\u2581dhiise": 3629,
  "\u2581easily": 3630,
  "\u2581fayyadu": 3631,
  "\u2581front": 3632,
  "\u2581qajeelchitoota": 3633,
  "\u2581refused": 3634,
  "\u2581reveals": 3635,
  "\u2581spread": 3636,
  "\u2581wish": 3637,
  "What": 3638,
  "\u2581Sababiin": 3639,
  "\u2581applying": 3640,
  "\u2581boy": 3641,
  "\u2581car": 3642,
  "\u2581cut": 3643,
  "\u2581fakkaachuu": 3644,
  "\u2581gammachiisuu": 3645,
  "\u2581groups": 3646,
  "\u2581keetiin": 3647,
  "\u2581legal": 3648,
  "\u2581million": 3649,
  "\u2581namicha": 3650,
  "\u2581scriptures": 3651,
  "\u2581teessoo": 3652,
  "He": 3653,
  "aas": 3654,
  "\u258149": 3655,
  "\u2581Filiphisiiyus": 3656,
  "\u2581Students": 3657,
  "\u2581York": 3658,
  "\u2581adds": 3659,
  "\u2581amalli": 3660,
  "\u2581argamuun": 3661,
  "\u2581carraaquu": 3662,
  "\u2581closely": 3663,
  "\u2581endeavor": 3664,
  "\u2581gadheen": 3665,
  "\u2581ground": 3666,
  "\u2581horii": 3667,
  "\u2581ilaalle": 3668,
  "\u2581invite": 3669,
  "\u2581likewise": 3670,
  "\u2581meal": 3671,
  "\u2581mirkaneessu": 3672,
  "\u2581namootatti": 3673,
  "\u2581teacher": 3674,
  "\u2581umriin": 3675,
  "Ati": 3676,
  "all": 3677,
  "mong": 3678,
  "sonaan": 3679,
  "\u2581Guyyaan": 3680,
  "\u2581abbootiin": 3681,
  "\u2581amanamoon": 3682,
  "\u2581box": 3683,
  "\u2581dammaqoo": 3684,
  "\u2581isaanirraa": 3685,
  "\u2581kaayyoosaa": 3686,
  "\u2581kenni": 3687,
  "\u2581kiilomeetir": 3688,
  "\u2581kooluu": 3689,
  "\u2581oolchuun": 3690,
  "\u2581relief": 3691,
  "Warri": 3692,
  "illee": 3693,
  "isuu": 3694,
  "uunsaanii": 3695,
  "\u2581Gen": 3696,
  "\u2581Gorsi": 3697,
  "\u2581Jaarraa": 3698,
  "\u2581Manni": 3699,
  "\u2581Only": 3700,
  "\u2581Si": 3701,
  "\u2581Uma": 3702,
  "\u2581Yaadni": 3703,
  "\u2581argattu": 3704,
  "\u2581business": 3705,
  "\u2581cases": 3706,
  "\u2581dubartiin": 3707,
  "\u2581dubbachuudhaan": 3708,
  "\u2581dureen": 3709,
  "\u2581eager": 3710,
  "\u2581fagaachuuf": 3711,
  "\u2581ijoolleensaanii": 3712,
  "\u2581jabaatanii": 3713,
  "\u2581jedhamtuu": 3714,
  "\u2581kennamuuf": 3715,
  "\u2581namummaa": 3716,
  "\u2581presented": 3717,
  "\u2581rulership": 3718,
  "\u2581social": 3719,
  "\u2581willingly": 3720,
  "isuuf": 3721,
  "\u2581Ezekiel": 3722,
  "\u2581Faith": 3723,
  "\u2581QAYYABANNAA": 3724,
  "\u2581Yerusaalemitti": 3725,
  "\u2581argamtu": 3726,
  "\u2581dargaggeessa": 3727,
  "\u2581duwwaa": 3728,
  "\u2581fayyadamuuf": 3729,
  "\u2581fedhiin": 3730,
  "\u2581ilaalan": 3731,
  "\u2581involve": 3732,
  "\u2581kumaan": 3733,
  "\u2581paragraphs": 3734,
  "\u2581tokkollee": 3735,
  "Jesus": 3736,
  "eesaa": 3737,
  "\u258153": 3738,
  "\u2581Likewise": 3739,
  "\u2581Masiihichaa": 3740,
  "\u2581Well": 3741,
  "\u2581Worship": 3742,
  "\u2581acted": 3743,
  "\u2581bearing": 3744,
  "\u2581bilisummaa": 3745,
  "\u2581challenging": 3746,
  "\u2581concerns": 3747,
  "\u2581designed": 3748,
  "\u2581dhiisanii": 3749,
  "\u2581expected": 3750,
  "\u2581geessise": 3751,
  "\u2581grasp": 3752,
  "\u2581illness": 3753,
  "\u2581instructions": 3754,
  "\u2581kindly": 3755,
  "\u2581observed": 3756,
  "\u2581process": 3757,
  "\u2581qabachuu": 3758,
  "\u2581raajiin": 3759,
  "\u2581separate": 3760,
  "Wanta": 3761,
  "ers": 3762,
  "\u2581Awake": 3763,
  "\u2581Masiihii": 3764,
  "\u2581argu": 3765,
  "\u2581barbaadee": 3766,
  "\u2581dandeessaa": 3767,
  "\u2581decide": 3768,
  "\u2581expressions": 3769,
  "\u2581gochawwan": 3770,
  "\u2581godhatan": 3771,
  "\u2581hafan": 3772,
  "\u2581hubataniiru": 3773,
  "\u2581leading": 3774,
  "\u2581loss": 3775,
  "\u2581maalfaa": 3776,
  "\u2581qabaman": 3777,
  "\u2581sight": 3778,
  ">": 3779,
  "\u2581Ilaalchi": 3780,
  "\u2581Karaawwan": 3781,
  "\u2581Messianic": 3782,
  "\u2581Ol": 3783,
  "\u2581argamuuf": 3784,
  "\u2581busy": 3785,
  "\u2581cares": 3786,
  "\u2581decades": 3787,
  "\u2581describes": 3788,
  "\u2581fudhachuudhaan": 3789,
  "\u2581fudhatee": 3790,
  "\u2581gumiin": 3791,
  "\u2581hordofuun": 3792,
  "\u2581jajjabeessuuf": 3793,
  "\u2581kunuunsa": 3794,
  "\u2581pattern": 3795,
  "\u2581pride": 3796,
  "\u2581qabsoo": 3797,
  "\u2581refuge": 3798,
  "\u2581rejected": 3799,
  "\u2581responsible": 3800,
  "\u2581torba": 3801,
  "\u2581translation": 3802,
  "\u2581yoomi": 3803,
  "\u258130,": 3804,
  "\u2581Kakuu": 3805,
  "\u2581assistance": 3806,
  "\u2581biyyattii": 3807,
  "\u2581considering": 3808,
  "\u2581determine": 3809,
  "\u2581developed": 3810,
  "\u2581dhaqanii": 3811,
  "\u2581dubbisuun": 3812,
  "\u2581ffaa": 3813,
  "\u2581galle": 3814,
  "\u2581murtoon": 3815,
  "\u2581pass": 3816,
  "\u2581primary": 3817,
  "\u2581quoted": 3818,
  "\u2581reality": 3819,
  "\u2581taatan": 3820,
  "\u2581tuuta": 3821,
  "\u2581xixinnoo": 3822,
  "atamni": 3823,
  "\u2581Colossians": 3824,
  "\u2581Lakki": 3825,
  "\u2581Mucaan": 3826,
  "\u2581courageous": 3827,
  "\u2581cuuphame": 3828,
  "\u2581deeme": 3829,
  "\u2581focused": 3830,
  "\u2581kamfa": 3831,
  "\u2581kophaa": 3832,
  "\u2581loltoota": 3833,
  "\u2581maanguddoota": 3834,
  "\u2581mootummaan": 3835,
  "\u2581resolve": 3836,
  "\u2581responded": 3837,
  "\u2581slaves": 3838,
  "\u2581studied": 3839,
  "\u2581telling": 3840,
  "\u2581translated": 3841,
  "\u2581uumuu": 3842,
  "\u2581yaadachiisa": 3843,
  "Iyo": 3844,
  "\u258154": 3845,
  "\u2581Fara": 3846,
  "\u2581Recall": 3847,
  "\u2581Under": 3848,
  "\u2581argachaa": 3849,
  "\u2581bulchu": 3850,
  "\u2581committed": 3851,
  "\u2581deggersa": 3852,
  "\u2581easier": 3853,
  "\u2581finally": 3854,
  "\u2581gochi": 3855,
  "\u2581guyyaatti": 3856,
  "\u2581hafuuraatiin": 3857,
  "\u2581heed": 3858,
  "\u2581jajjabeesseera": 3859,
  "\u2581kiyyoo": 3860,
  "\u2581run": 3861,
  "\u2581tola": 3862,
  "isu": 3863,
  "tee": 3864,
  "\u2581Fil": 3865,
  "\u2581Hav": 3866,
  "\u2581Hisqi": 3867,
  "\u2581MAAL": 3868,
  "\u2581Once": 3869,
  "\u2581Pentecost": 3870,
  "\u2581barumsawwan": 3871,
  "\u2581dealings": 3872,
  "\u2581dhibee": 3873,
  "\u2581dhiheessuuf": 3874,
  "\u2581guddatu": 3875,
  "\u2581jalqabde": 3876,
  "\u2581kaayyoon": 3877,
  "\u2581kadhannaan": 3878,
  "\u2581kuma": 3879,
  "\u2581letters": 3880,
  "\u2581muraasni": 3881,
  "\u2581program": 3882,
  "\u2581qilleensa": 3883,
  "\u2581send": 3884,
  "\u2581waaqeffatan": 3885,
  "\u2581yakka": 3886,
  "\u2581youths": 3887,
  "\u258119)": 3888,
  "\u2581Amalawwan": 3889,
  "\u2581Eph": 3890,
  "\u2581Guyy": 3891,
  "\u2581Yuu": 3892,
  "\u2581Zakaariyaas": 3893,
  "\u2581argamsiise": 3894,
  "\u2581barachuuf": 3895,
  "\u2581delivered": 3896,
  "\u2581details": 3897,
  "\u2581faarfannaa": 3898,
  "\u2581fayyadamuun": 3899,
  "\u2581fayyina": 3900,
  "\u2581geggeessu": 3901,
  "\u2581hojiiwwan": 3902,
  "\u2581jiranitti": 3903,
  "\u2581killed": 3904,
  "\u2581koonyaa": 3905,
  "\u2581lammii": 3906,
  "\u2581lies": 3907,
  "\u2581occurred": 3908,
  "\u2581pioneering": 3909,
  "\u2581rebellion": 3910,
  "\u2581road": 3911,
  "\u2581sea": 3912,
  "\u2581treated": 3913,
  "\u2581trial": 3914,
  "aal": 3915,
  "\u2581Ecclesiastes": 3916,
  "\u2581Faarfatichi": 3917,
  "\u2581Gad": 3918,
  "\u2581Jechoonni": 3919,
  "\u2581Mo": 3920,
  "\u2581Up": 3921,
  "\u2581arise": 3922,
  "\u2581background": 3923,
  "\u2581barsiifata": 3924,
  "\u2581dhalootaa": 3925,
  "\u2581fayyadameera": 3926,
  "\u2581hedduutti": 3927,
  "\u2581himan": 3928,
  "\u2581jaallata": 3929,
  "\u2581keessattis": 3930,
  "\u2581lola": 3931,
  "\u2581miiraa": 3932,
  "\u2581mudachuu": 3933,
  "\u2581raawwachuun": 3934,
  "\u2581recognized": 3935,
  "\u2581saved": 3936,
  "\u2581story": 3937,
  "\u2581tokkos": 3938,
  "\u2581yes": 3939,
  "and": 3940,
  "anna": 3941,
  "\u2581Contents": 3942,
  "\u2581Deebiin": 3943,
  "\u2581Naa": 3944,
  "\u2581Table": 3945,
  "\u2581afraid": 3946,
  "\u2581barruu": 3947,
  "\u2581dangerous": 3948,
  "\u2581fufnu": 3949,
  "\u2581non": 3950,
  "\u2581qorru": 3951,
  "\u2581thank": 3952,
  "\u2581weeks": 3953,
  "osaic": 3954,
  "re": 3955,
  "ttis": 3956,
  "\u2581Armageddon": 3957,
  "\u2581Rakkoowwan": 3958,
  "\u2581ammayyuu": 3959,
  "\u2581argateera": 3960,
  "\u2581argisiisna": 3961,
  "\u2581contrary": 3962,
  "\u2581cufa": 3963,
  "\u2581dammaqina": 3964,
  "\u2581duuti": 3965,
  "\u2581fakkaatan": 3966,
  "\u2581gammachuun": 3967,
  "\u2581ganama": 3968,
  "\u2581hojjetamu": 3969,
  "\u2581jechuusaa": 3970,
  "\u2581kenneef": 3971,
  "\u2581magazine": 3972,
  "\u2581maree": 3973,
  "\u2581qabdi": 3974,
  "\u2581qabutti": 3975,
  "\u2581qullaa": 3976,
  "\u2581samiirra": 3977,
  "\u2581takkaa": 3978,
  "aafi": 3979,
  "\u2581Ji": 3980,
  "\u2581Mootummicha": 3981,
  "\u2581Tokko": 3982,
  "\u2581YOU": 3983,
  "\u2581argadhe": 3984,
  "\u2581big": 3985,
  "\u2581deliverance": 3986,
  "\u2581eegamu": 3987,
  "\u2581eegan": 3988,
  "\u2581entered": 3989,
  "\u2581handle": 3990,
  "\u2581ilaalamu": 3991,
  "\u2581jalqabne": 3992,
  "\u2581organized": 3993,
  "\u2581views": 3994,
  "\u2581walakkaa": 3995,
  "\u2581yaaddoo": 3996,
  "\u2581Afriikaa": 3997,
  "\u2581Atis": 3998,
  "\u2581amanne": 3999,
  "\u2581deemuuf": 4000,
  "\u2581eebbawwan": 4001,
  "\u2581forms": 4002,
  "\u2581hubadhe": 4003,
  "\u2581ill": 4004,
  "\u2581karra": 4005,
  "\u2581kootiif": 4006,
  "\u2581missionaries": 4007,
  "\u2581mormii": 4008,
  "\u2581obboleettiin": 4009,
  "\u2581parable": 4010,
  "\u2581provisions": 4011,
  "\u2581research": 4012,
  "\u2581setting": 4013,
  "\u2581wedding": 4014,
  "\u2581yaadee": 4015,
  "Keep": 4016,
  "ateera": 4017,
  "\u258120)": 4018,
  "\u2581Qulqulluurraa": 4019,
  "\u2581Saaraan": 4020,
  "\u2581THIS": 4021,
  "\u2581Tasaloniiqee": 4022,
  "\u2581contains": 4023,
  "\u2581freely": 4024,
  "\u2581gar": 4025,
  "\u2581geessisan": 4026,
  "\u2581hordofan": 4027,
  "\u2581hubadhaa": 4028,
  "\u2581jajjabeessan": 4029,
  "\u2581ogeessi": 4030,
  "\u2581performed": 4031,
  "\u2581placed": 4032,
  "\u2581providing": 4033,
  "\u2581recreation": 4034,
  "\u2581sees": 4035,
  "\u2581spirituality": 4036,
  "\u2581stick": 4037,
  "\u2581survive": 4038,
  "\u2581uumamawwan": 4039,
  "\u2581writing": 4040,
  "aad": 4041,
  "quite": 4042,
  "\u2581Israelite": 4043,
  "\u2581QULQULLUU": 4044,
  "\u2581Sad": 4045,
  "\u2581W": 4046,
  "\u2581address": 4047,
  "\u2581advance": 4048,
  "\u2581balaan": 4049,
  "\u2581balbala": 4050,
  "\u2581buutotasaa": 4051,
  "\u2581cities": 4052,
  "\u2581dhufanii": 4053,
  "\u2581difference": 4054,
  "\u2581gathered": 4055,
  "\u2581gumiidhaa": 4056,
  "\u2581honest": 4057,
  "\u2581keetiif": 4058,
  "\u2581qabaanne": 4059,
  "\u2581sinned": 4060,
  "eensaanii": 4061,
  "\u2581Badiisaa": 4062,
  "\u2581Finally": 4063,
  "\u2581Hezekiah": 4064,
  "\u2581argatee": 4065,
  "\u2581await": 4066,
  "\u2581badhaasa": 4067,
  "\u2581bartoonnisaa": 4068,
  "\u2581barumsi": 4069,
  "\u2581carried": 4070,
  "\u2581commandments": 4071,
  "\u2581dear": 4072,
  "\u2581escape": 4073,
  "\u2581gratitude": 4074,
  "\u2581lifestyle": 4075,
  "\u2581luboota": 4076,
  "\u2581seriously": 4077,
  "Look": 4078,
  "aaf": 4079,
  "\u25812014": 4080,
  "\u258134,": 4081,
  "\u258180": 4082,
  "\u2581Barsiisa": 4083,
  "\u2581Ulfina": 4084,
  "\u2581Yaa": 4085,
  "\u2581adultery": 4086,
  "\u2581akkasiitti": 4087,
  "\u2581constantly": 4088,
  "\u2581daangaa": 4089,
  "\u2581dhaban": 4090,
  "\u2581dirqama": 4091,
  "\u2581fudhatanii": 4092,
  "\u2581jalqabuu": 4093,
  "\u2581lakkoofsi": 4094,
  "\u2581refer": 4095,
  "\u2581ruling": 4096,
  "\u2581wayinii": 4097,
  "Er": 4098,
  "akka": 4099,
  "\u2581Dhugaadha": 4100,
  "\u2581Ibsi": 4101,
  "\u2581Olaanaa": 4102,
  "\u2581accomplished": 4103,
  "\u2581advantage": 4104,
  "\u2581alkoolii": 4105,
  "\u2581anxious": 4106,
  "\u2581determination": 4107,
  "\u2581fida": 4108,
  "\u2581gods": 4109,
  "\u2581kallattii": 4110,
  "\u2581lasting": 4111,
  "\u2581main": 4112,
  "\u2581miracles": 4113,
  "\u2581raawwachaa": 4114,
  "\u2581united": 4115,
  "My": 4116,
  "Namoonni": 4117,
  "\u2581Bulchiinsa": 4118,
  "\u2581Dammaqaa": 4119,
  "\u2581Faarfannaan": 4120,
  "\u2581Land": 4121,
  "\u2581Take": 4122,
  "\u2581araara": 4123,
  "\u2581ark": 4124,
  "\u2581connection": 4125,
  "\u2581couples": 4126,
  "\u2581dabarsee": 4127,
  "\u2581due": 4128,
  "\u2581formed": 4129,
  "\u2581galmawwan": 4130,
  "\u2581god": 4131,
  "\u2581haqa": 4132,
  "\u2581himeera": 4133,
  "\u2581jette": 4134,
  "\u2581sanaan": 4135,
  "\u2581struggle": 4136,
  "\u2581tureera": 4137,
  "amutti": 4138,
  "\u258123)": 4139,
  "\u258166": 4140,
  "\u2581Answer": 4141,
  "\u2581Argachuu": 4142,
  "\u2581Both": 4143,
  "\u2581K": 4144,
  "\u2581Whe": 4145,
  "\u2581Yesusiif": 4146,
  "\u2581Yookiin": 4147,
  "\u2581aarii": 4148,
  "\u2581animals": 4149,
  "\u2581believed": 4150,
  "\u2581dhalate": 4151,
  "\u2581forgiving": 4152,
  "\u2581hubate": 4153,
  "\u2581injustice": 4154,
  "\u2581kakaaseera": 4155,
  "\u2581kennine": 4156,
  "\u2581oolan": 4157,
  "\u2581perform": 4158,
  "\u2581search": 4159,
  "\u2581t": 4160,
  "\u2581tender": 4161,
  "Inni": 4162,
  "ookraasii": 4163,
  "\u2581Him": 4164,
  "\u2581Lallaba": 4165,
  "\u2581Miiljalee": 4166,
  "\u2581Waraana": 4167,
  "\u2581Za": 4168,
  "\u2581arjummaa": 4169,
  "\u2581baasuuf": 4170,
  "\u2581discouraged": 4171,
  "\u2581dubbadhu": 4172,
  "\u2581fayyadamanii": 4173,
  "\u2581guddaadha": 4174,
  "\u2581hawwiidhaan": 4175,
  "\u2581jalqabarratti": 4176,
  "\u2581journey": 4177,
  "\u2581koos": 4178,
  "\u2581nurratti": 4179,
  "\u2581qoruun": 4180,
  "\u2581sagadaa": 4181,
  "\u2581secret": 4182,
  "\u2581theocratic": 4183,
  "\u2581yaade": 4184,
  "F": 4185,
  "ct": 4186,
  "\u2581Ameerikaa": 4187,
  "\u2581Garuu": 4188,
  "\u2581Parents": 4189,
  "\u2581Readers": 4190,
  "\u2581Sovereign": 4191,
  "\u2581allows": 4192,
  "\u2581anatti": 4193,
  "\u2581buutonnisaa": 4194,
  "\u2581daughters": 4195,
  "\u2581deeds": 4196,
  "\u2581dhaa": 4197,
  "\u2581divorce": 4198,
  "\u2581fufan": 4199,
  "\u2581garabiraan": 4200,
  "\u2581instruction": 4201,
  "\u2581isheedhaaf": 4202,
  "\u2581karoora": 4203,
  "\u2581listened": 4204,
  "\u2581muuziqaa": 4205,
  "\u2581powers": 4206,
  "\u2581qabuudhaan": 4207,
  "\u2581simuun": 4208,
  "\u2581sirriidha": 4209,
  "\u2581talking": 4210,
  "\u2581tokkootti": 4211,
  "\u2581treatment": 4212,
  "elaakee": 4213,
  "\u258122)": 4214,
  "\u2581Amalli": 4215,
  "\u2581Look": 4216,
  "\u2581Mootota": 4217,
  "\u2581Soci": 4218,
  "\u2581Yesusitti": 4219,
  "\u2581assurance": 4220,
  "\u2581beneficial": 4221,
  "\u2581brief": 4222,
  "\u2581choices": 4223,
  "\u2581declare": 4224,
  "\u2581deebisu": 4225,
  "\u2581feels": 4226,
  "\u2581galeera": 4227,
  "\u2581guddaatti": 4228,
  "\u2581indicates": 4229,
  "\u2581inner": 4230,
  "\u2581joyful": 4231,
  "\u2581kanarra": 4232,
  "\u2581normal": 4233,
  "\u2581raawwannu": 4234,
  "\u2581ruler": 4235,
  "\u2581secure": 4236,
  "\u2581yaaddessu": 4237,
  "\u2581yookiin": 4238,
  "Waan": 4239,
  "ataa": 4240,
  "warra": 4241,
  "\u258121)": 4242,
  "\u2581Dhiibbaa": 4243,
  "\u2581Mar": 4244,
  "\u2581Work": 4245,
  "\u2581badu": 4246,
  "\u2581dhangala": 4247,
  "\u2581emotions": 4248,
  "\u2581environment": 4249,
  "\u2581facing": 4250,
  "\u2581fleshly": 4251,
  "\u2581ilaaluudhaan": 4252,
  "\u2581jabaa": 4253,
  "\u2581jireenyasaanii": 4254,
  "\u2581jiruufi": 4255,
  "\u2581miidhu": 4256,
  "\u2581mudatee": 4257,
  "\u2581music": 4258,
  "\u2581nurraa": 4259,
  "\u2581qabee": 4260,
  "\u2581selfish": 4261,
  "\u2581supported": 4262,
  "\u2581tokkodha": 4263,
  "great": 4264,
  "\u2581Iyaasuu": 4265,
  "\u2581Joon": 4266,
  "\u2581Moo": 4267,
  "\u2581Qophii": 4268,
  "\u2581Two": 4269,
  "\u2581barreeffaman": 4270,
  "\u2581begotten": 4271,
  "\u2581bulchuu": 4272,
  "\u2581conventions": 4273,
  "\u2581deemaa": 4274,
  "\u2581labsit": 4275,
  "\u2581mouth": 4276,
  "\u2581occasions": 4277,
  "\u2581provision": 4278,
  "\u2581qabnuu": 4279,
  "\u2581raajiiwwan": 4280,
  "\u2581seenaan": 4281,
  "\u2581speaks": 4282,
  "\u2581viewpoint": 4283,
  "\u2581waiting": 4284,
  "\u2581witnesses": 4285,
  "ower": 4286,
  "\u2581FOR": 4287,
  "\u2581Keessatti": 4288,
  "\u2581Name": 4289,
  "\u2581Wajjin": 4290,
  "\u2581associated": 4291,
  "\u2581bakki": 4292,
  "\u2581baramaa": 4293,
  "\u2581comforting": 4294,
  "\u2581exactly": 4295,
  "\u2581heyyame": 4296,
  "\u2581hundumtuu": 4297,
  "\u2581motivate": 4298,
  "\u2581qopheesse": 4299,
  "\u2581values": 4300,
  "\u2581Gaaf": 4301,
  "\u2581Ministry": 4302,
  "\u2581Na": 4303,
  "\u2581Ruth": 4304,
  "\u2581Tra": 4305,
  "\u2581argeera": 4306,
  "\u2581corrupt": 4307,
  "\u2581count": 4308,
  "\u2581dhaabatu": 4309,
  "\u2581dhaqee": 4310,
  "\u2581dhufeenyi": 4311,
  "\u2581differ": 4312,
  "\u2581eternal": 4313,
  "\u2581fufe": 4314,
  "\u2581garraamummaa": 4315,
  "\u2581haadhotii": 4316,
  "\u2581hubanna": 4317,
  "\u2581jibba": 4318,
  "\u2581maalfa": 4319,
  "\u2581marry": 4320,
  "\u2581moving": 4321,
  "\u2581qabaachuufi": 4322,
  "\u2581reports": 4323,
  "\u2581severe": 4324,
  "\u2581stopped": 4325,
  "\u2581throne": 4326,
  "Yaq": 4327,
  "\u2581Exodus": 4328,
  "\u2581France": 4329,
  "\u2581Odeeffannoo": 4330,
  "\u2581aantummaa": 4331,
  "\u2581adjust": 4332,
  "\u2581akkamiiyyuu": 4333,
  "\u2581arfan": 4334,
  "\u2581calling": 4335,
  "\u2581deebisuudhaan": 4336,
  "\u2581dubbachaa": 4337,
  "\u2581extend": 4338,
  "\u2581fell": 4339,
  "\u2581financial": 4340,
  "\u2581fudhata": 4341,
  "\u2581generous": 4342,
  "\u2581heyyamne": 4343,
  "\u2581laafina": 4344,
  "\u2581mildness": 4345,
  "\u2581rely": 4346,
  "\u2581shared": 4347,
  "\u2581stress": 4348,
  "\u2581tokkoyyuu": 4349,
  "\u2581wickedness": 4350,
  "There": 4351,
  "anni": 4352,
  "elitti": 4353,
  "\u2581Am": 4354,
  "\u2581Internet": 4355,
  "\u2581Second": 4356,
  "\u2581admonition": 4357,
  "\u2581appeal": 4358,
  "\u2581appears": 4359,
  "\u2581appreciated": 4360,
  "\u2581argamutti": 4361,
  "\u2581arrangements": 4362,
  "\u2581baraan": 4363,
  "\u2581barachuun": 4364,
  "\u2581barbaachisee": 4365,
  "\u2581beektaa": 4366,
  "\u2581caqaseera": 4367,
  "\u2581cuuphaman": 4368,
  "\u2581dachaa": 4369,
  "\u2581dealing": 4370,
  "\u2581dhaquu": 4371,
  "\u2581dhiisu": 4372,
  "\u2581geessisa": 4373,
  "\u2581gone": 4374,
  "\u2581ibidda": 4375,
  "\u2581isaanirratti": 4376,
  "\u2581kabajuu": 4377,
  "\u2581kanaafi": 4378,
  "\u2581kennameef": 4379,
  "\u2581kudhan": 4380,
  "\u2581madda": 4381,
  "\u2581nageenya": 4382,
  "\u2581neighbors": 4383,
  "\u2581qualified": 4384,
  "\u2581reached": 4385,
  "\u2581referring": 4386,
  "\u2581require": 4387,
  "\u2581significant": 4388,
  "\u2581taaneen": 4389,
  "All": 4390,
  "Yesus": 4391,
  "\u2581'?": 4392,
  "\u2581Biyyattii": 4393,
  "\u2581Muuxannoo": 4394,
  "\u2581argata": 4395,
  "\u2581attendance": 4396,
  "\u2581barreessan": 4397,
  "\u2581behavior": 4398,
  "\u2581bishaanii": 4399,
  "\u2581critical": 4400,
  "\u2581cuuphamuu": 4401,
  "\u2581dabarse": 4402,
  "\u2581dargaggummaa": 4403,
  "\u2581dhaqan": 4404,
  "\u2581dibamtoota": 4405,
  "\u2581drinking": 4406,
  "\u2581exert": 4407,
  "\u2581fa": 4408,
  "\u2581galateeffachuu": 4409,
  "\u2581goes": 4410,
  "\u2581gumiirratti": 4411,
  "\u2581jabaannee": 4412,
  "\u2581sinners": 4413,
  "\u2581turu": 4414,
  "atama": 4415,
  "\u2581Dhuma": 4416,
  "\u2581Never": 4417,
  "\u2581ajaje": 4418,
  "\u2581alatti": 4419,
  "\u2581barbaaduu": 4420,
  "\u2581carrying": 4421,
  "\u2581company": 4422,
  "\u2581deemanii": 4423,
  "\u2581fearing": 4424,
  "\u2581jedhaa": 4425,
  "\u2581misiyoonii": 4426,
  "\u2581reaction": 4427,
  "\u2581requirements": 4428,
  "\u2581tajaajiluudhaan": 4429,
  "\u2581treasure": 4430,
  "\u2581trouble": 4431,
  "\u2581worse": 4432,
  "2:": 4433,
  "\u2581Biyyoota": 4434,
  "\u2581Mirga": 4435,
  "\u2581Miseensonni": 4436,
  "\u2581Passover": 4437,
  "\u2581abilities": 4438,
  "\u2581baafachuu": 4439,
  "\u2581barattoonni": 4440,
  "\u2581belong": 4441,
  "\u2581deebisanii": 4442,
  "\u2581dhaqe": 4443,
  "\u2581diina": 4444,
  "\u2581faana": 4445,
  "\u2581fakkiiwwan": 4446,
  "\u2581fide": 4447,
  "\u2581geenye": 4448,
  "\u2581granted": 4449,
  "\u2581harki": 4450,
  "\u2581himuuf": 4451,
  "\u2581hirmaachuun": 4452,
  "\u2581kutachuu": 4453,
  "\u2581lovingly": 4454,
  "\u2581mild": 4455,
  "\u2581opposers": 4456,
  "\u2581publication": 4457,
  "\u2581reaching": 4458,
  "\u2581recalls": 4459,
  "\u2581satisfying": 4460,
  "\u2581sodaachuu": 4461,
  "\u2581superior": 4462,
  "dhuma": 4463,
  "\u2581April": 4464,
  "\u2581Hisqiyaas": 4465,
  "\u2581October": 4466,
  "\u2581Promised": 4467,
  "\u2581amantiidhaan": 4468,
  "\u2581argamuufi": 4469,
  "\u2581argee": 4470,
  "\u2581bulchiinsi": 4471,
  "\u2581construction": 4472,
  "\u2581dhaqu": 4473,
  "\u2581ergamootasaa": 4474,
  "\u2581extreme": 4475,
  "\u2581f": 4476,
  "\u2581gochuufi": 4477,
  "\u2581growing": 4478,
  "\u2581hojiidhaan": 4479,
  "\u2581hordofu": 4480,
  "\u2581jirtuu": 4481,
  "\u2581reminded": 4482,
  "\u2581review": 4483,
  "\u2581writer": 4484,
  "\u2581yaannu": 4485,
  "eliin": 4486,
  "he": 4487,
  "one": 4488,
  "\u258144.": 4489,
  "\u258147": 4490,
  "\u2581Asa": 4491,
  "\u2581Dan": 4492,
  "\u2581Jannata": 4493,
  "\u2581Kaayyoo": 4494,
  "\u2581baby": 4495,
  "\u2581balleessa": 4496,
  "\u2581caqasaman": 4497,
  "\u2581caqasoota": 4498,
  "\u2581dabarsuu": 4499,
  "\u2581descendants": 4500,
  "\u2581hiikuu": 4501,
  "\u2581hubachuudhaan": 4502,
  "\u2581isaaniis": 4503,
  "\u2581jabaatee": 4504,
  "\u2581nyaataa": 4505,
  "\u2581pornography": 4506,
  "\u2581raawwanne": 4507,
  "\u2581refuse": 4508,
  "\u2581xinnaate": 4509,
  "eessota": 4510,
  "ive": 4511,
  "uura": 4512,
  "\u2581Dubbistootaa": 4513,
  "\u2581Ki": 4514,
  "\u2581QULQULLUUN": 4515,
  "\u2581Sea": 4516,
  "\u2581acknowledge": 4517,
  "\u2581aid": 4518,
  "\u2581beekin": 4519,
  "\u2581boba": 4520,
  "\u2581career": 4521,
  "\u2581chief": 4522,
  "\u2581daa": 4523,
  "\u2581darban": 4524,
  "\u2581geggeessitoota": 4525,
  "\u2581ifaa": 4526,
  "\u2581impossible": 4527,
  "\u2581influenced": 4528,
  "\u2581lay": 4529,
  "\u2581limitations": 4530,
  "\u2581madde": 4531,
  "\u2581meeshaalee": 4532,
  "\u2581ministeri": 4533,
  "\u2581nagaan": 4534,
  "\u2581successfully": 4535,
  "\u2581tasgabbii": 4536,
  "\u2581tears": 4537,
  "\u2581uumaman": 4538,
  "\u2581uumamuu": 4539,
  "\u2581wide": 4540,
  "nii": 4541,
  "\u25811950": 4542,
  "\u2581ARTICLES": 4543,
  "\u2581Abdachiifamte": 4544,
  "\u2581Awustiraaliyaa": 4545,
  "\u2581Christendom": 4546,
  "\u2581Deuteronomy": 4547,
  "\u2581Faayidaa": 4548,
  "\u2581Germany": 4549,
  "\u2581Miseens": 4550,
  "\u2581balanced": 4551,
  "\u2581benefited": 4552,
  "\u2581dhiisuudhaan": 4553,
  "\u2581eating": 4554,
  "\u2581eegnee": 4555,
  "\u2581eenyufa": 4556,
  "\u2581fufuudhaan": 4557,
  "\u2581heyyamuu": 4558,
  "\u2581ijaaruu": 4559,
  "\u2581jaalladhu": 4560,
  "\u2581major": 4561,
  "\u2581moo": 4562,
  "\u2581outcome": 4563,
  "\u2581reasoning": 4564,
  "\u2581reference": 4565,
  "\u2581reflected": 4566,
  "\u2581remains": 4567,
  "\u2581sleep": 4568,
  "\u2581stake": 4569,
  "\u2581temporary": 4570,
  "\u2581tempted": 4571,
  "\u2581ulfaatu": 4572,
  "\u2581wealth": 4573,
  "anirratti": 4574,
  "ought": 4575,
  "\u258183": 4576,
  "\u2581Flood": 4577,
  "\u2581Follow": 4578,
  "\u2581Haannaan": 4579,
  "\u2581Illustrate": 4580,
  "\u2581acquire": 4581,
  "\u2581communicate": 4582,
  "\u2581conflict": 4583,
  "\u2581dabarsu": 4584,
  "\u2581demonstrated": 4585,
  "\u2581eegaa": 4586,
  "\u2581eeggatu": 4587,
  "\u2581effects": 4588,
  "\u2581galee": 4589,
  "\u2581gammachiisuuf": 4590,
  "\u2581gammaduu": 4591,
  "\u2581global": 4592,
  "\u2581guguddaa": 4593,
  "\u2581habits": 4594,
  "\u2581inclined": 4595,
  "\u2581inheritance": 4596,
  "\u2581jedhuu": 4597,
  "\u2581jijjiiruu": 4598,
  "\u2581methods": 4599,
  "\u2581mijaa": 4600,
  "\u2581mootota": 4601,
  "\u2581preced": 4602,
  "\u2581qopheessuu": 4603,
  "\u2581sirni": 4604,
  "\u2581sodaachisaa": 4605,
  "\u2581umriinsaa": 4606,
  "\u2581xiinxaluu": 4607,
  "\u2581yaali": 4608,
  "\u2581Catholic": 4609,
  "\u2581Har": 4610,
  "\u2581Has": 4611,
  "\u2581July": 4612,
  "\u2581Phil": 4613,
  "\u2581Qulqulluutti": 4614,
  "\u2581September": 4615,
  "\u2581Ti": 4616,
  "\u2581Yihowaarraa": 4617,
  "\u2581abandon": 4618,
  "\u2581amana": 4619,
  "\u2581assignments": 4620,
  "\u2581attempt": 4621,
  "\u2581compare": 4622,
  "\u2581eebbisu": 4623,
  "\u2581impressed": 4624,
  "\u2581kami": 4625,
  "\u2581magaalattii": 4626,
  "\u2581meaningful": 4627,
  "\u2581mighty": 4628,
  "\u2581military": 4629,
  "\u2581oolchuudhaan": 4630,
  "\u2581path": 4631,
  "\u2581patiently": 4632,
  "\u2581teenager": 4633,
  "\u2581tilmaama": 4634,
  "\u2581touched": 4635,
  "\u2581wangeela": 4636,
  "\u2581wilderness": 4637,
  "M": 4638,
  "\u2581Iyaasuun": 4639,
  "\u2581Maatiin": 4640,
  "\u2581Nuyi": 4641,
  "\u2581forces": 4642,
  "\u2581fudhateera": 4643,
  "\u2581generation": 4644,
  "\u2581goodness": 4645,
  "\u2581gufuu": 4646,
  "\u2581hiyyeessaa": 4647,
  "\u2581lakkoofsa": 4648,
  "\u2581leenjisuu": 4649,
  "\u2581otherwise": 4650,
  "\u2581pointed": 4651,
  "\u2581pre": 4652,
  "\u2581pursuing": 4653,
  "\u2581raawwateera": 4654,
  "\u2581wheat": 4655,
  "\u2581Abbootiin": 4656,
  "\u2581Koree": 4657,
  "\u2581South": 4658,
  "\u2581acting": 4659,
  "\u2581badhaadhummaa": 4660,
  "\u2581dandeenyeef": 4661,
  "\u2581directly": 4662,
  "\u2581gaafatamummaan": 4663,
  "\u2581gathering": 4664,
  "\u2581godheef": 4665,
  "\u2581himee": 4666,
  "\u2581ijaarsaa": 4667,
  "\u2581increased": 4668,
  "\u2581lubootaa": 4669,
  "\u2581qarqara": 4670,
  "\u2581qurxummii": 4671,
  "\u2581raawwachuudhaan": 4672,
  "\u2581recall": 4673,
  "\u2581resulted": 4674,
  "\u2581risk": 4675,
  "\u2581saala": 4676,
  "\u2581saayitii": 4677,
  "\u2581suggestions": 4678,
  "\u2581ulfinaa": 4679,
  "\u2581writings": 4680,
  "T": 4681,
  "Yihowaan": 4682,
  "\u2581Caqasni": 4683,
  "\u2581Christianity": 4684,
  "\u2581Galatians": 4685,
  "\u2581Gumiin": 4686,
  "\u2581Naataan": 4687,
  "\u2581Onkoloolessa": 4688,
  "\u2581barbaadde": 4689,
  "\u2581commission": 4690,
  "\u2581dhaabachuu": 4691,
  "\u2581dhama": 4692,
  "\u2581dhiheessuun": 4693,
  "\u2581dhufuu": 4694,
  "\u2581difficulties": 4695,
  "\u2581endured": 4696,
  "\u2581fayyadamnu": 4697,
  "\u2581garaasaa": 4698,
  "\u2581gradually": 4699,
  "\u2581increasing": 4700,
  "\u2581jedhuufi": 4701,
  "\u2581kanas": 4702,
  "\u2581leaving": 4703,
  "\u2581mention": 4704,
  "\u2581miilla": 4705,
  "\u2581probab": 4706,
  "\u2581produced": 4707,
  "\u2581purposes": 4708,
  "\u2581repentant": 4709,
  "\u2581sammuun": 4710,
  "1)": 4711,
  "\u258127.": 4712,
  "\u2581Africa": 4713,
  "\u2581Awurooppaa": 4714,
  "\u2581Baafata": 4715,
  "\u2581Qorumsa": 4716,
  "\u2581angry": 4717,
  "\u2581argatanii": 4718,
  "\u2581awake": 4719,
  "\u2581beekaa": 4720,
  "\u2581boojuu": 4721,
  "\u2581compared": 4722,
  "\u2581cover": 4723,
  "\u2581dhihaachaa": 4724,
  "\u2581disease": 4725,
  "\u2581ergaan": 4726,
  "\u2581garaasaanii": 4727,
  "\u2581hojjedhu": 4728,
  "\u2581humbly": 4729,
  "\u2581jiraata": 4730,
  "\u2581kaanirra": 4731,
  "\u2581moment": 4732,
  "\u2581motivated": 4733,
  "\u2581oolchu": 4734,
  "\u2581pleas": 4735,
  "\u2581remarkable": 4736,
  "\u2581replied": 4737,
  "\u2581sought": 4738,
  "\u2581yaalaa": 4739,
  "Akka": 4740,
  "Ingiliffa": 4741,
  "meetira": 4742,
  "\u2581Humna": 4743,
  "\u2581Jaarsi": 4744,
  "\u2581Jas": 4745,
  "\u2581Notice": 4746,
  "\u2581Yesusiifi": 4747,
  "\u2581abundance": 4748,
  "\u2581amantiisaanii": 4749,
  "\u2581approached": 4750,
  "\u2581authorities": 4751,
  "\u2581baasanii": 4752,
  "\u2581create": 4753,
  "\u2581dhiheessinu": 4754,
  "\u2581eeguun": 4755,
  "\u2581exist": 4756,
  "\u2581faithfulness": 4757,
  "\u2581guided": 4758,
  "\u2581haaloo": 4759,
  "\u2581haata": 4760,
  "\u2581highly": 4761,
  "\u2581hiikkaa": 4762,
  "\u2581hiikuuf": 4763,
  "\u2581hospitality": 4764,
  "\u2581hubateera": 4765,
  "\u2581keessanitti": 4766,
  "\u2581limit": 4767,
  "\u2581obboleettota": 4768,
  "\u2581obeying": 4769,
  "\u2581obtain": 4770,
  "\u2581prophetic": 4771,
  "\u2581relate": 4772,
  "\u2581rise": 4773,
  "\u2581rules": 4774,
  "\u2581safe": 4775,
  "\u2581suut": 4776,
  "\u2581tokkommoo": 4777,
  "\u2581tolfamoo": 4778,
  "\u2581vast": 4779,
  "Wanti": 4780,
  "chi": 4781,
  "ma": 4782,
  "\u00b7": 4783,
  "\u2581Barreeffamni": 4784,
  "\u2581Ex": 4785,
  "\u2581Fulbaana": 4786,
  "\u2581Waadaa": 4787,
  "\u2581Yesusii": 4788,
  "\u2581baasa": 4789,
  "\u2581cubbuun": 4790,
  "\u2581dhufuuf": 4791,
  "\u2581fagaatu": 4792,
  "\u2581guddisuu": 4793,
  "\u2581hojjetame": 4794,
  "\u2581ibsaa": 4795,
  "\u2581iji": 4796,
  "\u2581international": 4797,
  "\u2581jiraanne": 4798,
  "\u2581kees": 4799,
  "\u2581lallaban": 4800,
  "\u2581literal": 4801,
  "\u2581merciful": 4802,
  "\u2581mountain": 4803,
  "\u2581obboleettonni": 4804,
  "\u2581sit": 4805,
  "\u2581surprise": 4806,
  "\u2581sword": 4807,
  "\u2581vow": 4808,
  "For": 4809,
  "Keessa": 4810,
  "naayiti": 4811,
  "\u2581Baal": 4812,
  "\u2581Enoch": 4813,
  "\u2581Galaatiyaa": 4814,
  "\u2581Gochuu": 4815,
  "\u2581Kaatolikii": 4816,
  "\u2581Show": 4817,
  "\u2581Waaqayyoorratti": 4818,
  "\u2581Yesusis": 4819,
  "\u2581assembly": 4820,
  "\u2581caqase": 4821,
  "\u2581cost": 4822,
  "\u2581court": 4823,
  "\u2581describe": 4824,
  "\u2581exercising": 4825,
  "\u2581guddatan": 4826,
  "\u2581hamoon": 4827,
  "\u2581holding": 4828,
  "\u2581jabinaa": 4829,
  "\u2581jiraataniif": 4830,
  "\u2581slow": 4831,
  "\u2581useful": 4832,
  "\u2581walked": 4833,
  "\u2581worthy": 4834,
  "\u2581wrongdoing": 4835,
  "EE": 4836,
  "isaa": 4837,
  "li": 4838,
  "\u2581Canada": 4839,
  "\u2581Elisha": 4840,
  "\u2581Haadha": 4841,
  "\u2581Hiriyaa": 4842,
  "\u2581Jarman": 4843,
  "\u2581Thessalonians": 4844,
  "\u2581argamanii": 4845,
  "\u2581deaf": 4846,
  "\u2581defend": 4847,
  "\u2581dress": 4848,
  "\u2581encourages": 4849,
  "\u2581haasawaa": 4850,
  "\u2581hate": 4851,
  "\u2581himata": 4852,
  "\u2581ilaaltuu": 4853,
  "\u2581kennuufii": 4854,
  "\u2581maqaasaa": 4855,
  "\u2581minister": 4856,
  "\u2581murtii": 4857,
  "\u2581nagaadhaan": 4858,
  "\u2581offers": 4859,
  "\u2581qulqulluutti": 4860,
  "\u2581tajaajillu": 4861,
  "\u2581turaniiru": 4862,
  "O": 4863,
  "amanii": 4864,
  "ies": 4865,
  "iinsi": 4866,
  "will": 4867,
  "\u02b9": 4868,
  "\u2581Blur": 4869,
  "\u2581Day": 4870,
  "\u2581Eebba": 4871,
  "\u2581Elsaa": 4872,
  "\u2581Jonathan": 4873,
  "\u2581Ogummaa": 4874,
  "\u2581Sometimes": 4875,
  "\u2581Yaadatta": 4876,
  "\u2581bulan": 4877,
  "\u2581caqasawwan": 4878,
  "\u2581dhiheessuudhaan": 4879,
  "\u2581eeggachaa": 4880,
  "\u2581eessaa": 4881,
  "\u2581governments": 4882,
  "\u2581h": 4883,
  "\u2581hafuuraatiif": 4884,
  "\u2581hammeenya": 4885,
  "\u2581higher": 4886,
  "\u2581hoolotaa": 4887,
  "\u2581jenne": 4888,
  "\u2581obbolummaa": 4889,
  "\u2581peaceful": 4890,
  "\u2581sacrificing": 4891,
  "\u2581tax": 4892,
  "\u2581waraanni": 4893,
  "\u2581wrath": 4894,
  "akeekkachiiseera": 4895,
  "disfellowshipped": 4896,
  "istoota": 4897,
  "ous": 4898,
  "\u258173": 4899,
  "\u258190": 4900,
  "\u2581Babal": 4901,
  "\u2581Box": 4902,
  "\u2581Ebla": 4903,
  "\u2581Firdii": 4904,
  "\u2581Halls": 4905,
  "\u2581Here": 4906,
  "\u2581Lakk": 4907,
  "\u2581Nathan": 4908,
  "\u2581Raajiiwwan": 4909,
  "\u2581Uumaan": 4910,
  "\u2581associates": 4911,
  "\u2581attitudes": 4912,
  "\u2581causes": 4913,
  "\u2581daldalaa": 4914,
  "\u2581dhiisne": 4915,
  "\u2581dhumni": 4916,
  "\u2581diinota": 4917,
  "\u2581donations": 4918,
  "\u2581duuba": 4919,
  "\u2581m": 4920,
  "\u2581meditating": 4921,
  "\u2581official": 4922,
  "\u2581om": 4923,
  "\u2581possessions": 4924,
  "\u2581qabamuu": 4925,
  "\u2581scripture": 4926,
  "\u2581society": 4927,
  "\u2581village": 4928,
  "Nama": 4929,
  "\u2581Kaanaadaa": 4930,
  "\u2581Lamb": 4931,
  "\u2581R": 4932,
  "\u2581Ruut": 4933,
  "\u2581Surely": 4934,
  "\u2581apart": 4935,
  "\u2581audience": 4936,
  "\u2581barbaachise": 4937,
  "\u2581conviction": 4938,
  "\u2581danta": 4939,
  "\u2581deggeruuf": 4940,
  "\u2581dhaloota": 4941,
  "\u2581dhugaatti": 4942,
  "\u2581eebbisa": 4943,
  "\u2581employment": 4944,
  "\u2581familiar": 4945,
  "\u2581figurative": 4946,
  "\u2581ittuma": 4947,
  "\u2581jaallachuun": 4948,
  "\u2581kanneen": 4949,
  "\u2581kennameera": 4950,
  "\u2581marvelous": 4951,
  "\u2581maxxanfame": 4952,
  "\u2581michummaa": 4953,
  "\u2581onaa": 4954,
  "\u2581series": 4955,
  "\u2581xiyyeeffate": 4956,
  "How": 4957,
  "aattis": 4958,
  "day": 4959,
  "niifi": 4960,
  "uudhaaf": 4961,
  "\u2581103": 4962,
  "\u2581Abeel": 4963,
  "\u2581Amanamummaa": 4964,
  "\u2581Bulchiinsi": 4965,
  "\u2581Ke": 4966,
  "\u2581L": 4967,
  "\u2581Nuti": 4968,
  "\u2581PS": 4969,
  "\u2581Titus": 4970,
  "\u2581arganneerra": 4971,
  "\u2581atis": 4972,
  "\u2581deebisuun": 4973,
  "\u2581dhiirota": 4974,
  "\u2581dinqiidhaan": 4975,
  "\u2581dwell": 4976,
  "\u2581fakkii": 4977,
  "\u2581finding": 4978,
  "\u2581gargaaruun": 4979,
  "\u2581heyyamu": 4980,
  "\u2581illustrations": 4981,
  "\u2581jedhamanii": 4982,
  "\u2581lamaanuu": 4983,
  "\u2581lubbuun": 4984,
  "\u2581medical": 4985,
  "\u2581model": 4986,
  "\u2581qabneef": 4987,
  "\u2581raawwatama": 4988,
  "\u2581routine": 4989,
  "\u2581sang": 4990,
  "\u2581sodaatu": 4991,
  "\u2581thereafter": 4992,
  "\u2581walbira": 4993,
  "\u2581(2)": 4994,
  "\u258138.": 4995,
  "\u2581Jette": 4996,
  "\u2581MACAAF": 4997,
  "\u2581Murtoon": 4998,
  "\u2581Other": 4999,
  "\u2581Qol": 5000,
  "\u2581Raajii": 5001,
  "\u2581Scripture": 5002,
  "\u2581appearance": 5003,
  "\u2581asirratti": 5004,
  "\u2581chapters": 5005,
  "\u2581choosing": 5006,
  "\u2581dureewwan": 5007,
  "\u2581faarfatichi": 5008,
  "\u2581fufaa": 5009,
  "\u2581galateeffadha": 5010,
  "\u2581goonee": 5011,
  "\u2581hubadheera": 5012,
  "\u2581ideas": 5013,
  "\u2581imperfection": 5014,
  "\u2581inhabitants": 5015,
  "\u2581jabeeyyii": 5016,
  "\u2581jedhii": 5017,
  "\u2581jiraanna": 5018,
  "\u2581jiraataa": 5019,
  "\u2581kaase": 5020,
  "\u2581kaasuu": 5021,
  "\u2581kadhatan": 5022,
  "\u2581kennuufi": 5023,
  "\u2581kunuunsuu": 5024,
  "\u2581none": 5025,
  "\u2581numerous": 5026,
  "\u2581qabamanii": 5027,
  "\u2581qorannoo": 5028,
  "\u2581religions": 5029,
  "\u2581sake": 5030,
  "\u2581tiksee": 5031,
  "\u2581ungodly": 5032,
  "\u2581weak": 5033,
  "en": 5034,
  "keep": 5035,
  "\u2581145": 5036,
  "\u258124)": 5037,
  "\u258132,": 5038,
  "\u258156": 5039,
  "\u2581Isaa": 5040,
  "\u2581JALQABAA": 5041,
  "\u2581Jaarmiyaa": 5042,
  "\u2581Maqaawwan": 5043,
  "\u2581SUBJECT": 5044,
  "\u2581Seenaawwan": 5045,
  "\u2581Torban": 5046,
  "\u2581alcohol": 5047,
  "\u2581associate": 5048,
  "\u2581barreessuu": 5049,
  "\u2581booji": 5050,
  "\u2581cubbamoota": 5051,
  "\u2581customs": 5052,
  "\u2581darbu": 5053,
  "\u2581dhiisuusaa": 5054,
  "\u2581galateeffanna": 5055,
  "\u2581galtee": 5056,
  "\u2581hojjechuudhaan": 5057,
  "\u2581hundumaan": 5058,
  "\u2581ibsamee": 5059,
  "\u2581irraan": 5060,
  "\u2581jibbu": 5061,
  "\u2581kamfaa": 5062,
  "\u2581kill": 5063,
  "\u2581laayyoott": 5064,
  "\u2581maintaining": 5065,
  "\u2581physically": 5066,
  "\u2581samiitti": 5067,
  "\u2581store": 5068,
  "\u2581straight": 5069,
  "\u2581surprised": 5070,
  "\u2581wondered": 5071,
  "\u2581xumura": 5072,
  "Lak": 5073,
  "erraa": 5074,
  "isan": 5075,
  "with": 5076,
  "\u25812015": 5077,
  "\u2581Anii": 5078,
  "\u2581Jaappaan": 5079,
  "\u2581Ka": 5080,
  "\u2581Mexico": 5081,
  "\u2581Sirrii": 5082,
  "\u2581Utuma": 5083,
  "\u2581adeemsa": 5084,
  "\u2581adjustments": 5085,
  "\u2581animal": 5086,
  "\u2581argadheera": 5087,
  "\u2581asitti": 5088,
  "\u2581barumsaatti": 5089,
  "\u2581brotherhood": 5090,
  "\u2581cubbamoo": 5091,
  "\u2581daawwataa": 5092,
  "\u2581dadhabina": 5093,
  "\u2581dangers": 5094,
  "\u2581dhibbaan": 5095,
  "\u2581filate": 5096,
  "\u2581gaafatee": 5097,
  "\u2581grief": 5098,
  "\u2581guddifachuu": 5099,
  "\u2581hirmaachaa": 5100,
  "\u2581hojjetanii": 5101,
  "\u2581householder": 5102,
  "\u2581ijaa": 5103,
  "\u2581jajjabeesse": 5104,
  "\u2581lallabuun": 5105,
  "\u2581oduu": 5106,
  "\u2581plans": 5107,
  "\u2581property": 5108,
  "\u2581proud": 5109,
  "\u2581qabaadhu": 5110,
  "\u2581rightly": 5111,
  "\u2581socho": 5112,
  "\u2581thousand": 5113,
  "\u2581waters": 5114,
  "\u2581yaadasaanii": 5115,
  "ameera": 5116,
  "oorratti": 5117,
  "other": 5118,
  "yeroo": 5119,
  "\u2581Aanaa": 5120,
  "\u2581Aarsaa": 5121,
  "\u2581Amajjii": 5122,
  "\u2581Booda": 5123,
  "\u2581Dandeessa": 5124,
  "\u2581Deebista": 5125,
  "\u2581Master": 5126,
  "\u2581additional": 5127,
  "\u2581adduma": 5128,
  "\u2581belongs": 5129,
  "\u2581confront": 5130,
  "\u2581dubbachuusaa": 5131,
  "\u2581dwelling": 5132,
  "\u2581expand": 5133,
  "\u2581gold": 5134,
  "\u2581guutu": 5135,
  "\u2581healthy": 5136,
  "\u2581instructed": 5137,
  "\u2581invisible": 5138,
  "\u2581jijjiiramaniiru": 5139,
  "\u2581jirta": 5140,
  "\u2581miidhuu": 5141,
  "\u2581oov": 5142,
  "\u2581potential": 5143,
  "\u2581quick": 5144,
  "\u2581released": 5145,
  "\u2581standard": 5146,
  "\u2581task": 5147,
  "\u2581union": 5148,
  "\u2581walirraa": 5149,
  "Iyoob": 5150,
  "\u2581Bitootessa": 5151,
  "\u2581Ephesus": 5152,
  "\u2581Faasikaa": 5153,
  "\u2581Jijjiirama": 5154,
  "\u2581Phaawulosiifi": 5155,
  "\u2581Qarshii": 5156,
  "\u2581Walii": 5157,
  "\u2581abundant": 5158,
  "\u2581advancement": 5159,
  "\u2581akkasitti": 5160,
  "\u2581argine": 5161,
  "\u2581balance": 5162,
  "\u2581barsiisan": 5163,
  "\u2581concluded": 5164,
  "\u2581cry": 5165,
  "\u2581dhaala": 5166,
  "\u2581dhaalan": 5167,
  "\u2581dubbiin": 5168,
  "\u2581excellent": 5169,
  "\u2581gaariidhaan": 5170,
  "\u2581hojjenne": 5171,
  "\u2581keenyaafi": 5172,
  "\u2581kutin": 5173,
  "\u2581lubbuusaa": 5174,
  "\u2581majority": 5175,
  "\u2581mates": 5176,
  "\u2581midst": 5177,
  "\u2581miidhaan": 5178,
  "\u2581misraachoo": 5179,
  "\u2581moves": 5180,
  "\u2581qarshiin": 5181,
  "\u2581quubsaa": 5182,
  "\u2581reported": 5183,
  "\u2581sickness": 5184,
  "\u2581strengthening": 5185,
  "\u2581warqee": 5186,
  "\u2581wild": 5187,
  "aadhaan": 5188,
  "\u2581Adoolessa": 5189,
  "\u2581Armaagedoon": 5190,
  "\u2581Caamsaa": 5191,
  "\u2581Muddee": 5192,
  "\u2581Pharisees": 5193,
  "\u2581TA": 5194,
  "\u2581Yonaataan": 5195,
  "\u2581anaa": 5196,
  "\u2581beast": 5197,
  "\u2581bulchan": 5198,
  "\u2581clothing": 5199,
  "\u2581content": 5200,
  "\u2581dhaabbata": 5201,
  "\u2581dignity": 5202,
  "\u2581dubbatamu": 5203,
  "\u2581durummaadhaan": 5204,
  "\u2581egaa": 5205,
  "\u2581entitled": 5206,
  "\u2581fiilmii": 5207,
  "\u2581firmly": 5208,
  "\u2581fish": 5209,
  "\u2581fit": 5210,
  "\u2581gaaffiin": 5211,
  "\u2581galateeffannaa": 5212,
  "\u2581garaagarummaa": 5213,
  "\u2581hundee": 5214,
  "\u2581hundreds": 5215,
  "\u2581ijoollummaa": 5216,
  "\u2581ittaanurratti": 5217,
  "\u2581jiraachuudhaan": 5218,
  "\u2581maxinoo": 5219,
  "\u2581morman": 5220,
  "\u2581murteessee": 5221,
  "\u2581nine": 5222,
  "\u2581obbolootaa": 5223,
  "\u2581percent": 5224,
  "\u2581prejudice": 5225,
  "\u2581rain": 5226,
  "\u2581render": 5227,
  "\u2581represented": 5228,
  "\u2581sad": 5229,
  "\u2581sanaatti": 5230,
  "\u2581season": 5231,
  "\u2581turning": 5232,
  "\u2581ulaagaalee": 5233,
  "\u2581universal": 5234,
  "\u2581yaadachuun": 5235,
  "Lallaba": 5236,
  "chaa": 5237,
  "\u25811899]": 5238,
  "\u2581Abel": 5239,
  "\u2581Almighty": 5240,
  "\u2581August": 5241,
  "\u2581Col": 5242,
  "\u2581Corinth": 5243,
  "\u2581YEROO": 5244,
  "\u2581barreessee": 5245,
  "\u2581buy": 5246,
  "\u2581darkness": 5247,
  "\u2581dhageenye": 5248,
  "\u2581dubbannu": 5249,
  "\u2581dubbisu": 5250,
  "\u2581ended": 5251,
  "\u2581fast": 5252,
  "\u2581fe": 5253,
  "\u2581finish": 5254,
  "\u2581fitting": 5255,
  "\u2581fuudhee": 5256,
  "\u2581galata": 5257,
  "\u2581glorious": 5258,
  "\u2581gochuurratti": 5259,
  "\u2581hirmaachuudhaan": 5260,
  "\u2581hirmaatu": 5261,
  "\u2581involv": 5262,
  "\u2581jiraachuusaa": 5263,
  "\u2581lamaa": 5264,
  "\u2581maatiisaanii": 5265,
  "\u2581malu": 5266,
  "\u2581ofirraa": 5267,
  "\u2581plan": 5268,
  "\u2581preparing": 5269,
  "\u2581private": 5270,
  "\u2581qopheessu": 5271,
  "\u2581qoruuf": 5272,
  "\u2581throw": 5273,
  "\u2581treasures": 5274,
  "\u2581trusted": 5275,
  "\u2581tuqu": 5276,
  "\u2581violent": 5277,
  "\u2581Australia": 5278,
  "\u2581Caalaa": 5279,
  "\u2581Levites": 5280,
  "\u2581Lot": 5281,
  "\u2581March": 5282,
  "\u2581Masiihicha": 5283,
  "\u2581Michuu": 5284,
  "\u2581abandoned": 5285,
  "\u2581abroad": 5286,
  "\u2581accepting": 5287,
  "\u2581amanuun": 5288,
  "\u2581barbaachisne": 5289,
  "\u2581biliyoona": 5290,
  "\u2581blind": 5291,
  "\u2581conscious": 5292,
  "\u2581cruel": 5293,
  "\u2581dabaluudhaan": 5294,
  "\u2581date": 5295,
  "\u2581deebisuuf": 5296,
  "\u2581dubbatteetti": 5297,
  "\u2581dullooman": 5298,
  "\u2581godhaniif": 5299,
  "\u2581grown": 5300,
  "\u2581happens": 5301,
  "\u2581jettanii": 5302,
  "\u2581jiraniifi": 5303,
  "\u2581kabajan": 5304,
  "\u2581kadhachuun": 5305,
  "\u2581kakaasan": 5306,
  "\u2581meditation": 5307,
  "\u2581motives": 5308,
  "\u2581proof": 5309,
  "\u2581properly": 5310,
  "\u2581qabatu": 5311,
  "\u2581qabneefi": 5312,
  "\u2581qabudha": 5313,
  "\u2581qamadii": 5314,
  "\u2581qoruudhaan": 5315,
  "\u2581region": 5316,
  "\u2581remove": 5317,
  "\u2581repeatedly": 5318,
  "\u2581repentance": 5319,
  "\u2581suphee": 5320,
  "\u2581upbuilding": 5321,
  "\u2581waaqolii": 5322,
  "\u2581yaalu": 5323,
  "AN": 5324,
  "elii": 5325,
  "\u2581Granted": 5326,
  "\u2581Use": 5327,
  "\u2581WE": 5328,
  "\u2581Weeb": 5329,
  "\u2581accord": 5330,
  "\u2581air": 5331,
  "\u2581applies": 5332,
  "\u2581beela": 5333,
  "\u2581boldness": 5334,
  "\u2581darbuu": 5335,
  "\u2581dibaman": 5336,
  "\u2581drawing": 5337,
  "\u2581evolution": 5338,
  "\u2581gargaaruudhaan": 5339,
  "\u2581gumichaa": 5340,
  "\u2581hafu": 5341,
  "\u2581hatred": 5342,
  "\u2581himuun": 5343,
  "\u2581ilaalama": 5344,
  "\u2581jaallatamaa": 5345,
  "\u2581jiranis": 5346,
  "\u2581keenyaatti": 5347,
  "\u2581paid": 5348,
  "\u2581qajeeloo": 5349,
  "\u2581relations": 5350,
  "\u2581saayinsii": 5351,
  "\u2581seenaawwan": 5352,
  "\u2581solid": 5353,
  "\u2581stood": 5354,
  "\u2581tureefi": 5355,
  "\u2581uffannaa": 5356,
  "\u2581writers": 5357,
  "\u258172": 5358,
  "\u2581Earth": 5359,
  "\u2581Go": 5360,
  "\u2581Qabeenya": 5361,
  "\u2581Tokkoo": 5362,
  "\u2581Yihowaaf": 5363,
  "\u2581angafa": 5364,
  "\u2581baranne": 5365,
  "\u2581camp": 5366,
  "\u2581differences": 5367,
  "\u2581displayed": 5368,
  "\u2581entrusted": 5369,
  "\u2581firii": 5370,
  "\u2581friendships": 5371,
  "\u2581gurra": 5372,
  "\u2581heavy": 5373,
  "\u2581hoolonni": 5374,
  "\u2581kadhateera": 5375,
  "\u2581kennamee": 5376,
  "\u2581mountains": 5377,
  "\u2581painful": 5378,
  "\u2581protected": 5379,
  "\u2581qabatanii": 5380,
  "\u2581rendered": 5381,
  "\u2581resources": 5382,
  "\u2581rraa": 5383,
  "\u2581sanyiin": 5384,
  "\u2581simachuu": 5385,
  "\u2581waajjir": 5386,
  "\u2581zealously": 5387,
  "achuudhaan": 5388,
  "amaniifi": 5389,
  "amuuf": 5390,
  "si": 5391,
  "x": 5392,
  "\u258125)": 5393,
  "\u2581Bartoonni": 5394,
  "\u2581Biblical": 5395,
  "\u2581JEHOVAH": 5396,
  "\u2581Seerawwan": 5397,
  "\u2581Wangeela": 5398,
  "\u2581abdachiifame": 5399,
  "\u2581commandment": 5400,
  "\u2581commit": 5401,
  "\u2581compassionate": 5402,
  "\u2581da": 5403,
  "\u2581deemee": 5404,
  "\u2581depth": 5405,
  "\u2581dhiisan": 5406,
  "\u2581dhiphinni": 5407,
  "\u2581dubbataniiru": 5408,
  "\u2581eenyummaa": 5409,
  "\u2581eessa": 5410,
  "\u2581extended": 5411,
  "\u2581gammadaa": 5412,
  "\u2581hubannu": 5413,
  "\u2581intalli": 5414,
  "\u2581intended": 5415,
  "\u2581isarraa": 5416,
  "\u2581kadhate": 5417,
  "\u2581kennaman": 5418,
  "\u2581lallabaarratti": 5419,
  "\u2581marital": 5420,
  "\u2581maturity": 5421,
  "\u2581modest": 5422,
  "\u2581mootummoota": 5423,
  "\u2581prize": 5424,
  "\u2581qabanitti": 5425,
  "\u2581qajeelchituu": 5426,
  "\u2581recently": 5427,
  "\u2581relationships": 5428,
  "\u2581soldiers": 5429,
  "\u2581song": 5430,
  "\u2581uphold": 5431,
  "\u2581uumuuf": 5432,
  "amaniif": 5433,
  "ufi": 5434,
  "\u258126]": 5435,
  "\u258133,": 5436,
  "\u258161": 5437,
  "\u2581December": 5438,
  "\u2581Ergaan": 5439,
  "\u2581Happy": 5440,
  "\u2581JIRU": 5441,
  "\u2581January": 5442,
  "\u2581Kiristosii": 5443,
  "\u2581Lafa": 5444,
  "\u2581Mi": 5445,
  "\u2581Sa": 5446,
  "\u2581across": 5447,
  "\u2581argisiisaniiru": 5448,
  "\u2581attain": 5449,
  "\u2581b": 5450,
  "\u2581barate": 5451,
  "\u2581beekuufi": 5452,
  "\u2581culture": 5453,
  "\u2581dabarsan": 5454,
  "\u2581developing": 5455,
  "\u2581dhabuun": 5456,
  "\u2581dur": 5457,
  "\u2581eenyuyyuu": 5458,
  "\u2581ijaarsa": 5459,
  "\u2581jijjiiramni": 5460,
  "\u2581lallaba": 5461,
  "\u2581loltoonni": 5462,
  "\u2581lying": 5463,
  "\u2581mirkaneessuuf": 5464,
  "\u2581notes": 5465,
  "\u2581raawwatamuu": 5466,
  "\u2581root": 5467,
  "\u2581saddeet": 5468,
  "\u2581saffisaan": 5469,
  "\u2581sustain": 5470,
  "\u2581terms": 5471,
  "\u2581white": 5472,
  "\u2581yeroodhaaf": 5473,
  "As": 5474,
  "be": 5475,
  "drew": 5476,
  "\u258127)": 5477,
  "\u258152": 5478,
  "\u2581Book": 5479,
  "\u2581Cain": 5480,
  "\u2581Europe": 5481,
  "\u2581Prayer": 5482,
  "\u2581aansuudhaan": 5483,
  "\u2581arguuf": 5484,
  "\u2581baate": 5485,
  "\u2581bartoonni": 5486,
  "\u2581commands": 5487,
  "\u2581dhiironni": 5488,
  "\u2581failure": 5489,
  "\u2581firstborn": 5490,
  "\u2581gabaasa": 5491,
  "\u2581garummaa": 5492,
  "\u2581halalummaa": 5493,
  "\u2581harkaa": 5494,
  "\u2581harmful": 5495,
  "\u2581ibsee": 5496,
  "\u2581identified": 5497,
  "\u2581jedhamne": 5498,
  "\u2581jetti": 5499,
  "\u2581kennitu": 5500,
  "\u2581lammata": 5501,
  "\u2581list": 5502,
  "\u2581mormiin": 5503,
  "\u2581oliif": 5504,
  "\u2581preserve": 5505,
  "\u2581qonnaa": 5506,
  "\u2581ramadame": 5507,
  "\u2581reminders": 5508,
  "\u2581shed": 5509,
  "\u2581souls": 5510,
  "\u2581tend": 5511,
  "\u2581tendency": 5512,
  "\u2581tests": 5513,
  "\u2581writes": 5514,
  "\u2581yaaduuf": 5515,
  "for": 5516,
  "nama": 5517,
  "\u258128)": 5518,
  "\u2581Committee": 5519,
  "\u2581Gaaffiin": 5520,
  "\u2581Gaarummaa": 5521,
  "\u2581IT": 5522,
  "\u2581Out": 5523,
  "\u2581Uumamni": 5524,
  "\u2581Waraanni": 5525,
  "\u2581aduu": 5526,
  "\u2581barreessu": 5527,
  "\u2581birds": 5528,
  "\u2581calm": 5529,
  "\u2581campaign": 5530,
  "\u2581dadhaban": 5531,
  "\u2581deemuun": 5532,
  "\u2581deggeran": 5533,
  "\u2581dinagdee": 5534,
  "\u2581divided": 5535,
  "\u2581eeganii": 5536,
  "\u2581eegee": 5537,
  "\u2581fakkeenyasaa": 5538,
  "\u2581fornication": 5539,
  "\u2581fundamental": 5540,
  "\u2581governing": 5541,
  "\u2581herself": 5542,
  "\u2581hundumaas": 5543,
  "\u2581ibsuudhaan": 5544,
  "\u2581ifadha": 5545,
  "\u2581listeners": 5546,
  "\u2581lowly": 5547,
  "\u2581partner": 5548,
  "\u2581qabe": 5549,
  "\u2581readily": 5550,
  "\u2581reign": 5551,
  "\u2581sanarratti": 5552,
  "\u2581skills": 5553,
  "\u2581songs": 5554,
  "\u2581touch": 5555,
  "\u2581unrighteous": 5556,
  "\u2581voluntary": 5557,
  "\u2581wind": 5558,
  "ary": 5559,
  "\u258134.": 5560,
  "\u258197": 5561,
  "\u2581Achii": 5562,
  "\u2581Barruu": 5563,
  "\u2581Dubbiisaa": 5564,
  "\u2581Every": 5565,
  "\u2581Henok": 5566,
  "\u2581Nov": 5567,
  "\u2581Purpose": 5568,
  "\u2581Raashiyaa": 5569,
  "\u2581Service": 5570,
  "\u2581Time": 5571,
  "\u2581Version": 5572,
  "\u2581affairs": 5573,
  "\u2581asks": 5574,
  "\u2581bulchuuf": 5575,
  "\u2581companion": 5576,
  "\u2581damage": 5577,
  "\u2581dhaaba": 5578,
  "\u2581dhihaachuuf": 5579,
  "\u2581discovered": 5580,
  "\u2581dursanii": 5581,
  "\u2581fakkeenyi": 5582,
  "\u2581features": 5583,
  "\u2581gaddi": 5584,
  "\u2581geggeeffamee": 5585,
  "\u2581geggeeffamuu": 5586,
  "\u2581guddachuu": 5587,
  "\u2581gurri": 5588,
  "\u2581hirmaannaa": 5589,
  "\u2581ibiddaa": 5590,
  "\u2581ibsuun": 5591,
  "\u2581lallabnu": 5592,
  "\u2581oil": 5593,
  "\u2581permanent": 5594,
  "\u2581poured": 5595,
  "\u2581promotes": 5596,
  "\u2581qoru": 5597,
  "\u2581raawwata": 5598,
  "\u2581reefu": 5599,
  "\u2581rewarded": 5600,
  "\u2581saalaa": 5601,
  "\u2581seventh": 5602,
  "\u2581slavery": 5603,
  "\u2581stone": 5604,
  "\u2581struck": 5605,
  "\u2581trip": 5606,
  "\u2581visits": 5607,
  "Egaa": 5608,
  "R": 5609,
  "atanii": 5610,
  "elootaa": 5611,
  "ox": 5612,
  "saarratti": 5613,
  "\u2581Dandeettii": 5614,
  "\u2581Ilmisaa": 5615,
  "\u2581Irra": 5616,
  "\u2581June": 5617,
  "\u2581adeemuu": 5618,
  "\u2581arranged": 5619,
  "\u2581barachaa": 5620,
  "\u2581begins": 5621,
  "\u2581belongings": 5622,
  "\u2581birmadummaa": 5623,
  "\u2581caala": 5624,
  "\u2581caalaammoo": 5625,
  "\u2581dandeenyeerra": 5626,
  "\u2581dhuguu": 5627,
  "\u2581dhukkubni": 5628,
  "\u2581edition": 5629,
  "\u2581fagaachuun": 5630,
  "\u2581geggeessitoonni": 5631,
  "\u2581guutuuf": 5632,
  "\u2581hidda": 5633,
  "\u2581indefinite": 5634,
  "\u2581jijjiirame": 5635,
  "\u2581jiraatanii": 5636,
  "\u2581kamitti": 5637,
  "\u2581kennaniif": 5638,
  "\u2581miraculous": 5639,
  "\u2581mistake": 5640,
  "\u2581murteessine": 5641,
  "\u2581noticed": 5642,
  "\u2581nyaachuu": 5643,
  "\u2581persecuted": 5644,
  "\u2581pressures": 5645,
  "\u2581priorities": 5646,
  "\u2581qabame": 5647,
  "\u2581qixxee": 5648,
  "\u2581silver": 5649,
  "\u2581tole": 5650,
  "\u2581traits": 5651,
  "\u2581trusting": 5652,
  "\u2581turuu": 5653,
  "\u2581variety": 5654,
  "\u2581waaqeffattoota": 5655,
  "\u2581weaknesses": 5656,
  "NW": 5657,
  "anidha": 5658,
  "elootaaf": 5659,
  "it": 5660,
  "our": 5661,
  "\u2581Daawitiin": 5662,
  "\u2581Dhiifam": 5663,
  "\u2581HOW": 5664,
  "\u2581Jephthah": 5665,
  "\u2581Kiristosiin": 5666,
  "\u2581Miira": 5667,
  "\u2581adeeman": 5668,
  "\u2581adopt": 5669,
  "\u2581argisiisutti": 5670,
  "\u2581balleeffamu": 5671,
  "\u2581barbaachisutti": 5672,
  "\u2581believing": 5673,
  "\u2581bodies": 5674,
  "\u2581custom": 5675,
  "\u2581de": 5676,
  "\u2581dhaabe": 5677,
  "\u2581district": 5678,
  "\u2581dubbataman": 5679,
  "\u2581earnest": 5680,
  "\u2581exists": 5681,
  "\u2581galuuf": 5682,
  "\u2581godhanne": 5683,
  "\u2581guddinaa": 5684,
  "\u2581himte": 5685,
  "\u2581himuudhaan": 5686,
  "\u2581horachuu": 5687,
  "\u2581hubachiisa": 5688,
  "\u2581inherited": 5689,
  "\u2581ittaanu": 5690,
  "\u2581jaallate": 5691,
  "\u2581lamaaf": 5692,
  "\u2581mormuu": 5693,
  "\u2581persons": 5694,
  "\u2581possession": 5695,
  "\u2581resolved": 5696,
  "\u2581sirra": 5697,
  "\u2581sodaachuun": 5698,
  "\u2581subjection": 5699,
  "\u2581unbeliev": 5700,
  "\u2581unclean": 5701,
  "\u2581upright": 5702,
  "\u2581urgency": 5703,
  "\u2581waggaadhaan": 5704,
  "\u2581wisely": 5705,
  "\u2581yaadannoo": 5706,
  "19": 5707,
  "ING": 5708,
  "\u25812016": 5709,
  "\u2581Dhugaan": 5710,
  "\u2581Draw": 5711,
  "\u2581Hiriyaan": 5712,
  "\u2581Shortly": 5713,
  "\u2581Tarkaanfii": 5714,
  "\u2581accompany": 5715,
  "\u2581apparently": 5716,
  "\u2581baasii": 5717,
  "\u2581balleessan": 5718,
  "\u2581baneera": 5719,
  "\u2581barbaadaniif": 5720,
  "\u2581dabaluudhaanis": 5721,
  "\u2581deggeru": 5722,
  "\u2581dhala": 5723,
  "\u2581dubbanne": 5724,
  "\u2581dubbisan": 5725,
  "\u2581enduring": 5726,
  "\u2581exciting": 5727,
  "\u2581gurguddaan": 5728,
  "\u2581iddoon": 5729,
  "\u2581inherit": 5730,
  "\u2581kaanirratti": 5731,
  "\u2581loltuu": 5732,
  "\u2581maatiinsaa": 5733,
  "\u2581maatiiwwan": 5734,
  "\u2581male": 5735,
  "\u2581perfection": 5736,
  "\u2581priority": 5737,
  "\u2581represents": 5738,
  "\u2581restore": 5739,
  "\u2581shakkii": 5740,
  "\u2581total": 5741,
  "\u2581tribe": 5742,
  "!...": 5743,
  "Hojii": 5744,
  "They": 5745,
  "cha": 5746,
  "eyyuu": 5747,
  "his": 5748,
  "q": 5749,
  "\u258142.": 5750,
  "\u2581Ergaa": 5751,
  "\u2581Eventually": 5752,
  "\u2581Hagayya": 5753,
  "\u2581Nyaata": 5754,
  "\u2581Tajaajilaa": 5755,
  "\u2581amantiisaa": 5756,
  "\u2581attacks": 5757,
  "\u2581barreeffamoonni": 5758,
  "\u2581biyyichaa": 5759,
  "\u2581cared": 5760,
  "\u2581carraaqqiin": 5761,
  "\u2581development": 5762,
  "\u2581feature": 5763,
  "\u2581fedhasaa": 5764,
  "\u2581garboota": 5765,
  "\u2581goota": 5766,
  "\u2581hordofnu": 5767,
  "\u2581ignore": 5768,
  "\u2581kadhannu": 5769,
  "\u2581kennaan": 5770,
  "\u2581kennetti": 5771,
  "\u2581lammaffaan": 5772,
  "\u2581maanguddoo": 5773,
  "\u2581meetii": 5774,
  "\u2581passing": 5775,
  "\u2581possess": 5776,
  "\u2581qodaa": 5777,
  "\u2581raawwiisaa": 5778,
  "\u2581sababiin": 5779,
  "\u2581saboota": 5780,
  "\u2581simu": 5781,
  "\u2581stars": 5782,
  "\u2581suggest": 5783,
  "\u2581sunis": 5784,
  "\u2581threatened": 5785,
  "\u2581tribes": 5786,
  "\u2581uumamee": 5787,
  "\u2581warnings": 5788,
  "\u2581xumuraa": 5789,
  "His": 5790,
  "ation": 5791,
  "\u25812,000": 5792,
  "\u25812007": 5793,
  "\u2581Fakkeenyaan": 5794,
  "\u2581Hayyuu": 5795,
  "\u2581Japan": 5796,
  "\u2581Kanarraa": 5797,
  "\u2581Lafti": 5798,
  "\u2581Masiihichi": 5799,
  "\u2581Obboleessa": 5800,
  "\u2581addaggummaa": 5801,
  "\u2581alert": 5802,
  "\u2581amazing": 5803,
  "\u2581baannaan": 5804,
  "\u2581baatanis": 5805,
  "\u2581broke": 5806,
  "\u2581buufata": 5807,
  "\u2581community": 5808,
  "\u2581copy": 5809,
  "\u2581dandeenyaa": 5810,
  "\u2581depression": 5811,
  "\u2581dhiphinaa": 5812,
  "\u2581distance": 5813,
  "\u2581dubbisuufi": 5814,
  "\u2581geggeessuuf": 5815,
  "\u2581gochuudhaaf": 5816,
  "\u2581gowwoomsaa": 5817,
  "\u2581haallisaa": 5818,
  "\u2581kadhadhu": 5819,
  "\u2581labsuu": 5820,
  "\u2581lallabu": 5821,
  "\u2581manatti": 5822,
  "\u2581murteessaa": 5823,
  "\u2581objective": 5824,
  "\u2581privileged": 5825,
  "\u2581qaburratti": 5826,
  "\u2581rakkisaan": 5827,
  "\u2581reliable": 5828,
  "\u2581schedule": 5829,
  "\u2581site": 5830,
  "\u2581symbolic": 5831,
  "\u2581tajaajilaaf": 5832,
  "\u2581temper": 5833,
  "\u2581wipe": 5834,
  "\u2581xiyyeeffatan": 5835,
  "0,000": 5836,
  "adhaa": 5837,
  "ful": 5838,
  "rimarily": 5839,
  "\u2581139": 5840,
  "\u258115]": 5841,
  "\u25811997": 5842,
  "\u258186": 5843,
  "\u2581Carraaqqii": 5844,
  "\u2581Concern": 5845,
  "\u2581Diiyaabilos": 5846,
  "\u2581Line": 5847,
  "\u2581Samaariyaa": 5848,
  "\u2581aarsaan": 5849,
  "\u2581daawwannaa": 5850,
  "\u2581dandeessi": 5851,
  "\u2581depend": 5852,
  "\u2581dhabe": 5853,
  "\u2581dhumarratti": 5854,
  "\u2581eagerly": 5855,
  "\u2581fayyisuu": 5856,
  "\u2581foundation": 5857,
  "\u2581fufa": 5858,
  "\u2581gaafa": 5859,
  "\u2581gaafatte": 5860,
  "\u2581gammachiisan": 5861,
  "\u2581gather": 5862,
  "\u2581geggeeffaman": 5863,
  "\u2581godhamerratti": 5864,
  "\u2581grand": 5865,
  "\u2581guutummaan": 5866,
  "\u2581hojicha": 5867,
  "\u2581imimmaan": 5868,
  "\u2581j": 5869,
  "\u2581kaasu": 5870,
  "\u2581kadhata": 5871,
  "\u2581kanaatti": 5872,
  "\u2581loyally": 5873,
  "\u2581miraculously": 5874,
  "\u2581miss": 5875,
  "\u2581qajeelfamni": 5876,
  "\u2581royal": 5877,
  "\u2581serpent": 5878,
  "\u2581sodaatan": 5879,
  "Abbaan": 5880,
  "annu": 5881,
  "ermon": 5882,
  "\u2581Kaan": 5883,
  "\u2581Me": 5884,
  "\u2581Mootichaa": 5885,
  "\u2581amalaa": 5886,
  "\u2581belief": 5887,
  "\u2581bitaa": 5888,
  "\u2581conducted": 5889,
  "\u2581daqiiqaa": 5890,
  "\u2581degree": 5891,
  "\u2581depends": 5892,
  "\u2581dubbisuudhaan": 5893,
  "\u2581ffaatti": 5894,
  "\u2581gaddisiisaa": 5895,
  "\u2581geggeessan": 5896,
  "\u2581gowwummaa": 5897,
  "\u2581hardships": 5898,
  "\u2581himaa": 5899,
  "\u2581inhabited": 5900,
  "\u2581jajjabinaa": 5901,
  "\u2581jedhamuun": 5902,
  "\u2581kingdoms": 5903,
  "\u2581michooma": 5904,
  "\u2581modesty": 5905,
  "\u2581nyaanni": 5906,
  "\u2581ogummaadhaan": 5907,
  "\u2581opposite": 5908,
  "\u2581played": 5909,
  "\u2581qualify": 5910,
  "\u2581rulers": 5911,
  "\u2581saanduqa": 5912,
  "\u2581salphaadhumatti": 5913,
  "\u2581tokkummaadhaan": 5914,
  "\u2581understands": 5915,
  "\u2581wayya": 5916,
  "\u2581win": 5917,
  "\u2581xinnoon": 5918,
  "\u2581yaadatu": 5919,
  "ED": 5920,
  "erratti": 5921,
  "ga": 5922,
  "\u25811899)": 5923,
  "\u2581Ahab": 5924,
  "\u2581Biyyi": 5925,
  "\u2581Chron": 5926,
  "\u2581Dura": 5927,
  "\u2581Galaana": 5928,
  "\u2581Hoolonni": 5929,
  "\u2581Intarneetii": 5930,
  "\u2581Jehu": 5931,
  "\u2581Kings": 5932,
  "\u2581Michael": 5933,
  "\u2581Mother": 5934,
  "\u2581Yesusirratti": 5935,
  "\u2581addadha": 5936,
  "\u2581akkasumaan": 5937,
  "\u2581approaching": 5938,
  "\u2581armies": 5939,
  "\u2581bohaartii": 5940,
  "\u2581boodammoo": 5941,
  "\u2581boolla": 5942,
  "\u2581bride": 5943,
  "\u2581caus": 5944,
  "\u2581cimsa": 5945,
  "\u2581devoted": 5946,
  "\u2581dhaquuf": 5947,
  "\u2581dhugaasaa": 5948,
  "\u2581discussing": 5949,
  "\u2581dubbistu": 5950,
  "\u2581eebbiseera": 5951,
  "\u2581eenyudha": 5952,
  "\u2581enjoying": 5953,
  "\u2581fagaatan": 5954,
  "\u2581gained": 5955,
  "\u2581geddarachuu": 5956,
  "\u2581glad": 5957,
  "\u2581ishiidhaaf": 5958,
  "\u2581jaallattu": 5959,
  "\u2581jabinni": 5960,
  "\u2581jedhama": 5961,
  "\u2581kurnan": 5962,
  "\u2581lubbu": 5963,
  "\u2581mataasaa": 5964,
  "\u2581murteessuun": 5965,
  "\u2581newly": 5966,
  "\u2581ofiif": 5967,
  "\u2581oolcha": 5968,
  "\u2581ordered": 5969,
  "\u2581release": 5970,
  "\u2581residents": 5971,
  "\u2581saaxilu": 5972,
  "\u2581signs": 5973,
  "\u2581stories": 5974,
  "\u2581surrounded": 5975,
  "\u2581yaadasaa": 5976,
  "\u2581yoke": 5977,
  "\u25cf": 5978,
  "Dan": 5979,
  "Warra": 5980,
  "but": 5981,
  "erra": 5982,
  "ion": 5983,
  "not": 5984,
  "\u2581120": 5985,
  "\u2581200": 5986,
  "\u2581300": 5987,
  "\u2581Congregation": 5988,
  "\u2581Guutummaatti": 5989,
  "\u2581IS": 5990,
  "\u2581araada": 5991,
  "\u2581barannu": 5992,
  "\u2581bed": 5993,
  "\u2581beekumsi": 5994,
  "\u2581brain": 5995,
  "\u2581caqasuudhaan": 5996,
  "\u2581ce": 5997,
  "\u2581cubbuufi": 5998,
  "\u2581dadhabe": 5999,
  "\u2581dhibba": 6000,
  "\u2581dubbatte": 6001,
  "\u2581ears": 6002,
  "\u2581expectation": 6003,
  "\u2581galaana": 6004,
  "\u2581garraamii": 6005,
  "\u2581godoo": 6006,
  "\u2581hafuurasaa": 6007,
  "\u2581hambisuu": 6008,
  "\u2581hirmaannu": 6009,
  "\u2581initiative": 6010,
  "\u2581jaarsi": 6011,
  "\u2581jirtaa": 6012,
  "\u2581leader": 6013,
  "\u2581magazines": 6014,
  "\u2581mudata": 6015,
  "\u2581pursuits": 6016,
  "\u2581qabatedha": 6017,
  "\u2581spirits": 6018,
  "\u2581supply": 6019,
  "\u2581urge": 6020,
  "\u2581wall": 6021,
  "5": 6022,
  "Be": 6023,
  "Nuyi": 6024,
  "Yihowaa": 6025,
  "di": 6026,
  "ullee": 6027,
  "\u25811,000": 6028,
  "\u2581104": 6029,
  "\u258110]": 6030,
  "\u258140.": 6031,
  "\u2581Esau": 6032,
  "\u2581Hanga": 6033,
  "\u2581II": 6034,
  "\u2581Micah": 6035,
  "\u2581Nohii": 6036,
  "\u2581Pray": 6037,
  "\u2581QOLA": 6038,
  "\u2581Russell": 6039,
  "\u2581SEENAA": 6040,
  "\u2581Sagalee": 6041,
  "\u2581Way": 6042,
  "\u2581add": 6043,
  "\u2581addressed": 6044,
  "\u2581assume": 6045,
  "\u2581baafne": 6046,
  "\u2581bana": 6047,
  "\u2581barreesserratti": 6048,
  "\u2581bound": 6049,
  "\u2581carraan": 6050,
  "\u2581cuuphaa": 6051,
  "\u2581dhaggeeffatan": 6052,
  "\u2581disaster": 6053,
  "\u2581discernment": 6054,
  "\u2581dubbisuuf": 6055,
  "\u2581durbaa": 6056,
  "\u2581fakkeeffaman": 6057,
  "\u2581geessiseera": 6058,
  "\u2581generosity": 6059,
  "\u2581gochuunsaanii": 6060,
  "\u2581godhachuuf": 6061,
  "\u2581hawaasa": 6062,
  "\u2581heyyama": 6063,
  "\u2581hidhatasaa": 6064,
  "\u2581hordofaa": 6065,
  "\u2581imitating": 6066,
  "\u2581impact": 6067,
  "\u2581influences": 6068,
  "\u2581intense": 6069,
  "\u2581jijjiiramu": 6070,
  "\u2581lolaa": 6071,
  "\u2581meeqa": 6072,
  "\u2581mid": 6073,
  "\u2581minutes": 6074,
  "\u2581motive": 6075,
  "\u2581peer": 6076,
  "\u2581project": 6077,
  "\u2581qabamu": 6078,
  "\u2581restored": 6079,
  "\u2581submit": 6080,
  "\u2581suddenly": 6081,
  "\u2581welcome": 6082,
  "\u2581welfare": 6083,
  "\u2581worker": 6084,
  "W": 6085,
  "ametti": 6086,
  "anirraa": 6087,
  "ver": 6088,
  "waan": 6089,
  "\u258131]": 6090,
  "\u2581Brooklyn": 6091,
  "\u2581DABALATAA": 6092,
  "\u2581Egaa": 6093,
  "\u2581Hafuuraa": 6094,
  "\u2581Jiru": 6095,
  "\u2581Kee": 6096,
  "\u2581Waldaa": 6097,
  "\u2581aged": 6098,
  "\u2581amanamuudhaan": 6099,
  "\u2581amannee": 6100,
  "\u2581balali": 6101,
  "\u2581barbaaddaa": 6102,
  "\u2581barbaaduuf": 6103,
  "\u2581barsiisota": 6104,
  "\u2581brochure": 6105,
  "\u2581caqas": 6106,
  "\u2581cidha": 6107,
  "\u2581comment": 6108,
  "\u2581constant": 6109,
  "\u2581dream": 6110,
  "\u2581expects": 6111,
  "\u2581fayyadamne": 6112,
  "\u2581fincila": 6113,
  "\u2581gaaf": 6114,
  "\u2581gararraa": 6115,
  "\u2581hangana": 6116,
  "\u2581hiikame": 6117,
  "\u2581humnaan": 6118,
  "\u2581ilaale": 6119,
  "\u2581jiraateera": 6120,
  "\u2581length": 6121,
  "\u2581load": 6122,
  "\u2581manaasaanii": 6123,
  "\u2581marked": 6124,
  "\u2581miracle": 6125,
  "\u2581mootiin": 6126,
  "\u2581ofuma": 6127,
  "\u2581peaceable": 6128,
  "\u2581pictures": 6129,
  "\u2581sorts": 6130,
  "\u2581stayed": 6131,
  "\u2581tajaajileera": 6132,
  "\u2581talks": 6133,
  "\u2581urjii": 6134,
  ";...": 6135,
  "mmanii": 6136,
  "\u2581Articles": 6137,
  "\u2581Barnabas": 6138,
  "\u2581Ingiliffaa": 6139,
  "\u2581Judea": 6140,
  "\u2581Maxxansa": 6141,
  "\u2581Miikiyaas": 6142,
  "\u2581Qorannaa": 6143,
  "\u2581Russia": 6144,
  "\u2581Tajaajiltoota": 6145,
  "\u2581Things": 6146,
  "\u2581Which": 6147,
  "\u2581anxieties": 6148,
  "\u2581argataniif": 6149,
  "\u2581assemblies": 6150,
  "\u2581beauty": 6151,
  "\u2581beekamummaa": 6152,
  "\u2581cherish": 6153,
  "\u2581dhowwuu": 6154,
  "\u2581dide": 6155,
  "\u2581dinqisiifatu": 6156,
  "\u2581doctor": 6157,
  "\u2581engag": 6158,
  "\u2581fidan": 6159,
  "\u2581forgiven": 6160,
  "\u2581gala": 6161,
  "\u2581glorify": 6162,
  "\u2581headship": 6163,
  "\u2581kadhadhaa": 6164,
  "\u2581kennite": 6165,
  "\u2581kudhaniin": 6166,
  "\u2581laafessa": 6167,
  "\u2581likened": 6168,
  "\u2581mijataa": 6169,
  "\u2581ministers": 6170,
  "\u2581murteessuuf": 6171,
  "\u2581pleasant": 6172,
  "\u2581popular": 6173,
  "\u2581qabnuuf": 6174,
  "\u2581regret": 6175,
  "\u2581reserved": 6176,
  "\u2581senses": 6177,
  "\u2581tajaajilasaa": 6178,
  "\u2581temptations": 6179,
  "\u2581tiksitoota": 6180,
  "\u2581torture": 6181,
  "uutti": 6182,
  "\u25811919": 6183,
  "\u2581Boodas": 6184,
  "\u2581Brazil": 6185,
  "\u2581Dhiironni": 6186,
  "\u2581Guddittii": 6187,
  "\u2581Imitate": 6188,
  "\u2581KAN": 6189,
  "\u2581Mataa": 6190,
  "\u2581Mootiin": 6191,
  "\u2581Muuxannoon": 6192,
  "\u2581Ragaa": 6193,
  "\u2581Reflect": 6194,
  "\u2581Sadaasa": 6195,
  "\u2581Waxabajjii": 6196,
  "\u2581akkasiirratti": 6197,
  "\u2581arraba": 6198,
  "\u2581baatee": 6199,
  "\u2581balaarra": 6200,
  "\u2581baradhe": 6201,
  "\u2581burden": 6202,
  "\u2581dabalu": 6203,
  "\u2581detail": 6204,
  "\u2581dhaabatee": 6205,
  "\u2581dhaabbataa": 6206,
  "\u2581didan": 6207,
  "\u2581dubbisaa": 6208,
  "\u2581economic": 6209,
  "\u2581error": 6210,
  "\u2581fayyadamnee": 6211,
  "\u2581feed": 6212,
  "\u2581firoota": 6213,
  "\u2581fufaniiru": 6214,
  "\u2581gaafadhaa": 6215,
  "\u2581gargaaraniiru": 6216,
  "\u2581gumiitti": 6217,
  "\u2581highlight": 6218,
  "\u2581highlights": 6219,
  "\u2581houses": 6220,
  "\u2581jaalladha": 6221,
  "\u2581jibbuu": 6222,
  "\u2581jirruu": 6223,
  "\u2581lafaarratti": 6224,
  "\u2581markaba": 6225,
  "\u2581moototaa": 6226,
  "\u2581odoola": 6227,
  "\u2581passage": 6228,
  "\u2581removed": 6229,
  "\u2581significance": 6230,
  "\u2581ut": 6231,
  "\u2581warns": 6232,
  "13": 6233,
  "\u25811918": 6234,
  "\u258163": 6235,
  "\u2581Angaf": 6236,
  "\u2581Caqasa": 6237,
  "\u2581Come": 6238,
  "\u2581Dargaggeessi": 6239,
  "\u2581Er": 6240,
  "\u2581Ergamaan": 6241,
  "\u2581Geggeessitoonni": 6242,
  "\u2581Gochi": 6243,
  "\u2581Irratti": 6244,
  "\u2581Priest": 6245,
  "\u2581Saaraa": 6246,
  "\u2581absorb": 6247,
  "\u2581altar": 6248,
  "\u2581amanamummaan": 6249,
  "\u2581ammayyaa": 6250,
  "\u2581approved": 6251,
  "\u2581bare": 6252,
  "\u2581believer": 6253,
  "\u2581comfortable": 6254,
  "\u2581conversations": 6255,
  "\u2581cooperate": 6256,
  "\u2581correction": 6257,
  "\u2581dabarsa": 6258,
  "\u2581dabarsuuf": 6259,
  "\u2581dagachuu": 6260,
  "\u2581deepen": 6261,
  "\u2581dhiigni": 6262,
  "\u2581dhiphisu": 6263,
  "\u2581disobedience": 6264,
  "\u2581distant": 6265,
  "\u2581establish": 6266,
  "\u2581executed": 6267,
  "\u2581fakkeenyota": 6268,
  "\u2581finds": 6269,
  "\u2581galaanaa": 6270,
  "\u2581grain": 6271,
  "\u2581gurmaa": 6272,
  "\u2581hojjetama": 6273,
  "\u2581hojjettu": 6274,
  "\u2581hundeeffame": 6275,
  "\u2581identity": 6276,
  "\u2581jedhuun": 6277,
  "\u2581kutanne": 6278,
  "\u2581naanna": 6279,
  "\u2581nana": 6280,
  "\u2581nearby": 6281,
  "\u2581olii": 6282,
  "\u2581planning": 6283,
  "\u2581publisher": 6284,
  "\u2581qabaniin": 6285,
  "\u2581rakkisu": 6286,
  "\u2581rights": 6287,
  "\u2581ruled": 6288,
  "\u2581spending": 6289,
  "\u2581televijiinii": 6290,
  "\u2581thrilling": 6291,
  "\u2581valid": 6292,
  "\u2581victory": 6293,
  "\u2581watching": 6294,
  "\u2581weeds": 6295,
  "To": 6296,
  "Waaqayyoon": 6297,
  "\u25812006": 6298,
  "\u25817]": 6299,
  "\u2581Anna": 6300,
  "\u2581Caalaatti": 6301,
  "\u2581Dubartoonni": 6302,
  "\u2581Gospels": 6303,
  "\u2581ISSUE": 6304,
  "\u2581Kanas": 6305,
  "\u2581Loox": 6306,
  "\u2581Mooticha": 6307,
  "\u2581Person": 6308,
  "\u2581Were": 6309,
  "\u2581Yo": 6310,
  "\u2581ajjeesuu": 6311,
  "\u2581ajjeesuuf": 6312,
  "\u2581argamaniif": 6313,
  "\u2581argamee": 6314,
  "\u2581baasan": 6315,
  "\u2581baasuun": 6316,
  "\u2581baratte": 6317,
  "\u2581continuing": 6318,
  "\u2581covered": 6319,
  "\u2581cross": 6320,
  "\u2581dhalatan": 6321,
  "\u2581dheekkamsa": 6322,
  "\u2581dhugaadhaaf": 6323,
  "\u2581effectively": 6324,
  "\u2581empower": 6325,
  "\u2581fiduuf": 6326,
  "\u2581finished": 6327,
  "\u2581gammadoo": 6328,
  "\u2581godhamee": 6329,
  "\u2581gogaa": 6330,
  "\u2581hojjetaan": 6331,
  "\u2581hojjettoota": 6332,
  "\u2581jaarmiyaan": 6333,
  "\u2581jirti": 6334,
  "\u2581muude": 6335,
  "\u2581observ": 6336,
  "\u2581overwhelmed": 6337,
  "\u2581participate": 6338,
  "\u2581possib": 6339,
  "\u2581principal": 6340,
  "\u2581qabamee": 6341,
  "\u2581qabnurratti": 6342,
  "\u2581qayyabachuuf": 6343,
  "\u2581scholars": 6344,
  "\u2581sold": 6345,
  "\u2581stumble": 6346,
  "\u2581surface": 6347,
  "\u2581uumamni": 6348,
  "\u2581waggaatti": 6349,
  "\u2581waynii": 6350,
  "Isaan": 6351,
  "ROM": 6352,
  "anaa": 6353,
  "ember": 6354,
  "tuu": 6355,
  "\u25811999": 6356,
  "\u25813,000": 6357,
  "\u258191": 6358,
  "\u2581Akkamii": 6359,
  "\u2581Barreeffamoota": 6360,
  "\u2581Barreessaa": 6361,
  "\u2581Bulchaa": 6362,
  "\u2581DO": 6363,
  "\u2581FAKKII": 6364,
  "\u2581Jiraachuu": 6365,
  "\u2581Michoota": 6366,
  "\u2581Noor": 6367,
  "\u2581badne": 6368,
  "\u2581caalan": 6369,
  "\u2581context": 6370,
  "\u2581dhaabaa": 6371,
  "\u2581dhaabachuuf": 6372,
  "\u2581dhaggeeffachaa": 6373,
  "\u2581dhiheessaa": 6374,
  "\u2581dhiisaa": 6375,
  "\u2581dhiphachuu": 6376,
  "\u2581dubbisnu": 6377,
  "\u2581eegne": 6378,
  "\u2581eenyuun": 6379,
  "\u2581ergamoonnisaa": 6380,
  "\u2581extra": 6381,
  "\u2581fudhatame": 6382,
  "\u2581gaddisiisa": 6383,
  "\u2581geessuu": 6384,
  "\u2581godhamurratti": 6385,
  "\u2581guilty": 6386,
  "\u2581hadoochu": 6387,
  "\u2581hidden": 6388,
  "\u2581hidhamee": 6389,
  "\u2581hoolaa": 6390,
  "\u2581hubatanii": 6391,
  "\u2581hubatte": 6392,
  "\u2581humnaa": 6393,
  "\u2581hundinuus": 6394,
  "\u2581idolatry": 6395,
  "\u2581jechuudhaa": 6396,
  "\u2581keessummoota": 6397,
  "\u2581kennerratti": 6398,
  "\u2581liqii": 6399,
  "\u2581malaan": 6400,
  "\u2581ogeessaa": 6401,
  "\u2581oolle": 6402,
  "\u2581preserved": 6403,
  "\u2581qabaattu": 6404,
  "\u2581raising": 6405,
  "\u2581rejoicing": 6406,
  "\u2581rescue": 6407,
  "\u2581rewards": 6408,
  "\u2581ruin": 6409,
  "\u2581singing": 6410,
  "\u2581sirreessuu": 6411,
  "\u2581sobaan": 6412,
  "\u2581widely": 6413,
  "\u2581xiinxaluudhaan": 6414,
  "\u2581yaadanii": 6415,
  "\u2581yaaddu": 6416,
  "\u2581yaanne": 6417,
  "3": 6418,
  "AA": 6419,
  "Go": 6420,
  "sh": 6421,
  "\u258137,": 6422,
  "\u2581Ayyaan": 6423,
  "\u2581Elders": 6424,
  "\u2581FAR": 6425,
  "\u2581Faallaa": 6426,
  "\u2581Friend": 6427,
  "\u2581German": 6428,
  "\u2581Heart": 6429,
  "\u2581Kaanimmoo": 6430,
  "\u2581Kennaan": 6431,
  "\u2581Kiristosiif": 6432,
  "\u2581Lakkoofsi": 6433,
  "\u2581Museetti": 6434,
  "\u2581Peace": 6435,
  "\u2581Qabnu": 6436,
  "\u2581Source": 6437,
  "\u2581Tas": 6438,
  "\u2581Tulluu": 6439,
  "\u2581Waaqayyorratti": 6440,
  "\u2581abbaasaa": 6441,
  "\u2581adeema": 6442,
  "\u2581admits": 6443,
  "\u2581amananii": 6444,
  "\u2581amanuudhaan": 6445,
  "\u2581barbaadanii": 6446,
  "\u2581bareedaa": 6447,
  "\u2581barreeffamee": 6448,
  "\u2581bashannana": 6449,
  "\u2581biraas": 6450,
  "\u2581caught": 6451,
  "\u2581cimsu": 6452,
  "\u2581completed": 6453,
  "\u2581convey": 6454,
  "\u2581copies": 6455,
  "\u2581courageously": 6456,
  "\u2581cufaa": 6457,
  "\u2581dargaggeessi": 6458,
  "\u2581deebiseef": 6459,
  "\u2581demand": 6460,
  "\u2581dhalachuu": 6461,
  "\u2581dirree": 6462,
  "\u2581disappointed": 6463,
  "\u2581dukkana": 6464,
  "\u2581earnestly": 6465,
  "\u2581eeggatan": 6466,
  "\u2581emotionally": 6467,
  "\u2581encounter": 6468,
  "\u2581explanation": 6469,
  "\u2581gaafadhe": 6470,
  "\u2581habit": 6471,
  "\u2581hafeera": 6472,
  "\u2581harsh": 6473,
  "\u2581heads": 6474,
  "\u2581jirtan": 6475,
  "\u2581printed": 6476,
  "\u2581qopheesseera": 6477,
  "\u2581qulqulleessuu": 6478,
  "\u2581sabaa": 6479,
  "\u2581sabasaatiif": 6480,
  "\u2581satisfied": 6481,
  "\u2581shine": 6482,
  "Maatewos": 6483,
  "ted": 6484,
  "\u25811930": 6485,
  "\u258123]": 6486,
  "\u2581Buusii": 6487,
  "\u2581Caqasichi": 6488,
  "\u2581Dargaggootaa": 6489,
  "\u2581Dinqisiifannaa": 6490,
  "\u2581Dogoggora": 6491,
  "\u2581Humni": 6492,
  "\u2581Iji": 6493,
  "\u2581Intalli": 6494,
  "\u2581Lal": 6495,
  "\u2581Magaalaa": 6496,
  "\u2581Maintain": 6497,
  "\u2581Making": 6498,
  "\u2581Man": 6499,
  "\u2581Marriage": 6500,
  "\u2581Mootummichi": 6501,
  "\u2581Sanyiin": 6502,
  "\u2581YESUS": 6503,
  "\u2581aariidhaan": 6504,
  "\u2581abboomamuun": 6505,
  "\u2581adults": 6506,
  "\u2581amanuuf": 6507,
  "\u2581baradheera": 6508,
  "\u2581broken": 6509,
  "\u2581chance": 6510,
  "\u2581cold": 6511,
  "\u2581complex": 6512,
  "\u2581daddarbaa": 6513,
  "\u2581dammaqaa": 6514,
  "\u2581deebisan": 6515,
  "\u2581depict": 6516,
  "\u2581dhihaachuun": 6517,
  "\u2581dhihaannu": 6518,
  "\u2581dhiheesseera": 6519,
  "\u2581dinqisiisuu": 6520,
  "\u2581discussions": 6521,
  "\u2581doonii": 6522,
  "\u2581drive": 6523,
  "\u2581eliminate": 6524,
  "\u2581factor": 6525,
  "\u2581foolish": 6526,
  "\u2581galanii": 6527,
  "\u2581geggeessuu": 6528,
  "\u2581gochuusaa": 6529,
  "\u2581haadhotiin": 6530,
  "\u2581halkanii": 6531,
  "\u2581humankind": 6532,
  "\u2581images": 6533,
  "\u2581imperfections": 6534,
  "\u2581innocent": 6535,
  "\u2581kanattis": 6536,
  "\u2581keenyayyuu": 6537,
  "\u2581kristiyaanaa": 6538,
  "\u2581kunuunsuuf": 6539,
  "\u2581lallabuufi": 6540,
  "\u2581lett": 6541,
  "\u2581looks": 6542,
  "\u2581malawwan": 6543,
  "\u2581priesthood": 6544,
  "\u2581projects": 6545,
  "\u2581remnant": 6546,
  "\u2581rewarding": 6547,
  "\u2581scene": 6548,
  "\u2581scholar": 6549,
  "\u2581shepherding": 6550,
  "\u2581sirreessuuf": 6551,
  "\u2581talents": 6552,
  "\u2581tasumaa": 6553,
  "\u2581thanks": 6554,
  "\u2581turaniifi": 6555,
  "\u2581types": 6556,
  "\u2581ulfinni": 6557,
  "\u2581walsimu": 6558,
  "\u2581yaadadha": 6559,
  "Karaa": 6560,
  "Lew": 6561,
  "aara": 6562,
  "good": 6563,
  "lee": 6564,
  "maa": 6565,
  "\u2581110": 6566,
  "\u2581AND": 6567,
  "\u2581Asia": 6568,
  "\u2581Dhumarratti": 6569,
  "\u2581Dhumarrattis": 6570,
  "\u2581February": 6571,
  "\u2581Galilee": 6572,
  "\u2581Haannaa": 6573,
  "\u2581ISA": 6574,
  "\u2581Judge": 6575,
  "\u2581Knorr": 6576,
  "\u2581Lazarus": 6577,
  "\u2581Leenjii": 6578,
  "\u2581Raasil": 6579,
  "\u2581Sabbath": 6580,
  "\u2581WHEN": 6581,
  "\u2581Yisihaq": 6582,
  "\u2581adopted": 6583,
  "\u2581amanamtuu": 6584,
  "\u2581amantoota": 6585,
  "\u2581ammaattis": 6586,
  "\u2581argamaniifi": 6587,
  "\u2581baratu": 6588,
  "\u2581deebise": 6589,
  "\u2581dhaalle": 6590,
  "\u2581dhibbaa": 6591,
  "\u2581donation": 6592,
  "\u2581e": 6593,
  "\u2581eegeera": 6594,
  "\u2581empty": 6595,
  "\u2581faces": 6596,
  "\u2581fagaatanii": 6597,
  "\u2581falmii": 6598,
  "\u2581fudhannu": 6599,
  "\u2581guddate": 6600,
  "\u2581guddinni": 6601,
  "\u2581hawwa": 6602,
  "\u2581iddoowwan": 6603,
  "\u2581jechoonni": 6604,
  "\u2581jijjiiru": 6605,
  "\u2581kabajaan": 6606,
  "\u2581kanaatiin": 6607,
  "\u2581keessanis": 6608,
  "\u2581kitaabni": 6609,
  "\u2581los": 6610,
  "\u2581mass": 6611,
  "\u2581officials": 6612,
  "\u2581paying": 6613,
  "\u2581profound": 6614,
  "\u2581quit": 6615,
  "\u2581qulqullina": 6616,
  "\u2581raajota": 6617,
  "\u2581realm": 6618,
  "\u2581repent": 6619,
  "\u2581sets": 6620,
  "\u2581smile": 6621,
  "\u2581tested": 6622,
  "\u2581torbaniin": 6623,
  "\u2581viidiyoo": 6624,
  "\u2581witnessed": 6625,
  "By": 6626,
  "ally": 6627,
  "anillee": 6628,
  "ixaan": 6629,
  "ll": 6630,
  "ment": 6631,
  "of": 6632,
  "pp": 6633,
  "\u258117]": 6634,
  "\u2581Above": 6635,
  "\u2581Additional": 6636,
  "\u2581Eenyu": 6637,
  "\u2581Find": 6638,
  "\u2581Pilate": 6639,
  "\u2581Seerichi": 6640,
  "\u2581Waaqayyorraa": 6641,
  "\u2581abuse": 6642,
  "\u2581afaanota": 6643,
  "\u2581akeeka": 6644,
  "\u2581amanamaan": 6645,
  "\u2581amanamaanii": 6646,
  "\u2581amanamu": 6647,
  "\u2581angafaa": 6648,
  "\u2581ariifachiisaa": 6649,
  "\u2581asleep": 6650,
  "\u2581badan": 6651,
  "\u2581beekuudhaan": 6652,
  "\u2581biraammoo": 6653,
  "\u2581bus": 6654,
  "\u2581credit": 6655,
  "\u2581deema": 6656,
  "\u2581delighted": 6657,
  "\u2581dhowwu": 6658,
  "\u2581dinqiiwwan": 6659,
  "\u2581flee": 6660,
  "\u2581fudhataniiru": 6661,
  "\u2581gochuunsaa": 6662,
  "\u2581hojiitti": 6663,
  "\u2581horachuuf": 6664,
  "\u2581hubattu": 6665,
  "\u2581illustrated": 6666,
  "\u2581isolated": 6667,
  "\u2581judged": 6668,
  "\u2581kaffaltii": 6669,
  "\u2581maanguddoonni": 6670,
  "\u2581obeyed": 6671,
  "\u2581observes": 6672,
  "\u2581publicly": 6673,
  "\u2581qalbeeffadhu": 6674,
  "\u2581qayyabachuun": 6675,
  "\u2581raawwii": 6676,
  "\u2581safety": 6677,
  "\u2581sayings": 6678,
  "\u2581taanetti": 6679,
  "\u2581tokkorraa": 6680,
  "\u2581wear": 6681,
  "\u2581wholesome": 6682,
  "\u2581yaadin": 6683,
  "hojii": 6684,
  "ru": 6685,
  "saarraa": 6686,
  "\u2581500": 6687,
  "\u258171": 6688,
  "\u2581Barsiisaa": 6689,
  "\u2581Close": 6690,
  "\u2581Dibamtoonni": 6691,
  "\u2581Eebbawwan": 6692,
  "\u2581Giriikiitiin": 6693,
  "\u2581Grand": 6694,
  "\u2581ITTI": 6695,
  "\u2581Isteetisitti": 6696,
  "\u2581Jalqabarratti": 6697,
  "\u2581Joel": 6698,
  "\u2581Leader": 6699,
  "\u2581Noh": 6700,
  "\u2581Qaayin": 6701,
  "\u2581ROM": 6702,
  "\u2581Tajaajilarratti": 6703,
  "\u2581achii": 6704,
  "\u2581adabni": 6705,
  "\u2581amannu": 6706,
  "\u2581barbaadaa": 6707,
  "\u2581barsiisuun": 6708,
  "\u2581bishaaniin": 6709,
  "\u2581bokkaa": 6710,
  "\u2581comforted": 6711,
  "\u2581crime": 6712,
  "\u2581deebisa": 6713,
  "\u2581dubbatetti": 6714,
  "\u2581existed": 6715,
  "\u2581fayyaduu": 6716,
  "\u2581fields": 6717,
  "\u2581filatan": 6718,
  "\u2581gaafatamu": 6719,
  "\u2581galchuu": 6720,
  "\u2581heal": 6721,
  "\u2581hojiisaanii": 6722,
  "\u2581hundred": 6723,
  "\u2581impart": 6724,
  "\u2581jedhetti": 6725,
  "\u2581kamtu": 6726,
  "\u2581leenji": 6727,
  "\u2581mark": 6728,
  "\u2581misiyoonota": 6729,
  "\u2581misiyoonummaa": 6730,
  "\u2581mootichi": 6731,
  "\u2581muummee": 6732,
  "\u2581obstacles": 6733,
  "\u2581oolchan": 6734,
  "\u2581ooluuf": 6735,
  "\u2581outlook": 6736,
  "\u2581pagan": 6737,
  "\u2581perfectly": 6738,
  "\u2581qajeelummaan": 6739,
  "\u2581quiet": 6740,
  "\u2581urges": 6741,
  "\u2581worry": 6742,
  ",000": 6743,
  "ity": 6744,
  "taa": 6745,
  "tanii": 6746,
  "wanta": 6747,
  "\u258131)": 6748,
  "\u258162": 6749,
  "\u258164": 6750,
  "\u2581Amanamoo": 6751,
  "\u2581Britain": 6752,
  "\u2581Church": 6753,
  "\u2581Faransaay": 6754,
  "\u2581GOD": 6755,
  "\u2581Gooftaan": 6756,
  "\u2581Hojjetaan": 6757,
  "\u2581Ilaalchisee": 6758,
  "\u2581MATA": 6759,
  "\u2581QOR": 6760,
  "\u2581Qorumsi": 6761,
  "\u2581Reign": 6762,
  "\u2581Saanduqa": 6763,
  "\u2581Tajaajiluu": 6764,
  "\u2581Thess": 6765,
  "\u2581Ture": 6766,
  "\u2581WANT": 6767,
  "\u2581afterward": 6768,
  "\u2581appealing": 6769,
  "\u2581appointment": 6770,
  "\u2581arose": 6771,
  "\u2581backing": 6772,
  "\u2581beekaman": 6773,
  "\u2581calamity": 6774,
  "\u2581cimsuu": 6775,
  "\u2581crushed": 6776,
  "\u2581dallaa": 6777,
  "\u2581dubbattu": 6778,
  "\u2581elements": 6779,
  "\u2581fallen": 6780,
  "\u2581gaafachuudhaan": 6781,
  "\u2581guute": 6782,
  "\u2581headquarters": 6783,
  "\u2581hesitate": 6784,
  "\u2581himame": 6785,
  "\u2581hirriba": 6786,
  "\u2581hundeesse": 6787,
  "\u2581ispoortii": 6788,
  "\u2581jettu": 6789,
  "\u2581kaasa": 6790,
  "\u2581keessaas": 6791,
  "\u2581lovers": 6792,
  "\u2581maintained": 6793,
  "\u2581method": 6794,
  "\u2581minded": 6795,
  "\u2581punishment": 6796,
  "\u2581qabaatin": 6797,
  "\u2581qabachuudhaan": 6798,
  "\u2581qabanirratti": 6799,
  "\u2581ramadamne": 6800,
  "\u2581returning": 6801,
  "\u2581selected": 6802,
  "\u2581siree": 6803,
  "\u2581sooressa": 6804,
  "\u2581specifically": 6805,
  "\u2581strangers": 6806,
  "\u2581telephone": 6807,
  "\u2581tempered": 6808,
  "\u2581texts": 6809,
  "\u2581trees": 6810,
  "\u2581unexpected": 6811,
  "\u2581urgent": 6812,
  "\u2581waraqaa": 6813,
  "\u2581yaala": 6814,
  "Jaalala": 6815,
  "Kunoo": 6816,
  "Yeroon": 6817,
  "ch": 6818,
  "eedhaaf": 6819,
  "tn": 6820,
  "\u2581130": 6821,
  "\u25815.)": 6822,
  "\u2581Amanamaa": 6823,
  "\u2581BAAY": 6824,
  "\u2581Dha": 6825,
  "\u2581Eccl": 6826,
  "\u2581Egyptian": 6827,
  "\u2581Guraandhala": 6828,
  "\u2581Herod": 6829,
  "\u2581Jal": 6830,
  "\u2581Judas": 6831,
  "\u2581KANA": 6832,
  "\u2581Phenxeqosteetti": 6833,
  "\u2581Ruler": 6834,
  "\u2581Seericha": 6835,
  "\u2581Tajaajilli": 6836,
  "\u2581agreed": 6837,
  "\u2581ajjeese": 6838,
  "\u2581anymore": 6839,
  "\u2581application": 6840,
  "\u2581asii": 6841,
  "\u2581atmosphere": 6842,
  "\u2581baasnee": 6843,
  "\u2581barbaachisoo": 6844,
  "\u2581barbaachisuu": 6845,
  "\u2581barri": 6846,
  "\u2581barsiisuudhaan": 6847,
  "\u2581baruuf": 6848,
  "\u2581biyyaa": 6849,
  "\u2581biyyicha": 6850,
  "\u2581cast": 6851,
  "\u2581center": 6852,
  "\u2581churches": 6853,
  "\u2581commendation": 6854,
  "\u2581debt": 6855,
  "\u2581deebitee": 6856,
  "\u2581dhiheessa": 6857,
  "\u2581dhukkubsate": 6858,
  "\u2581diligent": 6859,
  "\u2581dullumaa": 6860,
  "\u2581educational": 6861,
  "\u2581execution": 6862,
  "\u2581footnote": 6863,
  "\u2581gabii": 6864,
  "\u2581galataa": 6865,
  "\u2581girls": 6866,
  "\u2581guilt": 6867,
  "\u2581haasofsiisuu": 6868,
  "\u2581haqaa": 6869,
  "\u2581hojiisaa": 6870,
  "\u2581hubata": 6871,
  "\u2581ibsametti": 6872,
  "\u2581interesting": 6873,
  "\u2581jaallanne": 6874,
  "\u2581jedhamutti": 6875,
  "\u2581kennaaf": 6876,
  "\u2581kennama": 6877,
  "\u2581kennaniin": 6878,
  "\u2581michoonni": 6879,
  "\u2581mindaa": 6880,
  "\u2581mirkaneessuu": 6881,
  "\u2581mormu": 6882,
  "\u2581obsaa": 6883,
  "\u2581oppose": 6884,
  "\u2581previously": 6885,
  "\u2581prompt": 6886,
  "\u2581qabaadhaa": 6887,
  "\u2581rakkoon": 6888,
  "\u2581reap": 6889,
  "\u2581reflects": 6890,
  "\u2581samiirraa": 6891,
  "\u2581science": 6892,
  "\u2581stronger": 6893,
  "\u2581tired": 6894,
  "\u2581uumamaan": 6895,
  "\u2581waaqeffannaan": 6896,
  "\u2581worshipped": 6897,
  "\u2581yaalan": 6898,
  "Dhugaa": 6899,
  "No": 6900,
  "Waa": 6901,
  "Who": 6902,
  "Why": 6903,
  "aansaa": 6904,
  "la": 6905,
  "os": 6906,
  "raa": 6907,
  "we": 6908,
  "\u2581133": 6909,
  "\u2581150": 6910,
  "\u25811990": 6911,
  "\u2581Aarsaan": 6912,
  "\u2581Abrahaamii": 6913,
  "\u2581Absalom": 6914,
  "\u2581Amos": 6915,
  "\u2581Barreeffamoonni": 6916,
  "\u2581DUREE": 6917,
  "\u2581Deut": 6918,
  "\u2581Gar": 6919,
  "\u2581Jude": 6920,
  "\u2581Leviticus": 6921,
  "\u2581Martha": 6922,
  "\u2581Nutoo": 6923,
  "\u2581Says": 6924,
  "\u2581Spiritual": 6925,
  "\u2581Theocratic": 6926,
  "\u2581acknowledged": 6927,
  "\u2581admit": 6928,
  "\u2581argamtuu": 6929,
  "\u2581arginu": 6930,
  "\u2581argitu": 6931,
  "\u2581ariitii": 6932,
  "\u2581arms": 6933,
  "\u2581arrival": 6934,
  "\u2581associating": 6935,
  "\u2581barataa": 6936,
  "\u2581barreessaa": 6937,
  "\u2581beeksisa": 6938,
  "\u2581cimsee": 6939,
  "\u2581commended": 6940,
  "\u2581continually": 6941,
  "\u2581creature": 6942,
  "\u2581cultivating": 6943,
  "\u2581cuuphamuuf": 6944,
  "\u2581darbaa": 6945,
  "\u2581dark": 6946,
  "\u2581dhihaatee": 6947,
  "\u2581dhiisa": 6948,
  "\u2581eegalee": 6949,
  "\u2581eeggadhaa": 6950,
  "\u2581equipped": 6951,
  "\u2581ergamootaa": 6952,
  "\u2581extraordinary": 6953,
  "\u2581fagaannu": 6954,
  "\u2581gammade": 6955,
  "\u2581grant": 6956,
  "\u2581greed": 6957,
  "\u2581historical": 6958,
  "\u2581hojjetaniif": 6959,
  "\u2581ibsaniiru": 6960,
  "\u2581imitation": 6961,
  "\u2581jajjabeessuun": 6962,
  "\u2581joyfully": 6963,
  "\u2581kabaju": 6964,
  "\u2581kabajuun": 6965,
  "\u2581literally": 6966,
  "\u2581low": 6967,
  "\u2581manasaanii": 6968,
  "\u2581oolche": 6969,
  "\u2581oolcheera": 6970,
  "\u2581openly": 6971,
  "\u2581opinion": 6972,
  "\u2581opinions": 6973,
  "\u2581origin": 6974,
  "\u2581patriarch": 6975,
  "\u2581phone": 6976,
  "\u2581protects": 6977,
  "\u2581qoree": 6978,
  "\u2581raawwatee": 6979,
  "\u2581refrain": 6980,
  "\u2581reputation": 6981,
  "\u2581rock": 6982,
  "\u2581sincerely": 6983,
  "\u2581tabernacle": 6984,
  "\u2581tear": 6985,
  "\u2581thankful": 6986,
  "\u2581tools": 6987,
  "\u2581top": 6988,
  "\u2581translations": 6989,
  "\u2581troubled": 6990,
  "\u2581viewing": 6991,
  "\u2581wars": 6992,
  "\u2581za": 6993,
  "4": 6994,
  "Dubbiin": 6995,
  "Iya": 6996,
  "LSO": 6997,
  "achi": 6998,
  "ameef": 6999,
  "ataan": 7000,
  "ichaa": 7001,
  "jaajiltoonnisaa": 7002,
  "sheetti": 7003,
  "urb": 7004,
  "\u25812004": 7005,
  "\u258129]": 7006,
  "\u2581Ammas": 7007,
  "\u2581Carraa": 7008,
  "\u2581Cuuphaan": 7009,
  "\u2581Deebi": 7010,
  "\u2581Dhaga": 7011,
  "\u2581England": 7012,
  "\u2581Guddina": 7013,
  "\u2581Gumiiwwan": 7014,
  "\u2581Hundaa": 7015,
  "\u2581Kiristositti": 7016,
  "\u2581Oo": 7017,
  "\u2581acquainted": 7018,
  "\u2581afeerraa": 7019,
  "\u2581akkasiitiin": 7020,
  "\u2581arganii": 7021,
  "\u2581argannuuf": 7022,
  "\u2581baduu": 7023,
  "\u2581barruulee": 7024,
  "\u2581captivity": 7025,
  "\u2581dandeessuu": 7026,
  "\u2581dedicate": 7027,
  "\u2581deebinee": 7028,
  "\u2581deserve": 7029,
  "\u2581dhaabbilee": 7030,
  "\u2581gaafateera": 7031,
  "\u2581gahee": 7032,
  "\u2581gaining": 7033,
  "\u2581galuun": 7034,
  "\u2581giddu": 7035,
  "\u2581hafne": 7036,
  "\u2581happening": 7037,
  "\u2581ibsudha": 7038,
  "\u2581kottaa": 7039,
  "\u2581laid": 7040,
  "\u2581lallabuudhaan": 7041,
  "\u2581manifested": 7042,
  "\u2581mataasaanii": 7043,
  "\u2581maxxansa": 7044,
  "\u2581memories": 7045,
  "\u2581mine": 7046,
  "\u2581narra": 7047,
  "\u2581offerings": 7048,
  "\u2581plague": 7049,
  "\u2581playing": 7050,
  "\u2581police": 7051,
  "\u2581preachers": 7052,
  "\u2581proclaimers": 7053,
  "\u2581prominent": 7054,
  "\u2581qajeelaan": 7055,
  "\u2581refreshing": 7056,
  "\u2581remembered": 7057,
  "\u2581repeated": 7058,
  "\u2581sadiif": 7059,
  "\u2581sagaleen": 7060,
  "\u2581sibiila": 7061,
  "\u2581striv": 7062,
  "\u2581takka": 7063,
  "\u2581tilmaamuu": 7064,
  "\u2581visible": 7065,
  "\u2581waamicha": 7066,
  "\u2581walfakkaatuun": 7067,
  "\u2581weekly": 7068,
  "\u2581yoomiyyuu": 7069,
  "H": 7070,
  "OS": 7071,
  "Your": 7072,
  "ima": 7073,
  "ra": 7074,
  "that": 7075,
  "v": 7076,
  "\u258126)": 7077,
  "\u2581Again": 7078,
  "\u2581Any": 7079,
  "\u2581Barattoota": 7080,
  "\u2581Chronicles": 7081,
  "\u2581City": 7082,
  "\u2581Drama": 7083,
  "\u2581Fear": 7084,
  "\u2581Hayyoonni": 7085,
  "\u2581Hordofaa": 7086,
  "\u2581Lewwoonni": 7087,
  "\u2581Mala": 7088,
  "\u2581Malachi": 7089,
  "\u2581Nohitti": 7090,
  "\u2581Obsa": 7091,
  "\u2581Sagantaa": 7092,
  "\u2581Testament": 7093,
  "\u2581Truth": 7094,
  "\u2581Waajjira": 7095,
  "\u2581Yoorki": 7096,
  "\u2581abboota": 7097,
  "\u2581abdiiwwan": 7098,
  "\u2581abjuu": 7099,
  "\u2581agreement": 7100,
  "\u2581amantiitti": 7101,
  "\u2581argadhu": 7102,
  "\u2581argatta": 7103,
  "\u2581associations": 7104,
  "\u2581baradhu": 7105,
  "\u2581barbaaduun": 7106,
  "\u2581beekta": 7107,
  "\u2581clergy": 7108,
  "\u2581deeper": 7109,
  "\u2581dhufte": 7110,
  "\u2581diduu": 7111,
  "\u2581dinqisiisoo": 7112,
  "\u2581drugs": 7113,
  "\u2581experiencing": 7114,
  "\u2581exposed": 7115,
  "\u2581fed": 7116,
  "\u2581fira": 7117,
  "\u2581frequently": 7118,
  "\u2581gammadanii": 7119,
  "\u2581gantummaa": 7120,
  "\u2581garbicha": 7121,
  "\u2581goats": 7122,
  "\u2581godhaman": 7123,
  "\u2581grave": 7124,
  "\u2581hair": 7125,
  "\u2581injifannoo": 7126,
  "\u2581instruct": 7127,
  "\u2581jaalalasaa": 7128,
  "\u2581lafaafi": 7129,
  "\u2581lafee": 7130,
  "\u2581magaalota": 7131,
  "\u2581mirkaneesse": 7132,
  "\u2581moofaa": 7133,
  "\u2581mukaa": 7134,
  "\u2581muudame": 7135,
  "\u2581nuun": 7136,
  "\u2581partake": 7137,
  "\u2581poverty": 7138,
  "\u2581proclaim": 7139,
  "\u2581qabaatuuf": 7140,
  "\u2581qabdaa": 7141,
  "\u2581qabeenyaa": 7142,
  "\u2581qomoo": 7143,
  "\u2581replaced": 7144,
  "\u2581sing": 7145,
  "\u2581stumbling": 7146,
  "\u2581threat": 7147,
  "\u2581tokkummaan": 7148,
  "\u2581ulfaata": 7149,
  "\u2581undergo": 7150,
  "\u2581victim": 7151,
  "\u2581wangeelaa": 7152,
  "Akkuma": 7153,
  "Happy": 7154,
  "UU": 7155,
  "eliif": 7156,
  "ern": 7157,
  "man": 7158,
  "uf": 7159,
  "\u25811940": 7160,
  "\u258158": 7161,
  "\u2581Become": 7162,
  "\u2581Brothers": 7163,
  "\u2581Faithful": 7164,
  "\u2581French": 7165,
  "\u2581Fuula": 7166,
  "\u2581Head": 7167,
  "\u2581Jehoshaphat": 7168,
  "\u2581Kiristiyaanotaa": 7169,
  "\u2581Misiraachoo": 7170,
  "\u2581Ofii": 7171,
  "\u2581Qajeelchaa": 7172,
  "\u2581Try": 7173,
  "\u2581Year": 7174,
  "\u2581amane": 7175,
  "\u2581avoided": 7176,
  "\u2581awwaala": 7177,
  "\u2581badness": 7178,
  "\u2581balleesse": 7179,
  "\u2581beekama": 7180,
  "\u2581bineensota": 7181,
  "\u2581biyyoo": 7182,
  "\u2581bones": 7183,
  "\u2581cell": 7184,
  "\u2581ciminaan": 7185,
  "\u2581citizens": 7186,
  "\u2581clay": 7187,
  "\u2581conform": 7188,
  "\u2581corruption": 7189,
  "\u2581current": 7190,
  "\u2581dandeettiin": 7191,
  "\u2581darbanitti": 7192,
  "\u2581description": 7193,
  "\u2581desired": 7194,
  "\u2581dhaabata": 7195,
  "\u2581dhoksaatti": 7196,
  "\u2581dirqamn": 7197,
  "\u2581duula": 7198,
  "\u2581errors": 7199,
  "\u2581examination": 7200,
  "\u2581faallessu": 7201,
  "\u2581fideera": 7202,
  "\u2581foot": 7203,
  "\u2581fudhadhaa": 7204,
  "\u2581fufuun": 7205,
  "\u2581fuudhan": 7206,
  "\u2581garabiraammoo": 7207,
  "\u2581gootee": 7208,
  "\u2581gurguramu": 7209,
  "\u2581hafuu": 7210,
  "\u2581hated": 7211,
  "\u2581healed": 7212,
  "\u2581immediate": 7213,
  "\u2581jedhanitti": 7214,
  "\u2581jijjiiruuf": 7215,
  "\u2581location": 7216,
  "\u2581morally": 7217,
  "\u2581mothers": 7218,
  "\u2581murteessu": 7219,
  "\u2581national": 7220,
  "\u2581planet": 7221,
  "\u2581qajeelotaa": 7222,
  "\u2581requirement": 7223,
  "\u2581respects": 7224,
  "\u2581taateef": 7225,
  "\u2581thorough": 7226,
  "\u2581unbelievers": 7227,
  "\u2581vary": 7228,
  "\u2581waaqeffatu": 7229,
  "\u2581yield": 7230,
  "ef": 7231,
  "elasaanii": 7232,
  "eliifi": 7233,
  "irra": 7234,
  "rii": 7235,
  "saaniirraa": 7236,
  "seed": 7237,
  "\u2581111": 7238,
  "\u25812000": 7239,
  "\u25812017": 7240,
  "\u2581Aasaan": 7241,
  "\u2581Besides": 7242,
  "\u2581Bethlehem": 7243,
  "\u2581Daawitiifi": 7244,
  "\u2581Evidently": 7245,
  "\u2581Goliath": 7246,
  "\u2581Iyo": 7247,
  "\u2581JO": 7248,
  "\u2581Living": 7249,
  "\u2581Mucaa": 7250,
  "\u2581NAMOONNI": 7251,
  "\u2581Often": 7252,
  "\u2581Phenxeqostee": 7253,
  "\u2581Philippi": 7254,
  "\u2581Qo": 7255,
  "\u2581Seerichaa": 7256,
  "\u2581Seexanaafi": 7257,
  "\u2581Sochiiwwan": 7258,
  "\u2581Three": 7259,
  "\u2581Waaqayyoos": 7260,
  "\u2581Yihudaan": 7261,
  "\u2581aansee": 7262,
  "\u2581abboomamaa": 7263,
  "\u2581abboome": 7264,
  "\u2581accused": 7265,
  "\u2581adhere": 7266,
  "\u2581argachuufi": 7267,
  "\u2581arrabsoo": 7268,
  "\u2581blesses": 7269,
  "\u2581bow": 7270,
  "\u2581dadhabaa": 7271,
  "\u2581dandeessisa": 7272,
  "\u2581dhihoodha": 7273,
  "\u2581dhukkubsatan": 7274,
  "\u2581dinqisiifatan": 7275,
  "\u2581dursit": 7276,
  "\u2581east": 7277,
  "\u2581eeggadhu": 7278,
  "\u2581fudhadhu": 7279,
  "\u2581gaarummaan": 7280,
  "\u2581garba": 7281,
  "\u2581gonfoo": 7282,
  "\u2581gracious": 7283,
  "\u2581huge": 7284,
  "\u2581ijoolleesaa": 7285,
  "\u2581ilaalamuu": 7286,
  "\u2581ilmasaa": 7287,
  "\u2581initial": 7288,
  "\u2581jiraachuufi": 7289,
  "\u2581kabajuuf": 7290,
  "\u2581maalirratti": 7291,
  "\u2581meek": 7292,
  "\u2581mentions": 7293,
  "\u2581mirgaa": 7294,
  "\u2581mourning": 7295,
  "\u2581namaatti": 7296,
  "\u2581nyaatan": 7297,
  "\u2581portion": 7298,
  "\u2581qabaachuusaa": 7299,
  "\u2581qabduu": 7300,
  "\u2581qusachuu": 7301,
  "\u2581remote": 7302,
  "\u2581rendering": 7303,
  "\u2581reproach": 7304,
  "\u2581select": 7305,
  "\u2581siyaasa": 7306,
  "\u2581solution": 7307,
  "\u2581taaneefi": 7308,
  "\u2581taasisu": 7309,
  "\u2581tapha": 7310,
  "\u2581tuut": 7311,
  "\u2581won": 7312,
  "\u2581yaaluu": 7313,
  "at": 7314,
  "ng": 7315,
  "uushee": 7316,
  "\u258184": 7317,
  "\u2581Abiishaalom": 7318,
  "\u2581Ahaab": 7319,
  "\u2581Bl": 7320,
  "\u2581Ear": 7321,
  "\u2581Garaan": 7322,
  "\u2581Hewwaaniin": 7323,
  "\u2581Jireenyaa": 7324,
  "\u2581Keessaa": 7325,
  "\u2581Mallattoo": 7326,
  "\u2581Mean": 7327,
  "\u2581Mikaa": 7328,
  "\u2581Philip": 7329,
  "\u2581Speaking": 7330,
  "\u2581TEACHINGS": 7331,
  "\u2581akkamiitti": 7332,
  "\u2581amanamuun": 7333,
  "\u2581argamsiisan": 7334,
  "\u2581arrive": 7335,
  "\u2581baannus": 7336,
  "\u2581baruu": 7337,
  "\u2581biraanimmoo": 7338,
  "\u2581blame": 7339,
  "\u2581buddeena": 7340,
  "\u2581capacity": 7341,
  "\u2581check": 7342,
  "\u2581commissioned": 7343,
  "\u2581compromise": 7344,
  "\u2581crowds": 7345,
  "\u2581dandeenyuuf": 7346,
  "\u2581dhaladhe": 7347,
  "\u2581dhuunfaadhaan": 7348,
  "\u2581dibamtoonni": 7349,
  "\u2581disasters": 7350,
  "\u2581discover": 7351,
  "\u2581dubbicha": 7352,
  "\u2581eeggata": 7353,
  "\u2581ergaasaa": 7354,
  "\u2581examining": 7355,
  "\u2581exchange": 7356,
  "\u2581fagaatee": 7357,
  "\u2581fuudhanii": 7358,
  "\u2581godhuuf": 7359,
  "\u2581hates": 7360,
  "\u2581hawwatu": 7361,
  "\u2581healing": 7362,
  "\u2581helper": 7363,
  "\u2581hit": 7364,
  "\u2581hoped": 7365,
  "\u2581humnasaa": 7366,
  "\u2581hundaatti": 7367,
  "\u2581ijaaruuf": 7368,
  "\u2581ijoo": 7369,
  "\u2581indication": 7370,
  "\u2581inspiring": 7371,
  "\u2581jireenyakoo": 7372,
  "\u2581kennaniiru": 7373,
  "\u2581laga": 7374,
  "\u2581luba": 7375,
  "\u2581obligation": 7376,
  "\u2581prayerful": 7377,
  "\u2581qabachuun": 7378,
  "\u2581qabxii": 7379,
  "\u2581respected": 7380,
  "\u2581sanctified": 7381,
  "\u2581silent": 7382,
  "\u2581stands": 7383,
  "\u2581street": 7384,
  "\u2581surraa": 7385,
  "\u2581taasiseera": 7386,
  "\u2581thereby": 7387,
  "\u2581tulluu": 7388,
  "\u2581turns": 7389,
  "\u2581ulee": 7390,
  "\u2581unusual": 7391,
  "\u2581warfare": 7392,
  "\u2581welcomed": 7393,
  "\u2581whereas": 7394,
  "G": 7395,
  "elaasaanii": 7396,
  "go": 7397,
  "\u25811899.": 7398,
  "\u258138,": 7399,
  "\u2581Caalu": 7400,
  "\u2581Dhugumaan": 7401,
  "\u2581Egyptians": 7402,
  "\u2581Fedhiin": 7403,
  "\u2581GAAFFII": 7404,
  "\u2581Jer": 7405,
  "\u2581Lamaan": 7406,
  "\u2581Namummaa": 7407,
  "\u2581Red": 7408,
  "\u2581Yookiinimmoo": 7409,
  "\u2581abboomaman": 7410,
  "\u2581access": 7411,
  "\u2581aduun": 7412,
  "\u2581cimoo": 7413,
  "\u2581condemned": 7414,
  "\u2581conflicts": 7415,
  "\u2581dhimmi": 7416,
  "\u2581dhufaa": 7417,
  "\u2581duuni": 7418,
  "\u2581eenyuu": 7419,
  "\u2581ends": 7420,
  "\u2581faarfateera": 7421,
  "\u2581facaasuu": 7422,
  "\u2581funds": 7423,
  "\u2581gadhiisii": 7424,
  "\u2581gatherings": 7425,
  "\u2581hammamii": 7426,
  "\u2581hinder": 7427,
  "\u2581iccitii": 7428,
  "\u2581imprisoned": 7429,
  "\u2581jealous": 7430,
  "\u2581jireenyakee": 7431,
  "\u2581kudha": 7432,
  "\u2581lift": 7433,
  "\u2581listed": 7434,
  "\u2581mucichi": 7435,
  "\u2581muudaman": 7436,
  "\u2581namootaatti": 7437,
  "\u2581object": 7438,
  "\u2581obtained": 7439,
  "\u2581outright": 7440,
  "\u2581proceeded": 7441,
  "\u2581raajichaa": 7442,
  "\u2581ran": 7443,
  "\u2581reads": 7444,
  "\u2581respectful": 7445,
  "\u2581settle": 7446,
  "\u2581statements": 7447,
  "\u2581sufficient": 7448,
  "\u2581tent": 7449,
  "\u2581tokkoffaa": 7450,
  "Israa": 7451,
  "Kun": 7452,
  "Mootummaan": 7453,
  "angelic": 7454,
  "ehoo": 7455,
  "jireenya": 7456,
  "le": 7457,
  "\u258110.)": 7458,
  "\u258157": 7459,
  "\u2581Abboommii": 7460,
  "\u2581American": 7461,
  "\u2581Beekumsa": 7462,
  "\u2581DNA": 7463,
  "\u2581Edition": 7464,
  "\u2581Faares": 7465,
  "\u2581Hiikni": 7466,
  "\u2581Hinaaffaa": 7467,
  "\u2581Italy": 7468,
  "\u2581Itoophiyaa": 7469,
  "\u2581JEDHA": 7470,
  "\u2581Jijjiiram": 7471,
  "\u2581Ogummaan": 7472,
  "\u2581Oromoo": 7473,
  "\u2581Qaba": 7474,
  "\u2581Qulqulluutiif": 7475,
  "\u2581River": 7476,
  "\u2581Robert": 7477,
  "\u2581Spain": 7478,
  "\u2581Sunday": 7479,
  "\u2581Trinity": 7480,
  "\u2581Within": 7481,
  "\u2581YIHOWAAN": 7482,
  "\u2581Yerusaalemiin": 7483,
  "\u2581aanutti": 7484,
  "\u2581afford": 7485,
  "\u2581argattan": 7486,
  "\u2581beekamoo": 7487,
  "\u2581bitamuu": 7488,
  "\u2581buutuu": 7489,
  "\u2581charge": 7490,
  "\u2581cinaa": 7491,
  "\u2581comforts": 7492,
  "\u2581consult": 7493,
  "\u2581convince": 7494,
  "\u2581developments": 7495,
  "\u2581dhufeera": 7496,
  "\u2581dhufutti": 7497,
  "\u2581dhugaatiif": 7498,
  "\u2581discouragement": 7499,
  "\u2581disposition": 7500,
  "\u2581doubts": 7501,
  "\u2581ergame": 7502,
  "\u2581ergee": 7503,
  "\u2581exact": 7504,
  "\u2581falling": 7505,
  "\u2581fathers": 7506,
  "\u2581favorably": 7507,
  "\u2581fayyisuuf": 7508,
  "\u2581filatu": 7509,
  "\u2581fled": 7510,
  "\u2581fufne": 7511,
  "\u2581gammachiiseera": 7512,
  "\u2581guutee": 7513,
  "\u2581heyyameera": 7514,
  "\u2581himi": 7515,
  "\u2581hurtful": 7516,
  "\u2581ilaalee": 7517,
  "\u2581intelligent": 7518,
  "\u2581iron": 7519,
  "\u2581items": 7520,
  "\u2581jiraataniifi": 7521,
  "\u2581kaaba": 7522,
  "\u2581kennaawwan": 7523,
  "\u2581kunoo": 7524,
  "\u2581lips": 7525,
  "\u2581offended": 7526,
  "\u2581ormaa": 7527,
  "\u2581pour": 7528,
  "\u2581pursuit": 7529,
  "\u2581qajeelota": 7530,
  "\u2581qilleensaa": 7531,
  "\u2581qopheessan": 7532,
  "\u2581qorumsawwan": 7533,
  "\u2581satisfy": 7534,
  "\u2581scientists": 7535,
  "\u2581searching": 7536,
  "\u2581singleness": 7537,
  "\u2581strict": 7538,
  "\u2581talked": 7539,
  "\u2581trap": 7540,
  "\u2581video": 7541,
  "\u2581warrasaanii": 7542,
  "\u2581watchful": 7543,
  "AL": 7544,
  "gaa": 7545,
  "highlighted": 7546,
  "saafi": 7547,
  "\u258194": 7548,
  "\u2581Adda": 7549,
  "\u2581Avoid": 7550,
  "\u2581Fayyaa": 7551,
  "\u2581Filiphisiyus": 7552,
  "\u2581Koo": 7553,
  "\u2581Maalidha": 7554,
  "\u2581Madda": 7555,
  "\u2581Milkaa": 7556,
  "\u2581Naazireet": 7557,
  "\u2581Philaaxos": 7558,
  "\u2581Put": 7559,
  "\u2581Serv": 7560,
  "\u2581Sirna": 7561,
  "\u2581Sodom": 7562,
  "\u2581Sooriyaa": 7563,
  "\u2581amanamnu": 7564,
  "\u2581apostate": 7565,
  "\u2581appoint": 7566,
  "\u2581baane": 7567,
  "\u2581bade": 7568,
  "\u2581barbaaddan": 7569,
  "\u2581billaa": 7570,
  "\u2581bitter": 7571,
  "\u2581dadhabbii": 7572,
  "\u2581dadhabuu": 7573,
  "\u2581dhiheessee": 7574,
  "\u2581dhugaadhaan": 7575,
  "\u2581diinonni": 7576,
  "\u2581dubbaterratti": 7577,
  "\u2581durba": 7578,
  "\u2581duune": 7579,
  "\u2581earn": 7580,
  "\u2581enjoyable": 7581,
  "\u2581eternity": 7582,
  "\u2581exercised": 7583,
  "\u2581fakkaatee": 7584,
  "\u2581fears": 7585,
  "\u2581fedhe": 7586,
  "\u2581funeral": 7587,
  "\u2581gadameessa": 7588,
  "\u2581gamoo": 7589,
  "\u2581gidiraa": 7590,
  "\u2581godhin": 7591,
  "\u2581guddata": 7592,
  "\u2581gumicha": 7593,
  "\u2581hammeenyi": 7594,
  "\u2581holds": 7595,
  "\u2581hubachuufi": 7596,
  "\u2581hubatin": 7597,
  "\u2581hundarratti": 7598,
  "\u2581island": 7599,
  "\u2581jedhin": 7600,
  "\u2581jirurratti": 7601,
  "\u2581judging": 7602,
  "\u2581kaaseera": 7603,
  "\u2581kajeellaa": 7604,
  "\u2581keenyarra": 7605,
  "\u2581kennanii": 7606,
  "\u2581kumaatama": 7607,
  "\u2581level": 7608,
  "\u2581matummaa": 7609,
  "\u2581memory": 7610,
  "\u2581middle": 7611,
  "\u2581murteessinu": 7612,
  "\u2581neutrality": 7613,
  "\u2581ongoing": 7614,
  "\u2581opposed": 7615,
  "\u2581peers": 7616,
  "\u2581pick": 7617,
  "\u2581pity": 7618,
  "\u2581plant": 7619,
  "\u2581qananii": 7620,
  "\u2581qoramuu": 7621,
  "\u2581quotations": 7622,
  "\u2581raawwatameera": 7623,
  "\u2581raawwataniif": 7624,
  "\u2581rakkinaatti": 7625,
  "\u2581reasoned": 7626,
  "\u2581reply": 7627,
  "\u2581ridicule": 7628,
  "\u2581seerratu": 7629,
  "\u2581shame": 7630,
  "\u2581sitting": 7631,
  "\u2581sorrow": 7632,
  "\u2581taasisa": 7633,
  "\u2581tajaajilli": 7634,
  "\u2581technology": 7635,
  "\u2581topics": 7636,
  "\u2581twice": 7637,
  "\u2581ulfaachuu": 7638,
  "\u2581volunteers": 7639,
  "\u2581waamamu": 7640,
  "\u2581warrisaanii": 7641,
  "\u2581worshipper": 7642,
  "5,000": 7643,
  "L": 7644,
  "da": 7645,
  "dubbii": 7646,
  "elaaf": 7647,
  "no": 7648,
  "saba": 7649,
  "thrown": 7650,
  "uusaatiin": 7651,
  "z": 7652,
  "\u2581112": 7653,
  "\u2581147": 7654,
  "\u258120]": 7655,
  "\u258139.": 7656,
  "\u258168": 7657,
  "\u2581Aanaan": 7658,
  "\u2581Achitti": 7659,
  "\u2581Caesar": 7660,
  "\u2581Duuti": 7661,
  "\u2581Eric": 7662,
  "\u2581Gideon": 7663,
  "\u2581Gocha": 7664,
  "\u2581Kitaabota": 7665,
  "\u2581Listen": 7666,
  "\u2581Miirri": 7667,
  "\u2581Next": 7668,
  "\u2581Niisaan": 7669,
  "\u2581Nisan": 7670,
  "\u2581Q": 7671,
  "\u2581Re": 7672,
  "\u2581Right": 7673,
  "\u2581Seed": 7674,
  "\u2581Times": 7675,
  "\u2581Xaaliyaanii": 7676,
  "\u2581adult": 7677,
  "\u2581amantu": 7678,
  "\u2581announced": 7679,
  "\u2581bit": 7680,
  "\u2581boys": 7681,
  "\u2581capable": 7682,
  "\u2581carraaqu": 7683,
  "\u2581comparison": 7684,
  "\u2581cup": 7685,
  "\u2581dhaalu": 7686,
  "\u2581dhabee": 7687,
  "\u2581distressing": 7688,
  "\u2581dorgommii": 7689,
  "\u2581dubbise": 7690,
  "\u2581dying": 7691,
  "\u2581eegama": 7692,
  "\u2581emblems": 7693,
  "\u2581empire": 7694,
  "\u2581entity": 7695,
  "\u2581everywhere": 7696,
  "\u2581except": 7697,
  "\u2581explaining": 7698,
  "\u2581foretell": 7699,
  "\u2581fresh": 7700,
  "\u2581gaaddidduu": 7701,
  "\u2581godhameera": 7702,
  "\u2581happily": 7703,
  "\u2581hide": 7704,
  "\u2581hojjetamuu": 7705,
  "\u2581impression": 7706,
  "\u2581independence": 7707,
  "\u2581intimate": 7708,
  "\u2581isheedhaa": 7709,
  "\u2581jijjiiramuu": 7710,
  "\u2581jiraadhaa": 7711,
  "\u2581keessumaammoo": 7712,
  "\u2581lion": 7713,
  "\u2581maqaansaa": 7714,
  "\u2581materially": 7715,
  "\u2581misirroo": 7716,
  "\u2581norther": 7717,
  "\u2581nyaatu": 7718,
  "\u2581officer": 7719,
  "\u2581ofittoo": 7720,
  "\u2581olive": 7721,
  "\u2581outline": 7722,
  "\u2581passages": 7723,
  "\u2581pleasures": 7724,
  "\u2581prior": 7725,
  "\u2581qabaachuunsaa": 7726,
  "\u2581qabbanaa": 7727,
  "\u2581qabneen": 7728,
  "\u2581qajeelinaa": 7729,
  "\u2581rakkisa": 7730,
  "\u2581repay": 7731,
  "\u2581sale": 7732,
  "\u2581shoulder": 7733,
  "\u2581station": 7734,
  "\u2581submission": 7735,
  "\u2581survived": 7736,
  "\u2581tajaajile": 7737,
  "\u2581taste": 7738,
  "\u2581terrible": 7739,
  "\u2581tirannaa": 7740,
  "\u2581tokkoffaatti": 7741,
  "\u2581totally": 7742,
  "\u2581turtee": 7743,
  "\u2581unfaithful": 7744,
  "\u2581upset": 7745,
  "\u2581weakness": 7746,
  "\u2581weigh": 7747,
  "\u2581wholeheartedly": 7748,
  "\u2581xiinxaluuf": 7749,
  "\u2581yaadachuudhaan": 7750,
  "9": 7751,
  "HN": 7752,
  "Kana": 7753,
  "P": 7754,
  "aniyyuu": 7755,
  "ibsiisu": 7756,
  "isee": 7757,
  "roo": 7758,
  "ur": 7759,
  "uurratti": 7760,
  "\u25811955": 7761,
  "\u258137.": 7762,
  "\u25818.)": 7763,
  "\u2581Abbaansaa": 7764,
  "\u2581Accordingly": 7765,
  "\u2581Barnaabaas": 7766,
  "\u2581Biraaziil": 7767,
  "\u2581Biruukiliin": 7768,
  "\u2581Galiilaa": 7769,
  "\u2581Galmi": 7770,
  "\u2581Hiriyoota": 7771,
  "\u2581Isaanii": 7772,
  "\u2581Josiah": 7773,
  "\u2581Kibbaa": 7774,
  "\u2581Lubootaa": 7775,
  "\u2581Mirg": 7776,
  "\u2581Mom": 7777,
  "\u2581Much": 7778,
  "\u2581Near": 7779,
  "\u2581Phaawulosiin": 7780,
  "\u2581Y": 7781,
  "\u2581Yoshaafaax": 7782,
  "\u2581akkasiitiif": 7783,
  "\u2581amantiiwwan": 7784,
  "\u2581anii": 7785,
  "\u2581argitee": 7786,
  "\u2581bar": 7787,
  "\u2581barbaaduutti": 7788,
  "\u2581biyyoolessaa": 7789,
  "\u2581bought": 7790,
  "\u2581conquered": 7791,
  "\u2581dandeesse": 7792,
  "\u2581declaring": 7793,
  "\u2581deemne": 7794,
  "\u2581desirable": 7795,
  "\u2581dhaggeeffachuun": 7796,
  "\u2581disobey": 7797,
  "\u2581doctrine": 7798,
  "\u2581ejersaa": 7799,
  "\u2581fageenya": 7800,
  "\u2581flow": 7801,
  "\u2581format": 7802,
  "\u2581fudhannee": 7803,
  "\u2581gabaa": 7804,
  "\u2581garagaraa": 7805,
  "\u2581guddisu": 7806,
  "\u2581haaraatti": 7807,
  "\u2581hammina": 7808,
  "\u2581hawwiin": 7809,
  "\u2581hirmaanne": 7810,
  "\u2581hojjetee": 7811,
  "\u2581honesty": 7812,
  "\u2581host": 7813,
  "\u2581hundumaarra": 7814,
  "\u2581jaallatamoo": 7815,
  "\u2581kaffaluu": 7816,
  "\u2581kakaanee": 7817,
  "\u2581kamirratti": 7818,
  "\u2581keenyadha": 7819,
  "\u2581keessummaa": 7820,
  "\u2581matadureewwan": 7821,
  "\u2581namely": 7822,
  "\u2581necessarily": 7823,
  "\u2581presentation": 7824,
  "\u2581promoted": 7825,
  "\u2581prov": 7826,
  "\u2581qaam": 7827,
  "\u2581receives": 7828,
  "\u2581running": 7829,
  "\u2581sibiilaa": 7830,
  "\u2581soldier": 7831,
  "\u2581suggests": 7832,
  "\u2581tasgabbaa": 7833,
  "\u2581tremendous": 7834,
  "\u2581unwise": 7835,
  "\u2581weaken": 7836,
  "\u2581yeroosaatti": 7837,
  "Guyyaa": 7838,
  "ably": 7839,
  "adhu": 7840,
  "dii": 7841,
  "ellee": 7842,
  "hafuura": 7843,
  "il": 7844,
  "isuudhaan": 7845,
  "longside": 7846,
  "udha": 7847,
  "\u25814.)": 7848,
  "\u258159": 7849,
  "\u2581Aasaa": 7850,
  "\u2581Asor": 7851,
  "\u2581BABAL": 7852,
  "\u2581CAN": 7853,
  "\u2581COR": 7854,
  "\u2581Credi": 7855,
  "\u2581Deevid": 7856,
  "\u2581Haagee": 7857,
  "\u2581Haggai": 7858,
  "\u2581ISAA": 7859,
  "\u2581Jordan": 7860,
  "\u2581Lak": 7861,
  "\u2581Lewwoota": 7862,
  "\u2581Ma": 7863,
  "\u2581Meeshaa": 7864,
  "\u2581Mootummaatti": 7865,
  "\u2581Sanyii": 7866,
  "\u2581WAS": 7867,
  "\u2581abdachiise": 7868,
  "\u2581abusive": 7869,
  "\u2581adeemaa": 7870,
  "\u2581ajajamuun": 7871,
  "\u2581amanna": 7872,
  "\u2581analyze": 7873,
  "\u2581arganneef": 7874,
  "\u2581argatin": 7875,
  "\u2581arjaa": 7876,
  "\u2581badiisni": 7877,
  "\u2581banu": 7878,
  "\u2581barumsichaa": 7879,
  "\u2581beekneef": 7880,
  "\u2581birmaduu": 7881,
  "\u2581cimsanii": 7882,
  "\u2581cimsuuf": 7883,
  "\u2581computer": 7884,
  "\u2581contemplate": 7885,
  "\u2581cuuphamee": 7886,
  "\u2581cuuphamne": 7887,
  "\u2581daawwatt": 7888,
  "\u2581deceptive": 7889,
  "\u2581delay": 7890,
  "\u2581depressed": 7891,
  "\u2581deserves": 7892,
  "\u2581dhaabate": 7893,
  "\u2581dhiphatan": 7894,
  "\u2581dhuga": 7895,
  "\u2581dinqisiifannu": 7896,
  "\u2581distinguish": 7897,
  "\u2581dogoggoraan": 7898,
  "\u2581eeggannu": 7899,
  "\u2581enhance": 7900,
  "\u2581equal": 7901,
  "\u2581ergu": 7902,
  "\u2581fudhatamee": 7903,
  "\u2581fufee": 7904,
  "\u2581fulfilling": 7905,
  "\u2581galaa": 7906,
  "\u2581games": 7907,
  "\u2581garments": 7908,
  "\u2581geessa": 7909,
  "\u2581gooftummaa": 7910,
  "\u2581grows": 7911,
  "\u2581guddisuuf": 7912,
  "\u2581hafuur": 7913,
  "\u2581handed": 7914,
  "\u2581hospital": 7915,
  "\u2581ibsutti": 7916,
  "\u2581improper": 7917,
  "\u2581initially": 7918,
  "\u2581jibban": 7919,
  "\u2581jirreef": 7920,
  "\u2581keenyarraa": 7921,
  "\u2581keessaniin": 7922,
  "\u2581kinds": 7923,
  "\u2581lean": 7924,
  "\u2581mirkaneessan": 7925,
  "\u2581ofiisaa": 7926,
  "\u2581online": 7927,
  "\u2581qabeenyi": 7928,
  "\u2581qayyabachuufi": 7929,
  "\u2581qopheessuuf": 7930,
  "\u2581qubee": 7931,
  "\u2581scale": 7932,
  "\u2581sessions": 7933,
  "\u2581settled": 7934,
  "\u2581sinner": 7935,
  "\u2581suggested": 7936,
  "\u2581tamboo": 7937,
  "\u2581tuquu": 7938,
  "\u2581visions": 7939,
  "\u2581weapons": 7940,
  ",000,000": 7941,
  "by": 7942,
  "do": 7943,
  "gave": 7944,
  "tuuta": 7945,
  "uusaaniirrayyuu": 7946,
  "waa": 7947,
  "\u258112.)": 7948,
  "\u25811879": 7949,
  "\u25811953": 7950,
  "\u25812001": 7951,
  "\u2581ARTICLE": 7952,
  "\u2581Alaazaar": 7953,
  "\u2581Ari": 7954,
  "\u2581Caqasoota": 7955,
  "\u2581Christlike": 7956,
  "\u2581Consequently": 7957,
  "\u2581Describe": 7958,
  "\u2581Dilbata": 7959,
  "\u2581Hubannaa": 7960,
  "\u2581Ibroonni": 7961,
  "\u2581Isheen": 7962,
  "\u2581Jaarsolii": 7963,
  "\u2581Maatiiwwan": 7964,
  "\u2581Maria": 7965,
  "\u2581Michoonni": 7966,
  "\u2581OUR": 7967,
  "\u2581Obboleettonni": 7968,
  "\u2581Power": 7969,
  "\u2581Qabiyyee": 7970,
  "\u2581Shamarree": 7971,
  "\u2581Sirni": 7972,
  "\u2581Sochii": 7973,
  "\u2581Spanish": 7974,
  "\u2581Stephen": 7975,
  "\u2581Ur": 7976,
  "\u2581V": 7977,
  "\u2581Wangeelli": 7978,
  "\u2581accompani": 7979,
  "\u2581adolescent": 7980,
  "\u2581advanced": 7981,
  "\u2581ajajee": 7982,
  "\u2581amaloota": 7983,
  "\u2581badiisaa": 7984,
  "\u2581barichaa": 7985,
  "\u2581belonging": 7986,
  "\u2581biqiltuu": 7987,
  "\u2581bore": 7988,
  "\u2581catch": 7989,
  "\u2581counted": 7990,
  "\u2581creative": 7991,
  "\u2581cried": 7992,
  "\u2581dubbisna": 7993,
  "\u2581elsewhere": 7994,
  "\u2581exhort": 7995,
  "\u2581expectations": 7996,
  "\u2581fakkeeffame": 7997,
  "\u2581foremost": 7998,
  "\u2581fourth": 7999,
  "\u2581friendly": 8000,
  "\u2581fudhatamani": 8001,
  "\u2581garaatti": 8002,
  "\u2581gonkummaa": 8003,
  "\u2581happier": 8004,
  "\u2581hariiroon": 8005,
  "\u2581illustrates": 8006,
  "\u2581inspiration": 8007,
  "\u2581irraanfachuu": 8008,
  "\u2581jechaa": 8009,
  "\u2581kadhatu": 8010,
  "\u2581kamiif": 8011,
  "\u2581kingship": 8012,
  "\u2581kunuunsu": 8013,
  "\u2581labor": 8014,
  "\u2581lacking": 8015,
  "\u2581lawlessness": 8016,
  "\u2581limits": 8017,
  "\u2581manaas": 8018,
  "\u2581neglect": 8019,
  "\u2581overlook": 8020,
  "\u2581petitions": 8021,
  "\u2581prais": 8022,
  "\u2581produces": 8023,
  "\u2581propaganda": 8024,
  "\u2581qabanis": 8025,
  "\u2581safeguard": 8026,
  "\u2581sassaabuu": 8027,
  "\u2581sheba": 8028,
  "\u2581shield": 8029,
  "\u2581silence": 8030,
  "\u2581skin": 8031,
  "\u2581souled": 8032,
  "\u2581submissive": 8033,
  "\u2581succumb": 8034,
  "\u2581supplication": 8035,
  "\u2581tendencies": 8036,
  "\u2581tokkorra": 8037,
  "\u2581typical": 8038,
  "\u2581uffachuu": 8039,
  "\u2581unselfish": 8040,
  "\u2581waamu": 8041,
  "\u2581warn": 8042,
  "\u2581weight": 8043,
  "\u2581xiyyeeffachuuf": 8044,
  "\u2581yaaduufi": 8045,
  "\u2581yielding": 8046,
  "aam": 8047,
  "eesaanii": 8048,
  "naan": 8049,
  "specially": 8050,
  "ward": 8051,
  "working": 8052,
  "\u2581118": 8053,
  "\u258189": 8054,
  "\u2581Akeekkachiisa": 8055,
  "\u2581Babylonian": 8056,
  "\u2581Death": 8057,
  "\u2581Empire": 8058,
  "\u2581Fedha": 8059,
  "\u2581Had": 8060,
  "\u2581Mootummaasaa": 8061,
  "\u2581Naazii": 8062,
  "\u2581Piroofeesar": 8063,
  "\u2581Sanbataa": 8064,
  "\u2581Serve": 8065,
  "\u2581Sheebaa": 8066,
  "\u2581Sillaasee": 8067,
  "\u2581Ulaagaa": 8068,
  "\u2581Umrii": 8069,
  "\u2581Yiftaa": 8070,
  "\u2581ajajeera": 8071,
  "\u2581alaatti": 8072,
  "\u2581amanaman": 8073,
  "\u2581argisiisee": 8074,
  "\u2581barbaadamu": 8075,
  "\u2581barreessiteetti": 8076,
  "\u2581bidiruu": 8077,
  "\u2581burn": 8078,
  "\u2581cells": 8079,
  "\u2581collect": 8080,
  "\u2581covering": 8081,
  "\u2581deceived": 8082,
  "\u2581detailed": 8083,
  "\u2581devote": 8084,
  "\u2581distracted": 8085,
  "\u2581eeguufi": 8086,
  "\u2581execute": 8087,
  "\u2581fakkeenyaaf": 8088,
  "\u2581feared": 8089,
  "\u2581guyy": 8090,
  "\u2581hafaniiru": 8091,
  "\u2581hafee": 8092,
  "\u2581hawwu": 8093,
  "\u2581honesthearted": 8094,
  "\u2581hunduma": 8095,
  "\u2581hungry": 8096,
  "\u2581hypocrisy": 8097,
  "\u2581inactive": 8098,
  "\u2581irraanfanne": 8099,
  "\u2581isheenis": 8100,
  "\u2581jiraadhu": 8101,
  "\u2581kibba": 8102,
  "\u2581mara": 8103,
  "\u2581murder": 8104,
  "\u2581murteeffame": 8105,
  "\u2581naga": 8106,
  "\u2581oversight": 8107,
  "\u2581parallel": 8108,
  "\u2581possibility": 8109,
  "\u2581producing": 8110,
  "\u2581psalm": 8111,
  "\u2581qabanne": 8112,
  "\u2581qabeenyaaf": 8113,
  "\u2581qofatti": 8114,
  "\u2581raawwatamee": 8115,
  "\u2581recalled": 8116,
  "\u2581sending": 8117,
  "\u2581siin": 8118,
  "\u2581sirreessu": 8119,
  "\u2581soil": 8120,
  "\u2581stones": 8121,
  "\u2581struggling": 8122,
  "\u2581suitable": 8123,
  "\u2581taana": 8124,
  "\u2581teens": 8125,
  "\u2581timely": 8126,
  "\u2581tuqe": 8127,
  "\u2581unrepentant": 8128,
  "\u2581uumamne": 8129,
  "\u2581womb": 8130,
  "\u2581xiyyeeffachuun": 8131,
  "\u2581yaaddee": 8132,
  "\u2581yaaliin": 8133,
  "\u2581yeroodhaa": 8134,
  "800": 8135,
  "Abo": 8136,
  "Amma": 8137,
  "eessummaa": 8138,
  "naatti": 8139,
  "they": 8140,
  "those": 8141,
  "\u258117.)": 8142,
  "\u25812005": 8143,
  "\u258140,": 8144,
  "\u258141,": 8145,
  "\u258148.": 8146,
  "\u2581Answered": 8147,
  "\u2581Continue": 8148,
  "\u2581European": 8149,
  "\u2581Fakkeenyota": 8150,
  "\u2581Garee": 8151,
  "\u2581Malli": 8152,
  "\u2581Manaa": 8153,
  "\u2581Naomi": 8154,
  "\u2581Qajeelfam": 8155,
  "\u2581Tokkummaa": 8156,
  "\u2581Yosiyaas": 8157,
  "\u2581adeeme": 8158,
  "\u2581ajjeefamu": 8159,
  "\u2581argachuudhaan": 8160,
  "\u2581baanne": 8161,
  "\u2581burning": 8162,
  "\u2581centered": 8163,
  "\u2581cinne": 8164,
  "\u2581confirmed": 8165,
  "\u2581dandeesseetti": 8166,
  "\u2581declaration": 8167,
  "\u2581deemtee": 8168,
  "\u2581dhaabatanii": 8169,
  "\u2581dhaggeeffatu": 8170,
  "\u2581dhimmicha": 8171,
  "\u2581dhiphatee": 8172,
  "\u2581diimaa": 8173,
  "\u2581diligently": 8174,
  "\u2581discusse": 8175,
  "\u2581distributed": 8176,
  "\u2581ensure": 8177,
  "\u2581envy": 8178,
  "\u2581ergaman": 8179,
  "\u2581fakkaataa": 8180,
  "\u2581filataman": 8181,
  "\u2581gaafachuuf": 8182,
  "\u2581galmeeffame": 8183,
  "\u2581garment": 8184,
  "\u2581hafa": 8185,
  "\u2581hayyoonni": 8186,
  "\u2581hojjenna": 8187,
  "\u2581hundaan": 8188,
  "\u2581inkirdaada": 8189,
  "\u2581interfere": 8190,
  "\u2581ittaanutti": 8191,
  "\u2581jedhudha": 8192,
  "\u2581jibbi": 8193,
  "\u2581jirus": 8194,
  "\u2581judicial": 8195,
  "\u2581k": 8196,
  "\u2581madaalamaa": 8197,
  "\u2581merit": 8198,
  "\u2581murteessite": 8199,
  "\u2581namootaarratti": 8200,
  "\u2581obvious": 8201,
  "\u2581offense": 8202,
  "\u2581pieces": 8203,
  "\u2581population": 8204,
  "\u2581programs": 8205,
  "\u2581readers": 8206,
  "\u2581resentment": 8207,
  "\u2581sadaffaa": 8208,
  "\u2581sassata": 8209,
  "\u2581sensitive": 8210,
  "\u2581similarly": 8211,
  "\u2581stating": 8212,
  "\u2581steadfast": 8213,
  "\u2581steward": 8214,
  "\u2581taateefi": 8215,
  "\u2581table": 8216,
  "\u2581team": 8217,
  "\u2581tongues": 8218,
  "\u2581traditions": 8219,
  "\u2581transform": 8220,
  "\u2581ulfaatee": 8221,
  "\u2581ulfinaan": 8222,
  "\u2581unscriptural": 8223,
  "\u2581victims": 8224,
  "\u2581visitors": 8225,
  "\u2581waaqeffachuuf": 8226,
  "\u2581waaqeffattoonni": 8227,
  "\u2581yaale": 8228,
  "TTI": 8229,
  "aab": 8230,
  "aatiin": 8231,
  "sanyii": 8232,
  "there": 8233,
  "\u2581106": 8234,
  "\u258113.)": 8235,
  "\u258115.)": 8236,
  "\u25811914.": 8237,
  "\u25811943": 8238,
  "\u25811952": 8239,
  "\u25817.)": 8240,
  "\u2581Abbaankoo": 8241,
  "\u2581Ana": 8242,
  "\u2581Baat": 8243,
  "\u2581Biritaaniyaa": 8244,
  "\u2581Dad": 8245,
  "\u2581Guddicha": 8246,
  "\u2581Joo": 8247,
  "\u2581LIFE": 8248,
  "\u2581Lafaa": 8249,
  "\u2581Miilkiyaas": 8250,
  "\u2581Mootummichaaf": 8251,
  "\u2581NI": 8252,
  "\u2581PUBLISHERS": 8253,
  "\u2581Sadaffaa": 8254,
  "\u2581Tak": 8255,
  "\u2581Ver": 8256,
  "\u2581aim": 8257,
  "\u2581ajajamoo": 8258,
  "\u2581ajjeefaman": 8259,
  "\u2581amazed": 8260,
  "\u2581annual": 8261,
  "\u2581apostasy": 8262,
  "\u2581arga": 8263,
  "\u2581argisiisne": 8264,
  "\u2581argisiiste": 8265,
  "\u2581barbaachiseera": 8266,
  "\u2581barreessaniiru": 8267,
  "\u2581bears": 8268,
  "\u2581billions": 8269,
  "\u2581caaludha": 8270,
  "\u2581characteristics": 8271,
  "\u2581childhood": 8272,
  "\u2581cina": 8273,
  "\u2581commercial": 8274,
  "\u2581cuuphamuudhaan": 8275,
  "\u2581dabarsine": 8276,
  "\u2581dhabu": 8277,
  "\u2581drop": 8278,
  "\u2581dry": 8279,
  "\u2581dubartittii": 8280,
  "\u2581fannifamee": 8281,
  "\u2581fortify": 8282,
  "\u2581fun": 8283,
  "\u2581gabaaseera": 8284,
  "\u2581geessisee": 8285,
  "\u2581geggeeffamaa": 8286,
  "\u2581godhatu": 8287,
  "\u2581harkisu": 8288,
  "\u2581hawaasaa": 8289,
  "\u2581hedduunis": 8290,
  "\u2581hot": 8291,
  "\u2581identifie": 8292,
  "\u2581judgments": 8293,
  "\u2581kaardii": 8294,
  "\u2581kaasanii": 8295,
  "\u2581kaasuudhaan": 8296,
  "\u2581leenjisuuf": 8297,
  "\u2581michuun": 8298,
  "\u2581o": 8299,
  "\u2581oppression": 8300,
  "\u2581poolisii": 8301,
[...]
