{
  "</s>": 0,
  "<unk>": 1,
  "\u2581\"": 2,
  "'": 3,
  "\u2581e": 4,
  ",": 5,
  ".": 6,
  "\u2581a": 7,
  "\u2581he": 8,
  "\u2581the": 9,
  "\u2581i": 10,
  "\u2581ke": 11,
  "\u2581ko": 12,
  "\u2581o": 13,
  "i": 14,
  "\u2581to": 15,
  "\u2581ki": 16,
  "\u2581-": 17,
  "\u2581mo": 18,
  "\u2581of": 19,
  "\u2581ha": 20,
  "\u2581oku": 21,
  "a": 22,
  "\u2581na": 23,
  "e": 24,
  "\"": 25,
  "\u2581ai": 26,
  "\u2581ia": 27,
  "\u2581and": 28,
  "\u2581ngaahi": 29,
  "u": 30,
  "?": 31,
  ":": 32,
  "\u2581in": 33,
  "\u2581Ko": 34,
  "\u2581ne": 35,
  "s": 36,
  "\u2581that": 37,
  "\u2581I": 38,
  "\u00e1": 39,
  "\u2581hono": 40,
  "\u2581me": 41,
  "\u2581kau": 42,
  "\u2581pea": 43,
  "\u2581nau": 44,
  "\u2581is": 45,
  "aki": 46,
  "\u2581": 47,
  "\u2581ma": 48,
  "\u2581ikai": 49,
  "\u2581Na": 50,
  "\u2581Oku": 51,
  "\u2581tau": 52,
  "\u2581Jehovah": 53,
  "\u2581for": 54,
  "\u2581p\u0113": 55,
  "\u2581his": 56,
  "\u2581God": 57,
  "\u2581we": 58,
  "oni": 59,
  "\u2581ta": 60,
  "\u2581tu": 61,
  "\u2581fa": 62,
  "\u2581faka": 63,
  "\u2581with": 64,
  "\u2581be": 65,
  "\u2581was": 66,
  "\u2581ng\u0101ue": 67,
  "\u2581you": 68,
  "\u2581te": 69,
  "\u2581mei": 70,
  "\u2581h\u0101": 71,
  "\u2581not": 72,
  "\u2581ni": 73,
  "\u2581fai": 74,
  "\u2581Otu\u00e1": 75,
  "\u2581on": 76,
  "\u2581as": 77,
  "\u2581taimi": 78,
  "\u2581lahi": 79,
  "\u2581hoko": 80,
  "\u2581taha": 81,
  "\u2581are": 82,
  "\u2581have": 83,
  "\u2581lava": 84,
  "\u2581will": 85,
  "\u2581Sihova": 86,
  "\u2581pe": 87,
  "\u2581The": 88,
  "o": 89,
  "\u2581ene": 90,
  "unga": 91,
  "\u2581it": 92,
  "anga": 93,
  ";": 94,
  "\u2581(": 95,
  "\u2581our": 96,
  "\u2581kuo": 97,
  "\u2581mai": 98,
  "\u2581by": 99,
  "\u2581from": 100,
  "ing": 101,
  "\u2581Jesus": 102,
  "\u2581[": 103,
  "\u2581atu": 104,
  "\u2581i\u00e1": 105,
  "\u2581can": 106,
  "\u2581peh\u0113": 107,
  "\u2581kia": 108,
  "\u2581anga": 109,
  "\u2581their": 110,
  "!": 111,
  "\u2581us": 112,
  "\u25811": 113,
  "\u2581kiate": 114,
  "\u2581lelei": 115,
  "\u2581who": 116,
  "\u2581kotoa": 117,
  "\u2581Bible": 118,
  "k\u00fa": 119,
  "\u2581they": 120,
  "\u2581koe": 121,
  "\u2581toe": 122,
  "\u2581loto": 123,
  "\u2581ange": 124,
  "\u2581ho": 125,
  "\u2581or": 126,
  ")": 127,
  "ahinga": 128,
  "\u2581fekau": 129,
  "\u2581Sihov\u00e1": 130,
  "\u2581ilo": 131,
  "\u2581ongo": 132,
  "\u2581what": 133,
  "\u2581this": 134,
  "\u2581What": 135,
  "\u2581lea": 136,
  "\u2581do": 137,
  "ihi": 138,
  "\u2581ako": 139,
  "\u2581en\u00ed": 140,
  "\u2581E": 141,
  "\u2581tokoni": 142,
  "\u2581your": 143,
  "\u2581were": 144,
  "\u2581had": 145,
  "\u2581S\u012bs\u016b": 146,
  "\u2581all": 147,
  "\u2581one": 148,
  "\u2581at": 149,
  "\u2581kitautolu": 150,
  "\u2581nai": 151,
  "\u2581Tohi": 152,
  "ui": 153,
  "\u00fa": 154,
  "\u2581kinautolu": 155,
  "\u2581him": 156,
  "\u2581fakataha": 157,
  "\u2581fiema": 158,
  "\u2581them": 159,
  "\u2581ku": 160,
  "\u2581an": 161,
  "\u2581'": 162,
  "\u2581In": 163,
  "\u2581people": 164,
  "ene": 165,
  "\u2581tokotaha": 166,
  "\u2581tohi": 167,
  "\u2581kehe": 168,
  "\u2581kakai": 169,
  "\u2581about": 170,
  "\u2581f\u0113f\u0113": 171,
  "ang\u00e1": 172,
  "\u2581He": 173,
  "\u2581How": 174,
  "\u2581would": 175,
  "\u2581has": 176,
  "\u2581founga": 177,
  "\u2581when": 178,
  "\u2581ka": 179,
  "\u2581did": 180,
  "\u2581my": 181,
  "on\u00ed": 182,
  "]": 183,
  "\u25812": 184,
  "\u2581mu": 185,
  "ia": 186,
  "\u2581time": 187,
  "\u2581ofa": 188,
  "\u2581may": 189,
  "\u2581fakakaukau": 190,
  "inga": 191,
  "\u2581totonu": 192,
  "\u2581Tap\u00fa": 193,
  "\u2581fo": 194,
  "\u2581a\u00ed": 195,
  "\u2581fakamatala": 196,
  "\u2581life": 197,
  "\u2581u": 198,
  "\u2581enau": 199,
  "\u2581m\u0101tu": 200,
  "\u2581but": 201,
  "\u2581au": 202,
  "\u2581etau": 203,
  "\u2581hang\u0113": 204,
  "\u2581A": 205,
  "\u2581those": 206,
  "\u2581lotu": 207,
  "\u2581mahu": 208,
  "\u2581pau": 209,
  "\u2581so": 210,
  "\u2581aki": 211,
  "\u2581fakahaa": 212,
  "\u2581fanga": 213,
  "\u2581malava": 214,
  "\u2581aho": 215,
  "uhi": 216,
  "\u2581uhinga": 217,
  "\u2581nofo": 218,
  "\u2581foki": 219,
  "\u2581keh\u00e9": 220,
  "\u2581her": 221,
  "\u2581more": 222,
  "\u2581some": 223,
  "\u2581fe": 224,
  "\u00ed": 225,
  "\u2581also": 226,
  "\u2581help": 227,
  "\u2581tala": 228,
  "\u2581tangata": 229,
  "\u2581how": 230,
  "\u2581tali": 231,
  "u\u00ed": 232,
  "\u2581fiefia": 233,
  "\u2581out": 234,
  "\u2581tauhi": 235,
  "\u2581good": 236,
  "\u2581Kau": 237,
  "\u2581Ka": 238,
  "\u2581pule": 239,
  "\u2581tatau": 240,
  "\u2581tokolahi": 241,
  "\u2581sio": 242,
  "\u2581eni": 243,
  "\u2581such": 244,
  "\u2581We": 245,
  "\u2581been": 246,
  "\u2581fokotu": 247,
  "\u2581honau": 248,
  "/": 249,
  "\u2581Fakamo": 250,
  "\u2581love": 251,
  "\u2581lau": 252,
  "\u2581aupito": 253,
  "\u2581hotau": 254,
  "\u2581peesi": 255,
  "\u2581up": 256,
  "\u2581Paul": 257,
  "\u2581many": 258,
  "\u2581Witnesses": 259,
  "ed": 260,
  "\u2581It": 261,
  "\u2581tangat\u00e1": 262,
  "\u2581should": 263,
  "\u2581way": 264,
  "\u2581work": 265,
  "\u2581things": 266,
  "\u2581m\u0101": 267,
  "\u25815": 268,
  "\u2581does": 269,
  "\u2581no": 270,
  "\u2581if": 271,
  "\u2581mahino": 272,
  "\u2581Otua": 273,
  "\u2581tui": 274,
  "\u2581toko": 275,
  "\u2581hake": 276,
  "\u2581eku": 277,
  "\u2581m\u0101man\u00ed": 278,
  "\u2581kaka\u00ed": 279,
  "\u2581Christian": 280,
  "\u2581m\u0101lohi": 281,
  "\u2581said": 282,
  "\u2581other": 283,
  "\u2581make": 284,
  "\u2581tokanga": 285,
  "\u2581there": 286,
  "\u2581faingata": 287,
  "\u2581Kalisitian\u00e9": 288,
  "\u2581feitu": 289,
  "\u2581Kalisitiane": 290,
  "\u2581could": 291,
  "\u2581even": 292,
  "\u2581world": 293,
  "\u258115": 294,
  "\u2581page": 295,
  "\u2581kamata": 296,
  "\u2581hoku": 297,
  "\u2581Kae": 298,
  "\u2581day": 299,
  "\u2581When": 300,
  "\u2581than": 301,
  "\u2581si": 302,
  "\u2581Pule": 303,
  "\u2581Why": 304,
  "\u2581man": 305,
  "ly": 306,
  "\u2581Christians": 307,
  "\u2581fili": 308,
  "\u2022": 309,
  "\u2581Kingdom": 310,
  "ofa": 311,
  "\u2581kapau": 312,
  "\u2581omai": 313,
  "\u2581S\u012bsu\u00fa": 314,
  "\u2581fu": 315,
  "\u2581ou": 316,
  "\u2581fakamo": 317,
  "\u2581Christ": 318,
  "\u2581others": 319,
  "\u2581tuku": 320,
  "\u2581fakahoko": 321,
  "\u2581feinga": 322,
  "\u2581spirit": 323,
  "\u2581which": 324,
  "\u2581into": 325,
  "Ko": 326,
  "\u2581years": 327,
  "the": 328,
  "\u2581these": 329,
  "\u2581first": 330,
  "\u2581leva": 331,
  "\u2581Neongo": 332,
  "\u2581she": 333,
  "\u2581earth": 334,
  "\u2581konga": 335,
  "\u2581For": 336,
  "\u25813:": 337,
  "\u2581need": 338,
  "\u00f3": 339,
  "\u2581They": 340,
  "\u2581But": 341,
  "\u2581This": 342,
  "\u2581faith": 343,
  "\u2581taki": 344,
  "\u2581fakapapau": 345,
  "\u2581tonu": 346,
  "\u2581t\u014d": 347,
  "\u2581example": 348,
  "\u2581Ok": 349,
  "\u2581spiritual": 350,
  "\u2581As": 351,
  "\u2581Ke": 352,
  "\u2581vakai": 353,
  "\u2581family": 354,
  "\u2581because": 355,
  "\u2581Kapau": 356,
  "\u2581children": 357,
  "\u2581Kuo": 358,
  "\u2581congregation": 359,
  "\u2581If": 360,
  "etau": 361,
  "\u2581only": 362,
  "\u2581made": 363,
  "enau": 364,
  "\u2581uluaki": 365,
  "\u2581lolotonga": 366,
  "\u2581tupu": 367,
  "\u2581says": 368,
  "\u2581Fakat\u0101t\u0101": 369,
  "\u2581must": 370,
  "\u258111": 371,
  "\u2581liliu": 372,
  "\u2581being": 373,
  "\u2581mate": 374,
  "ahi": 375,
  "\u2581fakah\u0101h\u0101": 376,
  "ifa": 377,
  "\u2581You": 378,
  "\u2581malanga": 379,
  "\u25814": 380,
  "\u2581Pea": 381,
  "itaki": 382,
  "\u2581*": 383,
  "\u2581see": 384,
  "\u2581alu": 385,
  "\u2581oua": 386,
  "\u2581heart": 387,
  "utu": 388,
  "\u2581over": 389,
  "\u2581taim\u00ed": 390,
  "\u2581like": 391,
  "...": 392,
  "\u2581know": 393,
  "\u2581mou": 394,
  "\u2581m\u0101mani": 395,
  "\u2581then": 396,
  "\u2581true": 397,
  "\u2581taumu": 398,
  "\u2581take": 399,
  "\u2581vaha": 400,
  "\u2581come": 401,
  "\u2581ones": 402,
  "\u2581kae": 403,
  "ou": 404,
  "\u25816:": 405,
  "\u2581tah\u00e1": 406,
  "\u2581f\u0101na\u00fa": 407,
  "\u2581Tohitap\u00fa": 408,
  "\u2581fale": 409,
  "Ngaahi": 410,
  "\u2581words": 411,
  "\u2581well": 412,
  "\u2581tefito": 413,
  "\u258112": 414,
  "\u2581become": 415,
  "\u2581aonga": 416,
  "\u25811,": 417,
  "\u2581T": 418,
  "ate": 419,
  "\u2581mau": 420,
  "\u2581own": 421,
  "\u2581Paula": 422,
  "\u2581hili": 423,
  "\u2581its": 424,
  "\u2581before": 425,
  "\u2581hokohoko": 426,
  "\u2581osi": 427,
  "\u25818": 428,
  "\u2581just": 429,
  "\u258113": 430,
  "ehi": 431,
  "\u2581ngata": 432,
  "onga": 433,
  "\u2581fakatupu": 434,
  "\u2581fanongo": 435,
  "\u2581death": 436,
  "\u2581laum\u0101lie": 437,
  "at\u0101": 438,
  "\u2581lele\u00ed": 439,
  "\u2581Picture": 440,
  "\u2581David": 441,
  "\u2581Ikai": 442,
  "\u2581And": 443,
  "\u2581To": 444,
  "\u2581give": 445,
  "\u2581malu": 446,
  "\u2581after": 447,
  "\u2581men": 448,
  "\u2581might": 449,
  "\u2581John": 450,
  "\u2581That": 451,
  "b": 452,
  "\u2581ng\u0101u\u00e9": 453,
  "\u2581Word": 454,
  "\u2581now": 455,
  "I": 456,
  "\u2581pehe\u00e9": 457,
  "\u2581talanoa": 458,
  "d": 459,
  "\u2581fakatu": 460,
  "\u2581new": 461,
  "\u258114": 462,
  "\u2581truth": 463,
  "\u2581two": 464,
  "\u2581kovi": 465,
  "\u2581any": 466,
  "\u2581study": 467,
  "uh\u00ed": 468,
  "\u2581parents": 469,
  "\u2581tafa": 470,
  "\u2581Satan": 471,
  "\u2581another": 472,
  "\u2581person": 473,
  "\u2581f\u0101mil\u00ed": 474,
  "\u2581through": 475,
  "\u2581mui": 476,
  "\u2581fonua": 477,
  "\u2581Kalaisi": 478,
  "\u2581brothers": 479,
  "\u2581very": 480,
  "\u2581ah\u00f3": 481,
  "\u2581times": 482,
  "osi": 483,
  "\u2581name": 484,
  "\u2581tokoua": 485,
  "\u2581hiki": 486,
  "\u2581ang\u00e9": 487,
  "\u258110": 488,
  "\u2581fehu": 489,
  "\u2581ua": 490,
  "E": 491,
  "\u2581Te": 492,
  "\u2581falala": 493,
  "\u2581today": 494,
  "apa": 495,
  "S": 496,
  "\u258120": 497,
  "\u2581much": 498,
  "\u2581apositolo": 499,
  "\u2581apostle": 500,
  "\u2581meimei": 501,
  "\u2581Koe": 502,
  "\u2581hala": 503,
  "\u2581lave": 504,
  "\u2581kole": 505,
  "\u2581\u0113": 506,
  "\u2581young": 507,
  "\u2581Tapu": 508,
  "\u2581find": 509,
  "\u2581great": 510,
  "\u2581Ma": 511,
  "\u2581mamahi": 512,
  "\u2581part": 513,
  "\u2581Tu": 514,
  "\u2581Paul\u00e1": 515,
  "\u0113": 516,
  "\u2581amanaki": 517,
  "eku": 518,
  "\u2581kupu": 519,
  "\u2581fakatokanga": 520,
  "\u2581found": 521,
  "\u2581fakat\u0101ta\u00e1": 522,
  "\u2581where": 523,
  "\u2581fakalaum\u0101lie": 524,
  "\u2581Israel": 525,
  "\u2581put": 526,
  "\u258117": 527,
  "t": 528,
  "\u2581keep": 529,
  "\u2581himself": 530,
  "\u2581use": 531,
  "\u2581fefine": 532,
  "\u2581However": 533,
  "\u2581against": 534,
  "\u2581ofi": 535,
  "\u2581Do": 536,
  "\u2581feel": 537,
  "\u2581One": 538,
  "\u2581langa": 539,
  "\u2581show": 540,
  "\u2581kehekehe": 541,
  "\u2581most": 542,
  "\u2581neongo": 543,
  "\u258116": 544,
  "\u2581muimui": 545,
  "\u2581Mo": 546,
  "\u2581kimoutolu": 547,
  "\u25813": 548,
  "\u2581learn": 549,
  "ikai": 550,
  "\u2581akonaki": 551,
  "\u2581each": 552,
  "\u2581say": 553,
  "\u2581wrote": 554,
  "\u2581f\u0101": 555,
  "\u2581means": 556,
  "\u2581kakato": 557,
  "\u2581Faka": 558,
  "\u2581So": 559,
  "\u2581faithful": 560,
  "\u2581ministry": 561,
  "\u2581home": 562,
  "\u2581lot\u00fa": 563,
  "\u2581mali": 564,
  "\u2581worship": 565,
  "\u2581Ki": 566,
  "\u2581Isilel\u00ed": 567,
  "\u2581kumi": 568,
  "\u2581why": 569,
  "\u2581Peter": 570,
  "\u2581Folofola": 571,
  "\u2581n\u00ed": 572,
  "\u2581Father": 573,
  "\u2581human": 574,
  "\u2581iku": 575,
  "\u2581pa": 576,
  "\u2581Luke": 577,
  "\u2581foaki": 578,
  "\u2581ui": 579,
  "\u2581oange": 580,
  "\u2581tu\u00ed": 581,
  "\u2581hifo": 582,
  "\u2581same": 583,
  "\u2581right": 584,
  "\u2581fakae": 585,
  "\u2581long": 586,
  "\u2581important": 587,
  "\u2581course": 588,
  "\u2581C": 589,
  "\u2581vahe": 590,
  "\u2581used": 591,
  "\u2581year": 592,
  "4:": 593,
  "\u2581end": 594,
  "\u2581news": 595,
  "\u2581though": 596,
  "\u2581toki": 597,
  "\u2581upon": 598,
  "\u2581place": 599,
  "\u2581fakalaum\u0101li\u00e9": 600,
  "\u2581kaume": 601,
  "\u2581After": 602,
  "\u2581never": 603,
  "\u2581Some": 604,
  "\u25812.": 605,
  "\u2581book": 606,
  "\u2581preaching": 607,
  "\u2581lot\u00f3": 608,
  "\u2581ala": 609,
  "\u2581fakafo": 610,
  "\u2581At": 611,
  "\u2581word": 612,
  "\u258119": 613,
  "\u2581fakat\u0101t\u0101": 614,
  "\u2581mal\u00ed": 615,
  "\u2581mat\u00e9": 616,
  "\u2581fa\u00ed": 617,
  "\u2581under": 618,
  "\u2581wife": 619,
  "\u2581holy": 620,
  "\u2581became": 621,
  "\u2581serve": 622,
  "\u2581tataki": 623,
  "\u2581eke": 624,
  "\u2581mind": 625,
  "\u2581every": 626,
  "\u2581service": 627,
  "\u2581often": 628,
  "\u2581came": 629,
  "\u2581go": 630,
  "\u2581read": 631,
  "\u2581too": 632,
  "\u2581fakalelei": 633,
  "\u25816": 634,
  "\u2581ahi": 635,
  "\u2581want": 636,
  "\u2581tokonaki": 637,
  "\u2581laka": 638,
  "\u2581ongoongo": 639,
  "ofi": 640,
  "\u2581among": 641,
  "\u2581ak\u00f3": 642,
  "\u2581hope": 643,
  "\u258110.": 644,
  "\u2581get": 645,
  "\u2581kolo": 646,
  "\u2581told": 647,
  "\u2581days": 648,
  "\u2581va": 649,
  "\u2581Sione": 650,
  "\u2581Scriptures": 651,
  "\u2581Hili": 652,
  "ung\u00e1": 653,
  "\u2581disciples": 654,
  "\u25814.": 655,
  "\u2581fua": 656,
  "\u2581hano": 657,
  "\u2581Kalais\u00ed": 658,
  "\u258122": 659,
  "\u2581let": 660,
  "\u2581pe\u00e1": 661,
  "\u2581view": 662,
  "\u2581away": 663,
  "\u2581during": 664,
  "\u2581koloa": 665,
  "\u2581knowledge": 666,
  "ak\u00ed": 667,
  "\u2581Isileli": 668,
  "\u25817": 669,
  "ko": 670,
  "\u2581consider": 671,
  "\u2581ue": 672,
  "\u258121": 673,
  "\u2581later": 674,
  "\u2581Hang": 675,
  "\u2581K": 676,
  "\u2581down": 677,
  "\u2581tolu": 678,
  "\u2581By": 679,
  "\u2581given": 680,
  "),": 681,
  "\u2581manatu": 682,
  "\u2581back": 683,
  "\u2581holi": 684,
  "\u2581New": 685,
  "\u2581l\u0101ulea": 686,
  "\u2581fakalototo": 687,
  "\u2581kai": 688,
  "\u2581S\u0113tane": 689,
  "\u2581t\u0101puaki": 690,
  "\u2581nima": 691,
  "\u2581Is": 692,
  "\u2581ways": 693,
  "\u2581sev\u0101niti": 694,
  "\u2581T\u0113vita": 695,
  "\u2581fakafou": 696,
  "\u258115,": 697,
  "\u2581Psalm": 698,
  "\u2581hokosia": 699,
  "\u2581power": 700,
  "\u2581began": 701,
  "\u258112.": 702,
  "\u2581mole": 703,
  "\u2581hok\u00f3": 704,
  "\u2581lah\u00ed": 705,
  "\u2581laui": 706,
  "\u258118": 707,
  "\u2581vave": 708,
  "\u2581doing": 709,
  "\u2581Fakamatala": 710,
  "\u2581set": 711,
  "\u2581live": 712,
  "\u2581hanga": 713,
  "\u2581am": 714,
  "\u2581servants": 715,
  "\u2581called": 716,
  "\u25817.": 717,
  "\u25819": 718,
  "\u2581three": 719,
  "\u2581ngaohi": 720,
  "\u2581themselves": 721,
  "\u2581Our": 722,
  "\u2581gave": 723,
  "\u2581lalo": 724,
  "\u2581making": 725,
  "\u258114.": 726,
  "\u2581loving": 727,
  "\u2581Matthew": 728,
  "\u25818.": 729,
  "\u2581With": 730,
  "\u2581ave": 731,
  "\u2581fine": 732,
  "\u2581feilaulau": 733,
  "\u2581On": 734,
  "\u2581able": 735,
  "\u2581api": 736,
  "\u258113.": 737,
  "\u25817:": 738,
  "\u2581old": 739,
  "\u2581however": 740,
  "\u2581still": 741,
  "\u25815.": 742,
  "\u2581le\u00e1": 743,
  "\u2581King": 744,
  "\u2581Pita": 745,
  "\u2581fellow": 746,
  "eiki": 747,
  "y": 748,
  "\u258111.": 749,
  "\u2581Ng\u0101ue": 750,
  "\u2581hounga": 751,
  "\u2581bring": 752,
  "\u2581peace": 753,
  "\u2581poupou": 754,
  "uma": 755,
  "\u2581talangofua": 756,
  "\u2581Ai": 757,
  "\u2581Ako": 758,
  "\u258125": 759,
  "\u2581whom": 760,
  "\u2581His": 761,
  "\u2581Yes": 762,
  "\u258115.": 763,
  "\u2581maumau": 764,
  "auha": 765,
  "\u2581living": 766,
  "\u2581Io": 767,
  "\u25819.": 768,
  "\u2581She": 769,
  "\u2581f\u0113": 770,
  "\u2581poto": 771,
  "\u258116.": 772,
  "\u2581full": 773,
  "\u2581uhing\u00e1": 774,
  "\u2581century": 775,
  "\u2581personal": 776,
  "\u2581marriage": 777,
  "\u258124": 778,
  "\u2581house": 779,
  "\u2581tokou\u00e1": 780,
  "engata": 781,
  "\u258117.": 782,
  "\u2581kinautol\u00fa": 783,
  "\u2581result": 784,
  "\u2581S\u0101me": 785,
  "\u2581M\u0101tiu": 786,
  "\u2581fehangahangai": 787,
  "\u2581Lolotong": 788,
  "\u2581of\u00e1": 789,
  "\u25816.": 790,
  "\u2581No": 791,
  "\u2581mavahe": 792,
  "\u2581always": 793,
  "angatae": 794,
  "\u2581fact": 795,
  "\u2581Tokotaha": 796,
  "\u2581asked": 797,
  "\u2581f\u0101nau": 798,
  "\u2581t\u0101imu": 799,
  "\u2581P": 800,
  "\u2581fakatau": 801,
  "\u2581reason": 802,
  "\u2581took": 803,
  "\u2581k\u0101taki": 804,
  "\u2581There": 805,
  "\u2581O": 806,
  "\u2581ulungaanga": 807,
  "\u2581without": 808,
  "\u2581hand": 809,
  "\u2581kaung\u0101": 810,
  "\u2581lavame": 811,
  "\u2581fakatupunga": 812,
  "\u2581order": 813,
  "\u2581purpose": 814,
  "The": 815,
  "\u2581while": 816,
  "\u2581mankind": 817,
  "\u2581fakafiem\u0101lie": 818,
  "\u2581joy": 819,
  "\u2581Then": 820,
  "\u2581angahala": 821,
  "\u2581homa": 822,
  "\u2581humans": 823,
  "\u2581prayer": 824,
  "\u2581son": 825,
  "\u2581palopalema": 826,
  "\u2581article": 827,
  "A": 828,
  "\u2581both": 829,
  "\u2581father": 830,
  "\u2581Many": 831,
  "omou": 832,
  "\u2581think": 833,
  "\u2581Yet": 834,
  "\u2581toward": 835,
  "\u2581kitautol\u00fa": 836,
  "\u2581questions": 837,
  "\u2581fakamaau": 838,
  "al": 839,
  "\u2581Son": 840,
  "\u2581Moses": 841,
  "\u2581brother": 842,
  "ut\u0101maki": 843,
  "\u2581uaif\u00ed": 844,
  "\u2581Tau": 845,
  "\u2581fakatou": 846,
  "\u2581meetings": 847,
  "\u2581Even": 848,
  "\u2581anointed": 849,
  "\u2581fakakauka\u00fa": 850,
  "olunga": 851,
  "\u2581From": 852,
  "\u2581ola": 853,
  "\u2581having": 854,
  "\u2581lao": 855,
  "\u2581le": 856,
  "\u2581ngali": 857,
  "\u2581ma\u00ed": 858,
  "\u25813,": 859,
  "\u2581Jerusalem": 860,
  "\u25813.": 861,
  "\u2581child": 862,
  "\u2581mama": 863,
  "\u2581f\u0101mili": 864,
  "\u2581KO": 865,
  "\u2581papitaiso": 866,
  "\u2581kaha": 867,
  "\u2581woman": 868,
  "\u2581li": 869,
  "\u2581hanganaki": 870,
  "\u2581faingofua": 871,
  "\u2581makehe": 872,
  "n": 873,
  "\u2581Israelites": 874,
  "\u2581experience": 875,
  "\u2581fait\u014dnunga": 876,
  "\u2581motu": 877,
  "\u2581relationship": 878,
  "\u2581tomu": 879,
  "\u2581between": 880,
  "\u2581counsel": 881,
  "\u2581something": 882,
  "\u2581S": 883,
  "\u2581m\u0113mipa": 884,
  "\u2581someone": 885,
  "\u2581face": 886,
  "\u2581together": 887,
  "\u2581sai": 888,
  "\u2581husband": 889,
  "\u2581ena": 890,
  "\u2581toh\u00ed": 891,
  "at\u0101ina": 892,
  "\u2581wisdom": 893,
  "\u2581oatu": 894,
  "\u2581Loma": 895,
  "\u2581heaven": 896,
  "\u2581helped": 897,
  "\u2581fakafaifeka\u00fa": 898,
  "\u2581huafa": 899,
  "eik\u00ed": 900,
  "\u2581W": 901,
  "\u2581conduct": 902,
  "\u2581sin": 903,
  "\u2581ap\u00ed": 904,
  "\u2581[\"": 905,
  "\u258123": 906,
  "\u2581future": 907,
  "\u2581look": 908,
  "\u2581wicked": 909,
  "akai": 910,
  "\u258118.": 911,
  "\u2581HE": 912,
  "\u2581fuoloa": 913,
  "\u2581makatu": 914,
  "\u2581folofola": 915,
  "\u2581really": 916,
  "Na": 917,
  "\u2581toton\u00fa": 918,
  "o\u00fa": 919,
  "\u2581fetu": 920,
  "\u2581share": 921,
  "\u2581Isaiah": 922,
  "ilonga": 923,
  "umotu": 924,
  "\u2581foha": 925,
  "\u2581mother": 926,
  "\u2581language": 927,
  "\u2581B": 928,
  "\u2581Me": 929,
  "\u2581\u0101kong\u00e1": 930,
  "\u2581fakaofo": 931,
  "\u25816,": 932,
  "\u2581PM": 933,
  "\u25819,": 934,
  "\u2581kuonga": 935,
  "na": 936,
  "\u25818,": 937,
  "\u2581needed": 938,
  "\u2581number": 939,
  "\u2581fakamamahi": 940,
  "\u2581elders": 941,
  "unu": 942,
  "\u2581fakahinohino": 943,
  "\u2581learned": 944,
  "\u2581Let": 945,
  "\u2581hard": 946,
  "\u2581felt": 947,
  "\u2581ourselves": 948,
  "\u2581mata": 949,
  "\u2581Fakakaukau": 950,
  "\u2581message": 951,
  "\u2581close": 952,
  "\u258130": 953,
  "\u2581My": 954,
  "\u2581continue": 955,
  "\u2581faito": 956,
  "isi": 957,
  "\u2581happy": 958,
  "\u2581religious": 959,
  "\u2581Tohitapu": 960,
  "\u2581following": 961,
  "\u2581food": 962,
  "\u2581left": 963,
  "\u2581Abraham": 964,
  "\u2581eyes": 965,
  "\u25815,": 966,
  "\u2581done": 967,
  "uni": 968,
  "\u2581hongofulu": 969,
  "\u2581city": 970,
  "\u2581Job": 971,
  "eki": 972,
  "\u2581few": 973,
  "\u2581kulupu": 974,
  "\u2581possible": 975,
  "\u2581faingam\u0101lie": 976,
  "\u2581Eiki": 977,
  "\u2581ask": 978,
  "\u2581avoid": 979,
  "\u2581desire": 980,
  "\u0101": 981,
  "\u2581serving": 982,
  "\u2581benefit": 983,
  "\u2581best": 984,
  "\u2581fakafiefia": 985,
  "\u2581puke": 986,
  "\u2581t\u0101naki": 987,
  "\u2581heavenly": 988,
  "\u2581fakamanatu": 989,
  "\u2581fakaafe": 990,
  "\u258128": 991,
  "\u2581These": 992,
  "\u2581care": 993,
  "\u2581support": 994,
  "\u2581little": 995,
  "\u2581lives": 996,
  "\u2581Proverbs": 997,
  "Lau": 998,
  "Read": 999,
  "\u2581blood": 1000,
  "\u2581matter": 1001,
  "\u258119.": 1002,
  "\u2581fakafepaki": 1003,
  "\u2581mafai": 1004,
  "\u2581fear": 1005,
  "\u2581fakatatau": 1006,
  "ther": 1007,
  "\u2581free": 1008,
  "\u2581World": 1009,
  "\u2581present": 1010,
  "\u2581huhu": 1011,
  "\u2581\u016b": 1012,
  "\u2581h\u016b": 1013,
  "\u2581senituli": 1014,
  "\u2581went": 1015,
  "\u2581Fakataha": 1016,
  "\u2581teaching": 1017,
  "\u2581last": 1018,
  "\u2581problems": 1019,
  "\u2581toetu": 1020,
  "\u25819:": 1021,
  "\u2581fakatah\u00e1": 1022,
  "\u2581righteous": 1023,
  "\u2581fatongia": 1024,
  "\u2581wise": 1025,
  "\u2581fakapotopoto": 1026,
  "\u2581baptized": 1027,
  "\u2581Timothy": 1028,
  "\u2581totongi": 1029,
  "\u2581All": 1030,
  "\u2581Ho": 1031,
  "\u2581friends": 1032,
  "\u2581kikite": 1033,
  "\u2581Watchtower": 1034,
  "hose": 1035,
  "\u2581tautefito": 1036,
  "\u2581known": 1037,
  "\u258114,": 1038,
  "\u2581off": 1039,
  "\u2581giving": 1040,
  "\u2581Your": 1041,
  "\u2581answer": 1042,
  "\u2581nations": 1043,
  "\u2581Tamai": 1044,
  "\u2581bad": 1045,
  "\u2581ngalingali": 1046,
  "\u2581heni": 1047,
  "\u2581ever": 1048,
  "ilo": 1049,
  "\u2581Consider": 1050,
  "\u2581system": 1051,
  "\u2581understand": 1052,
  "\u2581again": 1053,
  "\u2581near": 1054,
  "of\u00e1": 1055,
  "\u2581husep\u0101nit\u00ed": 1056,
  "\u2581received": 1057,
  "\u2581members": 1058,
  "ituitui": 1059,
  "\u2581situation": 1060,
  "\u2581certain": 1061,
  "\u2581king": 1062,
  "\u2581fononga": 1063,
  "\u2581kindness": 1064,
  "\u2581p\u014dpoaki": 1065,
  "\u2581manavah\u0113": 1066,
  "\u2581yourself": 1067,
  "\u2581better": 1068,
  "\u2581different": 1069,
  "\u2581age": 1070,
  "\u2581self": 1071,
  "\u2581fakahaofi": 1072,
  "\u25814,": 1073,
  "\u2581finangalo": 1074,
  "\u2581mateaki": 1075,
  "\u2581kimautolu": 1076,
  "\u2581Because": 1077,
  "\u2581sense": 1078,
  "\u2581cannot": 1079,
  "\u2581early": 1080,
  "\u2581enjoy": 1081,
  "\u2581Law": 1082,
  "\u2581ancient": 1083,
  "\u2581fakatupulekina": 1084,
  "\u2581feohi": 1085,
  "\u2581since": 1086,
  "\u2581iloa": 1087,
  "\u2581Although": 1088,
  "\u2581Lord": 1089,
  "\u2581account": 1090,
  "\u2581mon\u016b": 1091,
  "\u2581kinaua": 1092,
  "\u2581haohaoa": 1093,
  "\u2581Acts": 1094,
  "\u2581attitude": 1095,
  "\u2581t\u0101mate": 1096,
  "\u258111,": 1097,
  "\u2581moved": 1098,
  "\u2581receive": 1099,
  "\u2581yet": 1100,
  "\u258133": 1101,
  "\u2581far": 1102,
  "\u2581Oua": 1103,
  "\u2581t\u0101kiekina": 1104,
  "\u2581law": 1105,
  "\u2581lead": 1106,
  "\u258110,": 1107,
  "\u2581women": 1108,
  "\u2581Le": 1109,
  "\u2581m\u0101hina": 1110,
  "\u2581speak": 1111,
  "\u2581attention": 1112,
  "\u2581states": 1113,
  "\u2581Adam": 1114,
  "\u2581Fakatohitapu": 1115,
  "\u2581malumalu": 1116,
  "\u2581high": 1117,
  "\u2581fakamolemole": 1118,
  "\u2581Lau": 1119,
  "\u2581bea": 1120,
  "\u2581mean": 1121,
  "\u2581thought": 1122,
  "\u2581next": 1123,
  "\u2581needs": 1124,
  "\u2581sipi": 1125,
  "\u2581t\u0101": 1126,
  "\u2581feelings": 1127,
  "\u2581follow": 1128,
  "\u2581teuteu": 1129,
  "\u25817,": 1130,
  "\u2581nor": 1131,
  "\u2581trust": 1132,
  "\u2581case": 1133,
  "\u2581hao": 1134,
  "\u2581kind": 1135,
  "\u2581thus": 1136,
  "\u258120.": 1137,
  "\u2581Can": 1138,
  "\u2581ema": 1139,
  "\u2581prophet": 1140,
  "\u258112,": 1141,
  "\u2581until": 1142,
  "\u2581D": 1143,
  "\u2581sure": 1144,
  "\u258126": 1145,
  "\u2581school": 1146,
  "\u2581More": 1147,
  "\u2581faifai": 1148,
  "\u2581along": 1149,
  "\u2581fefin\u00e9": 1150,
  "\u2581saw": 1151,
  "\u2581hiva": 1152,
  "\u2581knew": 1153,
  "\u2581Of": 1154,
  "\u2581Thus": 1155,
  "\u2581likely": 1156,
  "\u2581Jews": 1157,
  "\u2581Who": 1158,
  "\u2581saying": 1159,
  "\u2581Corinthians": 1160,
  "\u2581provide": 1161,
  "\u2581hingoa": 1162,
  "\u2581respect": 1163,
  "\u258140": 1164,
  "\u258116,": 1165,
  "\u2581Fakatohitap\u00fa": 1166,
  "\u2581loi": 1167,
  "\u258112:": 1168,
  "\u2581believe": 1169,
  "\u2581melino": 1170,
  "\u2581Aisea": 1171,
  "\u2581whole": 1172,
  "\u2581fil\u00ed": 1173,
  "\u2581land": 1174,
  "\u2581remain": 1175,
  "\u2581water": 1176,
  "\u2581F\u0113f\u0113": 1177,
  "\u2581act": 1178,
  "\u2581around": 1179,
  "\u2581difficult": 1180,
  "\u2581kuohil\u00ed": 1181,
  "\u2581brought": 1182,
  "\u25812,": 1183,
  "to": 1184,
  "\u2581Ta": 1185,
  "\u2581especially": 1186,
  "\u2581cause": 1187,
  "\u2581turn": 1188,
  "\u2581point": 1189,
  "\u2581reading": 1190,
  "\u2581Si\u00fa": 1191,
  "\u2581money": 1192,
  "\u2581Palovepi": 1193,
  "\u2581Ne": 1194,
  "\u2581spiritually": 1195,
  "ane": 1196,
  "\u2581followers": 1197,
  "\u258127": 1198,
  "C": 1199,
  "\u2581tuli": 1200,
  "otu\u00e1": 1201,
  "\u2581Solomon": 1202,
  "\u2581body": 1203,
  "\u2581special": 1204,
  "\u2581Since": 1205,
  "\u2581real": 1206,
  "\u2581fiem\u0101lie": 1207,
  "\u2581individuals": 1208,
  "\u2581principles": 1209,
  "\u2581talk": 1210,
  "utaki": 1211,
  "\u2581mamani": 1212,
  "\u2581thinking": 1213,
  "\u2581ulu": 1214,
  "\u2581wrong": 1215,
  "\u2581uaifi": 1216,
  "\u2581Are": 1217,
  "\u2581alunga": 1218,
  "\u2581M\u014dsese": 1219,
  "\u2581angahal\u00e1": 1220,
  "\u2581kautaha": 1221,
  "\u2581Greek": 1222,
  "ata": 1223,
  "\u2581meia": 1224,
  "\u2581allow": 1225,
  "\u2581temple": 1226,
  "\u2581happiness": 1227,
  "\u2581pal\u014dfita": 1228,
  "\u2581Such": 1229,
  "\u2581mahaki": 1230,
  "\u2581fakamoleki": 1231,
  "\u2581married": 1232,
  "ngaahi": 1233,
  "\u2581Hall": 1234,
  "\u2581Read": 1235,
  "\u2581maheni": 1236,
  "ofo": 1237,
  "\u2581question": 1238,
  "\u2581Devil": 1239,
  "\u2581light": 1240,
  "\u2581matters": 1241,
  "\u2581soon": 1242,
  "\u2581Pe": 1243,
  "\u2581NW": 1244,
  "\u2581tofu": 1245,
  "\u2581makes": 1246,
  "\u2581fakaivim\u0101lohi": 1247,
  "\u2581including": 1248,
  "\u2581lotolotonga": 1249,
  "\u2581nation": 1250,
  "\u2581holo": 1251,
  "\u2581fiefi\u00e1": 1252,
  "\u258113,": 1253,
  "\u258121.": 1254,
  "er": 1255,
  "\u2581pulusi": 1256,
  "\u2581nounou": 1257,
  "\u2581strong": 1258,
  "\u2581Footnote": 1259,
  "\u2581sisters": 1260,
  "\u2581pole": 1261,
  "\u2581James": 1262,
  "\u2581sent": 1263,
  "\u2581taau": 1264,
  "\u2581works": 1265,
  "\u2581sons": 1266,
  "\u2581suffering": 1267,
  "\u2581died": 1268,
  "\u2581going": 1269,
  "hile": 1270,
  "pe": 1271,
  "\u2581S\u0113tan\u00e9": 1272,
  "\u258110:": 1273,
  "\u2581miliona": 1274,
  "\u2581fakamalang\u00e1": 1275,
  "\u2581hoha": 1276,
  "\u2581qualities": 1277,
  "\u2581Revelation": 1278,
  "\u2581change": 1279,
  "\u2581small": 1280,
  "\u2581ta\u00fa": 1281,
  "th": 1282,
  "\u2581sacrifice": 1283,
  "\u2581whe": 1284,
  "\u2581pray": 1285,
  "\u2581fakafofonga": 1286,
  "\u2581perfect": 1287,
  "\u2581vai": 1288,
  "\u2581akau": 1289,
  "\u2581loloto": 1290,
  "\u2581slave": 1291,
  "\u2581teach": 1292,
  "\u2581dead": 1293,
  "\u2581taking": 1294,
  "\u2581Hono": 1295,
  "\u2581taught": 1296,
  "\u2581information": 1297,
  "\u2581l\u012b": 1298,
  "\u2581vaivai": 1299,
  "\u2581U": 1300,
  "\u2581wanted": 1301,
  "\u2581fanau": 1302,
  "\u2581kimaua": 1303,
  "M": 1304,
  "\u2581veiveiua": 1305,
  "\u2581everlasting": 1306,
  "\u2581material": 1307,
  "\u2581talavou": 1308,
  "\u2581Taua": 1309,
  "....": 1310,
  "\u2581amanekina": 1311,
  "\u2581apostles": 1312,
  "ala": 1313,
  "\u2581Does": 1314,
  "\u2581gives": 1315,
  "\u2581health": 1316,
  "\u258131": 1317,
  "st": 1318,
  "\u2581Romans": 1319,
  "\u2581similar": 1320,
  "\u2581Rather": 1321,
  "\u2581Not": 1322,
  "\u2581Pictures": 1323,
  "\u2581Today": 1324,
  "\u2581ita": 1325,
  "\u2581ikuna": 1326,
  "gaahi": 1327,
  "\u2581righteousness": 1328,
  "\u2581resurrection": 1329,
  "\u2581certainly": 1330,
  "\u258129": 1331,
  "\u2581divine": 1332,
  "\u2581kov\u00ed": 1333,
  "\u2581\u0101konga": 1334,
  "\u2581fakam\u0101lohi": 1335,
  "\u258117,": 1336,
  "\u2581Daniel": 1337,
  "\u2581false": 1338,
  "\u2581kingdom": 1339,
  "\u2581Siu": 1340,
  "talanoa": 1341,
  "\u2581involved": 1342,
  "u\u00f3": 1343,
  "espite": 1344,
  "\u2581fetaulaki": 1345,
  "\u2581group": 1346,
  "\u2581hange": 1347,
  "\u2581s": 1348,
  "\u2581Would": 1349,
  "\u2581sheep": 1350,
  "\u2581Be": 1351,
  "\u2581fakama": 1352,
  "\u2581religion": 1353,
  "\u2581afe": 1354,
  "ungam\u0101lie": 1355,
  "\u2581heard": 1356,
  "m": 1357,
  "\u2581takatakai": 1358,
  "\u2581four": 1359,
  "\u2581thing": 1360,
  "\u2581gift": 1361,
  "\u2581mentioned": 1362,
  "\u2581comes": 1363,
  "\u2581ngaue": 1364,
  "\u258123.": 1365,
  "\u2581Joseph": 1366,
  "\u2581fonu\u00e1": 1367,
  "\u2581sister": 1368,
  "\u2581strength": 1369,
  "\u2581circumstances": 1370,
  "\u2581la": 1371,
  "\u2581uesia": 1372,
  "\u2581fakah\u0101": 1373,
  "\u2581night": 1374,
  "iate": 1375,
  "\u2581\u25aa": 1376,
  "\u2581houa": 1377,
  "\u2581truly": 1378,
  "in": 1379,
  "\u2581fully": 1380,
  "\u2581hoa": 1381,
  "\u2581inspired": 1382,
  "\u2581war": 1383,
  "\u2581provided": 1384,
  "\u2581imitate": 1385,
  "\u2581matu": 1386,
  "\u2581loved": 1387,
  "uhinga": 1388,
  "\u2581Fale": 1389,
  "\u2581Creator": 1390,
  "\u2581control": 1391,
  "\u2581taliteke": 1392,
  "\u258119,": 1393,
  "\u2581shows": 1394,
  "\u2581wonderful": 1395,
  "\u2581T\u0113vit\u00e1": 1396,
  "\u2581Dur": 1397,
  "\u2581try": 1398,
  "\u2581Scriptural": 1399,
  "\u2581based": 1400,
  "\u2581pioneer": 1401,
  "\u2581second": 1402,
  "\u2581nothing": 1403,
  "\u2581ol\u00e1": 1404,
  "\u2581pani": 1405,
  "\u258132": 1406,
  "ah\u00ed": 1407,
  "\u2581fakafaifekau": 1408,
  "omu": 1409,
  "\u2581congregations": 1410,
  "\u2581clear": 1411,
  "\u2581People": 1412,
  "\u2581taken": 1413,
  "\u2581teu": 1414,
  "\u2581fakalahi": 1415,
  "\u2581fakatahataha": 1416,
  "\u2581large": 1417,
  "\u2581seen": 1418,
  "ema": 1419,
  "\u2581tama\u00ed": 1420,
  "\u258118,": 1421,
  "\u2581fehi": 1422,
  "\u2581H\u0101": 1423,
  "\u258122.": 1424,
  "\u2581understanding": 1425,
  "\u2581regard": 1426,
  "\u2581hal\u00e1": 1427,
  "\u2581tamai": 1428,
  "\u2581h\u0113vani": 1429,
  "\u2581emau": 1430,
  "\u016btaha": 1431,
  "\u2581Siope": 1432,
  "\u2581tatali": 1433,
  "\u2581blessings": 1434,
  "\u2581examples": 1435,
  "\u2581return": 1436,
  "ele": 1437,
  "\u2581N": 1438,
  "\u2581faiako": 1439,
  "\u2581fakanofo": 1440,
  "\u2581fuakava": 1441,
  "\u2581interest": 1442,
  "otu": 1443,
  "\u2581pan\u00ed": 1444,
  "\u2581senitul\u00ed": 1445,
  "\u2581prophecy": 1446,
  "\u2581taula": 1447,
  "\u2581leave": 1448,
  "\u2581coming": 1449,
  "\u2581ton\u00fa": 1450,
  "\u2581privilege": 1451,
  "\u2581country": 1452,
  "\u2581showed": 1453,
  "\u2581witness": 1454,
  "\u2581Fakah\u0101": 1455,
  "\u2581Noah": 1456,
  "\u2581comfort": 1457,
  "\u2581gain": 1458,
  "\u2581malang\u00e1": 1459,
  "uli": 1460,
  "\u2581draw": 1461,
  "\u2581pekia": 1462,
  "\u2581effort": 1463,
  "\u2581kaunga": 1464,
  "\u2581hu": 1465,
  "\u2581THE": 1466,
  "\u2581Like": 1467,
  "\u2581blessing": 1468,
  "\u2581accept": 1469,
  "\u2581Selusalema": 1470,
  "\u2581further": 1471,
  "\u2581fakaetangat\u00e1": 1472,
  "\u2581prayers": 1473,
  "\u2581Kolinito": 1474,
  "\u2581T\u0113vol\u00f3": 1475,
  "\u2581local": 1476,
  "\u2581toutou": 1477,
  "\u2581ulung\u0101anga": 1478,
  "\u2581loyal": 1479,
  "\u2581stand": 1480,
  "\u2581laum\u0101li\u00e9": 1481,
  "\u2581past": 1482,
  "\u2581Anga": 1483,
  "\u2581hona": 1484,
  "\u2581tup\u00fa": 1485,
  "\u2581once": 1486,
  "\u2581started": 1487,
  "\u2581fakangatangata": 1488,
  "\u2581inu": 1489,
  "\u2581tukuange": 1490,
  "\u2581sivisivi": 1491,
  "\u258124.": 1492,
  "\u2581Samuel": 1493,
  "\u2581kept": 1494,
  "\u2581meeting": 1495,
  "\u2581m\u0101loh\u00ed": 1496,
  "\u2581tamaio": 1497,
  "\u2581Fa": 1498,
  "\u2581p\u014dpula": 1499,
  "\u2581serious": 1500,
  "\u2581greater": 1501,
  "\u2581un": 1502,
  "\u2581homou": 1503,
  "\u2581tell": 1504,
  "\u2581Will": 1505,
  "\u2581evidence": 1506,
  "\u2581fakat\u014dkilalo": 1507,
  "\u2581Fakatatau": 1508,
  "\u2581organization": 1509,
  "\u2581pehe": 1510,
  "\u2581speaking": 1511,
  "\u2581fakatapui": 1512,
  "\u2581afio": 1513,
  "\u2581Hebrews": 1514,
  "\u2581according": 1515,
  "\u2581using": 1516,
  "\u2581uike": 1517,
  "\u2581l\u012bpooti": 1518,
  "\u2581opportunity": 1519,
  "\u2581Genesis": 1520,
  "\u2581physical": 1521,
  "\u2581vahevahe": 1522,
  "\u2581fekuki": 1523,
  "ana": 1524,
  "\u2581authority": 1525,
  "\u2581decisions": 1526,
  "\u2581apositol\u00f3": 1527,
  "\u2581efforts": 1528,
  "\u2581maintain": 1529,
  "\u2581Hebrew": 1530,
  "\u2581Still": 1531,
  "\u2581confidence": 1532,
  "\u2581\u0100tama": 1533,
  "\u2581Konga": 1534,
  "\u2581k\u0101toanga": 1535,
  "\u2581rule": 1536,
  "\u2581standards": 1537,
  "\u2581therefore": 1538,
  "te": 1539,
  "\u2581deep": 1540,
  "\u2581glory": 1541,
  "\u25aa": 1542,
  "\u2581older": 1543,
  "\u2581please": 1544,
  "\u2581rather": 1545,
  "\u2581tuipau": 1546,
  "\u2581already": 1547,
  "\u2581effect": 1548,
  "\u2581lost": 1549,
  "\u2581Kalisi": 1550,
  "\u2581shall": 1551,
  "\u2581anyone": 1552,
  "\u2581believers": 1553,
  "\u2581meaning": 1554,
  "\u2581simply": 1555,
  "\u2581move": 1556,
  "\u2581\u0112palahame": 1557,
  "You": 1558,
  "\u2581An": 1559,
  "\u2581fakam\u0101nava": 1560,
  "\u2581tot\u00f3": 1561,
  "\u2581Lahi": 1562,
  "\u2581call": 1563,
  "\u2581public": 1564,
  "\u2581remember": 1565,
  "\u2581Tama\u00ed": 1566,
  "\u2581fakamamafa": 1567,
  "\u2581forever": 1568,
  "asi": 1569,
  "\u2581Ha": 1570,
  "\u2581Alo": 1571,
  "\u2581fakah\u012bkihiki": 1572,
  "\u2581served": 1573,
  "\u2581Hence": 1574,
  "\u2581Their": 1575,
  "\u2581preach": 1576,
  "\u2581t\u0101utaha": 1577,
  "\u2581Lom\u00e1": 1578,
  "\u2581faivelenga": 1579,
  "\u2581fakalaulauloto": 1580,
  "\u2581angatu": 1581,
  "\u2581doubt": 1582,
  "\u2581form": 1583,
  "\u2581lived": 1584,
  "\u2581Indeed": 1585,
  "\u2581tal\u00ed": 1586,
  "mahu": 1587,
  "\u2581honor": 1588,
  "\u2581powerful": 1589,
  "\u2581lalahi": 1590,
  "\u2581anything": 1591,
  "\u2581fakalakalaka": 1592,
  "\u2581written": 1593,
  "\u2581value": 1594,
  "\u2581United": 1595,
  "\u2581l\u014dloa": 1596,
  "\u2581kalasi": 1597,
  "\u2581decision": 1598,
  "\u2581\u0101": 1599,
  "\u2581fakafoki": 1600,
  "\u2581l\u0113kooti": 1601,
  "\u2581tama": 1602,
  "\u2581Now": 1603,
  "\u2581kol\u00f3": 1604,
  "\u2581promise": 1605,
  "\u2581apply": 1606,
  "\u2581According": 1607,
  "\u2581friend": 1608,
  "\u2581heavens": 1609,
  "\u2581vital": 1610,
  "Jehovah": 1611,
  "\u2581J": 1612,
  "\u2581l\u0113soni": 1613,
  "\u2581fanongonongo": 1614,
  "\u2581mamata": 1615,
  "e\u00e9": 1616,
  "\u2581Ofa": 1617,
  "\u2581hehema": 1618,
  "\u2581p\u014dto": 1619,
  "\u2581fou": 1620,
  "\u2581helps": 1621,
  "\u2581deal": 1622,
  "\u2581integrity": 1623,
  "\u2581hearts": 1624,
  "\u2581regarding": 1625,
  "\u2581within": 1626,
  "\u2581fakat\u0101taa": 1627,
  "\u2581prove": 1628,
  "\u2581pages": 1629,
  "\u2581pot\u00f3": 1630,
  "\u2581branch": 1631,
  "\u2581Bethel": 1632,
  "\u2581at\u0101": 1633,
  "\u2581soul": 1634,
  "\u2581spoke": 1635,
  "\u2581fehokotaki": 1636,
  "\u2581Instead": 1637,
  "\u2581Jeremiah": 1638,
  "\u2581Life": 1639,
  "\u2581here": 1640,
  "eva": 1641,
  "\u2581fakatonutonu": 1642,
  "\u2581field": 1643,
  "\u2581maongo": 1644,
  "\u2581v\u0101henga": 1645,
  "\u2581omi": 1646,
  "over": 1647,
  "\u00e9": 1648,
  "\u2581Jihova": 1649,
  "\u2581h\u014difua": 1650,
  "\u2581sino": 1651,
  "\u2581instance": 1652,
  "OKU": 1653,
  "\u258120,": 1654,
  "\u2581Box": 1655,
  "\u2581fakah\u014difua": 1656,
  "\u2581direction": 1657,
  "oa": 1658,
  "usia": 1659,
  "\u2581months": 1660,
  "\u2581willing": 1661,
  "\u2581hands": 1662,
  "\u2581perhaps": 1663,
  "\u258137": 1664,
  "\u2581maama": 1665,
  "\u2581M\u014dses\u00e9": 1666,
  "\u2581stated": 1667,
  "\u2581fetongi": 1668,
  "\u2581Saul": 1669,
  "\u2581godly": 1670,
  "\u2581continued": 1671,
  "\u2581longer": 1672,
  "\u2581activities": 1673,
  "\u2581ata": 1674,
  "\u2581fal\u00e9": 1675,
  "\u2581got": 1676,
  "\u2581appointed": 1677,
  "\u2581\u012bsiu": 1678,
  "\u2581H": 1679,
  "\u2581Mark": 1680,
  "\u2581events": 1681,
  "\u2581promises": 1682,
  "\u2581judgment": 1683,
  "\u2581Did": 1684,
  "\u2581born": 1685,
  "\u2581determined": 1686,
  "\u2581strengthen": 1687,
  "\u2581Eve": 1688,
  "\u2581angels": 1689,
  "\u2581palopalem\u00e1": 1690,
  "Kuo": 1691,
  "\u2581Jewish": 1692,
  "\u2581kotoabe": 1693,
  "\u258125.": 1694,
  "\u2581PAGE": 1695,
  "\u2581Lao": 1696,
  "\u2581appreciation": 1697,
  "\u2581tautea": 1698,
  "\u2581toka": 1699,
  "\u2581ability": 1700,
  "\u2581psalmist": 1701,
  "\u2581tam\u00e1": 1702,
  "\u2581common": 1703,
  "\u2581Mary": 1704,
  "\u2581Tali": 1705,
  "\u2581fakafeangai": 1706,
  "\u2581hold": 1707,
  "\u2581offer": 1708,
  ",...": 1709,
  "\u2581issue": 1710,
  "\u2581Pit\u00e1": 1711,
  "\u2581flesh": 1712,
  "\u2581lo\u00ed": 1713,
  "\u2581maka": 1714,
  "\u2581considered": 1715,
  "\u2581couple": 1716,
  "\u2581May": 1717,
  "\u2581covenant": 1718,
  "\u2581ovasia": 1719,
  "\u2581complete": 1720,
  "\u2581listen": 1721,
  "engat\u00e1": 1722,
  "\u2581True": 1723,
  "\u2581class": 1724,
  "\u2581explained": 1725,
  "\u2581held": 1726,
  "\u2581mateuteu": 1727,
  "\u2581Sio": 1728,
  "\u2581hear": 1729,
  "See": 1730,
  "\u2581affect": 1731,
  "\u2581fakah\u0113van\u00ed": 1732,
  "\u2581tukuaki": 1733,
  "EESI": 1734,
  "\u2581Witness": 1735,
  "\u2581fakalotu": 1736,
  "\u2581m\u0101fana": 1737,
  "\u2581problem": 1738,
  "\u258150": 1739,
  "\u2581accepted": 1740,
  "\u2581mala": 1741,
  "\u2581talitali": 1742,
  "\u2581fehoanaki": 1743,
  "\u2581fonu": 1744,
  "\u2581led": 1745,
  "\u2581appreciate": 1746,
  "aufuli": 1747,
  "\u2581ransom": 1748,
  "\u2581\u0101ngelo": 1749,
  "\u2581recorded": 1750,
  "\u2581seek": 1751,
  "\u2581Roman": 1752,
  "\u2581head": 1753,
  "\u2581various": 1754,
  "\u2581baptism": 1755,
  "\u2581Mahal": 1756,
  "\u2581Manatu": 1757,
  "\u2581Solomone": 1758,
  "\u2581experienced": 1759,
  "\u2581forth": 1760,
  "\u2581influence": 1761,
  "\u2581letter": 1762,
  "\u2581Watch": 1763,
  "\u2581history": 1764,
  "\u2581conscience": 1765,
  "\u2581visit": 1766,
  "\u2581fefeka": 1767,
  "\u2581proved": 1768,
  "\u2581walk": 1769,
  "\u2581F": 1770,
  "\u2581alone": 1771,
  "ituitu\u00ed": 1772,
  "\u2581happened": 1773,
  "\u2581assignment": 1774,
  "\u2581everything": 1775,
  "God": 1776,
  "\u2581thoughts": 1777,
  "\u2581office": 1778,
  "\u2581alo": 1779,
  "\u2581mamah\u00ed": 1780,
  "\u2581available": 1781,
  "\u2581kaung\u0101me": 1782,
  "\u2581langi": 1783,
  "\u2581students": 1784,
  "\u2581build": 1785,
  "\u2581earthly": 1786,
  "\u2581area": 1787,
  "\u2581nunu": 1788,
  "\u2581pouaki": 1789,
  "\u2581respond": 1790,
  "\u2581changed": 1791,
  "\u2581ngafa": 1792,
  "ha": 1793,
  "\u2581manava": 1794,
  "\u2581role": 1795,
  "\u2581tuof\u0101fine": 1796,
  "\u2581masiva": 1797,
  "\u2581ono": 1798,
  "\u2581precious": 1799,
  "\u2581source": 1800,
  "\u2581lele": 1801,
  "\u2581Tokoua": 1802,
  "\u2581faifekau": 1803,
  "\u2581tuofefine": 1804,
  "\u2581teachings": 1805,
  "\u2581die": 1806,
  "\u2581advice": 1807,
  "\u2581fakamateli\u00e9": 1808,
  "os\u00ed": 1809,
  "\u2581five": 1810,
  "\u2581fulikivanu": 1811,
  "\u2581concern": 1812,
  "\u2581reach": 1813,
  "\u2581training": 1814,
  "\u2581harmony": 1815,
  "Sio": 1816,
  "ke": 1817,
  "\u2581Fakatup\u00fa": 1818,
  "\u2581Brother": 1819,
  "\u2581named": 1820,
  "\u2581otua": 1821,
  "\u2581worldwide": 1822,
  "\u258122,": 1823,
  "\u2581express": 1824,
  "\u2581fulikivan\u00fa": 1825,
  "\u2581l\u0101ngilangi": 1826,
  "\u2581reasons": 1827,
  "ing\u00e1": 1828,
  "\u2581answers": 1829,
  "\u2581offered": 1830,
  "\u2581regular": 1831,
  "\u2581States": 1832,
  "\u2581ago": 1833,
  "\u2581meet": 1834,
  "\u2581fie": 1835,
  "\u2581manu": 1836,
  "\u2581responsibility": 1837,
  "\u2581Therefore": 1838,
  "\u2581sea": 1839,
  "\u2581fakal\u0101ngilangi": 1840,
  "\u2581First": 1841,
  "\u2581fakam\u0101l\u014d": 1842,
  "ena": 1843,
  "\u258134": 1844,
  "\u2581Just": 1845,
  "\u2581attend": 1846,
  "\u2581kakat\u00f3": 1847,
  "\u2581Folofol\u00e1": 1848,
  "\u2581foh\u00e1": 1849,
  "\u2581k\u0101k\u0101": 1850,
  "\u2581clearly": 1851,
  "\u2581helping": 1852,
  "\u2581open": 1853,
  "\u2581foretold": 1854,
  "\u2581guidance": 1855,
  "\u2581period": 1856,
  "\u2581whose": 1857,
  "\u2581praise": 1858,
  "\u2581tohoaki": 1859,
  "\u2581atama\u00ed": 1860,
  "\u2581chapter": 1861,
  "\u2581expect": 1862,
  "\u2581fakatanga": 1863,
  "\u2581ngoue": 1864,
  "\u2581position": 1865,
  "\u2581sins": 1866,
  "\u2581clean": 1867,
  "\u2581itself": 1868,
  "\u2581promised": 1869,
  "\u2581\u014d": 1870,
  "\u2581Egypt": 1871,
  "\u2581actions": 1872,
  "\u2581sin\u00f3": 1873,
  "\u2581described": 1874,
  "\u2581fakamatal\u00e1": 1875,
  "\u258124:": 1876,
  "\u2581church": 1877,
  "\u2581poor": 1878,
  "\u2581several": 1879,
  "\u2581action": 1880,
  "\u2581carry": 1881,
  "\u2581m\u0101l\u014dl\u014d": 1882,
  "\u2581Credit": 1883,
  "\u2581at\u00fa": 1884,
  "\u2581courage": 1885,
  "\u2581stay": 1886,
  "\u2581trials": 1887,
  "\u2581mataotao": 1888,
  "\u2581talu": 1889,
  "U": 1890,
  "\u2581Lelei": 1891,
  "\u2581appropriate": 1892,
  "\u2581daughter": 1893,
  "\u2581develop": 1894,
  "\u2581obey": 1895,
  "\u2581practical": 1896,
  "\u2581else": 1897,
  "\u2581modern": 1898,
  "\u2581convention": 1899,
  "\u2581met": 1900,
  "\u2581provides": 1901,
  "\u2581government": 1902,
  "\u2581regularly": 1903,
  "\u2581Have": 1904,
  "\u2581nonga": 1905,
  "\u2581tamasi": 1906,
  "\u2581veesi": 1907,
  "less": 1908,
  "\u2581wants": 1909,
  "\u2581English": 1910,
  "\u2581Later": 1911,
  "\u2581earlier": 1912,
  "\u2581published": 1913,
  "\u2581Most": 1914,
  "\u2581mamafa": 1915,
  "\u2581moral": 1916,
  "\u2581fakafisi": 1917,
  "\u2581seem": 1918,
  "\u2581po": 1919,
  "\u2581v\u0101ofi": 1920,
  "uta": 1921,
  "\u2581above": 1922,
  "\u2581activity": 1923,
  "\u2581grow": 1924,
  "\u2581results": 1925,
  "c": 1926,
  "\u2581fakahoa": 1927,
  "\u2581\u014dfisi": 1928,
  "\u2581Jacob": 1929,
  "\u2581Judah": 1930,
  "\u2581tafoki": 1931,
  "\u2581sivi": 1932,
  "\u2581Mei": 1933,
  "\u2581M\u012bsai\u00e1": 1934,
  "\u2581Saame": 1935,
  "\u2581easy": 1936,
  "\u2581encouraged": 1937,
  "\u2581occasion": 1938,
  "\u2581start": 1939,
  "\u2581Tower": 1940,
  "\u2581six": 1941,
  "\u2581tangi": 1942,
  "\u2581daily": 1943,
  "\u2581fakafuofua": 1944,
  "\u2581explains": 1945,
  "\u2581less": 1946,
  "\u2581l\u0101u": 1947,
  "\u2581tried": 1948,
  "\u2581working": 1949,
  "He": 1950,
  "amo": 1951,
  "\u2581join": 1952,
  "\u2581mapule": 1953,
  "\u2581s\u0101m\u00e9": 1954,
  "ap\u00ed": 1955,
  "\u2581Al\u00f3": 1956,
  "\u2581fakam\u0101u": 1957,
  "\u2581indeed": 1958,
  "\u2581missionary": 1959,
  "\u2581malav\u00e1": 1960,
  "aku": 1961,
  "\u2581t\u014dtu": 1962,
  "\u2581pain": 1963,
  "\u2581rich": 1964,
  "\u2581taukave": 1965,
  "\u2581Selusalem\u00e1": 1966,
  "\u2581servant": 1967,
  "\u2581'?": 1968,
  "\u2581showing": 1969,
  "\u2581single": 1970,
  "\u2581papitais\u00f3": 1971,
  "\u258124,": 1972,
  "\u2581feh\u0101laaki": 1973,
  "\u2581text": 1974,
  "\u2581takes": 1975,
  "\u2581languages": 1976,
  "\u2581rest": 1977,
  "\u2581tapua": 1978,
  "\u2581violence": 1979,
  "es": 1980,
  "\u2581accurate": 1981,
  "\u2581fulfillment": 1982,
  "\u2581talavo\u00fa": 1983,
  "\u2581display": 1984,
  "\u2581mohe": 1985,
  "\u2581M\u0101man\u00ed": 1986,
  "\u2581actually": 1987,
  "ul\u00ed": 1988,
  "\u2581elder": 1989,
  "ic": 1990,
  "\u2581makasini": 1991,
  "\u2581birth": 1992,
  "\u2581neither": 1993,
  "\u2581tree": 1994,
  "\u258131.": 1995,
  "\u2581eat": 1996,
  "\u2581endure": 1997,
  "\u2581faiak\u00f3": 1998,
  "\u2581learning": 1999,
  "\u2581palani": 2000,
  "\u2581M": 2001,
  "\u2581Timote": 2002,
  "\u2581kona": 2003,
  "],": 2004,
  "r": 2005,
  "\u2581laws": 2006,
  "\u2581enough": 2007,
  "\u2581II": 2008,
  "\u2581fakam\u0101toato": 2009,
  "\u2581Fai": 2010,
  "\u2581See": 2011,
  "\u2581amanak\u00ed": 2012,
  "\u2581anger": 2013,
  "\u2581everyone": 2014,
  "\u2581reflect": 2015,
  "ka": 2016,
  "\u258160": 2017,
  "\u2581salvation": 2018,
  "\u2581Hepelu": 2019,
  "\u2581Or": 2020,
  "\u2581invited": 2021,
  "\u2581kaiha": 2022,
  "\u2581decided": 2023,
  "\u2581evil": 2024,
  "\u2581general": 2025,
  "\u2581choose": 2026,
  "\u2581knows": 2027,
  "otua": 2028,
  "\u2581p\u014d": 2029,
  "\u2581Love": 2030,
  "\u2581Taimi": 2031,
  "\u2581interests": 2032,
  "\u2581muimu\u00ed": 2033,
  "\u2581vav\u00e9": 2034,
  "\u2581Society": 2035,
  "\u2581expression": 2036,
  "\u2581raised": 2037,
  "\u2581creation": 2038,
  "\u2581discipline": 2039,
  "\u2581faifakamo": 2040,
  "\u2581ng\u0101hi": 2041,
  "\u2581speech": 2042,
  "\u2581va\u00ed": 2043,
  "\u2581hingo\u00e1": 2044,
  "\u2581u\u00e1": 2045,
  "\u2581proper": 2046,
  "\u2581temipal\u00e9": 2047,
  "\u258170": 2048,
  "ali": 2049,
  "\u2581include": 2050,
  "\u2581ten": 2051,
  "tau": 2052,
  "\u2581Senesi": 2053,
  "\u2581addition": 2054,
  "\u2581imperfect": 2055,
  "\u2581created": 2056,
  "\u2581stop": 2057,
  "ong\u00e1": 2058,
  "\u2581interested": 2059,
  "\u2581Another": 2060,
  "\u2581Line": 2061,
  "\u2581ohofi": 2062,
  "\u2581fakasino": 2063,
  "\u2581Before": 2064,
  "\u2581Messiah": 2065,
  "\u2581M\u0101": 2066,
  "\u2581assigned": 2067,
  "\u2581lands": 2068,
  "\u2581shown": 2069,
  "ness": 2070,
  "\u2581L": 2071,
  "\u2581kita": 2072,
  "\u2581natural": 2073,
  "\u2581seeking": 2074,
  "\u2581write": 2075,
  "\u2581T\u0101nak": 2076,
  "\u2581challenge": 2077,
  "\u2581humble": 2078,
  "\u2581returned": 2079,
  "ongoongolelei": 2080,
  "\u2581d": 2081,
  "\u2581entire": 2082,
  "\u2581fitu": 2083,
  "\u2581voice": 2084,
  "he": 2085,
  "ki": 2086,
  "ting": 2087,
  "\u2581Awake": 2088,
  "\u2581enemies": 2089,
  "\u2581allowed": 2090,
  "\u2581myself": 2091,
  "\u2581ohake": 2092,
  "\u2581toto": 2093,
  "Te": 2094,
  "\u2581Lava": 2095,
  "O": 2096,
  "\u2581focus": 2097,
  "\u2581individual": 2098,
  "\u2581places": 2099,
  "\u2581Puh": 2100,
  "\u2581mafatukituki": 2101,
  "\u2581KE": 2102,
  "\u2581blessed": 2103,
  "\u2581illustration": 2104,
  "etotonu": 2105,
  "\u258129.": 2106,
  "\u2581positive": 2107,
  "\u2581Us": 2108,
  "\u2581Noa": 2109,
  "\u2581becoming": 2110,
  "\u2581hako": 2111,
  "\u2581sip\u00ed": 2112,
  "\u2581tokang\u00e1": 2113,
  "\u2581Holy": 2114,
  "\u2581quality": 2115,
  "\u2581unu": 2116,
  "\u2581ko\u00e9": 2117,
  "\u2581turned": 2118,
  "\u2581Others": 2119,
  "\u2581books": 2120,
  "\u2581husep\u0101niti": 2121,
  "\u2581Saula": 2122,
  "\u2581behind": 2123,
  "\u2581kolo\u00e1": 2124,
  "\u2581seven": 2125,
  "\u2581caused": 2126,
  "\u2581Tuku": 2127,
  "\u2581utu": 2128,
  "\u2581R": 2129,
  "\u2581Brooklyn": 2130,
  "\u00a9": 2131,
  "\u2581fel\u0101ve": 2132,
  "\u2581longomo": 2133,
  "\u2581subject": 2134,
  "\u2581walking": 2135,
  "\u258128.": 2136,
  "\u2581faitau": 2137,
  "\u2581ivi": 2138,
  "\u2581literature": 2139,
  "\u2581throughout": 2140,
  "\u2581desires": 2141,
  "\u2581force": 2142,
  "\u2581building": 2143,
  "\u2581favor": 2144,
  "\u2581hola": 2145,
  "\u2581benefits": 2146,
  "\u2581cultivate": 2147,
  "\u2581encouragement": 2148,
  "\u2581fakamamah\u00ed": 2149,
  "\u2581goals": 2150,
  "\u2581protect": 2151,
  "\u2581realize": 2152,
  "\u2581Ene": 2153,
  "\u2581Kol": 2154,
  "\u2581prayed": 2155,
  "\u2581pul\u00e9": 2156,
  "\u2581bear": 2157,
  "\u2581fakatomala": 2158,
  "\u2581misinale": 2159,
  "\u2581paradise": 2160,
  "\u2581exercise": 2161,
  "\u2581genuine": 2162,
  "\u2581goal": 2163,
  "\u2581matakali": 2164,
  ".)": 2165,
  "ehaohaoa": 2166,
  "\u2581kakano": 2167,
  "ahine": 2168,
  "\u2581families": 2169,
  "\u2581freedom": 2170,
  "\u2581hours": 2171,
  "\u2581encourage": 2172,
  "able": 2173,
  "\u2581mu\u00ed": 2174,
  "\u2581tokangataha": 2175,
  "\u2581Amelika": 2176,
  "\u2581countries": 2177,
  "\u2581happen": 2178,
  "\u2581short": 2179,
  "l": 2180,
  "mo": 2181,
  "\u258121,": 2182,
  "\u2581Young": 2183,
  "\u2581basis": 2184,
  "\u2581warning": 2185,
  "\u2581Keep": 2186,
  "\u2581fakaofiofi": 2187,
  "\u2581studying": 2188,
  "\u2581worked": 2189,
  "\u2581La\u00f3": 2190,
  "\u2581firm": 2191,
  "\u2581fruit": 2192,
  "\u2581justice": 2193,
  "\u2581millions": 2194,
  "\u2581Though": 2195,
  "\u2581faced": 2196,
  "\u2581ready": 2197,
  "\u2581sign": 2198,
  "fuofua": 2199,
  "\u2581changes": 2200,
  "\u2581crowd": 2201,
  "\u2581destruction": 2202,
  "\u2581door": 2203,
  "\u2581faitotonu": 2204,
  "\u2581Hepelu\u00fa": 2205,
  "\u2581fakahoha": 2206,
  "\u2581centuries": 2207,
  "\u2581side": 2208,
  "\u258115]": 2209,
  "\u2581Joshua": 2210,
  "\u2581Translation": 2211,
  "\u2581personality": 2212,
  "\u2581pressure": 2213,
  "\u2581quit": 2214,
  "fononga": 2215,
  "w": 2216,
  "\u2581knowing": 2217,
  "\u2581la\u00fa": 2218,
  "\u2581enjoyed": 2219,
  "\u2581million": 2220,
  "\u2581practice": 2221,
  "\u2581brings": 2222,
  "\u2581thousands": 2223,
  "\u2581traveling": 2224,
  "\u25817]": 2225,
  "\u2581added": 2226,
  "\u2581atamai": 2227,
  "\u2581laumalie": 2228,
  "\u2581seems": 2229,
  "\u2581Perhaps": 2230,
  "\u2581Sion\u00e9": 2231,
  "\u2581acts": 2232,
  "\u2581behalf": 2233,
  "\u2581condition": 2234,
  "\u2581least": 2235,
  "\u2581Similarly": 2236,
  "\u2581enable": 2237,
  "\u2581job": 2238,
  "\u2581\u0112palaham\u00e9": 2239,
  "\u2581kaveinga": 2240,
  "\u2581tefit\u00f3": 2241,
  "\u2581week": 2242,
  "\u2581Eik\u00ed": 2243,
  "\u2581quickly": 2244,
  "\u2581sacrifices": 2245,
  "\u2581Great": 2246,
  "\u2581Ivi": 2247,
  "\u2581record": 2248,
  "nd": 2249,
  "\u2581fakatauele": 2250,
  "akau": 2251,
  "\u258130.": 2252,
  "\u2581MO": 2253,
  "\u2581fakautuutu": 2254,
  "re": 2255,
  "\u2581100": 2256,
  "\u2581July": 2257,
  "\u2581line": 2258,
  "\u2581sacred": 2259,
  "\u2581tenge": 2260,
  "\u2581education": 2261,
  "\u2581v\u0113keveke": 2262,
  "\u2581member": 2263,
  "\u2581unity": 2264,
  "\u2581Hepel\u016b": 2265,
  "\u2581alive": 2266,
  "\u2581tribulation": 2267,
  "\u2581Matt": 2268,
  "\u2581Taha": 2269,
  "\u2581greatest": 2270,
  "\u2581mercy": 2271,
  "\u2581talangata": 2272,
  "\u2581Taniela": 2273,
  "\u2581progress": 2274,
  "aho": 2275,
  "\u2581Loto": 2276,
  "\u2581kelekele": 2277,
  "\u2581revealed": 2278,
  "\u2581s\u012bpinga": 2279,
  "\u2581tokosi": 2280,
  "\u2581humility": 2281,
  "\u2581necessary": 2282,
  "\u2581report": 2283,
  "\u2581Tauhi": 2284,
  "\u2581lesson": 2285,
  "\u2581tells": 2286,
  "\u2581test": 2287,
  "\u2581tokon\u00ed": 2288,
  "atu": 2289,
  "\u2581arrived": 2290,
  "\u2581leaders": 2291,
  "\u2581tukunoa": 2292,
  "\u2581\u0101ngel\u00f3": 2293,
  "\u2581beyond": 2294,
  "\u2581command": 2295,
  "\u2581feet": 2296,
  "\u2581fulfilled": 2297,
  "\u2581mahalo": 2298,
  "\u2581morning": 2299,
  "\u2581Ephesians": 2300,
  "\u2581fait\u014dnung\u00e1": 2301,
  "\u25811914": 2302,
  "\u2581angel": 2303,
  "\u2581fakaue": 2304,
  "\u2581percent": 2305,
  "\u2581sexual": 2306,
  "Ke": 2307,
  "\u2581publications": 2308,
  "\u2581tamaiki": 2309,
  "\u2581Further": 2310,
  "\u2581Selemaia": 2311,
  "\u2581deeply": 2312,
  "\u2581Lotu": 2313,
  "\u2581asi": 2314,
  "\u2581devotion": 2315,
  "\u2581lack": 2316,
  "\u2581yourselves": 2317,
  "\u2581HIVA": 2318,
  "\u2581getting": 2319,
  "\u2581looking": 2320,
  "\u2581sound": 2321,
  "\u2581ngalo": 2322,
  "\u2581peset": 2323,
  "eke": 2324,
  "\u2581SONGS": 2325,
  "\u2581ahead": 2326,
  "\u2581choice": 2327,
  "\u2581expressed": 2328,
  "\u2581fakapa": 2329,
  "\u2581girl": 2330,
  "If": 2331,
  "\u2581loyalty": 2332,
  "\u2581magazine": 2333,
  "\u2581miles": 2334,
  "\u2581priest": 2335,
  "\u2581wonder": 2336,
  "\u2581challenges": 2337,
  "\u2581nim\u00e1": 2338,
  "\u2581persecution": 2339,
  "\u2581priests": 2340,
  "\u2581HA": 2341,
  "\u2581truths": 2342,
  "ama": 2343,
  "aka\u00ed": 2344,
  "evertheless": 2345,
  "\u2581KI": 2346,
  "Do": 2347,
  "\u2581Babylon": 2348,
  "\u2581followed": 2349,
  "\u2581suffer": 2350,
  "\u2581fakaikiiki": 2351,
  "\u2581related": 2352,
  "\u2581temipale": 2353,
  "\u258123]": 2354,
  "\u2581beginning": 2355,
  "\u2581importance": 2356,
  "\u2581keeping": 2357,
  "\u258126.": 2358,
  "\u2581accounts": 2359,
  "\u2581dedication": 2360,
  "\u2581examine": 2361,
  "\u2581fakatotolo": 2362,
  "\u2581TO": 2363,
  "\u2581wives": 2364,
  "We": 2365,
  "\u2581Vakai": 2366,
  "\u2581sometimes": 2367,
  "\u2581sovereignty": 2368,
  "\u2581studies": 2369,
  "\u2581York": 2370,
  "\u2581dedicated": 2371,
  "\u2581former": 2372,
  "\u2581protection": 2373,
  "\u258127.": 2374,
  "\u2581fakangata": 2375,
  "\u2581final": 2376,
  "\u2581loki": 2377,
  "\u2581tuha": 2378,
  "\u258118:": 2379,
  "\u258133.": 2380,
  "\u2581eventually": 2381,
  "\u2581iiki": 2382,
  "\u258128,": 2383,
  "\u2581beautiful": 2384,
  "\u2581conditions": 2385,
  "\u2581fifili": 2386,
  "utup\u00fa": 2387,
  "\u2581Uluak\u00ed": 2388,
  "\u2581fepaki": 2389,
  "\u2581approach": 2390,
  "\u2581ekinaki": 2391,
  "\u2581personally": 2392,
  "\u2581prison": 2393,
  "\u2581Hoko": 2394,
  "\u2581Remember": 2395,
  "\u2581aware": 2396,
  "\u2581mat\u00e1": 2397,
  "\u2581prepared": 2398,
  "\u2581toket\u0101": 2399,
  "\u2581vaka": 2400,
  "\u2581School": 2401,
  "\u2581Soon": 2402,
  "\u2581ho\u00e1": 2403,
  "\u2581w": 2404,
  "\u2581akonak\u00ed": 2405,
  "\u2581fire": 2406,
  "\u2581steps": 2407,
  "\u2581usually": 2408,
  "\u2581Dr": 2409,
  "\u2581involves": 2410,
  "\u2581potu": 2411,
  "\u2581St": 2412,
  "\u2581arrangement": 2413,
  "\u2581NA": 2414,
  "\u2581Siop\u00e9": 2415,
  "\u2581completely": 2416,
  "\u2581ilifia": 2417,
  "\u2581mohu": 2418,
  "\u2581talaki": 2419,
  "\u2581Ask": 2420,
  "\u2581Elijah": 2421,
  "\u2581don": 2422,
  "\u2581fakam\u0101loh\u00ed": 2423,
  "\u2581hulu": 2424,
  "\u2581state": 2425,
  "\u2581address": 2426,
  "\u2581toenga": 2427,
  "\u2581Gilead": 2428,
  "\u2581observe": 2429,
  "\u2581pioneers": 2430,
  "\u2581spent": 2431,
  "\u2581success": 2432,
  "\u2581whatever": 2433,
  "us": 2434,
  "\u2581Ruth": 2435,
  "\u2581included": 2436,
  "\u2581afi": 2437,
  "\u2581fakasin\u00f3": 2438,
  "\u2581youths": 2439,
  "\u2581nga": 2440,
  "\u2581ohovale": 2441,
  "tu": 2442,
  "\u2581h\u0113van\u00ed": 2443,
  "utupu": 2444,
  "\u2581Clearly": 2445,
  "\u2581Siosifa": 2446,
  "\u2581de": 2447,
  "\u2581kit\u00e1": 2448,
  "\u2581melin\u00f3": 2449,
  "\u2581palataisi": 2450,
  "emau": 2451,
  "\u2581Ps": 2452,
  "\u2581fakat\u014dkilal\u00f3": 2453,
  "\u2581opposition": 2454,
  "\u2581disciple": 2455,
  "\u2581fakalot\u00fa": 2456,
  "\u2581trying": 2457,
  "It": 2458,
  "\u25819]": 2459,
  "\u2581fakaf\u0101mil\u00ed": 2460,
  "\u2581original": 2461,
  "\u2581presence": 2462,
  "\u2581treat": 2463,
  "amu": 2464,
  "on": 2465,
  "\u2581km": 2466,
  "\u2581masiv\u00e1": 2467,
  "\u2581meant": 2468,
  "uloa": 2469,
  "\u258118]": 2470,
  "\u2581Catholic": 2471,
  "\u2581prepare": 2472,
  "\u2581resurrected": 2473,
  "\u2581strive": 2474,
  "\u2581urged": 2475,
  "\u2581fakafaito": 2476,
  "\u2581beliefs": 2477,
  "\u2581either": 2478,
  "\u2581fakalea": 2479,
  "\u2581missionaries": 2480,
  "\u2581worshippers": 2481,
  "\u2581Kalis\u00ed": 2482,
  "\u2581feeling": 2483,
  "\u2581recognize": 2484,
  "\u2581simple": 2485,
  "kau": 2486,
  "\u2581Where": 2487,
  "\u2581filled": 2488,
  "\u2581Peh\u0113": 2489,
  "\u2581fakak\u0101toa": 2490,
  "\u2581lanu": 2491,
  "or": 2492,
  "\u2581efiafi": 2493,
  "\u2581fika": 2494,
  "\u2581tol\u00fa": 2495,
  "\u258110]": 2496,
  "\u2581areas": 2497,
  "\u2581muli": 2498,
  "\u2581parent": 2499,
  "\u258126]": 2500,
  "\u2581Through": 2501,
  "\u2581picture": 2502,
  "\u2581contrast": 2503,
  "\u2581neighbor": 2504,
  "\u2581overseer": 2505,
  ").": 2506,
  "\u2581Good": 2507,
  "\u2581mafa\u00ed": 2508,
  "\u2581fakahangatonu": 2509,
  "\u2581program": 2510,
  "\u258135.": 2511,
  "\u2581Fakatokanga": 2512,
  "\u2581Memorial": 2513,
  "\u2581carefully": 2514,
  "\u2581puha": 2515,
  "\u2581rejoice": 2516,
  "\u2581fakafe": 2517,
  "\u2581fakatup\u00fa": 2518,
  "\u2581tutu": 2519,
  "\u258123,": 2520,
  "\u2581fall": 2521,
  "\u2581kings": 2522,
  "\u2581half": 2523,
  "\u2581month": 2524,
  "\u258136": 2525,
  "\u2581Isipit\u00e9": 2526,
  "\u2581almo": 2527,
  "\u2581boy": 2528,
  "\u2581explain": 2529,
  "\u2581parts": 2530,
  "\u2581sun": 2531,
  "\u2581fakamanamana": 2532,
  "\u2581obedience": 2533,
  "\u2581About": 2534,
  "\u2581fakaetangata": 2535,
  "\u2581flock": 2536,
  "\u2581spoken": 2537,
  "\u2581fakanatula": 2538,
  "\u2581Questions": 2539,
  "\u2581Rome": 2540,
  "\u2581closer": 2541,
  "\u2581f\u0101inga": 2542,
  "efa": 2543,
  "uekina": 2544,
  "\u2581hen\u00ed": 2545,
  "\u2581political": 2546,
  "\u2581third": 2547,
  "\u2581contact": 2548,
  "\u2581kui": 2549,
  "\u2581noted": 2550,
  "\u2581polokalama": 2551,
  "\u2581tupulaki": 2552,
  "aonga": 2553,
  "\u2581hangatonu": 2554,
  "\u2581matavai": 2555,
  "\u2581shepherd": 2556,
  "\u2581tongue": 2557,
  "\u2581T\u012bmote": 2558,
  "\u2581fakal\u016bkufua": 2559,
  "\u2581fekumi": 2560,
  "\u2581fight": 2561,
  "\u00b7": 2562,
  "\u2581Mele": 2563,
  "\u2581send": 2564,
  "\u2581spend": 2565,
  "\u2581apasia": 2566,
  "\u2581association": 2567,
  "\u2581fakah\u0101ha": 2568,
  "\u2581fakamu": 2569,
  "\u2581kup\u00fa": 2570,
  "\u2581minister": 2571,
  "\u2581prevent": 2572,
  "nau": 2573,
  "\u2581begin": 2574,
  "\u2581fakalao": 2575,
  "\u2581lose": 2576,
  "\u2581publishers": 2577,
  "\u2581realized": 2578,
  "\u2581required": 2579,
  "org": 2580,
  "\u2581attending": 2581,
  "\u2581elderly": 2582,
  "\u2581forward": 2583,
  "\u25811.": 2584,
  "\u2581demonstrate": 2585,
  "\u2581uli": 2586,
  "an": 2587,
  "\u2581G": 2588,
  "\u2581Isipite": 2589,
  "\u2581specific": 2590,
  "\u2581town": 2591,
  "].": 2592,
  "\u2581feangainga": 2593,
  "\u2581Afilika": 2594,
  "\u2581affection": 2595,
  "\u2581sharing": 2596,
  "\u2581War": 2597,
  "\u2581passed": 2598,
  "iloto": 2599,
  "\u2581Pilit\u0101nia": 2600,
  "\u2581experiences": 2601,
  "\u2581offering": 2602,
  "\u2581IN": 2603,
  "\u2581P\u0113tel\u00ed": 2604,
  "\u2581fakam\u0101": 2605,
  "\u2581mana": 2606,
  "\u2581Fehu": 2607,
  "\u2581destroyed": 2608,
  "\u2581workers": 2609,
  "\u2581Kulupu": 2610,
  "\u2581pay": 2611,
  "\u2581pure": 2612,
  "\u2581security": 2613,
  "\u2581\u0101takai": 2614,
  "Let": 2615,
  "\u2581femo": 2616,
  "\u2581mental": 2617,
  "\u02b9": 2618,
  "\u2581fakafonu": 2619,
  "\u2581standing": 2620,
  "ta": 2621,
  "\u2581key": 2622,
  "\u2581vision": 2623,
  "\u2581visited": 2624,
  "\u2581youth": 2625,
  "est": 2626,
  "\u2581fanong\u00f3": 2627,
  "\u2581ground": 2628,
  "\u2581valuable": 2629,
  "\u2581lo": 2630,
  "\u2581produce": 2631,
  "\u2581seemed": 2632,
  "atau": 2633,
  "\u2581fakaesino": 2634,
  "\u2581maau": 2635,
  "\u2581olunga": 2636,
  "\u2581remained": 2637,
  "\u2581seed": 2638,
  "iloaki": 2639,
  "\u2581outside": 2640,
  "\u258145": 2641,
  "\u2581Body": 2642,
  "\u2581Mou": 2643,
  "\u2581cope": 2644,
  "\u2581discreet": 2645,
  "\u2581fakavaivai": 2646,
  "\u2581matap\u0101": 2647,
  "\u2581Church": 2648,
  "\u2581South": 2649,
  "\u2581evening": 2650,
  "\u2581image": 2651,
  "\u2581kaung\u0101tu\u00ed": 2652,
  "\u2581mahak\u00ed": 2653,
  "\u2581reports": 2654,
  "\u2581term": 2655,
  "anau": 2656,
  "en": 2657,
  "\u2581asking": 2658,
  "\u2581response": 2659,
  "\u2581situations": 2660,
  "\u258117]": 2661,
  "\u2581attended": 2662,
  "\u2581chosen": 2663,
  "\u2581declared": 2664,
  "\u2581obedient": 2665,
  "\u2581consequences": 2666,
  "\u2581hisit\u014dlia": 2667,
  "\u2581nature": 2668,
  "\u2581\u014dfisa": 2669,
  "\u2581bread": 2670,
  "\u2581calls": 2671,
  "\u2581delight": 2672,
  "\u2581Ilo": 2673,
  "\u2581fakakau": 2674,
  "\u2581resist": 2675,
  "olung\u00e1": 2676,
  "\u2581Cor": 2677,
  "\u2581Was": 2678,
  "\u2581discuss": 2679,
  "\u2581fakatamaki": 2680,
  "\u2581heka": 2681,
  "\u2581imagine": 2682,
  "\u2581effective": 2683,
  "\u2581established": 2684,
  "\u2581fakam\u0101nako": 2685,
  "\u2581fakasi": 2686,
  "\u25815]": 2687,
  "\u2581Tala": 2688,
  "\u2581continues": 2689,
  "\u2581mafasia": 2690,
  "\u2581sort": 2691,
  "\u2581surely": 2692,
  "et\u0101\u00fa": 2693,
  "\u2581Christianity": 2694,
  "\u2581Solomon\u00e9": 2695,
  "\u2581observed": 2696,
  "\u2581teacher": 2697,
  "\u2581wine": 2698,
  "\u25814;": 2699,
  "\u2581boto": 2700,
  "\u2581fakafonua": 2701,
  "\u2581opening": 2702,
  "In": 2703,
  "\u2581T\u0101": 2704,
  "\u2581kilomita": 2705,
  "\u2581sex": 2706,
  "\u2581sias\u00ed": 2707,
  "\u2581student": 2708,
  "\u2581territory": 2709,
  "\u2581vete": 2710,
  "ma": 2711,
  "\u2581Each": 2712,
  "\u2581confident": 2713,
  "\u2581event": 2714,
  "\u2581homes": 2715,
  "\u2581Govern": 2716,
  "\u2581articles": 2717,
  "\u2581foung\u00e1": 2718,
  "\u2581guard": 2719,
  "\u2581pil\u012bsone": 2720,
  "\u2581verse": 2721,
  "\u2581Niu": 2722,
  "\u2581endurance": 2723,
  "\u2581Founga": 2724,
  "\u2581break": 2725,
  "\u2581sitepu": 2726,
  "\u2581compassion": 2727,
  "\u2581folau": 2728,
  "\u2581idea": 2729,
  "\u2581malohi": 2730,
  "\u2581reveal": 2731,
  "\u2581sincere": 2732,
  "\u25a1": 2733,
  "\u2581conclusion": 2734,
  "\u2581faikehekehe": 2735,
  "\u2581forget": 2736,
  "\u2581grateful": 2737,
  "\u2581manako": 2738,
  "\u2581fail": 2739,
  "\u2581k\u0101tak\u00ed": 2740,
  "\u2581limited": 2741,
  "\u2581lot": 2742,
  "\u2581papau": 2743,
  "\u2581sev\u0101nit\u00ed": 2744,
  "\u2581Siamane": 2745,
  "\u2581Tim": 2746,
  "\u2581Tokoni": 2747,
  "\u2581built": 2748,
  "\u2581riches": 2749,
  "\u2581step": 2750,
  "\u2581tap\u00fa": 2751,
  "PM": 2752,
  "ah\u00f3": 2753,
  "\u258110;": 2754,
  "\u2581Fakafo": 2755,
  "\u258138": 2756,
  "\u2581immediately": 2757,
  "\u2581zeal": 2758,
  "etaau": 2759,
  "etotongi": 2760,
  "\u2581(2)": 2761,
  "\u2581fakalotofonu\u00e1": 2762,
  "\u2581Over": 2763,
  "\u2581friendship": 2764,
  "\u2581pale": 2765,
  "\u2581requires": 2766,
  "\u2581Africa": 2767,
  "\u2581note": 2768,
  "\u2581points": 2769,
  "\u2581pursue": 2770,
  "\u2581react": 2771,
  "\u2581request": 2772,
  "\u2581t\u014dt\u014divi": 2773,
  "\u2581Siosiua": 2774,
  "\u2581concerning": 2775,
  "\u2581emotional": 2776,
  "\u2581tuof\u0101fin\u00e9": 2777,
  "\u2581fakata": 2778,
  "\u2581hour": 2779,
  "\u2581lolotong\u00e1": 2780,
  "more": 2781,
  "\u2581Fekau": 2782,
  "\u2581k\u0101tekina": 2783,
  "\u2581seeing": 2784,
  "\u2581(1)": 2785,
  "\u2581fakapule": 2786,
  "\u2581fakataumu": 2787,
  "\u2581relief": 2788,
  "falala": 2789,
  "me": 2790,
  "\u2581Efeso": 2791,
  "\u2581includes": 2792,
  "\u2581relatives": 2793,
  "\u2581reward": 2794,
  "\u2581viewed": 2795,
  "\u258165": 2796,
  "\u2581Paradise": 2797,
  "\u2581answered": 2798,
  "\u2581fruitage": 2799,
  "\u2581groups": 2800,
  "\u2581kofu": 2801,
  "\u2581listening": 2802,
  "\u2581Bl": 2803,
  "\u2581circuit": 2804,
  "\u2581contribute": 2805,
  "\u2581mouth": 2806,
  "\u2581teachers": 2807,
  "\u2581warned": 2808,
  "\u2581watch": 2809,
  "\u2581Fo": 2810,
  "\u2581eye": 2811,
  "\u2581foreign": 2812,
  "\u2581opened": 2813,
  "\u2581translation": 2814,
  "\u258125]": 2815,
  "\u2581Family": 2816,
  "\u2581Pennsylvania": 2817,
  "\u2581Should": 2818,
  "\u2581acceptable": 2819,
  "\u2581overcome": 2820,
  "\u2581suffered": 2821,
  "\u2581tofi": 2822,
  "AHI": 2823,
  "\u2581concerned": 2824,
  "\u2581fakafiefi\u00e1": 2825,
  "Mou": 2826,
  "aite": 2827,
  "\u2581P\u0113teli": 2828,
  "\u2581danger": 2829,
  "\u2581manner": 2830,
  "emalava": 2831,
  "\u2581Only": 2832,
  "\u2581convinced": 2833,
  "\u2581destroy": 2834,
  "\u2581lalah\u00ed": 2835,
  "\u2581major": 2836,
  "\u2581preached": 2837,
  "\u2581Iun": 2838,
  "\u2581fakaava": 2839,
  "ake": 2840,
  "\u2581encouraging": 2841,
  "\u2581tof": 2842,
  "\u2581animals": 2843,
  "\u2581existence": 2844,
  "\u2581household": 2845,
  "\u2581negative": 2846,
  "usi": 2847,
  "\u2581Also": 2848,
  "\u2581although": 2849,
  "\u2581invitation": 2850,
  "\u2581approval": 2851,
  "\u2581cases": 2852,
  "\u2581claim": 2853,
  "\u2581fakaivif": 2854,
  "\u2581play": 2855,
  "\u2581recent": 2856,
  "\u2581social": 2857,
  "\u2581toputapu": 2858,
  "ulaloa": 2859,
  "ve": 2860,
  "\u2581Motu": 2861,
  "\u2581manifest": 2862,
  "\u2581becomes": 2863,
  "\u2581car": 2864,
  "\u2581commanded": 2865,
  "\u2581referred": 2866,
  "ers": 2867,
  "\u2581High": 2868,
  "\u2581Sea": 2869,
  "\u2581overseers": 2870,
  "oha": 2871,
  "\u2581fakamatelie": 2872,
  "\u2581late": 2873,
  "\u2581remind": 2874,
  "\u2581valu": 2875,
  "Ka": 2876,
  "\u2581Mahu": 2877,
  "\u2581failed": 2878,
  "\u2581finally": 2879,
  "\u2581room": 2880,
  "\u258135": 2881,
  "\u2581Work": 2882,
  "\u2581appear": 2883,
  "\u2581gifts": 2884,
  "\u2581refused": 2885,
  "p": 2886,
  "\u2581August": 2887,
  "\u2581loss": 2888,
  "This": 2889,
  "ahita": 2890,
  "\u2581la\u00f3": 2891,
  "\u258132.": 2892,
  "\u2581Mount": 2893,
  "\u2581Setet\u00e9": 2894,
  "\u2581army": 2895,
  "\u2581consideration": 2896,
  "\u2581medical": 2897,
  "\u2581military": 2898,
  "\u2581reasonable": 2899,
  "\u258113]": 2900,
  "\u2581Well": 2901,
  "\u2581basic": 2902,
  "\u2581practices": 2903,
  "\u2581sight": 2904,
  "\u2581siolot": 2905,
  "\u2581finangal\u00f3": 2906,
  "\u2581patience": 2907,
  "\u2581presented": 2908,
  "\u2581takai": 2909,
  "ang\u0101ue": 2910,
  "\u2581Really": 2911,
  "\u2581accomplish": 2912,
  "\u2581fakaefakat\u0101t\u0101": 2913,
  "\u2581increase": 2914,
  "\u2581instead": 2915,
  "\u2581save": 2916,
  "\u2581Filipai": 2917,
  "\u2581Germany": 2918,
  "\u2581easily": 2919,
  "\u2581fakalotomamahi": 2920,
  "\u2581guide": 2921,
  "\u2581tahi": 2922,
  "\u2581Philippians": 2923,
  "\u2581agree": 2924,
  "\u2581developed": 2925,
  "\u2581front": 2926,
  "all": 2927,
  "like": 2928,
  "mong": 2929,
  "ulia": 2930,
  "\u2581(\"": 2931,
  "\u2581fakataimi": 2932,
  "\u2581fuf\u016b": 2933,
  "\u2581society": 2934,
  "\u2581zealous": 2935,
  "\u2581Fakamaau": 2936,
  "\u2581forgiveness": 2937,
  "\u2581principle": 2938,
  "\u2581mahen\u00ed": 2939,
  "\u2581satisfaction": 2940,
  "\u2581il\u00f3": 2941,
  "\u2581konis\u0113nisi": 2942,
  "\u2581m\u0101m\u0101lie": 2943,
  "\u2581sick": 2944,
  "\u2581uses": 2945,
  "\u2581119": 2946,
  "\u2581caring": 2947,
  "\u2581m": 2948,
  "\u2581prospect": 2949,
  "\u2581v\u012bsone": 2950,
  "\u2581Atu": 2951,
  "\u2581Pul\u00e9": 2952,
  "\u2581active": 2953,
  "\u2581fakavave": 2954,
  "\u2581it\u00e1": 2955,
  "\u2581koto": 2956,
  "\u2581ofo": 2957,
  "\u2581responsible": 2958,
  "\u2581Falanis\u0113": 2959,
  "\u2581P\u0101pilon\u00e9": 2960,
  "\u2581poini": 2961,
  "\u2581takimu": 2962,
  "\u2581\u0100": 2963,
  "When": 2964,
  "\u2581Aki": 2965,
  "\u2581Isaac": 2966,
  "\u2581Kiliat\u00ed": 2967,
  "\u2581Make": 2968,
  "\u2581apiak\u00f3": 2969,
  "\u2581assist": 2970,
  "\u2581enter": 2971,
  "\u2581evident": 2972,
  "\u2581garden": 2973,
  "\u2581issues": 2974,
  "\u2581manakoa": 2975,
  "\u2581offspring": 2976,
  "\u2581busy": 2977,
  "\u2581fakaha": 2978,
  "\u2581k\u0101ka": 2979,
  "\u2581looked": 2980,
  "le": 2981,
  "\u2581Fakatupu": 2982,
  "\u2581creatures": 2983,
  "\u2581understood": 2984,
  "\u2581welcome": 2985,
  "apule": 2986,
  "responsibilities": 2987,
  "\u2581Aho": 2988,
  "\u2581eating": 2989,
  "\u2581fakakikihi": 2990,
  "\u2581otu": 2991,
  "\u2581wait": 2992,
  "ulalo": 2993,
  "\u2581Fili": 2994,
  "\u2581No\u00e1": 2995,
  "\u2581aspects": 2996,
  "\u2581auha": 2997,
  "\u2581names": 2998,
  "\u2581publication": 2999,
  "\u2581universe": 3000,
  "\u2581Gospel": 3001,
  "\u2581affected": 3002,
  "\u2581cut": 3003,
  "\u2581measure": 3004,
  "\u258125,": 3005,
  "\u2581Being": 3006,
  "\u2581lie": 3007,
  "\u2581master": 3008,
  "\u2581spread": 3009,
  "\u2581train": 3010,
  "\u2581Her": 3011,
  "\u2581energy": 3012,
  "\u2581fakapo": 3013,
  "\u2581insight": 3014,
  "\u2581praying": 3015,
  "\u2581fakahu": 3016,
  "\u2581prophecies": 3017,
  "ni": 3018,
  "\u2581Help": 3019,
  "\u2581behavior": 3020,
  "\u2581greatly": 3021,
  "ohovale": 3022,
  "\u2581June": 3023,
  "\u2581careful": 3024,
  "\u2581comments": 3025,
  "\u2581discussed": 3026,
  "\u2581eight": 3027,
  "\u2581fulfill": 3028,
  "\u2581hearing": 3029,
  "\u2581trained": 3030,
  "\u2581warm": 3031,
  "\u2581Once": 3032,
  "\u2581conversation": 3033,
  "\u2581fakah\u0113vani": 3034,
  "\u2581mateak\u00ed": 3035,
  "\u2581secular": 3036,
  "\u2581fakaeongo": 3037,
  "\u2581grew": 3038,
  "\u2581kautah\u00e1": 3039,
  "\u2581killed": 3040,
  "\u2581lolo": 3041,
  "\u2581Sisu": 3042,
  "\u2581commandments": 3043,
  "\u2581harvest": 3044,
  "\u2581helpful": 3045,
  "\u2581man\u00fa": 3046,
  "\u2581particularly": 3047,
  "\u2581tagata": 3048,
  "\u2581tapui": 3049,
  "For": 3050,
  "Kapau": 3051,
  "\u258142": 3052,
  "\u2581fakaanga": 3053,
  "\u2581olung\u00e1": 3054,
  "\u2581discussion": 3055,
  "\u2581ofefine": 3056,
  "\u2581opportunities": 3057,
  "\u2581adds": 3058,
  "\u2581disease": 3059,
  "\u2581inside": 3060,
  "\u2581raise": 3061,
  "\u2581Study": 3062,
  "\u2581Under": 3063,
  "\u2581manavahe": 3064,
  "\u2581pleasure": 3065,
  "\u258129,": 3066,
  "\u2581assured": 3067,
  "\u2581fakafokif\u0101": 3068,
  "\u2581immoral": 3069,
  "\u2581judge": 3070,
  "\u2581particular": 3071,
  "\u2581prophets": 3072,
  "\u2581successful": 3073,
  "\u2581lautohi": 3074,
  "\u2581type": 3075,
  "\u2581\u25cf": 3076,
  "\u2581contains": 3077,
  "\u2581direct": 3078,
  "\u2581fill": 3079,
  "\u2581kelekel\u00e9": 3080,
  "\u2581produced": 3081,
  "\u2581vala": 3082,
  "\u2581Colossians": 3083,
  "\u2581S\u0113kope": 3084,
  "\u2581extent": 3085,
  "\u2581younger": 3086,
  "\u2581Laumalie": 3087,
  "\u2581Sai": 3088,
  "\u2581faithfully": 3089,
  "\u2581fakamalanga": 3090,
  "\u2581growth": 3091,
  "\u2581island": 3092,
  "\u2581values": 3093,
  "f": 3094,
  "\u2581Sarah": 3095,
  "\u2581battle": 3096,
  "\u2581drink": 3097,
  "\u2581loves": 3098,
  "\u2581search": 3099,
  "ulungaanga": 3100,
  "\u2581Faith": 3101,
  "\u2581Tangata": 3102,
  "\u2581appeared": 3103,
  "\u2581enemy": 3104,
  "\u2581undeserved": 3105,
  "\u2581amount": 3106,
  "\u2581anxiety": 3107,
  "\u2581keli": 3108,
  "\u2581reported": 3109,
  "\u2581road": 3110,
  "\u2581statement": 3111,
  "\u2581weeks": 3112,
  "\u2581Answer": 3113,
  "\u2581fakalaka": 3114,
  "\u2581konis\u0113nis\u00ed": 3115,
  "\u2581responded": 3116,
  "\u2581treatment": 3117,
  "\u2581(3)": 3118,
  "\u2581Children": 3119,
  "\u2581Siuta": 3120,
  "\u2581chose": 3121,
  "\u2581gods": 3122,
  "\u2581identify": 3123,
  "and": 3124,
  "\u2581believed": 3125,
  "\u2581carried": 3126,
  "\u2581fakamele": 3127,
  "\u2581maliu": 3128,
  "\u2581noa": 3129,
  "omata": 3130,
  "\u258126,": 3131,
  "\u2581agatonu": 3132,
  "\u2581correct": 3133,
  "\u2581forgive": 3134,
  "\u2581merely": 3135,
  "\u2581mountain": 3136,
  "Faka": 3137,
  "ar": 3138,
  "\u258155": 3139,
  "\u2581Hake": 3140,
  "\u2581Land": 3141,
  "\u2581bearing": 3142,
  "\u2581fakahalaia": 3143,
  "\u2581natula": 3144,
  "\u2581purposes": 3145,
  "\u2581reached": 3146,
  "\u2581waiting": 3147,
  "as": 3148,
  "\u258148": 3149,
  "\u2581business": 3150,
  "\u2581leading": 3151,
  "ufa": 3152,
  "\u2581Aise\u00e1": 3153,
  "\u2581describes": 3154,
  "\u2581fafanga": 3155,
  "\u2581fakakaukauloto": 3156,
  "\u2581lessons": 3157,
  "\u2581subjects": 3158,
  "\u2581temptation": 3159,
  "is": 3160,
  "\u258131]": 3161,
  "\u2581fakalilifu": 3162,
  "\u2581improve": 3163,
  "\u2581refers": 3164,
  "\u2581tangutu": 3165,
  "\u2581\"[": 3166,
  "\u25816]": 3167,
  "\u2581P\u0101pilone": 3168,
  "\u2581Siut\u00e1": 3169,
  "\u2581factors": 3170,
  "asila": 3171,
  "\u2581Fiefia": 3172,
  "\u2581aka\u00fa": 3173,
  "\u2581maonioni": 3174,
  "\u2581reality": 3175,
  "Oku": 3176,
  "ehaohao\u00e1": 3177,
  "\u2581Russell": 3178,
  "\u2581Think": 3179,
  "\u2581aside": 3180,
  "\u2581bless": 3181,
  "\u2581distress": 3182,
  "\u2581enginaki": 3183,
  "\u2581fakamavahe": 3184,
  "\u2581harm": 3185,
  "\u2581unique": 3186,
  "ita": 3187,
  "\u2581Finally": 3188,
  "\u2581Sepitema": 3189,
  "\u2581growing": 3190,
  "\u2581homo": 3191,
  "\u2581worth": 3192,
  "hulu": 3193,
  "\u258141": 3194,
  "\u2581Ecclesiastes": 3195,
  "\u2581Imagine": 3196,
  "\u2581fakafepak\u00ed": 3197,
  "\u2581indicate": 3198,
  "\u2581naunau": 3199,
  "\u2581Deuteronomy": 3200,
  "\u2581Ni": 3201,
  "\u2581attack": 3202,
  "\u2581cities": 3203,
  "\u2581deeds": 3204,
  "\u2581drawn": 3205,
  "\u2581immorality": 3206,
  "api": 3207,
  "efaka": 3208,
  "\u2581Give": 3209,
  "\u2581Iulope": 3210,
  "\u2581mere": 3211,
  "\u2581minds": 3212,
  "\u2581placed": 3213,
  "Y": 3214,
  "\u2581Book": 3215,
  "\u2581Christendom": 3216,
  "\u2581Mother": 3217,
  "\u2581Pilit\u0101ni\u00e1": 3218,
  "\u2581daughters": 3219,
  "\u2581eiki": 3220,
  "\u2581listed": 3221,
  "ga": 3222,
  "\u2581P\u0113": 3223,
  "\u2581advantage": 3224,
  "\u2581heartfelt": 3225,
  "\u2581pongipongi": 3226,
  "T": 3227,
  "one": 3228,
  "\u2581Talu": 3229,
  "\u2581onop\u014dn\u00ed": 3230,
  "\u2581pattern": 3231,
  "\u2581ulo": 3232,
  "\u2581wedding": 3233,
  "\u2581Lah\u00ed": 3234,
  "\u2581fakamafola": 3235,
  "\u2581goes": 3236,
  "\u2581Europe": 3237,
  "\u2581France": 3238,
  "\u2581Take": 3239,
  "\u2581music": 3240,
  "\u2581wealth": 3241,
  "\u2581hak\u00e9": 3242,
  "\u2581pil\u012bson\u00e9": 3243,
  "\u2581strengthened": 3244,
  "\u25cf": 3245,
  "\u2581Note": 3246,
  "\u2581goodness": 3247,
  "\u2581meal": 3248,
  "\u2581occur": 3249,
  "\u2581ofeina": 3250,
  "\u2581relative": 3251,
  "\u2581telefoni": 3252,
  "\u2581tokotah\u00e1": 3253,
  "ume": 3254,
  "ww": 3255,
  "\u2581aid": 3256,
  "\u2581deliver": 3257,
  "\u2581entertainment": 3258,
  "\u2581funga": 3259,
  "\u2581likewise": 3260,
  "\u2581race": 3261,
  "\u2581succeed": 3262,
  "\u2581ul\u00fa": 3263,
  "ak\u00e9": 3264,
  "\u2581demons": 3265,
  "\u2581oil": 3266,
  "\u2581risk": 3267,
  "\u2581trial": 3268,
  "\u2581Ezekiel": 3269,
  "\u2581Samiuela": 3270,
  "\u2581box": 3271,
  "\u2581closely": 3272,
  "\u2581faihala": 3273,
  "\u2581patient": 3274,
  "langa": 3275,
  "\u2581expressions": 3276,
  "\u2581mature": 3277,
  "\u2581saved": 3278,
  "\u2581univ\u0113s\u00ed": 3279,
  "\u258129]": 3280,
  "\u2581Spirit": 3281,
  "\u2581TOHI": 3282,
  "\u2581associated": 3283,
  "\u2581endeavor": 3284,
  "\u2581huaf\u00e1": 3285,
  "\u2581manuki": 3286,
  "\u2581receiving": 3287,
  "\u2581relates": 3288,
  "There": 3289,
  "faka": 3290,
  "\u258112]": 3291,
  "\u258116]": 3292,
  "\u25812000": 3293,
  "\u2581Micah": 3294,
  "\u2581evidently": 3295,
  "\u2581fakahanga": 3296,
  "\u2581fakavavevave": 3297,
  "\u2581main": 3298,
  "\u2581ofefin\u00e9": 3299,
  "\u2581talking": 3300,
  "j": 3301,
  "la": 3302,
  "\u2581Exodus": 3303,
  "\u2581Kolose": 3304,
  "\u2581authorities": 3305,
  "\u2581blind": 3306,
  "\u2581copy": 3307,
  "\u2581fakamaama": 3308,
  "\u2581instruction": 3309,
  "\u2581tah\u00ed": 3310,
  "\u2581writer": 3311,
  "fa": 3312,
  "\u258124]": 3313,
  "\u2581Biblical": 3314,
  "\u2581NGA": 3315,
  "\u2581Omai": 3316,
  "\u2581siasi": 3317,
  "\u2581sinful": 3318,
  "\u2581assure": 3319,
  "\u2581essential": 3320,
  "\u2581lies": 3321,
  "\u2581outstanding": 3322,
  "\u2581Australia": 3323,
  "\u2581Initanet\u00ed": 3324,
  "\u2581Parents": 3325,
  "\u2581Siasi": 3326,
  "\u2581companions": 3327,
  "\u2581decide": 3328,
  "\u2581fakamulituku": 3329,
  "\u2581letters": 3330,
  "\u2581thousand": 3331,
  "My": 3332,
  "\u258134.": 3333,
  "\u2581applied": 3334,
  "\u2581directed": 3335,
  "\u2581effects": 3336,
  "\u2581k\u014dlenga": 3337,
  "\u2581pass": 3338,
  "\u2581pride": 3339,
  "\u2581secret": 3340,
  "\u2581\u0100tam\u00e1": 3341,
  "ina": 3342,
  "\u2581communication": 3343,
  "\u2581conclude": 3344,
  "\u2581cover": 3345,
  "\u2581dealings": 3346,
  "\u2581probably": 3347,
  "\u2581setting": 3348,
  "\u2581sleep": 3349,
  "\u2581studied": 3350,
  "\u2581uitou": 3351,
  "\u2581Aokosi": 3352,
  "\u2581Explain": 3353,
  "\u2581Hav": 3354,
  "\u2581Tahi": 3355,
  "\u2581Two": 3356,
  "\u2581promote": 3357,
  "\u2581vela": 3358,
  "nga": 3359,
  "oto": 3360,
  "\u2581camp": 3361,
  "\u2581darkness": 3362,
  "\u2581legal": 3363,
  "\u2581process": 3364,
  "\u2581troubled": 3365,
  "ge": 3366,
  "\u2581Lea": 3367,
  "\u2581V": 3368,
  "\u2581notice": 3369,
  "\u2581tears": 3370,
  "atamai": 3371,
  "hokohoko": 3372,
  "\u2581AKO": 3373,
  "\u2581Without": 3374,
  "\u2581beloved": 3375,
  "\u2581husbands": 3376,
  "\u2581mafamafatatau": 3377,
  "\u2581siofi": 3378,
  "\u258127,": 3379,
  "\u2581Galatians": 3380,
  "\u2581appears": 3381,
  "\u2581fakapale": 3382,
  "\u2581lasting": 3383,
  "\u258190": 3384,
  "\u2581Center": 3385,
  "\u2581Regard": 3386,
  "\u2581Semisi": 3387,
  "\u2581Version": 3388,
  "\u2581baby": 3389,
  "\u2581views": 3390,
  "Pea": 3391,
  "ut\u0101mak\u00ed": 3392,
  "\u2581S\u0101miuela": 3393,
  "\u2581illustrate": 3394,
  "\u2581meesi": 3395,
  "ufi": 3396,
  "utangata": 3397,
  "\u2581Israelite": 3398,
  "\u2581court": 3399,
  "\u2581due": 3400,
  "\u2581engage": 3401,
  "\u2581impressed": 3402,
  "\u2581teaches": 3403,
  "\u2581witnessing": 3404,
  "Mosaic": 3405,
  "\u2581TV": 3406,
  "\u2581big": 3407,
  "\u2581contrary": 3408,
  "\u2581dangerous": 3409,
  "\u2581expected": 3410,
  "\u2581ilonga": 3411,
  "\u2581p": 3412,
  "\u2581trees": 3413,
  "\u2581144,000": 3414,
  "\u258121]": 3415,
  "\u2581George": 3416,
  "\u2581Laum\u0101lie": 3417,
  "\u2581decades": 3418,
  "\u2581lay": 3419,
  "fehokotaki": 3420,
  "\u258180": 3421,
  "\u2581easier": 3422,
  "\u2581fakatonuhia": 3423,
  "\u2581hisit\u014dli\u00e1": 3424,
  "\u2581prophetic": 3425,
  "\u2581story": 3426,
  "\u2581translated": 3427,
  "\u2581violent": 3428,
  "\u25811950": 3429,
  "\u2581Nehemiah": 3430,
  "\u2581Pharaoh": 3431,
  "\u2581primary": 3432,
  "\u2581ruler": 3433,
  "\u2581sees": 3434,
  "\u2581s\u014dtia": 3435,
  "\u2581taukapo": 3436,
  "\u2581writing": 3437,
  "\u258143": 3438,
  "\u2581Fonua": 3439,
  "\u2581Koheleti": 3440,
  "\u2581Tokanga": 3441,
  "\u2581drinking": 3442,
  "\u2581kamat\u00e1": 3443,
  "\u2581rejected": 3444,
  "\u2581tauhele": 3445,
  "\u2581Si": 3446,
  "\u2581Totonu": 3447,
  "\u2581gold": 3448,
  "\u2581reveals": 3449,
  "\u2581thank": 3450,
  "ted": 3451,
  "\u2581Mai": 3452,
  "\u2581Pal": 3453,
  "\u2581seriously": 3454,
  "\u2581taukei": 3455,
  "\u2581teunga": 3456,
  "\u2581Ana": 3457,
  "\u2581Both": 3458,
  "\u2581Likewise": 3459,
  "\u2581OF": 3460,
  "\u2581entered": 3461,
  "\u2581ifi": 3462,
  "\u2581l\u0101unga": 3463,
  "\u2581wish": 3464,
  "\u2581Could": 3465,
  "\u2581Eden": 3466,
  "\u2581S\u0113misi": 3467,
  "\u2581beneficial": 3468,
  "\u2581fell": 3469,
  "\u2581village": 3470,
  "H": 3471,
  "efe": 3472,
  "\u258130,": 3473,
  "\u2581Fakamanat\u00fa": 3474,
  "\u2581Fiema": 3475,
  "\u2581Ilaisi\u0101": 3476,
  "\u2581causes": 3477,
  "\u2581dealing": 3478,
  "\u2581indicates": 3479,
  "\u2581telling": 3480,
  "\u2581Other": 3481,
  "\u2581date": 3482,
  "\u2581provisions": 3483,
  "\u2581recognized": 3484,
  "\u2581speaks": 3485,
  "\u2581fearing": 3486,
  "\u2581powers": 3487,
  "\u2581Tatau": 3488,
  "\u2581YOU": 3489,
  "\u2581connection": 3490,
  "\u2581hurt": 3491,
  "\u2581ngou\u00e9": 3492,
  "\u2581scriptures": 3493,
  "\u2581wide": 3494,
  "What": 3495,
  "\u2581Prov": 3496,
  "\u2581animal": 3497,
  "\u2581appearance": 3498,
  "\u2581conventions": 3499,
  "\u2581fakapulipuli": 3500,
  "\u2581kindly": 3501,
  "\u2581notes": 3502,
  "\u2581quoted": 3503,
  "\u2581resolve": 3504,
  "\u2581Otu": 3505,
  "\u2581applying": 3506,
  "\u2581determine": 3507,
  "\u2581listened": 3508,
  "\u2581mafasi\u00e1": 3509,
  "\u2581refer": 3510,
  "\u2581reference": 3511,
  "\u2581tufaki": 3512,
  "\u2581verses": 3513,
  "ation": 3514,
  "\u2581committed": 3515,
  "\u2581gathered": 3516,
  "\u2581organized": 3517,
  "\u2581remains": 3518,
  "\u2581t\u016b": 3519,
  "\u2581Teach": 3520,
  "\u2581abuse": 3521,
  "\u2581facts": 3522,
  "\u2581heed": 3523,
  "\u2581matapa\u00e1": 3524,
  "\u2581slaves": 3525,
  "\u2581uaine": 3526,
  "\u2581Day": 3527,
  "\u2581Lute": 3528,
  "\u2581fakaivia": 3529,
  "\u2581illness": 3530,
  "\u2581ko\u0101": 3531,
  "\u2581meditate": 3532,
  "\u2581spirituality": 3533,
  "\u2581willingly": 3534,
  "\u2581Kings": 3535,
  "\u2581Uhinga": 3536,
  "\u2581haohao\u00e1": 3537,
  "\u2581hoo": 3538,
  "\u2581increased": 3539,
  "\u2581joyful": 3540,
  "\u2581shared": 3541,
  "\u2581Okatopa": 3542,
  "\u2581Readers": 3543,
  "\u2581afraid": 3544,
  "\u2581attendance": 3545,
  "\u2581fakamuimui": 3546,
  "\u2581fish": 3547,
  "\u2581inasi": 3548,
  "\u2581kataki": 3549,
  "\u2581privileges": 3550,
  "\u2581p\u014dpoak\u00ed": 3551,
  "\u2581rulership": 3552,
  "\u2581fakatotol\u00f3": 3553,
  "\u2581normal": 3554,
  "\u2581performed": 3555,
  "All": 3556,
  "an\u00e1": 3557,
  "imata": 3558,
  "\u2581community": 3559,
  "\u2581conflict": 3560,
  "\u2581constantly": 3561,
  "\u2581delivered": 3562,
  "\u2581financial": 3563,
  "\u2581inhabitants": 3564,
  "\u2581lili\u00fa": 3565,
  "\u2581pal\u014dmesi": 3566,
  "\u2581worshipers": 3567,
  "\u2581Kiat": 3568,
  "\u2581ark": 3569,
  "\u2581determination": 3570,
  "\u2581fakavaha": 3571,
  "\u2581international": 3572,
  "\u2581laine": 3573,
  "\u2581treated": 3574,
  "\u2581upright": 3575,
  "\u2581Eke": 3576,
  "\u2581Katolika": 3577,
  "\u2581Knorr": 3578,
  "\u2581Selemai\u00e1": 3579,
  "\u2581T\u012bsema": 3580,
  "\u2581acted": 3581,
  "\u2581environment": 3582,
  "\u2581escape": 3583,
  "\u2581extreme": 3584,
  "\u2581journey": 3585,
  "\u2581kaung\u0101ongo": 3586,
  "\u2581reject": 3587,
  "\u2581requirements": 3588,
  "\u2581s\u014dsaieti": 3589,
  "\u2581ufi": 3590,
  "\u2581united": 3591,
  "ous": 3592,
  "urb": 3593,
  "\u2581Hannah": 3594,
  "\u2581Mexico": 3595,
  "\u2581September": 3596,
  "\u2581Students": 3597,
  "\u2581gone": 3598,
  "\u2581koula": 3599,
  "\u2581wickedness": 3600,
  "\u2581Asa": 3601,
  "\u2581BE": 3602,
  "\u2581Nathan": 3603,
  "\u2581air": 3604,
  "\u2581assistance": 3605,
  "\u2581carrying": 3606,
  "\u2581eternal": 3607,
  "\u2581fakapolitikale": 3608,
  "\u2581fakatang\u00e1": 3609,
  "\u2581forces": 3610,
  "\u2581hokosi\u00e1": 3611,
  "\u2581indicated": 3612,
  "\u2581pal\u014dfit\u00e1": 3613,
  "\u2581religions": 3614,
  "\u2581Lautoh\u00ed": 3615,
  "\u2581Siulai": 3616,
  "\u2581bond": 3617,
  "\u2581details": 3618,
  "\u2581granted": 3619,
  "\u2581injustice": 3620,
  "\u2581l\u014dmekina": 3621,
  "\u2581stick": 3622,
  "\u2581stress": 3623,
  "\u258131,": 3624,
  "\u2581dear": 3625,
  "\u2581loko": 3626,
  "\u2581perform": 3627,
  "\u2581widow": 3628,
  "um\u0101lie": 3629,
  "\u25811919": 3630,
  "\u2581Hep": 3631,
  "\u2581Kolinit\u014d": 3632,
  "\u2581faiva": 3633,
  "\u2581non": 3634,
  "\u2581occasions": 3635,
  "\u2581t\u0113menio\u00f3": 3636,
  "ahing\u00e1": 3637,
  "fu": 3638,
  "\u25818]": 3639,
  "\u2581company": 3640,
  "\u2581houhau": 3641,
  "\u2581ka\u00ed": 3642,
  "\u2581olokahol\u00f3": 3643,
  "\u2581popular": 3644,
  "\u2581satisfying": 3645,
  "\u2581survive": 3646,
  "\u2581tender": 3647,
  "\u2581Rom": 3648,
  "\u2581commission": 3649,
  "\u2581difference": 3650,
  "\u2581halaia": 3651,
  "\u2581mildness": 3652,
  "\u2581misinal\u00e9": 3653,
  "\u2581neighbors": 3654,
  "\u2581serves": 3655,
  "\u2581stopped": 3656,
  "\u2581Ekisoto": 3657,
  "\u2581Recall": 3658,
  "\u2581Time": 3659,
  "\u2581construction": 3660,
  "\u2581emotions": 3661,
  "\u2581mafola": 3662,
  "\u2581ministers": 3663,
  "ongo": 3664,
  "\u2581Taniel\u00e1": 3665,
  "\u2581doctor": 3666,
  "\u2581hundreds": 3667,
  "\u2581involve": 3668,
  "\u2581mighty": 3669,
  "\u2581providing": 3670,
  "\u2581p\u0113p\u0113": 3671,
  "\u2581siokita": 3672,
  "\u2581walked": 3673,
  "\u2581Here": 3674,
  "\u2581Kitautolu": 3675,
  "\u2581K\u014dsipel\u00ed": 3676,
  "\u2581habits": 3677,
  "\u2581ideas": 3678,
  "\u2581ve": 3679,
  "ri": 3680,
  "\u2581formed": 3681,
  "\u2581lautoh\u00ed": 3682,
  "\u2581t\u0101ufehi": 3683,
  "\u2581waters": 3684,
  "fanga": 3685,
  "ne": 3686,
  "\u258134,": 3687,
  "\u2581Heb": 3688,
  "\u2581faiangahala": 3689,
  "\u2581moving": 3690,
  "\u2581pipiki": 3691,
  "\u2581toumoua": 3692,
  "\u2581weak": 3693,
  "it": 3694,
  "\u2581Toe": 3695,
  "\u2581peki\u00e1": 3696,
  "\u2581run": 3697,
  "\u2581superior": 3698,
  "\u2581abundance": 3699,
  "\u2581fakafonu\u00e1": 3700,
  "\u2581puk\u00e9": 3701,
  "\u2581white": 3702,
  "aka\u00fa": 3703,
  "ongafai": 3704,
  "\u2581Has": 3705,
  "\u2581Mt": 3706,
  "\u2581October": 3707,
  "\u2581drugs": 3708,
  "\u2581fakaem\u0101mani": 3709,
  "\u2581instructions": 3710,
  "\u2581kemi": 3711,
  "\u2581k\u0101inga": 3712,
  "\u2581mul\u00ed": 3713,
  "\u2581occurred": 3714,
  "\u2581puputu": 3715,
  "\u2581rebellion": 3716,
  "\u2581sword": 3717,
  "\u2581vast": 3718,
  "\u2581\u25c6": 3719,
  "\u2581Robert": 3720,
  "\u2581Un": 3721,
  "\u2581cares": 3722,
  "\u2581h\u014dloa": 3723,
  "\u2581inheritance": 3724,
  "\u2581kill": 3725,
  "\u2581newspaper": 3726,
  "\u2581research": 3727,
  "\u2581toketa\u00e1": 3728,
  "\u2581December": 3729,
  "\u2581Internet": 3730,
  "\u2581discern": 3731,
  "\u2581fakatolonga": 3732,
  "\u2581foak\u00ed": 3733,
  "\u2581leaving": 3734,
  "\u2581pe\u00e9": 3735,
  "\u2581saame": 3736,
  "K": 3737,
  "faingata": 3738,
  "\u25812010": 3739,
  "\u258144": 3740,
  "\u2581City": 3741,
  "\u2581Encyclopedia": 3742,
  "\u2581fasi": 3743,
  "\u2581feing\u00e1": 3744,
  "\u2581n": 3745,
  "\u2581shepherds": 3746,
  "\u2581Whe": 3747,
  "\u2581accomplished": 3748,
  "\u2581lavea": 3749,
  "\u2581puna": 3750,
  "\u2581separate": 3751,
  "\u2581sought": 3752,
  "ion": 3753,
  "lelei": 3754,
  "ona": 3755,
  "\u25812012": 3756,
  "\u2581M\u0101t": 3757,
  "\u2581Sad": 3758,
  "\u2581background": 3759,
  "\u2581concerns": 3760,
  "\u2581considering": 3761,
  "\u2581count": 3762,
  "\u2581designed": 3763,
  "\u2581forms": 3764,
  "\u2581grown": 3765,
  "\u2581handle": 3766,
  "\u2581koeuhi": 3767,
  "\u2581American": 3768,
  "\u2581History": 3769,
  "\u2581Malu": 3770,
  "\u2581M\u0101mani": 3771,
  "\u2581calling": 3772,
  "\u2581fakafeta": 3773,
  "\u2581leads": 3774,
  "\u2581miracles": 3775,
  "\u2581persons": 3776,
  "\u2581trouble": 3777,
  "at\u0101in\u00e1": 3778,
  "\u2581April": 3779,
  "\u2581Armageddon": 3780,
  "\u2581Lot": 3781,
  "\u2581fakaemana": 3782,
  "\u2581mistakes": 3783,
  "\u2581pepa": 3784,
  "\u2581t\u014dnunga": 3785,
  "\u2581M\u0113": 3786,
  "\u2581Sometimes": 3787,
  "\u2581divorce": 3788,
  "\u2581fisifisimu": 3789,
  "\u2581struggle": 3790,
  "ahin\u00e9": 3791,
  "\u2581Jonah": 3792,
  "\u2581aspect": 3793,
  "\u2581describe": 3794,
  "\u2581feels": 3795,
  "\u2581lang\u00ed": 3796,
  "\u2581refuge": 3797,
  "\u2581tapu": 3798,
  "\u2581touched": 3799,
  "\u2581vaeua": 3800,
  "\u2581\u012bk\u00ed": 3801,
  "AKI": 3802,
  "\u2581Kaletia": 3803,
  "\u2581Messianic": 3804,
  "\u2581compared": 3805,
  "\u2581fakaesin\u00f3": 3806,
  "\u2581fakaf\u0101mili": 3807,
  "\u2581honest": 3808,
  "\u2581lang\u00e1": 3809,
  "\u2581obtain": 3810,
  "\u2581recently": 3811,
  "\u2581significant": 3812,
  "\u2581stake": 3813,
  "\u2581throne": 3814,
  "elavame": 3815,
  "\u2581Canada": 3816,
  "\u2581Its": 3817,
  "\u2581heavy": 3818,
  "\u2581mamaf\u00e1": 3819,
  "\u2581miniti": 3820,
  "\u2581tenga": 3821,
  "be": 3822,
  "\u2581Learn": 3823,
  "\u2581Maake": 3824,
  "\u2581appreciated": 3825,
  "\u2581assembly": 3826,
  "\u2581challenging": 3827,
  "\u2581feilaula\u00fa": 3828,
  "\u2581grasp": 3829,
  "\u2581nusipepa": 3830,
  "\u2581palakalafi": 3831,
  "\u2581path": 3832,
  "\u2581provision": 3833,
  "Keep": 3834,
  "\u258128]": 3835,
  "\u2581300": 3836,
  "\u2581Jonathan": 3837,
  "\u2581Laka": 3838,
  "\u2581cry": 3839,
  "\u2581declare": 3840,
  "\u2581severe": 3841,
  "\u2581yes": 3842,
  "D": 3843,
  "ity": 3844,
  "\u258139": 3845,
  "\u2581WHAT": 3846,
  "\u2581across": 3847,
  "\u2581belief": 3848,
  "\u2581global": 3849,
  "\u2581marry": 3850,
  "\u2581pulu": 3851,
  "\u2581rise": 3852,
  "\u2581stone": 3853,
  "\u2581treasure": 3854,
  "Jesus": 3855,
  "\u2581Promised": 3856,
  "\u2581freely": 3857,
  "\u2581hopo": 3858,
  "\u2581m\u014dmeniti": 3859,
  "\u2581p\u014dpul\u00e1": 3860,
  "\u2581vale": 3861,
  "\u258144.": 3862,
  "\u2581Epeleli": 3863,
  "\u2581Malanga": 3864,
  "\u2581Pentecost": 3865,
  "\u2581couples": 3866,
  "\u2581fakam\u0101man\u00ed": 3867,
  "\u2581list": 3868,
  "\u2581national": 3869,
  "\u2581poverty": 3870,
  "\u2581vak\u00e1": 3871,
  "h": 3872,
  "ll": 3873,
  "\u2581Sioloto": 3874,
  "\u2581additional": 3875,
  "\u2581directly": 3876,
  "\u2581focused": 3877,
  "\u2581healthy": 3878,
  "\u2581surprise": 3879,
  "anganaki": 3880,
  "\u25812,000": 3881,
  "\u2581Aisake": 3882,
  "\u2581Times": 3883,
  "\u2581alcohol": 3884,
  "\u2581fakamama": 3885,
  "\u2581moment": 3886,
  "\u2581reminded": 3887,
  "\u2581replied": 3888,
  "\u2581faifeka\u00fa": 3889,
  "\u2581fast": 3890,
  "\u2581gratitude": 3891,
  "\u2581hatred": 3892,
  "\u2581mountains": 3893,
  "ukovia": 3894,
  "\u2581Cain": 3895,
  "\u2581Japan": 3896,
  "\u2581Second": 3897,
  "\u2581buy": 3898,
  "\u2581entitled": 3899,
  "\u2581exist": 3900,
  "\u2581keeps": 3901,
  "\u2581pleased": 3902,
  "\u2581sit": 3903,
  "\u016btah\u00e1": 3904,
  "\u2581excellent": 3905,
  "\u2581god": 3906,
  "\u2581lue": 3907,
  "\u2581ngaohikovi": 3908,
  "\u2581selfish": 3909,
  "\u2581Aositel\u0113lia": 3910,
  "\u2581concluded": 3911,
  "\u2581cost": 3912,
  "\u2581faithfulness": 3913,
  "\u2581familiar": 3914,
  "\u2581ill": 3915,
  "\u2581represent": 3916,
  "\u2581akinautolu": 3917,
  "\u2581anxious": 3918,
  "\u2581assignments": 3919,
  "\u2581chief": 3920,
  "\u2581fofonga": 3921,
  "\u2581impossible": 3922,
  "\u2581ipu": 3923,
  "\u2581meaningful": 3924,
  "\u2581reaction": 3925,
  "\u2581released": 3926,
  "\u2581task": 3927,
  "\u2581wilderness": 3928,
  "ulu": 3929,
  "\u2581Man": 3930,
  "\u2581Testament": 3931,
  "\u2581Teutalonome": 3932,
  "\u2581indefinite": 3933,
  "\u2581kakan\u00f3": 3934,
  "\u2581lav\u00e1": 3935,
  "\u2581motivate": 3936,
  "\u2581pointed": 3937,
  "\u2581tukufakaholo": 3938,
  "\u258120]": 3939,
  "\u2581German": 3940,
  "\u2581Pet": 3941,
  "\u2581Pharisees": 3942,
  "\u2581approached": 3943,
  "\u2581career": 3944,
  "\u2581critical": 3945,
  "\u2581differ": 3946,
  "\u2581higher": 3947,
  "\u2581k\u0101ing\u00e1": 3948,
  "\u2581numerous": 3949,
  "\u2581sang": 3950,
  "\u2581straight": 3951,
  "auhi": 3952,
  "\u25812011": 3953,
  "\u2581Assembly": 3954,
  "\u2581Enoch": 3955,
  "\u2581International": 3956,
  "\u2581K\u014dsipeli": 3957,
  "\u2581MA": 3958,
  "\u2581center": 3959,
  "\u2581figurative": 3960,
  "\u2581lying": 3961,
  "\u2581mahin\u00f3": 3962,
  "\u2581m\u0101lie": 3963,
  "\u2581m\u0101m\u00e1": 3964,
  "\u2581rely": 3965,
  "\u2581thereafter": 3966,
  "\u2581vaiva\u00ed": 3967,
  "\u2581Maria": 3968,
  "\u2581Service": 3969,
  "\u2581Sovereign": 3970,
  "\u2581altar": 3971,
  "\u2581arise": 3972,
  "\u2581belong": 3973,
  "\u2581highly": 3974,
  "\u2581kalanga": 3975,
  "\u2581mild": 3976,
  "\u2581motivated": 3977,
  "\u2581ngutu": 3978,
  "\u2581rendered": 3979,
  "\u2581val\u00e1": 3980,
  "\u2581visiting": 3981,
  "oku": 3982,
  "\u25811999": 3983,
  "\u2581Aaron": 3984,
  "\u2581FAKA": 3985,
  "\u2581apparently": 3986,
  "\u2581fakatuipau": 3987,
  "\u2581herself": 3988,
  "\u2581iv\u00ed": 3989,
  "\u2581modest": 3990,
  "\u2581remarkable": 3991,
  "\u2581require": 3992,
  "\u2581teau": 3993,
  "at": 3994,
  "atautolu": 3995,
  "hala": 3996,
  "\u2581Mu": 3997,
  "\u2581Never": 3998,
  "\u2581causing": 3999,
  "\u2581demonstrated": 4000,
  "\u2581firmly": 4001,
  "\u2581paragraph": 4002,
  "\u2581reaching": 4003,
  "\u2581taku": 4004,
  "\u2581traveled": 4005,
  "etoton\u00fa": 4006,
  "\u258111]": 4007,
  "\u2581fakaongo": 4008,
  "\u2581talano\u00e1": 4009,
  "H\u0100": 4010,
  "\u258119]": 4011,
  "\u2581Elisha": 4012,
  "\u2581Sela": 4013,
  "\u2581comforting": 4014,
  "\u2581fakafa": 4015,
  "\u2581fakam\u0101\u00fa": 4016,
  "\u2581kalas\u00ed": 4017,
  "\u2581nine": 4018,
  "\u2581qualified": 4019,
  "\u2581ruin": 4020,
  "\u2581travel": 4021,
  "\u2581vahefonua": 4022,
  "\u2581\u012aten\u00ed": 4023,
  "\u25812009": 4024,
  "\u2581Every": 4025,
  "\u2581Faifai": 4026,
  "\u2581Him": 4027,
  "\u2581brochure": 4028,
  "\u2581courageous": 4029,
  "\u2581finding": 4030,
  "\u2581successfully": 4031,
  "\u2581v\u0101": 4032,
  "\u2581Hosea": 4033,
  "\u2581Iv\u00ed": 4034,
  "\u2581copies": 4035,
  "\u2581eager": 4036,
  "\u2581identified": 4037,
  "\u2581worse": 4038,
  "ive": 4039,
  "\u258130:": 4040,
  "\u258139.": 4041,
  "\u258175": 4042,
  "\u2581Asia": 4043,
  "\u2581Talanoa": 4044,
  "\u2581matala": 4045,
  "\u2581peaceful": 4046,
  "\u2581relations": 4047,
  "\u2581total": 4048,
  "\u2581writes": 4049,
  "no": 4050,
  "\u2581Ministry": 4051,
  "\u2581exert": 4052,
  "\u2581kakaha": 4053,
  "\u2581potential": 4054,
  "\u2581wind": 4055,
  "tokoua": 4056,
  "\u2581Flood": 4057,
  "\u2581Ilonga": 4058,
  "\u2581Look": 4059,
  "\u2581Ngalingali": 4060,
  "\u2581Palataisi": 4061,
  "\u2581Whatever": 4062,
  "\u2581abundant": 4063,
  "\u2581arranged": 4064,
  "\u2581corrupt": 4065,
  "\u2581grief": 4066,
  "\u2581supply": 4067,
  "\u2581tokolah\u00ed": 4068,
  "\u25812013": 4069,
  "\u2581Abel": 4070,
  "\u2581Amelik\u00e1": 4071,
  "\u2581Zechariah": 4072,
  "\u2581apart": 4073,
  "\u2581bodies": 4074,
  "\u2581mita": 4075,
  "\u2581pursuing": 4076,
  "\u2581remaining": 4077,
  "\u2581uta": 4078,
  "g": 4079,
  "\u2581Rutherford": 4080,
  "\u2581T\u012bmot\u00e9": 4081,
  "\u2581arrangements": 4082,
  "\u2581choices": 4083,
  "\u2581difficulties": 4084,
  "\u2581discouraged": 4085,
  "\u2581ended": 4086,
  "\u2581fakaekikite": 4087,
  "\u2581hui": 4088,
  "\u2581momo": 4089,
  "\u2581m\u0113s\u00ed": 4090,
  "\u2581series": 4091,
  "\u2581silver": 4092,
  "\u2581tax": 4093,
  "\u014dfo": 4094,
  "\u258127]": 4095,
  "\u2581AI": 4096,
  "\u2581Columbia": 4097,
  "\u2581Liliu": 4098,
  "\u2581Tonga": 4099,
  "\u2581balanced": 4100,
  "\u2581discovered": 4101,
  "\u2581ongosia": 4102,
  "\u2581ought": 4103,
  "\u2581pioneering": 4104,
  "\u2581root": 4105,
  "\u2581slow": 4106,
  "\u2581soldiers": 4107,
  "\u2581t\u0101u": 4108,
  "ota": 4109,
  "\u2581f\u014dtunga": 4110,
  "\u2581h\u016bfanga": 4111,
  "\u2581k\u0101": 4112,
  "\u2581mal\u016b": 4113,
  "\u2581nif\u00f3": 4114,
  "\u2581noticed": 4115,
  "\u2581parable": 4116,
  "\u2581properly": 4117,
  "\u2581safe": 4118,
  "\u2581viewpoint": 4119,
  "auaki": 4120,
  "by": 4121,
  "\u258146": 4122,
  "\u258149": 4123,
  "\u25814]": 4124,
  "\u2581Charles": 4125,
  "\u2581Siaman\u00e9": 4126,
  "\u2581Tupu": 4127,
  "\u2581admonition": 4128,
  "\u2581invisible": 4129,
  "\u2581ngofua": 4130,
  "\u2581referring": 4131,
  "\u2581resulted": 4132,
  "\u2581tok\u0101teline": 4133,
  "ehai": 4134,
  "\u25812008": 4135,
  "\u2581Fe": 4136,
  "\u2581angry": 4137,
  "\u2581lisi": 4138,
  "\u2581release": 4139,
  "\u2581sake": 4140,
  "\u2581tupulekina": 4141,
  "\u2581t\u0101up": 4142,
  "\u25812001": 4143,
  "\u2581BIBLE": 4144,
  "\u2581Halls": 4145,
  "\u2581January": 4146,
  "\u2581adultery": 4147,
  "\u2581chapters": 4148,
  "\u2581fornication": 4149,
  "\u2581inhabited": 4150,
  "\u2581police": 4151,
  "\u2581readily": 4152,
  "\u2581reflected": 4153,
  "\u2581remove": 4154,
  "\u2581render": 4155,
  "\u2581rules": 4156,
  "\u2581\u012bmisi": 4157,
  "\u2581Katolik\u00e1": 4158,
  "\u2581Shortly": 4159,
  "\u2581churches": 4160,
  "\u2581fakalieli\u00e1": 4161,
  "\u2581fit": 4162,
  "\u2581generation": 4163,
  "\u2581paid": 4164,
  "\u2581recalls": 4165,
  "\u2581ruling": 4166,
  "\u2581worthy": 4167,
  "How": 4168,
  "day": 4169,
  "\u25812002": 4170,
  "\u2581brotherhood": 4171,
  "\u2581dwelling": 4172,
  "\u2581fatongi\u00e1": 4173,
  "\u2581low": 4174,
  "\u2581majority": 4175,
  "\u2581physically": 4176,
  "\u2581rulers": 4177,
  "\u2581stood": 4178,
  "\u2581strengthening": 4179,
  "\u2581surprised": 4180,
  "\u25812004": 4181,
  "\u25813]": 4182,
  "\u2581Kolinito\u00f3": 4183,
  "\u2581March": 4184,
  "\u2581Nofo": 4185,
  "\u2581Surely": 4186,
  "\u2581exists": 4187,
  "\u2581fakapolitikal\u00e9": 4188,
  "\u2581katoa": 4189,
  "\u2581l\u0101ngilang\u00ed": 4190,
  "\u2581sinned": 4191,
  "\u2581writings": 4192,
  "etokanga": 4193,
  "out": 4194,
  "\u2581Kotoa": 4195,
  "\u2581NY": 4196,
  "\u2581Saul\u00e1": 4197,
  "\u2581Thessalonians": 4198,
  "\u2581assurance": 4199,
  "\u2581begotten": 4200,
  "\u2581deliverance": 4201,
  "\u2581disaster": 4202,
  "\u2581district": 4203,
  "\u2581fakakakato": 4204,
  "\u2581fakalotofonua": 4205,
  "\u2581fakatonga": 4206,
  "\u2581fonong\u00e1": 4207,
  "\u2581marvelous": 4208,
  "\u2581nearby": 4209,
  "\u2581opposite": 4210,
  "\u2581p\u014dlepole": 4211,
  "\u2581season": 4212,
  "\u2581toputap\u00fa": 4213,
  "\u2581useful": 4214,
  "loto": 4215,
  "\u2581200": 4216,
  "\u2581faihal\u00e1": 4217,
  "\u2581fakakaume": 4218,
  "\u2581glorious": 4219,
  "\u2581m\u012bsini": 4220,
  "\u2581proof": 4221,
  "\u2581sad": 4222,
  "\u2581tribe": 4223,
  "tefito": 4224,
  "\u014d": 4225,
  "\u2581ME": 4226,
  "\u2581Tesalonaika": 4227,
  "\u2581Upon": 4228,
  "\u2581methods": 4229,
  "\u2581ministeri": 4230,
  "\u2581moves": 4231,
  "\u2581plans": 4232,
  "\u2581standard": 4233,
  "\u2581witnesses": 4234,
  "ver": 4235,
  "\u2581Ave": 4236,
  "\u2581French": 4237,
  "\u2581F\u0101les\u00ed": 4238,
  "\u2581La": 4239,
  "\u2581Visit": 4240,
  "\u2581acknowledge": 4241,
  "\u2581acting": 4242,
  "\u2581economic": 4243,
  "\u2581hiv\u00e1": 4244,
  "\u2581inner": 4245,
  "\u2581persecuted": 4246,
  "\u2581piliona": 4247,
  "\u2581reasoning": 4248,
  "\u2581scholars": 4249,
  "\u2581visits": 4250,
  "\u2581Chronicles": 4251,
  "\u2581Isikeli": 4252,
  "\u2581Rev": 4253,
  "\u2581agreed": 4254,
  "\u2581audience": 4255,
  "\u2581deaf": 4256,
  "\u2581descendants": 4257,
  "\u2581faihia": 4258,
  "\u2581finemui": 4259,
  "\u2581lovingly": 4260,
  "\u2581model": 4261,
  "\u2581pisinisi": 4262,
  "\u2581rain": 4263,
  "\u2581re": 4264,
  "\u2581recall": 4265,
  "\u2581terms": 4266,
  "\u00c1": 4267,
  "\u258138.": 4268,
  "\u2581Am": 4269,
  "\u2581Earth": 4270,
  "\u2581Michael": 4271,
  "\u2581abilities": 4272,
  "\u2581capital": 4273,
  "\u2581dangers": 4274,
  "\u2581drug": 4275,
  "\u2581harmful": 4276,
  "\u2581h\u0113": 4277,
  "\u2581lakalakaimon\u016b": 4278,
  "\u2581official": 4279,
  "\u2581possessions": 4280,
  "\u2581puipuitu": 4281,
  "\u2581skills": 4282,
  "\u2581wars": 4283,
  "They": 4284,
  "k": 4285,
  "\u2581Afio": 4286,
  "\u2581associate": 4287,
  "\u2581companion": 4288,
  "\u2581create": 4289,
  "\u2581developing": 4290,
  "\u2581laiki": 4291,
  "\u2581lal\u00f3": 4292,
  "\u2581magazines": 4293,
  "\u2581oho": 4294,
  "\u2581polosiua": 4295,
  "\u2581population": 4296,
  "\u2581p\u0101": 4297,
  "ise": 4298,
  "ty": 4299,
  "\u2581Fakamanatu": 4300,
  "\u2581Hezekiah": 4301,
  "\u2581Sanuali": 4302,
  "\u2581damage": 4303,
  "\u2581fakasio": 4304,
  "\u2581happens": 4305,
  "\u2581mot\u00fa": 4306,
  "\u2581represented": 4307,
  "\u2581siva": 4308,
  "\u2581song": 4309,
  "\u2581supported": 4310,
  "\u2581Ange": 4311,
  "\u2581Doing": 4312,
  "\u2581Maika": 4313,
  "\u2581Malachi": 4314,
  "\u2581Worship": 4315,
  "\u2581allows": 4316,
  "\u2581fleshly": 4317,
  "\u2581ouau": 4318,
  "\u2581region": 4319,
  "\u2581spouse": 4320,
  "\u2581valoki": 4321,
  "As": 4322,
  "N": 4323,
  "great": 4324,
  "\u2581Fkh": 4325,
  "\u2581Spanish": 4326,
  "\u2581amui": 4327,
  "\u2581awake": 4328,
  "\u2581exactly": 4329,
  "\u2581fakamole": 4330,
  "\u2581influenced": 4331,
  "\u2581m\u0101t\u0101": 4332,
  "\u2581preced": 4333,
  "\u2581turning": 4334,
  "\u2581variety": 4335,
  "but": 4336,
  "man": 4337,
  "\u258151": 4338,
  "\u2581Tract": 4339,
  "\u2581content": 4340,
  "\u2581conviction": 4341,
  "\u2581facing": 4342,
  "\u2581gradually": 4343,
  "\u2581limitations": 4344,
  "\u2581opposers": 4345,
  "\u2581relationships": 4346,
  "\u2581reminders": 4347,
  "\u2581sacrificing": 4348,
  "\u2581secure": 4349,
  "\u2581site": 4350,
  "\u2581soil": 4351,
  "\u2581speaker": 4352,
  "\u2581theocratic": 4353,
  "\u2581trip": 4354,
  "\u2581sickness": 4355,
  "\u2581uha": 4356,
  "\u258137.": 4357,
  "\u2581Almighty": 4358,
  "\u2581armies": 4359,
  "\u2581commit": 4360,
  "\u2581culture": 4361,
  "\u2581exercising": 4362,
  "\u2581faihisit\u014dlia": 4363,
  "\u2581faitoton\u00fa": 4364,
  "\u2581fakaloto": 4365,
  "\u2581involv": 4366,
  "\u2581kosi": 4367,
  "\u2581literal": 4368,
  "\u2581mention": 4369,
  "\u2581none": 4370,
  "\u2581ohi": 4371,
  "\u2581pealapeli": 4372,
  "\u2581wild": 4373,
  "ohi": 4374,
  "\u2581England": 4375,
  "\u2581Naomi": 4376,
  "\u2581beauty": 4377,
  "\u2581fakapoongi": 4378,
  "\u2581hela": 4379,
  "\u2581humbly": 4380,
  "\u2581matangi": 4381,
  "omo": 4382,
  "\u2581Britain": 4383,
  "\u2581Passover": 4384,
  "\u2581Stephen": 4385,
  "\u2581Sune": 4386,
  "\u2581attitudes": 4387,
  "\u2581displayed": 4388,
  "\u2581rightly": 4389,
  "ikovi": 4390,
  "isa": 4391,
  "x": 4392,
  "\u2581Ephesus": 4393,
  "\u2581KAU": 4394,
  "\u2581KUPU": 4395,
  "\u2581Ng\u0101u\u00e9": 4396,
  "\u2581University": 4397,
  "\u2581accompany": 4398,
  "\u2581encourages": 4399,
  "\u2581fakapotopot\u00f3": 4400,
  "\u2581governments": 4401,
  "\u2581holding": 4402,
  "\u2581hospital": 4403,
  "\u2581kolosi": 4404,
  "\u2581l\u014dlo\u00e1": 4405,
  "\u2581merciful": 4406,
  "\u2581midst": 4407,
  "\u2581olive": 4408,
  "\u2581pre": 4409,
  "\u2581red": 4410,
  "\u2581surface": 4411,
  "\u258140.": 4412,
  "\u2581Happy": 4413,
  "\u2581Heights": 4414,
  "\u2581Nehemaia": 4415,
  "\u2581Show": 4416,
  "\u2581belongs": 4417,
  "\u2581dwell": 4418,
  "\u2581fakanatul\u00e1": 4419,
  "\u2581hate": 4420,
  "\u2581ifo": 4421,
  "\u2581kalofi": 4422,
  "\u2581kili": 4423,
  "\u2581nge": 4424,
  "\u2581private": 4425,
  "Ki": 4426,
  "ies": 4427,
  "unim\u0101": 4428,
  "\u25811998": 4429,
  "\u2581East": 4430,
  "\u2581abandoned": 4431,
  "\u2581affairs": 4432,
  "\u2581boys": 4433,
  "\u2581dignity": 4434,
  "\u2581employment": 4435,
  "\u2581fakalielia": 4436,
  "\u2581ika": 4437,
  "\u2581struck": 4438,
  "\u2581suggestions": 4439,
  "\u2581\u012atali": 4440,
  "\u258166": 4441,
  "\u2581Granted": 4442,
  "\u2581State": 4443,
  "\u2581Sunday": 4444,
  "\u2581advance": 4445,
  "\u2581asemipil\u012b": 4446,
  "\u2581endured": 4447,
  "\u2581kolomu": 4448,
  "\u2581liunga": 4449,
  "\u2581offers": 4450,
  "\u2581pressures": 4451,
  "\u2581repeatedly": 4452,
  "\u2581temporary": 4453,
  "\u2581toaf\u00e1": 4454,
  "\u2581t\u0113pile": 4455,
  "\u2581\u0112sia": 4456,
  "amanekina": 4457,
  "fai": 4458,
  "\u2581Go": 4459,
  "\u2581Lele\u00ed": 4460,
  "\u2581MEI": 4461,
  "\u2581Siosif\u00e1": 4462,
  "\u2581Sipeini": 4463,
  "\u2581generous": 4464,
  "\u2581girls": 4465,
  "\u2581listeners": 4466,
  "\u2581maintaining": 4467,
  "\u2581male": 4468,
  "\u2581plant": 4469,
  "il\u00f3": 4470,
  "itangata": 4471,
  "will": 4472,
  "\u2581Joel": 4473,
  "\u2581Kalonikali": 4474,
  "\u2581Siapani": 4475,
  "\u2581anganofo": 4476,
  "\u2581begins": 4477,
  "\u2581conducted": 4478,
  "\u2581fakatapu\u00ed": 4479,
  "\u2581gathering": 4480,
  "\u2581gaue": 4481,
  "\u2581kouna": 4482,
  "\u2581refuse": 4483,
  "\u2581sela": 4484,
  "\u2581vaitafe": 4485,
  "\u2581weight": 4486,
  "for": 4487,
  "lo": 4488,
  "si": 4489,
  "\u2581K\u0101taki": 4490,
  "\u2581U\u00e1": 4491,
  "\u2581adults": 4492,
  "\u2581distance": 4493,
  "\u2581failure": 4494,
  "\u2581forced": 4495,
  "\u2581hundred": 4496,
  "\u2581lowly": 4497,
  "\u2581project": 4498,
  "\u2581removed": 4499,
  "\u2581scene": 4500,
  "\u2581tests": 4501,
  "\u2581Arena": 4502,
  "\u2581Following": 4503,
  "\u2581clothing": 4504,
  "\u2581fakamelino": 4505,
  "\u2581outcome": 4506,
  "\u2581shed": 4507,
  "\u2581tafe": 4508,
  "\u2581telefon\u00ed": 4509,
  "alele": 4510,
  "esi": 4511,
  "pea": 4512,
  "\u258153": 4513,
  "\u2581Truth": 4514,
  "\u2581Zealand": 4515,
  "\u2581discernment": 4516,
  "\u2581f\u0101itaha": 4517,
  "\u2581guided": 4518,
  "\u2581repentant": 4519,
  "\u2581signs": 4520,
  "\u2581stars": 4521,
  "\u2581tuhu": 4522,
  "\u2581tukuhau": 4523,
  "with": 4524,
  "\u2581Amos": 4525,
  "\u2581Baal": 4526,
  "\u2581Out": 4527,
  "\u2581accepting": 4528,
  "\u2581finished": 4529,
  "\u2581invite": 4530,
  "\u2581literally": 4531,
  "\u2581misi": 4532,
  "\u2581officials": 4533,
  "\u2581possession": 4534,
  "\u2581quick": 4535,
  "\u2581scholar": 4536,
  "\u2581sinners": 4537,
  "\u2581ungodly": 4538,
  "\u2581Tolu": 4539,
  "\u2581amautolu": 4540,
  "\u2581aong\u00e1": 4541,
  "\u2581brief": 4542,
  "\u2581degree": 4543,
  "\u2581faiv\u00e1": 4544,
  "\u2581fakahok\u00f3": 4545,
  "\u2581hair": 4546,
  "\u2581k\u012b": 4547,
  "\u2581piki": 4548,
  "\u2581repentance": 4549,
  "P": 4550,
  "ata\u00e1": 4551,
  "keep": 4552,
  "oua": 4553,
  "ulung\u0101anga": 4554,
  "\u258130]": 4555,
  "\u2581Falanise\u00e9": 4556,
  "\u2581aitoli": 4557,
  "\u2581aitol\u00ed": 4558,
  "\u2581attacks": 4559,
  "\u2581balance": 4560,
  "\u2581broke": 4561,
  "\u2581glad": 4562,
  "\u2581inclined": 4563,
  "\u2581kongakau": 4564,
  "\u2581kulup\u00fa": 4565,
  "\u2581motives": 4566,
  "\u2581passing": 4567,
  "\u2581skin": 4568,
  "\u2581talangofu\u00e1": 4569,
  "\u2581texts": 4570,
  "\u2581weaknesses": 4571,
  "\u012btal": 4572,
  "\u25812003": 4573,
  "\u2581Brazil": 4574,
  "\u2581Concern": 4575,
  "\u2581Kakai": 4576,
  "\u2581News": 4577,
  "\u2581Pa": 4578,
  "\u2581associates": 4579,
  "\u2581caught": 4580,
  "\u2581differences": 4581,
  "\u2581foundation": 4582,
  "\u2581fu\u00e1": 4583,
  "\u2581meheka": 4584,
  "\u2581otherwise": 4585,
  "\u2581patiently": 4586,
  "\u2581reign": 4587,
  "\u2581sustain": 4588,
  "\u2581tanu": 4589,
  "\u2581uma": 4590,
  "\u2581union": 4591,
  "\u2581writers": 4592,
  "201": 4593,
  "ling": 4594,
  "pleasing": 4595,
  "\u258135:": 4596,
  "\u2581607": 4597,
  "\u2581Don": 4598,
  "\u2581M\u0101tu": 4599,
  "\u2581Penitekosi": 4600,
  "\u2581USED": 4601,
  "\u2581apitanga": 4602,
  "\u2581benefited": 4603,
  "\u2581bound": 4604,
  "\u2581compare": 4605,
  "\u2581factor": 4606,
  "\u2581illustrations": 4607,
  "\u2581ku\u00ed": 4608,
  "\u2581plan": 4609,
  "\u2581takihala": 4610,
  "\u2581wisely": 4611,
  "L": 4612,
  "anautolu": 4613,
  "\u258136.": 4614,
  "\u2581Efeso\u00f3": 4615,
  "\u2581accord": 4616,
  "\u2581dark": 4617,
  "\u2581fakakaveinga": 4618,
  "\u2581fihi": 4619,
  "\u2581kapusi": 4620,
  "\u2581manavasi": 4621,
  "\u2581tokoto": 4622,
  "\u2581top": 4623,
  "\u2581unclean": 4624,
  "\u2581victory": 4625,
  "\u2581Hai": 4626,
  "\u2581Scripture": 4627,
  "\u2581Senitaile": 4628,
  "\u2581abandon": 4629,
  "\u2581approved": 4630,
  "\u2581cold": 4631,
  "\u2581error": 4632,
  "\u2581feh\u0101laak\u00ed": 4633,
  "\u2581games": 4634,
  "\u2581glorify": 4635,
  "\u2581proud": 4636,
  "\u2581refreshing": 4637,
  "\u0101uliliki": 4638,
  "\u2581K\u014dmit": 4639,
  "\u2581Welcome": 4640,
  "\u2581conscious": 4641,
  "\u2581dress": 4642,
  "\u2581huge": 4643,
  "\u2581limit": 4644,
  "\u2581lovers": 4645,
  "\u2581printed": 4646,
  "\u2581restored": 4647,
  "ra": 4648,
  "\u2581Keini": 4649,
  "\u2581London": 4650,
  "\u2581L\u014dmak\u00ed": 4651,
  "\u2581Notice": 4652,
  "\u2581Peace": 4653,
  "\u2581Russia": 4654,
  "\u2581Sam": 4655,
  "\u2581Unlike": 4656,
  "\u2581asks": 4657,
  "\u2581completed": 4658,
  "\u2581conversations": 4659,
  "\u2581covered": 4660,
  "\u2581imperfection": 4661,
  "\u2581manupuna": 4662,
  "\u2581played": 4663,
  "Look": 4664,
  "our": 4665,
  "\u2581Kal": 4666,
  "\u2581Pal\u014dveepi": 4667,
  "\u2581Pulusi": 4668,
  "\u2581campaign": 4669,
  "\u2581confront": 4670,
  "\u2581depend": 4671,
  "\u2581depends": 4672,
  "\u2581gather": 4673,
  "\u2581newly": 4674,
  "\u2581royal": 4675,
  "\u2581t\u0101t\u0101taha": 4676,
  "koe": 4677,
  "\u2581A\u00ed": 4678,
  "\u2581Felo": 4679,
  "\u2581Isa": 4680,
  "\u2581N\u014dvema": 4681,
  "\u2581fakalongolongo": 4682,
  "\u2581fiekaia": 4683,
  "\u2581foolish": 4684,
  "\u2581format": 4685,
  "\u2581lavaki": 4686,
  "\u2581p\u0113pe\u00e9": 4687,
  "\u2581t": 4688,
  "\u2581tempted": 4689,
  "\u2581uain\u00e9": 4690,
  "\u2581upbuilding": 4691,
  "To": 4692,
  "\u2581Eventually": 4693,
  "\u2581Gideon": 4694,
  "\u2581Ongo": 4695,
  "\u2581STUDY": 4696,
  "\u2581alert": 4697,
  "\u2581crime": 4698,
  "\u2581drawing": 4699,
  "\u2581kikit\u00e9": 4700,
  "\u2581momoko": 4701,
  "\u2581pleasant": 4702,
  "\u2581review": 4703,
  "\u2581routine": 4704,
  "\u2581souls": 4705,
  "\u2581tribes": 4706,
  "\u2581trusted": 4707,
  "\u2581unrighteous": 4708,
  "Koe": 4709,
  "R": 4710,
  "li": 4711,
  "\u25811914.": 4712,
  "\u2581JEHOVAH": 4713,
  "\u2581ata\u00e1": 4714,
  "\u2581contain": 4715,
  "\u2581fakanonga": 4716,
  "\u2581fakato": 4717,
  "\u2581laid": 4718,
  "\u2581lips": 4719,
  "\u2581maf\u00fa": 4720,
  "\u2581permanent": 4721,
  "\u2581resources": 4722,
  "\u2581warns": 4723,
  "ine": 4724,
  "\u2581Christmas": 4725,
  "\u2581Eku": 4726,
  "\u2581Feinga": 4727,
  "\u2581Pilate": 4728,
  "\u2581Spiritual": 4729,
  "\u2581S\u0113mis\u00ed": 4730,
  "\u2581appeal": 4731,
  "\u2581depression": 4732,
  "\u2581empty": 4733,
  "\u2581fundamental": 4734,
  "\u2581ignore": 4735,
  "\u2581theme": 4736,
  "etoka": 4737,
  "\u25811940": 4738,
  "\u25813;": 4739,
  "\u2581African": 4740,
  "\u2581Italy": 4741,
  "\u2581Kumi": 4742,
  "\u2581K\u0101nata": 4743,
  "\u2581North": 4744,
  "\u2581attempt": 4745,
  "\u2581bed": 4746,
  "\u2581constant": 4747,
  "\u2581fakamui": 4748,
  "\u2581minutes": 4749,
  "\u2581miraculous": 4750,
  "\u2581m\u0101li\u00e9": 4751,
  "\u2581ng\u0101uekovi": 4752,
  "\u2581serpent": 4753,
  "\u2581threatened": 4754,
  "\u2581touch": 4755,
  "\u2581t\u0101utah\u00e1": 4756,
  "\u2581uluak\u00ed": 4757,
  "\u2581ulung\u0101ng\u00e1": 4758,
  "\u2581valevale": 4759,
  "\u2581wondered": 4760,
  "\u258114]": 4761,
  "\u2581Habakkuk": 4762,
  "\u2581Hau": 4763,
  "\u2581enjoying": 4764,
  "\u2581fakakauta\u00fa": 4765,
  "\u2581foot": 4766,
  "\u2581instructed": 4767,
  "\u2581kavenga": 4768,
  "\u2581lotolotong\u00e1": 4769,
  "\u2581satisfied": 4770,
  "kainga": 4771,
  "\u258133,": 4772,
  "\u258172": 4773,
  "\u2581Aonga": 4774,
  "\u2581attain": 4775,
  "\u2581eve": 4776,
  "\u2581fakalato": 4777,
  "\u2581fakas\u014dsiale": 4778,
  "\u2581k\u0101ka\u00e1": 4779,
  "\u2581observes": 4780,
  "\u2581perfection": 4781,
  "\u2581reputation": 4782,
  "\u2581safeguard": 4783,
  "\u2581style": 4784,
  "\u2581victims": 4785,
  "ngata": 4786,
  "ry": 4787,
  "tamaioeiki": 4788,
  "\u25811930": 4789,
  "\u2581Anna": 4790,
  "\u2581COVER": 4791,
  "\u2581Foaki": 4792,
  "\u2581River": 4793,
  "\u2581Source": 4794,
  "\u2581chance": 4795,
  "\u2581exposed": 4796,
  "\u2581forgiving": 4797,
  "\u2581labor": 4798,
  "\u2581meditation": 4799,
  "\u2581welfare": 4800,
  "emali": 4801,
  "etui": 4802,
  "kuo": 4803,
  "\u25811990": 4804,
  "\u2581Philip": 4805,
  "\u2581S\u0113kop\u00e9": 4806,
  "\u2581defend": 4807,
  "\u2581extend": 4808,
  "\u2581fakafuo": 4809,
  "\u2581habit": 4810,
  "\u2581identity": 4811,
  "\u2581kimoutol\u00fa": 4812,
  "\u2581level": 4813,
  "\u2581mahamahak\u00ed": 4814,
  "\u2581relate": 4815,
  "\u2581senit": 4816,
  "\u2581stayed": 4817,
  "\u2581store": 4818,
  "\u2581traits": 4819,
  "\u2581tuofefin\u00e9": 4820,
  "\u2581wipe": 4821,
  "ng\u0101ue": 4822,
  "\u25812483": 4823,
  "\u2581Esther": 4824,
  "\u2581William": 4825,
  "\u2581fekoekoe": 4826,
  "\u2581increasing": 4827,
  "\u2581mauma\u00fa": 4828,
  "\u2581punishment": 4829,
  "\u2581raising": 4830,
  "\u2581siliva": 4831,
  "\u2581talks": 4832,
  "\u258156": 4833,
  "\u2581Kolo": 4834,
  "\u2581M\u0101lohi": 4835,
  "\u2581Tui": 4836,
  "\u2581calamity": 4837,
  "\u2581ears": 4838,
  "\u2581paying": 4839,
  "\u2581possibly": 4840,
  "\u2581preparing": 4841,
  "\u2581teke": 4842,
  "\u2581wheat": 4843,
  "2": 4844,
  "Be": 4845,
  "ract": 4846,
  "\u258116;": 4847,
  "\u25811997": 4848,
  "\u2581Gospels": 4849,
  "\u2581Heart": 4850,
  "\u2581fakafalala": 4851,
  "\u2581feitama": 4852,
  "\u2581monumanu": 4853,
  "\u2581principal": 4854,
  "\u2581solution": 4855,
  "\u2581wholesome": 4856,
  "\u2581Fu": 4857,
  "\u2581Kautaha": 4858,
  "\u2581Lazarus": 4859,
  "\u2581S\u0101pat\u00e9": 4860,
  "\u2581Taumu": 4861,
  "\u2581aufuat\u014d": 4862,
  "\u2581images": 4863,
  "\u2581innocent": 4864,
  "\u2581pagan": 4865,
  "\u2581reliable": 4866,
  "\u2581tono": 4867,
  "\u2581FOR": 4868,
  "\u2581Greece": 4869,
  "\u2581Jordan": 4870,
  "\u2581Master": 4871,
  "\u2581M\u012bsaia": 4872,
  "\u2581November": 4873,
  "\u2581applies": 4874,
  "\u2581contained": 4875,
  "\u2581grave": 4876,
  "\u2581hakeaki": 4877,
  "\u2581houses": 4878,
  "\u2581kaung\u0101tui": 4879,
  "\u2581mafolalahia": 4880,
  "\u2581malu\u00fa": 4881,
  "\u2581significance": 4882,
  "\u2581tend": 4883,
  "Assembl": 4884,
  "ch": 4885,
  "ehanotatau": 4886,
  "\u2581Congregation": 4887,
  "\u2581Faiako": 4888,
  "\u2581Fakafaifekau": 4889,
  "\u2581Siona": 4890,
  "\u2581THIS": 4891,
  "\u2581behe": 4892,
  "\u2581choosing": 4893,
  "\u2581commands": 4894,
  "\u2581computer": 4895,
  "\u2581divided": 4896,
  "\u2581extended": 4897,
  "\u2581fakan\u0101n\u0101": 4898,
  "\u2581feangai": 4899,
  "\u2581finds": 4900,
  "\u2581leader": 4901,
  "\u2581lilingi": 4902,
  "\u2581obeying": 4903,
  "\u2581polis\u00ed": 4904,
  "\u2581pulusinga": 4905,
  "\u2581scripture": 4906,
  "\u2581street": 4907,
  "\u2581tabernacle": 4908,
  "\u2581television": 4909,
  "\u2581treasures": 4910,
  "\u2581unless": 4911,
  "ISH": 4912,
  "ful": 4913,
  "\u2581Falala": 4914,
  "\u2581Ilaisia\u00e1": 4915,
  "\u2581Josiah": 4916,
  "\u2581Nations": 4917,
  "\u2581aged": 4918,
  "\u2581clergy": 4919,
  "\u2581communicate": 4920,
  "\u2581corruption": 4921,
  "\u2581hua": 4922,
  "\u2581inherited": 4923,
  "\u2581located": 4924,
  "\u2581observing": 4925,
  "\u2581obtained": 4926,
  "\u2581prominent": 4927,
  "\u2581telephone": 4928,
  "\u2581t\u0101kang\u00e1": 4929,
  "ton": 4930,
  "z": 4931,
  "\u25813,000": 4932,
  "\u2581500": 4933,
  "\u2581Ioke": 4934,
  "\u2581hospitality": 4935,
  "\u2581j": 4936,
  "\u2581obligation": 4937,
  "\u2581partner": 4938,
  "\u2581property": 4939,
  "\u2581safety": 4940,
  "\u2581symbolic": 4941,
  "\u2581taloni": 4942,
  "ary": 4943,
  "ever": 4944,
  "\u2581Nas\u00ed": 4945,
  "\u2581birds": 4946,
  "\u2581comment": 4947,
  "\u2581context": 4948,
  "\u2581disasters": 4949,
  "\u2581distant": 4950,
  "\u2581fakafaikehekehe": 4951,
  "\u2581fitting": 4952,
  "\u2581intense": 4953,
  "\u2581k\u012btaki": 4954,
  "\u2581m\u0101numan\u00fa": 4955,
  "\u2581ordered": 4956,
  "\u2581primarily": 4957,
  "\u2581services": 4958,
  "\u2581sold": 4959,
  "\u2581threat": 4960,
  "\u2581tufa": 4961,
  "fo": 4962,
  "uhing\u00e1": 4963,
  "we": 4964,
  "\u2581Draw": 4965,
  "\u2581HO": 4966,
  "\u2581Things": 4967,
  "\u2581cancer": 4968,
  "\u2581entrusted": 4969,
  "\u2581kehekeh\u00e9": 4970,
  "\u2581maile": 4971,
  "\u2581mark": 4972,
  "\u2581onopooni": 4973,
  "\u2581pongipong\u00ed": 4974,
  "\u2581rewarding": 4975,
  "\u2581saienis\u00ed": 4976,
  "\u2581suddenly": 4977,
  "etu\u00ed": 4978,
  "\u2581America": 4979,
  "\u2581India": 4980,
  "\u2581Iulop\u00e9": 4981,
  "\u2581acquire": 4982,
  "\u2581fakahisit\u014dlia": 4983,
  "\u2581filifili": 4984,
  "\u2581leaves": 4985,
  "\u2581memory": 4986,
  "\u2581m\u0101fan\u00e1": 4987,
  "\u2581pictures": 4988,
  "\u2581recreation": 4989,
  "\u2581rock": 4990,
  "\u2581sand": 4991,
  "\u2581sorts": 4992,
  "\u2581suggest": 4993,
  "\u2581tapak\u00e1": 4994,
  "ti": 4995,
  "\u2581Abram": 4996,
  "\u2581Faingata": 4997,
  "\u2581Galilee": 4998,
  "\u2581L\u0113soni": 4999,
  "\u2581Titus": 5000,
  "\u2581adopt": 5001,
  "\u2581average": 5002,
  "\u2581dream": 5003,
  "\u2581fakam\u0101mani": 5004,
  "\u2581features": 5005,
  "\u2581healing": 5006,
  "\u2581meditating": 5007,
  "\u2581watching": 5008,
  "drew": 5009,
  "ekina": 5010,
  "\u25812005": 5011,
  "\u2581L\u016bsia": 5012,
  "\u2581Often": 5013,
  "\u2581Says": 5014,
  "\u2581Way": 5015,
  "\u2581calm": 5016,
  "\u2581establish": 5017,
  "\u2581fakahangataha": 5018,
  "\u2581fakatokelau": 5019,
  "\u2581falal\u00e1": 5020,
  "\u2581fana": 5021,
  "\u2581feature": 5022,
  "\u2581intended": 5023,
  "\u2581resolved": 5024,
  "\u2581shortly": 5025,
  "\u2581solid": 5026,
  "\u2581\u00e9": 5027,
  "ur": 5028,
  "\u2581L\u012bva\u00ed": 5029,
  "\u2581add": 5030,
  "\u2581beast": 5031,
  "\u2581cells": 5032,
  "\u2581custom": 5033,
  "\u2581devoted": 5034,
  "\u2581fakamisinal\u00e9": 5035,
  "\u2581isolated": 5036,
  "\u2581kinau\u00e1": 5037,
  "\u2581mio": 5038,
  "\u2581sila": 5039,
  "\u2581thankful": 5040,
  "\u2581t\u016bkia": 5041,
  "\u2581uit\u00e9": 5042,
  "\u2581wrath": 5043,
  "3": 5044,
  "do": 5045,
  "ilong\u00e1": 5046,
  "\u2581(1": 5047,
  "\u258132,": 5048,
  "\u258142.": 5049,
  "\u2581BY": 5050,
  "\u2581bitter": 5051,
  "\u2581burden": 5052,
  "\u2581fakakautau": 5053,
  "\u2581fakamolemol\u00e9": 5054,
  "\u2581fuolo\u00e1": 5055,
  "\u2581headquarters": 5056,
  "\u2581iron": 5057,
  "\u2581length": 5058,
  "\u2581modesty": 5059,
  "\u2581painful": 5060,
  "\u2581pelep": 5061,
  "\u2581polokalam\u00e1": 5062,
  "\u2581restore": 5063,
  "\u2581tautau": 5064,
  "\u2581torture": 5065,
  "\u2581wall": 5066,
  "go": 5067,
  "other": 5068,
  "\u2581Efes\u014d": 5069,
  "\u2581Know": 5070,
  "\u2581Pel\u0113sila": 5071,
  "\u2581Three": 5072,
  "\u2581advancement": 5073,
  "\u2581apiako": 5074,
  "\u2581claimed": 5075,
  "\u2581fakalotosi": 5076,
  "\u2581grain": 5077,
  "\u2581miracle": 5078,
  "\u2581possess": 5079,
  "\u2581tatak\u00ed": 5080,
  "\u2581tendency": 5081,
  "\u2581trusting": 5082,
  "alaua": 5083,
  "\u2581Corinth": 5084,
  "\u2581Name": 5085,
  "\u2581broken": 5086,
  "\u2581cruel": 5087,
  "\u2581fakaefakakauka\u00fa": 5088,
  "\u2581fakamahino": 5089,
  "\u2581gained": 5090,
  "\u2581hia": 5091,
  "\u2581maturity": 5092,
  "\u2581moon": 5093,
  "\u2581northern": 5094,
  "\u2581poured": 5095,
  "\u2581reap": 5096,
  "\u2581thanks": 5097,
  "\u2581translations": 5098,
  "\u2581umea": 5099,
  "\u2581visitors": 5100,
  "\u2581vow": 5101,
  "\u2581worker": 5102,
  "eh\u0101mai": 5103,
  "\u25811943": 5104,
  "\u2581Besides": 5105,
  "\u2581Dictionary": 5106,
  "\u2581Please": 5107,
  "\u2581S\u0113nesi": 5108,
  "\u2581afterward": 5109,
  "\u2581grand": 5110,
  "\u2581hidden": 5111,
  "\u2581h\u012bkisia": 5112,
  "\u2581idolatry": 5113,
  "\u2581officer": 5114,
  "\u2581phone": 5115,
  "\u2581saliote": 5116,
  "\u2581songs": 5117,
  "\u2581subjection": 5118,
  "\u2581tele": 5119,
  "\u2581tolonga": 5120,
  "\u2581victim": 5121,
  "\u2581weakness": 5122,
  "\u258132]": 5123,
  "\u2581Committee": 5124,
  "\u2581Dad": 5125,
  "\u2581February": 5126,
  "\u2581Gen": 5127,
  "\u2581S\u014dsaiet": 5128,
  "\u2581arrested": 5129,
  "\u2581capable": 5130,
  "\u2581cared": 5131,
  "\u2581contributed": 5132,
  "\u2581customs": 5133,
  "\u2581development": 5134,
  "\u2581hongoful\u00fa": 5135,
  "\u2581islands": 5136,
  "\u2581k\u0101p": 5137,
  "\u2581mine": 5138,
  "\u2581opinion": 5139,
  "\u2581opposed": 5140,
  "\u2581proceeded": 5141,
  "\u2581s\u014dti\u00e1": 5142,
  "\u2581Ilaisa": 5143,
  "\u2581Marriage": 5144,
  "\u2581Sermon": 5145,
  "\u2581burning": 5146,
  "\u2581charge": 5147,
  "\u2581delighted": 5148,
  "\u2581firstborn": 5149,
  "\u2581fit\u00fa": 5150,
  "\u2581lifestyle": 5151,
  "\u2581luelue": 5152,
  "\u2581marked": 5153,
  "\u2581rewarded": 5154,
  "\u2581siokit\u00e1": 5155,
  "\u2581stories": 5156,
  "\u2581ulung\u0101ang\u00e1": 5157,
  "\u2581urges": 5158,
  "\u2581won": 5159,
  "):": 5160,
  "\u2581150": 5161,
  "\u2581Judea": 5162,
  "\u2581Mel\u00e9": 5163,
  "\u2581National": 5164,
  "\u2581Richard": 5165,
  "\u2581below": 5166,
  "\u2581depth": 5167,
  "\u2581enduring": 5168,
  "\u2581fakangofua": 5169,
  "\u2581fakatomal\u00e1": 5170,
  "\u2581finish": 5171,
  "\u2581fufulu": 5172,
  "\u2581historian": 5173,
  "\u2581ka\u00e1": 5174,
  "\u2581meek": 5175,
  "\u2581mistake": 5176,
  "\u2581reads": 5177,
  "\u2581remnant": 5178,
  "\u2581suicide": 5179,
  "\u2581tested": 5180,
  "\u2581wrongdoing": 5181,
  "6": 5182,
  "efakapotopoto": 5183,
  "not": 5184,
  "va": 5185,
  "\u2581Albert": 5186,
  "\u2581Find": 5187,
  "\u2581Making": 5188,
  "\u2581Septuagint": 5189,
  "\u2581Taki": 5190,
  "\u2581Use": 5191,
  "\u2581af\u00ed": 5192,
  "\u2581billion": 5193,
  "\u2581compassionate": 5194,
  "\u2581fakah\u016b": 5195,
  "\u2581fakalotom\u0101fana": 5196,
  "\u2581fakatamak\u00ed": 5197,
  "\u2581mokomoko": 5198,
  "\u2581morally": 5199,
  "\u2581offerings": 5200,
  "\u2581residents": 5201,
  "\u2581sufficient": 5202,
  "\u2581tata\u00fa": 5203,
  "\u2581Leviticus": 5204,
  "\u2581Prayer": 5205,
  "\u2581Va": 5206,
  "\u2581Vaitafe": 5207,
  "\u2581arms": 5208,
  "\u2581encounter": 5209,
  "\u2581patriarch": 5210,
  "\u2581privileged": 5211,
  "\u2581protected": 5212,
  "\u2581reply": 5213,
  "\u2581ship": 5214,
  "fakatau": 5215,
  "\u2581Early": 5216,
  "\u2581Jephthah": 5217,
  "\u2581Kilisimas\u00ed": 5218,
  "\u2581Latin": 5219,
  "\u2581Thousand": 5220,
  "\u2581acknowledged": 5221,
  "\u2581clothes": 5222,
  "\u2581creature": 5223,
  "\u2581feed": 5224,
  "\u2581harsh": 5225,
  "\u2581items": 5226,
  "\u2581kaung\u0101ng\u0101ue": 5227,
  "\u2581likened": 5228,
  "\u2581looks": 5229,
  "\u2581sets": 5230,
  "\u2581solova": 5231,
  "\u2581spending": 5232,
  "\u2581surrounded": 5233,
  "\u2581tukuha\u00fa": 5234,
  "\u2581\u0101taka\u00ed": 5235,
  "amelie": 5236,
  "\u2581Ahab": 5237,
  "\u2581Bill": 5238,
  "\u2581Come": 5239,
  "\u2581European": 5240,
  "\u2581Judges": 5241,
  "\u2581adjust": 5242,
  "\u2581color": 5243,
  "\u2581commandment": 5244,
  "\u2581covering": 5245,
  "\u2581eagerly": 5246,
  "\u2581earnestly": 5247,
  "\u2581lakanga": 5248,
  "\u2581m\u0101vahevahe": 5249,
  "\u2581peheni": 5250,
  "\u2581pornography": 5251,
  "\u2581seventh": 5252,
  "\u2581stones": 5253,
  "\u2581summer": 5254,
  "\u2581tamate": 5255,
  "\u2581whereas": 5256,
  "hoko": 5257,
  "\u2581Eph": 5258,
  "\u2581Martha": 5259,
  "\u2581Mekisikou": 5260,
  "\u2581Table": 5261,
  "\u2581atmosphere": 5262,
  "\u2581cell": 5263,
  "\u2581eliminate": 5264,
  "\u2581faama": 5265,
  "\u2581flee": 5266,
  "\u2581k\u0101toa": 5267,
  "\u2581pursuit": 5268,
  "ap\u00e1": 5269,
  "unuku": 5270,
  "\u2581F\u0101na\u00fa": 5271,
  "\u2581Hahake": 5272,
  "\u2581K\u0113nan\u00ed": 5273,
  "\u2581Mate": 5274,
  "\u2581Siosefa": 5275,
  "\u2581cup": 5276,
  "\u2581existed": 5277,
  "\u2581fakaem\u0101man\u00ed": 5278,
  "\u2581fields": 5279,
  "\u2581fiemalie": 5280,
  "\u2581inherit": 5281,
  "\u2581mates": 5282,
  "\u2581per": 5283,
  "\u2581preserve": 5284,
  "\u2581senses": 5285,
  "\u2581stronger": 5286,
  "\u2581table": 5287,
  "\u2581win": 5288,
  "\u2581zealously": 5289,
  "\u258152": 5290,
  "\u258183": 5291,
  "\u2581Ef": 5292,
  "\u2581Grand": 5293,
  "\u2581Ofi": 5294,
  "\u2581addressed": 5295,
  "\u2581adjustments": 5296,
  "\u2581examination": 5297,
  "\u2581executed": 5298,
  "\u2581happening": 5299,
  "\u2581historical": 5300,
  "\u2581initiative": 5301,
  "\u2581object": 5302,
  "\u2581os\u00ed": 5303,
  "\u2581plague": 5304,
  "\u2581sitting": 5305,
  "\u2581tent": 5306,
  "\u2581willingness": 5307,
  "\u2581\u0100maketon\u00e9": 5308,
  "hi": 5309,
  "\u2581Answered": 5310,
  "\u2581M\u0101fimaf": 5311,
  "\u2581Sionatane": 5312,
  "\u2581Siutasi": 5313,
  "\u2581West": 5314,
  "\u2581accompanie": 5315,
  "\u2581angelo": 5316,
  "\u2581c": 5317,
  "\u2581elel\u00f3": 5318,
  "\u2581if\u00ed": 5319,
  "\u2581location": 5320,
  "\u2581papa": 5321,
  "\u2581ran": 5322,
  "\u2581savea": 5323,
  "\u2581size": 5324,
  "\u2581team": 5325,
  "\u2581warfare": 5326,
  "By": 5327,
  "pikitai": 5328,
  "\u2581Fanongo": 5329,
  "\u2581Lot\u00fa": 5330,
  "\u2581acquainted": 5331,
  "\u2581description": 5332,
  "\u2581dry": 5333,
  "\u2581fakafehokotaki": 5334,
  "\u2581hol\u00ed": 5335,
  "\u2581impact": 5336,
  "\u2581kol\u00e9": 5337,
  "\u2581mak\u00e1": 5338,
  "\u2581rights": 5339,
  "\u2581searching": 5340,
  "\u2581witnessed": 5341,
  "feia": 5342,
  "his": 5343,
  "itohi": 5344,
  "\u25811945": 5345,
  "\u25811980": 5346,
  "\u2581FAI": 5347,
  "\u2581Fear": 5348,
  "\u2581Gold": 5349,
  "\u2581Ng\u0101": 5350,
  "\u2581Spain": 5351,
  "\u2581Univ\u0113sit": 5352,
  "\u2581bow": 5353,
  "\u2581declaring": 5354,
  "\u2581desirable": 5355,
  "\u2581everywhere": 5356,
  "\u2581fresh": 5357,
  "\u2581hinehina": 5358,
  "\u2581kakapa": 5359,
  "\u2581makeh\u00e9": 5360,
  "\u2581motive": 5361,
  "\u2581quiet": 5362,
  "\u2581strangers": 5363,
  "\u2581tired": 5364,
  "an\u00e9": 5365,
  "el": 5366,
  "\u25811970": 5367,
  "\u2581Contents": 5368,
  "\u2581cast": 5369,
  "\u2581dust": 5370,
  "\u2581gets": 5371,
  "\u2581marital": 5372,
  "\u2581objective": 5373,
  "\u2581origin": 5374,
  "\u2581silent": 5375,
  "talatukufakaholo": 5376,
  "\u2581120": 5377,
  "\u2581Lamb": 5378,
  "\u2581Lote": 5379,
  "\u2581View": 5380,
  "\u2581annual": 5381,
  "\u2581elelo": 5382,
  "\u2581faitatau": 5383,
  "\u2581famous": 5384,
  "\u2581frequently": 5385,
  "\u2581kainga": 5386,
  "\u2581kolop\u00e9": 5387,
  "\u2581storm": 5388,
  "\u2581volunteers": 5389,
  "at\u00e1": 5390,
  "il": 5391,
  "ngofua": 5392,
  "\u2581Aoni\u00fa": 5393,
  "\u2581Levites": 5394,
  "\u2581Much": 5395,
  "\u2581Next": 5396,
  "\u2581Tangat\u00e1": 5397,
  "\u2581Within": 5398,
  "\u2581approaching": 5399,
  "\u2581comfortable": 5400,
  "\u2581discussions": 5401,
  "\u2581earnest": 5402,
  "\u2581fakamalohi": 5403,
  "\u2581fallen": 5404,
  "\u2581miss": 5405,
  "\u2581peaceable": 5406,
  "\u2581promotes": 5407,
  "\u2581pursuits": 5408,
  "\u2581regret": 5409,
  "\u2581represents": 5410,
  "\u2581sayings": 5411,
  "\u2581tamaik\u00ed": 5412,
  "\u2581\u012anoke": 5413,
  "No": 5414,
  "emal\u00ed": 5415,
  "\u2581400": 5416,
  "\u2581Close": 5417,
  "\u2581Fakaha\u00e1": 5418,
  "\u2581Fakalelei": 5419,
  "\u2581Malakai": 5420,
  "\u2581Zephaniah": 5421,
  "\u2581credit": 5422,
  "\u2581disobedience": 5423,
  "\u2581engaging": 5424,
  "\u2581exciting": 5425,
  "\u2581faihi\u00e1": 5426,
  "\u2581fakafili": 5427,
  "\u2581kato": 5428,
  "\u2581maniusikilipi": 5429,
  "\u2581miraculously": 5430,
  "\u2581ongoong\u00f3": 5431,
  "\u2581photo": 5432,
  "\u2581profound": 5433,
  "\u2581qualify": 5434,
  "\u2581temper": 5435,
  "\u2581throw": 5436,
  "\u2581vilo": 5437,
  "\u2581warnings": 5438,
  "\u2581widely": 5439,
  "\u2581worldly": 5440,
  "Your": 5441,
  "amate": 5442,
  "ism": 5443,
  "letting": 5444,
  "thrown": 5445,
  "\u2581Convention": 5446,
  "\u2581Fakaha": 5447,
  "\u2581Fanga": 5448,
  "\u2581Health": 5449,
  "\u2581Human": 5450,
  "\u2581Illustrate": 5451,
  "\u2581Year": 5452,
  "\u2581adult": 5453,
  "\u2581anymore": 5454,
  "\u2581ava": 5455,
  "\u2581boat": 5456,
  "\u2581cultivating": 5457,
  "\u2581dating": 5458,
  "\u2581fakal\u016bkufu\u00e1": 5459,
  "\u2581female": 5460,
  "\u2581hoosi": 5461,
  "\u2581media": 5462,
  "\u2581paragraphs": 5463,
  "\u2581peer": 5464,
  "\u2581prosperity": 5465,
  "\u2581returning": 5466,
  "\u2581shine": 5467,
  "\u2581suggested": 5468,
  "\u2581supporting": 5469,
  "\u2581telia": 5470,
  "\u2581tukufakahol\u00f3": 5471,
  "\u2581t\u0101puni": 5472,
  "\u2581\u0112lone": 5473,
  "F": 5474,
  "ce": 5475,
  "\u2581Eli": 5476,
  "\u2581Leader": 5477,
  "\u2581Lot\u00f3": 5478,
  "\u2581Re": 5479,
  "\u2581Yearbook": 5480,
  "\u2581amazing": 5481,
  "\u2581believing": 5482,
  "\u2581civil": 5483,
  "\u2581convey": 5484,
  "\u2581efiaf\u00ed": 5485,
  "\u2581explanation": 5486,
  "\u2581fakas\u014dsial\u00e9": 5487,
  "\u2581hot": 5488,
  "\u2581price": 5489,
  "\u2581river": 5490,
  "\u2581slavery": 5491,
  "\u2581spirits": 5492,
  "\u2581station": 5493,
  "ahikeh\u00e9": 5494,
  "\u258145.": 5495,
  "\u2581Ex": 5496,
  "\u2581Fepueli": 5497,
  "\u2581IS": 5498,
  "\u2581Judas": 5499,
  "\u2581Photo": 5500,
  "\u2581Zion": 5501,
  "\u2581anxieties": 5502,
  "\u2581emotionally": 5503,
  "\u2581engaged": 5504,
  "\u2581execution": 5505,
  "\u2581fakafisinga": 5506,
  "\u2581joyfully": 5507,
  "\u2581man\u00e1": 5508,
  "\u2581m\u0101l\u014dlo\u00f3": 5509,
  "\u2581priority": 5510,
  "\u2581prize": 5511,
  "\u2581proclaimers": 5512,
  "\u2581puli": 5513,
  "\u2581repeated": 5514,
  "\u2581reproach": 5515,
  "\u2581smoking": 5516,
  "\u2581toutai": 5517,
  "\u2581universal": 5518,
  "\u2581unusual": 5519,
  "Tuku": 5520,
  "esiokita": 5521,
  "ro": 5522,
  "\u25811960": 5523,
  "\u2581Back": 5524,
  "\u2581Fakapapau": 5525,
  "\u2581Lessons": 5526,
  "\u2581Wisdom": 5527,
  "\u2581childhood": 5528,
  "\u2581coast": 5529,
  "\u2581cross": 5530,
  "\u2581except": 5531,
  "\u2581fakangalingali": 5532,
  "\u2581introduced": 5533,
  "\u2581middle": 5534,
  "\u2581mourning": 5535,
  "\u2581preserved": 5536,
  "\u2581remembered": 5537,
  "\u2581t\u0101puak\u00ed": 5538,
  "\u2581urge": 5539,
  "\u2581weather": 5540,
  "Go": 5541,
  "\u2581(4)": 5542,
  "\u258147": 5543,
  "\u2581Ezra": 5544,
  "\u2581Happiness": 5545,
  "\u2581Ingilani": 5546,
  "\u2581Near": 5547,
  "\u2581arrival": 5548,
  "\u2581belongings": 5549,
  "\u2581buleaga": 5550,
  "\u2581desired": 5551,
  "\u2581haha": 5552,
  "\u2581holoki": 5553,
  "\u2581householder": 5554,
  "\u2581loyally": 5555,
  "\u2581ofein\u00e1": 5556,
  "\u2581running": 5557,
  "\u2581telinga": 5558,
  "\u25811918": 5559,
  "\u25812006": 5560,
  "\u258173": 5561,
  "\u2581Above": 5562,
  "\u2581Inc": 5563,
  "\u2581Library": 5564,
  "\u2581Palatais\u00ed": 5565,
  "\u2581S\u0101miuel\u00e1": 5566,
  "\u2581Were": 5567,
  "\u2581accused": 5568,
  "\u2581akimoutolu": 5569,
  "\u2581complex": 5570,
  "\u2581courageously": 5571,
  "\u2581diligent": 5572,
  "\u2581edition": 5573,
  "\u2581faces": 5574,
  "\u2581fakakoloa": 5575,
  "\u2581grant": 5576,
  "\u2581handed": 5577,
  "\u2581holds": 5578,
  "\u2581judges": 5579,
  "\u2581keimi": 5580,
  "\u2581kulokula": 5581,
  "\u2581m\u0101hin\u00e1": 5582,
  "\u2581ngeia": 5583,
  "\u2581peers": 5584,
  "\u2581publicly": 5585,
  "\u2581pulus\u00ed": 5586,
  "\u2581replaced": 5587,
  "\u2581rewards": 5588,
  "\u2581submit": 5589,
  "\u2581takanga": 5590,
  "\u2581toho": 5591,
  "\u2581tumutumu": 5592,
  "\u2581Au": 5593,
  "\u2581Babylonian": 5594,
  "\u2581Esau": 5595,
  "\u2581Karen": 5596,
  "\u2581Ohio": 5597,
  "\u2581P\u0101sov\u00e1": 5598,
  "\u2581Red": 5599,
  "\u2581Which": 5600,
  "\u2581condemned": 5601,
  "\u2581disappointed": 5602,
  "\u2581doctrine": 5603,
  "\u2581equipped": 5604,
  "\u2581fakangalo": 5605,
  "\u2581fruits": 5606,
  "\u2581fulfilling": 5607,
  "\u2581kil\u00ed": 5608,
  "\u2581milion\u00e1": 5609,
  "\u2581paper": 5610,
  "\u2581proverb": 5611,
  "\u2581spite": 5612,
  "\u2581suitable": 5613,
  "\u2581telev\u012bson\u00e9": 5614,
  "\u2581temptations": 5615,
  "\u2581uphold": 5616,
  "\u2581visible": 5617,
  "\u2581\u014dlita": 5618,
  "ant": 5619,
  "auak\u00ed": 5620,
  "auh\u00e1": 5621,
  "efakah\u014difua": 5622,
  "\u2581Any": 5623,
  "\u2581Evidently": 5624,
  "\u2581Mekisiko\u00fa": 5625,
  "\u2581NG\u0100UE": 5626,
  "\u2581Rebekah": 5627,
  "\u2581Siaina": 5628,
  "\u2581Taula": 5629,
  "\u2581Up": 5630,
  "\u2581doctors": 5631,
  "\u2581doubts": 5632,
  "\u2581ethnic": 5633,
  "\u2581fakafiemalie": 5634,
  "\u2581floor": 5635,
  "\u2581hele": 5636,
  "\u2581interesting": 5637,
  "\u2581kon\u0101": 5638,
  "\u2581mass": 5639,
  "\u2581mele": 5640,
  "\u2581playing": 5641,
  "\u2581sports": 5642,
  "\u2581tear": 5643,
  "\u2581wear": 5644,
  "ING": 5645,
  "Vakai": 5646,
  "ish": 5647,
  "um": 5648,
  "\u25811939": 5649,
  "\u2581Additionally": 5650,
  "\u2581Baruch": 5651,
  "\u2581Chinese": 5652,
  "\u2581Hope": 5653,
  "\u2581L\u016bsi\u00e1": 5654,
  "\u2581Matava": 5655,
  "\u2581Nazi": 5656,
  "\u2581abroad": 5657,
  "\u2581access": 5658,
  "\u2581art": 5659,
  "\u2581brain": 5660,
  "\u2581capacity": 5661,
  "\u2581commendation": 5662,
  "\u2581guilty": 5663,
  "\u2581heads": 5664,
  "\u2581kaung\u0101ak\u00f3": 5665,
  "\u2581malimali": 5666,
  "\u2581mataota\u00f3": 5667,
  "\u2581method": 5668,
  "\u2581nifo": 5669,
  "\u2581north": 5670,
  "\u2581pick": 5671,
  "\u2581schedule": 5672,
  "\u2581similarly": 5673,
  "\u2581s\u0113keti": 5674,
  "\u2581taste": 5675,
  "\u2581tauh\u00ed": 5676,
  "ho": 5677,
  "ifonua": 5678,
  "\u25811941": 5679,
  "\u2581Centre": 5680,
  "\u2581Faithful": 5681,
  "\u2581Kamata": 5682,
  "\u2581Old": 5683,
  "\u2581akonekina": 5684,
  "\u2581assemblies": 5685,
  "\u2581badness": 5686,
  "\u2581check": 5687,
  "\u2581detail": 5688,
  "\u2581diseases": 5689,
  "\u2581fakafiem\u0101li\u00e9": 5690,
  "\u2581goats": 5691,
  "\u2581hardships": 5692,
  "\u2581laku": 5693,
  "\u2581moh\u00e9": 5694,
  "\u2581p\u0113teliake": 5695,
  "\u2581singing": 5696,
  "\u2581timi": 5697,
  "\u2581tufunga": 5698,
  "\u2581voluntary": 5699,
  "5:": 5700,
  "8": 5701,
  "alel\u00e9": 5702,
  "of": 5703,
  "ulung\u0101ng\u00e1": 5704,
  "\u2581KU": 5705,
  "\u2581Kaume": 5706,
  "\u2581Long": 5707,
  "\u2581S\u0101pate": 5708,
  "\u2581Try": 5709,
  "\u2581Ua": 5710,
  "\u2581appealing": 5711,
  "\u2581arose": 5712,
  "\u2581effectively": 5713,
  "\u2581evangeli\u014d": 5714,
  "\u2581feka\u00fa": 5715,
  "\u2581governing": 5716,
  "\u2581hoped": 5717,
  "\u2581influences": 5718,
  "\u2581manifested": 5719,
  "\u2581mofuike": 5720,
  "\u2581pou": 5721,
  "\u2581printing": 5722,
  "\u2581shoulder": 5723,
  "\u2581tools": 5724,
  "\u2581tradition": 5725,
  "\u2581turns": 5726,
  "B": 5727,
  "angelic": 5728,
  "\u2581Ben": 5729,
  "\u2581Empire": 5730,
  "\u2581Fokotu": 5731,
  "\u2581HONO": 5732,
  "\u2581Iok\u00e9": 5733,
  "\u2581Lines": 5734,
  "\u2581fakaeako": 5735,
  "\u2581fakaeong\u00f3": 5736,
  "\u2581lion": 5737,
  "\u2581losing": 5738,
  "\u2581passage": 5739,
  "\u2581potutoh": 5740,
  "\u2581prais": 5741,
  "\u2581p\u0101tele": 5742,
  "\u2581sat": 5743,
  "\u2581species": 5744,
  "\u2581stage": 5745,
  "\u2581suggests": 5746,
  "\u2581symbol": 5747,
  "\u2581t\u0101panekal\u00e9": 5748,
  "\u2581vakapuna": 5749,
  "G": 5750,
  "\u2581Emipae": 5751,
  "\u2581Hala": 5752,
  "\u2581Hesekaia": 5753,
  "\u2581Unu": 5754,
  "\u2581admit": 5755,
  "\u2581deeper": 5756,
  "\u2581gaining": 5757,
  "\u2581hated": 5758,
  "\u2581highlights": 5759,
  "\u2581kaveing\u00e1": 5760,
  "\u2581messages": 5761,
  "\u2581minded": 5762,
  "\u2581practiced": 5763,
  "\u2581previously": 5764,
  "\u2581steadfast": 5765,
  "\u2581suk\u00e1": 5766,
  "\u2581terrible": 5767,
  "\u2581uito\u00fa": 5768,
  "\u2581unbeliev": 5769,
  "\u2581widows": 5770,
  "\u25811,000": 5771,
  "\u25811995": 5772,
  "\u2581Ahi": 5773,
  "\u2581Egyptian": 5774,
  "\u2581Knowledge": 5775,
  "\u2581Manurewa": 5776,
  "\u2581WHEN": 5777,
  "\u2581Walk": 5778,
  "\u2581Years": 5779,
  "\u2581anautolu": 5780,
  "\u2581application": 5781,
  "\u2581boldness": 5782,
  "\u2581donations": 5783,
  "\u2581fakanounou": 5784,
  "\u2581falemahak\u00ed": 5785,
  "\u2581fighting": 5786,
  "\u2581friendly": 5787,
  "\u2581friendships": 5788,
  "\u2581h\u012bkisi\u00e1": 5789,
  "\u2581komipiut\u00e1": 5790,
  "\u2581mahiki": 5791,
  "\u2581missing": 5792,
  "\u2581necessarily": 5793,
  "\u2581plants": 5794,
  "\u2581prejudice": 5795,
  "\u2581prisoners": 5796,
  "\u2581rendering": 5797,
  "Why": 5798,
  "ical": 5799,
  "utak\u00ed": 5800,
  "\u25811953": 5801,
  "\u25812007": 5802,
  "\u2581Canaan": 5803,
  "\u2581Frank": 5804,
  "\u2581Men": 5805,
  "\u2581Sipein\u00ed": 5806,
  "\u2581Tevolo": 5807,
  "\u2581achieve": 5808,
  "\u2581backing": 5809,
  "\u2581bus": 5810,
  "\u2581concentration": 5811,
  "\u2581failahia": 5812,
  "\u2581fourth": 5813,
  "\u2581hahake": 5814,
  "\u2581hates": 5815,
  "\u2581ikun\u00e1": 5816,
  "\u2581immediate": 5817,
  "\u2581income": 5818,
  "\u2581obstacles": 5819,
  "\u2581participate": 5820,
  "\u2581planet": 5821,
  "\u2581planning": 5822,
  "\u2581pregnant": 5823,
  "\u2581walls": 5824,
  "\u2581weapons": 5825,
  "\u2581worry": 5826,
  "\u2581yoke": 5827,
  "Neongo": 5828,
  "uilelei": 5829,
  "\u2581El": 5830,
  "\u2581Get": 5831,
  "\u2581Maintain": 5832,
  "\u2581Reflect": 5833,
  "\u2581Right": 5834,
  "\u2581TAP\u00da": 5835,
  "\u2581Trust": 5836,
  "\u2581admits": 5837,
  "\u2581admonished": 5838,
  "\u2581discussing": 5839,
  "\u2581drive": 5840,
  "\u2581ends": 5841,
  "\u2581expectation": 5842,
  "\u2581experiencing": 5843,
  "\u2581extra": 5844,
  "\u2581heat": 5845,
  "\u2581hilifaki": 5846,
  "\u2581imprisoned": 5847,
  "\u2581lacking": 5848,
  "\u2581mafana": 5849,
  "\u2581makasin\u00ed": 5850,
  "\u2581portion": 5851,
  "\u2581realm": 5852,
  "\u2581rejoicing": 5853,
  "\u2581satisfy": 5854,
  "\u2581tokua": 5855,
  "\u2581weekly": 5856,
  "ED": 5857,
  "ably": 5858,
  "\u25811947": 5859,
  "\u258162": 5860,
  "\u2581Alu": 5861,
  "\u2581Bea": 5862,
  "\u2581Death": 5863,
  "\u2581HOW": 5864,
  "\u2581Published": 5865,
  "\u2581black": 5866,
  "\u2581blame": 5867,
  "\u2581crowds": 5868,
  "\u2581depict": 5869,
  "\u2581elsewhere": 5870,
  "\u2581fun": 5871,
  "\u2581guilt": 5872,
  "\u2581kingdoms": 5873,
  "\u2581maintained": 5874,
  "\u2581monuman\u00fa": 5875,
  "\u2581numbers": 5876,
  "\u2581ongoongolelei": 5877,
  "\u2581outlook": 5878,
  "\u2581pal\u014dveepi": 5879,
  "\u2581priorities": 5880,
  "\u2581talatupu": 5881,
  "\u2581teenager": 5882,
  "\u2581testimony": 5883,
  "\u2581tokelau": 5884,
  "\u2581unexpected": 5885,
  "\u2581video": 5886,
  "\u2581wealthy": 5887,
  "un": 5888,
  "ward": 5889,
  "\u258154": 5890,
  "\u2581Bethlehem": 5891,
  "\u2581Island": 5892,
  "\u2581KUO": 5893,
  "\u2581Living": 5894,
  "\u2581Livitiko": 5895,
  "\u2581Priest": 5896,
  "\u2581Sam\u0113lia": 5897,
  "\u2581dying": 5898,
  "\u2581equal": 5899,
  "\u2581expectations": 5900,
  "\u2581fears": 5901,
  "\u2581globe": 5902,
  "\u2581hik\u00ed": 5903,
  "\u2581impression": 5904,
  "\u2581ngut\u00fa": 5905,
  "\u2581reasoned": 5906,
  "\u2581repent": 5907,
  "\u2581sell": 5908,
  "\u2581sorrow": 5909,
  "\u2581southern": 5910,
  "\u2581survey": 5911,
  "\u2581tuki": 5912,
  "\u2581valeval\u00e9": 5913,
  "\u2581vet\u00e9": 5914,
  "Happy": 5915,
  "Who": 5916,
  "ange": 5917,
  "atautol\u00fa": 5918,
  "ekau": 5919,
  "ekon\u014dmika": 5920,
  "\u258161": 5921,
  "\u2581British": 5922,
  "\u2581FAKAMATALA": 5923,
  "\u2581Mat\u00e9": 5924,
  "\u2581Million": 5925,
  "\u2581Museum": 5926,
  "\u2581accident": 5927,
  "\u2581central": 5928,
  "\u2581elements": 5929,
  "\u2581folofol\u00e1": 5930,
  "\u2581keisi": 5931,
  "\u2581load": 5932,
  "\u2581monu": 5933,
  "\u2581possibility": 5934,
  "\u2581refreshment": 5935,
  "\u2581remote": 5936,
  "\u2581rescue": 5937,
  "\u2581urgency": 5938,
  "\u2581utmost": 5939,
  "\u2581Al": 5940,
  "\u2581Dead": 5941,
  "\u2581Keh\u00e9": 5942,
  "\u2581Kitione": 5943,
  "\u2581Pailato": 5944,
  "\u2581Power": 5945,
  "\u2581Put": 5946,
  "\u2581Toko": 5947,
  "\u2581Tu\u00ed": 5948,
  "\u2581agreement": 5949,
  "\u2581asleep": 5950,
  "\u2581defense": 5951,
  "\u2581healed": 5952,
  "\u2581highlight": 5953,
  "\u2581hunger": 5954,
  "\u2581intimate": 5955,
  "\u2581kanis\u0101": 5956,
  "\u2581laione": 5957,
  "\u2581mid": 5958,
  "\u2581milk": 5959,
  "\u2581obeyed": 5960,
  "\u2581types": 5961,
  "\u2581typical": 5962,
  "Sihova": 5963,
  "good": 5964,
  "that": 5965,
  "\u2581Afiona": 5966,
  "\u2581Avoid": 5967,
  "\u2581Barnabas": 5968,
  "\u2581Epalame": 5969,
  "\u2581Initia": 5970,
  "\u2581Makatu": 5971,
  "\u2581Nisan": 5972,
  "\u2581Sodom": 5973,
  "\u2581Speaking": 5974,
  "\u2581begun": 5975,
  "\u2581burned": 5976,
  "\u2581depressed": 5977,
  "\u2581ensure": 5978,
  "\u2581exchange": 5979,
  "\u2581fakaalaala": 5980,
  "\u2581fakangaloku": 5981,
  "\u2581fiefoaki": 5982,
  "\u2581mothers": 5983,
  "\u2581ngaohikovia": 5984,
  "\u2581producing": 5985,
  "\u2581reflecting": 5986,
  "\u2581reside": 5987,
  "\u2581scale": 5988,
  "\u2581sincerely": 5989,
  "\u2581stumble": 5990,
  "\u2581vakapun\u00e1": 5991,
  "\u2581weigh": 5992,
  "ONI": 5993,
  "com": 5994,
  "lahi": 5995,
  "tama": 5996,
  "\u00d3": 5997,
  "\u2581AS": 5998,
  "\u2581Fakatu": 5999,
  "\u2581Fanau": 6000,
  "\u2581F\u0101": 6001,
  "\u2581Pacific": 6002,
  "\u2581Potung\u0101u": 6003,
  "\u2581Rachel": 6004,
  "\u2581Sabbath": 6005,
  "\u2581deception": 6006,
  "\u2581faitohi": 6007,
  "\u2581faiveleng\u00e1": 6008,
  "\u2581fakailifia": 6009,
  "\u2581footnote": 6010,
  "\u2581heal": 6011,
  "\u2581hina": 6012,
  "\u2581honge": 6013,
  "\u2581in\u00fa": 6014,
  "\u2581materially": 6015,
  "\u2581operation": 6016,
  "\u2581respects": 6017,
  "\u2581settled": 6018,
  "\u2581tuai": 6019,
  "\u2581uite": 6020,
  "\u2581viti\u014d": 6021,
  "epau": 6022,
  "men": 6023,
  "pp": 6024,
  "\u2581Fakah\u0101h\u0101": 6025,
  "\u2581Fetu": 6026,
  "\u2581Numbers": 6027,
  "\u2581Pray": 6028,
  "\u2581believer": 6029,
  "\u2581claims": 6030,
  "\u2581debt": 6031,
  "\u2581declaration": 6032,
  "\u2581diet": 6033,
  "\u2581fakaaf\u00e9": 6034,
  "\u2581fakahinohin\u00f3": 6035,
  "\u2581fakamoui": 6036,
  "\u2581feongoongoi": 6037,
  "\u2581generosity": 6038,
  "\u2581helper": 6039,
  "\u2581humankind": 6040,
  "\u2581initial": 6041,
  "\u2581inspiring": 6042,
  "\u2581kongokonga": 6043,
  "\u2581mavah\u00e9": 6044,
  "\u2581pieces": 6045,
  "\u2581totally": 6046,
  "\u2581viewing": 6047,
  "disfellowshipped": 6048,
  "t\u016btu": 6049,
  "\u258137,": 6050,
  "\u2581Afilik\u00e1": 6051,
  "\u2581EN\u00cd": 6052,
  "\u2581N\u012bsani": 6053,
  "\u2581Religion": 6054,
  "\u2581Trinity": 6055,
  "\u2581avoided": 6056,
  "\u2581bride": 6057,
  "\u2581citizens": 6058,
  "\u2581current": 6059,
  "\u2581dies": 6060,
  "\u2581ear": 6061,
  "\u2581educational": 6062,
  "\u2581errors": 6063,
  "\u2581fakamafasia": 6064,
  "\u2581feingang\u0101ue": 6065,
  "\u2581greed": 6066,
  "\u2581hesitate": 6067,
  "\u2581intelligent": 6068,
  "\u2581lauingeau": 6069,
  "\u2581mano": 6070,
  "\u2581natul\u00e1": 6071,
  "\u2581produces": 6072,
  "\u2581programs": 6073,
  "\u2581prompt": 6074,
  "\u2581rebellious": 6075,
  "\u2581scientists": 6076,
  "\u2581shield": 6077,
  "\u2581thrilled": 6078,
  "\u2581trade": 6079,
  "\u2581vali": 6080,
  "\u2581valid": 6081,
  "longside": 6082,
  "\u25811946": 6083,
  "\u2581ARTICLES": 6084,
  "\u2581Consequently": 6085,
  "\u2581Serving": 6086,
  "\u2581Tataki": 6087,
  "\u2581Uluaki": 6088,
  "\u2581ban": 6089,
  "\u2581continually": 6090,
  "\u2581disposition": 6091,
  "\u2581fakaefakat\u0101ta\u00e1": 6092,
  "\u2581farm": 6093,
  "\u2581hak\u00f3": 6094,
  "\u2581increasingly": 6095,
  "\u2581longoa": 6096,
  "\u2581movete": 6097,
  "\u2581murder": 6098,
  "\u2581opinions": 6099,
  "\u2581preachers": 6100,
  "\u2581rage": 6101,
  "\u2581receives": 6102,
  "\u2581supplies": 6103,
  "\u2581teeth": 6104,
  "\u2581\u012bmis\u00ed": 6105,
  "NW": 6106,
  "ian": 6107,
  "ment": 6108,
  "\u25811944": 6109,
  "\u2581AND": 6110,
  "\u2581Caesar": 6111,
  "\u2581Elders": 6112,
  "\u2581Ng": 6113,
  "\u2581Purpose": 6114,
  "\u2581Ruler": 6115,
  "\u2581Siapan\u00ed": 6116,
  "\u2581TU": 6117,
  "\u2581adopted": 6118,
  "\u2581compromise": 6119,
  "\u2581disappointment": 6120,
  "\u2581fakalele": 6121,
  "\u2581fathers": 6122,
  "\u2581haughty": 6123,
  "\u2581incident": 6124,
  "\u2581keina": 6125,
  "\u2581koul\u00e1": 6126,
  "\u2581l\u0113lue": 6127,
  "\u2581obvious": 6128,
  "\u2581reflects": 6129,
  "\u2581ruled": 6130,
  "\u2581schools": 6131,
  "\u2581sisitem": 6132,
  "\u2581taupotu": 6133,
  "\u2581tempered": 6134,
  "\u2581t\u0101\u00fa": 6135,
  "1": 6136,
  "co": 6137,
  "im": 6138,
  "\u25811942": 6139,
  "\u25811952": 6140,
  "\u2581Andrew": 6141,
  "\u2581Fakatahatah\u00e1": 6142,
  "\u2581Knowing": 6143,
  "\u2581Rd": 6144,
  "\u2581T\u0101puaki": 6145,
  "\u2581admitted": 6146,
  "\u2581announced": 6147,
  "\u2581asemipili\u00ed": 6148,
  "\u2581attractive": 6149,
  "\u2581eternity": 6150,
  "\u2581expand": 6151,
  "\u2581favorably": 6152,
  "\u2581fiha": 6153,
  "\u2581fled": 6154,
  "\u2581fuakav\u00e1": 6155,
  "\u2581incense": 6156,
  "\u2581independence": 6157,
  "\u2581judged": 6158,
  "\u2581limits": 6159,
  "\u2581lower": 6160,
  "\u2581neutrality": 6161,
  "\u2581proclaim": 6162,
  "\u2581rate": 6163,
  "\u2581refrain": 6164,
  "\u2581reserved": 6165,
  "\u2581striving": 6166,
  "\u2581survived": 6167,
  "\u2581s\u014dsaiet\u00ed": 6168,
  "em\u0101": 6169,
  "\u2581110": 6170,
  "\u25811958": 6171,
  "\u2581Kupu": 6172,
  "\u2581Learning": 6173,
  "\u2581San": 6174,
  "\u2581Siosiu\u00e1": 6175,
  "\u2581Story": 6176,
  "\u2581Truly": 6177,
  "\u2581cooperate": 6178,
  "\u2581favorable": 6179,
  "\u2581feifeitamaki": 6180,
  "\u2581gambling": 6181,
  "\u2581graduates": 6182,
  "\u2581informed": 6183,
  "\u2581kaung\u0101ng\u0101u\u00e9": 6184,
  "\u2581manavahe\u00e9": 6185,
  "\u2581oppression": 6186,
  "\u2581permission": 6187,
  "\u2581p\u014dlepol\u00e9": 6188,
  "\u2581seeming": 6189,
  "\u2581smoke": 6190,
  "\u2581tragedy": 6191,
  "\u2581whenever": 6192,
  "emapule": 6193,
  "hu": 6194,
  "\u2581Ak\u00f3": 6195,
  "\u2581Henry": 6196,
  "\u2581Herod": 6197,
  "\u2581Luk\u00e9": 6198,
  "\u2581Ngata": 6199,
  "\u2581Phil": 6200,
  "\u2581Thomas": 6201,
  "\u2581camps": 6202,
  "\u2581catch": 6203,
  "\u2581cherish": 6204,
  "\u2581conform": 6205,
  "\u2581deceived": 6206,
  "\u2581discover": 6207,
  "\u2581exercised": 6208,
  "\u2581extraordinary": 6209,
  "\u2581fekai": 6210,
  "\u2581headship": 6211,
  "\u2581hungry": 6212,
  "\u2581manupun\u00e1": 6213,
  "\u2581m\u0101fimafi": 6214,
  "\u2581priesthood": 6215,
  "\u2581prospects": 6216,
  "\u2581publisher": 6217,
  "\u2581range": 6218,
  "\u2581restoration": 6219,
  "\u2581selected": 6220,
  "\u2581sentence": 6221,
  "\u2581trustworthy": 6222,
  "atama\u00ed": 6223,
  "efakalao": 6224,
  "fua": 6225,
  "hili": 6226,
  "\u25811994": 6227,
  "\u258138,": 6228,
  "\u2581Col": 6229,
  "\u2581Hokohoko": 6230,
  "\u2581P\u014dlani": 6231,
  "\u2581Sanhedrin": 6232,
  "\u2581TA": 6233,
  "\u2581Tak": 6234,
  "\u2581afternoon": 6235,
  "\u2581agahala": 6236,
  "\u2581ages": 6237,
  "\u2581bones": 6238,
  "\u2581correction": 6239,
  "\u2581distributed": 6240,
  "\u2581duties": 6241,
  "\u2581east": 6242,
  "\u2581flow": 6243,
  "\u2581funds": 6244,
  "\u2581hell": 6245,
  "\u2581jobs": 6246,
  "\u2581linked": 6247,
  "\u2581m\u0101numanu": 6248,
  "\u2581openly": 6249,
  "\u2581outset": 6250,
  "\u2581patients": 6251,
  "\u2581presentation": 6252,
  "\u2581press": 6253,
  "\u2581prophesied": 6254,
  "\u2581reduce": 6255,
  "\u2581respected": 6256,
  "\u2581solve": 6257,
  "\u2581uh\u00e1": 6258,
  "\u2581ut\u00f3": 6259,
  "mamahi": 6260,
  "\u2581Jude": 6261,
  "\u2581Samson": 6262,
  "\u2581Theocratic": 6263,
  "\u2581afflicted": 6264,
  "\u2581await": 6265,
  "\u2581commitment": 6266,
  "\u2581cried": 6267,
  "\u2581emphasized": 6268,
  "\u2581famine": 6269,
  "\u2581fetuku": 6270,
  "\u2581happily": 6271,
  "\u2581imitating": 6272,
  "\u2581statements": 6273,
  "\u2581thoroughly": 6274,
  "\u2581tongues": 6275,
  "\u2581twice": 6276,
  "\u2581vain": 6277,
  "\u2581wood": 6278,
  "h\u016bh\u016b": 6279,
  "\u2581Court": 6280,
  "\u2581Kinautolu": 6281,
  "\u2581Meanwhile": 6282,
  "\u2581Mr": 6283,
  "\u2581Need": 6284,
  "\u2581N\u0101omi": 6285,
  "\u2581Russian": 6286,
  "\u2581afungi": 6287,
  "\u2581arrive": 6288,
  "\u2581bought": 6289,
  "\u2581changing": 6290,
  "\u2581continuing": 6291,
  "\u2581discouragement": 6292,
  "\u2581endless": 6293,
  "\u2581exile": 6294,
  "\u2581fakaf\u0101": 6295,
  "\u2581hide": 6296,
  "\u2581hol\u00f3": 6297,
  "\u2581langilangi": 6298,
  "\u2581lines": 6299,
  "\u2581matang\u00ed": 6300,
  "\u2581mentions": 6301,
  "\u2581momok\u00f3": 6302,
  "\u2581movement": 6303,
  "\u2581neutral": 6304,
  "\u2581overwhelmed": 6305,
  "\u2581projects": 6306,
  "\u2581select": 6307,
  "\u2581strike": 6308,
  "\u2581thrilling": 6309,
  "\u2581virtue": 6310,
  "anekina": 6311,
  "fe": 6312,
  "hako": 6313,
  "ious": 6314,
  "lea": 6315,
  "ul": 6316,
  "\u25811956": 6317,
  "\u258146.": 6318,
  "\u258157": 6319,
  "\u2581Again": 6320,
  "\u2581Ancient": 6321,
  "\u2581Feitu": 6322,
  "\u2581Insight": 6323,
  "\u2581Little": 6324,
  "\u2581Mape": 6325,
  "\u2581Republic": 6326,
  "\u2581Taitusi": 6327,
  "\u2581al\u0101": 6328,
  "\u2581bright": 6329,
  "\u2581commercial": 6330,
  "\u2581deserve": 6331,
  "\u2581fakatauel\u00e9": 6332,
  "\u2581handling": 6333,
  "\u2581host": 6334,
  "\u2581husepaniti": 6335,
  "\u2581native": 6336,
  "\u2581ongoongoa": 6337,
  "\u2581pleasures": 6338,
  "\u2581resurrect": 6339,
  "\u2581shame": 6340,
  "\u2581stumbling": 6341,
  "\u2581weeds": 6342,
  "\u2581\u0112peli": 6343,
  "EMA": 6344,
  "mei": 6345,
  "\u2581Encyclop\u00e6dia": 6346,
  "\u2581Fine": 6347,
  "\u2581Gal": 6348,
  "\u2581aleapau": 6349,
  "\u2581branches": 6350,
  "\u2581climate": 6351,
  "\u2581conflicts": 6352,
  "\u2581distinguish": 6353,
  "\u2581efu": 6354,
  "\u2581fakamisinale": 6355,
  "\u2581highlighted": 6356,
  "\u2581illustrated": 6357,
  "\u2581kimautol\u00fa": 6358,
  "\u2581mahamahaki": 6359,
  "\u2581mamat\u00e1": 6360,
  "\u2581namely": 6361,
  "\u2581oppose": 6362,
  "\u2581originally": 6363,
  "\u2581positions": 6364,
  "\u2581talafekau": 6365,
  "\u2581title": 6366,
  "\u2581tuleki": 6367,
  "\u2581ut\u00e1": 6368,
  "\u2581widespread": 6369,
  "ekon\u014dmik\u00e1": 6370,
  "son": 6371,
  "\u25812014": 6372,
  "\u2581Elohimi": 6373,
  "\u2581Hitler": 6374,
  "\u2581Kaka\u00ed": 6375,
  "\u2581Last": 6376,
  "\u2581Meal": 6377,
  "\u2581Of\u00e1": 6378,
  "\u2581Paulo": 6379,
  "\u2581Samaria": 6380,
  "\u2581Teu": 6381,
  "\u2581billions": 6382,
  "\u2581classmates": 6383,
  "\u2581comforted": 6384,
  "\u2581considerable": 6385,
  "\u2581director": 6386,
  "\u2581empire": 6387,
  "\u2581enhance": 6388,
  "\u2581explaining": 6389,
  "\u2581fakahingoa": 6390,
  "\u2581fakaongosia": 6391,
  "\u2581fakatoka": 6392,
  "\u2581fano": 6393,
  "\u2581injury": 6394,
  "\u2581leadership": 6395,
  "\u2581lova": 6396,
  "\u2581measures": 6397,
  "\u2581objects": 6398,
  "\u2581resort": 6399,
  "\u2581sides": 6400,
  "\u2581sole": 6401,
  "\u2581sources": 6402,
  "\u2581strongly": 6403,
  "\u2581\u0100maketone": 6404,
  "itangat\u00e1": 6405,
  "ng": 6406,
  "ph": 6407,
  "tamaio": 6408,
  "ufataha": 6409,
  "uhu": 6410,
  "ukupu": 6411,
  "um\u0101li\u00e9": 6412,
  "\u25811931": 6413,
  "\u25811993": 6414,
  "\u2581Britannica": 6415,
  "\u2581Psalms": 6416,
  "\u2581associating": 6417,
  "\u2581assume": 6418,
  "\u2581entirely": 6419,
  "\u2581faialea": 6420,
  "\u2581fakaefakamaau": 6421,
  "\u2581fakahee": 6422,
  "\u2581feast": 6423,
  "\u2581grows": 6424,
  "\u2581heleta": 6425,
  "\u2581hokonoa": 6426,
  "\u2581judicial": 6427,
  "\u2581m\u0101nava": 6428,
  "\u2581productive": 6429,
  "\u2581readers": 6430,
  "\u2581staff": 6431,
  "\u2581thorough": 6432,
  "\u2581tongi": 6433,
  "\u2581unwise": 6434,
  "\u2581vilitaki": 6435,
  "ah": 6436,
  "\u25811938": 6437,
  "\u25811957": 6438,
  "\u2581An\u00e1": 6439,
  "\u2581Courtesy": 6440,
  "\u2581ENGL": 6441,
  "\u2581Egyptians": 6442,
  "\u2581Judge": 6443,
  "\u2581TALI": 6444,
  "\u2581apostate": 6445,
  "\u2581comparison": 6446,
  "\u2581crushed": 6447,
  "\u2581difficulty": 6448,
  "\u2581falemahaki": 6449,
  "\u2581fatu": 6450,
  "\u2581hangehang\u0113": 6451,
  "\u2581ignored": 6452,
  "\u2581kos\u00ed": 6453,
  "\u2581k\u0101fakafa": 6454,
  "\u2581k\u012bvoi": 6455,
  "\u2581manuscripts": 6456,
  "\u2581ngingila": 6457,
  "\u2581of\u00ed": 6458,
  "\u2581on\u00f3": 6459,
  "\u2581perfectly": 6460,
  "\u2581periods": 6461,
  "\u2581professor": 6462,
  "\u2581saienisi": 6463,
  "\u2581settle": 6464,
  "\u2581si\u00f3": 6465,
  "\u2581specifically": 6466,
  "\u2581status": 6467,
  "\u2581talked": 6468,
  "J": 6469,
  "gainst": 6470,
  "itei": 6471,
  "new": 6472,
  "rs": 6473,
  "\u258135,": 6474,
  "\u2581Amanaki": 6475,
  "\u2581Become": 6476,
  "\u2581Boaz": 6477,
  "\u2581Evening": 6478,
  "\u2581Hapakuke": 6479,
  "\u2581Jew": 6480,
  "\u2581Manasseh": 6481,
  "\u2581Paris": 6482,
  "\u2581Sam\u0113li\u00e1": 6483,
  "\u2581T\u014d": 6484,
  "\u2581Wise": 6485,
  "\u2581awe": 6486,
  "\u2581commissioned": 6487,
  "\u2581deceptive": 6488,
  "\u2581exemplary": 6489,
  "\u2581fakan\u0101na\u00e1": 6490,
  "\u2581homeland": 6491,
  "\u2581judgments": 6492,
  "\u2581kaila": 6493,
  "\u2581lifetime": 6494,
  "\u2581overwhelming": 6495,
  "\u2581polisi": 6496,
  "\u2581presents": 6497,
  "\u2581product": 6498,
  "\u2581spreading": 6499,
  "\u2581struggling": 6500,
  "\u2581tapa": 6501,
  "\u2581traditional": 6502,
  "9": 6503,
  "proving": 6504,
  "there": 6505,
  "\u2581103": 6506,
  "\u25811935": 6507,
  "\u2581Gentiles": 6508,
  "\u2581Huafa": 6509,
  "\u2581Joy": 6510,
  "\u2581Likely": 6511,
  "\u2581Seed": 6512,
  "\u2581Siosaia": 6513,
  "\u2581Soviet": 6514,
  "\u2581Tevita": 6515,
  "\u2581UN": 6516,
  "\u2581Web": 6517,
  "\u2581associations": 6518,
  "\u2581attracted": 6519,
  "\u2581board": 6520,
  "\u2581bore": 6521,
  "\u2581centered": 6522,
  "\u2581contentment": 6523,
  "\u2581contribution": 6524,
  "\u2581cultures": 6525,
  "\u2581era": 6526,
  "\u2581expose": 6527,
  "\u2581forgiven": 6528,
  "\u2581honesty": 6529,
  "\u2581philosophy": 6530,
  "\u2581pity": 6531,
  "\u2581requirement": 6532,
  "\u2581timely": 6533,
  "\u2581ton\u00f3": 6534,
  "\u2581trap": 6535,
  "\u2581winter": 6536,
  "Kau": 6537,
  "ofua": 6538,
  "os": 6539,
  "tupulekina": 6540,
  "un\u00ed": 6541,
  "vd": 6542,
  "\u25811922": 6543,
  "\u2581Alexander": 6544,
  "\u2581Drama": 6545,
  "\u2581Kiliati": 6546,
  "\u2581Korah": 6547,
  "\u2581Light": 6548,
  "\u2581Mom": 6549,
  "\u2581Shepherd": 6550,
  "\u2581Simon": 6551,
  "\u2581Ten": 6552,
  "\u2581T\u012bm": 6553,
  "\u2581appointment": 6554,
  "\u2581composed": 6555,
  "\u2581contributions": 6556,
  "\u2581fakahounga": 6557,
  "\u2581fed": 6558,
  "\u2581fiery": 6559,
  "\u2581f\u0101m\u00e1": 6560,
  "\u2581gladly": 6561,
  "\u2581imperfections": 6562,
  "\u2581jealousy": 6563,
  "\u2581laukau": 6564,
  "\u2581lift": 6565,
  "\u2581luo": 6566,
  "\u2581neglect": 6567,
  "\u2581ogoogolelei": 6568,
  "\u2581pol\u00e9": 6569,
  "\u2581prior": 6570,
  "\u2581push": 6571,
  "\u2581sanctified": 6572,
  "\u2581science": 6573,
  "\u2581sipot\u00ed": 6574,
  "\u2581surrounding": 6575,
  "\u2581tal\u0113kita": 6576,
  "\u2581tobacco": 6577,
  "\u2581toloi": 6578,
  "\u2581unbelievers": 6579,
  "\u2581vaitaf\u00e9": 6580,
  "&": 6581,
  "estimated": 6582,
  "kakai": 6583,
  "\u25811951": 6584,
  "\u2581De": 6585,
  "\u2581Highlight": 6586,
  "\u2581IT": 6587,
  "\u2581Park": 6588,
  "\u2581Samaritan": 6589,
  "\u2581Tokonaki": 6590,
  "\u2581clay": 6591,
  "\u2581commended": 6592,
  "\u2581fakamalo": 6593,
  "\u2581felotoi": 6594,
  "\u2581foremost": 6595,
  "\u2581forest": 6596,
  "\u2581hel\u00ed": 6597,
  "\u2581h\u014difu\u00e1": 6598,
  "\u2581permit": 6599,
  "\u2581politics": 6600,
  "\u2581promoted": 6601,
  "\u2581radio": 6602,
  "\u2581seeds": 6603,
  "\u2581sipoti": 6604,
  "\u2581supposed": 6605,
  "\u2581talents": 6606,
  "\u2581tal\u00e1": 6607,
  "\u2581tiny": 6608,
  "\u2581uik\u00e9": 6609,
  "\u2581warn": 6610,
  "doubtedly": 6611,
  "ete": 6612,
  "tautefito": 6613,
  "tokanga": 6614,
  "\u25811996": 6615,
  "\u258129;": 6616,
  "\u2581Everyone": 6617,
  "\u2581Fiefi\u00e1": 6618,
  "\u2581Fuakava": 6619,
  "\u2581Jas": 6620,
  "\u2581Minor": 6621,
  "\u2581Polish": 6622,
  "\u2581Teacher": 6623,
  "\u2581amanekin\u00e1": 6624,
  "\u2581armor": 6625,
  "\u2581base": 6626,
  "\u2581characters": 6627,
  "\u2581cloud": 6628,
  "\u2581delay": 6629,
  "\u2581detailed": 6630,
  "\u2581examining": 6631,
  "\u2581facilities": 6632,
  "\u2581fakakata": 6633,
  "\u2581fakavalevale": 6634,
  "\u2581gross": 6635,
  "\u2581hit": 6636,
  "\u2581inclination": 6637,
  "\u2581inspiration": 6638,
  "\u2581kaati": 6639,
  "\u2581lou": 6640,
  "\u2581l\u012bp\u014dt\u00ed": 6641,
  "\u2581marriages": 6642,
  "\u2581minor": 6643,
  "\u2581ordinary": 6644,
  "\u2581owner": 6645,
  "\u2581pal\u014dfesa": 6646,
  "\u2581perspective": 6647,
  "\u2581psalm": 6648,
  "\u2581realistic": 6649,
  "\u2581repair": 6650,
  "\u2581rid": 6651,
  "\u2581standpoint": 6652,
  "\u2581s\u0113ket\u00ed": 6653,
  "\u2581territories": 6654,
  "\u2581urgent": 6655,
  "\u2581vaka\u00ed": 6656,
  "\u2581yield": 6657,
  "Tu": 6658,
  "de": 6659,
  "ions": 6660,
  "\u25811991": 6661,
  "\u2581Fakalaum\u0101li\u00e9": 6662,
  "\u2581Filisiti\u00e1": 6663,
  "\u2581HAVE": 6664,
  "\u2581Imitate": 6665,
  "\u2581Jehu": 6666,
  "\u2581Lepupilik": 6667,
  "\u2581Luther": 6668,
  "\u2581Martin": 6669,
  "\u2581Philistines": 6670,
  "\u2581Thereafter": 6671,
  "\u2581afford": 6672,
  "\u2581backgrounds": 6673,
  "\u2581belonging": 6674,
  "\u2581captivity": 6675,
  "\u2581confirm": 6676,
  "\u2581demand": 6677,
  "\u2581fakaakeake": 6678,
  "\u2581falling": 6679,
  "\u2581figure": 6680,
  "\u2581fon\u00f3": 6681,
  "\u2581kaka": 6682,
  "\u2581muna": 6683,
  "\u2581needy": 6684,
  "\u2581ongoing": 6685,
  "\u2581palan\u00ed": 6686,
  "\u2581pal\u00e9": 6687,
  "\u2581paths": 6688,
  "\u2581plenty": 6689,
  "\u2581prefer": 6690,
  "\u2581ridicule": 6691,
  "\u2581romantic": 6692,
  "\u2581somewhat": 6693,
  "\u2581south": 6694,
  "\u2581stating": 6695,
  "\u2581ulutukua": 6696,
  "\u2581unfaithful": 6697,
  "\u2581vary": 6698,
  "\u2581wholeheartedly": 6699,
  "4": 6700,
  "atokoni": 6701,
  "itoka": 6702,
  "\u00e3o": 6703,
  "\u2581145": 6704,
  "\u2581Absalom": 6705,
  "\u2581Association": 6706,
  "\u2581Hahak\u00e9": 6707,
  "\u2581Koloa": 6708,
  "\u2581Professor": 6709,
  "\u2581Senitail\u00e9": 6710,
  "\u2581aga": 6711,
  "\u2581angavaivai": 6712,
  "\u2581author": 6713,
  "\u2581buildings": 6714,
  "\u2581characterize": 6715,
  "\u2581fanongoa": 6716,
  "\u2581honesthearted": 6717,
  "\u2581k": 6718,
  "\u2581keen": 6719,
  "\u2581kingship": 6720,
  "\u2581loud": 6721,
  "\u2581mal\u00fa": 6722,
  "\u2581manatua": 6723,
  "\u2581meat": 6724,
  "\u2581medicine": 6725,
  "\u2581offices": 6726,
  "\u2581products": 6727,
  "\u2581saving": 6728,
  "\u2581sharp": 6729,
  "\u2581soldier": 6730,
  "\u2581surprising": 6731,
  "\u2581worthwhile": 6732,
  "\u2581\u012aSI": 6733,
  "W": 6734,
  "ts": 6735,
  "\u25811949": 6736,
  "\u258164": 6737,
  "\u2581Certainly": 6738,
  "\u2581Giving": 6739,
  "\u2581Index": 6740,
  "\u2581Lloyd": 6741,
  "\u2581Ones": 6742,
  "\u2581Reign": 6743,
  "\u2581Stadium": 6744,
  "\u2581commend": 6745,
  "\u2581commented": 6746,
  "\u2581deepen": 6747,
  "\u2581demands": 6748,
  "\u2581eik\u00ed": 6749,
  "\u2581exact": 6750,
  "\u2581failelei": 6751,
  "\u2581fait\u0101puekina": 6752,
  "\u2581fakatatal": 6753,
  "\u2581fat": 6754,
  "\u2581feeding": 6755,
  "\u2581garments": 6756,
  "\u2581largest": 6757,
  "\u2581ngat\u00e1": 6758,
  "\u2581party": 6759,
  "\u2581p\u012bkitai": 6760,
  "\u2581replace": 6761,
  "\u2581upper": 6762,
  "\u2581upset": 6763,
  "\u2581waves": 6764,
  "7": 6765,
  "afa": 6766,
  "al\u014dfesa": 6767,
  "dicating": 6768,
  "ohem\u00e1": 6769,
  "they": 6770,
  "\u258110,000": 6771,
  "\u25811513": 6772,
  "\u258117.)": 6773,
  "\u258141.": 6774,
  "\u258191": 6775,
  "\u2581Aositel\u0113li\u00e1": 6776,
  "\u2581Arthur": 6777,
  "\u2581Daily": 6778,
  "\u2581Friend": 6779,
  "\u2581GOD": 6780,
  "\u2581Italian": 6781,
  "\u2581Maik\u00e1": 6782,
  "\u2581ON": 6783,
  "\u2581Ongoongo": 6784,
  "\u2581Orthodox": 6785,
  "\u2581Poland": 6786,
  "\u2581Reading": 6787,
  "\u2581Review": 6788,
  "\u2581af\u0101": 6789,
  "\u2581apostasy": 6790,
  "\u2581beat": 6791,
  "\u2581chaste": 6792,
  "\u2581conquered": 6793,
  "\u2581crown": 6794,
  "\u2581earn": 6795,
  "\u2581experts": 6796,
  "\u2581extensive": 6797,
  "\u2581fakalelu": 6798,
  "\u2581fakangeingeia": 6799,
  "\u2581forefathers": 6800,
  "\u2581h\u016bh\u016b": 6801,
  "\u2581ik\u00e1": 6802,
  "\u2581kalofanga": 6803,
  "\u2581lok\u00ed": 6804,
  "\u2581luma": 6805,
  "\u2581meals": 6806,
  "\u2581namu": 6807,
  "\u2581occasionally": 6808,
  "\u2581practicing": 6809,
  "\u2581pul\u00fa": 6810,
  "\u2581resident": 6811,
  "\u2581sing": 6812,
  "\u2581smile": 6813,
  "\u2581space": 6814,
  "\u2581tauke\u00ed": 6815,
  "\u2581tul\u00ed": 6816,
  "\u2581unscriptural": 6817,
  "\u2581vavanga": 6818,
  "efaitotonu": 6819,
  "efakangatangata": 6820,
  "fiefia": 6821,
  "was": 6822,
  "\u258122]": 6823,
  "\u258143.": 6824,
  "\u258163": 6825,
  "\u2581Answers": 6826,
  "\u2581As\u012bli\u00e1": 6827,
  "\u2581Divine": 6828,
  "\u2581Filipa\u00ed": 6829,
  "\u2581F\u0101mil\u00ed": 6830,
  "\u2581Goliath": 6831,
  "\u2581Holo": 6832,
  "\u2581K\u0101lel\u00ed": 6833,
  "\u2581Sanetalim\u00ed": 6834,
  "\u2581awaiting": 6835,
  "\u2581bears": 6836,
  "\u2581fakamuimu\u00ed": 6837,
  "\u2581fakanof\u00f3": 6838,
  "\u2581fakat\u014dli": 6839,
  "\u2581fulufulu": 6840,
  "\u2581gentle": 6841,
  "\u2581green": 6842,
  "\u2581hoping": 6843,
  "\u2581improper": 6844,
  "\u2581kaukau": 6845,
  "\u2581lean": 6846,
  "\u2581meantime": 6847,
  "\u2581otu\u00e1": 6848,
  "\u2581roof": 6849,
  "\u2581tract": 6850,
  "\u2581vine": 6851,
  "ave": 6852,
  "kuonga": 6853,
  "lem\u0113niti": 6854,
  "most": 6855,
  "now": 6856,
  "pa": 6857,
  "\u25811948": 6858,
  "\u2581Atonai": 6859,
  "\u2581Fel\u00f3": 6860,
  "\u2581Loving": 6861,
  "\u2581Panepasa": 6862,
  "\u2581Pau": 6863,
  "\u2581Sias\u00ed": 6864,
  "\u2581adolescent": 6865,
  "\u2581advanced": 6866,
  "\u2581character": 6867,
  "\u2581confirmed": 6868,
  "\u2581design": 6869,
  "\u2581faikovi": 6870,
  "\u2581feka\u00ed": 6871,
  "\u2581flight": 6872,
  "\u2581fuesia": 6873,
  "\u2581glorified": 6874,
  "\u2581heartwarming": 6875,
  "\u2581illustrates": 6876,
  "\u2581loose": 6877,
  "\u2581manako\u00e1": 6878,
  "\u2581phrase": 6879,
  "\u2581separated": 6880,
  "\u2581stretch": 6881,
  "\u2581succeeded": 6882,
  "\u2581th": 6883,
  "\u2581thereby": 6884,
  "\u2581transferred": 6885,
  "am": 6886,
  "osinga": 6887,
  "po": 6888,
  "\u2581100,000": 6889,
  "\u258159": 6890,
  "\u2581Had": 6891,
  "\u2581Langa": 6892,
  "\u2581Nebuchadnezzar": 6893,
  "\u2581Office": 6894,
  "\u2581Prophecy": 6895,
  "\u2581P\u0113si\u00e1": 6896,
  "\u2581Report": 6897,
  "\u2581Siute\u00e1": 6898,
  "\u2581Tesalonaik\u00e1": 6899,
  "\u2581attribute": 6900,
  "\u2581banned": 6901,
  "\u2581commonly": 6902,
  "\u2581consult": 6903,
  "\u2581developments": 6904,
  "\u2581enjoyable": 6905,
  "\u2581fakalakalak\u00e1": 6906,
  "\u2581fakalakanga": 6907,
  "\u2581fakap\u014d": 6908,
  "\u2581fakavahe": 6909,
  "\u2581feared": 6910,
  "\u2581guests": 6911,
  "\u2581heritage": 6912,
  "\u2581idols": 6913,
  "\u2581initially": 6914,
  "\u2581melie": 6915,
  "\u2581ongongofua": 6916,
  "\u2581pisinis\u00ed": 6917,
  "\u2581pull": 6918,
  "\u2581recognition": 6919,
  "\u2581richly": 6920,
  "\u2581shadow": 6921,
  "\u2581tremendous": 6922,
  "\u2581version": 6923,
  "U\u00cd": 6924,
  "tauhi": 6925,
  "\u2581130": 6926,
  "\u25811955": 6927,
  "\u258186": 6928,
  "\u2581End": 6929,
  "\u2581FROM": 6930,
  "\u2581Interesting": 6931,
  "\u2581Jisu": 6932,
  "\u2581Map": 6933,
  "\u2581Nineveh": 6934,
  "\u2581Nothing": 6935,
  "\u2581S\u0101kalaia": 6936,
  "\u2581accurately": 6937,
  "\u2581adding": 6938,
  "\u2581arrest": 6939,
  "\u2581blesses": 6940,
  "\u2581dedicate": 6941,
  "\u2581delegates": 6942,
  "\u2581disposed": 6943,
  "\u2581duty": 6944,
  "\u2581emphasis": 6945,
  "\u2581fakahaof\u00ed": 6946,
  "\u2581fakamanat\u00fa": 6947,
  "\u2581favorite": 6948,
  "\u2581film": 6949,
  "\u2581fil\u014dsofia": 6950,
  "\u2581flood": 6951,
  "\u2581founded": 6952,
  "\u2581fuape": 6953,
  "\u2581hopes": 6954,
  "\u2581journal": 6955,
  "\u2581larger": 6956,
  "\u2581manat\u00fa": 6957,
  "\u2581osiki": 6958,
  "\u2581passages": 6959,
  "\u2581permitted": 6960,
  "\u2581post": 6961,
  "\u2581prime": 6962,
  "\u2581proclaimed": 6963,
  "\u2581protective": 6964,
  "\u2581recommended": 6965,
  "\u2581references": 6966,
  "\u2581researchers": 6967,
  "\u2581shut": 6968,
  "\u2581synagogue": 6969,
  "\u2581taulanga": 6970,
  "\u2581technology": 6971,
  "\u2581teenage": 6972,
  "\u2581toitoi": 6973,
  "\u2581traditions": 6974,
  "Now": 6975,
  "ance": 6976,
  "nofo": 6977,
  "oaloto": 6978,
  "\u258197": 6979,
  "\u2581Creation": 6980,
  "\u2581FOUNGA": 6981,
  "\u2581Fakat\u0101ta": 6982,
  "\u2581Hevani": 6983,
  "\u2581Hoku": 6984,
  "\u2581Isikel\u00ed": 6985,
  "\u2581Patterson": 6986,
  "\u2581Real": 6987,
  "\u2581Y": 6988,
  "\u2581adversity": 6989,
  "\u2581aim": 6990,
  "\u2581constitute": 6991,
  "\u2581cultural": 6992,
  "\u2581delightful": 6993,
  "\u2581devote": 6994,
  "\u2581diligently": 6995,
  "\u2581doors": 6996,
  "\u2581execute": 6997,
  "\u2581fakakakano": 6998,
  "\u2581fek\u012bhiaki": 6999,
  "\u2581gracious": 7000,
  "\u2581holoholo": 7001,
  "\u2581hurtful": 7002,
  "\u2581hypocrisy": 7003,
  "\u2581immortal": 7004,
  "\u2581judging": 7005,
  "\u2581kinds": 7006,
  "\u2581k\u0101toang\u00e1": 7007,
  "\u2581latter": 7008,
  "\u2581materials": 7009,
  "\u2581memories": 7010,
  "\u2581observance": 7011,
  "\u2581occurs": 7012,
  "\u2581partake": 7013,
  "\u2581piece": 7014,
  "\u2581representatives": 7015,
  "\u2581sensitive": 7016,
  "\u2581shepherding": 7017,
  "\u2581silence": 7018,
  "\u2581stands": 7019,
  "\u2581starting": 7020,
  "\u2581tupenu": 7021,
  "\u2581t\u0113niti": 7022,
  "\u2581welcomed": 7023,
  "Come": 7024,
  "ctively": 7025,
  "ern": 7026,
  "ia\u0101": 7027,
  "itofe": 7028,
  "ized": 7029,
  "my": 7030,
  "se": 7031,
  "\u2581Asemipil\u012b": 7032,
  "\u2581Bas": 7033,
  "\u2581DO": 7034,
  "\u2581Department": 7035,
  "\u2581Hiva": 7036,
  "\u2581Nomipa": 7037,
  "\u2581Sandra": 7038,
  "\u2581Siutea": 7039,
  "\u2581TOKONI": 7040,
  "\u2581badly": 7041,
  "\u2581bank": 7042,
  "\u2581ease": 7043,
  "\u2581exclusive": 7044,
  "\u2581fakafatongia": 7045,
  "\u2581feke": 7046,
  "\u2581fought": 7047,
  "\u2581gatherings": 7048,
  "\u2581hinder": 7049,
  "\u2581intentions": 7050,
  "\u2581magnificent": 7051,
  "\u2581outright": 7052,
  "\u2581pasi": 7053,
  "\u2581petitions": 7054,
  "\u2581plain": 7055,
  "\u2581president": 7056,
  "\u2581rebel": 7057,
  "\u2581rebels": 7058,
  "\u2581steal": 7059,
  "\u2581tafi": 7060,
  "\u2581taonakit\u00e1": 7061,
  "\u2581understands": 7062,
  "OK\u00da": 7063,
  "Spanish": 7064,
  "TAHA": 7065,
  "angata\u00e9": 7066,
  "el\u00e9": 7067,
  "on\u00e9": 7068,
  "\u25811992": 7069,
  "\u25813.)": 7070,
  "\u2581Barr": 7071,
  "\u2581F\u0112F\u0112": 7072,
  "\u2581Jean": 7073,
  "\u2581Kimoutolu": 7074,
  "\u2581Milton": 7075,
  "\u2581Ocean": 7076,
  "\u2581cleaning": 7077,
  "\u2581evangelizers": 7078,
  "\u2581fault": 7079,
  "\u2581fefek\u00e1": 7080,
  "\u2581forgotten": 7081,
  "\u2581kava": 7082,
  "\u2581mold": 7083,
  "\u2581m\u0101lualoi": 7084,
  "\u2581offended": 7085,
  "\u2581oldest": 7086,
  "\u2581outcry": 7087,
  "\u2581oversight": 7088,
  "\u2581proclaiming": 7089,
  "\u2581ride": 7090,
  "\u2581roads": 7091,
  "\u2581sinner": 7092,
  "\u2581souled": 7093,
  "\u2581strange": 7094,
  "\u2581teens": 7095,
  "\u2581tool": 7096,
  "\u2581tragic": 7097,
  "\u2581\u012atal\u00ed": 7098,
  "fakalototo": 7099,
  "holo": 7100,
  "\u25811961": 7101,
  "\u258158": 7102,
  "\u2581Brothers": 7103,
  "\u2581Cyprus": 7104,
  "\u2581Dan": 7105,
  "\u2581Far": 7106,
  "\u2581Jehoshaphat": 7107,
  "\u2581Korea": 7108,
  "\u2581Listen": 7109,
  "\u2581Neither": 7110,
  "\u2581Papitaiso": 7111,
  "\u2581Secret": 7112,
  "\u2581S\u0113fita": 7113,
  "\u2581WHO": 7114,
  "\u2581Western": 7115,
  "\u2581Worldwide": 7116,
  "\u2581apostates": 7117,
  "\u2581destination": 7118,
  "\u2581destructive": 7119,
  "\u2581diabetes": 7120,
  "\u2581distressing": 7121,
  "\u2581driver": 7122,
  "\u2581fakakakan\u00f3": 7123,
  "\u2581fiekai\u00e1": 7124,
  "\u2581fishing": 7125,
  "\u2581follows": 7126,
  "\u2581helet\u0101": 7127,
  "\u2581hu\u00ed": 7128,
  "\u2581kata": 7129,
  "\u2581k\u0101lava": 7130,
  "\u2581lady": 7131,
  "\u2581onto": 7132,
  "\u2581pa\u00fa": 7133,
  "\u2581perceive": 7134,
  "\u2581pounds": 7135,
  "\u2581previous": 7136,
  "\u2581reminder": 7137,
  "\u2581target": 7138,
  "\u2581taute\u00e1": 7139,
  "\u2581t\u016bt\u016b": 7140,
  "\u2581uncleanness": 7141,
  "\u2581virtual": 7142,
  "AL": 7143,
  "pule": 7144,
  "tokotaha": 7145,
  "tuku": 7146,
  "\u2581142,": 7147,
  "\u258141,": 7148,
  "\u258171": 7149,
  "\u2581Benjamin": 7150,
  "\u2581Haggai": 7151,
  "\u2581Philippi": 7152,
  "\u2581Rule": 7153,
  "\u2581Sioatan\u00ed": 7154,
  "\u2581actual": 7155,
  "\u2581convince": 7156,
  "\u2581cooperation": 7157,
  "\u2581empathy": 7158,
  "\u2581feliliuaki": 7159,
  "\u2581fiem\u0101li\u00e9": 7160,
  "\u2581fulipe": 7161,
  "\u2581garment": 7162,
  "\u2581handled": 7163,
  "\u2581implies": 7164,
  "\u2581jealous": 7165,
  "\u2581kapa": 7166,
  "\u2581monomono": 7167,
  "\u2581pour": 7168,
  "\u2581prominence": 7169,
  "\u2581rapidly": 7170,
  "\u2581rare": 7171,
  "\u2581recommend": 7172,
  "\u2581roots": 7173,
  "\u2581sheba": 7174,
  "\u2581sites": 7175,
  "\u2581soul\u00fa": 7176,
  "\u2581staying": 7177,
  "\u2581streets": 7178,
  "\u2581sweet": 7179,
  "\u2581tautapa": 7180,
  "\u2581taxes": 7181,
  "\u2581traffic": 7182,
  "\u2581t\u0101kanga": 7183,
  "\u2581ukamea": 7184,
  "\u2581valley": 7185,
  "\u2581vaota\u00e1": 7186,
  "\u2581\u0112hapi": 7187,
  "537": 7188,
  "ally": 7189,
  "nima": 7190,
  "some": 7191,
  "tic": 7192,
  "\u2581600": 7193,
  "\u2581China": 7194,
  "\u2581Leads": 7195,
  "\u2581Lot\u00e9": 7196,
  "\u2581Nazareth": 7197,
  "\u2581P\u0113al\u00ed": 7198,
  "\u2581Seeing": 7199,
  "\u2581Strong": 7200,
  "\u2581S\u0113n": 7201,
  "\u2581TEFITO": 7202,
  "\u2581acquired": 7203,
  "\u2581amazed": 7204,
  "\u2581arrives": 7205,
  "\u2581code": 7206,
  "\u2581containing": 7207,
  "\u2581embrace": 7208,
  "\u2581entering": 7209,
  "\u2581equipment": 7210,
  "\u2581evolution": 7211,
  "\u2581fakalotolahi": 7212,
  "\u2581golden": 7213,
  "\u2581guarantee": 7214,
  "\u2581ideal": 7215,
  "\u2581impart": 7216,
  "\u2581instruct": 7217,
  "\u2581memorial": 7218,
  "\u2581mol\u00e9": 7219,
  "\u2581multitude": 7220,
  "\u2581m\u0101m\u0101ni": 7221,
  "\u2581n\u0101unau": 7222,
  "\u2581repay": 7223,
  "\u2581respectful": 7224,
  "\u2581seat": 7225,
  "\u2581snare": 7226,
  "\u2581supplication": 7227,
  "\u2581t\u014dnounou": 7228,
  "Our": 7229,
  "age": 7230,
  "efiem\u0101lie": 7231,
  "ist": 7232,
  "ten": 7233,
  "ulung\u0101ang\u00e1": 7234,
  "\u2581'!": 7235,
  "\u258145,": 7236,
  "\u258148.": 7237,
  "\u2581Care": 7238,
  "\u2581FA": 7239,
  "\u2581Fakae": 7240,
  "\u2581Japanese": 7241,
  "\u2581Lotolot\u00f3": 7242,
  "\u2581Organization": 7243,
  "\u2581Self": 7244,
  "\u2581TOKO": 7245,
  "\u2581bit": 7246,
  "\u2581conquer": 7247,
  "\u2581creative": 7248,
  "\u2581define": 7249,
  "\u2581deliberately": 7250,
  "\u2581devastating": 7251,
  "\u2581driving": 7252,
  "\u2581emblems": 7253,
  "\u2581enjoyment": 7254,
  "\u2581expensive": 7255,
  "\u2581f": 7256,
  "\u2581faingam\u0101li\u00e9": 7257,
  "\u2581fakahek": 7258,
  "\u2581fakaof\u00f3": 7259,
  "\u2581fakavavevav\u00e9": 7260,
  "\u2581feoh\u00ed": 7261,
  "\u2581foreigners": 7262,
  "\u2581haku": 7263,
  "\u2581indication": 7264,
  "\u2581lawlessness": 7265,
  "\u2581market": 7266,
  "\u2581pu": 7267,
  "\u2581representative": 7268,
  "\u2581salt": 7269,
  "\u2581sowing": 7270,
  "\u2581speed": 7271,
  "\u2581stressed": 7272,
  "\u2581symbolized": 7273,
  "\u2581tire": 7274,
  "\u2581tisaini": 7275,
  "\u2581tonuhia": 7276,
  "\u2581towns": 7277,
  "\u2581transformed": 7278,
  "\u2581unselfish": 7279,
  "\u2581vaot\u0101": 7280,
  "ahikehe": 7281,
  "mi": 7282,
  "nated": 7283,
  "ohema": 7284,
  "on\u00e1": 7285,
  "uak\u00ed": 7286,
  "ulo\u00e1": 7287,
  "\u2581Barak": 7288,
  "\u2581Cultivat": 7289,
  "\u2581Fakateokalat\u00ed": 7290,
  "\u2581Filipe": 7291,
  "\u2581Jim": 7292,
  "\u2581Jos\u00e9": 7293,
  "\u2581Kuonga": 7294,
  "\u2581Language": 7295,
  "\u2581Louis": 7296,
  "\u2581Lut\u00e9": 7297,
  "\u2581L\u012bvai": 7298,
  "\u2581Mankind": 7299,
  "\u2581Muimui": 7300,
  "\u2581Sel\u00e1": 7301,
  "\u2581Teaching": 7302,
  "\u2581Very": 7303,
  "\u2581abusive": 7304,
  "\u2581ashamed": 7305,
  "\u2581atimosifi": 7306,
  "\u2581attempts": 7307,
  "\u2581classes": 7308,
  "\u2581counseled": 7309,
  "\u2581deed": 7310,
  "\u2581deny": 7311,
  "\u2581deserves": 7312,
  "\u2581dishonor": 7313,
  "\u2581fakas\u0113ket\u00ed": 7314,
  "\u2581fakata\u00fa": 7315,
  "\u2581falls": 7316,
  "\u2581feh\u0101l\u0101k\u00ed": 7317,
  "\u2581fond": 7318,
  "\u2581funeral": 7319,
  "\u2581headed": 7320,
  "\u2581hears": 7321,
  "\u2581heirs": 7322,
  "\u2581identifie": 7323,
  "\u2581imitation": 7324,
  "\u2581ovasi\u00e1": 7325,
  "\u2581pair": 7326,
  "\u2581praised": 7327,
  "\u2581records": 7328,
  "\u2581rob": 7329,
  "\u2581scientific": 7330,
  "\u2581submission": 7331,
  "\u2581submitt": 7332,
  "\u2581systems": 7333,
  "\u2581tak\u00ed": 7334,
  "\u2581toetoeng": 7335,
  "\u2581unknown": 7336,
  "\u2581v\u0113s\u00ed": 7337,
  "\u2581\u014dlit\u00e1": 7338,
  "PA": 7339,
  "efilifilim\u0101nako": 7340,
  "id": 7341,
  "ilot\u00f3": 7342,
  "let": 7343,
  "specially": 7344,
  "\u25812]": 7345,
  "\u2581Apply": 7346,
  "\u2581Babylonians": 7347,
  "\u2581Ku": 7348,
  "\u2581Paluki": 7349,
  "\u2581Rose": 7350,
  "\u2581SIO": 7351,
  "\u2581Suppose": 7352,
  "\u2581border": 7353,
  "\u2581concept": 7354,
  "\u2581exclaimed": 7355,
  "\u2581fakafeitu": 7356,
  "\u2581fakamanavah\u0113": 7357,
  "\u2581happier": 7358,
  "\u2581height": 7359,
  "\u2581iloange": 7360,
  "\u2581improved": 7361,
  "\u2581locations": 7362,
  "\u2581metal": 7363,
  "\u2581motivation": 7364,
  "\u2581pep\u00e1": 7365,
  "\u2581proves": 7366,
  "\u2581p\u0101tel\u00e9": 7367,
  "\u2581scrolls": 7368,
  "\u2581session": 7369,
  "\u2581soap": 7370,
  "\u2581spared": 7371,
  "Efiafi": 7372,
  "emanavah\u0113": 7373,
  "ku": 7374,
  "lying": 7375,
  "\u258100": 7376,
  "\u25812015": 7377,
  "\u2581Accordingly": 7378,
  "\u2581Aisak\u00e9": 7379,
  "\u2581Aupito": 7380,
  "\u2581Child": 7381,
  "\u2581Continue": 7382,
  "\u2581Eastern": 7383,
  "\u2581En": 7384,
  "\u2581ISSUE": 7385,
  "\u2581Kia": 7386,
  "\u2581Mk": 7387,
  "\u2581Modern": 7388,
  "\u2581Money": 7389,
  "\u2581OTU\u00c1": 7390,
  "\u2581Volume": 7391,
  "\u2581Washington": 7392,
  "\u2581alea": 7393,
  "\u2581connected": 7394,
  "\u2581disastrous": 7395,
  "\u2581fakamahalo": 7396,
  "\u2581fifth": 7397,
  "\u2581fixed": 7398,
  "\u2581flowers": 7399,
  "\u2581formerly": 7400,
  "\u2581fortify": 7401,
  "\u2581honestly": 7402,
  "\u2581leka": 7403,
  "\u2581m\u0113mip\u00e1": 7404,
  "\u2581narrow": 7405,
  "\u2581nusipep\u00e1": 7406,
  "\u2581professional": 7407,
  "\u2581protects": 7408,
  "\u2581resentment": 7409,
  "\u2581respecting": 7410,
  "\u2581shape": 7411,
  "\u2581s\u0101uni": 7412,
  "\u2581tamaioeiki": 7413,
  "\u2581teute\u00fa": 7414,
  "\u2581totong\u00ed": 7415,
  "\u2581t\u0113pil\u00e9": 7416,
  "\u2581t\u014dmui": 7417,
  "\u2581vessel": 7418,
  "\u2581worst": 7419,
  "5": 7420,
  "em": 7421,
  "emo": 7422,
  "fehoanaki": 7423,
  "fekau": 7424,
  "hanganaki": 7425,
  "ike": 7426,
  "ite": 7427,
  "poto": 7428,
  "rew": 7429,
  "\u258121.)": 7430,
  "\u2581Branch": 7431,
  "\u2581Eki": 7432,
  "\u2581Ella": 7433,
  "\u2581FOKI": 7434,
  "\u2581Gabriel": 7435,
  "\u2581Humans": 7436,
  "\u2581Jersey": 7437,
  "\u2581KOL": 7438,
  "\u2581Kolos\u00e9": 7439,
  "\u2581Mal\u00ed": 7440,
  "\u2581Persian": 7441,
  "\u2581Regardless": 7442,
  "\u2581Sinai": 7443,
  "\u2581S\u012blia": 7444,
  "\u2581armed": 7445,
  "\u2581buried": 7446,
  "\u2581condemn": 7447,
  "\u2581counted": 7448,
  "\u2581cure": 7449,
  "\u2581despair": 7450,
  "\u2581desperate": 7451,
  "\u2581exhortation": 7452,
  "\u2581expresse": 7453,
  "\u2581fair": 7454,
  "\u2581festivals": 7455,
  "\u2581fulihi": 7456,
  "\u2581game": 7457,
  "\u2581hihifo": 7458,
  "\u2581kotofa": 7459,
  "\u2581naturally": 7460,
  "\u2581orders": 7461,
  "\u2581poupo\u00fa": 7462,
  "\u2581promoting": 7463,
  "\u2581reduced": 7464,
  "\u2581rising": 7465,
  "\u2581route": 7466,
  "\u2581schoolmates": 7467,
  "\u2581scribes": 7468,
  "\u2581spring": 7469,
  "\u2581tomorrow": 7470,
  "\u2581touching": 7471,
  "\u2581truthfulness": 7472,
  "\u2581tukup\u0101": 7473,
  "\u2581t\u0101keti": 7474,
  "\u2581unrepentant": 7475,
  "\u2581villages": 7476,
  "At": 7477,
  "Ha": 7478,
  "ad": 7479,
  "efait\u014dnunga": 7480,
  "fakataha": 7481,
  "ter": 7482,
  "who": 7483,
  "\u2581(2": 7484,
  "\u25812.)": 7485,
  "\u2581Antioch": 7486,
  "\u2581Bath": 7487,
  "\u2581Car": 7488,
  "\u2581Coliseum": 7489,
  "\u2581Fekuki": 7490,
  "\u2581Kindness": 7491,
  "\u2581Lepeka": 7492,
  "\u2581Nabal": 7493,
  "\u2581Pay": 7494,
  "\u2581Thessalonica": 7495,
  "\u2581Ur": 7496,
  "\u2581Women": 7497,
  "\u2581comply": 7498,
  "\u2581crisis": 7499,
  "\u2581curse": 7500,
  "\u2581fakamafai": 7501,
  "\u2581festival": 7502,
  "\u2581filling": 7503,
  "\u2581financially": 7504,
  "\u2581f\u016bfu": 7505,
  "\u2581kem\u00ed": 7506,
  "\u2581lagi": 7507,
  "\u2581m\u0101vae": 7508,
  "\u2581participation": 7509,
  "\u2581planned": 7510,
  "\u2581progressed": 7511,
  "\u2581requests": 7512,
  "\u2581sow": 7513,
  "\u2581suit": 7514,
  "\u2581tal\u0113niti": 7515,
  "\u2581tapu\u00ed": 7516,
  "\u2581teolosia": 7517,
  "\u2581uhila": 7518,
  "\u2581uhil\u00e1": 7519,
  "\u2581vessels": 7520,
  "\u2581wishes": 7521,
  "tangata": 7522,
  "ufonu\u00e1": 7523,
  "\u2581Actually": 7524,
  "\u2581Christlike": 7525,
  "\u2581Fakafiem\u0101lie": 7526,
  "\u2581Happily": 7527,
  "\u2581Kulokul\u00e1": 7528,
  "\u2581L\u016btelo": 7529,
  "\u2581Mole": 7530,
  "\u2581Serve": 7531,
  "\u2581Sisa": 7532,
  "\u2581Takimu": 7533,
  "\u2581absolutely": 7534,
  "\u2581apparent": 7535,
  "\u2581characteristics": 7536,
  "\u2581concludes": 7537,
  "\u2581declares": 7538,
  "\u2581drama": 7539,
  "\u2581forbidden": 7540,
  "\u2581governor": 7541,
  "\u2581hall": 7542,
  "\u2581hardship": 7543,
  "\u2581infant": 7544,
  "\u2581instill": 7545,
  "\u2581kanisa\u00e1": 7546,
  "\u2581lamp": 7547,
  "\u2581mapun": 7548,
  "\u2581normally": 7549,
  "\u2581opens": 7550,
  "\u2581owe": 7551,
  "\u2581seated": 7552,
  "\u2581severely": 7553,
  "\u2581skill": 7554,
  "\u2581sleeping": 7555,
  "\u2581sola": 7556,
  "\u2581tries": 7557,
  "\u2581ului": 7558,
  "\u2581unnecessary": 7559,
  "\u2581wages": 7560,
  "\u2581warmly": 7561,
  "\u2581wash": 7562,
  "\u2581weaken": 7563,
  "\u2581winds": 7564,
  "eta": 7565,
  "from": 7566,
  "gave": 7567,
  "hikihiki": 7568,
  "itu": 7569,
  "kahi": 7570,
  "ol": 7571,
  "seed": 7572,
  "\u0101tungia": 7573,
  "\u258140,": 7574,
  "\u2581Age": 7575,
  "\u2581Everlasting": 7576,
  "\u2581FE": 7577,
  "\u2581K\u0101nat\u00e1": 7578,
  "\u2581K\u0113nani": 7579,
  "\u2581Loniton\u00ed": 7580,
  "\u2581Obviously": 7581,
  "\u2581Tong\u00e1": 7582,
  "\u2581Training": 7583,
  "\u2581boldly": 7584,
  "\u2581bonds": 7585,
  "\u2581booklet": 7586,
  "\u2581cease": 7587,
  "\u2581collection": 7588,
  "\u2581defined": 7589,
  "\u2581discourse": 7590,
  "\u2581dramatic": 7591,
  "\u2581fakaefakakaukau": 7592,
  "\u2581fakala\u00f3": 7593,
  "\u2581fakalili": 7594,
  "\u2581feitam\u00e1": 7595,
  "\u2581frustration": 7596,
  "\u2581greatness": 7597,
  "\u2581greedy": 7598,
  "\u2581immense": 7599,
  "\u2581misled": 7600,
  "\u2581morality": 7601,
  "\u2581online": 7602,
  "\u2581palofita": 7603,
  "\u2581performing": 7604,
  "\u2581pregnancy": 7605,
  "\u2581preparation": 7606,
  "\u2581rose": 7607,
  "\u2581secretary": 7608,
  "\u2581siblings": 7609,
  "\u2581stable": 7610,
  "\u2581strict": 7611,
  "\u2581surroundings": 7612,
  "\u2581taonakita": 7613,
  "\u2581\u014dliv\u00e9": 7614,
  "];": 7615,
  "amoutolu": 7616,
  "etuku": 7617,
  "everal": 7618,
  "iloa": 7619,
  "nt": 7620,
  "oliume": 7621,
  "\u2581Alex": 7622,
  "\u2581Deborah": 7623,
  "\u2581Ingilan\u00ed": 7624,
  "\u2581Moab": 7625,
  "\u2581Mosese": 7626,
  "\u2581Person": 7627,
  "\u2581P\u014dlan\u00ed": 7628,
  "\u2581Sydney": 7629,
  "\u2581consist": 7630,
  "\u2581domestic": 7631,
  "\u2581du": 7632,
  "\u2581electronic": 7633,
  "\u2581element": 7634,
  "\u2581emipol\u00e1": 7635,
  "\u2581evangelizer": 7636,
  "\u2581fakapapa\u00fa": 7637,
  "\u2581holiness": 7638,
  "\u2581hom\u00f3": 7639,
  "\u2581h\u016bfang\u00e1": 7640,
  "\u2581independent": 7641,
  "\u2581inexperienced": 7642,
  "\u2581k\u014dvana": 7643,
  "\u2581longtime": 7644,
  "\u2581mail": 7645,
  "\u2581pace": 7646,
  "\u2581pasikala": 7647,
  "\u2581preacher": 7648,
  "\u2581purposed": 7649,
  "\u2581reassuring": 7650,
  "\u2581refugees": 7651,
  "\u2581repented": 7652,
  "\u2581rivers": 7653,
  "\u2581scroll": 7654,
  "\u2581snow": 7655,
  "\u2581survival": 7656,
  "\u2581vao": 7657,
  "\u2581virgin": 7658,
  "\u2581\u012anok\u00e9": 7659,
  "\u2581\u014dlive": 7660,
  ";...": 7661,
  "etoeveiveiua": 7662,
  "lar": 7663,
  "nointed": 7664,
  "\u25811963": 7665,
  "\u25811971": 7666,
  "\u258198": 7667,
  "\u2581Afe": 7668,
  "\u2581Athens": 7669,
  "\u2581Guide": 7670,
  "\u2581Hans": 7671,
  "\u2581Middle": 7672,
  "\u2581Point": 7673,
  "\u2581Studies": 7674,
  "\u2581Syria": 7675,
  "\u2581Together": 7676,
  "\u2581ate": 7677,
  "\u2581caution": 7678,
  "\u2581creating": 7679,
  "\u2581fakafuf\u016b": 7680,
  "\u2581fakamaa": 7681,
  "\u2581fakatokang\u00e1": 7682,
  "\u2581fierce": 7683,
  "\u2581fuel": 7684,
  "\u2581immortality": 7685,
  "\u2581lolot\u00f3": 7686,
  "\u2581mol\u016b": 7687,
  "\u2581moments": 7688,
  "\u2581necessities": 7689,
  "\u2581palesiteni": 7690,
  "\u2581prayerful": 7691,
  "\u2581prayerfully": 7692,
  "\u2581punou": 7693,
  "\u2581recalled": 7694,
  "\u2581revealing": 7695,
  "\u2581siv\u00ed": 7696,
  "\u2581span": 7697,
  "\u2581thanksgiving": 7698,
  "\u2581t\u014dlalo": 7699,
  "\u2581ultimately": 7700,
  "\u2581university": 7701,
  "Tala": 7702,
  "itap\u00fa": 7703,
  "this": 7704,
  "those": 7705,
  "\u25811986": 7706,
  "\u2581Andr\u00e9": 7707,
  "\u2581CA": 7708,
  "\u2581Hako": 7709,
  "\u2581Kola": 7710,
  "\u2581L\u0101salos\u00ed": 7711,
  "\u2581Mediterranean": 7712,
  "\u2581Nehemai\u00e1": 7713,
  "\u2581Sheol": 7714,
  "\u2581Third": 7715,
  "\u2581Viewpoint": 7716,
  "\u2581analyze": 7717,
  "\u2581angatonu": 7718,
  "\u2581arriving": 7719,
  "\u2581crucial": 7720,
  "\u2581desiring": 7721,
  "\u2581disobedient": 7722,
  "\u2581disobey": 7723,
  "\u2581distressed": 7724,
  "\u2581double": 7725,
  "\u2581fakahahake": 7726,
  "\u2581fakam\u0101lohisino": 7727,
  "\u2581fefe": 7728,
  "\u2581fruitful": 7729,
  "\u2581individually": 7730,
  "\u2581kat\u00f3": 7731,
  "\u2581materialism": 7732,
  "\u2581minute": 7733,
  "\u2581mob": 7734,
  "\u2581parallel": 7735,
  "\u2581pukepuke": 7736,
  "\u2581reache": 7737,
  "\u2581sacrificial": 7738,
  "\u2581safely": 7739,
  "\u2581scattered": 7740,
  "\u2581selfishness": 7741,
  "\u2581stupid": 7742,
  "\u2581suka": 7743,
  "\u2581sustained": 7744,
  "\u2581translators": 7745,
  "\u2581t\u014dnung\u00e1": 7746,
  "\u2581waste": 7747,
  "0,000": 7748,
  "Christ": 7749,
  "V": 7750,
  "efaitoton\u00fa": 7751,
  "efelotoi": 7752,
  "love": 7753,
  "rom": 7754,
  "working": 7755,
  "\u0101naua": 7756,
  "\u2581(5)": 7757,
  "\u258168": 7758,
  "\u2581Caleb": 7759,
  "\u2581Fakafaifeka\u00fa": 7760,
  "\u2581Fakahoko": 7761,
  "\u2581Head": 7762,
  "\u2581Honor": 7763,
  "\u2581Latin\u00e1": 7764,
  "\u2581Looking": 7765,
  "\u2581Michelle": 7766,
  "\u2581Pasifik\u00ed": 7767,
  "\u2581Storrs": 7768,
  "\u2581aupit\u00f3": 7769,
  "\u2581belonged": 7770,
  "\u2581challenged": 7771,
  "\u2581collect": 7772,
  "\u2581comforts": 7773,
  "\u2581conclusions": 7774,
  "\u2581crying": 7775,
  "\u2581cutting": 7776,
  "\u2581exercises": 7777,
  "\u2581fakateokalat\u00ed": 7778,
  "\u2581foods": 7779,
  "\u2581grieving": 7780,
  "\u2581horse": 7781,
  "\u2581instituted": 7782,
  "\u2581link": 7783,
  "\u2581lulu": 7784,
  "\u2581mentally": 7785,
  "\u2581overlook": 7786,
  "\u2581portions": 7787,
  "\u2581sexually": 7788,
  "\u2581stream": 7789,
  "\u2581threats": 7790,
  "\u2581va\u00f3": 7791,
  "\u2581volunteer": 7792,
  "\u2581wearing": 7793,
  "\u2581weighed": 7794,
  "\u2581workplace": 7795,
  "\u2581worshipped": 7796,
  "\u2581worshipper": 7797,
  "\u2581\u014dfis\u00ed": 7798,
  "?...": 7799,
  "auh\u00ed": 7800,
  "long": 7801,
  "mahino": 7802,
  "op": 7803,
  "vi": 7804,
  "\u258147.": 7805,
  "\u2581Elizabeth": 7806,
  "\u2581Fika": 7807,
  "\u2581Helen": 7808,
  "\u2581Lavame": 7809,
  "\u2581Mari": 7810,
  "\u2581Peesi": 7811,
  "\u2581Tony": 7812,
  "\u2581WAS": 7813,
  "\u2581adhere": 7814,
  "\u2581captive": 7815,
  "\u2581carries": 7816,
  "\u2581cleanse": 7817,
  "\u2581cleansed": 7818,
  "\u2581desert": 7819,
  "\u2581directions": 7820,
  "\u2581doctrines": 7821,
  "\u2581dressed": 7822,
  "\u2581earthquake": 7823,
  "\u2581exalted": 7824,
  "\u2581fakah\u0101ha\u00e1": 7825,
  "\u2581fakapuputu": 7826,
  "\u2581follower": 7827,
  "\u2581goat": 7828,
  "\u2581kimoua": 7829,
  "\u2581l\u0101ung\u00e1": 7830,
  "\u2581l\u0113lu\u00e9": 7831,
  "\u2581manage": 7832,
  "\u2581match": 7833,
  "\u2581mehek\u00e1": 7834,
  "\u2581mohenga": 7835,
  "\u2581noteworthy": 7836,
  "\u2581palanit\u00e9": 7837,
  "\u2581planted": 7838,
  "\u2581responding": 7839,
  "\u2581sentenced": 7840,
  "\u2581sessions": 7841,
  "\u2581strife": 7842,
  "\u2581tafun": 7843,
  "\u2581tata": 7844,
  "\u2581tendencies": 7845,
  "\u2581tikisinale": 7846,
  "\u2581till": 7847,
  "\u2581toafa": 7848,
  "\u2581tuliki": 7849,
  "\u2581t\u014dmu": 7850,
  "\u2581watched": 7851,
  "\u2581worshipp": 7852,
  "\u2581\u016a": 7853,
  "are": 7854,
  "ca": 7855,
  "ial": 7856,
  "ut": 7857,
  "\u2581Asaph": 7858,
  "\u2581California": 7859,
  "\u2581Fakavah": 7860,
  "\u2581F\u0113": 7861,
  "\u2581House": 7862,
  "\u2581H\u0113lota": 7863,
  "\u2581Ireland": 7864,
  "\u2581Journal": 7865,
  "\u2581K\u014dlea": 7866,
  "\u2581LAHI": 7867,
  "\u2581Miriam": 7868,
  "\u2581Part": 7869,
  "\u2581Protestant": 7870,
  "\u2581SUBJECT": 7871,
  "\u2581S\u014dtoma": 7872,
  "\u2581absorbed": 7873,
  "\u2581analaiso": 7874,
  "\u2581arrange": 7875,
  "\u2581blow": 7876,
  "\u2581confusion": 7877,
  "\u2581coping": 7878,
  "\u2581criminal": 7879,
  "\u2581dollars": 7880,
  "\u2581emperor": 7881,
  "\u2581evangelizing": 7882,
  "\u2581exhorted": 7883,
  "\u2581faiaka": 7884,
  "\u2581fakatafoki": 7885,
  "\u2581falekoloa": 7886,
  "\u2581farmers": 7887,
  "\u2581generations": 7888,
  "\u2581generously": 7889,
  "\u2581holomui": 7890,
  "\u2581industry": 7891,
  "\u2581ket\u00e9": 7892,
  "\u2581kg": 7893,
  "\u2581killing": 7894,
  "\u2581kula": 7895,
  "\u2581lol\u00f3": 7896,
  "\u2581l\u0113vol": 7897,
  "\u2581mainly": 7898,
  "\u2581nights": 7899,
  "\u2581prey": 7900,
  "\u2581sol\u00e1": 7901,
  "\u2581sorry": 7902,
  "\u2581sounds": 7903,
  "\u2581star": 7904,
  "\u2581striking": 7905,
  "\u2581tapuaki": 7906,
  "\u2581tasks": 7907,
  "\u2581tomb": 7908,
  "\u2581treacherous": 7909,
  "\u2581val\u00e9": 7910,
  "\u2581volume": 7911,
  "\u2581womb": 7912,
  "Is": 7913,
  "OLD": 7914,
  "ehoa": 7915,
  "eh\u0101ma\u00ed": 7916,
  "ungam\u0101li\u00e9": 7917,
  "up": 7918,
  "\u2581139": 7919,
  "\u25811975": 7920,
  "\u2581Apparently": 7921,
  "\u2581Benefit": 7922,
  "\u2581Chron": 7923,
  "\u2581HAKE": 7924,
  "\u2581Jericho": 7925,
  "\u2581Karl": 7926,
  "\u2581Maker": 7927,
  "\u2581Portuguese": 7928,
  "\u2581P\u014dasi": 7929,
  "\u2581Quest": 7930,
  "\u2581Tah\u00e1": 7931,
  "\u2581Whom": 7932,
  "\u2581abstain": 7933,
  "\u2581advantages": 7934,
  "\u2581card": 7935,
  "\u2581clouds": 7936,
  "\u2581damaging": 7937,
  "\u2581dignified": 7938,
  "\u2581document": 7939,
  "\u2581educated": 7940,
  "\u2581eggs": 7941,
  "\u2581esteem": 7942,
  "\u2581examined": 7943,
  "\u2581fakatokou\u00e1": 7944,
  "\u2581falsely": 7945,
  "\u2581fet\u014d": 7946,
  "\u2581haka": 7947,
  "\u2581k\u0113": 7948,
  "\u2581lama": 7949,
  "\u2581liaki": 7950,
  "\u2581lifted": 7951,
  "\u2581longing": 7952,
  "\u2581missed": 7953,
  "\u2581m\u0101nav\u00e1": 7954,
  "\u2581m\u012bti\u00e1": 7955,
  "\u2581ocean": 7956,
  "\u2581offense": 7957,
  "\u2581palanit": 7958,
  "\u2581provoked": 7959,
  "\u2581rarely": 7960,
  "\u2581reacted": 7961,
  "\u2581renewed": 7962,
  "\u2581sadness": 7963,
  "\u2581selling": 7964,
  "\u2581surgery": 7965,
  "\u2581teenagers": 7966,
  "\u2581transform": 7967,
  "\u2581vel\u00e1": 7968,
  "\u2581wage": 7969,
  "efakakaukau": 7970,
  "eha": 7971,
  "put": 7972,
  "\u2581133": 7973,
  "\u25816,000": 7974,
  "\u2581Abigail": 7975,
  "\u2581Articles": 7976,
  "\u2581Describe": 7977,
  "\u2581Edition": 7978,
  "\u2581Filisitia": 7979,
  "\u2581Gary": 7980,
  "\u2581Must": 7981,
  "\u2581Nu": 7982,
  "\u2581Philippines": 7983,
  "\u2581S\u012bli\u00e1": 7984,
  "\u2581Unti": 7985,
  "\u2581appreciative": 7986,
  "\u2581befall": 7987,
  "\u2581botu": 7988,
  "\u2581contemplate": 7989,
  "\u2581deserving": 7990,
  "\u2581drop": 7991,
  "\u2581ek\u00e9": 7992,
  "\u2581employed": 7993,
  "\u2581fakafetaulaki": 7994,
  "\u2581fakahala": 7995,
  "\u2581fakalalahi": 7996,
  "\u2581fakalaulaulot\u00f3": 7997,
  "\u2581fare": 7998,
  "\u2581fio": 7999,
  "\u2581kitaua": 8000,
  "\u2581legs": 8001,
  "\u2581l\u0101uval\u00e9": 8002,
  "\u2581materialistic": 8003,
  "\u2581movies": 8004,
  "\u2581propaganda": 8005,
  "\u2581qualifications": 8006,
  "\u2581recover": 8007,
  "\u2581requested": 8008,
  "\u2581spiritism": 8009,
  "\u2581sugar": 8010,
  "\u2581teen": 8011,
  "\u2581topics": 8012,
  "\u2581topuva": 8013,
  "\u2581translate": 8014,
  "\u2581valued": 8015,
  "\u2581wave": 8016,
  "\u2581\u014cfis": 8017,
  "IA": 8018,
  "amou": 8019,
  "fi": 8020,
  "ung": 8021,
  "\u0100ME": 8022,
  "\u2581112": 8023,
  "\u25811933": 8024,
  "\u25811972": 8025,
  "\u258167": 8026,
  "\u2581Along": 8027,
  "\u2581Centuries": 8028,
  "\u2581Full": 8029,
  "\u2581Into": 8030,
  "\u2581Jaracz": 8031,
  "\u2581Jezebel": 8032,
  "\u2581Kovi": 8033,
  "\u2581Praise": 8034,
  "\u2581Tell": 8035,
  "\u2581Toronto": 8036,
  "\u2581Understandably": 8037,
  "\u2581affliction": 8038,
  "\u2581alafa": 8039,
  "\u2581apartment": 8040,
  "\u2581attempted": 8041,
  "\u2581behold": 8042,
  "\u2581believes": 8043,
  "\u2581bule": 8044,
  "\u2581combined": 8045,
  "\u2581confidently": 8046,
  "\u2581constructed": 8047,
  "\u2581defeat": 8048,
  "\u2581distracted": 8049,
  "\u2581employer": 8050,
  "\u2581exquisite": 8051,
  "\u2581fails": 8052,
  "\u2581fakafaingofua": 8053,
  "\u2581fakafehu": 8054,
  "\u2581fakamol\u00e9": 8055,
  "\u2581fakang\u0101ue": 8056,
  "\u2581fanogo": 8057,
  "\u2581fehoanakim\u0101lie": 8058,
  "\u2581flying": 8059,
  "\u2581function": 8060,
  "\u2581f\u014dtung\u00e1": 8061,
  "\u2581instructor": 8062,
  "\u2581lak\u00e1": 8063,
  "\u2581liar": 8064,
  "\u2581managed": 8065,
  "\u2581pains": 8066,
  "\u2581plays": 8067,
  "\u2581rooms": 8068,
  "\u2581spot": 8069,
  "\u2581stuck": 8070,
  "\u2581symptoms": 8071,
  "\u2581taegata": 8072,
  "\u2581undermine": 8073,
  "\u2581veiveiu\u00e1": 8074,
  "\u2581\u014dfis\u00e1": 8075,
  "ehano": 8076,
  "if": 8077,
  "ner": 8078,
  "netheless": 8079,
  "\u25811962": 8080,
  "\u2581AU": 8081,
  "\u2581Five": 8082,
  "\u2581Hand": 8083,
  "\u2581KAVEINGA": 8084,
  "\u2581Misaia": 8085,
  "\u2581M\u0101ti\u00fa": 8086,
  "\u2581NE": 8087,
  "\u2581Palotisan\u00ed": 8088,
  "\u2581aloofa": 8089,
  "\u2581burnt": 8090,
  "\u2581celebrate": 8091,
  "\u2581contemporaries": 8092,
  "\u2581copper": 8093,
  "\u2581corrected": 8094,
  "\u2581eighth": 8095,
  "\u2581embraced": 8096,
  "\u2581emphasize": 8097,
  "\u2581enthusiasm": 8098,
  "\u2581faimeesi": 8099,
  "\u2581fakafofong\u00e1": 8100,
  "\u2581fame": 8101,
  "\u2581fas\u00ed": 8102,
  "\u2581fefaka": 8103,
  "\u2581immune": 8104,
  "\u2581liked": 8105,
  "\u2581mape": 8106,
  "\u2581m\u014dmoa": 8107,
  "\u2581regain": 8108,
  "\u2581round": 8109,
  "\u2581siotonu": 8110,
  "\u2581sky": 8111,
  "\u2581slowly": 8112,
  "\u2581smaller": 8113,
  "\u2581tailiili": 8114,
  "\u2581tavale": 8115,
  "\u2581t\u0101t\u0101naki": 8116,
  "\u2581utterance": 8117,
  "\u2581vaine": 8118,
  "AKAFI": 8119,
  "From": 8120,
  "Si": 8121,
  "ag": 8122,
  "aliteke": 8123,
  "pi": 8124,
  "uhi\u0101": 8125,
  "uloto": 8126,
  "\u0113lia": 8127,
  "\u2581148": 8128,
  "\u25811974": 8129,
  "\u258142,": 8130,
  "\u2581Afterward": 8131,
  "\u2581COR": 8132,
  "\u2581Ever": 8133,
  "\u2581Harold": 8134,
  "\u2581Institute": 8135,
  "\u2581Islands": 8136,
  "\u2581Kosipeli": 8137,
  "\u2581LIFE": 8138,
  "\u2581Malava": 8139,
  "\u2581Mike": 8140,
  "\u2581Rahab": 8141,
  "\u2581Research": 8142,
  "\u2581Rio": 8143,
  "\u2581Stand": 8144,
  "\u2581Tom": 8145,
  "\u2581accusations": 8146,
  "\u2581anef\u0113": 8147,
  "\u2581block": 8148,
  "\u2581chronic": 8149,
  "\u2581cited": 8150,
  "\u2581cleanness": 8151,
  "\u2581communities": 8152,
  "\u2581conquest": 8153,
  "\u2581crush": 8154,
  "\u2581demanding": 8155,
  "\u2581fakaem\u0101tu": 8156,
  "\u2581fakatokolahi": 8157,
  "\u2581fearful": 8158,
  "\u2581fuo": 8159,
  "\u2581fusi": 8160,
  "\u2581heli": 8161,
  "\u2581hostile": 8162,
  "\u2581hurled": 8163,
  "\u2581jii": 8164,
  "\u2581kimau\u00e1": 8165,
  "\u2581levels": 8166,
  "\u2581lofty": 8167,
  "\u2581matolu": 8168,
  "\u2581mat\u0101fonua": 8169,
  "\u2581mile": 8170,
  "\u2581misunderstand": 8171,
  "\u2581mixed": 8172,
  "\u2581moheng\u00e1": 8173,
  "\u2581ngalikehe": 8174,
  "\u2581organizations": 8175,
  "\u2581rebelled": 8176,
  "\u2581section": 8177,
  "\u2581sevaniti": 8178,
  "\u2581submissive": 8179,
  "\u2581tam": 8180,
  "\u2581touta\u00ed": 8181,
  "\u2581voliume": 8182,
  "\u2581wanting": 8183,
  "\u2581west": 8184,
  "ANGA": 8185,
  "IN": 8186,
  "KATO": 8187,
  "ivic": 8188,
  "lways": 8189,
  "ofisiale": 8190,
  "uhala": 8191,
  "us\u00ed": 8192,
  "\u2581ABOUT": 8193,
  "\u2581Bad": 8194,
  "\u2581Catholics": 8195,
  "\u2581Earlier": 8196,
  "\u2581Est": 8197,
  "\u2581Ferdinand": 8198,
  "\u2581Greeks": 8199,
  "\u2581Hihifo": 8200,
  "\u2581Initi\u00e1": 8201,
  "\u2581Jehoash": 8202,
  "\u2581Mal": 8203,
  "\u2581Mali": 8204,
  "\u2581Samisoni": 8205,
  "\u2581Siain\u00e1": 8206,
  "\u2581Ted": 8207,
  "\u2581advised": 8208,
  "\u2581af\u0113": 8209,
  "\u2581alung\u00e1": 8210,
  "\u2581bicycle": 8211,
  "\u2581complaint": 8212,
  "\u2581conscientious": 8213,
  "\u2581decade": 8214,
  "\u2581definitely": 8215,
  "\u2581directing": 8216,
  "\u2581fakahihifo": 8217,
  "\u2581fieinua": 8218,
  "\u2581forsake": 8219,
  "\u2581freed": 8220,
  "\u2581healthful": 8221,
  "\u2581hiding": 8222,
  "\u2581impress": 8223,
  "\u2581inclinations": 8224,
  "\u2581increases": 8225,
  "\u2581interfere": 8226,
  "\u2581ioke": 8227,
  "\u2581joint": 8228,
  "\u2581kafo": 8229,
  "\u2581matakal\u00ed": 8230,
  "\u2581momosi": 8231,
  "\u2581officers": 8232,
  "\u2581ololalo": 8233,
  "\u2581oneself": 8234,
  "\u2581operate": 8235,
  "\u2581palatais\u00ed": 8236,
  "\u2581port": 8237,
  "\u2581prevail": 8238,
  "\u2581priceless": 8239,
  "\u2581professed": 8240,
  "\u2581regulations": 8241,
  "\u2581reproof": 8242,
  "\u2581sacrificed": 8243,
  "\u2581stranger": 8244,
  "\u2581violate": 8245,
  "\u2581vivid": 8246,
  "\u2581weapon": 8247,
  "Just": 8248,
  "ck": 8249,
  "di": 8250,
  "elata": 8251,
  "ent": 8252,
  "gi": 8253,
  "ists": 8254,
  "que": 8255,
  "ufonua": 8256,
  "\u2581Blessings": 8257,
  "\u2581Christine": 8258,
  "\u2581Filipain\u00ed": 8259,
  "\u2581Foha": 8260,
  "\u2581Gentile": 8261,
  "\u2581Jan": 8262,
  "\u2581K\u0101toanga": 8263,
  "\u2581Netherlands": 8264,
  "\u2581Science": 8265,
  "\u2581Sefanaia": 8266,
  "\u2581Than": 8267,
  "\u2581Toetu": 8268,
  "\u2581absolute": 8269,
  "\u2581adapt": 8270,
  "\u2581amounts": 8271,
  "\u2581attacked": 8272,
  "\u2581bottom": 8273,
  "\u2581ceremony": 8274,
  "\u2581cling": 8275,
  "\u2581committ": 8276,
  "\u2581equip": 8277,
  "\u2581imagined": 8278,
  "\u2581imply": 8279,
  "\u2581keenly": 8280,
  "\u2581misleading": 8281,
  "\u2581mutual": 8282,
  "\u2581m\u0101ma": 8283,
  "\u2581nonofo": 8284,
  "\u2581nut": 8285,
  "\u2581occupied": 8286,
  "\u2581progressively": 8287,
  "\u2581remarks": 8288,
  "\u2581somehow": 8289,
  "\u2581succumb": 8290,
  "\u2581tuitui": 8291,
  "\u2581val\u00fa": 8292,
  "\u2581waited": 8293,
  "\u2581worthless": 8294,
  "\u2581\u0112mos\u00ed": 8295,
  "Where": 8296,
  "alea": 8297,
  "cy": 8298,
  "efakatohitapu": 8299,
  "every": 8300,
  "per": 8301,
  "taha": 8302,
  "utamaki": 8303,
  "wept": 8304,
  "\u2581118": 8305,
  "\u2581147": 8306,
  "\u2581230": 8307,
  "\u258147,": 8308,
  "\u25817,000": 8309,
  "\u2581Akonaki": 8310,
  "\u2581Alive": 8311,
  "\u2581Ann": 8312,
  "\u2581Comfort": 8313,
  "\u2581Enter": 8314,
  "\u2581F\u0101mili": 8315,
  "\u2581Haiti": 8316,
  "\u2581Iku": 8317,
  "\u2581Macedonia": 8318,
  "\u2581Melino": 8319,
[...]
