{
  "</s>": 0,
  "<unk>": 1,
  "\u2581ti": 2,
  "\u2581na": 3,
  ",": 4,
  ".": 5,
  "\u2581so": 6,
  "\u2581\"": 7,
  "\u2581the": 8,
  "\u2581a": 9,
  "\u2581to": 10,
  "\u2581lo": 11,
  "\u2581ayeke": 12,
  "\u2581-": 13,
  "\u2581of": 14,
  "\u2581ni": 15,
  "\u2581e": 16,
  "\u2581ala": 17,
  "\u2581and": 18,
  ":": 19,
  "\u2581ye": 20,
  "?": 21,
  "\u2581yeke": 22,
  "\u2581in": 23,
  "\u2581that": 24,
  "s": 25,
  "\u2581ndo": 26,
  "\u2581mbeni": 27,
  "\u2581azo": 28,
  "\u2581nga": 29,
  "\u2581sara": 30,
  "\u2581y\u00e2": 31,
  "\u2581t\u00ebn\u00eb": 32,
  "\u2581p\u00ebpe": 33,
  "'": 34,
  "\u2581lege": 35,
  "\u2581mingi": 36,
  "\u2581is": 37,
  "\u2581mo": 38,
  "\u2581kue": 39,
  "\u2581zo": 40,
  "\u2581Nzapa": 41,
  "\u2581tongana": 42,
  "\u2581tene": 43,
  "\u2581J\u00e9hovah": 44,
  "\u2581mbi": 45,
  "\u2581Jehovah": 46,
  "\u2581si": 47,
  "\u2581be": 48,
  "\u2581for": 49,
  "\u2581b\u00ea": 50,
  "\u2581": 51,
  "\u2581God": 52,
  "\u2581aye": 53,
  "\u2581we": 54,
  "\u2581Bible": 55,
  "\u2581nzoni": 56,
  "\u2581his": 57,
  "\u2581A": 58,
  "\u2581lingbi": 59,
  "\u2581Na": 60,
  "\u2581oko": 61,
  "\u2581m\u00fb": 62,
  "\u2581ngoi": 63,
  "\u2581sala": 64,
  "\u2581with": 65,
  "\u2581was": 66,
  "\u2581you": 67,
  "\u2581not": 68,
  "\u2581fa": 69,
  "\u2581nyen": 70,
  "ngo": 71,
  "\u2581b\u00e2": 72,
  "\u2581ngangu": 73,
  "\u2581he": 74,
  "\u2581will": 75,
  "\u2581alingbi": 76,
  "\u2581as": 77,
  "\u2581on": 78,
  "\u2581have": 79,
  "\u2581lani": 80,
  "\u2581I": 81,
  "\u2581are": 82,
  ";": 83,
  "\u2581gi": 84,
  "\u2581wara": 85,
  "\u2581atene": 86,
  "\u2581J\u00e9sus": 87,
  "\u2581The": 88,
  "\u2581our": 89,
  "\u2581it": 90,
  "\u2581la": 91,
  "\u2581Jesus": 92,
  "\u2581(": 93,
  "ing": 94,
  "\u2581by": 95,
  "\u2581hinga": 96,
  "\u25811": 97,
  "\u2581'": 98,
  "\u2581us": 99,
  "\u2581from": 100,
  "\u2581asara": 101,
  "\u2581can": 102,
  "\u2581me": 103,
  "\u2581Lo": 104,
  "\u2581afa": 105,
  "\u2581ambeni": 106,
  "\u2581maboko": 107,
  "\u2581who": 108,
  "\u2581their": 109,
  "\u2581wala": 110,
  "\u2581Tongana": 111,
  ")": 112,
  "\u2581t\u00e2": 113,
  "\u2581kota": 114,
  "\u2581they": 115,
  "\u2581zia": 116,
  "\u2581[": 117,
  "\u2581wa": 118,
  "\u2581duti": 119,
  "a": 120,
  "\u2581What": 121,
  "\u2581what": 122,
  "\u2581ngu": 123,
  "\u2581teti": 124,
  "\u2581am\u00fb": 125,
  "\u2581ga": 126,
  "\u2581nde": 127,
  "\u2581tongaso": 128,
  "\u2581do": 129,
  "\u2581or": 130,
  "!": 131,
  "\u2581fini": 132,
  "\u2581this": 133,
  "\u2581Paul": 134,
  "\u2581sese": 135,
  "\u2581nda": 136,
  "\u2581lakue": 137,
  "\u2581aga": 138,
  "\u2581all": 139,
  "\u2581d\u00e4": 140,
  "\u2581kusala": 141,
  "\u2581him": 142,
  "\u2581Ye": 143,
  "\u2581one": 144,
  "\u2581ahon": 145,
  "\u2581were": 146,
  "\u2581had": 147,
  "\u2581them": 148,
  "\u2581kua": 149,
  "\u2581people": 150,
  "\u2581at": 151,
  "\u2581your": 152,
  "\u2581Christ": 153,
  "\u2581li": 154,
  "\u2581How": 155,
  "\u2581an": 156,
  "\u2581In": 157,
  "\u2581yingo": 158,
  "\u2581yanga": 159,
  "\u2581gue": 160,
  "\u2581tere": 161,
  "\u2581sioni": 162,
  "\u2581ape": 163,
  "\u2581.\"": 164,
  "\u2581about": 165,
  "\u2581peko": 166,
  "\u25812": 167,
  "\u2581would": 168,
  "\u2581did": 169,
  "\u2581when": 170,
  "\u2581has": 171,
  "\u2581l\u00ea": 172,
  "\u2581ngia": 173,
  "\u2581fade": 174,
  "\u2581wali": 175,
  "\u2581ande": 176,
  "\u2581ndali": 177,
  "]": 178,
  "\u2581pekoni": 179,
  "\u2581life": 180,
  "\u2581Me": 181,
  "\u2581awe": 182,
  "\u2581biani": 183,
  "\u2581asala": 184,
  "\u2581E": 185,
  "ni": 186,
  "\u2581my": 187,
  "\u2581may": 188,
  "\u2581time": 189,
  "\u2581those": 190,
  "\u2581mbage": 191,
  "\u2581but": 192,
  "\u2581kiri": 193,
  "\u2581koli": 194,
  "\u2581ngb\u00e2": 195,
  "\u2581tapande": 196,
  "\u2581popo": 197,
  "\u2581l\u00e2": 198,
  "\u2581i": 199,
  "\u2581Ti": 200,
  "\u2581Mbi": 201,
  "\u2581kete": 202,
  "\u2581hunda": 203,
  "\u2581tele": 204,
  "\u2581He": 205,
  "\u2581fango": 206,
  "\u2581leke": 207,
  "\u2581kodoro": 208,
  "\u2581bungbi": 209,
  "\u2581asi": 210,
  "\u2581iri": 211,
  "\u2581pepe": 212,
  "\u2581Mo": 213,
  "\u2581m\u00e4": 214,
  "\u2581help": 215,
  "\u2581ndoye": 216,
  "\u2581how": 217,
  "\u2581use": 218,
  "\u2581mbeti": 219,
  "\u2581ngbanga": 220,
  "\u2581manda": 221,
  "\u2581Satan": 222,
  "\u2581good": 223,
  "\u2581mbilimbili": 224,
  "\u2581also": 225,
  "\u2581gbu": 226,
  "\u2581We": 227,
  "\u2581love": 228,
  "\u2581some": 229,
  "\u2581at\u00ebn\u00eb": 230,
  "\u2581ab\u00e2": 231,
  "\u2581aChr\u00e9tien": 232,
  "\u2581out": 233,
  "\u2581da": 234,
  "\u2581kozo": 235,
  "\u2581more": 236,
  "\u2581her": 237,
  "\u2581David": 238,
  "\"": 239,
  "\u2581such": 240,
  "\u2581bata": 241,
  "\u2581should": 242,
  "\u2581amolenge": 243,
  "\u2581been": 244,
  "\u2581mara": 245,
  "\u2581Mbe": 246,
  "\u2581things": 247,
  "\u2581way": 248,
  "\u2581does": 249,
  "\u25815": 250,
  "\u2581molenge": 251,
  "\u2581up": 252,
  "\u2581many": 253,
  "\u2581work": 254,
  "ed": 255,
  "\u2581It": 256,
  "/": 257,
  "\u258115": 258,
  "\u2581no": 259,
  "\u2022": 260,
  "\u2581Christian": 261,
  "\u2581Ala": 262,
  "\u2581world": 263,
  "\u2581Why": 264,
  "\u2581So": 265,
  "\u2581make": 266,
  "\u2581if": 267,
  "\u2581spirit": 268,
  "\u2581aita": 269,
  "\u2581gigi": 270,
  "\u2581sarango": 271,
  "\u2581Christians": 272,
  "\u2581said": 273,
  "b": 274,
  "\u2581Ngbanga": 275,
  "\u2581there": 276,
  "\u2581could": 277,
  "\u2581earth": 278,
  "ly": 279,
  "\u2581Kingdom": 280,
  "\u2581Witnesses": 281,
  "\u2581man": 282,
  "\u2581other": 283,
  "\u2581kanga": 284,
  "\u2581lango": 285,
  "\u2581Royaume": 286,
  "\u2581day": 287,
  "\u2581ta": 288,
  "\u2581faith": 289,
  "\u2581even": 290,
  "\u2581When": 291,
  "\u2581others": 292,
  "\u2581mabe": 293,
  "\u25813": 294,
  "\u2581gbe": 295,
  "\u2581ahinga": 296,
  "\u2581laso": 297,
  "\u2581Tongaso": 298,
  "\u2581ague": 299,
  "\u2581first": 300,
  "\u2581need": 301,
  "\u2581than": 302,
  "the": 303,
  "\u2581into": 304,
  "\u2581ahunda": 305,
  "\u2581Isra\u00ebl": 306,
  "\u2581angb\u00e2": 307,
  "\u2581these": 308,
  "\u2581For": 309,
  "\u2581kpengba": 310,
  "\u258111": 311,
  "\u2581spiritual": 312,
  "\u2581ku\u00e2": 313,
  "\u2581Chr\u00e9tien": 314,
  "\u2581\u00eatre": 315,
  "\u2581which": 316,
  "\u2581They": 317,
  "\u25816": 318,
  "\u2581sambela": 319,
  "\u2581years": 320,
  "\u2581example": 321,
  "\u2581lembeti": 322,
  "\u2581yayu": 323,
  "\u2581congregation": 324,
  "\u25817": 325,
  "\u2581must": 326,
  "e": 327,
  "\u2581because": 328,
  "\u2581As": 329,
  "\u2581But": 330,
  "\u2581mveni": 331,
  "\u2581This": 332,
  "\u2581azia": 333,
  "\u2581sewa": 334,
  "\u2581she": 335,
  "\u2581aT\u00e9moin": 336,
  "\u2581kozoni": 337,
  "\u2581at\u00e2": 338,
  "\u2581page": 339,
  "\u2581made": 340,
  "\u25818": 341,
  "\u2581awara": 342,
  "\u2581vundu": 343,
  "\u2581If": 344,
  "\u2581being": 345,
  "\u2581family": 346,
  "\u2581zi": 347,
  "\u2581mama": 348,
  "\u2581place": 349,
  "\u2581Biani": 350,
  "\u2581ndara": 351,
  "\u2581heart": 352,
  "\u2581yeda": 353,
  "\u2581see": 354,
  "\u2581bi": 355,
  "\u2581vorongo": 356,
  "\u2581know": 357,
  "\u25814": 358,
  "\u2581only": 359,
  "\u2581You": 360,
  "\u2581children": 361,
  "\u2581nduru": 362,
  "\u2581true": 363,
  "\u2581hon": 364,
  "\u2581ones": 365,
  "\u2581Azo": 366,
  "\u2581like": 367,
  "\u2581ke": 368,
  "\u2581akiri": 369,
  "\u258114": 370,
  "\u2581bango": 371,
  "\u2581article": 372,
  "\u2581aduti": 373,
  "\u2581words": 374,
  "\u2581says": 375,
  "\u2581pendere": 376,
  "\u2581come": 377,
  "t": 378,
  "\u2581dutingo": 379,
  "\u2581At\u00e2": 380,
  "\u2581m\u00eame": 381,
  "\u2581songo": 382,
  "\u2581*": 383,
  "\u2581bibe": 384,
  "\u2581L": 385,
  "\u2581over": 386,
  "\u2581Teti": 387,
  "\u2581take": 388,
  "\u2581then": 389,
  "\u2581T": 390,
  "\u2581alondo": 391,
  "\u2581mungo": 392,
  "\u2581diko": 393,
  "\u2581akpengba": 394,
  "\u2581senge": 395,
  "\u2581nzara": 396,
  "\u2581death": 397,
  "\u2581kpale": 398,
  "\u2581become": 399,
  "\u2581dunia": 400,
  "\u258113": 401,
  "\u2581ita": 402,
  "\u258112": 403,
  "...": 404,
  "\u2581andu": 405,
  "\u2581peut": 406,
  "\u2581amba": 407,
  "\u2581own": 408,
  "\u2581mariage": 409,
  "I": 410,
  "\u2581legeoko": 411,
  "\u2581ku": 412,
  "\u2581well": 413,
  "\u2581kobe": 414,
  "\u2581gbele": 415,
  "\u2581Word": 416,
  "\u2581siokpari": 417,
  "\u2581Mbeti": 418,
  "\u2581ndulu": 419,
  "\u2581John": 420,
  "\u2581adisciple": 421,
  "\u2581truth": 422,
  "\u2581abungbi": 423,
  "\u2581give": 424,
  "\u2581before": 425,
  "\u2581Nyen": 426,
  "\u2581ndia": 427,
  "\u2581men": 428,
  "\u2581tambela": 429,
  "\u2581might": 430,
  "\u2581And": 431,
  "\u2581That": 432,
  "\u2581f\u00e2": 433,
  "\u25819": 434,
  "\u2581polele": 435,
  "\u2581keep": 436,
  "\u2581its": 437,
  "\u2581wango": 438,
  "\u2581bezoin": 439,
  "\u2581nginza": 440,
  "E": 441,
  "\u2581just": 442,
  "\u2581now": 443,
  "\u2581name": 444,
  "\u2581akota": 445,
  "\u2581To": 446,
  "\u2581angu": 447,
  "\u2581brothers": 448,
  "\u2581gb\u00e2": 449,
  "\u2581today": 450,
  "\u2581Jean": 451,
  "\u2581apostle": 452,
  "\u2581Abraham": 453,
  "\u2581new": 454,
  "\u2581through": 455,
  "\u2581person": 456,
  "\u2581any": 457,
  "\u2581go": 458,
  "\u2581bab\u00e2": 459,
  "\u2581soro": 460,
  "\u2581T\u00ebn\u00eb": 461,
  "\u2581after": 462,
  "\u2581s\u00fb": 463,
  "\u2581another": 464,
  "\u2581Ambeni": 465,
  "\u2581Job": 466,
  "\u25811,": 467,
  "\u2581awakua": 468,
  "nzoni": 469,
  "d": 470,
  "\u258120": 471,
  "\u2581times": 472,
  "\u2581study": 473,
  "\u2581great": 474,
  "\u2581ake": 475,
  "\u2581very": 476,
  "\u2581Zo": 477,
  "\u2581bira": 478,
  "\u2581wani": 479,
  "nd\u00f6": 480,
  "\u2581ancien": 481,
  "\u2581two": 482,
  "\u2581akpale": 483,
  "\u2581aleke": 484,
  "\u2581himself": 485,
  "\u2581Israel": 486,
  "\u2581awa": 487,
  "\u2581mbeto": 488,
  "\u2581am\u00e4": 489,
  "\u2581fadeso": 490,
  "\u2581much": 491,
  "\u2581against": 492,
  "\u2581show": 493,
  "\u2581kpe": 494,
  "\u2581Bab\u00e2": 495,
  "\u2581faithful": 496,
  "\u2581put": 497,
  "\u2581part": 498,
  "\u2581mu": 499,
  "A": 500,
  "\u2581learn": 501,
  "\u2581parents": 502,
  "\u2581kui": 503,
  "\u2581find": 504,
  "\u2581komande": 505,
  "\u258116": 506,
  "\u2581Adam": 507,
  "\u2581Do": 508,
  "\u258119": 509,
  "\u2581wrote": 510,
  "\u2581beku": 511,
  "\u2581means": 512,
  "\u2581hio": 513,
  "\u2581human": 514,
  "\u2581giriri": 515,
  "apusu": 516,
  "\u258117": 517,
  "\u2581However": 518,
  "\u25813:": 519,
  "\u2581Picture": 520,
  "\u2581siriri": 521,
  "\u2581worship": 522,
  "\u2581Father": 523,
  "\u2581Peter": 524,
  "\u2581why": 525,
  "\u2581Zia": 526,
  "\u2581feel": 527,
  "\u2581ba": 528,
  "\u2581,\"": 529,
  "\u2581holy": 530,
  "\u2581ministry": 531,
  "\u2581right": 532,
  "\u2581Aye": 533,
  "fango": 534,
  "tanga": 535,
  "\u2581Pierre": 536,
  "\u2581young": 537,
  "\u2581found": 538,
  "\u2581news": 539,
  "\u2581end": 540,
  "\u2581Ni": 541,
  "\u258110": 542,
  "\u2581nene": 543,
  "\u2581k\u00e2": 544,
  "\u2581ayeda": 545,
  "\u2581Foto": 546,
  "\u2581N": 547,
  "\u2581say": 548,
  "\u2581word": 549,
  "\u2581One": 550,
  "\u2581juska": 551,
  "\u2581ka": 552,
  "\u2581where": 553,
  "4:": 554,
  "\u2581Joseph": 555,
  "\u2581most": 556,
  "\u2581londo": 557,
  "\u258121": 558,
  "\u2581C": 559,
  "\u2581each": 560,
  "\u2581important": 561,
  "\u2581course": 562,
  "\u2581temple": 563,
  "\u2581preaching": 564,
  "\u2581long": 565,
  "\u2581upon": 566,
  "\u25812.": 567,
  "\u2581agbu": 568,
  "\u2581congr\u00e9gation": 569,
  "\u2581pusu": 570,
  "\u2581zingo": 571,
  "\u258110.": 572,
  "\u2581Psaume": 573,
  "\u2581let": 574,
  "\u2581though": 575,
  "\u2581disciples": 576,
  "\u2581TI": 577,
  "\u2581mind": 578,
  "\u2581never": 579,
  "\u2581hope": 580,
  "\u2581Gbia": 581,
  "\u2581Nga": 582,
  "\u2581ota": 583,
  "\u2581am": 584,
  "\u2581pens\u00e9": 585,
  "\u25814.": 586,
  "\u2581read": 587,
  "\u2581serve": 588,
  "\u2581under": 589,
  "\u2581same": 590,
  "\u258118": 591,
  "\u2581B\u00e2": 592,
  "\u2581Fade": 593,
  "\u2581ambeti": 594,
  "\u2581S": 595,
  "\u2581nze": 596,
  "\u2581book": 597,
  "\u2581consider": 598,
  "\u2581akui": 599,
  "\u2581service": 600,
  "\u2581asioni": 601,
  "\u2581knowledge": 602,
  "\u2581ways": 603,
  "\u2581kobela": 604,
  "\u2581After": 605,
  "\u2581became": 606,
  "\u2581home": 607,
  "\u2581w\u00e2": 608,
  "\u2581Mo\u00efse": 609,
  "\u2581came": 610,
  "\u2581Psalm": 611,
  "\u2581gbata": 612,
  "\u2581view": 613,
  "\u2581asigigi": 614,
  "\u258110:": 615,
  "\u2581every": 616,
  "\u2581among": 617,
  "\u2581buku": 618,
  "\u2581days": 619,
  "\u2581servants": 620,
  "\u2581used": 621,
  "\u2581At": 622,
  "\u2581lisoro": 623,
  "\u2581wife": 624,
  "\u2581given": 625,
  "\u2581gbia": 626,
  "\u2581Some": 627,
  "\u2581Molenge": 628,
  "\u2581want": 629,
  "\u2581sigigi": 630,
  "\u2581tara": 631,
  "\u00e2": 632,
  "\u25818.": 633,
  "\u258112.": 634,
  "\u2581power": 635,
  "\u2581told": 636,
  "\u258114.": 637,
  "\u2581son": 638,
  "\u2581..\"": 639,
  "Mbi": 640,
  "\u2581bat\u00eame": 641,
  "\u2581doing": 642,
  "\u258111.": 643,
  "\u258125": 644,
  "\u2581as\u00fb": 645,
  "\u2581Kota": 646,
  "\u2581Scriptures": 647,
  "\u2581loving": 648,
  "\u2581Legeoko": 649,
  "\u2581too": 650,
  "\u2581year": 651,
  "\u2581By": 652,
  "\u25815.": 653,
  "\u2581live": 654,
  "\u2581back": 655,
  "\u2581away": 656,
  "\u2581Matthieu": 657,
  "\u2581voro": 658,
  "\u258122": 659,
  "Eternel": 660,
  "\u2581wungo": 661,
  "\u2581gave": 662,
  "\u2581kongregation": 663,
  "\u2581de": 664,
  "\u2581fellow": 665,
  "\u25819.": 666,
  "\u2581King": 667,
  "\u2581Daniel": 668,
  "\u2581dabe": 669,
  "\u2581Matthew": 670,
  "\u2581T\u00e9moin": 671,
  "\u258113.": 672,
  "\u2581amu": 673,
  "\u2581Our": 674,
  "\u258116.": 675,
  "\u258117.": 676,
  "\u2581peace": 677,
  "\u2581down": 678,
  "\u25816:": 679,
  "\u2581during": 680,
  "\u2581set": 681,
  "\u25816.": 682,
  "\u2581pasi": 683,
  "\u2581making": 684,
  "\u2581His": 685,
  "\u2581Fa": 686,
  "\u2581bring": 687,
  "\u2581vulu": 688,
  "\u25817.": 689,
  "\u2581whom": 690,
  "\u2581tokua": 691,
  "The": 692,
  "\u2581Is": 693,
  "\u2581anzere": 694,
  "\u2581often": 695,
  "\u2581get": 696,
  "\u2581nzobe": 697,
  "\u258115.": 698,
  "\u2581ade": 699,
  "\u2581century": 700,
  "\u2581later": 701,
  "\u2581Yes": 702,
  "\u2581aJuif": 703,
  "\u2581themselves": 704,
  "\u2581komandema": 705,
  "\u2581mba": 706,
  "\u2581kangbi": 707,
  "\u2581living": 708,
  "\u2581m\u00ea": 709,
  "\u2581humans": 710,
  "\u2581Son": 711,
  "\u2581abab\u00e2": 712,
  "\u2581desizion": 713,
  "\u2581mankind": 714,
  "\u2581zendo": 715,
  "\u2581anointed": 716,
  "\u2581purpose": 717,
  "\u2581s": 718,
  "\u2581began": 719,
  "\u2581nzere": 720,
  "\u2581mosoro": 721,
  "\u2581No": 722,
  "\u2581nzapa": 723,
  "\u2581ange": 724,
  "\u2581d\u00fc": 725,
  "\u2581prayer": 726,
  "\u2581mbito": 727,
  "\u2581sin": 728,
  "\u2581able": 729,
  "\u2581On": 730,
  "\u2581personal": 731,
  "\u2581reason": 732,
  "\u2581however": 733,
  "\u2581ato": 734,
  "\u2581full": 735,
  "\u2581still": 736,
  "\u258128": 737,
  "kozo": 738,
  "\u2581always": 739,
  "\u2581heaven": 740,
  "\u2581house": 741,
  "\u25813.": 742,
  "\u2581awali": 743,
  "\u2581hand": 744,
  "\u2581order": 745,
  "\u2581three": 746,
  "\u2581With": 747,
  "\u2581futi": 748,
  "\u2581bazengele": 749,
  "\u2581called": 750,
  "\u2581joy": 751,
  "\u2581regard": 752,
  "\u2581Moses": 753,
  "\u2581te": 754,
  "\u2581nduzu": 755,
  "\u2581marriage": 756,
  "\u2581alege": 757,
  "\u2581fact": 758,
  "\u2581old": 759,
  "\u2581result": 760,
  "\u2581counsel": 761,
  "\u2581keke": 762,
  "n": 763,
  "\u2581mitele": 764,
  "\u2581buba": 765,
  "\u2581futa": 766,
  "\u2581wicked": 767,
  "\u258123": 768,
  "\u2581amara": 769,
  "\u2581'.": 770,
  "\u2581toward": 771,
  "\u2581brother": 772,
  "\u2581Israelites": 773,
  "\u2581father": 774,
  "\u2581J\u00e9rusalem": 775,
  "\u2581without": 776,
  "\u2581future": 777,
  "\u2581ge": 778,
  "\u2581Yet": 779,
  "\u2581chang\u00e9": 780,
  "Read": 781,
  "\u2581Jerusalem": 782,
  "\u2581luti": 783,
  "Diko": 784,
  "\u2581Ndia": 785,
  "\u2581There": 786,
  "\u2581kamarade": 787,
  "\u2581meetings": 788,
  "\u2581kirikiri": 789,
  "\u2581questions": 790,
  "\u2581Kusala": 791,
  "\u2581f\u00e4": 792,
  "\u2581maseka": 793,
  "\u2581took": 794,
  "sungo": 795,
  "\u2581Then": 796,
  "\u2581asked": 797,
  "\u2581Peu": 798,
  "kete": 799,
  "\u2581Isaiah": 800,
  "\u2581gere": 801,
  "\u2581heavenly": 802,
  "\u25813,": 803,
  "\u2581elders": 804,
  "\u2581Many": 805,
  "\u2581both": 806,
  "\u2581something": 807,
  "\u2581Even": 808,
  "\u2581having": 809,
  "\u2581She": 810,
  "\u2581face": 811,
  "\u2581ngb\u00e2a": 812,
  "\u2581singila": 813,
  "\u2581s\u00f6": 814,
  "\u2581message": 815,
  "\u2581ngonzo": 816,
  "\u2581relationship": 817,
  "\u2581akoli": 818,
  "\u2581Let": 819,
  "\u2581while": 820,
  "\u2581agi": 821,
  "\u2581aluti": 822,
  "\u2581ourselves": 823,
  "\u2581NA": 824,
  "\u2581kode": 825,
  "\u2581azi": 826,
  "\u2581wisdom": 827,
  "\u2581Ba": 828,
  "\u2581\u00e2nd\u00f6": 829,
  "\u2581d\u00eb": 830,
  "\u2581conduct": 831,
  "\u2581experience": 832,
  "\u2581Ndo": 833,
  "\u2581nzo": 834,
  "\u2581share": 835,
  "\u2581From": 836,
  "\u2581helped": 837,
  "\u2581benefit": 838,
  "\u258118.": 839,
  "\u2581together": 840,
  "\u2581really": 841,
  "\u2581think": 842,
  "\u2581Seigneur": 843,
  "\u2581Wa": 844,
  "\u2581pika": 845,
  "\u2581woman": 846,
  "S": 847,
  "\u2581righteous": 848,
  "\u2581mandango": 849,
  "\u2581hunzi": 850,
  "\u2581matabisi": 851,
  "\u2581someone": 852,
  "\u2581needed": 853,
  "\u2581ter\u00ea": 854,
  "\u2581teaching": 855,
  "\u2581look": 856,
  "\u25819,": 857,
  "\u2581gloire": 858,
  "\u2581sacrifice": 859,
  "\u2581close": 860,
  "\u2581New": 861,
  "y": 862,
  "\u2581ando": 863,
  "\u2581learned": 864,
  "\u2581husband": 865,
  "\u2581between": 866,
  "\u2581girisa": 867,
  "\u258124:": 868,
  "\u25815,": 869,
  "\u2581akodoro": 870,
  "\u2581nations": 871,
  "\u2581continue": 872,
  "\u2581Timoth\u00e9e": 873,
  "\u2581Mingi": 874,
  "\u2581felt": 875,
  "\u258119.": 876,
  "\u2581Da": 877,
  "\u2581fine": 878,
  "\u2581ask": 879,
  "\u2581desire": 880,
  "\u2581tiri": 881,
  "\u2581W": 882,
  "\u2581happy": 883,
  "\u2581kindness": 884,
  "\u2581language": 885,
  "\u2581M": 886,
  "al": 887,
  "\u2581akanga": 888,
  "\u2581Rome": 889,
  "\u2581Jacob": 890,
  "\u2581Lord": 891,
  "\u258130": 892,
  "\u2581possible": 893,
  "na": 894,
  "\u2581B": 895,
  "\u2581Timothy": 896,
  "\u2581mba\u00ef": 897,
  "\u2581done": 898,
  "\u2581eyes": 899,
  "\u2581religious": 900,
  "\u2581Gi": 901,
  "hose": 902,
  "\u258124": 903,
  "\u2581fear": 904,
  "\u2581gingo": 905,
  "\u2581matter": 906,
  "\u2581lives": 907,
  "\u2581support": 908,
  "\u2581gonda": 909,
  "\u2581handa": 910,
  "\u2581Diko": 911,
  "\u2581serving": 912,
  "\u2581tell": 913,
  "\u2581best": 914,
  "ther": 915,
  "\u2581avoid": 916,
  "o": 917,
  "\u2581mother": 918,
  "\u2581Law": 919,
  "\u2581baptized": 920,
  "\u2581hard": 921,
  "\u2581t\u00ef": 922,
  "\u2581wise": 923,
  "\u2581m\u00ean\u00eb": 924,
  "\u2581bad": 925,
  "\u2581ever": 926,
  "\u2581attitude": 927,
  "\u2581care": 928,
  "\u2581Luc": 929,
  "\u2581Kete": 930,
  "\u2581Sara": 931,
  "\u2581giving": 932,
  "\u2581tongo": 933,
  "\u2581following": 934,
  "\u2581last": 935,
  "\u2581free": 936,
  "\u2581answer": 937,
  "\u2581apendere": 938,
  "\u2581atara": 939,
  "\u2581present": 940,
  "\u2581understand": 941,
  "\u2581again": 942,
  "\u2581cannot": 943,
  "\u2581city": 944,
  "\u2581Luke": 945,
  "\u2581yongoro": 946,
  "\u2581ninga": 947,
  "Bazengele": 948,
  "\u2581system": 949,
  "\u2581Laso": 950,
  "\u2581akpe": 951,
  "\u2581receive": 952,
  "\u2581All": 953,
  "\u2581Because": 954,
  "\u2581left": 955,
  "\u2581Consider": 956,
  "\u2581Acts": 957,
  "Tongana": 958,
  "\u2581child": 959,
  "\u2581Read": 960,
  "\u2581Tene": 961,
  "\u2581ma\u00ef": 962,
  "\u2581respect": 963,
  "\u2581Ngu": 964,
  "\u2581moved": 965,
  "\u2581sense": 966,
  "\u2581king": 967,
  "\u2581prophet": 968,
  "\u258129": 969,
  "\u2581dengo": 970,
  "\u2581enjoy": 971,
  "\u2581went": 972,
  "\u2581wataka": 973,
  "\u2581These": 974,
  "\u2581mean": 975,
  "\u258112:": 976,
  "\u2581certain": 977,
  "\u2581law": 978,
  "\u2581food": 979,
  "\u2581bongo": 980,
  "\u2581self": 981,
  "\u2581account": 982,
  "\u2581members": 983,
  "\u2581received": 984,
  "\u25814,": 985,
  "\u2581act": 986,
  "\u2581number": 987,
  "\u2581few": 988,
  "\u2581akusala": 989,
  "\u2581alango": 990,
  "\u2581Devil": 991,
  "\u2581ad\u00eb": 992,
  "\u258126": 993,
  "\u2581royaume": 994,
  "Na": 995,
  "\u2581proph\u00e9tie": 996,
  "\u2581yaka": 997,
  "\u2581speak": 998,
  "\u258120.": 999,
  "\u2581attention": 1000,
  "\u2581Jews": 1001,
  "\u2581situation": 1002,
  "\u2581abata": 1003,
  "\u2581yet": 1004,
  "\u2581lead": 1005,
  "\u2581kind": 1006,
  "\u2581Nde": 1007,
  "\u2581Proverbs": 1008,
  "\u2581little": 1009,
  "\u2581nor": 1010,
  "\u2581saying": 1011,
  "\u2581Corinthians": 1012,
  "\u2581different": 1013,
  "\u2581O": 1014,
  "\u2581known": 1015,
  "\u2581thus": 1016,
  "\u2581follow": 1017,
  "\u2581D": 1018,
  "\u2581followers": 1019,
  "\u2581sure": 1020,
  "\u2581Apocalypse": 1021,
  "\u2581point": 1022,
  "\u2581Thus": 1023,
  "\u2581kiringo": 1024,
  "\u2581remain": 1025,
  "\u258112,": 1026,
  "\u2581tingbi": 1027,
  "\u2581everlasting": 1028,
  "\u2581pionnier": 1029,
  "\u2581far": 1030,
  "\u2581near": 1031,
  "\u2581case": 1032,
  "\u2581resurrection": 1033,
  "\u2581ancient": 1034,
  "\u2581My": 1035,
  "\u2581ekole": 1036,
  "\u2581spiritually": 1037,
  "\u2581trust": 1038,
  "\u258127": 1039,
  "\u2581at\u00ef": 1040,
  "\u2581Be": 1041,
  "\u2581suffering": 1042,
  "\u2581brought": 1043,
  "\u2581better": 1044,
  "\u2581pray": 1045,
  "\u2581saw": 1046,
  "\u2581vers\u00ea": 1047,
  "\u2581needs": 1048,
  "\u2581Although": 1049,
  "\u2581ndu": 1050,
  "\u2581knew": 1051,
  "\u2581along": 1052,
  "\u2581righteousness": 1053,
  "\u2581problems": 1054,
  "\u2581works": 1055,
  "\u2581aturugu": 1056,
  "\u2581sheep": 1057,
  "\u2581since": 1058,
  "\u258121.": 1059,
  "\u2581gboto": 1060,
  "\u2581believe": 1061,
  "\u2581individuals": 1062,
  "\u2581real": 1063,
  "\u258131": 1064,
  "\u2581Of": 1065,
  "\u2581af\u00e2": 1066,
  "\u2581Kozo": 1067,
  "\u2581Who": 1068,
  "\u2581singo": 1069,
  "\u2581land": 1070,
  "\u2581next": 1071,
  "\u2581whole": 1072,
  "\u2581aCorinthien": 1073,
  "\u2581off": 1074,
  "\u2581andia": 1075,
  "\u2581early": 1076,
  "\u2581No\u00e9": 1077,
  "\u2581Revelation": 1078,
  "\u2581angoi": 1079,
  "\u2581l\u00eb": 1080,
  "\u2581yourself": 1081,
  "\u2581principles": 1082,
  "\u2581thought": 1083,
  "\u2581dead": 1084,
  "\u2581nation": 1085,
  "\u2581Tour": 1086,
  "\u2581question": 1087,
  "\u2581Watchtower": 1088,
  "\u2581lekengo": 1089,
  "\u2581lengo": 1090,
  "\u2581difficult": 1091,
  "\u2581thinking": 1092,
  "uch": 1093,
  "\u2581agboto": 1094,
  "\u2581apostles": 1095,
  "\u2581qualities": 1096,
  "\u2581wrong": 1097,
  "\u2581blood": 1098,
  "\u2581feelings": 1099,
  "\u2581turn": 1100,
  "\u2581until": 1101,
  "\u2581apika": 1102,
  "\u2581teach": 1103,
  "\u258116,": 1104,
  "\u2581Samuel": 1105,
  "\u2581proph\u00e8te": 1106,
  "\u2581strong": 1107,
  "\u2581aRomain": 1108,
  "\u2581mawa": 1109,
  "\u2581Greek": 1110,
  "\u2581Romans": 1111,
  "\u2581Salomon": 1112,
  "\u2581B\u00ea": 1113,
  "\u2581allow": 1114,
  "\u2581kite": 1115,
  "\u258133": 1116,
  "\u2581kingdom": 1117,
  "\u2581osio": 1118,
  "\u2581bale": 1119,
  "\u2581slave": 1120,
  "\u258140": 1121,
  "\u2581Since": 1122,
  "\u2581friends": 1123,
  "\u2581states": 1124,
  "\u2581asambela": 1125,
  "\u2581cause": 1126,
  "\u2581disciple": 1127,
  "\u2581Your": 1128,
  "\u25812,": 1129,
  "\u2581especially": 1130,
  "\u2581makes": 1131,
  "\u2581beoko": 1132,
  "\u2581Does": 1133,
  "\u2581ne": 1134,
  "\u2581Solomon": 1135,
  "\u2581amama": 1136,
  "\u2581matters": 1137,
  "\u2581sa": 1138,
  "\u2581More": 1139,
  "\u2581died": 1140,
  "\u2581matanga": 1141,
  "\u2581imitate": 1142,
  "\u2581Eve": 1143,
  "\u2581women": 1144,
  "\u2581NW": 1145,
  "\u2581divine": 1146,
  "\u2581Rather": 1147,
  "\u2581gives": 1148,
  "\u2581sons": 1149,
  "\u2581likely": 1150,
  "\u2581provide": 1151,
  "\u2581amaseka": 1152,
  "\u2581andoye": 1153,
  "\u2581akamarade": 1154,
  "\u2581aProverbe": 1155,
  "\u2581gift": 1156,
  "Fade": 1157,
  "\u2581aba": 1158,
  "\u2581perfect": 1159,
  "\u258123.": 1160,
  "\u2581James": 1161,
  "\u258113,": 1162,
  "\u2581light": 1163,
  "\u2581abi": 1164,
  "\u2581age": 1165,
  "\u2581taught": 1166,
  "\u2581taking": 1167,
  "\u2581special": 1168,
  "\u2581certainly": 1169,
  "\u2581Noah": 1170,
  "\u2581wakua": 1171,
  "\u2581happiness": 1172,
  "\u2581Are": 1173,
  "\u2581false": 1174,
  "\u2581kutu": 1175,
  "\u2581soon": 1176,
  "\u2581batango": 1177,
  "\u2581body": 1178,
  "\u2581angangu": 1179,
  "\u2581whe": 1180,
  "\u2581Scriptural": 1181,
  "\u2581prayers": 1182,
  "\u2581sisters": 1183,
  "\u2581gango": 1184,
  "\u2581sent": 1185,
  "\u2581Can": 1186,
  "\u2581comes": 1187,
  "fini": 1188,
  "\u2581reading": 1189,
  "\u2581Ahon": 1190,
  "\u2581married": 1191,
  "\u2581inspired": 1192,
  "\u2581material": 1193,
  "\u2581strength": 1194,
  "\u2581war": 1195,
  "\u2581Would": 1196,
  "\u2581around": 1197,
  "\u2581blessings": 1198,
  "\u2581high": 1199,
  "\u2581komanse": 1200,
  "\u2581awato": 1201,
  "C": 1202,
  "\u2581heard": 1203,
  "\u2581shows": 1204,
  "\u2581At\u00ebn\u00eb": 1205,
  "\u2581aH\u00e9breu": 1206,
  "\u2581wanted": 1207,
  "\u2581effort": 1208,
  "\u2581loyal": 1209,
  "\u2581religion": 1210,
  "\u2581prophecy": 1211,
  "\u2581sandaga": 1212,
  "\u2581abazengele": 1213,
  "\u2581circumstances": 1214,
  "\u2581kungba": 1215,
  "\u2581ngele": 1216,
  "\u2581similar": 1217,
  "\u2581l\u00ef": 1218,
  "\u2581Ps": 1219,
  "....": 1220,
  "\u2581anyama": 1221,
  "\u2581Zabolo": 1222,
  "\u2581four": 1223,
  "t\u00eft\u00ee": 1224,
  "\u2581change": 1225,
  "\u2581examples": 1226,
  "\u2581provided": 1227,
  "\u2581Yingo": 1228,
  "\u2581witness": 1229,
  "\u2581coming": 1230,
  "Mo": 1231,
  "hile": 1232,
  "\u258115,": 1233,
  "\u2581Hebrews": 1234,
  "\u2581truly": 1235,
  "\u258122.": 1236,
  "\u2581World": 1237,
  "\u2581Kozoni": 1238,
  "\u2581anze": 1239,
  "\u2581clear": 1240,
  "\u2581going": 1241,
  "\u2581kekereke": 1242,
  "\u2581draw": 1243,
  "\u2581image": 1244,
  "\u2581b\u00ef": 1245,
  "\u2581mvene": 1246,
  "espite": 1247,
  "\u2581forever": 1248,
  "\u2581gbian": 1249,
  "\u2581including": 1250,
  "\u2581Like": 1251,
  "\u2581loved": 1252,
  "\u2581wonderful": 1253,
  "\u2581Today": 1254,
  "\u2581nothing": 1255,
  "\u2581kengo": 1256,
  "\u258137": 1257,
  "\u2581Ngoi": 1258,
  "\u2581blessing": 1259,
  "\u2581hiri": 1260,
  "\u2581al\u00ef": 1261,
  "B\u00e2": 1262,
  "\u2581Not": 1263,
  "\u2581accept": 1264,
  "\u2581Kue": 1265,
  "\u2581money": 1266,
  "\u2581abuba": 1267,
  "\u2581Creator": 1268,
  "\u2581ayo": 1269,
  "\u2581involved": 1270,
  "\u2581talk": 1271,
  "\u2581understanding": 1272,
  "\u258117,": 1273,
  "\u2581mentioned": 1274,
  "chapitre": 1275,
  "\u2581M\u00eame": 1276,
  "\u00c9ternel": 1277,
  "\u2581Gen\u00e8se": 1278,
  "\u2581fully": 1279,
  "\u2581seen": 1280,
  "\u2581thing": 1281,
  "\u2581nyon": 1282,
  "\u2581rule": 1283,
  "\u2581THE": 1284,
  "\u2581ndani": 1285,
  "\u2581mbakoro": 1286,
  "Ala": 1287,
  "\u2581bia": 1288,
  "\u2581glory": 1289,
  "yanga": 1290,
  "\u2581return": 1291,
  "\u2581small": 1292,
  "\u2581Grec": 1293,
  "\u2581sister": 1294,
  "\u2581toto": 1295,
  "\u2581privilege": 1296,
  "\u2581shall": 1297,
  "Nzapa": 1298,
  "\u2581Messie": 1299,
  "\u2581believers": 1300,
  "\u00e2n": 1301,
  "\u2581amanda": 1302,
  "\u2581decisions": 1303,
  "\u2581authority": 1304,
  "\u2581information": 1305,
  "\u2581meaning": 1306,
  "\u2581second": 1307,
  "\u2581ad\u00f6": 1308,
  "\u2581showed": 1309,
  "\u2581comfort": 1310,
  "\u2581g\u00ef": 1311,
  "\u2581aninga": 1312,
  "\u2581bingo": 1313,
  "\u2581Jacques": 1314,
  "\u2581interest": 1315,
  "\u2581school": 1316,
  "\u2581Genesis": 1317,
  "\u2581control": 1318,
  "\u2581J\u00e9r\u00e9mie": 1319,
  "\u2581group": 1320,
  "\u2581preach": 1321,
  "\u2581confidence": 1322,
  "\u2581haka": 1323,
  "\u2581promise": 1324,
  "\u2581Oko": 1325,
  "\u2581stand": 1326,
  "You": 1327,
  "\u2581promises": 1328,
  "\u2581therefore": 1329,
  "\u2581based": 1330,
  "\u2581deba": 1331,
  "\u2581water": 1332,
  "\u2581organization": 1333,
  "\u2581congregations": 1334,
  "\u2581greater": 1335,
  "\u258124.": 1336,
  "\u2581Hebrew": 1337,
  "\u2581Pictures": 1338,
  "\u2581night": 1339,
  "\u2581integrity": 1340,
  "\u2581standards": 1341,
  "Jehovah": 1342,
  "\u2581anyone": 1343,
  "\u258118,": 1344,
  "\u258132": 1345,
  "\u2581try": 1346,
  "\u2581aku\u00e2": 1347,
  "\u2581psaume": 1348,
  "\u2581kono": 1349,
  "\u2581gain": 1350,
  "\u2581nyama": 1351,
  "\u2581seni": 1352,
  "dali": 1353,
  "\u2581d": 1354,
  "\u2581heavens": 1355,
  "\u2581Dur": 1356,
  "\u2581efforts": 1357,
  "\u2581kept": 1358,
  "\u2581opportunity": 1359,
  "\u2581honor": 1360,
  "\u2581Ruth": 1361,
  "\u2581angels": 1362,
  "\u2581ransom": 1363,
  "\u2581H\u00e9breu": 1364,
  "\u2581Jeremiah": 1365,
  "\u2581\u00e2me": 1366,
  "\u2581deep": 1367,
  "\u2581further": 1368,
  "\u2581powerful": 1369,
  "\u2581saki": 1370,
  "\u2581taken": 1371,
  "\u2581maintain": 1372,
  "\u2581past": 1373,
  "\u2581Lege": 1374,
  "\u2581judgment": 1375,
  "\u2581ahunzi": 1376,
  "\u2581pupu": 1377,
  "\u2581evidence": 1378,
  "\u2581once": 1379,
  "\u2581remember": 1380,
  "\u2581Footnote": 1381,
  "\u2581hearts": 1382,
  "azo": 1383,
  "\u2581achang\u00e9": 1384,
  "\u2581lu": 1385,
  "\u2581prove": 1386,
  "\u2581Will": 1387,
  "\u2581sango": 1388,
  "gbele": 1389,
  "\u2581effect": 1390,
  "\u2581move": 1391,
  "\u2581Babylone": 1392,
  "\u2581godly": 1393,
  "\u2581please": 1394,
  "th": 1395,
  "\u2581avers\u00ea": 1396,
  "\u2581meeting": 1397,
  "\u2581pioneer": 1398,
  "\u2581according": 1399,
  "\u2581apply": 1400,
  "\u2581000": 1401,
  "\u2581psalmist": 1402,
  "\u2581strengthen": 1403,
  "\u2581Isaac": 1404,
  "\u2581Ita": 1405,
  "\u2581le": 1406,
  ",...": 1407,
  "st": 1408,
  "\u2581covenant": 1409,
  "\u2581vital": 1410,
  "er": 1411,
  "\u2581listen": 1412,
  "\u2581doubt": 1413,
  "\u2581Esa\u00efe": 1414,
  "\u2581atambela": 1415,
  "\u2581hundango": 1416,
  "\u2581Mara": 1417,
  "\u2581asoro": 1418,
  "\u2581direction": 1419,
  "\u2581mbele": 1420,
  "\u2581Saul": 1421,
  "\u2581call": 1422,
  "\u2581appointed": 1423,
  "\u2581soul": 1424,
  "Zo": 1425,
  "\u2581already": 1426,
  "\u2581visit": 1427,
  "\u2581Still": 1428,
  "\u2581conscience": 1429,
  "\u2581decision": 1430,
  "\u2581gunda": 1431,
  "\u2581helps": 1432,
  "\u2581lived": 1433,
  "\u2581rather": 1434,
  "See": 1435,
  "\u2581k\u00e4": 1436,
  "\u2581Hence": 1437,
  "\u2581value": 1438,
  "\u2581lungula": 1439,
  "\u2581willing": 1440,
  "\u2581deal": 1441,
  "\u2581akua": 1442,
  "\u2581speaking": 1443,
  "\u2581spoke": 1444,
  "\u2581Use": 1445,
  "\u2581large": 1446,
  "\u2581Ka": 1447,
  "\u2581health": 1448,
  "\u2581leave": 1449,
  "\u2581Sese": 1450,
  "\u2581atokua": 1451,
  "\u2581written": 1452,
  "\u2581serious": 1453,
  "\u2581local": 1454,
  "\u2581started": 1455,
  "\u2581using": 1456,
  "\u2581Instead": 1457,
  "\u2581anything": 1458,
  "\u2581earthly": 1459,
  "\u2581yekia": 1460,
  "\u2581flesh": 1461,
  "\u2581Indeed": 1462,
  "\u2581lost": 1463,
  "\u2581physical": 1464,
  "\u2581determined": 1465,
  "\u2581hold": 1466,
  "\u2581older": 1467,
  "\u2581SO": 1468,
  "\u2581Sala": 1469,
  "\u2581events": 1470,
  "\u2581B\u00e9thel": 1471,
  "\u2581appreciate": 1472,
  "\u2581diskur": 1473,
  "\u2581Fini": 1474,
  "\u2581simply": 1475,
  "\u2581lumi\u00e8re": 1476,
  "\u2581public": 1477,
  "\u2581sins": 1478,
  "\u2581hange": 1479,
  "\u2581vo": 1480,
  "ngba": 1481,
  "\u2581foretold": 1482,
  "in": 1483,
  "\u2581angoro": 1484,
  "\u2581form": 1485,
  "\u2581reflect": 1486,
  "\u2581Their": 1487,
  "\u25aa": 1488,
  "\u2581Nda": 1489,
  "\u2581instance": 1490,
  "\u2581longer": 1491,
  "\u2581stated": 1492,
  "God": 1493,
  "over": 1494,
  "\u2581chapter": 1495,
  "\u2581served": 1496,
  "\u2581Juda": 1497,
  "\u2581here": 1498,
  "\u2581mbasambala": 1499,
  "\u2581raison": 1500,
  "\u2581promised": 1501,
  "\u2581harmony": 1502,
  "\u2581offer": 1503,
  "\u258125.": 1504,
  "\u2581field": 1505,
  "\u2581Now": 1506,
  "\u2581affect": 1507,
  "\u2581forth": 1508,
  "\u2581appreciation": 1509,
  "\u2581baptism": 1510,
  "\u2581continued": 1511,
  "\u2581praise": 1512,
  "\u2581seek": 1513,
  "\u2581thoughts": 1514,
  "\u2581born": 1515,
  "\u2581mango": 1516,
  "\u2581recorded": 1517,
  "\u2581couple": 1518,
  "\u2581Afoto": 1519,
  "\u2581Jewish": 1520,
  "\u2581Marie": 1521,
  "\u2581hands": 1522,
  "\u2581perhaps": 1523,
  "\u2581Ngangu": 1524,
  "\u2581awango": 1525,
  "ti": 1526,
  "\u2581influence": 1527,
  "\u2581Therefore": 1528,
  "\u2581pasa": 1529,
  "\u2581droit": 1530,
  "\u2581hear": 1531,
  "\u2581honde": 1532,
  "\u2581Did": 1533,
  "\u2581complete": 1534,
  "\u2581got": 1535,
  "\u2581trials": 1536,
  "\u2581wants": 1537,
  "\u25816,": 1538,
  "\u2581country": 1539,
  "\u2581ane": 1540,
  "\u2581precious": 1541,
  "\u2581proved": 1542,
  "\u2581respond": 1543,
  "\u2581courage": 1544,
  "\u2581foto": 1545,
  "\u2581friend": 1546,
  "ting": 1547,
  "\u2581walk": 1548,
  "\u2581meet": 1549,
  "\u2581ngasangbaga": 1550,
  "\u2581letter": 1551,
  "\u2581oku": 1552,
  "\u2581Nzoni": 1553,
  "\u2581start": 1554,
  "\u2581Egypt": 1555,
  "\u2581activities": 1556,
  "\u2581ada": 1557,
  "\u2581guengo": 1558,
  "\u2581head": 1559,
  "\u2581offered": 1560,
  "\u2581pardone": 1561,
  "\u2581experienced": 1562,
  "\u2581within": 1563,
  "\u2581ability": 1564,
  "\u2581agbia": 1565,
  "\u2581Judah": 1566,
  "),": 1567,
  "\u2581libert\u00e9": 1568,
  "\u2581salvation": 1569,
  "\u2581Wala": 1570,
  "\u2581build": 1571,
  "\u2581True": 1572,
  "\u2581die": 1573,
  "\u2581guidance": 1574,
  "\u2581happened": 1575,
  "\u2581role": 1576,
  "\u2581May": 1577,
  "\u2581explained": 1578,
  "\u2581action": 1579,
  "\u2581considered": 1580,
  "\u2581answers": 1581,
  "\u2581teachings": 1582,
  "\u2581An": 1583,
  "\u2581everything": 1584,
  "\u258134": 1585,
  "\u2581Roman": 1586,
  "\u2581concern": 1587,
  "\u2581kpengo": 1588,
  "\u2581led": 1589,
  "\u2581accepted": 1590,
  "\u2581actions": 1591,
  "\u2581apens\u00e9": 1592,
  "\u2581history": 1593,
  "\u25818,": 1594,
  "\u2581obey": 1595,
  "\u2581helping": 1596,
  "\u2581yamba": 1597,
  "to": 1598,
  "\u2581Duti": 1599,
  "\u2581alone": 1600,
  "\u2581clearly": 1601,
  "\u2581kamene": 1602,
  "\u2581training": 1603,
  "\u2581yenga": 1604,
  "less": 1605,
  "\u00ea": 1606,
  "\u2581awoko": 1607,
  "\u2581Mary": 1608,
  "\u258114,": 1609,
  "\u2581R": 1610,
  "\u2581endure": 1611,
  "\u2581responsibility": 1612,
  "\u2581Amerika": 1613,
  "\u2581France": 1614,
  "\u2581available": 1615,
  "\u2581mokonzi": 1616,
  "\u2581akpa": 1617,
  "\u2581fulfillment": 1618,
  "\u2581pages": 1619,
  "\u2581Watch": 1620,
  "\u2581published": 1621,
  "\u2581amokonzi": 1622,
  "\u2581issue": 1623,
  "\u2581ngbangb": 1624,
  "\u2581whose": 1625,
  "so": 1626,
  "\u2581Bethel": 1627,
  "\u2581airi": 1628,
  "\u2581imperfect": 1629,
  "\u2581ka\u00ef": 1630,
  "\u2581adabe": 1631,
  "\u2581held": 1632,
  "\u2581omene": 1633,
  "\u2581People": 1634,
  "\u2581common": 1635,
  "\u2581poor": 1636,
  "mandango": 1637,
  "w": 1638,
  "\u2581salut": 1639,
  "\u258150": 1640,
  "\u2581First": 1641,
  "\u2581evil": 1642,
  "\u2581hoto": 1643,
  "\u2581h\u00e9ritier": 1644,
  "\u2581various": 1645,
  "\u2581Messiah": 1646,
  "\u2581akomanse": 1647,
  "\u2581reach": 1648,
  "\u2581Mark": 1649,
  "\u2581express": 1650,
  "\u2581y\u00fc": 1651,
  "\u2581creation": 1652,
  "\u2581Witness": 1653,
  "\u2581akungba": 1654,
  "\u2581else": 1655,
  "\u2581position": 1656,
  "\u2581sepela": 1657,
  "\u2581un": 1658,
  "\u2581advice": 1659,
  "\u2581illustration": 1660,
  "\u2581sioye": 1661,
  "\u2581akode": 1662,
  "\u2581Just": 1663,
  "\u2581Life": 1664,
  "\u2581changed": 1665,
  "\u2581described": 1666,
  "\u2581occasion": 1667,
  "\u2581s\u00e4mba": 1668,
  "\u2581indeed": 1669,
  "\u2581ngben": 1670,
  "\u2581ngere": 1671,
  "\u2581tomba": 1672,
  "\u2581reasons": 1673,
  "\u2581government": 1674,
  "\u2581loro": 1675,
  "\u2581raised": 1676,
  "\u258128.": 1677,
  "\u2581practical": 1678,
  "\u2581moral": 1679,
  "\u258131.": 1680,
  "\u2581See": 1681,
  "\u2581kamba": 1682,
  "\u2581elder": 1683,
  "\u2581provides": 1684,
  "\u2581worldwide": 1685,
  "\u2581Tower": 1686,
  "\u2581subject": 1687,
  "\u2581expression": 1688,
  "\u2581BIBLE": 1689,
  "\u2581pitan": 1690,
  "\u258129.": 1691,
  "\u2581clean": 1692,
  "\u2581woko": 1693,
  "\u2581akomande": 1694,
  "\u2581daily": 1695,
  "\u2581adesizion": 1696,
  "\u2581created": 1697,
  "\u2581destruction": 1698,
  "\u2581showing": 1699,
  "\u2581According": 1700,
  "\u2581itself": 1701,
  "\u2581paradis": 1702,
  "\u2581regular": 1703,
  "\u2581regularly": 1704,
  "\u2581servant": 1705,
  "\u2581futingo": 1706,
  "\u2581nengo": 1707,
  "\u2581Most": 1708,
  "\u2581assignment": 1709,
  "\u2581display": 1710,
  "\u2581proper": 1711,
  "\u2581stay": 1712,
  "\u2581class": 1713,
  "\u2581neither": 1714,
  "\u2581open": 1715,
  "\u2581se": 1716,
  "\u2581100": 1717,
  "\u2581Bungbi": 1718,
  "\u2581poroso": 1719,
  "\u2581takes": 1720,
  "\u2581\u00c8ve": 1721,
  "\u25811914": 1722,
  "\u2581carry": 1723,
  "\u2581enemies": 1724,
  "\u2581modern": 1725,
  "\u2581activity": 1726,
  "\u2581agbian": 1727,
  "\u2581source": 1728,
  "\u2581',": 1729,
  "\u2581akono": 1730,
  "\u2581mapa": 1731,
  "\u2581months": 1732,
  "\u2581nzala": 1733,
  "\u2581Gbu": 1734,
  "\u2581tisa": 1735,
  "\u2581church": 1736,
  "\u2581crowd": 1737,
  "\u2581Later": 1738,
  "\u2581accurate": 1739,
  "\u2581blessed": 1740,
  "\u2581rich": 1741,
  "\u2581actually": 1742,
  "\u2581bear": 1743,
  "\u2581branch": 1744,
  "\u2581desires": 1745,
  "\u2581develop": 1746,
  "\u2581named": 1747,
  "L": 1748,
  "\u2581discipline": 1749,
  "\u2581period": 1750,
  "\u2581seeking": 1751,
  "\u2581Fadeso": 1752,
  "\u2581ago": 1753,
  "\u2581attend": 1754,
  "\u2581results": 1755,
  "\u25817,": 1756,
  "\u2581P": 1757,
  "\u2581biaku": 1758,
  "\u2581laws": 1759,
  "\u2581ABIA": 1760,
  "\u2581\u00c9sa\u00efe": 1761,
  "\u2581'?": 1762,
  "\u2581azendo": 1763,
  "\u2581humble": 1764,
  "\u2581ingo": 1765,
  "\u2581knows": 1766,
  "\u2581choose": 1767,
  "\u2581tribulation": 1768,
  "\u2581grow": 1769,
  "\u2581Josu\u00e9": 1770,
  "\u2581mercy": 1771,
  "\u2581focus": 1772,
  "\u2581force": 1773,
  "\u2581languages": 1774,
  "\u2581working": 1775,
  "\u2581Aita": 1776,
  "\u2581Ndoye": 1777,
  "\u2581warning": 1778,
  "\u2581offrande": 1779,
  "\u2581si\u00e8cle": 1780,
  "J\u00e9hovah": 1781,
  "\u2581area": 1782,
  "\u2581easy": 1783,
  "\u2581\u00c9gypte": 1784,
  "\u2581Love": 1785,
  "\u2581atia": 1786,
  "\u2581explains": 1787,
  "\u2581freedom": 1788,
  "\u2581pain": 1789,
  "\u2581sovereignty": 1790,
  "\u2581Hall": 1791,
  "\u2581SONGS": 1792,
  "\u258170": 1793,
  "\u2581ason": 1794,
  "\u2581speech": 1795,
  "\u2581turugu": 1796,
  "\u258111,": 1797,
  "\u2581nyongo": 1798,
  "\u2581rest": 1799,
  "\u2581behalf": 1800,
  "\u2581everyone": 1801,
  "\u2581individual": 1802,
  "\u258160": 1803,
  "\u2581F": 1804,
  "\u2581justice": 1805,
  "\u2581knowing": 1806,
  "\u2581Have": 1807,
  "\u2581n": 1808,
  "\u258110,": 1809,
  "\u2581Marc": 1810,
  "\u2581baba": 1811,
  "\u2581encouraged": 1812,
  "r": 1813,
  "O": 1814,
  "\u258133.": 1815,
  "\u2581PAGE": 1816,
  "\u2581abibe": 1817,
  "\u2581fulfilled": 1818,
  "\u2581York": 1819,
  "\u2581dikongo": 1820,
  "\u2581d\u00f6": 1821,
  "\u2581learning": 1822,
  "\u2581paradise": 1823,
  "\u2581t\u00ean\u00eb": 1824,
  "\u2581Or": 1825,
  "\u2581unity": 1826,
  "\u2581above": 1827,
  "\u2581birth": 1828,
  "\u2581brings": 1829,
  "\u2581devotion": 1830,
  "\u2581interests": 1831,
  "\u2581prayed": 1832,
  "\u2581students": 1833,
  "\u2581w": 1834,
  "\u2581'..": 1835,
  "\u2581LEMBETI": 1836,
  "\u2581addition": 1837,
  "\u2581appropriate": 1838,
  "\u2581seem": 1839,
  ".)": 1840,
  "embre": 1841,
  "\u2581humility": 1842,
  "\u2581Lot": 1843,
  "\u2581cultivate": 1844,
  "\u2581entire": 1845,
  "\u2581NI": 1846,
  "be": 1847,
  "\u2581allowed": 1848,
  "\u2581ama\u00ef": 1849,
  "\u2581problem": 1850,
  "\u2581Though": 1851,
  "\u2581afami": 1852,
  "\u2581basis": 1853,
  "\u2581earlier": 1854,
  "\u2581encouragement": 1855,
  "\u2581voice": 1856,
  "\u2581Kit": 1857,
  "\u2581United": 1858,
  "\u2581Us": 1859,
  "\u2581becoming": 1860,
  "\u2581tried": 1861,
  "\u2581faced": 1862,
  "\u2581ngbonga": 1863,
  "nzene": 1864,
  "\u2581Matt": 1865,
  "\u2581kodro": 1866,
  "\u2581millions": 1867,
  "\u2581Joshua": 1868,
  "\u2581challenge": 1869,
  "\u2581favor": 1870,
  "\u2581leaders": 1871,
  "\u2581resurrected": 1872,
  "\u2581walking": 1873,
  "\u2581Mat": 1874,
  "\u2581angasangbaga": 1875,
  "\u2581genuine": 1876,
  "\u2581sacrifices": 1877,
  "\u2581Similarly": 1878,
  "\u2581alive": 1879,
  "\u2581met": 1880,
  "\u2581quality": 1881,
  "\u2581warango": 1882,
  "\u2581convention": 1883,
  "\u2581J": 1884,
  "\u2581encourage": 1885,
  "\u2581firm": 1886,
  "\u2581mate": 1887,
  "\u2581missionnaire": 1888,
  "\u2581several": 1889,
  "lo": 1890,
  "\u2581ate": 1891,
  "\u2581command": 1892,
  "\u2581daughter": 1893,
  "\u2581Society": 1894,
  "\u2581hunzingo": 1895,
  "\u2581protect": 1896,
  "\u2581Others": 1897,
  "\u2581decided": 1898,
  "\u2581goal": 1899,
  "\u2581personality": 1900,
  "\u2581acts": 1901,
  "\u2581angel": 1902,
  "\u2581five": 1903,
  "\u2581throughout": 1904,
  "\u2581wande": 1905,
  "\u2581Brother": 1906,
  "\u2581benefits": 1907,
  "\u2581persecution": 1908,
  "m": 1909,
  "\u2581wato": 1910,
  "\u2581behind": 1911,
  "\u2581centuries": 1912,
  "\u2581enable": 1913,
  "\u2581ten": 1914,
  "Lo": 1915,
  "\u2581realize": 1916,
  "Zia": 1917,
  "\u258122,": 1918,
  "\u2581positive": 1919,
  "\u2581priests": 1920,
  "\u2581Tim": 1921,
  "\u2581dedicated": 1922,
  "\u2581turned": 1923,
  "\u2581interested": 1924,
  "\u2581personally": 1925,
  "\u2581y\u00f4": 1926,
  "],": 1927,
  "\u2581enough": 1928,
  "\u2581loyalty": 1929,
  "\u2581office": 1930,
  "\u2581six": 1931,
  "\u2581Another": 1932,
  "\u2581dedication": 1933,
  "\u2581pardon": 1934,
  "\u2581shown": 1935,
  "\u2581Ephesians": 1936,
  "\u2581sacred": 1937,
  "\u2581Keep": 1938,
  "\u2581write": 1939,
  "gingo": 1940,
  "\u2581agirisa": 1941,
  "\u2581beyond": 1942,
  "\u2581lesson": 1943,
  "org": 1944,
  "\u2581benda": 1945,
  "\u2581expect": 1946,
  "\u2581greatest": 1947,
  "\u2581caused": 1948,
  "\u2581goals": 1949,
  "\u2581happen": 1950,
  "\u2581include": 1951,
  "\u2581single": 1952,
  "\u2581books": 1953,
  "\u2581tree": 1954,
  "\u2581Babylon": 1955,
  "\u2581Before": 1956,
  "\u2581eat": 1957,
  "\u2581exercise": 1958,
  "\u2581ndokua": 1959,
  "\u2581prison": 1960,
  "\u2581kapa": 1961,
  "\u2581stop": 1962,
  "If": 1963,
  "\u2581enjoyed": 1964,
  "\u2581publications": 1965,
  "\u2581t\u00e9moin": 1966,
  "\u2581Holy": 1967,
  "\u2581fruit": 1968,
  "\u2581general": 1969,
  "\u2581suffer": 1970,
  "\u2581ahead": 1971,
  "\u2581buze": 1972,
  "senge": 1973,
  "\u258127.": 1974,
  "\u2581Great": 1975,
  "\u2581arrangement": 1976,
  "\u2581lands": 1977,
  "i": 1978,
  "\u2581myself": 1979,
  "\u2581tenengo": 1980,
  "\u2581vin": 1981,
  "\u2581anger": 1982,
  "\u2581apr\u00eatre": 1983,
  "\u2581examine": 1984,
  "\u2581missionary": 1985,
  "\u2581opposition": 1986,
  "\u2581presence": 1987,
  "\u2581yourselves": 1988,
  "\u2581contribute": 1989,
  "\u2581deeply": 1990,
  "\u2581revealed": 1991,
  "\u2581truths": 1992,
  "\u258136": 1993,
  "\u2581practice": 1994,
  "\u2581shepherd": 1995,
  "\u2581wonder": 1996,
  "\u2581y\u00e4": 1997,
  "\u2581l": 1998,
  "\u2581sign": 1999,
  "\u2581worshippers": 2000,
  "\u2581returned": 2001,
  "\u2581steps": 2002,
  "\u2581Further": 2003,
  "\u2581G": 2004,
  "\u2581La": 2005,
  "\u2581expressed": 2006,
  "\u2581less": 2007,
  "\u2581eglize": 2008,
  "\u2581\u00e9glise": 2009,
  "ala": 2010,
  "c": 2011,
  "\u2581education": 2012,
  "\u2581seven": 2013,
  "\u2581studying": 2014,
  "\u2581ambage": 2015,
  "\u2581whatever": 2016,
  "\u2581assigned": 2017,
  "\u2581invited": 2018,
  "\u2581success": 2019,
  "\u2581wives": 2020,
  "\u2581asewa": 2021,
  "\u2581beginning": 2022,
  "\u2581changes": 2023,
  "\u2581places": 2024,
  "\u258130.": 2025,
  "\u2581added": 2026,
  "\u2581awakinda": 2027,
  "\u2581progress": 2028,
  "\u2581short": 2029,
  "sarango": 2030,
  "\u258138": 2031,
  "\u258126.": 2032,
  "\u2581Abel": 2033,
  "\u2581Through": 2034,
  "\u2581kings": 2035,
  "\u2581protection": 2036,
  "\u2581senda": 2037,
  "\u2581test": 2038,
  "evertheless": 2039,
  "ic": 2040,
  "\u2581approach": 2041,
  "\u2581flock": 2042,
  "\u2581ready": 2043,
  "\u2581Lingu": 2044,
  "\u2581akangbi": 2045,
  "\u2581contrast": 2046,
  "\u2581record": 2047,
  "\u2581text": 2048,
  "\u2581vision": 2049,
  "\u2581vizite": 2050,
  "\u2581awu": 2051,
  "\u2581door": 2052,
  "\u2581importance": 2053,
  "\u2581Perhaps": 2054,
  "\u2581YE": 2055,
  "\u2581condition": 2056,
  "\u2581conditions": 2057,
  "\u2581priest": 2058,
  "\u2581pr\u00eatre": 2059,
  "\u2581seed": 2060,
  "\u2581Clearly": 2061,
  "\u2581Kiri": 2062,
  "\u2581challenges": 2063,
  "\u2581Sa\u00fcl": 2064,
  "ach": 2065,
  "\u2581completely": 2066,
  "ye": 2067,
  "\u2581Bira": 2068,
  "\u258135.": 2069,
  "\u2581filiale": 2070,
  "\u2581sound": 2071,
  "\u2581zonga": 2072,
  "\u2581families": 2073,
  "\u2581necessary": 2074,
  "\u2581M\u00fb": 2075,
  "\u2581dongo": 2076,
  "\u2581neighbor": 2077,
  "\u2581obedience": 2078,
  "\u2581observe": 2079,
  "\u2581urged": 2080,
  "\u2581choice": 2081,
  "\u2581hu": 2082,
  "\u2581looking": 2083,
  "\u2581worked": 2084,
  "zo": 2085,
  "\u2581Questions": 2086,
  "\u2581followed": 2087,
  "\u2581rejoice": 2088,
  "\u2581thousands": 2089,
  "\u2581prepare": 2090,
  "\u2581ambakoro": 2091,
  "\u2581building": 2092,
  "\u2581former": 2093,
  "\u2581involves": 2094,
  "\u2581line": 2095,
  "\u2581natural": 2096,
  "es": 2097,
  "\u2581lack": 2098,
  "\u2581ngorogbia": 2099,
  "\u2581aku": 2100,
  "\u2581aware": 2101,
  "\u2581final": 2102,
  "\u2581literature": 2103,
  "\u2581recognize": 2104,
  "\u2581sexual": 2105,
  "\u2581suma": 2106,
  "\u2581Manda": 2107,
  "\u2581demonstrate": 2108,
  "\u2581violence": 2109,
  "\u2581Aaron": 2110,
  "\u2581Memorial": 2111,
  "\u2581original": 2112,
  "\u2581pono": 2113,
  "\u2581related": 2114,
  "\u2581strive": 2115,
  "\u258119,": 2116,
  "Do": 2117,
  "\u25817]": 2118,
  "\u2581obedient": 2119,
  "\u2581yor\u00f6": 2120,
  "\u2581\"[": 2121,
  "\u2581English": 2122,
  "\u2581accounts": 2123,
  "\u2581eventually": 2124,
  "\u2581kamata": 2125,
  "\u2581train": 2126,
  "ness": 2127,
  "\u2581atapande": 2128,
  "\u2581adiko": 2129,
  "\u2581beliefs": 2130,
  "\u2581closer": 2131,
  "\u2581nzi": 2132,
  "\u2581tengo": 2133,
  "\u2581Li": 2134,
  "\u2581[\"": 2135,
  "\u2581spoken": 2136,
  "\u258145": 2137,
  "\u2581sort": 2138,
  "\u2581States": 2139,
  "\u2581Remember": 2140,
  "\u2581encore": 2141,
  "\u2581forward": 2142,
  "\u2581affection": 2143,
  "\u2581aso": 2144,
  "\u2581destroyed": 2145,
  "\u2581molongo": 2146,
  "\u2581sometimes": 2147,
  "\u2581K": 2148,
  "\u2581y\u00f4ro": 2149,
  "\u258135": 2150,
  "\u2581quickly": 2151,
  "\u2581quit": 2152,
  "\u2581state": 2153,
  "\u2581traveling": 2154,
  "\u2581seems": 2155,
  "NI": 2156,
  "\u00a9": 2157,
  "\u2581Eden": 2158,
  "\u2581included": 2159,
  "oit": 2160,
  "\u2581d\u00fb": 2161,
  "\u2581fall": 2162,
  "\u2581fight": 2163,
  "\u2581meant": 2164,
  "\u2581spent": 2165,
  "Let": 2166,
  "We": 2167,
  "\u2581bread": 2168,
  "\u2581endurance": 2169,
  "\u2581prepared": 2170,
  "\u2581Tara": 2171,
  "\u2581angia": 2172,
  "\u2581asking": 2173,
  "\u25814;": 2174,
  "\u2581sukula": 2175,
  "\u2581tondo": 2176,
  "\u2581trying": 2177,
  "\u2581Brooklyn": 2178,
  "\u2581filled": 2179,
  "\u2581treat": 2180,
  "us": 2181,
  "\u258110;": 2182,
  "\u2581At\u00e4": 2183,
  "\u2581Where": 2184,
  "\u2581ahiri": 2185,
  "\u2581beautiful": 2186,
  "\u2581di": 2187,
  "\u2581wandara": 2188,
  "\u2581Paradise": 2189,
  "\u2581afon": 2190,
  "\u2581standing": 2191,
  "\u2581toli": 2192,
  "kole": 2193,
  "\u2581Canaan": 2194,
  "\u2581miracle": 2195,
  "\u2581note": 2196,
  "\u2581opening": 2197,
  "\u2581pioneers": 2198,
  "\u00e9": 2199,
  "\u2581compassion": 2200,
  "\u2581kungo": 2201,
  "\u2581member": 2202,
  "\u2581side": 2203,
  "\u2581verse": 2204,
  "\u2581offering": 2205,
  "\u2581declared": 2206,
  "\u2581job": 2207,
  "batango": 2208,
  "\u2581Soon": 2209,
  "\u2581brochure": 2210,
  "\u2581carefully": 2211,
  "\u2581security": 2212,
  "\u2581week": 2213,
  "\u2581Amos": 2214,
  "\u2581Internet": 2215,
  "\u2581Really": 2216,
  "\u2581Tapande": 2217,
  "\u2581feeling": 2218,
  "l\u00e2": 2219,
  "m\u00e8tre": 2220,
  "te": 2221,
  "\u2581Catholic": 2222,
  "\u2581minister": 2223,
  "j": 2224,
  "\u2581ahoto": 2225,
  "\u2581arrived": 2226,
  "\u2581association": 2227,
  "\u2581getting": 2228,
  "\u2581realized": 2229,
  "\u2581sharing": 2230,
  "\u2581studies": 2231,
  "N": 2232,
  "\u2581fire": 2233,
  "\u2581fruitage": 2234,
  "\u2581resist": 2235,
  "\u2581reward": 2236,
  "\u2581situations": 2237,
  "\u2581afuti": 2238,
  "\u2581discreet": 2239,
  "\u2581surely": 2240,
  "\u2581akotara": 2241,
  "\u2581experiences": 2242,
  "\u2581least": 2243,
  "\u2581term": 2244,
  "\u2581tongue": 2245,
  "He": 2246,
  "\u2581akongregation": 2247,
  "\u2581as\u00f6": 2248,
  "\u2581key": 2249,
  "\u2581zeal": 2250,
  "\u2581publishers": 2251,
  "\u2581\u00ebn": 2252,
  "\u2581atingbi": 2253,
  "\u2581explain": 2254,
  "\u2581million": 2255,
  "\u2581pressure": 2256,
  "\u2581required": 2257,
  "It": 2258,
  "\u2581chosen": 2259,
  "\u2581countries": 2260,
  "\u2581passed": 2261,
  "\u2581specific": 2262,
  "\u2581confident": 2263,
  "\u2581existence": 2264,
  "\u2581morning": 2265,
  "\u2581pay": 2266,
  "\u2581preached": 2267,
  "\u2581pursue": 2268,
  "\u2581fulfill": 2269,
  "\u2581gbotongo": 2270,
  "\u2581limited": 2271,
  "\u2581nature": 2272,
  "ever": 2273,
  "\u2581delight": 2274,
  "\u2581gbagba": 2275,
  "\u2581guard": 2276,
  "\u2581reveal": 2277,
  "an": 2278,
  "\u2581assist": 2279,
  "\u2581commanded": 2280,
  "\u2581destroy": 2281,
  "\u2581sea": 2282,
  "\u2581sincere": 2283,
  "on": 2284,
  "\u2581Paradis": 2285,
  "\u2581grateful": 2286,
  "\u2581hours": 2287,
  "\u2581warned": 2288,
  "\u00b7": 2289,
  "\u2581Nathan": 2290,
  "\u2581Pilate": 2291,
  "\u2581acceptable": 2292,
  "\u2581effective": 2293,
  "\u2581calls": 2294,
  "\u2581discuss": 2295,
  "\u2581ground": 2296,
  "\u258165": 2297,
  "\u2581Abram": 2298,
  "\u2581Juif": 2299,
  "\u2581consequences": 2300,
  "\u2581fail": 2301,
  "\u2581friendship": 2302,
  "\u2581prospect": 2303,
  "\u2581remained": 2304,
  "\u2581territory": 2305,
  "Ye": 2306,
  "\u2581Egypte": 2307,
  "\u2581U": 2308,
  "\u2581berger": 2309,
  "\u2581imagine": 2310,
  "\u2581parts": 2311,
  "\u2581Elijah": 2312,
  "\u2581abuku": 2313,
  "\u2581lose": 2314,
  "\u2581translation": 2315,
  "\u2581\u00e9l\u00e8ve": 2316,
  "Ti": 2317,
  "\u2581kpene": 2318,
  "\u2581m": 2319,
  "\u2581requires": 2320,
  "\u2581valuable": 2321,
  "\u2581attending": 2322,
  "\u2581conclusion": 2323,
  "\u2581overseer": 2324,
  "\u2581Cor": 2325,
  "\u2581al\u00eb": 2326,
  "\u2581failed": 2327,
  "\u2581forgiveness": 2328,
  "\u2581pure": 2329,
  "\u2581student": 2330,
  "In": 2331,
  "\u2581either": 2332,
  "\u2581household": 2333,
  "\u2581Regard": 2334,
  "\u2581convinced": 2335,
  "\u2581dengi": 2336,
  "\u2581patience": 2337,
  "\u2581divorce": 2338,
  "\u2581manifest": 2339,
  "\u2581teachers": 2340,
  "\u2581undeserved": 2341,
  "\u2581encouraging": 2342,
  "\u2581groupe": 2343,
  "\u2581offspring": 2344,
  "\u2581political": 2345,
  "\u2581relatives": 2346,
  "\u2581response": 2347,
  "\u2581simple": 2348,
  "\u2581understood": 2349,
  "\u2581119": 2350,
  "\u2581Hoto": 2351,
  "\u2581begin": 2352,
  "\u2581manner": 2353,
  "\u2581miles": 2354,
  "Azo": 2355,
  "\u2581TO": 2356,
  "\u2581areas": 2357,
  "\u258123]": 2358,
  "\u258142": 2359,
  "\u2581aproph\u00e9tie": 2360,
  "\u2581asiokpari": 2361,
  "\u2581concerned": 2362,
  "\u2581surveillant": 2363,
  "\u2581Wasala": 2364,
  "\u2581evening": 2365,
  "\u2581prevent": 2366,
  "\u2581remind": 2367,
  "\u2581suffered": 2368,
  "\u2581universe": 2369,
  "\u2581\u00c9glise": 2370,
  "\u2581Afrika": 2371,
  "\u2581overcome": 2372,
  "\u2581points": 2373,
  "\u2581usually": 2374,
  "more": 2375,
  "z": 2376,
  "\u2581anzapa": 2377,
  "\u2581sava": 2378,
  "\u2581step": 2379,
  "T": 2380,
  "\u2581at\u00e4": 2381,
  "l\u00ea": 2382,
  "\u2581War": 2383,
  "\u2581guide": 2384,
  "\u2581honest": 2385,
  "\u2581practices": 2386,
  "\u2581seeing": 2387,
  "\u2581listening": 2388,
  "\u2581missionaries": 2389,
  "\u2581noted": 2390,
  "\u2581Good": 2391,
  "\u2581ad\u00fc": 2392,
  "\u2581opened": 2393,
  "\u258132.": 2394,
  "\u2581accomplish": 2395,
  "\u2581cope": 2396,
  "\u2581feet": 2397,
  "\u2581parent": 2398,
  "\u2581Asa": 2399,
  "\u2581Pennsylvania": 2400,
  "\u2581awandara": 2401,
  "\u2581reasonable": 2402,
  "\u2581Christianity": 2403,
  "\u2581H": 2404,
  "\u2581Mount": 2405,
  "\u2581approval": 2406,
  "\u2581articles": 2407,
  "\u2581break": 2408,
  "\u2581established": 2409,
  "li": 2410,
  "\u2581commandments": 2411,
  "\u2581third": 2412,
  "\u2581uses": 2413,
  "\u2581dungo": 2414,
  "\u2581elderly": 2415,
  "\u2581groups": 2416,
  "\u2581idea": 2417,
  "\u2581loves": 2418,
  "\u2581master": 2419,
  "\u2581viewed": 2420,
  "\u2581wu": 2421,
  "\u2581zealous": 2422,
  "Y": 2423,
  "\u2581event": 2424,
  "\u2581invitation": 2425,
  "\u2581lettre": 2426,
  "\u2581picture": 2427,
  "\u2581riches": 2428,
  "\u2581(1)": 2429,
  "\u2581Credit": 2430,
  "\u2581answered": 2431,
  "\u2581fill": 2432,
  "\u2581react": 2433,
  "\u2581seemed": 2434,
  "ww": 2435,
  "\u2581(2)": 2436,
  "\u2581Only": 2437,
  "\u2581amanke": 2438,
  "\u2581aspects": 2439,
  "\u2581continues": 2440,
  "\u2581danger": 2441,
  "\u2581miombe": 2442,
  "\u2581watch": 2443,
  "ndo": 2444,
  "\u2581anzene": 2445,
  "\u2581immediately": 2446,
  "\u2581kasa": 2447,
  "\u2581overseers": 2448,
  "\u2581paragraphe": 2449,
  "\u2581referred": 2450,
  "\u2581Philippians": 2451,
  "\u2581deeds": 2452,
  "\u2581relief": 2453,
  "\u2581Lakue": 2454,
  "\u2581assured": 2455,
  "\u2581outside": 2456,
  "\u2581praying": 2457,
  "\u2581tuku": 2458,
  "\u2581Mu": 2459,
  "\u2581Was": 2460,
  "\u2581almo": 2461,
  "\u2581apionnier": 2462,
  "\u2581bless": 2463,
  "\u2581circonscription": 2464,
  "\u2581evident": 2465,
  "\u2581forgive": 2466,
  "\u2581subjects": 2467,
  "\u02b9": 2468,
  "\u2581Micah": 2469,
  "\u2581kam\u00eame": 2470,
  "\u2581month": 2471,
  "\u2581observed": 2472,
  "\u2581prophecies": 2473,
  "\u2581High": 2474,
  "\u2581angb\u00e2a": 2475,
  "\u2581includes": 2476,
  "\u2581mouth": 2477,
  "l": 2478,
  "\u2581Akete": 2479,
  "\u2581aCor": 2480,
  "\u2581active": 2481,
  "\u2581agree": 2482,
  "\u2581ayingo": 2483,
  "\u2581enemy": 2484,
  "\u2581enter": 2485,
  "\u2581forget": 2486,
  "\u2581kumbamba": 2487,
  "\u2581lie": 2488,
  "\u2581negative": 2489,
  "\u2581principle": 2490,
  "\u2581boy": 2491,
  "\u2581concerning": 2492,
  "\u2581foreign": 2493,
  "\u2581prophets": 2494,
  "\u2581satisfaction": 2495,
  "\u2581wine": 2496,
  "\u2581youth": 2497,
  "m\u00fb": 2498,
  "\u2581Also": 2499,
  "\u2581Mama": 2500,
  "\u2581adeba": 2501,
  "\u2581kp\u00f4": 2502,
  "\u2581request": 2503,
  "\u2581town": 2504,
  "heure": 2505,
  "rticle": 2506,
  "\u2581Body": 2507,
  "\u2581Ezekiel": 2508,
  "\u2581mental": 2509,
  "\u2581raise": 2510,
  "This": 2511,
  "responsibilities": 2512,
  "\u2581MO": 2513,
  "\u2581Should": 2514,
  "\u2581attended": 2515,
  "\u2581claim": 2516,
  "\u2581hour": 2517,
  "\u2581spend": 2518,
  "\u2581teacher": 2519,
  "\u2581teaches": 2520,
  "\u2581territoire": 2521,
  "\u2581workers": 2522,
  "\u2581Poto": 2523,
  "\u2581becomes": 2524,
  "\u2581kundu": 2525,
  "\u2581mafuta": 2526,
  "\u2581Hinga": 2527,
  "\u2581animals": 2528,
  "\u2581bearing": 2529,
  "\u2581camp": 2530,
  "\u2581circuit": 2531,
  "\u2581creatures": 2532,
  "\u2581gifts": 2533,
  "\u2581refused": 2534,
  "\u25819]": 2535,
  "\u2581Govern": 2536,
  "\u2581akeke": 2537,
  "\u2581built": 2538,
  "\u2581consideration": 2539,
  "\u2581pleasure": 2540,
  "\u258155": 2541,
  "\u2581alengo": 2542,
  "\u2581faithfully": 2543,
  "\u2581immorality": 2544,
  "\u2581magazine": 2545,
  "\u2581School": 2546,
  "\u2581extent": 2547,
  "\u2581harvest": 2548,
  "\u2581sun": 2549,
  "\u2581temptation": 2550,
  "\u2581Koli": 2551,
  "\u2581Zendo": 2552,
  "\u2581kongo": 2553,
  "\u2581oke": 2554,
  "\u2581produce": 2555,
  "\u2581although": 2556,
  "\u2581amissionnaire": 2557,
  "\u2581gbanzi": 2558,
  "\u2581girl": 2559,
  "\u2581lor": 2560,
  "\u2581sight": 2561,
  "\u2581visited": 2562,
  "\u2581Akota": 2563,
  "\u2581Being": 2564,
  "\u2581ngonda": 2565,
  "\u2581program": 2566,
  "\u2581save": 2567,
  "\u2581statement": 2568,
  "\u258115]": 2569,
  "\u2581finally": 2570,
  "\u2581Angu": 2571,
  "\u2581Church": 2572,
  "\u2581Ngb\u00e2": 2573,
  "\u2581Note": 2574,
  "\u2581army": 2575,
  "\u2581half": 2576,
  "\u2581homes": 2577,
  "\u2581sick": 2578,
  "\u2581wait": 2579,
  "re": 2580,
  "\u2581Nehemiah": 2581,
  "\u2581Zamani": 2582,
  "\u2581basic": 2583,
  "\u2581companions": 2584,
  "\u2581deliver": 2585,
  "\u2581demons": 2586,
  "\u2581endeavor": 2587,
  "\u2581\u00ca": 2588,
  "\u2581Anglais": 2589,
  "\u2581Jonathan": 2590,
  "\u2581Testament": 2591,
  "\u2581T\u00cbN\u00cb": 2592,
  "\u2581atongoro": 2593,
  "\u2581Colossians": 2594,
  "\u2581Mich\u00e9e": 2595,
  "\u2581Teach": 2596,
  "\u2581minds": 2597,
  "P": 2598,
  "mbeni": 2599,
  "\u258126]": 2600,
  "\u2581direct": 2601,
  "\u2581district": 2602,
  "\u2581lot": 2603,
  "\u2581opportunities": 2604,
  "\u2581spread": 2605,
  "sango": 2606,
  "\u258118]": 2607,
  "\u2581Explain": 2608,
  "\u2581attack": 2609,
  "\u2581caring": 2610,
  "\u2581discussed": 2611,
  "\u2581greatly": 2612,
  "\u2581kilo": 2613,
  "\u2581lessons": 2614,
  "\u2581refers": 2615,
  "\u2581secular": 2616,
  "all": 2617,
  "like": 2618,
  "\u258141": 2619,
  "\u2581Naomi": 2620,
  "\u2581address": 2621,
  "\u2581heartfelt": 2622,
  "mong": 2623,
  "\u2581About": 2624,
  "\u2581Pharaon": 2625,
  "\u2581Well": 2626,
  "\u2581avoro": 2627,
  "\u2581play": 2628,
  "\u2581Over": 2629,
  "\u2581Robert": 2630,
  "\u2581ayengi": 2631,
  "\u2581eternal": 2632,
  "\u2581gbiango": 2633,
  "\u2581kate": 2634,
  "\u2581measure": 2635,
  "\u2581rulership": 2636,
  "\u2581Pharaoh": 2637,
  "\u2581distress": 2638,
  "or": 2639,
  "\u2581\u00c9vangile": 2640,
  "est": 2641,
  "\u258120,": 2642,
  "\u2581comments": 2643,
  "\u2581darkness": 2644,
  "\u2581loss": 2645,
  "\u2581sinful": 2646,
  "\u2581appeared": 2647,
  "\u2581eye": 2648,
  "\u2581report": 2649,
  "\u2581youths": 2650,
  "kota": 2651,
  "ve": 2652,
  "\u2581Sarah": 2653,
  "\u2581aPhilippien": 2654,
  "\u2581appear": 2655,
  "\u2581azingo": 2656,
  "\u2581chose": 2657,
  "\u2581helpful": 2658,
  "\u2581insight": 2659,
  "\u2581late": 2660,
  "\u2581presented": 2661,
  "wala": 2662,
  "\u2581Baal": 2663,
  "\u2581Gen": 2664,
  "\u2581anda": 2665,
  "\u2581battle": 2666,
  "\u2581contact": 2667,
  "\u2581killed": 2668,
  "\u2581mozoko": 2669,
  "Teti": 2670,
  "\u2581Faith": 2671,
  "\u2581affected": 2672,
  "\u2581dealings": 2673,
  "\u2581purposes": 2674,
  "\u2581salet\u00e9": 2675,
  "\u2581search": 2676,
  "\u2581translated": 2677,
  "\u2581Bango": 2678,
  "\u2581ahanda": 2679,
  "\u2581awokongo": 2680,
  "\u2581grew": 2681,
  "\u2581instead": 2682,
  "\u2581strengthened": 2683,
  "\u2581N\u00e9h\u00e9mie": 2684,
  "\u2581issues": 2685,
  "\u2581meditate": 2686,
  "\u25815]": 2687,
  "\u2581Christendom": 2688,
  "\u2581bakari": 2689,
  "\u2581busy": 2690,
  "\u2581km": 2691,
  "\u2581prophetic": 2692,
  "\u2581waiting": 2693,
  "\u2581witnessing": 2694,
  "\u2581anxiety": 2695,
  "\u2581drawn": 2696,
  "\u2581merely": 2697,
  "\u2581recent": 2698,
  "\u2581ruler": 2699,
  "When": 2700,
  "\u258148": 2701,
  "\u2581Awa": 2702,
  "\u2581Deuteronomy": 2703,
  "\u2581Give": 2704,
  "\u2581Recall": 2705,
  "\u2581Think": 2706,
  "\u2581afaute": 2707,
  "\u2581ayanda": 2708,
  "\u2581describes": 2709,
  "\u2581easily": 2710,
  "\u2581garden": 2711,
  "\u2581Exodus": 2712,
  "\u2581Gilead": 2713,
  "\u2581careful": 2714,
  "\u2581du": 2715,
  "\u2581goodness": 2716,
  "\u2581reality": 2717,
  "\u2581amatabisi": 2718,
  "\u2581amosoro": 2719,
  "\u2581assure": 2720,
  "\u2581awasiokpari": 2721,
  "\u2581believed": 2722,
  "\u2581closely": 2723,
  "\u2581hearing": 2724,
  "\u2581voyage": 2725,
  "].": 2726,
  "\u2581Canada": 2727,
  "\u2581ahale": 2728,
  "\u2581beloved": 2729,
  "\u2581hale": 2730,
  "\u2581lakui": 2731,
  "\u2581Translation": 2732,
  "\u2581atoto": 2733,
  "\u2581cut": 2734,
  "\u2581directed": 2735,
  "\u2581emotional": 2736,
  "\u2581energy": 2737,
  "\u2581lies": 2738,
  "\u2581major": 2739,
  "\u2581permanent": 2740,
  "\u2581carried": 2741,
  "\u2581conversation": 2742,
  "\u2581growth": 2743,
  "\u2581leading": 2744,
  "\u2581mere": 2745,
  "\u2581particular": 2746,
  "\u2581Mba\u00ef": 2747,
  "\u2581asango": 2748,
  "\u2581harm": 2749,
  "\u2581tabernacle": 2750,
  "Vers\u00ea": 2751,
  "\u2581Imagine": 2752,
  "\u2581increase": 2753,
  "\u2581looked": 2754,
  "\u2581race": 2755,
  "So": 2756,
  "\u2581Learn": 2757,
  "\u2581Spirit": 2758,
  "\u2581Under": 2759,
  "\u2581awande": 2760,
  "\u2581contains": 2761,
  "\u2581evidently": 2762,
  "\u2581instruction": 2763,
  "\u2581warm": 2764,
  "\u2581(3)": 2765,
  "\u2581Deut\u00e9ronome": 2766,
  "\u2581immoral": 2767,
  "\u2581receiving": 2768,
  "\u2581relates": 2769,
  "\u2581vous": 2770,
  "atanga": 2771,
  "awa": 2772,
  "\u2581illustrate": 2773,
  "\u2581kutukutu": 2774,
  "\u2581pride": 2775,
  "\u2581responsible": 2776,
  "\u2581Line": 2777,
  "\u2581Prov": 2778,
  "\u2581aproph\u00e8te": 2779,
  "\u2581cities": 2780,
  "\u2581join": 2781,
  "\u2581outstanding": 2782,
  "\u2581saved": 2783,
  "\u2581successful": 2784,
  "\u258143": 2785,
  "\u2581Europe": 2786,
  "\u2581Judas": 2787,
  "\u2581confiance": 2788,
  "\u2581front": 2789,
  "\u2581likewise": 2790,
  "\u2581particularly": 2791,
  "\u2581society": 2792,
  "\u00e4": 2793,
  "\u2581Amolenge": 2794,
  "\u2581Gospel": 2795,
  "\u2581Look": 2796,
  "\u2581acr\u00e9\u00e9": 2797,
  "\u2581banga": 2798,
  "\u2581provisions": 2799,
  "\u2581responded": 2800,
  "\u2581Armageddon": 2801,
  "\u2581En": 2802,
  "\u2581Russell": 2803,
  "\u2581entertainment": 2804,
  "\u2581judge": 2805,
  "\u2581pattern": 2806,
  "\u2581trained": 2807,
  "\u2581conclude": 2808,
  "\u2581identify": 2809,
  "\u2581Ecclesiastes": 2810,
  "\u2581acongr\u00e9gation": 2811,
  "\u2581nzoye": 2812,
  "Mosaic": 2813,
  "\u2581Germany": 2814,
  "\u2581essential": 2815,
  "\u2581road": 2816,
  "\u2581Africa": 2817,
  "\u2581advantage": 2818,
  "\u2581business": 2819,
  "\u2581rely": 2820,
  "\u2581thousand": 2821,
  "\u2581wealth": 2822,
  "\u2581welcome": 2823,
  "Jesus": 2824,
  "\u2581drink": 2825,
  "\u2581expressions": 2826,
  "\u2581faute": 2827,
  "\u2581husbands": 2828,
  "\u2581slaves": 2829,
  "\u2581togbia": 2830,
  "\u2581trial": 2831,
  "ould": 2832,
  "\u2581Box": 2833,
  "\u2581Enoch": 2834,
  "\u2581IN": 2835,
  "\u2581ad": 2836,
  "\u2581gb\u00e4": 2837,
  "\u2581goes": 2838,
  "\u2581occur": 2839,
  "\u2581papa": 2840,
  "\u2581relative": 2841,
  "\u2581succeed": 2842,
  "\u2581type": 2843,
  "\u2581BE": 2844,
  "\u2581Likewise": 2845,
  "\u2581Make": 2846,
  "\u2581Take": 2847,
  "\u2581adds": 2848,
  "\u2581lasting": 2849,
  "\u2581mbana": 2850,
  "\u2581speaks": 2851,
  "\u2581vigne": 2852,
  "There": 2853,
  "\u2581Help": 2854,
  "\u2581MBE": 2855,
  "\u2581Samson": 2856,
  "\u2581ahe": 2857,
  "\u2581aside": 2858,
  "\u2581developed": 2859,
  "\u2581fason": 2860,
  "\u2581ngo": 2861,
  "\u2581t\u00f6": 2862,
  "\u2581Her": 2863,
  "\u2581aEph\u00e9sien": 2864,
  "\u2581applied": 2865,
  "\u2581aza": 2866,
  "\u2581dema": 2867,
  "\u2581mildness": 2868,
  "\u2581requirements": 2869,
  "\u2581reveals": 2870,
  "\u2581room": 2871,
  "\u2581willingly": 2872,
  "\u2581yengi": 2873,
  "What": 2874,
  "en": 2875,
  "\u25812000": 2876,
  "\u258134.": 2877,
  "\u2581II": 2878,
  "\u2581Land": 2879,
  "\u2581aColossien": 2880,
  "\u2581cases": 2881,
  "\u2581indicate": 2882,
  "\u2581inheritance": 2883,
  "\u2581kindly": 2884,
  "\u2581legal": 2885,
  "\u2581Pi": 2886,
  "\u2581Wali": 2887,
  "\u2581decide": 2888,
  "\u2581inside": 2889,
  "\u2581merci": 2890,
  "\u2581ngobo": 2891,
  "\u2581younger": 2892,
  "\u25812012": 2893,
  "\u2581AZO": 2894,
  "\u2581Young": 2895,
  "\u2581contrary": 2896,
  "\u2581gods": 2897,
  "\u2581verses": 2898,
  "\u2581Galatians": 2899,
  "\u2581Heb": 2900,
  "\u2581Nisan": 2901,
  "\u2581discussion": 2902,
  "\u2581mayele": 2903,
  "\u2581tears": 2904,
  "\u2581Harmagu\u00e9don": 2905,
  "\u2581Rom": 2906,
  "\u2581Wango": 2907,
  "\u2581beneficial": 2908,
  "\u2581eight": 2909,
  "\u2581ngbo": 2910,
  "\u2581reference": 2911,
  "\u2581values": 2912,
  "\u2581yando": 2913,
  "\u2581aProv": 2914,
  "\u2581aid": 2915,
  "\u2581cares": 2916,
  "\u2581connection": 2917,
  "\u2581daughters": 2918,
  "\u2581dealing": 2919,
  "\u2581refer": 2920,
  "\u2581send": 2921,
  "J\u00e9sus": 2922,
  "id\u00e9": 2923,
  "\u2581AYEKE": 2924,
  "\u2581Exode": 2925,
  "\u2581commission": 2926,
  "\u2581indicated": 2927,
  "\u2581notice": 2928,
  "\u2581placed": 2929,
  "\u2581rejected": 2930,
  "\u2581sees": 2931,
  "\u2581Ge": 2932,
  "\u2581acted": 2933,
  "\u2581arche": 2934,
  "\u2581military": 2935,
  "\u2581oto": 2936,
  "\u2581promote": 2937,
  "\u258139": 2938,
  "\u2581Hav": 2939,
  "\u2581aRom": 2940,
  "\u2581correct": 2941,
  "\u2581eating": 2942,
  "\u2581entered": 2943,
  "\u2581f": 2944,
  "\u2581forces": 2945,
  "\u2581improve": 2946,
  "\u2581pass": 2947,
  "\u2581\u00e9p\u00e9e": 2948,
  "\u258117]": 2949,
  "\u2581due": 2950,
  "\u2581fearing": 2951,
  "\u2581heed": 2952,
  "\u2581views": 2953,
  "\u2581wickedness": 2954,
  "as": 2955,
  "\u2581OF": 2956,
  "\u2581delivered": 2957,
  "\u2581kango": 2958,
  "\u2581powers": 2959,
  "\u2581satisfying": 2960,
  "\u2581setting": 2961,
  "\u2581unique": 2962,
  "\u2581Answer": 2963,
  "\u2581Jude": 2964,
  "\u2581Once": 2965,
  "\u2581engage": 2966,
  "\u2581freely": 2967,
  "\u2581hurt": 2968,
  "\u2581privileges": 2969,
  "\u2581widow": 2970,
  "\u2581Israelite": 2971,
  "\u2581aH\u00e9b": 2972,
  "\u2581applying": 2973,
  "\u2581conventions": 2974,
  "\u2581dear": 2975,
  "\u2581discern": 2976,
  "\u2581mountain": 2977,
  "\u2581primary": 2978,
  "\u2581survive": 2979,
  "\u2581womua": 2980,
  "\u2581worth": 2981,
  "\u2581K\u00e2": 2982,
  "\u2581aGbia": 2983,
  "\u2581communication": 2984,
  "\u2581performed": 2985,
  "\u2581secret": 2986,
  "\u2581united": 2987,
  "NGO": 2988,
  "he": 2989,
  "\u258144": 2990,
  "\u2581associated": 2991,
  "\u2581involve": 2992,
  "\u2581joyful": 2993,
  "\u2581patient": 2994,
  "\u2581tender": 2995,
  "\u2581worshipers": 2996,
  "hundango": 2997,
  "\u2581joined": 2998,
  "\u2581kando": 2999,
  "\u2581scriptures": 3000,
  "\u2581wish": 3001,
  "My": 3002,
  "ion": 3003,
  "sara": 3004,
  "\u2581Awake": 3005,
  "\u2581Corinthe": 3006,
  "\u2581Finally": 3007,
  "\u2581ark": 3008,
  "\u2581gathered": 3009,
  "\u2581reached": 3010,
  "\u2581social": 3011,
  "\u2581troubled": 3012,
  "\u2581\u00e9tude": 3013,
  "ayeke": 3014,
  "\u2581biazo": 3015,
  "\u2581car": 3016,
  "\u2581court": 3017,
  "\u2581cover": 3018,
  "\u2581pleased": 3019,
  "Messianic": 3020,
  "\u2581500": 3021,
  "\u2581escape": 3022,
  "\u2581reports": 3023,
  "\u2581spirituality": 3024,
  "and": 3025,
  "\u2581Esther": 3026,
  "\u2581authorities": 3027,
  "\u2581don": 3028,
  "\u2581faithfulness": 3029,
  "\u2581listened": 3030,
  "\u2581sword": 3031,
  "\u25811919": 3032,
  "\u2581determination": 3033,
  "\u2581expected": 3034,
  "\u2581fell": 3035,
  "\u2581lawa": 3036,
  "\u2581mature": 3037,
  "\u2581music": 3038,
  "\u2581providing": 3039,
  "\u2581writer": 3040,
  "ille": 3041,
  "\u258133,": 3042,
  "\u2581box": 3043,
  "\u2581count": 3044,
  "\u2581indicates": 3045,
  "\u2581aGalate": 3046,
  "\u2581lay": 3047,
  "\u2581meal": 3048,
  "\u2581perform": 3049,
  "\u2581wen": 3050,
  "bezoin": 3051,
  "le": 3052,
  "\u2581Catholique": 3053,
  "\u2581bozo": 3054,
  "\u2581committed": 3055,
  "\u2581inhabitants": 3056,
  "\u2581provision": 3057,
  "\u2581rebellion": 3058,
  "\u2581reject": 3059,
  "\u2581resolve": 3060,
  "\u2581wedding": 3061,
  "\u2581Work": 3062,
  "\u2581fandara": 3063,
  "\u2581telling": 3064,
  "y\u00e4": 3065,
  "\u2581Buku": 3066,
  "\u2581Iri": 3067,
  "\u2581Sambela": 3068,
  "\u2581Whe": 3069,
  "\u2581abe": 3070,
  "\u2581appears": 3071,
  "\u2581declare": 3072,
  "\u2581produced": 3073,
  "\u2581treasure": 3074,
  "\u2581upright": 3075,
  "is": 3076,
  "\u2581Pentecost": 3077,
  "\u2581Students": 3078,
  "\u2581alembeti": 3079,
  "\u2581glisa": 3080,
  "\u2581grasp": 3081,
  "\u2581mighty": 3082,
  "\u2581neighbors": 3083,
  "\u2581occurred": 3084,
  "\u2581writing": 3085,
  "\u2581Gr\u00e8ce": 3086,
  "\u2581abira": 3087,
  "\u2581drinking": 3088,
  "\u2581growing": 3089,
  "\u2581sex": 3090,
  "\u2581weeks": 3091,
  "\u2581Abab\u00e2": 3092,
  "\u2581Knorr": 3093,
  "\u2581Sad": 3094,
  "\u2581Sovereign": 3095,
  "\u2581decades": 3096,
  "\u2581exist": 3097,
  "\u2581instructions": 3098,
  "\u2581kion": 3099,
  "\u2581superior": 3100,
  "able": 3101,
  "ngangu": 3102,
  "\u25816]": 3103,
  "\u2581assurance": 3104,
  "\u2581dangerous": 3105,
  "\u2581d\u00ea": 3106,
  "\u2581formed": 3107,
  "\u2581names": 3108,
  "\u2581ndapre": 3109,
  "\u2581recognized": 3110,
  "\u25812013": 3111,
  "\u2581Hunda": 3112,
  "\u2581LO": 3113,
  "\u2581aspect": 3114,
  "\u2581atiri": 3115,
  "\u2581injustice": 3116,
  "\u2581ministers": 3117,
  "\u2581remains": 3118,
  "\u25812011": 3119,
  "\u2581Latin": 3120,
  "\u2581Parents": 3121,
  "\u2581bateau": 3122,
  "\u2581bond": 3123,
  "\u2581chapters": 3124,
  "\u2581easier": 3125,
  "\u2581gold": 3126,
  "\u2581main": 3127,
  "\u2581poverty": 3128,
  "\u2581refuge": 3129,
  "\u2581sinned": 3130,
  "All": 3131,
  "Keep": 3132,
  "\u258144.": 3133,
  "\u2581Zacharie": 3134,
  "\u2581afraid": 3135,
  "\u2581big": 3136,
  "\u2581considering": 3137,
  "\u2581constantly": 3138,
  "\u2581impressed": 3139,
  "\u2581violent": 3140,
  "one": 3141,
  "\u258180": 3142,
  "\u2581agbata": 3143,
  "mungo": 3144,
  "\u2581WHAT": 3145,
  "\u2581attendance": 3146,
  "\u2581blind": 3147,
  "\u2581cr\u00e9\u00e9": 3148,
  "\u2581details": 3149,
  "\u2581difference": 3150,
  "\u2581miracles": 3151,
  "\u2581nzerengo": 3152,
  "\u2581shared": 3153,
  "\u2581studied": 3154,
  "\u2581Ngia": 3155,
  "\u2581Two": 3156,
  "\u2581apeut": 3157,
  "\u2581assistance": 3158,
  "\u2581behavior": 3159,
  "\u2581chief": 3160,
  "\u2581figurative": 3161,
  "\u2581habits": 3162,
  "\u2581leads": 3163,
  "\u2581occasions": 3164,
  "\u2581separate": 3165,
  "\u2581talking": 3166,
  "\u2581touched": 3167,
  "\u2581Family": 3168,
  "\u2581Pentec\u00f4te": 3169,
  "\u2581Rahab": 3170,
  "\u2581des": 3171,
  "\u2581factors": 3172,
  "\u2581gr\u00e2ce": 3173,
  "\u2581international": 3174,
  "\u2581mistakes": 3175,
  "\u2581ngombe": 3176,
  "\u2581publication": 3177,
  "\u2581thank": 3178,
  "\u258121,": 3179,
  "\u258134,": 3180,
  "\u258139.": 3181,
  "\u2581Has": 3182,
  "\u2581Pet": 3183,
  "\u2581R\u00e9ve": 3184,
  "\u2581determine": 3185,
  "\u2581focused": 3186,
  "\u2581gone": 3187,
  "\u2581shepherds": 3188,
  "\u2581vast": 3189,
  "\u2581Boaz": 3190,
  "\u2581Him": 3191,
  "\u2581Promised": 3192,
  "\u2581Un": 3193,
  "\u2581abundance": 3194,
  "\u2581amiracle": 3195,
  "\u2581arise": 3196,
  "\u2581challenging": 3197,
  "\u2581exert": 3198,
  "\u2581listed": 3199,
  "\u2581organized": 3200,
  "\u2581path": 3201,
  "\u2581petengo": 3202,
  "\u2581selfish": 3203,
  "\u2581seriously": 3204,
  "\u2581yango": 3205,
  "aye": 3206,
  "\u258146": 3207,
  "\u2581Flood": 3208,
  "\u2581Sea": 3209,
  "\u2581Zechariah": 3210,
  "\u2581animal": 3211,
  "\u2581apostat": 3212,
  "\u2581calling": 3213,
  "\u2581dekongo": 3214,
  "\u2581indefinite": 3215,
  "\u2581stake": 3216,
  "\u2581weak": 3217,
  "\u2581wide": 3218,
  "Mbe": 3219,
  "\u258112]": 3220,
  "\u2581300": 3221,
  "\u2581Book": 3222,
  "\u2581Both": 3223,
  "\u2581deliverance": 3224,
  "\u2581probab": 3225,
  "\u2581qualified": 3226,
  "\u2581throne": 3227,
  "For": 3228,
  "\u25812009": 3229,
  "\u2581Cain": 3230,
  "\u2581Ca\u00efn": 3231,
  "\u2581Second": 3232,
  "\u2581begotten": 3233,
  "\u2581demonstrated": 3234,
  "\u2581invisible": 3235,
  "\u2581leaving": 3236,
  "\u2581ma\u00efngo": 3237,
  "\u2581persons": 3238,
  "\u2581secure": 3239,
  "ngobo": 3240,
  "\u2581Pharisees": 3241,
  "\u2581belief": 3242,
  "\u2581granted": 3243,
  "\u2581hatred": 3244,
  "\u2581ideas": 3245,
  "\u2581illness": 3246,
  "\u2581motivate": 3247,
  "\u2581paragraph": 3248,
  "\u2581pointed": 3249,
  "\u2581story": 3250,
  "\u2581Ayeke": 3251,
  "\u2581Elisha": 3252,
  "\u2581Mabe": 3253,
  "\u2581YEKE": 3254,
  "\u2581ZO": 3255,
  "\u2581abia": 3256,
  "\u2581accomplished": 3257,
  "\u2581carrying": 3258,
  "\u2581courageous": 3259,
  "\u2581letters": 3260,
  "\u2581mountains": 3261,
  "\u2581moving": 3262,
  "\u2581wilderness": 3263,
  "\u25812010": 3264,
  "\u258190": 3265,
  "\u2581Biblical": 3266,
  "\u2581Luther": 3267,
  "\u2581Moab": 3268,
  "\u2581adultery": 3269,
  "\u2581alungula": 3270,
  "\u2581and\u00e2": 3271,
  "\u2581anzara": 3272,
  "\u2581attempt": 3273,
  "\u2581kpa": 3274,
  "\u2581manga": 3275,
  "\u2581village": 3276,
  "\u2581\u25c6": 3277,
  "\u258113]": 3278,
  "\u258116]": 3279,
  "\u2581AYE": 3280,
  "\u2581Bata": 3281,
  "\u2581Esk": 3282,
  "\u2581NDO": 3283,
  "\u2581Without": 3284,
  "\u2581aGentil": 3285,
  "\u2581differ": 3286,
  "\u2581obtain": 3287,
  "\u2581process": 3288,
  "\u2581quoted": 3289,
  "\u2581represent": 3290,
  "\u2581stick": 3291,
  "\u2581treated": 3292,
  "\u2581yes": 3293,
  "\u2581Association": 3294,
  "\u2581Ex": 3295,
  "\u2581Kus": 3296,
  "\u2581Never": 3297,
  "\u2581Other": 3298,
  "\u2581construction": 3299,
  "T\u00ebn\u00eb": 3300,
  "\u2581Fran\u00e7ais": 3301,
  "\u2581Habakkuk": 3302,
  "\u2581comforting": 3303,
  "\u2581compared": 3304,
  "\u2581critical": 3305,
  "\u2581struggle": 3306,
  "wakua": 3307,
  "\u2581COVER": 3308,
  "\u2581P\u00e2que": 3309,
  "\u2581agonda": 3310,
  "\u2581company": 3311,
  "\u2581enfer": 3312,
  "\u2581fami": 3313,
  "\u2581goro": 3314,
  "\u2581inhabited": 3315,
  "\u2581lying": 3316,
  "\u2581meaningful": 3317,
  "\u2581parable": 3318,
  "Proph\u00e8te": 3319,
  "\u2581607": 3320,
  "\u2581Ask": 3321,
  "\u2581Barak": 3322,
  "\u2581Here": 3323,
  "\u2581PS": 3324,
  "\u2581Unis": 3325,
  "\u2581amount": 3326,
  "\u2581background": 3327,
  "\u2581bon": 3328,
  "\u2581community": 3329,
  "\u2581glorious": 3330,
  "\u2581gratitude": 3331,
  "\u2581hengo": 3332,
  "\u2581koti": 3333,
  "\u2581ought": 3334,
  "\u2581rise": 3335,
  "\u2581rulers": 3336,
  "\u2581sought": 3337,
  "\u258124,": 3338,
  "\u2581Readers": 3339,
  "\u2581awake": 3340,
  "\u2581god": 3341,
  "\u2581mbarata": 3342,
  "\u2581persecuted": 3343,
  "\u2581remaining": 3344,
  "\u2581sinners": 3345,
  "\u2581walked": 3346,
  "\u2581witnesses": 3347,
  "\u2581Am": 3348,
  "\u2581Ga": 3349,
  "\u2581Proph\u00e9tie": 3350,
  "\u2581TONGAN": 3351,
  "\u2581devant": 3352,
  "\u2581medical": 3353,
  "\u2581reminded": 3354,
  "\u2581significant": 3355,
  "gi": 3356,
  "\u2581Girisa": 3357,
  "\u2581Wu": 3358,
  "\u2581afuta": 3359,
  "\u2581ahaka": 3360,
  "\u2581anxious": 3361,
  "\u2581asa": 3362,
  "\u2581directly": 3363,
  "\u2581gbani": 3364,
  "\u2581reported": 3365,
  "\u2581ruling": 3366,
  "\u2581sang": 3367,
  "\u2581sleep": 3368,
  "ga": 3369,
  "\u2581Absalom": 3370,
  "\u2581Bibe": 3371,
  "\u2581Thessalonians": 3372,
  "\u2581Y\u00c2": 3373,
  "\u2581abundant": 3374,
  "\u2581descendants": 3375,
  "\u2581exercising": 3376,
  "\u2581grown": 3377,
  "\u2581ko": 3378,
  "\u2581lovingly": 3379,
  "\u2581ruin": 3380,
  "\u2581successfully": 3381,
  "great": 3382,
  "\u25811950": 3383,
  "\u2581Hezekiah": 3384,
  "\u2581Surely": 3385,
  "\u2581agene": 3386,
  "\u2581apparently": 3387,
  "\u2581describe": 3388,
  "\u2581exists": 3389,
  "\u2581fleshly": 3390,
  "\u2581keeps": 3391,
  "\u2581marry": 3392,
  "\u2581pursuing": 3393,
  "\u2581strengthening": 3394,
  "\u2581yanda": 3395,
  "ar": 3396,
  "\u2581Australie": 3397,
  "\u2581Malachi": 3398,
  "\u2581admonition": 3399,
  "\u2581discouraged": 3400,
  "\u2581opposers": 3401,
  "\u2581run": 3402,
  "Encadr\u00e9": 3403,
  "\u25812002": 3404,
  "\u2581South": 3405,
  "\u2581Yeke": 3406,
  "\u2581eager": 3407,
  "\u2581effects": 3408,
  "\u2581peaceful": 3409,
  "\u2581porno": 3410,
  "\u2581table": 3411,
  "\u2581viewpoint": 3412,
  "\u2581Malachie": 3413,
  "\u2581Ngben": 3414,
  "\u2581akobe": 3415,
  "\u2581approached": 3416,
  "\u2581corrupt": 3417,
  "\u2581feels": 3418,
  "\u2581global": 3419,
  "\u2581handle": 3420,
  "\u2581lingo": 3421,
  "\u2581non": 3422,
  "\u2581preced": 3423,
  "\u2581relations": 3424,
  "\u2581remarkable": 3425,
  "\u2581rendered": 3426,
  "\u2581yapu": 3427,
  "\u2581Angleterre": 3428,
  "\u2581George": 3429,
  "\u2581Kings": 3430,
  "\u2581Study": 3431,
  "\u2581YOU": 3432,
  "\u2581cry": 3433,
  "\u2581date": 3434,
  "\u2581extend": 3435,
  "\u2581facts": 3436,
  "\u2581financial": 3437,
  "\u2581generation": 3438,
  "\u2581kpo": 3439,
  "\u2581numerous": 3440,
  "\u2581render": 3441,
  "\u2581severe": 3442,
  "\u2581susu": 3443,
  "\u2581\u00c9tat": 3444,
  "\u258138.": 3445,
  "\u2581Almighty": 3446,
  "\u2581Hio": 3447,
  "\u2581Version": 3448,
  "\u2581apart": 3449,
  "\u2581belong": 3450,
  "\u2581conviction": 3451,
  "\u2581designed": 3452,
  "\u2581forms": 3453,
  "\u2581highly": 3454,
  "\u2581ministeri": 3455,
  "\u2581official": 3456,
  "\u2581straight": 3457,
  "M": 3458,
  "\u25812008": 3459,
  "\u2581extreme": 3460,
  "\u2581fit": 3461,
  "\u2581lingu": 3462,
  "\u2581normal": 3463,
  "\u2581reaching": 3464,
  "\u2581recall": 3465,
  "\u2581religions": 3466,
  "\u2581sit": 3467,
  "\u2581tribe": 3468,
  "\u2581ungodly": 3469,
  "\u2581worthy": 3470,
  "\u2581allows": 3471,
  "\u2581appearance": 3472,
  "\u2581argent": 3473,
  "\u2581armies": 3474,
  "\u2581concerns": 3475,
  "\u2581ganza": 3476,
  "\u2581literal": 3477,
  "\u2581mbangi": 3478,
  "\u2581reflected": 3479,
  "\u2581reminders": 3480,
  "TENE": 3481,
  "\u2581Kua": 3482,
  "\u2581Rev": 3483,
  "\u2581dwell": 3484,
  "\u2581dwelling": 3485,
  "\u2581firmly": 3486,
  "\u2581kill": 3487,
  "\u2581motivated": 3488,
  "\u2581pre": 3489,
  "\u2581repentance": 3490,
  "\u2581sana": 3491,
  "\u2581serves": 3492,
  "\u2581stopped": 3493,
  "\u2581task": 3494,
  "tongana": 3495,
  "\u2581Charles": 3496,
  "\u2581Eglize": 3497,
  "\u2581Gigi": 3498,
  "\u2581Nazareth": 3499,
  "\u2581angbonga": 3500,
  "\u2581appreciated": 3501,
  "\u2581asurveillant": 3502,
  "\u2581kongr\u00e9gation": 3503,
  "\u2581merciful": 3504,
  "\u2581proof": 3505,
  "\u2581root": 3506,
  "Look": 3507,
  "ive": 3508,
  "\u25812001": 3509,
  "\u2581Gbe": 3510,
  "\u2581Komandema": 3511,
  "\u2581Passover": 3512,
  "\u2581Samarie": 3513,
  "\u2581atisa": 3514,
  "\u2581environment": 3515,
  "\u2581familiar": 3516,
  "\u2581governments": 3517,
  "\u2581marvelous": 3518,
  "\u2581outcome": 3519,
  "\u2581reaction": 3520,
  "\u2581trouble": 3521,
  "\u2581waters": 3522,
  "t\u00e2": 3523,
  "\u258137.": 3524,
  "\u2581causes": 3525,
  "\u2581finding": 3526,
  "\u2581humbly": 3527,
  "\u2581impossible": 3528,
  "\u2581journey": 3529,
  "\u2581nzinga": 3530,
  "\u2581plan": 3531,
  "\u2581surprise": 3532,
  "\u2581turning": 3533,
  "go": 3534,
  "lege": 3535,
  "mbilimbili": 3536,
  "yekia": 3537,
  "\u258136.": 3538,
  "\u258149": 3539,
  "\u2581Sam": 3540,
  "\u2581Y": 3541,
  "\u2581buy": 3542,
  "\u2581choices": 3543,
  "\u2581emotions": 3544,
  "\u2581guided": 3545,
  "\u2581listeners": 3546,
  "\u2581moment": 3547,
  "\u2581repentant": 3548,
  "\u2581scholar": 3549,
  "\u2581season": 3550,
  "\u2581tract": 3551,
  "\u00e9publique": 3552,
  "\u2581asks": 3553,
  "\u2581assembly": 3554,
  "\u2581associate": 3555,
  "\u2581cost": 3556,
  "\u2581ndapelele": 3557,
  "\u2581referring": 3558,
  "Ngia": 3559,
  "ambeni": 3560,
  "\u2581April": 3561,
  "\u2581Doing": 3562,
  "\u2581Ephesus": 3563,
  "\u2581Worship": 3564,
  "\u2581altar": 3565,
  "\u2581concluded": 3566,
  "\u2581hundreds": 3567,
  "\u2581illustrations": 3568,
  "\u2581influenced": 3569,
  "\u2581mbongo": 3570,
  "\u2581mild": 3571,
  "\u2581replied": 3572,
  "\u2581silver": 3573,
  "\u2581stone": 3574,
  "\u2581worse": 3575,
  "ers": 3576,
  "mbe": 3577,
  "\u258123,": 3578,
  "\u2581Asie": 3579,
  "\u2581aThessalonicien": 3580,
  "\u2581belongs": 3581,
  "\u2581displayed": 3582,
  "\u2581exactly": 3583,
  "\u2581grief": 3584,
  "\u2581klase": 3585,
  "\u2581pere": 3586,
  "it": 3587,
  "rb": 3588,
  "\u2581JEHOVAH": 3589,
  "\u2581aFarizien": 3590,
  "\u2581amatanga": 3591,
  "\u2581avril": 3592,
  "\u2581career": 3593,
  "\u2581copy": 3594,
  "\u2581disease": 3595,
  "\u2581entitled": 3596,
  "\u2581list": 3597,
  "\u2581physically": 3598,
  "\u2581treatment": 3599,
  "\u2581Mokonzi": 3600,
  "\u2581heavy": 3601,
  "\u2581modest": 3602,
  "\u2581moves": 3603,
  "\u2581thereafter": 3604,
  "\u2581yongo": 3605,
  "\u2581additional": 3606,
  "\u2581awanzinga": 3607,
  "\u2581ayayu": 3608,
  "\u2581brotherhood": 3609,
  "\u2581ill": 3610,
  "\u2581increased": 3611,
  "\u2581ndambo": 3612,
  "\u2581poro": 3613,
  "\u2581stress": 3614,
  "\u2581theocratic": 3615,
  "\u2581\u00c9lie": 3616,
  "\u2581Blu": 3617,
  "\u2581September": 3618,
  "\u2581Upon": 3619,
  "\u2581abuse": 3620,
  "\u2581acknowledge": 3621,
  "\u2581advance": 3622,
  "\u2581gumbaya": 3623,
  "\u2581inner": 3624,
  "\u2581mandako": 3625,
  "\u2581national": 3626,
  "\u2581offers": 3627,
  "\u2581pardonn\u00e9": 3628,
  "\u2581pete": 3629,
  "\u2581recently": 3630,
  "\u2581soldiers": 3631,
  "\u2581stood": 3632,
  "\u2581temporary": 3633,
  "They": 3634,
  "\u258128,": 3635,
  "\u2581Answered": 3636,
  "\u2581Children": 3637,
  "\u2581Day": 3638,
  "\u2581German": 3639,
  "\u2581MANDA": 3640,
  "\u2581aCatholique": 3641,
  "\u2581proud": 3642,
  "\u2581travel": 3643,
  "\u2581trees": 3644,
  "As": 3645,
  "\u2581Ministry": 3646,
  "\u2581Notice": 3647,
  "\u2581Time": 3648,
  "\u2581Tract": 3649,
  "\u2581USED": 3650,
  "\u2581aberger": 3651,
  "\u2581bus": 3652,
  "\u2581ended": 3653,
  "\u2581happens": 3654,
  "\u2581identified": 3655,
  "\u2581model": 3656,
  "\u2581reasoning": 3657,
  "\u2581released": 3658,
  "\u2581shed": 3659,
  "\u2581History": 3660,
  "\u2581Rachel": 3661,
  "\u2581akamata": 3662,
  "\u2581commit": 3663,
  "\u2581dignity": 3664,
  "\u2581fast": 3665,
  "\u2581island": 3666,
  "\u2581midst": 3667,
  "\u2581ndagigi": 3668,
  "\u2581percent": 3669,
  "\u2581possessions": 3670,
  "\u2581require": 3671,
  "\u2581restored": 3672,
  "\u2581sake": 3673,
  "\u2581scholars": 3674,
  "\u2581terms": 3675,
  "\u2581\u00c9den": 3676,
  "\u25811914.": 3677,
  "\u258140.": 3678,
  "\u2581Apoc": 3679,
  "\u2581December": 3680,
  "\u2581Its": 3681,
  "\u2581akatikati": 3682,
  "\u2581higher": 3683,
  "\u2581re": 3684,
  "\u2581refuse": 3685,
  "\u2581risk": 3686,
  "\u2581supported": 3687,
  "\u2581wars": 3688,
  "\u2581z\u00f6": 3689,
  "Bab\u00e2": 3690,
  "\u2581145": 3691,
  "\u258166": 3692,
  "\u2581Akpale": 3693,
  "\u2581Australia": 3694,
  "\u2581Barnabas": 3695,
  "\u2581Ez\u00e9chiel": 3696,
  "\u2581Hannah": 3697,
  "\u2581Japon": 3698,
  "\u2581abandoned": 3699,
  "\u2581endured": 3700,
  "\u2581lowly": 3701,
  "\u2581mobimba": 3702,
  "\u2581none": 3703,
  "\u2581relationships": 3704,
  "\u2581remove": 3705,
  "\u2581represented": 3706,
  "\u2581standard": 3707,
  "\u2581white": 3708,
  "pleasing": 3709,
  "will": 3710,
  "\u2581Chronique": 3711,
  "\u2581City": 3712,
  "\u2581Every": 3713,
  "\u2581Galaad": 3714,
  "\u2581Galil\u00e9e": 3715,
  "\u2581Maria": 3716,
  "\u2581Nabal": 3717,
  "\u2581Trac": 3718,
  "\u2581alcohol": 3719,
  "\u2581causing": 3720,
  "\u2581excellent": 3721,
  "\u2581forgiving": 3722,
  "\u2581gradually": 3723,
  "\u2581maintaining": 3724,
  "\u2581patiently": 3725,
  "\u2581septembre": 3726,
  "\u2581slow": 3727,
  "\u2581union": 3728,
  "\u2581August": 3729,
  "\u2581Goliath": 3730,
  "\u2581July": 3731,
  "\u2581J\u00c9HOVAH": 3732,
  "\u2581October": 3733,
  "\u2581SARA": 3734,
  "\u2581araison": 3735,
  "\u2581balanced": 3736,
  "\u2581benefited": 3737,
  "\u2581bodies": 3738,
  "\u2581invite": 3739,
  "da": 3740,
  "\u2581Lazare": 3741,
  "\u2581Mother": 3742,
  "\u2581acting": 3743,
  "\u2581asandaga": 3744,
  "\u2581assignments": 3745,
  "\u2581await": 3746,
  "\u2581conflict": 3747,
  "\u2581magazines": 3748,
  "\u2581properly": 3749,
  "\u2581repeatedly": 3750,
  "\u2581unable": 3751,
  "\u2581Assyrie": 3752,
  "\u2581Elie": 3753,
  "\u2581Scripture": 3754,
  "\u2581Vundu": 3755,
  "\u2581center": 3756,
  "\u2581difficulties": 3757,
  "\u2581kugbe": 3758,
  "\u2581resulted": 3759,
  "\u2581victory": 3760,
  "\u2581writings": 3761,
  "day": 3762,
  "kusala": 3763,
  "\u25811999": 3764,
  "\u2581Anne": 3765,
  "\u2581Chronicles": 3766,
  "\u2581Isa": 3767,
  "\u2581Sometimes": 3768,
  "\u2581arrangements": 3769,
  "\u2581employment": 3770,
  "\u2581holding": 3771,
  "\u2581majority": 3772,
  "\u2581mention": 3773,
  "\u2581olive": 3774,
  "\u2581release": 3775,
  "\u2581wind": 3776,
  "\u2581\u00e2ta": 3777,
  "h": 3778,
  "p": 3779,
  "\u2581200": 3780,
  "\u2581Grande": 3781,
  "\u2581ak\u00e4": 3782,
  "\u2581d\u00e9cembre": 3783,
  "\u2581facing": 3784,
  "\u2581gathering": 3785,
  "\u2581glad": 3786,
  "\u2581identity": 3787,
  "\u2581imperfection": 3788,
  "\u2581possession": 3789,
  "\u2581unrighteous": 3790,
  "Les": 3791,
  "out": 3792,
  "\u2581Bath": 3793,
  "\u2581Bebungbi": 3794,
  "\u2581STUD": 3795,
  "\u2581abilities": 3796,
  "\u2581arranged": 3797,
  "\u2581bagara": 3798,
  "\u2581fornication": 3799,
  "\u2581notes": 3800,
  "\u2581oil": 3801,
  "\u2581pioneering": 3802,
  "\u2581sadaka": 3803,
  "\u2581scripture": 3804,
  "\u2581sustain": 3805,
  "\u2581Gideon": 3806,
  "\u2581afoto": 3807,
  "\u2581compare": 3808,
  "\u2581copies": 3809,
  "\u2581discovered": 3810,
  "\u2581masini": 3811,
  "\u2581remnant": 3812,
  "\u2581review": 3813,
  "\u2581song": 3814,
  "\u2581traveled": 3815,
  "\u2581visits": 3816,
  "Molenge": 3817,
  "but": 3818,
  "keep": 3819,
  "man": 3820,
  "\u2581144": 3821,
  "\u2581Stephen": 3822,
  "\u2581William": 3823,
  "\u2581agreed": 3824,
  "\u2581approved": 3825,
  "\u2581cancer": 3826,
  "\u2581create": 3827,
  "\u2581gbanda": 3828,
  "\u2581pagan": 3829,
  "\u2581research": 3830,
  "\u2581safe": 3831,
  "Be": 3832,
  "D": 3833,
  "\u25818]": 3834,
  "\u2581Following": 3835,
  "\u2581Happy": 3836,
  "\u2581aBible": 3837,
  "\u2581churches": 3838,
  "\u2581corruption": 3839,
  "\u2581reign": 3840,
  "\u2581sad": 3841,
  "\u2581tempted": 3842,
  "\u2581Espagne": 3843,
  "\u2581Leke": 3844,
  "\u2581Shortly": 3845,
  "\u2581aDa": 3846,
  "\u2581andeke": 3847,
  "\u2581ao\u00fbt": 3848,
  "\u2581encourages": 3849,
  "\u2581mars": 3850,
  "\u2581sickness": 3851,
  "\u2581souls": 3852,
  "\u2581t\u00e9l\u00e9phone": 3853,
  "How": 3854,
  "for": 3855,
  "with": 3856,
  "\u25813;": 3857,
  "\u2581Jud\u00e9e": 3858,
  "\u2581abandon": 3859,
  "\u2581affairs": 3860,
  "\u2581healthy": 3861,
  "\u2581pressures": 3862,
  "\u2581writes": 3863,
  "teur": 3864,
  "\u2581Go": 3865,
  "\u2581Lazarus": 3866,
  "\u2581Truth": 3867,
  "\u2581accord": 3868,
  "\u2581beast": 3869,
  "\u2581glorify": 3870,
  "\u2581katikati": 3871,
  "\u2581p": 3872,
  "\u2581recreation": 3873,
  "\u2581royal": 3874,
  "\u2581series": 3875,
  "\u2581useful": 3876,
  "\u2581wild": 3877,
  "\u2581wondered": 3878,
  "\u2581za": 3879,
  "\u2581Bretagne": 3880,
  "\u2581Encyclopedia": 3881,
  "\u2581Lani": 3882,
  "\u2581Show": 3883,
  "\u2581asuku": 3884,
  "\u2581couples": 3885,
  "\u2581inherited": 3886,
  "\u2581instructed": 3887,
  "\u2581nine": 3888,
  "\u2581punishment": 3889,
  "\u2581wokongo": 3890,
  "\u2581amba\u00ef": 3891,
  "\u2581attacks": 3892,
  "\u2581herself": 3893,
  "\u2581limitations": 3894,
  "\u2581motives": 3895,
  "\u2581noticed": 3896,
  "\u2581private": 3897,
  "\u2581readily": 3898,
  "\u2581region": 3899,
  "\u2581struck": 3900,
  "\u2581weigh": 3901,
  "other": 3902,
  "\u258142.": 3903,
  "\u2581Concern": 3904,
  "\u2581Kobe": 3905,
  "\u2581Kpengba": 3906,
  "\u2581Os\u00e9e": 3907,
  "\u2581assembl\u00e9e": 3908,
  "\u2581attain": 3909,
  "\u2581content": 3910,
  "\u2581inclined": 3911,
  "\u2581preserve": 3912,
  "\u2581recalls": 3913,
  "\u2581serpent": 3914,
  "\u2581symbolic": 3915,
  "\u2581tr\u00f4ne": 3916,
  "\u2581yombo": 3917,
  "Christ": 3918,
  "yamba": 3919,
  "\u258151": 3920,
  "\u2581Hosea": 3921,
  "\u2581Ota": 3922,
  "\u2581alert": 3923,
  "\u2581a\u00c9ph\u00e9sien": 3924,
  "\u2581feature": 3925,
  "\u2581forced": 3926,
  "\u2581fundamental": 3927,
  "\u2581meek": 3928,
  "\u2581methods": 3929,
  "\u2581ordinateur": 3930,
  "\u2581removed": 3931,
  "\u2581sacrificing": 3932,
  "\u2581total": 3933,
  "\u2581yungo": 3934,
  "\u25814]": 3935,
  "\u2581England": 3936,
  "\u2581Halls": 3937,
  "\u2581KOTA": 3938,
  "\u2581Man": 3939,
  "\u2581accepting": 3940,
  "\u2581angry": 3941,
  "\u2581confront": 3942,
  "\u2581gather": 3943,
  "\u2581literally": 3944,
  "\u2581stars": 3945,
  "t\u00ebn\u00eb": 3946,
  "\u2581Earth": 3947,
  "\u2581Name": 3948,
  "\u2581Prayer": 3949,
  "\u2581Russie": 3950,
  "\u2581Service": 3951,
  "\u2581Unlike": 3952,
  "\u2581entrusted": 3953,
  "\u2581grain": 3954,
  "\u2581hate": 3955,
  "\u2581mbata": 3956,
  "\u2581pornography": 3957,
  "\u2581sp\u00e9cial": 3958,
  "\u2581synagogue": 3959,
  "\u2581tribes": 3960,
  "\u2581vow": 3961,
  "bu": 3962,
  "ful": 3963,
  "ity": 3964,
  "\u2581Mexico": 3965,
  "\u2581Michael": 3966,
  "\u2581NYEN": 3967,
  "\u2581Thomas": 3968,
  "\u2581across": 3969,
  "\u2581ahonde": 3970,
  "\u2581baby": 3971,
  "\u2581commandement": 3972,
  "\u2581deaf": 3973,
  "\u2581dream": 3974,
  "\u2581economic": 3975,
  "\u2581error": 3976,
  "\u2581paid": 3977,
  "\u2581reap": 3978,
  "\u2581significance": 3979,
  "\u2581trusted": 3980,
  "\u2581wisely": 3981,
  "\u25813]": 3982,
  "\u2581Ke": 3983,
  "\u2581Mbongo": 3984,
  "\u2581at\u00e9moin": 3985,
  "\u2581companion": 3986,
  "\u2581conscious": 3987,
  "\u2581ignore": 3988,
  "\u2581ndeko": 3989,
  "\u2581nearby": 3990,
  "\u2581octobre": 3991,
  "\u2581perfection": 3992,
  "\u2581potential": 3993,
  "\u2581resources": 3994,
  "\u2581surprised": 3995,
  "\u2581tests": 3996,
  "\u2581upbuilding": 3997,
  "\u2581variety": 3998,
  "ation": 3999,
  "ngb\u00e2a": 4000,
  "ver": 4001,
  "zia": 4002,
  "\u258120]": 4003,
  "\u2581January": 4004,
  "\u2581audience": 4005,
  "\u2581bua": 4006,
  "\u2581hospitality": 4007,
  "\u2581juillet": 4008,
  "\u2581obeying": 4009,
  "\u2581popular": 4010,
  "\u2581possess": 4011,
  "\u2581printed": 4012,
  "\u2581satisfied": 4013,
  "\u2581spirits": 4014,
  "\u2581store": 4015,
  "\u2581unclean": 4016,
  "tapande": 4017,
  "\u258153": 4018,
  "\u258172": 4019,
  "\u2581Bi": 4020,
  "\u2581Out": 4021,
  "\u2581Visit": 4022,
  "\u2581batize": 4023,
  "\u2581beauty": 4024,
  "\u2581hundred": 4025,
  "\u2581involv": 4026,
  "nga": 4027,
  "pardone": 4028,
  "\u2581Beku": 4029,
  "\u2581Corinth": 4030,
  "\u2581Granted": 4031,
  "\u2581March": 4032,
  "\u2581Master": 4033,
  "\u2581Wara": 4034,
  "\u2581advancement": 4035,
  "\u2581angorogbia": 4036,
  "\u2581bound": 4037,
  "\u2581degree": 4038,
  "\u2581docteur": 4039,
  "\u2581fitting": 4040,
  "\u2581foundation": 4041,
  "\u2581hongo": 4042,
  "\u2581meditation": 4043,
  "\u2581quick": 4044,
  "\u2581restore": 4045,
  "\u2581supply": 4046,
  "\u2581tendency": 4047,
  "\u2581weaknesses": 4048,
  "hearted": 4049,
  "\u25812003": 4050,
  "\u2581associates": 4051,
  "\u2581context": 4052,
  "\u2581culture": 4053,
  "\u2581disaster": 4054,
  "\u2581discernment": 4055,
  "\u2581meditating": 4056,
  "\u2581otherwise": 4057,
  "\u2581poured": 4058,
  "\u2581treasures": 4059,
  "\u2581\u00c9s": 4060,
  "Tongaso": 4061,
  "\u258110]": 4062,
  "\u2581Gue": 4063,
  "\u2581aWa": 4064,
  "\u2581appeal": 4065,
  "\u2581ay\u00fc": 4066,
  "\u2581boldness": 4067,
  "\u2581broke": 4068,
  "\u2581calamity": 4069,
  "\u2581firstborn": 4070,
  "\u2581generous": 4071,
  "\u2581kangbingo": 4072,
  "\u2581limit": 4073,
  "\u2581sorts": 4074,
  "\u2581welfare": 4075,
  "\u2581wipe": 4076,
  "Me": 4077,
  "our": 4078,
  "u": 4079,
  "\u258111]": 4080,
  "\u2581144,000": 4081,
  "\u2581Akoli": 4082,
  "\u2581American": 4083,
  "\u2581Giriri": 4084,
  "\u2581Lawa": 4085,
  "\u2581acquire": 4086,
  "\u2581choosing": 4087,
  "\u2581drawing": 4088,
  "\u2581passing": 4089,
  "\u2581preparing": 4090,
  "\u2581property": 4091,
  "\u2581relate": 4092,
  "\u2581safeguard": 4093,
  "F": 4094,
  "\u258147": 4095,
  "\u2581Gospels": 4096,
  "\u2581Isa\u00efe": 4097,
  "\u2581Moa": 4098,
  "\u2581Soci\u00e9t\u00e9": 4099,
  "\u2581compassionate": 4100,
  "\u2581ears": 4101,
  "\u2581harmful": 4102,
  "\u2581mai": 4103,
  "\u2581newly": 4104,
  "\u2581played": 4105,
  "\u2581primarily": 4106,
  "\u2581vid\u00e9o": 4107,
  "\u2581writers": 4108,
  "\u2581wusuwusu": 4109,
  "sk": 4110,
  "\u2581Illustrate": 4111,
  "\u2581applies": 4112,
  "\u2581attitudes": 4113,
  "\u2581awamabe": 4114,
  "\u2581balaga": 4115,
  "\u2581brief": 4116,
  "\u2581comment": 4117,
  "\u2581dress": 4118,
  "\u2581signs": 4119,
  "\u2581sorongo": 4120,
  "\u2581torture": 4121,
  "\u2581trusting": 4122,
  "drew": 4123,
  "fade": 4124,
  "his": 4125,
  "\u2581Asia": 4126,
  "\u2581Kpe": 4127,
  "\u2581Paris": 4128,
  "\u2581Sermon": 4129,
  "\u2581Spiritual": 4130,
  "\u2581clothing": 4131,
  "\u2581customs": 4132,
  "\u2581earnestly": 4133,
  "\u2581enjoying": 4134,
  "\u2581extended": 4135,
  "\u2581translations": 4136,
  "ANGO": 4137,
  "kpengba": 4138,
  "\u2581120": 4139,
  "\u258183": 4140,
  "\u2581NGOI": 4141,
  "\u2581Rutherford": 4142,
  "\u2581Table": 4143,
  "\u2581adiskur": 4144,
  "\u2581foolish": 4145,
  "\u2581grand": 4146,
  "\u2581hell": 4147,
  "\u2581labor": 4148,
  "\u2581laid": 4149,
  "\u2581yere": 4150,
  "\u258126,": 4151,
  "\u2581Chron": 4152,
  "\u2581Esau": 4153,
  "\u2581French": 4154,
  "\u2581Levites": 4155,
  "\u2581No\u00ebl": 4156,
  "\u2581Titus": 4157,
  "\u2581ati": 4158,
  "\u2581lovers": 4159,
  "\u2581prominent": 4160,
  "\u2581rules": 4161,
  "\u2581wheat": 4162,
  "dengo": 4163,
  "no": 4164,
  "\u258115;": 4165,
  "\u25812004": 4166,
  "\u2581Jonah": 4167,
  "\u2581L\u00e9vitique": 4168,
  "\u2581NZAPA": 4169,
  "\u2581Philip": 4170,
  "\u2581Things": 4171,
  "\u2581abongo": 4172,
  "\u2581air": 4173,
  "\u2581asu": 4174,
  "\u2581at\u00ean\u00eb": 4175,
  "\u2581boi": 4176,
  "\u2581cast": 4177,
  "\u2581conducted": 4178,
  "\u2581finish": 4179,
  "\u2581refreshing": 4180,
  "\u2581speaker": 4181,
  "ted": 4182,
  "\u258145.": 4183,
  "\u2581Heights": 4184,
  "\u2581Lessons": 4185,
  "\u2581Martha": 4186,
  "\u2581Philippe": 4187,
  "\u2581Philippines": 4188,
  "\u2581atuku": 4189,
  "\u2581balance": 4190,
  "\u2581begins": 4191,
  "\u2581contained": 4192,
  "\u2581crime": 4193,
  "\u2581dangers": 4194,
  "\u2581distance": 4195,
  "\u2581enduring": 4196,
  "\u2581establish": 4197,
  "\u2581flee": 4198,
  "\u2581inherit": 4199,
  "\u2581likened": 4200,
  "\u2581ma": 4201,
  "\u2581officials": 4202,
  "\u2581pleasant": 4203,
  "\u2581possibly": 4204,
  "\u2581subjection": 4205,
  "\u2581trip": 4206,
  "mokonzi": 4207,
  "ngoi": 4208,
  "sioni": 4209,
  "\u2581Ade": 4210,
  "\u2581Galilee": 4211,
  "\u2581Jordan": 4212,
  "\u2581State": 4213,
  "\u2581Zephaniah": 4214,
  "\u2581adopt": 4215,
  "\u2581delighted": 4216,
  "\u2581east": 4217,
  "\u2581idolatry": 4218,
  "\u2581northern": 4219,
  "\u2581plans": 4220,
  "\u2581police": 4221,
  "\u2581proceeded": 4222,
  "\u2581rewarded": 4223,
  "\u2581soil": 4224,
  "\u2581touch": 4225,
  "\u2581unless": 4226,
  "\u2581zealously": 4227,
  "To": 4228,
  "ish": 4229,
  "ne": 4230,
  "\u2581400": 4231,
  "\u2581Peace": 4232,
  "\u2581Sisera": 4233,
  "\u2581Source": 4234,
  "\u2581Tite": 4235,
  "\u2581Welcome": 4236,
  "\u2581akilo": 4237,
  "\u2581apa\u00efen": 4238,
  "\u2581bio": 4239,
  "\u2581commands": 4240,
  "\u2581covered": 4241,
  "\u2581depends": 4242,
  "\u2581developing": 4243,
  "\u2581doro": 4244,
  "\u2581film": 4245,
  "\u2581intense": 4246,
  "\u2581judges": 4247,
  "\u2581mangboko": 4248,
  "\u2581observing": 4249,
  "\u2581principal": 4250,
  "\u2581senses": 4251,
  "\u2581skills": 4252,
  "\u2581songs": 4253,
  "\u2581su": 4254,
  "\u2581traits": 4255,
  "\u258173": 4256,
  "\u2581Jonas": 4257,
  "\u2581Mexique": 4258,
  "\u2581Spanish": 4259,
  "\u2581burning": 4260,
  "\u2581constant": 4261,
  "\u2581depend": 4262,
  "\u2581devoted": 4263,
  "\u2581divided": 4264,
  "\u2581grave": 4265,
  "\u2581janvier": 4266,
  "\u2581leader": 4267,
  "\u2581lips": 4268,
  "\u2581miraculous": 4269,
  "\u2581painful": 4270,
  "\u2581routine": 4271,
  "\u2581suggestions": 4272,
  "\u2581wamabe": 4273,
  "k": 4274,
  "ri": 4275,
  "vers\u00ea": 4276,
  "\u258132,": 4277,
  "\u2581Caleb": 4278,
  "\u2581Greece": 4279,
  "\u2581Italie": 4280,
  "\u2581Leviticus": 4281,
  "\u2581Saki": 4282,
  "\u2581angben": 4283,
  "\u2581commandment": 4284,
  "\u2581communicate": 4285,
  "\u2581doctor": 4286,
  "\u2581exposed": 4287,
  "\u2581innocent": 4288,
  "\u2581intended": 4289,
  "\u2581j": 4290,
  "\u2581konongo": 4291,
  "\u2581load": 4292,
  "\u2581menga": 4293,
  "\u2581oppose": 4294,
  "\u2581paragraphs": 4295,
  "\u2581rewarding": 4296,
  "\u2581win": 4297,
  "U": 4298,
  "kodoro": 4299,
  "wa": 4300,
  "\u2581Br\u00e9sil": 4301,
  "\u2581Contents": 4302,
  "\u2581Eventually": 4303,
  "\u2581H\u00e9nok": 4304,
  "\u2581Les": 4305,
  "\u2581bubango": 4306,
  "\u2581clergy": 4307,
  "\u2581defend": 4308,
  "\u2581kpengbango": 4309,
  "\u2581male": 4310,
  "\u2581peaceable": 4311,
  "\u2581protected": 4312,
  "\u2581raising": 4313,
  "\u2581residents": 4314,
  "\u2581sat": 4315,
  "\u2581seventh": 4316,
  "\u2581warfare": 4317,
  "side": 4318,
  "\u258161": 4319,
  "\u2581Columbia": 4320,
  "\u2581Eph": 4321,
  "\u2581IS": 4322,
  "\u2581Syrie": 4323,
  "\u2581awambongi": 4324,
  "\u2581believing": 4325,
  "\u2581declaring": 4326,
  "\u2581differences": 4327,
  "\u2581distant": 4328,
  "\u2581juin": 4329,
  "\u2581kpu": 4330,
  "\u2581kuru": 4331,
  "\u2581objective": 4332,
  "\u2581observes": 4333,
  "\u2581programme": 4334,
  "\u2581texts": 4335,
  "\u2581thanks": 4336,
  "\u2581universal": 4337,
  "\u2581wholesome": 4338,
  "R": 4339,
  "bage": 4340,
  "undang": 4341,
  "\u2581Dan": 4342,
  "\u2581Ezra": 4343,
  "\u2581akobela": 4344,
  "\u2581avuko": 4345,
  "\u2581broken": 4346,
  "\u2581cared": 4347,
  "\u2581completed": 4348,
  "\u2581dust": 4349,
  "\u2581failure": 4350,
  "\u2581finds": 4351,
  "\u2581governing": 4352,
  "\u2581images": 4353,
  "\u2581marked": 4354,
  "\u2581opposed": 4355,
  "\u2581radio": 4356,
  "\u2581rescue": 4357,
  "\u2581resolved": 4358,
  "\u2581rights": 4359,
  "\u2581uphold": 4360,
  "\u2581wrongdoing": 4361,
  "\u2581Baruc": 4362,
  "\u2581Egyptian": 4363,
  "\u2581Simon": 4364,
  "\u2581aGrec": 4365,
  "\u2581alu": 4366,
  "\u2581conversations": 4367,
  "\u2581depth": 4368,
  "\u2581earnest": 4369,
  "\u2581en": 4370,
  "\u2581mark": 4371,
  "\u2581motive": 4372,
  "\u2581ngongoa": 4373,
  "\u2581privileged": 4374,
  "\u2581prize": 4375,
  "\u2581represents": 4376,
  "\u2581slavery": 4377,
  "\u2581stronger": 4378,
  "\u2581suggest": 4379,
  "\u2581t\u00e9l\u00e9": 4380,
  "\u2581warns": 4381,
  "\u2581wrath": 4382,
  "not": 4383,
  "ty": 4384,
  "\u2581Anna": 4385,
  "\u2581Benjamin": 4386,
  "\u2581Judea": 4387,
  "\u2581Kpale": 4388,
  "\u2581Lamb": 4389,
  "\u2581Le": 4390,
  "\u2581akugbe": 4391,
  "\u2581cr\u00e9ation": 4392,
  "\u2581disasters": 4393,
  "\u2581eagerly": 4394,
  "\u2581features": 4395,
  "\u2581healing": 4396,
  "\u2581loyally": 4397,
  "\u2581memory": 4398,
  "\u2581obligation": 4399,
  "\u2581offerings": 4400,
  "\u2581rain": 4401,
  "\u2581reliable": 4402,
  "\u2581thankful": 4403,
  "\u2581urges": 4404,
  "201": 4405,
  "\u2581Asaph": 4406,
  "\u2581Judges": 4407,
  "\u2581acknowledged": 4408,
  "\u2581courageously": 4409,
  "\u2581gained": 4410,
  "\u2581lifestyle": 4411,
  "\u2581ngb": 4412,
  "\u2581singa": 4413,
  "\u2581submit": 4414,
  "\u2581Gb": 4415,
  "\u2581Jourdain": 4416,
  "\u2581Thousand": 4417,
  "\u2581asongo": 4418,
  "\u2581ayapu": 4419,
  "\u2581campaign": 4420,
  "\u2581capable": 4421,
  "\u2581existed": 4422,
  "\u2581gbi": 4423,
  "\u2581houses": 4424,
  "\u2581maturity": 4425,
  "\u2581mistake": 4426,
  "\u2581patriarch": 4427,
  "\u2581paying": 4428,
  "\u2581promotes": 4429,
  "\u2581pursuits": 4430,
  "\u2581reproach": 4431,
  "\u2581scene": 4432,
  "\u2581tax": 4433,
  "\u2581tend": 4434,
  "\u2581unbeliev": 4435,
  "\u2581wall": 4436,
  "do": 4437,
  "\u2581Congregation": 4438,
  "\u2581International": 4439,
  "\u2581KUE": 4440,
  "\u2581Times": 4441,
  "\u2581anyon": 4442,
  "\u2581bl\u00e9": 4443,
  "\u2581calm": 4444,
  "\u2581capital": 4445,
  "\u2581creature": 4446,
  "\u2581empty": 4447,
  "\u2581historical": 4448,
  "\u2581joyfully": 4449,
  "\u2581manke": 4450,
  "\u2581mates": 4451,
  "\u2581morally": 4452,
  "\u2581ngule": 4453,
  "\u2581shortly": 4454,
  "\u2581suddenly": 4455,
  "\u2581theme": 4456,
  "\u2581threatened": 4457,
  "\u2581whereas": 4458,
  "\u2581worldly": 4459,
  "angelic": 4460,
  "ingness": 4461,
  "\u258125]": 4462,
  "\u258156": 4463,
  "\u2581Deut": 4464,
  "\u2581June": 4465,
  "\u2581Kodoro": 4466,
  "\u2581MAMA": 4467,
  "\u2581Pendere": 4468,
  "\u2581Sioni": 4469,
  "\u2581crowds": 4470,
  "\u2581factor": 4471,
  "\u2581finished": 4472,
  "\u2581initiative": 4473,
  "\u2581koko": 4474,
  "\u2581ndade": 4475,
  "\u2581stayed": 4476,
  "\u2581temptations": 4477,
  "\u2581urgency": 4478,
  "\u2581weakness": 4479,
  "thrown": 4480,
  "yaya": 4481,
  "\u2581662": 4482,
  "\u2581Allemagne": 4483,
  "\u2581Centrafricaine": 4484,
  "\u2581Japan": 4485,
  "\u2581November": 4486,
  "\u2581Proverbe": 4487,
  "\u2581Says": 4488,
  "\u2581V": 4489,
  "\u2581aglisa": 4490,
  "\u2581claimed": 4491,
  "\u2581hardships": 4492,
  "\u2581householder": 4493,
  "\u2581kula": 4494,
  "\u2581low": 4495,
  "\u2581mourning": 4496,
  "\u2581sets": 4497,
  "\u2581threat": 4498,
  "\u2581tour": 4499,
  "No": 4500,
  "ngui": 4501,
  "\u25811918": 4502,
  "\u2581Baruch": 4503,
  "\u2581adjust": 4504,
  "\u2581apasi": 4505,
  "\u2581caught": 4506,
  "\u2581chance": 4507,
  "\u2581custom": 4508,
  "\u2581explanation": 4509,
  "\u2581historian": 4510,
  "\u2581kinda": 4511,
  "\u2581kingdoms": 4512,
  "\u2581lion": 4513,
  "\u2581proclaimers": 4514,
  "\u2581stories": 4515,
  "\u2581strangers": 4516,
  "la": 4517,
  "\u25811990": 4518,
  "\u2581Gog": 4519,
  "\u2581Heart": 4520,
  "\u2581NY": 4521,
  "\u2581Potiphar": 4522,
  "\u2581addressed": 4523,
  "\u2581anymore": 4524,
  "\u2581awavorongo": 4525,
  "\u2581burden": 4526,
  "\u2581desirable": 4527,
  "\u2581encadr\u00e9": 4528,
  "\u2581habit": 4529,
  "\u2581isolated": 4530,
  "\u2581participate": 4531,
  "\u2581preserved": 4532,
  "\u2581publicly": 4533,
  "\u2581pursuit": 4534,
  "\u2581repent": 4535,
  "\u2581talks": 4536,
  "\u2581tear": 4537,
  "\u2581tent": 4538,
  "\u2581tested": 4539,
  "\u2581tired": 4540,
  "\u2581worker": 4541,
  "483,": 4542,
  "By": 4543,
  "b\u00ea": 4544,
  "ce": 4545,
  "de": 4546,
  "\u258125,": 4547,
  "\u2581Making": 4548,
  "\u2581Mbuki": 4549,
  "\u2581Ukraine": 4550,
  "\u2581aNazi": 4551,
  "\u2581adjustments": 4552,
  "\u2581bitter": 4553,
  "\u2581cold": 4554,
  "\u2581contain": 4555,
  "\u2581cup": 4556,
  "\u2581encounter": 4557,
  "\u2581expectation": 4558,
  "\u2581faces": 4559,
  "\u2581gouvernement": 4560,
  "\u2581hidden": 4561,
  "\u2581miraculously": 4562,
  "\u2581parabole": 4563,
  "\u2581plant": 4564,
  "\u2581population": 4565,
  "\u2581qualify": 4566,
  "\u2581realm": 4567,
  "\u2581regret": 4568,
  "\u2581sigi": 4569,
  "Your": 4570,
  "time": 4571,
  "\u2581Besides": 4572,
  "\u2581Dunia": 4573,
  "\u2581GOD": 4574,
  "\u2581H\u00e9noc": 4575,
  "\u2581Leader": 4576,
  "\u2581Richard": 4577,
  "\u2581Tele": 4578,
  "\u2581a\u00c9vangile": 4579,
  "\u2581bamara": 4580,
  "\u2581fallen": 4581,
  "\u2581grant": 4582,
  "\u2581guilty": 4583,
  "\u2581modesty": 4584,
  "\u2581reputation": 4585,
  "\u2581sold": 4586,
  "\u2581street": 4587,
  "Seigneur": 4588,
  "f": 4589,
  "tomba": 4590,
  "\u25811940": 4591,
  "\u258120;": 4592,
  "\u258131]": 4593,
  "\u2581Babylonian": 4594,
  "\u2581Berger": 4595,
  "\u2581Eph\u00e8se": 4596,
  "\u2581G\u00e9d\u00e9on": 4597,
  "\u2581Vulu": 4598,
  "\u2581approaching": 4599,
  "\u2581atondo": 4600,
  "\u2581birds": 4601,
  "\u2581bow": 4602,
  "\u2581cruel": 4603,
  "\u2581diligent": 4604,
  "\u2581disobedience": 4605,
  "\u2581eternity": 4606,
  "\u2581footnote": 4607,
  "\u2581handango": 4608,
  "\u2581manifested": 4609,
  "\u2581opposite": 4610,
  "\u2581prais": 4611,
  "\u2581priority": 4612,
  "\u2581sayings": 4613,
  "\u2581\u00c9z\u00e9chias": 4614,
  "se": 4615,
  "\u258119]": 4616,
  "\u258152": 4617,
  "\u2581Come": 4618,
  "\u2581Empire": 4619,
  "\u2581arms": 4620,
  "\u2581cultivating": 4621,
  "\u2581damage": 4622,
  "\u2581impart": 4623,
  "\u2581influences": 4624,
  "\u2581object": 4625,
  "\u2581reply": 4626,
  "Go": 4627,
  "nze": 4628,
  "\u258127,": 4629,
  "\u258127]": 4630,
  "\u258129,": 4631,
  "\u2581Amaseka": 4632,
  "\u2581Brazil": 4633,
  "\u2581Christmas": 4634,
  "\u2581Dictionary": 4635,
  "\u2581Draw": 4636,
  "\u2581a\u00c9ph": 4637,
  "\u2581detail": 4638,
  "\u2581eliminate": 4639,
  "\u2581engaging": 4640,
  "\u2581except": 4641,
  "\u2581famine": 4642,
  "\u2581fourth": 4643,
  "\u2581fun": 4644,
  "\u2581huge": 4645,
  "\u2581minded": 4646,
  "\u2581profound": 4647,
  "\u2581searching": 4648,
  "\u2581solid": 4649,
  "dango": 4650,
  "\u25812014": 4651,
  "\u2581DO": 4652,
  "\u2581Jepht\u00e9": 4653,
  "\u2581Know": 4654,
  "\u2581Marthe": 4655,
  "\u2581Martin": 4656,
  "\u2581Often": 4657,
  "\u2581Zion": 4658,
  "\u2581agbanzi": 4659,
  "\u2581description": 4660,
  "\u2581doctrine": 4661,
  "\u2581headquarters": 4662,
  "\u2581ngbii": 4663,
  "\u2581passage": 4664,
  "\u2581pour": 4665,
  "\u2581project": 4666,
  "\u2581sigingo": 4667,
  "\u2581singing": 4668,
  "\u2581solution": 4669,
  "\u2581surrounded": 4670,
  "\u2581voluntary": 4671,
  "\u2581wavorongo": 4672,
  "Kota": 4673,
  "\u2581000.": 4674,
  "\u258130]": 4675,
  "\u2581Ahab": 4676,
  "\u2581Ear": 4677,
  "\u2581Elders": 4678,
  "\u2581Find": 4679,
  "\u2581Malawi": 4680,
  "\u2581Rebekah": 4681,
  "\u2581Ruler": 4682,
  "\u2581SUBJECT": 4683,
  "\u2581Spain": 4684,
  "\u2581Yanga": 4685,
  "\u2581akomandema": 4686,
  "\u2581belongings": 4687,
  "\u2581covering": 4688,
  "\u2581donations": 4689,
  "\u2581everywhere": 4690,
  "\u2581foot": 4691,
  "\u2581harsh": 4692,
  "\u2581hates": 4693,
  "\u2581joug": 4694,
  "\u2581plague": 4695,
  "\u2581rewards": 4696,
  "\u2581similarly": 4697,
  "\u2581steadfast": 4698,
  "\u2581supporting": 4699,
  "\u2581throw": 4700,
  "\u2581victims": 4701,
  "\u2581widely": 4702,
  "ke": 4703,
  "\u2581Ambeti": 4704,
  "\u2581Nduzu": 4705,
  "\u2581Trinity": 4706,
  "\u2581aJuge": 4707,
  "\u2581aged": 4708,
  "\u2581asleep": 4709,
  "\u2581cadeau": 4710,
  "\u2581executed": 4711,
  "\u2581expects": 4712,
  "\u2581gaining": 4713,
  "\u2581healed": 4714,
  "\u2581ngba": 4715,
  "\u2581obstacles": 4716,
  "\u2581partner": 4717,
  "\u2581prosperity": 4718,
  "\u2581returning": 4719,
  "\u2581terrible": 4720,
  "good": 4721,
  "sese": 4722,
  "\u2581Chr\u00e9tient\u00e9": 4723,
  "\u2581Eric": 4724,
  "\u2581Grand": 4725,
  "\u2581Perse": 4726,
  "\u2581Sodome": 4727,
  "\u2581Walk": 4728,
  "\u2581abroad": 4729,
  "\u2581acquainted": 4730,
  "\u2581akinda": 4731,
  "\u2581arrested": 4732,
  "\u2581asacrifice": 4733,
  "\u2581computer": 4734,
  "\u2581credit": 4735,
  "\u2581dimanche": 4736,
  "\u2581examination": 4737,
  "\u2581heads": 4738,
  "\u2581highlights": 4739,
  "\u2581humankind": 4740,
  "\u2581looks": 4741,
  "\u2581marital": 4742,
  "\u2581style": 4743,
  "\u2581t": 4744,
  "\u2581witnessed": 4745,
  "\u2581\u00c9z\u00e9chiel": 4746,
  "gbu": 4747,
  "\u25811930": 4748,
  "\u2581600": 4749,
  "\u2581Three": 4750,
  "\u2581burn": 4751,
  "\u2581capacity": 4752,
  "\u2581hated": 4753,
  "\u2581iron": 4754,
  "\u2581leaves": 4755,
  "\u2581ndowa": 4756,
  "\u2581oppression": 4757,
  "\u2581urge": 4758,
  "\u2581utmost": 4759,
  "ara": 4760,
  "disfellowshipped": 4761,
  "fa": 4762,
  "kua": 4763,
  "that": 4764,
  "\u258154": 4765,
  "\u2581Above": 4766,
  "\u2581Apollos": 4767,
  "\u2581C\u00e9sar": 4768,
  "\u2581Faithful": 4769,
  "\u2581River": 4770,
  "\u2581Way": 4771,
  "\u2581impact": 4772,
  "\u2581incense": 4773,
  "\u2581novembre": 4774,
  "\u2581ordered": 4775,
  "\u2581priesthood": 4776,
  "\u2581rock": 4777,
  "\u2581suku": 4778,
  "\u2581warnings": 4779,
  "Happy": 4780,
  "anka": 4781,
  "kiringo": 4782,
  "ra": 4783,
  "\u2581(4)": 4784,
  "\u2581AMBE": 4785,
  "\u2581AS": 4786,
  "\u2581Josiah": 4787,
  "\u2581M\u00e9morial": 4788,
  "\u2581NGU": 4789,
  "\u2581Pray": 4790,
  "\u2581Published": 4791,
  "\u2581Russia": 4792,
  "\u2581aL\u00e9vite": 4793,
  "\u2581accompanie": 4794,
  "\u2581appealing": 4795,
  "\u2581backing": 4796,
  "\u2581believer": 4797,
  "\u2581charge": 4798,
  "\u2581convey": 4799,
  "\u2581dark": 4800,
  "\u2581drugs": 4801,
  "\u2581experiencing": 4802,
  "\u2581greed": 4803,
  "\u2581hair": 4804,
  "\u2581holds": 4805,
  "\u2581rejoicing": 4806,
  "\u2581requirement": 4807,
  "\u2581watching": 4808,
  "\u2581yoke": 4809,
  "ary": 4810,
  "g": 4811,
  "\u2581103": 4812,
  "\u2581Esdras": 4813,
  "\u2581Hitler": 4814,
  "\u2581Jephthah": 4815,
  "\u2581Sewa": 4816,
  "\u2581Silas": 4817,
  "\u2581ends": 4818,
  "\u2581execution": 4819,
  "\u2581lapolice": 4820,
  "\u2581mine": 4821,
  "\u2581pictures": 4822,
  "\u2581planet": 4823,
  "\u2581proclaim": 4824,
  "\u2581remembered": 4825,
  "\u2581services": 4826,
  "\u2581shoulder": 4827,
  "\u2581sincerely": 4828,
  "\u2581surface": 4829,
  "\u2581victim": 4830,
  "\u2581visible": 4831,
  "\u2581\u00c9ph\u00e8se": 4832,
  "\u258175": 4833,
  "\u2581Committee": 4834,
  "\u2581February": 4835,
  "\u2581Henry": 4836,
  "\u2581Jas": 4837,
  "\u2581News": 4838,
  "\u2581Nombre": 4839,
  "\u2581Sango": 4840,
  "\u2581Ur": 4841,
  "\u2581agere": 4842,
  "\u2581civil": 4843,
  "\u2581commendation": 4844,
  "\u2581condemned": 4845,
  "\u2581doubts": 4846,
  "\u2581empower": 4847,
  "\u2581hospital": 4848,
  "\u2581increasing": 4849,
  "\u2581manuscripts": 4850,
  "\u2581newspaper": 4851,
  "\u2581nzoroko": 4852,
  "\u2581prophesied": 4853,
  "\u2581psalm": 4854,
  "\u2581rendering": 4855,
  "\u2581spending": 4856,
  "\u2581teenager": 4857,
  "\u2581temper": 4858,
  "\u2581\u00c9lis\u00e9e": 4859,
  "boro": 4860,
  "hinga": 4861,
  "\u2581Atene": 4862,
  "\u2581HOW": 4863,
  "\u2581Hope": 4864,
  "\u2581Knowledge": 4865,
  "\u2581Reflect": 4866,
  "\u2581accompany": 4867,
  "\u2581add": 4868,
  "\u2581arose": 4869,
  "\u2581asua": 4870,
  "\u2581bed": 4871,
  "\u2581bir\u00f6o": 4872,
  "\u2581comfortable": 4873,
  "\u2581continually": 4874,
  "\u2581deceived": 4875,
  "\u2581deeper": 4876,
  "\u2581desired": 4877,
  "\u2581discussions": 4878,
  "\u2581famous": 4879,
  "\u2581hesitate": 4880,
  "\u2581hunger": 4881,
  "\u2581ndeke": 4882,
  "\u2581opinion": 4883,
  "\u2581reside": 4884,
  "\u2581testimony": 4885,
  "\u2581wear": 4886,
  "ling": 4887,
  "ro": 4888,
  "si": 4889,
  "use": 4890,
  "\u2581150": 4891,
  "\u25811939": 4892,
  "\u2581ARTICLES": 4893,
  "\u2581Agrippa": 4894,
  "\u2581Evidently": 4895,
  "\u2581Fear": 4896,
  "\u2581MAT": 4897,
  "\u2581Old": 4898,
  "\u2581Siriri": 4899,
  "\u2581Sodom": 4900,
  "\u2581Thessalonique": 4901,
  "\u2581View": 4902,
  "\u2581Within": 4903,
  "\u2581acommandement": 4904,
  "\u2581aka\u00ef": 4905,
  "\u2581boys": 4906,
  "\u2581compromise": 4907,
  "\u2581fears": 4908,
  "\u2581fields": 4909,
  "\u2581haughty": 4910,
  "\u2581heal": 4911,
  "\u2581inspiring": 4912,
  "\u2581interesting": 4913,
  "\u2581lacking": 4914,
  "\u2581mbinda": 4915,
  "\u2581repeated": 4916,
  "\u2581river": 4917,
  "\u2581sell": 4918,
  "\u2581sitting": 4919,
  "\u2581wealthy": 4920,
  "ment": 4921,
  "ndoye": 4922,
  "\u2581Don": 4923,
  "\u2581FD": 4924,
  "\u2581Gabriel": 4925,
  "\u2581H\u00e9rode": 4926,
  "\u2581Speaking": 4927,
  "\u2581St": 4928,
  "\u2581Tere": 4929,
  "\u2581Trust": 4930,
  "\u2581admit": 4931,
  "\u2581afterward": 4932,
  "\u2581anxieties": 4933,
  "\u2581ay\u00f4": 4934,
  "\u2581buruma": 4935,
  "\u2581dies": 4936,
  "\u2581exemplary": 4937,
  "\u2581gets": 4938,
  "\u2581hoped": 4939,
  "\u2581immediate": 4940,
  "\u2581located": 4941,
  "\u2581obeyed": 4942,
  "\u2581peer": 4943,
  "\u2581prospects": 4944,
  "\u2581reflects": 4945,
  "\u2581resurrect": 4946,
  "\u2581satisfy": 4947,
  "\u2581specifically": 4948,
  "\u2581stumble": 4949,
  "\u2581unexpected": 4950,
  "ably": 4951,
  "\u25811998": 4952,
  "\u2581Close": 4953,
  "\u2581De": 4954,
  "\u2581Herod": 4955,
  "\u2581Index": 4956,
  "\u2581accused": 4957,
  "\u2581alettre": 4958,
  "\u2581armor": 4959,
  "\u2581consist": 4960,
  "\u2581continuing": 4961,
  "\u2581emotionally": 4962,
  "\u2581engaged": 4963,
  "\u2581exciting": 4964,
  "\u2581fiery": 4965,
  "\u2581fulfilling": 4966,
  "\u2581judged": 4967,
  "\u2581shine": 4968,
  "\u2581suitable": 4969,
  "\u2581tradition": 4970,
  "ma": 4971,
  "ndia": 4972,
  "we": 4973,
  "\u258157": 4974,
  "\u2581Albert": 4975,
  "\u2581Habaqouq": 4976,
  "\u2581Numbers": 4977,
  "\u2581ap\u00e9riodique": 4978,
  "\u2581awomua": 4979,
  "\u2581effectively": 4980,
  "\u2581fighting": 4981,
  "\u2581fish": 4982,
  "\u2581obtained": 4983,
  "\u2581origin": 4984,
  "\u2581practiced": 4985,
  "\u2581price": 4986,
  "\u2581quiet": 4987,
  "\u2581ran": 4988,
  "\u2581reads": 4989,
  "\u2581respects": 4990,
  "\u2581top": 4991,
  "\u2581visitors": 4992,
  "\u2581volunteers": 4993,
  "Who": 4994,
  "gbakuru": 4995,
  "sala": 4996,
  "\u25811513": 4997,
  "\u258131,": 4998,
  "\u2581Karen": 4999,
  "\u2581Komit": 5000,
  "\u2581Maintain": 5001,
  "\u2581Nazi": 5002,
  "\u2581Please": 5003,
  "\u2581application": 5004,
  "\u2581captivity": 5005,
  "\u2581cherish": 5006,
  "\u2581equal": 5007,
  "\u2581handed": 5008,
  "\u2581judgments": 5009,
  "\u2581miss": 5010,
  "\u2581namely": 5011,
  "\u2581red": 5012,
  "\u2581restoration": 5013,
  "\u2581silent": 5014,
  "\u2581suggested": 5015,
  "\u2581weapons": 5016,
  "ies": 5017,
  "ll": 5018,
  "son": 5019,
  "\u258115.)": 5020,
  "\u258132]": 5021,
  "\u258141.": 5022,
  "\u2581L\u00e9vi": 5023,
  "\u2581Pay": 5024,
  "\u2581Priest": 5025,
  "\u2581assemblies": 5026,
  "\u2581ayenga": 5027,
  "\u2581development": 5028,
  "\u2581equipped": 5029,
  "\u2581ethnic": 5030,
  "\u2581extraordinary": 5031,
  "\u2581globe": 5032,
  "\u2581hide": 5033,
  "\u2581h\u00f4pital": 5034,
  "\u2581length": 5035,
  "\u2581maintained": 5036,
  "\u2581ma\u00eetre": 5037,
  "\u2581phone": 5038,
  "\u2581reasoned": 5039,
  "\u2581receives": 5040,
  "\u2581scale": 5041,
  "\u2581schedule": 5042,
  "\u2581sorrow": 5043,
  "\u2581station": 5044,
  "\u2581sufficient": 5045,
  "\u2581thrilling": 5046,
  "\u2581unusual": 5047,
  "B\u00ea": 5048,
  "yingo": 5049,
  "\u25811995": 5050,
  "\u25812005": 5051,
  "\u2581African": 5052,
  "\u2581Consequently": 5053,
  "\u2581Cyrus": 5054,
  "\u2581Evening": 5055,
  "\u2581Library": 5056,
  "\u2581London": 5057,
  "\u2581Meal": 5058,
  "\u2581Nations": 5059,
  "\u2581Ninive": 5060,
  "\u2581Sunday": 5061,
  "\u2581Were": 5062,
  "\u2581adopted": 5063,
  "\u2581agreement": 5064,
  "\u2581annual": 5065,
  "\u2581apostasy": 5066,
  "\u2581apostate": 5067,
  "\u2581arrival": 5068,
  "\u2581asigi": 5069,
  "\u2581atmosphere": 5070,
  "\u2581bride": 5071,
  "\u2581citizens": 5072,
  "\u2581color": 5073,
  "\u2581dodo": 5074,
  "\u2581educational": 5075,
  "\u2581feed": 5076,
  "\u2581forgiven": 5077,
  "\u2581gati": 5078,
  "\u2581headship": 5079,
  "\u2581huru": 5080,
  "\u2581lutingo": 5081,
  "\u2581preachers": 5082,
  "\u2581rebellious": 5083,
  "\u2581ruled": 5084,
  "\u2581sanctified": 5085,
  "amolenge": 5086,
  "ko": 5087,
  "\u25811960": 5088,
  "\u2581Become": 5089,
  "\u2581Ki": 5090,
  "\u2581Knowing": 5091,
  "\u2581LA": 5092,
  "\u2581MBI": 5093,
  "\u2581Pr\u00eatre": 5094,
  "\u2581Year": 5095,
  "\u2581accident": 5096,
  "\u2581adults": 5097,
  "\u2581amazing": 5098,
  "\u2581badness": 5099,
  "\u2581boat": 5100,
  "\u2581comforted": 5101,
  "\u2581deception": 5102,
  "\u2581errors": 5103,
  "\u2581frequently": 5104,
  "\u2581imprisoned": 5105,
  "\u2581neutrality": 5106,
  "\u2581outlook": 5107,
  "\u2581prompt": 5108,
  "\u2581refreshment": 5109,
  "\u2581shield": 5110,
  "\u2581spouse": 5111,
  "\u2581stones": 5112,
  "\u2581television": 5113,
  "\u2581undergo": 5114,
  "\u2581vain": 5115,
  "\u2581wholeheartedly": 5116,
  "at": 5117,
  "\u25812015": 5118,
  "\u258162": 5119,
  "\u258186": 5120,
  "\u2581Chinese": 5121,
  "\u2581Korah": 5122,
  "\u2581Lumi\u00e8re": 5123,
  "\u2581Shepherd": 5124,
  "\u2581Sion": 5125,
  "\u2581Truly": 5126,
  "\u2581achapitre": 5127,
  "\u2581adi": 5128,
  "\u2581admonished": 5129,
  "\u2581discussing": 5130,
  "\u2581disposition": 5131,
  "\u2581dying": 5132,
  "\u2581edition": 5133,
  "\u2581execute": 5134,
  "\u2581exercised": 5135,
  "\u2581happening": 5136,
  "\u2581highlight": 5137,
  "\u2581los": 5138,
  "\u2581ng": 5139,
  "\u2581north": 5140,
  "\u2581opinions": 5141,
  "\u2581priorities": 5142,
  "\u2581replaced": 5143,
  "\u2581suggests": 5144,
  "\u2581tempered": 5145,
  "\u2581totally": 5146,
  "\u2581yangbo": 5147,
  "engele": 5148,
  "\u2581Much": 5149,
  "\u2581Next": 5150,
  "\u2581Pepe": 5151,
  "\u2581Phil": 5152,
  "\u2581Reign": 5153,
  "\u2581Seed": 5154,
  "\u2581WHEN": 5155,
  "\u2581ahule": 5156,
  "\u2581bones": 5157,
  "\u2581contentment": 5158,
  "\u2581disappointed": 5159,
  "\u2581discouragement": 5160,
  "\u2581exile": 5161,
  "\u2581fled": 5162,
  "\u2581fono": 5163,
  "\u2581hungry": 5164,
  "\u2581hypocrisy": 5165,
  "\u2581intimate": 5166,
  "\u2581minutes": 5167,
  "\u2581running": 5168,
  "\u2581science": 5169,
  "\u2581sending": 5170,
  "\u2581sentence": 5171,
  "\u2581soldier": 5172,
  "\u2581striving": 5173,
  "\u2581tools": 5174,
  "\u2581wasiokpari": 5175,
  "\u2581whenever": 5176,
  "\u2581widows": 5177,
  "H": 5178,
  "Why": 5179,
  "cr\u00e9ature": 5180,
  "doubtedly": 5181,
  "\u258130:": 5182,
  "\u2581Achab": 5183,
  "\u2581Britain": 5184,
  "\u2581Death": 5185,
  "\u2581East": 5186,
  "\u2581FOR": 5187,
  "\u2581Marriage": 5188,
  "\u2581ajuge": 5189,
  "\u2581alisoro": 5190,
  "\u2581associations": 5191,
  "\u2581b\u00e9b\u00e9": 5192,
  "\u2581camps": 5193,
  "\u2581clothes": 5194,
  "\u2581comparison": 5195,
  "\u2581depict": 5196,
  "\u2581ensure": 5197,
  "\u2581highlighted": 5198,
  "\u2581honesty": 5199,
  "\u2581instruct": 5200,
  "\u2581originally": 5201,
  "\u2581overwhelmed": 5202,
  "\u2581previously": 5203,
  "\u2581prisoners": 5204,
  "\u2581refrain": 5205,
  "\u2581remote": 5206,
  "\u2581title": 5207,
  "\u2581vine": 5208,
  "Biani": 5209,
  "\u2581110": 5210,
  "\u258124]": 5211,
  "\u258146.": 5212,
  "\u2581Aquila": 5213,
  "\u2581Arthur": 5214,
  "\u2581Miriam": 5215,
  "\u2581Pak": 5216,
  "\u2581Psalms": 5217,
  "\u2581Theocratic": 5218,
  "\u2581absorb": 5219,
  "\u2581admits": 5220,
  "\u2581angasa": 5221,
  "\u2581ataba": 5222,
  "\u2581bought": 5223,
  "\u2581burned": 5224,
  "\u2581friendships": 5225,
  "\u2581fuku": 5226,
  "\u2581games": 5227,
  "\u2581jealousy": 5228,
  "\u2581judicial": 5229,
  "\u2581kopo": 5230,
  "\u2581lift": 5231,
  "\u2581portion": 5232,
  "\u2581printing": 5233,
  "\u2581seeming": 5234,
  "\u2581site": 5235,
  "\u2581suru": 5236,
  "\u2581symbol": 5237,
  "\u2581thorough": 5238,
  "\u2581trustworthy": 5239,
  "\u2581urgent": 5240,
  "\u2581weeds": 5241,
  "\u2581won": 5242,
  "At\u00e2": 5243,
  "THIE": 5244,
  "of": 5245,
  "\u258129]": 5246,
  "\u25813.)": 5247,
  "\u2581ALA": 5248,
  "\u2581Elis\u00e9e": 5249,
  "\u2581Joel": 5250,
  "\u2581avoided": 5251,
  "\u2581bengba": 5252,
  "\u2581conform": 5253,
  "\u2581elsewhere": 5254,
  "\u2581favorable": 5255,
  "\u2581materially": 5256,
  "\u2581middle": 5257,
  "\u2581pe": 5258,
  "\u2581selected": 5259,
  "\u2581settle": 5260,
  "\u2581statements": 5261,
  "\u2581strike": 5262,
  "\u2581stumbling": 5263,
  "\u2581zabolo": 5264,
  "\u25cf": 5265,
  "ING": 5266,
  "\u2581Again": 5267,
  "\u2581Ananias": 5268,
  "\u2581Any": 5269,
  "\u2581Bethlehem": 5270,
  "\u2581Caesar": 5271,
  "\u2581Egyptians": 5272,
  "\u2581Gal": 5273,
  "\u2581Inde": 5274,
  "\u2581Judge": 5275,
  "\u2581Loving": 5276,
  "\u2581Millions": 5277,
  "\u2581Nze": 5278,
  "\u2581Red": 5279,
  "\u2581Which": 5280,
  "\u2581associating": 5281,
  "\u2581awanguru": 5282,
  "\u2581cooperate": 5283,
  "\u2581debt": 5284,
  "\u2581declaration": 5285,
  "\u2581defense": 5286,
  "\u2581depressed": 5287,
  "\u2581ear": 5288,
  "\u2581exchange": 5289,
  "\u2581favorably": 5290,
  "\u2581glorified": 5291,
  "\u2581goats": 5292,
  "\u2581imitating": 5293,
  "\u2581inclination": 5294,
  "\u2581initial": 5295,
  "\u2581kingship": 5296,
  "\u2581linked": 5297,
  "\u2581mbanda": 5298,
  "\u2581method": 5299,
  "\u2581moon": 5300,
  "\u2581m\u00e8tre": 5301,
  "\u2581necessarily": 5302,
  "\u2581practicing": 5303,
  "\u2581publisher": 5304,
  "\u2581ship": 5305,
  "\u2581sinner": 5306,
  "\u2581survived": 5307,
  "\u2581tente": 5308,
  "\u2581video": 5309,
  "\u2581wayinda": 5310,
  "\u2581\u00c2nd\u00f6": 5311,
  "ED": 5312,
  "gere": 5313,
  "handling": 5314,
  "new": 5315,
  "\u00e3o": 5316,
  "\u2581*.": 5317,
  "\u25811943": 5318,
  "\u25811946": 5319,
  "\u2581Additionally": 5320,
  "\u2581Dad": 5321,
  "\u2581Elihu": 5322,
  "\u2581Gold": 5323,
  "\u2581LEGE": 5324,
  "\u2581Pologne": 5325,
  "\u2581THIS": 5326,
  "\u2581T\u00f6": 5327,
  "\u2581aProtestant": 5328,
  "\u2581afflicted": 5329,
  "\u2581andokua": 5330,
  "\u2581duties": 5331,
  "\u2581leadership": 5332,
  "\u2581location": 5333,
  "\u2581missing": 5334,
  "\u2581murder": 5335,
  "\u2581obvious": 5336,
  "\u2581operation": 5337,
  "\u2581paths": 5338,
  "\u2581pity": 5339,
  "\u2581prejudice": 5340,
  "\u2581talents": 5341,
  "\u2581turns": 5342,
  "\u2581wanganga": 5343,
  "\u2581yo": 5344,
  "by": 5345,
  "duti": 5346,
  "ical": 5347,
  "proving": 5348,
  "there": 5349,
  "\u2581Abungbi": 5350,
  "\u2581Imitate": 5351,
  "\u2581Italy": 5352,
  "\u2581Jacq": 5353,
  "\u2581Living": 5354,
  "\u2581Ndulu": 5355,
  "\u2581Near": 5356,
  "\u2581achieve": 5357,
  "\u2581azonga": 5358,
  "\u2581blame": 5359,
  "\u2581changement": 5360,
  "\u2581deserve": 5361,
  "\u2581elements": 5362,
  "\u2581fed": 5363,
  "\u2581immortal": 5364,
  "\u2581impression": 5365,
  "\u2581intelligent": 5366,
  "\u2581ordinary": 5367,
  "\u2581possibility": 5368,
  "\u2581produces": 5369,
  "\u2581saving": 5370,
  "\u2581standpoint": 5371,
  "\u2581struggling": 5372,
  "\u2581unfaithful": 5373,
  "ous": 5374,
  "\u258130,": 5375,
  "\u2581Apendere": 5376,
  "\u2581Bas": 5377,
  "\u2581Habakuk": 5378,
  "\u2581Jehoshaphat": 5379,
  "\u2581M\u00e4": 5380,
  "\u2581Sandra": 5381,
  "\u2581access": 5382,
  "\u2581adekongo": 5383,
  "\u2581ambarata": 5384,
  "\u2581dedicate": 5385,
  "\u2581deepen": 5386,
  "\u2581distinguish": 5387,
  "\u2581foremost": 5388,
  "\u2581gracious": 5389,
  "\u2581heirs": 5390,
  "\u2581level": 5391,
  "\u2581mass": 5392,
  "\u2581perfectly": 5393,
  "\u2581permit": 5394,
  "\u2581storm": 5395,
  "\u2581ton": 5396,
  "\u2581valid": 5397,
  "4": 5398,
  "mo": 5399,
  "\u25812007": 5400,
  "\u258143.": 5401,
  "\u258191": 5402,
  "\u2581Bethl\u00e9hem": 5403,
  "\u2581Human": 5404,
  "\u2581Years": 5405,
  "\u2581apostates": 5406,
  "\u2581ase": 5407,
  "\u2581awaiting": 5408,
  "\u2581belonging": 5409,
  "\u2581commissioned": 5410,
  "\u2581concentration": 5411,
  "\u2581cried": 5412,
  "\u2581disposed": 5413,
  "\u2581endless": 5414,
  "\u2581fathers": 5415,
  "\u2581feared": 5416,
  "\u2581generosity": 5417,
  "\u2581limon": 5418,
  "\u2581needy": 5419,
  "\u2581ngambe": 5420,
  "\u2581positions": 5421,
  "\u2581respected": 5422,
  "\u2581safety": 5423,
  "\u2581select": 5424,
  "\u2581sole": 5425,
  "\u2581spite": 5426,
  "\u2581unbelievers": 5427,
  "ia": 5428,
  "uska": 5429,
  "yongoro": 5430,
  "\u25812006": 5431,
  "\u2581Back": 5432,
  "\u2581Gentiles": 5433,
  "\u2581Guil\u00e9ad": 5434,
  "\u2581MN": 5435,
  "\u2581aPhil": 5436,
  "\u2581billions": 5437,
  "\u2581centered": 5438,
  "\u2581correction": 5439,
  "\u2581current": 5440,
  "\u2581emblems": 5441,
  "\u2581emphasized": 5442,
  "\u2581empire": 5443,
  "\u2581expose": 5444,
  "\u2581figue": 5445,
  "\u2581happily": 5446,
  "\u2581illustrated": 5447,
  "\u2581illustrates": 5448,
  "\u2581imperfections": 5449,
  "\u2581lampo": 5450,
  "\u2581partake": 5451,
  "\u2581strongly": 5452,
  "\u2581trap": 5453,
  "\u2581worry": 5454,
  "\u2581133": 5455,
  "\u2581Arche": 5456,
  "\u2581Kindness": 5457,
  "\u2581Need": 5458,
  "\u2581Story": 5459,
  "\u2581appointment": 5460,
  "\u2581awayere": 5461,
  "\u2581bears": 5462,
  "\u2581carte": 5463,
  "\u2581convince": 5464,
  "\u2581crushed": 5465,
  "\u2581distressing": 5466,
  "\u2581donzi": 5467,
  "\u2581expand": 5468,
  "\u2581f\u00e9vrier": 5469,
  "\u2581gross": 5470,
  "\u2581mentions": 5471,
  "\u2581monde": 5472,
  "\u2581nganga": 5473,
  "\u2581nouveau": 5474,
  "\u2581presentation": 5475,
  "\u2581proclaiming": 5476,
  "\u2581push": 5477,
  "\u2581ridicule": 5478,
  "\u2581ro": 5479,
  "\u2581sabango": 5480,
  "\u2581settled": 5481,
  "\u2581sinziri": 5482,
  "\u2581stands": 5483,
  "\u2581sui": 5484,
  "\u2581tragedy": 5485,
  "\u2581unwise": 5486,
  "Angl": 5487,
  "pe": 5488,
  "\u258121]": 5489,
  "\u2581Andr\u00e9": 5490,
  "\u2581Bengba": 5491,
  "\u2581Giving": 5492,
  "\u2581Josaphat": 5493,
  "\u2581Septante": 5494,
  "\u2581Serving": 5495,
  "\u2581aPhilistin": 5496,
  "\u2581adhere": 5497,
  "\u2581bele": 5498,
  "\u2581chaste": 5499,
  "\u2581conflicts": 5500,
  "\u2581drug": 5501,
  "\u2581examining": 5502,
  "\u2581fresh": 5503,
  "\u2581homeland": 5504,
  "\u2581hoping": 5505,
  "\u2581improper": 5506,
  "\u2581juge": 5507,
  "\u2581lawlessness": 5508,
  "\u2581neutral": 5509,
  "\u2581officer": 5510,
  "\u2581peers": 5511,
  "\u2581pieces": 5512,
  "\u2581pleasures": 5513,
  "\u2581productive": 5514,
  "\u2581sing": 5515,
  "\u2581unrepentant": 5516,
  "\u2581unscriptural": 5517,
  "\u2581zu": 5518,
  "\u2581\u00c9critures": 5519,
  "\u25811953": 5520,
  "\u2581Cameron": 5521,
  "\u2581Col": 5522,
  "\u2581J\u00e9richo": 5523,
  "\u2581Rebecca": 5524,
  "\u2581Temple": 5525,
  "\u2581Wise": 5526,
  "\u2581aboi": 5527,
  "\u2581alimon": 5528,
  "\u2581ay\u00f4ro": 5529,
  "\u2581changing": 5530,
  "\u2581commended": 5531,
  "\u2581composed": 5532,
  "\u2581considerable": 5533,
  "\u2581deceptive": 5534,
  "\u2581detailed": 5535,
  "\u2581difficulty": 5536,
  "\u2581dry": 5537,
  "\u2581est": 5538,
  "\u2581gbakuru": 5539,
  "\u2581incident": 5540,
  "\u2581introduced": 5541,
  "\u2581ndao": 5542,
  "\u2581ongoing": 5543,
  "\u2581openly": 5544,
  "\u2581originate": 5545,
  "\u2581petitions": 5546,
  "\u2581philosophy": 5547,
  "\u2581readers": 5548,
  "\u2581richly": 5549,
  "\u2581scribes": 5550,
  "\u2581understands": 5551,
  "\u2581voyag\u00e9": 5552,
  "\u2581widespread": 5553,
  "Fa": 5554,
  "ism": 5555,
  "raduction": 5556,
  "\u2581Bill": 5557,
  "\u2581Britannica": 5558,
  "\u2581European": 5559,
  "\u2581Filiale": 5560,
  "\u2581Haggai": 5561,
  "\u2581IT": 5562,
  "\u2581Last": 5563,
  "\u2581Naboth": 5564,
  "\u2581Nebuchadnezzar": 5565,
  "\u2581Ones": 5566,
  "\u2581Septuagint": 5567,
  "\u2581S\u00e9ba": 5568,
  "\u2581Up": 5569,
  "\u2581adema": 5570,
  "\u2581ad\u00e9mon": 5571,
  "\u2581beside": 5572,
  "\u2581bright": 5573,
  "\u2581complex": 5574,
  "\u2581exercises": 5575,
  "\u2581friendly": 5576,
  "\u2581guests": 5577,
  "\u2581ignored": 5578,
  "\u2581judging": 5579,
  "\u2581measures": 5580,
  "\u2581patron": 5581,
  "\u2581producing": 5582,
  "\u2581schools": 5583,
  "\u2581submission": 5584,
  "\u2581thrilled": 5585,
  "\u2581tongues": 5586,
  "\u2581vaka": 5587,
  "dipl\u00f4me": 5588,
  "im": 5589,
  "\u258147.": 5590,
  "\u2581Awali": 5591,
  "\u2581Colosses": 5592,
  "\u2581Diable": 5593,
  "\u2581Jew": 5594,
  "\u2581Josias": 5595,
  "\u2581Long": 5596,
  "\u2581Philippes": 5597,
  "\u2581Power": 5598,
  "\u2581achangement": 5599,
  "\u2581assume": 5600,
  "\u2581conquered": 5601,
  "\u2581constitute": 5602,
  "\u2581deed": 5603,
  "\u2581explaining": 5604,
  "\u2581extra": 5605,
  "\u2581format": 5606,
  "\u2581guilt": 5607,
  "\u2581indication": 5608,
  "\u2581mid": 5609,
  "\u2581movement": 5610,
  "\u2581ngbango": 5611,
  "\u2581ngoro": 5612,
  "\u2581prior": 5613,
  "\u2581rob": 5614,
  "\u2581sheba": 5615,
  "\u2581solve": 5616,
  "\u2581typical": 5617,
  "\u2581vuko": 5618,
  "\u2581weekly": 5619,
  "from": 5620,
  "os": 5621,
  "\u25811942": 5622,
  "\u25811991": 5623,
  "\u25811997": 5624,
  "\u258163": 5625,
  "\u2581Amara": 5626,
  "\u2581America": 5627,
  "\u2581Highlight": 5628,
  "\u2581Kangbi": 5629,
  "\u2581Lingbi": 5630,
  "\u2581Ohio": 5631,
  "\u2581Put": 5632,
  "\u2581Right": 5633,
  "\u2581WA": 5634,
  "\u2581af\u00e4": 5635,
  "\u2581amaboko": 5636,
  "\u2581ashamed": 5637,
  "\u2581average": 5638,
  "\u2581bara": 5639,
  "\u2581check": 5640,
  "\u2581commend": 5641,
  "\u2581evangelizers": 5642,
  "\u2581forefathers": 5643,
  "\u2581heritage": 5644,
  "\u2581imitation": 5645,
  "\u2581media": 5646,
  "\u2581overwhelming": 5647,
  "\u2581owner": 5648,
  "\u2581perceive": 5649,
  "\u2581shame": 5650,
  "\u2581supplies": 5651,
  "\u2581telephone": 5652,
  "\u2581timely": 5653,
  "\u2581types": 5654,
  "reby": 5655,
  "\u00ef": 5656,
  "\u25811958": 5657,
  "\u25811980": 5658,
  "\u25812.)": 5659,
  "\u258141,": 5660,
  "\u258159": 5661,
  "\u258171": 5662,
  "\u2581Adisciple": 5663,
  "\u2581Farizien": 5664,
  "\u2581Let\u00e4a": 5665,
  "\u2581Ma\u00eetre": 5666,
  "\u2581Men": 5667,
  "\u2581Paulo": 5668,
  "\u2581Samaria": 5669,
  "\u2581Sheol": 5670,
  "\u2581Thereafter": 5671,
  "\u2581abio": 5672,
  "\u2581accurately": 5673,
  "\u2581aim": 5674,
  "\u2581azu": 5675,
  "\u2581confirm": 5676,
  "\u2581delay": 5677,
  "\u2581enjoyment": 5678,
  "\u2581fifth": 5679,
  "\u2581fortify": 5680,
  "\u2581garments": 5681,
  "\u2581greatness": 5682,
  "\u2581heartwarming": 5683,
  "\u2581host": 5684,
  "\u2581idols": 5685,
  "\u2581kangba": 5686,
  "\u2581keen": 5687,
  "\u2581lifetime": 5688,
  "\u2581memorial": 5689,
  "\u2581messages": 5690,
  "\u2581mingo": 5691,
  "\u2581neige": 5692,
  "\u2581permitted": 5693,
  "\u2581rebel": 5694,
  "\u2581sacrificial": 5695,
  "\u2581shadow": 5696,
  "\u2581truthfulness": 5697,
  "\u2581wanguru": 5698,
  "\u2581warn": 5699,
  ";...": 5700,
  "Sara": 5701,
  "either": 5702,
  "pp": 5703,
  "seed": 5704,
  "sepela": 5705,
  "some": 5706,
  "they": 5707,
  "\u2581130": 5708,
  "\u25811996": 5709,
  "\u25812,000": 5710,
  "\u258135:": 5711,
  "\u2581Aga": 5712,
  "\u2581Certainly": 5713,
  "\u2581Londres": 5714,
  "\u2581Purpose": 5715,
  "\u2581Si": 5716,
  "\u2581aGal": 5717,
  "\u2581avo": 5718,
  "\u2581backgrounds": 5719,
  "\u2581begun": 5720,
  "\u2581billion": 5721,
  "\u2581bore": 5722,
  "\u2581cell": 5723,
  "\u2581central": 5724,
  "\u2581clay": 5725,
  "\u2581counseled": 5726,
  "\u2581dessin": 5727,
  "\u2581developments": 5728,
  "\u2581distributed": 5729,
  "\u2581emphasis": 5730,
  "\u2581feast": 5731,
  "\u2581flood": 5732,
  "\u2581fond": 5733,
  "\u2581funds": 5734,
  "\u2581gbako": 5735,
  "\u2581informed": 5736,
  "\u2581intentions": 5737,
  "\u2581items": 5738,
  "\u2581objects": 5739,
  "\u2581planning": 5740,
  "\u2581plenty": 5741,
  "\u2581proclaimed": 5742,
  "\u2581proverb": 5743,
  "\u2581reserved": 5744,
  "\u2581spreading": 5745,
  "\u2581succeeded": 5746,
  "\u2581surrounding": 5747,
  "\u2581team": 5748,
  "\u2581thoroughly": 5749,
  "\u2581transform": 5750,
  "\u2581yield": 5751,
  "Ngbanga": 5752,
  "dicating": 5753,
  "ern": 5754,
  "gainst": 5755,
  "gonzo": 5756,
  "nointed": 5757,
  "si\u00e8cle": 5758,
  "\u25811952": 5759,
  "\u25811955": 5760,
  "\u2581AFA": 5761,
  "\u2581Brian": 5762,
  "\u2581Continue": 5763,
  "\u2581Divine": 5764,
  "\u2581Hal": 5765,
  "\u2581Jericho": 5766,
  "\u2581Juge": 5767,
  "\u2581Ku\u00e2": 5768,
  "\u2581Ndara": 5769,
  "\u2581Portugal": 5770,
  "\u2581adversity": 5771,
  "\u2581announced": 5772,
  "\u2581awanganga": 5773,
  "\u2581blesses": 5774,
  "\u2581condemn": 5775,
  "\u2581conquer": 5776,
  "\u2581deserves": 5777,
  "\u2581diligently": 5778,
  "\u2581gladly": 5779,
  "\u2581magnificent": 5780,
  "\u2581phrase": 5781,
  "\u2581politics": 5782,
  "\u2581programs": 5783,
  "\u2581scientists": 5784,
  "\u2581tufa": 5785,
  "\u2581uncleanness": 5786,
  "\u2581virtue": 5787,
  "AS": 5788,
  "ES": 5789,
  "orc\u00e9": 5790,
  "sambela": 5791,
  "wagame": 5792,
  "\u2581Ath\u00e8nes": 5793,
  "\u2581Ben": 5794,
  "\u2581Jan": 5795,
  "\u2581Mbilimbili": 5796,
  "\u2581Naaman": 5797,
  "\u2581Nineveh": 5798,
  "\u2581Person": 5799,
  "\u2581Protestant": 5800,
  "\u2581Religion": 5801,
  "\u2581Rule": 5802,
  "\u2581Sophonie": 5803,
  "\u2581Very": 5804,
  "\u2581advanced": 5805,
  "\u2581ages": 5806,
  "\u2581asusu": 5807,
  "\u2581boldly": 5808,
  "\u2581claims": 5809,
  "\u2581cloud": 5810,
  "\u2581commented": 5811,
  "\u2581commercial": 5812,
  "\u2581couronne": 5813,
  "\u2581devote": 5814,
  "\u2581exclusive": 5815,
  "\u2581exhortation": 5816,
  "\u2581falling": 5817,
  "\u2581gatherings": 5818,
  "\u2581girls": 5819,
  "\u2581gouverneur": 5820,
  "\u2581helper": 5821,
  "\u2581lampe": 5822,
  "\u2581mua": 5823,
  "\u2581offended": 5824,
  "\u2581outcry": 5825,
  "\u2581pair": 5826,
  "\u2581prominence": 5827,
  "\u2581protects": 5828,
  "\u2581smoking": 5829,
  "\u2581stating": 5830,
  "\u2581unselfish": 5831,
  "\u2581viewing": 5832,
  "ctively": 5833,
  "\u258148.": 5834,
  "\u2581Agg\u00e9e": 5835,
  "\u2581Brothers": 5836,
  "\u2581Hans": 5837,
  "\u2581Nothing": 5838,
  "\u2581Philippi": 5839,
  "\u2581Tak": 5840,
  "\u2581afilm": 5841,
  "\u2581badly": 5842,
  "\u2581cross": 5843,
  "\u2581discover": 5844,
  "\u2581gentle": 5845,
  "\u2581heat": 5846,
  "\u2581hopes": 5847,
  "\u2581inspiration": 5848,
  "\u2581jobs": 5849,
  "\u2581lower": 5850,
  "\u2581mb\u00f4": 5851,
  "\u2581minor": 5852,
  "\u2581outset": 5853,
  "\u2581permission": 5854,
  "\u2581reminder": 5855,
  "\u2581suit": 5856,
  "\u2581territories": 5857,
  "\u2581v\u00e9lo": 5858,
  "\u2581wages": 5859,
  "Come": 5860,
  "Now": 5861,
  "ngu": 5862,
  "ward": 5863,
  "was": 5864,
  "\u258115)": 5865,
  "\u25811922": 5866,
  "\u25811970": 5867,
  "\u2581Al": 5868,
  "\u2581Apply": 5869,
  "\u2581Babylonians": 5870,
  "\u2581Ghana": 5871,
  "\u2581Had": 5872,
  "\u2581Joy": 5873,
  "\u2581Reading": 5874,
  "\u2581Thessalonica": 5875,
  "\u2581Union": 5876,
  "\u2581admitted": 5877,
  "\u2581amazed": 5878,
  "\u2581art": 5879,
  "\u2581avoizin": 5880,
  "\u2581ban": 5881,
  "\u2581comprendre": 5882,
  "\u2581crown": 5883,
  "\u2581cultures": 5884,
  "\u2581drive": 5885,
  "\u2581earn": 5886,
  "\u2581flow": 5887,
  "\u2581fon": 5888,
  "\u2581grows": 5889,
  "\u2581hinder": 5890,
  "\u2581hot": 5891,
  "\u2581hurtful": 5892,
  "\u2581identifie": 5893,
  "\u2581individually": 5894,
  "\u2581linda": 5895,
  "\u2581marriages": 5896,
  "\u2581neglect": 5897,
  "\u2581passages": 5898,
  "\u2581pick": 5899,
  "\u2581proves": 5900,
  "\u2581rage": 5901,
  "\u2581size": 5902,
  "\u2581spared": 5903,
  "\u2581steal": 5904,
  "\u2581submitt": 5905,
  "\u2581tendencies": 5906,
  "\u2581traditions": 5907,
  "\u2581valley": 5908,
  "Aye": 5909,
  "BY": 5910,
  "Tene": 5911,
  "\u25811931": 5912,
  "\u25811945": 5913,
  "\u258169": 5914,
  "\u2581Brit": 5915,
  "\u2581Friend": 5916,
  "\u2581India": 5917,
  "\u2581QUESTIONS": 5918,
  "\u2581Teacher": 5919,
  "\u2581Try": 5920,
  "\u2581copper": 5921,
  "\u2581counted": 5922,
  "\u2581embrace": 5923,
  "\u2581entirely": 5924,
  "\u2581fault": 5925,
  "\u2581female": 5926,
  "\u2581futango": 5927,
  "\u2581garment": 5928,
  "\u2581ha": 5929,
  "\u2581hears": 5930,
  "\u2581horse": 5931,
  "\u2581islands": 5932,
  "\u2581kamela": 5933,
  "\u2581kotara": 5934,
  "\u2581let\u00e4a": 5935,
  "\u2581limits": 5936,
  "\u2581midi": 5937,
  "\u2581playing": 5938,
  "\u2581reassuring": 5939,
  "\u2581resort": 5940,
  "\u2581shepherding": 5941,
  "\u2581symbolized": 5942,
  "\u2581tremendous": 5943,
  "\u2581weight": 5944,
  "ngia": 5945,
  "ur": 5946,
  "wandara": 5947,
  "\u2581FINI": 5948,
  "\u2581Kode": 5949,
  "\u2581Leads": 5950,
  "\u2581Likely": 5951,
  "\u2581Michel": 5952,
  "\u2581Minor": 5953,
  "\u2581Re": 5954,
  "\u2581Sina\u00ef": 5955,
  "\u2581Ten": 5956,
  "\u2581Whom": 5957,
  "\u2581arrives": 5958,
  "\u2581branches": 5959,
  "\u2581cells": 5960,
  "\u2581contributions": 5961,
  "\u2581depression": 5962,
  "\u2581disobey": 5963,
  "\u2581empathy": 5964,
  "\u2581farm": 5965,
  "\u2581fought": 5966,
  "\u2581initially": 5967,
  "\u2581injury": 5968,
  "\u2581observance": 5969,
  "\u2581outright": 5970,
  "\u2581perspective": 5971,
  "\u2581preacher": 5972,
  "\u2581repay": 5973,
  "\u2581respectful": 5974,
  "\u2581sentenced": 5975,
  "\u2581sources": 5976,
  "\u2581summer": 5977,
  "\u2581supplication": 5978,
  "\u2581tragic": 5979,
  "\u2581walls": 5980,
  "\u2581weaken": 5981,
  "Fadeso": 5982,
  "Isra\u00ebl": 5983,
  "ard": 5984,
  "bi": 5985,
  "gave": 5986,
  "hale": 5987,
  "ngb\u00e2": 5988,
  "nginza": 5989,
  "oko": 5990,
  "working": 5991,
  "\u00dc": 5992,
  "\u2581112": 5993,
  "\u2581139": 5994,
  "\u25811994": 5995,
  "\u258135,": 5996,
  "\u2581700": 5997,
  "\u258197": 5998,
  "\u2581AND": 5999,
  "\u2581Ange": 6000,
  "\u2581Christlike": 6001,
  "\u2581Magog": 6002,
  "\u2581Michelle": 6003,
  "\u2581Rose": 6004,
  "\u2581absolutely": 6005,
  "\u2581ar\u00e9fugi\u00e9": 6006,
  "\u2581asava": 6007,
  "\u2581attracted": 6008,
  "\u2581c": 6009,
  "\u2581cease": 6010,
  "\u2581childhood": 6011,
  "\u2581comply": 6012,
  "\u2581delightful": 6013,
  "\u2581dishonor": 6014,
  "\u2581duty": 6015,
  "\u2581fruitful": 6016,
  "\u2581fruits": 6017,
  "\u2581gbogbo": 6018,
  "\u2581kuku": 6019,
  "\u2581lean": 6020,
  "\u2581loud": 6021,
  "\u2581meantime": 6022,
  "\u2581misled": 6023,
  "\u2581ndumba": 6024,
  "\u2581occurs": 6025,
  "\u2581overlook": 6026,
  "\u2581plain": 6027,
  "\u2581praised": 6028,
  "\u2581rid": 6029,
  "\u2581sanduku": 6030,
  "\u2581snare": 6031,
  "\u2581souled": 6032,
  "\u2581southern": 6033,
  "\u2581status": 6034,
  "\u2581submissive": 6035,
  "\u2581supposed": 6036,
  "\u2581transferred": 6037,
  "\u2581version": 6038,
  "\u2581visions": 6039,
  "\u2581wage": 6040,
  "G": 6041,
  "me": 6042,
  "put": 6043,
  "que": 6044,
  "tambela": 6045,
  "\u00e0": 6046,
  "\u25811949": 6047,
  "\u258184": 6048,
  "\u2581Accordingly": 6049,
  "\u2581Assembly": 6050,
  "\u2581Avoid": 6051,
  "\u2581Branch": 6052,
  "\u2581Drama": 6053,
  "\u2581Jah": 6054,
  "\u2581Jos\u00e9": 6055,
  "\u2581LIFE": 6056,
  "\u2581Laban": 6057,
  "\u2581North": 6058,
  "\u2581Palestine": 6059,
  "\u2581Sabbath": 6060,
  "\u2581Suppose": 6061,
  "\u2581Tony": 6062,
  "\u2581author": 6063,
  "\u2581creative": 6064,
  "\u2581expresse": 6065,
  "\u2581follows": 6066,
  "\u2581greedy": 6067,
  "\u2581increasingly": 6068,
  "\u2581milk": 6069,
  "\u2581mongoli": 6070,
  "\u2581numbers": 6071,
  "\u2581prayerfully": 6072,
  "\u2581presents": 6073,
  "\u2581promoted": 6074,
  "\u2581purposed": 6075,
  "\u2581references": 6076,
  "\u2581sand": 6077,
  "\u2581seated": 6078,
  "\u2581sowing": 6079,
  "\u2581talked": 6080,
  "\u2581vuru": 6081,
  "NW": 6082,
  "TION": 6083,
  "ire": 6084,
  "ncient": 6085,
  "nda": 6086,
  "nde": 6087,
  "this": 6088,
  "\u258158": 6089,
  "\u2581ACOR": 6090,
  "\u2581Andrew": 6091,
  "\u2581COR": 6092,
  "\u2581Encyclop\u00e6dia": 6093,
  "\u2581Everlasting": 6094,
  "\u2581Everyone": 6095,
  "\u2581Harold": 6096,
  "\u2581Head": 6097,
  "\u2581NDA": 6098,
  "\u2581Sanhedrin": 6099,
  "\u2581afford": 6100,
  "\u2581agbi": 6101,
  "\u2581arrive": 6102,
  "\u2581attractive": 6103,
  "\u2581catch": 6104,
  "\u2581delegates": 6105,
  "\u2581deliberately": 6106,
  "\u2581deserving": 6107,
  "\u2581disastrous": 6108,
  "\u2581exquisite": 6109,
  "\u2581forbidden": 6110,
  "\u2581holiness": 6111,
  "\u2581income": 6112,
  "\u2581independence": 6113,
  "\u2581jealous": 6114,
  "\u2581konomi": 6115,
  "\u2581loose": 6116,
  "\u2581mboko": 6117,
  "\u2581morality": 6118,
  "\u2581opens": 6119,
  "\u2581parallel": 6120,
  "\u2581photo": 6121,
  "\u2581range": 6122,
  "\u2581replace": 6123,
  "\u2581sensitive": 6124,
  "\u2581separated": 6125,
  "\u2581sorry": 6126,
  "\u2581sow": 6127,
  "\u2581touching": 6128,
  "\u2581towns": 6129,
  "\u2581worthwhile": 6130,
  "Disciple": 6131,
  "those": 6132,
  "\u2581106": 6133,
  "\u2581Antonio": 6134,
  "\u2581Ho": 6135,
  "\u2581Moder": 6136,
  "\u2581Papa": 6137,
  "\u2581Sinai": 6138,
  "\u2581chambre": 6139,
  "\u2581contemplate": 6140,
  "\u2581cooperation": 6141,
  "\u2581deny": 6142,
  "\u2581desperate": 6143,
  "\u2581ease": 6144,
  "\u2581enhance": 6145,
  "\u2581exact": 6146,
  "\u2581expectations": 6147,
  "\u2581hardship": 6148,
  "\u2581noteworthy": 6149,
  "\u2581prayerful": 6150,
  "\u2581sharp": 6151,
  "\u2581spiritism": 6152,
  "\u2581twice": 6153,
  "\u2581warmly": 6154,
  "\u2581welcomed": 6155,
  "2": 6156,
  "6": 6157,
  "AUME": 6158,
  "J": 6159,
  "ROM": 6160,
  "ant": 6161,
  "kode": 6162,
  "my": 6163,
  "ory": 6164,
  "specially": 6165,
  "wara": 6166,
  "\u25811935": 6167,
  "\u25811992": 6168,
  "\u258195": 6169,
  "\u2581Centuries": 6170,
  "\u2581Dieu": 6171,
  "\u2581End": 6172,
  "\u2581MBETI": 6173,
  "\u2581Republic": 6174,
  "\u2581Samaritan": 6175,
  "\u2581acquired": 6176,
  "\u2581confirmed": 6177,
  "\u2581consult": 6178,
  "\u2581contribution": 6179,
  "\u2581disappointment": 6180,
  "\u2581enjoyable": 6181,
  "\u2581equip": 6182,
  "\u2581evangelizer": 6183,
  "\u2581instituted": 6184,
  "\u2581kinds": 6185,
  "\u2581neka": 6186,
  "\u2581periods": 6187,
  "\u2581press": 6188,
  "\u2581protective": 6189,
  "\u2581pr\u00e9sident": 6190,
  "\u2581refugees": 6191,
  "\u2581repented": 6192,
  "\u2581representatives": 6193,
  "\u2581requests": 6194,
  "\u2581resident": 6195,
  "\u2581sports": 6196,
  "\u2581upper": 6197,
  "\u2581virgin": 6198,
  "Photo": 6199,
  "QUES": 6200,
  "RE": 6201,
  "el": 6202,
  "love": 6203,
  "m\u00e4": 6204,
  "puse": 6205,
  "resse": 6206,
  "saki": 6207,
  "teti": 6208,
  "ton": 6209,
  "un": 6210,
  "\u25811938": 6211,
  "\u25811947": 6212,
  "\u2581Abigail": 6213,
  "\u2581Abiga\u00efl": 6214,
  "\u2581Ammon": 6215,
  "\u2581Babel": 6216,
  "\u2581Dead": 6217,
  "\u2581Ferdinand": 6218,
  "\u2581Franz": 6219,
  "\u2581Jairo": 6220,
  "\u2581Maker": 6221,
  "\u2581Obviously": 6222,
  "\u2581Philistines": 6223,
  "\u2581Strong": 6224,
  "\u2581aCol": 6225,
  "\u2581captive": 6226,
  "\u2581classmates": 6227,
  "\u2581cleansed": 6228,
  "\u2581climate": 6229,
  "\u2581coast": 6230,
  "\u2581comforts": 6231,
  "\u2581concept": 6232,
  "\u2581declares": 6233,
  "\u2581demand": 6234,
  "\u2581despair": 6235,
  "\u2581diseases": 6236,
  "\u2581era": 6237,
  "\u2581exalted": 6238,
  "\u2581foroto": 6239,
  "\u2581fu": 6240,
  "\u2581honestly": 6241,
  "\u2581hurled": 6242,
  "\u2581implies": 6243,
  "\u2581memories": 6244,
  "\u2581multitude": 6245,
  "\u2581occasionally": 6246,
  "\u2581oversight": 6247,
  "\u2581participation": 6248,
  "\u2581priceless": 6249,
  "\u2581projects": 6250,
  "\u2581realistic": 6251,
  "\u2581resentment": 6252,
  "\u2581sides": 6253,
  "\u2581skin": 6254,
  "\u2581somewhat": 6255,
  "\u2581strange": 6256,
  "\u2581surprising": 6257,
  "\u2581ultimate": 6258,
  "\u2581wishes": 6259,
  "\u2581womb": 6260,
  "\u2581\u00c9sa\u00fc": 6261,
  "Aita": 6262,
  "Lege": 6263,
  "Our": 6264,
  "bibe": 6265,
  "lle": 6266,
  "\u25811993": 6267,
  "\u2581Actually": 6268,
  "\u2581Humans": 6269,
  "\u2581Inc": 6270,
  "\u2581Kor\u00e9": 6271,
  "\u2581Ku": 6272,
  "\u2581Little": 6273,
  "\u2581Mac\u00e9doine": 6274,
  "\u2581Manass\u00e9": 6275,
  "\u2581NZONI": 6276,
  "\u2581Nicodemus": 6277,
  "\u2581Nicod\u00e8me": 6278,
  "\u2581PSALM": 6279,
  "\u2581Popo": 6280,
  "\u2581Vorongo": 6281,
  "\u2581Wisdom": 6282,
  "\u2581afternoon": 6283,
  "\u2581ah\u00e9ritier": 6284,
  "\u2581analyze": 6285,
  "\u2581avizite": 6286,
  "\u2581behold": 6287,
  "\u2581blow": 6288,
  "\u2581brain": 6289,
  "\u2581demands": 6290,
  "\u2581distinct": 6291,
  "\u2581doctors": 6292,
  "\u2581envy": 6293,
  "\u2581extensive": 6294,
  "\u2581fails": 6295,
  "\u2581festival": 6296,
  "\u2581festivals": 6297,
  "\u2581figure": 6298,
  "\u2581forgotten": 6299,
  "\u2581happier": 6300,
  "\u2581immortality": 6301,
  "\u2581materialism": 6302,
  "\u2581native": 6303,
  "\u2581orders": 6304,
  "\u2581recalled": 6305,
  "\u2581selfishness": 6306,
  "\u2581stage": 6307,
  "\u2581stream": 6308,
  "\u2581tango": 6309,
  "\u2581taste": 6310,
  "\u2581translators": 6311,
  "\u2581unknown": 6312,
  "\u2581wanzinga": 6313,
  "\u2581y\u00f6": 6314,
  "5)": 6315,
  "Gue": 6316,
  "ian": 6317,
  "zara": 6318,
  "\u2581Abazengele": 6319,
  "\u2581Apparently": 6320,
  "\u2581Athens": 6321,
  "\u2581Court": 6322,
  "\u2581Deborah": 6323,
  "\u2581Far": 6324,
  "\u2581Listen": 6325,
  "\u2581Mango": 6326,
  "\u2581Place": 6327,
  "\u2581Self": 6328,
  "\u2581adult": 6329,
  "\u2581agroupe": 6330,
  "\u2581ahu": 6331,
  "\u2581aroyaume": 6332,
  "\u2581below": 6333,
  "\u2581burial": 6334,
  "\u2581directions": 6335,
  "\u2581exclaimed": 6336,
  "\u2581falsely": 6337,
  "\u2581foreigners": 6338,
  "\u2581generously": 6339,
  "\u2581hiringo": 6340,
  "\u2581immense": 6341,
  "\u2581lamp": 6342,
  "\u2581missed": 6343,
  "\u2581pains": 6344,
  "\u2581pata": 6345,
  "\u2581pregnant": 6346,
  "\u2581propaganda": 6347,
  "\u2581rebels": 6348,
  "\u2581renewed": 6349,
  "\u2581seeds": 6350,
  "\u2581servi": 6351,
  "\u2581stupid": 6352,
  "\u2581th": 6353,
  "\u2581thanksgiving": 6354,
  "\u2581treacherous": 6355,
  "\u2581virgins": 6356,
  "\u2581waves": 6357,
  "Is": 6358,
  "bata": 6359,
  "who": 6360,
  "\u258114)": 6361,
  "\u25811900": 6362,
  "\u25811951": 6363,
  "\u2581Etienne": 6364,
  "\u2581Get": 6365,
  "\u2581Happiness": 6366,
  "\u2581J\u00c9SUS": 6367,
  "\u2581Meanwhile": 6368,
  "\u2581Museum": 6369,
  "\u2581Ro": 6370,
  "\u2581attribute": 6371,
  "\u2581bala": 6372,
  "\u2581befall": 6373,
  "\u2581bit": 6374,
  "\u2581define": 6375,
  "\u2581disobedient": 6376,
  "\u2581driver": 6377,
  "\u2581exhorted": 6378,
  "\u2581floor": 6379,
  "\u2581founded": 6380,
  "\u2581hulu": 6381,
  "\u2581imply": 6382,
  "\u2581latter": 6383,
  "\u2581logical": 6384,
  "\u2581mi": 6385,
  "\u2581offices": 6386,
  "\u2581qualifications": 6387,
  "\u2581recommended": 6388,
  "\u2581regrett\u00e9": 6389,
  "\u2581repair": 6390,
  "\u2581strife": 6391,
  "\u2581truthful": 6392,
  "\u2581unnecessary": 6393,
  "\u2581vicious": 6394,
  "Awato": 6395,
  "VERT": 6396,
  "\u258189": 6397,
  "\u2581Alex": 6398,
  "\u2581Asala": 6399,
  "\u2581COU": 6400,
  "\u2581Describe": 6401,
  "\u2581Desizion": 6402,
  "\u2581Eastern": 6403,
  "\u2581Greater": 6404,
  "\u2581Happily": 6405,
  "\u2581Mari": 6406,
  "\u2581Mom": 6407,
  "\u2581Orthodox": 6408,
  "\u2581Persian": 6409,
  "\u2581Savior": 6410,
  "\u2581Siokpari": 6411,
  "\u2581West": 6412,
  "\u2581ali": 6413,
  "\u2581amasia": 6414,
  "\u2581cleanness": 6415,
  "\u2581cleanse": 6416,
  "\u2581doctrines": 6417,
  "\u2581document": 6418,
  "\u2581entering": 6419,
  "\u2581formerly": 6420,
  "\u2581guarantee": 6421,
  "\u2581handled": 6422,
  "\u2581lifesaving": 6423,
  "\u2581marque": 6424,
  "\u2581match": 6425,
  "\u2581mbutu": 6426,
  "\u2581misleading": 6427,
  "\u2581mistaken": 6428,
  "\u2581moments": 6429,
  "\u2581pasteur": 6430,
  "\u2581performing": 6431,
  "\u2581perish": 6432,
  "\u2581reflection": 6433,
  "\u2581secretary": 6434,
  "\u2581sio": 6435,
  "\u2581snow": 6436,
  "\u2581south": 6437,
  "\u2581thinks": 6438,
  "\u2581ultimately": 6439,
  "\u2581utterance": 6440,
  "\u2581vary": 6441,
  "\u2581violate": 6442,
  "\u2581vivid": 6443,
  "\u2581wholehearted": 6444,
  "\u2581worthless": 6445,
  "Just": 6446,
  "URE": 6447,
  "human": 6448,
  "netheless": 6449,
  "their": 6450,
  "\u2581(1": 6451,
  "\u25811956": 6452,
  "\u2581Banga": 6453,
  "\u2581Chinois": 6454,
  "\u2581El": 6455,
  "\u2581Giver": 6456,
  "\u2581Haran": 6457,
  "\u2581JEAN": 6458,
  "\u2581JOHN": 6459,
  "\u2581Jim": 6460,
  "\u2581LINGBI": 6461,
  "\u2581Pr": 6462,
  "\u2581Stand": 6463,
  "\u2581adengi": 6464,
  "\u2581anzi": 6465,
  "\u2581arrest": 6466,
  "\u2581base": 6467,
  "\u2581beat": 6468,
  "\u2581belonged": 6469,
  "\u2581bonds": 6470,
  "\u2581code": 6471,
  "\u2581confidently": 6472,
  "\u2581conquest": 6473,
  "\u2581criminal": 6474,
  "\u2581decisive": 6475,
  "\u2581definitely": 6476,
  "\u2581devastated": 6477,
  "\u2581dramatic": 6478,
  "\u2581fierce": 6479,
  "\u2581generations": 6480,
  "\u2581inclinations": 6481,
  "\u2581lofty": 6482,
  "\u2581mbela": 6483,
  "\u2581oath": 6484,
  "\u2581organizations": 6485,
  "\u2581pande": 6486,
  "\u2581pays": 6487,
  "\u2581preparation": 6488,
  "\u2581reacted": 6489,
  "\u2581recognition": 6490,
  "\u2581rightful": 6491,
  "\u2581roof": 6492,
  "\u2581samba": 6493,
  "\u2581smile": 6494,
  "\u2581span": 6495,
  "\u2581staying": 6496,
  "\u2581trade": 6497,
  "\u2581transformed": 6498,
  "\u2581tries": 6499,
  "\u2581upset": 6500,
  "\u2581vongo": 6501,
  "\u2581weapon": 6502,
  "ist": 6503,
  "ku": 6504,
  "lengo": 6505,
  "men": 6506,
  "\u2581'!": 6507,
  "\u2581116": 6508,
  "\u2581118": 6509,
  "\u2581148": 6510,
  "\u25811941": 6511,
  "\u258164": 6512,
  "\u2581Alexander": 6513,
  "\u2581Aturugu": 6514,
  "\u2581CAN": 6515,
  "\u2581Clovis": 6516,
  "\u2581Example": 6517,
  "\u2581Gary": 6518,
  "\u2581Honor": 6519,
  "\u2581MINGI": 6520,
  "\u2581Maboko": 6521,
  "\u2581Must": 6522,
  "\u2581Orthodoxe": 6523,
  "\u2581Third": 6524,
  "\u2581Unti": 6525,
  "\u2581akapa": 6526,
  "\u2581banque": 6527,
  "\u2581contemporaries": 6528,
  "\u2581dandara": 6529,
  "\u2581defeat": 6530,
  "\u2581devoir": 6531,
  "\u2581educated": 6532,
  "\u2581facilities": 6533,
  "\u2581farmer": 6534,
  "\u2581gaba": 6535,
  "\u2581gbede": 6536,
  "\u2581governor": 6537,
  "\u2581hit": 6538,
  "\u2581kpaka": 6539,
  "\u2581lines": 6540,
  "\u2581mentally": 6541,
  "\u2581metal": 6542,
  "\u2581naturally": 6543,
  "\u2581necessities": 6544,
  "\u2581planned": 6545,
  "\u2581prefer": 6546,
  "\u2581progressed": 6547,
  "\u2581progressively": 6548,
  "\u2581rebelled": 6549,
  "\u2581revealing": 6550,
  "\u2581roll": 6551,
  "\u2581searched": 6552,
  "\u2581shut": 6553,
  "\u2581sleeping": 6554,
  "\u2581spring": 6555,
  "\u2581sua": 6556,
  "\u2581torment": 6557,
  "\u2581vrai": 6558,
  "\u2581watchful": 6559,
  "now": 6560,
  "\u25811957": 6561,
  "\u2581Bale": 6562,
  "\u2581B\u00ca": 6563,
  "\u2581Esa\u00fc": 6564,
  "\u2581Italian": 6565,
  "\u2581Real": 6566,
  "\u2581Samantha": 6567,
  "\u2581Wakua": 6568,
  "\u2581affliction": 6569,
  "\u2581akando": 6570,
  "\u2581alienate": 6571,
  "\u2581appoint": 6572,
  "\u2581ayor\u00f6": 6573,
  "\u2581bondage": 6574,
  "\u2581challenged": 6575,
  "\u2581collection": 6576,
  "\u2581combined": 6577,
  "\u2581curse": 6578,
  "\u2581devastating": 6579,
  "\u2581distracted": 6580,
  "\u2581dread": 6581,
  "\u2581emperor": 6582,
  "\u2581emphasize": 6583,
  "\u2581evangelizing": 6584,
  "\u2581evolution": 6585,
  "\u2581fearful": 6586,
  "\u2581feeding": 6587,
  "\u2581figuratively": 6588,
  "\u2581flocks": 6589,
  "\u2581guides": 6590,
  "\u2581inactive": 6591,
  "\u2581inexperienced": 6592,
  "\u2581k\u00ee": 6593,
  "\u2581liar": 6594,
  "\u2581mission": 6595,
  "\u2581patara": 6596,
  "\u2581piece": 6597,
  "\u2581puni": 6598,
  "\u2581silence": 6599,
  "\u2581topics": 6600,
  "\u2581totongo": 6601,
  "\u2581undermine": 6602,
  "\u2581wuluwulu": 6603,
  "\u2581yoga": 6604,
  "Satan": 6605,
  "With": 6606,
  "b\u00e2": 6607,
  "every": 6608,
  "once": 6609,
  "ry": 6610,
  "sioye": 6611,
  "tic": 6612,
  "\u258158.": 6613,
  "\u258167": 6614,
  "\u2581Bingo": 6615,
  "\u2581Chypre": 6616,
  "\u2581Ez\u00e9chias": 6617,
  "\u2581Fine": 6618,
  "\u2581Irlande": 6619,
  "\u2581JESUS": 6620,
  "\u2581Manasseh": 6621,
  "\u2581Rosa": 6622,
  "\u2581SI": 6623,
  "\u2581Sabbat": 6624,
  "\u2581Sophia": 6625,
  "\u2581Tambela": 6626,
  "\u2581Volume": 6627,
  "\u2581abiazo": 6628,
  "\u2581adapt": 6629,
  "\u2581aservi": 6630,
  "\u2581crush": 6631,
  "\u2581cure": 6632,
  "\u2581deceive": 6633,
  "\u2581destructive": 6634,
  "\u2581discerned": 6635,
  "\u2581doors": 6636,
  "\u2581elevated": 6637,
  "\u2581freed": 6638,
  "\u2581hall": 6639,
  "\u2581lifted": 6640,
  "\u2581march": 6641,
  "\u2581offense": 6642,
  "\u2581oneself": 6643,
  "\u2581owe": 6644,
  "\u2581pele": 6645,
  "\u2581ponder": 6646,
  "\u2581portray": 6647,
  "\u2581rapidly": 6648,
  "\u2581recogniz": 6649,
  "\u2581reproof": 6650,
  "\u2581responding": 6651,
  "\u2581spoil": 6652,
  "\u2581stable": 6653,
  "\u2581strict": 6654,
  "\u2581yielding": 6655,
  "9": 6656,
  "?...": 6657,
  "eferring": 6658,
  "lu": 6659,
  "um": 6660,
  "\u25811948": 6661,
  "\u25811961": 6662,
  "\u25811971": 6663,
  "\u258196": 6664,
  "\u2581CHRIST": 6665,
  "\u2581Canaanite": 6666,
  "\u2581District": 6667,
  "\u2581Drame": 6668,
  "\u2581Follow": 6669,
  "\u2581Jo\u00ebl": 6670,
  "\u2581Mal": 6671,
  "\u2581Point": 6672,
  "\u2581Sauveur": 6673,
  "\u2581Suisse": 6674,
  "\u2581actual": 6675,
  "\u2581advantages": 6676,
  "\u2581ale": 6677,
  "\u2581awasenda": 6678,
  "\u2581bereaved": 6679,
  "\u2581chooses": 6680,
  "\u2581containing": 6681,
  "\u2581corrected": 6682,
  "\u2581crisis": 6683,
  "\u2581defined": 6684,
  "\u2581dictionary": 6685,
  "\u2581donation": 6686,
  "\u2581dressed": 6687,
  "\u2581fair": 6688,
  "\u2581falls": 6689,
  "\u2581fig": 6690,
  "\u2581firsthand": 6691,
  "\u2581grieving": 6692,
  "\u2581keenly": 6693,
  "\u2581longing": 6694,
  "\u2581mislead": 6695,
  "\u2581planted": 6696,
  "\u2581pleases": 6697,
  "\u2581scientific": 6698,
  "\u2581statue": 6699,
  "\u2581streets": 6700,
  "\u2581stuck": 6701,
  "\u2581sustained": 6702,
  "\u2581till": 6703,
  "\u2581turne": 6704,
  "\u2581unrighteousness": 6705,
  "\u2581wanting": 6706,
  "At": 6707,
  "KODORO": 6708,
  "ngbanga": 6709,
  "ns": 6710,
  "nt": 6711,
  "rew": 6712,
  "vundu": 6713,
  "\u2581000,": 6714,
  "\u2581147": 6715,
  "\u25812016": 6716,
  "\u258198": 6717,
  "\u2581Albanie": 6718,
  "\u2581Gentile": 6719,
  "\u2581Jenny": 6720,
  "\u2581MATTHEW": 6721,
  "\u2581Madagascar": 6722,
  "\u2581Mozambique": 6723,
  "\u2581Nebucadnetsar": 6724,
  "\u2581Praise": 6725,
  "\u2581Salvador": 6726,
  "\u2581TV": 6727,
  "\u2581Teaching": 6728,
  "\u2581Vulgate": 6729,
  "\u2581adocteur": 6730,
  "\u2581b": 6731,
  "\u2581characteristics": 6732,
  "\u2581confess": 6733,
  "\u2581confusion": 6734,
  "\u2581design": 6735,
  "\u2581drama": 6736,
  "\u2581d\u00eeme": 6737,
  "\u2581embraced": 6738,
  "\u2581enthusiasm": 6739,
  "\u2581existing": 6740,
  "\u2581expensive": 6741,
  "\u2581forsake": 6742,
  "\u2581goigoi": 6743,
  "\u2581impress": 6744,
  "\u2581invites": 6745,
  "\u2581materialistic": 6746,
  "\u2581mbupa": 6747,
  "\u2581medicine": 6748,
  "\u2581normally": 6749,
  "\u2581oldest": 6750,
  "\u2581persecute": 6751,
  "\u2581prevail": 6752,
  "\u2581prey": 6753,
  "\u2581promot": 6754,
  "\u2581pumba": 6755,
  "\u2581retraite": 6756,
  "\u2581rose": 6757,
  "\u2581sanctify": 6758,
  "\u2581scattered": 6759,
  "\u2581skill": 6760,
  "\u2581steward": 6761,
  "\u2581stranger": 6762,
  "\u2581stretch": 6763,
  "\u2581sungba": 6764,
  "\u2581tool": 6765,
  "\u2581worshipper": 6766,
  "From": 6767,
  "W": 6768,
  "am": 6769,
  "batize": 6770,
  "ka": 6771,
  "nene": 6772,
  "po": 6773,
  "ut": 6774,
  "\u258113)": 6775,
  "\u2581Assyria": 6776,
  "\u2581Cultivat": 6777,
  "\u2581Lives": 6778,
  "\u2581Mankind": 6779,
  "\u2581Map": 6780,
  "\u2581Middle": 6781,
  "\u2581ROM": 6782,
  "\u2581Rico": 6783,
  "\u2581San": 6784,
  "\u2581Sophie": 6785,
  "\u2581abound": 6786,
  "\u2581akasa": 6787,
  "\u2581alien": 6788,
  "\u2581anguish": 6789,
  "\u2581asacrificateur": 6790,
  "\u2581black": 6791,
  "\u2581bold": 6792,
  "\u2581character": 6793,
  "\u2581commitment": 6794,
  "\u2581commonly": 6795,
  "\u2581complaint": 6796,
  "\u2581desiring": 6797,
  "\u2581dignified": 6798,
  "\u2581dulait": 6799,
  "\u2581element": 6800,
  "\u2581follower": 6801,
  "\u2581foretell": 6802,
  "\u2581hospitable": 6803,
  "\u2581independent": 6804,
  "\u2581larger": 6805,
  "\u2581likongo": 6806,
  "\u2581partial": 6807,
  "\u2581party": 6808,
  "\u2581prime": 6809,
  "\u2581professed": 6810,
  "\u2581ranks": 6811,
  "\u2581records": 6812,
  "\u2581remembrance": 6813,
  "\u2581route": 6814,
  "\u2581sacrificed": 6815,
  "\u2581striking": 6816,
  "\u2581suppose": 6817,
  "\u2581winter": 6818,
  "\u2581\u00c9thiopie": 6819,
  "1": 6820,
  "Bible": 6821,
  "Yingo": 6822,
  "are": 6823,
  "les": 6824,
  "let": 6825,
  "mba": 6826,
  "ta": 6827,
  "upreme": 6828,
  "\u25811963": 6829,
  "\u2581Assyrian": 6830,
  "\u2581Austria": 6831,
  "\u2581Ca\u00efphe": 6832,
  "\u2581Earlier": 6833,
  "\u2581FA": 6834,
  "\u2581Jeroboam": 6835,
  "\u2581Kanga": 6836,
  "\u2581Lines": 6837,
  "\u2581Louis": 6838,
  "\u2581NDE": 6839,
  "\u2581Photo": 6840,
  "\u2581Professor": 6841,
  "\u2581Roy": 6842,
  "\u2581Sainte": 6843,
  "\u2581Seek": 6844,
  "\u2581Suffering": 6845,
  "\u2581Syria": 6846,
  "\u2581Thess": 6847,
  "\u2581abusive": 6848,
  "\u2581accordingly": 6849,
  "\u2581afun": 6850,
  "\u2581amasini": 6851,
  "\u2581apparent": 6852,
  "\u2581avuru": 6853,
  "\u2581awaziba": 6854,
  "\u2581border": 6855,
  "\u2581buried": 6856,
  "\u2581copi": 6857,
  "\u2581decree": 6858,
  "\u2581directing": 6859,
  "\u2581discourage": 6860,
  "\u2581discourse": 6861,
  "\u2581funeral": 6862,
  "\u2581ngasa": 6863,
  "\u2581num\u00e9ro": 6864,
  "\u2581plays": 6865,
  "\u2581portions": 6866,
  "\u2581previous": 6867,
  "\u2581regulations": 6868,
  "\u2581remembers": 6869,
  "\u2581rivers": 6870,
  "\u2581sanctification": 6871,
  "\u2581somehow": 6872,
  "\u2581survival": 6873,
  "\u2581tasks": 6874,
  "\u2581valued": 6875,
  "\u2581vessel": 6876,
  "\u2581villages": 6877,
  "\u2581wearing": 6878,
  "\u2581weighty": 6879,
  "\u2581worshipp": 6880,
  "\u2581worst": 6881,
  "\u2581yeartext": 6882,
  "5": 6883,
  "Where": 6884,
  "ious": 6885,
  "lango": 6886,
  "lekengo": 6887,
  "most": 6888,
  "su": 6889,
  "were": 6890,
  "\u258124.)": 6891,
  "\u25813,000": 6892,
  "\u2581Along": 6893,
  "\u2581Autriche": 6894,
  "\u2581Bad": 6895,
  "\u2581Bat\u00eame": 6896,
  "\u2581Bia": 6897,
  "\u2581Frank": 6898,
  "\u2581Full": 6899,
  "\u2581Henschel": 6900,
  "\u2581Into": 6901,
  "\u2581Jaracz": 6902,
  "\u2581KIRI": 6903,
  "\u2581Light": 6904,
  "\u2581Milton": 6905,
  "\u2581Poland": 6906,
  "\u2581Polish": 6907,
  "\u2581Sanh\u00e9drin": 6908,
  "\u2581Ted": 6909,
  "\u2581Worldwide": 6910,
  "\u2581accomplishing": 6911,
  "\u2581ad\u00fb": 6912,
  "\u2581appreciative": 6913,
  "\u2581atoli": 6914,
  "\u2581authorized": 6915,
  "\u2581cited": 6916,
  "\u2581communities": 6917,
  "\u2581comprehend": 6918,
  "\u2581crucial": 6919,
  "\u2581cultural": 6920,
  "\u2581deadly": 6921,
  "\u2581demon": 6922,
  "\u2581demonstrates": 6923,
  "\u2581disown": 6924,
  "\u2581distressed": 6925,
  "\u2581double": 6926,
  "\u2581flour": 6927,
  "\u2581golden": 6928,
  "\u2581hellfire": 6929,
  "\u2581likundu": 6930,
  "\u2581lou\u00e9": 6931,
  "\u2581merit": 6932,
  "\u2581muster": 6933,
  "\u2581narrow": 6934,
  "\u2581officers": 6935,
  "\u2581oppos": 6936,
  "\u2581per": 6937,
  "\u2581permanently": 6938,
  "\u2581permits": 6939,
  "\u2581prosperous": 6940,
  "\u2581pursued": 6941,
  "\u2581reduced": 6942,
  "\u2581seat": 6943,
  "\u2581smoke": 6944,
  "\u2581succumb": 6945,
  "\u2581target": 6946,
  "\u2581teenage": 6947,
  "\u2581temporarily": 6948,
  "\u2581traduction": 6949,
  "\u2581vows": 6950,
  "\u2581wood": 6951,
  "\u2581worshipped": 6952,
  "\u2581ya": 6953,
  "A\u00cf": 6954,
  "ance": 6955,
  "ie": 6956,
  "rich": 6957,
  "tn": 6958,
  "wasenda": 6959,
  "\u2581121": 6960,
  "\u2581146": 6961,
  "\u258117)": 6962,
  "\u25811879": 6963,
  "\u258122]": 6964,
  "\u258178": 6965,
  "\u2581Alive": 6966,
  "\u2581Aproph\u00e9tie": 6967,
  "\u2581Baptizer": 6968,
  "\u2581Bedell": 6969,
  "\u2581Cyprus": 6970,
  "\u2581D\u00e9bora": 6971,
  "\u2581Ethiopian": 6972,
  "\u2581Gestapo": 6973,
  "\u2581Humility": 6974,
  "\u2581Interestingly": 6975,
  "\u2581Jesse": 6976,
  "\u2581J\u00e9roboam": 6977,
  "\u2581Mbele": 6978,
  "\u2581Mveni": 6979,
  "\u2581National": 6980,
  "\u2581Understandably": 6981,
  "\u2581Yourself": 6982,
  "\u2581aThes": 6983,
  "\u2581andeko": 6984,
  "\u2581armed": 6985,
  "\u2581attacked": 6986,
  "\u2581attempted": 6987,
  "\u2581broad": 6988,
  "\u2581cherished": 6989,
  "\u2581classes": 6990,
  "\u2581cling": 6991,
  "\u2581cr\u00e9ature": 6992,
  "\u2581describing": 6993,
  "\u2581destination": 6994,
  "\u2581dominant": 6995,
  "\u2581esteem": 6996,
  "\u2581examined": 6997,
  "\u2581fishing": 6998,
  "\u2581forest": 6999,
  "\u2581guidelines": 7000,
  "\u2581height": 7001,
  "\u2581hostile": 7002,
  "\u2581intellectual": 7003,
  "\u2581lacked": 7004,
  "\u2581lamb": 7005,
  "\u2581mold": 7006,
  "\u2581movies": 7007,
  "\u2581post": 7008,
  "\u2581prisoner": 7009,
  "\u2581reduce": 7010,
  "\u2581refresh": 7011,
  "\u2581representative": 7012,
  "\u2581safely": 7013,
  "\u2581severely": 7014,
  "\u2581shape": 7015,
  "\u2581tarango": 7016,
  "\u2581thief": 7017,
  "\u2581tire": 7018,
  "\u2581unjust": 7019,
  "B": 7020,
  "New": 7021,
  "ch": 7022,
  "kongregation": 7023,
  "work": 7024,
  "\u2581127": 7025,
  "\u258118)": 7026,
  "\u25811986": 7027,
  "\u25812001.": 7028,
  "\u258140,": 7029,
  "\u258177": 7030,
  "\u258192": 7031,
  "\u2581Answers": 7032,
  "\u2581Caiaphas": 7033,
  "\u2581Emperor": 7034,
  "\u2581Levite": 7035,
  "\u2581Ma": 7036,
  "\u2581Macedonia": 7037,
  "\u2581Marcus": 7038,
  "\u2581Maseka": 7039,
  "\u2581Mov": 7040,
  "\u2581None": 7041,
  "\u2581Orig\u00e8ne": 7042,
  "\u2581Search": 7043,
  "\u2581Su": 7044,
  "\u2581WE": 7045,
  "\u2581Web": 7046,
  "\u2581aging": 7047,
  "\u2581akpo": 7048,
  "\u2581arrange": 7049,
  "\u2581ascribe": 7050,
  "\u2581assembled": 7051,
  "\u2581atalent": 7052,
  "\u2581aterritoire": 7053,
  "\u2581bank": 7054,
  "\u2581banned": 7055,
  "\u2581beasts": 7056,
  "\u2581board": 7057,
  "\u2581celebrated": 7058,
  "\u2581circumcision": 7059,
  "\u2581concludes": 7060,
  "\u2581demonstration": 7061,
  "\u2581desert": 7062,
  "\u2581displays": 7063,
  "\u2581driving": 7064,
  "\u2581escaped": 7065,
  "\u2581expelled": 7066,
  "\u2581grass": 7067,
  "\u2581guiding": 7068,
  "\u2581incite": 7069,
  "\u2581interfere": 7070,
  "\u2581joint": 7071,
  "\u2581journal": 7072,
  "\u2581k\u00fbk\u00fb": 7073,
  "\u2581link": 7074,
  "\u2581magie": 7075,
  "\u2581mirror": 7076,
  "\u2581mixed": 7077,
  "\u2581mutual": 7078,
  "\u2581ndima": 7079,
  "\u2581neighborhood": 7080,
  "\u2581onward": 7081,
  "\u2581outlined": 7082,
  "\u2581recover": 7083,
  "\u2581reliance": 7084,
  "\u2581reverence": 7085,
  "\u2581selling": 7086,
  "\u2581splendor": 7087,
  "\u2581stability": 7088,
  "\u2581stressed": 7089,
  "\u2581strikes": 7090,
  "\u2581teens": 7091,
  "\u2581testify": 7092,
  "\u2581trompette": 7093,
  "\u2581uncertain": 7094,
  "\u2581volume": 7095,
  "\u2581waited": 7096,
  "\u2581wrongdoers": 7097,
  "K": 7098,
  "KE": 7099,
  "Kozo": 7100,
  "Lord": 7101,
  "OLD": 7102,
  "TRY": 7103,
  "ate": 7104,
  "ial": 7105,
  "lways": 7106,
  "make": 7107,
  "ndara": 7108,
  "x": 7109,
  "\u25811,000": 7110,
  "\u2581111": 7111,
  "\u25811972": 7112,
  "\u2581250": 7113,
  "\u258168": 7114,
  "\u2581ATENE": 7115,
  "\u2581Alingbi": 7116,
  "\u2581Angels": 7117,
  "\u2581Ann": 7118,
  "\u2581Anyone": 7119,
  "\u2581Changes": 7120,
  "\u2581Creation": 7121,
  "\u2581Days": 7122,
  "\u2581Ever": 7123,
  "\u2581Guide": 7124,
  "\u2581Gwen": 7125,
  "\u2581Language": 7126,
  "\u2581Origen": 7127,
  "\u2581Philistine": 7128,
  "\u2581Sydney": 7129,
  "\u2581University": 7130,
  "\u2581adjusted": 7131,
  "\u2581ako": 7132,
  "\u2581arriving": 7133,
  "\u2581bitterness": 7134,
  "\u2581carries": 7135,
  "\u2581caution": 7136,
  "\u2581clouds": 7137,
  "\u2581committ": 7138,
  "\u2581correctly": 7139,
  "\u2581demanding": 7140,
  "\u2581devour": 7141,
  "\u2581drop": 7142,
  "\u2581favorite": 7143,
  "\u2581function": 7144,
  "\u2581graduates": 7145,
  "\u2581guards": 7146,
  "\u2581impressive": 7147,
  "\u2581intently": 7148,
  "\u2581ndendia": 7149,
  "\u2581papyrus": 7150,
  "\u2581positively": 7151,
  "\u2581product": 7152,
  "\u2581psalms": 7153,
  "\u2581regain": 7154,
  "\u2581rejecting": 7155,
  "\u2581sexually": 7156,
  "\u2581staff": 7157,
  "\u2581tatara": 7158,
  "\u2581tenth": 7159,
  "\u2581tobacco": 7160,
  "\u2581tomorrow": 7161,
  "\u2581translate": 7162,
  "\u2581washed": 7163,
  "\u2581winds": 7164,
  "\u2581zango": 7165,
  "\u2581zone": 7166,
  "age": 7167,
  "ally": 7168,
  "il": 7169,
  "siriri": 7170,
  "\u2581104": 7171,
  "\u258112.)": 7172,
  "\u258144,": 7173,
  "\u2581800": 7174,
  "\u2581Antioch": 7175,
  "\u2581Archives": 7176,
  "\u2581Care": 7177,
  "\u2581Carte": 7178,
  "\u2581Catholics": 7179,
  "\u2581Cornelius": 7180,
  "\u2581Dr": 7181,
  "\u2581Evil": 7182,
  "\u2581Four": 7183,
  "\u2581Gomorrhe": 7184,
  "\u2581HAVE": 7185,
  "\u2581Hand": 7186,
  "\u2581Kenya": 7187,
  "\u2581MB": 7188,
  "\u2581NGA": 7189,
  "\u2581Polyglot": 7190,
  "\u2581Ponti": 7191,
  "\u2581Salvation": 7192,
  "\u2581Together": 7193,
  "\u2581Western": 7194,
  "\u2581Zingo": 7195,
  "\u2581abstain": 7196,
  "\u2581apartment": 7197,
  "\u2581cleansing": 7198,
  "\u2581creating": 7199,
  "\u2581crying": 7200,
  "\u2581cutting": 7201,
  "\u2581depuis": 7202,
  "\u2581drift": 7203,
  "\u2581fare": 7204,
  "\u2581faults": 7205,
  "\u2581fixed": 7206,
  "\u2581foretells": 7207,
  "\u2581imagined": 7208,
  "\u2581imitator": 7209,
  "\u2581inviting": 7210,
  "\u2581mainly": 7211,
  "\u2581managed": 7212,
  "\u2581mbo": 7213,
  "\u2581meat": 7214,
  "\u2581mothers": 7215,
  "\u2581plasma": 7216,
  "\u2581representing": 7217,
  "\u2581scroll": 7218,
  "\u2581unfair": 7219,
  "\u2581vie": 7220,
  "\u2581weather": 7221,
  "\u25a1": 7222,
  "aze": 7223,
  "duru": 7224,
  "ge": 7225,
  "long": 7226,
  "nzara": 7227,
  "rongo": 7228,
  "thing": 7229,
  "\u21e9": 7230,
  "\u2581101": 7231,
  "\u25811978": 7232,
  "\u2581Ark": 7233,
  "\u2581Author": 7234,
  "\u2581B\u00c2": 7235,
  "\u2581Corneille": 7236,
  "\u2581Eli": 7237,
  "\u2581Greeks": 7238,
  "\u2581J\u00e9zabel": 7239,
  "\u2581Kamarade": 7240,
  "\u2581MY": 7241,
  "\u2581Madian": 7242,
  "\u2581Merci": 7243,
  "\u2581NGANGU": 7244,
  "\u2581Natural": 7245,
  "\u2581Patterson": 7246,
  "\u2581TARA": 7247,
  "\u2581Yearbook": 7248,
  "\u2581amvene": 7249,
  "\u2581asuru": 7250,
  "\u2581behave": 7251,
  "\u2581believes": 7252,
  "\u2581booklet": 7253,
  "\u2581calamities": 7254,
  "\u2581cleaning": 7255,
  "\u2581collect": 7256,
  "\u2581confined": 7257,
  "\u2581conscientious": 7258,
  "\u2581contents": 7259,
  "\u2581delivering": 7260,
  "\u2581earthquake": 7261,
  "\u2581echo": 7262,
  "\u2581employed": 7263,
  "\u2581giver": 7264,
  "\u2581hara": 7265,
  "\u2581internationale": 7266,
  "\u2581joys": 7267,
  "\u2581kungbi": 7268,
  "\u2581legally": 7269,
  "\u2581liken": 7270,
  "\u2581motivation": 7271,
  "\u2581nights": 7272,
  "\u2581noble": 7273,
  "\u2581numbered": 7274,
  "\u2581occupied": 7275,
  "\u2581participating": 7276,
  "\u2581perceptive": 7277,
  "\u2581port": 7278,
  "\u2581prevented": 7279,
  "\u2581princes": 7280,
  "\u2581professor": 7281,
  "\u2581rare": 7282,
  "\u2581resting": 7283,
  "\u2581roads": 7284,
  "\u2581romantic": 7285,
  "\u2581schoolmates": 7286,
  "\u2581sower": 7287,
  "\u2581spot": 7288,
  "\u2581stumbled": 7289,
  "\u2581survey": 7290,
  "\u2581taba": 7291,
  "\u2581tempt": 7292,
  "\u2581tomb": 7293,
  "\u2581traditional": 7294,
  "\u2581undo": 7295,
  "\u2581vengeance": 7296,
  "\u2581volunteer": 7297,
  "\u2581yangbato": 7298,
  "\u2581\u00c9tude": 7299,
  ">": 7300,
  "Legeoko": 7301,
  "Ndoye": 7302,
  "ah": 7303,
  "kiri": 7304,
  "mara": 7305,
  "mid": 7306,
  "nated": 7307,
  "ner": 7308,
  "rs": 7309,
  "\u00c9": 7310,
  "\u2581125": 7311,
  "\u258117.)": 7312,
  "\u2581Afterward": 7313,
  "\u2581Ague": 7314,
  "\u2581Akamarade": 7315,
  "\u2581Annuaire": 7316,
  "\u2581Comment": 7317,
  "\u2581Five": 7318,
  "\u2581GIGI": 7319,
  "\u2581Insight": 7320,
  "\u2581Lef\u00e8vre": 7321,
  "\u2581Loyalty": 7322,
  "\u2581Manoah": 7323,
  "\u2581Meditat": 7324,
  "\u2581Mich\u00e9line": 7325,
  "\u2581Provider": 7326,
  "\u2581P\u00cbPE": 7327,
  "\u2581Review": 7328,
  "\u2581Ryan": 7329,
  "\u2581Serve": 7330,
  "\u2581Sin": 7331,
  "\u2581Tertullien": 7332,
  "\u2581Wato": 7333,
  "\u2581abagara": 7334,
  "\u2581abateau": 7335,
  "\u2581akangba": 7336,
  "\u2581alike": 7337,
  "\u2581almighty": 7338,
  "\u2581aloud": 7339,
  "\u2581ama\u00eetre": 7340,
  "\u2581answering": 7341,
  "\u2581approaches": 7342,
  "\u2581ayuru": 7343,
  "\u2581basically": 7344,
  "\u2581block": 7345,
  "\u2581celebrate": 7346,
  "\u2581characters": 7347,
  "\u2581conceal": 7348,
  "\u2581connected": 7349,
  "\u2581considerate": 7350,
  "\u2581coping": 7351,
  "\u2581cured": 7352,
  "\u2581demanded": 7353,
  "\u2581dominated": 7354,
  "\u2581err": 7355,
  "\u2581exhibit": 7356,
  "\u2581gondango": 7357,
  "\u2581green": 7358,
  "\u2581hid": 7359,
  "\u2581horses": 7360,
  "\u2581killing": 7361,
  "\u2581map": 7362,
  "\u2581newborn": 7363,
  "\u2581rarely": 7364,
  "\u2581rejoiced": 7365,
  "\u2581relevant": 7366,
  "\u2581sadness": 7367,
  "\u2581scenes": 7368,
  "\u2581sixth": 7369,
  "\u2581space": 7370,
  "\u2581spies": 7371,
  "\u2581struggled": 7372,
  "\u2581survivors": 7373,
  "\u2581testing": 7374,
  "\u2581unreasonable": 7375,
  "\u2581wakode": 7376,
  "\u2581weeping": 7377,
  "\u2581west": 7378,
  "\u2581\u00c2manke": 7379,
  "That": 7380,
  "UC": 7381,
  "ogbia": 7382,
  "power": 7383,
  "ung": 7384,
  "\u25811954": 7385,
  "\u25811974": 7386,
  "\u25818.)": 7387,
  "\u2581AWA": 7388,
  "\u2581Benefit": 7389,
  "\u2581Blessing": 7390,
  "\u2581Canaanites": 7391,
  "\u2581Eccl": 7392,
  "\u2581Edom": 7393,
  "\u2581Gett": 7394,
  "\u2581Jehoash": 7395,
  "\u2581Margaret": 7396,
  "\u2581Preaching": 7397,
  "\u2581Relate": 7398,
  "\u2581Sabaoth": 7399,
  "\u2581Smith": 7400,
  "\u2581Tertullian": 7401,
  "\u2581Thanks": 7402,
  "\u2581adding": 7403,
  "\u2581advised": 7404,
  "\u2581approachable": 7405,
  "\u2581arises": 7406,
  "\u2581breath": 7407,
  "\u2581card": 7408,
  "\u2581certainty": 7409,
  "\u2581chariots": 7410,
  "\u2581convincing": 7411,
  "\u2581director": 7412,
  "\u2581discerning": 7413,
  "\u2581disturbed": 7414,
  "\u2581divisions": 7415,
  "\u2581enormous": 7416,
  "\u2581fen\u00eatre": 7417,
  "\u2581focuse": 7418,
  "\u2581grooming": 7419,
  "\u2581honored": 7420,
  "\u2581inform": 7421,
  "\u2581intent": 7422,
  "\u2581kpangbi": 7423,
  "\u2581likisi": 7424,
  "\u2581mob": 7425,
  "\u2581paper": 7426,
  "\u2581para": 7427,
  "\u2581pembe": 7428,
  "\u2581perle": 7429,
  "\u2581purchase": 7430,
  "\u2581requested": 7431,
  "\u2581resemble": 7432,
  "\u2581sentiments": 7433,
  "\u2581session": 7434,
  "\u2581strayed": 7435,
  "\u2581subtle": 7436,
  "\u2581tenderly": 7437,
  "\u2581threats": 7438,
  "\u2581tokuango": 7439,
  "\u2581tombs": 7440,
  "\u2581troubles": 7441,
  "\u2581unbeliever": 7442,
  "\u2581university": 7443,
  "\u2581unmarried": 7444,
  "\u2581unseen": 7445,
  "\u2581uttered": 7446,
  "\u2581vigilant": 7447,
  "\u2581wagame": 7448,
  "\u2581warmth": 7449,
  "\u2581waste": 7450,
  "\u2581watched": 7451,
  "\u2581wrongdoer": 7452,
  "Sese": 7453,
  "du": 7454,
  "ez": 7455,
  "mosoro": 7456,
  "place": 7457,
  "tiny": 7458,
  "wept": 7459,
  "\u00eb": 7460,
  "\u258114]": 7461,
  "\u25811933": 7462,
  "\u2581Amu": 7463,
  "\u2581Barr": 7464,
  "\u2581Blessings": 7465,
  "\u2581Certain": 7466,
  "\u2581Compare": 7467,
  "\u2581Education": 7468,
  "\u2581Ehud": 7469,
  "\u2581Elizabeth": 7470,
  "\u2581Har": 7471,
  "\u2581Ireland": 7472,
  "\u2581Japanese": 7473,
  "\u2581Joas": 7474,
  "\u2581Jon": 7475,
  "\u2581Mineure": 7476,
  "\u2581Nginza": 7477,
  "\u2581OUR": 7478,
  "\u2581Tanga": 7479,
  "\u2581Tsephania": 7480,
  "\u2581ancestors": 7481,
  "\u2581appealed": 7482,
  "\u2581assign": 7483,
  "\u2581attached": 7484,
  "\u2581awareness": 7485,
  "\u2581begged": 7486,
  "\u2581bo": 7487,
  "\u2581buildings": 7488,
  "\u2581criticism": 7489,
  "\u2581denied": 7490,
  "\u2581deserved": 7491,
  "\u2581distribution": 7492,
  "\u2581earthquakes": 7493,
  "\u2581essence": 7494,
  "\u2581failing": 7495,
  "\u2581formal": 7496,
  "\u2581harbor": 7497,
  "\u2581helpless": 7498,
  "\u2581honorable": 7499,
  "\u2581ignorance": 7500,
  "\u2581infancy": 7501,
  "\u2581kubu": 7502,
  "\u2581leprosy": 7503,
  "\u2581market": 7504,
  "\u2581merchant": 7505,
  "\u2581mortal": 7506,
  "\u2581neglected": 7507,
  "\u2581pace": 7508,
  "\u2581perceived": 7509,
  "\u2581persist": 7510,
  "\u2581questioned": 7511,
  "\u2581reache": 7512,
  "\u2581reluctant": 7513,
  "\u2581repeat": 7514,
  "\u2581revelation": 7515,
  "\u2581rising": 7516,
  "\u2581sale": 7517,
  "\u2581sessions": 7518,
  "\u2581siblings": 7519,
  "\u2581sites": 7520,
  "\u2581sky": 7521,
  "\u2581tents": 7522,
  "\u2581topic": 7523,
  "\u2581tower": 7524,
  "\u2581troops": 7525,
  "\u2581victorious": 7526,
  "\u2581wings": 7527,
  "7": 7528,
  "After": 7529,
  "Mbeti": 7530,
  "Pens\u00e9": 7531,
  "body": 7532,
  "ir": 7533,
  "went": 7534,
  "yeke": 7535,
  "\u25817.)": 7536,
  "\u2581Alexandre": 7537,
  "\u2581BIBLIQUES": 7538,
  "\u2581Edition": 7539,
  "\u2581Gomorrah": 7540,
  "\u2581Gr\u00e2ce": 7541,
  "\u2581J\u00e9r": 7542,
  "\u2581Kongregation": 7543,
  "\u2581Matabisi": 7544,
  "\u2581Mephibosheth": 7545,
  "\u2581Mosoro": 7546,
  "\u2581Nzobe": 7547,
  "\u2581Pierce": 7548,
  "\u2581Russian": 7549,
  "\u2581absence": 7550,
  "\u2581absolute": 7551,
  "\u2581accomplishment": 7552,
  "\u2581accountable": 7553,
  "\u2581accusations": 7554,
  "\u2581adversities": 7555,
  "\u2581asukula": 7556,
  "\u2581asungba": 7557,
  "\u2581awabuba": 7558,
  "\u2581bull": 7559,
  "\u2581channel": 7560,
  "\u2581conclusions": 7561,
  "\u2581distribute": 7562,
  "\u2581enjoys": 7563,
  "\u2581enmity": 7564,
  "\u2581enthroned": 7565,
  "\u2581equipment": 7566,
  "\u2581excessive": 7567,
  "\u2581eyewitnesses": 7568,
  "\u2581fatigu\u00e9": 7569,
  "\u2581fellowship": 7570,
  "\u2581frustration": 7571,
  "\u2581gene": 7572,
  "\u2581gengere": 7573,
  "\u2581guru": 7574,
  "\u2581harder": 7575,
  "\u2581healthful": 7576,
  "\u2581intervene": 7577,
  "\u2581kogara": 7578,
  "\u2581lapara": 7579,
  "\u2581magazin": 7580,
  "\u2581marrying": 7581,
  "\u2581murmuring": 7582,
  "\u2581organize": 7583,
  "\u2581persevere": 7584,
  "\u2581pr": 7585,
  "\u2581president": 7586,
  "\u2581prisons": 7587,
  "\u2581progressive": 7588,
  "\u2581quotations": 7589,
  "\u2581rate": 7590,
  "\u2581ride": 7591,
  "\u2581roots": 7592,
  "\u2581ruins": 7593,
  "\u2581sembe": 7594,
  "\u2581shelter": 7595,
  "\u2581shy": 7596,
  "\u2581starts": 7597,
  "\u2581surroundings": 7598,
  "\u2581teenagers": 7599,
  "\u2581unlike": 7600,
  "\u2581verb": 7601,
  "\u2581voices": 7602,
  "\u2581walks": 7603,
  "Even": 7604,
  "Everyone": 7605,
  "Have": 7606,
  "Mingi": 7607,
  "alingbi": 7608,
  "ng": 7609,
  "ter": 7610,
  "\u2581102": 7611,
  "\u2581105": 7612,
  "\u258113.)": 7613,
  "\u25811982": 7614,
  "\u25811988": 7615,
  "\u258151.": 7616,
  "\u2581Bear": 7617,
  "\u2581Chine": 7618,
  "\u2581Eliphaz": 7619,
  "\u2581Emlyn": 7620,
  "\u2581Est": 7621,
  "\u2581Integrity": 7622,
  "\u2581Jezebel": 7623,
  "\u2581Jos\u00e8phe": 7624,
  "\u2581Judaism": 7625,
  "\u2581LU": 7626,
  "\u2581Lystra": 7627,
  "\u2581Millenni": 7628,
  "\u2581Money": 7629,
  "\u2581Pharisee": 7630,
  "\u2581Priscilla": 7631,
  "\u2581Report": 7632,
  "\u2581Romain": 7633,
  "\u2581Wallkill": 7634,
  "\u2581Washington": 7635,
  "\u2581accepts": 7636,
  "\u2581adroit": 7637,
  "\u2581akamba": 7638,
  "\u2581akutukutu": 7639,
  "\u2581attachment": 7640,
  "\u2581avion": 7641,
  "\u2581awaken": 7642,
  "\u2581ayaka": 7643,
  "\u2581bicycle": 7644,
  "\u2581conquering": 7645,
  "\u2581contend": 7646,
  "\u2581cultivated": 7647,
  "\u2581detestable": 7648,
  "\u2581eighth": 7649,
  "\u2581favored": 7650,
  "\u2581flag": 7651,
  "\u2581flight": 7652,
  "\u2581fortified": 7653,
  "\u2581gbagburu": 7654,
  "\u2581hule": 7655,
  "\u2581impelled": 7656,
  "\u2581implied": 7657,
  "\u2581improved": 7658,
  "\u2581inferior": 7659,
  "\u2581lapolisi": 7660,
  "\u2581machine": 7661,
  "\u2581mail": 7662,
  "\u2581misunderstand": 7663,
  "\u2581ngbong": 7664,
  "\u2581obligations": 7665,
  "\u2581offend": 7666,
  "\u2581penalty": 7667,
  "\u2581persistent": 7668,
  "\u2581preserving": 7669,
  "\u2581promptly": 7670,
  "\u2581proselytes": 7671,
  "\u2581punish": 7672,
  "\u2581recommend": 7673,
  "\u2581rescued": 7674,
  "\u2581respectfully": 7675,
  "\u2581sceau": 7676,
  "\u2581section": 7677,
  "\u2581sedu": 7678,
  "\u2581seeks": 7679,
  "\u2581seize": 7680,
  "\u2581shock": 7681,
  "\u2581singleness": 7682,
  "\u2581suicide": 7683,
  "\u2581technology": 7684,
  "\u2581tracts": 7685,
  "\u2581transgressions": 7686,
  "\u2581unite": 7687,
  "\u2581unprecedented": 7688,
  "\u2581wake": 7689,
  "\u2581window": 7690,
  "Ngoi": 7691,
  "born": 7692,
  "everal": 7693,
  "ite": 7694,
  "mple": 7695,
  "people": 7696,
  "per": 7697,
  "\u25811932": 7698,
  "\u25811959": 7699,
  "\u258137,": 7700,
  "\u2581Act": 7701,
  "\u2581Antoine": 7702,
  "\u2581BA": 7703,
  "\u2581Baptiste": 7704,
  "\u2581Christine": 7705,
  "\u2581Common": 7706,
  "\u2581Con": 7707,
  "\u2581Espagnol": 7708,
  "\u2581HUNDA": 7709,
  "\u2581Jer": 7710,
  "\u2581Lystre": 7711,
  "\u2581Mind": 7712,
  "\u2581Ngasangbaga": 7713,
  "\u2581Proclaimers": 7714,
  "\u2581Seeking": 7715,
  "\u2581Soro": 7716,
  "\u2581Than": 7717,
  "\u2581adessin": 7718,
  "\u2581advancing": 7719,
  "\u2581adverse": 7720,
  "\u2581asadaka": 7721,
  "\u2581ballon": 7722,
  "\u2581bruise": 7723,
  "\u2581buru": 7724,
  "\u2581college": 7725,
  "\u2581compelled": 7726,
  "\u2581concealed": 7727,
  "\u2581constructed": 7728,
  "\u2581damaging": 7729,
  "\u2581disloyal": 7730,
  "\u2581entrance": 7731,
  "\u2581excel": 7732,
  "\u2581figures": 7733,
  "\u2581futile": 7734,
  "\u2581gate": 7735,
  "\u2581harmonize": 7736,
  "\u2581headed": 7737,
  "\u2581ideal": 7738,
  "\u2581intention": 7739,
  "\u2581lame": 7740,
  "\u2581legs": 7741,
  "\u2581liked": 7742,
  "\u2581mamio": 7743,
  "\u2581ndenge": 7744,
  "\u2581nurture": 7745,
  "\u2581onto": 7746,
  "\u2581oppressed": 7747,
  "\u2581persuaded": 7748,
  "\u2581print": 7749,
  "\u2581p\u00e9riodique": 7750,
  "\u2581rebuilt": 7751,
  "\u2581refus": 7752,
  "\u2581rooms": 7753,
  "\u2581seasons": 7754,
  "\u2581shocking": 7755,
  "\u2581simplify": 7756,
  "\u2581successor": 7757,
  "\u2581vulnerable": 7758,
  "ETI": 7759,
  "Royaume": 7760,
  "land": 7761,
  "nzo": 7762,
  "pa": 7763,
  "sewa": 7764,
  "tara": 7765,
  "\u00ca": 7766,
  "\u258110)": 7767,
  "\u25819.)": 7768,
  "\u2581Amen": 7769,
  "\u2581Balaam": 7770,
  "\u2581Beatty": 7771,
  "\u2581Co": 7772,
  "\u2581Cor\u00e9e": 7773,
  "\u2581Deluge": 7774,
  "\u2581Epaphras": 7775,
  "\u2581Mariage": 7776,
  "\u2581Meeting": 7777,
  "\u2581Nahum": 7778,
  "\u2581Nzo": 7779,
  "\u2581ON": 7780,
  "\u2581Ouganda": 7781,
  "\u2581Priscille": 7782,
  "\u2581Religious": 7783,
  "\u2581Resurrection": 7784,
  "\u2581Syrian": 7785,
  "\u2581Training": 7786,
  "\u2581Understanding": 7787,
  "\u2581Victoria": 7788,
  "\u2581arguments": 7789,
  "\u2581ascended": 7790,
  "\u2581avulu": 7791,
  "\u2581bendo": 7792,
  "\u2581blinded": 7793,
  "\u2581cautious": 7794,
  "\u2581cave": 7795,
  "\u2581clothe": 7796,
  "\u2581deciding": 7797,
  "\u2581descend": 7798,
  "\u2581despised": 7799,
  "\u2581dire": 7800,
  "\u2581dishonest": 7801,
  "\u2581frequent": 7802,
  "\u2581grounds": 7803,
  "\u2581heavily": 7804,
  "\u2581ignoring": 7805,
  "\u2581imagination": 7806,
  "\u2581imprisonment": 7807,
  "\u2581injustices": 7808,
  "\u2581introduce": 7809,
  "\u2581laud": 7810,
  "\u2581lonely": 7811,
  "\u2581manage": 7812,
  "\u2581masia": 7813,
  "\u2581ministering": 7814,
  "\u2581ng\u00f6": 7815,
  "\u2581nucle": 7816,
  "\u2581obliged": 7817,
  "\u2581oppressive": 7818,
  "\u2581outer": 7819,
  "\u2581presumptuous": 7820,
  "\u2581realities": 7821,
  "\u2581reasonableness": 7822,
  "\u2581reassure": 7823,
  "\u2581recherche": 7824,
  "\u2581reconciled": 7825,
  "\u2581restraint": 7826,
  "\u2581secondary": 7827,
  "\u2581shocked": 7828,
  "\u2581shrink": 7829,
  "\u2581skilled": 7830,
  "\u2581speed": 7831,
  "\u2581stepp": 7832,
  "\u2581supplied": 7833,
  "\u2581sweet": 7834,
  "\u2581tactfully": 7835,
  "\u2581torn": 7836,
  "\u2581vala": 7837,
  "\u2581virtual": 7838,
  "\u2581vote": 7839,
  "\u2581wakuasu": 7840,
  "\u2581waziba": 7841,
  "3": 7842,
  "IN": 7843,
  "Make": 7844,
  "One": 7845,
  "alango": 7846,
  "because": 7847,
  "came": 7848,
  "critical": 7849,
  "ene": 7850,
  "have": 7851,
  "isoro": 7852,
  "ius": 7853,
  "stern": 7854,
  "wali": 7855,
  "\u2581107": 7856,
  "\u25811920": 7857,
  "\u25811944": 7858,
  "\u25811966": 7859,
  "\u25812017": 7860,
  "\u2581>": 7861,
  "\u2581ANSWERED": 7862,
  "\u2581ARTICLE": 7863,
  "\u2581Anthony": 7864,
  "\u2581Best": 7865,
  "\u2581Caroline": 7866,
  "\u2581Festival": 7867,
  "\u2581Few": 7868,
  "\u2581Gad": 7869,
  "\u2581Guard": 7870,
  "\u2581Herbert": 7871,
  "\u2581KUSALA": 7872,
  "\u2581Megan": 7873,
  "\u2581Otherwise": 7874,
  "\u2581Pas": 7875,
  "\u2581Servant": 7876,
  "\u2581Urie": 7877,
  "\u2581Women": 7878,
  "\u2581afiliale": 7879,
  "\u2581aids": 7880,
  "\u2581ak\u00ee": 7881,
  "\u2581angbong": 7882,
  "\u2581betrayed": 7883,
  "\u2581burdensome": 7884,
  "\u2581calf": 7885,
  "\u2581ceremony": 7886,
  "\u2581closed": 7887,
  "\u2581codex": 7888,
  "\u2581commemorate": 7889,
  "\u2581curious": 7890,
  "\u2581decade": 7891,
  "\u2581denotes": 7892,
  "\u2581derive": 7893,
  "\u2581despise": 7894,
  "\u2581differently": 7895,
  "\u2581displeasing": 7896,
  "\u2581distractions": 7897,
  "\u2581endear": 7898,
  "\u2581enlightenment": 7899,
  "\u2581entity": 7900,
  "\u2581exalt": 7901,
  "\u2581g": 7902,
  "\u2581grandmother": 7903,
  "\u2581hiding": 7904,
  "\u2581insist": 7905,
  "\u2581instances": 7906,
  "\u2581instructor": 7907,
  "\u2581kondo": 7908,
  "\u2581largest": 7909,
  "\u2581lasted": 7910,
  "\u2581lover": 7911,
  "\u2581mato": 7912,
  "\u2581meals": 7913,
  "\u2581misery": 7914,
  "\u2581misuse": 7915,
  "\u2581murdered": 7916,
  "\u2581nd\u00f4": 7917,
  "\u2581outward": 7918,
  "\u2581pa": 7919,
  "\u2581pictured": 7920,
  "\u2581portrayed": 7921,
  "\u2581prophesy": 7922,
  "\u2581provoked": 7923,
  "\u2581puse": 7924,
  "\u2581quote": 7925,
  "\u2581rebuild": 7926,
  "\u2581relied": 7927,
  "\u2581rod": 7928,
  "\u2581round": 7929,
  "\u2581sanctuary": 7930,
  "\u2581sudden": 7931,
  "\u2581threatening": 7932,
  "\u2581tribulations": 7933,
  "\u2581understandable": 7934,
  "\u2581wave": 7935,
  "Amolenge": 7936,
  "Gi": 7937,
  "May": 7938,
  "estimated": 7939,
  "iri": 7940,
  "lying": 7941,
  "ong": 7942,
  "royaume": 7943,
  "ul": 7944,
  "zi": 7945,
  "\u258111)": 7946,
  "\u2581Child": 7947,
  "\u2581Easter": 7948,
  "\u2581Everything": 7949,
  "\u2581Free": 7950,
  "\u2581Gamaliel": 7951,
  "\u2581Island": 7952,
  "\u2581Jehu": 7953,
  "\u2581Jo\u00e3o": 7954,
  "\u2581Kim": 7955,
  "\u2581Mar": 7956,
  "\u2581Organization": 7957,
  "\u2581R\u00e9becca": 7958,
  "\u2581Song": 7959,
  "\u2581Universal": 7960,
  "\u2581Writing": 7961,
  "\u2581achieved": 7962,
  "\u2581alcoholic": 7963,
  "\u2581anzala": 7964,
  "\u2581auxiliary": 7965,
  "\u2581az\u00ea": 7966,
  "\u2581bebungbi": 7967,
  "\u2581borne": 7968,
  "\u2581celebration": 7969,
  "\u2581charges": 7970,
  "\u2581chariot": 7971,
  "\u2581collected": 7972,
  "\u2581compar": 7973,
  "\u2581consistent": 7974,
  "\u2581counsels": 7975,
  "\u2581dawn": 7976,
  "\u2581deceased": 7977,
  "\u2581distorted": 7978,
  "\u2581emotion": 7979,
  "\u2581exceptional": 7980,
  "\u2581excited": 7981,
  "\u2581fellowman": 7982,
  "\u2581financially": 7983,
  "\u2581gates": 7984,
  "\u2581goat": 7985,
  "\u2581hardworking": 7986,
  "\u2581intend": 7987,
  "\u2581issued": 7988,
  "\u2581leaven": 7989,
  "\u2581manna": 7990,
  "\u2581manne": 7991,
  "\u2581marvel": 7992,
  "\u2581nationality": 7993,
  "\u2581pape": 7994,
  "\u2581plants": 7995,
  "\u2581possessed": 7996,
  "\u2581proclamation": 7997,
  "\u2581r": 7998,
  "\u2581redeem": 7999,
  "\u2581rooted": 8000,
  "\u2581runs": 8001,
  "\u2581scope": 8002,
  "\u2581siege": 8003,
  "\u2581sincerity": 8004,
  "\u2581star": 8005,
  "\u2581stir": 8006,
  "\u2581systems": 8007,
  "\u2581tenderness": 8008,
  "\u2581transportation": 8009,
  "\u2581unit": 8010,
  "\u2581voizin": 8011,
  "\u2581weary": 8012,
  "\u2581workplace": 8013,
  "\u2581yearn": 8014,
  "\u2581\u00e9volution": 8015,
  "8": 8016,
  "Every": 8017,
  "Not": 8018,
  "anic": 8019,
  "bed": 8020,
  "deba": 8021,
  "gifts": 8022,
  "holy": 8023,
  "talent": 8024,
  "up": 8025,
  "\u2581135": 8026,
  "\u258116.)": 8027,
  "\u25811937": 8028,
  "\u25811975": 8029,
  "\u2581AGA": 8030,
  "\u2581Alexandrie": 8031,
  "\u2581Antioche": 8032,
  "\u2581Colossae": 8033,
  "\u2581Count": 8034,
  "\u2581Damas": 8035,
  "\u2581Damascus": 8036,
  "\u2581Deep": 8037,
  "\u2581D\u00c4": 8038,
  "\u2581Fac": 8039,
  "\u2581Josephus": 8040,
  "\u2581Kui": 8041,
  "\u2581Linda": 8042,
  "\u2581Mediterranean": 8043,
  "\u2581Miguel": 8044,
  "\u2581PUBLISHERS": 8045,
  "\u2581Part": 8046,
  "\u2581Respect": 8047,
  "\u2581Rio": 8048,
  "\u2581Safeguard": 8049,
  "\u2581Saphan": 8050,
  "\u2581Set": 8051,
  "\u2581Tell": 8052,
  "\u2581acquiring": 8053,
  "\u2581advances": 8054,
  "\u2581aforoto": 8055,
  "\u2581akodro": 8056,
  "\u2581appreciatively": 8057,
  "\u2581ata": 8058,
  "\u2581avail": 8059,
  "\u2581aya": 8060,
  "\u2581blameless": 8061,
  "\u2581carpenter": 8062,
  "\u2581co": 8063,
  "\u2581combat": 8064,
  "\u2581companionship": 8065,
  "\u2581correspond": 8066,
  "\u2581discusse": 8067,
  "\u2581distinction": 8068,
  "\u2581divide": 8069,
  "\u2581division": 8070,
  "\u2581exhorts": 8071,
  "\u2581fearlessly": 8072,
  "\u2581gray": 8073,
  "\u2581heel": 8074,
  "\u2581heir": 8075,
  "\u2581honors": 8076,
  "\u2581hopeless": 8077,
  "\u2581humanity": 8078,
  "\u2581inappropriate": 8079,
  "\u2581instill": 8080,
  "\u2581jeunes": 8081,
  "\u2581lady": 8082,
  "\u2581leisure": 8083,
  "\u2581lure": 8084,
  "\u2581manifestation": 8085,
  "\u2581materials": 8086,
  "\u2581obediently": 8087,
  "\u2581owned": 8088,
  "\u2581province": 8089,
  "\u2581reassured": 8090,
  "\u2581regions": 8091,
  "\u2581relat": 8092,
  "\u2581remarks": 8093,
  "\u2581salt": 8094,
  "\u2581shop": 8095,
  "\u2581shortcomings": 8096,
  "\u2581smaller": 8097,
  "\u2581sown": 8098,
  "\u2581sparrows": 8099,
  "\u2581supreme": 8100,
  "\u2581terrified": 8101,
  "\u2581uncircumcised": 8102,
  "\u2581unduly": 8103,
  "\u2581unwilling": 8104,
  "\u2581upbringing": 8105,
  "\u2581utter": 8106,
  "\u2581versions": 8107,
  "\u2581weep": 8108,
  "\u2581worried": 8109,
  "Ambeni": 8110,
  "ELE": 8111,
  "Ga": 8112,
  "Take": 8113,
  "ca": 8114,
  "cal": 8115,
  "ized": 8116,
  "juska": 8117,
  "many": 8118,
  "nzapa": 8119,
  "only": 8120,
  "ten": 8121,
  "ts": 8122,
  "you": 8123,
  "\u2581(2": 8124,
  "\u2581136": 8125,
  "\u25811962": 8126,
  "\u25812]": 8127,
  "\u258152.": 8128,
  "\u258185": 8129,
  "\u258199": 8130,
  "\u2581ABOUT": 8131,
  "\u2581AROM": 8132,
  "\u2581Assembl\u00e9e": 8133,
  "\u2581Cana": 8134,
  "\u2581Comfort": 8135,
  "\u2581Eunice": 8136,
  "\u2581Festus": 8137,
  "\u2581Hagar": 8138,
  "\u2581Juan": 8139,
  "\u2581Karl": 8140,
  "\u2581Margaryan": 8141,
  "\u2581Osi": 8142,
  "\u2581Panama": 8143,
  "\u2581Prophecy": 8144,
  "\u2581SOME": 8145,
  "\u2581Stock": 8146,
  "\u2581Tahiti": 8147,
  "\u2581Trinit\u00e9": 8148,
  "\u2581Turquie": 8149,
  "\u2581Tuvalu": 8150,
  "\u2581abl\u00e9": 8151,
  "\u2581accomplishments": 8152,
  "\u2581acommentaire": 8153,
  "\u2581agents": 8154,
  "\u2581apathy": 8155,
  "\u2581attributes": 8156,
  "\u2581band": 8157,
  "\u2581bare": 8158,
  "\u2581beg": 8159,
  "\u2581bureau": 8160,
  "\u2581charged": 8161,
  "\u2581circumcised": 8162,
  "\u2581coin": 8163,
  "\u2581confused": 8164,
  "\u2581domestic": 8165,
  "\u2581dreams": 8166,
  "\u2581drunkenness": 8167,
  "\u2581dukua": 8168,
  "\u2581dynamic": 8169,
  "\u2581employer": 8170,
  "\u2581expense": 8171,
  "\u2581exploit": 8172,
  "\u2581fa\u00efda": 8173,
  "\u2581fleeing": 8174,
  "\u2581flying": 8175,
  "\u2581frame": 8176,
  "\u2581grandfather": 8177,
  "\u2581grieve": 8178,
  "\u2581heading": 8179,
  "\u2581hometown": 8180,
  "\u2581hypocritical": 8181,
  "\u2581intimacy": 8182,
  "\u2581komanda": 8183,
  "\u2581loneliness": 8184,
  "\u2581malicious": 8185,
  "\u2581manager": 8186,
  "\u2581manslayer": 8187,
  "\u2581morals": 8188,
  "\u2581observers": 8189,
  "\u2581organizational": 8190,
  "\u2581palace": 8191,
  "\u2581passion": 8192,
  "\u2581products": 8193,
  "\u2581punished": 8194,
  "\u2581racial": 8195,
  "\u2581receptive": 8196,
  "\u2581restricted": 8197,
  "\u2581roar": 8198,
  "\u2581separation": 8199,
  "\u2581shift": 8200,
  "\u2581shrewd": 8201,
  "\u2581solemn": 8202,
  "\u2581subsequent": 8203,
  "\u2581thirst": 8204,
  "\u2581tolerate": 8205,
  "\u2581wash": 8206,
  "30": 8207,
  "39": 8208,
  "Many": 8209,
  "Ndia": 8210,
  "come": 8211,
  "hon": 8212,
  "house": 8213,
  "interrogent": 8214,
  "keke": 8215,
  "kobe": 8216,
  "lin": 8217,
  "matabisi": 8218,
  "w\u00e2": 8219,
  "\u2581(201": 8220,
  "\u25811870": 8221,
  "\u25811914?": 8222,
  "\u25811989,": 8223,
  "\u2581APROV": 8224,
  "\u2581Accept": 8225,
  "\u2581Albania": 8226,
  "\u2581Baptism": 8227,
  "\u2581Char": 8228,
  "\u2581Daily": 8229,
  "\u2581Forever": 8230,
  "\u2581Futa": 8231,
  "\u2581Future": 8232,
  "\u2581GA": 8233,
  "\u2581Glory": 8234,
  "\u2581Ha": 8235,
  "\u2581Korea": 8236,
  "\u2581Loyal": 8237,
  "\u2581Madrid": 8238,
  "\u2581Personal": 8239,
  "\u2581Philo": 8240,
  "\u2581Portuguese": 8241,
  "\u2581Scripturally": 8242,
  "\u2581Shaphan": 8243,
  "\u2581Simply": 8244,
  "\u2581Sonia": 8245,
  "\u2581Thank": 8246,
  "\u2581WHY": 8247,
  "\u2581Works": 8248,
  "\u2581ZI": 8249,
  "\u2581aVaudois": 8250,
  "\u2581apapa": 8251,
  "\u2581argued": 8252,
  "\u2581aright": 8253,
  "\u2581arm": 8254,
  "\u2581attendant": 8255,
  "\u2581attentive": 8256,
  "\u2581avoyage": 8257,
  "\u2581bird": 8258,
  "\u2581characterized": 8259,
  "\u2581confessed": 8260,
  "\u2581consume": 8261,
  "\u2581consumed": 8262,
  "\u2581covetousness": 8263,
  "\u2581decreed": 8264,
  "\u2581depended": 8265,
  "\u2581employ": 8266,
  "\u2581examines": 8267,
  "\u2581excuse": 8268,
  "\u2581expend": 8269,
  "\u2581fame": 8270,
  "\u2581fascinating": 8271,
  "\u2581forgives": 8272,
  "\u2581hat": 8273,
  "\u2581indefinitely": 8274,
  "\u2581infant": 8275,
  "\u2581justify": 8276,
  "\u2581lord": 8277,
  "\u2581momentous": 8278,
  "\u2581nobody": 8279,
  "\u2581o": 8280,
  "\u2581op\u00e9r\u00e9": 8281,
  "\u2581payment": 8282,
  "\u2581perseverance": 8283,
  "\u2581pleaded": 8284,
  "\u2581popoto": 8285,
  "\u2581praises": 8286,
  "\u2581purchased": 8287,
  "\u2581rampant": 8288,
  "\u2581realiz": 8289,
  "\u2581recovery": 8290,
  "\u2581researchers": 8291,
  "\u2581selective": 8292,
  "\u2581shun": 8293,
  "\u2581slowly": 8294,
  "\u2581sounded": 8295,
  "\u2581sounds": 8296,
  "\u2581stealing": 8297,
  "\u2581stronghold": 8298,
  "\u2581tension": 8299,
  "\u2581theory": 8300,
  "\u2581thieves": 8301,
  "\u2581timing": 8302,
  "\u2581titles": 8303,
  "\u2581undue": 8304,
  "\u2581valueless": 8305,
  "\u2581wished": 8306,
  "537": 8307,
  "Because": 8308,
  "HAT": 8309,
  "Hearer": 8310,
  "Sala": 8311,
  "Whoever": 8312,
  "asara": 8313,
  "ayayu": 8314,
  "has": 8315,
  "molenge": 8316,
  "tre": 8317,
  "waited": 8318,
  "za": 8319,
  "\u25811500": 8320,
  "\u258119)": 8321,
  "\u258138,": 8322,
  "\u2581Car": 8323,
  "\u2581Choose": 8324,
  "\u2581Claire": 8325,
  "\u2581Council": 8326,
  "\u2581DE": 8327,
  "\u2581Dorcas": 8328,
  "\u2581Dublin": 8329,
  "\u2581Eduard": 8330,
  "\u2581Eusebius": 8331,
  "\u2581Focus": 8332,
  "\u2581Hades": 8333,
  "\u2581ISSUE": 8334,
  "\u2581Jersey": 8335,
  "\u2581Lengo": 8336,
  "\u2581M\u00e9diterran\u00e9e": 8337,
  "\u2581M\u00fcnster": 8338,
  "\u2581OR": 8339,
  "\u2581Rejoice": 8340,
  "\u2581Remain": 8341,
  "\u2581Sa": 8342,
  "\u2581Susan": 8343,
  "\u2581Switzerland": 8344,
  "\u2581Taiwan": 8345,
  "\u2581YEAR": 8346,
  "\u2581adjustment": 8347,
  "\u2581administer": 8348,
  "\u2581agency": 8349,
  "\u2581assault": 8350,
  "\u2581auxiliaire": 8351,
  "\u2581benyama": 8352,
  "\u2581buying": 8353,
  "\u2581calendar": 8354,
  "\u2581controlled": 8355,
  "\u2581convictions": 8356,
  "\u2581courts": 8357,
  "\u2581cycle": 8358,
  "\u2581depart": 8359,
  "\u2581descendant": 8360,
  "\u2581disgust": 8361,
  "\u2581domestics": 8362,
  "\u2581doubtless": 8363,
  "\u2581dragon": 8364,
  "\u2581electronic": 8365,
  "\u2581encountered": 8366,
  "\u2581expansion": 8367,
  "\u2581farmers": 8368,
  "\u2581fewer": 8369,
  "\u2581figs": 8370,
  "\u2581foolishness": 8371,
  "\u2581foreshadowed": 8372,
  "\u2581goddess": 8373,
  "\u2581govern": 8374,
  "\u2581grip": 8375,
  "\u2581hills": 8376,
  "\u2581hostility": 8377,
  "\u2581immigrants": 8378,
  "\u2581impaled": 8379,
  "\u2581impel": 8380,
  "\u2581indigenous": 8381,
  "\u2581injured": 8382,
  "\u2581kokora": 8383,
  "\u2581kp\u00e2": 8384,
  "\u2581legitimate": 8385,
  "\u2581locations": 8386,
  "\u2581mapo": 8387,
  "\u2581obstacle": 8388,
  "\u2581overtake": 8389,
  "\u2581platform": 8390,
  "\u2581posed": 8391,
  "\u2581pressured": 8392,
  "\u2581refined": 8393,
  "\u2581refugee": 8394,
  "\u2581religiously": 8395,
  "\u2581soundness": 8396,
  "\u2581stricken": 8397,
  "\u2581strictly": 8398,
  "\u2581symbolize": 8399,
  "\u2581transfiguration": 8400,
  "\u2581transgression": 8401,
  "\u2581transmitted": 8402,
  "\u2581unacceptable": 8403,
  "\u2581withdraw": 8404,
  "\u2581wounds": 8405,
  "David": 8406,
  "Give": 8407,
  "Vundu": 8408,
  "iskur": 8409,
  "mbage": 8410,
  "set": 8411,
  "\u25811965": 8412,
  "\u25811981": 8413,
  "\u258179": 8414,
  "\u2581Ahunda": 8415,
  "\u2581Amalek": 8416,
  "\u2581Anze": 8417,
  "\u2581Brings": 8418,
  "\u2581Ca": 8419,
  "\u2581Calvin": 8420,
  "\u2581Ella": 8421,
  "\u2581Emmanuel": 8422,
  "\u2581Endurance": 8423,
  "\u2581Gbata": 8424,
  "\u2581Gehenna": 8425,
  "\u2581Immediately": 8426,
  "\u2581Julie": 8427,
  "\u2581J\u00e9hu": 8428,
  "\u2581Mbito": 8429,
  "\u2581Ne": 8430,
  "\u2581Nigeria": 8431,
  "\u2581Nimrod": 8432,
  "\u2581Obedience": 8433,
  "\u2581STORY": 8434,
  "\u2581Soviet": 8435,
  "\u2581Strengthen": 8436,
  "\u2581Turn": 8437,
  "\u2581T\u00ean\u00eb": 8438,
  "\u2581Uganda": 8439,
  "\u2581Valley": 8440,
  "\u2581Vatican": 8441,
  "\u2581Waldenses": 8442,
  "\u2581Youths": 8443,
  "\u2581akungbi": 8444,
  "\u2581altars": 8445,
  "\u2581ambo": 8446,
  "\u2581amunzu": 8447,
  "\u2581appropriately": 8448,
  "\u2581astray": 8449,
  "\u2581atente": 8450,
  "\u2581atoro": 8451,
  "\u2581azin": 8452,
  "\u2581az\u00f6": 8453,
  "\u2581captives": 8454,
  "\u2581closest": 8455,
  "\u2581commander": 8456,
  "\u2581commenting": 8457,
  "\u2581competition": 8458,
  "\u2581complain": 8459,
  "\u2581conveyed": 8460,
  "\u2581covers": 8461,
  "\u2581designated": 8462,
  "\u2581directs": 8463,
  "\u2581disciplined": 8464,
  "\u2581dismiss": 8465,
  "\u2581disrupt": 8466,
  "\u2581drapeau": 8467,
  "\u2581equivalent": 8468,
  "\u2581estate": 8469,
  "\u2581fashioned": 8470,
  "\u2581fat": 8471,
  "\u2581fore": 8472,
  "\u2581heap": 8473,
  "\u2581honey": 8474,
  "\u2581insisted": 8475,
  "\u2581intensely": 8476,
  "\u2581introduction": 8477,
  "\u2581koro": 8478,
  "\u2581kpere": 8479,
  "\u2581lele": 8480,
  "\u2581materialize": 8481,
  "\u2581minute": 8482,
  "\u2581orderly": 8483,
  "\u2581pertain": 8484,
  "\u2581philosopher": 8485,
  "\u2581pose": 8486,
  "\u2581pronounced": 8487,
  "\u2581rearing": 8488,
  "\u2581rejection": 8489,
  "\u2581relieve": 8490,
  "\u2581restrain": 8491,
  "\u2581rewarder": 8492,
  "\u2581shin": 8493,
  "\u2581signal": 8494,
  "\u2581tange": 8495,
  "\u2581temples": 8496,
  "\u2581theology": 8497,
  "\u2581thorn": 8498,
[...]
