{
  "</s>": 0,
  "<unk>": 1,
  ".": 2,
  ",": 3,
  "?": 4,
  "'": 5,
  "\u2581the": 6,
  "\u2581-": 7,
  "\u2581\u0434\u0430": 8,
  "\u2581\u043d\u0430": 9,
  "s": 10,
  "\u2581I": 11,
  "\u2581to": 12,
  "\u2581you": 13,
  "\u2581\u0441\u0435": 14,
  "!": 15,
  "\u2581a": 16,
  "\u2581of": 17,
  "\u2581\u0438": 18,
  "\u2581\u0435": 19,
  "\u2581\u0432\u043e": 20,
  "\u2581and": 21,
  "\u2581\u0437\u0430": 22,
  "\u2581\"": 23,
  "\u2581in": 24,
  "\u2581\u0433\u043e": 25,
  "\u2581\u043d\u0435": 26,
  "\u2581that": 27,
  "...": 28,
  "\u2581\u043e\u0434": 29,
  "t": 30,
  "\u2581it": 31,
  "\u2581\u0448\u0442\u043e": 32,
  "\u2581is": 33,
  "\u2581\u0441\u043e": 34,
  "\u2581\u045c\u0435": 35,
  "\u2581\u0434\u0435\u043a\u0430": 36,
  "\u2581for": 37,
  "\u2581on": 38,
  "\u2581You": 39,
  "\u2581\u041d\u0435": 40,
  "\u0442\u0435": 41,
  "-": 42,
  "\u2581me": 43,
  "\u2581\u0442\u043e\u0430": 44,
  "\u2581\u0458\u0430": 45,
  "\u2581be": 46,
  "\u2581\u0433\u0438": 47,
  "\u2581have": 48,
  "\u2581was": 49,
  "\u2581this": 50,
  "m": 51,
  "\u2581with": 52,
  "\u2581we": 53,
  "\u2581not": 54,
  "\u2581are": 55,
  "\u043e\u0442": 56,
  "\u2581your": 57,
  "re": 58,
  "\u2581\u043c\u0438": 59,
  "\u2581\u0441\u0438": 60,
  "\u2581The": 61,
  ":": 62,
  "\u2581\u0442\u0438": 63,
  "\u0442\u0430": 64,
  "\u2581my": 65,
  "\u2581\u043a\u0430\u043a\u043e": 66,
  "\u2581": 67,
  "\u2581do": 68,
  "\u2581What": 69,
  "\u2581he": 70,
  "\u2581can": 71,
  "\u2581It": 72,
  "\u2581know": 73,
  "\u2581what": 74,
  "\u2581\u0414\u0430": 75,
  "\u2581will": 76,
  "\u2581as": 77,
  "\u0430": 78,
  "\u2581all": 79,
  "\u2581We": 80,
  "\u2581\u0428\u0442\u043e": 81,
  "\u2581at": 82,
  "\u2581don": 83,
  "\u2581his": 84,
  "\u2581about": 85,
  "\u2581out": 86,
  "\u2581from": 87,
  "\u2581him": 88,
  "\u2581\u0441\u0443\u043c": 89,
  "\u2581up": 90,
  "\u0438": 91,
  "\u2581here": 92,
  "\u2581just": 93,
  "\u2581they": 94,
  "ll": 95,
  "\u2581He": 96,
  "\u2581one": 97,
  ".\"": 98,
  "\u2581right": 99,
  "\u2581(": 100,
  "\u2581like": 101,
  "\u2581\u0418": 102,
  "\u2581And": 103,
  "\u2581No": 104,
  "\u2581get": 105,
  "\u2581\u043c\u0443": 106,
  "\u2581there": 107,
  "\u2581by": 108,
  "\u2581\u043c\u0435": 109,
  "\u2581\u043b\u0438": 110,
  "\u2581\u043f\u043e": 111,
  "\u2581\u043e\u0432\u0430": 112,
  "\u2581go": 113,
  "\u2581\u0412\u043e": 114,
  "\u2581\u040c\u0435": 115,
  "\u2581\u0431\u0435\u0448\u0435": 116,
  "\u2581an": 117,
  "\u2581but": 118,
  "\u2581That": 119,
  "d": 120,
  ")": 121,
  "\u2581no": 122,
  "\u2581\u0421\u0435": 123,
  "\u2581her": 124,
  "\u2581so": 125,
  "\u2581\u0422\u043e\u0430": 126,
  "\u2581got": 127,
  "\u2581us": 128,
  "\u2581\u0442\u0440\u0435\u0431\u0430": 129,
  "\u043c\u0435": 130,
  "\u2581\u043c\u043d\u043e\u0433\u0443": 131,
  "\u2581\u0442\u0435": 132,
  "\u2581who": 133,
  "\u0448": 134,
  "\u2581God": 135,
  "\u2581\u043a\u043e\u0433\u0430": 136,
  "\u2581or": 137,
  "\u2581has": 138,
  "\u2581were": 139,
  "\u2581them": 140,
  "\u2581\u0430": 141,
  "\u2581\u043a\u043e\u0458": 142,
  "\u0442\u043e": 143,
  "\u2581\u0441\u0430\u043c\u043e": 144,
  "ve": 145,
  "ing": 146,
  "\u2581want": 147,
  "\u2581our": 148,
  "\u2581\u0434\u043e": 149,
  "\u2581time": 150,
  "\u2581think": 151,
  "\u2581would": 152,
  "\u2581\u0458\u0430\u0441": 153,
  ",\"": 154,
  "\u2581if": 155,
  "\u2581\u0442\u043e\u0458": 156,
  "\u2581Yeah": 157,
  "\u2581had": 158,
  "\u2581\u043a\u043e\u0438": 159,
  "\u2581\u043c\u043e\u0436\u0435": 160,
  "\u2581\u0431\u0438\u0434\u0435": 161,
  "\u2581\u0438\u043c\u0430": 162,
  "\u2581now": 163,
  "\u2581[": 164,
  "\u2581said": 165,
  "\u2581been": 166,
  "\u2581But": 167,
  "\"": 168,
  "\u2581their": 169,
  "\u043c": 170,
  "\u2581\u0431\u0438": 171,
  "\u2581\u041a\u0430\u043a\u043e": 172,
  "\u2581A": 173,
  "\u2581see": 174,
  "\u2581did": 175,
  "\u0430\u0442": 176,
  "\u2581\u043d\u0435\u043c\u0430": 177,
  "\u043b": 178,
  "\u2581This": 179,
  "\u2581Oh": 180,
  "\u2581\u043d\u0435\u0448\u0442\u043e": 181,
  "\u2581\u0438\u043c": 182,
  "\u2581\u043d\u043e": 183,
  "\u2581\u043d\u0438": 184,
  "\u2581gonna": 185,
  "\u2581\u0438\u043b\u0438": 186,
  "\u2581\u0410": 187,
  "\u2581\u041d\u043e": 188,
  "\u2581need": 189,
  "\u2581back": 190,
  "\u043d\u0430": 191,
  "\u2581\u0442\u0430\u043a\u0430": 192,
  "\u2581she": 193,
  "\u2581good": 194,
  "\u2581people": 195,
  "\u2581How": 196,
  "\u2581So": 197,
  "\u043e": 198,
  "\u2581\u0408\u0430\u0441": 199,
  "\u2581\u0430\u043a\u043e": 200,
  "\u2581when": 201,
  "\u2581some": 202,
  "\u2581\u0435\u0434\u0435\u043d": 203,
  "\u043b\u0435": 204,
  "\u2581more": 205,
  "\u2581\u0441\u0438\u0442\u0435": 206,
  "\u2581They": 207,
  "\u2581\u0422\u0438": 208,
  "\u2581going": 209,
  "\u0432": 210,
  "\u2581Jehovah": 211,
  "\u043d\u0438": 212,
  "\u2581man": 213,
  "\u2581\u043c\u0435\u043d\u0435": 214,
  "\u2581\u0414\u043e\u0431\u0440\u043e": 215,
  "\u2581\u0432\u0440\u0435\u043c\u0435": 216,
  "\u2581\u0442\u0435\u0431\u0435": 217,
  "\u2581\u041d\u0430": 218,
  "\u2581could": 219,
  "\u2581way": 220,
  "\u2581how": 221,
  "]": 222,
  "\u2581Well": 223,
  "\u2581take": 224,
  "ed": 225,
  "\u2581In": 226,
  "\u2581\u0410\u043a\u043e": 227,
  "\u2581come": 228,
  "\u2581'": 229,
  "\u2581\u0441\u0435\u0433\u0430": 230,
  "\u2581\u0417\u0430": 231,
  "\u2581down": 232,
  "\u2581\u0440\u0435\u0434": 233,
  "\u2581over": 234,
  "\u2581--": 235,
  "\u2581\u0443\u0448\u0442\u0435": 236,
  "\u2581\u0414\u0430\u043b\u0438": 237,
  "\u2581make": 238,
  "\u2581\u043f\u0440\u0435\u0434": 239,
  "\u2581\u0422\u043e\u0458": 240,
  "\u2581say": 241,
  "\u2581\u0442\u0443\u043a\u0430": 242,
  "\u2581\u0434\u043e\u0431\u0440\u043e": 243,
  "\u2581\u043f\u043e\u0432\u0435\u045c\u0435": 244,
  "\u2581She": 245,
  "\u043d": 246,
  "\u2581\u041e\u0432\u0430": 247,
  "\u2581Why": 248,
  "\u2581should": 249,
  "\u2581If": 250,
  "\u2581\u0440\u0435\u0447\u0435": 251,
  "y": 252,
  "\u2581\u043a\u043e\u0458\u0430": 253,
  "\u2581Come": 254,
  "\u2581Hey": 255,
  "\u2581\u0413\u043e": 256,
  "\u2581\u0441\u043c\u0435": 257,
  "\u2581\u0437\u043d\u0430\u043c": 258,
  "a": 259,
  "\u2581There": 260,
  "\u2581\u0417\u043e\u0448\u0442\u043e": 261,
  "\u043d\u043e": 262,
  "\u043b\u0430": 263,
  "\u2581\u0435\u0434\u043d\u0430": 264,
  "\u2581only": 265,
  "\u2581Yes": 266,
  "\u2581\u0442\u0430\u0430": 267,
  "\u2581\u043b\u0443\u0453\u0435": 268,
  "\u2581something": 269,
  "\u2581life": 270,
  "\u2581two": 271,
  "\u2581\u0421\u0430\u043c\u043e": 272,
  "\u2581All": 273,
  "\u2581\u0408\u0435\u0445\u043e\u0432\u0430": 274,
  "\u2581help": 275,
  "\u2581\u043d\u0435\u043a\u043e\u0458": 276,
  "\u2581into": 277,
  "\u2581than": 278,
  "\u2581Let": 279,
  "\u2581\u043a\u0430\u0434\u0435": 280,
  "\u2581other": 281,
  "\u2581\u0411\u043e\u0433": 282,
  "\u2581\u0442\u0438\u0435": 283,
  "\u2581\u0441\u0430\u043a\u0430\u043c": 284,
  "\u2581Do": 285,
  "\u2581\u041f\u0430": 286,
  "\u0442\u0438": 287,
  "\u2581tell": 288,
  "\u2581\u0433\u043e\u0434\u0438\u043d\u0438": 289,
  "\u2581\u043d\u0435\u0433\u043e": 290,
  ";": 291,
  "\u2581\u043c\u043e\u0436\u0430\u043c": 292,
  "\u2581then": 293,
  "\u2581\u0410\u0458\u0434\u0435": 294,
  "\u2581too": 295,
  "\u2581didn": 296,
  "\u2581little": 297,
  "\u2581really": 298,
  "\u2581Okay": 299,
  "\u2581\u0440\u0430\u0431\u043e\u0442\u0438": 300,
  "\u2581\u0433\u043e\u0434\u0438\u043d\u0430": 301,
  "\u2581work": 302,
  "\u2581off": 303,
  "\u2581first": 304,
  "\u0435": 305,
  "\u2581where": 306,
  "\u2581\u0432\u0438": 307,
  "\u2581never": 308,
  "\u2581which": 309,
  "\u2581\u043e\u0432\u0434\u0435": 310,
  "\u2581those": 311,
  "\u2581Jesus": 312,
  "\u2581let": 313,
  "\u2581Bible": 314,
  "\u2581love": 315,
  "\u0435\u043d": 316,
  "\u0448\u0435": 317,
  "\u2581these": 318,
  "\u2581doing": 319,
  "\u2581even": 320,
  "\u2581very": 321,
  "\u2581years": 322,
  "\u2581any": 323,
  "\u0438\u0442\u0435": 324,
  "\u2581\u043e\u0432\u043e\u0458": 325,
  "\u2581\u041d\u0435\u043c\u0430": 326,
  "\u2581Don": 327,
  "\u2581find": 328,
  "\u045a\u0435": 329,
  "\u2581also": 330,
  "\u2581mean": 331,
  "\u2581\u0441\u0442\u0435": 332,
  "\u2581\u043e\u0432\u0430\u0430": 333,
  "\u2581\u0440\u0430\u0431\u043e\u0442\u0430": 334,
  "\u2581My": 335,
  "\u2581day": 336,
  "\u2581much": 337,
  "\u2581look": 338,
  "\u2581new": 339,
  "\u2581am": 340,
  "\u2581\u041a\u043e\u0433\u0430": 341,
  "\u2581because": 342,
  "er": 343,
  "\u2581\u0442\u0430\u043c\u0443": 344,
  "\u2581thing": 345,
  "\u2581Now": 346,
  "\u0458": 347,
  "I": 348,
  "\u2581\u0431\u0438\u043b": 349,
  "\u2581\u041e\u0434": 350,
  "\u2581well": 351,
  "\u0442": 352,
  "\u2581before": 353,
  "\u2581its": 354,
  "\u2581give": 355,
  "e": 356,
  "\u2581may": 357,
  "\u2581\u043c\u0430\u043b\u043a\u0443": 358,
  "\u2581\u043a\u043e\u043d": 359,
  "\u2581\u0442\u043e\u043b\u043a\u0443": 360,
  "\u25811": 361,
  "\u2581\u041e": 362,
  "\u2581told": 363,
  "\u2581after": 364,
  "\u2581still": 365,
  "\u2581name": 366,
  "\u0441": 367,
  "\u2581\u0421\u043e": 368,
  "\u2581Where": 369,
  "\u2581\u041f\u043e": 370,
  "\u2581\u043c\u043e\u0440\u0430": 371,
  "\u2581things": 372,
  "\u2581\u0418\u0441\u0443\u0441": 373,
  "\u2581why": 374,
  "\u0458\u0430": 375,
  "\u2581\u0441\u0430\u043a\u0430\u0448": 376,
  "\u2581\u043d\u0438\u0432": 377,
  "\u2581world": 378,
  "\u2581...": 379,
  "\u2581many": 380,
  "\u2581Just": 381,
  "\u2581okay": 382,
  "\u2581must": 383,
  "\u2581\u043d\u0430\u0441": 384,
  "\u041d\u0435": 385,
  "\u2581made": 386,
  "\u2581does": 387,
  "\u2581last": 388,
  "\u2581\u043d\u0438\u0448\u0442\u043e": 389,
  "\u2581\u0431\u0435\u0437": 390,
  "\u2581\u0433": 391,
  "\u2581\u0434\u0435\u043d": 392,
  "ly": 393,
  "\u2581\u0447\u043e\u0432\u0435\u043a": 394,
  "\u2581\u043c\u043e\u043b\u0430\u043c": 395,
  "\u2581\u0421\u0435\u0433\u0430": 396,
  "\u2581\u041a\u0430\u0434\u0435": 397,
  "\u2581\u041c\u0438": 398,
  "th": 399,
  "\u2581When": 400,
  "\u2581\u0422\u0435": 401,
  "\u2581\u0432\u0435\u043b\u0438": 402,
  "\u0443": 403,
  "\u2581\u043b\u0443\u0453\u0435\u0442\u043e": 404,
  "\u2581\u0432\u0435": 405,
  "\u043b\u043e": 406,
  "\u2581Are": 407,
  "\u2581\u043e\u0432\u0438\u0435": 408,
  "\u2581\u0438\u0441\u0442\u043e": 409,
  "\u2581\u0434\u043e\u0434\u0435\u043a\u0430": 410,
  "\u2581home": 411,
  "\u2581Who": 412,
  "\u2581\u0437\u043d\u0430\u0435\u0448": 413,
  "\u2581\u0441\u0432\u043e\u0438\u0442\u0435": 414,
  "\u2581Get": 415,
  "\u2581\u0436\u0438\u0432\u043e\u0442": 416,
  "\u2581\u0434\u0430\u043b\u0438": 417,
  "\u2581\u043c\u043e\u0436\u0435\u0448": 418,
  "\u043d\u0435": 419,
  "\u2581Look": 420,
  "\u2581\u0431\u0438\u043b\u043e": 421,
  "\u2581\u041c\u0438\u0441\u043b\u0430\u043c": 422,
  "\u2581long": 423,
  "\u2581\u0415\u0458": 424,
  "\u2581\u043d\u0435\u043a\u043e\u0438": 425,
  "\u2581such": 426,
  "\u2581put": 427,
  "\u2581through": 428,
  "\u043a\u0430": 429,
  "\u2581call": 430,
  "\u2581sorry": 431,
  "\u2581again": 432,
  "\u2581being": 433,
  "\u2581\u043e\u043d\u0430": 434,
  "\u2581\u043f\u0430": 435,
  "\u2581\u043c\u043e\u0458\u043e\u0442": 436,
  "--": 437,
  "\u2581sure": 438,
  "\u2581away": 439,
  "\u2581\u043d\u0438\u0435": 440,
  "\u2581\u0441\u0430\u043a\u0430": 441,
  "\u2581anything": 442,
  "\u2581Mr": 443,
  "\u2581\u0408\u0430": 444,
  "\u2581.\"": 445,
  "\u2581talk": 446,
  "\u2581\u041a\u043e\u0458": 447,
  "\u2581place": 448,
  "\u2581For": 449,
  "\u2581\u0411\u0438\u0431\u043b\u0438\u0458\u0430\u0442\u0430": 450,
  "\u2581Not": 451,
  "\u2581Your": 452,
  "\u2581\u043a\u0430\u0458": 453,
  "\u2581Tom": 454,
  "\u2581\u0431\u0438\u0434\u0430\u0442": 455,
  "\u0458\u045c\u0438": 456,
  "\u2581thought": 457,
  "\u2581around": 458,
  "\u2581\u0422\u043e\u043c": 459,
  "\u2581says": 460,
  "\u2581\u043a\u043e\u043b\u043a\u0443": 461,
  "\u2581\u0434\u0435\u043b": 462,
  "\u2581Go": 463,
  "\u2581\u043d\u0435\u043a\u043e\u043b\u043a\u0443": 464,
  "\u2581\u0422\u0430\u0430": 465,
  "\u2581European": 466,
  "\u2581\u041c\u043e\u0436\u0435\u0431\u0438": 467,
  "o": 468,
  "\u2581\u043e\u0434\u0438\u043c\u0435": 469,
  "\u2581\u043c\u0435\u0441\u0442\u043e": 470,
  "\u2581night": 471,
  "\u2581\u0437\u043e\u0448\u0442\u043e": 472,
  "\u2581\u0413": 473,
  "\u2581better": 474,
  "\u2581own": 475,
  "\u2581Thank": 476,
  "\u2581\u0432\u0435\u045c\u0435": 477,
  "\u2581B": 478,
  "\u2581\u043f\u0430\u0442": 479,
  "\u2581year": 480,
  "\u2581EU": 481,
  "\u2581\u043f\u043e\u0434": 482,
  "\u2581Can": 483,
  "\u2581country": 484,
  "\u2581great": 485,
  "\u2581\u043d\u0430\u0447\u0438\u043d": 486,
  "\u2581keep": 487,
  "\u2581To": 488,
  "\u2581\u0441\u0432\u043e\u0458\u043e\u0442": 489,
  "\u2581three": 490,
  "\u2581\u0415\u0423": 491,
  "in": 492,
  "\u2581family": 493,
  "\u2581\u043c\u043e\u0458\u0430\u0442\u0430": 494,
  "\u2581\u043a\u0430\u0436\u0430\u043c": 495,
  "\u2581ever": 496,
  "\u2581won": 497,
  "\u2581\u043d\u0430\u043f\u0440\u0430\u0432\u0438": 498,
  "\u2581\u043e\u043a\u043e\u043b\u0443": 499,
  "\u2581\u0441\u0432\u043e\u0458\u0430\u0442\u0430": 500,
  "\u2581Good": 501,
  "\u2581\u0417\u0430\u0442\u043e\u0430": 502,
  "\u2581feel": 503,
  "\u2581\u043c\u043e\u0436\u0435\u0431\u0438": 504,
  "\u2581\u0441\u043b\u0443\u0447\u0438": 505,
  "\u0414\u0430": 506,
  "\u2581\u043c\u043e\u0436\u0435\u043c\u0435": 507,
  "\u2581\u0432\u0440\u0441\u043a\u0430": 508,
  "\u2581another": 509,
  "\u2581\u0431\u0438\u043b\u0435": 510,
  "\u2581might": 511,
  "\u2581guy": 512,
  "\u2581found": 513,
  "\u2581believe": 514,
  "\u2581\u0422\u0438\u0435": 515,
  "\u043a": 516,
  "\u2581most": 517,
  "\u2581\u043f\u043e\u0440\u0430\u0434\u0438": 518,
  "\u2581\u043d\u0435\u0430": 519,
  "\u2581\u0417\u0434\u0440\u0430\u0432\u043e": 520,
  "\u2581\u043d\u0430\u0432\u0438\u0441\u0442\u0438\u043d\u0430": 521,
  "\u2581As": 522,
  "\u2581\u0431\u0438\u0434\u0435\u0458\u045c\u0438": 523,
  "\u2581\u0442\u0430\u0442\u043a\u043e": 524,
  "\u2581money": 525,
  "\u2581\u0431\u0435\u0430": 526,
  "\u2581\u0434\u0440\u0443\u0433\u0438\u0442\u0435": 527,
  "\u258120": 528,
  "\u2581\u041c\u043e\u0436\u0435": 529,
  "\u2581always": 530,
  "\u2581done": 531,
  "\u2581\u0438\u043c\u0430\u043c": 532,
  "\u2581\u0438\u043c\u0430\u043c\u0435": 533,
  "\u2581\u041c\u043d\u043e\u0433\u0443": 534,
  "\u2581\u0417\u043d\u0430\u043c": 535,
  ").": 536,
  "\u258110": 537,
  "\u2581\u0417\u043d\u0430\u0435\u0448": 538,
  "\u2581\u0434\u0440\u0443\u0433\u0438": 539,
  "\u2581\u041c\u0435": 540,
  "\u0432\u043c\u0435": 541,
  "\u0432\u0430": 542,
  "\u2581!": 543,
  "\u2581\u043f\u0440\u0430\u0432\u0438\u0448": 544,
  "\u2581Kosovo": 545,
  "\u2581\u043e\u043d\u0438\u0435": 546,
  "\u2581\u043c\u043e\u0436\u0430\u0442": 547,
  "\u2581\u043d\u0438\u043a\u043e\u0433\u0430\u0448": 548,
  "\u2581old": 549,
  "\u2581\u0434\u043e\u0458\u0434\u0435": 550,
  "\u2581\u0437\u0430\u0442\u043e\u0430": 551,
  "\u2581\u043f\u0440\u043e\u0442\u0438\u0432": 552,
  "\u2581same": 553,
  "\u2581nothing": 554,
  "\u2581\u0438\u043c\u0430\u0430\u0442": 555,
  "\u2581left": 556,
  "\u2581came": 557,
  "\u2581\u0418\u043c\u0430": 558,
  "\u2581One": 559,
  "\u2581every": 560,
  "S": 561,
  "\u2581\u0441\u0442\u0440\u0430\u043d\u0430": 562,
  "\u2581\u043e\u0434\u0430\u043c": 563,
  "\u2581please": 564,
  "\u2581guys": 565,
  "\u2581father": 566,
  "\u2581part": 567,
  "\u2581\u043e\u0434\u0438": 568,
  "\u2581\u0415": 569,
  "\u2581government": 570,
  "\u2581\u0435\u0434\u043d\u043e": 571,
  "\u2581\u0438\u043c\u0430\u0448": 572,
  "\u2581\u0437\u043d\u0430\u0447\u0438": 573,
  "\u2581\u0442\u043e\u0433\u0430\u0448": 574,
  "\u2581\u0430\u043c\u0430": 575,
  "\u2581kind": 576,
  "\u2581\u0434\u043e\u043c\u0430": 577,
  "\u2581men": 578,
  "\u2581everything": 579,
  "\u2581dead": 580,
  "\u2581coming": 581,
  "\u043d\u0430\u0442\u0430": 582,
  "\u2581understand": 583,
  "\u2581Then": 584,
  "\u2581\u0441\u0435\u043a\u043e\u0458": 585,
  "\u2581\u0421\u0438": 586,
  "\u2581\u0432\u0430\u0441": 587,
  "\u2581use": 588,
  "\u2581house": 589,
  "\u2581course": 590,
  "\u2581end": 591,
  "\u2581\u043d\u0435\u0433\u043e\u0432\u0430\u0442\u0430": 592,
  "),": 593,
  "\u2581under": 594,
  "\u2581today": 595,
  "\u2581kill": 596,
  "\u25813": 597,
  "\u2581stop": 598,
  "\u2581Did": 599,
  "\u2581\u0422\u0430\u043a\u0430": 600,
  "\u2581\u0421\u0430\u043a\u0430\u043c": 601,
  "\u043b\u0438": 602,
  "\u2581Please": 603,
  "\u2581\u0436\u0438\u0432\u043e\u0442\u043e\u0442": 604,
  "\u258115": 605,
  "\u2581\u0410\u043c\u0430": 606,
  "\u0441\u043a\u0438": 607,
  "\u2581bad": 608,
  "\u2581lot": 609,
  "\u2581against": 610,
  "\u2581leave": 611,
  "\u2581\u0441\u0432\u0435\u0442": 612,
  "\u2581show": 613,
  "\u2581\u0441\u0450": 614,
  "\u2581\u0421\u0438\u0442\u0435": 615,
  "\u25812": 616,
  "\u2581sir": 617,
  "\u2581shit": 618,
  "\u2581wrong": 619,
  "\u2581\u043c\u0438\u0441\u043b\u0438\u0448": 620,
  "/": 621,
  "\u2581doesn": 622,
  "\u2581happened": 623,
  "\u2581hear": 624,
  "\u2581wanted": 625,
  "\u2581\u043f\u043e\u043c\u043e\u0448": 626,
  "\u2581\u043f\u0440\u0430\u0432\u0438": 627,
  "\u2581\u0422\u0440\u0435\u0431\u0430": 628,
  "\u2581called": 629,
  "\u2581son": 630,
  "\u2581\u0442\u0432\u043e\u0458\u043e\u0442": 631,
  "\u2581\u043c\u0438\u0441\u043b\u0430\u043c": 632,
  "\u2581hell": 633,
  "\u2581used": 634,
  "\u2581next": 635,
  "\u2581\u0436\u0435\u043d\u0430": 636,
  "\u2581/": 637,
  "\u2581\u043a\u043e\u0435": 638,
  "\u2581\u043d\u0435\u043b\u0438": 639,
  "\u2581\u043f\u0440\u0430\u0432\u043e": 640,
  "\u2581care": 641,
  "\u2581\u0434\u0443\u0440\u0438": 642,
  "al": 643,
  "\u043d\u0438\u0442\u0435": 644,
  "\u0440": 645,
  "\u2581children": 646,
  "\u2581while": 647,
  "\u2581big": 648,
  "\u0446\u0438": 649,
  "\u2581\u0441\u043b\u0443\u0447\u0443\u0432\u0430": 650,
  "\u2581car": 651,
  "\u2581\u0431\u0438\u0434\u0430\u043c": 652,
  "\u045a\u0435\u0442\u043e": 653,
  "\u2581best": 654,
  "\u2581\u0437\u0435\u043c\u0458\u0430\u0442\u0430": 655,
  "\u2581talking": 656,
  "\u2581\u0441\u0432\u0435\u0442\u043e\u0442": 657,
  "\u2581\u0442\u0440\u0438": 658,
  "n": 659,
  "\u2581\u043f\u0440\u0435\u043a\u0443": 660,
  "\u2581\u0434\u0440\u0443\u0433": 661,
  "\u2581\u041a\u043e\u043b\u043a\u0443": 662,
  "\u2581\u043f\u0430\u0440\u0438": 663,
  "\u2581real": 664,
  "\u2581\u0434\u0435\u0446\u0430": 665,
  "\u2581C": 666,
  "l": 667,
  "\u2581\u0431\u0435\u0432": 668,
  "\u2581\u041d\u0430\u0432\u0438\u0441\u0442\u0438\u043d\u0430": 669,
  "\u2581took": 670,
  "\u2581\u043d\u0438\u0437": 671,
  "\u2581Serbia": 672,
  "\u2581\u043f\u0440\u0438\u043c\u0435\u0440": 673,
  "\u2581head": 674,
  "\u2581\u0432\u0438\u0435": 675,
  "i": 676,
  "\u2581\u0431\u0438\u0434\u0435\u0448": 677,
  "\u2581enough": 678,
  "\u2581\u0438\u043c\u0435": 679,
  "\u2581\u043f\u043e\u0432\u0442\u043e\u0440\u043d\u043e": 680,
  "\u2581fucking": 681,
  "\u2581\u0411\u0438": 682,
  "\u2581\u041d\u0438\u0435": 683,
  "\u2581between": 684,
  "\u2581girl": 685,
  "\u2581without": 686,
  "\u2581\u043c\u0430\u0458\u043a\u0430": 687,
  "\u2581Times": 688,
  "\u2581fine": 689,
  "\u0430\u0442\u0430": 690,
  "\u2581ask": 691,
  "\u2581someone": 692,
  "\u2581\u0437\u043d\u0430\u0435": 693,
  "\u2581\u0442\u0432\u043e\u0458\u0430\u0442\u0430": 694,
  "\u2581Here": 695,
  "\u2581live": 696,
  "\u2581\u043f\u0440\u0438": 697,
  "\u2581mind": 698,
  "\u0432\u0438": 699,
  "\u2581S": 700,
  "\u0434\u0430": 701,
  "\u2581\u0413\u0438": 702,
  "\u2581yourself": 703,
  "\u2581else": 704,
  "\u2581move": 705,
  "\u258112": 706,
  "\u2581\u043c\u0435\u0453\u0443": 707,
  "\u2581days": 708,
  "\u2581\u0446\u0435\u043b": 709,
  "\u2581together": 710,
  "\u2581saying": 711,
  "\u2581trying": 712,
  "\u2581Minister": 713,
  "\u2581looking": 714,
  "\u2581\u0422\u043e\u0433\u0430\u0448": 715,
  "\u2581\u043d\u0430\u0448\u0438\u0442\u0435": 716,
  "\u2581friend": 717,
  "\u2581already": 718,
  "A": 719,
  "\u2581\u0421\u0440\u0431\u0438\u0458\u0430": 720,
  "\u2581saw": 721,
  "\u2581\u043f\u0430\u043a": 722,
  "r": 723,
  "\u2581Because": 724,
  "\u2581both": 725,
  "\u2581\u0441": 726,
  "\u2581page": 727,
  "\u2581stay": 728,
  "\u2581\u0434\u0432\u0435": 729,
  "\u2581went": 730,
  "\u2581\u0432\u0440\u0437": 731,
  "\u2581true": 732,
  "\u0434": 733,
  "\u2581problem": 734,
  "\u2581\u0434\u0435\u043d\u0435\u0441": 735,
  "\u2581\u0441\u0435\u043a\u043e\u0433\u0430\u0448": 736,
  "\u2581By": 737,
  "\u2581\u0424\u0430\u043b\u0430": 738,
  "\u2581seen": 739,
  "\u2581gotta": 740,
  "\u25815": 741,
  "\u2581\u0417\u043d\u0430\u0447\u0438": 742,
  "\u258130": 743,
  "\u2581getting": 744,
  "\u2581others": 745,
  "\u2581heart": 746,
  "\u2581\u0437\u0430\u0435\u0434\u043d\u043e": 747,
  "\u2581Maybe": 748,
  "\u2581\u0442\u0443\u043a\u0443": 749,
  "\u2581\u041c\u043e\u0440\u0430": 750,
  "\u2581each": 751,
  "the": 752,
  "\u2581\u0431\u0438\u043b\u0430": 753,
  "\u2581\u0437\u0435\u043c\u0458\u0430": 754,
  "\u2581\u043a\u0440\u0430\u0458\u043e\u0442": 755,
  "\u2581\u0412\u0438": 756,
  "\u2581mother": 757,
  "\u2581few": 758,
  "\u2581job": 759,
  "\u0410": 760,
  "\u2581death": 761,
  "\u0441\u043a\u0430": 762,
  "\u2581wait": 763,
  "\u0432\u043e": 764,
  "The": 765,
  "\u2581since": 766,
  "\u2581whole": 767,
  "\u2581\u041a\u043e\u0441\u043e\u0432\u043e": 768,
  "\u2581remember": 769,
  "\u2581boy": 770,
  "\u2581O": 771,
  "\u043a\u043e": 772,
  "\u2581important": 773,
  "\u2581\u043d\u0435\u0433\u043e\u0432\u0438\u043e\u0442": 774,
  "\u2581\u0421": 775,
  "\u2581\u043c\u043e\u0438\u0442\u0435": 776,
  "\u2581\u043d\u0430\u0448\u0430\u0442\u0430": 777,
  "\u2581number": 778,
  "\u2581\u043f\u0440\u043e\u0431\u043b\u0435\u043c": 779,
  "b": 780,
  "Times": 781,
  "\u2581\u0441\u0435\u0431\u0435": 782,
  "\u2581wife": 783,
  "\u2581person": 784,
  "\u2581\u0412\u0435": 785,
  "\u2581become": 786,
  "\u2581heard": 787,
  "\u2581At": 788,
  "\u2581try": 789,
  "\u2581Paul": 790,
  "\u2581\u0441\u0442\u0440\u0430\u043d\u0438\u0446\u0430": 791,
  "\u043c\u0438": 792,
  "\u2581SE": 793,
  "\u2581wanna": 794,
  "\u2581knew": 795,
  "\u2581hope": 796,
  "es": 797,
  "\u2581\u043f\u0440\u0435": 798,
  "\u2581times": 799,
  "\u2581\u0440\u0435\u043a\u043e\u043b": 800,
  "\u2581brother": 801,
  "\u2581yet": 802,
  "\u2581hand": 803,
  "\u2581\u0434\u043e\u0431\u0430\u0440": 804,
  "\u2581ago": 805,
  "\u2581\u0418\u043c\u0430\u043c": 806,
  "\u2581Right": 807,
  "\u2581means": 808,
  "\u2581face": 809,
  "\u2581\u0431\u0438\u0434\u0435\u043c\u0435": 810,
  "\u0437\u0430": 811,
  "\u2581\u043d\u0430\u0448\u0438\u043e\u0442": 812,
  "\u2581fuck": 813,
  "\u2581start": 814,
  "\u2581Witnesses": 815,
  "\u2581hard": 816,
  "\u2581\u043f\u043e\u0434\u043e\u0431\u0440\u043e": 817,
  "ic": 818,
  "\u2581set": 819,
  "\u2581killed": 820,
  "\u2581bring": 821,
  "\u2581\u0411\u043e\u0436\u0435": 822,
  "\u2581\u0421\u0435\u043f\u0430\u043a": 823,
  "\u2581\u043a\u0430\u0436\u0430": 824,
  "\u2581idea": 825,
  "\u2581*": 826,
  "\u2581case": 827,
  "\u2581\u0438\u0437\u0433\u043b\u0435\u0434\u0430": 828,
  "\u0440\u0438": 829,
  "\u2581Wait": 830,
  "\u2581D": 831,
  "\u2581second": 832,
  "\u2581isn": 833,
  "\u2581\u0434\u0430\u0434\u0435": 834,
  "\u2581Christ": 835,
  "\u2581ready": 836,
  "\u2581\u043a\u0430\u0436\u0435\u0448": 837,
  "\u2581meet": 838,
  "\u2581young": 839,
  "\u2581war": 840,
  "\u2581later": 841,
  "\u2581Hello": 842,
  "\u2581news": 843,
  "\u2581\u043d\u0430\u0458": 844,
  "\u2581until": 845,
  "\u2581\u043c\u0438\u043b\u0438\u043e\u043d\u0438": 846,
  "E": 847,
  "\u2581On": 848,
  "\u2581\u043d\u0435\u0433\u043e\u0432\u0438\u0442\u0435": 849,
  "\u25814": 850,
  "\u2581woman": 851,
  "\u2581friends": 852,
  "\u2581\u043f\u043e\u043c\u043e\u0433\u043d\u0435": 853,
  "\u2581matter": 854,
  "\u2581\u043d\u0438\u0432\u043d\u0438\u0442\u0435": 855,
  "\u2581\u043e\u0434\u0438\u0448": 856,
  "\u2581yeah": 857,
  "\u0421": 858,
  "\u2581during": 859,
  "\u2581Take": 860,
  "\u2581far": 861,
  "f": 862,
  "\u2581John": 863,
  "\u2581gave": 864,
  "\u2581countries": 865,
  "\u2581Hi": 866,
  "\u25818": 867,
  "\u2581power": 868,
  "\u2581\u0431\u0440\u0430\u0442": 869,
  "\u2581police": 870,
  "\u2581room": 871,
  "\u2581\u0432\u0435\u0434\u043d\u0430\u0448": 872,
  "\u2581\u0421\u043f\u043e\u0440\u0435\u0434": 873,
  "\u2581\u0434\u043e\u0432\u043e\u043b\u043d\u043e": 874,
  "\u2581\u0421\u0430\u043a\u0430\u0448": 875,
  "\u2581human": 876,
  "\u2581OK": 877,
  "\u2581\u043f\u043e\u0442\u043e\u0430": 878,
  "\u2581\u0415\u0434\u0435\u043d": 879,
  "\u258118": 880,
  "\u2581\u043d\u0450": 881,
  "\u2581New": 882,
  "\u2581wasn": 883,
  "\u2581\u0431\u0440\u043e\u0458": 884,
  "\u0430\u043c": 885,
  "\u2581\u043d\u0430\u043f\u0440\u0430\u0432\u0430\u043c": 886,
  "\"?": 887,
  "\u2581\u0437\u0435\u043c\u0458\u0438": 888,
  "\u2581deal": 889,
  "\u2581lost": 890,
  "\u2581\u041e\u0445": 891,
  "\u2581school": 892,
  "\u2581\u0441\u0438\u043d": 893,
  "\u2581\u041d\u0438\u043a\u043e\u0433\u0430\u0448": 894,
  "\u2581word": 895,
  "\u2581\u0459\u0443\u0431\u043e\u0432": 896,
  "\u2581\u0434\u0432\u0430": 897,
  "\u2581open": 898,
  "\u2581die": 899,
  "\u2581With": 900,
  "\u2581&": 901,
  "\u2581change": 902,
  "\u2581Thanks": 903,
  "\u043e\u0435": 904,
  "\u2581Of": 905,
  "\u2581\u0432\u0440\u0430\u0442\u0438": 906,
  "\u2581baby": 907,
  "\u2581truth": 908,
  "\u2581\u0433\u043b\u0435\u0434\u0430\u043c": 909,
  "\u2581wants": 910,
  "\u2581earth": 911,
  "\u2581\u043e\u0442\u0441\u0442\u043e": 912,
  "\u2581nice": 913,
  "\u2581business": 914,
  "\u0447\u0435": 915,
  "\u2581water": 916,
  "\u2581\u0433\u043e\u043b\u0435\u043c": 917,
  "\u2581\u0442\u0440\u0435\u0431\u0430\u043b\u043e": 918,
  "\u2581working": 919,
  "\u2581\u0411\u043b\u0430\u0433\u043e\u0434\u0430\u0440\u0430\u043c": 920,
  "\u2581,\"": 921,
  "\u2581\u0432\u0438\u0434\u0430\u043c": 922,
  "\u2581\u0412\u0438\u0434\u0438": 923,
  "\u2581\u0411\u0438\u0434\u0435\u0458\u045c\u0438": 924,
  "\u2581different": 925,
  "\u2581Some": 926,
  "\u2581uh": 927,
  "\u0441\u0442": 928,
  "\u2581\u043d\u0430\u0434\u0432\u043e\u0440": 929,
  "\u043d\u0438\u043e\u0442": 930,
  "\u2581\u0433\u043e\u043b\u0435\u043c\u0430": 931,
  "\u2581\u0441\u0430\u043a\u0430\u043b": 932,
  "\u2581\u0434\u0435\u0442\u0435": 933,
  "\u043f\u043e": 934,
  "\u2581\u043e\u0442\u043a\u0430\u043a\u043e": 935,
  "\u2581\u0441\u0430\u043a\u0430\u0430\u0442": 936,
  "\u2581example": 937,
  "\u25816": 938,
  "\u2581soon": 939,
  "\u2581run": 940,
  "\u2581book": 941,
  "\u2581\u0432": 942,
  "\u2581making": 943,
  "\u2581\u043d\u0438\u043a\u043e\u0458": 944,
  "u": 945,
  "\u2581\u0415\u0432\u0435": 946,
  "\u0441\u043a\u0430\u0442\u0430": 947,
  "\u2581parents": 948,
  "\u043a\u0438": 949,
  "\u2581\u043d\u0435\u043a\u043e\u0458\u0430": 950,
  "\u2581\u0414\u043e": 951,
  "\u2581co": 952,
  "\u2581words": 953,
  "\u2581President": 954,
  "\u2581T": 955,
  "\u2581\u0432\u0438\u0434\u0438\u043c\u0435": 956,
  "\u2581point": 957,
  "\u2581state": 958,
  "\u0428\u0442\u043e": 959,
  "\u2581door": 960,
  "\u2581read": 961,
  "\u2581Have": 962,
  "\u2581week": 963,
  "\u2581though": 964,
  "\u0447": 965,
  "\u2581\u043d\u0430\u0434": 966,
  "\u2581close": 967,
  "\u2581\u0418\u0441\u0442\u043e": 968,
  "\u2581\u0440\u0435\u043a\u043e\u0432": 969,
  "\u2581city": 970,
  "\u2581Christian": 971,
  "\u2581\u0433\u0440\u0430\u0434": 972,
  "\u2581high": 973,
  "\u0441\u0435": 974,
  "\u2581asked": 975,
  "\u2581\u0442\u0432\u043e\u0438\u0442\u0435": 976,
  "\u0418": 977,
  "or": 978,
  "\u2581able": 979,
  "\u2581Turkey": 980,
  "\u2581turn": 981,
  "\u2581full": 982,
  "\u2581\u041a\u0430\u0436\u0438": 983,
  "\u2581four": 984,
  "\u2581alone": 985,
  "\u2581morning": 986,
  "\u2581ain": 987,
  "\u2581See": 988,
  "\u2581His": 989,
  "\u2581After": 990,
  "\u2581five": 991,
  "\u2581play": 992,
  "an": 993,
  "\u2581\u0432\u0440\u0435\u043c\u0435\u0442\u043e": 994,
  "\u2581\u0441\u043f\u043e\u0440\u0435\u0434": 995,
  "\u2581\u043d\u0438\u0442\u0443": 996,
  "\u2581\u0418\u0437\u0432\u0438\u043d\u0438": 997,
  "\u2581once": 998,
  "\u2581having": 999,
  "man": 1000,
  "\u2581Or": 1001,
  "\u2581actually": 1002,
  "\u2581\u041e\u0434\u0438": 1003,
  "\u2581taking": 1004,
  "\u2581\u043f\u043e\u043a\u0440\u0430\u0458": 1005,
  "\u2581\u0412\u0438\u0435": 1006,
  "\u2581\u0434\u043e\u0431\u0440\u0430": 1007,
  "\u2581maybe": 1008,
  "\u2581\u0441\u0432\u043e\u0435\u0442\u043e": 1009,
  "\u2581\u0441\u043b\u0443\u0447\u0430\u0458": 1010,
  "\u2581i": 1011,
  "\u2581happy": 1012,
  "\u2581wouldn": 1013,
  "\u0437": 1014,
  "\u2581anyone": 1015,
  "\u2581minutes": 1016,
  "\u2581party": 1017,
  "\u258116": 1018,
  "k": 1019,
  "\u2581K": 1020,
  "\u2581\u0431\u043b\u0430\u0433\u043e\u0434\u0430\u0440\u0430\u043c": 1021,
  "\u2581future": 1022,
  "\u2581myself": 1023,
  "\u2581Uh": 1024,
  "\u2581\u043c\u043e\u0435\u0442\u043e": 1025,
  "\u2581\u0441\u0435\u043c\u0435\u0458\u0441\u0442\u0432\u043e": 1026,
  "\u2581Be": 1027,
  "\u2581\u043f\u0440\u043e": 1028,
  "\u2581\u043c\u0438\u043d\u0443\u0442\u0438": 1029,
  "\u2581\u0432\u0430\u0436\u043d\u043e": 1030,
  "\u2581Like": 1031,
  "C": 1032,
  "\u2581political": 1033,
  "c": 1034,
  "\u2581gone": 1035,
  "\u258111": 1036,
  "\u2581Sorry": 1037,
  "\u2581\u043f\u0440\u043e\u0431\u043b\u0435\u043c\u0438": 1038,
  "\u2581free": 1039,
  "\u2581ones": 1040,
  "\u2581\u0438\u043c\u0430\u0448\u0435": 1041,
  "\u2581thinking": 1042,
  "on": 1043,
  "\u2581system": 1044,
  "\u2581\u043f\u0440\u0438\u0458\u0430\u0442\u0435\u043b": 1045,
  "\u2581Stop": 1046,
  "\u2581\u0440\u0430\u0437\u0431\u0438\u0440\u0430": 1047,
  "\u0441\u0438": 1048,
  "\u2581Tell": 1049,
  "\u2581\u0441\u0432\u0435\u0434\u043e\u0446\u0438": 1050,
  "\u2581Jack": 1051,
  "\u2581\u0434\u0440\u0443\u0433\u043e": 1052,
  "\u2581himself": 1053,
  "\u2581support": 1054,
  "\u2581eyes": 1055,
  "?\"": 1056,
  "\u043c\u0430": 1057,
  "\u043f": 1058,
  "\u2581spirit": 1059,
  "\u2581Give": 1060,
  "\u2581fact": 1061,
  "\u2581fight": 1062,
  "\u0432\u0435": 1063,
  "\u2581\u0433\u043e\u0441\u043f\u043e\u0434\u0438\u043d\u0435": 1064,
  "\u2581\u041f\u0430\u0432\u043b\u0435": 1065,
  "\u2581order": 1066,
  "\u2581\u0427\u0435\u043a\u0430\u0458": 1067,
  "iH": 1068,
  "\u2581\u043d\u043e\u045c": 1069,
  "\u2581phone": 1070,
  "\u2581happen": 1071,
  "\u258119": 1072,
  "\u2581faith": 1073,
  "\u2581These": 1074,
  "\u2581question": 1075,
  "\u2581blood": 1076,
  "\u0447\u0438": 1077,
  "\u2581\u041c\u0443": 1078,
  "\u2581guess": 1079,
  "\u2581law": 1080,
  "\u2581months": 1081,
  "\u2581\u043f\u0440\u0430\u0432\u0438\u043c\u0435": 1082,
  "\u2581met": 1083,
  "\u2581hold": 1084,
  "\u2581\u0418\u0437\u0433\u043b\u0435\u0434\u0430": 1085,
  "\u2581\u0432\u0438\u0434\u0438": 1086,
  "\u2581reason": 1087,
  "\u0441\u043a\u0438\u043e\u0442": 1088,
  "\u2581\u043c\u043e\u0436\u0435\u043b": 1089,
  "D": 1090,
  "\u2581late": 1091,
  "\u2581\u0434\u0435\u043d\u0430": 1092,
  "\u2581\u045d": 1093,
  "\u2581listen": 1094,
  "\u2581needs": 1095,
  "\u0434\u0438": 1096,
  "\u2581women": 1097,
  "\u2581\u0411\u0435\u0448\u0435": 1098,
  "\u2581\u0434\u0435\u0446\u0430\u0442\u0430": 1099,
  "\u2581\u043f\u0440\u0438\u0458\u0430\u0442\u0435\u043b\u0438": 1100,
  "\u043e\u0432": 1101,
  "\u2581\u0441\u0430\u043a\u0430\u0442\u0435": 1102,
  "\u2581Our": 1103,
  "\u2581\u0434\u043e\u043f\u0430\u0453\u0430": 1104,
  "\u2581makes": 1105,
  "\u2581possible": 1106,
  "\u2581\u043f\u043e\u0441\u0442\u043e\u0438": 1107,
  "ers": 1108,
  "\u2581\u041f\u0440\u0435\u0434": 1109,
  "\u25817": 1110,
  "\u2581meeting": 1111,
  "\u2581public": 1112,
  "\u2581living": 1113,
  "\u258114": 1114,
  "\u0433": 1115,
  "B": 1116,
  "\u2581Kingdom": 1117,
  "\u2581knows": 1118,
  "to": 1119,
  "\u2581\u041d\u0438\u0448\u0442\u043e": 1120,
  "\u2581\u0423\u0448\u0442\u0435": 1121,
  "ation": 1122,
  "\u2581pretty": 1123,
  "\u2581\u043f\u043e\u043c\u0435\u0453\u0443": 1124,
  "\u2581\u0421\u0435\u043a\u0430\u043a\u043e": 1125,
  "\u2581\u0422\u0443\u043a\u0430": 1126,
  "\u2581hands": 1127,
  "\u2581Me": 1128,
  "\u2581Listen": 1129,
  "\u2581\u0414\u0430\u0458": 1130,
  "\u2581comes": 1131,
  "\u0444": 1132,
  "\u2581\u043a\u0440\u0430\u0458": 1133,
  "\u2581cannot": 1134,
  "\u0437\u0438": 1135,
  "\u2581\u0441\u0440\u0446\u0435": 1136,
  "\u2581\u043d\u0435\u0434\u0435\u043b\u0430": 1137,
  "\u2581plan": 1138,
  "\u2581\u0418\u043b\u0438": 1139,
  "\u2581\u043f\u0440\u0430\u0432\u0430\u043c": 1140,
  "\u2581E": 1141,
  "\u2581body": 1142,
  "\u2581pay": 1143,
  "\u2581\u043f\u0440\u0430\u0448\u0430\u045a\u0430": 1144,
  "\u2581\u0453\u0430\u0432\u043e\u043b\u0438\u0442\u0435": 1145,
  "\u2581Christians": 1146,
  "\u2581least": 1147,
  "\u2581\u0441\u0430\u043a\u0430\u0432": 1148,
  "\u2581\u043f\u0440\u0430\u0448\u0430\u045a\u0435": 1149,
  "\u0434\u043e": 1150,
  "\u2581\u0434\u043e\u0430\u0453\u0430": 1151,
  "\u2581\u043c\u043e\u0458": 1152,
  "\u2581\u040f\u0435\u043a": 1153,
  "\u2581P": 1154,
  "\u2581\u0442\u0435\u0448\u043a\u043e": 1155,
  "\u2581Dad": 1156,
  "\u2581among": 1157,
  "\u2581\u0436\u0430\u043b": 1158,
  "\u2581learn": 1159,
  "\u2581\u043f\u043e\u0434\u043e\u0446\u043d\u0430": 1160,
  "\u2581clear": 1161,
  "\u2581However": 1162,
  "\u2581\u0442\u0440\u0435\u0431\u0430\u0448\u0435": 1163,
  "\u2581bit": 1164,
  "\u2581\u0437\u0431\u043e\u0440": 1165,
  "\u2581line": 1166,
  "\u2581\u0422\u0443\u0440\u0446\u0438\u0458\u0430": 1167,
  "\u2581\u043b\u043e\u0448\u043e": 1168,
  "\u2581\u043f\u0440\u0435\u043c\u043d\u043e\u0433\u0443": 1169,
  "\u2581\u0440\u0430\u0431\u043e\u0442\u0430\u0442\u0430": 1170,
  "\u2581David": 1171,
  "\u2581\u0441\u0435\u043a\u043e\u0458\u0430": 1172,
  "\u2581trust": 1173,
  "\u2581\u0431\u0430\u0440\u0430": 1174,
  "\u2581child": 1175,
  "\u2581started": 1176,
  "\u2581\u041d\u0438": 1177,
  "\u2581\u0434\u043e\u043b\u0433\u043e": 1178,
  "\u2581\u041c\u043e\u0436\u0435\u0448": 1179,
  "\u2581\u0437\u0431\u043e\u0440\u0443\u0432\u0430": 1180,
  "\u2581Serbian": 1181,
  "\u2581M": 1182,
  "\u2581Macedonia": 1183,
  "\u2581\u041c\u0438\u0441\u043b\u0435\u0432": 1184,
  "\u2581s": 1185,
  "\u045a\u0430": 1186,
  "\u2581\u043c\u0435\u0441\u0435\u0446\u0438": 1187,
  "\u2581inside": 1188,
  "\u2581\u0423": 1189,
  "\u2581\u0437\u0431\u043e\u0440\u043e\u0432\u0438": 1190,
  "\u2581hours": 1191,
  "\u0435\u0440": 1192,
  "en": 1193,
  "\u2581\u043d\u0430\u043f\u0440\u0430\u0432\u0438\u0448": 1194,
  "\u2581rest": 1195,
  "\u2581kid": 1196,
  "\u2581past": 1197,
  "\u2581\u0434\u0435\u0432\u043e\u0458\u043a\u0430": 1198,
  "\u2581ass": 1199,
  "\u2581\u0441\u0438\u0433\u0443\u0440\u043d\u043e": 1200,
  "\u2581\u2022": 1201,
  "\u2581\u0435\u0432\u0440\u0430": 1202,
  "\u2581\u266a": 1203,
  "\u2581speak": 1204,
  "\u2581\u041e\u0441\u0432\u0435\u043d": 1205,
  "\u2581\u0437\u0431\u043e\u0440\u0443\u0432\u0430\u0448": 1206,
  "\u2581\u0416\u0430\u043b": 1207,
  "\u2581\u0430\u0458\u0434\u0435": 1208,
  "\u2581\u043f\u043e\u0441\u043b\u0435": 1209,
  "\u2581\u0414": 1210,
  "\u2581\u043f\u0440\u0430\u0432\u0430\u0442": 1211,
  "\u0441\u043a\u043e": 1212,
  "\u2581huh": 1213,
  "\u2581\u0437\u0430\u0432\u0440\u0448\u0438": 1214,
  "\u2581\u043a\u0430\u0436\u0435": 1215,
  "\u2581everyone": 1216,
  "\u2581behind": 1217,
  "\u2581side": 1218,
  "\u2581\u0437\u043d\u0430\u0435\u043c\u0435": 1219,
  "\u258125": 1220,
  "em": 1221,
  "\u2581\u0434\u043e\u0433\u043e\u0432\u043e\u0440": 1222,
  "\u2581worry": 1223,
  "\u2581An": 1224,
  "\u2581\u0446\u0435\u043b\u0438\u043e\u0442": 1225,
  "\u2581\u043f\u0440\u0435\u0442\u0441\u0435\u0434\u0430\u0442\u0435\u043b": 1226,
  "\u2581died": 1227,
  "\u2581tonight": 1228,
  "\u2581\u0434\u0430\u0432\u0430": 1229,
  "\u2581haven": 1230,
  "\u2581information": 1231,
  "P": 1232,
  "\u041e": 1233,
  "\u2581\u0418\u043c\u0430\u0448": 1234,
  "%": 1235,
  "\u2581brought": 1236,
  "\u2581\u043d\u0435\u043a\u043e\u0433\u0430\u0448": 1237,
  "\u2581food": 1238,
  "\u2581\u043f\u0435\u0442": 1239,
  "\u2581given": 1240,
  "\u2581#": 1241,
  "\u2581\u0433\u0440\u0438\u0436\u0438": 1242,
  "\u2581hurt": 1243,
  "\u2581report": 1244,
  "\u2581half": 1245,
  "\u0413": 1246,
  "us": 1247,
  "\u2581\u0408\u0435\u0445\u043e\u0432\u0438\u043d\u0438\u0442\u0435": 1248,
  "\u2581\u043f\u0440\u0438\u0447\u0438\u043d\u0430": 1249,
  "\u2581\u0412\u0441\u0443\u0448\u043d\u043e\u0441\u0442": 1250,
  "\u258113": 1251,
  "\u2581supposed": 1252,
  "\u258150": 1253,
  "\u2581\u043d\u0430\u0458\u0434\u0435": 1254,
  "\u2581hit": 1255,
  "\u2581\u043a\u043e\u0433\u043e": 1256,
  "\u2581G": 1257,
  "\u2581\u043d\u0435\u0433\u043e\u0432\u043e\u0442\u043e": 1258,
  "You": 1259,
  "\u2581control": 1260,
  "\u2581Really": 1261,
  "\u2581\u043a\u0443\u045c\u0430": 1262,
  "\u2581\u041d\u0438\u043a\u043e\u0458": 1263,
  "\u2581\u0431\u0440\u0437\u043e": 1264,
  "\u2581lives": 1265,
  "\u2581\u041c\u043e\u0440\u0430\u043c": 1266,
  "\u2581\u043e\u0442\u043a\u043e\u043b\u043a\u0443": 1267,
  "\u043e\u0432\u0438": 1268,
  "\u2581\u0434\u0435": 1269,
  "\u2581town": 1270,
  "\u2581\u0440\u0430\u0431\u043e\u0442\u0438\u0442\u0435": 1271,
  "\u2581\u0418\u0430\u043a\u043e": 1272,
  "\u2581\u0432\u0438\u0441\u0442\u0438\u043d\u0430\u0442\u0430": 1273,
  "\u2581\u0433\u0440\u0430\u0434\u043e\u0442": 1274,
  "\u0440\u0430": 1275,
  "\u2581easy": 1276,
  "\u2581UN": 1277,
  "\u2581couldn": 1278,
  "\u2581\u043d\u043e\u0432": 1279,
  "\u2581\u0442\u0435\u043a\u043e\u0442": 1280,
  "\u2581Belgrade": 1281,
  "\u2581chance": 1282,
  "\u2581\u041c\u0438\u0441\u043b\u0438\u0448": 1283,
  "\u2581\u043c\u043e\u043c\u0447\u0435": 1284,
  "\u258117": 1285,
  "\u2581team": 1286,
  "\u2581special": 1287,
  "\u0431\u0438": 1288,
  "\u0415": 1289,
  "it": 1290,
  "\u2581situation": 1291,
  "\u2581taken": 1292,
  "\u2581\u043e": 1293,
  "\u2581\u041f": 1294,
  "\u2581\u043c\u0438\u0441\u043b\u0435\u0432": 1295,
  "\u2581Southeast": 1296,
  "T": 1297,
  "\u2581\u0417\u0435\u043c\u0458\u0430\u0442\u0430": 1298,
  "\u2581study": 1299,
  "\u2581un": 1300,
  "\u2581\u0431\u0430\u0448": 1301,
  "\u2581story": 1302,
  "\u2581\u0418\u0437\u0432\u0438\u043d\u0435\u0442\u0435": 1303,
  "\u2581\u043d\u0430\u0437\u0430\u0434": 1304,
  "\u2581\u0442\u0432\u043e\u0435\u0442\u043e": 1305,
  "\u2581husband": 1306,
  "\u2581\u0433\u043b\u0435\u0434\u0430": 1307,
  "\u2581Picture": 1308,
  "\u2581\u0433\u043b\u0435\u0434\u0430\u0448": 1309,
  "\u2581\u0411\u043e\u0436\u0458\u0430\u0442\u0430": 1310,
  "ast": 1311,
  "\u00e9": 1312,
  "\u2581Will": 1313,
  "\u2581\u0434\u043e\u043b\u0430\u0440\u0438": 1314,
  "\u2581security": 1315,
  "\u2581office": 1316,
  "\u25819": 1317,
  "\u2581local": 1318,
  "\u2581international": 1319,
  "\u2581along": 1320,
  "\u2581beautiful": 1321,
  "\u2581\u0443\u0431\u0430\u0432\u043e": 1322,
  "\u2581yes": 1323,
  "We": 1324,
  "\u2581\u043d\u0430\u043f\u0440\u0430\u0432\u0438\u043c\u0435": 1325,
  "\u2581From": 1326,
  "\u2581\u0432\u0430\u0448\u0438\u043e\u0442": 1327,
  "\u2581\u0432\u0438\u0434\u043e\u0432": 1328,
  "\u0445": 1329,
  "\u2581F": 1330,
  "\u2581\u041c\u0430\u043a\u0435\u0434\u043e\u043d\u0438\u0458\u0430": 1331,
  "\u2581stuff": 1332,
  "\u2581\u0434\u0440\u0443\u0433\u0430": 1333,
  "\u2581six": 1334,
  "\u2581fire": 1335,
  "\u2581per": 1336,
  "\u2581Prime": 1337,
  "\u2581minute": 1338,
  "\u2581watch": 1339,
  "\u2581spiritual": 1340,
  "\u258124": 1341,
  "\u2581\u041d\u0435\u043a\u043e\u0438": 1342,
  "\u2581group": 1343,
  "\u2581\u041a": 1344,
  "\u2581safe": 1345,
  "\u2581\u0441\u043b\u0438\u043a\u0430": 1346,
  "\u2581\u0441\u043b\u0443\u0447\u0438\u043b\u043e": 1347,
  "\u2581known": 1348,
  "\u2581tomorrow": 1349,
  "\u2581\u043c\u043e\u043c\u0435\u043d\u0442": 1350,
  "\u2581light": 1351,
  "\u2581Even": 1352,
  "\u2581answer": 1353,
  "\u2581small": 1354,
  "\u2581\u0438\u0437": 1355,
  "\u2581\u041e\u0432\u043e\u0458": 1356,
  "\u2581\u0422\u0430\u0442\u043a\u043e": 1357,
  "\u2581Father": 1358,
  "\u2581\u0432\u043d\u0430\u0442\u0440\u0435": 1359,
  "\u2581\u0421\u0438\u0433\u0443\u0440\u043d\u043e": 1360,
  "\u2581dad": 1361,
  "\u2581\u043d\u0430\u043f\u0440\u0430\u0432\u0438\u043b": 1362,
  "\u258140": 1363,
  "\u043a\u0430\u0442\u0430": 1364,
  "\u2581de": 1365,
  "\u2581\u0411\u0435\u0437": 1366,
  "\u2581\u0432\u043e\u0434\u0430": 1367,
  "\u2581alive": 1368,
  "\u2581\u0415\u0432\u0440\u043e\u043f\u0430": 1369,
  "\u2581including": 1370,
  "\u2581thank": 1371,
  "\u2581\u0441\u0430\u043c": 1372,
  "\u2581kids": 1373,
  "\u2581\u043f\u0430\u0442\u043e\u0442": 1374,
  "\u2581\u043c\u043e\u0440\u0430\u043c": 1375,
  "z": 1376,
  "\u2581Croatia": 1377,
  "\u2581tried": 1378,
  "\u2581\u043d\u0430\u0458\u0434\u0435\u043c\u0435": 1379,
  "\u2581walk": 1380,
  "\u2581crazy": 1381,
  "\u2581questions": 1382,
  "\u2581shot": 1383,
  "\u2581sent": 1384,
  "\u2581often": 1385,
  "\u2581however": 1386,
  "able": 1387,
  "\u0431\u0430": 1388,
  "\u2581\u0433\u043e\u0434": 1389,
  "\u2581\u0421\u043b\u0443\u0448\u0430\u0458": 1390,
  "\u2581almost": 1391,
  "\u2581game": 1392,
  "\u2581\u0432\u0435\u0440\u0443\u0432\u0430\u043c": 1393,
  "\u0423": 1394,
  "\u2581\u041c\u043e\u0436\u0430\u043c": 1395,
  "\u0438\u043e\u0442": 1396,
  "\u2581King": 1397,
  "\u0412": 1398,
  "\u2581\u041d\u0435\u043c\u043e\u0458": 1399,
  "\u2581\u043f\u0440\u0432\u0438\u043e\u0442": 1400,
  "\u2581re": 1401,
  "\u2581wrote": 1402,
  "\u2581probably": 1403,
  "le": 1404,
  "\u0434\u0438\u043d\u0435": 1405,
  "\u0434\u0438\u043d": 1406,
  "\u2581\u043f\u043e\u043c\u043e\u0433\u043d\u0430\u043c": 1407,
  "\u2581\u043e\u043d\u043e\u0458": 1408,
  "\u2581\u0438\u0437\u0458\u0430\u0432\u0438": 1409,
  "\u2581\u043b\u0435\u0441\u043d\u043e": 1410,
  "\u2581\u043f\u043e\u043a\u0430\u0436\u0443\u0432\u0430": 1411,
  "\u2581daughter": 1412,
  "\u2581\u0411\u0438\u0425": 1413,
  "\u2581\u0432\u0440\u0430\u0442\u0430\u043c": 1414,
  "\u2581needed": 1415,
  "\u2581\u0414\u0443\u0440\u0438": 1416,
  "\u2581\u0425\u0440\u0432\u0430\u0442\u0441\u043a\u0430": 1417,
  "\u2581problems": 1418,
  "\u2581\u0414\u043e\u0458\u0434\u0438": 1419,
  "\u2581eat": 1420,
  "\u258122": 1421,
  "\u2581ahead": 1422,
  "\u2581\u043f\u043e\u0440\u0430\u043d\u043e": 1423,
  "\u2581\u0425\u0440\u0438\u0441\u0442\u043e\u0441": 1424,
  "\u2581Dr": 1425,
  "\u2581couple": 1426,
  "\u2581Greek": 1427,
  "\u2581peace": 1428,
  "\u2581May": 1429,
  "\u041f": 1430,
  "\u2581\u0438\u0433\u0440\u0430": 1431,
  "\u2581\u043d\u0430\u0440\u043e\u0434": 1432,
  "\u2581\u0441\u0435\u0443\u0448\u0442\u0435": 1433,
  "\u2581stand": 1434,
  "\u2581cut": 1435,
  "\u2581\u043f\u0430\u0442\u0438": 1436,
  "\u2581congregation": 1437,
  "\u2581Images": 1438,
  "\u0441\u0442\u0430": 1439,
  "\u2581\u0434\u0443\u0445": 1440,
  "\u2581\u0434\u043e\u0431\u0440\u0438": 1441,
  "\u0412\u043e": 1442,
  "\u2581\u0434\u0432\u0430\u0458\u0446\u0430": 1443,
  "\u0447\u043a\u0430": 1444,
  "\u2581euros": 1445,
  "\u2581company": 1446,
  "\u2581\u0437\u043d\u0430\u0435\u0442\u0435": 1447,
  "\u2581Nothing": 1448,
  "\u2581\u0442\u043e\u0447\u043d\u043e": 1449,
  "\u0447\u043a\u0438": 1450,
  "\u2581\u043c\u043e\u043c\u0446\u0438": 1451,
  "\u2581\u0445\u0440\u0430\u043d\u0430": 1452,
  "\u2581month": 1453,
  "\u2581sleep": 1454,
  "\u2581Peter": 1455,
  "\u0446\u0438\u0442\u0435": 1456,
  "\u2581\u043f\u0430\u0440\u0438\u0442\u0435": 1457,
  "\u0435\u0442\u0435": 1458,
  "\u2581\u0431\u0438\u0431\u043b\u0438\u0441\u043a\u0438": 1459,
  "\u2581\u0441\u0440\u0435\u045c\u0430": 1460,
  "\u2581check": 1461,
  "\u2581\u040f\u043e\u043d": 1462,
  "\u2581\u0441\u043c\u0440\u0442": 1463,
  "\u2581front": 1464,
  "\u2581members": 1465,
  "\u2581Excuse": 1466,
  "\u2581\u0418\u043c\u0430\u043c\u0435": 1467,
  "\u2581\u0435\u0434\u043d\u0430\u0448": 1468,
  "\u0434\u0435": 1469,
  "\u2581exactly": 1470,
  "\u03bf": 1471,
  "\u2581\u0441\u0438\u043b\u0430": 1472,
  "\u2581\u043d\u0438\u0432\u043d\u0430\u0442\u0430": 1473,
  "\u2581\u0432\u0430\u0448\u0430\u0442\u0430": 1474,
  "\u2581\u0411": 1475,
  "\u2581\u0437\u0431\u043e\u0440\u0443\u0432\u0430\u043c": 1476,
  "\u2581\u0433\u043b\u0435\u0434\u0430\u043c\u0435": 1477,
  "\u2581million": 1478,
  "ar": 1479,
  "\u2581outside": 1480,
  "\u2581\u043c\u0438\u0441\u043b\u0438": 1481,
  "\u2581100": 1482,
  "\u2581\u0432\u043e\u0434\u0438": 1483,
  "\u2581\u0411\u0435\u043b\u0433\u0440\u0430\u0434": 1484,
  "2": 1485,
  "\u2581message": 1486,
  "\u2581Europe": 1487,
  "\u2581\u0443\u043c\u0440\u0435": 1488,
  "\u2581\u043e\u0447\u0435\u043a\u0443\u0432\u0430": 1489,
  "\u2581\u041e\u0432\u0434\u0435": 1490,
  "1": 1491,
  "\u2581\u043c\u0435\u0441\u0442\u0430": 1492,
  "\u2581mine": 1493,
  "\u2581\u043c\u043e\u0458\u0430": 1494,
  "\u2581looks": 1495,
  "\u0446\u0435": 1496,
  "\u2581former": 1497,
  "\u2581\u043c\u043e\u0436\u0435\u043b\u0435": 1498,
  "\u2581became": 1499,
  "\u2581Mom": 1500,
  "\u2581early": 1501,
  "\u2581\u041c\u0435\u0453\u0443\u0442\u043e\u0430": 1502,
  "\u2581\u0432\u0438\u0441\u0442\u0438\u043d\u0441\u043a\u0438": 1503,
  "\u2581\u043c\u043e\u0436\u0435\u0442\u0435": 1504,
  "\u2581Would": 1505,
  "\u2581\u0437\u0430\u0448\u0442\u043e": 1506,
  "\u2581\u0443\u0442\u0440\u0435": 1507,
  "\u2581Turkish": 1508,
  "\u2581\u0441\u0438\u0441\u0442\u0435\u043c": 1509,
  "\u2581break": 1510,
  "\u2581gun": 1511,
  "\u2581According": 1512,
  "5": 1513,
  "\u2581\u041d\u0410": 1514,
  "\u2581kg": 1515,
  "\u2581\u043c\u0440\u0442\u043e\u0432": 1516,
  "\u2581wish": 1517,
  "\u2581following": 1518,
  "L": 1519,
  "\u0433\u0430": 1520,
  "\u2581\u043d\u043e\u0432\u0438": 1521,
  "\u2581\u043f\u0440\u0435\u0442\u0441\u0442\u0430\u0432\u0443\u0432\u0430": 1522,
  "\u2581goes": 1523,
  "\u2581Keep": 1524,
  "\u2581sense": 1525,
  "\u2581serious": 1526,
  "\u2581\u0441\u0430\u043a\u0430\u043c\u0435": 1527,
  "\u2581upon": 1528,
  "\u2581\u043d\u0430\u0434\u0435\u0432\u0430\u043c": 1529,
  "\u2581economic": 1530,
  "\u2581gets": 1531,
  "\u2581waiting": 1532,
  "\u2581\u041c\u0430": 1533,
  "\u2581\u0432\u0438\u043a\u0430": 1534,
  "\u2581Two": 1535,
  "\u2581\u0432\u0438\u0434\u0435\u043b": 1536,
  "\u2581\u043a\u043e\u0440\u0438\u0441\u0442\u0438": 1537,
  "\u2581service": 1538,
  "\u2581\u0417\u0430\u0440\u0435\u043c": 1539,
  "\u2581\u0438\u043c\u0430\u043b": 1540,
  "\u2581\u0432\u0435\u0447\u0435\u0440": 1541,
  "\u0421\u0435": 1542,
  "\u2581\u043d\u0430\u0458\u0434\u0430\u043c": 1543,
  "\u2581World": 1544,
  "\u2581save": 1545,
  "\u2581moment": 1546,
  "\u2581\u0434\u0430\u043b": 1547,
  "\u2581\u0438\u043c\u0430\u0442\u0435": 1548,
  "\u2581\u043a\u0440\u0432": 1549,
  "\u2581key": 1550,
  "\u041a": 1551,
  "\u2581\u0442\u0430\u0442\u043e": 1552,
  "\u2581\u0436\u0438\u0432\u0435\u0435": 1553,
  "\u2581process": 1554,
  "up": 1555,
  "\u2581began": 1556,
  "\u2581\u043d\u0435\u043a\u0430": 1557,
  "\u2581\u041a\u043e": 1558,
  "\u2581\u0441\u0430\u043a\u0430\u0448\u0435": 1559,
  "\u2581Man": 1560,
  "\u2581\u0421\u043b\u0438\u043a\u0430": 1561,
  "\u2581Hold": 1562,
  "\u2581\u0411\u043e\u0436\u0458\u0438": 1563,
  "\u2581\u0432\u043b\u0430\u0434\u0430": 1564,
  "\u2581\u041e\u0434\u0438\u043c\u0435": 1565,
  "\u2581visit": 1566,
  "What": 1567,
  "\u0411": 1568,
  "\u2581decision": 1569,
  "\u2581\u0441\u043b\u0443\u0436\u0431\u0430": 1570,
  "\u2581continue": 1571,
  "\u2581\u0433\u0440\u0443\u043f\u0430": 1572,
  "\u2581Mary": 1573,
  "\u2581married": 1574,
  "\u2581\u0440\u0435": 1575,
  "\u2581anymore": 1576,
  "\u25811,": 1577,
  "\u2581\u0432\u0435\u043b\u0430\u0442": 1578,
  "\u2581afraid": 1579,
  "\u2581\u043c\u043e\u0436\u043d\u043e": 1580,
  "\u2581US": 1581,
  "\u2581\u0432\u043b\u0430\u0434\u0430\u0442\u0430": 1582,
  "\u2581Southe": 1583,
  "\u2581\u041f\u043e\u0442\u043e\u0430": 1584,
  "\u2581felt": 1585,
  "\u2581brothers": 1586,
  "3": 1587,
  "\u2581\u043f\u0438\u0448\u0443\u0432\u0430": 1588,
  "\u2581telling": 1589,
  "\u2581Lord": 1590,
  "\u2581drink": 1591,
  "\u2581personal": 1592,
  "\u2581\u041d\u0435\u043a\u043e\u0458": 1593,
  "\u2581sister": 1594,
  "\u2581\u0437\u043d\u0430\u0430\u0442": 1595,
  "\u2581\u043d\u0435\u043a\u043e\u0435": 1596,
  "\u2581lead": 1597,
  "\u2581\u043c\u0430\u0436": 1598,
  "\u043f\u0430": 1599,
  "\u2581\u0447\u0430\u0441\u0430": 1600,
  "\u2581promise": 1601,
  "\u2581\u0434\u0432\u0435\u0442\u0435": 1602,
  "\u258121": 1603,
  "\u2581near": 1604,
  "\u2581\u043f\u043e\u043c\u0430\u0433\u0430": 1605,
  "\u2581\u0443": 1606,
  "M": 1607,
  "\u2581less": 1608,
  "\u2581\u0447\u0435\u0442\u0438\u0440\u0438": 1609,
  "\u2581bitch": 1610,
  "\u2581\u0440\u043e\u0434\u0438\u0442\u0435\u043b\u0438": 1611,
  "\u2581Does": 1612,
  "\u2581within": 1613,
  "\u2581\u043f\u0440\u0432": 1614,
  "\u2581United": 1615,
  "\u2581talks": 1616,
  "\u2581\u0412\u0435\u045c\u0435": 1617,
  "\u2581\u0432\u0441\u0443\u0448\u043d\u043e\u0441\u0442": 1618,
  "\u2581\u0441\u0435\u0442\u043e": 1619,
  "\u2581Fuck": 1620,
  "\u2581H": 1621,
  "\u043f\u0438": 1622,
  "\u2581\u043f\u0440\u043e\u043c\u0435\u043d\u0438": 1623,
  "\u2581\u0442\u0438\u043f": 1624,
  "\u2581\u0458\u0430\u0441\u043d\u043e": 1625,
  "\u2581strong": 1626,
  "\u043d\u0438\u043a": 1627,
  "\u0458\u0442\u0435": 1628,
  "\u2581\u0458\u0430\u0437\u0438\u043a": 1629,
  "\u2581W": 1630,
  "\u2581top": 1631,
  "\u2581\u041f\u0440\u0435": 1632,
  "\u2581\u0434\u0432\u0430\u0458\u0446\u0430\u0442\u0430": 1633,
  "\u2581\u0433\u043b\u0430\u0432\u0430\u0442\u0430": 1634,
  "\u2581fun": 1635,
  "\u2581issue": 1636,
  "\u2581\u0432\u0435\u043a": 1637,
  "am": 1638,
  "\u2581follow": 1639,
  "\u2581\u0437\u0430\u0442\u0432\u043e\u0440": 1640,
  "\u2581\u0440\u0430\u0437\u043b\u0438\u0447\u043d\u0438": 1641,
  "is": 1642,
  "\u2581\u041e\u041d": 1643,
  "\u2581boys": 1644,
  "\u2581ministry": 1645,
  "\u2581\u043e\u0431\u0458\u0430\u0432\u0438": 1646,
  "\u043a\u0441": 1647,
  "\u2581view": 1648,
  "G": 1649,
  "\u2581\u0436\u0438\u0432\u0435\u0430\u0442": 1650,
  "\u2581\u0422\u0430\u0442\u043e": 1651,
  "\u2581themselves": 1652,
  "\u2581\u0441\u043e\u0431\u0430": 1653,
  "\u2581\u0438\u043c\u0435\u0442\u043e": 1654,
  "\u2581\u043c\u0435\u0441\u0435\u0446": 1655,
  "\u2581\u041e\u0432\u0430\u0430": 1656,
  "\u2581whatever": 1657,
  "\u2581People": 1658,
  "\u043e\u0442\u043e": 1659,
  "\u2581\u0447\u043e\u0432\u0435\u043a\u043e\u0442": 1660,
  "\u0433\u043e": 1661,
  "\u0446": 1662,
  "\u2581\u043f\u043e\u0447\u0435\u0442\u043e\u043a\u043e\u0442": 1663,
  "\u2581N": 1664,
  "\u25812.": 1665,
  "\u2581\u043c\u043e\u0436\u0435\u0432": 1666,
  "\u040c\u0435": 1667,
  "\u2581longer": 1668,
  "\u2581\u0421\u0410\u0414": 1669,
  "\u25813:": 1670,
  "\u2581Word": 1671,
  "\u2581building": 1672,
  "\u2581\u0436\u0435\u043d\u0438": 1673,
  "\u2581\u0441\u0435\u0441\u0442\u0440\u0430": 1674,
  "g": 1675,
  "\u2581Great": 1676,
  "\u2581\u0412": 1677,
  "\u2581\u043d\u043e\u0432\u0430": 1678,
  "\u2581\u0440\u0430\u0437": 1679,
  "\u2581return": 1680,
  "\u2581Those": 1681,
  "ur": 1682,
  "\u0441\u043a\u0438\u0442\u0435": 1683,
  "\u2581\u0432\u043e\u0458\u043d\u0430": 1684,
  "4": 1685,
  "\u2581president": 1686,
  "\u043c\u0430\u043d": 1687,
  "\u0414": 1688,
  "\u2581\u0437\u0435\u043c\u0430\u043c": 1689,
  "\u2581land": 1690,
  "\u2581works": 1691,
  "\u2581Put": 1692,
  "\u2581\u0414\u043e\u0434\u0435\u043a\u0430": 1693,
  "\u2581L": 1694,
  "\u2581\u0441\u043c\u0435\u0442\u0430": 1695,
  "\u2581Ah": 1696,
  "\u2581\u043d\u0430\u0448\u0435\u0442\u043e": 1697,
  "\u2581\u0441\u0435\u043f\u0430\u043a": 1698,
  "\u2581\u041d\u0410\u0422\u041e": 1699,
  "\u0443\u0432\u0430\u045a\u0435": 1700,
  "j": 1701,
  "\u2581\u041e\u0432\u0438\u0435": 1702,
  "\u2581NATO": 1703,
  "\u2581Sam": 1704,
  "\u2581Albania": 1705,
  "\u2581ten": 1706,
  "\u2581\u043a\u0430\u0436\u0438": 1707,
  "\u2581Bulgaria": 1708,
  "\u2581mom": 1709,
  "\u0441\u043e": 1710,
  "\u2581\u043b\u0438\u0446\u0430": 1711,
  "\u2581\u043e\u0447\u0438": 1712,
  "\u2581either": 1713,
  "\u2581held": 1714,
  "\u2581hour": 1715,
  "\u2581\u0432\u0438\u0434": 1716,
  "\u2581\u0434\u043e\u043d\u0435\u0441\u0435": 1717,
  "\u2581Greece": 1718,
  "\u2581\u0438\u043d\u0444\u043e\u0440\u043c\u0430\u0446\u0438\u0438": 1719,
  "\u2581\u043d\u0435\u0458\u0437\u0438\u043d\u0438\u043e\u0442": 1720,
  "\u2581\u0441\u043c\u0440\u0442\u0442\u0430": 1721,
  "\u2581\u043a\u0443\u045c\u0430\u0442\u0430": 1722,
  "\u2581\u0448\u0430\u043d\u0441\u0430": 1723,
  "\u2581\u041d\u0435\u0448\u0442\u043e": 1724,
  "\u2581somebody": 1725,
  "\u2581sit": 1726,
  "\u2581\u0446\u0435\u043b\u0430\u0442\u0430": 1727,
  "\u2581\u0432\u0440\u0430\u0442\u0430\u0442\u0430": 1728,
  "\u2581\u0432\u043e\u043e\u043f\u0448\u0442\u043e": 1729,
  "\u2581\u045c\u0435\u0440\u043a\u0430": 1730,
  "\u2581ways": 1731,
  "\u2581quite": 1732,
  "\u2581\u0438\u0437\u0431\u043e\u0440": 1733,
  "\u2581\u043e\u0441\u0432\u0435\u043d": 1734,
  "ia": 1735,
  "\u2581\u0435\u0434\u043d\u043e\u0441\u0442\u0430\u0432\u043d\u043e": 1736,
  "\u2581Sir": 1737,
  "\u2581buy": 1738,
  "\u2581running": 1739,
  "\u2581area": 1740,
  "\u2581\u0432\u0438\u0434\u0438\u0448": 1741,
  "\u0440\u0435": 1742,
  "\u043c\u043e": 1743,
  "\u2581forget": 1744,
  "\u2581\u043f\u043b\u0430\u043d": 1745,
  "\u2581\u0437\u043d\u0430\u0435\u0432": 1746,
  "O": 1747,
  "\u2581\u0432\u0435\u0447\u0435\u0440\u0432\u0430": 1748,
  "\u2581Ma": 1749,
  "\u2581military": 1750,
  "\u0422\u043e\u0430": 1751,
  "\u2581choice": 1752,
  "\u2581giving": 1753,
  "\u2581seems": 1754,
  "\u2581share": 1755,
  "\u2581\u043d\u0435\u0458\u0437\u0438\u043d\u0430\u0442\u0430": 1756,
  "\u2581\u0411\u0435\u0432": 1757,
  "\u2581\u0414\u0410": 1758,
  "no": 1759,
  "h": 1760,
  "\u2581\u0415\u0434\u043d\u0430": 1761,
  "\u2581\u0421\u0435\u043a\u043e\u0433\u0430\u0448": 1762,
  "\u2581\u0441\u0438\u0433\u0443\u0440\u0435\u043d": 1763,
  "H": 1764,
  "\u0435\u043d\u0438": 1765,
  "\u2581\u0437\u0430\u0434": 1766,
  "\u2581States": 1767,
  "\u2581lose": 1768,
  "\u2581king": 1769,
  "\u2581step": 1770,
  "\u2581Got": 1771,
  "ion": 1772,
  "\u2581air": 1773,
  "\u2581R": 1774,
  "\u2581\u0413\u043e\u0440\u0430": 1775,
  "\u2581dog": 1776,
  "\u2581\u0426\u0440\u043d\u0430": 1777,
  "\u2581\u0421\u0415": 1778,
  "\u2581\u0434\u0430\u0434\u0430\u043c": 1779,
  "\u2581\u0447\u0438\u043d\u0438": 1780,
  "el": 1781,
  "\u2581present": 1782,
  "\u2581\u0425\u0430": 1783,
  "\u2581\u0432\u0435\u0440\u0443\u0432\u0430": 1784,
  "\u2581\u043f\u043e\u0440\u0430\u043a\u0430": 1785,
  "\u2581certain": 1786,
  "\u2581\u043f\u0440\u0435\u0442\u0441\u0435\u0434\u0430\u0442\u0435\u043b\u043e\u0442": 1787,
  "\u2581\u043e\u0440\u0443\u0436\u0458\u0435": 1788,
  "\u2581\u0440\u0430\u043a\u0430": 1789,
  "\u2581Shit": 1790,
  "\u258123": 1791,
  "\u2581send": 1792,
  "\u2581\u0441\u0443\u043f\u0435\u0440": 1793,
  "\u2581\u043f\u0440\u0432\u043e": 1794,
  "\u2581U": 1795,
  "\u2581region": 1796,
  "\u2581\u0432\u0435\u0440\u0430": 1797,
  "\u2581according": 1798,
  "\u043d\u043e\u0442\u043e": 1799,
  "\u2581\u043a\u0430\u0436\u0430\u0432": 1800,
  "\u0414\u043e\u0431\u0440\u043e": 1801,
  "\u2581\u043b\u0438\u0447\u043d\u043e\u0441\u0442": 1802,
  "\u2581\u0441\u0435\u043c\u0435\u0458\u0441\u0442\u0432\u043e\u0442\u043e": 1803,
  "\u2581\u041c\u043e\u0458\u043e\u0442": 1804,
  "\u2581sign": 1805,
  "\u2581weeks": 1806,
  "\u2581hate": 1807,
  "w": 1808,
  "\u2581perfect": 1809,
  "\u2581everybody": 1810,
  "\u25812:": 1811,
  "\u2581\u043f\u043e\u043d\u0430\u0442\u0430\u043c\u0443": 1812,
  "\u2581Sure": 1813,
  "\u2581position": 1814,
  "\u2581history": 1815,
  "\u2581serve": 1816,
  "\u2581\u043e\u0441\u043e\u0431\u0435\u043d\u043e": 1817,
  "\u2581\u041b\u0438": 1818,
  "\u2581media": 1819,
  "\u2581\u0414\u0435": 1820,
  "\u2581\u043c\u0438\u0440": 1821,
  "\u2581using": 1822,
  "\u2581Help": 1823,
  "\u2581\u0441\u0442\u0430\u043d\u0443\u0432\u0430": 1824,
  "\u2581\u041c\u0435\u0440\u0438": 1825,
  "\u2581\u043a\u043e\u043b\u0430\u0442\u0430": 1826,
  "\u2581\u0442\u0435\u043b\u043e": 1827,
  "\u2581fear": 1828,
  "\u2581member": 1829,
  "\u2581large": 1830,
  "\u2581Monday": 1831,
  "\u2581\u043f\u0430\u0440\u0442\u0438\u0458\u0430": 1832,
  "\u0432\u0435\u0440": 1833,
  "\u2581\u0447\u0430\u0441": 1834,
  "It": 1835,
  "\u0433\u0438": 1836,
  "\u2581\u0441\u0442\u0430\u043d\u0435": 1837,
  "and": 1838,
  "\u2581respect": 1839,
  "\u0435\u043b": 1840,
  "\u0446\u0430": 1841,
  "\u2581\u0432\u0430\u0448\u0438\u0442\u0435": 1842,
  "\u2581rather": 1843,
  "\u2581further": 1844,
  "\u2581girls": 1845,
  "\u2581\u0443\u0431\u0438\u0435": 1846,
  "\u2581foreign": 1847,
  "\u2581trouble": 1848,
  "\u2581Romania": 1849,
  "\u0432\u0442\u0435": 1850,
  "\u2581Many": 1851,
  "\u2581\u0413\u0440\u0446\u0438\u0458\u0430": 1852,
  "\u2581First": 1853,
  "\u2581result": 1854,
  "\u2581\u0458\u0430\u0432\u0438": 1855,
  "\u2581\u0441\u0440\u0446\u0435\u0442\u043e": 1856,
  "\u2581\u043c\u043e\u0440\u0430\u0448": 1857,
  "\u2581\u0434\u043e\u0431\u0438\u0435": 1858,
  "\u2581\u0438\u0434\u0435\u0458\u0430": 1859,
  "\u2581\u0432\u0438\u0441\u0442\u0438\u043d\u0430": 1860,
  "\u2581\u0422\u0430\u043c\u0443": 1861,
  "\u043a\u0443": 1862,
  "\u2581damn": 1863,
  "\u2581\u0441\u043e\u0432\u0435\u0442": 1864,
  "\u2581age": 1865,
  "\u2581\u043a\u043d\u0438\u0433\u0430": 1866,
  "\u2581Israel": 1867,
  "\u2581\u043d\u0435\u043a\u043e\u0433\u043e": 1868,
  "\u2581\u0434\u043e\u043c": 1869,
  "\u2581\u0431\u0435": 1870,
  "\u2581\u0440\u0430\u0437\u043b\u0438\u043a\u0430": 1871,
  "\u25811:": 1872,
  "\u2581shall": 1873,
  "\u2581\u043f\u043e\u0442\u0440\u0435\u0431\u0430": 1874,
  "operation": 1875,
  "\u043d\u0438\u0446\u0438": 1876,
  "\u2581consider": 1877,
  "\u041c": 1878,
  "\u2581\u043e\u0434\u0430\u0442": 1879,
  "\u2581act": 1880,
  "\u2581difficult": 1881,
  "\u2581feeling": 1882,
  "\u2581\u043c\u0430\u043b": 1883,
  "\u2581expected": 1884,
  "\u2581pick": 1885,
  "\u2581\u041f\u0440\u043e": 1886,
  "\u2581experience": 1887,
  "\u2581seem": 1888,
  "\u2581\u043f\u0440\u043e\u0434\u043e\u043b\u0436\u0438": 1889,
  "\u2581\u0431\u0438\u0434\u0435\u0442\u0435": 1890,
  "ness": 1891,
  "\u2581asking": 1892,
  "\u2581\u0431\u0440\u0430\u045c\u0430": 1893,
  "\u0443\u0441": 1894,
  "\u0417\u0430": 1895,
  "\u258127": 1896,
  "\u2581\u0411\u0443\u0433\u0430\u0440\u0438\u0458\u0430": 1897,
  "p": 1898,
  "\u2581J": 1899,
  "\u0408\u0430\u0441": 1900,
  "\u2581\u043f\u043e\u0434\u0434\u0440\u0448\u043a\u0430": 1901,
  "\u2581protect": 1902,
  "ie": 1903,
  "\u2581\u043f\u043e\u043b\u0438\u0446\u0438\u0458\u0430\u0442\u0430": 1904,
  "\u2581\u0410\u043b\u0431\u0430\u043d\u0438\u0458\u0430": 1905,
  "\u2581\u043d\u0438\u0432\u043d\u0438\u043e\u0442": 1906,
  "\u2581\u0433\u043e\u043b\u0435\u043c\u0438": 1907,
  "\u2581\u043b\u0438\u0446\u0435": 1908,
  "\u2581\u043f\u043e\u043c\u0430\u043b\u043a\u0443": 1909,
  "\u2581sound": 1910,
  "\u2581\u041a\u0430\u043a\u0432\u0430": 1911,
  "\u2581agreement": 1912,
  "\u2581\u0448\u0435\u0441\u0442": 1913,
  "\u2581clean": 1914,
  "\u2581takes": 1915,
  "\u0438\u045c": 1916,
  "\u2581attention": 1917,
  "\u2581cool": 1918,
  "\u2581changed": 1919,
  "\u2581\u0420\u0435": 1920,
  "\u2581\u0432\u0438\u0434\u0435": 1921,
  "\u2581\u043d\u043e\u0441\u0438": 1922,
  "\u2581short": 1923,
  "\u2581\u0421\u0435\u043c": 1924,
  "\u2581Stay": 1925,
  "\u2581hot": 1926,
  "\u2581century": 1927,
  "\u2581\u041a\u043e\u0458\u0430": 1928,
  "\u2581Satan": 1929,
  "\u2581stupid": 1930,
  "\u2581Could": 1931,
  "\u2581Make": 1932,
  "\u2581\u041f\u0440\u0438": 1933,
  "\u2581Re": 1934,
  "\u2581\u043f\u043e\u0442\u0440\u0435\u0431\u043d\u043e": 1935,
  "\u2581whether": 1936,
  "\u2581\u0417\u0410": 1937,
  "\u0441\u043e\u043d": 1938,
  "6": 1939,
  "\u25814:": 1940,
  "\u2581states": 1941,
  "\u2581happens": 1942,
  "Y": 1943,
  "\u2581\u043c\u0430\u043b\u0430": 1944,
  "\u2581moving": 1945,
  "\u2581Nice": 1946,
  "\u2581bed": 1947,
  "\u2581\u043d\u0435\u043c\u0430\u043c": 1948,
  "\u2581\u043a\u0435": 1949,
  "\u2581black": 1950,
  "ity": 1951,
  "\u2581project": 1952,
  "\u2581\u041c\u043e\u0440\u0430\u043c\u0435": 1953,
  "\u2581\u0445\u0440\u0438\u0441\u0442\u0438\u0458\u0430\u043d\u0438": 1954,
  "na": 1955,
  "\u2581road": 1956,
  "\u2581\u0434\u0443\u0448\u043e": 1957,
  "\u2581leaving": 1958,
  "\u2581learned": 1959,
  "\u2581\u043f\u0440\u0435\u043c\u0438\u0435\u0440": 1960,
  "\u2581sick": 1961,
  "\u2581\u0441\u0443\u0434": 1962,
  "\u2581join": 1963,
  "\u0441\u0442\u0438": 1964,
  "\u2581\u0433\u043e\u0440\u0435": 1965,
  "\u0441\u043a\u043e\u0442\u043e": 1966,
  "\u0444\u0438": 1967,
  "\u2581Which": 1968,
  "\u2581several": 1969,
  "\u2581involved": 1970,
  "\u2581\u043e\u0441\u0442\u0430\u0432\u0438": 1971,
  "\u2581\u0432\u0430\u043a\u0430": 1972,
  "\u2581\u043f\u043e\u0441\u0442\u043e\u0458\u0430\u043d\u043e": 1973,
  "\u2581\u043a\u0430\u0436\u0443\u0432\u0430": 1974,
  "\u2581shoot": 1975,
  "\u043e\u0435\u0442\u043e": 1976,
  "\u2581\u0441\u043e\u0440\u0430\u0431\u043e\u0442\u043a\u0430": 1977,
  "\u2581evidence": 1978,
  "\u2581\u0414\u043e\u0431\u0440\u0430": 1979,
  "\u2581knowledge": 1980,
  "\u2581turned": 1981,
  "\u2581miss": 1982,
  "\u2581list": 1983,
  "\u2581single": 1984,
  "\u043d\u0438\u0446\u0430": 1985,
  "\u2581win": 1986,
  "\u0422": 1987,
  "\u2581\u0438\u043c\u0430\u0432": 1988,
  "\u2581\u0420\u043e\u043c\u0430\u043d\u0438\u0458\u0430": 1989,
  "\u2581\u043c\u0430": 1990,
  "\u2581\u0414\u0430\u0432\u0438\u0434": 1991,
  "\u2581\u0421\u0440\u0430\u045a\u0435": 1992,
  "\u2581\u0441\u0430\u043c\u0438\u043e\u0442": 1993,
  "\u2581\u043c\u0438\u043d\u0438\u0441\u0442\u0435\u0440": 1994,
  "\u2581\u041b\u0430": 1995,
  "\u2581helped": 1996,
  "\u2581marriage": 1997,
  "x": 1998,
  "\u2581\u041f\u043e\u0433\u043b\u0435\u0434\u043d\u0438": 1999,
  "\u2581fast": 2000,
  "\u2581decided": 2001,
  "\u2581\u041f\u043e\u0432\u0435\u045c\u0435": 2002,
  "\u2581Only": 2003,
  "\u2581\u041c\u0438\u043b\u043e": 2004,
  "\u2581worked": 2005,
  "\u2581\u043f\u0440\u0438\u043a\u0430\u0437\u043d\u0430": 2006,
  "\u2581\u043d\u0430\u0441\u043a\u043e\u0440\u043e": 2007,
  "\u2581\u0440\u0430\u0437\u0431\u0438\u0440\u0430\u043c": 2008,
  "\u2581feet": 2009,
  "\u2581\u041e\u0442\u043a\u0430\u043a\u043e": 2010,
  "!\"": 2011,
  "\u2581crime": 2012,
  "\u2581\u0440\u0430\u0446\u0435\u0442\u0435": 2013,
  "\u2581Everything": 2014,
  "\u2581Move": 2015,
  "\u2581self": 2016,
  "co": 2017,
  "\u2581entire": 2018,
  "\u2581\u0412\u041e": 2019,
  "\u2581\u0438\u0430\u043a\u043e": 2020,
  "\u2581energy": 2021,
  "\u2581doctor": 2022,
  "\u2581calling": 2023,
  "\u2581\u043d\u0430\u0434\u0435\u0436": 2024,
  "\u2581language": 2025,
  "\u2581\u041d\u0435\u043c\u0430\u043c": 2026,
  "il": 2027,
  "\u2581\u0431": 2028,
  "\u2581worship": 2029,
  "\u2581\u043c\u043e\u0440\u0430\u043c\u0435": 2030,
  "\u2581aren": 2031,
  "\u2581force": 2032,
  "\u2581officials": 2033,
  "\u2581cause": 2034,
  "\u2581\u0442\u0430\u043a\u043e\u0432": 2035,
  "\u2581\u0441\u0438\u0442\u0443\u0430\u0446\u0438\u0458\u0430": 2036,
  "\u2581\u0437\u0430\u0440\u0430\u0434\u0438": 2037,
  "\u2581\u043d\u0430\u043f\u0438\u0448\u0430\u043b": 2038,
  "\u2581\u0443\u0431\u0438\u0458\u0430\u043c": 2039,
  "\u2581Watch": 2040,
  "\u2581York": 2041,
  "\u2581\u0441\u043e\u0441\u0442\u0430\u043d\u043e\u043a": 2042,
  "F": 2043,
  "\u2581loved": 2044,
  "\u2581\u0443\u0442\u0440\u043e": 2045,
  "\u2581e": 2046,
  "all": 2047,
  "\u2581received": 2048,
  "\u043b\u0443": 2049,
  "\u2581purpose": 2050,
  "\u2581\u0421\u0435\u043a\u043e\u0458": 2051,
  "\u2581court": 2052,
  "\u2581\u0447\u0443\u0432\u0441\u0442\u0432\u0443\u0432\u0430\u043c": 2053,
  "\u2581touch": 2054,
  "\u2581\u043e\u0434\u043b\u0443\u043a\u0430": 2055,
  "\u2581\u043e\u0441\u0442\u0430\u043d\u0435": 2056,
  "\u2581\u0441\u0435\u045c\u0430\u0432\u0430\u0448": 2057,
  "\u0431": 2058,
  "\u2581\u0412\u0435\u0434\u043d\u0430\u0448": 2059,
  "\u2581\u0417\u0430\u0448\u0442\u043e": 2060,
  "\u2581\u0442\u0432\u043e\u0458\u0430": 2061,
  "\u2581\u043a\u043e\u043d\u0442\u0440\u043e\u043b\u0430": 2062,
  "\u2581ground": 2063,
  "\u2581authorities": 2064,
  "\u2581\u0434\u043e\u043b\u0443": 2065,
  "\u2581\u043c\u0438\u043d\u0430\u0442\u0430\u0442\u0430": 2066,
  "\u2581apostle": 2067,
  "N": 2068,
  "\u2581interest": 2069,
  "\u2581\u0433\u0430\u0458\u043b\u0435": 2070,
  "\u2581\u0441\u0442\u0430\u043d\u0430": 2071,
  "\u2581progress": 2072,
  "\u2581Bosnia": 2073,
  "\u258128": 2074,
  "\u2581Shut": 2075,
  "\u2581\u041a\u043e\u0438": 2076,
  "\u2581expect": 2077,
  "ri": 2078,
  "\u2581\u043c\u0438\u0441\u043b\u0438\u0442\u0435": 2079,
  "/0": 2080,
  "\u2581funny": 2081,
  "\u2581\u043a\u043e\u043b\u0430": 2082,
  "\u2581\u0434\u043e\u0431\u0438": 2083,
  "\u2581\u0441\u043f\u0430\u0441\u0438": 2084,
  "\u2581\u0436\u0438\u0432": 2085,
  "\u2581While": 2086,
  "\u2581\u043c\u0430\u043b\u0438": 2087,
  "\u2581moved": 2088,
  "\u2581worth": 2089,
  "\u2581\u043a\u043e\u0440\u0438\u0441\u0442\u0430\u0442": 2090,
  "\u043e\u043d": 2091,
  "\u2581cent": 2092,
  "No": 2093,
  "\u2581relationship": 2094,
  "\u0448\u0438": 2095,
  "\u2581\u043f\u043e\u0433\u043b\u0435\u0434": 2096,
  "\u2581date": 2097,
  "\u2581offer": 2098,
  "\u2581\u043c\u043e\u0436\u0435\u0448\u0435": 2099,
  "\u2581\u043a\u043d\u0438\u0433\u0430\u0442\u0430": 2100,
  "\u2581drive": 2101,
  "\u2581\u043d\u0435\u043c\u0430\u0448\u0435": 2102,
  "\u2581\u043c\u043e\u0436\u043d\u043e\u0441\u0442": 2103,
  "\u2581\u043d\u0430\u0434\u0432\u043e\u0440\u0435\u0448\u043d\u0438": 2104,
  "\u2581\u0440\u0430\u0437\u0433\u043e\u0432\u0430\u0440\u0430\u043c\u0435": 2105,
  "\u2581attack": 2106,
  "\u2581Son": 2107,
  "\u2581\u043d\u0430\u043e\u0453\u0430": 2108,
  "K": 2109,
  "\u2581\u0443\u043c": 2110,
  "\u2581hey": 2111,
  "\u2581\u0446\u0435\u043b\u0430": 2112,
  "\u2581minister": 2113,
  "\u2581\u0438\u0437\u0431\u043e\u0440\u0438": 2114,
  "\u2581seven": 2115,
  "\u2581\u0421\u0443\u043f\u0435\u0440": 2116,
  "\u0438\u043d": 2117,
  "\u2581Since": 2118,
  "\u2581Croatian": 2119,
  "\u2581\u0437\u0431\u043e\u0440\u0443\u0432\u0430\u043c\u0435": 2120,
  "\u2581l": 2121,
  "\u2581\u0442\u0438\u043c": 2122,
  "\u258160": 2123,
  "\u2581\u0432\u0435\u0441\u0442": 2124,
  "\u2581\u041b\u0443\u0453\u0435\u0442\u043e": 2125,
  "\u2581social": 2126,
  "\u25816:": 2127,
  "\u2581likely": 2128,
  "\u041f\u043e": 2129,
  "\u2581health": 2130,
  "\u2581action": 2131,
  "\u2581\u043d\u0430\u043f\u0440\u0430\u0432\u0438\u0432": 2132,
  "\u2581\u043a\u0430": 2133,
  "\u2581\u043d\u0435\u0434\u0435\u043b\u0438": 2134,
  "\u258126": 2135,
  "\u2581\u0433\u0440\u0435\u0448\u043a\u0430": 2136,
  "\u2581More": 2137,
  "\u2581eye": 2138,
  "\u2581\u043e\u0441\u043d\u043e\u0432\u0430": 2139,
  "\u2581shut": 2140,
  "\u2581\u0414\u0435\u043d\u0435\u0441": 2141,
  "\u2581provide": 2142,
  "\u2581\u0440\u0430\u0446\u0435": 2143,
  "\u2581\u0438\u0437\u043b\u0435\u0437\u0435": 2144,
  "\u25815:": 2145,
  "\u2581especially": 2146,
  "\u2581community": 2147,
  "\u2581prison": 2148,
  "\u0453\u043e": 2149,
  "\u2581remain": 2150,
  "\u2581\u0418\u0437": 2151,
  "\u2581\u0458\u0430\u0432\u0430\u043c": 2152,
  "\u2581\u0414\u0438\u043d": 2153,
  "\u2581\u043c\u0435\u0441\u0442\u043e\u0442\u043e": 2154,
  "\u2581sex": 2155,
  "\u2581\u041d\u0415": 2156,
  "\u2581\u0434\u0430\u043b\u0435\u043a\u0443": 2157,
  "\u2581\u0443\u0447\u0438\u043b\u0438\u0448\u0442\u0435": 2158,
  "\u2581\u0442\u0440\u0435\u0431\u0430\u0430\u0442": 2159,
  "\u2581About": 2160,
  "\u2581kept": 2161,
  "\u2581happening": 2162,
  "\u2581main": 2163,
  "\u2581hair": 2164,
  "\u2581\u043f\u0440\u0438\u0441\u0442\u0430\u043f": 2165,
  "\u2581\u0437\u0430\u043a\u043e\u043d": 2166,
  "\u2581\u0434\u043e\u0432\u0435\u0440\u0431\u0430": 2167,
  "\u2581\u043f\u0440\u0430\u0432\u0430": 2168,
  "\u2581across": 2169,
  "\u2581fall": 2170,
  "\u2581\u043c\u043e\u045c": 2171,
  "ch": 2172,
  "\u2581religious": 2173,
  "\u2581\u0434\u0435\u043b\u043e": 2174,
  "\u0434\u0435\u043d": 2175,
  "\u2581\u0422": 2176,
  "\u0417": 2177,
  "\u2581\u043a\u0430\u043a\u0432\u0430": 2178,
  "\u2581@": 2179,
  "\u0420": 2180,
  "\u2581efforts": 2181,
  "\u2581account": 2182,
  "\u2581\u0438\u0434\u043d\u0438\u043d\u0430": 2183,
  "\u2581\u041f\u043e\u0434\u043e\u0431\u0440\u043e": 2184,
  "\u2581\u043e\u0442\u0432\u043e\u0440\u0438": 2185,
  "\u2581\u043e\u0447\u0438\u0442\u0435": 2186,
  "\u0443\u0432\u0430": 2187,
  "\u2581enjoy": 2188,
  "\u2581\u0447\u043e\u0432\u0435\u043a\u0443": 2189,
  "\u2581write": 2190,
  "\u2581major": 2191,
  "\u2581\u0433\u043b\u0430\u0432\u0430": 2192,
  "\u2581\u043a\u0430\u0436\u0430\u043b": 2193,
  "\u2581\u0441\u0442\u0430\u0432\u0438": 2194,
  "\u2581Michael": 2195,
  "\u041d\u0430": 2196,
  "ment": 2197,
  "\u043d\u043e\u0441\u0442": 2198,
  "\u2581\u0431\u0435\u0432\u043c\u0435": 2199,
  "\u2581secret": 2200,
  "\u2581sort": 2201,
  "\u2581whom": 2202,
  "\u043e\u0432\u0438\u0442\u0435": 2203,
  "\u258131": 2204,
  "\u2581final": 2205,
  "\u2581\u0441\u0440\u0435\u045c\u0435\u043d": 2206,
  "\u2581born": 2207,
  "\u2581article": 2208,
  "\u2581\u043f\u0440\u043e\u0431\u043b\u0435\u043c\u043e\u0442": 2209,
  "\u2581\u0442\u0430\u043a\u0432\u0438": 2210,
  "\u2581\u043a\u043e": 2211,
  "\u2581\u041a\u0430\u043a\u043e\u0432": 2212,
  "\u2581\u043d\u0435\u0458\u0437\u0438\u043d\u0438\u0442\u0435": 2213,
  "\u2581white": 2214,
  "as": 2215,
  "\u2581\u0441\u043c\u0438\u0441\u043b\u0430": 2216,
  "\u2581\u0440\u0430\u0431\u043e\u0442\u0430\u043c": 2217,
  "you": 2218,
  "\u2581\u0446\u0435\u043b\u043e\u0441\u043d\u043e": 2219,
  "\u2581\u043d\u0435\u0431\u043e\u0442\u043e": 2220,
  "\u25811.": 2221,
  "\u2581Was": 2222,
  "\u2581national": 2223,
  "ist": 2224,
  "\u2581\u0411\u043e\u0436\u0458\u0435\u0442\u043e": 2225,
  "\u043c\u0435\u043d": 2226,
  "_": 2227,
  "\u2581\u0437\u0430\u0431\u0430\u0432\u0430": 2228,
  "\u2581leaders": 2229,
  "\u2581\u0410\u043b\u043e": 2230,
  "ra": 2231,
  "\u2581\u043e\u0434\u043d\u0435\u0441\u0443\u0432\u0430": 2232,
  "\u2581\u0441\u0435\u0431\u0435\u0441\u0438": 2233,
  "\u2581\u0441\u0442\u043e\u0438": 2234,
  "\u2581\u043c\u0430\u0458": 2235,
  "\u2581fellow": 2236,
  "\u258129": 2237,
  "\u2581Mrs": 2238,
  "\u2581anybody": 2239,
  "W": 2240,
  "\u2581General": 2241,
  "\u2581\u041c\u0430\u043c\u043e": 2242,
  "\u2581form": 2243,
  "\u2581lie": 2244,
  "\u2581Her": 2245,
  "\u2581\u0432\u0435\u0441\u0442\u0438": 2246,
  "\u0431\u043e": 2247,
  "\u2581leader": 2248,
  "\u0453\u0430": 2249,
  "\u2581picture": 2250,
  "\u2581International": 2251,
  "\u2581\u0441\u043a\u043e\u0440\u043e": 2252,
  "\u2581\u0441\u0440\u0430\u045a\u0435": 2253,
  "\u2581Tuesday": 2254,
  "\u2581\u0434\u0435\u0441\u0435\u0442": 2255,
  "\u2581\u043e\u0434\u0433\u043e\u0432\u043e\u0440": 2256,
  "\u2581Something": 2257,
  "\u2581Wednesday": 2258,
  "\u2581event": 2259,
  "\u2581Very": 2260,
  "\u2581\u0411\u043e\u0441\u043d\u0430": 2261,
  "\u2581\u043f\u043e\u0432\u0435\u045c\u0435\u0442\u043e": 2262,
  "\u2581Albanian": 2263,
  "\u2581looked": 2264,
  "de": 2265,
  "\u2581\u043a\u0430\u043a\u043e\u0432": 2266,
  "\u2581figure": 2267,
  "\u2581holy": 2268,
  "\u2581pain": 2269,
  "\u2581Although": 2270,
  "\u2581\u0443\u0431\u0438": 2271,
  "\u2581poor": 2272,
  "\u2581thanks": 2273,
  "\u2581\u041e\u041a": 2274,
  "\u2581\u043a\u043e\u0440\u0438\u0441\u0442": 2275,
  "\u2581\u0434\u043e\u0458\u0434\u0430\u043c": 2276,
  "\u2581\u043c\u0430\u0436\u0438": 2277,
  "\u2581ourselves": 2278,
  "\u2581humans": 2279,
  "\u2581Damn": 2280,
  "\u0441\u0430": 2281,
  "\u2581playing": 2282,
  "\u0442\u0438\u0442\u0435": 2283,
  "\u2581\u043e\u0434\u043d\u043e\u0441": 2284,
  "\u2581\u0438\u0441\u0442\u043e\u0442\u043e": 2285,
  "\u2581\u041e\u043a": 2286,
  "ro": 2287,
  "\u2581\u043d\u0430\u0458\u0434\u0435\u0448": 2288,
  "\u2581\u0434\u0435\u043b\u0430": 2289,
  "ka": 2290,
  "\u2581Macedonian": 2291,
  "\u2581\u0434\u043e\u0441\u0442\u0430": 2292,
  "\u2581\u0421\u0430\u0442\u0430\u043d\u0430": 2293,
  "\u2581\u043f\u043e\u043d\u0435\u043a\u043e\u0433\u0430\u0448": 2294,
  "\u2581\u0414\u043e\u0431\u0430\u0440": 2295,
  "\u2581\u0440\u0430\u0431\u043e\u0442\u0430\u0442": 2296,
  "\u2581explain": 2297,
  "\u0440\u0430\u043c": 2298,
  "\u2581\u0432\u043d\u0438\u043c\u0430\u043d\u0438\u0435": 2299,
  "\u2581\u043d\u043e\u0432\u0438\u043e\u0442": 2300,
  "\u2581\u0435\u043d\u0435\u0440\u0433\u0438\u0458\u0430": 2301,
  "ies": 2302,
  "\u2581\u0447\u0435\u043a\u043e\u0440": 2303,
  "\u2581finally": 2304,
  "\u2581ma": 2305,
  "\u2581common": 2306,
  "la": 2307,
  "\u2581American": 2308,
  "\u2581citizens": 2309,
  "\u2581crimes": 2310,
  "\u2581\u0434\u0440\u0443\u0433\u0430\u0440": 2311,
  "\u2581\u0441\u0438\u043b\u0438": 2312,
  "\u25814.": 2313,
  "\u2581Party": 2314,
  "\u2581issues": 2315,
  "\u2581reach": 2316,
  "\u2581\u0422\u043e\u0447\u043d\u043e": 2317,
  "\u2581\u0431\u0430\u0440\u0435\u043c": 2318,
  "\u2581\u0434\u043e\u0458\u0434\u0435\u0448": 2319,
  "\u043a\u043e\u0442": 2320,
  "\u2581\u043e\u0433\u043b\u0435\u0434": 2321,
  "\u0428": 2322,
  "\u2581\u043f\u043e\u043b\u043e\u0432\u0438\u043d\u0430": 2323,
  "\u2581anyway": 2324,
  "\u2581eight": 2325,
  "ul": 2326,
  "\u2581third": 2327,
  "\u2581Miss": 2328,
  "\u2581\u043d\u0435\u043c\u043e\u0458": 2329,
  "\u2581Yet": 2330,
  "\u2581accept": 2331,
  "\u2581class": 2332,
  "te": 2333,
  "\u2581build": 2334,
  "\u2581welcome": 2335,
  "cause": 2336,
  "\u2581\u0428": 2337,
  "\u2581earlier": 2338,
  "\u2581based": 2339,
  "\u2581scared": 2340,
  "\u2581\u0422\u043e\u043b\u043a\u0443": 2341,
  "\u2581\u043f\u043e\u043d\u0435\u0434\u0435\u043b\u043d\u0438\u043a\u043e\u0442": 2342,
  "\u2581\u0447\u0435\u043a\u0430": 2343,
  "\u2581James": 2344,
  "\u2581added": 2345,
  "\u2581\u0440\u043e\u0434\u0438\u0442\u0435\u043b\u0438\u0442\u0435": 2346,
  "\u2581\u0434\u043e\u0441\u0435\u0433\u0430": 2347,
  "\u043f\u0435": 2348,
  "\u2581\u041c": 2349,
  "\u2581THE": 2350,
  "un": 2351,
  "\u2581Al": 2352,
  "\u2581field": 2353,
  "\u2581\u043f\u043e\u043c\u043e\u0433\u043d\u0430\u0442": 2354,
  "\u2581\u0432\u0435\u0440\u043e\u0458\u0430\u0442\u043d\u043e": 2355,
  "\u2581\u0438\u0437\u0432\u0435\u0448\u0442\u0430\u0458": 2356,
  "\u2581\u043b\u0438\u0447\u043d\u043e": 2357,
  "\u2581faithful": 2358,
  "\u2581piece": 2359,
  "\u2581\u041f\u043e\u0440\u0430\u0434\u0438": 2360,
  "\u2581\u0426\u0430\u0440\u0441\u0442\u0432\u043e\u0442\u043e": 2361,
  "\u2581named": 2362,
  "\u2581\u0430\u043c\u0435\u0440\u0438\u043a\u0430\u043d\u0441\u043a\u0438": 2363,
  "\u2581mouth": 2364,
  "\u2581\u0417\u0435\u043c\u0438": 2365,
  "\u2581rule": 2366,
  "\u2581\u0418\u0437\u0440\u0430\u0435\u043b": 2367,
  "\u2581\u043d\u0435\u043a\u0430\u0434\u0435": 2368,
  "\u2581\u043d\u0430\u043f\u0440\u0435\u0434": 2369,
  "\u2581music": 2370,
  "\u2581\u0441\u043b\u0443\u0433\u0438": 2371,
  "\u2581\u0411\u0430\u0448": 2372,
  "\u2581V": 2373,
  "\u0422\u0438": 2374,
  "\u2581Global": 2375,
  "\u2581\u041d\u0435\u043a\u0430": 2376,
  "\u2581\u043f\u0435\u0440\u0438\u043e\u0434": 2377,
  "\u2581\u0431\u0440\u0430\u043a": 2378,
  "year": 2379,
  "\u2581Never": 2380,
  "\u2581\u0420\u0435\u0447\u0435": 2381,
  "\u2581\u0414\u0438": 2382,
  "\u2581\u0438\u0441\u0442\u0438\u043e\u0442": 2383,
  "\u2581meant": 2384,
  "\u2581forever": 2385,
  "\u2581status": 2386,
  "\u2581Frank": 2387,
  "\u2581\u0410\u043b": 2388,
  "\u2581chief": 2389,
  "\u2581elections": 2390,
  "\u2581Mo": 2391,
  "\u0441\u0442\u0440\u0430": 2392,
  "\u2581\u0431\u0430\u0440\u0430\u0430\u0442": 2393,
  "\u2581\u043f\u043e\u043b\u0438\u0442\u0438\u0447\u043a\u0438": 2394,
  "ate": 2395,
  "\u0430\u043d": 2396,
  "\u2581\u0432\u043e\u0435\u043d\u0438": 2397,
  "\u2581\u0432\u043b\u0435\u0437\u0435": 2398,
  "\u2581level": 2399,
  "\u2581reading": 2400,
  "\u2581due": 2401,
  "\u2581\u041f\u0440\u0435\u0441\u0442\u0430\u043d\u0438": 2402,
  "\u2581\u043f\u043e\u043b\u0438\u0446\u0438\u0458\u0430": 2403,
  "\u2581teach": 2404,
  "\u2581luck": 2405,
  "\u2581Matthew": 2406,
  "\u2581Remember": 2407,
  "\u2581mission": 2408,
  "\u2581dinner": 2409,
  "\u2581gas": 2410,
  "\u2581\u0434\u0435\u043d\u043e\u0432\u0438": 2411,
  "8": 2412,
  "\u2581\u0447\u0443\u0434\u043d\u043e": 2413,
  "\u2581handle": 2414,
  "\u2581hospital": 2415,
  "\u2581\u0432\u0440\u0430\u0442\u0438\u043c\u0435": 2416,
  "\u2581\u043d\u0430\u043c\u0435\u0441\u0442\u043e": 2417,
  "\u2581honey": 2418,
  "\u2581\u043e\u0442\u0438\u0434\u0435": 2419,
  "\u2581\u043f\u0440\u0435\u0442\u0445\u043e\u0434\u043d\u043e": 2420,
  "\u2581Every": 2421,
  "\u2581\u043d\u0430\u0458\u0434\u043e\u0432": 2422,
  "\u2581\u0432\u043e\u043b\u0458\u0430": 2423,
  "\u2581\u043f\u043e\u0433\u043e\u043b\u0435\u043c\u0430": 2424,
  "\u2581\u043f\u043e\u043a\u0430\u0436\u0443\u0432\u0430\u0430\u0442": 2425,
  "\u2581address": 2426,
  "\u2581deep": 2427,
  "\u2581Over": 2428,
  "\u2581Ben": 2429,
  "\u2581red": 2430,
  "\u041a\u0430\u043a\u043e": 2431,
  "\u2581Um": 2432,
  "\u2581allow": 2433,
  "\u2581lady": 2434,
  "\u0442\u0435\u043d": 2435,
  "\u2581towards": 2436,
  "\u2581gift": 2437,
  "\u2581Herzegovina": 2438,
  "\u2581\u0442\u0430\u043a\u0432\u0430": 2439,
  "\u2581\u0447\u043e\u0432\u0435\u0447\u0435": 2440,
  "\u2581\u0433\u043e\u043b\u0435\u043c\u043e": 2441,
  "\u2581Sunday": 2442,
  "\u2581Christmas": 2443,
  "\u2581\u0431\u0440\u043e\u0458\u043e\u0442": 2444,
  "\u2581\u0437\u0430\u043f\u043e\u0447\u043d\u0430": 2445,
  "\u2581gives": 2446,
  "\u0441\u0442\u0432\u043e": 2447,
  "\u2581cold": 2448,
  "\u2581\u0425\u0435\u0440\u0446\u0435\u0433\u043e\u0432\u0438\u043d\u0430": 2449,
  "\u2581calls": 2450,
  "\u2581catch": 2451,
  "\u2581\u0431\u0438\u0437\u043d\u0438\u0441": 2452,
  "\u2581Wow": 2453,
  "\u0440\u043e": 2454,
  "\u2581\u0431\u0435\u0437\u0431\u0435\u0434\u043d\u043e\u0441\u0442": 2455,
  "\u2581sometimes": 2456,
  "\u2581straight": 2457,
  "\u2581\u0438\u0434\u043d\u0438\u043d\u0430\u0442\u0430": 2458,
  "\u2581\u043d\u0430\u043c\u0435\u0440\u0430": 2459,
  "\u2581\u0417\u043d\u0430\u0435\u0442\u0435": 2460,
  "at": 2461,
  "\u2581\u0442\u0435\u043b\u043e\u0442\u043e": 2462,
  "\u2581St": 2463,
  "\u2581cover": 2464,
  "\u2581\u0413\u043e\u0441\u043f\u043e\u0434\u0438\u043d\u0435": 2465,
  "\u2581\u0432\u0435\u0447\u0435\u0440\u0430": 2466,
  "\u2581\u041c\u043e\u0458\u0430\u0442\u0430": 2467,
  "\u2581dream": 2468,
  "\u2581\u0441\u0442\u0430\u0432": 2469,
  "00": 2470,
  "\u25815.": 2471,
  "\u2581\u041c\u0430\u043b\u043a\u0443": 2472,
  "\u2581honor": 2473,
  "\u0436\u0438": 2474,
  "\u2581\u043c\u0430\u0440\u0442": 2475,
  "\u2581simple": 2476,
  "\u2581role": 2477,
  "\u2581\u0441\u043e\u0441\u0435\u043c\u0430": 2478,
  "\u2581200": 2479,
  "\u2581\u0437\u0430\u0448\u0442\u0438\u0442\u0430": 2480,
  "\u2581\u0441\u0435\u045c\u0430\u0432\u0430\u043c": 2481,
  "\u2581De": 2482,
  "\u2581\u0442\u0435\u043b\u0435\u0444\u043e\u043d": 2483,
  "\u2581\u043e\u043a\u0442\u043e\u043c\u0432\u0440\u0438": 2484,
  "\u2581Three": 2485,
  "\u2581\u043e\u0431\u0438\u0447\u043d\u043e": 2486,
  "\u2581street": 2487,
  "\u2581\u0432\u0440\u0430\u0442\u0430": 2488,
  "\u2581\u0413\u043e\u0441\u043f\u043e\u0434\u0435": 2489,
  "\u0435\u043d\u0430": 2490,
  "\u2581Open": 2491,
  "\u2581spend": 2492,
  "\u2581Psalm": 2493,
  "\u2581forward": 2494,
  "\u2581\u043f\u0440\u0430\u0432\u0438\u0442\u0435": 2495,
  "\u2581\u0440\u0435\u0433\u0438\u043e\u043d\u043e\u0442": 2496,
  "\u2581\u043d": 2497,
  "\u2581\u0441\u043e\u0441\u0442\u043e\u0458\u0431\u0430": 2498,
  "\u0443\u0432\u0430\u0430\u0442": 2499,
  "\u2581\u041f\u043e\u043b": 2500,
  "\u2581plans": 2501,
  "\u2581\u0421\u0435\u0443\u0448\u0442\u0435": 2502,
  "\u2581wonderful": 2503,
  "\u2581\u0414\u0435\u043a\u0430": 2504,
  "\u2581\u0436\u0435\u043d\u0438\u0442\u0435": 2505,
  "\u2581completely": 2506,
  "\u2581\u0432\u0435\u0440\u0443\u0432\u0430\u0448": 2507,
  "\u2581Council": 2508,
  "\u2581itself": 2509,
  "\u2581Any": 2510,
  "\u2581island": 2511,
  "\u2581Whatever": 2512,
  "\u2581\u0433\u043b\u0430\u0441": 2513,
  "\u2581English": 2514,
  "\u2581\u0422\u0440\u0435\u0431\u0430\u0448\u0435": 2515,
  "\u2581freedom": 2516,
  "\u2581\u0441\u043b\u0443\u0448\u0430\u0448": 2517,
  "\u2581parties": 2518,
  "R": 2519,
  "\u2581Today": 2520,
  "\u2581heaven": 2521,
  "do": 2522,
  "\u2581\u0433\u043b\u0435\u0434\u0430\u0430\u0442": 2523,
  "\u2581\u043d\u043e\u0432\u043e": 2524,
  "\u2581soul": 2525,
  "\u2581\u0431\u043b\u0438\u0437\u0438\u043d\u0430": 2526,
  "ton": 2527,
  "\u25812004": 2528,
  "\u2581feelings": 2529,
  "\u2581pass": 2530,
  "\u2581miles": 2531,
  "\u0435\u0446": 2532,
  "\u2581statement": 2533,
  "\u2581\u0441\u043b\u0435\u0434\u043d\u0430\u0442\u0430": 2534,
  "\u2581shows": 2535,
  "\u2581army": 2536,
  "\u2581recent": 2537,
  "\u2581Am": 2538,
  "\u2581Nobody": 2539,
  "\u2581contact": 2540,
  "\u2581pull": 2541,
  "\u2581seeing": 2542,
  "\u2581\u0434\u0435\u043a\u0435\u043c\u0432\u0440\u0438": 2543,
  "\u2581\u0431\u0440\u043e\u0434": 2544,
  "\u2581murder": 2545,
  "\u2581dangerous": 2546,
  "\u2581\u0458\u0443\u043d\u0438": 2547,
  "\u2581shouldn": 2548,
  "\u2581avoid": 2549,
  "\u2581complete": 2550,
  "\u2581doubt": 2551,
  "\u043d\u0433": 2552,
  "\u2581Still": 2553,
  "\u2581lived": 2554,
  "\u2581\u0440\u0435\u0447\u0438\u0441\u0438": 2555,
  "\u2581\u0437\u0430\u043a\u043e\u043d\u043e\u0442": 2556,
  "\u2581\u043f\u0440\u0432\u0430\u0442\u0430": 2557,
  "\u2581test": 2558,
  "7": 2559,
  "\u0435\u0432": 2560,
  "go": 2561,
  "\u2581\u043e\u0434\u0433\u043e\u0432\u043e\u0440\u0438": 2562,
  "\u2581\u041c\u043e\u0436\u0435\u043c\u0435": 2563,
  "\u2581file": 2564,
  "\u2581\u0422\u0440\u0438": 2565,
  "\u2581\u041d\u0435\u043b\u0438": 2566,
  "\u0424": 2567,
  "\u2581\u0431\u043e\u0440\u0431\u0430": 2568,
  "\u2581nobody": 2569,
  "\u0441\u0442\u0435\u0440": 2570,
  "\u2581\u043a\u0430\u0436\u0435\u0442\u0435": 2571,
  "\u2581official": 2572,
  "\u25812008": 2573,
  "\u2581loving": 2574,
  "\u2581market": 2575,
  "\u2581general": 2576,
  "\u2581led": 2577,
  "\u2581\u0411\u0435\u043d": 2578,
  "\u2581ride": 2579,
  "\u2581\u0447\u0435\u0441\u0442": 2580,
  "less": 2581,
  "\u2581Bye": 2582,
  "\u0447\u0435\u043d": 2583,
  "\u2581\u0421\u0438\u0433\u0443\u0440\u0435\u043d": 2584,
  "\u2581\u0437\u0430\u0435\u0434\u043d\u0438\u0446\u0430": 2585,
  "\u2581\u040f\u043e": 2586,
  "\u2581\u0435\u0431\u0430\u043c": 2587,
  "\u2581kidding": 2588,
  "\u2581ship": 2589,
  "\u2581\u0443\u0447\u0435\u043d\u0438\u0446\u0438": 2590,
  "\u041f\u0430": 2591,
  "\u2581voice": 2592,
  "\u2581Most": 2593,
  "\u2581\u0437\u043b\u043e\u0441\u0442\u043e\u0440\u0441\u0442\u0432\u0430": 2594,
  "\u2581worse": 2595,
  "\u2581\u0434\u043e\u0437\u0432\u043e\u043b\u0438": 2596,
  "\u2581changes": 2597,
  "\u2581till": 2598,
  "\u2581whose": 2599,
  "\u2581\u0418\u043c\u0430\u0448\u0435": 2600,
  "son": 2601,
  "\u2581record": 2602,
  "\u2581\u043f\u043e\u043b\u0438\u0442\u0438\u043a\u0430": 2603,
  "ter": 2604,
  "\u2581ancient": 2605,
  "\u2581translation": 2606,
  "\u2581\u0434\u043e\u0433\u043e\u0432\u043e\u0440\u043e\u0442": 2607,
  "\u2581results": 2608,
  "\u2581\u0422\u0440\u0433\u043d\u0438": 2609,
  "\u2581low": 2610,
  "est": 2611,
  "\u2581beginning": 2612,
  "\u2581\u0413\u043e\u0441\u043f\u043e\u0434": 2613,
  "\u2581\u043c\u0438\u0441\u043b\u0430\u0442": 2614,
  "\u2581\u0447\u0435\u043a\u0430\u0458": 2615,
  "\u2581fault": 2616,
  "\u2581interested": 2617,
  "\u2581Fine": 2618,
  "\u2581Y": 2619,
  "\u2581\u0440\u0435\u0437\u0443\u043b\u0442\u0430\u0442": 2620,
  "\u043b\u0435\u043d": 2621,
  "\u2581\u043e\u0434\u043d\u043e\u0441\u0438": 2622,
  "\u2581y": 2623,
  "\u2581box": 2624,
  "\u2581missing": 2625,
  "\u2581showed": 2626,
  "\u2581\u0458\u0430\u043d\u0443\u0430\u0440\u0438": 2627,
  "\u2581Charlie": 2628,
  "\u2581opportunity": 2629,
  "\u2581\u0438\u043c\u0430\u043b\u0435": 2630,
  "ian": 2631,
  "\u2581\u0434\u0435\u043d\u043e\u0442": 2632,
  "/09": 2633,
  "\u2581Voices": 2634,
  "\u2581pressure": 2635,
  "\u2581\u0437\u0435\u043c\u0458\u0438\u0442\u0435": 2636,
  "\u2581receive": 2637,
  "ta": 2638,
  "\u2581paid": 2639,
  "\u0432\u0435\u043d": 2640,
  "\u2581\u0430\u043f\u0440\u0438\u043b": 2641,
  "\u2581\u043c\u043b\u0430\u0434\u0438": 2642,
  "\u25812010": 2643,
  "\u2581\u043f\u043e\u0458\u0430\u0432\u0438": 2644,
  "\u2581\u043f\u0440\u0435\u0442\u0441\u0442\u0430\u0432\u043d\u0438\u0446\u0438": 2645,
  "\u0447\u043a\u043e": 2646,
  "\u2581joy": 2647,
  "\u2581\u0441\u043e\u0431\u0440\u0430\u043d\u0438\u0435\u0442\u043e": 2648,
  "\u2581\u041f\u0440\u0432\u043e": 2649,
  "\u043e\u0441\u0442": 2650,
  "\u2581preaching": 2651,
  "\u2581simply": 2652,
  "\u2581natural": 2653,
  "\u2581Thursday": 2654,
  "\u2581\u043d\u0438\u0432\u043e": 2655,
  "\u2581\u0447\u0435\u0441\u0442\u043e": 2656,
  "\u2581TV": 2657,
  "...\"": 2658,
  "\u2581\u043e\u0434\u043e\u0432\u0434\u0435": 2659,
  "\u2581Captain": 2660,
  "\u2581\u0440\u0430\u0431\u043e\u0442\u0438\u0448": 2661,
  "\u2581\u0441\u043b\u0435\u0434\u043d\u0438\u043e\u0442": 2662,
  "\u2581rules": 2663,
  "\u2581\u043f\u043e\u0431\u0435\u0434\u0438": 2664,
  "\u2581\u0432\u043b\u0438\u0458\u0430\u0435": 2665,
  "be": 2666,
  "v": 2667,
  "\u2581\u043f\u043e\u0447\u0438\u0442": 2668,
  "\u043e\u0434": 2669,
  "\u2581necessary": 2670,
  "\u2581toward": 2671,
  "\u2581\u0440\u0430\u0437\u0433\u043e\u0432\u043e\u0440\u0438": 2672,
  "/07": 2673,
  "\u2581\u043c\u0430\u043b\u043e": 2674,
  "ting": 2675,
  "se": 2676,
  "\u2581dear": 2677,
  "\u0438\u0437": 2678,
  "\u2581opposition": 2679,
  "\u2581\u041e\u043d\u0430": 2680,
  "\u2581train": 2681,
  "\u2581vote": 2682,
  "\u2581\u0432\u0440\u0430\u0442\u0438\u0448": 2683,
  "\u2581press": 2684,
  "\u2581students": 2685,
  "\u2581books": 2686,
  "\u2581opened": 2687,
  "\u2581Ha": 2688,
  "ty": 2689,
  "\u2581meetings": 2690,
  "\u2581\u0411\u0438\u043b": 2691,
  "\u2581\u0438\u0441\u0442\u0430\u0442\u0430": 2692,
  "\u2581current": 2693,
  "\u2581\u0412\u0440\u0435\u043c\u0435": 2694,
  "\u2581\u0441\u043b\u0443\u0436\u0430\u0442": 2695,
  "Getty": 2696,
  "\u2581beat": 2697,
  "\u2581\u0437\u0430\u0441\u0435\u043a\u043e\u0433\u0430\u0448": 2698,
  "\u2581violence": 2699,
  "\u2581\u0410\u043c\u0435\u0440\u0438\u043a\u0430": 2700,
  "\u0438\u0441": 2701,
  "\u2581\u0441\u043e\u0431\u0440\u0430\u043d\u0438\u0435": 2702,
  "\u2581appreciate": 2703,
  "\u2581\u0440\u0430\u0437\u0432\u043e\u0458": 2704,
  "\u2581Call": 2705,
  "\u2581\u0434\u043e\u0430\u0453\u0430\u0430\u0442": 2706,
  "\u0446\u0438\u0458\u0430": 2707,
  "\u2581taught": 2708,
  "\u2581\u0443\u0431\u0430\u0432\u0430": 2709,
  "\u2581sea": 2710,
  "\u2581spent": 2711,
  "\u2581\u0440\u0435\u0447": 2712,
  "\u2581\u0458\u0443\u043b\u0438": 2713,
  "\u2581busy": 2714,
  "\u2581nations": 2715,
  "\u2581\u0441\u0430\u043a\u0430\u043b\u0435": 2716,
  "\u2581During": 2717,
  "\u2581\u0441\u043b\u0438\u043a\u0438": 2718,
  "\u2581Foreign": 2719,
  "\u2581\u043f\u043e\u0433\u0440\u0435\u0448\u043d\u043e": 2720,
  "\u2581\u0443\u043b\u043e\u0433\u0430": 2721,
  "\u2581nor": 2722,
  "\u2581\u043d\u0430\u0458\u0434\u043e\u0431\u0440\u043e": 2723,
  "\u2581\u0441\u0440\u0435\u0434\u0430\u0442\u0430": 2724,
  "\u2581god": 2725,
  "\u2581%1": 2726,
  "\u2581promised": 2727,
  "\u2581\u0427\u0430\u0440\u043b\u0438": 2728,
  "\u2581\u0441\u0442\u043e\u0440\u0438": 2729,
  "\u2581\u0417": 2730,
  "\u2581saved": 2731,
  "\u2581glad": 2732,
  "\u2581private": 2733,
  "\u2581helping": 2734,
  "\u2581caught": 2735,
  "\u2581\u043d\u0430\u043f\u0440\u0430\u0432\u0430\u0442": 2736,
  "\u2581\u0441\u043b\u0443\u0447\u0430\u0438": 2737,
  "\u2581fully": 2738,
  "\u2581watching": 2739,
  "\u2581billion": 2740,
  "\u2581National": 2741,
  "\u0438\u0458\u0430": 2742,
  "\u2581\u043f\u043e\u0442\u0440\u0435\u0431\u043d\u0438": 2743,
  "\u2581\u0446\u0435\u043b\u0438": 2744,
  "\u2581begin": 2745,
  "\u2581\u043b\u0438\u0446\u0435\u0442\u043e": 2746,
  "\u2581\u0441\u0442\u0440\u0430\u0432": 2747,
  "J": 2748,
  "\u2581\u043f\u0440\u0430\u0448\u0430": 2749,
  "\u2581George": 2750,
  "\u2581\u0441\u043c\u0435\u0442\u0430\u0430\u0442": 2751,
  "\u2581\u0414\u0440": 2752,
  "\u2581\u0437\u043d\u0430\u0435\u0448\u0435": 2753,
  "\u2581disciples": 2754,
  "\u2581\u0434": 2755,
  "\u2581\u043f\u043e\u043c\u043e\u0433\u043d\u0435\u0448": 2756,
  "\u2581French": 2757,
  "\u2581table": 2758,
  "\u2581wonder": 2759,
  "\u2581\u0434\u0435\u0442\u0435\u0442\u043e": 2760,
  "\u2581cases": 2761,
  "et": 2762,
  "\u2581June": 2763,
  "\u2581mistake": 2764,
  "\u043f\u0440\u043e": 2765,
  "\u2581\u043e\u0434\u043d\u043e\u0441\u043d\u043e": 2766,
  "\u2581State": 2767,
  "\u2581certainly": 2768,
  "ine": 2769,
  "\u2581\u0434\u043e\u0434\u0430\u0434\u0435": 2770,
  "\u2581mankind": 2771,
  "\u2581plane": 2772,
  "\u2581\u043a\u0438\u043b\u043e\u043c\u0435\u0442\u0440\u0438": 2773,
  "\u2581o": 2774,
  "\u2581\u041c\u043e\u0440\u0430\u0448": 2775,
  "\u2581\u0425": 2776,
  "\u2581Russian": 2777,
  "\u2581drop": 2778,
  "\u2581created": 2779,
  "\u2581prove": 2780,
  "\u2581\u0421\u0430\u043a\u0430\u0432": 2781,
  "\u2581above": 2782,
  "\u2581\u043c\u0435\u0442\u0440\u0438": 2783,
  "\u2581\u041c\u0430\u0458\u043a\u043b": 2784,
  "\u2581\u0434\u0440\u0436\u0438": 2785,
  "\u2581\u043f\u043e\u0432\u0438\u043a\u0430": 2786,
  "ovic": 2787,
  "\u2581risk": 2788,
  "\u2581\u0413\u043b\u0435\u0434\u0430\u0458": 2789,
  "\u0443\u043c": 2790,
  "\u2581benefit": 2791,
  "Gett": 2792,
  "\u2581Montenegro": 2793,
  "\u2581letter": 2794,
  "\u2581dark": 2795,
  "\u2581broke": 2796,
  "\u2581\u0446\u0430\u0440": 2797,
  "\u2581policy": 2798,
  "\u2581sun": 2799,
  "\u2581\u0431\u0430\u043d\u043a\u0430": 2800,
  "\u2581Pristina": 2801,
  "\u2581\u0441\u0435\u043f\u0442\u0435\u043c\u0432\u0440\u0438": 2802,
  "\u2581\u0443\u043d\u0438\u0448\u0442\u0438": 2803,
  "\u2581\u0448\u0430\u043d\u0441\u0438": 2804,
  "\u2581April": 2805,
  "\u2581Russia": 2806,
  "\u0436": 2807,
  "\u2581Dean": 2808,
  "\u2581\u043d\u0430\u0458\u0432\u0435\u0440\u043e\u0458\u0430\u0442\u043d\u043e": 2809,
  "\u2581\u043e\u0440\u0433\u0430\u043d\u0438\u0437\u0430\u0446\u0438\u0458\u0430": 2810,
  "\u2581somewhere": 2811,
  "\u00e8": 2812,
  "\u2581Think": 2813,
  "\u2581standards": 2814,
  "\u2581\u0426\u0430\u0440\u0441\u0442\u0432\u043e": 2815,
  "\u0448\u0442\u043e": 2816,
  "\u2581\u041e\u0434\u043b\u0438\u0447\u043d\u043e": 2817,
  "\u258170": 2818,
  "\u2581post": 2819,
  "\u2581sweet": 2820,
  "\u0441\u0435\u043d": 2821,
  "\u2581cell": 2822,
  "\u2581Adam": 2823,
  "\u2581March": 2824,
  "\u2581\u0414\u043e\u0441\u0442\u0430": 2825,
  "\u2581agree": 2826,
  "\u2581grow": 2827,
  "\u2581Friday": 2828,
  "\u2581window": 2829,
  "\u043e\u0432\u0438\u045c": 2830,
  "\u25817.": 2831,
  "\u2581evening": 2832,
  "\u2581period": 2833,
  "\u2581\u043e\u0441\u0442\u0430\u043d\u0443\u0432\u0430": 2834,
  "\u2581careful": 2835,
  "\u043a\u0435": 2836,
  "\u2581perhaps": 2837,
  "\u2581powerful": 2838,
  "\u0447\u043a\u0430\u0442\u0430": 2839,
  "\u2581Scriptures": 2840,
  "\u2581announced": 2841,
  "\u2581church": 2842,
  "\u2581parliament": 2843,
  "\u043c\u0438\u0440": 2844,
  "ko": 2845,
  "\u2581\u043f\u0438\u0441\u043c\u043e": 2846,
  "\u2581\u0440\u0430\u0437\u0431\u0438\u0440\u0430\u0448": 2847,
  "\u2581\u0444\u0430\u043b\u0430": 2848,
  "V": 2849,
  "\u2581\u0442\u0430\u043a\u0432\u043e": 2850,
  "ent": 2851,
  "\u2581\u0441\u043e\u043f\u0440\u0443\u0433": 2852,
  "\u2581access": 2853,
  "\u2581\u0437\u0430\u0434\u0430\u0447\u0430": 2854,
  "\u25812007": 2855,
  "\u2581floor": 2856,
  "\u2581normal": 2857,
  "\u2581dance": 2858,
  "\u2581Another": 2859,
  "\u2581Luke": 2860,
  "\u2581video": 2861,
  "\u2581\u043d\u0430\u043f\u0430\u0434": 2862,
  "\u2581\u041f\u043e\u0434": 2863,
  "\u043c\u043e\u0440": 2864,
  "\u2581signed": 2865,
  "\u2581um": 2866,
  "os": 2867,
  "\u2581nation": 2868,
  "li": 2869,
  "\u2581\u043f\u0440\u0430\u0448\u0430\u043c": 2870,
  "\u0439": 2871,
  "\u0445\u0430": 2872,
  "\u2581choose": 2873,
  "\u2581\u041e\u0414": 2874,
  "\u2581\u0431\u0430\u0440\u0430\u043c": 2875,
  "\u2581\u043f\u0440\u0435\u0434\u0438\u0437\u0432\u0438\u043a\u0430": 2876,
  "\u2581\u041f\u0435\u0442\u0430\u0440": 2877,
  "\u0435\u043d\u043e": 2878,
  "\u2581Welcome": 2879,
  "\u2581\u0421\u0430\u0440\u0430": 2880,
  "\u043d\u0438\u0446\u0438\u0442\u0435": 2881,
  "\u2581areas": 2882,
  "\u2581Show": 2883,
  "\u2581\u043a\u043e\u0441\u043e\u0432\u0441\u043a\u0438": 2884,
  "\u2581\u0413\u043b\u0435\u0434\u0430\u0448": 2885,
  "\u2581\u0432\u043b\u0438\u0458\u0430\u043d\u0438\u0435": 2886,
  "\u2581similar": 2887,
  "04": 2888,
  "ling": 2889,
  "\u2581prayer": 2890,
  "\u043e\u0430": 2891,
  "\u2581\u0441\u043b\u0443\u0436\u0438": 2892,
  "\u2581\u0442\u043e\u043a\u043c\u0443": 2893,
  "\u2581sin": 2894,
  "\u2581matters": 2895,
  "\u2581America": 2896,
  "\u2581training": 2897,
  "\u2581instead": 2898,
  "\u2581\u041f\u043e\u0441\u043b\u0435": 2899,
  "\u2581\u041c\u043e": 2900,
  "\u2581Serb": 2901,
  "\u2581Bank": 2902,
  "\u2581effort": 2903,
  "\u2581favor": 2904,
  "\u2581\u043f\u043e\u0442": 2905,
  "\u2581\u041c\u0430\u0458\u043a\u0430": 2906,
  "da": 2907,
  "\u2581\u0432\u0438\u0441\u0442\u0438\u043d\u0441\u043a\u0430": 2908,
  "\u043e\u0441": 2909,
  "\u2581\u0437\u0430\u0440\u0435\u043c": 2910,
  "\u2581\u0441\u0430\u043a\u0430\u043b\u0430": 2911,
  "\u2581\u0441\u0430\u043c\u0430": 2912,
  "\u0443\u0432\u0430\u045a\u0435\u0442\u043e": 2913,
  "\u2581Un": 2914,
  "\u25813,": 2915,
  "\u2581\u0431\u0438\u0434\u0438": 2916,
  "\u2581\u043f\u043e\u0431\u0430\u0440\u0430": 2917,
  "\u2581\u0459\u0443\u0431\u043e\u0432\u0442\u0430": 2918,
  "\u2581trade": 2919,
  "\u2581middle": 2920,
  "\u25812,": 2921,
  "\u2581justice": 2922,
  "\u2581\u0434\u043e\u0431\u0440\u0430\u0442\u0430": 2923,
  "\u2581financial": 2924,
  "\u2581Everybody": 2925,
  "\u2581servants": 2926,
  "\u2581\u0441\u0442\u0430\u0442\u0438\u0458\u0430": 2927,
  "\u2581\u043f\u043b\u0430\u043d\u043e\u0442": 2928,
  "\u2581boss": 2929,
  "\u2581carry": 2930,
  "\u2581Back": 2931,
  "\u2581Last": 2932,
  "\u2581Yo": 2933,
  "\u2581\u043d\u043e\u0435\u043c\u0432\u0440\u0438": 2934,
  "\u2581rich": 2935,
  "\u2581membership": 2936,
  "\u2581realize": 2937,
  "\u2581border": 2938,
  "\u2581desire": 2939,
  "\u2581\u0437\u0433\u043e\u043b\u0435\u043c\u0438": 2940,
  "\u2581\u0445\u0440\u0438\u0441\u0442\u0438\u0458\u0430\u043d\u0441\u043a\u0438": 2941,
  "\u2581\u0432\u0442\u043e\u0440\u043d\u0438\u043a\u043e\u0442": 2942,
  "\u2581\u043e\u0441\u0432\u043e\u0438": 2943,
  "\u2581strength": 2944,
  "\u2581\u041e\u0441\u0442\u0430\u0432\u0438": 2945,
  "\u2581\u0418\u0441\u0443\u0441\u0435": 2946,
  "\u2581\u0443\u0431\u0438\u0435\u0448": 2947,
  "\u2581\u043f\u043e\u0447\u043d\u0430": 2948,
  "\u2581\u0437\u0430\u0434\u043e\u0432\u043e\u043b\u0441\u0442\u0432\u043e": 2949,
  "\u2581South": 2950,
  "\u2581\u041f\u0443\u0448\u0442\u0438": 2951,
  "\u2581\u0441\u043b\u0443\u0448\u0430\u043c": 2952,
  "\u2581\u0445\u0440\u0438\u0441\u0442\u0438\u0458\u0430\u043d\u0438\u0442\u0435": 2953,
  "Cause": 2954,
  "\u2581\u0442\u0430": 2955,
  "\u2581\u0441\u043b\u0443\u0447\u0430\u0458\u043e\u0442": 2956,
  "\u2581\u043c\u0438\u043d\u0430\u0442\u043e\u0442\u043e": 2957,
  "\u2581\u0441\u0435\u043a\u043e\u0435": 2958,
  "\u2581\u0447\u0430\u0441\u043e\u0442": 2959,
  "\u2581stopped": 2960,
  "\u2581\u0434\u0430\u0458": 2961,
  "\u2581agreed": 2962,
  "\u2581\u0427\u0430\u043e": 2963,
  "\u2581\u0441\u0435\u043a\u0430\u043a\u043e": 2964,
  "\u041d\u0435\u043c\u0430": 2965,
  "\u2581\u0434\u0440\u0436\u0430\u0432\u0430\u0442\u0430": 2966,
  "\u2581\u043a\u0430\u0444\u0435": 2967,
  "\u2581built": 2968,
  "\u2581killing": 2969,
  "\u2581\u0438\u0437\u0432\u043e\u0440\u0438": 2970,
  "\u2581\u0410\u043d\u0430": 2971,
  "\u2581\u0435\u0434\u0438\u043d\u0441\u0442\u0432\u0435\u043d\u0438\u043e\u0442": 2972,
  "\u2581\u0434\u0440\u0436\u0430\u0432\u0430": 2973,
  "\u2581names": 2974,
  "\u2581\u043d\u0435\u043c\u0430\u0430\u0442": 2975,
  "\u2581fish": 2976,
  "\u2581quickly": 2977,
  "\u2581\u041d\u0430\u0458": 2978,
  "\u2581\u0444\u0438\u043b\u043c": 2979,
  "\u2581\u043f\u043e\u0441\u043b\u0435\u0434\u043d\u0438\u0442\u0435": 2980,
  "\u2581\u0438\u0437\u0432\u0435\u0448\u0442\u0430\u0458\u043e\u0442": 2981,
  "\u2581throw": 2982,
  "\u2581\u043a\u0430\u043a\u0432\u0438": 2983,
  "\u2581lying": 2984,
  "\u2581\u0447\u043b\u0435\u043d": 2985,
  "\u2581passed": 2986,
  "\u2581spoke": 2987,
  "\u2581\u043f\u0440\u043e\u0446\u0435\u0441": 2988,
  "\u2581positive": 2989,
  "\u2581available": 2990,
  "\u2581December": 2991,
  "\u2581Union": 2992,
  "\u2581brain": 2993,
  "\u2581\u043a\u0443\u0447\u0435": 2994,
  "\u2581allowed": 2995,
  "\u2581round": 2996,
  "\u2581\u041a\u0435": 2997,
  "\u258132": 2998,
  "\u2581relations": 2999,
  "\u2581Time": 3000,
  "\u2581bank": 3001,
  "\u2581crisis": 3002,
  "\u2581education": 3003,
  "\u2581\u0421\u0438\u043d": 3004,
  "\u2581\u0437\u043d\u0430\u043a": 3005,
  "\u2581\u041d": 3006,
  "\u2581\u0436\u0435\u043b\u0431\u0430": 3007,
  "\u2581charge": 3008,
  "\u2581\u041f\u0440\u0435\u0442\u043f\u043e\u0441\u0442\u0430\u0432\u0443\u0432\u0430\u043c": 3009,
  "\u2581fighting": 3010,
  "ary": 3011,
  "\u2581\u0441\u0432\u043e\u0458": 3012,
  "\u2581\u0441\u043c\u0435\u0448\u043d\u043e": 3013,
  "City": 3014,
  "ism": 3015,
  "\u2581\u043c\u0430\u043c\u043e": 3016,
  "\u2581\u041a\u043e\u043d": 3017,
  "\u2581\u0432\u0435\u043b\u0430\u043c": 3018,
  "\u2581\u0441\u0435\u0434\u0443\u043c": 3019,
  "\u2581\u043c\u0440\u0442\u0432\u0438": 3020,
  "day": 3021,
  "\u2581Their": 3022,
  "\u2581tree": 3023,
  "\u2581\u0434\u0435\u043b\u043e\u0432\u0438": 3024,
  "\u2581\u043f\u043e\u0434\u0430\u0442\u043e\u0446\u0438": 3025,
  "Name": 3026,
  "\u2581Bulgarian": 3027,
  "\u2581places": 3028,
  "\u2581Before": 3029,
  "\u2581type": 3030,
  "he": 3031,
  "optional": 3032,
  "\u2581oil": 3033,
  "\u043d\u0435\u0440": 3034,
  "\u2581\u043c\u0438\u043b\u0438\u0458\u0430\u0440\u0434\u0438": 3035,
  "\u2581development": 3036,
  "\u2581\u043e\u0431\u0438\u0434\u0443\u0432\u0430": 3037,
  "\u0440\u0443": 3038,
  "\u2581legal": 3039,
  "\u2581non": 3040,
  "\u2581\u0437\u0432\u0443\u0447\u0438": 3041,
  "sa": 3042,
  "\u25816.": 3043,
  "\u2581October": 3044,
  "\u2581sell": 3045,
  "\u2581\u043d\u0438\u0432\u043d\u043e\u0442\u043e": 3046,
  "\u2581standing": 3047,
  "\u2581quick": 3048,
  "\u0410\u043a\u043e": 3049,
  "\u2581swear": 3050,
  "\u2581\u043f\u0440\u0432\u0430": 3051,
  "\u2581\u043d\u0435\u043c\u0430\u0448": 3052,
  "\u2581\u043f\u0440\u043e\u0446\u0435\u0441\u043e\u0442": 3053,
  "\u2581\u0432\u0438\u0434\u0430\u0442": 3054,
  "\u2581bag": 3055,
  "\u2581\u0446\u0435\u043b\u043e": 3056,
  "\u2581War": 3057,
  "\u2581arrest": 3058,
  "\u2581forces": 3059,
  "\u2581g": 3060,
  "\u2581\u041f\u0440\u0438\u0448\u0442\u0438\u043d\u0430": 3061,
  "\u2581fell": 3062,
  "ad": 3063,
  "\u2581lucky": 3064,
  "\u2581\u0422\u0430": 3065,
  "\u2581\u043a\u0430\u0436\u0443\u0432\u0430\u043c": 3066,
  "\u2581conditions": 3067,
  "\u2581\u0440\u0435\u0444\u043e\u0440\u043c\u0438": 3068,
  "\u2581\u0447\u0443\u0432\u0441\u0442\u0432\u0430": 3069,
  "\u2581\u0424\u0440\u0435\u043d\u043a": 3070,
  "\u2581finish": 3071,
  "\u2581\u0432\u043a\u043b\u0443\u0447\u0443\u0432\u0430": 3072,
  "\u2581paper": 3073,
  "\u2581percent": 3074,
  "\u2581\u0447\u0435\u0441\u0442\u043e\u043f\u0430\u0442\u0438": 3075,
  "\u2581\u0441\u043b\u043e\u0431\u043e\u0434\u0430": 3076,
  "\u0426": 3077,
  "\u2581\u0443\u0441\u043b\u043e\u0432\u0438": 3078,
  "\u2581City": 3079,
  "\u2581events": 3080,
  "\u2581written": 3081,
  "\u2581\u0434\u043b\u0430\u0431\u043e\u043a\u043e": 3082,
  "\u2581\u0441\u0435\u0440\u0438\u043e\u0437\u043d\u043e": 3083,
  "11": 3084,
  "\u2581La": 3085,
  "\u2581\u0437\u0431\u043e\u0440\u043e\u0432\u0438\u0442\u0435": 3086,
  "\u2581failed": 3087,
  "U": 3088,
  "\u2581Also": 3089,
  "\u2581\u043e\u0434\u0433\u043e\u0432\u0430\u0440\u0430": 3090,
  "me": 3091,
  "\u2581space": 3092,
  "\u043f\u0440\u0438": 3093,
  "\u2581Everyone": 3094,
  "\u2581speaking": 3095,
  "out": 3096,
  "\u2581Romanian": 3097,
  "\u2581focus": 3098,
  "\u2581imagine": 3099,
  "\u2581\u043f\u043e\u0447\u0435\u0442\u043e\u043a": 3100,
  "\u2581Perhaps": 3101,
  "\u2581wise": 3102,
  "\u2581pre": 3103,
  "\u2581\u0415\u0432\u0440\u043e\u043f\u0441\u043a\u0430": 3104,
  "\u2581\u0436\u0438\u0432\u0435\u0435\u043c\u0435": 3105,
  "This": 3106,
  "\u2581\u0411\u0438\u0434\u0438": 3107,
  "\u2581\u0423\u0431\u0430\u0432\u043e": 3108,
  "\u2581ran": 3109,
  "\u2581\u043f\u043e\u0441\u0435\u0442\u0438": 3110,
  "\u2581text": 3111,
  "\u0408": 3112,
  "\u0448\u0430": 3113,
  "\u2581\u0434\u0435\u0432\u043e\u0458\u043a\u0438": 3114,
  "\u2581\u0437\u0435\u043c\u0430": 3115,
  "\u2581\u043f\u043e\u0441\u0435\u0442\u0430": 3116,
  "\u2581\u0410\u0434\u0430\u043c": 3117,
  "\u2581\u043f\u043e\u0441\u043b\u0435\u0434\u0435\u043d": 3118,
  "\u2581source": 3119,
  "\u2581\u041f\u041e": 3120,
  "\u2581Say": 3121,
  "\u0435\u045a\u0435": 3122,
  "\u2581\u0436\u0435\u043d\u0430\u0442\u0430": 3123,
  "\u2581\u0438\u0441\u043f\u043e\u043b\u043d\u0438": 3124,
  "\u2581wedding": 3125,
  "\u2581\u043f\u0440": 3126,
  "\u2581\u0440\u0435\u0448\u0435\u043d\u0438\u0435": 3127,
  "ne": 3128,
  "\u041f\u0440\u043e\u0447\u0438\u0442\u0430\u0458": 3129,
  "\u2581considered": 3130,
  "\u2581weapons": 3131,
  "\u2581gold": 3132,
  "\u2581\u0434\u043e\u0437\u0432\u043e\u043b\u0430": 3133,
  "\u2581\u043f\u043e\u043a\u0430\u0436\u0430\u043c": 3134,
  "\u0417\u043e\u0448\u0442\u043e": 3135,
  "\u2581boat": 3136,
  "\u2581anywhere": 3137,
  "\u2581\u0432\u043e\u0458\u043d\u0438\u0446\u0438": 3138,
  "\u2581\u0434\u0440\u0443\u0433\u0430\u0442\u0430": 3139,
  "ish": 3140,
  "\u2581willing": 3141,
  "\u2581\u0441\u043e\u0441\u0442\u0430\u043d\u043e\u043a\u043e\u0442": 3142,
  "\u0435\u0448\u0435": 3143,
  "\u2581\u0418\u043c": 3144,
  "\u2581\u041c\u0430\u0458\u043a": 3145,
  "ive": 3146,
  "\u2581include": 3147,
  "\u2581\u043d\u0430\u0441\u0442\u0430\u043d": 3148,
  "\u2581\u043f\u043b\u0430\u0448\u0430\u043c": 3149,
  "\u2581Whoa": 3150,
  "\u2581\u0416\u0430\u043b\u0430\u043c": 3151,
  "\u2581\u0447\u043b\u0435\u043d\u043e\u0432\u0438": 3152,
  "\u0413\u043e": 3153,
  "\u2581Someone": 3154,
  "\u2581truly": 3155,
  "\u2581\u0446\u0435\u043d\u0442\u0430\u0440": 3156,
  "\u25819.": 3157,
  "\u2581\u041f\u0440\u043e\u043a\u043b\u0435\u0442\u0441\u0442\u0432\u043e": 3158,
  "\u2581\u0441\u043b\u0443\u0448\u0430": 3159,
  "\u2581walking": 3160,
  "\u2581corruption": 3161,
  "\u2581responsibility": 3162,
  "\u2581goal": 3163,
  "\u25812005": 3164,
  "\u0420\u0410": 3165,
  "\u2581January": 3166,
  "\u2581sources": 3167,
  "\u2581\u0444\u0435\u0432\u0440\u0443\u0430\u0440\u0438": 3168,
  "\u2581total": 3169,
  "\u2581\u0441\u0438\u0442\u0443\u0430\u0446\u0438\u0458\u0430\u0442\u0430": 3170,
  "\u2581coffee": 3171,
  "\u2581\u043f\u043e\u0434\u043e\u0431\u0440\u0438": 3172,
  "\u2581Daddy": 3173,
  "\u2581responsible": 3174,
  "\u0431\u0435": 3175,
  "ance": 3176,
  "\u2581\u041f\u043e\u043d\u0435\u043a\u043e\u0433\u0430\u0448": 3177,
  "\u2581\u0430\u043f\u043e\u0441\u0442\u043e\u043b": 3178,
  "\u2581\u043e\u043f\u0430\u0441\u043d\u043e\u0441\u0442": 3179,
  "\u2581\u043f\u0440\u0438\u0447\u0438\u043d\u0438": 3180,
  "\u2581\u041c\u0430\u0440\u0438\u0458\u0430": 3181,
  "\u2581\u0447\u0443\u0432\u0441\u0442\u0432\u0443\u0432\u0430\u0448": 3182,
  "\u2581\u043f\u043e\u043c\u0438\u043d\u0430": 3183,
  "\u2581cost": 3184,
  "\u2581value": 3185,
  "\u2581\u0421\u0442\u0435": 3186,
  "\u2581sounds": 3187,
  "\u2581\u043e\u0434\u0440\u0436\u0430": 3188,
  "\u2581Once": 3189,
  "\u2581\u043f\u043e\u0432\u0440\u0437\u0430\u043d\u0438": 3190,
  "\u25812009": 3191,
  "\u2581institutions": 3192,
  "\u2581\u0442\u0440\u0430\u0435": 3193,
  "He": 3194,
  "\u2581July": 3195,
  "\u2581buddy": 3196,
  "\u2581\u043e\u0441\u0443\u043c": 3197,
  "\u2581price": 3198,
  "\u2581\u0437\u0431\u043e\u0440\u0443\u0432\u0430\u0430\u0442": 3199,
  "\u2581\u041a\u0443": 3200,
  "\u2581\u0432\u043e\u0458\u043d\u0430\u0442\u0430": 3201,
  "age": 3202,
  "\u2581weren": 3203,
  "\u2581\u0440\u0430\u0437\u0433\u043e\u0432\u043e\u0440\u0438\u0442\u0435": 3204,
  "\u2581Leave": 3205,
  "one": 3206,
  "\u2581calm": 3207,
  "\u2581\u0441\u043e\u043d": 3208,
  "\u2581activities": 3209,
  "\u2581weird": 3210,
  "\u2581discuss": 3211,
  "\u2581effect": 3212,
  "\u2581\u0432\u043a\u043b\u0443\u0447\u0443\u0432\u0430\u0458\u045c\u0438": 3213,
  "\u2581\u043a\u0440\u0430\u0442\u043a\u043e": 3214,
  "\u2581\u0434\u0440\u043e\u0433\u0430": 3215,
  "\u2581\u0414\u0435\u0458\u0432\u0438\u0434": 3216,
  "\u2581\u0438\u043c\u0430\u043b\u043e": 3217,
  "\u2581witness": 3218,
  "lo": 3219,
  "\u0442\u0440\u0438": 3220,
  "ha": 3221,
  "\u2581evil": 3222,
  "\u2581\u0421\u0443\u043c": 3223,
  "\u2581hang": 3224,
  "\u2581laws": 3225,
  "\u043f\u0440\u0435": 3226,
  "\u2581\u043b\u0438\u043d\u0438\u0458\u0430": 3227,
  "\u2581ex": 3228,
  "\u2581500": 3229,
  "\u2581daily": 3230,
  "\u2581suffering": 3231,
  "\u2581\u043f\u0440\u0435\u0442\u0441\u0442\u0430\u0432\u043d\u0438\u043a": 3232,
  "\u2581Such": 3233,
  "\u2581\u0433\u0440\u0443\u043f\u0438": 3234,
  "\u2581pray": 3235,
  "\u2581tells": 3236,
  "08": 3237,
  "\u2581Moses": 3238,
  "\u2581\u041d\u0430\u043c\u0435\u0441\u0442\u043e": 3239,
  "\u2581\u0442\u0432\u043e\u0458": 3240,
  "\u2581immediately": 3241,
  "\u2581partner": 3242,
  "\u2581thus": 3243,
  "\u2581\u0441\u0432\u043e\u0438": 3244,
  "\u2581talked": 3245,
  "bl": 3246,
  "\u2581remains": 3247,
  "\u2581followed": 3248,
  "um": 3249,
  "\u2581nearly": 3250,
  "\u2581\u0421\u0430": 3251,
  "\u2581\u0434\u043e\u043a\u0430\u0437": 3252,
  "\u2581fair": 3253,
  "\u2581independence": 3254,
  "\u2581\u0426": 3255,
  "old": 3256,
  "\u2581\u043f\u043e\u043a\u0430\u0436\u0430": 3257,
  "\u2581\u043f\u0440\u0438\u0442\u0438\u0441\u043e\u043a": 3258,
  "\u2581300": 3259,
  "\u0458\u0435": 3260,
  "\u2581Jerusalem": 3261,
  "\u2581closer": 3262,
  "\u2581\u043f\u0440\u0435\u043c\u0438\u0435\u0440\u043e\u0442": 3263,
  "\u0425": 3264,
  "\u2581trip": 3265,
  "\u043b\u0438\u043d": 3266,
  "\u2581command": 3267,
  "\u2581b": 3268,
  "\u2581\u043a\u043e\u043d\u0435\u0447\u043d\u043e": 3269,
  "\u2581\u043f\u043e\u0441\u0442\u043e\u0458\u0430\u0442": 3270,
  "\u041e\u0432\u0430": 3271,
  "\u2581\u0441\u0435\u043a\u0441": 3272,
  "ir": 3273,
  "\u2581\u043e\u0431\u0458\u0430\u0441\u043d\u0443\u0432\u0430": 3274,
  "\u2581\u043f\u0440\u0435\u043a\u0440\u0430\u0441\u043d\u043e": 3275,
  "\u2581worried": 3276,
  "\u2581\u043f\u043e\u0442\u0440\u0435\u0431\u043d\u0430": 3277,
  "\u2581Should": 3278,
  "\u2581\u0438\u0437\u0440\u0430\u0437\u0438": 3279,
  "\u2581\u043d\u0435\u0458\u0437\u0438\u043d\u043e\u0442\u043e": 3280,
  "\u2581\u043d\u043e\u0432\u0430\u0442\u0430": 3281,
  "\u2581\u0440\u0430\u043a\u0430\u0442\u0430": 3282,
  "bo": 3283,
  "\u2581reports": 3284,
  "\u0440\u0438\u0458\u0430": 3285,
  "\u2581\u0438\u0441\u043f\u0440\u0430\u0442\u0438": 3286,
  "\u2581\u043e\u0441\u0442\u0430\u0432\u0430\u043c": 3287,
  "\u2581\u043c\u043e\u0436\u0435\u043b\u0430": 3288,
  "\u041b": 3289,
  "\u2581arrived": 3290,
  "\u2581\u0421\u0440\u0431\u0438": 3291,
  "\u2581thousands": 3292,
  "\u2581bar": 3293,
  "\u2581\u0412\u0435\u0440\u043e\u0458\u0430\u0442\u043d\u043e": 3294,
  "\u2581Larry": 3295,
  "\u2581Mike": 3296,
  "\u2581teaching": 3297,
  "\u2581\u0418\u043c\u0430\u0442\u0435": 3298,
  "\u2581\u0432\u0438\u043a\u0430\u0448": 3299,
  "\u2581\u043a\u0440\u0435\u0432\u0435\u0442": 3300,
  "\u2581computer": 3301,
  "\u258145": 3302,
  "\u2581\u043c\u0430\u043c\u0430": 3303,
  "\u258180": 3304,
  "\u2581society": 3305,
  "\u2581\u0433\u043b\u0430\u0432\u043d\u0438\u043e\u0442": 3306,
  "\u2581concern": 3307,
  "\u2581\u0432\u0438\u0441\u0442\u0438\u043d\u0441\u043a\u0438\u043e\u0442": 3308,
  "\u2581blow": 3309,
  "\u2581Law": 3310,
  "\u0442\u0435\u0440": 3311,
  "\u2581proud": 3312,
  "\u2581provided": 3313,
  "\u2581\u0420\u0443\u0441\u0438\u0458\u0430": 3314,
  "\u2581slow": 3315,
  "\u2581Actually": 3316,
  "\u2581wisdom": 3317,
  "\u2581fly": 3318,
  "\u2581mate": 3319,
  "\u25812006": 3320,
  "\u2581\u043e\u0434\u043b\u0438\u0447\u043d\u043e": 3321,
  "\u2581movie": 3322,
  "\u2581published": 3323,
  "\u2581conference": 3324,
  "\u2581\u0440\u0430\u0441\u0442\u0435": 3325,
  "\u2581France": 3326,
  "06": 3327,
  "\u2581Mark": 3328,
  "\u2581amazing": 3329,
  "\u2581Balkans": 3330,
  "\u258135": 3331,
  "\u2581station": 3332,
  "\u2581\u043d\u0430\u0447\u0438\u043d\u043e\u0442": 3333,
  "\u258111.": 3334,
  "\u2581\u0441\u0440\u0435\u045c\u043d\u0438": 3335,
  "ING": 3336,
  "\u2581protection": 3337,
  "\u0447\u0430": 3338,
  "\u2581Security": 3339,
  "ci": 3340,
  "\u2581Consider": 3341,
  "\u2581\u0422\u0432\u043e\u0458\u043e\u0442": 3342,
  "\u2581\u043d\u0430\u0458\u0434\u0430\u0442": 3343,
  "\u258133": 3344,
  "\u2581\u0432\u0438\u043a\u0430\u043c": 3345,
  "\u2581\u043c\u043e\u0438": 3346,
  "we": 3347,
  "\u2581\u0441\u0442\u0430\u0440": 3348,
  "\u043c\u0438\u043d\u0430": 3349,
  "\u2581cop": 3350,
  "\u2581Holy": 3351,
  "\u2581\u043c\u043e\u0435": 3352,
  "\u0440\u0438\u0441": 3353,
  "\u2581usually": 3354,
  "\u2581_": 3355,
  "\u2581\u0441\u0442\u0440\u0430\u043d\u0438": 3356,
  "\u2581north": 3357,
  "\u2581\u0432\u0430\u0448\u0435\u0442\u043e": 3358,
  "\u2581lack": 3359,
  "\u2581beyond": 3360,
  "\u2581mentioned": 3361,
  "\u0434\u0435\u043b": 3362,
  "\u2581seconds": 3363,
  "\u0442\u0430\u0442\u0430": 3364,
  "\u2581increase": 3365,
  "\u2581\u0411\u043e\u0436\u0438\u045c": 3366,
  "\u2581\u043d\u0438\u043a\u0430\u043a\u0432\u0430": 3367,
  "\u2581\u0436\u0438\u0432\u043e\u0442\u043d\u0438": 3368,
  "\u043d\u043e\u0441\u0442\u0430": 3369,
  "\u2581\u0432\u043e\u0434\u0430\u0442\u0430": 3370,
  "\u2581wake": 3371,
  "\u2581\u043d\u0435\u043c\u0430\u043c\u0435": 3372,
  "\u2581wear": 3373,
  "\u2581\u043e\u0434\u0438\u0442\u0435": 3374,
  "\u2581holding": 3375,
  "\u2581quiet": 3376,
  "\u2581Co": 3377,
  "\u2581reported": 3378,
  "\u2581\u043a\u043e\u043c\u0438\u0441\u0438\u0458\u0430": 3379,
  "\u2581Earth": 3380,
  "\u2581accident": 3381,
  "\u2581trial": 3382,
  "\u041d\u0418": 3383,
  "\u0421\u043e": 3384,
  "\u043b\u0435\u0440": 3385,
  "\u2581religion": 3386,
  "\u2581steps": 3387,
  "\u2581\u043c\u043e\u0436\u0435\u043b\u043e": 3388,
  "\u2581\u043d\u0435\u043a\u0430\u043a\u043e": 3389,
  "\u2581\u043f\u0440\u0432\u0438\u0442\u0435": 3390,
  "\u2581\u0447\u0443\u0432\u0441\u0442\u0432\u043e": 3391,
  "ial": 3392,
  "\u2581Skopje": 3393,
  "\u2581\u043e\u043d\u0430\u0430": 3394,
  "\u2581\u0421\u043a\u043e\u043f\u0458\u0435": 3395,
  "\u2581Love": 3396,
  "\u2581\u043e\u0434\u0431\u0440\u0430\u043d\u0430": 3397,
  "9": 3398,
  "\u2581greater": 3399,
  "\u2581\u043e\u0441\u0442\u0430\u043d\u0430\u043c": 3400,
  "\u2581tired": 3401,
  "\u2581wicked": 3402,
  "\u2581\u0441\u043b\u0443\u0436\u0431\u0430\u0442\u0430": 3403,
  "\u043a\u0438\u0442\u0435": 3404,
  "\u2581\u043f\u043e\u0441\u0435\u0431\u043d\u043e": 3405,
  "\u2581\u0443\u0441\u043f\u0435\u0430": 3406,
  "\u2581birthday": 3407,
  "\u2581\u041c\u0435\u043d\u0435": 3408,
  "\u2581\u0432\u043b\u0430\u0441\u0442\u0438": 3409,
  "\u0437\u043d\u0430": 3410,
  "\u2581groups": 3411,
  "\u2581seat": 3412,
  "\u2581\u0437\u0435\u043c\u0435": 3413,
  "\u2581\u043f\u043b\u0430\u043d\u0438\u0440\u0430": 3414,
  "\u2581\u0441\u043b\u0443\u0448\u043d\u0430\u0432": 3415,
  "\u2581\u0440\u0430\u0437\u0433\u043b\u0435\u0434\u0430\u043c\u0435": 3416,
  "In": 3417,
  "nd": 3418,
  "\u25812011": 3419,
  "\u2581sitting": 3420,
  "\u2581\u043c\u043e\u043b\u0438\u043c\u0435": 3421,
  "\u2581\u0443\u0434\u0430\u0440": 3422,
  "\u2581advice": 3423,
  "\u2581conduct": 3424,
  "\u2581\u043f\u0430\u0440\u0442\u043d\u0435\u0440": 3425,
  "\u2581wall": 3426,
  "\u2581\u0431\u0443": 3427,
  "\u2581\u043c\u043b\u0430\u0434\u0438\u0442\u0435": 3428,
  "\u2581\u043e\u0441\u0442\u0430\u043d\u0435\u0448": 3429,
  "\u2581\u043d\u0435\u0448\u0442\u0430": 3430,
  "\u2581\u0441\u0442\u0440\u0430\u043d\u0438\u0446\u0438": 3431,
  "Yeah": 3432,
  "\u2581\u043d\u0430\u0443\u0447\u0438": 3433,
  "\u2581hundred": 3434,
  "\u2581reforms": 3435,
  "\u2581\u043e\u0431\u0438\u0434\u0435": 3436,
  "if": 3437,
  "\u2581Check": 3438,
  "\u2581\u0434\u043e\u0432\u0435\u0434\u0435": 3439,
  "\u2581\u0440\u0430\u0434\u043e\u0441\u0442": 3440,
  "ga": 3441,
  "\u2581code": 3442,
  "\u2581\u0441\u0435\u043a\u0443\u043d\u0434\u0438": 3443,
  "\u2581reform": 3444,
  "\u2581\u0430\u0432\u0433\u0443\u0441\u0442": 3445,
  "ut": 3446,
  "\u045a\u0430\u0442\u0430": 3447,
  "\u2581ball": 3448,
  "\u2581counsel": 3449,
  "\u2581\u041c\u043e\u0436\u0435\u0442\u0435": 3450,
  "\u2581card": 3451,
  "\u2581\u043f\u0440\u0430\u0448\u0430\u045a\u0435\u0442\u043e": 3452,
  "\u2581finished": 3453,
  "\u2581gentlemen": 3454,
  "\u2581search": 3455,
  "\u2581points": 3456,
  "\u2581economy": 3457,
  "\u2581\u043b\u043e\u0448\u0438": 3458,
  "\u2581\u0432\u0430\u043a\u0432\u0438": 3459,
  "\u2581\u043d\u0430\u0458\u0434\u043e\u0431\u0430\u0440": 3460,
  "\u2581\u043e\u0431\u0438\u0434\u0443\u0432\u0430\u043c": 3461,
  "ca": 3462,
  "\u2581Life": 3463,
  "\u2581High": 3464,
  "\u041d": 3465,
  "\u2581m": 3466,
  "\u2581\u0412\u0440\u0430\u0442\u0438": 3467,
  "\u2581Isaiah": 3468,
  "\u2581\u043a\u0440\u0438\u043c\u0438\u043d\u0430\u043b": 3469,
  "\u2581\u0437\u043d\u0430\u0435\u043b": 3470,
  "\u2581\u043f\u043e\u0437\u0430\u0434\u0438": 3471,
  "\u2581thousand": 3472,
  "\u0440\u0430\u0437": 3473,
  "\u2581condition": 3474,
  "\u2581\u0432\u0440\u0435\u043c\u0438\u045a\u0430": 3475,
  "\u2581\u0434\u043e\u0458\u0434\u0430\u0442": 3476,
  "\u2581Germany": 3477,
  "\u2581September": 3478,
  "\u2581stick": 3479,
  "\u2581\u0415\u0440\u0443\u0441\u0430\u043b\u0438\u043c": 3480,
  "\u2581\u0433\u043b\u0430\u0432\u0435\u043d": 3481,
  "\u2581\u041a\u0430": 3482,
  "\u2581\u041d\u0430\u043f\u0440\u0430\u0432\u0438": 3483,
  "\u2581\u0441\u043b\u0435\u0434\u0438": 3484,
  "\u258190": 3485,
  "\u2581create": 3486,
  "\u2581ya": 3487,
  "\u2581\u043c\u0435\u0440\u043a\u0438": 3488,
  "im": 3489,
  "\u2581\u041e\u0441\u0442\u0430\u043d\u0438": 3490,
  "\u2581\u043a\u043d\u0438\u0433\u0438": 3491,
  "ov": 3492,
  "\u2581Le": 3493,
  "ho": 3494,
  "\u2581mad": 3495,
  "\u2581putting": 3496,
  "\u2581\u0441\u043e\u0431\u0430\u0442\u0430": 3497,
  "\u2581\u043d\u0438\u043a\u043e\u0433\u043e": 3498,
  "\u2581serving": 3499,
  "\u041e\u0422": 3500,
  "\u2581Big": 3501,
  "\u2581Harry": 3502,
  "\u2581nine": 3503,
  "\u2581\u043f\u043e\u0433\u043e\u043b\u0435\u043c": 3504,
  "\u2581opening": 3505,
  "\u0438\u043b": 3506,
  "\u2581Commission": 3507,
  "\u2581draw": 3508,
  "\u2581difference": 3509,
  "\u2581principles": 3510,
  "\u2581\u0434\u043e\u0431\u0438\u0458\u0430\u043c": 3511,
  "\u2581race": 3512,
  "\u2581\u0412\u043b\u0430\u0434\u0430\u0442\u0430": 3513,
  "\u2581recently": 3514,
  "\u2581Out": 3515,
  "\u2581\u0433\u043e\u0432\u043e\u0440": 3516,
  "\u2581reasons": 3517,
  "\u258112:": 3518,
  "\u2581path": 3519,
  "\u0440\u0430\u043d": 3520,
  "\u2581capital": 3521,
  "\u2581\u043f\u0440\u0435\u0441": 3522,
  "\u043a\u0440\u0430\u0458": 3523,
  "\u2581measures": 3524,
  "\u2581\u0417\u043d\u0430\u0435\u0432": 3525,
  "\u2581\u043e\u0431\u043b\u0435\u043a\u0430": 3526,
  "\u2581keeping": 3527,
  "\u2581site": 3528,
  "\u2581\u0414\u0440\u0436\u0438": 3529,
  "\u2581\u0437\u0430\u0440": 3530,
  "\u2581\u043d\u0430\u043f\u043e\u0440\u0438": 3531,
  "\u2581starting": 3532,
  "\u2581\u043e\u0434\u043b\u0443\u043a\u0438": 3533,
  "\u2581\u0440\u0435\u0448\u0438": 3534,
  "\u2581parts": 3535,
  "\u2581November": 3536,
  "\u2581speech": 3537,
  "\u2581\u043e\u0447\u0438\u0433\u043b\u0435\u0434\u043d\u043e": 3538,
  "\u2581\u0443\u043b\u0438\u0446\u0430": 3539,
  "\u2581totally": 3540,
  "\u2581\u0438\u043d\u0442\u0435\u0440\u0435\u0441\u0438\u0440\u0430": 3541,
  "\u2581nature": 3542,
  "\u2581older": 3543,
  "\u2581\u040f\u043e\u0440\u045f": 3544,
  "\u2581\u0434\u043e\u0431\u0438\u0435\u0448": 3545,
  "\u2581medical": 3546,
  "\u2581\u0438\u043d\u0442\u0435\u0440\u043d\u0435\u0442": 3547,
  "\u2581\u0448\u0435\u0444": 3548,
  "\u258114.": 3549,
  "\u2581animals": 3550,
  "\u2581fix": 3551,
  "\u2581\u043f\u0440\u043e\u0433\u0440\u0430\u043c\u0430": 3552,
  "10": 3553,
  "rd": 3554,
  "\u2581Daniel": 3555,
  "\u2581song": 3556,
  "\u2581Proverbs": 3557,
  "land": 3558,
  "\u0438\u0440\u0430": 3559,
  "\u2581campaign": 3560,
  "\u2581foot": 3561,
  "\u2581material": 3562,
  "\u2581\u0432\u043d\u0438\u043c\u0430\u0442\u0435\u043b\u043d\u043e": 3563,
  "\u045c\u0435": 3564,
  "\u2581reached": 3565,
  "ina": 3566,
  "\u043d\u043a\u0430": 3567,
  "\u2581\u0441\u0435\u0441\u0442\u0440\u0438": 3568,
  "\u2581data": 3569,
  "\u2581\u043a\u0430\u043d\u0446\u0435\u043b\u0430\u0440\u0438\u0458\u0430": 3570,
  "\u2581attitude": 3571,
  "\u2581\u0425\u043e": 3572,
  "ma": 3573,
  "\u2581operation": 3574,
  "\u2581\u0438\u0441\u043a\u0443\u0441\u0442\u0432\u043e": 3575,
  "\u2581\u0430\u043a\u0442\u0438\u0432\u043d\u043e\u0441\u0442\u0438": 3576,
  "\u2581truck": 3577,
  "\u2581\u043d\u0430\u0442\u0435\u0440\u0430": 3578,
  "/03/": 3579,
  "\u2581neither": 3580,
  "\u2581t": 3581,
  "\u2581\u0436\u0440\u0442\u0432\u0438": 3582,
  "\u2581\u0447\u0435\u043a\u0430\u043c": 3583,
  "\u2581companies": 3584,
  "\u2581research": 3585,
  "\u2581\u0434\u043e\u043a\u0430\u0437\u0438": 3586,
  "\u2581\u0433\u0440\u0438\u0436\u0430": 3587,
  "\u2581\u0447\u0435\u0442\u0432\u0440\u0442\u043e\u043a\u043e\u0442": 3588,
  "\u2581\u043d\u0430\u043f\u0440\u0435\u0434\u043e\u043a": 3589,
  "\u2581ring": 3590,
  "\u2581\u0434\u0435\u0447\u043a\u043e": 3591,
  "ak": 3592,
  "\u25815,": 3593,
  "\u2581El": 3594,
  "\u2581Sit": 3595,
  "\u2581missed": 3596,
  "\u2581\u043b\u0430": 3597,
  "\u2581\u043f\u043b\u0430\u0442\u0438": 3598,
  "\u2581\u0431\u0440\u043e\u0434\u043e\u0442": 3599,
  "\u2581\u0433\u0430\u0441": 3600,
  "\u2581Name": 3601,
  "\u2581Ask": 3602,
  "\u2581Z": 3603,
  "\u2581\u0440\u0430\u0437\u0433\u043e\u0432\u0430\u0440\u0430\u043c": 3604,
  "\u2581practice": 3605,
  "\u2581\u0443\u0431\u0438\u043b": 3606,
  "\u2581families": 3607,
  "\u258117.": 3608,
  "\u2581store": 3609,
  "\u2581travel": 3610,
  "\u2581pro": 3611,
  "\u2581\u0437": 3612,
  "\u2581arrested": 3613,
  "\u2581battle": 3614,
  "\u2581\u0420\u0430\u0437\u0431\u0438\u0440\u0430\u043c": 3615,
  "\u2581German": 3616,
  "\u2581surprise": 3617,
  "ry": 3618,
  "\u2581\u0443\u0431\u0438\u0458\u0430\u0442": 3619,
  "\u0443\u0432\u0430\u043c": 3620,
  "\u0447\u0438\u045a\u0430": 3621,
  "\u2581authority": 3622,
  "\u2581clothes": 3623,
  "\u2581\u0421\u043e\u0432\u0435\u0442\u043e\u0442": 3624,
  "\u2581\u043c\u0438\u043b\u043e": 3625,
  "\u2581Joe": 3626,
  "\u2581Red": 3627,
  "\u2581meaning": 3628,
  "\u2581\u043f\u0440\u0438\u043b\u0438\u0447\u043d\u043e": 3629,
  "\u2581individuals": 3630,
  "\u2581listening": 3631,
  "\u2581solution": 3632,
  "\u2581\u043a\u0430\u0437\u043d\u0430": 3633,
  "\u041d\u043e": 3634,
  "\u2581\u041c\u043e\u0438\u0442\u0435": 3635,
  "\u2581\u043b\u0443\u0434": 3636,
  "\u2581\u043f\u043e\u0434\u043e\u0431\u0430\u0440": 3637,
  "\u2581wine": 3638,
  "\u2581\u043e\u0434\u043d\u0435\u0441\u0443\u0432\u0430\u045a\u0435": 3639,
  "\u2581\u0432\u0440\u0430\u045c\u0430": 3640,
  "\u2581\u043d\u0430\u043c\u0430\u043b\u0438": 3641,
  "\u2581Black": 3642,
  "\u2581\u043f\u043e\u0437\u043d\u0430\u0432\u0430\u043c": 3643,
  "\u2581\u0441\u043b\u0438\u0447\u043d\u043e": 3644,
  "\u2581\u0418\u0437\u0440\u0430\u0435\u043b\u0446\u0438\u0442\u0435": 3645,
  "\u0434\u0443": 3646,
  "\u0438\u043d\u0430": 3647,
  "\u2581\u0432\u0440\u0435\u0434\u043d\u043e\u0441\u0442": 3648,
  "\u2581\u0443\u0441\u043b\u0443\u0433\u0430": 3649,
  "\u2581\u25aa": 3650,
  "ful": 3651,
  "\u2581\u0432\u0435\u043b\u0438\u0448": 3652,
  "\u2581\u0432\u0438\u0434\u0438\u0442\u0435": 3653,
  "\u2581\u0434\u043e\u0431\u0438\u0458\u0430\u0442": 3654,
  "\u2581none": 3655,
  "\u2581village": 3656,
  "ce": 3657,
  "\u2581destroy": 3658,
  "\u2581offered": 3659,
  "\u2581Max": 3660,
  "\u2581Mm": 3661,
  "\u2581Read": 3662,
  "\u2581physical": 3663,
  "\u2581\u043c\u0438\u043d\u0443\u0442\u0430": 3664,
  "\u2581\u043f\u0440\u0438\u043b\u0438\u043a\u0430": 3665,
  "\u2581\u0431\u043e\u043b\u043d\u0438\u0446\u0430": 3666,
  "\u2581\u0441\u0432\u043e\u0458\u0430": 3667,
  "\u2581bought": 3668,
  "\u2581decide": 3669,
  "\u2581board": 3670,
  "\u2581raised": 3671,
  "\u2581\u043b\u043e\u0448": 3672,
  "\u2581Sometimes": 3673,
  "\u2581bear": 3674,
  "\u2581bomb": 3675,
  "\u2581\u043e\u0441\u0442\u0430\u043d\u0435\u043c\u0435": 3676,
  "\u2581\u0440\u0435\u043a\u043e\u0430": 3677,
  "men": 3678,
  "\u043d\u0438\u0458\u0430": 3679,
  "\u2581Looks": 3680,
  "\u2581Huh": 3681,
  "\u2581\u0443\u0441\u043f\u0435\u0435": 3682,
  "\u0431\u0435\u0440": 3683,
  "\u2581election": 3684,
  "\u2581Athens": 3685,
  "\u2581cross": 3686,
  "\u0442\u0443": 3687,
  "\u2581ruling": 3688,
  "ex": 3689,
  "\u2581\u0434\u043e\u0458\u0434\u0438": 3690,
  "\u2581\u0441\u0440\u0435\u0434\u0438\u043d\u0430": 3691,
  "\u2581hide": 3692,
  "\u2581smart": 3693,
  "\u2581\u0438\u0437\u0433\u0443\u0431\u0438": 3694,
  "\u2581Serbs": 3695,
  "\u2581\u0424": 3696,
  "\u2581\u0436\u0440\u0442\u0432\u0430": 3697,
  "\u2581\u0441\u043c\u0435\u0435": 3698,
  "ted": 3699,
  "\u2581impossible": 3700,
  "\u25814,": 3701,
  "ah": 3702,
  "\u2581answers": 3703,
  "\u2581\u0434\u0430\u0432\u0430\u0430\u0442": 3704,
  "\u2581Mother": 3705,
  "\u2581\u0408\u043e\u0432\u0430\u043d": 3706,
  "\u2581\u041f\u043e\u043b\u0435\u043a\u0430": 3707,
  "\u2581Alex": 3708,
  "\u2581drug": 3709,
  "\u2581\u0432\u0447\u0435\u0440\u0430": 3710,
  "\u2581\u043f\u043e\u0431\u0440\u0437\u043e": 3711,
  "rs": 3712,
  "\u2581growth": 3713,
  "\u2581weapon": 3714,
  "\u0440\u0435\u043d": 3715,
  "\u2581\u041f\u043e\u0447\u0435\u043a\u0430\u0458": 3716,
  "\u2581\u0431\u043e\u043b\u043a\u0430": 3717,
  "\u2581\u0436\u0438\u0432\u043e\u0442\u0438": 3718,
  "of": 3719,
  "\u2581August": 3720,
  "\u2581understanding": 3721,
  "\u2581\u043d\u0438\u043a\u0430\u0434\u0435": 3722,
  "\u2581\u043f\u043e\u0441\u043b\u0435\u0434\u043d\u0438\u043e\u0442": 3723,
  "\u0441\u0442\u0432\u043e\u0442\u043e": 3724,
  "\u2581\u0415\u0442\u0435": 3725,
  "\u2581\u0428\u0422\u041e": 3726,
  "\u2581believed": 3727,
  "\u2581\u0420\u0435\u043f\u0443\u0431\u043b\u0438\u043a\u0430": 3728,
  "\u2581\u0438\u0441\u0442\u043e\u0440\u0438\u0458\u0430\u0442\u0430": 3729,
  "\u2581\u0441\u043e\u0441\u0442\u0430\u043d\u043e\u0446\u0438": 3730,
  "\u2581\u0447\u0443\u0432\u0430": 3731,
  "\u2581ability": 3732,
  "\u2581global": 3733,
  "\u2581\u0436\u0438\u0432\u0435\u0430\u043c": 3734,
  "\u2581\u043f\u0430\u0440": 3735,
  "ating": 3736,
  "\u2581Bill": 3737,
  "\u2581\u0432\u0430\u0436\u043d\u0438": 3738,
  "\u2581\u0435\u043a\u043e\u043d\u043e\u043c\u0441\u043a\u0438": 3739,
  "\u2581\u043d\u0435\u0432\u043e\u043b\u0458\u0430": 3740,
  "\u043e\u0432\u0430": 3741,
  "\u2581huge": 3742,
  "\u2581\u043d\u0435\u0434\u0435\u043b\u0430\u0442\u0430": 3743,
  "ni": 3744,
  "\u2581Sarajevo": 3745,
  "\u2581blue": 3746,
  "\u2581conflict": 3747,
  "\u0437\u0435": 3748,
  "\u2581planet": 3749,
  "\u2581wearing": 3750,
  "\u2581\u0438\u0441\u0442\u0430\u043a\u043d\u0430": 3751,
  "\u2581\u0437\u0430\u0432\u0438\u0441\u0438": 3752,
  "\u2581program": 3753,
  "\u2581\u041e\u0447\u0438\u0433\u043b\u0435\u0434\u043d\u043e": 3754,
  "\u2581\u043e\u0431": 3755,
  "\u2581\u043f\u0430\u0440\u0442\u0438\u0438": 3756,
  "\u043d\u0441\u043a\u0438": 3757,
  "\u25813.": 3758,
  "\u2581clearly": 3759,
  "\u2581\u0441\u043a\u043b\u0430\u0434": 3760,
  "\u2581various": 3761,
  "\u2581\u043a\u0430\u0436\u0435\u043c\u0435": 3762,
  "\u2581\u043d\u0430\u0447\u0438\u043d\u0438": 3763,
  "\u0434\u0430\u043c": 3764,
  "\u2581\u0432\u0430\u0436\u043d\u0430": 3765,
  "\u2581\u043a\u0443\u043f\u0438": 3766,
  "\u2581\u043f\u043e\u043a\u0430\u0436\u0435": 3767,
  "\u2581\u043a\u043e\u043d\u0442\u0430\u043a\u0442": 3768,
  "\u2581\u0441\u043f\u0440\u0435\u0447\u0438": 3769,
  "\u2581\u043b\u043e\u043a\u0430\u043b\u043d\u0438\u0442\u0435": 3770,
  "\u2581subject": 3771,
  "\u2581X": 3772,
  "\u2581\u041d\u0438\u043a": 3773,
  "\u2581\u043f\u0430\u0440\u043b\u0430\u043c\u0435\u043d\u0442\u043e\u0442": 3774,
  "\u2581\u043f\u0438\u0448\u0442\u043e\u043b": 3775,
  "\u2581Roman": 3776,
  "\u2581decisions": 3777,
  "\u2581dude": 3778,
  "\u2581feels": 3779,
  "\u2581\u0442\u043e\u0447\u043a\u0430": 3780,
  "\u2581pleasure": 3781,
  "\u2581construction": 3782,
  "\u2581\u00b7": 3783,
  "\u043f\u0435\u0440": 3784,
  "\u2581Balkan": 3785,
  "\u2581count": 3786,
  "\u2581\u0437\u0435\u043c\u0435\u043c\u0435": 3787,
  "\u2581happiness": 3788,
  "\u2581invited": 3789,
  "\u2581Bosnian": 3790,
  "\u2581\u0432\u0435\u0440\u0443\u0432\u0430\u0430\u0442": 3791,
  "\u2581\u041f\u043e\u043c\u043e\u0448": 3792,
  "\u2581\u043f\u0440\u043e\u0434\u043e\u043b\u0436\u0438\u043c\u0435": 3793,
  "\u2581\u043f\u0443\u0448\u0442\u0438": 3794,
  "\u2581closed": 3795,
  "\u2581Job": 3796,
  "\u2581temple": 3797,
  "\u2581\u043c\u043b\u0430\u0434": 3798,
  "\u2581Has": 3799,
  "\u2581\u0417\u0430\u0441\u0442\u0430\u043d\u0438": 3800,
  "ari": 3801,
  "\u0414\u0430\u043b\u0438": 3802,
  "\u2581accession": 3803,
  "/05/": 3804,
  "\u2581terrible": 3805,
  "\u2581integration": 3806,
  "\u2581\u0438\u043d\u0442\u0435\u0440\u0435\u0441": 3807,
  "\u258113.": 3808,
  "\u2581direction": 3809,
  "\u2581\u0432\u0430\u043c\u0443": 3810,
  "\u2581amount": 3811,
  "\u25aa": 3812,
  "\u25816,": 3813,
  "\u2581Cyprus": 3814,
  "\u2581\u0441\u0430\u043c\u0438": 3815,
  "\u2581Run": 3816,
  "\u2581interesting": 3817,
  "\u2581confidence": 3818,
  "\u2581sacrifice": 3819,
  "\u2581\u0442\u0432\u043e\u0435": 3820,
  "\u2581\u0444\u0443\u043d\u043a\u0446\u0438\u043e\u043d\u0438\u0440\u0430": 3821,
  "\u041e\u0434": 3822,
  "\u2581budget": 3823,
  "\u2581smell": 3824,
  "\u2581\u0434\u043e\u0431\u0438\u0432": 3825,
  "\u2581Bring": 3826,
  "\u2581sons": 3827,
  "\u2581Under": 3828,
  "\u2581\u0438\u0437\u0431\u043e\u0440\u0438\u0442\u0435": 3829,
  "\u0434\u0430\u0440": 3830,
  "\u2581birth": 3831,
  "\u2581described": 3832,
  "\u043b\u0438\u0432": 3833,
  "\u043c\u0438\u043d": 3834,
  "\u2581\u0408\u0435\u0445\u043e\u0432\u0438\u043d\u0430\u0442\u0430": 3835,
  "\u2581\u0431\u0430": 3836,
  "\u2581Hurry": 3837,
  "\u2581Try": 3838,
  "\u2581explained": 3839,
  "\u2581\u043e\u043f": 3840,
  "\u0447\u043d\u0430": 3841,
  "\u2581continued": 3842,
  "\u2581prime": 3843,
  "\u2581Agent": 3844,
  "\u2581environment": 3845,
  "\u2581\u0413\u0435\u0440\u043c\u0430\u043d\u0438\u0458\u0430": 3846,
  "\u2581\u0434\u043e\u043b\u0433": 3847,
  "\u2581\u0448\u0435\u0444\u043e\u0442": 3848,
  "\u2581served": 3849,
  "\u2581\u0434\u0430\u0434\u0435\u0448": 3850,
  "\u2581seek": 3851,
  "\u2581\u0411\u043e\u0436\u0458\u0438\u0442\u0435": 3852,
  "\u2581\u043f\u043e\u043c\u0438\u043d\u0435": 3853,
  "\u2581\u0447\u043b\u0435\u043d\u0441\u0442\u0432\u043e": 3854,
  "\u2581cops": 3855,
  "\u2581\u0441\u043f\u0440\u0435\u043c\u0435\u043d": 3856,
  "\u2581\u0444\u0430\u0442\u0438": 3857,
  "\u2581\u0432\u043b\u0430\u0434\u0435\u0435": 3858,
  "\u2581greatest": 3859,
  "\u2581potential": 3860,
  "\u2581regarding": 3861,
  "\u2581regional": 3862,
  "\u2581\u0447\u0435\u043a\u043e\u0440\u0438": 3863,
  "\u2581art": 3864,
  "\u2581ice": 3865,
  "\u2581\u0421\u041e": 3866,
  "\u2581\u0427\u0435": 3867,
  "mo": 3868,
  "\u2581success": 3869,
  "\u2581\u043a\u043e\u043b\u043d\u0430\u043c": 3870,
  "\u2581\u043c\u0438\u0441\u043b\u0435\u045a\u0435": 3871,
  "\u0447\u0443": 3872,
  "\u2581\u041e\u0434\u0430\u043c": 3873,
  "\u2581bringing": 3874,
  "\u2581escape": 3875,
  "\u2581\u0434\u043e\u0431\u0438\u0432\u0430": 3876,
  "\u2581ha": 3877,
  "\u2581\u0438\u043b\u0458\u0430\u0434\u043d\u0438\u0446\u0438": 3878,
  "\u2581East": 3879,
  "\u2581Isn": 3880,
  "\u2581copy": 3881,
  "\u2581prepared": 3882,
  "\u2581broken": 3883,
  "\u2581\u0441\u043b\u0443\u0448\u0430\u0458": 3884,
  "ated": 3885,
  "\u2581seriously": 3886,
  "\u2581\u0447\u0443\u0434\u043e": 3887,
  "\u2581\u043d\u0430\u0441\u0435\u043a\u0430\u0434\u0435": 3888,
  "\u2581circumstances": 3889,
  "\u2581Abraham": 3890,
  "\u2581\u041b\u0443": 3891,
  "\u2581Mar": 3892,
  "\u2581\u043a\u0440\u0438\u0437\u0430": 3893,
  "\u2581\u041a\u0438\u043f\u0430\u0440": 3894,
  "\u2581enemy": 3895,
  "\u2581returned": 3896,
  "\u2581\u043e\u0434\u043b\u0443\u0447\u0438": 3897,
  "\u2581honest": 3898,
  "\u0440\u043e\u0442": 3899,
  "\u2581numbers": 3900,
  "\u2581\u041f\u0440\u0435\u043c\u043d\u043e\u0433\u0443": 3901,
  "\u2581\u0441\u0438\u0433\u0443\u0440\u043d\u0438": 3902,
  "\u2581\u0446\u0440\u043a\u0432\u0430": 3903,
  "\u0440\u0442": 3904,
  "\u2581\u0412\u043d\u0438\u043c\u0430\u0432\u0430\u0458": 3905,
  "\u2581\u0421\u0430\u043a\u0430\u0442\u0435": 3906,
  "\u2581\u0432\u0430\u0436\u0435\u043d": 3907,
  "\u043b\u0430\u0442\u0430": 3908,
  "\u2581size": 3909,
  "\u2581track": 3910,
  "\u2581summer": 3911,
  "\u2581\u043c\u0435\u043d\u0443\u0432\u0430": 3912,
  "\u258110.": 3913,
  "\u2581joint": 3914,
  "\u2581rate": 3915,
  "\u2581\u041c\u0438\u043d\u0438\u0441\u0442\u0435\u0440\u0441\u0442\u0432\u043e\u0442\u043e": 3916,
  "\u2581\u0441\u0438\u0433\u0443\u0440\u043d\u0430": 3917,
  "\u043d\u0443\u0432\u0430": 3918,
  "\u2581\u0438\u0437\u0458\u0430\u0432\u0430": 3919,
  "\u2581regular": 3920,
  "\u2581scene": 3921,
  "\u2581\u043f\u043e\u043d\u0443\u0434\u0438": 3922,
  "\u2581\u0438\u043d\u0441\u0442\u0438\u0442\u0443\u0446\u0438\u0438": 3923,
  "\u2581\u0438\u043b\u0458\u0430\u0434\u0438": 3924,
  "\u2581unless": 3925,
  "\u2581\u0421\u043b\u0443\u0448\u043d\u0430\u0432": 3926,
  "\u2581\u0435\u0432\u0435": 3927,
  "\u2581\u043c\u0438\u043d\u0438\u0441\u0442\u0435\u0440\u043e\u0442": 3928,
  "\u2581showing": 3929,
  "\u2581\u0432\u043b\u0430\u0441\u0442": 3930,
  "\u2581\u043f\u043e\u0437\u0438\u0446\u0438\u0458\u0430": 3931,
  "\u2581\u0420\u0435\u0447": 3932,
  "\u2581\u0443\u0431\u0438\u0441\u0442\u0432\u043e": 3933,
  "\u2581\u0434\u0438": 3934,
  "\u2581\u043f\u0440\u0438\u0444\u0430\u0442\u0438": 3935,
  "\u2581kingdom": 3936,
  "\u0421\u0430\u043c\u043e": 3937,
  "\u2581destroyed": 3938,
  "\u2581\u0432\u043b\u0435\u0437": 3939,
  "\u2581aware": 3940,
  "\u2581\u0410\u043b\u0435\u043a\u0441": 3941,
  "\u2581\u0437\u0430\u043f\u043e\u0447\u043d\u0435": 3942,
  "\u2581influence": 3943,
  "\u2581\u0436\u0438\u0432\u0435\u0435\u0448": 3944,
  "\u2581\u0438\u0437\u0433\u043b\u0435\u0434\u0430\u0448": 3945,
  "\u258137": 3946,
  "\u2581\u0441\u043b\u0435\u0434\u0430\u0442": 3947,
  "\u2581Next": 3948,
  "\u2581Ok": 3949,
  "\u2581property": 3950,
  "\u2581\u0410\u0444\u0440\u0438\u043a\u0430": 3951,
  "does": 3952,
  "\u041a\u0410": 3953,
  "\u25817:": 3954,
  "\u2581fuckin": 3955,
  "\u2581gain": 3956,
  "\u2581quoted": 3957,
  "\u25812001": 3958,
  "com": 3959,
  "\u2581Democratic": 3960,
  "\u2581West": 3961,
  "\u2581yesterday": 3962,
  "ge": 3963,
  "\u2581develop": 3964,
  "\u2581\u043f\u043e\u043c\u043e\u0433\u043d\u0430": 3965,
  "\u2581\u043f\u043e\u0442\u043f\u043e\u043b\u043d\u043e": 3966,
  "\u2581\u0434\u0435\u0432\u043e\u0458\u0447\u0435": 3967,
  "\u2581February": 3968,
  "\u2581\u0410\u0440": 3969,
  "\u2581\u0432\u043e\u0437\u0440\u0430\u0441\u0442": 3970,
  "\u2581master": 3971,
  "\u2581soldiers": 3972,
  "\u258110:": 3973,
  "\u2581f": 3974,
  "\u2581seemed": 3975,
  "\u2581\u0438\u0441\u0442\u043e\u0440\u0438\u0458\u0430": 3976,
  "\u2581\u043f\u0440\u0430\u0448\u0443\u0432\u0430\u043c": 3977,
  "\u2581Israelites": 3978,
  "\u2581Western": 3979,
  "\u2581enter": 3980,
  "\u2581thoughts": 3981,
  "\u2581\u0441\u043b\u0443\u0448\u043d\u0430": 3982,
  "ph": 3983,
  "\u2581ethnic": 3984,
  "\u2581\u0434\u0440\u0443\u0433\u0438\u043e\u0442": 3985,
  "\u2581\u041c\u043e\u0458\u0441\u0435\u0458": 3986,
  "\u2581\u043e\u0431\u0458\u0430\u0441\u043d\u0438": 3987,
  "\u0431\u0443": 3988,
  "\u2581Day": 3989,
  "\u2581dying": 3990,
  "\u2581\u0422\u043e\u043d\u0438": 3991,
  "\u2581\u0415\u0434\u043d\u043e": 3992,
  "\u0422\u0410": 3993,
  "\u2581\u043c\u0435\u0434\u0438\u0443\u043c\u0438": 3994,
  "\u2581term": 3995,
  "\u2581\u0431\u0430\u0440\u0430\u0448": 3996,
  "\u0438\u0448": 3997,
  "\u2581\u041f\u0438\u0442\u0435\u0440": 3998,
  "\u2581\u0441\u0440\u0435\u0434\u0441\u0442\u0432\u0430": 3999,
  "\u2581response": 4000,
  "\u2581\u0441\u043e\u043f\u0440\u0443\u0433\u0430": 4001,
  "\u2581girlfriend": 4002,
  "\u2581Thus": 4003,
  "\u2581goddamn": 4004,
  "\u2581Saturday": 4005,
  "\u2581becoming": 4006,
  "\u2581Anything": 4007,
  "\u2581loves": 4008,
  "\u2581\u0418\u043c\u0430\u0432": 4009,
  "\u2581\u041f\u0438": 4010,
  "\u043a\u0430\u043a\u043e\u0432": 4011,
  "\u0442\u0440\u0430": 4012,
  "\u2581caused": 4013,
  "\u2581\u0442\u0438\u043f\u043e\u0442": 4014,
  "line": 4015,
  "\u0442\u043e\u043d": 4016,
  "\u2581\u0431\u0435\u0441": 4017,
  "\u2581\u0432\u043b\u0430\u0441\u0442\u0438\u0442\u0435": 4018,
  "\u2581\u0441\u0430": 4019,
  "\u2581\u043f\u0430\u0437\u0430\u0440": 4020,
  "\u2581film": 4021,
  "\u2581\u043e\u0434\u0433\u043e\u0432\u043e\u0440\u043d\u043e\u0441\u0442": 4022,
  "\u2581\u043f\u043e\u0432\u0440\u0435\u0434\u0438": 4023,
  "/12": 4024,
  "\u2581target": 4025,
  "\u2581\u043e\u0441\u043b\u043e\u0431\u043e\u0434\u0438": 4026,
  "\u2581\u043f\u043e\u043b\u0438\u0446\u0430\u0435\u0446": 4027,
  "\u2581wind": 4028,
  "\u2581\u043b\u043e\u0448\u0430": 4029,
  "\u2581\u043b\u0443": 4030,
  "\u2581\u043d\u0430\u0441\u0438\u043b\u0441\u0442\u0432\u043e": 4031,
  "\u2581Jews": 4032,
  "\u2581danger": 4033,
  "\u2581\u0421\u0430\u043d": 4034,
  "\u2581\u0434\u0443\u0445\u043e\u0432\u043d\u043e": 4035,
  "\u2581green": 4036,
  "\u2581officer": 4037,
  "\u2581modern": 4038,
  "\u2581\u0431\u0435\u0431\u0435": 4039,
  "\u258111:": 4040,
  "\u2581plant": 4041,
  "\u2581\u0411\u0430\u0440\u0435\u043c": 4042,
  "\u2581\u0432\u0438\u0441\u043e\u043a\u043e": 4043,
  "\u2581\u043d\u0430\u043e\u043a\u043e\u043b\u0443": 4044,
  "\u2581Matt": 4045,
  "\u2581credit": 4046,
  "\u2581\u043e\u0441\u0442\u0430\u043d\u0430\u0442\u0438\u0442\u0435": 4047,
  "That": 4048,
  "ass": 4049,
  "\u2581North": 4050,
  "\u2581\u040a\u0443\u0458\u043e\u0440\u043a": 4051,
  "\u2581\u043f\u043e\u0437\u043d\u0430\u0442": 4052,
  "\u0417\u0434\u0440\u0430\u0432\u043e": 4053,
  "\u2581criminal": 4054,
  "\u2581worst": 4055,
  "\u2581\u0415\u0434\u043d\u043e\u0441\u0442\u0430\u0432\u043d\u043e": 4056,
  "\u2581\u0431\u0430\u0440\u0430\u043c\u0435": 4057,
  "\u2581\u0434\u0435\u0432\u043e\u0458\u043a\u0430\u0442\u0430": 4058,
  "\u2581\u0434\u0443\u0448\u0430": 4059,
  "\u2581\u0442\u0435\u0448\u043a\u0438": 4060,
  "\u2581actions": 4061,
  "\u0422\u0435": 4062,
  "\u2581\u0432\u0438\u0434\u0435\u043e": 4063,
  "\u2581image": 4064,
  "\u2581\u041f\u0435\u0442": 4065,
  "\u2581\u0434\u043e\u0458\u0434\u043e\u0432": 4066,
  "\u041d\u0438\u0435": 4067,
  "\u2581survive": 4068,
  "\u2581\u0432\u0435\u0440\u0430\u0442\u0430": 4069,
  "\u2581\u0432\u0440\u0435\u0434\u0438": 4070,
  "\u2581\u043f\u043e\u0434\u0433\u043e\u0442\u0432\u0435\u043d": 4071,
  "\u2581\u0445\u0440\u0432\u0430\u0442\u0441\u043a\u0438": 4072,
  "\u2581bodies": 4073,
  "\u2581\u0434\u043e\u043a\u0442\u043e\u0440": 4074,
  "\u2581\u0441\u0432\u0435\u0442\u0441\u043a\u0430": 4075,
  "\u2581\u0411\u0430": 4076,
  "\u2581Hmm": 4077,
  "\u2581hungry": 4078,
  "\u2581\u043d\u0430\u0440\u0435\u043a\u0443\u0432\u0430": 4079,
  "\u2581\u0440\u043e\u043a": 4080,
  "\u0431\u0440\u0430": 4081,
  "\u2581slave": 4082,
  "\u2581\u0431\u043e\u043b\u0438": 4083,
  "\u25810": 4084,
  "\u25818,": 4085,
  "\u2581Ka": 4086,
  "\u2581quit": 4087,
  "\u2581\u043f\u0440\u0435\u0434\u0432\u0438\u0434": 4088,
  "\u041a\u043e\u0458": 4089,
  "\u2581\u043f\u043e\u0438\u043c": 4090,
  "\u0430\u0440": 4091,
  "\u2581\u0421\u0430\u043a\u0430": 4092,
  "\u2581\u043f\u0440\u043e\u0434\u043e\u043b\u0436\u0443\u0432\u0430": 4093,
  "/06/": 4094,
  "\u0431\u043b\u0438": 4095,
  "\u2581\u040a\u0443": 4096,
  "\u2581Somebody": 4097,
  "\u2581Internet": 4098,
  "\u2581\u0430\u0432\u0442\u043e\u043c\u043e\u0431\u0438\u043b": 4099,
  "\u2581\u043e\u0434\u043c\u043e\u0440": 4100,
  "05": 4101,
  "\u0440\u043a\u0430": 4102,
  "\u2581dress": 4103,
  "\u2581Chinese": 4104,
  "\u2581director": 4105,
  "\u2581maintain": 4106,
  "\u2581population": 4107,
  "\u2581\u041e\u0442\u0432\u043e\u0440\u0438": 4108,
  "\u2581\u0440\u0435\u0437\u0443\u043b\u0442\u0430\u0442\u0438": 4109,
  "\u2581Timothy": 4110,
  "\u2581\u041b\u0435\u043b\u0435": 4111,
  "\u2581forgot": 4112,
  "\u2581science": 4113,
  "\u2581\u0424\u0440\u0430\u043d\u0446\u0438\u0458\u0430": 4114,
  "\u2581eating": 4115,
  "If": 4116,
  "\u0446\u0438\u0458\u0430\u0442\u0430": 4117,
  "\u2581Honey": 4118,
  "\u2581angry": 4119,
  "\u2581challenge": 4120,
  "\u2581negotiations": 4121,
  "\u2581rock": 4122,
  "\u2581\u0441\u0432\u0435\u0434\u043e\u043a": 4123,
  "\u2581\u043d\u0430\u0441\u0442\u0430\u043d\u0438": 4124,
  "\u2581\u0440\u0430\u0437\u0433\u043e\u0432\u043e\u0440": 4125,
  "\u0442\u043e\u0442": 4126,
  "\u2581bus": 4127,
  "\u2581higher": 4128,
  "\u2581p": 4129,
  "\u2581ended": 4130,
  "\u2581\u0434\u043e\u0437\u0432\u043e\u043b\u0430\u043c": 4131,
  "\u2581\u043d\u0430\u0458\u043c\u0430\u043b\u043a\u0443": 4132,
  "\u2581match": 4133,
  "\u2581\u043a\u0440\u0443\u0433": 4134,
  "\u2581Tony": 4135,
  "\u2581\u0432\u043e\u0434\u0430\u0447\u0438": 4136,
  "\u2581\u0433\u043b\u0435\u0434\u0430\u0442\u0435": 4137,
  "\u2581\u0432\u0435\u0442\u0438": 4138,
  "\u2581\u0441\u0442\u0430\u043d\u0430\u0442": 4139,
  "\u2581righteous": 4140,
  "\u2581\u0441\u043b\u0435\u0434\u043d\u0438\u0442\u0435": 4141,
  "\u2581apartment": 4142,
  "\u2581addition": 4143,
  "\u2581improve": 4144,
  "\u2581warned": 4145,
  "\u2581\u0438\u0437\u0432\u0438\u043d\u0443\u0432\u0430\u043c": 4146,
  "\u2581club": 4147,
  "\u2581d": 4148,
  "\u2581driving": 4149,
  "\u2581anointed": 4150,
  "\u2581instance": 4151,
  "\u2581\u0431\u0435\u0437\u0431\u0435\u0434\u043d\u043e": 4152,
  "\u2581Africa": 4153,
  "\u2581White": 4154,
  "ant": 4155,
  "\u0435\u0448": 4156,
  "\u2581hearing": 4157,
  "\u2581comfort": 4158,
  "\u2581mess": 4159,
  "\u2581\u0417\u0430\u0440": 4160,
  "\u2581\u043f\u043e\u0447\u043d\u0435\u043c\u0435": 4161,
  "\u2581teacher": 4162,
  "\u2581\u0413\u041e": 4163,
  "\u2581drugs": 4164,
  "time": 4165,
  "\u25812000": 4166,
  "\u2581Police": 4167,
  "\u2581direct": 4168,
  "\u2581raise": 4169,
  "\u2581\u0443\u0431\u0430\u0432": 4170,
  "di": 4171,
  "\u2581\u0432\u0440\u0441\u043a\u0438": 4172,
  "ley": 4173,
  "\u2581heavenly": 4174,
  "\u2581leading": 4175,
  "\u2581\u043f\u0438": 4176,
  "/02/": 4177,
  "\u2581release": 4178,
  "\u2581writing": 4179,
  "\u2581\u0414\u0443\u0448\u043e": 4180,
  "\u2581\u041a\u0430\u0458": 4181,
  "\u2581\u0435\u043a\u043e\u043d\u043e\u043c\u0438\u0458\u0430": 4182,
  "\u041d\u041e": 4183,
  "\u0442\u0440\u043e": 4184,
  "\u2581Parliament": 4185,
  "\u2581Turn": 4186,
  "\u2581fat": 4187,
  "\u2581kiss": 4188,
  "\u2581\u043f\u043e\u043a\u0430\u0436\u0430\u043b": 4189,
  "\u0427": 4190,
  "\u2581sisters": 4191,
  "\u2581speed": 4192,
  "\u2581\u0415\u043b": 4193,
  "ba": 4194,
  "\u2581\u0431\u043b\u0438\u0437\u0443": 4195,
  "\u2581\u0442\u0430\u0458\u043d\u0430": 4196,
  "\u2581TO": 4197,
  "\u2581\u0420\u0438\u043c": 4198,
  "\u2581\u0437\u0435\u043c\u0438": 4199,
  "\u2581Joseph": 4200,
  "\u2581\u0438\u0441\u0442": 4201,
  "\u2581\u0432\u0438\u0434\u043e\u0432\u0438": 4202,
  "\u2581\u043f\u0440\u043e\u043c\u0435\u043d\u0430": 4203,
  "\u2581Five": 4204,
  "\u2581knowing": 4205,
  "\u2581\u0437\u0430\u043a\u043e\u043d\u0438": 4206,
  "\u2581\u043f\u0430\u0442\u0443\u0432\u0430\u045a\u0435": 4207,
  "\u2581\u043f\u043e\u0434\u0433\u043e\u0442\u0432\u0435\u043d\u0438": 4208,
  "\u2581\u0445\u0430": 4209,
  "SE": 4210,
  "\u0414\u043e": 4211,
  "\u2581threat": 4212,
  "\u2581\u0420\u0435\u043a\u043e\u0432": 4213,
  "\u2581\u043c\u043e\u043c\u0435\u043d\u0442\u043e\u0432": 4214,
  "\u2581specific": 4215,
  "\u2581\u0430\u0433\u0435\u043d\u0446\u0438\u0458\u0430": 4216,
  "\u2581false": 4217,
  "\u2581shown": 4218,
  "\u2581\u0431\u043e\u0440\u0431\u0430\u0442\u0430": 4219,
  "\u2581\u0437\u0435\u043c\u0435\u0448": 4220,
  "\u2581guard": 4221,
  "\u2581quality": 4222,
  "\u2581\u0430\u0434\u0432\u043e\u043a\u0430\u0442": 4223,
  "\u2581\u0446\u0435\u043d\u0430": 4224,
  "ja": 4225,
  "\u2581\u0422\u0432\u043e\u0458\u0430\u0442\u0430": 4226,
  "Do": 4227,
  "\u2581conversation": 4228,
  "\u2581notice": 4229,
  "\u2581presence": 4230,
  "\u2581\u0438\u043c\u043e\u0442": 4231,
  "\u2581\u043c\u0435\u0453\u0443\u0432\u0440\u0435\u043c\u0435": 4232,
  "\u0436\u0430": 4233,
  "\u0440\u0435\u0434": 4234,
  "\u2581\u0438\u0437\u0432\u043e\u0440": 4235,
  "\u2581Little": 4236,
  "\u2581\u0410\u0442\u0438\u043d\u0430": 4237,
  "ac": 4238,
  "\u2581YOU": 4239,
  "\u2581sight": 4240,
  "\u2581Jimmy": 4241,
  "\u2581organised": 4242,
  "\u2581strange": 4243,
  "\u2581\u0414\u0430\u043d\u0438\u0435\u043b": 4244,
  "\u2581\u043d\u0430\u043f\u0440\u0430\u0432\u0438\u043b\u0435": 4245,
  "\u2581\u0440\u0430\u0431\u043e\u0442\u0438\u043c\u0435": 4246,
  "\u2581\u0441\u0435\u043a\u0442\u043e\u0440": 4247,
  "\u2581concerned": 4248,
  "\u2581interests": 4249,
  "\u2581Egypt": 4250,
  "\u2581\u0438\u0437\u043b\u0435\u0433\u0443\u0432\u0430": 4251,
  "\u2581played": 4252,
  "\u2581terms": 4253,
  "\u2581biggest": 4254,
  "\u2581\u043d\u0435\u043a\u0430\u043a\u0432\u0430": 4255,
  "/08/": 4256,
  "\u2581push": 4257,
  "\u0433\u0443": 4258,
  "\u2581lay": 4259,
  "\u2581\u043f\u0440\u0432\u043f\u0430\u0442": 4260,
  "va": 4261,
  "\u2581Credit": 4262,
  "\u2581guns": 4263,
  "\u2581\u0448\u0442\u043e\u043c": 4264,
  "\u2581original": 4265,
  "\u2581\u043f\u0440\u043e\u0441\u0442\u043e\u0440": 4266,
  "\u2581\u0443\u0434\u0440\u0438": 4267,
  "\u2581accepted": 4268,
  "\u2581anti": 4269,
  "\u2581affect": 4270,
  "\u0448\u0442\u0435": 4271,
  "\u2581activity": 4272,
  "\u2581waste": 4273,
  "There": 4274,
  "\u2581\u0432\u043e\u0437\u0434\u0443\u0445": 4275,
  "\u2581\u043f\u043e\u0442\u0432\u0440\u0434\u0438": 4276,
  "\u2581Hall": 4277,
  "\u2581animal": 4278,
  "\u2581baptized": 4279,
  "\u2581sector": 4280,
  "\u2581\u0432\u043e\u0458\u0441\u043a\u0430": 4281,
  "\u2581\u0432\u0438\u0434\u0435\u043b\u0435": 4282,
  "\u2581\u0447\u043e\u0432\u0435\u0447\u043a\u0438": 4283,
  "\u043e\u0441\u0442\u0430": 4284,
  "\u2581arms": 4285,
  "\u2581throughout": 4286,
  "\u2581\u0437\u0434\u0440\u0430\u0432\u0458\u0435": 4287,
  "\u2581\u043e\u0431\u0435\u0437\u0431\u0435\u0434\u0438": 4288,
  "\u2581sake": 4289,
  "\u2581\u043f\u043e\u043b": 4290,
  "\u045f": 4291,
  "\u2581proba": 4292,
  "\u2581\u043c\u0438\u0441\u0438\u0458\u0430": 4293,
  "\u2581\u043d\u0430\u0433\u0440\u0430\u0434\u0430": 4294,
  "\u2581related": 4295,
  "\u2581\u0413\u043b\u0435\u0434\u0430\u043c": 4296,
  "\u2581\u043d\u0430\u0448\u0430": 4297,
  "\u2581dollars": 4298,
  "gen": 4299,
  "\u2581majority": 4300,
  "\u2581\u0437\u0431\u043e\u0440\u043e\u0442": 4301,
  "\u25819,": 4302,
  "\u2581owe": 4303,
  "ber": 4304,
  "ite": 4305,
  "\u2581lunch": 4306,
  "\u2581warm": 4307,
  "\u2581\u043f\u043e\u0434\u0430\u0440\u043e\u043a": 4308,
  "\u043e\u0440": 4309,
  "\u2581\u0411\u0440\u0437\u043e": 4310,
  "\u2581\u043f\u043e\u0440\u0430\u043d\u0435\u0448\u043d\u0438\u043e\u0442": 4311,
  "\u2581jump": 4312,
  "\u2581\u043f\u0435\u0441\u043d\u0430": 4313,
  "\u043a\u043e\u0432": 4314,
  "\u2581\u0441\u0435\u043a\u0443\u043d\u0434\u0430": 4315,
  "\u2581innocent": 4316,
  "\u2581orders": 4317,
  "\u2581\u0430\u0432\u0438\u043e\u043d": 4318,
  "\u2581Court": 4319,
  "\u2581Instead": 4320,
  "\u2581\u0415\u0433\u0438\u043f\u0435\u0442": 4321,
  "\u2581\u0417\u0430\u043c\u043e\u043b\u0447\u0438": 4322,
  "\u2581elders": 4323,
  "\u2581\u0418\u0441": 4324,
  "\u2581Pictures": 4325,
  "\u2581Ra": 4326,
  "\u2581hotel": 4327,
  "\u2581\u043b\u0435\u0432\u043e": 4328,
  "\u2581\u043e\u0440\u0443\u0436\u0458\u0435\u0442\u043e": 4329,
  "\u2581millions": 4330,
  "\u2581\u0441\u0438\u043b\u0435\u043d": 4331,
  "\u2581crap": 4332,
  "\u2581\u0433\u043e\u0441\u043f\u043e\u0434\u0430": 4333,
  "\u2581\u0441\u043e\u0437\u0434\u0430\u0434\u0435": 4334,
  "\u2581\u0431\u043e\u0433\u0430\u0442\u0441\u0442\u0432\u043e": 4335,
  "\u2581\u043c\u0435\u0434\u0438\u0443\u043c\u0438\u0442\u0435": 4336,
  "\u2581\u043f\u0440\u0430\u0442\u0438": 4337,
  "\u2581\u0441\u043f\u0440\u043e\u0432\u0435\u0434\u0443\u0432\u0430\u045a\u0435": 4338,
  "tic": 4339,
  "\u2581kindness": 4340,
  "\u2581warning": 4341,
  "\u2581\u0430\u0433\u0435\u043d\u0442": 4342,
  "\u2581particular": 4343,
  "\u2581\u043f\u043e\u0432\u0438\u043a": 4344,
  "\u2581\u0443\u0447\u0438": 4345,
  "\u2581victims": 4346,
  "\u2581London": 4347,
  "\u2581forgive": 4348,
  "\u2581growing": 4349,
  "\u2581jail": 4350,
  "\u2581killer": 4351,
  "\u0440\u043e\u0434": 4352,
  "\u0458\u0443": 4353,
  "\u2581\u040f\u0438\u043c\u0438": 4354,
  "\u2581\u043f\u0440\u0435\u0434\u0430\u0434\u0435": 4355,
  "\u2581Con": 4356,
  "\u2581programme": 4357,
  "\u2581\u043f\u043e\u043b\u0435\u043a\u0430": 4358,
  "\u2581\u0434\u043e\u043d\u0435\u0441\u0430\u043c": 4359,
  "\u2581\u043e\u0431\u0440\u0430\u0437\u043e\u0432\u0430\u043d\u0438\u0435": 4360,
  "\u2581\u0418\u0437\u0432\u043e\u0440": 4361,
  "\u2581\u043d\u0430\u0440\u043e\u0434\u043e\u0442": 4362,
  "\u2581\u0441\u0435\u043a\u0440\u0435\u0442\u0430\u0440": 4363,
  "\u2581Paris": 4364,
  "\u2581express": 4365,
  "Montenegro": 4366,
  "\u2581Secretary": 4367,
  "\u2581tough": 4368,
  "\u2581\u0425\u0438": 4369,
  "by": 4370,
  "\u2581Find": 4371,
  "\u2581OF": 4372,
  "\u2581loss": 4373,
  "\u2581\u0408\u0430\u0441\u043d\u043e": 4374,
  "\u2581Line": 4375,
  "\u2581\u0432\u043e\u0437": 4376,
  "\u2581\u0433\u043e\u0442\u043e\u0432\u043e": 4377,
  "\u2581\u043f\u043e\u043c\u043e\u0433\u043d\u0435\u043c\u0435": 4378,
  "\u2581\u043f\u0440\u0435\u043a\u0440\u0430\u0441\u043d\u0430": 4379,
  "\u2581sad": 4380,
  "\u2581\u040f\u0435\u0458\u043c\u0441": 4381,
  "\u2581\u0410\u0445": 4382,
  "\u2581\u25cf": 4383,
  "\u0438\u0458\u0430\u0442\u0430": 4384,
  "ti": 4385,
  "\u2581\u041f\u0435": 4386,
  "\u2581\u0441\u043c\u0435\u043d\u0438": 4387,
  "\u2581lawyer": 4388,
  "\u2581urged": 4389,
  "\u2581\u0438\u0441\u0442\u0430": 4390,
  "\u2581helps": 4391,
  "\u2581attend": 4392,
  "\u2581Both": 4393,
  "\u2581hasn": 4394,
  "\u2581\u041a\u0438": 4395,
  "\u2581\u0434\u0435\u0432\u0435\u0442": 4396,
  "\u2581\u043c\u0443\u0437\u0438\u043a\u0430": 4397,
  "\u2581firm": 4398,
  "\u2581\u043e\u0441\u0442\u0430\u043d\u0430": 4399,
  "ous": 4400,
  "\u043a\u043e\u043b": 4401,
  "\u2581\u043e\u0433\u0430\u043d": 4402,
  "\u2581\u0420\u0430\u0437": 4403,
  "for": 4404,
  "\u041d\u0410": 4405,
  "\u2581Creator": 4406,
  "\u2581\u043f\u043b\u0430\u0448\u0438": 4407,
  "\u2581Sea": 4408,
  "pe": 4409,
  "\u2581ministers": 4410,
  "\u2581\u041e\u0442": 4411,
  "\u2581c": 4412,
  "org": 4413,
  "\u0430\u0446\u0438\u0458\u0430": 4414,
  "\u2581\u0436\u0438\u0432\u0438": 4415,
  "\u2581\u043d\u043e\u0441\u0438\u0448": 4416,
  "\u25817,": 4417,
  "\u2581\u041c\u043e\u043b\u0430\u043c": 4418,
  "\u2581\u043e\u043a": 4419,
  "\u2581camp": 4420,
  "\u2581cash": 4421,
  "\u2581\u043f\u0440\u043e\u0435\u043a\u0442": 4422,
  "ler": 4423,
  "\u2581\u0437\u0430\u043c\u0435\u043d\u0438\u043a": 4424,
  "\u2581\u0438\u0437\u0431\u0435\u0433\u0430": 4425,
  "ze": 4426,
  "\u0444\u0435\u0440": 4427,
  "\u2581committed": 4428,
  "\u2581\u0441\u0442\u0430\u0440\u0438": 4429,
  "\u2581\u0441\u0432\u0435\u0442\u043b\u0438\u043d\u0430": 4430,
  "\u2581blame": 4431,
  "\u2581hole": 4432,
  "\u2581\u041b\u0435\u0440\u0438": 4433,
  "\u2581\u041c\u043e\u0435\u0442\u043e": 4434,
  "\u2581\u043d\u043e\u0441\u0430\u0442": 4435,
  "\u2581\u0438\u0437\u043c\u0438\u043d\u0430\u0442\u0438": 4436,
  "\u2581location": 4437,
  "\u2581\u041a\u0430\u043a\u0432\u0438": 4438,
  "\u2581\u0431\u043e\u0458\u0430": 4439,
  "\u25818.": 4440,
  "03": 4441,
  "ke": 4442,
  "\u2581planning": 4443,
  "\u2581\u0422\u043e\u043a\u043c\u0443": 4444,
  "\u2581\u043c\u0438\u043b\u0430": 4445,
  "/11/": 4446,
  "\u2581Nick": 4447,
  "\u2581hurry": 4448,
  "\u2581machine": 4449,
  "\u2581workers": 4450,
  "\u2581\u0441\u0430\u043c\u0438\u0442\u0435": 4451,
  "\u2581\u0438\u0441\u043f\u0440\u0430\u0432\u043d\u043e": 4452,
  "\u2581\u043d\u043e\u0432\u0438\u0442\u0435": 4453,
  "\u2581\u043f\u0440\u043e\u0435\u043a\u0442\u043e\u0442": 4454,
  "\u043d\u0435\u0442\u0435": 4455,
  "\u2581\u043f\u043e\u0434\u043e\u0431\u0440\u0430": 4456,
  "bi": 4457,
  "\u2581followers": 4458,
  "\u2581\u0421\u0440\u043f\u0441\u043a\u0430": 4459,
  "\u2581\u043f\u0440\u043e\u0431\u043b\u0435\u043c\u0438\u0442\u0435": 4460,
  "\u2581\u0446\u0435\u043d\u0442\u0430\u0440\u043e\u0442": 4461,
  "\u2581stories": 4462,
  "\u2581\u043f\u0438\u0448\u0442\u043e\u043b\u043e\u0442": 4463,
  "\u2581request": 4464,
  "\u2581surprised": 4465,
  "\u2581\u0446\u0440\u043d": 4466,
  "\u2581services": 4467,
  "\u2581spread": 4468,
  "\u2581\u0432\u0435\u0441\u043d\u0438\u043a": 4469,
  "\u2581\u0432\u043e\u0434\u0430\u0447": 4470,
  "\u2581arm": 4471,
  "\u2581\u0415\u0432\u0440\u0435\u0438\u0442\u0435": 4472,
  "\u2581\u043c\u043d\u043e\u0433\u0443\u043c\u0438\u043d\u0430": 4473,
  "\u0443\u043d": 4474,
  "\u2581Up": 4475,
  "\u2581student": 4476,
  "per": 4477,
  "\u2581con": 4478,
  "\u2581\u043c\u0438\u0441\u043b\u0435\u0448\u0435": 4479,
  "\u25812002": 4480,
  "\u2581Romans": 4481,
  "\u2581lies": 4482,
  "\u2581\u043f\u0435\u0440": 4483,
  "\u2581\u043f\u0440\u0430\u0432\u0434\u0430": 4484,
  "\u2581News": 4485,
  "\u2581Sofia": 4486,
  "\u2581double": 4487,
  "\u2581signal": 4488,
  "\u2581\u043d\u0430\u043f\u0443\u0448\u0442\u0438": 4489,
  "\u2581flight": 4490,
  "\u2581released": 4491,
  "\u2581\u043a\u0440\u0432\u0442\u0430": 4492,
  "\u2581\u043c\u043e": 4493,
  "\u0437\u0435\u0440": 4494,
  "\u2581\u041b\u0435": 4495,
  "\u2581\u043f\u043e\u0434\u0434\u0440\u0436\u0443\u0432\u0430": 4496,
  "off": 4497,
  "\u2581everywhere": 4498,
  "\u2581\u0432\u0435\u0431": 4499,
  "\u2581\u043d\u043e\u0441\u0430\u043c": 4500,
  "\u2581\u0442\u0435\u043c\u0430": 4501,
  "\u258113:": 4502,
  "\u2581\u0443\u0431\u0430\u0432\u0438": 4503,
  "\u0435\u0442\u043e": 4504,
  "\u2581Master": 4505,
  "\u2581memory": 4506,
  "\u2581\u041c\u0435\u043a": 4507,
  "\u2581\u0422\u043e": 4508,
  "lu": 4509,
  "\u2581Po": 4510,
  "\u2581online": 4511,
  "\u2581recognize": 4512,
  "\u2581\u043e\u0441\u0442\u0430\u043d\u0430\u0442": 4513,
  "\u2581\u0441\u0440\u043f\u0441\u043a\u0438\u043e\u0442": 4514,
  "ek": 4515,
  "ver": 4516,
  "\u0432\u0440": 4517,
  "\u2581Acts": 4518,
  "\u2581prevent": 4519,
  "\u2581\u0432\u0435\u0440\u043d\u0438": 4520,
  "07": 4521,
  "\u258112.": 4522,
  "\u2581asshole": 4523,
  "\u2581definitely": 4524,
  "\u2581\u043a\u0430\u043c\u0435\u043d": 4525,
  "\u2581emergency": 4526,
  "\u2581promises": 4527,
  "\u2581\u0443\u0431\u0438\u0435\u0446": 4528,
  "\u0436\u0435\u043d": 4529,
  "\u2581note": 4530,
  "\u2581drinking": 4531,
  "\u2581\u0411\u0430\u043b\u043a\u0430\u043d\u043e\u0442": 4532,
  "\u2581\u0446\u0435\u043b\u043e\u0442\u043e": 4533,
  "\u2581noted": 4534,
  "\u2581\u0431\u043e\u043b\u0435\u0441\u0442": 4535,
  "ard": 4536,
  "\u041b\u0415": 4537,
  "\u2581favorite": 4538,
  "\u2581pages": 4539,
  "\u2581sold": 4540,
  "\u2581w": 4541,
  "\u2581\u041c\u0430\u043a\u0441": 4542,
  "\u2581\u0434\u0438\u0440\u0435\u043a\u0442\u043d\u043e": 4543,
  "\u2581\u0440\u0435\u0434\u043e\u0432\u043d\u043e": 4544,
  "\u043a\u043e\u043d": 4545,
  "\u2581judge": 4546,
  "\u2581\u041f\u0440\u043e\u0434\u043e\u043b\u0436\u0438": 4547,
  "\u2581Dan": 4548,
  "\u2581Too": 4549,
  "\u2581\u0437\u0430\u0442\u0432\u043e\u0440\u0438": 4550,
  "\u2581\u0434\u043e\u0431\u0438\u0435\u043c\u0435": 4551,
  "\u2581\u0438\u043c\u0430\u043b\u0430": 4552,
  "\u2581\u0441\u043e\u0441\u0442\u0430\u043d\u0430": 4553,
  "\u0447\u043d\u043e": 4554,
  "\u2581Dude": 4555,
  "\u2581secure": 4556,
  "\u2581\u0412\u0430\u0448\u0438\u043d\u0433\u0442\u043e\u043d": 4557,
  "\u2581\u0432\u0440\u0430\u0442\u0430\u0442": 4558,
  "\u2581\u043d\u0435\u0433\u043e\u0432\u0430": 4559,
  "\u2581\u0442\u0435\u043b\u0435\u0444\u043e\u043d\u043e\u0442": 4560,
  "\u045f\u0438": 4561,
  "50": 4562,
  "\u2581smoke": 4563,
  "\u2581popular": 4564,
  "\u2581\u0434\u0430\u0434\u043e\u0432": 4565,
  "\u2581\u0447\u0435\u043a\u0430\u043c\u0435": 4566,
  "\u2581established": 4567,
  "\u2581\u0410\u0432\u0440\u0430\u0430\u043c": 4568,
  "\u2581explains": 4569,
  "\u2581\u0421\u0430\u0440\u0430\u0435\u0432\u043e": 4570,
  "\u2581\u0447\u043e\u0432\u0435\u0448\u0442\u0432\u043e\u0442\u043e": 4571,
  "\u2581\u043c\u0438\u043b\u0438\u043e\u043d": 4572,
  "\u2581Without": 4573,
  "\u2581prophet": 4574,
  "\u2581\u043a\u0443\u043f": 4575,
  "\u2581\u0441\u0438\u043b\u043d\u0430": 4576,
  "ner": 4577,
  "\u2581wild": 4578,
  "\u2581\u041e\u043d\u0438\u0435": 4579,
  "\u0412\u0438\u0434\u0438": 4580,
  "\u043a\u0440\u0438": 4581,
  "\u2581spot": 4582,
  "\u2581Hell": 4583,
  "\u2581expressed": 4584,
  "\u2581tribunal": 4585,
  "\u2581\u0420\u0430\u0437\u043c\u0438\u0441\u043b\u0438": 4586,
  "\u2581\u0434\u043e\u043a\u043e\u043b\u043a\u0443": 4587,
  "\u2581fool": 4588,
  "\u2581\u0408\u0430\u0432\u0438": 4589,
  "\u0434\u0435\u0440": 4590,
  "\u043c\u0435\u0440": 4591,
  "\u2581fit": 4592,
  "\u2581\u043e\u043f\u0435\u0440\u0430\u0446\u0438\u0458\u0430": 4593,
  "\u2581\u0441\u043b\u043e\u0431\u043e\u0434\u043d\u043e": 4594,
  "\u2581approach": 4595,
  "\u2581brings": 4596,
  "0": 4597,
  "\u2581indeed": 4598,
  "\u2581\u043f\u043e\u0447\u043d\u0443\u0432\u0430": 4599,
  "\u0430\u0458": 4600,
  "\u2581\u0415\u0431\u0438": 4601,
  "\u2581\u0447\u0443\u0432\u0441\u0442\u0432\u0443\u0432\u0430": 4602,
  "\u2581star": 4603,
  "\u2581\u043e\u0431\u0438\u0434": 4604,
  "\u2581bigger": 4605,
  "\u2581\u043e\u0434\u0440\u0436\u0443\u0432\u0430": 4606,
  "\u2581\u0431\u0440": 4607,
  "\u2581\u0437\u043b\u043e": 4608,
  "\u2581\u0412\u0430\u0448\u0438\u043e\u0442": 4609,
  "so": 4610,
  "\u041b\u0418": 4611,
  "\u2581\u041a\u043b\u0435\u0440": 4612,
  "\u2581hero": 4613,
  "\u2581\u0432\u043e\u0434\u0430\u0442": 4614,
  "\u2581\u043f\u043e\u0437\u043d\u0430\u0442\u0438": 4615,
  "\u2581twice": 4616,
  "\u2581\u041f\u043e\u0434\u043e\u0446\u043d\u0430": 4617,
  "\u2581000": 4618,
  "\u2581losing": 4619,
  "\u2581stuck": 4620,
  "\u2581apply": 4621,
  "\u2581University": 4622,
  "our": 4623,
  "\u2581bullshit": 4624,
  "\u2581\u0448": 4625,
  "\u0442\u043d\u0430": 4626,
  "\u2581\u043e\u0441": 4627,
  "09": 4628,
  "ee": 4629,
  "\u043d\u0435\u0448": 4630,
  "\u258136": 4631,
  "\u2581included": 4632,
  "\u2581Washington": 4633,
  "\u2581\u043f\u043e\u0447\u043d\u0435": 4634,
  "\u2581\u0435\u0434\u0438\u043d\u0441\u0442\u0432\u0435\u043d\u0430\u0442\u0430": 4635,
  "\u2581\u0437\u0430\u043c\u0438\u043d\u0430": 4636,
  "\u2581\u043e\u0434\u043d\u0435\u0441\u0435": 4637,
  "\u2581\u0441\u0440\u043f\u0441\u043a\u0430": 4638,
  "\u2581excuse": 4639,
  "\u2581tax": 4640,
  "\u2581\u043d\u0430\u043f\u0440\u0430\u0432\u0438\u0442\u0435": 4641,
  "\u2581\u043f\u0430\u0434\u043d\u0430": 4642,
  "\u2581\u0411\u0430\u0443\u0435\u0440": 4643,
  "\u2581\u041e\u043a\u043e\u043b\u0443": 4644,
  "\u2581Bi": 4645,
  "\u2581projects": 4646,
  "\u2581\u043a\u0430\u043d\u0446\u0435\u043b\u0430\u0440\u0438\u0458\u0430\u0442\u0430": 4647,
  "\u2581horse": 4648,
  "\u2581individual": 4649,
  "\u2581moral": 4650,
  "\u2581\u043f\u043e\u043b\u0438\u0442\u0438\u0447\u043a\u0430": 4651,
  "\u2581Didn": 4652,
  "\u2581\u0440\u0435\u043a\u0430\u0442\u0430": 4653,
  "\u2581heavy": 4654,
  "\u2581\u043a\u0430\u0436\u0443\u0432\u0430\u0448": 4655,
  "\u2581learning": 4656,
  "\u2581radio": 4657,
  "\u2581House": 4658,
  "\u2581\u0420\u0435\u0458": 4659,
  "\u2581\u043c\u0438\u043d\u0430\u0442\u0438\u043e\u0442": 4660,
  "\u2581therefore": 4661,
  "\u2581\u041d\u0435\u0433\u043e\u0432\u0430\u0442\u0430": 4662,
  "\u2581\u0431\u043e\u0441\u0430\u043d\u0441\u043a\u0438": 4663,
  "\u2581\u043f\u043e\u043c\u0430\u0433\u0430\u0430\u0442": 4664,
  "\u2581\u043f\u043e\u0442\u0440\u0435\u0431\u0438": 4665,
  "\u2581\u0443\u0431\u0438\u0432\u0430": 4666,
  "\u2581\u0443\u043c\u0440\u0435\u0448": 4667,
  "led": 4668,
  "\u2581games": 4669,
  "\u2581ideas": 4670,
  "\u2581\u041b": 4671,
  "\u0447\u043e": 4672,
  "\u2581\u0438\u0434\u0438\u043e\u0442": 4673,
  "\u2581pictures": 4674,
  "\u2581\u0434\u0440\u0436\u0430\u0432\u0438": 4675,
  "\u2581\u043c\u0440\u0430\u0437\u0430\u043c": 4676,
  "\u2581except": 4677,
  "\u2581\u043a\u0443\u043b\u0430": 4678,
  "\u2581\u0425\u0430\u0440\u0438": 4679,
  "\u2581cars": 4680,
  "\u2581empty": 4681,
  "\u2581\u0431\u043b\u0438\u0441\u043a\u0443": 4682,
  "con": 4683,
  "\u0435\u0442": 4684,
  "\u2581oh": 4685,
  "\u2581\u041d\u0435\u043c\u0430\u043c\u0435": 4686,
  "\u0422\u0415": 4687,
  "\u2581China": 4688,
  "\u2581extra": 4689,
  "\u2581Solomon": 4690,
  "\u2581\u0432\u0438\u0441\u0442\u0438\u043d\u0441\u043a\u0430\u0442\u0430": 4691,
  "\u2581\u043f\u0440\u043e\u0433\u0440\u0430\u043c\u0430\u0442\u0430": 4692,
  "\u2581debt": 4693,
  "\u2581hearts": 4694,
  "\u2581\u0434\u0440\u0432\u043e": 4695,
  "\u2581mo": 4696,
  "\u2581Chief": 4697,
  "\u2581currently": 4698,
  "\u2581ladies": 4699,
  "\u2581\u0445\u0440\u0430\u0431\u0440\u043e\u0441\u0442": 4700,
  "\u2581\u0434\u043e\u043b\u0435": 4701,
  "\u0420\u0418": 4702,
  "\u2581respond": 4703,
  "\u2581\u0438\u043c\u0430\u0432\u043c\u0435": 4704,
  "\u2581\u043c\u0440\u0442\u0432\u0430": 4705,
  "\u2581\u043d\u0438\u043a\u0430\u043a\u0432\u0438": 4706,
  "\u2581\u0440\u043e\u0434\u0438": 4707,
  "\u2581\u0442\u0440\u0430\u0433\u0430": 4708,
  "\u041a\u043e\u0433\u0430": 4709,
  "\u043b\u0430\u043d": 4710,
  "\u2581Da": 4711,
  "\u2581south": 4712,
  "\u2581\u0415\u0434\u0438": 4713,
  "\u2581\u0431\u043b\u0430\u0433\u043e\u0441\u043b\u043e\u0432\u0438": 4714,
  "\u2581\u0441\u0442\u043e\u0440\u0430\u043c": 4715,
  "\u2581Trust": 4716,
  "\u2581suppose": 4717,
  "\u2581walked": 4718,
  "\u2581\u0441\u0442\u0430\u0432\u0430\u043c": 4719,
  "\u2581magazine": 4720,
  "\u2581heads": 4721,
  "\u2581marry": 4722,
  "\u2581\u0432\u0438\u043d\u043e": 4723,
  "\u2581IN": 4724,
  "\u2581Rather": 4725,
  "\u2581\u0430\u043d\u0433\u043b\u0438\u0441\u043a\u0438": 4726,
  "\u2581\u0432\u0430\u043a\u0432\u0430": 4727,
  "\u0447\u043d\u0438": 4728,
  "\u2581blind": 4729,
  "\u2581particularly": 4730,
  "\u2581\u0411\u043e\u0431\u0438": 4731,
  "\u2581\u0411\u0440\u0430\u0442": 4732,
  "\u0458\u0430\u0441": 4733,
  "\u2581Bauer": 4734,
  "\u2581\u0441\u043c\u0435\u0435\u0448": 4735,
  "\u0434\u0438\u0458\u0430": 4736,
  "\u2581\u043f\u043e\u043c\u0438\u043d\u0443\u0432\u0430": 4737,
  "\u2581college": 4738,
  "\u2581culture": 4739,
  "\u2581eventually": 4740,
  "\u2581r": 4741,
  "\u2581tight": 4742,
  "\u2581\u043d\u0435\u0432\u0435\u0440\u043e\u0458\u0430\u0442\u043d\u043e": 4743,
  "\u2581British": 4744,
  "\u2581\u041d\u0435\u043a\u043e\u043b\u043a\u0443": 4745,
  "\u2581\u0437\u0430\u0435\u0434\u043d\u0438\u0447\u043a\u0438": 4746,
  "\u2581\u043e\u0442\u0432\u043e\u0440\u0435\u043d\u043e": 4747,
  "\u2581\u0441\u0438\u043b\u043d\u043e": 4748,
  "\u2581\u0447\u0430\u0441\u043e\u0432\u0438": 4749,
  "ron": 4750,
  "\u0432\u0438\u043d": 4751,
  "\u043d\u0438\u043a\u043e\u0442": 4752,
  "\u2581Anyway": 4753,
  "\u2581charges": 4754,
  "\u2581hiding": 4755,
  "\u2581\u043e\u0441\u043e\u0431\u0438\u043d\u0438": 4756,
  "op": 4757,
  "\u2581Tadic": 4758,
  "\u2581suit": 4759,
  "\u2581\u0440\u043e\u0434\u0435\u043d\u0434\u0435\u043d": 4760,
  "\u0442\u0435\u043b": 4761,
  "\u2581Zagreb": 4762,
  "\u2581sheep": 4763,
  "\u2581\u0424\u0438\u043b": 4764,
  "\u2581\u043e\u0441\u0442\u0440\u043e\u0432\u043e\u0442": 4765,
  "\u2581Devil": 4766,
  "\u2581\u0434\u043e\u0448\u043e\u043b": 4767,
  "\u0442\u0438\u043e\u0442": 4768,
  "\u2581\u0412\u0438\u043b": 4769,
  "\u2581joke": 4770,
  "\u2581nuclear": 4771,
  "\u2581\u043a\u043e\u0440\u0443\u043f\u0446\u0438\u0458\u0430\u0442\u0430": 4772,
  "\u2581\u043e\u0433\u0440\u043e\u043c\u043d\u0430": 4773,
  "\u2581\u043f": 4774,
  "\u2581northern": 4775,
  "\u2581Corinthians": 4776,
  "\u2581investigation": 4777,
  "\u2581\u0430\u0432\u0438\u043e\u043d\u043e\u0442": 4778,
  "\u2581\u0441\u043f\u043e\u0440\u0435\u0434\u0431\u0430": 4779,
  "\u2581boyfriend": 4780,
  "\u2581series": 4781,
  "\u2581treat": 4782,
  "\u2581\u043f\u0440\u0435\u0442\u0432\u043e\u0440\u0438": 4783,
  "\u2581details": 4784,
  "\u2581connection": 4785,
  "\u2581cultural": 4786,
  "\u2581damage": 4787,
  "\u2581skin": 4788,
  "\u2581\u0411\u043e\u0440\u0438\u0441": 4789,
  "\u2581\u0422\u0430\u0434\u0438\u045c": 4790,
  "\u2581\u0437\u0430\u0432\u0440\u0448\u0443\u0432\u0430": 4791,
  "\u2581\u0441\u043c\u0435\u0442\u043a\u0430": 4792,
  "ster": 4793,
  "\u043d\u0430\u043c": 4794,
  "\u043e\u0431": 4795,
  "\u2581investment": 4796,
  "\u2581park": 4797,
  "\u2581\u0420\u0430\u0441": 4798,
  "\u2581\u043e\u0440\u0433\u0430\u043d\u0438\u0437\u0430\u0446\u0438\u0438": 4799,
  "\u2581determined": 4800,
  "\u0424\u041e\u0420": 4801,
  "\u2581Rome": 4802,
  "\u2581angel": 4803,
  "\u2581\u040f\u0430": 4804,
  "\u0458\u0430\u043d": 4805,
  "\u2581camera": 4806,
  "\u2581\u0434\u0438\u0440\u0435\u043a\u0442\u043e\u0440": 4807,
  "\u2581realized": 4808,
  "\u2581\u0432\u0430\u0436\u0438": 4809,
  "\u2581\u043c\u0440\u0435\u0436\u0430": 4810,
  "\u2581\u043f\u0430\u0453\u0430": 4811,
  "\u2581Indeed": 4812,
  "\u2581review": 4813,
  "\u2581\u043f\u043e\u0447\u043d\u0430\u0432": 4814,
  "espite": 4815,
  "lin": 4816,
  "\u0434\u0440\u0430": 4817,
  "\u2581proper": 4818,
  "\u2581\u041a\u0430\u043a\u0432\u043e": 4819,
  "\u2581easier": 4820,
  "\u2581organization": 4821,
  "\u0444\u0430": 4822,
  "\u2581base": 4823,
  "\u2581basis": 4824,
  "\u2581\u0441\u043e\u043e\u0447\u0443\u0432\u0430": 4825,
  "\u25812003": 4826,
  "\u2581drunk": 4827,
  "\u2581\u0438\u043d\u0442\u0435\u0433\u0440\u0430\u0446\u0438\u0458\u0430": 4828,
  "\u2581\u043e\u0434\u043b\u0443\u043a\u0430\u0442\u0430": 4829,
  "ow": 4830,
  "\u2581\u0432\u0442\u043e\u0440\u0438\u043e\u0442": 4831,
  "\u043a\u0435\u0440": 4832,
  "\u2581hoping": 4833,
  "\u2581\u043c\u043e\u0437\u043e\u043a\u043e\u0442": 4834,
  "Yes": 4835,
  "\u043b\u0438\u0441": 4836,
  "\u2581\u0434\u0443\u0445\u043e\u0442": 4837,
  "\u2581\u0432\u0438\u0441\u0442\u0438\u043d\u0441\u043a\u043e": 4838,
  "\u2581\u0447\u0438\u0442\u0430": 4839,
  "\u2581kick": 4840,
  "que": 4841,
  "ten": 4842,
  "\u0411\u0438\u0425": 4843,
  "\u2581Brussels": 4844,
  "\u2581]": 4845,
  "\u2581\u041d\u0430\u0441\u043a\u043e\u0440\u043e": 4846,
  "\u2581\u043f\u0440\u0435\u0447\u0438": 4847,
  "\u0422\u043e\u0458": 4848,
  "\u0440\u0435\u043a": 4849,
  "\u2581exist": 4850,
  "\u2581required": 4851,
  "\u2581largest": 4852,
  "\u2581\u0438\u0441\u0442\u0440\u0430\u0436\u0443\u0432\u0430\u045a\u0435": 4853,
  "\u2581\u043e\u0434\u0440\u0436\u0438": 4854,
  "How": 4855,
  "\u2581\u0441\u0442\u043e": 4856,
  "\u2581\u0448\u0442\u0435\u0442\u0430": 4857,
  "\u2581idiot": 4858,
  "\u2581remind": 4859,
  "\u2581\u0421\u0440\u0435\u045c\u0435\u043d": 4860,
  "\u2581\u0443\u043c\u0440\u0430\u043c": 4861,
  "\u0433\u0435\u043d": 4862,
  "\u2581\u043a\u0440\u0430\u043b": 4863,
  "\u0433\u0430\u043d": 4864,
  "\u2581apart": 4865,
  "\u0447\u043e\u0442": 4866,
  "\u2581Men": 4867,
  "\u2581\u0422\u0435\u0448\u043a\u043e": 4868,
  "\u2581\u0423\u0442\u0440\u0435": 4869,
  "\u2581cat": 4870,
  "\u2581inspired": 4871,
  "\u2581opinion": 4872,
  "\u2581patient": 4873,
  "\u2581\u0433\u043b\u0435\u0434\u0430\u0458": 4874,
  "20": 4875,
  "\u2581successful": 4876,
  "\u0433\u0435\u0440": 4877,
  "\u2581\u043f\u043e\u0437\u043d\u0430\u0432\u0430\u0448": 4878,
  "\u2581\u0440\u0435\u043b\u0438\u0433\u0438\u0458\u0430": 4879,
  "\u043b\u0438\u0432\u043e": 4880,
  "\u2581\u041d\u0438\u0442\u0443": 4881,
  "\u2581\u043e\u043a\u043e": 4882,
  "\u2581\u0424\u0411\u0418": 4883,
  "\u2581\u043c\u0430\u0441\u0430": 4884,
  "\u2581\u0441\u0443\u0434\u0441\u043a\u0438": 4885,
  "\u2581safety": 4886,
  "\u2581\u0441\u0442\u0430\u0442\u0443\u0441": 4887,
  "\u2581province": 4888,
  "\u2581\u043f\u0440\u0438\u043f\u0430\u0453\u0430": 4889,
  "\u2581II": 4890,
  "\u2581locked": 4891,
  "\u2581\u0408\u0435\u0445\u043e\u0432\u0438\u043d\u0438\u043e\u0442": 4892,
  "\u2581\u0433\u0440\u0443\u043f\u0430\u0442\u0430": 4893,
  "\u2581\u0434\u0440\u0443\u0448\u0442\u0432\u043e": 4894,
  "\u2581\u043a\u0440\u0430\u043b\u043e\u0442": 4895,
  "\u2581\u043d\u0430\u0458\u0434\u043e\u0431\u0440\u0438\u043e\u0442": 4896,
  "\u2581color": 4897,
  "/10/": 4898,
  "\u2581Ministry": 4899,
  "\u2581block": 4900,
  "\u2581rise": 4901,
  "\u2581\u043d\u0435\u0437\u0430\u0432\u0438\u0441\u043d\u043e\u0441\u0442": 4902,
  "\u2581map": 4903,
  "\u2581\u0442\u0435\u043a": 4904,
  "Read": 4905,
  "\u2581creation": 4906,
  "\u2581steal": 4907,
  "\u2581technology": 4908,
  "ki": 4909,
  "\u2581\u0437\u0430\u043f\u043e\u0437\u043d\u0430\u0432": 4910,
  "\u2581\u043d\u0435\u0441\u0440\u0435\u045c\u0430": 4911,
  "\u2581\u0444\u0435\u0440": 4912,
  "\u2581enemies": 4913,
  "\u2581rid": 4914,
  "\u2581\u041a\u0430\u0440\u0430": 4915,
  "\u2581disease": 4916,
  "\u2581qualities": 4917,
  "\u2581\u0433\u043b\u0443\u043f\u043e\u0441\u0442\u0438": 4918,
  "\u2581Eve": 4919,
  "\u2581Kate": 4920,
  "\u2581grew": 4921,
  "\u2581\u0432\u043e\u0434\u0441\u0442\u0432\u043e": 4922,
  "\u2581\u0441\u0442\u0430\u043d\u0430\u043b": 4923,
  "ang": 4924,
  "\u2581finding": 4925,
  "\u2581Bas": 4926,
  "\u2581career": 4927,
  "\u2581\u043f\u0440\u0430\u0432\u0434\u0430\u0442\u0430": 4928,
  "FOR": 4929,
  "\u0438\u0437\u0430\u043c": 4930,
  "\u2581\u0411\u0440\u0430\u0432\u043e": 4931,
  "\u2581\u043b\u0443\u0434\u043e": 4932,
  "\u2581Watchtower": 4933,
  "\u2581\u043c\u0435\u0441\u043e": 4934,
  "\u2581\u0445\u0435\u0440\u043e\u0458": 4935,
  "\u2581agency": 4936,
  "\u2581\u0441\u0440\u0435\u045c\u043d\u0430": 4937,
  "\u2581Street": 4938,
  "\u2581mention": 4939,
  "\u2581Bob": 4940,
  "\u2581fill": 4941,
  "\u2581vital": 4942,
  "\u2581\u0414\u0432\u0435": 4943,
  "\u2581\u0434\u0440\u0436\u0430\u0432\u043d\u0438": 4944,
  "\u2581True": 4945,
  "\u2581aid": 4946,
  "\u2581\u043f\u043e\u043b\u0435\u0441\u043d\u043e": 4947,
  "\u2581correct": 4948,
  "\u2581\u0441\u0442\u0430\u043d\u0438\u0446\u0430": 4949,
  "\u0410\u0458\u0434\u0435": 4950,
  "\u2581Bobby": 4951,
  "\u2581\u0414\u0432\u0430": 4952,
  "\u2581\u0441\u043b\u0435\u0434\u0431\u0435\u043d\u0438\u0446\u0438": 4953,
  "\u0416": 4954,
  "\u0434\u043d\u0430": 4955,
  "\u2581unit": 4956,
  "\u2581\u00a9": 4957,
  "\u2581\u0441\u0438\u043d\u043e\u045c\u0430": 4958,
  "\u0445\u043e": 4959,
  "\u2581suggest": 4960,
  "\u2581\u0432\u0430\u043a\u043e\u0432": 4961,
  "\u2581motherfucker": 4962,
  "\u2581\u0446\u0432\u0440\u0441\u0442\u043e": 4963,
  "\u2581herself": 4964,
  "\u2581\u0411\u0443": 4965,
  "\u2581\u0434\u0432\u0438\u0436\u0438": 4966,
  "\u2581picked": 4967,
  "\u2581\u0421\u0442\u0430\u0432\u0438": 4968,
  "\u2581\u0434\u0432\u0430\u0442\u0430": 4969,
  "\u043b\u0438\u0458\u0430": 4970,
  "\u2581keeps": 4971,
  "\u2581\u0408\u043e\u0432": 4972,
  "based": 4973,
  "\u041c\u0438": 4974,
  "tion": 4975,
  "\u2581liked": 4976,
  "\u2581\u0408\u0435\u0445\u043e\u0432\u0438\u043d\u0438": 4977,
  "\u2581\u041b\u043e\u043d\u0434\u043e\u043d": 4978,
  "\u2581\u043d\u0430\u0443\u0442\u0440\u043e": 4979,
  "\u2581\u043d\u043e\u0437\u0435": 4980,
  "\u2581\u0441\u043f\u0440\u0435\u043c\u043d\u0438": 4981,
  "\u2581\u041f\u043e\u0432\u0435\u045c\u0435\u0442\u043e": 4982,
  "\u2581\u043c\u0438\u043b\u043e\u0441\u0442": 4983,
  "\u2581Ten": 4984,
  "\u2581weekend": 4985,
  "\u2581\u043d\u0435\u043e\u0434\u0430\u043c\u043d\u0430": 4986,
  "\u2581\u0440\u0430\u0441": 4987,
  "\u2581\u0447\u043e\u0432\u0435\u043a\u043e\u0432\u0438": 4988,
  "\u2581San": 4989,
  "\u2581agent": 4990,
  "\u2581\u043f\u0440\u0435\u0434\u0438\u0437\u0432\u0438\u043a\u0443\u0432\u0430": 4991,
  "\u2581corner": 4992,
  "\u2581\u0411\u0440\u0438\u0441\u0435\u043b": 4993,
  "\u2581\u0441\u043f\u0438\u0435": 4994,
  "0,000": 4995,
  "\u2581\u0433\u0440\u0430\u0453\u0430\u043d\u0438": 4996,
  "\u2581Peace": 4997,
  "\u2581upset": 4998,
  "\u2581\u0440\u0430\u0441\u0442": 4999,
  "\u2581despite": 5000,
  "\u2581rain": 5001,
  "\u2581\u0442\u0440\u0443\u0434": 5002,
  "\u043e\u043a": 5003,
  "\u258115.": 5004,
  "\u2581\u0438\u0441\u043a\u0440\u0435\u043d\u043e": 5005,
  "\u2581\u043f\u043e\u0433\u043e\u0434\u0438": 5006,
  "\u2581discussed": 5007,
  "\u2581planned": 5008,
  "\u2581\u043f\u043e\u043b\u043d": 5009,
  "\u2581loyal": 5010,
  "\u2581\u043e\u0434\u043d\u0435\u0441\u0430\u043c": 5011,
  "\u2581\u043f\u043e\u0441\u043b\u0435\u0434\u043d\u0430\u0442\u0430": 5012,
  "\u25818:": 5013,
  "\u2581importance": 5014,
  "\u2581Queen": 5015,
  "\u2581\u0444\u0430\u043a\u0442\u043e\u0442": 5016,
  "\u2581moon": 5017,
  "\u2581significant": 5018,
  "\u2581\u0414\u043e\u0458\u0434\u043e\u0432": 5019,
  "\u2581\u043f\u0440\u0430\u0432\u0438\u043b\u0430": 5020,
  "\u2581Ko": 5021,
  "\u2581challenges": 5022,
  "\u2581gods": 5023,
  "\u2581\u0417\u0430\u0433\u0440\u0435\u0431": 5024,
  "\u2581\u041f\u0430\u043a": 5025,
  "\u2581flesh": 5026,
  "\u2581\u0437\u043d\u0430\u0435\u045a\u0435": 5027,
  "can": 5028,
  "\u2581illegal": 5029,
  "\u2581\u0442\u0432\u0440\u0434\u0438": 5030,
  "\u0432\u043e\u0458": 5031,
  "\u2581deliver": 5032,
  "\u2581river": 5033,
  "\u2581universe": 5034,
  "\u2581\u0434\u043e\u0433\u043e\u0432\u043e\u0440\u0438": 5035,
  "\u2581Four": 5036,
  "\u2581exchange": 5037,
  "\u2581\u0414\u041e": 5038,
  "\u2581\u0421\u043e\u0444\u0438\u0458\u0430": 5039,
  "\u2581\u0441\u043a\u0440\u0448\u0438": 5040,
  "\u2581\u0446\u0435\u043b\u0442\u0430": 5041,
  "\u2581divine": 5042,
  "\u2581\u0434\u0432\u0438\u0436\u0435\u045a\u0435": 5043,
  "\u2581\u043e\u0431\u043b\u0430\u0441\u0442": 5044,
  "\u2581\u0421\u0442\u043e\u0458": 5045,
  "\u2581\u043d\u0430\u0458\u043c\u043d\u043e\u0433\u0443": 5046,
  "\u2581Hang": 5047,
  "\u2581\u0437\u0434\u0440\u0430\u0432\u043e": 5048,
  "\u2581Central": 5049,
  "\u2581model": 5050,
  "\u2581streets": 5051,
  "\u2581\u0421\u0450": 5052,
  "\u2581discovered": 5053,
  "\u2581sexual": 5054,
  "\u2581suffer": 5055,
  "\u2581\u0431\u0440\u0430\u045c\u0430\u0442\u0430": 5056,
  "\u2581\u0432\u0438\u043d\u0430": 5057,
  "\u2581\u043a\u043e\u043b\u0435\u0433\u0430": 5058,
  "\u2581\u043f\u0440\u0435\u0442\u043f\u0440\u0438\u0458\u0430\u0442\u0438\u0435": 5059,
  "\u0442\u043a\u0430": 5060,
  "\u25812012": 5061,
  "\u2581negative": 5062,
  "\u2581\u041e\u0434\u0435\u0442\u0435": 5063,
  "\u2581\u0438\u0437\u0432\u0438\u043d\u0438": 5064,
  "\u2581\u043b\u0438\u0447\u043d\u0438": 5065,
  "\u2581shoes": 5066,
  "\u2581\u0441\u043e\u0433\u043b\u0430\u0441\u043d\u043e\u0441\u0442": 5067,
  "der": 5068,
  "\u2581fucked": 5069,
  "\u2581reality": 5070,
  "\u2581\u043d\u0430\u0458\u0434\u0435\u0442\u0435": 5071,
  "\u2581Box": 5072,
  "\u2581afternoon": 5073,
  "\u2581attacks": 5074,
  "\u2581\u043f\u043e\u043b\u043d\u0430": 5075,
  "\u2581Use": 5076,
  "\u2581acting": 5077,
  "\u2581assistance": 5078,
  "\u2581\u041f\u0440\u0435\u0442\u0441\u0435\u0434\u0430\u0442\u0435\u043b\u043e\u0442": 5079,
  "\u2581\u043c\u0438\u0440\u043e\u0442": 5080,
  "\u043d\u0443": 5081,
  "\u2581crew": 5082,
  "\u2581\u0421\u043e\u043b\u043e\u043c\u043e\u043d": 5083,
  "\u2581grand": 5084,
  "\u2581\u0431\u043e\u0436\u0435": 5085,
  "\u2581\u043f\u043e\u043b\u0435": 5086,
  "\u2581\u0441\u0440\u0435\u0434\u0438\u043d\u0430\u0442\u0430": 5087,
  "\u2581400": 5088,
  "\u2581headed": 5089,
  "Various": 5090,
  "\u2581Later": 5091,
  "\u2581continues": 5092,
  "\u2581\u043e\u043f\u0448\u0442\u0435\u0441\u0442\u0432\u043e": 5093,
  "\u2581\u043f\u043e\u0432\u0438\u043a\u0443\u0432\u0430": 5094,
  "\u2581\u0458\u0430\u0432\u043d\u043e\u0441\u0442\u0430": 5095,
  "\u0442\u0443\u0440": 5096,
  "\u2581\u0458\u0430\u0437\u0438\u0446\u0438": 5097,
  "\u2581forced": 5098,
  "\u2581\u043d\u043e\u0437\u0435\u0442\u0435": 5099,
  "\u043c\u0443": 5100,
  "\u2581absolutely": 5101,
  "\u2581angels": 5102,
  "\u2581center": 5103,
  "\u2581option": 5104,
  "\u2581\u0411\u0435\u0433\u0430\u0458": 5105,
  "\u0440\u043d\u0430": 5106,
  "\u2581\u0434\u0440": 5107,
  "\u2581Hague": 5108,
  "\u2581impact": 5109,
  "\u2581\u0410\u0458": 5110,
  "\u2581\u0433\u0440\u0430\u0434\u043e\u0432\u0438": 5111,
  "\u2581\u0438\u0441\u043a\u043e\u0440\u0438\u0441\u0442\u0438": 5112,
  "\u2581bastard": 5113,
  "\u2581\u041a\u043e\u0440": 5114,
  "\u2581\u0433\u0435\u043d\u0435\u0440\u0430\u043b": 5115,
  "\u2581feed": 5116,
  "\u2581ok": 5117,
  "\u2581\u0421\u0443": 5118,
  "\u2581\u0432\u0438\u043d\u043e\u0432\u0435\u043d": 5119,
  "\u2581\u0442\u0440\u043e\u0458\u0446\u0430": 5120,
  "\u2581cry": 5121,
  "\u2581\u041a\u0438\u043d\u0430": 5122,
  "\u2581\u043f\u0440\u0435\u0442\u043f\u0440\u0438\u0458\u0430\u0442\u0438\u0458\u0430": 5123,
  "\u2581\u0441\u043e\u0434\u0440\u0436\u0438": 5124,
  "\u2581\u0444\u043e\u0440\u043c\u0430": 5125,
  "\u2581\u0447\u043b\u0435\u043d\u043e\u0432\u0438\u0442\u0435": 5126,
  "\u2581task": 5127,
  "\u0440\u043e\u043d": 5128,
  "\u2581beer": 5129,
  "\u2581grab": 5130,
  "\u2581\u0418\u0442\u0430\u043b\u0438\u0458\u0430": 5131,
  "\u2581\u043f\u043b\u0430\u0448\u0438\u0448": 5132,
  "\u2581\u0442\u0435\u0448\u043a\u0430": 5133,
  "\u2581150": 5134,
  "\u2581\u0412\u0435\u0440\u0443\u0432\u0430\u0458": 5135,
  "\u2581cities": 5136,
  "\u2581\u0441\u043b\u0430\u0432\u0430": 5137,
  "\u258148": 5138,
  "\u2581staying": 5139,
  "\u2581troops": 5140,
  "\u2581\u0436\u0438\u0432\u0430": 5141,
  "\u2581\u043f\u043e\u0440\u0430\u043a\u0430\u0442\u0430": 5142,
  "\u2581Revelation": 5143,
  "\u2581\u043f\u043e\u043b\u043e\u0448\u043e": 5144,
  "\u2581Guys": 5145,
  "\u2581visited": 5146,
  "\u2581\u0415\u043f\u0430": 5147,
  "\u2581\u0434\u043e\u0431\u0438\u043b": 5148,
  "\u2581\u043a\u0440\u0438\u0435": 5149,
  "\u2581anger": 5150,
  "\u2581\u0433\u043e\u0434\u0438\u0448\u043d\u043e": 5151,
  "\u2581Richard": 5152,
  "\u2581Robert": 5153,
  "\u2581bird": 5154,
  "\u2581\u0434\u0443\u0445\u043e\u0432\u043d\u0438": 5155,
  "\u2581\u0442\u0438\u043c\u043e\u0442": 5156,
  "\u2581crowd": 5157,
  "\u2581\u0442\u0430\u043a\u0432\u0438\u0442\u0435": 5158,
  "\u2581jobs": 5159,
  "\u0431\u043e\u0440": 5160,
  "\u2581Happy": 5161,
  "\u2581Istanbul": 5162,
  "\u2581deserve": 5163,
  "\u2581\u0421\u043c\u0438\u0440\u0438": 5164,
  "\u2581\u0430\u043a\u0446\u0438\u0458\u0430": 5165,
  "\u2581\u0431\u043b\u0438\u0441\u043a\u0438": 5166,
  "\u2581\u0437\u0430\u0432\u0440\u0448\u0430\u043c": 5167,
  "\u2581below": 5168,
  "\u2581\u0434\u043e\u0437\u043d\u0430\u0435": 5169,
  "\u2581\u0437\u0430\u0431\u0430\u0432\u043d\u043e": 5170,
  "\u2581en": 5171,
  "\u2581filled": 5172,
  "\u2581\u0432\u0438\u0434\u0435\u043b\u0430": 5173,
  "\u2581treatment": 5174,
  "\u2581\u043f\u0440\u0438\u0458\u0430\u0442\u0435\u043b\u0435": 5175,
  "\u0443\u0442": 5176,
  "\u2581Fire": 5177,
  "\u2581fresh": 5178,
  "\u2581\u041a\u043e\u0441\u043e\u0432": 5179,
  "\u2581\u043a\u043e\u043f\u0438\u043b\u0435": 5180,
  "\u2581\u043e\u0432\u043e\u0437\u043c\u043e\u0436\u0438": 5181,
  "And": 5182,
  "lt": 5183,
  "\u2581Want": 5184,
  "\u2581representatives": 5185,
  "\u2581\u041f\u043e\u0432\u0442\u043e\u0440\u043d\u043e": 5186,
  "\u043b\u043d\u0430": 5187,
  "\u2581\u0438\u043c\u0438\u045a\u0430": 5188,
  "\u2581strengthen": 5189,
  "\u2581\u041a\u0435\u0458\u0442": 5190,
  "\u2581Er": 5191,
  "\u2581\u043f\u0440\u0438\u043a\u0430\u0437\u043d\u0430\u0442\u0430": 5192,
  "\u2581Kevin": 5193,
  "\u2581joined": 5194,
  "\u2581\u041a\u0430\u0440": 5195,
  "\u2581\u0441\u0432\u0435\u0442\u0438\u043e\u0442": 5196,
  "\u2581\u040c\u0415": 5197,
  "\u2581\u0441\u0442\u0430\u0432\u0430": 5198,
  "\u2581\u0442\u0443\u0440\u0441\u043a\u0438": 5199,
  "\u0417\u043d\u0430\u043c": 5200,
  "\u2581Jewish": 5201,
  "\u2581\u043d\u0430\u0432\u043e\u0434\u043d\u043e": 5202,
  "\u2581\u043a\u043e\u045a": 5203,
  "\u2581\u043f\u0440\u043e\u0443\u0447\u0443\u0432\u0430": 5204,
  "\u2581\u0441\u0438\u0441\u0442\u0435\u043c\u043e\u0442": 5205,
  "\u2581\u0432\u0440\u0432\u043e\u0442": 5206,
  "my": 5207,
  "ug": 5208,
  "\u2581\u040f": 5209,
  "\u2581\u043a\u0443\u043b\u0442\u0443\u0440\u0430": 5210,
  "\u2581\u043f\u043e\u0434\u043d\u0435\u0441\u0435": 5211,
  "\u2581includes": 5212,
  "\u2581sword": 5213,
  "\u2581\u0420\u043e": 5214,
  "\u2581\u0440\u0430\u0434\u0438\u043e": 5215,
  "\u2581Samuel": 5216,
  "\u2581\u0441\u0440\u0435\u0434\u0430\u043c": 5217,
  "\u2581\u0444\u0430\u043c\u0438\u043b\u0438\u0458\u0430": 5218,
  "\u2581Sarah": 5219,
  "\u2581precious": 5220,
  "\u2581weak": 5221,
  "\u2581\u043f\u0440\u0435\u0442": 5222,
  "\u2581failure": 5223,
  "\u2581\u0412\u0438\u0434\u0435\u0442\u0435": 5224,
  "\u2581\u0437\u0430\u0448\u0442\u0438\u0442\u0438": 5225,
  "\u0443\u0432\u0430\u0448": 5226,
  "\u2581appear": 5227,
  "\u2581\u0433\u0440\u0438\u0436\u0438\u0448": 5228,
  "\u2581\u0438\u0437\u043d\u0435\u0441\u0443\u0432\u0430": 5229,
  "\u2581\u0441\u0442\u0430\u043d": 5230,
  "\u2581chosen": 5231,
  "\u2581cute": 5232,
  "\u2581easily": 5233,
  "\u2581figured": 5234,
  "\u2581powers": 5235,
  "\u2581weight": 5236,
  "\u2581\u043a\u043e\u043d\u0442\u0440\u043e\u043b\u0438\u0440\u0430": 5237,
  "\u2581\u0441\u043b\u0435\u0434\u0438\u043c\u0435": 5238,
  "\u043b\u0435\u0442": 5239,
  "\u2581appropriate": 5240,
  "\u2581\u041a\u0430\u0441": 5241,
  "\u2581\u0441\u043b\u0438\u043a\u0430\u0442\u0430": 5242,
  "\u0433\u043e\u0434": 5243,
  "\u2581\u0427\u0438": 5244,
  "\u2581\u043d\u0430\u0458\u0434\u043e\u0432\u043c\u0435": 5245,
  "\u2581Italy": 5246,
  "\u2581document": 5247,
  "\u2581keys": 5248,
  "\u2581\u0430\u043b\u0431\u0430\u043d\u0441\u043a\u0438": 5249,
  "\u2581\u043f\u043e\u0440\u0430\u043a\u0438": 5250,
  "\u258114,": 5251,
  "\u2581interview": 5252,
  "\u2581exercise": 5253,
  "\u2581\u0434\u043e\u0446\u043d\u0430": 5254,
  "\u2581\u043f\u043e\u0434\u0430\u043b\u0435\u043a\u0443": 5255,
  "\u2581forth": 5256,
  "\u2581\u0437\u0431\u043e\u0440\u0443\u0432\u0430\u0448\u0435": 5257,
  "\u041b\u0410": 5258,
  "\u2581Claire": 5259,
  "\u2581\u0433\u0440\u0438\u0436\u0430\u043c": 5260,
  "\u2581\u0437\u043b\u0430\u0442\u043e": 5261,
  "\u2581\u0440\u0435\u043a\u043b\u0430": 5262,
  "ny": 5263,
  "\u2581coalition": 5264,
  "\u2581turning": 5265,
  "\u2581\u0415\u0432\u0430": 5266,
  "\u2581candidate": 5267,
  "\u2581increased": 5268,
  "\u2581\u0434\u0435\u0441\u043d\u043e": 5269,
  "\u2581\u0442": 5270,
  "\u2581\u0458\u0430\u0434\u0435": 5271,
  "\u2581provides": 5272,
  "\u2581recorded": 5273,
  "lic": 5274,
  "\u0438\u0440\u0430\u045a\u0435": 5275,
  "\u2581Besides": 5276,
  "\u2581Brother": 5277,
  "\u2581claim": 5278,
  "\u25811995": 5279,
  "\u2581stated": 5280,
  "\u2581taste": 5281,
  "\u2581\u0432\u043d\u0430\u0442\u0440\u0435\u0448\u043d\u0438": 5282,
  "\u2581\u0447\u0438\u0458\u0430": 5283,
  "\u2581courage": 5284,
  "\u2581expression": 5285,
  "\u2581movement": 5286,
  "\u2581\u0431\u0440\u0430\u043a\u043e\u0442": 5287,
  "\u2581leaves": 5288,
  "\u2581\u0437\u0430\u0431\u0430\u0432\u0430\u0442\u0430": 5289,
  "za": 5290,
  "\u0444\u0435": 5291,
  "\u2581Ready": 5292,
  "\u2581lesson": 5293,
  "\u2581lower": 5294,
  "\u2581\u043f\u0440\u0438\u043a\u0430\u0437\u043d\u0438": 5295,
  "\u2581\u0440\u0430\u0437\u043c\u0438\u0441\u043b\u0438": 5296,
  "\u2581\u0444\u0440\u043b\u0438": 5297,
  "\u0446\u0438\u0438": 5298,
  "\u2581covered": 5299,
  "\u2581famous": 5300,
  "\u2581\u0433\u0440\u0430\u0453\u0430\u043d\u0438\u0442\u0435": 5301,
  "\u2581\u0434\u043e\u0437\u043d\u0430\u0435\u043c\u0435": 5302,
  "\u2581\u043d\u0435\u0433\u043e\u0432\u0438": 5303,
  "\u2581\u0440\u0430": 5304,
  "\u2581\u0440\u0430\u0437\u0433\u043e\u0432\u0430\u0440\u0430": 5305,
  "\u258116.": 5306,
  "\u2581Other": 5307,
  "\u2581\u043c\u0440\u0442\u0432\u0438\u0442\u0435": 5308,
  "\u2581\u043d\u0435\u0432\u043e\u0437\u043c\u043e\u0436\u043d\u043e": 5309,
  "\u041a\u0430\u0434\u0435": 5310,
  "\u2581\u0428\u0430": 5311,
  "\u2581\u0438\u0433\u0440\u0438": 5312,
  "\u0432\u043e\u0440": 5313,
  "\u2581seeking": 5314,
  "\u2581\u0427\u043e\u0432\u0435\u043a\u043e\u0442": 5315,
  "\u2581\u0434\u0435\u043d\u0435\u0441\u043a\u0430": 5316,
  "ise": 5317,
  "sic": 5318,
  "\u2581Na": 5319,
  "\u2581pal": 5320,
  "\u2581\u043d\u0430\u0434\u0435\u0432\u0430": 5321,
  "\u0433\u0430\u0440": 5322,
  "\u0438\u043c\u0435": 5323,
  "\u2581\u0420\u043e\u0431\u0435\u0440\u0442": 5324,
  "\u2581\u0438\u0441\u0442\u0438\u0442\u0435": 5325,
  "\u258111,": 5326,
  "\u2581lock": 5327,
  "\u2581network": 5328,
  "\u2581\u0441\u043b\u0443\u0448\u043d\u0430\u043b": 5329,
  "\u2581ensure": 5330,
  "\u2581shop": 5331,
  "\u2581\u043f\u0440\u043e\u0441\u0442\u0438": 5332,
  "\u2581homes": 5333,
  "\u2581terrorist": 5334,
  "\u2581\u0412\u0430": 5335,
  "\u2581\u0431\u0430\u0431\u0430": 5336,
  "\u2581\u0432\u0435\u0442\u0443\u0432\u0430\u043c": 5337,
  "\u2581\u0437\u0430\u043f\u0440\u0435": 5338,
  "\u2581basic": 5339,
  "\u2581\u0421\u043b\u0438\u043a\u0438": 5340,
  "\u2581average": 5341,
  "\u2581\u0434\u0435\u0434\u043e": 5342,
  "\u2581Church": 5343,
  "\u2581hundreds": 5344,
  "\u2581\u0432\u0438\u043a\u0430\u0430\u0442": 5345,
  "aj": 5346,
  "\u2581burn": 5347,
  "\u2581\u043a\u043e\u0441\u0430": 5348,
  "\u2581\u043f\u0440\u0438\u0458\u0430\u0442\u0435\u043b\u0438\u0442\u0435": 5349,
  "\u0442\u0430\u0458": 5350,
  "\u2581\u043f\u0435\u0442\u043e\u043a\u043e\u0442": 5351,
  "\u2581glory": 5352,
  "\u2581neck": 5353,
  "\u2581resurrection": 5354,
  "\u2581\u0422\u0443": 5355,
  "les": 5356,
  "\u2581branch": 5357,
  "\u2581judgment": 5358,
  "\u0440\u0434": 5359,
  "\u2581latest": 5360,
  "\u2581\u041d\u0435\u043c\u0430\u0448": 5361,
  "\u2581\u0458\u0430\u0432\u043d\u0438": 5362,
  "\u0430\u043b": 5363,
  "\u2581benefits": 5364,
  "\u2581k": 5365,
  "\u2581stage": 5366,
  "\u2581strike": 5367,
  "\u2581\u043e\u0442\u0438": 5368,
  "\u2581\u0425\u0435\u043d\u0440\u0438": 5369,
  "\u2581Tirana": 5370,
  "\u2581active": 5371,
  "\u0432\u0430\u0458": 5372,
  "\u2581\u0432\u0440\u0430\u045c\u0430\u043c": 5373,
  "\u2581\u0414\u0435\u043d": 5374,
  "\u2581\u0441\u0440\u0435\u0434\u0438": 5375,
  "\u0420\u0430\u0437\u043d\u0438": 5376,
  "\u2581\u043f\u0440\u0435\u0433\u043b\u0435\u0434": 5377,
  "\u2581\u043f\u0440\u0435\u0437\u0435\u043c\u0435": 5378,
  "\u258115,": 5379,
  "\u2581belong": 5380,
  "\u2581\u0410\u043b\u0438": 5381,
  "\u2581fail": 5382,
  "\u2581harm": 5383,
  "\u2581\u043e\u0434\u0440\u0435\u0434\u0435\u043d\u0438": 5384,
  "ya": 5385,
  "\u2581bottom": 5386,
  "\u2581\u0418\u0437\u0433\u043b\u0435\u0434\u0430\u0448": 5387,
  "\u2581\u0413\u0430": 5388,
  "\u2581\u0433\u0440\u0435\u0432": 5389,
  "\u2581Genesis": 5390,
  "\u2581leg": 5391,
  "\u2581sing": 5392,
  "\u2581\u0458\u0430\u0437\u0438\u043a\u043e\u0442": 5393,
  "ig": 5394,
  "\u2581FBI": 5395,
  "\u2581\u0408\u0430\u043a\u043e\u0432": 5396,
  "\u2581\u0441\u043b\u043e\u0431\u043e\u0434\u0435\u043d": 5397,
  "AFP": 5398,
  "\u043d\u043e\u0442": 5399,
  "\u2581\u0434\u0443\u043f\u043a\u0430": 5400,
  "\u2581\u0447\u0438\u0441\u0442\u043e": 5401,
  "\u2581prayers": 5402,
  "\u2581\u0408\u043e": 5403,
  "\u2581\u0421\u0435\u043a\u043e\u0458\u0430": 5404,
  "\u2581\u0447\u0435\u043a\u0430\u0430\u0442": 5405,
  "\u2581\u0447\u0438\u0441\u0442\u0430": 5406,
  "\u2581languages": 5407,
  "\u2581roof": 5408,
  "\u0420\u0415": 5409,
  "\u2581ends": 5410,
  "\u2581dealing": 5411,
  "\u2581\u041a\u0430\u0436\u0435\u0442\u0435": 5412,
  "\u2581\u043c\u043e\u043b\u0438\u0442\u0432\u0430": 5413,
  "\u041c\u0435": 5414,
  "\u043e\u043f": 5415,
  "\u2581examples": 5416,
  "\u2581\u041b\u043e": 5417,
  "\u2581\u0448\u043a\u043e\u043b\u043e": 5418,
  "pa": 5419,
  "\u2581Army": 5420,
  "\u2581\u0421\u0432\u0435\u0434\u043e\u0446\u0438\u0442\u0435": 5421,
  "\u2581experienced": 5422,
  "\u2581mark": 5423,
  "\u2581stole": 5424,
  "\u2581\u0441\u043b\u0438\u0447\u043d\u0438": 5425,
  "\u041f\u0410": 5426,
  "\u2581\u0413\u043e\u0441\u043f\u043e\u0434\u0430": 5427,
  "\u2581\u043f\u043e\u0434\u0433\u043e\u0442\u0432\u0443\u0432\u0430": 5428,
  "\u2581\u0443\u043c\u0438\u0440\u0430": 5429,
  "\u2581magic": 5430,
  "\u2581noticed": 5431,
  "\u2581paying": 5432,
  "\u2581proved": 5433,
  "\u0431\u0430\u0440": 5434,
  "\u2581attended": 5435,
  "\u2581\u043f\u0430\u0440\u043b\u0430\u043c\u0435\u043d\u0442": 5436,
  "\u2581\u043f\u0440\u0435\u043a\u0440\u0430\u0441\u0435\u043d": 5437,
  "ence": 5438,
  "\u0438\u0446\u0430": 5439,
  "\u2581\u043d\u0435\u043f\u0440\u0438\u0458\u0430\u0442\u0435\u043b\u0438": 5440,
  "\u2581\u043e\u0434\u0430\u043c\u043d\u0430": 5441,
  "\u2581\u0441\u0442\u043e\u0442\u0438\u0446\u0438": 5442,
  "but": 5443,
  "\u2581Kill": 5444,
  "\u2581football": 5445,
  "\u2581funds": 5446,
  "\u2581glass": 5447,
  "\u2581\u041c\u043e\u0440\u0435": 5448,
  "mon": 5449,
  "\u043f\u0430\u0442": 5450,
  "\u2581Pre": 5451,
  "\u2581onto": 5452,
  "\u2581\u043e\u0431\u043b\u0430\u0441\u0442\u0438": 5453,
  "ev": 5454,
  "ize": 5455,
  "\u2581nose": 5456,
  "\u2581\u043f\u0438\u0432\u043e": 5457,
  "\u2581\u0441\u043e\u0432\u0435\u0442\u0438": 5458,
  "\u2581\u0444\u0435\u0441\u0442\u0438\u0432\u0430\u043b": 5459,
  "Oh": 5460,
  "ized": 5461,
  "ol": 5462,
  "\u043d\u0443\u0432\u0430\u045a\u0435": 5463,
  "\u2581\u043a\u043e\u043c\u043f\u0430\u043d\u0438\u0458\u0430": 5464,
  "\u2581administration": 5465,
  "\u2581everlasting": 5466,
  "\u2581experts": 5467,
  "\u2581\u043d\u0430\u0447\u0435\u043b\u0430": 5468,
  "\u2581behavior": 5469,
  "\u2581chose": 5470,
  "\u2581Pa": 5471,
  "\u2581dropped": 5472,
  "\u2581Association": 5473,
  "\u2581\u0435\u0458": 5474,
  "\u2581Young": 5475,
  "\u2581\u043f\u043e\u043a\u0430\u0436\u0435\u043c\u0435": 5476,
  "\u2581\u0442\u0435\u043c\u0435\u043b": 5477,
  "\u258142": 5478,
  "\u2581Ar": 5479,
  "\u2581duty": 5480,
  "\u2581files": 5481,
  "\u2581politicians": 5482,
  "\u2581\u0441\u043c\u0438\u0440\u0438": 5483,
  "\u2581\u0443\u043c\u0440\u0435\u043b": 5484,
  "\u2581\u0440\u0430\u0437\u0431\u0443\u0434\u0438": 5485,
  "\u2581\u0441\u0442\u0430\u0440\u0430": 5486,
  "\u0431\u043e\u043b": 5487,
  "\u2581EC": 5488,
  "\u2581centuries": 5489,
  "\u2581\u043f\u043e\u0442\u0442\u0438\u043a\u043d\u0443\u0432\u0430": 5490,
  "escu": 5491,
  "\u2581\u041d\u0430\u0458\u0432\u0435\u0440\u043e\u0458\u0430\u0442\u043d\u043e": 5492,
  "\u2581\u0432\u0440\u0430\u0442\u0438\u0432": 5493,
  "\u2581\u043f\u043b\u0430\u043d\u043e\u0432\u0438": 5494,
  "ical": 5495,
  "\u2581Hebrew": 5496,
  "\u2581resources": 5497,
  "\u2581\u0434\u043e\u0458\u0434\u0435\u0442\u0435": 5498,
  "\u0442\u0440\u0435": 5499,
  "\u2581\u041f\u0430\u0440\u0438\u0437": 5500,
  "\u2581\u0431\u043e\u0440\u0438": 5501,
  "\u2581\u043a\u0443\u0440": 5502,
  "\u2581\u0441\u043e\u0437\u0434\u0430\u0432\u0430": 5503,
  "\u0431\u0440\u0438": 5504,
  "\u0440\u0430\u0441": 5505,
  "\u2581territory": 5506,
  "Let": 5507,
  "\u0448\u043a\u0430": 5508,
  "\u2581Republic": 5509,
  "\u2581central": 5510,
  "\u2581faces": 5511,
  "\u2581hi": 5512,
  "\u2581\u0422\u0412": 5513,
  "\u2581\u0440\u043e\u0431": 5514,
  "\u0447\u043a\u0438\u0442\u0435": 5515,
  "\u2581Canada": 5516,
  "\u2581tongue": 5517,
  "\u2581\u043f\u043e\u0442\u0435\u0433": 5518,
  "All": 5519,
  "\u2581\u0437\u0430\u043a\u0430\u043d\u0430": 5520,
  "\u2581\u043a\u0438\u043f\u0430\u0440\u0441\u043a\u0438": 5521,
  "\u2581\u0441\u043e\u0432\u0440\u0448\u0435\u043d\u043e": 5522,
  "92": 5523,
  "\u2581Soon": 5524,
  "\u2581prepare": 5525,
  "han": 5526,
  "ship": 5527,
  "\u043b\u0438\u0432\u0438": 5528,
  "\u2581Henry": 5529,
  "\u2581developed": 5530,
  "\u2581festival": 5531,
  "\u2581victim": 5532,
  "\u2581\u0437\u0433\u0440\u0430\u0434\u0430\u0442\u0430": 5533,
  "\u0430\u0432": 5534,
  "\u2581appears": 5535,
  "\u2581\u0448\u0442\u043e\u0442\u0443\u043a\u0443": 5536,
  "\u2581Bucharest": 5537,
  "\u2581invitation": 5538,
  "\u2581\u0422\u0438\u0440\u0430\u043d\u0430": 5539,
  "\u2581\u043f\u0440\u043e\u0438\u0437\u0432\u043e\u0434\u0438": 5540,
  "\u2581\u0430\u0432\u0442\u043e\u043c\u043e\u0431\u0438\u043b\u043e\u0442": 5541,
  "\u2581\u0433\u0440\u0435\u0448\u043a\u0438": 5542,
  "\u2581\u0434\u043e\u043a\u0443\u043c\u0435\u043d\u0442\u0438": 5543,
  "\u2581\u0437\u0430\u0431\u043e\u0440\u0430\u0432\u0438": 5544,
  "\u2581\u043d\u043e\u045c\u0442\u0430": 5545,
  "\u2581\u043f\u0440\u043e\u0431\u0430": 5546,
  "\u0445\u0438": 5547,
  "\u2581\u041b\u0443\u043a\u0430": 5548,
  "\u2581\u043c\u0443\u0434\u0440\u043e\u0441\u0442": 5549,
  "\u0421\u0438": 5550,
  "\u2581spiritually": 5551,
  "\u2581\u0414\u043e\u0432\u043e\u043b\u043d\u043e": 5552,
  "\u2581\u041a\u0440\u0438\u0441": 5553,
  "\u2581\u0434\u0430\u0434\u0430\u0442": 5554,
  "\u2581\u0438\u0433\u0440\u0430\u0448": 5555,
  "\u2581\u043d\u043e\u0432\u0438\u043d\u0430\u0440\u0438\u0442\u0435": 5556,
  "\u2581effective": 5557,
  "\u2581relax": 5558,
  "\u2581stone": 5559,
  "\u2581youth": 5560,
  "\u2581\u043e\u0441\u0442\u0440\u043e\u0432": 5561,
  "\u2581\u043f\u0440\u0430\u0432\u0435\u043b": 5562,
  "\u041a\u0430": 5563,
  "\u2581whoa": 5564,
  "\u2581\u043f\u0440\u0438\u0458\u0430\u0442\u0435\u043b\u043a\u0430": 5565,
  "\u0447\u0438\u0442\u0435": 5566,
  "\u2581guilty": 5567,
  "\u2581\u0438\u0437\u0432\u0440\u0448\u0438": 5568,
  "For": 5569,
  "\u2581becomes": 5570,
  "\u2581wondering": 5571,
  "\u2581\u0438\u0434\u0435\u0438": 5572,
  "\u2581\u043f\u0440\u0438\u0447\u0438\u043d\u0430\u0442\u0430": 5573,
  "\u2581turns": 5574,
  "\u2581\u0432\u0435\u043b\u0435\u0458\u045c\u0438": 5575,
  "\u2581\u0435\u0434\u043d\u0438": 5576,
  "\u2581\u0444\u0430": 5577,
  "\u2581Cor": 5578,
  "\u2581Noah": 5579,
  "\u2581\u0408\u043e\u0441\u0438\u0444": 5580,
  "\u2581\u043e\u0431\u0458\u0430\u0441\u043d\u0430\u043c": 5581,
  "\u2581\u043f\u043e\u0441\u043b\u0435\u0434\u043d\u043e": 5582,
  "\u0438\u043d\u0433": 5583,
  "\u2581ordered": 5584,
  "\u2581\u0422\u0430\u0458": 5585,
  "\u2581\u043f\u043e\u0432\u043b\u0435\u0447\u0435": 5586,
  "\u2581\u043f\u043e\u0441\u043b\u0435\u0434\u0438\u0446\u0438": 5587,
  "\u2581Down": 5588,
  "\u2581familiar": 5589,
  "\u258115:": 5590,
  "\u2581legs": 5591,
  "\u2581\u0411\u043e\u0433\u0430": 5592,
  "\u2581\u041c\u0435\u0453\u0443": 5593,
  "\u2581\u0420\u0430": 5594,
  "\u2581meat": 5595,
  "\u2581Society": 5596,
  "\u2581carried": 5597,
  "\u2581\u043a\u0443\u043b": 5598,
  "\u2581\u0443\u0441\u043f\u0435\u0445": 5599,
  "\u2581\u0444\u0438\u043d\u0430\u043d\u0441\u0438\u0441\u043a\u0438": 5600,
  "right": 5601,
  "\u25819:": 5602,
  "\u2581appointed": 5603,
  "\u2581consequences": 5604,
  "\u2581directly": 5605,
  "\u2581roll": 5606,
  "\u2581Car": 5607,
  "\u2581\u041d\u0430\u0448\u0438\u043e\u0442": 5608,
  "\u2581\u0441\u0432\u0435\u0442\u0441\u043a\u0438": 5609,
  "\u2581lines": 5610,
  "\u2581proof": 5611,
  "\u043d\u0441": 5612,
  "\u2581shooting": 5613,
  "\u2581\u0438\u0437\u043b\u0435\u0437": 5614,
  "\u2581\u0421\u0435\u0440\u0438\u043e\u0437\u043d\u043e": 5615,
  "\u2581\u0437\u043d\u0430\u0447\u0435\u045a\u0435": 5616,
  "\u2581Reuters": 5617,
  "\u2581\u043c\u0430\u0436\u0438\u0442\u0435": 5618,
  "\u043d\u0430\u0442": 5619,
  "\u2581Mexico": 5620,
  "\u2581bathroom": 5621,
  "\u2581trees": 5622,
  "\u2581\u043e\u0434\u0433\u043e\u0432\u043e\u0440\u0435\u043d": 5623,
  "po": 5624,
  "\u0441\u0442\u0440\u0438": 5625,
  "\u2581fired": 5626,
  "\u2581sleeping": 5627,
  "\u2581\u0442\u0435\u0436\u043e\u043a": 5628,
  "\u2581\u0418\u0440\u0430\u043a": 5629,
  "\u2581\u0432\u0440\u0448\u0438": 5630,
  "\u2581Ankara": 5631,
  "\u2581personally": 5632,
  "\u2581\u0434\u043e\u0437\u0432\u043e\u043b\u0443\u0432\u0430": 5633,
  "\u2581\u043f\u0430\u0442\u0438\u0448\u0442\u0430": 5634,
  "\u2581\u0414\u0440\u0436\u0430\u0432\u0438": 5635,
  "\u2581\u041c\u0430\u0440\u0438": 5636,
  "\u2581\u043c\u043e\u043c\u0435\u043d\u0442\u043e\u0442": 5637,
  "\u2581\u043f\u043e\u043b\u0438\u0442\u0438\u043a\u0430\u0442\u0430": 5638,
  "\u2581Long": 5639,
  "\u2581\u043e\u0442\u0432\u043e\u0440\u0435\u043d\u0430": 5640,
  "\u2581\u043f\u043e\u0441\u0442\u0438\u0433\u043d\u0430\u0442": 5641,
  "ana": 5642,
  "\u043c\u0430\u0442\u0430": 5643,
  "\u2581Better": 5644,
  "\u2581cancer": 5645,
  "\u2581\u0421\u0432\u0435\u0434\u043e\u0446\u0438": 5646,
  "\u043d\u0438\u0446\u0430\u0442\u0430": 5647,
  "\u2581AP": 5648,
  "\u2581produce": 5649,
  "\u2581breath": 5650,
  "\u2581\u041f\u0441\u0430\u043b\u043c": 5651,
  "\u2581\u043d\u0430\u043f\u0430\u0434\u0438": 5652,
  "\u2581\u043e\u0431\u043b\u0430\u0441\u0442\u0430": 5653,
  "\u2581\u0414\u0440\u0443\u0433\u0438": 5654,
  "\u2581\u0441\u0430\u043c\u0430\u0442\u0430": 5655,
  "\u2581Agency": 5656,
  "\u2581Saul": 5657,
  "\u2581acts": 5658,
  "\u2581independent": 5659,
  "\u2581Iraq": 5660,
  "\u2581victory": 5661,
  "\u2581\u0420\u043e\u0458\u0442\u0435\u0440\u0441": 5662,
  "\u2581\u0433\u043e\u043b\u0435\u043c\u0438\u043e\u0442": 5663,
  "she": 5664,
  "\u2581carefully": 5665,
  "\u2581\u0421\u0442\u0438\u0432": 5666,
  "\u2581\u043d\u043e\u0440\u043c\u0430\u043b\u043d\u043e": 5667,
  "\u2581\u0441\u0443\u0448\u0442\u0435\u0441\u0442\u0432\u0430": 5668,
  "\u2581\u0434\u0430\u0434\u0435\u043c\u0435": 5669,
  "\u2581\u0441\u0443\u0434\u043e\u0442": 5670,
  "They": 5671,
  "\u2581\u043c\u043e\u0440\u0430\u0448\u0435": 5672,
  "\u2581\u0441\u0440\u043f\u0441\u043a\u0438\u0442\u0435": 5673,
  "\u0410\u0422": 5674,
  "\u2581conscience": 5675,
  "\u2581\u0438\u0437\u0433\u0443\u0431\u0438\u0432": 5676,
  "\u2581bridge": 5677,
  "\u2581pulled": 5678,
  "\u2581\u041a\u0435\u0432\u0438\u043d": 5679,
  "\u2581\u043e\u043f\u0430\u0441\u043d\u043e": 5680,
  "\u0408\u0430": 5681,
  "\u2581competition": 5682,
  "\u2581\u041c\u0430\u0440\u043a": 5683,
  "\u0437\u0438\u0458\u0430": 5684,
  "\u2581Forget": 5685,
  "\u2581mountain": 5686,
  "\u2581\u041e\u043d\u043e\u0458": 5687,
  "\u2581\u0438\u0437\u0433\u0440\u0430\u0434\u0438": 5688,
  "\u2581\u043e\u043f\u0440\u0435\u043c\u0430": 5689,
  "\u043f\u043e\u0440": 5690,
  "\u2581officers": 5691,
  "\u2581presented": 5692,
  "\u2581\u043f\u043e\u0431\u0435\u0434\u0430": 5693,
  "\u2581\u0441\u0438\u043d\u043e\u0432\u0438": 5694,
  "\u2581bunch": 5695,
  "\u2581flying": 5696,
  "\u2581\u0403\u0430\u0432\u043e\u043b\u043e\u0442": 5697,
  "\u2581\u0432\u0438\u0441\u043e\u043a": 5698,
  "\u2581\u0447\u0438\u0441\u0442\u0438": 5699,
  "\u2581adopted": 5700,
  "\u2581privilege": 5701,
  "\u2581traffic": 5702,
  "\u2581\u0415\u0434\u043d\u0430\u0448": 5703,
  "\u0438\u0437\u043c\u043e\u0442": 5704,
  "\u2581Meanwhile": 5705,
  "\u2581\u0434\u043e\u0430\u0453\u0430\u043c": 5706,
  "\u2581\u0438\u0433\u0440\u0430\u0442\u0430": 5707,
  "\u2581\u043e\u043a\u043e\u043b\u043d\u043e\u0441\u0442\u0438": 5708,
  "\u2581\u043f\u043e\u0447\u0438\u0442\u0443\u0432\u0430": 5709,
  "\u2581\u0441\u0435\u043c\u0435\u0458\u0441\u0442\u0432\u0430": 5710,
  "\u2581\u0437\u0430\u043f\u043e\u0447\u043d\u0443\u0432\u0430": 5711,
  "\u2581KDE": 5712,
  "\u2581\u0421\u0440\u043f\u0441\u043a\u0438": 5713,
  "\u2581\u043f\u0440\u0435\u0434\u043b\u043e\u0433": 5714,
  "\u2581Tower": 5715,
  "\u2581designed": 5716,
  "\u2581worldwide": 5717,
  "\u2581\u0441\u043b\u043e\u0431\u043e\u0434\u0430\u0442\u0430": 5718,
  "\u0448\u043a\u0438": 5719,
  "\u2581destruction": 5720,
  "\u2581production": 5721,
  "\u2581\u0437\u0430\u043c\u0435\u043d\u0438": 5722,
  "\u2581\u0443\u0436\u0430\u0441\u043d\u043e": 5723,
  "\u0458\u043e": 5724,
  "\u2581pregnant": 5725,
  "\u2581\u043c\u0435\u0440\u0438\u043b\u0430": 5726,
  "\u2581\u043f\u0440\u0435\u0434\u0443\u043f\u0440\u0435\u0434\u0438": 5727,
  "\u2581Easy": 5728,
  "\u2581lands": 5729,
  "\u2581\u041c\u0418": 5730,
  "\u2581\u041a\u043e\u043b": 5731,
  "\u2581\u0437\u0430\u0432\u0440\u0448\u0438\u043c\u0435": 5732,
  "\u258114:": 5733,
  "\u2581blessing": 5734,
  "\u2581\u043f\u0440\u043e\u0434\u0430\u0432\u0430": 5735,
  "\u2581\u0440\u0430\u0437\u043d\u0438": 5736,
  "\u2581convinced": 5737,
  "\u2581\u040f\u0435\u0458": 5738,
  "\u2581\u0432\u0435\u0447\u0435\u043d": 5739,
  "\u2581\u0434\u0440\u0436\u0430\u0442": 5740,
  "\u2581\u043b\u0438\u0447\u0438": 5741,
  "\u2581\u0443\u0431\u0438\u0435\u043d": 5742,
  "\u043b\u0438\u0432\u0430": 5743,
  "\u2581bread": 5744,
  "\u2581Doctor": 5745,
  "\u2581captain": 5746,
  "\u2581dis": 5747,
  "\u2581\u0421\u0430\u043c": 5748,
  "\u2581photo": 5749,
  "\u2581yourselves": 5750,
  "\u0447\u0430\u0442": 5751,
  "\u2581prophecy": 5752,
  "\u2581\u041a\u043e\u043d\u0435\u0447\u043d\u043e": 5753,
  "io": 5754,
  "\u043e\u0432\u0430\u0442\u0430": 5755,
  "\u2581domestic": 5756,
  "\u2581suspect": 5757,
  "\u2581\u0441\u0432\u043e\u0435": 5758,
  "\u2581\u0446\u0435\u043b\u043e\u0441\u043d\u0430": 5759,
  "\u041c\u0415": 5760,
  "\u2581\u0434\u043e\u0434\u0430\u0432\u0430": 5761,
  "\u2581\u043f\u0440\u0435\u0441\u0442\u0430\u043d\u0438": 5762,
  "\u2581Ray": 5763,
  "\u2581\u0434\u0430\u0432\u0430\u043c": 5764,
  "vi": 5765,
  "\u0433\u043e\u0440": 5766,
  "\u2581Uncle": 5767,
  "\u2581chapter": 5768,
  "\u2581\u0413\u043e\u0442\u043e\u0432\u043e": 5769,
  "\u0442\u043d\u0438": 5770,
  "\u2581\u0418\u043d": 5771,
  "\u2581\u041f\u0440\u0435\u043a\u0440\u0430\u0441\u043d\u043e": 5772,
  "\u2581\u043d\u0430\u043f\u0440\u0430\u0432\u0438\u043b\u0430": 5773,
  "\u2581\u043f\u043e\u0441\u0442\u0430\u0432\u0438": 5774,
  "\u2581stability": 5775,
  "\u2581\u0441\u043e\u0437\u0434\u0430\u043b": 5776,
  "Reuters": 5777,
  "ator": 5778,
  "\u0420\u043e\u0458\u0442\u0435\u0440\u0441": 5779,
  "\u2581\u0418\u0441\u0442\u0430\u043d\u0431\u0443\u043b": 5780,
  "\u2581\u0432\u0430\u043a\u0432\u043e": 5781,
  "\u2581\u0442\u0435\u043a\u0441\u0442": 5782,
  "\u2581Tommy": 5783,
  "\u2581dry": 5784,
  "\u2581\u0420\u0443": 5785,
  "\u2581\u043c\u0435\u0447": 5786,
  "\u2581Ho": 5787,
  "\u2581driver": 5788,
  "\u2581sides": 5789,
  "\u2581\u0432\u043d\u0438\u043c\u0430\u043d\u0438\u0435\u0442\u043e": 5790,
  "\u2581\u043f\u0435": 5791,
  "pi": 5792,
  "\u2581\u043f\u0440\u0435\u0433\u043e\u0432\u043e\u0440\u0438\u0442\u0435": 5793,
  "\u2581\u0438\u0437\u043d\u0435\u043d\u0430\u0434\u0443\u0432\u0430\u045a\u0435": 5794,
  "\u2581\u043d\u0430\u0448\u0438": 5795,
  "\u2581\u0411\u0443\u043a\u0443\u0440\u0435\u0448\u0442": 5796,
  "\u2581\u0413\u043e\u043b\u0435\u043c": 5797,
  "\u2581wide": 5798,
[...]
