{
  "</s>": 0,
  "<unk>": 1,
  ".": 2,
  ",": 3,
  "\u2581the": 4,
  "s": 5,
  "-": 6,
  "\u2581to": 7,
  "\u2581of": 8,
  "'": 9,
  ":": 10,
  "\u2581a": 11,
  "\u2581eta": 12,
  "\u2581and": 13,
  "?": 14,
  "\u2581da": 15,
  "\u2581in": 16,
  "\u2581-": 17,
  "\u2581I": 18,
  "\u2581_": 19,
  "\u2581ez": 20,
  "a": 21,
  "\u2581you": 22,
  "\u2581%": 23,
  "\u2581is": 24,
  "ren": 25,
  ")": 26,
  "\u2581that": 27,
  "!": 28,
  "\u2581for": 29,
  ";": 30,
  "\u2581bat": 31,
  "\u2581\"": 32,
  "\u2581it": 33,
  "ko": 34,
  "\u2581not": 35,
  "...": 36,
  "en": 37,
  "ak": 38,
  "\u2581du": 39,
  "\u2581be": 40,
  "t": 41,
  "\u2581(": 42,
  "\u2581on": 43,
  "\u2581The": 44,
  "\u2581with": 45,
  "\u2581": 46,
  "\u2581this": 47,
  "\u2581was": 48,
  "k": 49,
  "\u2581egin": 50,
  "d": 51,
  "\u2581as": 52,
  "\u2581he": 53,
  "n": 54,
  "_": 55,
  "\u2581or": 56,
  "\u2581izan": 57,
  "\u2581are": 58,
  "\u2581zuen": 59,
  "\u2581at": 60,
  "\u2581ere": 61,
  "\u2581edo": 62,
  "\u2581from": 63,
  "\u2581have": 64,
  "\u2581Ez": 65,
  "e": 66,
  "\"": 67,
  "\u2581by": 68,
  "\u2581zen": 69,
  "z": 70,
  "\u2581his": 71,
  "/": 72,
  "\u2581behar": 73,
  "\u2581all": 74,
  "\u2581your": 75,
  "\u2581You": 76,
  "\u2581me": 77,
  "rik": 78,
  "\u2581will": 79,
  "\u2581can": 80,
  "\u2581'": 81,
  "\u2581an": 82,
  "\u2581'%": 83,
  "\u2581nahi": 84,
  "aren": 85,
  "\u2581they": 86,
  "\u2581which": 87,
  "\u2581had": 88,
  "ek": 89,
  "\u2581Ezin": 90,
  "\u2581one": 91,
  "\u2581bere": 92,
  "\u2581dira": 93,
  "ra": 94,
  "ri": 95,
  "\u2581but": 96,
  "\u2581him": 97,
  "\u2581my": 98,
  "\u2581dut": 99,
  "m": 100,
  "\u2581dago": 101,
  "\u2581file": 102,
  "\u2581we": 103,
  "\u2581den": 104,
  "\u2581A": 105,
  "\u2581hau": 106,
  "\u2581duzu": 107,
  "\u2581her": 108,
  "ing": 109,
  "\u2581them": 110,
  "an": 111,
  "\u2581when": 112,
  "\u2581do": 113,
  "\u2581no": 114,
  "\u2581if": 115,
  "\u2581so": 116,
  "\u2581baina": 117,
  "\u2581up": 118,
  "\u2581hori": 119,
  "re": 120,
  "(": 121,
  "\u2581It": 122,
  "\u2581And": 123,
  "\u2581beste": 124,
  "\u2581out": 125,
  "\u2581there": 126,
  "\u2581Eta": 127,
  "\u2581He": 128,
  "\u2581egiten": 129,
  "\u2581what": 130,
  "\u2581their": 131,
  "\u2581has": 132,
  "\u2581This": 133,
  "\u2581said": 134,
  "\u2581were": 135,
  "\u2581she": 136,
  "\u2581know": 137,
  "ed": 138,
  "tik": 139,
  "\u2581like": 140,
  "\u2581who": 141,
  "\u2581time": 142,
  "\u2581more": 143,
  "\u2581name": 144,
  "\u2581ezin": 145,
  "\u2581esan": 146,
  ".\"": 147,
  "\u2581If": 148,
  "\u2581been": 149,
  "\u2581only": 150,
  "I": 151,
  "i": 152,
  "\u2581ari": 153,
  "]": 154,
  "\u2581\"%": 155,
  "\u2581would": 156,
  "\u2581No": 157,
  "\u2581want": 158,
  "\u2581about": 159,
  "\u2581any": 160,
  "\u2581right": 161,
  "r": 162,
  "etan": 163,
  "\u2581[": 164,
  "rekin": 165,
  "\u2581gabe": 166,
  "\u2581baino": 167,
  "\u2581zure": 168,
  "\u2581other": 169,
  "\u2581What": 170,
  "\u2581bezala": 171,
  "\u2581should": 172,
  "\u2581then": 173,
  "\u2581man": 174,
  "\u2581into": 175,
  "\u2581here": 176,
  "\u2581guztiak": 177,
  "\u2581batean": 178,
  "\u2581use": 179,
  "\u2581bada": 180,
  "ll": 181,
  "\u2581don": 182,
  "\u2581But": 183,
  "\u2581duen": 184,
  "\u2581get": 185,
  "\u2581baten": 186,
  "\u2581new": 187,
  "\u2581could": 188,
  "\u2581window": 189,
  "\u2581ditu": 190,
  "\u2581Baina": 191,
  "\u2581key": 192,
  "\u2581see": 193,
  "y": 194,
  "ez": 195,
  "\u2581izango": 196,
  "ta": 197,
  "\u2581To": 198,
  "\u2581GNOME": 199,
  "\u2581just": 200,
  "\u2581go": 201,
  "\u2581We": 202,
  "\u2581&": 203,
  "\u2581zion": 204,
  "\u2581naiz": 205,
  "tzen": 206,
  "\u2581list": 207,
  "\u2581folder": 208,
  "\u2581nire": 209,
  "\u2581size": 210,
  "\u2581dute": 211,
  "\u2581gisa": 212,
  "\u2581some": 213,
  "\u2581than": 214,
  "\u2581gehiago": 215,
  "\u2581fitxategia": 216,
  "\u2581used": 217,
  "\u2581ziren": 218,
  "ei": 219,
  "\u2581now": 220,
  "\u2581diren": 221,
  "\u2581izena": 222,
  "\u2581us": 223,
  "\u2581Show": 224,
  "\u2581down": 225,
  "\u2581nuen": 226,
  "\u2581%1$": 227,
  "S": 228,
  "\u2581Hautatu": 229,
  "\u2581message": 230,
  "\u2581may": 231,
  "tu": 232,
  "p": 233,
  "\u2581must": 234,
  "x": 235,
  "\u2581Zer": 236,
  "\u2581set": 237,
  "\u2581%2$": 238,
  "\u2581gero": 239,
  "\u2581our": 240,
  "\u2581bi": 241,
  "er": 242,
  "\u2581files": 243,
  "\u2581Erakutsi": 244,
  "\u2581eman": 245,
  "\u2581Could": 246,
  "ve": 247,
  "\u2581egingo": 248,
  "\u2581zer": 249,
  "A": 250,
  "\u2581over": 251,
  "\u2581dela": 252,
  "\u2581two": 253,
  "ly": 254,
  "\u2581fitxategi": 255,
  "\u2581image": 256,
  "ean": 257,
  "\u2581its": 258,
  "\u2581same": 259,
  "\u2581make": 260,
  "\u2581zuten": 261,
  "ekin": 262,
  "\u2581zara": 263,
  "c": 264,
  "\u2581Errorea": 265,
  "\u2581game": 266,
  "eko": 267,
  "\u2581did": 268,
  "ari": 269,
  "\u2581back": 270,
  "in": 271,
  ",\"": 272,
  "\u2581Select": 273,
  "\u2581good": 274,
  "\u2581dugu": 275,
  "ik": 276,
  "\u2581these": 277,
  "\u2581before": 278,
  "\u2581very": 279,
  "\u2581Evolution": 280,
  "\u2581selected": 281,
  "\u2581In": 282,
  "\u2581open": 283,
  "\u2581Bai": 284,
  "\u2581Error": 285,
  "\u2581Whether": 286,
  "\u25811": 287,
  "\u2581ematen": 288,
  "\u2581berria": 289,
  "\u2581first": 290,
  "\u2581al": 291,
  "\u2581aurkitu": 292,
  "\u2581those": 293,
  "\u2581think": 294,
  "\u2581klik": 295,
  "\u2581That": 296,
  "\u2581There": 297,
  "o": 298,
  "\u2581bakarrik": 299,
  "\u2581E": 300,
  "M": 301,
  "\u2581say": 302,
  "?\"": 303,
  "\u2581text": 304,
  "\u2581way": 305,
  "\u2581got": 306,
  "\u2581Do": 307,
  "\u2581All": 308,
  "\u2581come": 309,
  "\u2581ikusi": 310,
  "\u2581bai": 311,
  "\u2581For": 312,
  "\u2581too": 313,
  "\u2581karpeta": 314,
  "\u2581people": 315,
  "\u2581made": 316,
  "\u2581ala": 317,
  "\u2581(%": 318,
  "\u2581after": 319,
  "\u2581how": 320,
  "\u2581number": 321,
  "\u2581She": 322,
  "\u2581They": 323,
  "\u2581haren": 324,
  "\u2581where": 325,
  "l": 326,
  "\u2581left": 327,
  "\u2581little": 328,
  "\u2581being": 329,
  "u": 330,
  "go": 331,
  "\u2581aukera": 332,
  "\u2581such": 333,
  "\u2581again": 334,
  "g": 335,
  "\u2581type": 336,
  "\u2581X": 337,
  "\u2581does": 338,
  "f": 339,
  "\u2581current": 340,
  "\u2581also": 341,
  "\u2581batera": 342,
  "\u2581hemen": 343,
  "\u2581C": 344,
  "\u2581S": 345,
  "\u2581data": 346,
  "\u2581artean": 347,
  "B": 348,
  "\u2581batek": 349,
  "tako": 350,
  "\u2581Please": 351,
  "tan": 352,
  "\u2581find": 353,
  "\u2581berri": 354,
  "C": 355,
  "\u2581zituen": 356,
  "%": 357,
  "\u2581move": 358,
  "\u2581zerrenda": 359,
  "\".": 360,
  "\u2581because": 361,
  "\u2581karta": 362,
  "\u2581even": 363,
  "\u2581OF": 364,
  "era": 365,
  "\u2581hartu": 366,
  "\u2581So": 367,
  "\u2581joan": 368,
  "\u2581baduzu": 369,
  "\u2581without": 370,
  "\u2581found": 371,
  "\u2581hitz": 372,
  "\u2581another": 373,
  "\u2581zegoen": 374,
  "\u2581gure": 375,
  "\u2581take": 376,
  "\u2581berriro": 377,
  "\u2581oso": 378,
  "tzeko": 379,
  "\u2581last": 380,
  "esan": 381,
  "\u2581much": 382,
  "\u2581uste": 383,
  "\u2581each": 384,
  "\u2581laster": 385,
  "\u2581value": 386,
  "\u2581When": 387,
  "\u2581gauza": 388,
  "\u2581own": 389,
  "\u2581bera": 390,
  "\u2581dagoen": 391,
  "\u2581egon": 392,
  "\u2581never": 393,
  "\u2581honetan": 394,
  "\u2581erabili": 395,
  "\u2581going": 396,
  "\u2581men": 397,
  "b": 398,
  "\u2581God": 399,
  "izena": 400,
  "\u25812": 401,
  "\u2581server": 402,
  "\u2581mota": 403,
  "ki": 404,
  "\u2581adierazten": 405,
  "\u2581hura": 406,
  "\u2581off": 407,
  "\u2581<": 408,
  "\u2581honek": 409,
  "es": 410,
  "ka": 411,
  "\u2581shall": 412,
  "\u2581things": 413,
  "Ez": 414,
  "2": 415,
  "\u2581erabiltzen": 416,
  "\u2581while": 417,
  "\u2581cannot": 418,
  "\u2581tamaina": 419,
  "\u2581menu": 420,
  "\u2581error": 421,
  "\u2581day": 422,
  "\u2581K": 423,
  "\u2581New": 424,
  "\u2581Erabili": 425,
  "\u2581need": 426,
  "\u2581utzi": 427,
  "\u2581dena": 428,
  "or": 429,
  "\u2581File": 430,
  "\u2581information": 431,
  "\u2581ondoren": 432,
  "\u2581arte": 433,
  "\u2581asko": 434,
  "\u2581THE": 435,
  "\u2581option": 436,
  "D": 437,
  "\u2581kopurua": 438,
  "\u2581huts": 439,
  "\u2581e": 440,
  "\u2581am": 441,
  "\u2581Use": 442,
  ":%": 443,
  "\u2581EDO": 444,
  "\u2581through": 445,
  "\u2581hautatutako": 446,
  "\u2581batzuk": 447,
  "\u2581ahal": 448,
  "\u2581hain": 449,
  "\u2581uneko": 450,
  "\u2581colour": 451,
  "\u2581something": 452,
  "\u2581life": 453,
  "\u2581Cannot": 454,
  "\u2581zela": 455,
  "al": 456,
  "\u2581duten": 457,
  "\u2581nola": 458,
  "\u2581sortu": 459,
  "\u2581create": 460,
  "\u2581fitxategiak": 461,
  "\u2581Add": 462,
  "\u2581beharko": 463,
  "\u2581great": 464,
  "\u2581well": 465,
  ">": 466,
  "\u2581arabera": 467,
  "\u2581long": 468,
  "\u2581lehen": 469,
  "\u2581many": 470,
  "\u2581under": 471,
  "\u2581already": 472,
  "\u2581still": 473,
  "\u2581egiteko": 474,
  "\u2581card": 475,
  "\u2581orain": 476,
  "\u2581elkarrizketa": 477,
  "\u2581user": 478,
  "\u2581Move": 479,
  "to": 480,
  "\u2581came": 481,
  "\u2581every": 482,
  "\u2581Huts": 483,
  "\u2581gainean": 484,
  "\u2581hasi": 485,
  "\u2581Egin": 486,
  "\u2581O": 487,
  "\u2581horiek": 488,
  "on": 489,
  "\u2581default": 490,
  "\u2581Zure": 491,
  "\u2581next": 492,
  "\u2581between": 493,
  "\u2581most": 494,
  "\u2581Open": 495,
  "\u2581nik": 496,
  "\u2581command": 497,
  "\u2581zaude": 498,
  "\u2581non": 499,
  "\u2581tekla": 500,
  "\u2581denbora": 501,
  "\u2581dezakezu": 502,
  "\u2581/": 503,
  "\u2581ezer": 504,
  "\u2581beti": 505,
  "\u2581part": 506,
  "\u2581baita": 507,
  "\u2581aldatu": 508,
  "\u2581gertatu": 509,
  "\u2581give": 510,
  "\u2581went": 511,
  "\u2581away": 512,
  "\u2581Failed": 513,
  "\u2581sure": 514,
  "\u2581Can": 515,
  "la": 516,
  "\u2581might": 517,
  "\u2581mode": 518,
  "\u2581old": 519,
  "\u2581work": 520,
  "\u2581help": 521,
  "\u2581display": 522,
  "\u2581Name": 523,
  "\u2581thing": 524,
  "\u2581beren": 525,
  "\u2581upon": 526,
  "\u2581Gehitu": 527,
  "\u2581system": 528,
  "+": 529,
  "\u2581sartu": 530,
  "\u2581OR": 531,
  "\u2581place": 532,
  "\u2581put": 533,
  "\u2581Oh": 534,
  "\u2581always": 535,
  "\u2581let": 536,
  "\u2581pantaila": 537,
  "\u2581thought": 538,
  "\u2581gako": 539,
  "\u2581himself": 540,
  "\u2581irudia": 541,
  "!\"": 542,
  "\u2581soilik": 543,
  "\u2581daiteke": 544,
  "\u2581takes": 545,
  "\u2581nintzen": 546,
  "\u2581azken": 547,
  "\u2581duzun": 548,
  "K": 549,
  "\u2581nothing": 550,
  "\u2581show": 551,
  "\u2581start": 552,
  "\u2581kolorea": 553,
  "etako": 554,
  "\u2581three": 555,
  "rako": 556,
  "\u2581version": 557,
  "\u2581Then": 558,
  "\u2581ni": 559,
  "\u2581berriz": 560,
  "\u25813": 561,
  "\u2581line": 562,
  "\u2581look": 563,
  "tzat": 564,
  "\u2581hautatu": 565,
  "\u2581B": 566,
  "\u2581hil": 567,
  "\u2581button": 568,
  "\u2581tell": 569,
  "\u2581honen": 570,
  "\u2581GNU": 571,
  "E": 572,
  "O": 573,
  "\u2581ireki": 574,
  "\u2581How": 575,
  "\u2581empty": 576,
  "\u2581didn": 577,
  "\u2581alde": 578,
  "\u2581hauek": 579,
  "\u2581Nire": 580,
  "\u2581available": 581,
  "\u2581Yes": 582,
  "\u2581Yeah": 583,
  "\u2581application": 584,
  "\u2581following": 585,
  "\u2581daude": 586,
  "\u2581cards": 587,
  "tzea": 588,
  "\u2581label": 589,
  "\u2581bizi": 590,
  "\u2581Fitxategi": 591,
  "\u2581using": 592,
  "\u2581love": 593,
  "\u2581onartzen": 594,
  "\u2581batez": 595,
  "te": 596,
  "\u2581end": 597,
  "\u2581true": 598,
  "H": 599,
  "\u2581bidez": 600,
  "\u2581directory": 601,
  "\u2581jauna": 602,
  "\u2581horren": 603,
  "\u2581behera": 604,
  "\u2581dituzu": 605,
  "\u2581zerbait": 606,
  "\u2581ondo": 607,
  "\u2581jarri": 608,
  "\u2581bertan": 609,
  "\u2581hala": 610,
  "\u2581Well": 611,
  "\u2581My": 612,
  "Name": 613,
  "\u2581Mr": 614,
  "\u2581hand": 615,
  "\u2581view": 616,
  "\u2581balio": 617,
  "\u2581Set": 618,
  "\u2581search": 619,
  "\u2581read": 620,
  "\u2581really": 621,
  "\u2581dio": 622,
  "\u2581kolore": 623,
  "\u2581Sortu": 624,
  "\u2581buruz": 625,
  "\u2581password": 626,
  "\u2581select": 627,
  "\u2581Not": 628,
  "P": 629,
  "\u2581Create": 630,
  "\u2581Ireki": 631,
  "le": 632,
  "\u2581ANY": 633,
  "\u2581Hau": 634,
  "\u2581messages": 635,
  "\u2581irudi": 636,
  "3": 637,
  "\u2581zein": 638,
  "\u2581harrapatzen": 639,
  "\u2581Gorde": 640,
  "\u2581against": 641,
  "paper": 642,
  "\u2581gabeko": 643,
  "\u2581Unable": 644,
  "\u2581object": 645,
  "\u2581Key": 646,
  "\u2581dizut": 647,
  "\u2581address": 648,
  "\u2581Don": 649,
  "etik": 650,
  "\u2581lehenetsia": 651,
  "\u2581aurretik": 652,
  "ro": 653,
  "\u2581document": 654,
  "\u2581D": 655,
  "\u2581Hori": 656,
  "\u2581etorri": 657,
  "\u2581gara": 658,
  "EN": 659,
  "\u2581world": 660,
  "Y": 661,
  "\u2581Now": 662,
  "\u2581gizon": 663,
  "\u2581leiho": 664,
  "\u2581Save": 665,
  "\u2581options": 666,
  "\u2581face": 667,
  "\u2581DOCUMENT": 668,
  "\u2581ba": 669,
  "\u2581white": 670,
  "\u2581play": 671,
  "\u2581Your": 672,
  "\u2581mail": 673,
  "\u2581P": 674,
  "zko": 675,
  "\u2581change": 676,
  "\u2581horrek": 677,
  "\u2581esaten": 678,
  "\u2581ongi": 679,
  "\u2581Aldatu": 680,
  "T": 681,
  "\u2581black": 682,
  "\u25810": 683,
  "\u2581egoera": 684,
  "\u2581yet": 685,
  "\u2581zu": 686,
  "action": 687,
  "\u2581CD": 688,
  "\u2581gorde": 689,
  "\u2581mezua": 690,
  "\u2581item": 691,
  "\u2581save": 692,
  "\u2581burua": 693,
  "\u2581T": 694,
  "\u2581action": 695,
  "\u2581around": 696,
  "\u2581Click": 697,
  "\u2581mezu": 698,
  "\u2581failed": 699,
  "\u2581jakin": 700,
  "\u2581Foundation": 701,
  "\u2581berean": 702,
  "\u2581ezezaguna": 703,
  "\u2581informazioa": 704,
  "\u2581click": 705,
  "\u2581besterik": 706,
  "\u2581account": 707,
  "\u2581Go": 708,
  "\u2581egun": 709,
  "az": 710,
  "\u2581G": 711,
  "\u2581copy": 712,
  "\u2581Are": 713,
  "\u2581different": 714,
  "\u2581bide": 715,
  "\u2581Ezarri": 716,
  "\u2581badago": 717,
  "\u2581osoa": 718,
  "@": 719,
  "\u2581aukerak": 720,
  "\u2581batekin": 721,
  "\u2581izatea": 722,
  "\u2581View": 723,
  "\u2581orduan": 724,
  "\u2581format": 725,
  "\u2581guztia": 726,
  "\u2581baizik": 727,
  "\u2581dituen": 728,
  "\u2581add": 729,
  "\u2581--": 730,
  "R": 731,
  "th": 732,
  "arekin": 733,
  "\u2581ezta": 734,
  "barra": 735,
  "\u2581letra": 736,
  "\u2581Search": 737,
  "\u2581house": 738,
  "\u2581Free": 739,
  "\u2581tresna": 740,
  "\u2581izen": 741,
  "F": 742,
  "\u2581lan": 743,
  "h": 744,
  "\\.": 745,
  "\u2581F": 746,
  "\u2581%(": 747,
  "\u2581Kendu": 748,
  "\u2581bilaketa": 749,
  "\u2581ikusten": 750,
  "\u2581eyes": 751,
  "\u2581home": 752,
  "\u2581given": 753,
  "L": 754,
  "\u2581As": 755,
  "\u2581moves": 756,
  "\u2581zuela": 757,
  "\u2581de": 758,
  "\u2581nago": 759,
  "\u2581Beste": 760,
  "\u2581moduan": 761,
  "\u2581power": 762,
  "\u2581List": 763,
  "U": 764,
  "\u2581duela": 765,
  "\u2581panel": 766,
  "\u2581anything": 767,
  "\u2581space": 768,
  "\u2581ote": 769,
  "\u2581berak": 770,
  "G": 771,
  "\u2581order": 772,
  "\u2581maila": 773,
  "ia": 774,
  "\u2581Enable": 775,
  "\u2581balioa": 776,
  "\u2581night": 777,
  "\u2581once": 778,
  "\u2581side": 779,
  "\u2581Gaitu": 780,
  "\u2581column": 781,
  "\u2581gonna": 782,
  "\u2581choose": 783,
  "\u2581nor": 784,
  "\u2581Software": 785,
  "\u2581page": 786,
  "\u2581Image": 787,
  "\u2581whole": 788,
  ").": 789,
  "\u2581zitzaion": 790,
  "\u2581idatzi": 791,
  "da": 792,
  "\u2581area": 793,
  "\u2581king": 794,
  "\u2581check": 795,
  "\u2581mean": 796,
  "\u2581ever": 797,
  "\u2581oraindik": 798,
  "\u2581done": 799,
  "\u2581horrela": 800,
  "\u2581Remove": 801,
  "\u2581either": 802,
  "gatik": 803,
  "\u2581head": 804,
  "\u2581eraman": 805,
  "\u2581aurrean": 806,
  "\u2581atera": 807,
  "\u2581Let": 808,
  "\u2581handia": 809,
  "\u2581inoiz": 810,
  "na": 811,
  "\u2581M": 812,
  "\u2581Why": 813,
  "\u2581Bi": 814,
  "\u2581keys": 815,
  "\u2581possible": 816,
  "\u2581word": 817,
  "\u2581icon": 818,
  "\u2581location": 819,
  "\u2581behin": 820,
  "\u2581both": 821,
  "\u2581call": 822,
  "\u2581beraz": 823,
  "\u2581top": 824,
  "\u2581bidali": 825,
  "\u2581took": 826,
  "\u2581haien": 827,
  "\u2581called": 828,
  "\u2581baliogabea": 829,
  "\u2581buruzko": 830,
  "\u2581Come": 831,
  "\u2581An": 832,
  "\u2581itself": 833,
  "\u2581leihoa": 834,
  "\u2581enough": 835,
  "\u2581room": 836,
  "\u2581erakutsi": 837,
  "\u2581better": 838,
  "\u2581bakarra": 839,
  "\u2581source": 840,
  "\u2581erabiltzeko": 841,
  "\u2581audio": 842,
  "\u2581told": 843,
  "\u2581han": 844,
  "\u2581mind": 845,
  "tze": 846,
  "\u2581Number": 847,
  "Bai": 848,
  "\u2581helbide": 849,
  "\u2581egongo": 850,
  "\u2581Sartu": 851,
  "\u2581begira": 852,
  "\u2581gora": 853,
  "\u2581x": 854,
  "\u2581run": 855,
  "\u2581saw": 856,
  "\u2581bati": 857,
  "\u2581era": 858,
  "\u2581years": 859,
  "\u2581izateko": 860,
  "\u2581EZ": 861,
  "\u2581zuk": 862,
  "\u2581whether": 863,
  "\u2581erabiliko": 864,
  "\u2581mezuak": 865,
  "\u2581reason": 866,
  "\u2581%1": 867,
  "5": 868,
  "ti": 869,
  "\u2581zidan": 870,
  "\u2581pasahitza": 871,
  "\u2581un": 872,
  "\u2581ezabatu": 873,
  "\u2581erakusten": 874,
  "\u2581nion": 875,
  "co": 876,
  "\u2581ditut": 877,
  "\u2581duzula": 878,
  "\u2581far": 879,
  "\u2581though": 880,
  "\u2581program": 881,
  "\u2581Eraman": 882,
  "\u2581horretan": 883,
  "\u2581Preferences": 884,
  "\u2581position": 885,
  "\u2581edozein": 886,
  "\u2581ona": 887,
  "man": 888,
  "able": 889,
  "\u2581Black": 890,
  "\u2581having": 891,
  "\u2581posta": 892,
  "eta": 893,
  "\u2581kendu": 894,
  "\u2581White": 895,
  "\u2581days": 896,
  "\u2581Ikusi": 897,
  "\u2581jo": 898,
  "etatik": 899,
  "\u2581doing": 900,
  "\u2581On": 901,
  "\u2581automatikoki": 902,
  "\u2581dauden": 903,
  "\u2581hartzen": 904,
  "\u2581leku": 905,
  "\u2581bertsioa": 906,
  "\u2581device": 907,
  "\u2581gertatzen": 908,
  "type": 909,
  "1": 910,
  "\u2581baldin": 911,
  "\u2581plugin": 912,
  "\u2581beltza": 913,
  "\u2581string": 914,
  "),": 915,
  "ena": 916,
  "\u2581dialogue": 917,
  "\u2581testua": 918,
  "us": 919,
  "\u2581hiru": 920,
  "\u2581H": 921,
  "\u2581Game": 922,
  "\u2581Leiho": 923,
  "\u2581asked": 924,
  "\u2581denean": 925,
  "\u2581neure": 926,
  "\u2581specified": 927,
  "\u2581state": 928,
  "\u2581Bilatu": 929,
  "etara": 930,
  "\u2581kind": 931,
  "v": 932,
  "\u2581badu": 933,
  "\u2581dauka": 934,
  "\u2581point": 935,
  "\u2581desktop": 936,
  "\u2581pila": 937,
  "\u2581Type": 938,
  "\u2581zuria": 939,
  "\u2581General": 940,
  "ac": 941,
  "\u2581zaio": 942,
  "\u2581software": 943,
  "\u2581screen": 944,
  "\u2581testu": 945,
  "\u2581direla": 946,
  "\u2581bezain": 947,
  "tzera": 948,
  "\u2581Text": 949,
  "no": 950,
  "\u2581together": 951,
  "ED": 952,
  "\u2581ID": 953,
  "\u2581sent": 954,
  "\u2581Enter": 955,
  "\u2581color": 956,
  "\u2581Nik": 957,
  "\u2581selection": 958,
  "\u2581arteko": 959,
  "\u2581daitezke": 960,
  "\u2581modua": 961,
  "\u2581father": 962,
  "\u2581Invalid": 963,
  "\u2581why": 964,
  "\u2581entzun": 965,
  "\u2581ezartzen": 966,
  "tasuna": 967,
  "\u2581dakit": 968,
  "\u2581i": 969,
  "\u2581connection": 970,
  "\u2581Y": 971,
  "\u2581ezazu": 972,
  "\u2581One": 973,
  "\u2581zituzten": 974,
  "\u2581eduki": 975,
  "\u2581urte": 976,
  "\u2581Jokoa": 977,
  "\u2581myself": 978,
  "ok": 979,
  "\u2581joko": 980,
  "ma": 981,
  "\u2581Lizentzia": 982,
  "\u2581case": 983,
  "\u2581keep": 984,
  "\u2581Display": 985,
  "lo": 986,
  "\u2581izaten": 987,
  "\u2581try": 988,
  "\u2581close": 989,
  "\u2581until": 990,
  "\u2581group": 991,
  "You": 992,
  "\u2581child": 993,
  "REN": 994,
  "\u2581Orain": 995,
  "\u2581kopia": 996,
  "\u2581beharreko": 997,
  "4": 998,
  "\u2581itzuli": 999,
  "\u25815": 1000,
  "\u2581egia": 1001,
  "\u2581Zergatik": 1002,
  "\u2581free": 1003,
  "\u2581mugimendu": 1004,
  "\u2581Oso": 1005,
  "\u2581atzeko": 1006,
  "txo": 1007,
  "lu": 1008,
  "\u2581aldi": 1009,
  "and": 1010,
  "\u2581computer": 1011,
  "it": 1012,
  "\u2581hainbat": 1013,
  "\u2581words": 1014,
  "\u2581aurreko": 1015,
  "\u2581please": 1016,
  "tasun": 1017,
  "\u2581hartan": 1018,
  "\u2581ekintza": 1019,
  "\u2581contact": 1020,
  "\u2581Bere": 1021,
  "\u2581field": 1022,
  "\u2581...": 1023,
  "\u2581son": 1024,
  "\u25814": 1025,
  "\u2581project": 1026,
  "\u2581bitartean": 1027,
  "\u2581dizu": 1028,
  "\u2581modu": 1029,
  "\u2581full": 1030,
  "\u2581character": 1031,
  "\u2581elementu": 1032,
  "koa": 1033,
  "\u2581ikus": 1034,
  "\u2581Uneko": 1035,
  "\u2581theme": 1036,
  "\u2581aurrera": 1037,
  "\u2581themselves": 1038,
  "\u2581pile": 1039,
  "\u2581handi": 1040,
  "\u2581GNOMEren": 1041,
  "\\@": 1042,
  "koadroa": 1043,
  "\u2581Time": 1044,
  "\u2581His": 1045,
  "\u2581heard": 1046,
  "\u2581access": 1047,
  "\u2581Aukera": 1048,
  "\u2581aldiz": 1049,
  "ic": 1050,
  "\u2581looked": 1051,
  "\u2581body": 1052,
  "\u2581jartzen": 1053,
  "\u2581Folder": 1054,
  "\u2581Unknown": 1055,
  "\u2581N": 1056,
  "pa": 1057,
  "\u2581mother": 1058,
  "\u2581settings": 1059,
  "\u2581dituzte": 1060,
  "\u2581Orduan": 1061,
  "\u2581datu": 1062,
  "\u2581egitea": 1063,
  "\u2581process": 1064,
  "\u2581aukeratu": 1065,
  "\u2581Choose": 1066,
  "\u2581bateko": 1067,
  "\u2581diot": 1068,
  "\u2581jaso": 1069,
  "\u2581Edit": 1070,
  "\u2581ordea": 1071,
  "\u2581bila": 1072,
  "\u2581direktorioa": 1073,
  "\u2581halako": 1074,
  "\u2581others": 1075,
  "\u2581Ni": 1076,
  "the": 1077,
  "\u2581Delete": 1078,
  "\u2581calendar": 1079,
  "zerrenda": 1080,
  "\u2581Where": 1081,
  "\u2581ezarri": 1082,
  "\u2581changes": 1083,
  "\u2581nahiz": 1084,
  "\u2581write": 1085,
  "\u2581later": 1086,
  "\u2581few": 1087,
  "\u2581table": 1088,
  "\u2581values": 1089,
  "\u2581network": 1090,
  "\u2581At": 1091,
  "\u2581paper": 1092,
  "\u2581four": 1093,
  "\u2581Fitxategia": 1094,
  "\u2581Ezabatu": 1095,
  "\u2581Games": 1096,
  "\u2581door": 1097,
  "\u2581support": 1098,
  "\u2581erabiltzaile": 1099,
  "ton": 1100,
  "\u2581batetik": 1101,
  "\u2581since": 1102,
  "\u2581laguntza": 1103,
  "\u2581L": 1104,
  "\u2581hona": 1105,
  "\u2581money": 1106,
  "\u2581sortzen": 1107,
  "unit": 1108,
  "du": 1109,
  "\u2581ezagutzen": 1110,
  "\u2581names": 1111,
  "\u2581argi": 1112,
  "\u2581Editatu": 1113,
  "\u2581configuration": 1114,
  "\u2581everything": 1115,
  "\u2581doesn": 1116,
  "\u2581Hey": 1117,
  "\u2581images": 1118,
  "\u2581woman": 1119,
  "\u2581aldatzeko": 1120,
  "\u2581Default": 1121,
  "\u2581least": 1122,
  "\u2581remove": 1123,
  "\u2581ia": 1124,
  "\u2581items": 1125,
  "BAR": 1126,
  "\u2581kanpo": 1127,
  "\u2581hor": 1128,
  "\u2581falta": 1129,
  "\u2581errege": 1130,
  "\u2581~": 1131,
  "\u2581Idatzi": 1132,
  "\u2581date": 1133,
  "do": 1134,
  "\u2581seen": 1135,
  "\u2581>": 1136,
  "\u2581piles": 1137,
  "is": 1138,
  "\u2581course": 1139,
  "\u2581believe": 1140,
  "\u2581Ziur": 1141,
  "\u2581path": 1142,
  "\u2581R": 1143,
  "\u2581jokoa": 1144,
  "\u2581level": 1145,
  "\u2581Right": 1146,
  "\u2581means": 1147,
  "\u2581Ongi": 1148,
  "\u2581ezarpenak": 1149,
  "\u2581gai": 1150,
  "\u2581Aukeratu": 1151,
  "\u2581nature": 1152,
  "\u2581hurrengo": 1153,
  "\u2581understand": 1154,
  "\u2581box": 1155,
  "\u2581ask": 1156,
  "\u2581session": 1157,
  "\u2581won": 1158,
  "\u2581LORD": 1159,
  "\u2581moment": 1160,
  "\u2581background": 1161,
  "\u2581able": 1162,
  "\u2581leave": 1163,
  "\u2581delete": 1164,
  "\u2581tab": 1165,
  "\u2581haiek": 1166,
  "\u2581lortu": 1167,
  "ago": 1168,
  "\u2581erantzun": 1169,
  "\u2581send": 1170,
  "\u2581idea": 1171,
  "\u2581V": 1172,
  "\u2581contains": 1173,
  "\u2581hear": 1174,
  "\u2581displayed": 1175,
  "fitxategia": 1176,
  "\u2581folders": 1177,
  "\u2581load": 1178,
  "entzat": 1179,
  "\u2581Size": 1180,
  "\u2581denak": 1181,
  "\u2581esteka": 1182,
  "\u2581jarraitu": 1183,
  "li": 1184,
  "\u2581datuak": 1185,
  "Zer": 1186,
  "\u2581bit": 1187,
  "\u2581saioa": 1188,
  "\u2581irakurri": 1189,
  "ba": 1190,
  "\u2581proxy": 1191,
  "\u2581knew": 1192,
  "\u2581saying": 1193,
  "\u2581bete": 1194,
  "\u2581Colour": 1195,
  "\u2581gave": 1196,
  "\u2581re": 1197,
  "\u2581beltzak": 1198,
  "\u2581gainera": 1199,
  "\u2581Joan": 1200,
  "\u2581second": 1201,
  "\u2581young": 1202,
  "\u2581zuriak": 1203,
  "\u2581fitxa": 1204,
  "\u2581bertsio": 1205,
  "\u2581Options": 1206,
  "\u2581zuzen": 1207,
  "\u2581supported": 1208,
  "\u2581zabalera": 1209,
  "\u2581itxura": 1210,
  "\u2581die": 1211,
  "\u2581manual": 1212,
  "\u2581g": 1213,
  "\u2581light": 1214,
  "\u2581erabilgarri": 1215,
  "\u2581queen": 1216,
  "\u2581en": 1217,
  "/%": 1218,
  "\u2581hands": 1219,
  "\u2581children": 1220,
  "\u2581book": 1221,
  "\u2581begiratu": 1222,
  "\u2581espero": 1223,
  "\u2581font": 1224,
  "\u2581zenuen": 1225,
  "\u2581taken": 1226,
  "\u2581Okay": 1227,
  "\u2581dituzten": 1228,
  "\u2581erabiltzailea": 1229,
  "\u2581required": 1230,
  "\u2581DVD": 1231,
  "tza": 1232,
  "\u2581Ba": 1233,
  "\u2581best": 1234,
  "\u2581valid": 1235,
  "\u2581kartak": 1236,
  "\u2581lau": 1237,
  "\u2581Get": 1238,
  "\u2581kontu": 1239,
  "\u2581present": 1240,
  "at": 1241,
  "\u2581whom": 1242,
  "ur": 1243,
  "\u2581HTML": 1244,
  "\u2581zeuden": 1245,
  "\u2581else": 1246,
  "\u2581Menu": 1247,
  "\u2581instead": 1248,
  "\u2581zehazten": 1249,
  "=": 1250,
  "\u2581Just": 1251,
  "\u2581duena": 1252,
  "\u2581Hemen": 1253,
  "\u2581erabil": 1254,
  "\u2581certain": 1255,
  "de": 1256,
  "\u2581baterako": 1257,
  "\u2581ohi": 1258,
  "\u2581Hala": 1259,
  "\u2581talk": 1260,
  "\u2581saio": 1261,
  "\u2581keyboard": 1262,
  "\u2581esku": 1263,
  "\u2581Gako": 1264,
  "\u2581heart": 1265,
  "\u2581less": 1266,
  "\u2581ordu": 1267,
  "\u2581ondoan": 1268,
  "\u2581zuri": 1269,
  "\u2581errorea": 1270,
  "\u2581therefore": 1271,
  "\u2581Z": 1272,
  "\u2581live": 1273,
  "\u2581zait": 1274,
  "\u2581rest": 1275,
  "\u2581Start": 1276,
  "\u2581bar": 1277,
  "\u2581duzue": 1278,
  "\u2581maite": 1279,
  "\u2581zehaztu": 1280,
  "\u2581death": 1281,
  "\u2581Re": 1282,
  "X": 1283,
  "\u2581amaitu": 1284,
  "\u2581windows": 1285,
  "\u2581Window": 1286,
  "\u2581Print": 1287,
  "\u2581coming": 1288,
  "\u2581ideia": 1289,
  "be": 1290,
  "format": 1291,
  "me": 1292,
  "\u2581sound": 1293,
  "\u2581human": 1294,
  "\u2581press": 1295,
  "\u2581La": 1296,
  "\u2581kontra": 1297,
  "w": 1298,
  "\u2581invalid": 1299,
  "\u2581installed": 1300,
  "\u2581o": 1301,
  "\u2581gehitu": 1302,
  "\u2581erabiliz": 1303,
  "\u2581ikusteko": 1304,
  "\u2581saiatu": 1305,
  "\u2581nagusia": 1306,
  "\u2581zeren": 1307,
  "\u2581ordez": 1308,
  "\u2581zioten": 1309,
  "'(": 1310,
  "\u2581video": 1311,
  "\u2581buru": 1312,
  "\u2581emango": 1313,
  "\u2581lagun": 1314,
  "\u258110": 1315,
  "\u2581Good": 1316,
  "\",": 1317,
  "\u2581honi": 1318,
  "\u2581edukia": 1319,
  "\u2581five": 1320,
  "\u2581laneko": 1321,
  "\u2581feel": 1322,
  "\u2581berriak": 1323,
  "\u2581soon": 1324,
  "\u2581longer": 1325,
  "\u2581turned": 1326,
  "net": 1327,
  "\u2581bota": 1328,
  "\u2581lost": 1329,
  "\u2581Asia": 1330,
  "\u2581widget": 1331,
  "\u2581gutxi": 1332,
  "\u2581By": 1333,
  "\u2581example": 1334,
  "\u2581terminal": 1335,
  "\u2581zati": 1336,
  "\u2581U": 1337,
  "\u2581ibili": 1338,
  "\u2581agertzen": 1339,
  "\u2581une": 1340,
  "\u2581Look": 1341,
  "\u2581hobespenak": 1342,
  "\u2581matter": 1343,
  "\u2581`%": 1344,
  "N": 1345,
  "\u2581moved": 1346,
  "\u2581Tom": 1347,
  "\u2581Who": 1348,
  "\u2581iritsi": 1349,
  "\u2581times": 1350,
  "\u2581Exchange": 1351,
  "\u2581aita": 1352,
  "\u2581sort": 1353,
  "\u2581Nola": 1354,
  "\u2581status": 1355,
  "\u2581arren": 1356,
  "\u2581enter": 1357,
  "ion": 1358,
  "keta": 1359,
  "\u2581Public": 1360,
  "\u2581King": 1361,
  "Z": 1362,
  "\u2581dagoela": 1363,
  "\u2581ditzakezu": 1364,
  "\u2581helbidea": 1365,
  "tekla": 1366,
  "\u2581web": 1367,
  "\u2581Ondo": 1368,
  "\u2581Esan": 1369,
  "po": 1370,
  "\u2581bizitza": 1371,
  "\u2581puntu": 1372,
  "\u2581toki": 1373,
  "\u2581says": 1374,
  "\u2581hark": 1375,
  "ers": 1376,
  "\u2581Audio": 1377,
  "\u2581URL": 1378,
  "\u2581zain": 1379,
  "\u2581Only": 1380,
  "\u2581alone": 1381,
  "\u2581honekin": 1382,
  "\u2581wait": 1383,
  "il": 1384,
  "\u2581Mezu": 1385,
  "\u2581dead": 1386,
  "\u2581Kolore": 1387,
  "\u2581programa": 1388,
  "\u25812.": 1389,
  "\u2581sir": 1390,
  "rentzat": 1391,
  "\u2581Me": 1392,
  "\u2581quite": 1393,
  "ga": 1394,
  "\u2581Orokorra": 1395,
  "\u2581esker": 1396,
  "\u2581geratu": 1397,
  "\u2581Be": 1398,
  "\u2581galdu": 1399,
  "\u2581above": 1400,
  "\u2581row": 1401,
  "\u2581Beraz": 1402,
  "\u2581Copy": 1403,
  "\u2581W": 1404,
  "\u2581pertsonalizatua": 1405,
  "\u2581along": 1406,
  "\u2581Message": 1407,
  "edo": 1408,
  "egia": 1409,
  "\u2581form": 1410,
  "\u2581Jesus": 1411,
  "\u25816": 1412,
  "\u2581hard": 1413,
  "\u2581specify": 1414,
  "\u2581planoaren": 1415,
  "\u2581per": 1416,
  "\u2581duk": 1417,
  "\u2581manager": 1418,
  "garria": 1419,
  "ness": 1420,
  "V": 1421,
  "\u2581Joko": 1422,
  "bi": 1423,
  "\u2581enable": 1424,
  "\u2581TRUE": 1425,
  "\u2581link": 1426,
  "\u2581girl": 1427,
  "\u2581sarrera": 1428,
  "\u2581wanted": 1429,
  "\u2581Azken": 1430,
  "\u2581small": 1431,
  "\u2581looking": 1432,
  "}": 1433,
  "\u2581running": 1434,
  "\u2581eskuineko": 1435,
  "\u2581erre": 1436,
  "\u2581bad": 1437,
  "men": 1438,
  "\u2581disc": 1439,
  "\u2581friend": 1440,
  "\u2581rather": 1441,
  "\u2581voice": 1442,
  "org": 1443,
  "\u2581pentsatu": 1444,
  "\u2581safe": 1445,
  "tr": 1446,
  "ten": 1447,
  "\u2581zien": 1448,
  "\u2581Or": 1449,
  "\u2581lo": 1450,
  "\u2581brought": 1451,
  "\u2581local": 1452,
  "\u2581uzten": 1453,
  "dun": 1454,
  "\u2581From": 1455,
  "\\": 1456,
  "\u2581{0}": 1457,
  "\u2581zaitez": 1458,
  "com": 1459,
  "\u2581gakoa": 1460,
  "\u2581morning": 1461,
  "\u2581hope": 1462,
  "\u2581person": 1463,
  "\u2581nuke": 1464,
  "\u2581zenbaki": 1465,
  "\u2581real": 1466,
  "\u2581genuen": 1467,
  "\u2581law": 1468,
  "\u2581appear": 1469,
  "\u2581zaldun": 1470,
  "\u2581sistema": 1471,
  "\u2581Tableau": 1472,
  "\u2581entry": 1473,
  "\u2581GTK": 1474,
  "\u2581eginez": 1475,
  "\u2581t": 1476,
  "\u2581barruan": 1477,
  "\u2581Atzeko": 1478,
  "mail": 1479,
  "\u2581honela": 1480,
  "rak": 1481,
  "\u2581gelditu": 1482,
  "\u2581txiki": 1483,
  "\u2581botoia": 1484,
  "\u2581kargatu": 1485,
  "\u2581geruza": 1486,
  "\u2581Files": 1487,
  "ar": 1488,
  "\u2581dit": 1489,
  "\u2581land": 1490,
  "\u2581sorry": 1491,
  "\u2581shown": 1492,
  "\u2581exists": 1493,
  "up": 1494,
  "\u2581Change": 1495,
  "\u2581element": 1496,
  "\u2581saved": 1497,
  "\u2581Here": 1498,
  "\u2581Sistema": 1499,
  "\u2581Keyboard": 1500,
  "\u2581heldu": 1501,
  "\u2581wrong": 1502,
  "\u2581Page": 1503,
  "\u2581aplikazio": 1504,
  "\u2581gain": 1505,
  "\u2581komando": 1506,
  "\u2581dialog": 1507,
  "\u2581lerro": 1508,
  "6": 1509,
  "\u2581played": 1510,
  "\u2581d": 1511,
  "\u2581task": 1512,
  "\u2581remote": 1513,
  "\u2581diozu": 1514,
  "\u2581speak": 1515,
  "\u2581guztien": 1516,
  "\u2581zaitut": 1517,
  "\u2581ten": 1518,
  "\u2581banatu": 1519,
  "\u2581dudan": 1520,
  "\u2581itxi": 1521,
  "\u2581zergatik": 1522,
  "\u2581Gero": 1523,
  "\u2581title": 1524,
  "0": 1525,
  "\u2581joaten": 1526,
  "\u2581hari": 1527,
  "\u2581Project": 1528,
  "\u2581Bat": 1529,
  "\u2581zenbait": 1530,
  "\u2581Settings": 1531,
  "\u2581ama": 1532,
  "\u2581har": 1533,
  "\u2581zutabea": 1534,
  "\u2581Izan": 1535,
  "\u2581Web": 1536,
  "\u2581seemed": 1537,
  "entzako": 1538,
  "\u2581VERSION": 1539,
  "\u2581zehar": 1540,
  "\u2581AND": 1541,
  "\u2581gaur": 1542,
  "\u2581seme": 1543,
  "\u2581below": 1544,
  "un": 1545,
  "\u2581DOKUMENTUA": 1546,
  "\u2581known": 1547,
  "\u2581BERTSIO": 1548,
  "\u2581MODIFI": 1549,
  "\u2581bihotza": 1550,
  "\u2581emakume": 1551,
  "\u2581karaktere": 1552,
  "\u2581knight": 1553,
  "\u2581inside": 1554,
  "\u2581happened": 1555,
  "\u2581archive": 1556,
  "\u2581System": 1557,
  "\u2581prest": 1558,
  "\u2581Zu": 1559,
  "\u2581ordua": 1560,
  "\u2581pawn": 1561,
  "ela": 1562,
  "\u2581eskatu": 1563,
  "\u2581k": 1564,
  "\u2581log": 1565,
  "\u2581automatically": 1566,
  "\u2581note": 1567,
  "\u2581berehala": 1568,
  "\u2581Karpeta": 1569,
  "\u2581Pantaila": 1570,
  "\u2581Bilaketa": 1571,
  "\u2581wife": 1572,
  "\u2581trying": 1573,
  "\u2581DA": 1574,
  "\u2581didazu": 1575,
  "\u2581zeukan": 1576,
  "\u2581Nibbles": 1577,
  "\u2581getting": 1578,
  "\u2581exist": 1579,
  "\u2581irten": 1580,
  "\u2581among": 1581,
  "\u2581water": 1582,
  "\u2581esango": 1583,
  "\u2581player": 1584,
  "\u2581joateko": 1585,
  "\u2581galdetu": 1586,
  "W": 1587,
  "\u2581previous": 1588,
  "\u2581remember": 1589,
  "\u2581Erabiltzaile": 1590,
  "\u2581Hautatutako": 1591,
  "\u2581truth": 1592,
  "mo": 1593,
  "for": 1594,
  "\u2581filled": 1595,
  "\u2581nahikoa": 1596,
  "\u2581omen": 1597,
  "\u2581allowed": 1598,
  "\u2581objektu": 1599,
  "\u2581gaia": 1600,
  "\u2581See": 1601,
  "riko": 1602,
  "\u2581bakoitzean": 1603,
  "\u2581Bistaratu": 1604,
  "\u2581dama": 1605,
  "What": 1606,
  "\u2581beharra": 1607,
  "\u2581self": 1608,
  "\u2581turn": 1609,
  "garri": 1610,
  "\u2581bakar": 1611,
  "\u2581Laster": 1612,
  "\u2581WITH": 1613,
  "\u2581Stock": 1614,
  "\u2581erabat": 1615,
  "\u2581stop": 1616,
  "\u2581almost": 1617,
  "\u2581disk": 1618,
  "\u2581sentitzen": 1619,
  "\u2581neska": 1620,
  "\u2581zenbat": 1621,
  "\u25811.": 1622,
  "\u2581half": 1623,
  "\u2581lot": 1624,
  "he": 1625,
  "\u2581posizioa": 1626,
  "\u2581felt": 1627,
  "\u2581yourself": 1628,
  "\u2581big": 1629,
  "\u2581country": 1630,
  "The": 1631,
  "\u2581family": 1632,
  "\u2581sakatu": 1633,
  "tzailea": 1634,
  "\u2581bihurtu": 1635,
  "ation": 1636,
  "\u2581minutes": 1637,
  "\u2581Nor": 1638,
  "\u2581existitzen": 1639,
  "\u2581bottom": 1640,
  "ry": 1641,
  "\u2581hutsa": 1642,
  "\u2581mouse": 1643,
  "\u2581output": 1644,
  "\u2581ETA": 1645,
  "\u2581De": 1646,
  "\u2581started": 1647,
  "\u2581auto": 1648,
  "as": 1649,
  "\u2581Lord": 1650,
  "pi": 1651,
  "\u2581eskuliburua": 1652,
  "\u2581kokalekua": 1653,
  "\u2581mugitzen": 1654,
  "\u2581print": 1655,
  "\u2581Irudi": 1656,
  "\u2581atzera": 1657,
  "\u2581Play": 1658,
  "\u2581operation": 1659,
  "\u2581board": 1660,
  "\u2581With": 1661,
  "\u2581applications": 1662,
  "gu": 1663,
  "\u2581hutsik": 1664,
  "\u2581tool": 1665,
  "id": 1666,
  "\u2581map": 1667,
  "\u2581Aurreko": 1668,
  "\u2581event": 1669,
  "\u2581width": 1670,
  "\u2581single": 1671,
  "\u2581osatu": 1672,
  "\u2581opened": 1673,
  "\u2581received": 1674,
  "\u2581main": 1675,
  "\u2581azpian": 1676,
  "\u2581height": 1677,
  "\u2581Egia": 1678,
  "\u2581litzateke": 1679,
  "\u2581emateko": 1680,
  "\u2581toolbar": 1681,
  "\u2581altuera": 1682,
  "\u2581gaizki": 1683,
  "\u2581eskatzen": 1684,
  "\u2581botoian": 1685,
  "\u2581bishop": 1686,
  "\u2581lines": 1687,
  "\u2581These": 1688,
  "\u2581Close": 1689,
  "\u2581hold": 1690,
  "\u2581city": 1691,
  "\u2581propietateak": 1692,
  "\u2581memory": 1693,
  "\u2581whose": 1694,
  "am": 1695,
  "\u2581become": 1696,
  "\u2581custom": 1697,
  "\u2581large": 1698,
  "\u2581sartzen": 1699,
  "\u2581gaztelu": 1700,
  "\u2581zaizu": 1701,
  "\u2581gone": 1702,
  "\u2581Thank": 1703,
  "\u2581aldaketak": 1704,
  "io": 1705,
  "marka": 1706,
  "ie": 1707,
  "\u2581currently": 1708,
  "\u2581shortcut": 1709,
  "\u2581agian": 1710,
  "\u2581preview": 1711,
  "\u2581contents": 1712,
  "\u2581high": 1713,
  "\u2581Non": 1714,
  "\u2581informazio": 1715,
  "\u2581delako": 1716,
  "\u2581speed": 1717,
  "\u2581function": 1718,
  "\u2581within": 1719,
  "\u2581hamar": 1720,
  "\u2581irudiak": 1721,
  "\u2581several": 1722,
  "\u2581inguruan": 1723,
  "\u2581elementua": 1724,
  "\u2581Import": 1725,
  "\u2581Last": 1726,
  "\u2581erabilitako": 1727,
  "\u2581oinarri": 1728,
  "ne": 1729,
  "\u2581benetan": 1730,
  "rentzako": 1731,
  "\u2581dagoenean": 1732,
  "\u2581XML": 1733,
  "\u2581cause": 1734,
  "\u2581follow": 1735,
  "\u2581care": 1736,
  "\u2581User": 1737,
  "7": 1738,
  "\u2581bring": 1739,
  "\u2581fact": 1740,
  "\u2581pixels": 1741,
  "\u2581guztietan": 1742,
  "\u2581rook": 1743,
  "\u2581connect": 1744,
  "--": 1745,
  "\u2581began": 1746,
  "\u2581wish": 1747,
  "\u2581suit": 1748,
  "\u2581Address": 1749,
  "\u2581America": 1750,
  "\u2581hour": 1751,
  "\u2581lege": 1752,
  "\u2581war": 1753,
  "\u2581p": 1754,
  "\u2581unknown": 1755,
  "\u2581often": 1756,
  "\u2581balitz": 1757,
  "\u2581kgm": 1758,
  "\u2581drive": 1759,
  "ekoa": 1760,
  "\u2581Programa": 1761,
  "\u2581built": 1762,
  "\u2581kanpoko": 1763,
  "\u2581deitu": 1764,
  "\u2581iturburu": 1765,
  "\u2581Publiko": 1766,
  "\u2581car": 1767,
  "\u2581knowledge": 1768,
  "\u2581Gure": 1769,
  "\u2581Tab": 1770,
  "est": 1771,
  "\u2581year": 1772,
  "el": 1773,
  "\u2581Begiratu": 1774,
  "\u2581objects": 1775,
  "\u2581package": 1776,
  "It": 1777,
  "\u2581aurka": 1778,
  "\u2581enabled": 1779,
  "\u2581gu": 1780,
  "\u2581playing": 1781,
  "name": 1782,
  "\u2581irudiaren": 1783,
  "\u2581Couldn": 1784,
  "\u2581kontua": 1785,
  "tsu": 1786,
  "\u2581baitan": 1787,
  "\u2581San": 1788,
  "\u2581aurrebista": 1789,
  "\u2581ditugu": 1790,
  "\u2581behind": 1791,
  "\u2581#": 1792,
  "\u2581azaltzen": 1793,
  "\u2581dagokion": 1794,
  "\u2581complete": 1795,
  "\u2581service": 1796,
  "\u2581Licence": 1797,
  "\u2581active": 1798,
  "ku": 1799,
  "\u2581however": 1800,
  "\u2581zerrendan": 1801,
  "\u2581pertsona": 1802,
  "\u2581Server": 1803,
  "\u2581fine": 1804,
  "pe": 1805,
  "\u2581dezake": 1806,
  "\u2581IDa": 1807,
  "\u2581bistaratzen": 1808,
  "\u2581setting": 1809,
  "\u2581etiketa": 1810,
  "\u2581hearts": 1811,
  "\u2581mugitzeko": 1812,
  "\u2581hautapena": 1813,
  "\u2581Testua": 1814,
  "\u2581thus": 1815,
  "\u2581License": 1816,
  "ce": 1817,
  "\u2581ihes": 1818,
  "\u2581frame": 1819,
  "\u2581formatua": 1820,
  "\u2581okay": 1821,
  "\u2581Itxi": 1822,
  "ter": 1823,
  "\u2581Hurrengo": 1824,
  "\u2581changed": 1825,
  "\u2581joango": 1826,
  "\u2581report": 1827,
  "\u2581IS": 1828,
  "\u2581aurkitzen": 1829,
  "ity": 1830,
  "\u2581komandoa": 1831,
  "\u2581Horrela": 1832,
  "KO": 1833,
  "\u2581layer": 1834,
  "\u2581placed": 1835,
  "\u2581temporary": 1836,
  "\u2581Find": 1837,
  "\u2581konfigurazioa": 1838,
  "\u2581agindu": 1839,
  "\u2581drop": 1840,
  "tua": 1841,
  "\u2581Nautilus": 1842,
  "\u2581round": 1843,
  "\u2581disko": 1844,
  "\u2581pane": 1845,
  "\u2581effect": 1846,
  "so": 1847,
  "\u2581Zein": 1848,
  "\u2581blocks": 1849,
  "\u2581hasten": 1850,
  "\u2581style": 1851,
  "\u2581public": 1852,
  "\u2581Data": 1853,
  "\u2581Testu": 1854,
  "\u2581modify": 1855,
  "\u2581Mail": 1856,
  "gt": 1857,
  "rek": 1858,
  "\u2581urruneko": 1859,
  "\u2581guztiz": 1860,
  "\u2581Denbora": 1861,
  "\u2581header": 1862,
  "\u2581making": 1863,
  "\u2581slot": 1864,
  "\u2581gordetzeko": 1865,
  "\u2581mugitu": 1866,
  "And": 1867,
  "\u2581input": 1868,
  "\u2581n": 1869,
  "\u2581necessary": 1870,
  "\u2581ohar": 1871,
  "\u2581code": 1872,
  "\u2581peoi": 1873,
  "\u2581leihoaren": 1874,
  "\u2581Kopiatu": 1875,
  "\u2581content": 1876,
  "\u2581six": 1877,
  "\u2581meeting": 1878,
  "\u2581jadanik": 1879,
  "\u2581erdi": 1880,
  "\u2581elementuak": 1881,
  "\u2581Document": 1882,
  "\u2581clear": 1883,
  "\u2581etxera": 1884,
  "\u2581herri": 1885,
  "\u2581ulertzen": 1886,
  "\u2581Auto": 1887,
  "\u2581URI": 1888,
  "\u2581jende": 1889,
  "\u2581talde": 1890,
  "\u2581boy": 1891,
  "\u2581friends": 1892,
  "son": 1893,
  "\u2581begi": 1894,
  "\u2581Of": 1895,
  "\u2581l": 1896,
  "Eta": 1897,
  "\u2581easy": 1898,
  "\u2581history": 1899,
  "\u2581standard": 1900,
  "ha": 1901,
  "\u2581return": 1902,
  "\u2581formatu": 1903,
  "\u2581konfigurazio": 1904,
  "Comment": 1905,
  "\u2581special": 1906,
  "\u2581bistaratzeko": 1907,
  "\u2581inork": 1908,
  "\u2581ready": 1909,
  "di": 1910,
  "\u2581certificate": 1911,
  "\u2581profile": 1912,
  "\u2581Top": 1913,
  "\u2581control": 1914,
  "\u2581Zuk": 1915,
  "\u2581erran": 1916,
  "\u2581baitzen": 1917,
  "\u2581lizentzia": 1918,
  "\u2581Kaixo": 1919,
  "\u2581alda": 1920,
  "\u2581natural": 1921,
  "\u2581kill": 1922,
  "ZEIN": 1923,
  "\u2581lehendik": 1924,
  "tar": 1925,
  "\u2581aurkituko": 1926,
  "\u2581badira": 1927,
  "\u2581niri": 1928,
  "\u2581reading": 1929,
  "\u2581job": 1930,
  "\u2581sorta": 1931,
  "8": 1932,
  "\u2581minutu": 1933,
  "\u2581front": 1934,
  "\u2581Note": 1935,
  "\u2581Barkatu": 1936,
  "\u2581Christ": 1937,
  "\u2581Al": 1938,
  "\u2581ginen": 1939,
  "\u2581track": 1940,
  "\u2581\u201c%": 1941,
  "\u2581y": 1942,
  "\u2581irekitzeko": 1943,
  "\u2581Dena": 1944,
  "\u2581Bidali": 1945,
  "\u2581ur": 1946,
  "mota": 1947,
  "\u2581betiko": 1948,
  "\u2581Egoera": 1949,
  "\u2581pass": 1950,
  "\u2581ekarri": 1951,
  "\u2581alfil": 1952,
  "\u2581couldn": 1953,
  "\u2581dituzun": 1954,
  "\u2581zirela": 1955,
  "\u2581Did": 1956,
  "\u2581section": 1957,
  "click": 1958,
  "\u2581giza": 1959,
  "\u2581low": 1960,
  "if": 1961,
  "\u2581terms": 1962,
  "teklak": 1963,
  "\u2581characters": 1964,
  "\u2581\u266a": 1965,
  "\u2581Some": 1966,
  "\u2581Mode": 1967,
  "\u2581general": 1968,
  "\u2581des": 1969,
  "\u2581draw": 1970,
  "\u2581Check": 1971,
  "\u2581red": 1972,
  "\u2581bost": 1973,
  "\u2581bed": 1974,
  "\u2581Utzi": 1975,
  "ino": 1976,
  "\u2581brother": 1977,
  "\u2581makes": 1978,
  "\u2581Posta": 1979,
  "\u2581wasn": 1980,
  "\u2581details": 1981,
  "\u2581erabaki": 1982,
  "No": 1983,
  "\u2581simple": 1984,
  "\u2581beraren": 1985,
  "\u2581After": 1986,
  "\u2581gauzak": 1987,
  "\u2581bideo": 1988,
  "mapa": 1989,
  "\u2581luke": 1990,
  "\u2581sekula": 1991,
  "\u2581question": 1992,
  "\u2581bigarren": 1993,
  "\u2581c": 1994,
  "\u2581numbers": 1995,
  "\u2581fitxategiaren": 1996,
  "\u2581Izen": 1997,
  "\u2581zenean": 1998,
  "\u2581added": 1999,
  "\u25817": 2000,
  "\u2581Tira": 2001,
  "\u2581daukat": 2002,
  "\u2581mila": 2003,
  "\u2581Letra": 2004,
  "\u2581aski": 2005,
  "\u2581etxe": 2006,
  "\u2581nituen": 2007,
  "New": 2008,
  "\u2581soul": 2009,
  "\u2581talking": 2010,
  "ld": 2011,
  "\u2581iruditzen": 2012,
  "etarako": 2013,
  "ER": 2014,
  "\u2581sense": 2015,
  "\u2581Send": 2016,
  "\u2581errore": 2017,
  "ville": 2018,
  "\u2581banatzen": 2019,
  "\u2581euren": 2020,
  "\u2581zerbitzari": 2021,
  "\u2581izanez": 2022,
  "\u2581ikusiko": 2023,
  "\u2581cache": 2024,
  "\u2581dokumentua": 2025,
  "\u2581inor": 2026,
  "\u2581Panel": 2027,
  "\u2581errenkada": 2028,
  "\u2581answer": 2029,
  "bat": 2030,
  "\u2581garbi": 2031,
  "\u2581Jarri": 2032,
  "ch": 2033,
  "ere": 2034,
  "\u2581Contact": 2035,
  "\u2581aldatzen": 2036,
  "\u2581ideas": 2037,
  "\u2581horri": 2038,
  "\u2581pentsatzen": 2039,
  "\u2581bidaltzeko": 2040,
  "\u2581bereko": 2041,
  "\u2581IMAP": 2042,
  "\u2581fire": 2043,
  "\u2581gainerako": 2044,
  "\u2581jar": 2045,
  "\u2581sortzeko": 2046,
  "bo": 2047,
  "\u2581Her": 2048,
  "\u2581Co": 2049,
  "\u2581Log": 2050,
  "\u2581expression": 2051,
  "\u2581Password": 2052,
  "\u2581bidea": 2053,
  "\u2581Plugin": 2054,
  "\u2581deitzen": 2055,
  "\u2581perhaps": 2056,
  "\u2581bezalako": 2057,
  "\u2581bistaratu": 2058,
  "\u2581common": 2059,
  "data": 2060,
  "\u2581gau": 2061,
  "\u2581according": 2062,
  "\u2581Line": 2063,
  "\u2581agertu": 2064,
  "erako": 2065,
  "\u2581seguru": 2066,
  "\u2581gehitzeko": 2067,
  "\u2581visible": 2068,
  "\u2581Egun": 2069,
  "\u2581killed": 2070,
  "\u2581+": 2071,
  "\u2581Saiatu": 2072,
  "\u2581diamonds": 2073,
  "\u2581writing": 2074,
  "\u2581fitxategian": 2075,
  "\u2581Taula": 2076,
  "\u2581itzultzen": 2077,
  "\u2581eragin": 2078,
  "\u2581gordetzen": 2079,
  "\u2581Icon": 2080,
  "\u2581ezkerreko": 2081,
  "\u2581hundred": 2082,
  "raino": 2083,
  "\u2581dokumentu": 2084,
  "\u2581Nahi": 2085,
  "ine": 2086,
  "\u2581Balio": 2087,
  "\u2581lehenago": 2088,
  "\u2581particular": 2089,
  "\u2581irekitzen": 2090,
  "\u2581oharrak": 2091,
  "pen": 2092,
  "\u2581Man": 2093,
  "\u2581handiagoa": 2094,
  "\u2581Custom": 2095,
  "\u2581betetzen": 2096,
  "eth": 2097,
  "um": 2098,
  "\u2581diskoa": 2099,
  "\u2581Uste": 2100,
  "Stock": 2101,
  "\u2581su": 2102,
  "\u2581Background": 2103,
  "\u2581Tresna": 2104,
  "\u2581Izena": 2105,
  "\u2581original": 2106,
  "\u2581women": 2107,
  "\u2581zegoela": 2108,
  "\u2581ezagutu": 2109,
  "\u2581St": 2110,
  "zio": 2111,
  "\u2581Le": 2112,
  "\u2581users": 2113,
  "\u2581filter": 2114,
  "\u2581air": 2115,
  "\u2581Cards": 2116,
  "\u2581puzzle": 2117,
  "\u2581atzetik": 2118,
  "ina": 2119,
  "\u2581Israel": 2120,
  "\u2581comes": 2121,
  "\u2581script": 2122,
  "end": 2123,
  "\u2581koloreak": 2124,
  "\u2581today": 2125,
  "izen": 2126,
  "\u2581subject": 2127,
  "\u2581GIMP": 2128,
  "\u2581bakoitza": 2129,
  "\u2581Robots": 2130,
  "tuta": 2131,
  "\u2581games": 2132,
  "\u2581tree": 2133,
  "\u2581*": 2134,
  "\u2581hautatzeko": 2135,
  "\u2581pika": 2136,
  "\u2581horrelako": 2137,
  "\u2581zaharra": 2138,
  "\u2581Make": 2139,
  "\u2581Font": 2140,
  "\u2581gakoak": 2141,
  "\u2581handle": 2142,
  "\u2581lehenengo": 2143,
  "ment": 2144,
  "ke": 2145,
  "keria": 2146,
  "\u2581plugina": 2147,
  "\u201d": 2148,
  "\u2581LDAP": 2149,
  "\u2581Color": 2150,
  "\u2581wouldn": 2151,
  "\u2581dugun": 2152,
  "\u2581mundu": 2153,
  "text": 2154,
  "\u2581Mrs": 2155,
  "fitxategi": 2156,
  "per": 2157,
  "\u2581konexioa": 2158,
  "\u2581jotzen": 2159,
  "\u2581pixka": 2160,
  "\u2581earth": 2161,
  "all": 2162,
  "\u2581etxeko": 2163,
  "\u2581Mahjongg": 2164,
  "\u2581rows": 2165,
  "\u2581business": 2166,
  "\u2581players": 2167,
  "\u25818": 2168,
  "\u2581volume": 2169,
  "jokoa": 2170,
  "\u2581during": 2171,
  "\u2581stood": 2172,
  "\u2581Left": 2173,
  "\u2581kontrol": 2174,
  "\u2581oro": 2175,
  "ian": 2176,
  "\u2581seven": 2177,
  "\u2581lana": 2178,
  "\u2581isn": 2179,
  "\u2581mesedez": 2180,
  "\u2581Amerika": 2181,
  "\u2581seconds": 2182,
  "den": 2183,
  "\u2581erakutsiko": 2184,
  "\u2581batzuetan": 2185,
  "\u2581etxean": 2186,
  "\u2581zera": 2187,
  "\u2581stay": 2188,
  "\u2581cursor": 2189,
  "\u2581Ka": 2190,
  "\u2581Goazen": 2191,
  "\u2581moving": 2192,
  "\u2581private": 2193,
  "\u2581towards": 2194,
  "\u2581Gu": 2195,
  "\u2581funtzioak": 2196,
  "\u2581zenbakia": 2197,
  "\u2581aplikazioa": 2198,
  "\u2581luze": 2199,
  "\u2581buttons": 2200,
  "\u2581nahiko": 2201,
  "\u2581short": 2202,
  "\u2581IN": 2203,
  "\u2581@{": 2204,
  "\u2581\u2014": 2205,
  "hi": 2206,
  "\u2581herself": 2207,
  "\u2581pre": 2208,
  "\u2581created": 2209,
  "\u2581Manual": 2210,
  "\u2581honako": 2211,
  "\u2581buruari": 2212,
  "\u2581begiak": 2213,
  "tzaile": 2214,
  "\u2581J": 2215,
  "\u2581bilatzen": 2216,
  "\u2581John": 2217,
  "\u2581Tamaina": 2218,
  "\u2581Current": 2219,
  "\u2581ederra": 2220,
  "\u2581month": 2221,
  "\u2581editor": 2222,
  "\u2581FOR": 2223,
  "\u2581=": 2224,
  "\u2581ikusgai": 2225,
  "\u2581clubs": 2226,
  "\u2581sounds": 2227,
  "\u2581aldaketa": 2228,
  "\u2581horregatik": 2229,
  "\u2581ene": 2230,
  "\u2581bakoitzak": 2231,
  "\u2581property": 2232,
  "\u2581nau": 2233,
  "\u2581taking": 2234,
  "\u2581Properties": 2235,
  "\u2581Ko": 2236,
  "ric": 2237,
  "\u2581fear": 2238,
  "\u2581hiri": 2239,
  "\u2581score": 2240,
  "\u2581ziur": 2241,
  "\u2581Clear": 2242,
  "\u2581gailua": 2243,
  "\u2581sign": 2244,
  "\u2581Documentation": 2245,
  "\u2581guy": 2246,
  "\u2581useful": 2247,
  "\u2581elkar": 2248,
  "\u2581konektatu": 2249,
  "\u2581root": 2250,
  "\u2581Sun": 2251,
  "\u2581sleep": 2252,
  "\u2581eragiten": 2253,
  "\u2581linea": 2254,
  "\u2581osoko": 2255,
  "ni": 2256,
  "ol": 2257,
  "\u2581Command": 2258,
  "\u2581sea": 2259,
  "\u2581MIME": 2260,
  "\u2581irteera": 2261,
  "\u2581Switch": 2262,
  "\u2581week": 2263,
  "\u2581beldur": 2264,
  "\u2581hartuko": 2265,
  "\u2581kate": 2266,
  "\u2581GDM": 2267,
  "sh": 2268,
  "\u2581hirusta": 2269,
  "\u2581baliozko": 2270,
  "\u2581eramaten": 2271,
  "\u2581passed": 2272,
  "\u2581Inprimatu": 2273,
  "ho": 2274,
  "\u2581length": 2275,
  "\u2581Desktop": 2276,
  "\u2581berdin": 2277,
  "\u2581problem": 2278,
  "\u2581panela": 2279,
  "gi": 2280,
  "\u2581gazte": 2281,
  "tzean": 2282,
  "\u2581cut": 2283,
  "\u2581hasierako": 2284,
  "\u2581atsegin": 2285,
  "\u2581onartu": 2286,
  "\u2581email": 2287,
  "gan": 2288,
  "\u2581allow": 2289,
  "\u2581parte": 2290,
  "\u2581Inportatu": 2291,
  "\u2581ought": 2292,
  "\u2581Begira": 2293,
  "\u2581guztiek": 2294,
  "\u2581Because": 2295,
  "\u2581egindako": 2296,
  "chess": 2297,
  "\u2581Mo": 2298,
  "\u2581bertikala": 2299,
  "ING": 2300,
  "em": 2301,
  "\u2581Take": 2302,
  "\u2581ate": 2303,
  "\u2581allows": 2304,
  "\u2581Egiaztatu": 2305,
  "\u2581b": 2306,
  "\u2581Hi": 2307,
  "\u2581hint": 2308,
  "\u2581muga": 2309,
  "\u2581Four": 2310,
  "\u2581square": 2311,
  "\u2581miniaplikazioa": 2312,
  "\u2581baitu": 2313,
  "\u2581town": 2314,
  "\u2581written": 2315,
  "\u2581Mezuak": 2316,
  "\u2581thousand": 2317,
  "\u2581Hasi": 2318,
  "\u2581feet": 2319,
  "\u2581piece": 2320,
  "qui": 2321,
  "\u2581thou": 2322,
  "10": 2323,
  "\u2581Ohar": 2324,
  "land": 2325,
  "\u2581meet": 2326,
  "\u2581someone": 2327,
  "\u2581lauki": 2328,
  "\u2581evening": 2329,
  "\u2581range": 2330,
  "\u2581Windows": 2331,
  "\u2581zitzaidan": 2332,
  "\u2581fill": 2333,
  "\u2581Ikono": 2334,
  "\u2581shit": 2335,
  "\u2581batere": 2336,
  "\u2581notes": 2337,
  "\u2581David": 2338,
  "\u2581dator": 2339,
  "\u2581perform": 2340,
  "lt": 2341,
  "\u2581past": 2342,
  "\u2581gehiegi": 2343,
  "\u2581blood": 2344,
  "\u2581Try": 2345,
  "\u2581arrazoi": 2346,
  "\u2581Version": 2347,
  "\u2581gaitu": 2348,
  "\u2581immediately": 2349,
  "\u2581f": 2350,
  "\u2581letters": 2351,
  "\u2581gutxiago": 2352,
  "\u2581receive": 2353,
  "\u2581zaren": 2354,
  "\u2581near": 2355,
  "\u2581zeure": 2356,
  "\u2581sat": 2357,
  "OUT": 2358,
  "\u2581gainetik": 2359,
  "\u2581baitzuen": 2360,
  "ria": 2361,
  "by": 2362,
  "\u2581horien": 2363,
  "\u2581kept": 2364,
  "\u2581deleted": 2365,
  "\u2581eat": 2366,
  "\u2581browser": 2367,
  "\u2581host": 2368,
  "\u2581ze": 2369,
  "\u2581hemendik": 2370,
  "\u2581horixe": 2371,
  "\u2581applet": 2372,
  "\u2581balioak": 2373,
  "\u2581indeed": 2374,
  "\u2581contacts": 2375,
  "\u2581removed": 2376,
  "\u2581normal": 2377,
  "\u2581Editor": 2378,
  "\u2581Run": 2379,
  "\u2581steps": 2380,
  "\u2581ikonoa": 2381,
  "\u2581working": 2382,
  "\u2581GABE": 2383,
  "mi": 2384,
  "\u2581fucking": 2385,
  "que": 2386,
  "\u2581language": 2387,
  "\u2581saiatzen": 2388,
  "undo": 2389,
  "\u2581Sakatu": 2390,
  "\u2581Ha": 2391,
  "\u2581info": 2392,
  "\u2581exekutatu": 2393,
  "\u2581Exekutatu": 2394,
  "\u2581returned": 2395,
  "\u2581spades": 2396,
  "\u2581points": 2397,
  "\u2581Disko": 2398,
  "\u2581Information": 2399,
  "\u2581Jainkoaren": 2400,
  "\u2581Badakit": 2401,
  "\u2581egotea": 2402,
  "\u2581pleasure": 2403,
  "\u2581PGP": 2404,
  "\u2581letter": 2405,
  "ah": 2406,
  "\u2581Kontaktu": 2407,
  "://": 2408,
  "file": 2409,
  "\u2581utziko": 2410,
  "\u2581alegia": 2411,
  "\u2581batzuek": 2412,
  "\u2581outside": 2413,
  "\u2581Eskerrik": 2414,
  "\u2581gutun": 2415,
  "\u2581afraid": 2416,
  "\u2581mailako": 2417,
  "\u2581occurred": 2418,
  "\u2581distributed": 2419,
  "\u2581Manager": 2420,
  "\u2581direnean": 2421,
  "\u2581Mark": 2422,
  "\u2581goiko": 2423,
  "\u2581thinking": 2424,
  "\u2581diru": 2425,
  "\u2581nice": 2426,
  "\u2581dutela": 2427,
  "\u2581exekutatzen": 2428,
  "\u2581dark": 2429,
  "\u2581force": 2430,
  "\u2581Aita": 2431,
  "im": 2432,
  "\u2581bihurtzen": 2433,
  "\u2581lekuz": 2434,
  "ru": 2435,
  "\u2581Su": 2436,
  "\u2581garai": 2437,
  "\u2581poor": 2438,
  "\u2581libre": 2439,
  "\u2581properties": 2440,
  "tic": 2441,
  "help": 2442,
  "\u2581bandera": 2443,
  "RIK": 2444,
  "os": 2445,
  "list": 2446,
  "\u2581Next": 2447,
  "\u2581euskarria": 2448,
  "\u2581@": 2449,
  "batean": 2450,
  "\u2581existing": 2451,
  "\u2581happy": 2452,
  "\u2581inolako": 2453,
  "\u2581Na": 2454,
  "ge": 2455,
  "\u2581hi": 2456,
  "\u2581Have": 2457,
  "\u2581dirua": 2458,
  "\u2581Sir": 2459,
  "\u2581estandarra": 2460,
  "\u2581probably": 2461,
  "\u2581focus": 2462,
  "\u00e9": 2463,
  "\u2581Benetan": 2464,
  "\u2581Jainkoa": 2465,
  "\u2581marka": 2466,
  "\u2581Stop": 2467,
  "\u2581taula": 2468,
  "\u2581Hor": 2469,
  "\u2581Jauna": 2470,
  "\u2581Mar": 2471,
  "\u2581Lau": 2472,
  "\u2581ago": 2473,
  "\u2581gertaera": 2474,
  "ist": 2475,
  "\u2581tried": 2476,
  "\u2581attribute": 2477,
  "\u2581important": 2478,
  "\u2581Etiketa": 2479,
  "AK": 2480,
  "\u2581urrats": 2481,
  "\u2581ikono": 2482,
  "\u2581Insert": 2483,
  "\u2581axola": 2484,
  "\u2581match": 2485,
  "\u2581zero": 2486,
  "\u2581noski": 2487,
  "\u2581tiles": 2488,
  "\u2581El": 2489,
  "\u2581Helbide": 2490,
  "\u2581Selection": 2491,
  "\u2581osoan": 2492,
  "\u2581Would": 2493,
  "\u2581aplikazioak": 2494,
  "\u2581login": 2495,
  "\u2581Help": 2496,
  "He": 2497,
  "\u2581knows": 2498,
  "zi": 2499,
  "\u2581description": 2500,
  "\u2581Hitz": 2501,
  "IK": 2502,
  "\u2581Disable": 2503,
  "\u2581TO": 2504,
  "\u2581signature": 2505,
  "\u2581colours": 2506,
  "\u2581offline": 2507,
  "agoa": 2508,
  "\u2581contain": 2509,
  "\u2581hide": 2510,
  "\u2581erabiltzea": 2511,
  "\u2581aurre": 2512,
  "ze": 2513,
  "\u2581lortzeko": 2514,
  "\u2581pretty": 2515,
  "\u2581zehaztutako": 2516,
  "\u2581Sudoku": 2517,
  "\u2581deal": 2518,
  "\u2581txikia": 2519,
  "Other": 2520,
  "\u258112": 2521,
  "\u2581gnome": 2522,
  "\u2581Screen": 2523,
  "\u2581zutabe": 2524,
  "\u2581Lan": 2525,
  "\u2581dezagun": 2526,
  "\u2581beautiful": 2527,
  "\u2581living": 2528,
  "\u2581noiz": 2529,
  "tamaina": 2530,
  "\u2581Network": 2531,
  "za": 2532,
  "\u2581Anjuta": 2533,
  "\u2581jarraitzen": 2534,
  "\u2581manner": 2535,
  "\u2581honetako": 2536,
  "ca": 2537,
  "\u2581edit": 2538,
  "\u2581minute": 2539,
  "\u2581Keys": 2540,
  "\u2581More": 2541,
  "\u2581eskuratu": 2542,
  "\u2581eskaintzen": 2543,
  "\u2581Garbitu": 2544,
  "\u2581dudala": 2545,
  "\u2581guys": 2546,
  "ratu": 2547,
  "()": 2548,
  "But": 2549,
  "\u2581dear": 2550,
  "uk": 2551,
  "\u2581media": 2552,
  "\u2581answered": 2553,
  "\u2581bikoitza": 2554,
  "\u2581Bideo": 2555,
  "\u2581Zoom": 2556,
  "\u2581VPN": 2557,
  "\u2581BESTE": 2558,
  "\u2581Source": 2559,
  "\u2581aldera": 2560,
  "\u2581parts": 2561,
  "\u2581Jaunak": 2562,
  "\u2581pasa": 2563,
  "less": 2564,
  "dan": 2565,
  "\u2581Zenbat": 2566,
  "\u2581azkar": 2567,
  "\u2581Errore": 2568,
  "\u2581ikuspegi": 2569,
  "\u2581emandako": 2570,
  "\u2581Ze": 2571,
  "\u2581none": 2572,
  "\u2581wants": 2573,
  "that": 2574,
  "\u2581Datu": 2575,
  "\u2581diamantea": 2576,
  "\u2581hours": 2577,
  "\u2581Honek": 2578,
  "\u2581KDE": 2579,
  "\u2581unto": 2580,
  "markak": 2581,
  "\u2581About": 2582,
  "\u2581elkarrekin": 2583,
  "vi": 2584,
  "\u2581mezuaren": 2585,
  "katu": 2586,
  "\u2581Volume": 2587,
  "\u2581objektua": 2588,
  "\u2581Group": 2589,
  "\u2581berezia": 2590,
  "\u2581jatorrizko": 2591,
  "\u2581maitea": 2592,
  "\u2581Jainkoak": 2593,
  "\u2581component": 2594,
  "IN": 2595,
  "\u2581laws": 2596,
  "\u2581seem": 2597,
  "\u2581base": 2598,
  "\u2581izenak": 2599,
  "keyboard": 2600,
  "\u2581Li": 2601,
  "\u2581workspace": 2602,
  "\u2581eight": 2603,
  "\u2581gizona": 2604,
  "\u2581gailu": 2605,
  "\u2581Other": 2606,
  "\u2581kopiatu": 2607,
  "\u2581Deal": 2608,
  "\u2581Peter": 2609,
  "\u2581bolumena": 2610,
  "\u2581horizontala": 2611,
  "\u2581Player": 2612,
  "\u2581tag": 2613,
  "\u2581neither": 2614,
  "\u2581ateratzen": 2615,
  "\u2581dion": 2616,
  "\u2581Shell": 2617,
  "\u2581Date": 2618,
  "\u2581packages": 2619,
  "tasunaren": 2620,
  "\u2581filename": 2621,
  "\u2581hasteko": 2622,
  "st": 2623,
  "ul": 2624,
  "\u2581Gaur": 2625,
  "\u2581Location": 2626,
  "\u2581adibidez": 2627,
  "\u2581karpetak": 2628,
  "\u2581fall": 2629,
  "rekiko": 2630,
  "\u2581Ar": 2631,
  "\u2581Badakizu": 2632,
  "\u2581Up": 2633,
  "\u2581gela": 2634,
  "\u2581import": 2635,
  "\u2581beginning": 2636,
  "\u2581zuena": 2637,
  "\u2581drink": 2638,
  "\u2581continue": 2639,
  "\u2581ezik": 2640,
  "\u2581actions": 2641,
  "\u2581forma": 2642,
  "enak": 2643,
  "time": 2644,
  "\u2581bug": 2645,
  "\u2581ma": 2646,
  "fitxategiak": 2647,
  "\u2581sortzean": 2648,
  "\u2581stand": 2649,
  "sistema": 2650,
  "tara": 2651,
  "\u2581events": 2652,
  "\u2581Beti": 2653,
  "ate": 2654,
  "\u2581Video": 2655,
  "Yes": 2656,
  "tipoa": 2657,
  "\u2581Calendar": 2658,
  "\u2581Certificate": 2659,
  "\u2581till": 2660,
  "\u2581Ados": 2661,
  "\u2581Itxaron": 2662,
  "\u2581segurua": 2663,
  "\u2581Two": 2664,
  "\u2581bana": 2665,
  "si": 2666,
  "\u2581greater": 2667,
  "bil": 2668,
  "\u2581Karta": 2669,
  "\u2581kontaktu": 2670,
  "\u2581lur": 2671,
  "\u2581Place": 2672,
  "\u2581Hiru": 2673,
  "\u2581forward": 2674,
  "\u2581ulertu": 2675,
  "\u2581zenuke": 2676,
  "\u2581Mahai": 2677,
  "\u2581dei": 2678,
  "\u2581seems": 2679,
  "\u2581kontuan": 2680,
  "\u2581Jo": 2681,
  "\u2581Hello": 2682,
  "\u2581ninduen": 2683,
  "\u2581zaitu": 2684,
  "\u2581andrea": 2685,
  "\u2581Disc": 2686,
  "\u2581Lehen": 2687,
  "\u2581daitekeen": 2688,
  "\u2581koadro": 2689,
  "\u2581art": 2690,
  "\u2581entered": 2691,
  "\u2581mahaigaineko": 2692,
  "\u2581shell": 2693,
  "\u2581limit": 2694,
  "\u2581lasai": 2695,
  "\u2581hell": 2696,
  "\u2581igo": 2697,
  "\u2581zarete": 2698,
  "\u2581Konfiguratu": 2699,
  "\u2581interface": 2700,
  "\u2581arrow": 2701,
  "\u2581needs": 2702,
  "\u2581stock": 2703,
  "\u2581DAMAGES": 2704,
  "\u2581jokoaren": 2705,
  "\u2581published": 2706,
  "\u2581bestela": 2707,
  "\u2581Puzzle": 2708,
  "\u2581geratzen": 2709,
  "\u2581starting": 2710,
  "\u2581sometimes": 2711,
  "\u2581Each": 2712,
  "et": 2713,
  "\u2581zerbitzaria": 2714,
  "\u2581correctly": 2715,
  "\u2581izeneko": 2716,
  "\u2581onto": 2717,
  "ila": 2718,
  "\u2581jendea": 2719,
  "bit": 2720,
  "\u2581erreprodukzio": 2721,
  "TIAL": 2722,
  "of": 2723,
  "\u2581Ama": 2724,
  "\u2581Bar": 2725,
  "\u2581Empathy": 2726,
  "\u2581Maybe": 2727,
  "\u2581Erre": 2728,
  "\u2581eragiketa": 2729,
  "\u2581middle": 2730,
  "\u2581UNDER": 2731,
  "\u2581erraza": 2732,
  "\u2581erakusteko": 2733,
  "\u2581eskua": 2734,
  "\u2581berarekin": 2735,
  "au": 2736,
  "\u2581gaude": 2737,
  "\u2581zoom": 2738,
  "\u2581%.1": 2739,
  "\u2581shows": 2740,
  "\u2581ea": 2741,
  "\u2581lay": 2742,
  "\u2581Aplikazio": 2743,
  "\u2581ALDATUA": 2744,
  "\u2581waiting": 2745,
  "tutako": 2746,
  "tro": 2747,
  "\u2581bakoitzaren": 2748,
  "\u2581Totem": 2749,
  "\u2581clipboard": 2750,
  "\u2581Desgaitu": 2751,
  "ezko": 2752,
  "\u2581behintzat": 2753,
  "\u2581atea": 2754,
  "\u2581handik": 2755,
  "\u2581nirekin": 2756,
  "\u2581missing": 2757,
  "\u2581pro": 2758,
  "\u2581bakoitzeko": 2759,
  "\u2581mouth": 2760,
  "\u2581places": 2761,
  "\u2581Han": 2762,
  "\u2581Title": 2763,
  "\u2581block": 2764,
  "\u2581library": 2765,
  "ling": 2766,
  "\u2581fell": 2767,
  "\u2581multiple": 2768,
  "\u2581actually": 2769,
  "\u2581flag": 2770,
  "\u2581Mesedez": 2771,
  "\u2581individual": 2772,
  "\u2581permissions": 2773,
  "zu": 2774,
  "\u2581across": 2775,
  "\u2581pay": 2776,
  "\u2581pixel": 2777,
  "\u2581Hizkuntza": 2778,
  "\u2581nengoen": 2779,
  "\u2581automatikoa": 2780,
  "ir": 2781,
  "\u2581aurpegi": 2782,
  "\u2581future": 2783,
  "\u2581sinadura": 2784,
  "\u2581botoi": 2785,
  "line": 2786,
  "\u2581taldea": 2787,
  "\u2581IP": 2788,
  "\u2581Zerrenda": 2789,
  "\u2581Glade": 2790,
  "\u2581icons": 2791,
  "\u2581ahaztu": 2792,
  "\u258120": 2793,
  "\u2581Alt": 2794,
  "\u2581Empty": 2795,
  "\u2581parse": 2796,
  "\u2581Path": 2797,
  "\u2581anyone": 2798,
  "quot": 2799,
  "\u2581hots": 2800,
  "\u2581update": 2801,
  "\u2581Mila": 2802,
  "\u2581Laguntza": 2803,
  "\u2581hair": 2804,
  "rantz": 2805,
  "\u2581request": 2806,
  "\u2581gabea": 2807,
  "\u2581class": 2808,
  "\u2581due": 2809,
  "\u2581Value": 2810,
  "\u2581ground": 2811,
  "\u2581double": 2812,
  "atzen": 2813,
  "\u2581master": 2814,
  "tz": 2815,
  "\u2581Gizon": 2816,
  "\u2581barne": 2817,
  "\u2581dirudi": 2818,
  "\u2581result": 2819,
  "\u2581POP": 2820,
  "\u2581bildu": 2821,
  "\u2581GroupWise": 2822,
  "\u2581act": 2823,
  "\u2581goi": 2824,
  "9": 2825,
  "\u2581zatia": 2826,
  "\u2581buruan": 2827,
  "\u2581liburu": 2828,
  "fi": 2829,
  "\u2581Zehaztu": 2830,
  "\u2581duenean": 2831,
  "\u2581abiarazi": 2832,
  "\u2581horrekin": 2833,
  "-8": 2834,
  "\u2581Entzun": 2835,
  "\u2581corner": 2836,
  "\u2581husband": 2837,
  "ut": 2838,
  "\u2581feeling": 2839,
  "\u2581further": 2840,
  "galdetu": 2841,
  "tor": 2842,
  "\u2581barre": 2843,
  "\u2581irakurtzeko": 2844,
  "\u2581works": 2845,
  "\u2581direktorio": 2846,
  "\u2581preferences": 2847,
  "\u2581ye": 2848,
  "bide": 2849,
  "\u2581followed": 2850,
  "\u2581except": 2851,
  "\u25819": 2852,
  "\u2581authentication": 2853,
  "\u2581mine": 2854,
  "\u2581zurekin": 2855,
  "\u2581bertsioan": 2856,
  "koadroan": 2857,
  "\u2581begiratzen": 2858,
  "\u2581min": 2859,
  "\u2581planoko": 2860,
  "\u2581(0": 2861,
  "\u2581hitza": 2862,
  "\u2581menua": 2863,
  "\u2581azaldu": 2864,
  "\u2581mugimendua": 2865,
  "\u2581ordena": 2866,
  "\u2581zutela": 2867,
  "nt": 2868,
  "\u2581Bigarren": 2869,
  "\u2581install": 2870,
  "\u2581erori": 2871,
  "\u2581goian": 2872,
  "\u2581Hobespenak": 2873,
  "\u2581duzunean": 2874,
  "\u2581spoke": 2875,
  "In": 2876,
  "\u2581channel": 2877,
  "All": 2878,
  "\u2581zahar": 2879,
  "\u2581mahaiko": 2880,
  "\u2581music": 2881,
  "\u2581Haren": 2882,
  "\u2581database": 2883,
  "\u2581proiektua": 2884,
  "erantzun": 2885,
  "\u2581Wait": 2886,
  "\u2581port": 2887,
  "\u2581Ma": 2888,
  "\u2581store": 2889,
  "\u2581erabilgarria": 2890,
  "\u2581spirit": 2891,
  "\u2581Brasero": 2892,
  "\u2581Ho": 2893,
  "\u2581zinen": 2894,
  "\u2581onena": 2895,
  "\u2581indar": 2896,
  "\u2581switch": 2897,
  "\u2581direction": 2898,
  "\u2581lock": 2899,
  "AN": 2900,
  "\u2581Klotski": 2901,
  "\u2581Level": 2902,
  "\u2581Organiser": 2903,
  "\u2581chance": 2904,
  "\u2581ikuspegia": 2905,
  "\u2581cried": 2906,
  "\u2581kasu": 2907,
  "\u2581ordenagailu": 2908,
  "\u2581argument": 2909,
  "\u2581pattern": 2910,
  "\u2581h": 2911,
  "\u2581trepeta": 2912,
  "gnome": 2913,
  "\u2581Proxy": 2914,
  "\u2581trust": 2915,
  "\u2581entzuten": 2916,
  "\u2581closed": 2917,
  "\u2581gordetako": 2918,
  "\u2581ahots": 2919,
  "\u2581evil": 2920,
  "\u2581step": 2921,
  "\u2581diote": 2922,
  "\u2581dis": 2923,
  "\u2581Eman": 2924,
  "\u2581Sa": 2925,
  "\u2581gorputz": 2926,
  "\u2581Home": 2927,
  "\u2581daughter": 2928,
  "LE": 2929,
  "\u2581egunkari": 2930,
  "\u2581Button": 2931,
  "\u2581met": 2932,
  "\u2581Proiektu": 2933,
  "\u2581SSH": 2934,
  "\u2581eremua": 2935,
  "\u2581jaunak": 2936,
  "\u2581ondoko": 2937,
  "\u2581Monitor": 2938,
  "\u2581held": 2939,
  "\u2581Agian": 2940,
  "\u2581bistaratuko": 2941,
  "\u2581Te": 2942,
  "\u2581Ra": 2943,
  "\u2581historia": 2944,
  "\u2581Internet": 2945,
  "lan": 2946,
  "\u2581URLa": 2947,
  "\u2581benetako": 2948,
  "down": 2949,
  "\u2581bidaltzen": 2950,
  "\u2581break": 2951,
  "\u2581Ezkutatu": 2952,
  "\u2581Adibidez": 2953,
  "That": 2954,
  "\u2581irakurtzean": 2955,
  "\u2581kentzen": 2956,
  "ron": 2957,
  "\u2581Status": 2958,
  "\u2581Elementu": 2959,
  "\u2581la": 2960,
  "\u2581Back": 2961,
  "\u2581Inc": 2962,
  "\u2581hartzeko": 2963,
  "\u2581Sarrera": 2964,
  "\u2581jan": 2965,
  "les": 2966,
  "ala": 2967,
  "\u2581correct": 2968,
  "\u258119": 2969,
  "\u2581elektronikoa": 2970,
  "\u2581sequence": 2971,
  "\u2581species": 2972,
  "ja": 2973,
  "\u2581instalatuta": 2974,
  "\u2581Keep": 2975,
  "EZ": 2976,
  "\u2581Application": 2977,
  "\u2581late": 2978,
  "\u2581super": 2979,
  "\u2581adiskide": 2980,
  "\u2581gustatzen": 2981,
  "\u2581nagusi": 2982,
  "tea": 2983,
  "\u2581Pa": 2984,
  "\u2581nauzu": 2985,
  "\u2581Komando": 2986,
  "\u2581Europe": 2987,
  "\u2581Goiko": 2988,
  "\u2581Tool": 2989,
  "\u2581build": 2990,
  "\u2581atzean": 2991,
  "\u2581First": 2992,
  "ber": 2993,
  "\u2581Pi": 2994,
  "\u2581goes": 2995,
  "\u2581gold": 2996,
  "\u2581accept": 2997,
  "\u2581irabazi": 2998,
  "\u2581unit": 2999,
  "\u2581third": 3000,
  "\u2581walk": 3001,
  "\u2581mark": 3002,
  "\u2581lagundu": 3003,
  "\u2581Lo": 3004,
  "\u2581battery": 3005,
  "\u2581aurkako": 3006,
  "\u2581returns": 3007,
  "\u2581ways": 3008,
  "kopurua": 3009,
  "\u2581blue": 3010,
  "\u2581method": 3011,
  "\u2581pieces": 3012,
  "\u2581foundation": 3013,
  "koak": 3014,
  "\u2581moduz": 3015,
  "\u2581collection": 3016,
  "\u2581luzera": 3017,
  "\u2581atal": 3018,
  "\u2581pure": 3019,
  "\u2581hautatzen": 3020,
  "\u2581strong": 3021,
  "\u2581sight": 3022,
  "\u2581osatzen": 3023,
  "\u2581HTTP": 3024,
  "\u2581became": 3025,
  "set": 3026,
  "\u2581apur": 3027,
  "\u2581amaiera": 3028,
  "\u2581seeing": 3029,
  "aldi": 3030,
  "\u2581appointment": 3031,
  "\u2581Edo": 3032,
  "\u2581barra": 3033,
  "\u2581regular": 3034,
  "\u2581erdian": 3035,
  "\u2581unable": 3036,
  "\u2581hobe": 3037,
  "\u2581street": 3038,
  "\u2581testuaren": 3039,
  "\u2581Bide": 3040,
  "\u2581musika": 3041,
  "\u2581trouble": 3042,
  "\"(": 3043,
  "$": 3044,
  "\u2581guztiei": 3045,
  "\u2581Out": 3046,
  "\u2581existence": 3047,
  "\u2581hasieran": 3048,
  "\u2581story": 3049,
  "\u2581Viewer": 3050,
  "\u2581hobeto": 3051,
  "\u2581target": 3052,
  "\u2581Hil": 3053,
  "\u2581berriago": 3054,
  "\u2581gizaki": 3055,
  "\u2581hainbeste": 3056,
  "\u2581agertuko": 3057,
  "\u2581antzeko": 3058,
  "zerbitzariarekin": 3059,
  "\u2581Ekintza": 3060,
  "\u2581Kontua": 3061,
  "\u2581familia": 3062,
  "\u2581looks": 3063,
  "\u2581office": 3064,
  "\u2581begin": 3065,
  "\u2581sareko": 3066,
  "\u2581Ktrl": 3067,
  "\u2581WARRANTY": 3068,
  "\u2581named": 3069,
  "\u2581happen": 3070,
  "\u2581titulua": 3071,
  "\u2581total": 3072,
  "\u2581finished": 3073,
  "\u2581Control": 3074,
  "\u2581librea": 3075,
  "\u2581Hide": 3076,
  "\u2581editorea": 3077,
  "\u2581semea": 3078,
  "rez": 3079,
  "\u2581dagoeneko": 3080,
  "\u2581diat": 3081,
  "\u2581End": 3082,
  "\u2581Configure": 3083,
  "\u2581hizkuntza": 3084,
  "\u2581xehetasunak": 3085,
  "\u2581Jonathan": 3086,
  "\u2581eder": 3087,
  "dura": 3088,
  "\u2581zaie": 3089,
  "\u2581grid": 3090,
  "\u2581naizela": 3091,
  "ish": 3092,
  "View": 3093,
  "one": 3094,
  "\u2581Power": 3095,
  "\u2581lower": 3096,
  "\u2581planoa": 3097,
  "\u2581Horregatik": 3098,
  "\u2581Export": 3099,
  "\u2581m": 3100,
  "egi": 3101,
  "\u2581desire": 3102,
  "\u2581Un": 3103,
  "\u2581eskuinera": 3104,
  "out": 3105,
  "der": 3106,
  "\u2581Link": 3107,
  "\u2581Specify": 3108,
  "disabled": 3109,
  "\u2581GConf": 3110,
  "ES": 3111,
  "muga": 3112,
  "\u2581OK": 3113,
  "\u2581geure": 3114,
  "\u2581listen": 3115,
  "\u2581sortzea": 3116,
  "Gorde": 3117,
  "\u2581hidden": 3118,
  "\u2581school": 3119,
  "\u2581Irudiaren": 3120,
  "\u2581eye": 3121,
  "\u2581$": 3122,
  "\u2581beharbada": 3123,
  "\u2581whatever": 3124,
  "dir": 3125,
  "\u2581cold": 3126,
  "\u2581expected": 3127,
  "\u2581saving": 3128,
  "\u2581egiaztatu": 3129,
  "\u2581horizontal": 3130,
  "\u2581zarela": 3131,
  "\u2581ageri": 3132,
  "\u2581urrun": 3133,
  "retan": 3134,
  "\u2581azkenean": 3135,
  "\u2581stopped": 3136,
  "\u2581printer": 3137,
  "\u2581zabaldu": 3138,
  "\u2581Lu": 3139,
  "11": 3140,
  "\u00e1": 3141,
  "j": 3142,
  "\u2581NO": 3143,
  "\u2581eskema": 3144,
  "\u2581specific": 3145,
  "\u2581Notes": 3146,
  "Add": 3147,
  "mar": 3148,
  "\u2581exactly": 3149,
  "\u2581aldetik": 3150,
  "\u2581based": 3151,
  "\u2581Gauza": 3152,
  "\u2581argia": 3153,
  "\u2581Device": 3154,
  "\u2581completed": 3155,
  "\u2581fuck": 3156,
  "\u2581MA": 3157,
  "\u2581haur": 3158,
  "bar": 3159,
  "ver": 3160,
  "\u2581egitera": 3161,
  "pean": 3162,
  "\u2581beheko": 3163,
  "\u2581izanik": 3164,
  "\u2581plan": 3165,
  "\u2581zaila": 3166,
  "\u2581inguruko": 3167,
  "\u2581horretarako": 3168,
  "\u2581askoz": 3169,
  "\u2581orrialdea": 3170,
  "\u2581Dasher": 3171,
  "\u2581instalatu": 3172,
  "\u2581Miss": 3173,
  "\u2581cell": 3174,
  "sta": 3175,
  "\u2581orria": 3176,
  "\u2581ezkerrera": 3177,
  "\u2581gizonak": 3178,
  "\u2581picture": 3179,
  "view": 3180,
  "\u2581Pasahitza": 3181,
  "\u2581defined": 3182,
  "\u2581watch": 3183,
  "\u2581suddenly": 3184,
  "tsua": 3185,
  "\u2581sun": 3186,
  "ive": 3187,
  "\u2581sentitu": 3188,
  "\u2581supposed": 3189,
  "\u2581pista": 3190,
  "\u2581onartuta": 3191,
  "Open": 3192,
  "\u2581hara": 3193,
  "\u2581proiektu": 3194,
  "\u2581road": 3195,
  "\u2581bookmarks": 3196,
  "\u2581memoria": 3197,
  "\u2581tartea": 3198,
  "\u2581v": 3199,
  "\u2581zehatz": 3200,
  "\u2581Con": 3201,
  "\u2581jokalari": 3202,
  "-%": 3203,
  "\u2581guk": 3204,
  "\u2581zuenean": 3205,
  "\u2581tasks": 3206,
  "\u2581eraso": 3207,
  "\u2581adina": 3208,
  "\u2581gutxienez": 3209,
  "GFDL": 3210,
  "\u2581States": 3211,
  "\u2581yes": 3212,
  "\u2581abiadura": 3213,
  "ty": 3214,
  "\u2581mugi": 3215,
  "\u2581ume": 3216,
  "\u2581Format": 3217,
  "\u2581lady": 3218,
  "\u2581fight": 3219,
  "\u2581doubt": 3220,
  "age": 3221,
  "\u2581esateko": 3222,
  "\u2581zi": 3223,
  "\u2581\\\\": 3224,
  "\u2581respect": 3225,
  "\u2581eseri": 3226,
  "\u258118": 3227,
  "\u2581fitxategien": 3228,
  "\u2581besteak": 3229,
  "\u2581extension": 3230,
  "\u2581gogor": 3231,
  "\u2581egokia": 3232,
  "\u2581Zerbait": 3233,
  "\u2581abiatu": 3234,
  "\u2581Tomboy": 3235,
  "side": 3236,
  "\u2581lortzen": 3237,
  "\u2581stream": 3238,
  "\u2581UTF": 3239,
  "...\"": 3240,
  "Bilatu": 3241,
  "\u2581SSL": 3242,
  "\u2581disabled": 3243,
  "\u2581jokatzen": 3244,
  "We": 3245,
  "mon": 3246,
  "\u2581Copyright": 3247,
  "\u2581etorriko": 3248,
  "\u2581police": 3249,
  "\u2581Lerro": 3250,
  "\u2581Applet": 3251,
  "\u2581age": 3252,
  "\u2581Maximum": 3253,
  "\u2581gaituta": 3254,
  "\u2581Txertatu": 3255,
  "\u2581arazo": 3256,
  "Gehitu": 3257,
  "\u2581died": 3258,
  "\u2581Bo": 3259,
  "\u2581gerra": 3260,
  "\u2581leihoan": 3261,
  "\u2581Father": 3262,
  "\u2581progress": 3263,
  "\u2581konexio": 3264,
  "\u2581Waste": 3265,
  "\u2581arms": 3266,
  "\u2581distribute": 3267,
  "\u2581soinua": 3268,
  "kudeatzailearen": 3269,
  "\u2581aldean": 3270,
  "Kendu": 3271,
  "\u2581phone": 3272,
  "\u2581helburua": 3273,
  "\u2581se": 3274,
  "\u2581con": 3275,
  "\u2581hilabete": 3276,
  "\u2581igaro": 3277,
  "\u2581bilatu": 3278,
  "\u2581txarra": 3279,
  "Edit": 3280,
  "gen": 3281,
  "\u2581Erabilitako": 3282,
  "\u2581resource": 3283,
  "\u2581share": 3284,
  "\u2581guzti": 3285,
  "To": 3286,
  "\u2581plugins": 3287,
  "\u2581sartzeko": 3288,
  "\u2581bilatzeko": 3289,
  "\u2581izaki": 3290,
  "ATION": 3291,
  "\u2581rate": 3292,
  "\u2581bilera": 3293,
  "\u2581pare": 3294,
  "\u2581sar": 3295,
  "ero": 3296,
  "\u2581columns": 3297,
  "ger": 3298,
  "\u2581harrapatu": 3299,
  "\u2581zin": 3300,
  "tera": 3301,
  "\u2581Libre": 3302,
  "\u2581ziurtagiria": 3303,
  "\u2581consciousness": 3304,
  "gai": 3305,
  "\u2581Hainbat": 3306,
  "\u2581beharrik": 3307,
  "\u2581modified": 3308,
  "\u2581replied": 3309,
  "gar": 3310,
  "ff": 3311,
  "\u2581eramango": 3312,
  "\u2581zuek": 3313,
  "\u2581baldintzak": 3314,
  "\u2581balu": 3315,
  "\u2581daemon": 3316,
  "\u2581results": 3317,
  "\u2581espezie": 3318,
  "\u2581fast": 3319,
  "\u2581oker": 3320,
  "use": 3321,
  "\u2581Vertical": 3322,
  "):": 3323,
  "\u2581Horrek": 3324,
  "\u2581teklatua": 3325,
  "\u2581Load": 3326,
  "\u2581dakizu": 3327,
  "\u2581eten": 3328,
  "\u2581handiak": 3329,
  "\u2581secret": 3330,
  "\u2581Mota": 3331,
  "\u2581Sorry": 3332,
  "\u2581i\u00e7an": 3333,
  "\u2581appears": 3334,
  "\u2581sin": 3335,
  "\u2581Gainera": 3336,
  "\u2581context": 3337,
  "\u2581emaitza": 3338,
  "\u2581kargatzen": 3339,
  "color": 3340,
  "\u2581Header": 3341,
  "\u2581nagusiaren": 3342,
  "\u2581party": 3343,
  "\u2581permanently": 3344,
  "\u258115": 3345,
  "\u2581Fitxategiak": 3346,
  "\u2581instance": 3347,
  "\u2581Full": 3348,
  "\u2581Po": 3349,
  "\u2581Paris": 3350,
  "\u2581guess": 3351,
  "\u2581layout": 3352,
  "\u2581matching": 3353,
  "\u2581zuhaitz": 3354,
  "Do": 3355,
  "textat": 3356,
  "\u2581Kate": 3357,
  "\u2581sei": 3358,
  "\u2581drag": 3359,
  "\u2581loaded": 3360,
  "\u2581loading": 3361,
  "kin": 3362,
  "\u2581idazten": 3363,
  "\u2581kg": 3364,
  "\u2581win": 3365,
  "ex": 3366,
  "\u2581Work": 3367,
  "\u2581kontaktuak": 3368,
  "\u2581irakurtzen": 3369,
  "\u2581Eskuliburu": 3370,
  "\u2581Zerbitzaria": 3371,
  "\u2581ataka": 3372,
  "engatik": 3373,
  "\u2581Iagno": 3374,
  "\u2581Press": 3375,
  "\u2581analizatu": 3376,
  "\u2581sit": 3377,
  "Ireki": 3378,
  "rean": 3379,
  "\u2581orokorra": 3380,
  "\u2581squares": 3381,
  "\u2581Robotak": 3382,
  "\u2581arau": 3383,
  "\u2581hitzak": 3384,
  "\u2581haven": 3385,
  "\u2581ikustea": 3386,
  "\u2581external": 3387,
  "\u2581horretaz": 3388,
  "\u2581Street": 3389,
  "\u25813.": 3390,
  "\u2581Position": 3391,
  "\u2581arima": 3392,
  "iko": 3393,
  "\u2581kokaleku": 3394,
  "\u2581etengabe": 3395,
  "\u2581rule": 3396,
  "\u2581Har": 3397,
  "\u2581bestera": 3398,
  "\u2581baliozkoa": 3399,
  "\u2581profila": 3400,
  "\u2581aste": 3401,
  "\u2581months": 3402,
  "\u2581Layer": 3403,
  "\u2581lekua": 3404,
  "\u2581None": 3405,
  "\u2581fotograma": 3406,
  "\u2581badituzu": 3407,
  "\u2581sister": 3408,
  "\u2581Give": 3409,
  "\u2581forget": 3410,
  "\u2581amount": 3411,
  "\u2581management": 3412,
  "\u2581army": 3413,
  "\u2581Ah": 3414,
  "\u2581CVS": 3415,
  "\u2581Will": 3416,
  "\u2581buffer": 3417,
  "\u2581memo": 3418,
  "\u2581zaldi": 3419,
  "\u2581Zeren": 3420,
  "\u2581erabilera": 3421,
  "port": 3422,
  "\u2581egutegia": 3423,
  "\u2581Port": 3424,
  "\u2581heriotza": 3425,
  "\u2581zaion": 3426,
  "game": 3427,
  "\u2581Table": 3428,
  "\u2581provided": 3429,
  "map": 3430,
  "tuko": 3431,
  "\u2581startup": 3432,
  "tipo": 3433,
  "\u2581Ctrl": 3434,
  "\u2581Details": 3435,
  "\u2581beyond": 3436,
  "\u2581galdera": 3437,
  "\u2581helburu": 3438,
  "\u2581Michael": 3439,
  "\u2581argitaratutako": 3440,
  "\u2581containing": 3441,
  "\u2581ugari": 3442,
  "\u2581Bluetooth": 3443,
  "\u2581thoughts": 3444,
  "kudeatzailea": 3445,
  "\u2581adierazi": 3446,
  "\u2581bestelako": 3447,
  "\u2581oihu": 3448,
  "\u2581biok": 3449,
  "\u2581mahai": 3450,
  "goa": 3451,
  "only": 3452,
  "\u2581Horizontal": 3453,
  "\u2581experience": 3454,
  "\u2581mezuen": 3455,
  "\u2581sarrerako": 3456,
  "\u2581doa": 3457,
  "\u2581Five": 3458,
  "\u2581gehitzen": 3459,
  "\u2581random": 3460,
  "\u2581foot": 3461,
  "\u2581horse": 3462,
  "\u2581li": 3463,
  "\u2581ausazko": 3464,
  "\u2581bazen": 3465,
  "\u2581Authentication": 3466,
  "\u2581entire": 3467,
  "\u2581eskuragarri": 3468,
  "\u2581floor": 3469,
  "ise": 3470,
  "\u2581erantzuna": 3471,
  "\u2581unean": 3472,
  "\u2581unless": 3473,
  "\u2581connected": 3474,
  "\u2581maybe": 3475,
  "\u2581botere": 3476,
  "\u2581pakete": 3477,
  "\u2581berari": 3478,
  "\u2581distribution": 3479,
  "\u2581interest": 3480,
  "\u2581considered": 3481,
  "\u2581conversation": 3482,
  "\u2581edge": 3483,
  "\u2581opening": 3484,
  "\u2581suppose": 3485,
  "\u2581zuzena": 3486,
  "ph": 3487,
  "\u2581denez": 3488,
  "\u2581equal": 3489,
  "\u2581Behin": 3490,
  "\u2581choice": 3491,
  "ster": 3492,
  "\u2581opinion": 3493,
  "\u2581Irten": 3494,
  "\u2581anyway": 3495,
  "\u2581everyone": 3496,
  "\u2581teleport": 3497,
  "`": 3498,
  "fe": 3499,
  "ler": 3500,
  "\u2581Boston": 3501,
  "\u2581arm": 3502,
  "\u2581bazara": 3503,
  "\u2581documents": 3504,
  "\u2581baimena": 3505,
  "\u2581kontaktua": 3506,
  "are": 3507,
  "\u2581Trepeta": 3508,
  "\u2581giving": 3509,
  "\u2581THIS": 3510,
  "\u2581fit": 3511,
  "\u2581hutsak": 3512,
  "\u2581period": 3513,
  "oi": 3514,
  "\u2581Dokumentazio": 3515,
  "\u2581orduko": 3516,
  "\u2581Bost": 3517,
  "\u2581Gai": 3518,
  "\u2581Saio": 3519,
  "tzerik": 3520,
  "\u2581Se": 3521,
  "\u2581vertical": 3522,
  "\u2581Theme": 3523,
  "\u2581zerrendaren": 3524,
  "\u2581ezarrita": 3525,
  "\u2581ezkutatu": 3526,
  "\u2581Ca": 3527,
  "\u2581Ordu": 3528,
  "\u2581gaitzeko": 3529,
  "\u2581Dr": 3530,
  "\u2581aurpegia": 3531,
  "\u2581gehienezko": 3532,
  "\u2581gelditzen": 3533,
  "\u2581Urruneko": 3534,
  "\u2581merely": 3535,
  "\u2581biak": 3536,
  "\u2581Di": 3537,
  "File": 3538,
  "Oh": 3539,
  "\u2581Hartu": 3540,
  "\u2581Mezua": 3541,
  "\u2581reached": 3542,
  "hu": 3543,
  "\u2581wall": 3544,
  "maila": 3545,
  "\u2581operations": 3546,
  "\u2581bookmark": 3547,
  "\u2581quickly": 3548,
  "\u2581zuzenean": 3549,
  "\u2581Toggle": 3550,
  "\u2581symbol": 3551,
  "J": 3552,
  "\u258116": 3553,
  "\u2581Like": 3554,
  "\u2581estiloa": 3555,
  "\u2581kargatzean": 3556,
  "ola": 3557,
  "\u2581purpose": 3558,
  "\u2581Connection": 3559,
  "\u2581Saint": 3560,
  "\u2581eremu": 3561,
  "\u2581leihoak": 3562,
  "\u2581itxaron": 3563,
  "\u2581Ne": 3564,
  "\u2581badakizu": 3565,
  "\u2581bizirik": 3566,
  "\u2581izanen": 3567,
  "\u2581Program": 3568,
  "\u2581baitira": 3569,
  "\u2581border": 3570,
  "ham": 3571,
  "\u2581ertza": 3572,
  "\u2581Irudia": 3573,
  "\u2581Bera": 3574,
  "\u2581Remote": 3575,
  "\u2581beharrean": 3576,
  "\u2581norbait": 3577,
  "\u2581Gelditu": 3578,
  "\u2581peace": 3579,
  "\u2581provide": 3580,
  "\u2581unitatea": 3581,
  "atu": 3582,
  "ck": 3583,
  "\u2581hiltzen": 3584,
  "\u2581learn": 3585,
  "\u2581zabal": 3586,
  "\u2581condition": 3587,
  "\u2581le": 3588,
  "\u2581strength": 3589,
  "mm": 3590,
  "\u2581Afrika": 3591,
  "\u2581ecen": 3592,
  "\u2581broken": 3593,
  "\u258130": 3594,
  "ran": 3595,
  "\u2581handiena": 3596,
  "\u2581jarriko": 3597,
  "\u2581beherantz": 3598,
  "\u2581katea": 3599,
  "karpeta": 3600,
  "\u2581EMAT": 3601,
  "NGO": 3602,
  "ot": 3603,
  "\u2581Red": 3604,
  "\u2581gaineko": 3605,
  "\u2581gauean": 3606,
  "\u2581jokatu": 3607,
  "symbol": 3608,
  "turik": 3609,
  "\u2581impossible": 3610,
  "\u2581SUCH": 3611,
  "\u2581gedit": 3612,
  "\u2581Leku": 3613,
  "arazi": 3614,
  "\u2581Jainko": 3615,
  "info": 3616,
  "\u2581requires": 3617,
  "\u2581erregea": 3618,
  "\u2581pain": 3619,
  "txa": 3620,
  "\u2581court": 3621,
  "\u2581shut": 3622,
  "\u2581accounts": 3623,
  "\u2581Preview": 3624,
  "\u2581orri": 3625,
  "\u2581quality": 3626,
  "\u2581aurrez": 3627,
  "\u2581gordetzean": 3628,
  "total": 3629,
  "\u2581irekitzean": 3630,
  "\u2581Undo": 3631,
  "\u2581tarte": 3632,
  "\u2581okerra": 3633,
  "\u2581baliabide": 3634,
  "\u2581HARTU": 3635,
  "\u2581strange": 3636,
  "\u2581DOKUMENTU": 3637,
  "\u2581Any": 3638,
  "\u2581Aurrera": 3639,
  "Editatu": 3640,
  "ua": 3641,
  "\u2581motion": 3642,
  "ance": 3643,
  "\u2581nuela": 3644,
  "\u2581ustez": 3645,
  "\u2581erregina": 3646,
  "zioa": 3647,
  "\u2581beraien": 3648,
  "\u2581pages": 3649,
  "\u2581izaera": 3650,
  "\u2581ka": 3651,
  "\u2581Account": 3652,
  "\u2581capital": 3653,
  "\u2581Africa": 3654,
  "\u2581ondorioz": 3655,
  "\u2581Him": 3656,
  "\u2581orrialde": 3657,
  "\u2581government": 3658,
  "\u2581news": 3659,
  "\u2581walked": 3660,
  "\u2581arrunta": 3661,
  "\u2581Light": 3662,
  "\u2581berdina": 3663,
  "\u2581konturatu": 3664,
  "Baina": 3665,
  "\u2581Tell": 3666,
  "\u2581sub": 3667,
  "\u2581Terminal": 3668,
  "\u2581creating": 3669,
  "\u2581noa": 3670,
  "\u2581Si": 3671,
  "\u2581dadin": 3672,
  "\u2581barrena": 3673,
  "\u2581hire": 3674,
  "\u2581erraz": 3675,
  "\u2581mutil": 3676,
  "\u2581pantailaren": 3677,
  "\u2581zeregin": 3678,
  "\u2581Estatu": 3679,
  "\u2581South": 3680,
  "\u2581installation": 3681,
  "\u2581jaitsi": 3682,
  "tia": 3683,
  "\u2581diskoan": 3684,
  "\u2581bidean": 3685,
  "\u2581ALDATU": 3686,
  "\u2581flat": 3687,
  "desktop": 3688,
  "\u2581Max": 3689,
  "\u2581Ta": 3690,
  "ure": 3691,
  "\u2581eginda": 3692,
  "\u2581gogo": 3693,
  "Well": 3694,
  "\u2581Kargatu": 3695,
  "\u2581borroka": 3696,
  "\u2581pick": 3697,
  "aukera": 3698,
  "\u2581plain": 3699,
  "\u2581gives": 3700,
  "\u2581Markatu": 3701,
  "\u2581straight": 3702,
  "\u2581Thus": 3703,
  "\u2581erabiltzaileak": 3704,
  "\u2581needed": 3705,
  "\u2581reply": 3706,
  "\u2581associated": 3707,
  "\u2581irribarre": 3708,
  "ies": 3709,
  "\u2581Replace": 3710,
  "\u2581Teklatua": 3711,
  "\u2581aldatzea": 3712,
  "\u2581encoding": 3713,
  "\u2581film": 3714,
  "\u2581pasahitz": 3715,
  "\u2581Ben": 3716,
  "\u2581begirada": 3717,
  "\u2581lives": 3718,
  "\u2581lose": 3719,
  "\u2581inprimatzeko": 3720,
  "\u2581Agur": 3721,
  "\u2581clicking": 3722,
  "\u2581nine": 3723,
  "\u2581(_": 3724,
  "\u2581beharrezkoa": 3725,
  "\u2581distira": 3726,
  "\u2581Nothing": 3727,
  "ig": 3728,
  "op": 3729,
  "ite": 3730,
  "\u2581azaleko": 3731,
  "\u2581egitean": 3732,
  "\u2581twenty": 3733,
  "\u2581otherwise": 3734,
  "\u2581Description": 3735,
  "\u2581Oraindik": 3736,
  "\u2581hurbildu": 3737,
  "\u2581ran": 3738,
  "\u2581Object": 3739,
  "\u2581destination": 3740,
  "\u2581merezi": 3741,
  "\u2581ekin": 3742,
  "\u2581ezarpen": 3743,
  "hasiera": 3744,
  "\u2581palette": 3745,
  "\u2581handiz": 3746,
  "\u2581various": 3747,
  "\u2581Every": 3748,
  "\u2581argazki": 3749,
  "\u2581paleta": 3750,
  "\u2581zizkion": 3751,
  "ea": 3752,
  "Type": 3753,
  "\u2581Erantzun": 3754,
  "\u2581Kaka": 3755,
  "\u2581anaia": 3756,
  "\u2581schema": 3757,
  "\u2581COPYING": 3758,
  "\u2581Double": 3759,
  "\u2581However": 3760,
  "\u2581sistemaren": 3761,
  "\u2581gorantz": 3762,
  "Q": 3763,
  "\u2581Always": 3764,
  "\u2581ezagutza": 3765,
  "\u2581feature": 3766,
  "\u2581egutegi": 3767,
  "\u2581fixed": 3768,
  "\u2581kausa": 3769,
  "\u2581response": 3770,
  "\u2581Comment": 3771,
  "\u2581Ga": 3772,
  "\u2581food": 3773,
  "\u2581figure": 3774,
  "\u2581tableau": 3775,
  "\u2581Harry": 3776,
  "\u2581ezartzeko": 3777,
  "\u2581haserre": 3778,
  "\u2581region": 3779,
  "\u2581Kon": 3780,
  "\u2581gehien": 3781,
  "\u2581gehigarria": 3782,
  "\u2581Filter": 3783,
  "\u2581Tali": 3784,
  "\u2581aktibo": 3785,
  "\u2581keyring": 3786,
  "\u2581tomorrow": 3787,
  "\u2581wanna": 3788,
  "bel": 3789,
  "\u2581Read": 3790,
  "\u2581Sound": 3791,
  "gabe": 3792,
  "\u2581test": 3793,
  "\u2581etxea": 3794,
  "right": 3795,
  "\u2581kontzientzia": 3796,
  "\u2581Gtk": 3797,
  "\u2581easily": 3798,
  "\u2581fokua": 3799,
  "\u2581daukazu": 3800,
  "\u2581mina": 3801,
  "\u2581pair": 3802,
  "\u2581gorri": 3803,
  "\u2581certainly": 3804,
  "\u2581daitezkeen": 3805,
  "\u2581eserita": 3806,
  "\u2581ezarpena": 3807,
  "razi": 3808,
  "\u2581Oinarrizko": 3809,
  "\u2581Laneko": 3810,
  "\u2581pressed": 3811,
  "\u2581sistemako": 3812,
  "\u2581Loading": 3813,
  "\u2581Sam": 3814,
  "\u2581standing": 3815,
  "\u2581azpi": 3816,
  "\u00e9n": 3817,
  "\u2581Tekla": 3818,
  "\u2581ezabatzen": 3819,
  "\u2581High": 3820,
  "\u2581JPEG": 3821,
  "\u2581datuen": 3822,
  "\u2581direnak": 3823,
  "ary": 3824,
  "\u2581quit": 3825,
  "\u2581alaba": 3826,
  "\u2581artzain": 3827,
  "\u2581directly": 3828,
  "\u2581displays": 3829,
  "\u2581Inoiz": 3830,
  "\u2581aipatu": 3831,
  "\u2581beltz": 3832,
  "\u2581dezaket": 3833,
  "\u2581txanda": 3834,
  "\u2581expect": 3835,
  "\u2581naizen": 3836,
  "\u2581Ab": 3837,
  "\u2581Once": 3838,
  "\u2581notification": 3839,
  "pila": 3840,
  "ier": 3841,
  "ting": 3842,
  "\u2581parent": 3843,
  "\u2581iragazkia": 3844,
  "but": 3845,
  "\u2581Sareko": 3846,
  "\u2581sitting": 3847,
  "ov": 3848,
  "\u2581kopuru": 3849,
  "\u2581mendi": 3850,
  "OR": 3851,
  "Erakutsi": 3852,
  "\u2581Bada": 3853,
  "\u2581Gailua": 3854,
  "\u2581inportatu": 3855,
  "\u2581jantzi": 3856,
  "con": 3857,
  "\u2581false": 3858,
  "\u2581layers": 3859,
  "\u2581Er": 3860,
  "\u2581iruditu": 3861,
  "\u2581Never": 3862,
  "liburua": 3863,
  "\u2581Des": 3864,
  "\u2581Disk": 3865,
  "\u2581bestea": 3866,
  "\u2581emaztea": 3867,
  "\u2581pointer": 3868,
  "\u2581Joe": 3869,
  "\u2581Chess": 3870,
  "\u2581Even": 3871,
  "\u2581Berak": 3872,
  "\u2581baby": 3873,
  "\u2581chat": 3874,
  "\u2581ematea": 3875,
  "min": 3876,
  "\u2581beharrezko": 3877,
  "\u2581nork": 3878,
  "\u2581carried": 3879,
  "\u2581idazteko": 3880,
  "\u2581join": 3881,
  "\u2581zituela": 3882,
  "tatu": 3883,
  "\u2581En": 3884,
  "\u2581books": 3885,
  "barraren": 3886,
  "\u2581Character": 3887,
  "\u2581difficult": 3888,
  "\u2581hath": 3889,
  "\u2581successfully": 3890,
  "\u2581Pe": 3891,
  "\u2581touch": 3892,
  "\u2581di": 3893,
  "\u2581contrary": 3894,
  "\u2581po": 3895,
  "\u2581sick": 3896,
  "\u2581speaking": 3897,
  "\u2581xake": 3898,
  "\u2581batzuen": 3899,
  "\u2581jasotzen": 3900,
  "\u2581mahaigaina": 3901,
  "ent": 3902,
  "\u2581security": 3903,
  "\u2581egunean": 3904,
  "\u2581jada": 3905,
  "\u2581rank": 3906,
  "\u2581Very": 3907,
  "\u2581Irakurri": 3908,
  "\u2581bukatu": 3909,
  "\u2581heaven": 3910,
  "\u2581PNG": 3911,
  "\u2581Ordeztu": 3912,
  "\u2581hasiera": 3913,
  "ard": 3914,
  "\u2581Mugimendu": 3915,
  "\u2581ourselves": 3916,
  "\u2581Atzera": 3917,
  "\u2581Bestela": 3918,
  "\u2581Europa": 3919,
  "\u2581Jarraitu": 3920,
  "\u2581Je": 3921,
  "\u2581Paul": 3922,
  "mendu": 3923,
  "\u2581guztira": 3924,
  "\u2581Oinarri": 3925,
  "\u2581username": 3926,
  "\u2581Cancel": 3927,
  "\u2581eguna": 3928,
  "\u2581gotta": 3929,
  "\u2581nintzela": 3930,
  "\u2581simply": 3931,
  "\u2581camera": 3932,
  "\u2581leaving": 3933,
  "\u2581personal": 3934,
  ">,": 3935,
  "dy": 3936,
  "\u2581Sarrerako": 3937,
  "kor": 3938,
  "mb": 3939,
  "gin": 3940,
  "tipoaren": 3941,
  "\u2581Texts": 3942,
  "\u2581doctor": 3943,
  "\u2581frames": 3944,
  "\u2581green": 3945,
  "\u2581ikasi": 3946,
  "*": 3947,
  "\u2581stuff": 3948,
  "\u2581Contacts": 3949,
  "\u2581Pre": 3950,
  "\u2581distance": 3951,
  "off": 3952,
  "se": 3953,
  "\u2581nere": 3954,
  "ec": 3955,
  "\u2581Amaitu": 3956,
  "\u2581Pro": 3957,
  "\u2581dezan": 3958,
  "\u2581May": 3959,
  "\u2581ill": 3960,
  "\u2581socket": 3961,
  "\u2581mount": 3962,
  "\")": 3963,
  "\u2581bitartez": 3964,
  "\u2581attention": 3965,
  "\u2581Archive": 3966,
  "\u2581jasoko": 3967,
  "\u2581adierazpen": 3968,
  "\u2581chosen": 3969,
  "\u2581company": 3970,
  "\u2581soinu": 3971,
  "\u2581oin": 3972,
  "\u2581completely": 3973,
  "\u2581daki": 3974,
  "ey": 3975,
  "\u2581escape": 3976,
  "dia": 3977,
  "\u2581Usage": 3978,
  "\u2581enemy": 3979,
  "\u2581eskuinean": 3980,
  "\u2581kanpora": 3981,
  "\u2581passphrase": 3982,
  "\u2581sending": 3983,
  "\u2581lists": 3984,
  "\u2581mapa": 3985,
  "\u2581jokoan": 3986,
  "\u2581hot": 3987,
  "ska": 3988,
  "gana": 3989,
  "\u2581zoaz": 3990,
  "\u2581azpiko": 3991,
  "\u2581saguaren": 3992,
  "Cover": 3993,
  "\u2581ditzake": 3994,
  "\u2581dog": 3995,
  "Save": 3996,
  "\u2581bilduma": 3997,
  "day": 3998,
  "\u2581baimenik": 3999,
  "\u2581lerroa": 4000,
  "\u2581Setting": 4001,
  "\u2581gets": 4002,
  "\u2581uses": 4003,
  "\u2581bezalakoa": 4004,
  "\u2581consider": 4005,
  "\u2581initial": 4006,
  "\u2581erantsi": 4007,
  "\u2581jaun": 4008,
  "\u2581types": 4009,
  "\u2581Nork": 4010,
  "\u2581Sentitzen": 4011,
  "\u2581difference": 4012,
  "ej": 4013,
  "\u2581elements": 4014,
  "\u2581lived": 4015,
  "\u2581model": 4016,
  "\u2581updates": 4017,
  "om": 4018,
  "tsa": 4019,
  "\u2581co": 4020,
  "\u2581flags": 4021,
  "\u2581zitzaizkion": 4022,
  "\u2581relative": 4023,
  "\u2581remaining": 4024,
  "\u2581Nora": 4025,
  "\u2581Tar": 4026,
  "\u2581deck": 4027,
  "\u2581perfect": 4028,
  "\u2581silence": 4029,
  "\u2581hatz": 4030,
  "ai": 4031,
  "mode": 4032,
  "\u2581CPU": 4033,
  "\u2581nora": 4034,
  "\u2581prozesu": 4035,
  "tzaileak": 4036,
  "\u2581soil": 4037,
  "\u2581fellow": 4038,
  "\u2581zentzu": 4039,
  "bu": 4040,
  "tin": 4041,
  "\u2581drawn": 4042,
  "\u2581zereginen": 4043,
  "\u2581gogoa": 4044,
  "\u2581neurri": 4045,
  "\u2581usage": 4046,
  "ley": 4047,
  "\u2581attachment": 4048,
  "\u2581horietako": 4049,
  "\u2581movement": 4050,
  "\u2581aritu": 4051,
  "\u2581Local": 4052,
  "\u2581Tetravex": 4053,
  "mer": 4054,
  "\u2581lanean": 4055,
  "\u2581Egutegia": 4056,
  "\u2581disable": 4057,
  "\u2581eraiki": 4058,
  "formatua": 4059,
  "\u2581baxua": 4060,
  "\u2581berriketa": 4061,
  "\u2581popup": 4062,
  "card": 4063,
  "\u2581Ekiga": 4064,
  "\u2581Shift": 4065,
  "\u2581Book": 4066,
  "\u2581tonight": 4067,
  "Use": 4068,
  "jo": 4069,
  "\u2581gogoan": 4070,
  "\u2581inguru": 4071,
  "\u2581txikiak": 4072,
  "rra": 4073,
  "\u2581Karaktere": 4074,
  "\u2581Ti": 4075,
  "\u2581locked": 4076,
  "\u2581Ikuspegi": 4077,
  "\u2581insert": 4078,
  "\u2581jartzeko": 4079,
  "\u2581appropriate": 4080,
  "\u2581kontatu": 4081,
  "\u2581spaces": 4082,
  "ile": 4083,
  "\u2581Ja": 4084,
  "\u2581Une": 4085,
  "\u25811.1": 4086,
  "\u2581bizia": 4087,
  "\u2581hurbil": 4088,
  "mp": 4089,
  "\u2581higher": 4090,
  "\u2581markatu": 4091,
  "\u2581ilun": 4092,
  "\u2581virtue": 4093,
  "\u2581zerbitzariak": 4094,
  "ating": 4095,
  "ide": 4096,
  "\u2581segundo": 4097,
  "\u2581Allow": 4098,
  "\u2581gorputza": 4099,
  "slot": 4100,
  "\u2581Google": 4101,
  "\u2581hit": 4102,
  "ant": 4103,
  "\u2581Unicode": 4104,
  "ILITY": 4105,
  "\u2581esatea": 4106,
  "LI": 4107,
  "\u2581gertatuko": 4108,
  "\u2581exit": 4109,
  "\u2581usually": 4110,
  "\u2581http": 4111,
  "\u2581kodea": 4112,
  "\u2581moral": 4113,
  "\u2581Ur": 4114,
  "\u2581Paper": 4115,
  "\u2581notice": 4116,
  "Show": 4117,
  "gailua": 4118,
  "\u2581atsegina": 4119,
  "\u2581Synchronising": 4120,
  "\u2581links": 4121,
  "\u2581Biratu": 4122,
  "\u2581Our": 4123,
  "\u2581areara": 4124,
  "\u2581gogoko": 4125,
  "\u2581happiness": 4126,
  "\u2581lie": 4127,
  "\u2581rename": 4128,
  "\u2581replace": 4129,
  "\u2581egoten": 4130,
  "\u2581fun": 4131,
  "\u2581berezi": 4132,
  "\u2581kudeatzailea": 4133,
  "\u2581r": 4134,
  "\u2581seek": 4135,
  "\u2581servers": 4136,
  "\u2581Microsoft": 4137,
  "\u2581ontzi": 4138,
  "\u2581Berriro": 4139,
  "\u2581Hara": 4140,
  "\u2581Ikus": 4141,
  "va": 4142,
  "\u2581Elkarrizketa": 4143,
  "her": 4144,
  "\u2581Maius": 4145,
  "\u2581maximum": 4146,
  "\u2581photo": 4147,
  "\u2581Listen": 4148,
  "\u2581Script": 4149,
  "\u2581rules": 4150,
  "\u2581busy": 4151,
  "barrako": 4152,
  "\u2581Q": 4153,
  "Erabili": 4154,
  "\u2581\\": 4155,
  "\u2581bihotz": 4156,
  "\u2581berez": 4157,
  "\u2581Min": 4158,
  "\u2581\"{0}\"": 4159,
  "\u2581Therefore": 4160,
  "\u2581arrastatu": 4161,
  "\u2581Width": 4162,
  "koadroaren": 4163,
  "\u2581offer": 4164,
  "\u2581hasiko": 4165,
  "\u2581sor": 4166,
  "\u2581BERMERIK": 4167,
  "Ba": 4168,
  "ize": 4169,
  "\u2581soinuak": 4170,
  "\u2581100": 4171,
  "\u2581conditions": 4172,
  "\u2581ipini": 4173,
  "\u2581warning": 4174,
  "\u2581Rotate": 4175,
  "\u2581eskuratzen": 4176,
  "\u2581karpetan": 4177,
  "\u2581thy": 4178,
  "12": 4179,
  "\u2581paketea": 4180,
  "dena": 4181,
  "\u2581couple": 4182,
  "red": 4183,
  "\u2581Hasierako": 4184,
  "ful": 4185,
  "\u2581Column": 4186,
  "\u2581Desegin": 4187,
  "\u2581charge": 4188,
  "\u2581hurt": 4189,
  "\u2581bizkor": 4190,
  "\u2581botoiarekin": 4191,
  "AR": 4192,
  "\u2581French": 4193,
  "\u2581instalazioa": 4194,
  "\u2581testurik": 4195,
  "ous": 4196,
  "\u2581erabilgarriak": 4197,
  "\u2581ezarritako": 4198,
  "\u2581Profile": 4199,
  "\u2581continued": 4200,
  "\u2581dabil": 4201,
  "\u2581goiz": 4202,
  "har": 4203,
  "\u2581Berria": 4204,
  "\u2581zor": 4205,
  "\u2581Configuration": 4206,
  "\u2581Ene": 4207,
  "\u2581sons": 4208,
  "\u2581thank": 4209,
  "pena": 4210,
  "\u2581headers": 4211,
  "\u2581kanala": 4212,
  "\u2581opposite": 4213,
  "\u2581Printer": 4214,
  "LA": 4215,
  "\u2581jasan": 4216,
  "\u2581Which": 4217,
  "\u2581groups": 4218,
  "\u2581yeah": 4219,
  "Ezabatu": 4220,
  "\u2581married": 4221,
  "ow": 4222,
  "\u2581ardura": 4223,
  "\u2581desired": 4224,
  "\u2581elkarren": 4225,
  "\u2581understanding": 4226,
  "\u2581Hain": 4227,
  "\u2581judge": 4228,
  "Help": 4229,
  "\u2581deep": 4230,
  "\u2581pi": 4231,
  "\u2581gutxieneko": 4232,
  "\u2581babeskopia": 4233,
  "\u2581eragina": 4234,
  "\u2581bloke": 4235,
  "\u2581PARTICULAR": 4236,
  "\u2581RAID": 4237,
  "\u2581machine": 4238,
  "\u2581Bete": 4239,
  "\u2581zirudien": 4240,
  "\u2581Has": 4241,
  "\u2581askatu": 4242,
  "\u2581loved": 4243,
  "\u2581album": 4244,
  "\u2581shadow": 4245,
  "\u2581sa": 4246,
  "If": 4247,
  "\u2581Balioa": 4248,
  "\u2581Organisation": 4249,
  "\u2581client": 4250,
  "\u2581forth": 4251,
  "txe": 4252,
  "\u2581Argi": 4253,
  "\u2581George": 4254,
  "\u2581Jaunaren": 4255,
  "koadro": 4256,
  "\u2581Messages": 4257,
  "\u2581kokatzen": 4258,
  "\u2581normalean": 4259,
  "\u2581pozik": 4260,
  "\u2581tiro": 4261,
  "\u2581Trash": 4262,
  "\u2581kon": 4263,
  "\u2581polita": 4264,
  "\u2581worth": 4265,
  "\u2581Height": 4266,
  "\u2581Objektu": 4267,
  "\u2581bateria": 4268,
  "\u2581clock": 4269,
  "\u2581jarrita": 4270,
  "tuak": 4271,
  "argazkia": 4272,
  "you": 4273,
  "\u2581nahiago": 4274,
  "\u2581zakarrontzira": 4275,
  "\u2581PURPOSE": 4276,
  "\u2581administrator": 4277,
  "\u2581authority": 4278,
  "\u2581geroago": 4279,
  "oa": 4280,
  "\u2581izenean": 4281,
  "\u2581jakingo": 4282,
  "\u2581restart": 4283,
  "\u2581eguneratu": 4284,
  "\u2581itzuliko": 4285,
  "\u2581pieza": 4286,
  "\u2581society": 4287,
  "\u2581Banatu": 4288,
  "\u2581MERCHANTAB": 4289,
  "\u2581dizuet": 4290,
  "\u2581worry": 4291,
  "\u2581Itzuli": 4292,
  "\u2581dik": 4293,
  "\u2581iraupena": 4294,
  "ted": 4295,
  "\u2581Sinadura": 4296,
  "\u2581goiburu": 4297,
  "\u2581Access": 4298,
  "\u2581appeared": 4299,
  "\u2581ondorengo": 4300,
  "\u2581aware": 4301,
  "lari": 4302,
  "\u2581Encryption": 4303,
  "\u2581Kontuz": 4304,
  "\u2581avoid": 4305,
  "\u2581baldintza": 4306,
  "\u2581uztea": 4307,
  "q": 4308,
  "\u2581zehazteko": 4309,
  "\u25816.": 4310,
  "\u2581monitor": 4311,
  "\u2581zertan": 4312,
  "\u2581MERKATURATZEKO": 4313,
  "\u2581Thanks": 4314,
  "\u2581abiaraztean": 4315,
  "\u2581raised": 4316,
  "lin": 4317,
  "\u2581Esportatu": 4318,
  "\u2581Maila": 4319,
  "\u2581goiburua": 4320,
  "\u2581zerbitzariaren": 4321,
  "start": 4322,
  "\u2581burning": 4323,
  "\u2581especially": 4324,
  "\u2581song": 4325,
  "ny": 4326,
  "\u2581deus": 4327,
  "\u2581wind": 4328,
  "\u2581Base": 4329,
  "\u2581Kartak": 4330,
  "\u2581Vi": 4331,
  "\u2581Da": 4332,
  "tis": 4333,
  "\u2581Directory": 4334,
  "\u2581initialise": 4335,
  "\\-": 4336,
  "kuntza": 4337,
  "\u2581editatu": 4338,
  "\u2581AUTHOR": 4339,
  "\u2581Call": 4340,
  "Why": 4341,
  "datu": 4342,
  "\u2581eskuak": 4343,
  "\u2581hartuta": 4344,
  "\u2581backup": 4345,
  "\u2581badut": 4346,
  "\u2581Library": 4347,
  "\u2581Reserve": 4348,
  "\u2581sare": 4349,
  "\u2581INOLAKO": 4350,
  "\u2581appearance": 4351,
  "\u2581noble": 4352,
  "\u2581review": 4353,
  "\u2581shot": 4354,
  "\u2581marra": 4355,
  "\u2581prozesua": 4356,
  "\u2581zitekeen": 4357,
  "\u2581'{0}'": 4358,
  "\u2581Pakete": 4359,
  "\u2581moduko": 4360,
  "des": 4361,
  "\u2581hilko": 4362,
  "\u2581Paste": 4363,
  "\u2581alive": 4364,
  "\u2581ukitu": 4365,
  "\u2581dream": 4366,
  "\u2581zihoan": 4367,
  "\u2581Car": 4368,
  "\u2581English": 4369,
  "\u2581former": 4370,
  "\u2581kentzeko": 4371,
  "\u2581gun": 4372,
  "\u2581Rome": 4373,
  "\u2581count": 4374,
  "rei": 4375,
  "base": 4376,
  "\u2581Remember": 4377,
  "agatik": 4378,
  "\u2581born": 4379,
  "\u2581objektuak": 4380,
  "\u2581BEHAR": 4381,
  "\u2581array": 4382,
  "\u2581dock": 4383,
  "ima": 4384,
  "puntua": 4385,
  "\u2581quiet": 4386,
  "gv": 4387,
  "\u2581Subversion": 4388,
  "\u2581berriaren": 4389,
  "\u2581adding": 4390,
  "\u2581artxiboa": 4391,
  "\u2581recipients": 4392,
  "\u2581sake": 4393,
  "zen": 4394,
  "\u2581burutu": 4395,
  "\u2581luzea": 4396,
  "\u2581amaitzen": 4397,
  "\u2581Sorta": 4398,
  "\u2581jartzea": 4399,
  "\u2581lekuan": 4400,
  "\u2581Orca": 4401,
  "\u2581desgaitu": 4402,
  "\u2581Dokumentu": 4403,
  "\u2581ERABILTZEKO": 4404,
  "\u2581Palette": 4405,
  "\u2581Toolbar": 4406,
  "\u2581ile": 4407,
  "path": 4408,
  "\u2581Oharra": 4409,
  "\u2581ain": 4410,
  "zo": 4411,
  "\u2581etc": 4412,
  "\u2581(1": 4413,
  "\u2581harekin": 4414,
  "\u2581quick": 4415,
  "\u2581wine": 4416,
  "\u2581Browser": 4417,
  "\u2581index": 4418,
  "ner": 4419,
  "\u2581Mi": 4420,
  "\u2581Really": 4421,
  "\u2581additional": 4422,
  "\u2581difficulty": 4423,
  "\u2581dutenak": 4424,
  "\u2581lead": 4425,
  "not": 4426,
  "\u2581barru": 4427,
  "\u2581echo": 4428,
  "\u2581odol": 4429,
  "\u2581harri": 4430,
  "\u2581Lake": 4431,
  "\u2581rich": 4432,
  "\u2581honentzat": 4433,
  "\u2581Ezer": 4434,
  "\u2581dinner": 4435,
  "\u2581pasatzen": 4436,
  "\u2581%2": 4437,
  "\u2581greatest": 4438,
  "\u2581laid": 4439,
  "log": 4440,
  "zona": 4441,
  "\u2581drawing": 4442,
  "\u2581baztertu": 4443,
  "\u2581karakterea": 4444,
  "\u2581onak": 4445,
  "\u2581albo": 4446,
  "\u2581karpetaren": 4447,
  "\u2581Horixe": 4448,
  "\u2581United": 4449,
  "\u2581ordenagailua": 4450,
  "\u2581stored": 4451,
  "\u2581Sort": 4452,
  "\u2581galduko": 4453,
  "\u2581umea": 4454,
  "kar": 4455,
  "\u2581iturburua": 4456,
  "\u2581badute": 4457,
  "\u2581kontrako": 4458,
  "\u2581kontuak": 4459,
  "\u2581State": 4460,
  "\u2581dituela": 4461,
  "\u2581lehenetsi": 4462,
  "\u2581Down": 4463,
  "\u2581eskaera": 4464,
  "aukerak": 4465,
  "\u2581Linux": 4466,
  "\u2581devices": 4467,
  "ism": 4468,
  "\u2581AisleRiot": 4469,
  "\u2581trash": 4470,
  "xe": 4471,
  "\u2581Previous": 4472,
  "\u2581covered": 4473,
  "\u2581fields": 4474,
  "\u2581telling": 4475,
  "xka": 4476,
  "\u2581Am": 4477,
  "\u2581eskuz": 4478,
  "\u2581DIREN": 4479,
  "\u2581ISO": 4480,
  "\u2581early": 4481,
  "\u2581zirkular": 4482,
  "\u2581kanpoan": 4483,
  "\u2581Gau": 4484,
  "\u2581amak": 4485,
  "\u2581dictionary": 4486,
  "\u2581Dan": 4487,
  "\u2581Puntuazioa": 4488,
  "\u2581encryption": 4489,
  "\u2581members": 4490,
  "\u2581Mary": 4491,
  "\u2581Put": 4492,
  "\u2581zaharrak": 4493,
  "ci": 4494,
  "\u2581Mu": 4495,
  "\u2581jasotako": 4496,
  "\u2581license": 4497,
  "\u2581nazazu": 4498,
  "\u2581barneko": 4499,
  "\u2581duelako": 4500,
  "\u2581erosi": 4501,
  "\u2581Erreproduzitu": 4502,
  "\u2581Neska": 4503,
  "\u2581Mugitu": 4504,
  "\u2581idaztean": 4505,
  "\u2581serious": 4506,
  "\u2581Rename": 4507,
  "\u2581faith": 4508,
  "\u2581honetara": 4509,
  "let": 4510,
  "\u2581Era": 4511,
  "\u2581Scores": 4512,
  "\u2581aterako": 4513,
  "\u2581seguruak": 4514,
  "date": 4515,
  "\u258111": 4516,
  "\u2581elkarri": 4517,
  "\u2581girls": 4518,
  "\u2581Kontu": 4519,
  "\u2581boys": 4520,
  "size": 4521,
  "\u2581Action": 4522,
  "\u2581entries": 4523,
  "\u2581Informazio": 4524,
  "\u2581botoiak": 4525,
  "\u2581herrialde": 4526,
  "How": 4527,
  "\u2581Login": 4528,
  "\u2581u": 4529,
  "\u2581Ace": 4530,
  "\u2581Jakin": 4531,
  "\u2581indarra": 4532,
  "rs": 4533,
  "\u2581ixten": 4534,
  "\u2581ostalari": 4535,
  "tzi": 4536,
  "\u2581ikurra": 4537,
  "\u2581Task": 4538,
  "ARI": 4539,
  "\u2581hobea": 4540,
  "\u2581kanal": 4541,
  "\u2581mende": 4542,
  "Ikusi": 4543,
  "\u2581artxibo": 4544,
  "\u2581asking": 4545,
  "\u2581commands": 4546,
  "\u2581uzteko": 4547,
  "\u258114": 4548,
  "\u2581Using": 4549,
  "\u2581separate": 4550,
  "\u2581apply": 4551,
  "\u2581nations": 4552,
  "\u2581niretzat": 4553,
  "ble": 4554,
  "link": 4555,
  "\u2581calls": 4556,
  "\u2581edan": 4557,
  "\u2581principle": 4558,
  "\u2581starts": 4559,
  "ikustailea": 4560,
  "pre": 4561,
  "\u2581showing": 4562,
  "arra": 4563,
  "\u2581Convert": 4564,
  "\u2581Lock": 4565,
  "\u2581eskuin": 4566,
  "ts": 4567,
  "\u2581ados": 4568,
  "\u2581garbitu": 4569,
  "rio": 4570,
  "\u2581meant": 4571,
  "\u2581zazpi": 4572,
  "\u2581Searching": 4573,
  "\u2581Yahoo": 4574,
  "\u2581led": 4575,
  "\u2581closing": 4576,
  "\u2581hauxe": 4577,
  "\u2581smile": 4578,
  "\u2581addresses": 4579,
  "ial": 4580,
  "\u2581Alde": 4581,
  "\u2581universal": 4582,
  "\u2581Saving": 4583,
  "\u2581el": 4584,
  "\u2581euskarri": 4585,
  "\u2581Ikusten": 4586,
  "\u2581haiz": 4587,
  "\u2581services": 4588,
  "\u2581zaitezke": 4589,
  "arena": 4590,
  "\u2581esanez": 4591,
  "\u2581although": 4592,
  "\u2581Politikarako": 4593,
  "\u2581Sailburuordetza": 4594,
  "\u2581USE": 4595,
  "\u2581betirako": 4596,
  "my": 4597,
  "\u2581kopiatzen": 4598,
  "\u2581pasaesaldia": 4599,
  "mahjongg": 4600,
  "\u2581carry": 4601,
  "\u2581marked": 4602,
  "usa": 4603,
  "\u2581ahalik": 4604,
  "\u2581byte": 4605,
  "\u2581via": 4606,
  "\u2581Fitxa": 4607,
  "\u2581pasatu": 4608,
  "berria": 4609,
  "\u2581Reset": 4610,
  "\u2581Fa": 4611,
  "\u2581hauta": 4612,
  "\u2581ibiltzen": 4613,
  "\u2581Buru": 4614,
  "\u2581Foundations": 4615,
  "\u2581YOU": 4616,
  "rengana": 4617,
  "\u2581nonbait": 4618,
  "key": 4619,
  "ya": 4620,
  "\u2581Jokalari": 4621,
  "\u2581denik": 4622,
  "Go": 4623,
  "\u2581Aktibatu": 4624,
  "\u2581bero": 4625,
  "\u2581ehun": 4626,
  "\u2581erdiko": 4627,
  "\u2581material": 4628,
  "St": 4629,
  "che": 4630,
  "\u2581hotel": 4631,
  "\u2581funtzioa": 4632,
  "\u2581ziola": 4633,
  "fa": 4634,
  "symbols": 4635,
  "we": 4636,
  "\u2581playlist": 4637,
  "duna": 4638,
  "\u2581backend": 4639,
  "\u2581movie": 4640,
  "stra": 4641,
  "\u2581Quit": 4642,
  "\u2581caught": 4643,
  "\u2581kid": 4644,
  "\u2581remain": 4645,
  "hor": 4646,
  "\u2581(\"": 4647,
  "\u2581blank": 4648,
  "Delete": 4649,
  "azala": 4650,
  "\u2581azkarra": 4651,
  "\u2581egunkaria": 4652,
  "\u2581waste": 4653,
  "\u2581Tomek": 4654,
  "\u2581atala": 4655,
  "\u2581sinesten": 4656,
  "\u2581hazi": 4657,
  "ezin": 4658,
  "\u2581publikoa": 4659,
  "\u2581URIa": 4660,
  "\u2581bereizi": 4661,
  "\u2581jakiteko": 4662,
  "\u2581ikustera": 4663,
  "\u2581Track": 4664,
  "\u2581hanka": 4665,
  "#": 4666,
  "ang": 4667,
  "\u2581Stephen": 4668,
  "\u2581KALTE": 4669,
  "\u2581forms": 4670,
  "\u2581Bihurtu": 4671,
  "\u2581arazoa": 4672,
  "\u2581diogu": 4673,
  "\u2581features": 4674,
  "AREN": 4675,
  "\u2581Onartu": 4676,
  "\u2581clean": 4677,
  "\u2581speech": 4678,
  "\u2581Za": 4679,
  "\u2581gaitz": 4680,
  "\u2581hauen": 4681,
  "\u2581Per": 4682,
  "\u2581hantxe": 4683,
  "\u2581ohartu": 4684,
  "\u2581fitxak": 4685,
  "\u2581gerta": 4686,
  "\u2581Giza": 4687,
  "\u2581sky": 4688,
  "\u2581izenburua": 4689,
  "\u2581slowly": 4690,
  "\u25814.": 4691,
  "\u2581Automatically": 4692,
  "\u2581erortzen": 4693,
  "\u2581ondorio": 4694,
  "\u2581properly": 4695,
  "\u2581jabe": 4696,
  "\u2581zuretzat": 4697,
  "koan": 4698,
  "tuz": 4699,
  "\u2581Frame": 4700,
  "\u2581goizean": 4701,
  "\u2581battle": 4702,
  "get": 4703,
  "\u2581requested": 4704,
  "\u2581scale": 4705,
  "\u2581Fabrizio": 4706,
  "\u2581ezkutatzen": 4707,
  "\u2581eskala": 4708,
  "\u2581fish": 4709,
  "\u2581heavy": 4710,
  "\u2581bear": 4711,
  "\u2581arrazoia": 4712,
  "\u2581prestatzen": 4713,
  "\u2581Weather": 4714,
  "\u2581beside": 4715,
  "\u2581puntuazioa": 4716,
  "\u2581reality": 4717,
  "-\"": 4718,
  "\u2581buy": 4719,
  "\u2581provides": 4720,
  "\u2581Email": 4721,
  "\u2581badakit": 4722,
  "\u2581glass": 4723,
  "\u2581menuan": 4724,
  "DVD": 4725,
  "\u2581Atal": 4726,
  "\u2581Noiz": 4727,
  "\u2581ahead": 4728,
  "\u2581proper": 4729,
  "top": 4730,
  "\u2581alderdi": 4731,
  "\u2581Folders": 4732,
  "\u2581Goe": 4733,
  "\u2581holding": 4734,
  "\u2581jakina": 4735,
  "\u2581heinean": 4736,
  "\u2581module": 4737,
  "\u2581worm": 4738,
  "gel": 4739,
  "\u2581baimenak": 4740,
  "\u2581somebody": 4741,
  "\u2581aldatzean": 4742,
  "\u2581visit": 4743,
  "\u2581zereginak": 4744,
  "Don": 4745,
  "\u2581Aizu": 4746,
  "\u2581bider": 4747,
  "\u2581galtzen": 4748,
  "\u2581jaten": 4749,
  "\u2581toward": 4750,
  "\u2581imagine": 4751,
  "cc": 4752,
  "\u2581Doitu": 4753,
  "\u2581Wi": 4754,
  "\u2581Aukerak": 4755,
  "\u2581Lasai": 4756,
  "\u2581Maria": 4757,
  "\u2581crazy": 4758,
  "\u2581arguments": 4759,
  "\u2581sweet": 4760,
  "\u2581systems": 4761,
  "\u2581eredu": 4762,
  "\u2581Gaia": 4763,
  "\u2581Mount": 4764,
  "\u2581eremuan": 4765,
  "\u2581garden": 4766,
  "\u2581scroll": 4767,
  "This": 4768,
  "\u2581GStreamer": 4769,
  "\u2581ahala": 4770,
  "\u2581behean": 4771,
  "\u2581Subject": 4772,
  "\u2581honetatik": 4773,
  "\u2581presence": 4774,
  "can": 4775,
  "ida": 4776,
  "\u2581energia": 4777,
  "\u2581dealt": 4778,
  "\u2581gal": 4779,
  "barran": 4780,
  "\u2581bezalaxe": 4781,
  "\u2581described": 4782,
  "\u2581portaera": 4783,
  "\u2581erreferentzia": 4784,
  "\u2581configure": 4785,
  "\u2581gune": 4786,
  "\u2581jendeak": 4787,
  "\u2581lokala": 4788,
  "\u2581Baliteke": 4789,
  "\u2581Creating": 4790,
  "\u2581bikaina": 4791,
  "\u2581wise": 4792,
  "\u2581configured": 4793,
  "\u258117": 4794,
  "\u2581similar": 4795,
  "\u2581zebilen": 4796,
  "\u2581documentation": 4797,
  "\u2581latter": 4798,
  "\u2581etortzen": 4799,
  "\u2581norbaitek": 4800,
  "\u2581bound": 4801,
  "\u2581Honela": 4802,
  "\u2581bazuen": 4803,
  "\u2581Kokalekua": 4804,
  "\u2581konfiguratzeko": 4805,
  "\u2581oinarrizko": 4806,
  "br": 4807,
  "\u2581Charles": 4808,
  "\u2581Dad": 4809,
  "\u2581lagunduko": 4810,
  "\u2581Kurtsorea": 4811,
  "\u2581azalduko": 4812,
  "\u2581brush": 4813,
  "\u2581meaning": 4814,
  "\u2581Athenians": 4815,
  "\u2581arrived": 4816,
  "\u2581izenez": 4817,
  "\u2581normala": 4818,
  "\u2581ordaindu": 4819,
  "\u2581post": 4820,
  "\u2581Turn": 4821,
  "\u2581launch": 4822,
  "user": 4823,
  "\u2581Kim": 4824,
  "\u2581follows": 4825,
  "\u2581honour": 4826,
  "\u2581Warning": 4827,
  "\u2581dolar": 4828,
  "len": 4829,
  "\u2581betetako": 4830,
  "\u2581hautsi": 4831,
  "\u2581\u00e7uen": 4832,
  "00": 4833,
  "\u2581download": 4834,
  "\u2581irekita": 4835,
  "ence": 4836,
  "zki": 4837,
  "\u2581colors": 4838,
  "\u2581dice": 4839,
  "\u2581signal": 4840,
  "\u2581Apply": 4841,
  "\u2581Ivan": 4842,
  "\u2581Txandakatu": 4843,
  "\u2581fullscreen": 4844,
  "\u2581shape": 4845,
  "\u2581banan": 4846,
  "\u2581lying": 4847,
  "ndi": 4848,
  "\u2581Bu": 4849,
  "\u2581North": 4850,
  "\u2581aho": 4851,
  "\u2581aitak": 4852,
  "\u2581argazkia": 4853,
  "\u2581geldi": 4854,
  "txoa": 4855,
  "\u2581Honi": 4856,
  "\u2581Many": 4857,
  "\u2581abiarazteko": 4858,
  "\u2581extra": 4859,
  "\u2581parents": 4860,
  "MIME": 4861,
  "\u2581glad": 4862,
  "Hori": 4863,
  "\u2581actual": 4864,
  "\u2581eskaini": 4865,
  "\u2581Automatic": 4866,
  "\u2581gelaxka": 4867,
  "\u2581kokatu": 4868,
  "RATE": 4869,
  "mu": 4870,
  "\u2581THAT": 4871,
  "\u2581soldadu": 4872,
  "gabea": 4873,
  "\u2581Alice": 4874,
  "\u2581Zenbaki": 4875,
  "\u2581ber": 4876,
  "\u2581bihar": 4877,
  "\u2581biltzen": 4878,
  "\u2581iristen": 4879,
  "\u2581lotu": 4880,
  "\u2581oharra": 4881,
  "ID": 4882,
  "\u2581iragazki": 4883,
  "\u2581BAT": 4884,
  "\u2581stone": 4885,
  "\u2581itzali": 4886,
  "\u2581Mac": 4887,
  "\u2581determine": 4888,
  "\u2581lib": 4889,
  "\u2581older": 4890,
  "\u2581piztu": 4891,
  "izenak": 4892,
  "\u2581AN": 4893,
  "\u2581mailing": 4894,
  "\u2581osatutako": 4895,
  "ldi": 4896,
  "\u2581egoteko": 4897,
  "\u2581likely": 4898,
  "\u2581photos": 4899,
  "\u2581es": 4900,
  "\u2581licence": 4901,
  "\u2581reference": 4902,
  "\u2581GFDL": 4903,
  "\u2581iritzi": 4904,
  "\u2581askotan": 4905,
  "\u2581environment": 4906,
  "\u2581include": 4907,
  "\u2581clothes": 4908,
  "\u2581gorria": 4909,
  "\u2581radio": 4910,
  "\u2581w": 4911,
  "Hautatu": 4912,
  "\u2581iraun": 4913,
  "\u2581priest": 4914,
  "\u2581zerbitzarian": 4915,
  "\u2581desagertu": 4916,
  "\u2581everybody": 4917,
  "\u2581worse": 4918,
  "\u2581burn": 4919,
  "\u2581eutsi": 4920,
  "\u2581kutxa": 4921,
  "\u2581oinarritutako": 4922,
  "\u2581zitzaien": 4923,
  "\u2581Ea": 4924,
  "\u2581Ezezaguna": 4925,
  "\u2581hortik": 4926,
  "\u2581jokalarien": 4927,
  "\u2581tea": 4928,
  "\u2581Gertaera": 4929,
  "\u2581partition": 4930,
  "\u2581PER": 4931,
  "\u2581ar": 4932,
  "ilo": 4933,
  "\u2581arazketa": 4934,
  "\u2581dokumentazio": 4935,
  "\u2581gogoratzen": 4936,
  "\u2581USA": 4937,
  "\u2581definition": 4938,
  "\u2581hogeita": 4939,
  "\u2581Java": 4940,
  "\u2581partizioa": 4941,
  "\u2581Irudiak": 4942,
  "\u2581Same": 4943,
  "\u2581freedom": 4944,
  ":%02": 4945,
  "ator": 4946,
  "box": 4947,
  "\u2581Day": 4948,
  "\u2581labur": 4949,
  "\u2581gonbidatu": 4950,
  "\u2581kodeketa": 4951,
  "\u2581daukan": 4952,
  "\u2581train": 4953,
  "ians": 4954,
  "res": 4955,
  "\u2581liteke": 4956,
  "Remove": 4957,
  "with": 4958,
  "\u2581eskuliburu": 4959,
  "\u2581funtzio": 4960,
  "\u2581online": 4961,
  "\u2581questions": 4962,
  "liburu": 4963,
  "\u2581Bad": 4964,
  "\u2581cases": 4965,
  "\u2581Channel": 4966,
  "\u2581happens": 4967,
  "\u2581paid": 4968,
  "\u2581sinetsi": 4969,
  "\u2581Possible": 4970,
  "\u2581errors": 4971,
  "ius": 4972,
  "\u2581Ri": 4973,
  "\u2581argibideak": 4974,
  "\u2581gizarte": 4975,
  "\u2581knowing": 4976,
  "-1": 4977,
  "\u2581nizun": 4978,
  "\u2581Leave": 4979,
  "\u2581ezabatzeko": 4980,
  "\u2581joatea": 4981,
  "\u2581Got": 4982,
  "\u2581chess": 4983,
  "\u2581encrypted": 4984,
  "\u2581geratuko": 4985,
  "\u2581SMTP": 4986,
  "\u2581vkan": 4987,
  "\u2581Total": 4988,
  "\u2581berreskuratu": 4989,
  "\u2581determined": 4990,
  "\u2581sartuko": 4991,
  "taldea": 4992,
  "\u2581gaiaren": 4993,
  "\u2581datorren": 4994,
  "\u2581West": 4995,
  "rd": 4996,
  "sorta": 4997,
  "\u2581Ed": 4998,
  "\u2581delay": 4999,
  "direktorioa": 5000,
  "\u2581Scale": 5001,
  "\u2581Bihar": 5002,
  "\u2581badugu": 5003,
  "\u2581ditugun": 5004,
  "\u2581ezinezkoa": 5005,
  "\u2581berrien": 5006,
  "\u2581digu": 5007,
  "\u2581harro": 5008,
  "\u2581Language": 5009,
  "\u2581biko": 5010,
  "\u2581engine": 5011,
  "\u2581tile": 5012,
  "\u2581Ge": 5013,
  "\u2581PART": 5014,
  "\u2581Row": 5015,
  "\u2581SOC": 5016,
  "\u2581hautatuta": 5017,
  "\u2581tabs": 5018,
  "\u2581bus": 5019,
  "\u2581pa": 5020,
  "\u258125": 5021,
  "\u2581Hold": 5022,
  "\u2581Itxura": 5023,
  "informazioa": 5024,
  "ita": 5025,
  "\u2581ASCII": 5026,
  "\u2581Tra": 5027,
  "\u2581affects": 5028,
  "\u2581aplikazioaren": 5029,
  "\u2581gertu": 5030,
  "\u2581fully": 5031,
  "\u2581hate": 5032,
  "\u2581lips": 5033,
  "Kopiatu": 5034,
  "gandik": 5035,
  "\u2581*.": 5036,
  "\u2581Instalatu": 5037,
  "\u2581betegarria": 5038,
  "THER": 5039,
  "TZAILE": 5040,
  "etariko": 5041,
  "led": 5042,
  "\u2581\"{0}": 5043,
  "\u2581Atera": 5044,
  "\u2581aitaren": 5045,
  "\u2581guztian": 5046,
  "\u2581permission": 5047,
  "\u2581Ban": 5048,
  "\u2581kentzea": 5049,
  "ub": 5050,
  "\u2581capable": 5051,
  "\u2581secure": 5052,
  "\u2581uko": 5053,
  "\u2581Selected": 5054,
  "\u2581argazkiak": 5055,
  "\u2581baimen": 5056,
  "\u2581banaketa": 5057,
  "\u2581yesterday": 5058,
  "\u2581Eragiketa": 5059,
  "pu": 5060,
  "\u2581dugula": 5061,
  "Search": 5062,
  "bin": 5063,
  "uc": 5064,
  "\u2581scheme": 5065,
  "\u2581Ad": 5066,
  "\u2581upper": 5067,
  "\u2581si": 5068,
  "\u2581Hona": 5069,
  "\u2581antzera": 5070,
  "\u2581Ipar": 5071,
  "\u2581Those": 5072,
  "\u2581erakuslea": 5073,
  "\u2581Build": 5074,
  "\u2581Ordenagailua": 5075,
  "\u2581wide": 5076,
  "attr": 5077,
  "error": 5078,
  "\u2581maiuskulaz": 5079,
  "Select": 5080,
  "zia": 5081,
  "\u2581buruaren": 5082,
  "\u2581junk": 5083,
  "\u2581kalte": 5084,
  "\u2581Feedback": 5085,
  "\u2581trademarks": 5086,
  "\u2581understood": 5087,
  "board": 5088,
  "\u2581History": 5089,
  "\u2581Python": 5090,
  "\u2581Queen": 5091,
  "\u2581adierazteko": 5092,
  "\u2581amets": 5093,
  "\u2581internal": 5094,
  "\u2581ratio": 5095,
  "\u2581Kar": 5096,
  "\u2581Minimum": 5097,
  "\u2581Mouse": 5098,
  "tzailearen": 5099,
  "\u2581panelaren": 5100,
  "\u2581ustekabean": 5101,
  "\u2581chief": 5102,
  "\u2581kezkatu": 5103,
  "\u2581Moses": 5104,
  "\u2581execute": 5105,
  "\u2581rose": 5106,
  "\u2581zuzendu": 5107,
  "ops": 5108,
  "\u2581Area": 5109,
  "\u2581Bateria": 5110,
  "\u2581MOTA": 5111,
  "\u2581Mezuaren": 5112,
  "\u2581fitxara": 5113,
  "\u2581kale": 5114,
  "lea": 5115,
  "\u258150": 5116,
  "\u2581interes": 5117,
  "\u2581paketeak": 5118,
  "\u2581robots": 5119,
  "\u2581site": 5120,
  "pixeletan": 5121,
  "\u2581James": 5122,
  "\u2581mahaian": 5123,
  "\u2581multzo": 5124,
  "ju": 5125,
  "\u2581decided": 5126,
  "\u2581HAU": 5127,
  "\u2581aldeko": 5128,
  "\u2581dado": 5129,
  "\u2581eguin": 5130,
  "\u2581kaka": 5131,
  "val": 5132,
  "\u2581preference": 5133,
  "\u2581Install": 5134,
  "\u2581Lehenengo": 5135,
  "\u2581Leihoa": 5136,
  "\u2581ahotsa": 5137,
  "\u2581gogorra": 5138,
  "\u2581pluginak": 5139,
  "\u2581ukatu": 5140,
  "\u2019": 5141,
  "\u25812002": 5142,
  "\u2581Adjust": 5143,
  "\u2581Applications": 5144,
  "\u2581calling": 5145,
  "\u2581id": 5146,
  "\u2581!": 5147,
  "\u2581Bookmark": 5148,
  "\u2581HON": 5149,
  "\u2581kamera": 5150,
  "rengatik": 5151,
  "\u2581HASIERA": 5152,
  "\u2581horretara": 5153,
  "\u2581promise": 5154,
  "\u2581tipo": 5155,
  "ban": 5156,
  "han": 5157,
  "\u2581Section": 5158,
  "\u2581partida": 5159,
  "Re": 5160,
  "nes": 5161,
  "\u2581didate": 5162,
  "\u2581Starting": 5163,
  "\u2581ezaguna": 5164,
  "\u2581komandoak": 5165,
  "\u2581mines": 5166,
  "\u2581posible": 5167,
  "RA": 5168,
  "\u2581Baimendu": 5169,
  "\u2581jasotzeko": 5170,
  "\u2581motako": 5171,
  "egin": 5172,
  "\u2581maiztasuna": 5173,
  "\u2581ohitura": 5174,
  "\u2581Robot": 5175,
  "\u2581building": 5176,
  "\u2581wrote": 5177,
  "\u2581Australia": 5178,
  "\u2581Modu": 5179,
  "\u2581abiarazten": 5180,
  "\u2581animation": 5181,
  "\u2581broke": 5182,
  "\u2581cast": 5183,
  "\u2581itsas": 5184,
  "tiko": 5185,
  "\u2581Jerusalem": 5186,
  "\u2581arin": 5187,
  "\u2581ezkerrean": 5188,
  "\u2581Zooma": 5189,
  "\u2581osoaren": 5190,
  "\u2581uh": 5191,
  "\u2581fonts": 5192,
  "\u2581sakon": 5193,
  "our": 5194,
  "\u2581Errege": 5195,
  "\u2581Madame": 5196,
  "\u2581erregularra": 5197,
  "\u2581Zatoz": 5198,
  "\u2581north": 5199,
  "image": 5200,
  "\u2581aztertu": 5201,
  "[": 5202,
  "\u2581Aplikazioak": 5203,
  "\u2581cross": 5204,
  "\u2581esleitu": 5205,
  "\u2581spoken": 5206,
  "TAKO": 5207,
  "\u2581belongs": 5208,
  "\u2581station": 5209,
  "\u2581zieten": 5210,
  "\u2581FREE": 5211,
  "\u2581Specifie": 5212,
  "\u2581erantzuten": 5213,
  "\u2581ezartzean": 5214,
  "\u2581gezia": 5215,
  "\u2581goitibehera": 5216,
  "\u2581granted": 5217,
  "\u2581irteten": 5218,
  "\u2581legeak": 5219,
  "\u2581Fuck": 5220,
  "\u2581lagunak": 5221,
  "rri": 5222,
  "\u2581cedin": 5223,
  "\u2581osagai": 5224,
  "There": 5225,
  "tzerakoan": 5226,
  "bor": 5227,
  "\u2581Du": 5228,
  "\u2581PKCS": 5229,
  "\u2581daudela": 5230,
  "\u2581kategoria": 5231,
  "\u2581sword": 5232,
  "\u2581Aplikatu": 5233,
  "\u2581Erabilera": 5234,
  "\u2581arreta": 5235,
  "\u2581displaying": 5236,
  "\u2581Cor": 5237,
  "\u2581altxatu": 5238,
  "\u2581ce\u00e7an": 5239,
  "\u2581irteerako": 5240,
  "\u2581proba": 5241,
  "\u2581situation": 5242,
  "\u2581Beharbada": 5243,
  "\u2581barnean": 5244,
  "\u2581LIZENTZIA": 5245,
  "\u2581aktiboa": 5246,
  "\u2581describes": 5247,
  "\u2581proceed": 5248,
  "\u2581trees": 5249,
  "\u2581Ku": 5250,
  "\u258151": 5251,
  "\u2581Space": 5252,
  "\u2581enkriptatze": 5253,
  "oso": 5254,
  "\u2581Session": 5255,
  "tzu": 5256,
  "\u2581Normal": 5257,
  "\u2581Prince": 5258,
  "\u2581nahian": 5259,
  "\u2581ziurtagiri": 5260,
  "menu": 5261,
  "\u2581cancelled": 5262,
  "\u2581ends": 5263,
  "\u2581jokoak": 5264,
  "\u2581txanka": 5265,
  "\u2581Browse": 5266,
  "\u2581Konektatu": 5267,
  "\u2581Pila": 5268,
  "\u2581SVG": 5269,
  "\u2581increase": 5270,
  "\u2581zeharo": 5271,
  "Zergatik": 5272,
  "old": 5273,
  "\u2581Ro": 5274,
  "\u2581dudana": 5275,
  "\u2581edota": 5276,
  "\u2581usual": 5277,
  "\u2581LOSS": 5278,
  "\u2581absolute": 5279,
  "\u2581Batu": 5280,
  "\u2581Erabiltzaileak": 5281,
  "\u2581Great": 5282,
  "\u2581Jack": 5283,
  "\u2581eskatuko": 5284,
  "ab": 5285,
  "engana": 5286,
  "korra": 5287,
  "lar": 5288,
  "\u2581ERE": 5289,
  "\u2581Gelaxka": 5290,
  "\u2581Label": 5291,
  "\u2581LIMIT": 5292,
  "\u2581PROVIDE": 5293,
  "\u2581Reply": 5294,
  "\u2581lehenetsiak": 5295,
  "\u2581river": 5296,
  "\u2581ALDERDI": 5297,
  "\u2581Update": 5298,
  "For": 5299,
  "\u2581INCLUDING": 5300,
  "\u2581hartzea": 5301,
  "\u2581hirugarren": 5302,
  "\u2581undo": 5303,
  "My": 5304,
  "\u2581banaka": 5305,
  "\u2581laugh": 5306,
  "\u2581prestatu": 5307,
  "\u2581weather": 5308,
  "\u2581segurtasun": 5309,
  "tela": 5310,
  "\u2581datozen": 5311,
  "\u2581kids": 5312,
  "\u2581zabiltza": 5313,
  "TA": 5314,
  "iz": 5315,
  "\u2581Korritze": 5316,
  "\u2581flesh": 5317,
  "KATZE": 5318,
  "\u2581blokea": 5319,
  "\u2581bodies": 5320,
  "\u2581ho": 5321,
  "\u2581removing": 5322,
  "\u2581causes": 5323,
  "\u2581serve": 5324,
  "\u2581Arakatu": 5325,
  "mit": 5326,
  "\u2581relation": 5327,
  "Image": 5328,
  "\u2581render": 5329,
  "\u2581struck": 5330,
  "\u2581entirely": 5331,
  "\u2581retrieve": 5332,
  "\u2581ring": 5333,
  "\u2581terminala": 5334,
  "\u2581Before": 5335,
  "\u2581Historia": 5336,
  "\u2581Lagun": 5337,
  "\u2581dokumentuak": 5338,
  "\u2581nazio": 5339,
  "\u2581neuk": 5340,
  "\u2581vi": 5341,
  "\u2581asmatu": 5342,
  "\u2581ezabatzea": 5343,
  "chi": 5344,
  "\u2581dituzula": 5345,
  "\u2581konfiguratu": 5346,
  "fs": 5347,
  "oak": 5348,
  "zenbakia": 5349,
  "\u2581Franklin": 5350,
  "\u2581Highlight": 5351,
  "Bus": 5352,
  "\u2581Fill": 5353,
  "\u2581Most": 5354,
  "\u2581Pacific": 5355,
  "\u2581mugikorra": 5356,
  "seguruak": 5357,
  "\u2581BATEK": 5358,
  "\u2581ab": 5359,
  "\u2581bir": 5360,
  "\u2581jack": 5361,
  "\u2581zortzi": 5362,
  "\u2581Dokumentua": 5363,
  "\u2581Forward": 5364,
  "\u2581blokeak": 5365,
  "\u2581isilik": 5366,
  "\u2581laguna": 5367,
  "\u2581larria": 5368,
  "zkoa": 5369,
  "\u2581AKATS": 5370,
  "dialog": 5371,
  "etarik": 5372,
  "tatik": 5373,
  "\u2581Baliogabeko": 5374,
  "\u2581egitura": 5375,
  "\u2581hondarrera": 5376,
  "\u2581moztu": 5377,
  "\u2581ZEHAZT": 5378,
  "\u2581azalpena": 5379,
  "\u2581duty": 5380,
  "\u2581hiruko": 5381,
  "\u2581require": 5382,
  "\u2581betez": 5383,
  "\u2581degree": 5384,
  "\u2581munduko": 5385,
  "\u2581BERME": 5386,
  "\u2581ERANTZUKIZUN": 5387,
  "\u2581animals": 5388,
  "\u2581duzuna": 5389,
  "\u2581selecting": 5390,
  "dio": 5391,
  "\u2581Argibide": 5392,
  "\u2581lor": 5393,
  "\u2581tracks": 5394,
  "\u2581Block": 5395,
  "\u2581Zeregin": 5396,
  "\u2581hadn": 5397,
  "\u2581ta": 5398,
  "\u2581terrible": 5399,
  "rren": 5400,
  "\u2581Missing": 5401,
  "\u2581berririk": 5402,
  "\u2581horra": 5403,
  "\u2581City": 5404,
  "\u2581Santa": 5405,
  "\u2581berdinak": 5406,
  "\u2581reserve": 5407,
  "\u2581dagokionez": 5408,
  "\u2581debugging": 5409,
  "\u2581ordenatu": 5410,
  "\u2581Es": 5411,
  "\u2581Gi": 5412,
  "\u2581neck": 5413,
  "quo": 5414,
  "was": 5415,
  "\u2581Three": 5416,
  "\u2581blind": 5417,
  "\u2581maitasuna": 5418,
  "\u2581Map": 5419,
  "\u2581ended": 5420,
  "\u2581Connect": 5421,
  "\u2581handiko": 5422,
  "ick": 5423,
  "\u2581Workspace": 5424,
  "ekiko": 5425,
  "xi": 5426,
  "\u2581Hobe": 5427,
  "\u2581determines": 5428,
  "arazten": 5429,
  "je": 5430,
  "\u2581Orri": 5431,
  "\u2581baitute": 5432,
  "\u2581emazte": 5433,
  "\u2581erregeak": 5434,
  "\u2581Outlook": 5435,
  "\u2581atalean": 5436,
  "\u2581atzerapena": 5437,
  "\u2581kudeatzeko": 5438,
  "\u2581osorik": 5439,
  "\u2581substance": 5440,
  "WRITER": 5441,
  "\u2581Prop": 5442,
  "\u2581inprimagailua": 5443,
  "\u2581kargatzeko": 5444,
  "\u2581mad": 5445,
  "dar": 5446,
  "\u2581INO": 5447,
  "\u2581SHALL": 5448,
  "\u2581ezker": 5449,
  "\u2581maiz": 5450,
  "\u2581Gett": 5451,
  "\u2581Island": 5452,
  "\u2581bidaliko": 5453,
  "\u2581danger": 5454,
  "\u2581hardly": 5455,
  "\u2581weeks": 5456,
  "teko": 5457,
  "\u00e7a": 5458,
  "\u2581Hego": 5459,
  "\u2581Off": 5460,
  "\u2581EGILEA": 5461,
  "\u2581Elizabeth": 5462,
  "\u2581Long": 5463,
  "\u2581Output": 5464,
  "\u2581cover": 5465,
  "\u2581gradu": 5466,
  "\u2581protocol": 5467,
  "\u2581stupid": 5468,
  "like": 5469,
  "retik": 5470,
  "\u2581CONTRIBUTOR": 5471,
  "\u2581PERTSONA": 5472,
  "\u2581alferrik": 5473,
  "\u2581artista": 5474,
  "\u2581zeinak": 5475,
  "ji": 5476,
  "\u2581BURUZKORIK": 5477,
  "\u2581DENIK": 5478,
  "\u2581DISCLAIMER": 5479,
  "\u2581HORREK": 5480,
  "\u2581IBILTZEA": 5481,
  "\u2581IDAZLEA": 5482,
  "\u2581KOLABORATZAILE": 5483,
  "\u2581Perhaps": 5484,
  "\u2581manage": 5485,
  "\u2581pe": 5486,
  "gal": 5487,
  "\u2581agree": 5488,
  "\u2581destroy": 5489,
  "\u2581horietan": 5490,
  "\u2581aktibatuta": 5491,
  "\u2581alpha": 5492,
  "\u2581parameter": 5493,
  "\u2581regard": 5494,
  "\u2581asmoa": 5495,
  "\u2581beauty": 5496,
  "\u2581xehetasun": 5497,
  "lon": 5498,
  "title": 5499,
  "\u2581Bertan": 5500,
  "\u2581Gra": 5501,
  "\u2581Kolorea": 5502,
  "\u2581chair": 5503,
  "\u2581hardware": 5504,
  "\u2581hobespen": 5505,
  "\u2581remained": 5506,
  "\u2581funtzionatzen": 5507,
  "\u2581gezi": 5508,
  "\u2581hat": 5509,
  "\u2581judgment": 5510,
  "\u2581programs": 5511,
  "\\\\": 5512,
  "\u2581Changes": 5513,
  "\u2581betea": 5514,
  "\u2581mi": 5515,
  "\u2581shared": 5516,
  "\u2581Ondoren": 5517,
  "\u2581finally": 5518,
  "ls": 5519,
  "tresna": 5520,
  "\u2581Baimena": 5521,
  "\u2581Charlotte": 5522,
  "\u2581afternoon": 5523,
  "\u2581fortune": 5524,
  "\u2581sets": 5525,
  "ON": 5526,
  "aba": 5527,
  "barrak": 5528,
  "Copy": 5529,
  "\u2581slow": 5530,
  "\u2581Hasiera": 5531,
  "\u2581amore": 5532,
  "\u2581Men": 5533,
  "\u2581attempt": 5534,
  "\u2581deskargatzen": 5535,
  "\u2581jainko": 5536,
  "\u2581klase": 5537,
  "\u2581zaituzte": 5538,
  "illa": 5539,
  "\u2581artist": 5540,
  "\u2581buruaz": 5541,
  "\u2581pribatua": 5542,
  "\u2581ex": 5543,
  "\"?": 5544,
  "arentzat": 5545,
  "\u2581anymore": 5546,
  "\u2581zirenean": 5547,
  "reko": 5548,
  "wa": 5549,
  "\u2581Ziurtatu": 5550,
  "\u2581botatzen": 5551,
  "\u2581directions": 5552,
  "\u2581Item": 5553,
  "\u2581Mantendu": 5554,
  "\u2581jaio": 5555,
  "\u2581owner": 5556,
  "\u2581Ecen": 5557,
  "\u2581sortuko": 5558,
  "\u2581tooltip": 5559,
  "Hobespenak": 5560,
  "taula": 5561,
  "\u2581Advanced": 5562,
  "\u2581Artxibo": 5563,
  "\u2581Esteka": 5564,
  "\u2581Fi": 5565,
  "\u2581org": 5566,
  "\u2581sareta": 5567,
  "\u2581zerbitzua": 5568,
  "\u2581Cursor": 5569,
  "\u2581`": 5570,
  "default": 5571,
  "\u2581attached": 5572,
  "\u2581Wa": 5573,
  "\u2581autentifikazio": 5574,
  "\u2581Available": 5575,
  "\u2581berrabiarazi": 5576,
  "\u2581korritze": 5577,
  "\u2581zenbakiak": 5578,
  "\u2581Kontrol": 5579,
  "\u2581laguntzen": 5580,
  "\u2581sinatu": 5581,
  "\u2581urdin": 5582,
  "\u2581eranskina": 5583,
  "\u2581esate": 5584,
  "\u2581eskubidea": 5585,
  "\u2581joy": 5586,
  "ista": 5587,
  "modua": 5588,
  "\u2581Junk": 5589,
  "\u2581estatu": 5590,
  "\u2581Inork": 5591,
  "\u2581ek": 5592,
  "\u2581levels": 5593,
  "\u2581locations": 5594,
  "ev": 5595,
  "\u2581wild": 5596,
  "\u258124": 5597,
  "\u2581Dictionary": 5598,
  "\u2581Galdetu": 5599,
  "\u2581People": 5600,
  "\u2581gehienak": 5601,
  "\u2581menus": 5602,
  "\u2581related": 5603,
  "\u2581servant": 5604,
  "\u2581contrast": 5605,
  "\u2581te": 5606,
  "garriak": 5607,
  "\u2581jardun": 5608,
  "\u2581Saioa": 5609,
  "\u2581cry": 5610,
  "\u2581jaurti": 5611,
  "\u2581modulua": 5612,
  "\u2581silent": 5613,
  "\u2581titulu": 5614,
  "ada": 5615,
  "editorea": 5616,
  "part": 5617,
  "\u2581adi": 5618,
  "\u2581editatzeko": 5619,
  "\u2581somewhere": 5620,
  "\u2581Count": 5621,
  "\u2581arma": 5622,
  "\u2581edozer": 5623,
  "\u2581justice": 5624,
  "\u2581zerbitzu": 5625,
  "\u2581Ber": 5626,
  "\u2581wonder": 5627,
  "ker": 5628,
  "\u2581Henry": 5629,
  "\u2581Spirit": 5630,
  "\u2581esperientzia": 5631,
  "\u2581screenshot": 5632,
  "egoera": 5633,
  "\u2581American": 5634,
  "\u2581zutik": 5635,
  "\u25815.": 5636,
  "\u2581Sal": 5637,
  "\u2581supports": 5638,
  "\u2581template": 5639,
  "tura": 5640,
  "\u2581Banshee": 5641,
  "\u2581isil": 5642,
  "\u2581lurralde": 5643,
  "\u2581pentsa": 5644,
  "\u2581unitate": 5645,
  "\u2581Jackson": 5646,
  "\u2581fair": 5647,
  "\u2581kudeatu": 5648,
  "\u2581sendo": 5649,
  "\u2581erregistratu": 5650,
  "\u2581variable": 5651,
  "\u2581Che": 5652,
  "\u2581Gogoratu": 5653,
  "\u2581PDF": 5654,
  "\u2581argumentu": 5655,
  "\u2581badaude": 5656,
  "\u2581dezakegu": 5657,
  "\u2581lore": 5658,
  "\u2581negar": 5659,
  "\u2581zelako": 5660,
  "\":": 5661,
  "Laguntza": 5662,
  "\u2581Dickie": 5663,
  "\u2581Ia": 5664,
  "\u2581apaiz": 5665,
  "\u2581plano": 5666,
  "ult": 5667,
  "\u2581zeina": 5668,
  "\u2581Automatikoki": 5669,
  "\u2581Style": 5670,
  "\u2581Nick": 5671,
  "\u2581sources": 5672,
  "\u2581telefonoa": 5673,
  "sia": 5674,
  "\u2581Another": 5675,
  "\u2581regarding": 5676,
  "\u2581aspect": 5677,
  "well": 5678,
  "\u2581Memory": 5679,
  "\u2581Signature": 5680,
  "\u2581aske": 5681,
  "\u2581diet": 5682,
  "\u2581learned": 5683,
  "\u2581Danny": 5684,
  "\u2581Pan": 5685,
  "\u2581becomes": 5686,
  "\u2581edukitzea": 5687,
  "\u2581Chi": 5688,
  "\u2581Denak": 5689,
  "\u2581betetzeko": 5690,
  "\u2581errepikatu": 5691,
  "\u2581gorabehera": 5692,
  "\u2581horretatik": 5693,
  "\u2581Bilera": 5694,
  "\u2581Draw": 5695,
  "\u2581Welcome": 5696,
  "\u2581zortziko": 5697,
  "They": 5698,
  "var": 5699,
  "\u2581Sh": 5700,
  "\u2581generally": 5701,
  "\u2581puntuazioak": 5702,
  "\u2581sail": 5703,
  "\u2581south": 5704,
  "\u2581CDa": 5705,
  "\u2581arrunt": 5706,
  "\u2581edukiko": 5707,
  "\u2581resolution": 5708,
  "\u2581cool": 5709,
  "\u2581elementuaren": 5710,
  "\u2581luck": 5711,
  "\u2581mask": 5712,
  "ated": 5713,
  "\u2581konbinazio": 5714,
  "\u2581weak": 5715,
  "\u2581horses": 5716,
  "\u2581Sending": 5717,
  "\u2581throw": 5718,
  "katzen": 5719,
  "\u2581Martin": 5720,
  "\u2581Sar": 5721,
  "\u2581darkness": 5722,
  "\u2581gradient": 5723,
  "\u2581kontrolatzen": 5724,
  "\u2581problems": 5725,
  "\u2581tira": 5726,
  "Nire": 5727,
  "OS": 5728,
  "\u2581Arrastatu": 5729,
  "\u2581Envelope": 5730,
  "\u2581Klik": 5731,
  "\u2581behe": 5732,
  "\u2581record": 5733,
  "\u2581applied": 5734,
  "\u2581ezkondu": 5735,
  "\u2581fifty": 5736,
  "\u2581filters": 5737,
  "\u2581itzal": 5738,
  "\u2581navigation": 5739,
  "\u2581printing": 5740,
  "\u2581Mal": 5741,
  "Find": 5742,
  "Utzi": 5743,
  "\u2581Badirudi": 5744,
  "\u2581East": 5745,
  "\u2581Pazifikoa": 5746,
  "\u2581liberty": 5747,
  "ong": 5748,
  "\u2581Bob": 5749,
  "\u2581akatsen": 5750,
  "\u2581keinu": 5751,
  "\u2581passwords": 5752,
  "\u2581toggle": 5753,
  "\u2581Emakume": 5754,
  "\u2581gris": 5755,
  "\u2581jakinarazpena": 5756,
  "\u2581sortatik": 5757,
  "\u2581Bookmarks": 5758,
  "\u2581Ju": 5759,
  "\u2581ace": 5760,
  "\u2581erabiltzaileari": 5761,
  "\u2581estu": 5762,
  "\u2581fault": 5763,
  "\u2581odola": 5764,
  "tion": 5765,
  "\u2581Album": 5766,
  "\u2581Sections": 5767,
  "\u2581dokumentuaren": 5768,
  "izenaren": 5769,
  "\u2581Pango": 5770,
  "\u2581atzitu": 5771,
  "\u258113": 5772,
  "\u2581Asko": 5773,
  "\u2581anybody": 5774,
  "\u2581arearen": 5775,
  "\u2581beldurra": 5776,
  "\u2581enemies": 5777,
  "\u2581helburuko": 5778,
  "\u2581seiko": 5779,
  "\u2581Card": 5780,
  "\u2581Drag": 5781,
  "\u2581dezakeen": 5782,
  "\u2581advantage": 5783,
  "\u2581atributu": 5784,
  "\u2581emaitzak": 5785,
  "\u2581reach": 5786,
  "\u2581tracker": 5787,
  "ezina": 5788,
  "\u2581Ordua": 5789,
  "\u2581Was": 5790,
  "\u2581aditu": 5791,
  "\u2581nolabait": 5792,
  "\u2581weight": 5793,
  "\u2581Panela": 5794,
  "\u2581Quadrapassel": 5795,
  "\u2581eramateko": 5796,
  "\u2581glory": 5797,
  "\u2581mistake": 5798,
  "About": 5799,
  "\u2581afterwards": 5800,
  "\u2581mintzatu": 5801,
  "\u2581panelean": 5802,
  "\u2581polizia": 5803,
  "gailu": 5804,
  "marken": 5805,
  "\u2581arazoak": 5806,
  "\u2581baditu": 5807,
  "\u2581kurtsorea": 5808,
  "\u2581pixmap": 5809,
  "\u2581softwarea": 5810,
  "City": 5811,
  "\u2581Tu": 5812,
  "\u2581activity": 5813,
  "\u2581emanez": 5814,
  "\u2581showed": 5815,
  "\u2581egutegiaren": 5816,
  "\u2581gobernu": 5817,
  "\u2581taulan": 5818,
  "\u2581Azalpena": 5819,
  "\u2581damn": 5820,
  "\u2581lotura": 5821,
  "\u2581restore": 5822,
  "field": 5823,
  "\u2581explain": 5824,
  "\u2581izugarri": 5825,
  "\u2581jarraipena": 5826,
  "Al": 5827,
  "\u2581brotxa": 5828,
  "\u2581camp": 5829,
  "\u2581nation": 5830,
  "\u2581Dick": 5831,
  "\u2581export": 5832,
  "\u2581harremanetan": 5833,
  "\u2581nearly": 5834,
  "\u2581checked": 5835,
  "\u2581errua": 5836,
  "\u2581suggestion": 5837,
  "\u2581talked": 5838,
  "ondo": 5839,
  "\u2581umeak": 5840,
  "\u2581luzatu": 5841,
  "\u2581mo": 5842,
  "\u2581Edozein": 5843,
  "\u2581Tag": 5844,
  "\u2581gainditu": 5845,
  "\u2581mundua": 5846,
  "\u2581units": 5847,
  "\u2581Esku": 5848,
  "\u2581Etorri": 5849,
  "\u2581Kind": 5850,
  "\u2581Spade": 5851,
  "\u2581arbelean": 5852,
  "\u2581temple": 5853,
  "fm": 5854,
  "\u2581Greek": 5855,
  "\u2581galdetzen": 5856,
  "\u2581tired": 5857,
  "\u2581Bill": 5858,
  "\u2581Unexpected": 5859,
  "\u2581ezezagun": 5860,
  "\u2581Colours": 5861,
  "\u2581France": 5862,
  "kada": 5863,
  "\u2581desplazamendua": 5864,
  "\u2581duenak": 5865,
  "\u2581jakitea": 5866,
  "\u2581ne": 5867,
  "\u2581bait": 5868,
  "\u2581including": 5869,
  "\u2581itsu": 5870,
  "\u2581primary": 5871,
  "\u2581Autentifikazioa": 5872,
  "\u2581ezein": 5873,
  "\u2581noise": 5874,
  "\u2581zazpiko": 5875,
  "\u2581Castle": 5876,
  "engandik": 5877,
  "\u2581Permission": 5878,
  "\u2581Personal": 5879,
  "\u2581distinct": 5880,
  "\u2581pictures": 5881,
  "\u2581substantzia": 5882,
  "\u2581Bottom": 5883,
  "\u2581autentifikazioa": 5884,
  "\u2581dangerous": 5885,
  "\u2581honelako": 5886,
  "\u2581urteko": 5887,
  "errorea": 5888,
  "vo": 5889,
  "\u2581Esate": 5890,
  "\u2581monitorea": 5891,
  "\u2581Epiphany": 5892,
  "\u2581Excuse": 5893,
  "tikoa": 5894,
  "uri": 5895,
  "\u2581Igo": 5896,
  "\u2581Main": 5897,
  "\u2581Since": 5898,
  "\u2581gods": 5899,
  "\u2581whenever": 5900,
  "Imp": 5901,
  "\u2581rain": 5902,
  "\u2581ingurune": 5903,
  "\u2581aren": 5904,
  "\u2581baietz": 5905,
  "\u2581Gakoa": 5906,
  "\u2581printzipio": 5907,
  "\u2581sender": 5908,
  "zer": 5909,
  "\u2581etsai": 5910,
  "\u2581grow": 5911,
  "\u2581hiztegi": 5912,
  "\u2581marriage": 5913,
  "agoak": 5914,
  "\u2581gehitzea": 5915,
  "Row": 5916,
  "\u2581Zerbitzari": 5917,
  "\u2581mu": 5918,
  "\u2581recently": 5919,
  "enean": 5920,
  "eri": 5921,
  "hau": 5922,
  "\u2581church": 5923,
  "\u2581Behar": 5924,
  "\u2581antza": 5925,
  "\u2581Images": 5926,
  "\u2581effects": 5927,
  "\u2581lehenik": 5928,
  "\u2581utzita": 5929,
  "banan": 5930,
  "ring": 5931,
  "txi": 5932,
  "\u2581ha": 5933,
  "\u2581orokor": 5934,
  "\u2581Phone": 5935,
  "\u2581egiazko": 5936,
  "\u2581lurrean": 5937,
  "\u2581Cut": 5938,
  "\u2581Lower": 5939,
  "\u2581USB": 5940,
  "\u2581spot": 5941,
  "\u2581zerrendatik": 5942,
  "\u2581Drop": 5943,
  "\u2581boat": 5944,
  "\u2581hartaz": 5945,
  "\u2581twice": 5946,
  "xa": 5947,
  "\u2581Zertan": 5948,
  "\u2581bermatzen": 5949,
  "\u2581gordeko": 5950,
  "\u2581hizketan": 5951,
  "\u2581motel": 5952,
  "\u2581zeu": 5953,
  "Ctrl": 5954,
  "\u25812003": 5955,
  "\u2581Energia": 5956,
  "\u2581Large": 5957,
  "\u2581driver": 5958,
  "\u2581heads": 5959,
  "\u2581snow": 5960,
  "\u2581soldiers": 5961,
  "\u2581Art": 5962,
  "\u2581konektatzean": 5963,
  "\u2581konexioak": 5964,
  "\u2581ancient": 5965,
  "\u2581ikuspegian": 5966,
  "\u2581Europako": 5967,
  "\u2581Evince": 5968,
  "\u2581observed": 5969,
  "\u2581pentsamendu": 5970,
  "\u2581Mont": 5971,
  "\u2581ON": 5972,
  "\u2581Sets": 5973,
  "\u2581aldea": 5974,
  "\u2581elkartu": 5975,
  "\u2581worked": 5976,
  "true": 5977,
  "kudeaketa": 5978,
  "\u2581hamarreko": 5979,
  "\u2581arakatzailea": 5980,
  "\u2581biltegi": 5981,
  "\u2581daukagu": 5982,
  "\u2581legs": 5983,
  "ira": 5984,
  "\u2581Hautapena": 5985,
  "\u2581Lege": 5986,
  "\u2581bare": 5987,
  "\u2581sc": 5988,
  "\u2581gelan": 5989,
  "\u2581alfa": 5990,
  "\u2581analizatzean": 5991,
  "\u2581ohiko": 5992,
  "Nola": 5993,
  "TE": 5994,
  "\u2581attack": 5995,
  "\u2581beat": 5996,
  "\u2581fix": 5997,
  "til": 5998,
  "\u2581banu": 5999,
  "\u2581definituta": 6000,
  "\u2581ignored": 6001,
  "\u2581kolorearen": 6002,
  "\u2581osatzeko": 6003,
  "La": 6004,
  "RW": 6005,
  "pin": 6006,
  "\u2581Son": 6007,
  "\u2581eredua": 6008,
  "\u2581konektatuta": 6009,
  "\u2581yellow": 6010,
  "dak": 6011,
  "ica": 6012,
  "\u2581Symbol": 6013,
  "\u2581True": 6014,
  "\u2581established": 6015,
  "\u2581meta": 6016,
  "\u2581abioan": 6017,
  "\u2581forever": 6018,
  "\u2581nahastu": 6019,
  "\u2581Deitu": 6020,
  "\u2581bederatziko": 6021,
  "\u2581dizute": 6022,
  "\u2581Pause": 6023,
  "\u2581Side": 6024,
  "\u2581Standard": 6025,
  "\u2581lies": 6026,
  "\u2581menubar": 6027,
  "\u2581York": 6028,
  "\u2581hondatuta": 6029,
  "\u2581occasion": 6030,
  "\u2581oraintxe": 6031,
  "\u2581zioen": 6032,
  "\u258102110-1301": 6033,
  "\u2581Jakina": 6034,
  "\u2581zerbitzuak": 6035,
  "\u2581zidaten": 6036,
  "itu": 6037,
  "\u2581Dokumentuaren": 6038,
  "\u2581glChess": 6039,
  "oo": 6040,
  "\u2581I\u00f1aki": 6041,
  "\u2581alignment": 6042,
  "\u2581baliogabeko": 6043,
  "\u2581twelve": 6044,
  "\u2581Eskuineko": 6045,
  "\u2581azal": 6046,
  "\u2581confirmation": 6047,
  "\u2581finger": 6048,
  "\u2581Dia": 6049,
  "\u2581berrogeita": 6050,
  "\u2581bread": 6051,
  "\u2581dealing": 6052,
  "\u2581ezkutuko": 6053,
  "Next": 6054,
  "\u2581IM": 6055,
  "\u2581Saguaren": 6056,
  "\u2581argumentua": 6057,
  "\u2581kide": 6058,
  "\u2581multi": 6059,
  "\u2581tools": 6060,
  "\u2581walking": 6061,
  "\u2581FTP": 6062,
  "\u2581Ordenatu": 6063,
  "leku": 6064,
  "\u2581Biltegi": 6065,
  "\u2581laztana": 6066,
  "cha": 6067,
  "\u2581fool": 6068,
  "\u2581marrazteko": 6069,
  "bera": 6070,
  "\u2581Everything": 6071,
  "\u2581itzazu": 6072,
  "ium": 6073,
  "\u2581Aldi": 6074,
  "\u2581Resize": 6075,
  "\u2581Zoaz": 6076,
  "\u2581atzo": 6077,
  "\u2581bidaia": 6078,
  "\u2581mere": 6079,
  "\u2581neu": 6080,
  "\u2581turning": 6081,
  "aldia": 6082,
  "mena": 6083,
  "\u2581Sure": 6084,
  "\u2581datoz": 6085,
  "\u2581ekintzak": 6086,
  "\u2581jota": 6087,
  "\u2581lerroan": 6088,
  "\u2581{1}": 6089,
  "\u2581angle": 6090,
  "\u2581animal": 6091,
  "\u2581ertz": 6092,
  "\u2581ordeztu": 6093,
  "\u2581reminder": 6094,
  "\u2581ezazue": 6095,
  "Oso": 6096,
  "\u2581Host": 6097,
  "\u2581Super": 6098,
  "\u2581bezero": 6099,
  "\u2581pantailan": 6100,
  "RE": 6101,
  "cal": 6102,
  "nahiago": 6103,
  "\u2581Activate": 6104,
  "\u2581Guide": 6105,
  "\u2581sentimendu": 6106,
  "Ma": 6107,
  "\u2581Sub": 6108,
  "\u2581Zuhaitz": 6109,
  "\u2581comment": 6110,
  "\u2581ditudan": 6111,
  "\u2581falling": 6112,
  "\u2581jokatzeko": 6113,
  "\u2581repeated": 6114,
  "Fi": 6115,
  "\u2581Larra\u00f1aga": 6116,
  "\u2581MP": 6117,
  "\u2581genituen": 6118,
  "\u2581religion": 6119,
  "dooteo": 6120,
  "kodea": 6121,
  "\u2581Old": 6122,
  "\u2581Propietate": 6123,
  "\u2581Redo": 6124,
  "\u2581Test": 6125,
  "tt": 6126,
  "\u2581Hari": 6127,
  "\u2581drew": 6128,
  "\u2581erro": 6129,
  "\u2581horretako": 6130,
  "tasunak": 6131,
  "\u2581Function": 6132,
  "\u2581RSA": 6133,
  "\u2581administra": 6134,
  "\u2581ideiak": 6135,
  "\u2581nobody": 6136,
  "\u2581parametroak": 6137,
  "\u2581signed": 6138,
  "balioa": 6139,
  "\u2581Blue": 6140,
  "\u2581Field": 6141,
  "\u2581Hu": 6142,
  "\u2581aurkeztu": 6143,
  "\u2581lehentasuna": 6144,
  "print": 6145,
  "safe": 6146,
  "\u2581amaierako": 6147,
  "\u2581iCalendar": 6148,
  "\u2581ordinary": 6149,
  "\u2581performed": 6150,
  "\u2581warranty": 6151,
  "\u2581zabaltzen": 6152,
  "\u2581Front": 6153,
  "\u2581breath": 6154,
  "\u2581convert": 6155,
  "\u2581fresh": 6156,
  "\u2581gordetzea": 6157,
  "ase": 6158,
  "run": 6159,
  "ser": 6160,
  "\u2581Col": 6161,
  "\u2581agur": 6162,
  "\u2581bidezko": 6163,
  "\u2581diseinua": 6164,
  "\u2581egoki": 6165,
  "\u2581Floor": 6166,
  "\u2581IRC": 6167,
  "\u2581hustu": 6168,
  "light": 6169,
  "\u2581Border": 6170,
  "\u2581besides": 6171,
  "\u2581izar": 6172,
  "\u2581Handia": 6173,
  "\u2581Holy": 6174,
  "\u2581Lines": 6175,
  "\u2581directories": 6176,
  "\u2581prison": 6177,
  "\u2581Event": 6178,
  "\u2581Halako": 6179,
  "\u2581SHA": 6180,
  "\u2581amaieran": 6181,
  "\u2581exekutatzeko": 6182,
  "Bi": 6183,
  "ini": 6184,
  "lerroa": 6185,
  "room": 6186,
  "\u2581-%": 6187,
  "\u2581RGB": 6188,
  "\u2581category": 6189,
  "\u2581fat": 6190,
  "\u2581term": 6191,
  "\u2581\u0160vejk": 6192,
  "izki": 6193,
  "\u2581Talde": 6194,
  "\u2581dezakete": 6195,
  "\u2581idatzita": 6196,
  "\u2581inserted": 6197,
  "\u2581itsaskor": 6198,
  "\u2581scores": 6199,
  "par": 6200,
  "\u2581Begi": 6201,
  "\u2581blokeatu": 6202,
  "\u2581holy": 6203,
  "\u2581included": 6204,
  "\u2581tears": 6205,
  "\u2581bestearen": 6206,
  "\u2581denok": 6207,
  "\u2581gorroto": 6208,
  "\u2581pipe": 6209,
  "\u2581Abiarazi": 6210,
  "\u2581Partition": 6211,
  "\u2581barik": 6212,
  "\u2581believed": 6213,
  "\u2581deia": 6214,
  "fo": 6215,
  "ray": 6216,
  "\u2581bereziki": 6217,
  "\u2581editing": 6218,
  "\u2581ezean": 6219,
  "\u2581hastea": 6220,
  "\u2581Ai": 6221,
  "\u2581Yet": 6222,
  "\u2581BE": 6223,
  "\u2581belong": 6224,
  "\u2581dance": 6225,
  "\u2581guri": 6226,
  "\u2581symbolic": 6227,
  "FS": 6228,
  "\u2581finish": 6229,
  "Nik": 6230,
  "\u2581Active": 6231,
  "\u2581Zutabe": 6232,
  "\u2581lortuko": 6233,
  "\u2581ships": 6234,
  "32": 6235,
  "kide": 6236,
  "\u2581Hura": 6237,
  "\u2581Xehetasunak": 6238,
  "\u2581absolutely": 6239,
  "\u2581calm": 6240,
  "\u2581karaktereak": 6241,
  "\u2581spread": 6242,
  "\u2581MD": 6243,
  "\u2581Secure": 6244,
  "koadroko": 6245,
  "\u2581Egypt": 6246,
  "\u2581Noski": 6247,
  "\u2581ear": 6248,
  "\u2581errenkad": 6249,
  "\u2581mar": 6250,
  "\u2581urduri": 6251,
  "\u2581Setup": 6252,
  "\u2581kalkulatzen": 6253,
  "\u2581konfiguratuta": 6254,
  "\u2581nose": 6255,
  "\u2581persons": 6256,
  "\u2581shoot": 6257,
  "Now": 6258,
  "\u2581Berrezarri": 6259,
  "\u2581Erreprodukzio": 6260,
  "\u2581Scroll": 6261,
  "\u2581complex": 6262,
  "\u2581creation": 6263,
  "\u2581ezaugarri": 6264,
  "\u2581herria": 6265,
  "\u2581loss": 6266,
  "\u2581hotz": 6267,
  "\u2581irudien": 6268,
  "\u2581Computer": 6269,
  "\u2581askok": 6270,
  "\u2581attach": 6271,
  "\u2581bitxi": 6272,
  "\u2581dropped": 6273,
  "\u2581okerreko": 6274,
  "\u2581paths": 6275,
  "Hello": 6276,
  "kan": 6277,
  "\u2581Neure": 6278,
  "\u2581gentleman": 6279,
  "\u2581grabatu": 6280,
  "\u2581kar": 6281,
  "\u2581AA": 6282,
  "\u2581Lortu": 6283,
  "\u2581Template": 6284,
  "\u2581Unsupported": 6285,
  "\u2581inori": 6286,
  "\u2581slider": 6287,
  "<": 6288,
  "ume": 6289,
  "\u2581factor": 6290,
  "\u2581lokaleko": 6291,
  "\u2581necessity": 6292,
  "\u2581wisdom": 6293,
  "leihoa": 6294,
  "\u2581Jabber": 6295,
  "\u2581Prest": 6296,
  "\u2581Sticky": 6297,
  "\u2581aurreneko": 6298,
  "mor": 6299,
  "\u2581controls": 6300,
  "\u2581shortcuts": 6301,
  "\u2581European": 6302,
  "\u2581Mahaigaineko": 6303,
  "\u2581Their": 6304,
  "\u2581arraio": 6305,
  "\u2581ikustailea": 6306,
  "\u2581sufficient": 6307,
  "entzia": 6308,
  "\u2581marjina": 6309,
  "\u2581Hauek": 6310,
  "\u2581Private": 6311,
  "\u2581alarm": 6312,
  "\u2581distinguish": 6313,
  "\u2581elementuen": 6314,
  "\u2581gogoratu": 6315,
  "\u2581listed": 6316,
  "kudeatzaileak": 6317,
  "\u2581interfazea": 6318,
  "\u2581widgets": 6319,
  "\u2581boterea": 6320,
  "\u2581enjoy": 6321,
  "\u2581nolako": 6322,
  "Nor": 6323,
  "\u2581plug": 6324,
  "\u2581science": 6325,
  "\u2581sticky": 6326,
  "\u2581animalia": 6327,
  "\u2581handiegia": 6328,
  "\u2581ja": 6329,
  "\u2581obliged": 6330,
  "\u2581positive": 6331,
  "\u2581zooma": 6332,
  "\u2581zuelako": 6333,
  "\u2581agintzen": 6334,
  "\u2581atributua": 6335,
  "\u2581hitzordua": 6336,
  "\u2581iragan": 6337,
  "pr": 6338,
  "\u2581Gakoaren": 6339,
  "\u2581Recent": 6340,
  "ERA": 6341,
  "bal": 6342,
  "maskara": 6343,
  "para": 6344,
  "\u25812004": 6345,
  "\u2581Multimedia": 6346,
  "\u2581TLS": 6347,
  "\u2581eskuan": 6348,
  "\u2581motor": 6349,
  "20": 6350,
  "\u2581ezpata": 6351,
  "\u2581offset": 6352,
  "\u2581produced": 6353,
  "\u2581ura": 6354,
  "tarrak": 6355,
  "\u2581Ubuntu": 6356,
  "\u2581duration": 6357,
  "\u2581zakarrontzia": 6358,
  "cy": 6359,
  "ford": 6360,
  "\u2581Layout": 6361,
  "\u2581Murgoitio": 6362,
  "\u2581sudoku": 6363,
  "way": 6364,
  "\u2581Ignore": 6365,
  "\u2581bekatu": 6366,
  "\u2581hasita": 6367,
  "\u2581passion": 6368,
  "\u2581Memoria": 6369,
  "\u2581gaitzen": 6370,
  "\u2581matches": 6371,
  "\u2581raise": 6372,
  "\u2581roll": 6373,
  "\u2581ICC": 6374,
  "\u2581Tools": 6375,
  "\u2581Initial": 6376,
  "\u2581Ume": 6377,
  "\u2581antolatu": 6378,
  "\u2581askatasuna": 6379,
  "sville": 6380,
  "\u2581Such": 6381,
  "\u2581amongst": 6382,
  "\u2581parameters": 6383,
  "\u2581seat": 6384,
  "++": 6385,
  "\u2581pean": 6386,
  "Ondo": 6387,
  "\u2581Iaincoaren": 6388,
  "\u2581ezberdin": 6389,
  "\u2581funny": 6390,
  "\u2581objektuaren": 6391,
  "\u2581Kings": 6392,
  "\u2581aldian": 6393,
  "\u2581aurki": 6394,
  "\u2581implied": 6395,
  "fitxategietan": 6396,
  "none": 6397,
  "\u2581dioten": 6398,
  "\u2581eternal": 6399,
  "\u2581kings": 6400,
  "\u2581prince": 6401,
  "Contents": 6402,
  "\u2581bazter": 6403,
  "uz": 6404,
  "\u2581jaregin": 6405,
  "\u2581sudden": 6406,
  "ikoa": 6407,
  "\u2581Ask": 6408,
  "\u2581Dark": 6409,
  "\u2581Rock": 6410,
  "\u2581egunero": 6411,
  "\u2581mailbox": 6412,
  "\u2581munduan": 6413,
  "\u2581rise": 6414,
  "Hau": 6415,
  "\u2581Ulertzen": 6416,
  "\u2581gauzen": 6417,
  "\u2581principles": 6418,
  "Link": 6419,
  "\u2581Bizitza": 6420,
  "\u2581Over": 6421,
  "\u2581dituztela": 6422,
  "\u2581kontuaren": 6423,
  "\u2581lekuko": 6424,
  "\u2581saldu": 6425,
  "\u2581apart": 6426,
  "\u2581thanks": 6427,
  "erre": 6428,
  "\u2581Does": 6429,
  "\u2581aukerarik": 6430,
  "\u2581menpe": 6431,
  "Alt": 6432,
  "\u2581Ken": 6433,
  "\u2581Should": 6434,
  "\u2581egintza": 6435,
  "ude": 6436,
  "ux": 6437,
  "\u2581arnasa": 6438,
  "\u2581silver": 6439,
  "Location": 6440,
  "\u25811.0": 6441,
  "\u2581Box": 6442,
  "\u2581DNS": 6443,
  "\u2581Uh": 6444,
  "\u2581korrika": 6445,
  "\u2581lurrera": 6446,
  "\u2581Lehenetsia": 6447,
  "\u2581bosteko": 6448,
  "\u2581kontaktuen": 6449,
  "\u2581sell": 6450,
  "arakatzailea": 6451,
  "car": 6452,
  "\u2581Leheneratu": 6453,
  "\u2581ahalegin": 6454,
  "\u2581executable": 6455,
  "\u2581ship": 6456,
  "elementua": 6457,
  "\u258190": 6458,
  "\u2581Restore": 6459,
  "su": 6460,
  "\u2581Baldin": 6461,
  "\u2581Horra": 6462,
  "\u2581Robert": 6463,
  "\u2581ahalmena": 6464,
  "\u2581halakorik": 6465,
  "\u2581overwrite": 6466,
  "\u2581spent": 6467,
  "nu": 6468,
  "\u2581Big": 6469,
  "\u2581Iesus": 6470,
  "gui": 6471,
  "tarra": 6472,
  "tsi": 6473,
  "\u2581Playing": 6474,
  "\u2581miss": 6475,
  "\u2581multzoak": 6476,
  "which": 6477,
  "\u2581catch": 6478,
  "\u2581coat": 6479,
  "\u2581garrantzitsua": 6480,
  "\u2581liked": 6481,
  "etc": 6482,
  "lib": 6483,
  "\u2581Altuera": 6484,
  "\u2581Hard": 6485,
  "\u2581Horrelako": 6486,
  "\u2581Val": 6487,
  "\u2581bitxia": 6488,
  "\u2581ezkontza": 6489,
  "\u2581webgunea": 6490,
  "\u2581wood": 6491,
  "bere": 6492,
  "ns": 6493,
  "\u2581Gora": 6494,
  "\u2581baitziren": 6495,
  "left": 6496,
  "\u2581Mor": 6497,
  "\u2581[%": 6498,
  "\u2581automatic": 6499,
  "\u2581jiratu": 6500,
  "\u2581Input": 6501,
  "\u2581angry": 6502,
  "\u2581argitaratu": 6503,
  "\u2581practice": 6504,
  "\u2581walls": 6505,
  "\u2581zekien": 6506,
  "tur": 6507,
  "\u2581izenaren": 6508,
  "\u00e8n": 6509,
  "\u2581Bestalde": 6510,
  "\u2581digitu": 6511,
  "\u2581leaves": 6512,
  "\u2581makina": 6513,
  "\u2581thinks": 6514,
  "\u2581Bota": 6515,
  "\u2581Playlist": 6516,
  "\u2581Ru": 6517,
  "\u2581TIFF": 6518,
  "\u2581final": 6519,
  "\u2581giltza": 6520,
  "\u2581prefer": 6521,
  "AP": 6522,
  "\u2581Azkenean": 6523,
  "\u2581Sha": 6524,
  "\u2581armada": 6525,
  "\u2581cen": 6526,
  "\u2581concerning": 6527,
  "Print": 6528,
  "\u2581berandu": 6529,
  "\u2581erdia": 6530,
  "\u2581reasons": 6531,
  "button": 6532,
  "\u2581connecting": 6533,
  "\u2581lurra": 6534,
  "=\"": 6535,
  "rera": 6536,
  "\u2581Small": 6537,
  "\u2581agerian": 6538,
  "\u2581crowd": 6539,
  "\u2581zerrendako": 6540,
  "\u2581Urte": 6541,
  "\u2581Visible": 6542,
  "\u2581behartu": 6543,
  "\u2581gpg": 6544,
  "\u2581hogei": 6545,
  "\u2581pleased": 6546,
  "\u2581price": 6547,
  "\u2581Maite": 6548,
  "\u2581bidaltzean": 6549,
  "\u2581fitxategitik": 6550,
  "\u2581grabatzeko": 6551,
  "\u2581metodoa": 6552,
  "\u2581resize": 6553,
  "bidea": 6554,
  "\u2581Azkar": 6555,
  "\u2581Receiving": 6556,
  "\u2581efektua": 6557,
  "\u2581redistribute": 6558,
  "\u2581Arrazoi": 6559,
  "\u2581Gela": 6560,
  "\u2581Pat": 6561,
  "\u2581bereizteko": 6562,
  "\u2581warm": 6563,
  "eten": 6564,
  "\u2581Tim": 6565,
  "\u2581bidaltzea": 6566,
  "\u2581hamabi": 6567,
  "\u2581playback": 6568,
  "\u2581prevent": 6569,
  "\u2581zutabearen": 6570,
  "\u2581laughed": 6571,
  "\u2581taste": 6572,
  "\u2581Bakarrik": 6573,
  "\u2581Gaituta": 6574,
  "\u2581Lotura": 6575,
  "\u2581SOCKSv": 6576,
  "\u2581adierazita": 6577,
  "\u2581lokalak": 6578,
  "\u2581structure": 6579,
  "\u2581summary": 6580,
  "\u2581Ederki": 6581,
  "\u2581kasuan": 6582,
  "\u2581Cell": 6583,
  "\u2581fingers": 6584,
  "\u2581gaitezen": 6585,
  "\u2581gogoeta": 6586,
  "\u2581iluna": 6587,
  "\u2581suffering": 6588,
  "So": 6589,
  "ZA": 6590,
  "\u2581Blokeatu": 6591,
  "\u2581Latin": 6592,
  "\u2581arrisku": 6593,
  "\u2581lord": 6594,
  "\u2581aitzitik": 6595,
  "\u2581ezetz": 6596,
  "\u2581health": 6597,
  "\u2581offered": 6598,
  "\u2581zaien": 6599,
  "\u2581produktu": 6600,
  "\u2581Philip": 6601,
  "Fitxategia": 6602,
  "\u2581Copying": 6603,
  "\u2581gida": 6604,
  "\u2581tresnak": 6605,
  "\u2581txikiagoa": 6606,
  "engan": 6607,
  "\u2581Again": 6608,
  "\u2581genuke": 6609,
  "\u2581zezakeen": 6610,
  "don": 6611,
  "\u2581Media": 6612,
  "\u2581PIN": 6613,
  "\u2581forced": 6614,
  "\u2581jabea": 6615,
  "\u2581unlock": 6616,
  "\u2581Common": 6617,
  "\u2581Lauko": 6618,
  "\u2581arra": 6619,
  "\u2581doan": 6620,
  "\u2581hauetan": 6621,
  "\u2581https": 6622,
  "\u2581spin": 6623,
  "\u2581teklak": 6624,
  "dako": 6625,
  "denak": 6626,
  "\u2581Pick": 6627,
  "\u2581clearly": 6628,
  "\u2581domain": 6629,
  "\u2581dress": 6630,
  "\u2581itzultzeko": 6631,
  "Gaitu": 6632,
  "\u2581horrelakorik": 6633,
  "\u2581Roman": 6634,
  "\u2581Shut": 6635,
  "\u2581agindua": 6636,
  "\u2581attributes": 6637,
  "\u2581careful": 6638,
  "\u2581garen": 6639,
  "\u2581inportatzeko": 6640,
  "\u2581interfaze": 6641,
  "\u2581serio": 6642,
  "ng": 6643,
  "\u2581Adam": 6644,
  "\u2581GIF": 6645,
  "\u2581RE": 6646,
  "\u2581larger": 6647,
  "apps": 6648,
  "\u2581Author": 6649,
  "\u2581Objektua": 6650,
  "\u2581kingdom": 6651,
  "\u2581mbox": 6652,
  "\u2581neskak": 6653,
  "\u2581suffer": 6654,
  "\u2581testuinguru": 6655,
  "ntz": 6656,
  "\u2581Bur": 6657,
  "\u2581ob": 6658,
  "Egin": 6659,
  "\u2581ears": 6660,
  "\u2581kart": 6661,
  "\u2581servants": 6662,
  "\u2581updated": 6663,
  "wan": 6664,
  "\u2581cities": 6665,
  "\u2581coffee": 6666,
  "\u2581egonez": 6667,
  "\u2581ostean": 6668,
  "\u2581tone": 6669,
  "\u2581wins": 6670,
  "\u2581Ezkerreko": 6671,
  "\u2581Must": 6672,
  "\u2581Ulenspiegel": 6673,
  "\u2581ausaz": 6674,
  "\u2581gailuak": 6675,
  "50": 6676,
  "\u2581-1": 6677,
  "ikuspegia": 6678,
  "karpetak": 6679,
  "mentu": 6680,
  "table": 6681,
  "\u2581fa": 6682,
  "\u2581handirik": 6683,
  "\u2581alderantziz": 6684,
  "\u2581ezabatzean": 6685,
  "\u2581orders": 6686,
  "\u2581Cyrillic": 6687,
  "\u2581Screenshot": 6688,
  "\u2581sides": 6689,
  "11-": 6690,
  "lia": 6691,
  "\u2581Service": 6692,
  "\u2581notion": 6693,
  "\u2581telefono": 6694,
  "\u2581Tasks": 6695,
  "\u2581Unix": 6696,
  "\u2581daturik": 6697,
  "\u2581grave": 6698,
  "\u2581guraso": 6699,
  "Ko": 6700,
  "\u2581Batzuetan": 6701,
  "\u2581puska": 6702,
  "del": 6703,
  "\u2581Ordenagailu": 6704,
  "\u2581author": 6705,
  "\u2581destroyed": 6706,
  "\u2581fi": 6707,
  "\u2581horiei": 6708,
  "\u2581kitchen": 6709,
  "\u2581neukan": 6710,
  "botoia": 6711,
  "talde": 6712,
  "\u258140": 6713,
  "\u2581Bisitatu": 6714,
  "\u2581Itzali": 6715,
  "\u2581Jatorrizko": 6716,
  "\u2581itxita": 6717,
  "\u2581milioi": 6718,
  "\u2581programak": 6719,
  "\u2581teeth": 6720,
  "FILE": 6721,
  "bai": 6722,
  "tatzen": 6723,
  "\u2581Example": 6724,
  "\u2581Gal": 6725,
  "\u2581preso": 6726,
  "\u2581team": 6727,
  "\u2581blokeatuta": 6728,
  "\u2581matters": 6729,
  "\u2581wonderful": 6730,
  "AS": 6731,
  "\u2581CMS": 6732,
  "\u2581Word": 6733,
  "\u2581Zuri": 6734,
  "/_": 6735,
  "\u2581Adding": 6736,
  "\u2581Music": 6737,
  "\u2581formatuan": 6738,
  "\u2581politika": 6739,
  "Edukia": 6740,
  "buru": 6741,
  "\u2581Seguru": 6742,
  "atzeko": 6743,
  "gg": 6744,
  "\u2581blow": 6745,
  "\u2581offering": 6746,
  "\u2581sad": 6747,
  "\u2581threw": 6748,
  "\u2581zeru": 6749,
  "\u2581bidalitako": 6750,
  "\u2581gentlemen": 6751,
  "\u2581motak": 6752,
  "\u2581trial": 6753,
  "List": 6754,
  "Zure": 6755,
  "\u2581Hautapen": 6756,
  "\u2581Include": 6757,
  "\u2581Jane": 6758,
  "\u2581Kanpoko": 6759,
  "\u2581Speed": 6760,
  "\u2581biratu": 6761,
  "\u2581boxes": 6762,
  "\u2581sarri": 6763,
  "\u2581unexpectedly": 6764,
  "ix": 6765,
  "\u2581apal": 6766,
  "\u2581dezaten": 6767,
  "\u2581emakumeak": 6768,
  "\u2581irekiko": 6769,
  "\u2581xede": 6770,
  "version": 6771,
  "\u2581Beno": 6772,
  "\u2581Spacing": 6773,
  "\u2581instant": 6774,
  "\u2581Bertsio": 6775,
  "\u2581Ziurtagiria": 6776,
  "\u2581anitzeko": 6777,
  "\u2581jakinarazpen": 6778,
  "\u2581prove": 6779,
  "\u2581soft": 6780,
  "ama": 6781,
  "\u2581Law": 6782,
  "\u2581MB": 6783,
  "\u2581fin": 6784,
  "\u2581lerroak": 6785,
  "clock": 6786,
  "world": 6787,
  "\u2581Cha": 6788,
  "\u2581SIP": 6789,
  "\u2581definitu": 6790,
  "oc": 6791,
  "\u2581Jaun": 6792,
  "\u2581assistant": 6793,
  "\u2581connections": 6794,
  "\u2581protect": 6795,
  "1:": 6796,
  "JK": 6797,
  "\u2581alai": 6798,
  "\u2581inola": 6799,
  "\u2581Ezagutzen": 6800,
  "\u2581argitu": 6801,
  "\u2581sartzea": 6802,
  "\u2581Gakoak": 6803,
  "\u2581bikain": 6804,
  "\u2581esentzia": 6805,
  "\u2581remembered": 6806,
  "\u2581Horren": 6807,
  "\u2581denek": 6808,
  "\u2581mailak": 6809,
  "\u2581brothers": 6810,
  "\u2581Bit": 6811,
  "\u2581Items": 6812,
  "\u2581haietan": 6813,
  "\u2581inprimatu": 6814,
  "\u2581perfectly": 6815,
  "\u2581senarra": 6816,
  "\u25811\"": 6817,
  "\u258132": 6818,
  "\u2581Extra": 6819,
  "\u2581grew": 6820,
  "\u2581naute": 6821,
  "\u2581nekez": 6822,
  "\u2581Kudeatu": 6823,
  "\u2581Lisa": 6824,
  "\u2581arreba": 6825,
  "\u2581artetik": 6826,
  "\u2581desgaituta": 6827,
  "\u2581morroi": 6828,
  "\u2581profil": 6829,
  "\u2581Also": 6830,
  "\u2581baso": 6831,
  "\u2581ladies": 6832,
  "\u2581zeuk": 6833,
  "zerrendaren": 6834,
  "\u2581houses": 6835,
  "\u2581printed": 6836,
  "Desegin": 6837,
  "Who": 6838,
  "full": 6839,
  "\u2581Package": 6840,
  "\u2581aktibatzen": 6841,
  "\u2581erlatiboa": 6842,
  "\u2581hitzordu": 6843,
  "\u2581osatuta": 6844,
  "30": 6845,
  "page": 6846,
  "\u2581FITNESS": 6847,
  "She": 6848,
  "ities": 6849,
  "\u2581Ustekabe": 6850,
  "\u2581query": 6851,
  "tore": 6852,
  "ue": 6853,
  "\u2581EGOKITASUNA": 6854,
  "\u2581Inprimagailua": 6855,
  "\u2581carefully": 6856,
  "\u2581Jan": 6857,
  "\u2581Watch": 6858,
  "\u2581azkenik": 6859,
  "\u2581denied": 6860,
  "\u2581forgotten": 6861,
  "burg": 6862,
  "dala": 6863,
  "zale": 6864,
  "\u2581(*.": 6865,
  "\u2581Shit": 6866,
  "\u2581While": 6867,
  "Be": 6868,
  "gun": 6869,
  "\u2581essential": 6870,
  "\u2581medium": 6871,
  "\u2581puntua": 6872,
  "hai": 6873,
  "\u2581Moves": 6874,
  "\u2581murder": 6875,
  "\u2581possibly": 6876,
  "\u2581suntsitu": 6877,
  "row": 6878,
  "\u2581German": 6879,
  "\u2581circumstances": 6880,
  "\u2581formed": 6881,
  "\u2581kezka": 6882,
  "value": 6883,
  "\u2581activate": 6884,
  "\u2581checking": 6885,
  "\u2581joera": 6886,
  "\u2581kontrola": 6887,
  "Not": 6888,
  "\u2581smiled": 6889,
  "nvariant": 6890,
  "screen": 6891,
  "\u2581azkena": 6892,
  "\u2581dad": 6893,
  "\u2581idle": 6894,
  "\u2581kenduko": 6895,
  "\u2581lt": 6896,
  "\u2581rock": 6897,
  "\u2581songs": 6898,
  "tegi": 6899,
  "\u2581amaren": 6900,
  "\u2581desegin": 6901,
  "\u2581honor": 6902,
  "\u2581influence": 6903,
  "\u2581ostera": 6904,
  "\u2581refused": 6905,
  "\u2581zeregina": 6906,
  "Number": 6907,
  "tab": 6908,
  "\u2581Hautatzen": 6909,
  "\u2581aulki": 6910,
  "\u2581ca": 6911,
  "\u2581erregearen": 6912,
  "\u2581ilara": 6913,
  "\u2581saiatuko": 6914,
  "iza": 6915,
  "tool": 6916,
  "\u2581Herri": 6917,
  "\u2581Novell": 6918,
  "\u2581admit": 6919,
  "\u2581albuma": 6920,
  "\u2581antzekoa": 6921,
  "\u2581gizakiak": 6922,
  "\u2581mountain": 6923,
  "\u2581notifications": 6924,
  "\u2581samar": 6925,
  "\u2581separately": 6926,
  "nda": 6927,
  "\u2581arrotz": 6928,
  "\u2581mahaigainaren": 6929,
  "\u2581repeat": 6930,
  "\u2581Restart": 6931,
  "\u2581pleasant": 6932,
  "\u2581sagua": 6933,
  "\u2581specification": 6934,
  "\u2581teklaren": 6935,
  "As": 6936,
  "ably": 6937,
  "book": 6938,
  "edit": 6939,
  "\u2581Download": 6940,
  "\u2581Hemendik": 6941,
  "\u2581hartzaile": 6942,
  "\u2581hartzera": 6943,
  "\u2581moon": 6944,
  "\u2581surprise": 6945,
  "\u2581Eskatu": 6946,
  "\u2581Gar": 6947,
  "\u2581Tri": 6948,
  "\u2581balira": 6949,
  "\u2581dadila": 6950,
  "\u2581kode": 6951,
  "\u2581pale": 6952,
  "\u2581village": 6953,
  "\u2581HELBURU": 6954,
  "\u2581Ziurtagiri": 6955,
  "\u2581aldentze": 6956,
  "\u2581andreak": 6957,
  "\u2581direlako": 6958,
  "\u2581pocket": 6959,
  "\u2581preferred": 6960,
  "\u2581Dialogue": 6961,
  "\u2581URIs": 6962,
  "\u2581bestalde": 6963,
  "\u2581ju": 6964,
  "\u2581lanpetuta": 6965,
  "\u2581musu": 6966,
  "\u2581prozesuaren": 6967,
  "\u2581sortutako": 6968,
  "\u2581spend": 6969,
  "\u2581%02": 6970,
  "\u2581Foreground": 6971,
  "\u2581kan": 6972,
  "\u2581searching": 6973,
  "test": 6974,
  "\u2581Behera": 6975,
  "\u2581Ezta": 6976,
  "\u2581grafiko": 6977,
  "\u2581smaller": 6978,
  "\u2581Green": 6979,
  "\u2581caused": 6980,
  "\u2581direktorioan": 6981,
  "\u2581pla": 6982,
  "\u2581posizio": 6983,
  "ski": 6984,
  "\u2581Anna": 6985,
  "\u2581Itsatsi": 6986,
  "\u2581ezabatuko": 6987,
  "\u2581journey": 6988,
  "\u2581Operation": 6989,
  "\u2581geldituko": 6990,
  "\u2581node": 6991,
  "\u2581za": 6992,
  "\u2581Etxeko": 6993,
  "\u2581addition": 6994,
  "\u2581alboan": 6995,
  "\u2581dying": 6996,
  "\u2581hiria": 6997,
  "\u2581nahasi": 6998,
  "command": 6999,
  "rus": 7000,
  "\u2581Barneko": 7001,
  "\u2581Sarea": 7002,
  "\u2581abisu": 7003,
  "\u2581decide": 7004,
  "\u2581ordenagailuaren": 7005,
  "\u2581produce": 7006,
  "\u2581shouldn": 7007,
  "tek": 7008,
  "\u2581Iturburu": 7009,
  "\u2581Match": 7010,
  "\u2581degrees": 7011,
  "\u2581doktorea": 7012,
  "\u2581harik": 7013,
  "\u2581study": 7014,
  "Undo": 7015,
  "\u2581Speak": 7016,
  "sio": 7017,
  "\u2581Aurrebista": 7018,
  "\u2581Return": 7019,
  "\u2581ideal": 7020,
  "tipoak": 7021,
  "\u2581abisua": 7022,
  "\u2581herriaren": 7023,
  "\u2581lortzean": 7024,
  "\u2581recent": 7025,
  "\u2581zientzia": 7026,
  "leiho": 7027,
  "mezua": 7028,
  "\u2581Eguneratu": 7029,
  "\u2581Ihes": 7030,
  "\u2581seinale": 7031,
  "\u2581shop": 7032,
  "administratzaile": 7033,
  "\u2581Bloke": 7034,
  "\u2581guztietatik": 7035,
  "dev": 7036,
  "ette": 7037,
  "\u2581Lagundu": 7038,
  "\u2581Sch": 7039,
  "\u2581counter": 7040,
  "\u2581dantza": 7041,
  "\u2581iraultzen": 7042,
  "\u2581kideak": 7043,
  "\u2581liburutegia": 7044,
  "\u2581makurtu": 7045,
  "\u2581mutilak": 7046,
  "mina": 7047,
  "\u2581Cu": 7048,
  "\u2581Darcy": 7049,
  "\u2581barruko": 7050,
  "\u2581eskubide": 7051,
  "\u2581eskuetan": 7052,
  "\u2581ezberdinak": 7053,
  "\u2581larri": 7054,
  "\u2581negative": 7055,
  "\u2581pen": 7056,
  "\u2581strings": 7057,
  "joko": 7058,
  "new": 7059,
  "\u2581Ezarpenak": 7060,
  "\u2581Gabon": 7061,
  "\u2581Pop": 7062,
  "\u2581UID": 7063,
  "\u2581asmo": 7064,
  "\u2581encrypt": 7065,
  "\u2581Anyway": 7066,
  "\u2581Etxe": 7067,
  "\u2581Waiting": 7068,
  "\u2581bihurtzeko": 7069,
  "\u2581corrupt": 7070,
  "\u2581egoeran": 7071,
  "\u2581sarea": 7072,
  "\u2581tu": 7073,
  "\u2581zulo": 7074,
  "\u2581\u2013": 7075,
  "ad": 7076,
  "ade": 7077,
  "nik": 7078,
  "ontzi": 7079,
  "\u2581Report": 7080,
  "ping": 7081,
  "\u2581Pasahitz": 7082,
  "\u2581Sareta": 7083,
  "\u2581baitzuten": 7084,
  "\u2581gertaerak": 7085,
  "\u2581izu": 7086,
  "\u2581otoitz": 7087,
  "\u2581suitable": 7088,
  "ute": 7089,
  "\u2581aztarnaria": 7090,
  "\u2581gehigarriak": 7091,
  "\u2581jakinarazi": 7092,
  "\u2581manually": 7093,
  "\u2581release": 7094,
  "eraino": 7095,
  "riak": 7096,
  "\u2581Board": 7097,
  "\u2581beso": 7098,
  "\u2581dagoelako": 7099,
  "\u2581lights": 7100,
  "ben": 7101,
  "buruz": 7102,
  "\u2581anywhere": 7103,
  "\u2581horma": 7104,
  "\u2581jarduera": 7105,
  "\u2581priority": 7106,
  "\u2581race": 7107,
  "ay": 7108,
  "\u2581Swann": 7109,
  "\u2581Zero": 7110,
  "\u2581aldatuko": 7111,
  "\u2581remains": 7112,
  "ETARA": 7113,
  "\u2581OS": 7114,
  "\u2581bolumen": 7115,
  "\u2581essence": 7116,
  "\u2581filesystem": 7117,
  "\u2581konektatzen": 7118,
  "\u2581pause": 7119,
  "Previous": 7120,
  "erlazioa": 7121,
  "\u2581Soilik": 7122,
  "\u2581Today": 7123,
  "number": 7124,
  "ui": 7125,
  "\u2581Drive": 7126,
  "\u2581Lady": 7127,
  "\u2581elementuan": 7128,
  "\u2581huh": 7129,
  "\u2581zeuen": 7130,
  "nder": 7131,
  "\u2581Erantsi": 7132,
  "\u2581aktibatu": 7133,
  "\u2581hego": 7134,
  "\u2581jokalaria": 7135,
  "\u2581zaitezte": 7136,
  "\u2581zuriune": 7137,
  "AGE": 7138,
  "ale": 7139,
  "zten": 7140,
  "\u2581Too": 7141,
  "\u2581eragiketak": 7142,
  "\u2581erlijio": 7143,
  "\u2581lotuta": 7144,
  "\u2581member": 7145,
  "\u2581orrian": 7146,
  "zenbakiak": 7147,
  "\u2581Medium": 7148,
  "\u2581Zirkular": 7149,
  "\u2581circle": 7150,
  "\u2581estilo": 7151,
  "\u2581PC": 7152,
  "formatu": 7153,
  "\u2581Errenkada": 7154,
  "\u2581Repeat": 7155,
  "\u2581advanced": 7156,
  "\u2581gaizto": 7157,
  "\u2581kurtsorearen": 7158,
  "\u2581minds": 7159,
  "\u2581wear": 7160,
  "erdi": 7161,
  "\u2581Jokatu": 7162,
  "\u2581geroztik": 7163,
  "\u2581halaber": 7164,
  "\u2581plazer": 7165,
  "\u2581teach": 7166,
  "custom": 7167,
  "etsi": 7168,
  "move": 7169,
  "\u2581abar": 7170,
  "\u2581direct": 7171,
  "\u2581guztietako": 7172,
  "\u2581orokorrak": 7173,
  "kontrola": 7174,
  "\u2581Duke": 7175,
  "\u2581Expresse": 7176,
  "\u2581UPS": 7177,
  "\u2581aplikatu": 7178,
  "\u2581cr": 7179,
  "\u2581hautapen": 7180,
  "\u2581lehenetsiaren": 7181,
  "\u2581smell": 7182,
  "\u2581Grabatu": 7183,
  "\u2581Manage": 7184,
  "\u2581haiei": 7185,
  "\u2581harra": 7186,
  "\u2581identity": 7187,
  "\u2581nabarmen": 7188,
  "\u2581summer": 7189,
  "layers": 7190,
  "rt": 7191,
  "\u2581Chinese": 7192,
  "\u2581Importing": 7193,
  "\u2581Sc": 7194,
  "\u2581bisita": 7195,
  "\u2581etiketak": 7196,
  "\u2581ikonoak": 7197,
  "\u2581itzul": 7198,
  "\u2581landare": 7199,
  "\u2581nitaz": 7200,
  "\u2581visited": 7201,
  "\u2581willing": 7202,
  "\u2581Checking": 7203,
  "\u2581Write": 7204,
  "\u2581XDMCP": 7205,
  "\u2581hilda": 7206,
  "\u2581sum": 7207,
  "\u2581Mother": 7208,
  "\u2581garela": 7209,
  "\u2581gurekin": 7210,
  "\u2581upgrade": 7211,
  "\u2581zorrotz": 7212,
  "\u2581beteta": 7213,
  "\u2581bikote": 7214,
  "\u2581froga": 7215,
  "\u2581thirty": 7216,
  "adib": 7217,
  "agu": 7218,
  "\u2581ahul": 7219,
  "\u2581centre": 7220,
  "\u2581kontatzen": 7221,
  "\u2581nauk": 7222,
  "\u2581gau\u00e7a": 7223,
  "\u2581joined": 7224,
  "\u2581ohe": 7225,
  "back": 7226,
  "\u25810,": 7227,
  "\u2581Egutegi": 7228,
  "\u2581Pavel": 7229,
  "1,": 7230,
  "\u2581etsi": 7231,
  "\u2581urrezko": 7232,
  "\u2581zeudela": 7233,
  "over": 7234,
  "style": 7235,
  "taz": 7236,
  "\u2581Bolumen": 7237,
  "\u2581Richard": 7238,
  "\u2581River": 7239,
  "\u2581burned": 7240,
  "\u2581shook": 7241,
  "\u2581zigor": 7242,
  "\u2581bururatu": 7243,
  "\u2581legea": 7244,
  "\u2581zama": 7245,
  "koadroak": 7246,
  "tel": 7247,
  "\u2581Goi": 7248,
  "\u2581PARTI": 7249,
  "\u2581hartara": 7250,
  "\u2581million": 7251,
  "\u2581noticed": 7252,
  "\u2581zoragarria": 7253,
  "\u2581Zeregina": 7254,
  "\u2581gtk": 7255,
  "\u2581setup": 7256,
  "Move": 7257,
  "ula": 7258,
  "\u2581constant": 7259,
  "\u2581distantzia": 7260,
  "\u2581ezar": 7261,
  "\u2581ikustean": 7262,
  "\u2581promised": 7263,
  "KULARR": 7264,
  "\u2581bertikalki": 7265,
  "\u2581idatzitako": 7266,
  "\u2581infinite": 7267,
  "\u2581sakatuta": 7268,
  "\u2581Tree": 7269,
  "\u2581dwell": 7270,
  "\u2581pressing": 7271,
  "\u25810.0": 7272,
  "\u2581Leo": 7273,
  "\u2581classic": 7274,
  "\u2581mentioned": 7275,
  "pur": 7276,
  "\u2581SE": 7277,
  "\u2581goazen": 7278,
  "\u2581nagusian": 7279,
  "\u2581statusbar": 7280,
  "\u2581workspaces": 7281,
  "\u2581zitzaiola": 7282,
  "cen": 7283,
  "\u2581Low": 7284,
  "\u2581gaua": 7285,
  "\u2581na": 7286,
  "hizkpol": 7287,
  "were": 7288,
  "\u2581Informazioa": 7289,
  "\u2581Mike": 7290,
  "\u2581US": 7291,
  "\u2581maitasun": 7292,
  "\u2581passing": 7293,
  "\u2581translator": 7294,
  "\u2581youth": 7295,
  "Then": 7296,
  "\u2581charged": 7297,
  "\u2581discover": 7298,
  "\u2581themes": 7299,
  "Ni": 7300,
  "Size": 7301,
  "garren": 7302,
  "\u2581Abraham": 7303,
  "\u2581Content": 7304,
  "\u2581adar": 7305,
  "\u2581konfiantza": 7306,
  "\u2581milliseconds": 7307,
  "\u2581star": 7308,
  "\u2581zoriontsu": 7309,
  "\u2581Orrialde": 7310,
  "\u2581Temple": 7311,
  "\u2581erreproduzitzen": 7312,
  "\u2581putting": 7313,
  "emaria": 7314,
  "euskalgnu": 7315,
  "\u2581Pixbuf": 7316,
  "\u2581append": 7317,
  "\u2581be\u00e7ala": 7318,
  "\u2581cells": 7319,
  "\u2581god": 7320,
  "\u2581orientazioa": 7321,
  "\u2581solution": 7322,
  "\u2581Unean": 7323,
  "\u2581risk": 7324,
  "\u2581swap": 7325,
  "Let": 7326,
  "directory": 7327,
  "erreproduzi": 7328,
  "second": 7329,
  "\u2581Appearance": 7330,
  "\u2581Mikel": 7331,
  "\u2581Op": 7332,
  "\u2581Sometimes": 7333,
  "\u2581fitxategirik": 7334,
  "\u2581laguntzeko": 7335,
  "basea": 7336,
  "ob": 7337,
  "\u2581concerned": 7338,
  "\u2581ikonoen": 7339,
  "\u2581nondik": 7340,
  "\u2581osoak": 7341,
  "\u2581political": 7342,
  "\u2581zeharkatu": 7343,
  "ell": 7344,
  "\u2581Ezarpen": 7345,
  "\u2581Introduction": 7346,
  "\u2581barrura": 7347,
  "\u2581deleting": 7348,
  "\u2581faces": 7349,
  "\u2581jabetu": 7350,
  "\u2581koska": 7351,
  "kizun": 7352,
  "\u2581Point": 7353,
  "\u2581civil": 7354,
  "\u2581dituena": 7355,
  "\u2581grabatzen": 7356,
  "\u2581instalatua": 7357,
  "\u2581viewer": 7358,
  "\u2581Mozilla": 7359,
  "\u2581bereizten": 7360,
  "\u2581erregera": 7361,
  "\u2581gas": 7362,
  "\u2581implement": 7363,
  "\u2581stick": 7364,
  "\u2581taught": 7365,
  "\u2581zintzo": 7366,
  "24": 7367,
  "\u2581Mom": 7368,
  "\u2581Sea": 7369,
  "\u2581Zazpi": 7370,
  "\u2581babes": 7371,
  "\u2581beldurrez": 7372,
  "\u2581feed": 7373,
  "\u2581hango": 7374,
  "\u2581igotzen": 7375,
  "\u2581scarce": 7376,
  "\u2581sisteman": 7377,
  "\u2581watching": 7378,
  "pain": 7379,
  "\u2581Artist": 7380,
  "\u2581alboko": 7381,
  "\u2581banako": 7382,
  "\u2581egotzi": 7383,
  "tipoen": 7384,
  "\u2581assigned": 7385,
  "\u2581baliteke": 7386,
  "\u2581berbera": 7387,
  "\u2581bultzatu": 7388,
  "\u2581transfer": 7389,
  "ISO": 7390,
  "oli": 7391,
  "\u2581Colin": 7392,
  "\u2581Score": 7393,
  "\u2581hearing": 7394,
  "\u2581konpondu": 7395,
  "\u2581triste": 7396,
  "vin": 7397,
  "\u2581Gnome": 7398,
  "\u2581bakoitzari": 7399,
  "\u2581bitarteko": 7400,
  "\u2581landu": 7401,
  "azio": 7402,
  "bol": 7403,
  "panela": 7404,
  "\u2581bakean": 7405,
  "\u2581corresponding": 7406,
  "\u2581denda": 7407,
  "\u2581iragazkiak": 7408,
  "\u2581iritzia": 7409,
  "\u2581lanak": 7410,
  "\u2581smoke": 7411,
  "\u2581botoiaz": 7412,
  "\u2581erreproduzitu": 7413,
  "\u2581fabrika": 7414,
  "\u2581wrap": 7415,
  "tasunez": 7416,
  "\u2581Egunkari": 7417,
  "\u2581Sunday": 7418,
  "\u2581cer": 7419,
  "\u2581Bug": 7420,
  "\u2581grina": 7421,
  "\u2581margin": 7422,
  "\u2581rooms": 7423,
  "\u2581z": 7424,
  "\u2581Additional": 7425,
  "\u2581Zabaldu": 7426,
  "\u2581bank": 7427,
  "\u2581bihurtuko": 7428,
  "\u2581ch": 7429,
  "\u2581ezartzea": 7430,
  "\u2581interval": 7431,
  "\u2581requests": 7432,
  "\u2581scene": 7433,
  "\u2581zaigu": 7434,
  "\u2581Jar": 7435,
  "\u2581Neu": 7436,
  "\u2581ball": 7437,
  "\u2581deituko": 7438,
  "\u2581prepared": 7439,
  "\u2581storage": 7440,
  "\u2581Continue": 7441,
  "\u2581HORI": 7442,
  "\u2581Mines": 7443,
  "\u2581oinarrituta": 7444,
  "\u2581ordered": 7445,
  "\u2581picked": 7446,
  "\u2581zeuzkan": 7447,
  "auto": 7448,
  "\u2581Aste": 7449,
  "\u2581Model": 7450,
  "\u2581ga": 7451,
  "\u2581menuko": 7452,
  "\u2581ninduten": 7453,
  "\u2581bright": 7454,
  "\u2581gate": 7455,
  "\u2581iruzkina": 7456,
  "\u2581minimum": 7457,
  "\u2581percentage": 7458,
  "Tira": 7459,
  "UN": 7460,
  "\u2581Botoi": 7461,
  "\u2581Info": 7462,
  "\u2581Musika": 7463,
  "\u2581ebatzi": 7464,
  "\u2581eskola": 7465,
  "\u2581fathers": 7466,
  "\u2581hang": 7467,
  "\u2581nekien": 7468,
  "\u2581Mer": 7469,
  "\u2581Quick": 7470,
  "\u2581abesti": 7471,
  "\u2581bertako": 7472,
  "\u2581cost": 7473,
  "\u2581courage": 7474,
  "\u2581eguneraketa": 7475,
  "\u2581st": 7476,
  "hausgarria": 7477,
  "kia": 7478,
  "\u2581Hamar": 7479,
  "\u2581anderea": 7480,
  "\u2581ateratzeko": 7481,
  "\u2581bought": 7482,
  "\u2581zetorren": 7483,
  "\u2581Mundu": 7484,
  "\u2581berrian": 7485,
  "\u2581egokitu": 7486,
  "\u2581higidura": 7487,
  "\u2581jantzita": 7488,
  "\u2581pertsonalak": 7489,
  "Bidali": 7490,
  "\u2581Berriz": 7491,
  "\u2581Documents": 7492,
  "\u2581Zutabea": 7493,
  "\u2581aplikatzen": 7494,
  "\u2581edges": 7495,
  "\u2581urtean": 7496,
  "\u2581Chat": 7497,
  "\u2581Memo": 7498,
  "\u2581drunk": 7499,
  "\u2581everywhere": 7500,
  "\u2581harreman": 7501,
  "Garbitu": 7502,
  "fu": 7503,
  "ized": 7504,
  "uff": 7505,
  "\u2581design": 7506,
  "\u2581graph": 7507,
  "\u2581handiago": 7508,
  "\u2581immediate": 7509,
  "\u2581luzapena": 7510,
  "\u2581moments": 7511,
  "Ex": 7512,
  "\u2581Kamera": 7513,
  "\u2581PNM": 7514,
  "\u2581Syme": 7515,
  "\u2581Talk": 7516,
  "\u2581anger": 7517,
  "\u2581eskura": 7518,
  "\u2581guard": 7519,
  "\u2581measure": 7520,
  "minute": 7521,
  "\u2581Handik": 7522,
  "\u2581Mahaigaina": 7523,
  "\u2581bizkorra": 7524,
  "\u2581erreproduzitze": 7525,
  "\u2581streets": 7526,
  "\u2581Printing": 7527,
  "\u2581arauak": 7528,
  "\u2581karga": 7529,
  "\u2581zatoz": 7530,
  "\u2581zeinaren": 7531,
  "\u2581\"%1\"": 7532,
  "\u25812005": 7533,
  "\u2581Italian": 7534,
  "\u2581absolutua": 7535,
  "\u2581animazioa": 7536,
  "\u2581kiss": 7537,
  "\u2581maskara": 7538,
  "\u2581zedin": 7539,
  "/~": 7540,
  "piece": 7541,
  "\u2581dare": 7542,
  "\u2581pal": 7543,
  "iv": 7544,
  "\u2581Mc": 7545,
  "\u2581Scrooge": 7546,
  "\u2581Sign": 7547,
  "\u2581adibidea": 7548,
  "\u2581arrakasta": 7549,
  "Sun": 7550,
  "Zu": 7551,
  "hur": 7552,
  "nahi": 7553,
  "\u2581Didn": 7554,
  "\u2581Ke": 7555,
  "\u2581aire": 7556,
  "\u2581brain": 7557,
  "\u2581liburua": 7558,
  "\u2581zeinen": 7559,
  "TIK": 7560,
  "\u2581eskualde": 7561,
  "\u2581integer": 7562,
  "\u2581jarrera": 7563,
  "\u2581mountains": 7564,
  "\u2581orientation": 7565,
  "\u2581writable": 7566,
  "osa": 7567,
  "window": 7568,
  "\u2581Marraztu": 7569,
  "\u2581contained": 7570,
  "\u2581phrase": 7571,
  "\u2581policy": 7572,
  "\u2581urdina": 7573,
  "Ar": 7574,
  "iCal": 7575,
  "\u2581Dei": 7576,
  "\u2581Paleta": 7577,
  "\u2581elektroniko": 7578,
  "\u2581jaiki": 7579,
  "\u2581multzoa": 7580,
  "\u2581topo": 7581,
  "\u2581Complete": 7582,
  "\u2581Zirilikoa": 7583,
  "\u2581formats": 7584,
  "\u2581gaixo": 7585,
  "\u2581haietako": 7586,
  "\u2581recommended": 7587,
  "\u2581stroke": 7588,
  "ika": 7589,
  "\u2581Berehala": 7590,
  "\u2581Gaizki": 7591,
  "\u2581Geruza": 7592,
  "\u2581pertsonalizatu": 7593,
  "ore": 7594,
  "zip": 7595,
  "\u2581Length": 7596,
  "\u2581horizontalki": 7597,
  "\u2581poliki": 7598,
  "\u2581Azpi": 7599,
  "\u2581Secondary": 7600,
  "\u2581Used": 7601,
  "\u2581andere\u00f1oa": 7602,
  "\u2581hiltzeko": 7603,
  "\u2581ixteko": 7604,
  "\u2581lotsa": 7605,
  "\u2581publiko": 7606,
  "has": 7607,
  "\u2581behaviour": 7608,
  "\u2581compressed": 7609,
  "\u2581fr": 7610,
  "\u2581keeping": 7611,
  "\u2581resources": 7612,
  "\u2581txori": 7613,
  "\u2581GBU": 7614,
  "\u2581arab": 7615,
  "\u2581asleep": 7616,
  "\u2581baitago": 7617,
  "\u2581txakur": 7618,
  "\u2581watched": 7619,
  "bert": 7620,
  "eria": 7621,
  "\u2581Kontaktuak": 7622,
  "\u2581helbideak": 7623,
  "\u2581heltzen": 7624,
  "\u2581jabetza": 7625,
  "\u2581pull": 7626,
  "lock": 7627,
  "\u2581Blank": 7628,
  "\u2581filma": 7629,
  "\u2581Goiburu": 7630,
  "\u2581claimed": 7631,
  "\u2581propietatea": 7632,
  "\u2581txikien": 7633,
  "\u2581arrazoirik": 7634,
  "\u2581beneath": 7635,
  "\u2581besteen": 7636,
  "\u2581companies": 7637,
  "\u2581ikur": 7638,
  "\u2581irekitako": 7639,
  "\u2581proud": 7640,
  "\u2581spring": 7641,
  "\u2581zinela": 7642,
  "iera": 7643,
  "rengandik": 7644,
  "\u2581Something": 7645,
  "\u2581buddy": 7646,
  "\u2581mezurik": 7647,
  "\u2581Galdera": 7648,
  "\u2581bistaratzean": 7649,
  "\u2581friendship": 7650,
  "\u2581languages": 7651,
  "\u2581mutila": 7652,
  "\u2581pixeletan": 7653,
  "cl": 7654,
  "\u2581Aaron": 7655,
  "\u2581Security": 7656,
  "\u2581bytes": 7657,
  "\u2581ezkutatzeko": 7658,
  "\u2581para": 7659,
  "\u2581puta": 7660,
  "\u2581sensible": 7661,
  "\u2581zituztela": 7662,
  "rea": 7663,
  "\u2581Telefono": 7664,
  "\u2581audioa": 7665,
  "\u2581bederen": 7666,
  "\u2581copies": 7667,
  "\u2581eztabaida": 7668,
  "\u2581fly": 7669,
  "\u2581iezadazu": 7670,
  "\u2581modeloa": 7671,
  "%%": 7672,
  "\u2581Cross": 7673,
  "\u2581Zehaztutako": 7674,
  "\u2581goaz": 7675,
  "\u2581permitted": 7676,
  "\u2581sensitive": 7677,
  "...]": 7678,
  "area": 7679,
  "\u2581War": 7680,
  "AL": 7681,
  "\u2581AI": 7682,
  "\u2581Binding": 7683,
  "\u2581Bizi": 7684,
  "\u2581accelerator": 7685,
  "\u2581discovered": 7686,
  "\u2581haize": 7687,
  "\u2581UI": 7688,
  "\u2581bizitzaren": 7689,
  "\u2581changing": 7690,
  "\u2581goitik": 7691,
  "\u2581nagusiak": 7692,
  "\u2581dakar": 7693,
  "\u2581esnatu": 7694,
  "\u2581metro": 7695,
  "\u2581midst": 7696,
  "\u2581waited": 7697,
  "\u2581Ahaztu": 7698,
  "\u2581Aldaketak": 7699,
  "\u2581Garai": 7700,
  "\u2581Multiple": 7701,
  "\u2581borrokan": 7702,
  "\u2581exception": 7703,
  "\u2581foreground": 7704,
  "\u2581premia": 7705,
  "\u2581split": 7706,
  "tarren": 7707,
  "\u2581Internal": 7708,
  "\u2581Umearen": 7709,
  "\u2581Zuek": 7710,
  "\u2581categories": 7711,
  "\u2581dagoena": 7712,
  "\u2581divine": 7713,
  "\u2581gurasoa": 7714,
  "\u2581metodo": 7715,
  "\u2581pulled": 7716,
  "\u2581throughout": 7717,
  "\u2581Displays": 7718,
  "\u2581Gehienezko": 7719,
  "\u2581ahoa": 7720,
  "\u2581conduct": 7721,
  "\u2581fruit": 7722,
  "\u2581gudu": 7723,
  "\u2581jaunaren": 7724,
  "\u2581marry": 7725,
  "bete": 7726,
  "\u2581Eguraldia": 7727,
  "\u2581Frank": 7728,
  "\u2581affairs": 7729,
  "\u2581completion": 7730,
  "\u2581dien": 7731,
  "\u2581digital": 7732,
  "\u2581erabilerraz": 7733,
  "\u2581ikaragarri": 7734,
  "\u2581jauzi": 7735,
  "gakoak": 7736,
  "peko": 7737,
  "\u2581berau": 7738,
  "\u2581failure": 7739,
  "irudia": 7740,
  "ura": 7741,
  "\u2581adimen": 7742,
  "\u2581hall": 7743,
  "\u2581interested": 7744,
  "\u2581listening": 7745,
  "\u2581pentsatzea": 7746,
  "\u2581ziurtatu": 7747,
  "\u2581Contrast": 7748,
  "\u2581Removing": 7749,
  "\u2581jarraituko": 7750,
  "\u2581kopiatzeko": 7751,
  "\u2581lehenespenez": 7752,
  "\u2581vain": 7753,
  "\u2581zezan": 7754,
  "local": 7755,
  "\u2581Ostalari": 7756,
  "\u2581abstract": 7757,
  "\u2581baitut": 7758,
  "\u2581naturally": 7759,
  "\u2581pop": 7760,
  "\u2581swear": 7761,
  "De": 7762,
  "tak": 7763,
  "\u00e9c": 7764,
  "\u2581Zerbitzariak": 7765,
  "\u2581cat": 7766,
  "\u2581lokal": 7767,
  "\u2581mutiko": 7768,
  "tasa": 7769,
  "\u2581Blokeak": 7770,
  "\u2581House": 7771,
  "\u2581Sample": 7772,
  "\u2581Zakarrontzia": 7773,
  "\u2581cein": 7774,
  "\u2581explained": 7775,
  "\u2581inplementatuta": 7776,
  "\u2581shame": 7777,
  "\u2581surprised": 7778,
  "\u2581fitxan": 7779,
  "\u2581panele": 7780,
  "2)": 7781,
  "host": 7782,
  "lehenetsia": 7783,
  "\u2581Aurkitu": 7784,
  "\u2581IPv": 7785,
  "\u2581bizitzan": 7786,
  "\u2581debug": 7787,
  "\u2581hastean": 7788,
  "\u2581lehengo": 7789,
  "\u2581smooth": 7790,
  "score": 7791,
  "\u2581Est": 7792,
  "\u2581Monsieur": 7793,
  "\u2581aldia": 7794,
  "\u2581gaztea": 7795,
  "\u2581gehi": 7796,
  "ros": 7797,
  "zerbitzari": 7798,
  "\u2581Ahal": 7799,
  "\u2581Ana": 7800,
  "\u2581Jakinarazpen": 7801,
  "\u2581Ten": 7802,
  "\u2581desira": 7803,
  "\u2581laburra": 7804,
  "\u2581locate": 7805,
  "\u2581mention": 7806,
  "\u2581usain": 7807,
  "\u2581%1.": 7808,
  "\u2581detected": 7809,
  "\u2581egoeraren": 7810,
  "\u2581bideoa": 7811,
  "\u2581etortzeko": 7812,
  "\u2581separated": 7813,
  "US": 7814,
  "ear": 7815,
  "\u00e1n": 7816,
  "\u2581Force": 7817,
  "\u2581multimedia": 7818,
  "\u2581zenidan": 7819,
  "non": 7820,
  "\u2581Target": 7821,
  "\u2581accessibility": 7822,
  "\u2581zarata": 7823,
  "Redo": 7824,
  "ST": 7825,
  "gela": 7826,
  "\u2581ALL": 7827,
  "\u2581England": 7828,
  "\u2581Tro": 7829,
  "\u2581astiro": 7830,
  "\u2581epaile": 7831,
  "\u2581eska": 7832,
  "\u2581izatera": 7833,
  "\u2581obtain": 7834,
  "\u2581pan": 7835,
  "\u2581shoulder": 7836,
  "Password": 7837,
  "Time": 7838,
  "ou": 7839,
  "\u2581akats": 7840,
  "\u2581belarri": 7841,
  "\u2581buruzagi": 7842,
  "irudi": 7843,
  "\u2581Nahikoa": 7844,
  "\u2581algorithm": 7845,
  "\u2581bereizita": 7846,
  "\u2581crime": 7847,
  "\u2581eramatea": 7848,
  "\u2581floating": 7849,
  "\u2581marko": 7850,
  "\u2581oinaze": 7851,
  "\u2581wished": 7852,
  "16": 7853,
  "Folder": 7854,
  "encil": 7855,
  "\u2581Konexioa": 7856,
  "\u2581Konfigurazio": 7857,
  "\u2581delakoan": 7858,
  "\u2581kor": 7859,
  "Forward": 7860,
  "Where": 7861,
  "titu": 7862,
  "\u2581AS": 7863,
  "\u2581MPEG": 7864,
  "\u2581abantaila": 7865,
  "\u2581com": 7866,
  "\u2581pixelak": 7867,
  "\u2581API": 7868,
  "\u2581Jacob": 7869,
  "\u2581Notification": 7870,
  "\u2581PO": 7871,
  "\u2581garaian": 7872,
  "\u2581ibai": 7873,
  "\u2581iron": 7874,
  "\u2581printze": 7875,
  "\u2581urre": 7876,
  "\u2581zutenean": 7877,
  "hasierako": 7878,
  "\u2581Falls": 7879,
  "\u2581Passwords": 7880,
  "\u2581Saul": 7881,
  "\u2581batentzat": 7882,
  "\u2581kentzean": 7883,
  "\u2581nintzateke": 7884,
  "\u2581prc": 7885,
  "\u2581zeraman": 7886,
  "dor": 7887,
  "\u2581ondotik": 7888,
  ");": 7889,
  "zka": 7890,
  "\u2581Taldea": 7891,
  "\u2581agreed": 7892,
  "\u2581randomly": 7893,
  "\u2581wishes": 7894,
  "most": 7895,
  "tzearen": 7896,
  "\u2581ehunekoa": 7897,
  "\u2581mugimenduak": 7898,
  "\u2581pistola": 7899,
  "\u2581spool": 7900,
  "\u2581Editorea": 7901,
  "\u2581Module": 7902,
  "\u2581Special": 7903,
  "\u2581ergel": 7904,
  "\u2581eusten": 7905,
  "\u2581fallen": 7906,
  "\u2581mounted": 7907,
  "\u2581ICQ": 7908,
  "\u2581Passphrase": 7909,
  "\u2581commanded": 7910,
  "\u2581favour": 7911,
  "\u2581finds": 7912,
  "ern": 7913,
  "\u2581hedatu": 7914,
  "\u2581skin": 7915,
  "\u2581inguratu": 7916,
  "\u2581liburutegi": 7917,
  "\u2581pauso": 7918,
  "\u2581propietate": 7919,
  "\u2581zenuela": 7920,
  "Aldatu": 7921,
  "ual": 7922,
  "\u2581Assistant": 7923,
  "\u2581Bal": 7924,
  "\u2581Ser": 7925,
  "\u2581ebaki": 7926,
  "\u2581morroia": 7927,
  "\u2581pertsonala": 7928,
  "\u2581tall": 7929,
  "house": 7930,
  "pel": 7931,
  "takoa": 7932,
  "wood": 7933,
  "\u2581Hortaz": 7934,
  "\u2581Zorionak": 7935,
  "\u2581highest": 7936,
  "\u2581ixtean": 7937,
  "\u2581leihoen": 7938,
  "\u2581mahaigainean": 7939,
  "\u2581samarra": 7940,
  "itate": 7941,
  "\u2581Duela": 7942,
  "\u2581Par": 7943,
  "\u2581bereziak": 7944,
  "\u2581dutena": 7945,
  "\u2581ekarriko": 7946,
  "\u2581haiekin": 7947,
  "\u2581ikusita": 7948,
  "\u2581pairs": 7949,
  "Bost": 7950,
  "\u2581Cache": 7951,
  "\u2581hartatik": 7952,
  "\u2581inner": 7953,
  "\u2581success": 7954,
  "beste": 7955,
  "credits": 7956,
  "\u2581'%2$": 7957,
  "\u2581Egilea": 7958,
  "\u2581arropa": 7959,
  "\u2581delivered": 7960,
  "\u2581langile": 7961,
  "\u2581lovely": 7962,
  "\u2581onartzeko": 7963,
  "ft": 7964,
  "kodeketa": 7965,
  "\u2581Say": 7966,
  "\u2581azalpen": 7967,
  "\u2581definizioa": 7968,
  "\u2581edaten": 7969,
  "\u2581eskatutako": 7970,
  "\u2581logged": 7971,
  "\u2581osagaia": 7972,
  "read": 7973,
  "\u2581EGIA": 7974,
  "\u2581Pattern": 7975,
  "\u2581ahalmen": 7976,
  "\u2581areago": 7977,
  "\u2581bo": 7978,
  "\u2581commit": 7979,
  "\u2581herriak": 7980,
  "\u2581sing": 7981,
  "Ah": 7982,
  "app": 7983,
  "\u2581Helburuko": 7984,
  "\u2581badaki": 7985,
  "\u2581dry": 7986,
  "\u2581minak": 7987,
  "\u2581officer": 7988,
  "\u2581oinarria": 7989,
  "\u2581possession": 7990,
  "\u2581Filename": 7991,
  "\u2581Mme": 7992,
  "\u2581Opening": 7993,
  "\u2581bitch": 7994,
  "\u2581combination": 7995,
  "\u2581copyright": 7996,
  "\u2581finding": 7997,
  "\u2581hutsetan": 7998,
  "\u2581whatsthis": 7999,
  "kari": 8000,
  "\u00e1c": 8001,
  "\u2581Clock": 8002,
  "\u2581delarik": 8003,
  "\u2581ero": 8004,
  "\u2581parsing": 8005,
  "\u2581thread": 8006,
  "\u00e7\u00e1t": 8007,
  "\u2581Pasahitzak": 8008,
  "\u2581Pu": 8009,
  "\u2581accident": 8010,
  "\u2581estutu": 8011,
  "cho": 8012,
  "\u2581Edge": 8013,
  "\u2581argibidea": 8014,
  "\u2581dressed": 8015,
  "\u2581enkriptatuta": 8016,
  "\u2581honetaz": 8017,
  "\u2581kargu": 8018,
  "\u2581semeak": 8019,
  "Fu": 8020,
  "\u2581Calculate": 8021,
  "\u2581Direktorio": 8022,
  "\u2581esklabo": 8023,
  "\u2581hiltzea": 8024,
  "\u2581ibiltzea": 8025,
  "\u2581izendatu": 8026,
  "\u2581scan": 8027,
  "ally": 8028,
  "lerroan": 8029,
  "proiektua": 8030,
  "\u2581Lehenespenez": 8031,
  "\u2581hobespenen": 8032,
  "\u2581imagination": 8033,
  "\u2581loud": 8034,
  "\u2581posibleak": 8035,
  "\u2581zarenean": 8036,
  "\u2581zenez": 8037,
  "based": 8038,
  "bl": 8039,
  "\u2581intended": 8040,
  "Linux": 8041,
  "\u2581inondik": 8042,
  "\u2581salto": 8043,
  "oz": 8044,
  "\u2581Fort": 8045,
  "\u2581adibide": 8046,
  "\u2581desk": 8047,
  "\u2581gakoaren": 8048,
  "\u2581izandako": 8049,
  "\u2581priests": 8050,
  "\u2581Irabazi": 8051,
  "\u2581anitz": 8052,
  "\u2581consequently": 8053,
  "\u2581lodi": 8054,
  "\u2581prestatzeko": 8055,
  "\u2581topic": 8056,
  "txoak": 8057,
  "\u2581Propietateak": 8058,
  "\u2581frogatu": 8059,
  "\u2581scared": 8060,
  "\u2581zaizkio": 8061,
  "Send": 8062,
  "\u2581Niri": 8063,
  "\u2581Win": 8064,
  "\u2581aitortu": 8065,
  "\u2581aukeratzeko": 8066,
  "\u2581eskuratzeko": 8067,
  "\u2581festa": 8068,
  "\u2581jokalariak": 8069,
  "\u2581kontsulta": 8070,
  "\u2581natura": 8071,
  "\u2581Florent": 8072,
  "\u2581Nobody": 8073,
  "\u2581allocate": 8074,
  "\u2581aside": 8075,
  "\u2581lauko": 8076,
  "\u2581markoa": 8077,
  "\u2581osa": 8078,
  "\u2581replaced": 8079,
  "\u2581segidan": 8080,
  "\u2581trade": 8081,
  "\u2581txartel": 8082,
  "cap": 8083,
  "\u2581Kategoria": 8084,
  "\u2581eraginez": 8085,
  "\u2581estali": 8086,
  "\u2581hung": 8087,
  "\u2581zaindu": 8088,
  "\u2581zikin": 8089,
  "Left": 8090,
  "ntzi": 8091,
  "retara": 8092,
  "\u2581Hasteko": 8093,
  "\u2581Merge": 8094,
  "\u2581happening": 8095,
  "\u2581jarraitzeko": 8096,
  "\u2581laughing": 8097,
  "\u2581sarritan": 8098,
  "\u2581stage": 8099,
  "\u2581tamainaz": 8100,
  "\u2581Andy": 8101,
  "\u2581Blu": 8102,
  "\u2581Single": 8103,
  "14": 8104,
  "config": 8105,
  "\u2581Apple": 8106,
  "\u2581Va": 8107,
  "\u2581lehena": 8108,
  "\u2581miles": 8109,
  "\u2581obra": 8110,
  "\u2581screensaver": 8111,
  "\u2581asmoz": 8112,
  "\u2581atseden": 8113,
  "\u2581banintz": 8114,
  "\u2581garbia": 8115,
  "\u2581hartako": 8116,
  "\u2581hospital": 8117,
  "\u2581puntuak": 8118,
  "lerroko": 8119,
  "lis": 8120,
  "point": 8121,
  "\u2581Hiztegia": 8122,
  "\u2581Irteerako": 8123,
  "\u2581Mat": 8124,
  "\u2581Oraintxe": 8125,
  "\u2581eguiten": 8126,
  "\u2581encountered": 8127,
  "\u2581karpeten": 8128,
  "Gadu": 8129,
  "fitxategian": 8130,
  "mini": 8131,
  "\u2581Nice": 8132,
  "\u2581berezko": 8133,
  "\u2581buelta": 8134,
  "\u2581gathered": 8135,
  "\u2581grafikoaren": 8136,
  "\u2581heat": 8137,
  "etxe": 8138,
  "\u2581Berri": 8139,
  "\u2581Koloreak": 8140,
  "\u2581momentu": 8141,
  "ach": 8142,
  "une": 8143,
  "\u2581Accessibility": 8144,
  "\u2581Horretarako": 8145,
  "\u2581Human": 8146,
  "\u2581Russian": 8147,
  "\u2581Skip": 8148,
  "\u2581aipatzen": 8149,
  "\u2581bideoaren": 8150,
  "\u2581flowers": 8151,
  "\u2581honey": 8152,
  "\u2581mantendu": 8153,
  "Or": 8154,
  "ever": 8155,
  "\u2581Mel": 8156,
  "\u2581Park": 8157,
  "\u2581hitzik": 8158,
  "\u2581idatzia": 8159,
  "\u2581opportunity": 8160,
  "\u2581salbatu": 8161,
  "\u2581winter": 8162,
  "eskema": 8163,
  "\u2581antzinako": 8164,
  "\u2581dir": 8165,
  "\u2581lukete": 8166,
  "\u2581marble": 8167,
  "IS": 8168,
  "\u2581Rate": 8169,
  "\u2581apartment": 8170,
  "\u2581justizia": 8171,
  "\u2581lapurtu": 8172,
  "\u2581ontzia": 8173,
  "van": 8174,
  "\u2581Photo": 8175,
  "\u2581easier": 8176,
  "\u2581esportatu": 8177,
  "\u2581ezpain": 8178,
  "\u2581izatearen": 8179,
  "\u2581ohore": 8180,
  "\u2581zerbitzarira": 8181,
  "\u00d7": 8182,
  "\u2581Normala": 8183,
  "\u2581methods": 8184,
  "\u2581wake": 8185,
  "Mac": 8186,
  "\u2581Besides": 8187,
  "\u2581batengatik": 8188,
  "\u2581beterik": 8189,
  "\u2581notify": 8190,
  "\u2581tongue": 8191,
  "\u2581trans": 8192,
  "\u2581txantiloia": 8193,
  "tzan": 8194,
  "\u2581PUZaren": 8195,
  "\u2581Prozesu": 8196,
  "\u2581eskualdi": 8197,
  "\u2581gordeta": 8198,
  "\u2581zalantza": 8199,
  "hal": 8200,
  "ight": 8201,
  "\u2581astindu": 8202,
  "\u2581diezu": 8203,
  "\u2581im": 8204,
  "\u2581island": 8205,
  "\u2581practical": 8206,
  "\u2581Ch": 8207,
  "\u2581Gr": 8208,
  "\u2581Sei": 8209,
  "\u2581advice": 8210,
  "\u2581balance": 8211,
  "\u2581bistaratzea": 8212,
  "\u2581gehienetan": 8213,
  "\u2581locally": 8214,
  "\u2581solid": 8215,
  "\u2581utz": 8216,
  "Hasi": 8217,
  "\u2581azkeneko": 8218,
  "\u2581ohorea": 8219,
  "GenericName": 8220,
  "level": 8221,
  "\u2581Clutter": 8222,
  "\u2581Eraiki": 8223,
  "\u2581Semea": 8224,
  "\u2581bazaude": 8225,
  "\u2581diozun": 8226,
  "\u2581inhabitants": 8227,
  "\u2581opari": 8228,
  "\u2581powerful": 8229,
  "\u2581dutenean": 8230,
  "\u2581emakumea": 8231,
  "\u2581galde": 8232,
  "\u2581inporta": 8233,
  "Izena": 8234,
  "puntu": 8235,
  "zerbitzaria": 8236,
  "zerrendan": 8237,
  "\u2581Jende": 8238,
  "\u2581specifies": 8239,
  "\u2581versions": 8240,
  "\u2581worst": 8241,
  "Busy": 8242,
  "shi": 8243,
  "tzak": 8244,
  "\u2581Islands": 8245,
  "\u2581Pertsona": 8246,
  "\u2581Titulua": 8247,
  "\u2581expand": 8248,
  "\u2581grafikoa": 8249,
  "\u2581ikonoaren": 8250,
  "\u2581mintzo": 8251,
  "gram": 8252,
  "\u2581Extended": 8253,
  "\u2581Wacom": 8254,
  "\u2581bezeroa": 8255,
  "\u2581daitezen": 8256,
  "\u2581popular": 8257,
  "\u2581segur": 8258,
  "URE": 8259,
  "ano": 8260,
  "ct": 8261,
  "nd": 8262,
  "pt": 8263,
  "\u2581Den": 8264,
  "\u2581Guk": 8265,
  "\u2581bilatzea": 8266,
  "\u2581brightness": 8267,
  "\u2581console": 8268,
  "\u2581fighting": 8269,
  "\u2581hauei": 8270,
  "\u2581jarrai": 8271,
  "\u2581series": 8272,
  "\u2581wastebasket": 8273,
  "\u2581worthy": 8274,
  "\u2581zutabeak": 8275,
  "Bat": 8276,
  "gabeko": 8277,
  "mes": 8278,
  "\u2581'%1": 8279,
  "\u2581Erro": 8280,
  "\u2581Haien": 8281,
  "\u2581ahizpa": 8282,
  "\u2581er": 8283,
  "\u2581erabilita": 8284,
  "lak": 8285,
  "\u2581Jaurti": 8286,
  "\u2581Simon": 8287,
  "\u2581attachments": 8288,
  "\u2581bilatzean": 8289,
  "\u2581community": 8290,
  "\u2581crossed": 8291,
  "\u2581equals": 8292,
  "\u2581eske": 8293,
  "\u2581halaxe": 8294,
  "\u2581unsupported": 8295,
  "\u2581Flip": 8296,
  "\u2581Sin": 8297,
  "\u2581aukeratzen": 8298,
  "\u2581birth": 8299,
  "\u2581countries": 8300,
  "\u2581indicate": 8301,
  "\u2581indicator": 8302,
  "\u2581jarraitzea": 8303,
  "\u2581senses": 8304,
  "\u2581turns": 8305,
  "\u2581zauden": 8306,
  "Come": 8307,
  "\u2581Jainkoari": 8308,
  "\u2581Palm": 8309,
  "\u2581arriskutsua": 8310,
  "\u2581bake": 8311,
  "\u2581dezala": 8312,
  "\u2581dizkizut": 8313,
  "\u2581imported": 8314,
  "\u2581komeni": 8315,
  "\u2581opponent": 8316,
  "uta": 8317,
  "\u25818.": 8318,
  "\u2581Abisua": 8319,
  "\u2581hedatua": 8320,
  "\u2581je": 8321,
  "\u2581nabil": 8322,
  "\u2581thick": 8323,
  "Text": 8324,
  "guztira": 8325,
  "\u2581Zatitu": 8326,
  "\u2581Zuen": 8327,
  "\u2581handitu": 8328,
  "\u2581maiuskulak": 8329,
  "\u2581motorra": 8330,
  "\u2581refuse": 8331,
  "\u2581ride": 8332,
  "\u2581Support": 8333,
  "\u2581arduratu": 8334,
  "\u2581gailuaren": 8335,
  "\u2581gift": 8336,
  "\u2581sacrifice": 8337,
  "\u2581touched": 8338,
  "num": 8339,
  "zaharkitua": 8340,
  "\u2581eremuak": 8341,
  "\u2581gelara": 8342,
  "\u2581observe": 8343,
  "ratzen": 8344,
  "\u2581Central": 8345,
  "\u2581Client": 8346,
  "\u2581Delay": 8347,
  "\u2581Puntu": 8348,
  "\u2581accepted": 8349,
  "\u2581guztiekin": 8350,
  "\u2581sekuentzia": 8351,
  "\u2581Battery": 8352,
  "\u2581Indicates": 8353,
  "\u2581desberdinak": 8354,
  "\u2581diagrama": 8355,
  "\u2581negozio": 8356,
  "\u2581qua": 8357,
  "%2$": 8358,
  "\u2581Coordinate": 8359,
  "\u2581Generate": 8360,
  "\u2581birds": 8361,
  "\u2581exekutatzean": 8362,
  "\u2581inter": 8363,
  "\u2581zelarik": 8364,
  ".250": 8365,
  "ges": 8366,
  "\u2581erraiten": 8367,
  "\u2581kargatzea": 8368,
  "\u2581net": 8369,
  "\u2581pisu": 8370,
  "\u2581tokian": 8371,
  "DOC": 8372,
  "ezarpenak": 8373,
  "natu": 8374,
  "\u2581del": 8375,
  "\u2581gizakia": 8376,
  "\u2581express": 8377,
  "\u2581gaiztoa": 8378,
  "\u2581equally": 8379,
  "\u2581grown": 8380,
  "\u2581philosophy": 8381,
  "Kaixo": 8382,
  "MUGA": 8383,
  "\u2581FILE": 8384,
  "\u2581Gainerako": 8385,
  "\u2581Mag": 8386,
  "\u2581j": 8387,
  "Enable": 8388,
  "Ezin": 8389,
  "orria": 8390,
  "\u2581Eskailera": 8391,
  "\u2581botoiaren": 8392,
  "\u2581desberdin": 8393,
  "\u2581esanda": 8394,
  "\u2581hilketa": 8395,
  "\u2581sarrerak": 8396,
  "\u2581soldier": 8397,
  "alde": 8398,
  "ef": 8399,
  "zabal": 8400,
  "\u2581Controls": 8401,
  "\u2581Eliza": 8402,
  "\u2581bag": 8403,
  "\u2581grace": 8404,
  "\u2581irabazten": 8405,
  "\u2581kolpe": 8406,
  "\u2581legez": 8407,
  "\u2581luzeegia": 8408,
  "\u2581nirea": 8409,
  "\u2581tip": 8410,
  "pan": 8411,
  "reg": 8412,
  "\u2581AIM": 8413,
  "\u2581Ala": 8414,
  "\u2581Bay": 8415,
  "\u2581daitekeela": 8416,
  "\u2581definizio": 8417,
  "\u2581genero": 8418,
  "\u2581selector": 8419,
  "\u2581spacing": 8420,
  "\u2581token": 8421,
  "\u2581urtez": 8422,
  "\u2581zinez": 8423,
  "\u2581Grand": 8424,
  "\u2581Muga": 8425,
  "\u2581Perry": 8426,
  "\u2581indicates": 8427,
  "\u2581pity": 8428,
  "ARY": 8429,
  "server": 8430,
  "\u25812000": 8431,
  "\u2581Abiadura": 8432,
  "\u2581Bennet": 8433,
  "\u2581angelua": 8434,
  "\u2581badirudi": 8435,
  "\u2581barkatu": 8436,
  "\u2581birbana": 8437,
  "\u2581dudarik": 8438,
  "\u2581guide": 8439,
  "\u2581izugarria": 8440,
  "etiketa": 8441,
  "gune": 8442,
  "\u2581Esp": 8443,
  "\u2581dust": 8444,
  "\u2581iristean": 8445,
  "\u2581kinds": 8446,
  "\u2581seguruan": 8447,
  "\u2581shoulders": 8448,
  "\u2581verify": 8449,
  "\u2581zerbitzaritik": 8450,
  "Color": 8451,
  "HTML": 8452,
  "tzeak": 8453,
  "\u2581Actions": 8454,
  "\u2581Follow": 8455,
  "\u2581rendering": 8456,
  "\u2581threshold": 8457,
  "Orain": 8458,
  "ule": 8459,
  "\u2581Basic": 8460,
  "\u2581Category": 8461,
  "\u2581Jordan": 8462,
  "\u2581didan": 8463,
  "\u2581estatistikak": 8464,
  "\u2581extract": 8465,
  "iar": 8466,
  "ikus": 8467,
  "year": 8468,
  "\u2581Western": 8469,
  "\u2581pixbuf": 8470,
  "Aurreko": 8471,
  "win": 8472,
  "\u2581PDA": 8473,
  "\u2581eranskin": 8474,
  "\u2581modura": 8475,
  "\u2581welcome": 8476,
  "\u2581UNIX": 8477,
  "\u2581Valgrind": 8478,
  "\u2581garbitzen": 8479,
  "\u2581weren": 8480,
  "Inportatu": 8481,
  "ung": 8482,
  "\u2581Roll": 8483,
  "\u2581buruak": 8484,
  "\u2581panels": 8485,
  "\u2581spell": 8486,
  "onek": 8487,
  "\u2581Eremu": 8488,
  "\u2581ito": 8489,
  "\u2581urruti": 8490,
  "ora": 8491,
  "\u2581Azkena": 8492,
  "\u2581Pete": 8493,
  "\u2581beraiek": 8494,
  "\u2581ipar": 8495,
  "\u2581manners": 8496,
  "\u2581nahitaez": 8497,
  "\u2581truly": 8498,
  "\u2581vertically": 8499,
  "\u2581views": 8500,
  "Erabiltzaile": 8501,
  "When": 8502,
  "\u2581Accounts": 8503,
  "\u2581Zi": 8504,
  "\u2581arrive": 8505,
  "\u2581dituzue": 8506,
  "\u2581fail": 8507,
  "\u2581fe": 8508,
  "\u2581military": 8509,
  "\u2581onartuko": 8510,
  "\u2581taularen": 8511,
  "fitxategiaren": 8512,
  "system": 8513,
  "txu": 8514,
  "\u2581Etxera": 8515,
  "\u2581esana": 8516,
  "\u2581eskuratzean": 8517,
  "\u2581faltsu": 8518,
  "\u2581materia": 8519,
  "\u2581mercy": 8520,
  "\u2581ordurako": 8521,
  "\u2581timeout": 8522,
  "nal": 8523,
  "\u2581Burn": 8524,
  "\u2581Egon": 8525,
  "\u2581depends": 8526,
  "\u2581hauetako": 8527,
  "\u2581lukeen": 8528,
  "\u2581marraztu": 8529,
  "\u2581rolls": 8530,
  "\u2581tags": 8531,
  "\u2581zuenez": 8532,
  "Gu": 8533,
  "\u2581Code": 8534,
  "\u2581Erlojua": 8535,
  "\u2581Normalean": 8536,
  "\u2581kontsola": 8537,
  "\u2581supply": 8538,
  "An": 8539,
  "\u2581MAPI": 8540,
  "\u2581Norbait": 8541,
  "\u2581Pass": 8542,
  "\u2581Pine": 8543,
  "\u2581biltegia": 8544,
  "\u2581dituk": 8545,
  "\u2581eran": 8546,
  "\u2581exact": 8547,
  "\u2581ice": 8548,
  "\u2581libera": 8549,
  "\u2581onik": 8550,
  "\u2581products": 8551,
  "\u2581sakatzean": 8552,
  "\u2581zoriona": 8553,
  "SS": 8554,
  "gna": 8555,
  "\u2581Atzo": 8556,
  "\u2581Simone": 8557,
  "\u2581bertute": 8558,
  "\u2581fede": 8559,
  "\u2581instantzia": 8560,
  "\u2581smart": 8561,
  "space": 8562,
  "\u00e7ue": 8563,
  "\u2581Eli": 8564,
  "\u2581Facebook": 8565,
  "\u2581Modified": 8566,
  "\u2581apt": 8567,
  "\u2581dioen": 8568,
  "\u2581normally": 8569,
  "\u2581parametroa": 8570,
  "\u2581santu": 8571,
  "\u2581trusted": 8572,
  "iarra": 8573,
  "\u2581Amount": 8574,
  "\u2581Berdinketa": 8575,
  "\u2581Funtzio": 8576,
  "\u2581Irteera": 8577,
  "\u2581Moving": 8578,
  "\u2581aurkitzeko": 8579,
  "\u2581bazenu": 8580,
  "\u2581belief": 8581,
  "\u2581dizkizu": 8582,
  "\u2581ederrak": 8583,
  "\u2581guztiaren": 8584,
  "\u2581zalantzarik": 8585,
  "denbora": 8586,
  "yn": 8587,
  "\u2581Alpha": 8588,
  "\u2581Expand": 8589,
  "\u2581divided": 8590,
  "\u2581ibiliko": 8591,
  "\u2581narrow": 8592,
  "\u2581partizio": 8593,
  "Hurrengo": 8594,
  "burua": 8595,
  "\u2581Bolumena": 8596,
  "\u2581Honen": 8597,
  "\u2581MSN": 8598,
  "\u2581hartuz": 8599,
  "\u2581menuak": 8600,
  "ORT": 8601,
  "itzen": 8602,
  "turen": 8603,
  "\u2581(%%": 8604,
  "\u2581Cisco": 8605,
  "\u2581Gainidatzi": 8606,
  "\u2581Hurrengoa": 8607,
  "\u2581Jews": 8608,
  "\u2581Office": 8609,
  "\u2581Preparing": 8610,
  "\u2581pertsonalizatze": 8611,
  "\u2581reported": 8612,
  "\u2581zone": 8613,
  "hour": 8614,
  "this": 8615,
  "\u2581Real": 8616,
  "\u2581Split": 8617,
  "\u2581beronen": 8618,
  "\u2581espazio": 8619,
  "\u2581fancy": 8620,
  "\u2581pilan": 8621,
  "\u2581placing": 8622,
  "\u2581Fit": 8623,
  "\u2581activated": 8624,
  "\u2581anti": 8625,
  "\u2581astun": 8626,
  "\u2581estra": 8627,
  "\u2581faster": 8628,
  "\u2581nintzenean": 8629,
  "\u2581\u00a9": 8630,
  "\u2581\u2022": 8631,
  "icon": 8632,
  "profila": 8633,
  "sistemaren": 8634,
  "\u25817.": 8635,
  "\u2581Jaitsi": 8636,
  "\u2581PUZ": 8637,
  "\u2581conceive": 8638,
  "\u2581dagokio": 8639,
  "\u2581indarrez": 8640,
  "\u2581martxan": 8641,
  "\u2581zoro": 8642,
  "\u2581enkriptatu": 8643,
  "\u2581frequently": 8644,
  "\u2581hedatzen": 8645,
  "\u2581pride": 8646,
  "\u2581sinple": 8647,
  "\u2581taldeak": 8648,
  "\u2581txertatu": 8649,
  "toa": 8650,
  "\u258159": 8651,
  "\u2581center": 8652,
  "\u2581execution": 8653,
  "\u2581feelings": 8654,
  "\u2581honest": 8655,
  "\u2581inaktibo": 8656,
  "\u2581jateko": 8657,
  "\u2581karpetako": 8658,
  "\u2581zigorra": 8659,
  "\").": 8660,
  "\u2581Groups": 8661,
  "\u2581aldendu": 8662,
  "\u2581etxetik": 8663,
  "\u2581fate": 8664,
  "\u2581txi": 8665,
  "\u2581yourselves": 8666,
  "200": 8667,
  "\u2581Helburua": 8668,
  "\u2581Minak": 8669,
  "\u2581babestu": 8670,
  "\u2581topatu": 8671,
  "\u2581unavailable": 8672,
  "state": 8673,
  "uka": 8674,
  "\u2581Kontraste": 8675,
  "\u2581SH": 8676,
  "\u2581agreement": 8677,
  "\u2581ikasle": 8678,
  "\u2581ordaintzen": 8679,
  "\u2581sex": 8680,
  "estiloa": 8681,
  "\u2581Ideia": 8682,
  "\u2581Stay": 8683,
  "\u2581dogs": 8684,
  "\u2581egunetan": 8685,
  "\u2581excuse": 8686,
  "\u2581harpidetza": 8687,
  "\u2581prompt": 8688,
  "\u2581reset": 8689,
  "babeslea": 8690,
  "eg": 8691,
  "\u2581coordinate": 8692,
  "\u2581eskailera": 8693,
  "\u2581hurry": 8694,
  "\u2581konektatzeko": 8695,
  "Hara": 8696,
  "ario": 8697,
  "\u2581Arrow": 8698,
  "\u2581Foop": 8699,
  "\u2581Iturburua": 8700,
  "\u2581Plan": 8701,
  "\u2581calendars": 8702,
  "\u2581isuri": 8703,
  "\u2581jakinarazpenak": 8704,
  "\u2581naiteke": 8705,
  "Preferences": 8706,
  "from": 8707,
  "\u2581Deleting": 8708,
  "\u2581Th": 8709,
  "\u2581bird": 8710,
  "\u2581dagokienez": 8711,
  "\u2581efektu": 8712,
  "\u2581gurutzatu": 8713,
  "\u2581managed": 8714,
  "TU": 8715,
  "ical": 8716,
  "item": 8717,
  "share": 8718,
  "turiko": 8719,
  "\u2581deliver": 8720,
  "\u2581ederki": 8721,
  "\u2581hostname": 8722,
  "\u2581koloreko": 8723,
  "\u2581sheet": 8724,
  "\u2581sold": 8725,
  "\u2581thin": 8726,
  "\u2581Database": 8727,
  "\u2581corrupted": 8728,
  "\u2581graphics": 8729,
  "\u2581peculiar": 8730,
  "\u2581uncle": 8731,
  "\u2581GAIN": 8732,
  "\u2581Ver": 8733,
  "\u2581beteko": 8734,
  "\u2581esaldi": 8735,
  "\u2581pu": 8736,
  "\u2581regardless": 8737,
  "form": 8738,
  "keen": 8739,
  "lor": 8740,
  "sum": 8741,
  "\u2581Eskala": 8742,
  "\u2581ardo": 8743,
  "\u2581berde": 8744,
  "\u2581desegiten": 8745,
  "\u2581expired": 8746,
  "\u2581formula": 8747,
  "\u2581origin": 8748,
  "\u2581settled": 8749,
  "\u2581sharp": 8750,
  "CTION": 8751,
  "ging": 8752,
  "uste": 8753,
  "\u2581Kasu": 8754,
  "\u2581Summary": 8755,
  "\u2581aldentzeko": 8756,
  "\u2581aspektu": 8757,
  "\u2581baimentzen": 8758,
  "\u2581bottle": 8759,
  "\u2581foreign": 8760,
  "\u2581vCard": 8761,
  "Erantzun": 8762,
  "sare": 8763,
  "{": 8764,
  "\u2581ezagun": 8765,
  "\u2581rotate": 8766,
  "ROM": 8767,
  "argi": 8768,
  "\u2581Movie": 8769,
  "\u2581Nabarmendu": 8770,
  "\u2581bakan": 8771,
  "\u2581fashion": 8772,
  "\u2581generate": 8773,
  "\u2581ordain": 8774,
  "\u2581proof": 8775,
  "\u2581provider": 8776,
  "\u2581surface": 8777,
  "tag": 8778,
  "town": 8779,
  "\u2581Gradiente": 8780,
  "\u2581burutik": 8781,
  "\u2581hondarra": 8782,
  "\u2581lawyer": 8783,
  "\u2581loves": 8784,
  "\u2581powers": 8785,
  "\u2581secondary": 8786,
  "menua": 8787,
  "\u2581Global": 8788,
  "\u2581Goiburua": 8789,
  "\u2581consequence": 8790,
  "\u2581creature": 8791,
  "\u2581mehatxu": 8792,
  "\u2581sartuta": 8793,
  "\u2581zigun": 8794,
  "%%)": 8795,
  "nie": 8796,
  "\u25811)": 8797,
  "\u2581Datuak": 8798,
  "\u2581Pack": 8799,
  "\u2581azpitik": 8800,
  "\u2581crash": 8801,
  "\u2581drove": 8802,
  "\u2581functions": 8803,
  "\u2581hirian": 8804,
  "\u2581horizontally": 8805,
  "nia": 8806,
  "\u2581Original": 8807,
  "\u2581balls": 8808,
  "\u2581erruki": 8809,
  "\u2581forty": 8810,
  "\u2581haserretu": 8811,
  "\u2581importance": 8812,
  "\u2581stars": 8813,
  "\u2581trip": 8814,
  "\u2581zakar": 8815,
  "\u2581zukeen": 8816,
  "AZIO": 8817,
  "Ho": 8818,
  "Mar": 8819,
  "qua": 8820,
  "star": 8821,
  "xml": 8822,
  "\u2581Bounderby": 8823,
  "\u2581Headers": 8824,
  "\u2581Month": 8825,
  "\u2581Pointer": 8826,
  "\u2581Widget": 8827,
  "\u2581desberdina": 8828,
  "\u2581gehienek": 8829,
  "\u2581harm": 8830,
  "\u2581identify": 8831,
  "\u2581interesting": 8832,
  "\u2581metadata": 8833,
  "\u2581ohean": 8834,
  "^": 8835,
  "kus": 8836,
  "there": 8837,
  "\u2581Far": 8838,
  "\u2581Gedit": 8839,
  "\u2581Hark": 8840,
  "\u2581Mutil": 8841,
  "\u2581Option": 8842,
  "\u2581amaituta": 8843,
  "\u2581evidence": 8844,
  "\u2581ofizial": 8845,
  "\u2581parametro": 8846,
  "\u2581soila": 8847,
  "\u2581vision": 8848,
  "IES": 8849,
  "User": 8850,
  "\u2581LICENCE": 8851,
  "\u2581beg": 8852,
  "\u2581laburpena": 8853,
  "\u2581ondasun": 8854,
  "tean": 8855,
  "\u2581Arthur": 8856,
  "\u2581atxilotu": 8857,
  "\u2581aztertzen": 8858,
  "\u2581izanda": 8859,
  "\u2581metal": 8860,
[...]
