{
  "</s>": 0,
  "<unk>": 1,
  ".": 2,
  ",": 3,
  "\u2581the": 4,
  "?": 5,
  "\u2581-": 6,
  "'": 7,
  "s": 8,
  "\u2581of": 9,
  "\u2581to": 10,
  "\u2581og": 11,
  "\u2581a\u00f0": 12,
  "\u2581\u00ed": 13,
  "\u2581and": 14,
  "\u2581er": 15,
  "\u2581I": 16,
  "\u2581\u00e1": 17,
  "\u2581a": 18,
  "\u2581\"": 19,
  "\u2581you": 20,
  "\u2581in": 21,
  "\u2581sem": 22,
  "\u2581(": 23,
  "!": 24,
  "\u2581ekki": 25,
  "\u2581a\u0111": 26,
  "\u2581is": 27,
  "t": 28,
  "\u2581": 29,
  "\u2581that": 30,
  "\u2581til": 31,
  ":": 32,
  "\u2581for": 33,
  "-": 34,
  "\u2581with": 35,
  "\u2581\u00c9g": 36,
  "\u2581vi\u00f0": 37,
  "a": 38,
  "\u2581it": 39,
  "\u2581be": 40,
  "\u2581me\u00f0": 41,
  ")": 42,
  "\u2581fyrir": 43,
  "\u2581um": 44,
  "\u2581\u00e9g": 45,
  "\u2581af": 46,
  "\u2581not": 47,
  "\u2581on": 48,
  "...": 49,
  "\u2581hann": 50,
  "m": 51,
  "i": 52,
  "\u2581have": 53,
  "\u2581are": 54,
  "\u2581var": 55,
  "\u2581was": 56,
  "um": 57,
  "/": 58,
  "\u2581or": 59,
  "\u2581your": 60,
  "\u2581You": 61,
  "\u2581The": 62,
  "\u2581me": 63,
  "ar": 64,
  "\u2581this": 65,
  "\u2581en": 66,
  "\u2581we": 67,
  "\u2581\u016ba\u0111": 68,
  "\u2581e\u00f0a": 69,
  "\u2581as": 70,
  "r": 71,
  "\u2581he": 72,
  "\u2581mg": 73,
  ";": 74,
  "\u2581\u00fea\u00f0": 75,
  "\u2581do": 76,
  "\u2581What": 77,
  "\u2581his": 78,
  "\u2581eru": 79,
  "\u2581can": 80,
  "\u2581\u00fev\u00ed": 81,
  "\u2581will": 82,
  "re": 83,
  "\u2581my": 84,
  "\u2581at": 85,
  "\u2581all": 86,
  "ur": 87,
  "\u2581eftir": 88,
  "\u2581from": 89,
  "u": 90,
  "\u2581vi\u0111": 91,
  "\u2581It": 92,
  "\u2581by": 93,
  "\u2581God": 94,
  "\u2581what": 95,
  "in": 96,
  "\u2581hj\u00e1": 97,
  "n": 98,
  "\u2581know": 99,
  "\u2581hefur": 100,
  "d": 101,
  "\u2581they": 102,
  "\u2581\u00fe\u00fa": 103,
  ").": 104,
  "\u2581A": 105,
  "\u2581\u016b\u00fa": 106,
  "\u2581him": 107,
  "\u2581one": 108,
  "\u2581m\u00e9r": 109,
  "\u2581an": 110,
  "\u2581fr\u00e1": 111,
  "\u2581up": 112,
  "\u2581were": 113,
  "\u2581should": 114,
  "\u2581out": 115,
  "\u25811": 116,
  ".\"": 117,
  "\u2581Jehovah": 118,
  "\u2581\u016a\u00fa": 119,
  "\u2581Hann": 120,
  "\u2581hafa": 121,
  "\u2581\u016aa\u0111": 122,
  "\u2581And": 123,
  "\u2581get": 124,
  "\u2581about": 125,
  "ing": 126,
  "\u2581who": 127,
  "\u2581We": 128,
  "\u2581me\u0111": 129,
  "\u2581\u016betta": 130,
  "\u2581He": 131,
  "\u2581Jeh\u00f3va": 132,
  "ir": 133,
  "e": 134,
  "\u2581them": 135,
  "\u2581if": 136,
  "\u2581no": 137,
  "\u2581En": 138,
  "st": 139,
  "\u2581like": 140,
  "\u2581C": 141,
  "\u2581don": 142,
  "\u2581patients": 143,
  "\u2581may": 144,
  "\u2581okkur": 145,
  "\u2581there": 146,
  "\u2581No": 147,
  "\u00f0": 148,
  "\u2581been": 149,
  "\u2581mig": 150,
  "\u2581\u016b\u00e9r": 151,
  "\u2581ef": 152,
  "\u2581us": 153,
  "\u2581In": 154,
  "\u2581has": 155,
  "\u2581but": 156,
  "\u2581vera": 157,
  "ll": 158,
  "\u2581their": 159,
  "\u2581svo": 160,
  "\u2581just": 161,
  "\u2581upp": 162,
  "\u2581fram": 163,
  "\u2581veri\u00f0": 164,
  "\u2581here": 165,
  "\u2581so": 166,
  "\u2581our": 167,
  "\u2581\u00fat": 168,
  "\u2581eins": 169,
  "\u2581right": 170,
  "\u2581had": 171,
  "na": 172,
  "\u2581\u00far": 173,
  "\u2581hans": 174,
  "\u2581when": 175,
  "\u2581Ef": 176,
  "\u2581time": 177,
  "\u2581Hva\u0111": 178,
  "\u2581her": 179,
  "inn": 180,
  "\u2581go": 181,
  "\u2581s\u00e9r": 182,
  "\u2581\u016big": 183,
  "\u2581\u00fe\u00e1": 184,
  "\u2581\u00feess": 185,
  "\u2581Og": 186,
  "\u2581\u00cd": 187,
  "\u2581getur": 188,
  "\u2581\u00feeir": 189,
  "\u2581That": 190,
  "b": 191,
  "\u2581If": 192,
  "\u2581How": 193,
  "\u2581did": 194,
  "ed": 195,
  "\u2581Vi\u0111": 196,
  "\u2581\u016aetta": 197,
  "\u2581[": 198,
  "ve": 199,
  "ri": 200,
  "\u2581voru": 201,
  "\u2581me\u00f0fer\u00f0": 202,
  "\u2581This": 203,
  "\u2581\u00fe\u00e9r": 204,
  "\"": 205,
  "\u2581Ekki": 206,
  "\u2581skal": 207,
  "\u2581people": 208,
  "i\u00f0": 209,
  "\u2581\u00feeim": 210,
  "\u2581'": 211,
  "\u2581J\u00e1": 212,
  "\u2581\u00feegar": 213,
  "\u2581gera": 214,
  "\u2581ert": 215,
  "\u2581got": 216,
  "g": 217,
  "l": 218,
  "\u2581more": 219,
  "\u2581Jesus": 220,
  "\u2581allt": 221,
  "\u25812": 222,
  "\u2581other": 223,
  "\u2581h\u00fan": 224,
  "\u2581would": 225,
  "\u2581man": 226,
  "\u2581honum": 227,
  "\u2581vegna": 228,
  "\u2581\u00dea\u00f0": 229,
  "\u2581dose": 230,
  "\u2581But": 231,
  "\u2581take": 232,
  "o": 233,
  "\u2581see": 234,
  "\u2581s\u00e9": 235,
  "\u2581use": 236,
  "\u2581some": 237,
  "),": 238,
  "\u2581sj\u00faklingum": 239,
  "\u2581good": 240,
  "A": 241,
  "\u2581B": 242,
  "\u2581want": 243,
  "\u2581than": 244,
  "an": 245,
  "\u2581&": 246,
  "\u2581okkar": 247,
  "\u2581\u00fear": 248,
  "\u2581P": 249,
  "\u2581need": 250,
  "\u2581which": 251,
  "\u2581yfir": 252,
  "ra": 253,
  "\u2581Do": 254,
  "\u2581think": 255,
  "\u2581treatment": 256,
  "\u2581now": 257,
  "\u2581Nei": 258,
  "i\u0111": 259,
  "\u2581any": 260,
  "\u2581S": 261,
  "\u2581They": 262,
  "\u2581said": 263,
  "\u0111": 264,
  "\u2581Hvernig": 265,
  "\u2581bara": 266,
  "\u2581Gu\u00f0s": 267,
  "\u2581after": 268,
  "\u2581Yeah": 269,
  "\u2581she": 270,
  "\u2581how": 271,
  "\u2581these": 272,
  "\u2581into": 273,
  "y": 274,
  "\u25813": 275,
  "C": 276,
  "\u2581\u016bv\u00ed": 277,
  "\u2581fara": 278,
  "I": 279,
  "\u2581way": 280,
  "\u2581back": 281,
  "\u2581Vi\u00f0": 282,
  "\u2581over": 283,
  "\u2581nota": 284,
  "\u2581come": 285,
  "\u2581So": 286,
  "\u2581life": 287,
  "\u2581before": 288,
  "\u2581aftur": 289,
  "\u2581day": 290,
  "\u2581could": 291,
  "\u2581Oh": 292,
  "\u2581ml": 293,
  "\u2581those": 294,
  "\u2581Gu\u00f0": 295,
  "num": 296,
  "\u2581make": 297,
  "al": 298,
  "\u2581years": 299,
  "\u2581Bible": 300,
  "\u2581f\u00e1": 301,
  "\u2581koma": 302,
  "\u2581going": 303,
  "\u2581\u00feeirra": 304,
  "er": 305,
  "\u2581inn": 306,
  "\u2581Er": 307,
  "\u2581down": 308,
  "]": 309,
  "ly": 310,
  "E": 311,
  "\u258110": 312,
  "\u2581also": 313,
  "\u2581gonna": 314,
  "\u2581\u00feetta": 315,
  "\u2581Why": 316,
  "\u2581lagi": 317,
  "\u2581mun": 318,
  "\u2581There": 319,
  "\u2581n\u00fa": 320,
  "\u2581H\u00fan": 321,
  "\u2581only": 322,
  "\u2581used": 323,
  "\u2581segja": 324,
  "\u2581first": 325,
  "\u2581h\u00e9r": 326,
  "\u2581must": 327,
  "\u2581sig": 328,
  "\u25815": 329,
  "\u2581For": 330,
  "\u2581veit": 331,
  "S": 332,
  "\u2581such": 333,
  "\u2581vel": 334,
  "\u2581H": 335,
  "\u2581hana": 336,
  "\u2581taka": 337,
  "\u2581love": 338,
  "c": 339,
  "\u2581say": 340,
  "\u2581blood": 341,
  "\u2581kafla": 342,
  "\u2581m\u00e1": 343,
  "\u2581segir": 344,
  "2": 345,
  "\u2581\u00c1": 346,
  "\u2581does": 347,
  "\u2581undir": 348,
  "\u2581hva\u0111": 349,
  "\u2581help": 350,
  "\u2581\u016b\u00e1": 351,
  "\u2581even": 352,
  "\u2581two": 353,
  "\u2581Well": 354,
  "/1": 355,
  "p": 356,
  "\u25814": 357,
  "\u2581doctor": 358,
  "\u2581geta": 359,
  "\u2581Come": 360,
  "\u2581minn": 361,
  "\u2581then": 362,
  "\u2581All": 363,
  "\u2581hef": 364,
  "\u2581things": 365,
  "\u2581\u00feig": 366,
  "\u2581sag\u00f0i": 367,
  "\u2581t\u00edma": 368,
  "\u2581hverju": 369,
  "\u2581She": 370,
  "\u2581saman": 371,
  "\u2581Hva\u00f0": 372,
  "sj\u00e1": 373,
  "\u2581because": 374,
  "\u2581work": 375,
  "\u2581very": 376,
  "\u25816": 377,
  "\u2581hafi": 378,
  "\u2581lyf": 379,
  "on": 380,
  "\u2581Jes\u00fas": 381,
  "\u2581Yes": 382,
  "1": 383,
  "\u2581name": 384,
  "lt": 385,
  "\u2581shall": 386,
  "\u2581menn": 387,
  "\u2581l\u00edka": 388,
  "see": 389,
  "\u2581Af": 390,
  "\u2581T": 391,
  "\u2581section": 392,
  "3": 393,
  "\u2581Let": 394,
  "\u2581am": 395,
  "\u2581tell": 396,
  "\u2581Hey": 397,
  "\u2581When": 398,
  "\u2581too": 399,
  "\u2581heldur": 400,
  "\u2581let": 401,
  "\u2581\u00e1hrif": 402,
  "\u2581v\u00e6ri": 403,
  "\u2581off": 404,
  "\u2581mean": 405,
  "\u2581world": 406,
  "\u2581dag": 407,
  "\u2581children": 408,
  "\u2581sj\u00e1": 409,
  "\u258130": 410,
  "\u2581Hver": 411,
  "\u2581sinni": 412,
  "\u2581little": 413,
  "\u2581notkun": 414,
  "nn": 415,
  "\u2581erum": 416,
  "\u2581haf\u00f0i": 417,
  "\u2581ver\u00f0ur": 418,
  "\u2581hvernig": 419,
  "\u2581kom": 420,
  "\u2581\u00e1\u00f0ur": 421,
  "\u2581something": 422,
  "\u2581\u00de\u00fa": 423,
  "\u2581My": 424,
  "\u2581made": 425,
  "\u2581lyfja": 426,
  "\u2581tablets": 427,
  "\u2581give": 428,
  "\u2581never": 429,
  "\u2581where": 430,
  "\u258112": 431,
  "\u2581many": 432,
  "\u258120": 433,
  "or": 434,
  "\u00f3": 435,
  "\u2581aldrei": 436,
  "\u2581really": 437,
  "\u2581much": 438,
  "\u2581kemur": 439,
  "unum": 440,
  "\u2581p": 441,
  "\u2581doing": 442,
  "\u2581vil": 443,
  "\u2581K": 444,
  "\u2581mj\u00f6g": 445,
  "\u2581henni": 446,
  "\u2581\u00feau": 447,
  "ina": 448,
  "\u2581EU": 449,
  "\u2581F": 450,
  "\u2581s\u00e1": 451,
  "\u2581\u00deetta": 452,
  "\u2581s": 453,
  "\u2581\u00deegar": 454,
  "\u2581ykkur": 455,
  "\u2581\u00e1ra": 456,
  "\u2581G": 457,
  "\u2581M": 458,
  "sins": 459,
  "\u2581days": 460,
  "\u2581E": 461,
  "\u2581being": 462,
  "\u2581O": 463,
  "\u2581Don": 464,
  "\u2581hva\u00f0": 465,
  "\u2581well": 466,
  "\u2581Okay": 467,
  "\u2581heart": 468,
  "\u2581look": 469,
  "inu": 470,
  "\u2581halda": 471,
  "\u2581100": 472,
  "\u2581ekkert": 473,
  "\u2581L": 474,
  "\u2581inniheldur": 475,
  "\u2581didn": 476,
  "\u2581gegn": 477,
  "\u2581As": 478,
  "\u2581gefa": 479,
  "\u2581enn": 480,
  "\u2581m\u00edn": 481,
  "\u2581gert": 482,
  "\u2581Get": 483,
  "\u2581during": 484,
  "\u2581new": 485,
  "\u2581Allt": 486,
  "\u2581Now": 487,
  "\u2581getum": 488,
  "\u2581study": 489,
  "\u2581\u00e1n": 490,
  "\u25813:": 491,
  "\u2581D": 492,
  "\u2581\u00f6llum": 493,
  "\u2581great": 494,
  "\u2581away": 495,
  "\u2581\u016bi\u0111": 496,
  "\u2581through": 497,
  "avir": 498,
  "\u2581ver\u0111ur": 499,
  "\u2581long": 500,
  "\u2581m": 501,
  "L": 502,
  "\u2581Paul": 503,
  "\u2581thing": 504,
  "\u2581men": 505,
  "\u2581einu": 506,
  "\u2581r\u00e9tt": 507,
  "YP": 508,
  "\u2581ver\u00f0a": 509,
  "\u2581Jes\u00fa": 510,
  "\u2581\u00e1fram": 511,
  "\u2581hvort": 512,
  "\u2581tala": 513,
  "\u258115": 514,
  "\u258150": 515,
  "\u2581s\u00ednum": 516,
  "\u25812:": 517,
  "nni": 518,
  "\u2581injection": 519,
  "\u2581Your": 520,
  "\u2581every": 521,
  "\u2581fer": 522,
  "\u2581find": 523,
  "\u2581\u00deeir": 524,
  "\u2581g\u00e6ti": 525,
  "\u2581einnig": 526,
  "k": 527,
  "4": 528,
  "\u2581fengu": 529,
  "\u25818": 530,
  "\u2581taking": 531,
  "ml": 532,
  "nar": 533,
  "\u0111u": 534,
  "\u2581son": 535,
  "\u2581Christ": 536,
  "\u2581milli": 537,
  "\u2581put": 538,
  "\u2581kl\u00edn\u00edsk": 539,
  "\u25811.": 540,
  "\u2581\u00f6\u00f0rum": 541,
  "\u2581Til": 542,
  "\u2581contains": 543,
  "\u2581its": 544,
  "\u2581sj\u00faklinga": 545,
  "\u2581meira": 546,
  "\u2581\u016bessu": 547,
  "\u2581skammta": 548,
  "\u2581given": 549,
  "\u2581why": 550,
  "\u25811:": 551,
  "\u2581own": 552,
  "\u258125": 553,
  "\u2581might": 554,
  "inni": 555,
  "\u2581earth": 556,
  "\u2581n\u00fana": 557,
  "\u2581To": 558,
  "N": 559,
  "B": 560,
  "\u2581vita": 561,
  "\u2581place": 562,
  "\u2581studies": 563,
  "\u2581solution": 564,
  "\u2581h\u00e6gt": 565,
  "\u00f0u": 566,
  "\u2581ertu": 567,
  "\u2581l\u00e1ta": 568,
  "\u2581clinical": 569,
  "\u2581einn": 570,
  "\u2581svona": 571,
  "\u2581t\u00f6flur": 572,
  "h": 573,
  "\u2581N": 574,
  "un": 575,
  "\u2581another": 576,
  "\u2581veri\u0111": 577,
  "\u2581without": 578,
  "es": 579,
  "\u2581Just": 580,
  "\u2581against": 581,
  "\u2581g": 582,
  "P": 583,
  "\u2581end": 584,
  "vir": 585,
  "ndi": 586,
  "\u2581sama": 587,
  "\u2581Who": 588,
  "\u2581again": 589,
  "\u2581komi\u00f0": 590,
  "\u2581M\u00e9r": 591,
  "\u2581house": 592,
  "\u25814:": 593,
  "\u2581last": 594,
  "\u2581reactions": 595,
  "\u2581\u016begar": 596,
  "\u2581\u00e1r": 597,
  "\u2581/": 598,
  "\u2581most": 599,
  "f": 600,
  "\u2581Where": 601,
  "\u2581still": 602,
  "\u2581me\u00f0fer\u00f0ar": 603,
  "\u2581keep": 604,
  "\u25812.": 605,
  "\u2581came": 606,
  "\u2581home": 607,
  "\u2581following": 608,
  "\u2581Not": 609,
  "ation": 610,
  "\u25817": 611,
  "\u2581side": 612,
  "\u2581Are": 613,
  "T": 614,
  "\u2581Mr": 615,
  "\u2581recommended": 616,
  "\u2581same": 617,
  "G": 618,
  "x": 619,
  "\u2581under": 620,
  "\u2581three": 621,
  "\u2581effects": 622,
  "\u2581each": 623,
  "\u2581human": 624,
  "the": 625,
  "\u2581heim": 626,
  "\u2581gefi\u00f0": 627,
  "\u2581told": 628,
  "H": 629,
  "\u2581sure": 630,
  "kg": 631,
  "starfsemi": 632,
  "\u2581says": 633,
  "\u2581c": 634,
  "\u2581One": 635,
  "\u2581feel": 636,
  "\u2581ever": 637,
  "\u2581alla": 638,
  "\u25819": 639,
  "\u2581okay": 640,
  "\u2581pre": 641,
  "\u2581hver": 642,
  "nu": 643,
  "\u2581Komdu": 644,
  "\u2581alltaf": 645,
  "\u2581\u00e1tt": 646,
  "\u2581hennar": 647,
  "\u25815:": 648,
  "\u2581old": 649,
  "\u2581Ertu": 650,
  "\u2581\u00feessum": 651,
  "ni": 652,
  "\u2581t": 653,
  "\u00c9g": 654,
  "\u2581talk": 655,
  "\u2581kg": 656,
  "\u00edn": 657,
  "\u2581hand": 658,
  "\u2581sta\u00f0": 659,
  "\u2581Then": 660,
  "\u2581risk": 661,
  "\u2581eiga": 662,
  "\u2581held": 663,
  "\u2581s\u00edna": 664,
  "F": 665,
  "\u258118": 666,
  "\u25811,": 667,
  "\u25814.4": 668,
  "\u2581gott": 669,
  "\u2581h\u00f6fum": 670,
  "\u2581body": 671,
  "\u2581times": 672,
  "\u2581\u00e6tti": 673,
  "\u2581\u00f3": 674,
  "z": 675,
  "\u2265": 676,
  "\u2581e\u0111a": 677,
  "\u2581family": 678,
  "\u2581sinn": 679,
  ",\"": 680,
  "\u2581Can": 681,
  "\u2581nota\u00f0": 682,
  "\u2581me\u00f0al": 683,
  "\u2581hjarta": 684,
  "\u2581show": 685,
  "\u2581Look": 686,
  "\u2581found": 687,
  "\u2581me\u00f0an": 688,
  "\u2581John": 689,
  "\u2581\u016beir": 690,
  "\u2581sorry": 691,
  "\u2581New": 692,
  "\u2581called": 693,
  "M": 694,
  "\u2581thought": 695,
  "\u2581around": 696,
  "\u2581night": 697,
  "ic": 698,
  "\u2581plasma": 699,
  "\u2581h\u00e9rna": 700,
  "\u2581_": 701,
  "\u2581eitt": 702,
  "\u2581better": 703,
  "\u2581Go": 704,
  "\u2581Christian": 705,
  "\u2581allir": 706,
  "\u2581\u016aeir": 707,
  "\u2581\u00f6ll": 708,
  "at": 709,
  "\u2581manna": 710,
  "V": 711,
  "\u2581Eftir": 712,
  "\u2581call": 713,
  "\u2581Israel": 714,
  "va": 715,
  "\u2581daily": 716,
  "\u2581medicine": 717,
  "\u2581pain": 718,
  "\u2581Drottinn": 719,
  "\u2581weeks": 720,
  "\u2581increased": 721,
  "\u2581x": 722,
  "\u2581Gu\u00f0i": 723,
  "\u2581h\u00fa\u00f0": 724,
  "\u2581once": 725,
  "\u2581reported": 726,
  "\u2581always": 727,
  "\u2581uppl\u00fdsingar": 728,
  "\u25816:": 729,
  "andi": 730,
  "\u2581death": 731,
  "\u2581therapy": 732,
  "\u2581done": 733,
  "\u2581samhli\u00f0a": 734,
  "ja": 735,
  "\u2581today": 736,
  "\u2581treated": 737,
  "\u2581sagt": 738,
  "\u2581course": 739,
  "\u2581administration": 740,
  "\u2581Thank": 741,
  "\u2581hours": 742,
  "\u2581observed": 743,
  "\u2581David": 744,
  "\u2581water": 745,
  "\u2581...": 746,
  "\u2581unto": 747,
  "\u2581part": 748,
  "\u2581Christians": 749,
  "\u2581stendur": 750,
  "\u258124": 751,
  "us": 752,
  "\u2581best": 753,
  "\u2581spirit": 754,
  "\u2581Good": 755,
  "\u2581anything": 756,
  "\u2581medicinal": 757,
  "\u2581between": 758,
  "\u2581others": 759,
  "\u2581land": 760,
  "D": 761,
  "ist": 762,
  "\u2581n\u00fdrna": 763,
  "\u2581N\u00fa": 764,
  "\u2581finna": 765,
  "\u2581age": 766,
  "\u2581\u00fe\u00e6r": 767,
  "\u2581true": 768,
  "\u2581please": 769,
  "\u2581tr\u00fa": 770,
  "\u2581both": 771,
  "\u2581while": 772,
  "la": 773,
  "\u2581eitthva\u0111": 774,
  "\u2581taken": 775,
  "\u25815.": 776,
  "\u2581upon": 777,
  "nir": 778,
  "\u2581bl\u00f3\u00f0": 779,
  "\u2581hettu": 780,
  "\u2581year": 781,
  "\u2581disease": 782,
  "\u2581sag\u0111i": 783,
  "\u2581become": 784,
  "\u2581\u00fearf": 785,
  "\u2581eigi": 786,
  "\u2581film": 787,
  "le": 788,
  "\u2581Satan": 789,
  "\u2581ma\u00f0ur": 790,
  "\u2581l\u00edf": 791,
  "\u2581months": 792,
  "\u2581Hvar": 793,
  "UC": 794,
  "\u2581or\u00f0": 795,
  "\u2581n\u00e1": 796,
  "urinn": 797,
  "\u2581lifrar": 798,
  "\u2581high": 799,
  "\u2581h\u00f6f\u00f0u": 800,
  "\u2581gj\u00f6f": 801,
  "\u2581faith": 802,
  "\u2581lausn": 803,
  "\u2581stop": 804,
  "gt": 805,
  "\u2581myndi": 806,
  "\u2581Kingdom": 807,
  "\u2581Svo": 808,
  "\u2581set": 809,
  "\u2581i": 810,
  "\u2581mitt": 811,
  "\u2581\u00feessa": 812,
  "\u2581\u016barf": 813,
  "\u2581sir": 814,
  "th": 815,
  "\u2581a\u00f0eins": 816,
  "\u2581example": 817,
  "\u2581anti": 818,
  "\u2581b": 819,
  "\u2581ein": 820,
  "\u2581y\u00f0ur": 821,
  "\u2581\u00feessu": 822,
  "\u2581left": 823,
  "\u2581ranns\u00f3knum": 824,
  "\u2581Witnesses": 825,
  "\u2581data": 826,
  "\u2581\u00fe": 827,
  "\u2581hard": 828,
  "\u2581until": 829,
  "\u2581information": 830,
  "\u2581words": 831,
  "\u2581seen": 832,
  "\u2581went": 833,
  "lega": 834,
  "\u2581daga": 835,
  "\u2581father": 836,
  "\u2581herra": 837,
  "\u2581lyfi\u00f0": 838,
  "\u2581number": 839,
  "\u2581medicines": 840,
  "\u2581mind": 841,
  "ion": 842,
  "\u2581At": 843,
  "\u2581h\u00e6tta": 844,
  "\u2581ma\u0111ur": 845,
  "coated": 846,
  "\u2581page": 847,
  "\u2581adverse": 848,
  "\u2581together": 849,
  "\u2581administered": 850,
  "\u00f3l": 851,
  "\u258140": 852,
  "\u2581P\u00e1ll": 853,
  "\u2581f\u00f3lk": 854,
  "\u2581care": 855,
  "\u2581Viltu": 856,
  "\u2581vill": 857,
  "\u2581known": 858,
  "\u00e1": 859,
  "\u2581believe": 860,
  "\u2581product": 861,
  "\u2581k": 862,
  "\u2581(1.": 863,
  "\u2581\u00de\u00e1": 864,
  "\u2581anna\u00f0": 865,
  "\u2581including": 866,
  "\u2581severe": 867,
  "\u2581coming": 868,
  "\u2581R": 869,
  "\u2581b\u00f6rnum": 870,
  "\u25814.": 871,
  "\u2581kind": 872,
  "\u2581hear": 873,
  "\u2581skin": 874,
  "\u2581money": 875,
  "\u2581word": 876,
  "\u2581skammt": 877,
  "\u2581filmu": 878,
  "\u2581innan": 879,
  "\u2581f\u00e9kk": 880,
  "\u00f0i": 881,
  "\u2581nothing": 882,
  "\u2581gerir": 883,
  "\u2581f": 884,
  "\u2581full": 885,
  "\u2581Eins": 886,
  "\u2581guys": 887,
  "\u2581saying": 888,
  "\u2581\u016b\u00edn": 889,
  "\u2581\u00feessi": 890,
  "\u2581h\u00e1tt": 891,
  "renal": 892,
  "\u2581king": 893,
  "en": 894,
  "\u2581using": 895,
  "max": 896,
  "R": 897,
  "\u2581\u00e1samt": 898,
  "\u2581infusion": 899,
  "\u2581fyrstu": 900,
  "\u2581live": 901,
  "\u2581These": 902,
  "\u2581n": 903,
  "\u2581hins": 904,
  "\u2581dead": 905,
  "\u2581einhver": 906,
  "\u2581bad": 907,
  "\u2581Please": 908,
  "\u2581increase": 909,
  "\u2581Hvers": 910,
  "\u2581met": 911,
  "\u2581aukaverkanir": 912,
  "\u2581ask": 913,
  "\u2581fengi\u00f0": 914,
  "\u2581s\u00fdna": 915,
  "\u2581jafnvel": 916,
  "\u2581\u00e6tla": 917,
  "\u258160": 918,
  "\u258114": 919,
  "\u2581effect": 920,
  "\u2581guy": 921,
  "\u2581child": 922,
  "\u2581re": 923,
  "ate": 924,
  "\u2581A\u00f0": 925,
  "\u2581Takk": 926,
  "\u2581fucking": 927,
  "\u2581finnst": 928,
  "\u2581handa": 929,
  "man": 930,
  "\u2581\u016binn": 931,
  "\u2581person": 932,
  "\u2581women": 933,
  "\u258128": 934,
  "\u2581important": 935,
  "\u2581komu": 936,
  "\u2581var\u00f0": 937,
  "\u2581\u016beim": 938,
  "\u2581next": 939,
  "\u2581h\u00e6ttu": 940,
  "\u2581*": 941,
  "\u2581yourself": 942,
  "\u2581Of": 943,
  "\u2581verkun": 944,
  "\u2581ones": 945,
  "\u2581\u00dev\u00ed": 946,
  "\u2581After": 947,
  "\u2581\u00e1tti": 948,
  "rar": 949,
  "\u2581face": 950,
  "\u2581combination": 951,
  "\u2581group": 952,
  "\u2581m\u00f6nnum": 953,
  "\u2581vial": 954,
  "?\"": 955,
  "\u2581=": 956,
  "\u2581system": 957,
  "\u2581ranns\u00f3kn": 958,
  "\u2581vilja": 959,
  "\u00ed": 960,
  "\u2581means": 961,
  "\u2581fine": 962,
  "\u2581patient": 963,
  "\u258116": 964,
  "\u2581ni\u00f0ur": 965,
  "\u00fe": 966,
  "\u2581Did": 967,
  "\u2581took": 968,
  "\u2581\u0137": 969,
  "\u2581\u00f6llu": 970,
  "\u0111i": 971,
  "\u2581V": 972,
  "\u2581wrong": 973,
  "\u2581l\u00edfi": 974,
  "\u2581mann": 975,
  "\u2581himself": 976,
  "\u2581won": 977,
  "\u2581hj\u00e1lpa": 978,
  "\u2581whole": 979,
  "\u2581Um": 980,
  "\u2581enginn": 981,
  "\u2581young": 982,
  "\u2581understand": 983,
  "K": 984,
  "\u2581co": 985,
  "tu": 986,
  "leysu": 987,
  "\u2581de": 988,
  "\u2581Because": 989,
  "\u2581truth": 990,
  "\u2581Fyrir": 991,
  "\u2581safety": 992,
  "\u2581haft": 993,
  "\u2581kannski": 994,
  "\u2581wife": 995,
  "\u2581skert": 996,
  "\u2581\u2022": 997,
  "\u2581viku": 998,
  "\u2581tekur": 999,
  "\u2581per": 1000,
  "\u2581placebo": 1001,
  "\u2581vildi": 1002,
  "\u2581ver\u0111": 1003,
  "\u2581\u00feannig": 1004,
  "\u2581spiritual": 1005,
  "\u2581HIV": 1006,
  "\u2581However": 1007,
  "\u2581saw": 1008,
  "\u2581available": 1009,
  "ta": 1010,
  "\u2581yet": 1011,
  "\u2581Each": 1012,
  "de": 1013,
  "\u258111": 1014,
  "\u2581minni": 1015,
  "\u2581change": 1016,
  "is": 1017,
  "\u2581skammtur": 1018,
  "\u2581\u00fe\u00f3": 1019,
  "\u2581congregation": 1020,
  "\u25a1": 1021,
  "\u2581within": 1022,
  "\u2581ganga": 1023,
  "\u2581eyes": 1024,
  "\u2581e": 1025,
  "\u2581%": 1026,
  "5": 1027,
  "\u2581book": 1028,
  "\u2581single": 1029,
  "\u2581\u00dear": 1030,
  "\u2581hope": 1031,
  "\u2581stungulyf": 1032,
  "to": 1033,
  "\u2581engin": 1034,
  "\u2581hverjum": 1035,
  "\u2581LORD": 1036,
  "\u2581case": 1037,
  "\u2581symptoms": 1038,
  "\u2581woman": 1039,
  "\u2581l": 1040,
  "\u2581Hva\u00f0a": 1041,
  "\u2581doses": 1042,
  "\u2581heard": 1043,
  "\u2581hinn": 1044,
  "v": 1045,
  "--": 1046,
  "\u2581Here": 1047,
  "\u2581cause": 1048,
  "\u2581vinna": 1049,
  "\u2581fyrsta": 1050,
  "\u2581eina": 1051,
  "\u2581oral": 1052,
  "\u2581mother": 1053,
  "ine": 1054,
  "\u2581lot": 1055,
  "\u25811/": 1056,
  "\u2581lj\u00f3s": 1057,
  "\u2581big": 1058,
  "\u2581experience": 1059,
  "\u2581happened": 1060,
  "\u2581reyna": 1061,
  "\u25810,": 1062,
  "\u2581\u016bar": 1063,
  "\u2581real": 1064,
  "\u2581leita": 1065,
  "\u2581read": 1066,
  "\u2581active": 1067,
  "\u2581\u00f6nnur": 1068,
  "\u2581M\u00f3seb\u00f3k": 1069,
  "\u258113": 1070,
  "\u2581everything": 1071,
  "\u2581bring": 1072,
  "\u2581On": 1073,
  "\u258119": 1074,
  "\u2581Some": 1075,
  "\u2581far": 1076,
  "\u2581or\u00f0i\u00f0": 1077,
  "\u2581al": 1078,
  "\u2581food": 1079,
  "ide": 1080,
  "\u2581acid": 1081,
  "\u2581having": 1082,
  "\u2581b\u00f6rn": 1083,
  "\u2581munu": 1084,
  "=": 1085,
  "av\u00edr": 1086,
  "\u2581shit": 1087,
  "\u2581syringe": 1088,
  "\u2581s\u00ed\u00f0an": 1089,
  "\u2581leave": 1090,
  "\u2581order": 1091,
  "\u2581head": 1092,
  "\u2581possible": 1093,
  "\u2581undan": 1094,
  "\u2581Kannski": 1095,
  "\u2581Far\u0111u": 1096,
  "\u2581nema": 1097,
  "\u2581start": 1098,
  "\u2581anda": 1099,
  "\u2581tablet": 1100,
  "\u2581vegar": 1101,
  "\u2581products": 1102,
  "\u2581car": 1103,
  "\u258117": 1104,
  "\u2581light": 1105,
  "\u2581s\u00e9u": 1106,
  "\u2581impairment": 1107,
  "\u2581among": 1108,
  "6": 1109,
  "\u2581enough": 1110,
  "\u2581girl": 1111,
  "\u2581\u016bess": 1112,
  "\u2581\u016barna": 1113,
  "am": 1114,
  "\u258112:": 1115,
  "\u2581\u00deessi": 1116,
  "\u2581Re": 1117,
  "\u2581week": 1118,
  "\u2581second": 1119,
  "\u2581Be": 1120,
  "%)": 1121,
  "\u2581matter": 1122,
  "\u2581d\u00f6gum": 1123,
  "\u2581l\u00e6kninn": 1124,
  "\u2581open": 1125,
  "\u2581alone": 1126,
  "\u25813.": 1127,
  "\u2581\u0136": 1128,
  "\u2581a\u00f0ra": 1129,
  "\u2581Peter": 1130,
  "\u2581wanted": 1131,
  "\u2581though": 1132,
  "aemia": 1133,
  "\u2581levels": 1134,
  "\u2581less": 1135,
  "\u2581\u016bau": 1136,
  "\u2581sitt": 1137,
  "\u2581gave": 1138,
  "\u2581U": 1139,
  "\u2581least": 1140,
  "\u2581few": 1141,
  "\u2581talking": 1142,
  "\u2581getting": 1143,
  "\u2581h\u00e9lt": 1144,
  "\u2581problems": 1145,
  "ma": 1146,
  "\u2581elska": 1147,
  "\u2581hvers": 1148,
  "\u2581subjects": 1149,
  "\u2581\u016av\u00ed": 1150,
  "\u2581Bibl\u00edan": 1151,
  "ns": 1152,
  "\u2581sj\u00faklingar": 1153,
  "\u2581samband": 1154,
  "\u2581h": 1155,
  "\u2581cannot": 1156,
  "\u2581fyrst": 1157,
  "\u2581n\u00e9": 1158,
  "\u2581annars": 1159,
  "\u2581ha": 1160,
  "\u2581oft": 1161,
  "\u2581someone": 1162,
  "\u2581miki\u00f0": 1163,
  "\u2581b\u00e6\u00f0i": 1164,
  "\u2581strax": 1165,
  "\u2581doesn": 1166,
  "ers": 1167,
  "\u2581klst": 1168,
  "\u2581since": 1169,
  "\u2581mat": 1170,
  "\u2581Lord": 1171,
  "w": 1172,
  "\u2581Patients": 1173,
  "\u2581Te": 1174,
  "\u2581kill": 1175,
  "\u2581Me\u00f0": 1176,
  "\u2581L\u00e1ttu": 1177,
  "The": 1178,
  "\u2581try": 1179,
  "\u2581meiri": 1180,
  "\u2581compared": 1181,
  "menn": 1182,
  "li": 1183,
  "\u2581teki\u00f0": 1184,
  "\u2581ten": 1185,
  "\u2581y\u00f0ar": 1186,
  "\u2581o": 1187,
  "\u2581\u00e1ri\u00f0": 1188,
  "\u2581\u00fej\u00f3na": 1189,
  "\u2581friend": 1190,
  "\u2581remember": 1191,
  "\u2581parents": 1192,
  "\u2581else": 1193,
  "\u2581serious": 1194,
  "efni": 1195,
  "\u2581annarra": 1196,
  "\u2581ber": 1197,
  "\u2581\u00feinn": 1198,
  "\u2581f\u00f3r": 1199,
  "\u2581\u016ai\u0111": 1200,
  "\u2581turn": 1201,
  "h\u00fa\u00f0a\u00f0": 1202,
  "\u2581hva\u00f0a": 1203,
  "\u2581Take": 1204,
  "\u2581baby": 1205,
  "\u2581job": 1206,
  "\u2581By": 1207,
  "\u2581fleiri": 1208,
  "\u2581skaltu": 1209,
  "\u2581t\u00ed\u00f0ni": 1210,
  "\u2581ykkar": 1211,
  "\u258110:": 1212,
  "\u2581sent": 1213,
  "anna": 1214,
  "\u2581nafn": 1215,
  "\u2581r\u00e1\u00f0": 1216,
  "\u2581different": 1217,
  "\u2581sex": 1218,
  "%": 1219,
  "\u2581gat": 1220,
  "ase": 1221,
  "\u2581inhibitor": 1222,
  "\u2581An": 1223,
  "\u2581m\u00ednum": 1224,
  "\u2581m\u00edna": 1225,
  "\u2581hugsa": 1226,
  "\u2581200": 1227,
  "\u2581news": 1228,
  "\u2581brother": 1229,
  "\u2581W": 1230,
  "\u2581gotta": 1231,
  "\u2581later": 1232,
  "\u2581power": 1233,
  "\u2581hylki": 1234,
  "\u2581Hi": 1235,
  "\u2581insulin": 1236,
  "\u2581s\u00ednu": 1237,
  "\u2581peace": 1238,
  "\u2581With": 1239,
  "\u2581control": 1240,
  "\u2581Drottins": 1241,
  "\u2581s\u00fdnt": 1242,
  "\u2581non": 1243,
  "min": 1244,
  "\u25814.2": 1245,
  "\u2581veist": 1246,
  "\u2581X": 1247,
  "\u2581wait": 1248,
  "\u2581Yahweh": 1249,
  "\u2581un": 1250,
  "\u2581Hvert": 1251,
  "\u2581hef\u00f0i": 1252,
  "\u2581lei\u00f0": 1253,
  "\u2581knew": 1254,
  "\u2581Hj\u00e1": 1255,
  "\u2581eitthva\u00f0": 1256,
  "\u2581room": 1257,
  "\u2581liver": 1258,
  "\u2581pharmaco": 1259,
  "\u2581einkenni": 1260,
  "arinnar": 1261,
  "\u2581affect": 1262,
  "nnar": 1263,
  "\u2581His": 1264,
  "\u00fdl": 1265,
  "me\u00f0fer\u00f0": 1266,
  "\u2581\u00e6ttum": 1267,
  "\u2581\u00f6ryggi": 1268,
  "\u25813,": 1269,
  "\u2581samkv\u00e6mt": 1270,
  "\u2581move": 1271,
  "\u2581eigin": 1272,
  "\u258111:": 1273,
  "\u2581mynd": 1274,
  "\u2581hvert": 1275,
  "\u2581J": 1276,
  "\u2581innt\u00f6ku": 1277,
  "ie": 1278,
  "\u2581hinum": 1279,
  "\u2581thou": 1280,
  "\u2581leitt": 1281,
  "\u2581stay": 1282,
  "\u2581+": 1283,
  "\u2581wanna": 1284,
  "\u2581immediately": 1285,
  "\u25817:": 1286,
  "-1": 1287,
  "\u2581allar": 1288,
  "\u2581received": 1289,
  "e\u00f0a": 1290,
  "\u2581boy": 1291,
  "\u2581looking": 1292,
  "\u2581events": 1293,
  "ity": 1294,
  "\u2581Mynd": 1295,
  "ka": 1296,
  "\u2581already": 1297,
  "\u2581efficacy": 1298,
  "\u2581vissi": 1299,
  "\u2581Or": 1300,
  "\u2581Sam": 1301,
  "\u2581bla\u00f0s\u00ed\u00f0u": 1302,
  "\u2581Bibl\u00edunni": 1303,
  "\u2581trying": 1304,
  "\u2581four": 1305,
  "\u2581alls": 1306,
  "\u2581See": 1307,
  "\u2581minutes": 1308,
  "\u2581skil": 1309,
  "\u2581miklu": 1310,
  "\u2581vilt": 1311,
  "yl": 1312,
  "\u2581pa": 1313,
  "\u2581fyrr": 1314,
  "\u2581hell": 1315,
  "\u2581Jack": 1316,
  "kinetic": 1317,
  "\u2581vitr": 1318,
  "\u2581veg": 1319,
  "\u2581d": 1320,
  "\u2581Right": 1321,
  "\u2581ni\u0111ur": 1322,
  "filled": 1323,
  "\u2581fuck": 1324,
  "\u2581problem": 1325,
  "\u2581white": 1326,
  "\u2581300": 1327,
  "pine": 1328,
  "\u2581exposure": 1329,
  "\u2581brought": 1330,
  "\u2581hands": 1331,
  "\u2581considered": 1332,
  "\u2581lengur": 1333,
  "di": 1334,
  "\u2581\u00fe\u00f3tt": 1335,
  "\u00f3n": 1336,
  "\u2581hold": 1337,
  "\u2581Father": 1338,
  "\u2581degi": 1339,
  "\u2581innd": 1340,
  "\u2581common": 1341,
  "\u2581pressure": 1342,
  "\u2581kv\u00f6ld": 1343,
  "\u2581s\u00edn": 1344,
  "\u2581city": 1345,
  "\u2581morning": 1346,
  "\u2581m\u00e1l": 1347,
  "\u2581sam": 1348,
  "\u2581low": 1349,
  "\u2581making": 1350,
  "\u2581whom": 1351,
  "em": 1352,
  "legt": 1353,
  "\u2581point": 1354,
  "ti": 1355,
  "\u2581infection": 1356,
  "\u2581response": 1357,
  "\u2581therefore": 1358,
  "\u25812,": 1359,
  "\u2581die": 1360,
  "\u2581\u00de": 1361,
  "\u2581m\u00e6lt": 1362,
  "grel": 1363,
  "az": 1364,
  "\u2581hluta": 1365,
  "\u2581Svona": 1366,
  "\u2581bl\u00f3\u00f0i": 1367,
  "\u2581hef\u0111i": 1368,
  "\u2581close": 1369,
  "\u2581Maybe": 1370,
  "patic": 1371,
  "\u2581J\u00e6ja": 1372,
  "\u2581valdi\u00f0": 1373,
  "\u2581function": 1374,
  "\u2581t\u00f3k": 1375,
  "cet": 1376,
  "stu": 1377,
  "\u2581result": 1378,
  "\u2581associated": 1379,
  "\u2581living": 1380,
  "\u2581viss": 1381,
  "\u2581\u00feann": 1382,
  "\u2581r\u00e6\u00f0a": 1383,
  "\u2581satt": 1384,
  "You": 1385,
  "\u2581gaf": 1386,
  "\u2581betur": 1387,
  "\u2581nor": 1388,
  "\u2581meet": 1389,
  "\u2581thy": 1390,
  "\u2581able": 1391,
  "\u2581Tell": 1392,
  "\u2581allan": 1393,
  "\u2581hluti": 1394,
  "\u2581hefir": 1395,
  "axel": 1396,
  "\u2581containing": 1397,
  "\u2581komast": 1398,
  "\u2581sta\u0111": 1399,
  "pa": 1400,
  "\u2581reason": 1401,
  "\u2581hinga\u0111": 1402,
  "\u2581neitt": 1403,
  "\u2581sm\u00e1": 1404,
  "\u2581line": 1405,
  "\u2581alveg": 1406,
  "\u2581soon": 1407,
  "\u2581lyfsins": 1408,
  "up": 1409,
  "\u2581half": 1410,
  "\u2581nei": 1411,
  "\u2581Gott": 1412,
  "\u2581due": 1413,
  "it": 1414,
  "\u2581miki\u0111": 1415,
  "\u2581Ekkert": 1416,
  "\u2581learn": 1417,
  "\u2581treat": 1418,
  "da": 1419,
  "\u2581\u00fe\u00edn": 1420,
  "\u2581lengi": 1421,
  "\u2581weight": 1422,
  "\u2581ready": 1423,
  "\u2581themselves": 1424,
  "\u25814.8": 1425,
  "\u2581Word": 1426,
  "\u2581free": 1427,
  "\u2581burt": 1428,
  "\u2581either": 1429,
  "\u2581receiving": 1430,
  "el": 1431,
  "\u2581\u016a\u00e1": 1432,
  "asa": 1433,
  "\u2581friends": 1434,
  "\u2581s\u00f3larhring": 1435,
  "\u2581lost": 1436,
  "\u2581wrote": 1437,
  "h\u00fddr": 1438,
  "\u2581r": 1439,
  "\u2581based": 1440,
  "\u2581clear": 1441,
  "\u2581CI": 1442,
  "se": 1443,
  "\u2581nice": 1444,
  "\u2581B\u00edddu": 1445,
  "\u2581mikla": 1446,
  "\u2581pregnant": 1447,
  "\u2581Gu\u0111": 1448,
  "\u258113:": 1449,
  "able": 1450,
  "lyf": 1451,
  "\u2581eye": 1452,
  "\u2581m\u00e1li": 1453,
  "\u2581150": 1454,
  "\u2581holy": 1455,
  "\u2581v\u00f6ldum": 1456,
  "te": 1457,
  "\u2581innrennslis": 1458,
  "\u258121": 1459,
  "\u2581lei\u0111": 1460,
  "\u2581pack": 1461,
  "\u2581post": 1462,
  "\u2581bl\u00e1\u00e6\u00f0": 1463,
  "\u2581brothers": 1464,
  "\u258180": 1465,
  "\u258175": 1466,
  "Y": 1467,
  "\u2581Al": 1468,
  "\u2581Dr": 1469,
  "\u2581similar": 1470,
  "\u2581von": 1471,
  "\u2581Bibl\u00edunnar": 1472,
  "\u2581illa": 1473,
  "\u2581\u016aegar": 1474,
  "\u2581sodium": 1475,
  "\u2581follow": 1476,
  "\u2581Wait": 1477,
  "\u00b0": 1478,
  "\u2581asked": 1479,
  "\u2581trials": 1480,
  "_": 1481,
  "\u2581Jerusalem": 1482,
  "\u2581\u00fei\u00f0": 1483,
  "\u2581langt": 1484,
  "fil": 1485,
  "\u2581H\u00e9r": 1486,
  "\u2581Like": 1487,
  "\u2581small": 1488,
  "\u2581einstaklingum": 1489,
  "\u2581five": 1490,
  "\u2581happy": 1491,
  "\u2581vikur": 1492,
  "\u2581ger\u00f0i": 1493,
  "\u2581often": 1494,
  "\u2581breast": 1495,
  "\u2581d\u00e6mis": 1496,
  "\u2581speak": 1497,
  "\u2581type": 1498,
  "\u2581above": 1499,
  "\u2581fimm": 1500,
  "\u2581hve": 1501,
  "mi": 1502,
  "\u2581geti": 1503,
  "\u2581Vertu": 1504,
  "\u2581\u00e1rum": 1505,
  "\u2581Hello": 1506,
  "\u2581bera": 1507,
  "-2": 1508,
  "\u2581below": 1509,
  "lu": 1510,
  "\u2581fact": 1511,
  "\u2581cases": 1512,
  "tic": 1513,
  "\u2581Dav\u00ed\u00f0": 1514,
  "\u2581higher": 1515,
  "\u2581King": 1516,
  "as": 1517,
  "\u2581einhvern": 1518,
  "\u2581Son": 1519,
  "\u2581view": 1520,
  "\u2581hj\u00e1lp": 1521,
  "\u2581school": 1522,
  "\u2581Fyrirgef\u0111u": 1523,
  "\u2581drink": 1524,
  "\u2581draga": 1525,
  "\u2581Have": 1526,
  "azol": 1527,
  "\u2581gefur": 1528,
  "\u2581idea": 1529,
  "\u2581v\u00e9r": 1530,
  "\u2581s\u00fa": 1531,
  "\u2581thinking": 1532,
  "\u2581l\u00e9t": 1533,
  "for": 1534,
  "\u2581Y": 1535,
  "\u2581potential": 1536,
  "\u2581apostle": 1537,
  "\u2581mouth": 1538,
  "\u2581konar": 1539,
  "ne": 1540,
  "\u2581according": 1541,
  "\u2581Co": 1542,
  "\u2581fire": 1543,
  "\u2581\u00e1ttu": 1544,
  "\u2581A\u0111": 1545,
  "nna": 1546,
  "ness": 1547,
  "rnar": 1548,
  "\u2581Veistu": 1549,
  "agli": 1550,
  "ib": 1551,
  "\u2581Will": 1552,
  "\u2581capsules": 1553,
  "\u2581sinnum": 1554,
  "\u2581lead": 1555,
  "\u25810": 1556,
  "\u2581comes": 1557,
  "\u2581f\u00e6r": 1558,
  "\u2581%1": 1559,
  "\u2581Krists": 1560,
  "\u2581York": 1561,
  "\u2581eftirfarandi": 1562,
  "\u2581Adam": 1563,
  "\u2581leggja": 1564,
  "\u2581g\u0137\u0111ur": 1565,
  "\u2581Abraham": 1566,
  "\u2581humans": 1567,
  "\u2581meta": 1568,
  "\u2581period": 1569,
  "\u2581questions": 1570,
  "\u2581war": 1571,
  "id": 1572,
  "\u2581Therefore": 1573,
  "gildi": 1574,
  "\u2581sj\u00e1lfur": 1575,
  "f\u00e6\u00f0": 1576,
  "\u2581whether": 1577,
  "ex": 1578,
  "day": 1579,
  "\u2581lifa": 1580,
  "\u00f0ur": 1581,
  "\u2581needed": 1582,
  "\u2581pen": 1583,
  "\u2581notu\u00f0": 1584,
  "\u2581verk": 1585,
  "\u2581site": 1586,
  "\u2581eat": 1587,
  "\u2581geri": 1588,
  "\u2581\u00feessari": 1589,
  "\u2581huga": 1590,
  "\u2581alvarlega": 1591,
  "\u2581Our": 1592,
  "\u2581fullor\u00f0num": 1593,
  "\u258110.": 1594,
  "\u2581b\u00faa": 1595,
  "\u2581normal": 1596,
  "\u2581Me": 1597,
  "a\u00f0": 1598,
  "\u2581skulum": 1599,
  "\u2581\u00d3": 1600,
  "\u2581rate": 1601,
  "\u2581d\u00e6mi": 1602,
  "\u2581isn": 1603,
  "*": 1604,
  "\u2581samt": 1605,
  "\u2581hi\u00f0": 1606,
  "\u2581hyper": 1607,
  "\u2581Picture": 1608,
  "\u2581\u00feitt": 1609,
  "artan": 1610,
  "\u2581cell": 1611,
  "\u2581Var": 1612,
  "\u2581barn": 1613,
  "\u2581erfitt": 1614,
  "\u2581myself": 1615,
  "\u2581ver\u00f0i": 1616,
  "\u2581Thanks": 1617,
  "\u2581service": 1618,
  "\u2581\u00fe\u00e1tt": 1619,
  "\u00fe\u00e9ttni": 1620,
  "\u2581Jer\u00fasalem": 1621,
  "\u2581morgun": 1622,
  "\u2581ago": 1623,
  "):": 1624,
  "\u2581Allir": 1625,
  "\u2581gegnum": 1626,
  "\u2581shown": 1627,
  "\u2581Enginn": 1628,
  "\u2581makes": 1629,
  "mus": 1630,
  "\u2581eigum": 1631,
  "\u2581gengur": 1632,
  "\u2581special": 1633,
  "\u2581stj\u00f3rn": 1634,
  "\u2581From": 1635,
  "\u2581prior": 1636,
  "\u2581\u00e1\u0111ur": 1637,
  "\u25816.": 1638,
  "\u2581receive": 1639,
  "\u2581thee": 1640,
  "\u2581hvar": 1641,
  "\u25818.": 1642,
  "\u2581samanbori": 1643,
  "\u2581hr": 1644,
  "\u2581servants": 1645,
  "\u2581fylgja": 1646,
  "\u2581certain": 1647,
  "\u2581notkunar": 1648,
  "\u2581ver\u0111um": 1649,
  "\u2581yeah": 1650,
  "\u2581heima": 1651,
  "\u2581h\u00e6tt": 1652,
  "\u2581grein": 1653,
  "\u2581gildi": 1654,
  "\u2581s\u00f6mu": 1655,
  "\u258190": 1656,
  "\u2581\u016bitt": 1657,
  "\u2581killed": 1658,
  "\u2581vinur": 1659,
  "\u2581door": 1660,
  "\u2581ways": 1661,
  "\u2581skammti": 1662,
  "\u2581cells": 1663,
  "\u2581hj\u00e1lpar": 1664,
  "\u2581law": 1665,
  "\u25814,": 1666,
  "\u2581benefit": 1667,
  "\u2581faithful": 1668,
  "land": 1669,
  "\u258124:": 1670,
  "\u2581h\u00fas": 1671,
  "\u2581play": 1672,
  "\"?": 1673,
  "\u2581eitur": 1674,
  "\u2581\u00fe\u00ednum": 1675,
  "\u2581m\u00edkr\u00f3": 1676,
  "son": 1677,
  "\u2581failure": 1678,
  "\u25818:": 1679,
  "ari": 1680,
  "ng": 1681,
  "\u258115:": 1682,
  "\u2581(2.": 1683,
  "\u2581results": 1684,
  "\u2581tvisvar": 1685,
  "\u2581\u00fe\u00f6rf": 1686,
  "\u2581present": 1687,
  "\u2581early": 1688,
  "\u2581annan": 1689,
  "\u2581rest": 1690,
  "\u2581utan": 1691,
  "\u2581gone": 1692,
  "\u2581komi\u0111": 1693,
  "\u2581metaboli": 1694,
  "\u2581\u00f6\u00f0ru": 1695,
  "unar": 1696,
  "af": 1697,
  "ju": 1698,
  "co": 1699,
  "ised": 1700,
  "\u2581f\u0137r": 1701,
  "\u2581run": 1702,
  "\u2581required": 1703,
  "\u2581population": 1704,
  "\u2581OK": 1705,
  "\u2581history": 1706,
  "\u2581became": 1707,
  "\u2581fast": 1708,
  "\u2581a\u0111eins": 1709,
  "lin": 1710,
  "\u2581hypo": 1711,
  "\u2581Give": 1712,
  "\u2581Korintubr\u00e9f": 1713,
  "\u2581cap": 1714,
  "less": 1715,
  "\u2581(2": 1716,
  "\u2581Table": 1717,
  "\u2581me\u00f0g\u00f6ngu": 1718,
  "\u2581segi": 1719,
  "\u2581bit": 1720,
  "\u2581M\u00e1": 1721,
  "\u2581occur": 1722,
  "\u2581\u016aakka": 1723,
  "\u2581kominn": 1724,
  "du": 1725,
  "\u258112.": 1726,
  "\u2581answer": 1727,
  "\u25817.": 1728,
  "1/": 1729,
  "\u258148": 1730,
  "\u2581Le": 1731,
  "!\"": 1732,
  "\u2581knowledge": 1733,
  "\u2581feeling": 1734,
  "\u2581margir": 1735,
  "\u2581activity": 1736,
  "\u2581s\u00ed\u00f0ar": 1737,
  "\u2581\u016a": 1738,
  "\u2581n\u00e6r": 1739,
  "\u2581kann": 1740,
  "50": 1741,
  "\u2581H\u00e6": 1742,
  "O": 1743,
  "\u2581\u016bessa": 1744,
  "\u2581lives": 1745,
  "\u2581fear": 1746,
  "leg": 1747,
  "/0": 1748,
  "\u2581question": 1749,
  "\u2581ain": 1750,
  "itant": 1751,
  "\u2581\u00e1hyggjur": 1752,
  "\u2581nations": 1753,
  "\u258122": 1754,
  "\u2581vaccine": 1755,
  "\u2581worship": 1756,
  "\u2581wants": 1757,
  "\u2581Matthew": 1758,
  "\u2581ye": 1759,
  "ton": 1760,
  "\u2581r\u00edki": 1761,
  "\u2581listen": 1762,
  "\u2581powder": 1763,
  "\u2581Sem": 1764,
  "\u2581400": 1765,
  "\u2581bleeding": 1766,
  "\u2581works": 1767,
  "\u2581Seg\u0111u": 1768,
  "\u2581stand": 1769,
  "\u2581heaven": 1770,
  "\u2581sit": 1771,
  "\u2581langar": 1772,
  "sing": 1773,
  "\u25814.5": 1774,
  "ol": 1775,
  "\u2581ver\u0111a": 1776,
  "\u2581skalt": 1777,
  "\u2581actually": 1778,
  "\u2581anyone": 1779,
  "\u2581m\u00f3ti": 1780,
  "\u2581needle": 1781,
  "\u258115.": 1782,
  "\u2581Sj\u00faklingar": 1783,
  "\u2581further": 1784,
  "\u2581\u00feurfum": 1785,
  "\u25815,": 1786,
  "Z": 1787,
  "\u2581wasn": 1788,
  "il": 1789,
  "\u2581drepa": 1790,
  "\u2581hug": 1791,
  "\u2581evidence": 1792,
  "\u2581twice": 1793,
  "ch": 1794,
  "\u2581lyfjum": 1795,
  "u\u00f0": 1796,
  "\u2581working": 1797,
  "\u2581St": 1798,
  "\u2581Keep": 1799,
  "\u2581changes": 1800,
  "\u00edni": 1801,
  "\u2581m\u00e1nu\u00f0i": 1802,
  "\u2581500": 1803,
  "\u2581inni": 1804,
  "\u2581reaction": 1805,
  "\u2581manni": 1806,
  "\u2581necessary": 1807,
  "\u2581check": 1808,
  "\u258111.": 1809,
  "\u258145": 1810,
  "\u2581m\u00e1tt": 1811,
  "\u2581augum": 1812,
  "\u2581Stop": 1813,
  "\u2581tafla": 1814,
  "sta\u00f0": 1815,
  "\u2581samr\u00e6mi": 1816,
  "\u2581Engar": 1817,
  "\u2581Sorry": 1818,
  "\u2581cancer": 1819,
  "\u2581continue": 1820,
  "\u25819:": 1821,
  "im": 1822,
  "\u2581husband": 1823,
  "\u2581signs": 1824,
  "glas": 1825,
  "\u2581anna\u0111": 1826,
  "J\u00e1": 1827,
  "\u2581Her": 1828,
  "\u2581minna": 1829,
  "d\u00edn": 1830,
  "\u2581walk": 1831,
  "\u2581tv\u00ed": 1832,
  "\u2581bar": 1833,
  "\u2581total": 1834,
  "\u2581vikna": 1835,
  "\u2581n\u00fd": 1836,
  "\u2581Even": 1837,
  "\u25819.": 1838,
  "\u2581however": 1839,
  "\u2581Ha": 1840,
  "\u2581fari\u00f0": 1841,
  "\u2581breyta": 1842,
  "\u2581stundum": 1843,
  "\u2581sv\u00f6run": 1844,
  "inib": 1845,
  "ry": 1846,
  "vo": 1847,
  "\u2581drive": 1848,
  "\u2581message": 1849,
  "\u2581strong": 1850,
  "\u2581heyra": 1851,
  "\u2581standa": 1852,
  "9": 1853,
  "\u2581Sj\u00e1": 1854,
  "\u2581future": 1855,
  "\u2581test": 1856,
  "\u2581\u016b\u00e6r": 1857,
  "\u2581happen": 1858,
  "\u2581wouldn": 1859,
  "sta": 1860,
  "\u2581needs": 1861,
  "\u2581s\u00e9\u0111": 1862,
  "\u2581endur": 1863,
  "\u2581l\u00e6knirinn": 1864,
  "\u2581f\u00f6\u00f0ur": 1865,
  "\u2581Z": 1866,
  "\u2581vorum": 1867,
  "\u2581Mj\u00f6g": 1868,
  "\u25816,": 1869,
  "\u2581avoid": 1870,
  "\u2581century": 1871,
  "\u2581mm": 1872,
  "rnir": 1873,
  "\u2581disciples": 1874,
  "\u2581baseline": 1875,
  "\u2581lesa": 1876,
  "\u2581\u00e6ttir": 1877,
  "\u2581skilja": 1878,
  "\u2581concentrations": 1879,
  "\u2581looks": 1880,
  "ana": 1881,
  "\u25819,": 1882,
  "\u2581Bara": 1883,
  "\u2581konungur": 1884,
  "\u2581business": 1885,
  "\u2581consider": 1886,
  "\u2581ger\u0111i": 1887,
  "\u2581contact": 1888,
  "\u2581deal": 1889,
  "\u2581Moses": 1890,
  "\u2581\u00c1\u00f0ur": 1891,
  "\u258114.": 1892,
  "\u2581sendi": 1893,
  "\u2581Taktu": 1894,
  "\u2581level": 1895,
  "\u2581oss": 1896,
  "one": 1897,
  "What": 1898,
  "\u2581f\u00f6rum": 1899,
  "\u2581konur": 1900,
  "\u2581Pre": 1901,
  "\u2581bein": 1902,
  "\u2581pregnancy": 1903,
  "\u2581Job": 1904,
  "\u2581enda": 1905,
  "\u2581alv\u00f6ru": 1906,
  "\u2581s\u00e9rstaklega": 1907,
  "\u2581alvarleg": 1908,
  "sk": 1909,
  "\u2581vi\u00f0eigandi": 1910,
  "\u2581significant": 1911,
  "\u2581sons": 1912,
  "\u2581trust": 1913,
  "\u2581longer": 1914,
  "25": 1915,
  "\u2581heiminum": 1916,
  "\u2581umbrot": 1917,
  "\u2581Mig": 1918,
  "ast": 1919,
  "\u258116.": 1920,
  "\u2581Fjandinn": 1921,
  "\u2581dau\u00f0a": 1922,
  "\u2581manns": 1923,
  "\u2581serve": 1924,
  "\u2581vinnu": 1925,
  "Matteus": 1926,
  "\u2581pabbi": 1927,
  "\u2581setja": 1928,
  "\u0137": 1929,
  "and": 1930,
  "\u2581deyja": 1931,
  "\u2581j\u00e1": 1932,
  "\u2581heildar": 1933,
  "\u2581t\u00f6flu": 1934,
  "\u2581efni": 1935,
  "\u2581s\u00f6gu": 1936,
  "\u258123": 1937,
  "\u2581konu": 1938,
  "\u2581De": 1939,
  "\u2581file": 1940,
  "\u2581sin": 1941,
  "\u2581elskan": 1942,
  "\u2581died": 1943,
  "lan": 1944,
  "\u2581Vi": 1945,
  "\u2581liggja": 1946,
  "\u2581spyrja": 1947,
  "ver": 1948,
  "\u2581f\u00f3lki": 1949,
  "\u2581di": 1950,
  "\u2581forget": 1951,
  "\u2581moderate": 1952,
  "\u2581munn": 1953,
  "\u2581nokkur": 1954,
  "\u258114:": 1955,
  "\u2581date": 1956,
  "ia": 1957,
  "\u2581along": 1958,
  "\u2581toward": 1959,
  "\u2581adults": 1960,
  "\u2581guess": 1961,
  "\u2581\u00cdsrael": 1962,
  "of": 1963,
  "\u2581form": 1964,
  "\u2581\u00feessara": 1965,
  "\u2581bil": 1966,
  "b\u00f3lga": 1967,
  "\u2581fari\u0111": 1968,
  "\u258126": 1969,
  "\u2581innihalds": 1970,
  "\u258114,": 1971,
  "\u2581kenna": 1972,
  "\u2581mamma": 1973,
  "\u258113.": 1974,
  "\u2581IU": 1975,
  "\u2581sta\u00f0ar": 1976,
  "\u2581personal": 1977,
  "\u2581k\u00e6rleika": 1978,
  "\u2581l\u00edta": 1979,
  "\u2581appropriate": 1980,
  "\u2581\u00feekkt": 1981,
  "sem": 1982,
  "\u2581cut": 1983,
  "\u2581Man": 1984,
  "Name": 1985,
  "Jeh\u00f3va": 1986,
  "flo": 1987,
  "eth": 1988,
  "\u2581allra": 1989,
  "\u2581J\u00f3hannes": 1990,
  "\u2581late": 1991,
  "8": 1992,
  "\u2581reduced": 1993,
  "arnir": 1994,
  "\u2581month": 1995,
  "\u2581baka": 1996,
  "\u2581f\u0137lk": 1997,
  "\u2581heiti": 1998,
  "\u2581Sumir": 1999,
  "\u2581ger\u00f0": 2000,
  "\u2581mono": 2001,
  "\u2581sinna": 2002,
  "\u2581Mark": 2003,
  "\u2581auka": 2004,
  "\u2581M\u00f3se": 2005,
  "\u2581Would": 2006,
  "+": 2007,
  "\u2581hita": 2008,
  "\u2581conditions": 2009,
  "\u2581kosti": 2010,
  "&": 2011,
  "\u258133": 2012,
  "\u2581red": 2013,
  "openi": 2014,
  "PV": 2015,
  "\u2581sermi": 2016,
  "u\u00f0u": 2017,
  "\u2581Psalm": 2018,
  "inum": 2019,
  "\u2581fannst": 2020,
  "\u2581natr\u00edum": 2021,
  "\u258165": 2022,
  "\u2581\u00e1huga": 2023,
  "gj\u00f6f": 2024,
  "\u2581began": 2025,
  "\u2581H\u00e6ttu": 2026,
  "95%": 2027,
  "\u2581especially": 2028,
  "ab": 2029,
  "3%": 2030,
  "\u2581Kristur": 2031,
  "\u2581einhverju": 2032,
  "\u2581m\u00ednu": 2033,
  "\u258117:": 2034,
  "\u2581kynna": 2035,
  "\u2581var\u00f0andi": 2036,
  "\u2581veita": 2037,
  "est": 2038,
  "\u2581loss": 2039,
  "\u2581minute": 2040,
  "\u2581beautiful": 2041,
  "\u2581Listen": 2042,
  "\u2581include": 2043,
  "\u2581s\u00fdndi": 2044,
  "9%": 2045,
  "\u2581Sj\u00e1\u0111u": 2046,
  "\u2581skulu": 2047,
  "\u25818,": 2048,
  "\u2581pretty": 2049,
  "\u2581alfa": 2050,
  "\u2581tv\u00f6": 2051,
  "\u2581action": 2052,
  "\u2581six": 2053,
  "\u2581\u016bessi": 2054,
  "\u2581ofan": 2055,
  "ska": 2056,
  "AL": 2057,
  "\u2581sense": 2058,
  "ul": 2059,
  "\u2581greater": 2060,
  "\u2581Very": 2061,
  "\u2581vandam\u00e1l": 2062,
  "\u2581ministry": 2063,
  "\u2581married": 2064,
  "\u2581sleep": 2065,
  "\u2581daginn": 2066,
  "\u2581\u00f6r": 2067,
  "ronic": 2068,
  "\u2581conco": 2069,
  "\u2581hour": 2070,
  "til": 2071,
  "Opinberunarb\u00f3kin": 2072,
  "\u2581started": 2073,
  "\u2581ins\u00fal\u00edn": 2074,
  "\u2581Engin": 2075,
  "\u2581self": 2076,
  "\u258117.": 2077,
  "\u2581tonight": 2078,
  "\u2581g\u00e6tu": 2079,
  "\u258170": 2080,
  "\u2581h\u00e6tti": 2081,
  "\u2581maybe": 2082,
  "\u2581showed": 2083,
  "\u2581sub": 2084,
  "\u2581merki": 2085,
  "\u2581hvorki": 2086,
  "\u2581Matteus": 2087,
  "\u2581S\u00e1": 2088,
  "\u2581\u00e6ttu": 2089,
  "\u2581arm": 2090,
  "\u2581counsel": 2091,
  "he": 2092,
  "\u2581fellow": 2093,
  "\u2581varst": 2094,
  "\u2581raun": 2095,
  "\u2581toxicity": 2096,
  "\u2581\u00feennan": 2097,
  "\u2581pay": 2098,
  "\u2581\u00dat": 2099,
  "\u2581knows": 2100,
  "\u2581sk\u00f6mmtum": 2101,
  "\u2581class": 2102,
  "\u2581Ger\u0111u": 2103,
  "CT": 2104,
  "be": 2105,
  "\u2581sp": 2106,
  ");": 2107,
  "\u2581Dad": 2108,
  "\u2581gerist": 2109,
  "\u2581kem": 2110,
  "\u2581lower": 2111,
  "\u2581v\u00f6\u00f0va": 2112,
  "\u2581Tel": 2113,
  "ga": 2114,
  "\u2581country": 2115,
  "\u2581watch": 2116,
  "\u2581\u00fej\u00f3nustu": 2117,
  "\u2581kid": 2118,
  "\u2581\u00feurfa": 2119,
  "\u2581attention": 2120,
  "\u2581James": 2121,
  "J": 2122,
  "\u2581st\u00f3\u00f0": 2123,
  "W": 2124,
  "\u2581infections": 2125,
  "\u2581mild": 2126,
  "\u2581konum": 2127,
  "\u2581short": 2128,
  "4%": 2129,
  "mab": 2130,
  "\u258137": 2131,
  "\u2581inside": 2132,
  "\u2581mine": 2133,
  "\u2581account": 2134,
  "\u2581mikil": 2135,
  "\u2581ver\u00f0um": 2136,
  "\u2581minnsta": 2137,
  "\u2581marriage": 2138,
  "\u25817,": 2139,
  "\u2581innihalda": 2140,
  "\u2581everyone": 2141,
  "\u2581elders": 2142,
  "s\u00fdru": 2143,
  "\u2581feet": 2144,
  "\u2581tel": 2145,
  "\u2581Hall\u0137": 2146,
  "\u2581easy": 2147,
  "\u258127": 2148,
  "\u2581support": 2149,
  "\u2581ma": 2150,
  "\u2581Great": 2151,
  "\u2581II": 2152,
  "\u2581list": 2153,
  "\u2581uppi": 2154,
  "100": 2155,
  "\u2581s\u00f6fnu\u00f0inum": 2156,
  "\u2581Yet": 2157,
  "\u2581Thus": 2158,
  "\u2581Really": 2159,
  "\u25814)": 2160,
  "\u2581gekk": 2161,
  "\u2581skrifa\u00f0i": 2162,
  "hv\u00f6rf": 2163,
  "\u00ed\u00f0": 2164,
  "ediatric": 2165,
  "fen": 2166,
  "\u2581fight": 2167,
  "\u2581perfect": 2168,
  "\u2581sonur": 2169,
  "\u2581preaching": 2170,
  "\u2581Tev": 2171,
  "\u2581van": 2172,
  "\u2581einum": 2173,
  "\u2581s\u00e9\u00f0": 2174,
  "\u2581sj\u00e1lf": 2175,
  "\u2581\u00c1fram": 2176,
  "\u2581innrennsli": 2177,
  "\u2581postuli": 2178,
  "\u2581Ja": 2179,
  "\u2581joy": 2180,
  "\u2581Ma": 2181,
  "\u2581soul": 2182,
  "\u2581eldri": 2183,
  "ley": 2184,
  "\u2581ranns\u00f3knir": 2185,
  "\u00fd": 2186,
  "\u2581Notkun": 2187,
  "\u2581provided": 2188,
  "at\u00edn": 2189,
  "\u2581anointed": 2190,
  "\u2581giving": 2191,
  "et": 2192,
  "10": 2193,
  "\u2581frekar": 2194,
  "me": 2195,
  "\u2581indicated": 2196,
  "\u2581past": 2197,
  "\u0111ur": 2198,
  "\u2581sick": 2199,
  "\u2581local": 2200,
  "emetr": 2201,
  "kyrninga": 2202,
  "\u2581for\u00f0ast": 2203,
  "\u2581pharmacist": 2204,
  "\u2581expected": 2205,
  "riton": 2206,
  "\u2581Jesaja": 2207,
  "\u2581barna": 2208,
  "\u2581Isaiah": 2209,
  "\u2581share": 2210,
  "\u2581stuff": 2211,
  "\u2581virkni": 2212,
  "\u2581purpose": 2213,
  "\u2581m\u00edn\u00fatur": 2214,
  "\u2581mankind": 2215,
  "\u2581\u016beirra": 2216,
  "\u2581respect": 2217,
  "\u2581\u00deess": 2218,
  "\u2581allergic": 2219,
  "\u2581l\u00e6tur": 2220,
  "\u2581Ein": 2221,
  "U": 2222,
  "ter": 2223,
  "\u2581\u016bessum": 2224,
  "\u2581tr\u00faa": 2225,
  "\u2581Ben": 2226,
  "\u2581v\u00e6ru": 2227,
  "\u2581area": 2228,
  "\u2581\u00f6ld": 2229,
  "\u2581Those": 2230,
  "\u2581forth": 2231,
  "cept": 2232,
  "\u2581kristna": 2233,
  "\u2581s\u00fdnir": 2234,
  "ler": 2235,
  "\u2581May": 2236,
  "\u2581fall": 2237,
  "\u2581reconstitut": 2238,
  "\u00c1": 2239,
  "\u2581loving": 2240,
  "\u2581l\u00f6g": 2241,
  "ha": 2242,
  "\u2581\u00f6ryggis": 2243,
  "\u2581t\u00e6kif\u00e6ri": 2244,
  "\u2581r\u00e1\u00f0a": 2245,
  "\u2581gift": 2246,
  "\u2581situation": 2247,
  "itis": 2248,
  "\u2581mikilv\u00e6gt": 2249,
  "\u2581Since": 2250,
  "setningu": 2251,
  "\u2581Hold": 2252,
  "\u2581established": 2253,
  "\u2581\u016b\u00edna": 2254,
  "\u2581Other": 2255,
  "\u2581\u016aau": 2256,
  "\u2581rit": 2257,
  "\u2581likely": 2258,
  "\u2581l\u00edfs": 2259,
  "\u2581wicked": 2260,
  "\u2581\u00fe\u00edna": 2261,
  "\u2581hitta": 2262,
  "ting": 2263,
  "\u2581mi\u00f0": 2264,
  "\u2581reduction": 2265,
  "\u258110,": 2266,
  "\u2581million": 2267,
  "\u2581relationship": 2268,
  "\u2581medical": 2269,
  "mm": 2270,
  "\u2581fj\u00f6lskyldu": 2271,
  "\u2581hugsanlega": 2272,
  "\u2581state": 2273,
  "\u2581sister": 2274,
  "\u2581felt": 2275,
  "\u2581Scriptures": 2276,
  "myndun": 2277,
  "\u2581phone": 2278,
  "\u2581rare": 2279,
  "\u2581related": 2280,
  "\u2581break": 2281,
  "\u2581disorders": 2282,
  "\u2581heila": 2283,
  "\u2581upphafi": 2284,
  "\u2581nafni": 2285,
  "\u2581behind": 2286,
  "\u2581near": 2287,
  "\u2581hj\u00e1lpa\u00f0": 2288,
  "\u2581breytt": 2289,
  "\u2581clearance": 2290,
  "\u2581respectively": 2291,
  "\u258131": 2292,
  "\u2581hendi": 2293,
  "ah": 2294,
  "\u2581yes": 2295,
  "\u2581tv\u00e6r": 2296,
  "\u2581Haltu": 2297,
  "\u2581Pabbi": 2298,
  "\u2581World": 2299,
  "\u2581adult": 2300,
  "\u2581animals": 2301,
  "\u2581haven": 2302,
  "\u00e6lingu": 2303,
  "\u2581thus": 2304,
  "\u2581condition": 2305,
  "\u2581save": 2306,
  "\u2581h\u00f3pnum": 2307,
  "\u2581hendur": 2308,
  "\u2581hugmynd": 2309,
  "\u2581fyrri": 2310,
  "\u2581\u00e6tla\u00f0": 2311,
  "\u2581Mamma": 2312,
  "\u2581return": 2313,
  "\u2581J\u00fa": 2314,
  "9/": 2315,
  "\u2581haldi\u00f0": 2316,
  "\u2581promise": 2317,
  "op": 2318,
  "\u2581afraid": 2319,
  "\u2581righteous": 2320,
  "\u2581voice": 2321,
  "\u2581sykurs\u00fdki": 2322,
  "ling": 2323,
  "\u2581dogs": 2324,
  "\u2581enga": 2325,
  "\u2581s\u00e9rt": 2326,
  "\u2581tali\u00f0": 2327,
  "\u2581\u00fe\u00e9ttni": 2328,
  "\u2581bottle": 2329,
  "\u2581air": 2330,
  "\u2581healthy": 2331,
  "\u2581m\u00ednir": 2332,
  "lfa": 2333,
  "\u2581drug": 2334,
  "dena": 2335,
  "\u2581yngri": 2336,
  "\u2581kona": 2337,
  "\u00edns": 2338,
  "ingar": 2339,
  "\u2581followed": 2340,
  "\u2581hina": 2341,
  "\u2581bone": 2342,
  "ey": 2343,
  "\u2581daughter": 2344,
  "\u2581annarri": 2345,
  "\u2581\u00feeirri": 2346,
  "\u2581decreased": 2347,
  "\u2581random": 2348,
  "\u2581suspension": 2349,
  "\u2581hurt": 2350,
  "\u2581t\u00f3ku": 2351,
  "\u2581L\u00e6knirinn": 2352,
  "\u2581a\u00f0rir": 2353,
  "\u2581ability": 2354,
  "\u2581\u00fati": 2355,
  "endur": 2356,
  "ment": 2357,
  "\u2581Vegna": 2358,
  "\u2581pass": 2359,
  "\u2581bed": 2360,
  "\u2581couldn": 2361,
  "\u2581skipti": 2362,
  "\u2581t\u00edu": 2363,
  "v\u00edr": 2364,
  "\u2581jafn": 2365,
  "\u2581count": 2366,
  "8%": 2367,
  "ant": 2368,
  "\u2581d\u00fdra": 2369,
  "\u2581Q": 2370,
  "pro": 2371,
  "\u2581\u00deau": 2372,
  "\u2581heimi": 2373,
  "\u2581thank": 2374,
  "\u2581stungu": 2375,
  "\u2581gaman": 2376,
  "\u2581var\u0111": 2377,
  "\u2581virka": 2378,
  "\u2581g\u00e6tir": 2379,
  "\u2581THE": 2380,
  "\u2581neither": 2381,
  "\u2581tvo": 2382,
  "\u2581wisdom": 2383,
  "\u2581act": 2384,
  "\u2581goes": 2385,
  "\u2581kids": 2386,
  "\u2581La": 2387,
  "\u2581pro": 2388,
  "\u2581komst": 2389,
  "\u2581leik": 2390,
  "\u2581besta": 2391,
  "\u2581experienced": 2392,
  "\u2581clean": 2393,
  "\u2581Lyf": 2394,
  "\u2581sj\u00f6": 2395,
  "\u2581n\u00e6st": 2396,
  "\u2581ourselves": 2397,
  "\u2581Ta": 2398,
  "\u2581Einn": 2399,
  "\u2581gefin": 2400,
  "\u2581Uppl\u00fdsingar": 2401,
  "\u2581vitum": 2402,
  "ge": 2403,
  "\u2581(3": 2404,
  "\u2581lyfjafr\u00e6\u00f0ing": 2405,
  "form": 2406,
  "\u25812)": 2407,
  "\u2581probably": 2408,
  "\u2581worry": 2409,
  "ous": 2410,
  "\u2581greint": 2411,
  "\u2581intravenous": 2412,
  "\u2581alive": 2413,
  "\u2581kristnir": 2414,
  "iv": 2415,
  "\u2581\u00cdsraelsmenn": 2416,
  "\u2581\u016barft": 2417,
  "\u2581article": 2418,
  "\u2581incidence": 2419,
  "\u2581III": 2420,
  "\u2581send": 2421,
  "u\u0111": 2422,
  "\u2581gerum": 2423,
  "2/": 2424,
  "\u2581reduce": 2425,
  "\u2581ex": 2426,
  "\u2581Am": 2427,
  "\u2581fann": 2428,
  "\u2581a\u00f0rar": 2429,
  "\u2581large": 2430,
  "\u2581Does": 2431,
  "\u2581annar": 2432,
  "tur": 2433,
  "jum": 2434,
  "\u2581loka": 2435,
  "\u2581\u016bennan": 2436,
  "ium": 2437,
  "\u2581\u00e1hrifum": 2438,
  "City": 2439,
  "\u258120:": 2440,
  "hreinsun": 2441,
  "\u2581Two": 2442,
  "\u258121:": 2443,
  "\u2581substance": 2444,
  "sk\u00f6mmtun": 2445,
  "\u2581crazy": 2446,
  "\u2581vatn": 2447,
  "\u2581Excuse": 2448,
  "una": 2449,
  "vi": 2450,
  "\u2581notar": 2451,
  "\u2581wish": 2452,
  "\u2581beta": 2453,
  "\u2581older": 2454,
  "\u258115,": 2455,
  "ber": 2456,
  "r\u0111u": 2457,
  "\u2581gerast": 2458,
  "\u2581heims": 2459,
  "laus": 2460,
  "\u2581prayer": 2461,
  "ce": 2462,
  "\u2581250": 2463,
  "\u2581v\u00edst": 2464,
  "\u258118.": 2465,
  "\u2581limited": 2466,
  "unni": 2467,
  "\u2581Many": 2468,
  "\u2581couple": 2469,
  "\u2581l\u00e6ra": 2470,
  "\u2581engu": 2471,
  "\u2581\u00fej\u00f3\u00f0": 2472,
  "\u2581chance": 2473,
  "\u2581samt\u00edmis": 2474,
  "\u2581t\u00edmum": 2475,
  "\u258116:": 2476,
  "\u2581ahead": 2477,
  "\u2581field": 2478,
  "\u2581\u00feessar": 2479,
  "\u2581breytingar": 2480,
  "\u2581fylgjast": 2481,
  "\u2581brj\u00f3sti": 2482,
  "\u2581seven": 2483,
  "ive": 2484,
  "\u2581Michael": 2485,
  "\u2581complete": 2486,
  "\u2581m\u00f6rgum": 2487,
  "\u2581primary": 2488,
  "\u2581aukaverkunum": 2489,
  "\u2581general": 2490,
  "\u2581T\u00edm\u00f3teusarbr\u00e9f": 2491,
  "\u2581almost": 2492,
  "\u2581s\u00edns": 2493,
  "\u2581sett": 2494,
  "\u2581Dur": 2495,
  "\u2581box": 2496,
  "harma": 2497,
  "\u2581j\u00f6r\u00f0inni": 2498,
  "fa": 2499,
  "\u2581adjustment": 2500,
  "\u2581Daniel": 2501,
  "\u2581Judah": 2502,
  "\u2581viltu": 2503,
  "a\u0111": 2504,
  "\u2581Could": 2505,
  "\u2581horfa": 2506,
  "\u2581geyma": 2507,
  "\u2581story": 2508,
  "\u2581hit": 2509,
  "\u2581fylgi": 2510,
  "\u2581n\u00e6sta": 2511,
  "\u2581gle\u00f0i": 2512,
  "\u2581Use": 2513,
  "\u2581l\u00edkt": 2514,
  "\u00cd": 2515,
  "\u2581sprautu": 2516,
  "\u2581advice": 2517,
  "\u2581.\"": 2518,
  "\u2581involved": 2519,
  "\u2581(1": 2520,
  "\u016b": 2521,
  "\u2581rash": 2522,
  "\u2581OF": 2523,
  "\u2581bak": 2524,
  "\u2581United": 2525,
  "\u2581b\u00f6rnin": 2526,
  "\u2581report": 2527,
  "Nei": 2528,
  "\u2581einkennum": 2529,
  "\u2581m\u00e1na\u00f0a": 2530,
  "pe": 2531,
  "segir": 2532,
  "mis": 2533,
  "\u2581Frank": 2534,
  "\u2581s\u00ed\u00f0ustu": 2535,
  "tt": 2536,
  "\u258136": 2537,
  "\u2581bi\u00f0ja": 2538,
  "\u2581heitir": 2539,
  "\u2581b\u00fainn": 2540,
  "ke": 2541,
  "optional": 2542,
  "\u258119:": 2543,
  "\u2581l\u00e6kninum": 2544,
  "\u2581trouble": 2545,
  "\u2581usually": 2546,
  "\u2581\u016aessi": 2547,
  "no": 2548,
  "\u2581hvern": 2549,
  "\u2581store": 2550,
  "\u2581krabbameins": 2551,
  "\u2581caused": 2552,
  "\u2581exactly": 2553,
  "etin": 2554,
  "\u2581trial": 2555,
  "\u2581Fuck": 2556,
  "\u2581translation": 2557,
  "\u2581tried": 2558,
  "\u2581Jews": 2559,
  "\u2581Mom": 2560,
  "\u2581tveimur": 2561,
  "\u2581kingdom": 2562,
  "\u2581starting": 2563,
  "verkanir": 2564,
  "\u2581major": 2565,
  "t\u00edn": 2566,
  "pp": 2567,
  "\u2581gets": 2568,
  "\u2581game": 2569,
  "\u2581micrograms": 2570,
  "\u2581Lyfja": 2571,
  "\u2581enjoy": 2572,
  "\u2581supposed": 2573,
  "\u2581var\u00fa\u00f0ar": 2574,
  "\u2581Evr\u00f3pu": 2575,
  "\u2581st\u00e6rri": 2576,
  "\u2581eru\u0111": 2577,
  "\u2581lungna": 2578,
  "\u2581poor": 2579,
  "\u258135": 2580,
  "\u2581kept": 2581,
  "\u2581sumir": 2582,
  "\u2581tilvikum": 2583,
  "m\u00edn": 2584,
  "\u2581Name": 2585,
  "\u2581dog": 2586,
  "\u2581kalla": 2587,
  "ma\u00f0ur": 2588,
  "\u2581P\u00e9tursbr\u00e9f": 2589,
  "\u2581gj\u00f6ra": 2590,
  "\u2581w": 2591,
  "\u2581byrja": 2592,
  "\u2581Upp": 2593,
  "\u2581Fr\u00e1": 2594,
  "\u2581controlled": 2595,
  "3/": 2596,
  "\u2581hamingju": 2597,
  "ty": 2598,
  "ma\u0111ur": 2599,
  "\u2581skammtinn": 2600,
  "\u2581evil": 2601,
  "\u2581rather": 2602,
  "\u2581beint": 2603,
  "\u2581outside": 2604,
  "\u2581Miss": 2605,
  "\u2581key": 2606,
  "\u2581\u016bykir": 2607,
  "abine": 2608,
  "\u2581g\u00f3\u00f0": 2609,
  "\u25811)": 2610,
  "\u2581skiptir": 2611,
  "\u2581Drottni": 2612,
  "\u2581studied": 2613,
  "\u2581hin": 2614,
  "\u2581value": 2615,
  "\u2581fun": 2616,
  "\u2581sound": 2617,
  "ki": 2618,
  "\u2581occurred": 2619,
  "\u2581\u00fej\u00f3nar": 2620,
  "\u2581Heyr\u0111u": 2621,
  "\u2581sea": 2622,
  "ofo": 2623,
  "\u258118:": 2624,
  "\u2581remain": 2625,
  "\u2581serum": 2626,
  "\u2581forever": 2627,
  "ent": 2628,
  "\u2581N\u00fana": 2629,
  "\u2581front": 2630,
  "\u2581provide": 2631,
  "omide": 2632,
  "\u258120.": 2633,
  "\u2581Luke": 2634,
  "\u2581double": 2635,
  "\u2581huh": 2636,
  "2)": 2637,
  "ole": 2638,
  "\u258119.": 2639,
  "\u2581pakkning": 2640,
  "\u2581whose": 2641,
  "\u2581Only": 2642,
  "ance": 2643,
  "\u2581g\u00e6ta": 2644,
  "\u2581allow": 2645,
  "\u2581t\u00edmi": 2646,
  "\u2581Margir": 2647,
  "\u2581sj\u00e1lfum": 2648,
  "\u2581stigs": 2649,
  "\u2581heyrt": 2650,
  "\u2581aukaverkana": 2651,
  "ins": 2652,
  "\u2581n\u00fdja": 2653,
  "\u2581clinically": 2654,
  "\u2581yr\u00f0i": 2655,
  "\u2581individual": 2656,
  "\u2581shot": 2657,
  "\u2581tegund": 2658,
  "\u2581tomorrow": 2659,
  "\u2581Nothing": 2660,
  "\u2581tests": 2661,
  "\u2581sign": 2662,
  "\u258111,": 2663,
  "\u2581yfirleitt": 2664,
  "\u2581heavenly": 2665,
  "udine": 2666,
  "\u2581hversu": 2667,
  "all": 2668,
  "\u2581\u016aarna": 2669,
  "osis": 2670,
  "\u2581hlusta": 2671,
  "\u2581j\u00f6r\u00f0": 2672,
  "\u2581skyldi": 2673,
  "\u2581vision": 2674,
  "gra": 2675,
  "\u2581religious": 2676,
  "verkunum": 2677,
  "\u2581aldri": 2678,
  "\u2581n\u00e6stu": 2679,
  "\u2581s\u00e6kja": 2680,
  "per": 2681,
  "\u2581betri": 2682,
  "\u2581st": 2683,
  "ger\u00f0": 2684,
  "\u25816)": 2685,
  "\u2581Di": 2686,
  "mer": 2687,
  "\u2581George": 2688,
  "\u2581Herra": 2689,
  "\u2581Mary": 2690,
  "\u2581skuli": 2691,
  "\u2581seg": 2692,
  "taka": 2693,
  "\u25813)": 2694,
  "\u2581nation": 2695,
  "\u2581n\u00e1\u00f0": 2696,
  "\u2581town": 2697,
  "\u2581tveir": 2698,
  "\u2581sun": 2699,
  "\u2581vor": 2700,
  "\u2581Watch": 2701,
  "\u2581brj\u00f3sta": 2702,
  "m\u00e1l": 2703,
  "\u2581vatni": 2704,
  "\u2581\u00e1h\u00e6ttu": 2705,
  "\u2581Un": 2706,
  "\u2581miss": 2707,
  "\u2581teaching": 2708,
  "ak": 2709,
  "\u2581decrease": 2710,
  "\u2581byrja\u00f0": 2711,
  "\u2581sheep": 2712,
  "\u2581R\u00e1\u00f0": 2713,
  "\u2581benda": 2714,
  "\u2581vottar": 2715,
  "\u2581\u016a\u00e9r": 2716,
  "\u2581alcohol": 2717,
  "\u2581hate": 2718,
  "\u2581auki\u00f0": 2719,
  "\u2581skipta": 2720,
  "\u2581valda": 2721,
  "\u2581nurse": 2722,
  "\u2581language": 2723,
  "\u2581rats": 2724,
  "\u2581sanna": 2725,
  "\u2581mis": 2726,
  "\u258132": 2727,
  "\u2581loved": 2728,
  "sensitivity": 2729,
  "No": 2730,
  "\u2581Revelation": 2731,
  "\u2581fr\u00fa": 2732,
  "\u2581written": 2733,
  "\u2581g\u0137\u0111": 2734,
  "\u2581party": 2735,
  "\u2581rif": 2736,
  "\u2581strength": 2737,
  "\u2581G\u0137\u0111a": 2738,
  "\u2581S\u00ed\u00f0an": 2739,
  "\u2581l\u00edklega": 2740,
  "\u2581mikill": 2741,
  "avi": 2742,
  "\u2581adolescents": 2743,
  "\u2581h\u00e1": 2744,
  "\u2581engan": 2745,
  "\u2581hefja": 2746,
  "\u258129": 2747,
  "\u2581table": 2748,
  "dag": 2749,
  "\u2581People": 2750,
  "S\u00e1lmur": 2751,
  "\u2581Ex": 2752,
  "pin": 2753,
  "\u2581Ro": 2754,
  "\u2581safe": 2755,
  "\u2581andlega": 2756,
  "@": 2757,
  "\u2581temple": 2758,
  "\u2581black": 2759,
  "\u2581fj\u00f6lda": 2760,
  "\u2581n\u00e6stum": 2761,
  "lar": 2762,
  "\u00f3sa": 2763,
  "\u258112,": 2764,
  "\u2581concentration": 2765,
  "\u2581ger\u0111ist": 2766,
  "\u2581H\u00e9rna": 2767,
  "\u2581Show": 2768,
  "\u2581himnum": 2769,
  "\u2581righteousness": 2770,
  "\u2581svara": 2771,
  "\u2581Israelites": 2772,
  "\u2581l\u00edtur": 2773,
  "\u2581peg": 2774,
  "\u2581F\u00f6rum": 2775,
  "\u2581wise": 2776,
  "II": 2777,
  "der": 2778,
  "\u2581P\u00e9tur": 2779,
  "\u2581frequency": 2780,
  "b\u00f3lgu": 2781,
  "\u2581augu": 2782,
  "\u2581rottum": 2783,
  "\u2581\u00deannig": 2784,
  "\u2581turned": 2785,
  "\u2581\u00e6tlar": 2786,
  "\u2581da": 2787,
  "\u2581lok": 2788,
  "\u2581shows": 2789,
  "\u2581performed": 2790,
  "\u2581bl\u00f3\u00f0sykurs": 2791,
  "\u2581included": 2792,
  "\u2581First": 2793,
  "\u2581Hven\u00e6r": 2794,
  "\u2581h\u00e1r": 2795,
  "\u2581gun": 2796,
  "\u2581or\u00f0i": 2797,
  "\u2581sumum": 2798,
  "rix": 2799,
  "\u2581einkum": 2800,
  "\u2581Before": 2801,
  "\u2581Put": 2802,
  "\u2581sections": 2803,
  "\u2581units": 2804,
  "ibi": 2805,
  "\u2581\u016b\u00ednum": 2806,
  "\u2581eil\u00edfu": 2807,
  "\u2581health": 2808,
  "\u2581f\u00e6ra": 2809,
  "\u2581magn": 2810,
  "gr\u00f6mm": 2811,
  "\u2581Sir": 2812,
  "\u2581hair": 2813,
  "\u2581protect": 2814,
  "1)": 2815,
  "\u2581em": 2816,
  "\u2581plan": 2817,
  "\u2581poly": 2818,
  "Hva\u0111": 2819,
  "\u2581European": 2820,
  "\u2581deep": 2821,
  "og": 2822,
  "\u2581quite": 2823,
  "\u2581top": 2824,
  "\u2581development": 2825,
  "\u2581entire": 2826,
  "\u2581event": 2827,
  "\u2581lifandi": 2828,
  "\u2581develop": 2829,
  "\u2581h\u00f6r\u00f0": 2830,
  "\u2581komin": 2831,
  "\u2581write": 2832,
  "\u2581(5": 2833,
  "\u2581veldur": 2834,
  "\u2581glory": 2835,
  "\u2581everybody": 2836,
  "\u2581hot": 2837,
  "\u2581window": 2838,
  "tine": 2839,
  "\u258156": 2840,
  "10)": 2841,
  "\u2581nokkrum": 2842,
  "\u2581\u00cdsraels": 2843,
  "\u2581megin": 2844,
  "12": 2845,
  "\u2581seek": 2846,
  "\u2581h\u00e6rri": 2847,
  "\u2581analysis": 2848,
  "\u2581sn\u00faa": 2849,
  "\u2581b\u00e6ta": 2850,
  "\u2581loft": 2851,
  "\u2581\u016burfum": 2852,
  "2).": 2853,
  "\u2581l\u00e1g": 2854,
  "\u2581moment": 2855,
  "\u2581tveggja": 2856,
  "\u258122:": 2857,
  "\u2581fer\u0111": 2858,
  "\u2581lifrarb\u00f3lgu": 2859,
  "\u03bf": 2860,
  "\u2581ni\u00f0urst\u00f6\u00f0ur": 2861,
  "\u2581ger\u00f0ar": 2862,
  "\u2581veiru": 2863,
  "\u2581f\u00e6": 2864,
  "\u2581position": 2865,
  "leyfis": 2866,
  "\u2581Ra": 2867,
  "\u2581barni\u00f0": 2868,
  "\u2581teach": 2869,
  "\u2581tr\u00fai": 2870,
  "\u2581false": 2871,
  "\u2581\u00e1tta": 2872,
  "\u2581or\u00f0um": 2873,
  "\u2581regimen": 2874,
  "\u2581vatns": 2875,
  "dose": 2876,
  "\u2581lose": 2877,
  "\u2581whatever": 2878,
  "lyfjame\u00f0fer\u00f0": 2879,
  "ust": 2880,
  "\u2581landi": 2881,
  "\u2581Da": 2882,
  "\u2581fresti": 2883,
  "\u2581syndrome": 2884,
  "\u2581viljum": 2885,
  "\u2581changed": 2886,
  "\u2581waiting": 2887,
  "\u2581Hva\u0111a": 2888,
  "\u2581hinir": 2889,
  "\u2581Matt": 2890,
  "\u2581S\u00e1lmur": 2891,
  "\u2581amount": 2892,
  "\u2581girls": 2893,
  "\u2581haf\u0111i": 2894,
  "zin": 2895,
  "\u2581samsett": 2896,
  "\u2581milk": 2897,
  "\u2581bls": 2898,
  "\u2581komi": 2899,
  "\u2581(0,": 2900,
  "\u2581addition": 2901,
  "sa": 2902,
  "\u2581d\u00f3": 2903,
  "\u2581myndu": 2904,
  "\u2581Hefur": 2905,
  "\u2581specific": 2906,
  "\u2581caution": 2907,
  "\u2581hven\u00e6r": 2908,
  "\u2581boys": 2909,
  "\u2581desire": 2910,
  "\u2581material": 2911,
  "\u2581s\u00ednar": 2912,
  "\u2581unless": 2913,
  "\u2581Although": 2914,
  "\u2581lands": 2915,
  "\u2581prevent": 2916,
  "\u2581difficult": 2917,
  "\u2581grunn": 2918,
  "glyc": 2919,
  "\u2581hundred": 2920,
  "\u2581Au\u0111vita\u0111": 2921,
  "\u2581moved": 2922,
  "\u2581Bibl\u00eduna": 2923,
  "\u2581me\u00f0h\u00f6ndla": 2924,
  "\u2581myndir": 2925,
  "\u2581certainly": 2926,
  "\u2581f\u00e6r\u00f0": 2927,
  "\u2581learned": 2928,
  "\u2581Charlie": 2929,
  "\u2581reading": 2930,
  "\u2581telling": 2931,
  "\u2581Sure": 2932,
  "\u2581br\u00e6\u00f0ur": 2933,
  "\u2581finnur": 2934,
  "\u2581mi\u00f0a\u00f0": 2935,
  "\u2581solvent": 2936,
  "\u2581straight": 2937,
  "\u2581senda": 2938,
  "\u2581third": 2939,
  "liggjandi": 2940,
  "\u2581hath": 2941,
  "\u258121.": 2942,
  "\u2581monitored": 2943,
  "ON": 2944,
  "\u2581Vel": 2945,
  "\u2581sannarlega": 2946,
  "j": 2947,
  "\u2581kindness": 2948,
  "\u2581n\u0137tt": 2949,
  "go": 2950,
  "razo": 2951,
  "UR": 2952,
  "\u2581hafi\u00f0": 2953,
  "amide": 2954,
  "\u2581factor": 2955,
  "\u2581sj\u00e1lfan": 2956,
  "\u2581\u00e1ri": 2957,
  "\u2581gives": 2958,
  "\u2581El": 2959,
  "\u2581yellow": 2960,
  "\u258116,": 2961,
  "\u2581phase": 2962,
  "\u2581volume": 2963,
  "\u2581maga": 2964,
  "\u2581tr\u00faar": 2965,
  "tform": 2966,
  "\u2581continued": 2967,
  "\u2581l\u00e1ti\u00f0": 2968,
  "15": 2969,
  "\u2581Shit": 2970,
  "\u2581takes": 2971,
  "\u2581bl\u00f6ndun": 2972,
  "\u2581algengar": 2973,
  "\u00fat": 2974,
  "\u2581flytja": 2975,
  "\u2581meeting": 2976,
  "\u2581h\u00f6nd": 2977,
  "\u2581\u016banga\u0111": 2978,
  "administration": 2979,
  "\u2581Timothy": 2980,
  "\u2581fj\u00f6l": 2981,
  "\u2581stated": 2982,
  "ary": 2983,
  "gen": 2984,
  "\u2581helped": 2985,
  "\u2581groups": 2986,
  "\u2581ranns\u00f3kninni": 2987,
  "nine": 2988,
  "cutaneous": 2989,
  "\u2581monitoring": 2990,
  "\u2581skr\u00e1": 2991,
  "idine": 2992,
  "\u2581sl\u00edkt": 2993,
  "yr": 2994,
  "\u2581peninga": 2995,
  "\u2581\u016b": 2996,
  "\u2581hepatitis": 2997,
  "bil": 2998,
  "\u00f0a": 2999,
  "legur": 3000,
  "\u258142": 3001,
  "\u2581Tafla": 3002,
  "\u2581m\u00f6rg": 3003,
  "\u2581multi": 3004,
  "\u2581\u00fevag": 3005,
  "ba": 3006,
  "\u2581Help": 3007,
  "\u2581touch": 3008,
  "\u2581verkefni": 3009,
  "line": 3010,
  "\u2581Make": 3011,
  "\u2581Open": 3012,
  "\u2581a\u00f0st\u00e6\u00f0ur": 3013,
  "ian": 3014,
  "\u2581Treatment": 3015,
  "\u2581seem": 3016,
  "\u258113,": 3017,
  "\u2581While": 3018,
  "\u2581bl\u00f3\u00f0flagna": 3019,
  "\u2581vir\u0111ist": 3020,
  "\u2581glass": 3021,
  "\u2581sacrifice": 3022,
  "\u2581ur\u00f0u": 3023,
  "asta": 3024,
  "\u2581flesh": 3025,
  "dex": 3026,
  "\u2581hinna": 3027,
  "\u2581Tom": 3028,
  "\u2581m\u00f6mmu": 3029,
  "\u2581physical": 3030,
  "skammta": 3031,
  "\u2581approximately": 3032,
  "\u2581born": 3033,
  "\u2581st\u00f3r": 3034,
  "\u2581religion": 3035,
  "\u2581size": 3036,
  "\u2581presence": 3037,
  "\u2581\u00fe\u00ednu": 3038,
  "ish": 3039,
  "\u2581s\u00ed\u0111an": 3040,
  "ory": 3041,
  "\u2581fagna\u00f0arerindi\u00f0": 3042,
  "her": 3043,
  "\u2581athygli": 3044,
  "\u2581demonstrated": 3045,
  "\u2581skrifa": 3046,
  "\u2581ancient": 3047,
  "\u2581b\u00f3lgu": 3048,
  "\u2581bo\u00f0a": 3049,
  "\u2581einungis": 3050,
  "\u2581thousand": 3051,
  "\u00e9": 3052,
  "\u2581pray": 3053,
  "\u2581vomiting": 3054,
  "ning": 3055,
  "mat": 3056,
  "\u2581Remember": 3057,
  "\u2581effective": 3058,
  "mynd": 3059,
  "\u2581influence": 3060,
  "\u2581\u00edhuga": 3061,
  "\u2581h\u00e6kkun": 3062,
  "\u2581leiddi": 3063,
  "\u2581takk": 3064,
  "\u2581Vista": 3065,
  "\u2581val": 3066,
  "ALT": 3067,
  "\u2581somebody": 3068,
  "\u2581betra": 3069,
  "\u2581Move": 3070,
  "\u2581tafarlaust": 3071,
  "\u2581Pro": 3072,
  "\u2581hefst": 3073,
  "\u2581wonderful": 3074,
  "oc": 3075,
  "\u2581rule": 3076,
  "\u2581vantar": 3077,
  "v\u00ed": 3078,
  "\u2581\u00f3gle\u00f0i": 3079,
  "\u25815.3": 3080,
  "\u2581g\u00f3\u00f0a": 3081,
  "\u2581s\u00f6g\u00f0u": 3082,
  "\u2581aged": 3083,
  "\u2581sometimes": 3084,
  "\u2581brain": 3085,
  "\u2581vir\u00f0ist": 3086,
  "\u2581fully": 3087,
  "30": 3088,
  "\u2581einni": 3089,
  "by": 3090,
  "\u2581members": 3091,
  "\u2581heimsins": 3092,
  "\u2581completely": 3093,
  "\u258134": 3094,
  "\u2581h\u00e9\u0111an": 3095,
  "\u2581reach": 3096,
  "\u2581image": 3097,
  "\u2581prophet": 3098,
  "\u2581Mrs": 3099,
  "\u2581kemst": 3100,
  "gi": 3101,
  "\u2581gangi": 3102,
  "\u2581suffering": 3103,
  "\u2581Hefur\u0111u": 3104,
  "\u2581Law": 3105,
  "ef": 3106,
  "si": 3107,
  "oxe": 3108,
  "\u2581agents": 3109,
  "\u2581lei\u00f0ir": 3110,
  "\u2581Egypt": 3111,
  "\u2581lyfjagj\u00f6f": 3112,
  "\u2581offer": 3113,
  "ox\u00ed\u00f0": 3114,
  "veiru": 3115,
  "\u2581Time": 3116,
  "\u2581slembi": 3117,
  "We": 3118,
  "\u00far": 3119,
  "\u2581fari": 3120,
  "\u2581starf": 3121,
  "\u2581sj\u00fakd\u00f3ms": 3122,
  "t\u00edma": 3123,
  "\u2581office": 3124,
  "\u2581Human": 3125,
  "\u2581Novo": 3126,
  "\u2581auga": 3127,
  "\u2581diabetes": 3128,
  "\u2581machines": 3129,
  "\u2581relevant": 3130,
  "\u2581veitir": 3131,
  "\u2581Pa": 3132,
  "\u2581starfi": 3133,
  "ren": 3134,
  "rs": 3135,
  "\u2581Corinthians": 3136,
  "/2": 3137,
  "\u2581dauf": 3138,
  "\u2581leyti": 3139,
  "\u2581ofn\u00e6mi": 3140,
  "\u2581y": 3141,
  "\u2581Einmitt": 3142,
  "\u2581Me\u00f0fer\u00f0": 3143,
  "\u2581conduct": 3144,
  "\u2581sort": 3145,
  "manna": 3146,
  "\u2581b\u00e6n": 3147,
  "\u2581acute": 3148,
  "\u2581venjulega": 3149,
  "\u2581\u00d6nnur": 3150,
  "ro": 3151,
  "\u258110)": 3152,
  "omi": 3153,
  "ot": 3154,
  "\u2581Most": 3155,
  "feeding": 3156,
  "ngar": 3157,
  "\u2581covenant": 3158,
  "\u2581st\u0137r": 3159,
  "\u2581Verk": 3160,
  "\u2581foreldrar": 3161,
  "\u2581rei\u00f0i": 3162,
  "\u2581systemic": 3163,
  "\u2581apply": 3164,
  "\u2581frum": 3165,
  "fi": 3166,
  "\u2581Hr": 3167,
  "\u2581Solomon": 3168,
  "\u2581Today": 3169,
  "\u2581unglingum": 3170,
  "\u2581excret": 3171,
  "\u2581Joseph": 3172,
  "\u2581T\u00ed\u00f0ni": 3173,
  "\u2581concentrate": 3174,
  "age": 3175,
  "\u2581m\u00f3\u00f0ur": 3176,
  "\u2581capsule": 3177,
  "\u2581letter": 3178,
  "\u2581reynslu": 3179,
  "\u2581sprauta": 3180,
  "enz": 3181,
  "vi\u00f0": 3182,
  "\u2581talar": 3183,
  "\u2581protein": 3184,
  "\u2581reports": 3185,
  "band": 3186,
  "\u2581Me\u0111": 3187,
  "\u2581duration": 3188,
  "\u2581g\u00e6tum": 3189,
  "It": 3190,
  "\u2581evening": 3191,
  "\u2581taught": 3192,
  "\u2581blessun": 3193,
  "\u2581swelling": 3194,
  "\u2581vi\u00f0br\u00f6g\u00f0": 3195,
  "\u2581difference": 3196,
  "\u2581eftirlit": 3197,
  "\u2581Act": 3198,
  "\u2581honor": 3199,
  "\u2581judgment": 3200,
  "bo": 3201,
  "\u2581litla": 3202,
  "\u2581engar": 3203,
  "\u2581ground": 3204,
  "\u2581m\u00e1li\u0111": 3205,
  "\u2581lyfinu": 3206,
  "\u2581bitch": 3207,
  "\u2581urine": 3208,
  "do": 3209,
  "ein": 3210,
  "\u2581f\u00f3ru": 3211,
  "\u2581feelings": 3212,
  "za": 3213,
  "MP": 3214,
  "\u2581nau\u00f0synlegt": 3215,
  "\u2581600": 3216,
  "\u2581framar": 3217,
  "h\u00fa\u00f0u": 3218,
  "\u2581fa\u00f0ir": 3219,
  "\u2581\u00feanga\u00f0": 3220,
  "leika": 3221,
  "\u2581cover": 3222,
  "\u2581maximum": 3223,
  "\u2581seems": 3224,
  "pr\u00f3": 3225,
  "\u2581tengslum": 3226,
  "\u0111ir": 3227,
  "\u2581company": 3228,
  "\u2581l\u00fdst": 3229,
  "\u25815.2": 3230,
  "\u2581itself": 3231,
  "Q": 3232,
  "\u2581kre": 3233,
  "\u2581public": 3234,
  "\u2581sight": 3235,
  "\u2581komist": 3236,
  "\u2581vi\u00f0b\u00f3tar": 3237,
  "\u2581kidney": 3238,
  "\u2581accept": 3239,
  "oli": 3240,
  "\u2581witness": 3241,
  "dy": 3242,
  "\u2581animal": 3243,
  "\u2581h\u00e6gri": 3244,
  "\u2581looked": 3245,
  "lum": 3246,
  "\u2581systur": 3247,
  "\u2581l\u00ed\u0111ur": 3248,
  "\u2581Any": 3249,
  "\u2581J\u00fada": 3250,
  "\u2581Such": 3251,
  "\u2581konungs": 3252,
  "001": 3253,
  "IN": 3254,
  "\u2581l\u00edkams\u00feyngd": 3255,
  "\u2581drekka": 3256,
  "IS": 3257,
  "\u2581L\u00fakas": 3258,
  "\u2581svara\u00f0i": 3259,
  "leiki": 3260,
  "\u2581dad": 3261,
  "\u2581einhverjum": 3262,
  "\u2581Nice": 3263,
  "\u2581described": 3264,
  "\u2581v": 3265,
  "\u2581anymore": 3266,
  "\u2581cool": 3267,
  "\u2581tilkynnt": 3268,
  "\u2581valdi": 3269,
  "ptin": 3270,
  "\u2581Mar": 3271,
  "\u2581fen": 3272,
  "\u2581r\u00e9ttl\u00e6ti": 3273,
  "\u2581careful": 3274,
  "\u2581h\u00f6ndum": 3275,
  "\u2581stund": 3276,
  "\u2581Grein": 3277,
  "\u2581frammi": 3278,
  "umab": 3279,
  "\u00dea\u00f0": 3280,
  "\u2581carefully": 3281,
  "sam": 3282,
  "\u2581attitude": 3283,
  "\u2581eing\u00f6ngu": 3284,
  "\u2581muscle": 3285,
  "\u2581reyndi": 3286,
  "1,": 3287,
  "\u2581dry": 3288,
  "\u2581or\u0111": 3289,
  "\u2581S\u00e6ll": 3290,
  "kl\u00f3r\u00ed\u00f0": 3291,
  "fyllt": 3292,
  "\u258152": 3293,
  "\u2581police": 3294,
  "\u2581\u00de\u00f3tt": 3295,
  "ies": 3296,
  "\u2581mark": 3297,
  "\u2581individuals": 3298,
  "jar": 3299,
  "\u2581funny": 3300,
  "75": 3301,
  "\u2581Eru": 3302,
  "ingu": 3303,
  "\u2581matters": 3304,
  "\u2581fat": 3305,
  "\u00f0ar": 3306,
  "\u25815)": 3307,
  "\u2581ingredients": 3308,
  "\u2581lived": 3309,
  "\u2581meetings": 3310,
  "\u2581growth": 3311,
  "\u2581\u00feurfti": 3312,
  "\u2581fengi\u0111": 3313,
  "log": 3314,
  "\u2581vitni": 3315,
  "eron": 3316,
  "\u2581Auk": 3317,
  "\u2581votta": 3318,
  "\u2581j\u00e1rn": 3319,
  "\u2581carry": 3320,
  "\u2581fell": 3321,
  "\u2581Over": 3322,
  "\u2581regular": 3323,
  "\u2581marka\u00f0s": 3324,
  "ated": 3325,
  "fold": 3326,
  "\u25810.5": 3327,
  "\u2581pick": 3328,
  "ger": 3329,
  "\u2581final": 3330,
  "\u2581regarding": 3331,
  "skammtur": 3332,
  "\u0111a": 3333,
  "\u2581minnka": 3334,
  "\u2581margar": 3335,
  "\u2581running": 3336,
  "\u2581Proverbs": 3337,
  "\u2581decision": 3338,
  "\u2581hinni": 3339,
  "con": 3340,
  "\u2581dregi\u00f0": 3341,
  "mix": 3342,
  "\u2581step": 3343,
  "\u258124.": 3344,
  "\u2581margt": 3345,
  "\u2581h\u00fddr": 3346,
  "\u2581l\u00edfinu": 3347,
  "\u2581positive": 3348,
  "men": 3349,
  "\u2581lie": 3350,
  "\u2581percent": 3351,
  "He": 3352,
  "\u2581sambandi": 3353,
  "\u2581Still": 3354,
  "\u2581iron": 3355,
  "ru": 3356,
  "\u2581dis": 3357,
  "\u2581choice": 3358,
  "\u2581happens": 3359,
  "\u2581shut": 3360,
  "\u2581b\u00f3luefni": 3361,
  "\u2581vart": 3362,
  "\u2581hlut": 3363,
  "\u2581jar\u00f0ar": 3364,
  "\u2581listed": 3365,
  "\u2581hospital": 3366,
  "off": 3367,
  "\u2581l\u00edti\u00f0": 3368,
  "\u2581h\u00e1marks": 3369,
  "J\u00f3hannes": 3370,
  "ster": 3371,
  "\u25810,5": 3372,
  "\u2581Mo": 3373,
  "\u2581gold": 3374,
  "\u2581leit": 3375,
  "\u2581sugar": 3376,
  "\u00f0ir": 3377,
  "\u00fdt": 3378,
  "\u25815.1": 3379,
  "\u2581Bo": 3380,
  "\u2581Holy": 3381,
  "\u2581contents": 3382,
  "\u2581greinilega": 3383,
  "\u2581range": 3384,
  "ad": 3385,
  "ara": 3386,
  "\u2581spoke": 3387,
  "1%": 3388,
  "\u2581flu": 3389,
  "\u2581evaluated": 3390,
  "\u2581v\u00f6kva": 3391,
  "\u2581s\u00fdkingu": 3392,
  "\u2581asking": 3393,
  "\u2581te": 3394,
  "\u2581vini": 3395,
  "PE": 3396,
  "\u2581hafir": 3397,
  "\u2581ofn\u00e6misvi\u00f0br\u00f6g\u00f0": 3398,
  "\u2581Hve": 3399,
  "\u2581Nota": 3400,
  "dl": 3401,
  "\u2581Romans": 3402,
  "\u2581conducted": 3403,
  "\u2581blister": 3404,
  "tes": 3405,
  "\u2581several": 3406,
  "hydrate": 3407,
  "\u2581E\u0111a": 3408,
  "lodi": 3409,
  "lyfjum": 3410,
  "\u2581additional": 3411,
  "\u2581lifur": 3412,
  "\u2581marga": 3413,
  "\u2581notice": 3414,
  "\u258198": 3415,
  "\u2581honey": 3416,
  "\u2581s\u00fdndu": 3417,
  "val": 3418,
  "\u2581Greek": 3419,
  "\u2581Never": 3420,
  "\u2581leaflet": 3421,
  "\u2581cold": 3422,
  "ner": 3423,
  "\u2581Bless": 3424,
  "\u2581dreifa": 3425,
  "ec": 3426,
  "lo": 3427,
  "\u2581b\u00f3k": 3428,
  "\u2581fever": 3429,
  "su": 3430,
  "verk": 3431,
  "we": 3432,
  "\u2581Uh": 3433,
  "\u2581dr": 3434,
  "\u2581attack": 3435,
  "\u2581veitt": 3436,
  "\u2581buy": 3437,
  "\u2581code": 3438,
  "Sj\u00e1": 3439,
  "\u2581Mike": 3440,
  "\u2581injections": 3441,
  "\u2581la": 3442,
  "\u2581beginning": 3443,
  "\u2581virus": 3444,
  "\u258138": 3445,
  "\u2581chloride": 3446,
  "\u2581interest": 3447,
  "\u2581vandlega": 3448,
  "\u2581stopped": 3449,
  "zone": 3450,
  "\u2581doubt": 3451,
  "exa": 3452,
  "\u2581markt\u00e6k": 3453,
  "\u2581prophecy": 3454,
  "\u2581speaking": 3455,
  "\u2581chronic": 3456,
  "\u2581f\u00e1um": 3457,
  "j\u0137": 3458,
  "\u258119,": 3459,
  "\u2581States": 3460,
  "tal": 3461,
  "\u2581li\u00f0": 3462,
  "02": 3463,
  "X": 3464,
  "\u2581ad": 3465,
  "\u2581diarrhoea": 3466,
  "CR": 3467,
  "\u2581moving": 3468,
  "\u2581reglulega": 3469,
  "\u2581versn": 3470,
  "\u2581hefur\u0111u": 3471,
  "\u2581uppk\u00f6st": 3472,
  "\u2581b\u00edl": 3473,
  "\u2581m\u00e6li": 3474,
  "v\u00fa": 3475,
  "\u2581varlega": 3476,
  "\u2581munt": 3477,
  "\u2581n\u0137g": 3478,
  "\u2581stupid": 3479,
  "\u2581discontinued": 3480,
  "\u2581le": 3481,
  "\u00f0um": 3482,
  "19": 3483,
  "\u2581tek": 3484,
  "\u2581address": 3485,
  "bl\u00f3\u00f0": 3486,
  "tum": 3487,
  "\u2581tree": 3488,
  "\u2581\u00fevagi": 3489,
  "\u2581subject": 3490,
  "\u2581minnst": 3491,
  "\u2581probab": 3492,
  "\u2581(4": 3493,
  "\u2581Their": 3494,
  "tan": 3495,
  "\u2581American": 3496,
  "\u2581intra": 3497,
  "\u2581led": 3498,
  "\u2581lj\u00f3si": 3499,
  "\u2581\u00feurft": 3500,
  "172": 3501,
  "\u2581basis": 3502,
  "ill": 3503,
  "\u2581vinir": 3504,
  "\u2581styrk": 3505,
  "ized": 3506,
  "\u2581Ma\u0111ur": 3507,
  "\u2581meina": 3508,
  "\u25817)": 3509,
  "\u2581divine": 3510,
  "\u2581talin": 3511,
  "gaba": 3512,
  "\u00feynnu": 3513,
  "\u2581Comb": 3514,
  "\u2581dear": 3515,
  "\u2581states": 3516,
  "\u2581Hins": 3517,
  "\u2581\u00fatbrot": 3518,
  "a\u0111i": 3519,
  "led": 3520,
  "\u2581hearts": 3521,
  "rit": 3522,
  "DE": 3523,
  "\u2581simply": 3524,
  "\u2581br\u00e9f": 3525,
  "\u2581build": 3526,
  "kin": 3527,
  "lit": 3528,
  "\u2581b\u00fai\u00f0": 3529,
  "\u2581everlasting": 3530,
  "\u2581male": 3531,
  "\u2581sjaldg\u00e6far": 3532,
  "\u2581glucose": 3533,
  "\u2581dagur": 3534,
  "\u2581Ar": 3535,
  "\u2581English": 3536,
  "\u2581servant": 3537,
  "\u2581heimili": 3538,
  "\u2581race": 3539,
  "\u2581understanding": 3540,
  "\u258120,": 3541,
  "\u2581neutr": 3542,
  "ido": 3543,
  "\u2581augn": 3544,
  "\u2581immuno": 3545,
  "\u2581tengjast": 3546,
  "\u2581skammtar": 3547,
  "\u2581gain": 3548,
  "\u2581thrombo": 3549,
  "1).": 3550,
  "\u2581120": 3551,
  "ranns\u00f3kn": 3552,
  "\u2581rangt": 3553,
  "\u2581mentioned": 3554,
  "\u2581picture": 3555,
  "\u2581text": 3556,
  "\u2581values": 3557,
  "\u2581heilbrig\u00f0um": 3558,
  "\u2581More": 3559,
  "\u2581authority": 3560,
  "\u2581salt": 3561,
  "\u2581Eitt": 3562,
  "\u2581sj\u00f3n": 3563,
  "\u2581Day": 3564,
  "\u2581for\u00f0a": 3565,
  "\u2581lofa": 3566,
  "\u2581Acts": 3567,
  "\u2581frumu": 3568,
  "laust": 3569,
  "\u25818)": 3570,
  "\u2581prove": 3571,
  "\u2581elderly": 3572,
  "\u2581ratio": 3573,
  "\u2581bl\u00e6\u00f0ingar": 3574,
  "\u2581organization": 3575,
  "\u2581ford\u00e6mi": 3576,
  "\u2581h\u00fasi": 3577,
  "\u2581Read": 3578,
  "\u2581rib": 3579,
  "et\u00fdl": 3580,
  "\u2581Sp": 3581,
  "\u2581expect": 3582,
  "\u2581framan": 3583,
  "\u2581inflammation": 3584,
  "\u2581breath": 3585,
  "\u2581determined": 3586,
  "\u2581instructions": 3587,
  "\u2581multiple": 3588,
  "\u2581maintain": 3589,
  "09": 3590,
  "li\u0111": 3591,
  "therapy": 3592,
  "\u2581blanda": 3593,
  "\u2581ma\u00f0urinn": 3594,
  "\u2581mist\u00f6k": 3595,
  "mo": 3596,
  "\u2581Inn": 3597,
  "\u2581j\u00f6r\u00f0ina": 3598,
  "frumu": 3599,
  "\u2581\u00e1st": 3600,
  "\u2581br\u00e1\u00f0a": 3601,
  "\u258114)": 3602,
  "fr\u00e6\u00f0i": 3603,
  "\u2581appreciate": 3604,
  "\u2581truly": 3605,
  "\u2581uh": 3606,
  "rbes": 3607,
  "\u2581ta": 3608,
  "\u2581heavens": 3609,
  "ho": 3610,
  "\u258123.": 3611,
  "\u2581mismunandi": 3612,
  "\u2581vials": 3613,
  "\u2581label": 3614,
  "\u2581sk": 3615,
  "\u2581var\u00f0ar": 3616,
  "\u2581Babylon": 3617,
  "\u2581fylgir": 3618,
  "\u2581h\u00e6fni": 3619,
  "\u2581m\u00e6tti": 3620,
  "\u2581r\u00f6\u00f0": 3621,
  "\u2581upphafs": 3622,
  "rum": 3623,
  "\u2581building": 3624,
  "\u2581Consider": 3625,
  "\u2581bori\u00f0": 3626,
  "\u2581merkir": 3627,
  "\u2581nausea": 3628,
  "\u2581Ka": 3629,
  "\u2581Ni": 3630,
  "\u2581record": 3631,
  "\u2581\u00de\u00f3": 3632,
  "type": 3633,
  "\u2581blind": 3634,
  "\u258128,": 3635,
  "\u2581v\u00e6rir": 3636,
  "ug": 3637,
  "\u258122.": 3638,
  "\u2581across": 3639,
  "\u2581munni": 3640,
  "\u2581application": 3641,
  "\u2581hl\u0169tur": 3642,
  "\u2581verulega": 3643,
  "out": 3644,
  "j\u00f3": 3645,
  "\u2581slave": 3646,
  "\u2581s\u00e1r": 3647,
  "\u2581z": 3648,
  "ran": 3649,
  "\u2581pabba": 3650,
  "\u2581saved": 3651,
  "\u2581Common": 3652,
  "\u2581Komi\u0111": 3653,
  "\u2581overall": 3654,
  "\u2581komum": 3655,
  "\u2581disorder": 3656,
  "\u2581svipa\u00f0": 3657,
  "\u2581music": 3658,
  "\u03bc": 3659,
  "\u2581eru\u00f0": 3660,
  "\u2581Sil": 3661,
  "\u25819)": 3662,
  "\u2581frekari": 3663,
  "\u2581radio": 3664,
  "\u2581sat": 3665,
  "\u2581vaccination": 3666,
  "ranns\u00f3knum": 3667,
  "\u2581t\u00edmann": 3668,
  "\u2581berjast": 3669,
  "\u2581a\u00f0al": 3670,
  "\u2581gagnvart": 3671,
  "ism": 3672,
  "\u2581@": 3673,
  "s\u00fdra": 3674,
  "\u2581S\u00fa": 3675,
  "\u2581b\u00fa": 3676,
  "lyfja": 3677,
  "\u2581bear": 3678,
  "\u2581daglega": 3679,
  "verkir": 3680,
  "ap": 3681,
  "os": 3682,
  "\u2581f\u00f3lks": 3683,
  "\u2581Talk": 3684,
  "ld": 3685,
  "pido": 3686,
  "\u2581dream": 3687,
  "\u2581surgery": 3688,
  "\u2581Stundum": 3689,
  "\u2581shoot": 3690,
  "\u2581fangelsi": 3691,
  "\u2581natural": 3692,
  "\u2581samanbur\u00f0ar": 3693,
  "eg": 3694,
  "\u2581flug": 3695,
  "\u2581ranns\u00f3knar": 3696,
  "07": 3697,
  "\u2581circumstances": 3698,
  "\u2581\u016bannig": 3699,
  "\u2581factors": 3700,
  "\u2581named": 3701,
  "ukaverkanir": 3702,
  "\u2581San": 3703,
  "\u2581opna": 3704,
  "\u2581leaving": 3705,
  "\u2581lag": 3706,
  "gl": 3707,
  "\u2581confidence": 3708,
  "\u2581round": 3709,
  "far": 3710,
  "\u258117,": 3711,
  "\u2581stomach": 3712,
  "\u2581\u00feinni": 3713,
  "ortez": 3714,
  "\u2581Jafnvel": 3715,
  "ca": 3716,
  "\u2581perhaps": 3717,
  "\u2581\u00fearft": 3718,
  "\u2581efri": 3719,
  "\u2581hj\u00fakrunarfr\u00e6\u00f0i": 3720,
  "\u2581lady": 3721,
  "leysi": 3722,
  "\u2581Once": 3723,
  "\u258144": 3724,
  "\u2581Henry": 3725,
  "\u2581ne\u00f0an": 3726,
  "\u2581Stay": 3727,
  "\u2581velja": 3728,
  "\u2581hundum": 3729,
  "ible": 3730,
  "les": 3731,
  "\u2581fundi\u00f0": 3732,
  "com": 3733,
  "\u2581auk": 3734,
  "\u2581konan": 3735,
  "\u2581clearly": 3736,
  "\u2581walking": 3737,
  "\u2581Heldur\u0111u": 3738,
  "\u2581seeing": 3739,
  "\u2581l\u00edfi\u00f0": 3740,
  "\u2581treysta": 3741,
  "\u2581worked": 3742,
  "\u2581colour": 3743,
  "\u2581standing": 3744,
  "\u2581Europe": 3745,
  "\u2581tryggja": 3746,
  "\u2581Jacob": 3747,
  "m\u00f6nnum": 3748,
  "\u2581birth": 3749,
  "\u2581hringja": 3750,
  "\u2581l\u00edfsins": 3751,
  "mark": 3752,
  "\u2581l\u00e6rt": 3753,
  "\u2581rich": 3754,
  "tra": 3755,
  "\u2581r\u00e9tta": 3756,
  "entan": 3757,
  "io": 3758,
  "\u2581Which": 3759,
  "j\u00e1": 3760,
  "tar": 3761,
  "\u2581ba\u00f0": 3762,
  "\u2581HB": 3763,
  "\u2581Krist": 3764,
  "24": 3765,
  "\u2581Einhver": 3766,
  "\u2581n\u00fdju": 3767,
  "\u2581Val": 3768,
  "\u2581hverja": 3769,
  "\u2581particular": 3770,
  "\u2581team": 3771,
  "\u2581Getur\u0111u": 3772,
  "\u2581b\u00fain": 3773,
  "\u2581command": 3774,
  "\u2581prolonged": 3775,
  "\u2581vinstri": 3776,
  "\u2581wonder": 3777,
  "\u2581allowed": 3778,
  "\u2581t\u0137k": 3779,
  "7%": 3780,
  "gur": 3781,
  "\u2581failed": 3782,
  "\u2581lag\u00f0i": 3783,
  "\u2581Okkur": 3784,
  "\u2581Winthrop": 3785,
  "\u2581lagt": 3786,
  "ord": 3787,
  "\u2581kyn": 3788,
  "lifun": 3789,
  "ustu": 3790,
  "\u2581versus": 3791,
  "transfer": 3792,
  "\u258116)": 3793,
  "\u2581aldrinum": 3794,
  "\u2581dagar": 3795,
  "\u2581spurningar": 3796,
  "450": 3797,
  "hvort": 3798,
  "\u2581Love": 3799,
  "\u2581Was": 3800,
  "\u2581athuga": 3801,
  "\u2581chemotherapy": 3802,
  "am\u00ed\u00f0": 3803,
  "l\u00e1t": 3804,
  "\u2581opening": 3805,
  "use": 3806,
  "\u2581CD": 3807,
  "\u2581loki\u00f0": 3808,
  "\u2581seinna": 3809,
  "\u2581tauga": 3810,
  "Ef": 3811,
  "a\u0111u": 3812,
  "kerfi": 3813,
  "\u2581grow": 3814,
  "\u2581sannleikann": 3815,
  "\u2581bendir": 3816,
  "\u2581tala\u00f0i": 3817,
  "\u2581baptized": 3818,
  "\u2581f\u00f6r": 3819,
  "\u2581prepared": 3820,
  "\u2581Se": 3821,
  "\u2581overdose": 3822,
  "\u2581f\u00e6\u00f0u": 3823,
  "\u2581glad": 3824,
  "\u2581carton": 3825,
  "\u2581nokkra": 3826,
  "viri": 3827,
  "\u2581hefi": 3828,
  "\u2581secret": 3829,
  "01": 3830,
  "including": 3831,
  "\u2581n\u00e1l\u00e6gt": 3832,
  "\u258112)": 3833,
  "\u2581bjarga": 3834,
  "\u2581kynnast": 3835,
  "\u2581meant": 3836,
  "\u2581zo": 3837,
  "\u2581Con": 3838,
  "\u2581lack": 3839,
  "2,": 3840,
  "\u2581surface": 3841,
  "\u2581borg": 3842,
  "\u2581beyond": 3843,
  "\u2581gefinn": 3844,
  "\u2581Me\u00f0al": 3845,
  "05": 3846,
  "ER": 3847,
  "\u2581(6": 3848,
  "\u2581government": 3849,
  "\u2581m\u00f3tefna": 3850,
  "\u2581none": 3851,
  "related": 3852,
  "ten": 3853,
  "\u2581n\u00e1kv\u00e6mlega": 3854,
  "\u2581\u00e6vi": 3855,
  "\u2581places": 3856,
  "\u2581current": 3857,
  "\u2581followers": 3858,
  "\u2581lei\u00f0a": 3859,
  "leik": 3860,
  "\u2581Check": 3861,
  "\u2581Satans": 3862,
  "\u2581synd": 3863,
  "\u00f5": 3864,
  "\u2581serving": 3865,
  "\u00e6lingar": 3866,
  "\u2581promised": 3867,
  "\u2581Creator": 3868,
  "\u2581Ste": 3869,
  "\u2581s\u00e1l": 3870,
  "\u2581drop": 3871,
  "\u2581tongue": 3872,
  "\u2581or\u0111i\u0111": 3873,
  "ea": 3874,
  "\u2581m\u00edns": 3875,
  "\u2581vi": 3876,
  "\u2581Eig": 3877,
  "\u2581birtist": 3878,
  "\u2581gull": 3879,
  "\u2581hafin": 3880,
  "\u2581tilliti": 3881,
  "\u2581\u00c6": 3882,
  "Er": 3883,
  "ann": 3884,
  "\u2581eignast": 3885,
  "\u2581me\u00f0h\u00f6ndla\u00f0ir": 3886,
  "\u2581muni": 3887,
  "\u2581answered": 3888,
  "CV": 3889,
  "ung": 3890,
  "\u2581indicate": 3891,
  "s\u00fdn": 3892,
  "\u2581einkenna": 3893,
  "\u2581explain": 3894,
  "\u2581frj\u00f3semi": 3895,
  "cyt": 3896,
  "\u2581Shut": 3897,
  "\u2581choose": 3898,
  "ron": 3899,
  "\u2581Red": 3900,
  "\u2581lei\u00f0beiningar": 3901,
  "\u2581s\u00e6ti": 3902,
  "\u2581aukin": 3903,
  "\u2581r\u00e1\u00f0lagt": 3904,
  "\u2581vara": 3905,
  "sp": 3906,
  "stim": 3907,
  "\u2581bilinu": 3908,
  "\u2581draw": 3909,
  "\u2581resurrection": 3910,
  "tin": 3911,
  "\u2581miklum": 3912,
  "\u2581vita\u00f0": 3913,
  "\u2581survival": 3914,
  "gu": 3915,
  "\u2581meaning": 3916,
  "tiva": 3917,
  "\u2581calling": 3918,
  "\u2581missed": 3919,
  "fall": 3920,
  "den": 3921,
  "\u2581Fari\u0111": 3922,
  "\u2581l\u00e6kni": 3923,
  "\u2581st\u00f6\u00f0u": 3924,
  "enda": 3925,
  "skammt": 3926,
  "\u2581Joe": 3927,
  "\u2581sexual": 3928,
  "\u2581waste": 3929,
  "frumna": 3930,
  "\u2581Got": 3931,
  "\u2581slow": 3932,
  "\u2581\u00fatg\u00e1fu": 3933,
  "\u2581g\u00f3\u00f0s": 3934,
  "AR": 3935,
  "\u2581borga": 3936,
  "rate": 3937,
  "\u2581vald": 3938,
  "etam": 3939,
  "\u2581Ins": 3940,
  "\u2581wall": 3941,
  "\u2581mo": 3942,
  "\u2581ao": 3943,
  "\u2581apostles": 3944,
  "a\u00f0i": 3945,
  "\u2581kallast": 3946,
  "\u2581plus": 3947,
  "\u2581till": 3948,
  "\u2581\u2193": 3949,
  "\u2581kvi\u00f0": 3950,
  "\u2581kyrr": 3951,
  "\u2581thoughts": 3952,
  "ris": 3953,
  "\u00e1r": 3954,
  "\u2581Devil": 3955,
  "\u2581Hv\u00ed": 3956,
  "\u2581Na": 3957,
  "\u2581fish": 3958,
  "\u2581mom": 3959,
  "\u00e1l": 3960,
  "\u2581f\u00e6r\u0111": 3961,
  "\u2581particularly": 3962,
  "\u2581sag\u0111ir": 3963,
  "\u2581ran": 3964,
  "viral": 3965,
  "\u2581tala\u00f0": 3966,
  "\u2581Lestu": 3967,
  "skil": 3968,
  "\u2581passed": 3969,
  "ence": 3970,
  "\u2581nj\u00f3ta": 3971,
  "\u2581enter": 3972,
  "\u2581status": 3973,
  "\u2581\u00e1\u00e6tlun": 3974,
  "irnar": 3975,
  "\u2581significantly": 3976,
  "\u2581spila": 3977,
  "laga": 3978,
  "\u2581nef": 3979,
  "ac": 3980,
  "gp": 3981,
  "Do": 3982,
  "like": 3983,
  "\u2581tells": 3984,
  "\u2581Em": 3985,
  "\u2581einstaklinga": 3986,
  "\u2581gengi\u00f0": 3987,
  "\u2581fr\u00e1b\u00e6rt": 3988,
  "\u2581responsibility": 3989,
  "ini": 3990,
  "\u2581h\u00f6fu\u00f0": 3991,
  "\u2581m\u00ednar": 3992,
  "\u2581suffer": 3993,
  "\u2581con": 3994,
  "\u2581heiminn": 3995,
  "\u258139": 3996,
  "\u2581hl\u00fd\u00f0a": 3997,
  "\u2581len": 3998,
  "\u2581l\u00edkar": 3999,
  "\u2581s\u00e9st": 4000,
  "\u258155": 4001,
  "\u2581Harry": 4002,
  "\u2581fri\u00f0": 4003,
  "\u2581nokku\u0111": 4004,
  "\u2581thanks": 4005,
  "\u2581f\u00e6tur": 4006,
  "our": 4007,
  "\u2581pal": 4008,
  "\u2581skilur": 4009,
  "7/": 4010,
  "\u2581inject": 4011,
  "p\u00edn": 4012,
  "onary": 4013,
  "\u2581anybody": 4014,
  "\u2581b\u00e6num": 4015,
  "\u2581einhvers": 4016,
  "\u2581starfa": 4017,
  "\u2581\u03bc": 4018,
  "\u2581win": 4019,
  "mann": 4020,
  "\u2581pr\u00f3tein": 4021,
  "\u0169": 4022,
  "\u2581Study": 4023,
  "\u2581afar": 4024,
  "\u2581tilvik": 4025,
  "\u2581Sa": 4026,
  "\u2581War": 4027,
  "\u2581release": 4028,
  "\u2581s\u0169na": 4029,
  "\u2581800": 4030,
  "\u2581hinu": 4031,
  "\u2581ver\u00f0": 4032,
  "\u2581dinner": 4033,
  "\u2581jafnv\u00e6gi": 4034,
  "hlutfall": 4035,
  "\u2581h\u00e1lf": 4036,
  "\u2581indeed": 4037,
  "\u2581About": 4038,
  "\u2581hratt": 4039,
  "\u2581stig": 4040,
  "\u2581\u00de\u00e6r": 4041,
  "h\u00e6kkun": 4042,
  "\u2581creati": 4043,
  "\u2581force": 4044,
  "\u2581ill": 4045,
  "\u2581increases": 4046,
  "\u2581pio": 4047,
  "\u2581\u00de\u00e9r": 4048,
  "\u2581el": 4049,
  "\u2581forward": 4050,
  "\u2581megi": 4051,
  "\u2581throughout": 4052,
  "\u00de\u00fa": 4053,
  "\u2581added": 4054,
  "\u2581minnka\u00f0": 4055,
  "\u2581\u016aar": 4056,
  "\u258143": 4057,
  "\u2581priests": 4058,
  "\u2581stofn": 4059,
  "\u2581bestu": 4060,
  "\u2581fertility": 4061,
  "\u2581bor\u00f0": 4062,
  "\u2581road": 4063,
  "\u2581vikum": 4064,
  "ful": 4065,
  "\u258111)": 4066,
  "\u2581powerful": 4067,
  "\u2581t\u00f6kum": 4068,
  "\u2581helps": 4069,
  "\u2581package": 4070,
  "0": 4071,
  "TC": 4072,
  "\u2581l\u00e6knis": 4073,
  "\u2581sins": 4074,
  "\u2581visit": 4075,
  "g\u00e1t": 4076,
  "\u2581shal": 4077,
  "\u2581Ep": 4078,
  "\u2581direct": 4079,
  "\u2581exercise": 4080,
  "\u2581Captain": 4081,
  "\u2581Pe": 4082,
  "\u2581elskar": 4083,
  "\u2581respond": 4084,
  "\u2581vir\u00f0ingu": 4085,
  "\u2581drugs": 4086,
  "\u2581KDE": 4087,
  "\u2581abnormal": 4088,
  "\u2581fullu": 4089,
  "\u2581munum": 4090,
  "\u2581ne": 4091,
  "\u2581offering": 4092,
  "\u2581principles": 4093,
  "\u2581security": 4094,
  "\u2581unknown": 4095,
  "\u2581bag": 4096,
  "\u2581broken": 4097,
  "\u2581IN": 4098,
  "\u2581aren": 4099,
  "ure": 4100,
  "\u2581activities": 4101,
  "\u2581raised": 4102,
  "\u2581remove": 4103,
  "\u2581Gat": 4104,
  "\u2581Geymi": 4105,
  "\u00f3li": 4106,
  "\u2581bi": 4107,
  "li\u00f0": 4108,
  "vascular": 4109,
  "ycin": 4110,
  "\u2581issue": 4111,
  "fosf": 4112,
  "\u258115)": 4113,
  "\u258123:": 4114,
  "\u2581Three": 4115,
  "etra": 4116,
  "var": 4117,
  "\u2581RE": 4118,
  "\u2581bu": 4119,
  "\u2581vona": 4120,
  "08": 4121,
  "ji": 4122,
  "\u2581nokkurn": 4123,
  "\u2581s\u00e1st": 4124,
  "run": 4125,
  "\u2581handle": 4126,
  "kur": 4127,
  "\u2581countries": 4128,
  "\u2581Zol": 4129,
  "\u2581mar": 4130,
  "\u2581median": 4131,
  "\u2581neinn": 4132,
  "\u2581Mac": 4133,
  "\u2581fo": 4134,
  "\u2581opened": 4135,
  "\u2581kringum": 4136,
  "\u00edk": 4137,
  "\u2581kings": 4138,
  "\u2581skot": 4139,
  "\u2581sta\u00f0fest": 4140,
  "\u2581priest": 4141,
  "\u2581uppl\u00fdsingum": 4142,
  "\u2581Saul": 4143,
  "\u2581anger": 4144,
  "],": 4145,
  "\u258117)": 4146,
  "\u2581damn": 4147,
  "\u2581Jewish": 4148,
  "\u2581art": 4149,
  "\u2581l\u00edtil": 4150,
  "aze": 4151,
  "Yeah": 4152,
  "ep": 4153,
  "sku": 4154,
  "\u2581'%": 4155,
  "\u2581traust": 4156,
  "\u00e6": 4157,
  "\u2581s\u00fdkingar": 4158,
  "\u2581throw": 4159,
  "\u2581worth": 4160,
  "\u2581Watchtower": 4161,
  "\u2581mi\u00f0lungs": 4162,
  "\u2581begin": 4163,
  "\u2581gagn": 4164,
  "\u2581hey": 4165,
  "7": 4166,
  "\u2581Mix": 4167,
  "\u2581m\u00e6lti": 4168,
  "\u2581simple": 4169,
  "\u2581h\u00e9ldu": 4170,
  "ev": 4171,
  "\u2581Every": 4172,
  "\u2581Manstu": 4173,
  "\u2581discontinu": 4174,
  "\u2581finn": 4175,
  "\u2581t\u00f6flum": 4176,
  "Read": 4177,
  "ekki": 4178,
  "\u2581Kristi": 4179,
  "\u2581baki": 4180,
  "\u2581dags": 4181,
  "\u2581dig": 4182,
  "term": 4183,
  "\u2581(10": 4184,
  "\u2581R\u00e9tt": 4185,
  "eu": 4186,
  "\u2581\u00c1hrif": 4187,
  "\u2581White": 4188,
  "\u2581hag": 4189,
  "\u2581worse": 4190,
  "\u2581\u00e1byrg\u00f0": 4191,
  "lis": 4192,
  "\u2581eight": 4193,
  "avis": 4194,
  "\u2581\u016binni": 4195,
  "\u2581blue": 4196,
  "\u2581piece": 4197,
  "\u258118,": 4198,
  "\u2581Hall": 4199,
  "\u2581role": 4200,
  "fer": 4201,
  "\u258113)": 4202,
  "\u2581Har": 4203,
  "\u2581reynt": 4204,
  "\u2581Noah": 4205,
  "\u2581enemies": 4206,
  "TP": 4207,
  "\u2581Up": 4208,
  "\u2581breathing": 4209,
  "\u2581vinnur": 4210,
  "u\u00f0um": 4211,
  "\u2581sinnar": 4212,
  "\u2581therapeutic": 4213,
  "\u2581usual": 4214,
  "\u2581\u00fer\u00e1tt": 4215,
  "cular": 4216,
  "\u2581veistu": 4217,
  "Hann": 4218,
  "\u2581filled": 4219,
  "\u2581kaupa": 4220,
  "\u2581Everything": 4221,
  "\u2581comfort": 4222,
  "\u2581sweet": 4223,
  "truflanir": 4224,
  "\u00f3f\u00f3": 4225,
  "\u2581selected": 4226,
  "fur": 4227,
  "r\u00fa": 4228,
  "\u2581arms": 4229,
  "\u2581freedom": 4230,
  "\u2581Einnig": 4231,
  "\u2581Far": 4232,
  "\u2581True": 4233,
  "\u2581fl": 4234,
  "\u2581miles": 4235,
  "\u2581responsible": 4236,
  "\u2581sword": 4237,
  "\u2581wine": 4238,
  "ortico": 4239,
  "\u2581sj\u00e1um": 4240,
  "\u2581damage": 4241,
  "vin": 4242,
  "\u2581andi": 4243,
  "\u2581beat": 4244,
  "6%": 4245,
  "ox\u00fd": 4246,
  "\u2581M\u00f3s": 4247,
  "\u2581anyway": 4248,
  "\u2581dregur": 4249,
  "\u2581playing": 4250,
  "\u2581vann": 4251,
  "\u2581v\u00e9la": 4252,
  "\u2581millj\u00f3nir": 4253,
  "\u2581program": 4254,
  "\u2581standard": 4255,
  "\u2581vilji": 4256,
  "tension": 4257,
  "0%": 4258,
  "\u2581names": 4259,
  "\u2581returned": 4260,
  "ngu": 4261,
  "\u2581g\u00e1tu": 4262,
  "\u2581hef\u00f0u": 4263,
  "\u2581yourselves": 4264,
  "\u2581Hebrews": 4265,
  "\u2581destroy": 4266,
  "\u2581d\u00fdrum": 4267,
  "\u2581\u00f6rugglega": 4268,
  "\u2581Roman": 4269,
  "\u2581hlj\u00f3ta": 4270,
  "\u2581metin": 4271,
  "stat": 4272,
  "\u2581Life": 4273,
  "\u2581battle": 4274,
  "\u2581bili": 4275,
  "\u2581ni": 4276,
  "\u2581presented": 4277,
  "\u2581tengist": 4278,
  "kk": 4279,
  "sla": 4280,
  "\u2581female": 4281,
  "\u2581fremur": 4282,
  "\u2581leysi": 4283,
  "\u2581salvation": 4284,
  "\u2581\u016a\u00e6r": 4285,
  "\u2581Jo": 4286,
  "\u2581fr\u00e1b\u00e6r": 4287,
  "\u2581practice": 4288,
  "lip": 4289,
  "\u016a\u00fa": 4290,
  "\u2581inspired": 4291,
  "\u2581Bob": 4292,
  "\u2581Drottin": 4293,
  "\u2581Fr\u00e1b\u00e6rt": 4294,
  "\u2581einingar": 4295,
  "\u2581kunna": 4296,
  "\u2581umhverfis": 4297,
  "\u2581ni\u00f0urgang": 4298,
  "\u2581skulu\u00f0": 4299,
  "\u2581verki": 4300,
  "ow": 4301,
  "\u2581sko\u00f0a": 4302,
  "\u00f6": 4303,
  "\u2581R\u00f3mverjabr\u00e9fi\u00f0": 4304,
  "\u2581affected": 4305,
  "\u2581happiness": 4306,
  "\u2581\u016bekki": 4307,
  "\u2581Zen": 4308,
  "\u2581dizziness": 4309,
  "\u2581ger\u00f0u": 4310,
  "\u2581modern": 4311,
  "\u25815-": 4312,
  "l\u00edf": 4313,
  "\u0104": 4314,
  "\u2581Cor": 4315,
  "\u2581FOR": 4316,
  "\u2581l\u00edk": 4317,
  "ver\u00f0": 4318,
  "\u2581favor": 4319,
  "\u2581\u00f6ndunar": 4320,
  "pren": 4321,
  "\u2581Ne": 4322,
  "\u2581destruction": 4323,
  "\u2581lev": 4324,
  "\u2581spend": 4325,
  "\u2581vef": 4326,
  "alic": 4327,
  "\u25814.3": 4328,
  "\u2581burtu": 4329,
  "\u2581books": 4330,
  "met": 4331,
  "sstofn": 4332,
  "\u2581meal": 4333,
  "\u2581According": 4334,
  "\u2581upper": 4335,
  "\u2581appear": 4336,
  "\u2581depression": 4337,
  "\u2581parad\u00eds": 4338,
  "bre": 4339,
  "\u2581Algengar": 4340,
  "\u2581vin": 4341,
  "\u2581\u00f3n\u00e6mis": 4342,
  "\u2581Ver": 4343,
  "\u2581train": 4344,
  "\u2581willing": 4345,
  "\u2581quality": 4346,
  "\u2581ship": 4347,
  "dopa": 4348,
  "\u2581Gy\u00f0inga": 4349,
  "\u2581Lo": 4350,
  "\u2581br\u00f3\u00f0ur": 4351,
  "\u2581Clo": 4352,
  "\u2581reasons": 4353,
  "\u2581bibl\u00edu": 4354,
  "\u2581chest": 4355,
  "\u2581contain": 4356,
  "\u2581fjandans": 4357,
  "\u2581segir\u0111u": 4358,
  "gl\u00fd": 4359,
  "\u2581sj\u00e1lfs": 4360,
  "\u2581sofa": 4361,
  "\u2581DNA": 4362,
  "\u2581dangerous": 4363,
  "\u2581eiginleika": 4364,
  "\u2581foreldra": 4365,
  "\u2581trans": 4366,
  "\u2581Bye": 4367,
  "\u2581Ray": 4368,
  "\u2581bio": 4369,
  "\u2581opportunity": 4370,
  "40": 4371,
  "65": 4372,
  "\u2581Hebrew": 4373,
  "\u2581kidding": 4374,
  "exed": 4375,
  "pr\u00f3f": 4376,
  "\u2581decide": 4377,
  "\u2581greatest": 4378,
  "glit": 4379,
  "treated": 4380,
  "\u2581pull": 4381,
  "\u2581temperature": 4382,
  "\u2581\u00fa": 4383,
  "\u2581calls": 4384,
  "\u2581Dan": 4385,
  "\u2581falla": 4386,
  "lag\u00f0ur": 4387,
  "\u016aa\u0111": 4388,
  "\u2581Date": 4389,
  "\u2581skugga": 4390,
  "\u2581Afsaki\u0111": 4391,
  "\u2581drykk": 4392,
  "\u2581info": 4393,
  "\u2581me\u0111an": 4394,
  "ropin": 4395,
  "\u00f6r": 4396,
  "\u2581Jerem\u00eda": 4397,
  "\u2581dul": 4398,
  "\u2581source": 4399,
  "\u258150%": 4400,
  "\u2581Bill": 4401,
  "\u2581require": 4402,
  "\u2581t\u00e1kn": 4403,
  "\u2581TO": 4404,
  "\u2581allri": 4405,
  "\u2581closely": 4406,
  "\u2581built": 4407,
  "\u2581stutt": 4408,
  "04": 4409,
  "\u2581Fer": 4410,
  "\u2581liggur": 4411,
  "borg": 4412,
  "\u2581nature": 4413,
  "anza": 4414,
  "ham": 4415,
  "point": 4416,
  "\u258141": 4417,
  "Lestu": 4418,
  "my": 4419,
  "\u2581Richard": 4420,
  "\u2581leg": 4421,
  "\u2581upphaf": 4422,
  "\u2581\u00c1ri\u00f0": 4423,
  "\u2581\u00e1stand": 4424,
  "fu": 4425,
  "nis": 4426,
  "sti": 4427,
  "\u2581Tim": 4428,
  "\u2581bor\u0111a": 4429,
  "\u25812000": 4430,
  "\u2581Ah": 4431,
  "\u2581stj\u0137rn": 4432,
  "\u2581s\u00ed\u00f0ur": 4433,
  "bb": 4434,
  "pr\u00f3tein": 4435,
  "ski": 4436,
  "\u2581Jeremiah": 4437,
  "\u2581gamla": 4438,
  "\u2581kenndi": 4439,
  "\u2581landi\u00f0": 4440,
  "des": 4441,
  "\u00edd\u00f3": 4442,
  "\u2581Anna": 4443,
  "\u2581Something": 4444,
  "90": 4445,
  "que": 4446,
  "\u2581created": 4447,
  "\u2581High": 4448,
  "\u2581proper": 4449,
  "\u2581sjaldg\u00e6f": 4450,
  "\u2581Rather": 4451,
  "raz": 4452,
  "\u2581klukkan": 4453,
  "ira": 4454,
  "kvilla": 4455,
  "\u2581Or\u00f0skvi\u00f0irnir": 4456,
  "\u2581clo": 4457,
  "\u2581color": 4458,
  "\u2581luck": 4459,
  "\u2581telja": 4460,
  "\u2581missa": 4461,
  "\u2581instead": 4462,
  "\u2581n\u00fdtt": 4463,
  "par": 4464,
  "\u2581byggja": 4465,
  "\u2581interval": 4466,
  "\u2581net": 4467,
  "\u2581original": 4468,
  "\u2581f\u00e6ri": 4469,
  "\u2581lokum": 4470,
  "\u258149": 4471,
  "\u2581or\u00f0in": 4472,
  "RA": 4473,
  "\u258184": 4474,
  "\u2581Lip": 4475,
  "\u2581angels": 4476,
  "\u2581correct": 4477,
  "\u2581mercy": 4478,
  "\u2581spiritually": 4479,
  "\u2581term": 4480,
  "=1": 4481,
  "ampic": 4482,
  "asi": 4483,
  "nt": 4484,
  "\u2581b\u00edlinn": 4485,
  "\u2581main": 4486,
  "FS": 4487,
  "\u2581Ho": 4488,
  "administered": 4489,
  "\u2581Robert": 4490,
  "\u2581generally": 4491,
  "\u2581Alex": 4492,
  "\u2581examples": 4493,
  "\u2581unga": 4494,
  "\u2581lactose": 4495,
  "\u2581manninn": 4496,
  "lausn": 4497,
  "nd": 4498,
  "\u2581Pen": 4499,
  "\u2581prison": 4500,
  "\u2581various": 4501,
  "\u2581appointed": 4502,
  "blind": 4503,
  "\u2581Another": 4504,
  "\u2581quickly": 4505,
  "\u2581P\u00e1ls": 4506,
  "\u2581immune": 4507,
  "\u2581stak": 4508,
  "\u00e4": 4509,
  "\u2581nokkrar": 4510,
  "\u2581s\u00ed\u00f0asta": 4511,
  "\u2581\u00feroska": 4512,
  "\u2581Afsaka\u0111u": 4513,
  "\u2581vital": 4514,
  "\u2581warning": 4515,
  "\u25811000": 4516,
  "po": 4517,
  "\u2581\u00feungu\u00f0": 4518,
  "ade": 4519,
  "irac": 4520,
  "\u2581gr\u00ednast": 4521,
  "\u2581speech": 4522,
  "\u2581bark": 4523,
  "\u2581interaction": 4524,
  "\u2581m\u00e6la": 4525,
  "\u2581praise": 4526,
  "\u2581se": 4527,
  "ker": 4528,
  "riva": 4529,
  "tran": 4530,
  "\u2581church": 4531,
  "\u2581finally": 4532,
  "\u258146": 4533,
  "\u2581dance": 4534,
  "\u2581illt": 4535,
  "\u2581sim": 4536,
  "\u2581starfs": 4537,
  "\u2581Per": 4538,
  "\u2581par": 4539,
  "\u2581svarar": 4540,
  "\u2581\u00e6\u00f0a": 4541,
  "Let": 4542,
  "\u2581ride": 4543,
  "\u2581marka\u00f0ssetningu": 4544,
  "\u2581qualities": 4545,
  "\u2581realize": 4546,
  "\u2581regard": 4547,
  "\u2581r\u00f6r": 4548,
  "\u2581tired": 4549,
  "06": 4550,
  "\u2581ey\u00f0a": 4551,
  "\u2581matar": 4552,
  "\u2581\"-": 4553,
  "\u2581fil": 4554,
  "\u2581log": 4555,
  "\u00edtab": 4556,
  "renz": 4557,
  "\u2581dark": 4558,
  "am\u00edn": 4559,
  "ans": 4560,
  "pakkning": 4561,
  "\u2581lj\u00f3st": 4562,
  "\u2581n\u00e1i\u00f0": 4563,
  "\u2581sl\u00edk": 4564,
  "t\u00f6flur": 4565,
  "\u2581Enn": 4566,
  "\u2581f\u00e9lagi": 4567,
  "ile": 4568,
  "sj\u00fakd\u00f3m": 4569,
  "\u2581Nick": 4570,
  "\u2581Sarah": 4571,
  "\u2581S\u00e1l": 4572,
  "\u2581bread": 4573,
  "\u2581crowd": 4574,
  "\u2581hlj\u00f3\u00f0": 4575,
  "\u2581interested": 4576,
  "\u2581\u00e1kv\u00f6r\u00f0un": 4577,
  "\u2581\u016aess": 4578,
  "\u00b1": 4579,
  "\u2581Land": 4580,
  "\u2581blessing": 4581,
  "\u2581steps": 4582,
  "prop": 4583,
  "sh": 4584,
  "ator": 4585,
  "\u2581Hinn": 4586,
  "\u2581helping": 4587,
  "\u2581eil\u00edft": 4588,
  "\u2581m\u00f3tefni": 4589,
  "om": 4590,
  "\u2581angel": 4591,
  "\u2581ball": 4592,
  "\u2581carried": 4593,
  "\u2581direction": 4594,
  "\u2581energy": 4595,
  "\u2581lay": 4596,
  "\u2581reynir": 4597,
  "\u2581Martin": 4598,
  "\u2581t\u00f3kst": 4599,
  "\u2581welcome": 4600,
  "ities": 4601,
  "\u2581B\u00fa": 4602,
  "\u2581happening": 4603,
  "\u2581l\u00e6kkun": 4604,
  "\u2581seconds": 4605,
  "ph": 4606,
  "\u2581ger\u00f0ist": 4607,
  "\u2581herbergi": 4608,
  "\u2581mynda": 4609,
  "\u2581p\u00fa": 4610,
  "bj\u00fagur": 4611,
  "cy": 4612,
  "lei\u00f0": 4613,
  "\u2581Men": 4614,
  "\u2581snemma": 4615,
  "\u2581Christmas": 4616,
  "\u2581p\u00f3l\u00fd": 4617,
  "\u2581scared": 4618,
  "\u2581brot": 4619,
  "\u2581mate": 4620,
  "\u2581substances": 4621,
  "l\u00e6kkun": 4622,
  "\u2581Car": 4623,
  "\u2581Lu": 4624,
  "\u2581estimated": 4625,
  "bilun": 4626,
  "\u2581Dave": 4627,
  "\u2581Sk": 4628,
  "\u2581contra": 4629,
  "\u2581\u00e6\u00f0": 4630,
  "life": 4631,
  "\u2581Perhaps": 4632,
  "\u2581difficulty": 4633,
  "\u2581profile": 4634,
  "\u2581Jakob": 4635,
  "\u2581cast": 4636,
  "\u2581empty": 4637,
  "\u2581figure": 4638,
  "\u258195%": 4639,
  "\u2581keeping": 4640,
  "\u2581leading": 4641,
  "\u2581previously": 4642,
  "\u2581safna\u00f0arins": 4643,
  "\u2581tilb\u00fainn": 4644,
  "fe": 4645,
  "\u2581sitja": 4646,
  "\u2581Alice": 4647,
  "\u2581Ask": 4648,
  "\u2581Hebreabr\u00e9fi\u00f0": 4649,
  "\u2581Max": 4650,
  "\u2581d\u00fdr": 4651,
  "\u2581l\u00e6t": 4652,
  "r\u00e9tt": 4653,
  "\u2581America": 4654,
  "\u2581initial": 4655,
  "\u2581parts": 4656,
  "\u2581Mab": 4657,
  "\u2581OG": 4658,
  "\u2581deliver": 4659,
  "\u2581fruit": 4660,
  "\u2581hata": 4661,
  "Hver": 4662,
  "\u2581visku": 4663,
  "ast\u00e6r\u00f0ir": 4664,
  "\u2581hverri": 4665,
  "\u2581tengd": 4666,
  "\u2581vi\u00f0horf": 4667,
  "\u2581\u00e1rs": 4668,
  "\u2581guard": 4669,
  "\u2581tr\u00fair": 4670,
  "\u2581vernda": 4671,
  "\u2581\u00e6": 4672,
  "\u2581\u016bakka": 4673,
  "\u2581Mc": 4674,
  "\u2581Nor": 4675,
  "\u2581earlier": 4676,
  "\u2581sundl": 4677,
  "\u2581catch": 4678,
  "\u2581greina": 4679,
  "\u2581miskunn": 4680,
  "\u2581reached": 4681,
  "amp": 4682,
  "\u2581gj\u00f6rt": 4683,
  "\u2581hef\u0111ir": 4684,
  "\u2581himni": 4685,
  "\u2581sisters": 4686,
  "\u2581sl\u00edkum": 4687,
  "q": 4688,
  "\u2581Think": 4689,
  "\u2581Bri": 4690,
  "\u2581aldur": 4691,
  "\u2581hli\u00f0": 4692,
  "\u2581packs": 4693,
  "hemlar": 4694,
  "\u2581\u00deessar": 4695,
  "or\u00f0": 4696,
  "pu": 4697,
  "\u2581oil": 4698,
  "\u2581efna": 4699,
  "\u2581leyfi": 4700,
  "\u2581General": 4701,
  "\u2581Wow": 4702,
  "\u2581komdu": 4703,
  "\u2581previous": 4704,
  "ibs": 4705,
  "\u2581hr\u00e6ddur": 4706,
  "\u2581justice": 4707,
  "\u2581sundur": 4708,
  "20": 4709,
  "may": 4710,
  "\u2581Hversu": 4711,
  "\u2581families": 4712,
  "\u2581hli\u00f0inni": 4713,
  "tak": 4714,
  "\u2581areas": 4715,
  "\u2581laga": 4716,
  "\u2581teki\u0111": 4717,
  "merki": 4718,
  "van": 4719,
  "\u258122,": 4720,
  "\u2581band": 4721,
  "\u2581leikur": 4722,
  "\u2581Genesis": 4723,
  "\u2581setti": 4724,
  "tion": 4725,
  "\u2581cities": 4726,
  "\u2581t\u00e6ki": 4727,
  "\u2581mikils": 4728,
  "Ekki": 4729,
  "amhli\u00f0a": 4730,
  "\u2581benefits": 4731,
  "\u2581\u00fej\u00f3num": 4732,
  "\u2581a\u00f0allega": 4733,
  "\u2581me\u00f0fer\u00f0inni": 4734,
  "\u2581nobody": 4735,
  "\u2581spoken": 4736,
  "\u2581veik": 4737,
  "\u2581Dan\u00edel": 4738,
  "\u2581Nobody": 4739,
  "\u2581b\u00ed\u0111a": 4740,
  "\u2581hitti": 4741,
  "\u2581hlutfall": 4742,
  "03": 4743,
  "\u2581Has": 4744,
  "\u2581button": 4745,
  "AX": 4746,
  "\u2581tilbei\u00f0slu": 4747,
  "\u2581unit": 4748,
  "\u2581\u00f3ttast": 4749,
  "\u2581S\u00ed": 4750,
  "\u2581advised": 4751,
  "\u2581au\u00f0vita\u00f0": 4752,
  "\u2581flott": 4753,
  "\u2581resulted": 4754,
  "\u2581London": 4755,
  "\u2581S\u00e6l": 4756,
  "\u2581integrity": 4757,
  "\u2581recently": 4758,
  "ard": 4759,
  "\u2581destroyed": 4760,
  "\u2581mest": 4761,
  "45": 4762,
  "bar": 4763,
  "r\u00e6": 4764,
  "\u2581Box": 4765,
  "pi": 4766,
  "\u2581although": 4767,
  "\u2581alvarlegar": 4768,
  "\u2581identified": 4769,
  "ological": 4770,
  "\u2581Hyper": 4771,
  "\u2581Settu": 4772,
  "azan": 4773,
  "end": 4774,
  "\u2581G\u00e6ta": 4775,
  "\u2581dali": 4776,
  "\u2581effort": 4777,
  "\u2581Bl\u00f3\u00f0": 4778,
  "\u2581Should": 4779,
  "\u2581prayers": 4780,
  "exe": 4781,
  "k\u00f3": 4782,
  "\u2581Sjaldg\u00e6f": 4783,
  "\u2581spur\u00f0i": 4784,
  "tegr": 4785,
  "Pharmaco": 4786,
  "controlled": 4787,
  "\u2581except": 4788,
  "\u2581protection": 4789,
  "ati": 4790,
  "\u2581published": 4791,
  "\u2581skip": 4792,
  "\u2581tr\u00e9": 4793,
  "ens\u00edm": 4794,
  "icon": 4795,
  "ted": 4796,
  "\u2581Eve": 4797,
  "\u2581Indeed": 4798,
  "Postulasagan": 4799,
  "\u2581drinking": 4800,
  "krabbamein": 4801,
  "\u2581b\u00fdr": 4802,
  "\u2581sj\u00faklingur": 4803,
  "\u2581b\u00e1\u00f0um": 4804,
  "\u2581lung": 4805,
  "\u2581physician": 4806,
  "}": 4807,
  "\u2581behold": 4808,
  "\u2581developed": 4809,
  "\u2581foot": 4810,
  "\u2581l\u00f6ngu": 4811,
  "\u2581virkilega": 4812,
  "\u2581fly": 4813,
  "\u2581kristinn": 4814,
  "\u2581lakt": 4815,
  "\u2581regularly": 4816,
  "\u2581Uncomm": 4817,
  "\u2581geno": 4818,
  "\u2581ge\u00f0": 4819,
  "r\u00e1\u00f0": 4820,
  "\u2581Daddy": 4821,
  "\u2581Grade": 4822,
  "\u2581samanbur\u00f0i": 4823,
  "\u2581Society": 4824,
  "\u2581eiginleikum": 4825,
  "\u2581\u016bessari": 4826,
  "ang": 4827,
  "\u2581Samkv\u00e6mt": 4828,
  "\u2581achieved": 4829,
  "\u2581decided": 4830,
  "\u2581leyfa": 4831,
  "\u2581\u00feekkja": 4832,
  "Comment": 4833,
  "ella": 4834,
  "\u2581Also": 4835,
  "\u2581extra": 4836,
  "\u2581Van": 4837,
  "171": 4838,
  "t\u00edmi": 4839,
  "\u2581http": 4840,
  "xa": 4841,
  "\u2581busy": 4842,
  "\u2581grundvelli": 4843,
  "\u2581loyal": 4844,
  "\u2581neck": 4845,
  "\u2581showing": 4846,
  "\u2581tekinn": 4847,
  "\u2581S\u00fdna": 4848,
  "\u2581mental": 4849,
  "\u2581proud": 4850,
  "\u2581umhyggju": 4851,
  "\u2581Ve": 4852,
  "\u2581headache": 4853,
  "\u2581song": 4854,
  "\u2581cross": 4855,
  "\u2581spread": 4856,
  "L\u00fakas": 4857,
  "rey": 4858,
  "\u2581fj\u00f6lskyldunni": 4859,
  "\u2581g\u00f3\u00f0ur": 4860,
  "\u2581thousands": 4861,
  "\u2581training": 4862,
  "cause": 4863,
  "vel": 4864,
  "\u2581Dav\u00ed\u00f0s": 4865,
  "\u2581godly": 4866,
  "\u2581Whatever": 4867,
  "\u2581court": 4868,
  "\u2581error": 4869,
  "\u2581getur\u00f0u": 4870,
  "set": 4871,
  "\u2581creation": 4872,
  "\u2581kallar": 4873,
  "\u2581millions": 4874,
  "\u2581mixed": 4875,
  "\u2581syringes": 4876,
  "mun": 4877,
  "verkun": 4878,
  "\u25811%": 4879,
  "\u2581\u00fe\u00fasund": 4880,
  "\u2581gerst": 4881,
  "urnar": 4882,
  "r\u0137": 4883,
  "\u2581d\u00ed": 4884,
  "\u2581hl\u00e9": 4885,
  "\u2581Turn": 4886,
  "\u2581stick": 4887,
  "dra": 4888,
  "\u2581Ke": 4889,
  "\u2581L\u00e1ti\u00f0": 4890,
  "\u2581mega": 4891,
  "\u2581Gen": 4892,
  "\u2581concerning": 4893,
  "\u2581measures": 4894,
  "isation": 4895,
  "\u2581Sit": 4896,
  "\u2581agree": 4897,
  "etr\u00f3": 4898,
  "\u2581bo\u00f0i\u00f0": 4899,
  "\u2581cyto": 4900,
  "\u2581ensure": 4901,
  "70": 4902,
  "ux": 4903,
  "\u2581Back": 4904,
  "glasi": 4905,
  "\u2581Welcome": 4906,
  "\u2581recorded": 4907,
  "\u2581aukning": 4908,
  "\u2581tip": 4909,
  "\u2581\u00e6tlum": 4910,
  "stera": 4911,
  "\u2581s\u00e9um": 4912,
  "ngur": 4913,
  "sefni": 4914,
  "\u2581parent": 4915,
  "\u2581Postulasagan": 4916,
  "\u2581auki": 4917,
  "\u2581\u00c1ttu": 4918,
  "\u258124,": 4919,
  "\u2581heimurinn": 4920,
  "\u2581offered": 4921,
  "\u2581sake": 4922,
  "\u2581smit": 4923,
  "geta": 4924,
  "hvarfa": 4925,
  "kt": 4926,
  "umst": 4927,
  "\u2581horse": 4928,
  "\u2581metabolism": 4929,
  "\u2581\u00e1hrifa": 4930,
  "\u2581pr\u00e9dika": 4931,
  "\u2581pul": 4932,
  "US": 4933,
  "air": 4934,
  "ona": 4935,
  "\u2581heilbrig\u00f0is": 4936,
  "\u2581r\u00e1\u0111": 4937,
  "\u2581substrate": 4938,
  "\u2581tekin": 4939,
  "\u2581verkur": 4940,
  "\u2581writing": 4941,
  "000": 4942,
  "\u2581Following": 4943,
  "\u2581Ne\u00f0anm\u00e1ls": 4944,
  "\u2581cardiac": 4945,
  "\u2581\u00e6tt": 4946,
  "\u2581commanded": 4947,
  "\u2581g\u00f6gn": 4948,
  "\u2581repeated": 4949,
  "\u2581tr\u00fanni": 4950,
  "ik": 4951,
  "ox": 4952,
  "\u2581#": 4953,
  "\u2581harm": 4954,
  "\u2581starfsemi": 4955,
  "\u2581Acc": 4956,
  "................": 4957,
  "Or\u00f0skvi\u00f0irnir": 4958,
  "\u2581Eddie": 4959,
  "\u2581\u00feekkingu": 4960,
  "ald": 4961,
  "efna": 4962,
  "\u2581markt\u00e6kt": 4963,
  "\u25815%": 4964,
  "\u2581lit": 4965,
  "mg": 4966,
  "\u2581agent": 4967,
  "\u2581aware": 4968,
  "\u2581ens\u00edm": 4969,
  "\u2581l\u00f6ndum": 4970,
  "\u2581pleasure": 4971,
  "thiazi": 4972,
  "\u2581180": 4973,
  "\u2581Li": 4974,
  "\u2581army": 4975,
  "\u2581driving": 4976,
  "\u2581files": 4977,
  "l\u00f6g": 4978,
  "\u2581Hence": 4979,
  "\u2581Med": 4980,
  "\u2581judge": 4981,
  "\u2581skj\u0137ta": 4982,
  "\u2581target": 4983,
  "/9": 4984,
  "See": 4985,
  "\u2581Pan": 4986,
  "\u2581device": 4987,
  "\u2581fjarl\u00e6gja": 4988,
  "\u2581annast": 4989,
  "\u2581hitt": 4990,
  "\u2581\u016b\u00fasund": 4991,
  "\u2581tungu": 4992,
  "\u2581v\u00edn": 4993,
  "\u2581wear": 4994,
  "grast": 4995,
  "\u2581amazing": 4996,
  "\u2581concern": 4997,
  "\u2581gl\u00fak\u00f3s": 4998,
  "\u2581negative": 4999,
  "\u2581\u00c6tlar\u0111u": 5000,
  "\u2581\u016b\u0169\u0111ir": 5001,
  "\u2581gas": 5002,
  "\u2581points": 5003,
  "\u2581revealed": 5004,
  "\u2581gods": 5005,
  "R\u00f3mverjabr\u00e9fi\u00f0": 5006,
  "\u00feykkni": 5007,
  "\u2581litlu": 5008,
  "\u2581AND": 5009,
  "\u2581Sal\u00f3mon": 5010,
  "\u2581South": 5011,
  "\u2581des": 5012,
  "kristnum": 5013,
  "\u2581hunda": 5014,
  "\u2581separate": 5015,
  "\u2581\u266a": 5016,
  "\u2581hjartsl\u00e1ttar": 5017,
  "zo": 5018,
  "\u2581Big": 5019,
  "\u2581Kor": 5020,
  "\u2581Moreover": 5021,
  "AN": 5022,
  "ES": 5023,
  "In": 5024,
  "\u2581Scriptural": 5025,
  "nda": 5026,
  "\u2581byrjar": 5027,
  "\u2581precious": 5028,
  "\u2581svipu\u00f0": 5029,
  "\u2581veterinar": 5030,
  "\u2581farinn": 5031,
  "\u2581lyfs": 5032,
  "\u00fatsetning": 5033,
  "\u2581eating": 5034,
  "\u2581n\u00e1lgast": 5035,
  "\u2581sprautuna": 5036,
  "3)": 5037,
  "Pen": 5038,
  "oxi": 5039,
  "\u2581Week": 5040,
  "\u2581eiginlega": 5041,
  "\u2581gleyma": 5042,
  "\u2581tract": 5043,
  "\u2581skur\u00f0a\u00f0ger\u00f0": 5044,
  "\u2581Fl": 5045,
  "\u2581fullt": 5046,
  "\u2581ransom": 5047,
  "\u2581AS": 5048,
  "\u2581flj\u00f3tt": 5049,
  "\u2581hverfa": 5050,
  "ML": 5051,
  "sel": 5052,
  "\u2581France": 5053,
  "\u2581Je": 5054,
  "\u2581Mer": 5055,
  "\u2581\u00e6tla\u0111i": 5056,
  "zuma": 5057,
  "\u2581aukinni": 5058,
  "\u2581borgar": 5059,
  "ens": 5060,
  "time": 5061,
  "GT": 5062,
  "l\u00f3": 5063,
  "\u2581J\u00f3hannesarbr\u00e9f": 5064,
  "\u2581Leiti\u00f0": 5065,
  "\u2581Fine": 5066,
  "\u2581Set": 5067,
  "\u2581tissue": 5068,
  "IR": 5069,
  "\u2581cry": 5070,
  "\u2581weak": 5071,
  "002": 5072,
  "j\u00f6": 5073,
  "\u2581foretold": 5074,
  "\u2581hl\u00fdtur": 5075,
  "hypertension": 5076,
  "\u00c6": 5077,
  "\u2581Reyndu": 5078,
  "\u2581expression": 5079,
  "\u2581middle": 5080,
  "\u2581process": 5081,
  "\u2581vit": 5082,
  "ag": 5083,
  "ite": 5084,
  "sv\u00f6run": 5085,
  "\u2581paid": 5086,
  "ED": 5087,
  "ut": 5088,
  "\u2581Jim": 5089,
  "\u2581boat": 5090,
  "anda": 5091,
  "so": 5092,
  "\u2581Ber": 5093,
  "\u2581finish": 5094,
  "\u2581Ren": 5095,
  "\u2581Ri": 5096,
  "\u2581\u00feessir": 5097,
  "36": 5098,
  "r\u00e1\u0111": 5099,
  "\u2581blisters": 5100,
  "\u2581gamall": 5101,
  "\u2581varla": 5102,
  "ox\u00ed": 5103,
  "t\u00faru": 5104,
  "\u2581Everybody": 5105,
  "\u2581prescribed": 5106,
  "sed": 5107,
  "sis": 5108,
  "\u2581forgive": 5109,
  "\u2581fulfillment": 5110,
  "\u2581oedema": 5111,
  "\u258121,": 5112,
  "\u2581seed": 5113,
  "\u2581sv\u00e6\u00f0i": 5114,
  "l\u00edk": 5115,
  "\u2581fatal": 5116,
  "\u2581master": 5117,
  "flun": 5118,
  "\u2581broke": 5119,
  "\u2581dosage": 5120,
  "\u2581lying": 5121,
  "\u2581Out": 5122,
  "\u2581TV": 5123,
  "\u2581frequently": 5124,
  "\u2581instance": 5125,
  "ally": 5126,
  "m\u00e6li": 5127,
  "tegra": 5128,
  "\u2581Bar": 5129,
  "\u2581skr": 5130,
  "\u2581sk\u00edrast": 5131,
  "\u2581stj\u00f3rna": 5132,
  "alid": 5133,
  "\u2581Billy": 5134,
  "\u2581chapter": 5135,
  "\u2581d\u00e1l\u00edti\u0111": 5136,
  "\u2581n\u0169": 5137,
  "\u2581rannsaka\u00f0": 5138,
  "\u2581Bab\u00fdlon": 5139,
  "\u2581hafi\u0111": 5140,
  "\u2581ranns\u00f6ku\u00f0": 5141,
  "\u2581resistance": 5142,
  "\u2581skildi": 5143,
  "\u2581komnir": 5144,
  "\u2581leysa": 5145,
  "\u2581sl\u00e6mt": 5146,
  "\u2581b\u00fai\u0111": 5147,
  "\u2581fj\u00f6ldi": 5148,
  "\u2581plane": 5149,
  "\u2581ver": 5150,
  "lanza": 5151,
  "\u0111ar": 5152,
  "\u2581Say": 5153,
  "\u2581bl\u00f3\u00f0korna": 5154,
  "\u2581knowing": 5155,
  "\u2581nose": 5156,
  "\u2581wild": 5157,
  "\u2581\u00f3h\u00e1\u00f0": 5158,
  "slu": 5159,
  "ov": 5160,
  "\u2581Hj\u00e1lp": 5161,
  "\u2581fri\u00f0i": 5162,
  "hv\u00f6rfum": 5163,
  "\u2581Credit": 5164,
  "\u2581ver\u0111i": 5165,
  "ey\u00f0andi": 5166,
  "\u00eda": 5167,
  "\u2581antibodies": 5168,
  "\u2581leika": 5169,
  "\u2581magazine": 5170,
  "\u2581watching": 5171,
  "lop": 5172,
  "\u2581Fyrst": 5173,
  "\u2581Kate": 5174,
  "\u2581acts": 5175,
  "\u2581b\u00ed\u00f0a": 5176,
  "\u2581discuss": 5177,
  "\u2581sannleika": 5178,
  "\u2581fathers": 5179,
  "\u2581majority": 5180,
  "\u2581\u00fatliti": 5181,
  "Matt": 5182,
  "d\u00f3m": 5183,
  "\u2581Gu\u00f0sr\u00edkis": 5184,
  "\u2581Menn": 5185,
  "\u2581answers": 5186,
  "\u2581braut": 5187,
  "\u2581kanna": 5188,
  "Jesaja": 5189,
  "\u2581add": 5190,
  "\u2581delivered": 5191,
  "\u2581gilda": 5192,
  "\u2581l\u00e6knir": 5193,
  "\u2581standards": 5194,
  "lag": 5195,
  "\u00e6tt": 5196,
  "\u014d": 5197,
  "\u2581l\u00edkamanum": 5198,
  "skammtinum": 5199,
  "\u00edaz": 5200,
  "\u258172": 5201,
  "ney": 5202,
  "\u2581li": 5203,
  "\u2581l\u00edkama": 5204,
  "\u25814;": 5205,
  "\u2581H\u00e6tta": 5206,
  "\u2581b\u00e6tt": 5207,
  "\u2581fremst": 5208,
  "\u2581wind": 5209,
  "\u2581blessings": 5210,
  "\u2581calcium": 5211,
  "\u2581display": 5212,
  "\u2581falleg": 5213,
  "\u2581paper": 5214,
  "\u2581tilfinningar": 5215,
  "003": 5216,
  "\u2581L\u00fdsing": 5217,
  "\u2581Pi": 5218,
  "\u2581becoming": 5219,
  "\u2581\u00fe\u00fd\u00f0ir": 5220,
  "hafi": 5221,
  "\u2581shouldn": 5222,
  "LS": 5223,
  "\u2581Save": 5224,
  "\u2581kvenna": 5225,
  "\u2581pages": 5226,
  "\u2581suggest": 5227,
  "\u2581\u00d6": 5228,
  "\u2581heyrir": 5229,
  "\u2581manner": 5230,
  "\u2581Gu\u00f0sr\u00edki": 5231,
  "\u2581b\u00edlnum": 5232,
  "\u2581\u00fe\u00edns": 5233,
  "\u2581\u016b\u00ednu": 5234,
  "\u2581Accord": 5235,
  "\u2581Ten": 5236,
  "\u2581VIII": 5237,
  "-4": 5238,
  "mine": 5239,
  "\u2581kl": 5240,
  "\u2581sleppa": 5241,
  "full": 5242,
  "\u2581Bi": 5243,
  "\u2581Ranns\u00f3knir": 5244,
  "\u2581\u00fearna": 5245,
  "ok": 5246,
  "\u2581b\u00f3lga": 5247,
  "\u2581gj\u00f6r\u00f0i": 5248,
  "\u2581k\u00e6li": 5249,
  "\u2581laws": 5250,
  "\u2581lei\u00f0beiningum": 5251,
  "\u2581\u00fej\u00f3nn": 5252,
  "\u00f3ni": 5253,
  "\u2581Ol": 5254,
  "\u2581Sj\u00e1umst": 5255,
  "\u2581chosen": 5256,
  "\u2581l\u00e6gri": 5257,
  "\u2581putting": 5258,
  "\u2581rock": 5259,
  "\u2581via": 5260,
  "SA": 5261,
  "\u2581setting": 5262,
  "\u2581wedding": 5263,
  "\u2581earthly": 5264,
  "brot": 5265,
  "\u2581initiation": 5266,
  "mino": 5267,
  "s\u00f6gu": 5268,
  "\u2581bless": 5269,
  "\u2581f\u00e9": 5270,
  "hydro": 5271,
  "vit": 5272,
  "\u258110;": 5273,
  "\u2581promises": 5274,
  "\u2581Long": 5275,
  "\u2581yr\u0111i": 5276,
  "\u2581\u00e1n\u00e6gju": 5277,
  "fl": 5278,
  "k\u00f3na": 5279,
  "\u2581Instead": 5280,
  "\u2581prepare": 5281,
  "je": 5282,
  "\u2581Vir": 5283,
  "\u2581beina": 5284,
  "\u2581fer\u00f0": 5285,
  "\u2581hearing": 5286,
  "\u2581h\u00e1\u00f0": 5287,
  "stig": 5288,
  "\u00ed\u00f0s": 5289,
  "\u2581mikinn": 5290,
  "\u2581score": 5291,
  "\u2581tal": 5292,
  "release": 5293,
  "\u2581l\u00edkja": 5294,
  "\u2581str\u00e1kur": 5295,
  "stein": 5296,
  "verkur": 5297,
  "\u2581Bandar\u00edkjunum": 5298,
  "\u2581tilb\u00fain": 5299,
  "week": 5300,
  "\u2581Add": 5301,
  "\u2581Ras": 5302,
  "\u2581br\u00f3\u00f0ir": 5303,
  "\u2581mi\u0111ur": 5304,
  "\u2581m\u00e1nu\u00f0ir": 5305,
  "\u2581n\u0137gu": 5306,
  "CL": 5307,
  "ek": 5308,
  "\u2581street": 5309,
  "This": 5310,
  "\u2581l\u00ed\u00f0ur": 5311,
  "\u2581rise": 5312,
  "\u2581spent": 5313,
  "\u2581\u00dei\u00f0": 5314,
  "\u2581\u016b\u0137": 5315,
  "s\u00e6": 5316,
  "\u2581enemy": 5317,
  "\u2581floor": 5318,
  "\u2581g\u00e6r": 5319,
  "\u2581noted": 5320,
  "\u2581privilege": 5321,
  "\u2581recent": 5322,
  "\u2581g\u0137\u0111a": 5323,
  "28": 5324,
  "ating": 5325,
  "ku": 5326,
  "\u2581Select": 5327,
  "\u2581moral": 5328,
  "\u2581n\u00fdlega": 5329,
  "if": 5330,
  "\u258110%": 5331,
  "\u2581angi": 5332,
  "\u2581bound": 5333,
  "\u2581egg": 5334,
  "\u2581gentlemen": 5335,
  "\u2581l\u00e6kna": 5336,
  "\u2581reyndar": 5337,
  "\u2581r\u00e9ttu": 5338,
  "\u2581stood": 5339,
  "\u2581violence": 5340,
  "\u00e6xli": 5341,
  "\u25812,5": 5342,
  "\u2581blow": 5343,
  "\u2581efforts": 5344,
  "\u2581skili\u00f0": 5345,
  "lf": 5346,
  "\u2581Agency": 5347,
  "\u2581advanced": 5348,
  "\u2581aukaverkun": 5349,
  "\u2581conscience": 5350,
  "\u2581r\u00e6\u0111a": 5351,
  "\u2581search": 5352,
  "\u2581served": 5353,
  "How": 5354,
  "rek": 5355,
  "\u00de": 5356,
  "\u2581Noti": 5357,
  "\u25810,0": 5358,
  "\u2581Charles": 5359,
  "\u2581oxide": 5360,
  "\u2581st\u00f6\u00f0va": 5361,
  "Child": 5362,
  "rinn": 5363,
  "\u2581causes": 5364,
  "\u2581mannsins": 5365,
  "pan": 5366,
  "\u2581Post": 5367,
  "\u2581bo\u00f0": 5368,
  "\u2581commonly": 5369,
  "cam": 5370,
  "\u2581Leyf\u0111u": 5371,
  "\u2581cycle": 5372,
  "\u2581uppl\u00fdsinga": 5373,
  "600": 5374,
  "\u2581glugga": 5375,
  "\u2581political": 5376,
  "\u2581produce": 5377,
  "\u2581removed": 5378,
  "bu": 5379,
  "epi": 5380,
  "\u2581clothes": 5381,
  "\u2581memory": 5382,
  "\u2581weakness": 5383,
  "If": 5384,
  "\u2581blessed": 5385,
  "God": 5386,
  "\u25812.5": 5387,
  "\u2581flokki": 5388,
  "\u2581fulfilled": 5389,
  "2%": 5390,
  "\u2581Aaron": 5391,
  "\u2581proved": 5392,
  "\u2581rain": 5393,
  "\u2581\u0136kei": 5394,
  "98": 5395,
  "net": 5396,
  "okk": 5397,
  "\u2581Joshua": 5398,
  "\u2581imitate": 5399,
  "\u2581rates": 5400,
  "hr": 5401,
  "\u2581\"\"": 5402,
  "\u2581finished": 5403,
  "\u2581hang": 5404,
  "\u2581l\u00fdsir": 5405,
  "\u2581nervous": 5406,
  "00": 5407,
  "\u2581Gy\u00f0ingar": 5408,
  "\u2581Tommy": 5409,
  "\u2581heilkenni": 5410,
  "\u2581syni": 5411,
  "\u2581virkar": 5412,
  "\u2581warm": 5413,
  "a\u0111ur": 5414,
  "26": 5415,
  "\u2581national": 5416,
  "All": 5417,
  "gar": 5418,
  "ya": 5419,
  "\u2581Yfir": 5420,
  "\u2581maintenance": 5421,
  "\u2581nokku\u00f0": 5422,
  "\u2581svol\u00edti\u0111": 5423,
  "lok": 5424,
  "\u2581stefnu": 5425,
  "gastrointestinal": 5426,
  "ny": 5427,
  "\u2581chief": 5428,
  "\u2581loki\u0111": 5429,
  "\u2581micro": 5430,
  "\u2581r\u00edb": 5431,
  "glasinu": 5432,
  "upp": 5433,
  "\u2581aksturs": 5434,
  "\u2581heg\u00f0un": 5435,
  "\u2581listening": 5436,
  "\u2581svefn": 5437,
  "\u2581Fram": 5438,
  "\u2581QT": 5439,
  "\u2581Su": 5440,
  "\u2581William": 5441,
  "\u2581provides": 5442,
  "\u2581\u00f3tta": 5443,
  "indicated": 5444,
  "\u2581Mal": 5445,
  "\u2581fault": 5446,
  "\u2581systir": 5447,
  "ee": 5448,
  "\u2581lyfi": 5449,
  "\u2581munur": 5450,
  "\u2581n\u00famer": 5451,
  "\u2581defined": 5452,
  "\u2581enzymes": 5453,
  "lykju": 5454,
  "\u258151": 5455,
  "\u2581VI": 5456,
  "\u2581st\u00e6r\u00f0": 5457,
  "\u2581\u00feungun": 5458,
  "\u2581Jimmy": 5459,
  "\u2581S\u00e1lm": 5460,
  "\u2581mj\u00f3lkur": 5461,
  "pur": 5462,
  "\u2581City": 5463,
  "\u2581ci": 5464,
  "\u2581m\u00e1li\u00f0": 5465,
  "\u2581Mi": 5466,
  "\u2581missing": 5467,
  "\u2581vefja": 5468,
  "\u2581abdomin": 5469,
  "\u2581brj\u00f3st": 5470,
  "\u2581endurtekna": 5471,
  "\u2581inhibit": 5472,
  "\u2581l\u00fdsa": 5473,
  "\u2581note": 5474,
  "\u2581rannsaka": 5475,
  "\u2581sitting": 5476,
  "OR": 5477,
  "rita": 5478,
  "\u2581extent": 5479,
  "\u2581produced": 5480,
  "\u2581tilgreind": 5481,
  "ra\u00f0a\u00f0": 5482,
  "\u2581a\u00f0laga": 5483,
  "\u2581h\u00e6ttir": 5484,
  "\u2581h\u00f3pi": 5485,
  "\u2581Du": 5486,
  "\u2581dress": 5487,
  "\u2581Ca": 5488,
  "\u2581imagine": 5489,
  "\u2581m\u00edn\u00fatum": 5490,
  "Hva\u00f0": 5491,
  "gan": 5492,
  "\u2581Leve": 5493,
  "\u2581d\u0137": 5494,
  "\u2581n\u00edu": 5495,
  "\u2581skipt": 5496,
  "\u2581skyldu": 5497,
  "\u2581st\u00f6\u00f0ugt": 5498,
  "sjaldan": 5499,
  "l\u00e6kkandi": 5500,
  "\u0111um": 5501,
  "\u2581Damn": 5502,
  "\u2581Getur": 5503,
  "\u2581rules": 5504,
  "\u2581saith": 5505,
  "legu": 5506,
  "\u2581buddy": 5507,
  "\u2581calm": 5508,
  "\u2581measure": 5509,
  "\u2581sannleikanum": 5510,
  "\u2581throat": 5511,
  "ach": 5512,
  "\u2581Ni\u00f0urst\u00f6\u00f0ur": 5513,
  "\u2581caught": 5514,
  "\u2581hring": 5515,
  "\u2581l\u00edtill": 5516,
  "\u2581selja": 5517,
  "\u2581steady": 5518,
  "1.000": 5519,
  "ax": 5520,
  "tir": 5521,
  "\u2581Always": 5522,
  "\u2581Call": 5523,
  "not": 5524,
  "\u258114;": 5525,
  "\u2581firm": 5526,
  "\u2581\u00dar": 5527,
  "pt": 5528,
  "ING": 5529,
  "\u2581Japan": 5530,
  "\u2581Mann": 5531,
  "\u2581leggur": 5532,
  "\u2581tribulation": 5533,
  "\u2581varnar": 5534,
  "FR": 5535,
  "mar": 5536,
  "\u2581Ert": 5537,
  "\u2581einmitt": 5538,
  "\u2581sumar": 5539,
  "\u2581\u00fej\u00f3\u00f0ir": 5540,
  "\u2581coffee": 5541,
  "\u2581equivalent": 5542,
  "\u2581heyr\u00f0i": 5543,
  "\u2581s\u00fdn": 5544,
  "\u2581ti": 5545,
  "\u2581Huma": 5546,
  "\u2581reynsla": 5547,
  "ft": 5548,
  "sag\u00f0i": 5549,
  "\u2581Gu": 5550,
  "\u2581bor\u0111": 5551,
  "\u2581eld": 5552,
  "\u2581meg": 5553,
  "chloro": 5554,
  "old": 5555,
  "\u2581hringi": 5556,
  "g\u00f6ngu": 5557,
  "\u2581M\u00e6lt": 5558,
  "\u2581lof": 5559,
  "\u2581silver": 5560,
  "\u2581space": 5561,
  "\u2581\u00e1kve\u00f0i\u00f0": 5562,
  "ci": 5563,
  "\u2581byssu": 5564,
  "\u2581kr": 5565,
  "AH": 5566,
  "ble": 5567,
  "marketing": 5568,
  "\u2581goddamn": 5569,
  "\u2581potassium": 5570,
  "\u2581r\u00edkis": 5571,
  "\u2581verkum": 5572,
  "can": 5573,
  "\u2581heyri": 5574,
  "\u2581user": 5575,
  "\u2581\u00d6ll": 5576,
  "EX": 5577,
  "\u2581ofn\u00e6mis": 5578,
  "\u2581\u00feunglyndi": 5579,
  "t\u00ed\u00f0ni": 5580,
  "\u2581muna": 5581,
  "\u2581occurs": 5582,
  "\u2581Christendom": 5583,
  "\u2581actions": 5584,
  "\u2581frelsi": 5585,
  "\u2581horn": 5586,
  "\u2581l\u00edkams": 5587,
  "\u2581\u00e1l": 5588,
  "\u2581skilningi": 5589,
  "heilkenni": 5590,
  "\u2581State": 5591,
  "\u2581charge": 5592,
  "\u00e6\u00f0a": 5593,
  "3).": 5594,
  "PC": 5595,
  "mi\u00f0": 5596,
  "\u2581d\u00e1": 5597,
  "ult": 5598,
  "\u2581hydro": 5599,
  "\u2581th": 5600,
  "\u2581mighty": 5601,
  "aemic": 5602,
  "\u2581efni\u00f0": 5603,
  "\u2581flat": 5604,
  "\u2581gang": 5605,
  "\u2581kalla\u00f0i": 5606,
  "\u2581quick": 5607,
  "\u2581sl\u00e1": 5608,
  "\u2581spurningum": 5609,
  "\u2581var\u00f0veita": 5610,
  "\u2581\u00fe\u00fd\u00f0ingu": 5611,
  "cid": 5612,
  "ema": 5613,
  "ins\u00fal\u00edn": 5614,
  "\u2581f\u00e1i": 5615,
  "atic": 5616,
  "m\u00f6rk": 5617,
  "17": 5618,
  "NS": 5619,
  "bi": 5620,
  "\u2581krabbamein": 5621,
  "\u2581{": 5622,
  "tate": 5623,
  "\u25811914": 5624,
  "\u2581accident": 5625,
  "\u2581gengu": 5626,
  "\u2581hr\u00e6dd": 5627,
  "\u2581respiratory": 5628,
  "6,": 5629,
  "IX": 5630,
  "let": 5631,
  "p\u00ed": 5632,
  "\u2581almennt": 5633,
  "\u2581cm": 5634,
  "\u2581laus": 5635,
  "\u2581loves": 5636,
  "amaze": 5637,
  "\u2581l\u00e1": 5638,
  "\u2581Black": 5639,
  "\u2581Chris": 5640,
  "\u2581Remove": 5641,
  "\u2581fyrning": 5642,
  "\u2581mistake": 5643,
  "\u2581orku": 5644,
  "org": 5645,
  "spor": 5646,
  "\u2581heavy": 5647,
  "\u2581h\u00e9t": 5648,
  "\u2581veginn": 5649,
  "hi": 5650,
  "ral": 5651,
  "\u2581Skilur\u0111u": 5652,
  "\u2581fitu": 5653,
  "\u2581ger\u0111ir": 5654,
  "l\u00ednu": 5655,
  "tron": 5656,
  "t\u00e6ki": 5657,
  "\u2581d\u00fdr\u00f0": 5658,
  "\u2581musteri": 5659,
  "\u2581olli": 5660,
  "\u2581sum": 5661,
  "\u2581vanda": 5662,
  "aban": 5663,
  "rolog": 5664,
  "\u00f0ist": 5665,
  "\u2581fr\u00e9ttir": 5666,
  "\u2581j": 5667,
  "\u2581m\u00e1lt\u00ed\u00f0": 5668,
  "gl\u00f6s": 5669,
  "\u2581resulting": 5670,
  ":%": 5671,
  "Based": 5672,
  "ko": 5673,
  "4)": 5674,
  "fer\u00f0": 5675,
  "\u00e1\u00e6tlun": 5676,
  "\u02b9": 5677,
  "\u2581br": 5678,
  "60": 5679,
  "\u2581environment": 5680,
  "\u2581lam": 5681,
  "\u2581mannkyni\u00f0": 5682,
  "\u2581pure": 5683,
  "\u2581hv\u00edt": 5684,
  "\u2581ung": 5685,
  "AD": 5686,
  "vastati": 5687,
  "\u2581Next": 5688,
  "\u2581bl\u00f3\u00f0\u00fer\u00fdstings": 5689,
  "...\"": 5690,
  "vasta": 5691,
  "\u258128.": 5692,
  "\u2581ba\u0111": 5693,
  "\u2581b\u00f3lusetningu": 5694,
  "\u2581hemil": 5695,
  "\u2581schedule": 5696,
  "\u2581v\u00e6nt": 5697,
  "l\u00f6g\u00f0": 5698,
  "\u2581inhibition": 5699,
  "\u2581interfer": 5700,
  "dac": 5701,
  "\u2581Haf\u0111u": 5702,
  "\u2581directly": 5703,
  "\u2581felur": 5704,
  "\u2581seemed": 5705,
  "hug": 5706,
  "\u2581hva\u0111a": 5707,
  "\u2581kraftaverk": 5708,
  "\u2581spyr": 5709,
  "VC": 5710,
  "\u2581average": 5711,
  "38": 5712,
  "Yes": 5713,
  "kvilli": 5714,
  "\u258119)": 5715,
  "\u2581ba": 5716,
  "\u2581bi\u0111": 5717,
  "\u2581escape": 5718,
  "\u2581verndar": 5719,
  "\u2581Seg\u00f0u": 5720,
  "\u2581taste": 5721,
  "mabi": 5722,
  "\u2581Advers": 5723,
  "\u2581eftirliti": 5724,
  "\u2581skili\u0111": 5725,
  "\u2581skilst": 5726,
  "\u2581sk\u00f3la": 5727,
  "\u2581sp\u00e1": 5728,
  "\u2581hinga\u00f0": 5729,
  "\u2581n\u00faverandi": 5730,
  "\u2581obey": 5731,
  "\u2581card": 5732,
  "\u2581heilsu": 5733,
  "\u2581laid": 5734,
  "\u2581leysir": 5735,
  "\u2581lips": 5736,
  "\u2581storku": 5737,
  "\u2581t\u00e6r": 5738,
  "35": 5739,
  "\u2581f\u00fas": 5740,
  "\u2581g\u00e1fu": 5741,
  "\u2581ought": 5742,
  "\u2581\u00fereyta": 5743,
  "\u2581Samuel": 5744,
  "\u2581Though": 5745,
  "\u2581fylgt": 5746,
  "\u2581green": 5747,
  "\u2581legs": 5748,
  "\u2581peningana": 5749,
  "\u2581sell": 5750,
  "\u2581sounds": 5751,
  "1,000": 5752,
  "\u2581join": 5753,
  "\u2581sing": 5754,
  "abi": 5755,
  "adala": 5756,
  "ick": 5757,
  "\u2581decisions": 5758,
  "\u2581lofor\u00f0": 5759,
  "\u2581nau\u00f0synleg": 5760,
  "\u2581unni\u00f0": 5761,
  "80": 5762,
  "ranns\u00f3knir": 5763,
  "\u2581styrkja": 5764,
  "4/": 5765,
  "SS": 5766,
  "imab": 5767,
  "\u2581mountain": 5768,
  "mon": 5769,
  "nib": 5770,
  "r\u00e1tt": 5771,
  "\u2191": 5772,
  "\u2581a\u0111ra": 5773,
  "\u2581includes": 5774,
  "\u2581sty\u00f0ja": 5775,
  "\u2581tilfellum": 5776,
  "\u2581Dr\u00edf": 5777,
  "\u2581administer": 5778,
  "\u2581diso": 5779,
  "\u2581highly": 5780,
  "rk": 5781,
  "\u2581applied": 5782,
  "\u2581fl\u00fa": 5783,
  "\u2581hart": 5784,
  "\u2581interf": 5785,
  "\u2581kals\u00edum": 5786,
  "\u2581las": 5787,
  "\u2581n\u00f3tt": 5788,
  "ez": 5789,
  "\u2581Try": 5790,
  "\u2581ari": 5791,
  "\u2581k\u00e6mi": 5792,
  "\u2581langt\u00edma": 5793,
  "\u2581surprise": 5794,
  "year": 5795,
  "\u2581Bree": 5796,
  "\u2581f\u00e6\u00f0ingu": 5797,
  "\u2581prophets": 5798,
  "\u2581t\u0137kst": 5799,
  "\u2581worldwide": 5800,
  "kar": 5801,
  "\u2581kl\u00e1\u00f0": 5802,
  "\u2581toxic": 5803,
  "\u258120)": 5804,
  "\u258129.": 5805,
  "\u2581S\u00e9r\u0111u": 5806,
  "\u2581landinu": 5807,
  "\u2581supplied": 5808,
  "legri": 5809,
  "skap": 5810,
  "\u2581Sc": 5811,
  "\u2581f\u00f6\u0111ur": 5812,
  "\u2581n\u00e6rri": 5813,
  "\u2581vissu": 5814,
  "\u2581believers": 5815,
  "\u2581svar": 5816,
  "akkningar": 5817,
  "\u25811.000": 5818,
  "\u2581ri": 5819,
  "\u2581\u00f6ldru\u00f0um": 5820,
  "ilpi": 5821,
  "platin": 5822,
  "\u2581Jones": 5823,
  "\u2581Rev": 5824,
  "\u2581closed": 5825,
  "\u2581samantekt": 5826,
  "\u25811.5": 5827,
  "\u258126.": 5828,
  "\u2581bol": 5829,
  "\u2581expiry": 5830,
  "\u2581preach": 5831,
  "\u2581Gaman": 5832,
  "\u2581augun": 5833,
  "sson": 5834,
  "\u2581accepted": 5835,
  "\u2581assessed": 5836,
  "\u2581progression": 5837,
  "pre": 5838,
  "\u0111ir\u0111u": 5839,
  "\u2581Contents": 5840,
  "\u2581Pictures": 5841,
  "\u2581apart": 5842,
  "\u2581enzyme": 5843,
  "\u2581fallegt": 5844,
  "\u2581lang": 5845,
  "\u2581younger": 5846,
  "\u258123)": 5847,
  "\u2581alumin": 5848,
  "\u2581combined": 5849,
  "\u2581developing": 5850,
  "\u2581treyst": 5851,
  "b\u00f3k": 5852,
  "sen": 5853,
  "\u2581Heildar": 5854,
  "\u2581liquid": 5855,
  "\u2581progress": 5856,
  "\u2581snerta": 5857,
  "\u2581\u00f6\u0111rum": 5858,
  "ardagsetningu": 5859,
  "u\u0111u": 5860,
  "\u2581bank": 5861,
  "\u2581hydrochlori": 5862,
  "\u2581limit": 5863,
  "\u2581weird": 5864,
  "\u2581Honum": 5865,
  "\u2581Or\u00f0": 5866,
  "Jehovah": 5867,
  "haler": 5868,
  "\u2581Clinical": 5869,
  "\u2581sl\u00edka": 5870,
  "such": 5871,
  "\u2581concerned": 5872,
  "\u2581me\u00f0altali": 5873,
  "\u2581quiet": 5874,
  "\u2581\u00feriggja": 5875,
  "\u2581h\u00e6rra": 5876,
  "\u2581myndun": 5877,
  "\u2581reyni": 5878,
  "100)": 5879,
  "UM": 5880,
  "ttu": 5881,
  "\u2581Ed": 5882,
  "\u2581almenn": 5883,
  "\u2581m\u00f3t": 5884,
  "\u2581sk\u0137la": 5885,
  "\u2581syndir": 5886,
  "\u2581vegi": 5887,
  "\u2581Egyptalandi": 5888,
  "\u2581bj\u0137\u0111a": 5889,
  "\u2581honest": 5890,
  "\u2581Sometimes": 5891,
  "\u2581midst": 5892,
  "CE": 5893,
  "\u2581Walter": 5894,
  "\u2581allur": 5895,
  "\u2581elimination": 5896,
  "\u2581fill": 5897,
  "\u2581marry": 5898,
  "\u2581measured": 5899,
  "73": 5900,
  "skr\u00e1": 5901,
  "\u2581differences": 5902,
  "\u2581tumour": 5903,
  "but": 5904,
  "tek": 5905,
  "\u2581designed": 5906,
  "\u2581north": 5907,
  "\u2581tr\u00fana": 5908,
  "\u2581arthritis": 5909,
  "\u2581ear": 5910,
  "And": 5911,
  "sett": 5912,
  "\u2581appears": 5913,
  "\u2581m\u00f6ppu": 5914,
  "\u2581rejoice": 5915,
  "Oh": 5916,
  "\u2581Aldrei": 5917,
  "\u2581Skammt": 5918,
  "\u2581challenge": 5919,
  "\u2581str\u00e1kar": 5920,
  "AST": 5921,
  "dal": 5922,
  "\u258118)": 5923,
  "\u2581copy": 5924,
  "\u2581eitur\u00e1hrif": 5925,
  "\u2581taki": 5926,
  "\u2581wives": 5927,
  "\u2581dwell": 5928,
  "\u2581illness": 5929,
  "\u2581terrible": 5930,
  "49": 5931,
  "ganga": 5932,
  "\u25811,5": 5933,
  "\u2581lista": 5934,
  "\u2581skyndilega": 5935,
  "\u2581\u00fdms": 5936,
  "antine": 5937,
  "\u2581Bio": 5938,
  "\u2581drap": 5939,
  "\u2581l\u00edkur": 5940,
  "r\u00f3n": 5941,
  "\u2581peripheral": 5942,
  "\u2581sj\u00fakd\u00f3m": 5943,
  "\u2581waters": 5944,
  "\u2581missti": 5945,
  "\u2581\u00f3n\u00e6mi": 5946,
  "emorrhage": 5947,
  "me\u00f0": 5948,
  "\u2581Washington": 5949,
  "\u2581former": 5950,
  "dox": 5951,
  "way": 5952,
  "\u2581n\u00e1lar": 5953,
  "\u2581sta\u0111ar": 5954,
  "\u2581tri": 5955,
  "carb": 5956,
  "\u2581Ba": 5957,
  "\u2581explained": 5958,
  "\u2581nokkru": 5959,
  "\u2581pra": 5960,
  "\u2581somewhere": 5961,
  "setningar": 5962,
  "\u2581appreciation": 5963,
  "\u2581consideration": 5964,
  "\u2581lest": 5965,
  "\u2581mad": 5966,
  "\u2581n\u0169ja": 5967,
  "fer\u0111": 5968,
  "s\u00f6fnun": 5969,
  "\u2581B\u00f6rn": 5970,
  "\u2581Phil": 5971,
  "\u2581birthday": 5972,
  "\u2581l\u00fd\u00f0": 5973,
  "\u2581markmi\u00f0": 5974,
  "\u2581m\u00f6gulegt": 5975,
  "drep": 5976,
  "flu": 5977,
  "ou": 5978,
  "vandam\u00e1l": 5979,
  "\u2581Actually": 5980,
  "\u2581Myndir": 5981,
  "\u2581lifir": 5982,
  "\u2581n\u00f3g": 5983,
  "\u2581uncommon": 5984,
  "magn": 5985,
  "\u2581Yo": 5986,
  "\u2581gleymist": 5987,
  "\u2581oftar": 5988,
  "\u2581Last": 5989,
  "\u2581Tony": 5990,
  "\u2581Zo": 5991,
  "\u2581aspar": 5992,
  "\u2581lengri": 5993,
  "\u2581sj\u00fakd\u00f3ma": 5994,
  "\u2581tala\u0111": 5995,
  "\u2581varir": 5996,
  "heml": 5997,
  "ulin": 5998,
  "\u00edm": 5999,
  "\u00eds": 6000,
  "\u2581Slepptu": 6001,
  "\u2581flock": 6002,
  "\u2581virtist": 6003,
  "\u2581Ge": 6004,
  "\u2581Hverju": 6005,
  "\u2581association": 6006,
  "\u2581dj\u00fap": 6007,
  "\u2581finnum": 6008,
  "\u2581fyrirm\u00e6li": 6009,
  "\u2581pos": 6010,
  "lon": 6011,
  "\u2581Neo": 6012,
  "\u2581g\u00f6gnum": 6013,
  "\u2581neinum": 6014,
  "\u2581requirements": 6015,
  "\u2581\u016b\u0137tt": 6016,
  "retro": 6017,
  "u\u0111um": 6018,
  "with": 6019,
  "\u2581flutt": 6020,
  "\u2581klukkustundir": 6021,
  "\u2581sterk": 6022,
  "\u2581Catholic": 6023,
  "\u2581congregations": 6024,
  "\u2581hvatti": 6025,
  "Gu\u00f0": 6026,
  "dar": 6027,
  "\u2581infants": 6028,
  "\u2581l\u00ed\u00f0a": 6029,
  "\u2581s\u00ed\u00f0ari": 6030,
  "tricit": 6031,
  "\u2581Pra": 6032,
  "\u2581West": 6033,
  "\u2581borginni": 6034,
  "\u2581dreif": 6035,
  "\u2581\u00feola": 6036,
  "\u00ed\u00f0i": 6037,
  "\u2581Lot": 6038,
  "\u2581cat": 6039,
  "\u2581counts": 6040,
  "\u2581possibly": 6041,
  "cal": 6042,
  "v\u00f6r": 6043,
  "\u2581content": 6044,
  "\u2581ger\u0111u": 6045,
  "\u2581phosphate": 6046,
  "\u2581push": 6047,
  "\u2581Opti": 6048,
  "\u2581Vottar": 6049,
  "\u2581ring": 6050,
  "\u2581s\u00f6k": 6051,
  "\u2581Ty": 6052,
  "\u2581gall": 6053,
  "\u2581holding": 6054,
  "\u2581initiated": 6055,
  "\u2581kl\u00edn\u00edsku": 6056,
  "\u00f3ls": 6057,
  "\u2581harmony": 6058,
  "\u2581hiti": 6059,
  "\u2581management": 6060,
  "\u2581sonar": 6061,
  "HCV": 6062,
  "\u2581h\u00fasinu": 6063,
  "\u2581kj\u00f6lfar": 6064,
  "\u2581langvinna": 6065,
  "\u2581partner": 6066,
  "-3": 6067,
  "gjafar": 6068,
  "h\u00fas": 6069,
  "\u2581access": 6070,
  "\u2581details": 6071,
  "\u2581guidance": 6072,
  "007": 6073,
  "\u2581baptism": 6074,
  "\u2581darkness": 6075,
  "\u2581fair": 6076,
  "\u2581tilstilli": 6077,
  "arate": 6078,
  "rin": 6079,
  "\u00fa": 6080,
  "\u2581Fylgja": 6081,
  "\u2581fa\u0111ir": 6082,
  "\u2581giftast": 6083,
  "\u2581taldar": 6084,
  "\u2581telur": 6085,
  "\u2581fail": 6086,
  "\u2581haldi\u0111": 6087,
  "gol": 6088,
  "\u2581h\u00f6ldum": 6089,
  "\u2581Everyone": 6090,
  "\u2581Mor": 6091,
  "\u2581Times": 6092,
  "\u2581ol": 6093,
  "\u2581weekly": 6094,
  "ions": 6095,
  "\u25813;": 6096,
  "\u2581Tower": 6097,
  "\u2581diseases": 6098,
  "\u2581improvement": 6099,
  "\u2581killing": 6100,
  "\u2581s\u00ed": 6101,
  "\u2581\u00fatlim": 6102,
  "ugh": 6103,
  "\u2581Line": 6104,
  "\u2581closer": 6105,
  "\u2581m\u00f6guleika": 6106,
  "\u2581tilgangi": 6107,
  "\u2581tungum\u00e1l": 6108,
  "bo\u00f0": 6109,
  "\u2581dap": 6110,
  "\u2581crime": 6111,
  "\u2581m\u00e1nu\u00f0um": 6112,
  "\u2581stroke": 6113,
  "\u2581synir": 6114,
  "9)": 6115,
  "tr\u00fa": 6116,
  "\u2581Gr": 6117,
  "\u2581leaders": 6118,
  "\u2581n\u00fdjan": 6119,
  "\u2581\u00fe\u00ednar": 6120,
  "004": 6121,
  "That": 6122,
  "\u2581French": 6123,
  "\u2581Inf": 6124,
  "\u2581Isn": 6125,
  "\u2581Ly": 6126,
  "\u2581fleira": 6127,
  "\u2581professional": 6128,
  "-8": 6129,
  "afen": 6130,
  "\u258147": 6131,
  "\u2581Bet": 6132,
  "\u2581EX": 6133,
  "\u2581Eli": 6134,
  "\u2581mestu": 6135,
  "\u2581vali\u00f0": 6136,
  "irnir": 6137,
  "semi": 6138,
  "\u2581Amy": 6139,
  "\u2581distribution": 6140,
  "\u2581psalmist": 6141,
  "\u2581universe": 6142,
  "Hebreabr\u00e9fi\u00f0": 6143,
  "\u2581J\u00f3sef": 6144,
  "\u2581recognize": 6145,
  "\u2581believed": 6146,
  "\u2581gu\u0111": 6147,
  "\u2581merg": 6148,
  "\u2581totally": 6149,
  "ring": 6150,
  "\u2581andliti": 6151,
  "\u2581minnkun": 6152,
  "\u2581r\u00e6tt": 6153,
  "\u2581vissulega": 6154,
  "\u2581\u00feessarar": 6155,
  "95": 6156,
  "minn": 6157,
  "\u2581forna": 6158,
  "\u2581seat": 6159,
  "\u2581strange": 6160,
  "0,": 6161,
  "han": 6162,
  "l\u00e1\u00f0i": 6163,
  "rox": 6164,
  "\u2194": 6165,
  "\u2581Elskan": 6166,
  "\u2581maka": 6167,
  "\u2581Blood": 6168,
  "\u2581cardio": 6169,
  "\u2581fr\u00e9tta": 6170,
  "\u2581para": 6171,
  "\u2581talked": 6172,
  "\u2581uns": 6173,
  ".3%": 6174,
  "linn": 6175,
  "proxi": 6176,
  "\u2581mikilli": 6177,
  "\u2581hlutverk": 6178,
  "\u2581h\u00e1\u00fer\u00fdsting": 6179,
  "ology": 6180,
  "terol": 6181,
  "\u2581Hlusta\u0111u": 6182,
  "\u2581dyrnar": 6183,
  "\u2581langvarandi": 6184,
  "\u2581sa": 6185,
  "\u2581\u00e1kve\u00f0a": 6186,
  "fylgni": 6187,
  "\u00b7": 6188,
  "\u2581Children": 6189,
  "\u2581Hin": 6190,
  "\u2581grand": 6191,
  "\u2581Undir": 6192,
  "\u2581einhverja": 6193,
  "\u2581kennir": 6194,
  "\u2581l\u00e9tu": 6195,
  "\u2581movie": 6196,
  "\u2581Close": 6197,
  "\u2581Sko": 6198,
  "\u2581dioxide": 6199,
  "\u2581J\u00f3s\u00faa": 6200,
  "\u2581b\u00f6rnunum": 6201,
  "\u2581h\u00e1lsi": 6202,
  "\u2581smell": 6203,
  "\u2581Ad": 6204,
  "\u2581Behold": 6205,
  "\u2581belongs": 6206,
  "\u2581dysfunction": 6207,
  "\u2581f\u00e9ll": 6208,
  "\u2581texta": 6209,
  "\u2581\u00e1v\u00f6xt": 6210,
  "OS": 6211,
  "list": 6212,
  "red": 6213,
  "\u2581aka": 6214,
  "\u2581e\u00f0lileg": 6215,
  "\u2581n\u00e6tur": 6216,
  "\u2581wake": 6217,
  "apone": 6218,
  "ophil": 6219,
  "\u2581Full": 6220,
  "\u2581Myl": 6221,
  "\u2581camp": 6222,
  "\u2581heyr\u0111i": 6223,
  "\u2581hugsanleg": 6224,
  "\u2581kennt": 6225,
  "\u2581rubber": 6226,
  "\u2581sacred": 6227,
  "\u2581skref": 6228,
  "\u2581verka": 6229,
  "\u00f3g": 6230,
  "\u2581Bu": 6231,
  "\u2581RNA": 6232,
  "\u2581brings": 6233,
  "\u2581increasing": 6234,
  "\u2581weren": 6235,
  "\u2581\u00fer\u00ed": 6236,
  "hol": 6237,
  "lic": 6238,
  "ors": 6239,
  "\u2581exposed": 6240,
  "\u2581ser": 6241,
  "\u2581s\u00f6ng": 6242,
  "\u2581wearing": 6243,
  "\u2581Earth": 6244,
  "\u2581Vonandi": 6245,
  "\u2581eini": 6246,
  "\u2581ofsa": 6247,
  "\u2581persons": 6248,
  "sv\u00e6\u00f0i": 6249,
  "\u00f6ng": 6250,
  "\u2581119": 6251,
  "\u2581generation": 6252,
  "\u2581inn\u00f6ndun": 6253,
  "\u2581seint": 6254,
  "\u2581success": 6255,
  "\u2581verja": 6256,
  "\u2581assessment": 6257,
  "\u2581intended": 6258,
  "\u2581lauk": 6259,
  "\u2581obtained": 6260,
  "los": 6261,
  "\u2581hide": 6262,
  "\u2581infected": 6263,
  "\u2581me\u00f0allagi": 6264,
  "a\u00f0ur": 6265,
  "cit": 6266,
  "\u2581Leave": 6267,
  "\u2581Nafn": 6268,
  "\u2581brj\u00f3stamj\u00f3lk": 6269,
  "\u2581confirmed": 6270,
  "\u2581fum": 6271,
  "\u2581immediate": 6272,
  "\u2581kirkju": 6273,
  "\u2581sag\u0111ist": 6274,
  "\u2581sigur": 6275,
  "\u2581truck": 6276,
  "cr": 6277,
  "\u2581fela": 6278,
  "\u2581occasion": 6279,
  "\u2581Cap": 6280,
  "\u2581aftan": 6281,
  "\u2581avoided": 6282,
  "\u2581ears": 6283,
  "\u2581gathered": 6284,
  "\u2581hringdi": 6285,
  "\u2581m\u00e6ta": 6286,
  "\u2581skilgreind": 6287,
  "\u2581stage": 6288,
  "\u2581\u00fe\u00f6rfum": 6289,
  "\u2581Alls": 6290,
  "\u2581IV": 6291,
  "\u2581f\u00f3stur": 6292,
  "\u2581transfer": 6293,
  "\u2581types": 6294,
  "loxi": 6295,
  "\u2581au\u00f0velt": 6296,
  "\u2581fix": 6297,
  "\u2581fr\u00ed": 6298,
  "\u2581meltingarvegi": 6299,
  "\u2581member": 6300,
  "\u2581Mark\u00fas": 6301,
  "\u2581Phase": 6302,
  "\u2581create": 6303,
  "\u2581folder": 6304,
  "glasi\u00f0": 6305,
  "\u2581NW": 6306,
  "\u2581accurate": 6307,
  "legar": 6308,
  "\u25811,000": 6309,
  "\u2581focus": 6310,
  "\u2581grade": 6311,
  "\u2581g\u00f3\u00f0u": 6312,
  "\u2581haemo": 6313,
  "\u2581joint": 6314,
  "\u2581raise": 6315,
  "\u2581str\u00ed\u00f0": 6316,
  "\u2581v\u00e6g": 6317,
  "vol": 6318,
  "\u2581(7": 6319,
  "\u258121)": 6320,
  "\u2581Endur": 6321,
  "\u2581Medicines": 6322,
  "\u2581elder": 6323,
  "\u2581konuna": 6324,
  "Af": 6325,
  "hluta": 6326,
  "\u2581danger": 6327,
  "\u2581exist": 6328,
  "\u2581symptom": 6329,
  "\u2581title": 6330,
  "amanber": 6331,
  "\u2581kl\u00f3": 6332,
  "tis": 6333,
  "\u2581load": 6334,
  "\u2581relative": 6335,
  "\u2581skyn": 6336,
  "\u2581strengthen": 6337,
  "\u2581swear": 6338,
  "\u2581private": 6339,
  "\u2581s\u00ed\u0111asta": 6340,
  "RP": 6341,
  "virkni": 6342,
  "\u2581Com": 6343,
  "\u2581bus": 6344,
  "\u2581courage": 6345,
  "\u2581dude": 6346,
  "\u2581l\u00e6risveinum": 6347,
  "\u2581margra": 6348,
  "tr\u00ed": 6349,
  "\u2581god": 6350,
  "\u2581kal\u00edum": 6351,
  "Allt": 6352,
  "kal": 6353,
  "ks": 6354,
  "nsulin": 6355,
  "ps": 6356,
  "\u2581Arthur": 6357,
  "\u2581Rammi": 6358,
  "\u2581quit": 6359,
  "\u2581\u00e1st\u00e6\u00f0u": 6360,
  "\u2581\u00feynn": 6361,
  "16": 6362,
  "\u2581km": 6363,
  "\u2581reveal": 6364,
  "0,5": 6365,
  "p\u00edp": 6366,
  "zol": 6367,
  "\u2581(12": 6368,
  "\u2581Pack": 6369,
  "\u2581hast": 6370,
  "\u2581hundru\u00f0": 6371,
  "\u2581ice": 6372,
  "\u2581mid": 6373,
  "\u2581receptor": 6374,
  "\u2581vi\u00f0urkenna": 6375,
  "\u2581\u00e1herslu": 6376,
  "\u2581\u00fatiloka": 6377,
  "\u2581\u016aig": 6378,
  "emoglobin": 6379,
  "h\u00f3pum": 6380,
  "\u2581FYRIR": 6381,
  "\u2581konung": 6382,
  "\u2581marked": 6383,
  "\u2581patch": 6384,
  "\u2581press": 6385,
  "\u2581(20": 6386,
  "\u2581Germany": 6387,
  "\u2581President": 6388,
  "\u2581t\u00edmanum": 6389,
  "\u2581\u00deessir": 6390,
  "ay": 6391,
  "\u2581National": 6392,
  "\u2581getur\u0111u": 6393,
  "\u2581kl\u00e1ra": 6394,
  "\u2581nine": 6395,
  "\u2581n\u00fdru": 6396,
  "\u2581requires": 6397,
  "\u2581thinks": 6398,
  "\u2581vopn": 6399,
  "\u2581\u00e1kvar\u00f0anir": 6400,
  "99": 6401,
  "UN": 6402,
  "\u2264": 6403,
  "\u2581Haf\u00f0u": 6404,
  "\u2581contrast": 6405,
  "\u2581pr\u00f3": 6406,
  "therapeutic": 6407,
  "ular": 6408,
  "\u2581North": 6409,
  "\u2581boss": 6410,
  "\u2581fjandanum": 6411,
  "\u2581hlaupa": 6412,
  "\u2581sek\u00fandur": 6413,
  "\u2581social": 6414,
  "eig": 6415,
  "har": 6416,
  "\u2581Johnny": 6417,
  "\u2581bringing": 6418,
  "\u2581stigi": 6419,
  "\u2581surely": 6420,
  "I\u00d0": 6421,
  "marat": 6422,
  "\u2581Hospi": 6423,
  "\u2581vildu": 6424,
  "hring": 6425,
  "\u2581Fr": 6426,
  "\u2581Hvort": 6427,
  "\u2581einstaklingar": 6428,
  "\u2581lucky": 6429,
  "\u2581sil": 6430,
  "\u2581Control": 6431,
  "\u2581Op": 6432,
  "\u2581container": 6433,
  "\u2581geisla": 6434,
  "\u2581helv\u00edtis": 6435,
  "\u2581r\u00e9tti": 6436,
  "96": 6437,
  "yn": 6438,
  "\u2581equal": 6439,
  "\u2581\u00feri\u00f0ja": 6440,
  "efni\u00f0": 6441,
  "\u00edu": 6442,
  "\u2581Finnst": 6443,
  "\u2581Mun": 6444,
  "\u2581walked": 6445,
  "500": 6446,
  "\u2581Tr\u00fa": 6447,
  "\u2581einka": 6448,
  "\u2581interactions": 6449,
  "\u2581m\u00e1nu\u0111i": 6450,
  "\u2581nota\u00f0ur": 6451,
  "\u2581plunger": 6452,
  "\u2581sm": 6453,
  "t\u00ed\u00f0": 6454,
  "\u2581becomes": 6455,
  "\u2581learning": 6456,
  "\u2581photo": 6457,
  "\u2581sj\u00faklingi": 6458,
  "nun": 6459,
  "\u2581Nevertheless": 6460,
  "\u2581meinv\u00f6rp": 6461,
  "\u2581L\u00edttu": 6462,
  "ath": 6463,
  "kennd": 6464,
  "\u258196": 6465,
  "\u2581Kar": 6466,
  "\u2581dansa": 6467,
  "\u2581feels": 6468,
  "\u2581hreinsa": 6469,
  "\u2581l\u00e9tt": 6470,
  "\u2581r\u00e1\u00f0lag\u00f0": 6471,
  "\u2581samkomur": 6472,
  "l\u00e6g": 6473,
  "\u2581Messiah": 6474,
  "\u2581Sj\u00e1i\u0111": 6475,
  "\u0137l": 6476,
  "\u2581Thomas": 6477,
  "\u2581acting": 6478,
  "\u2581arrived": 6479,
  "\u2581au\u00f0": 6480,
  "\u2581kraft": 6481,
  "\u2581numbers": 6482,
  "\u2581skila": 6483,
  "lei\u0111": 6484,
  "\u2581Beth": 6485,
  "\u2581Dul": 6486,
  "\u2581Lee": 6487,
  "\u2581l\u00f6gum": 6488,
  "\u2581sulph": 6489,
  "ect": 6490,
  "l\u00edt": 6491,
  "\u2581drep": 6492,
  "\u2581river": 6493,
  "\u2581terms": 6494,
  "\u2581throne": 6495,
  "RE": 6496,
  "])": 6497,
  "\u258154": 6498,
  "\u2581Bring": 6499,
  "\u2581Sm": 6500,
  "\u2581bj\u00f3": 6501,
  "\u2581description": 6502,
  "18": 6503,
  "matin": 6504,
  "\u2581Hverjir": 6505,
  "\u2581Sl\u00edk": 6506,
  "\u2581despite": 6507,
  "\u2581h\u00e6kka\u00f0": 6508,
  "\u2581impaired": 6509,
  "\u2581option": 6510,
  "\u2581sker\u00f0ingu": 6511,
  "\u2581spot": 6512,
  "\u2581teacher": 6513,
  "\u2581byggt": 6514,
  "\u2581perform": 6515,
  "act": 6516,
  "\u00edl": 6517,
  "\u2581Mount": 6518,
  "\u2581Spiro": 6519,
  "\u2581expressed": 6520,
  "\u2581or\u00f0inn": 6521,
  "\u2581rapid": 6522,
  "005": 6523,
  "illa": 6524,
  "\u2581Data": 6525,
  "\u2581centuries": 6526,
  "\u2581hormone": 6527,
  "\u2581\u016aannig": 6528,
  "legum": 6529,
  "\u2581Me\u00f0an": 6530,
  "\u2581block": 6531,
  "\u2581ket": 6532,
  "\u2581procedure": 6533,
  "\u2581stu\u00f0nings": 6534,
  "\u2581vein": 6535,
  "\u2581vessels": 6536,
  "greiningu": 6537,
  "\u2581Cal": 6538,
  "\u2581e\u00f0": 6539,
  "\u2581glas": 6540,
  "\u2581huglei\u00f0a": 6541,
  "\u2581varstu": 6542,
  "\u2581Mother": 6543,
  "\u2581accord": 6544,
  "\u2581geymslu": 6545,
  "400": 6546,
  "TRI": 6547,
  "\u2581connection": 6548,
  "\u2581n\u00e6": 6549,
  "\u2581T\u00f6kum": 6550,
  "\u2581computer": 6551,
  "\u2581slightly": 6552,
  "\u2581species": 6553,
  "\u2581\u00d6r": 6554,
  "\u2581algerlega": 6555,
  "\u2581properly": 6556,
  "CI": 6557,
  "ser": 6558,
  "used": 6559,
  "\u2581h\u00f6fu\u00f0verkur": 6560,
  "\u2581vaccines": 6561,
  "oid": 6562,
  "\u2581Rap": 6563,
  "\u2581Run": 6564,
  "\u2581explains": 6565,
  "\u2581youth": 6566,
  "\u2581\u00f3e\u00f0lileg": 6567,
  "97": 6568,
  "://": 6569,
  "\u2581beita": 6570,
  "\u2581dedicated": 6571,
  "\u2581hvetja": 6572,
  "\u2581t\u00f6ku": 6573,
  "5/": 6574,
  "toxicity": 6575,
  "\u2581goal": 6576,
  "\u2581ka": 6577,
  "\u2581litlaus": 6578,
  "\u2581trees": 6579,
  "OX": 6580,
  "ikt": 6581,
  "ull": 6582,
  "\u2581Tilkynnt": 6583,
  "\u2581international": 6584,
  "\u2581mikilv\u00e6g": 6585,
  "\u2581r\u00f6dd": 6586,
  "-5": 6587,
  "don": 6588,
  "hrom": 6589,
  "\u2581absorption": 6590,
  "\u2581appearance": 6591,
  "\u2581entered": 6592,
  "\u2581heild": 6593,
  "\u2581kiss": 6594,
  "\u2581nota\u00f0i": 6595,
  "\u2581Opna": 6596,
  "\u2581einskis": 6597,
  "\u2581helst": 6598,
  "\u2581levo": 6599,
  "\u2581murder": 6600,
  "\u2581organ": 6601,
  "\u2581stopper": 6602,
  "\u2581s\u00e9rstakr": 6603,
  "s\u00f3tt": 6604,
  "\u2581Smith": 6605,
  "\u2581k\u00e6rleikur": 6606,
  "\u2581seeking": 6607,
  "\u2581takast": 6608,
  "\u2581trip": 6609,
  "\u2581Mel": 6610,
  "\u2581dr\u00f3": 6611,
  "\u2581hj\u00e1lpa\u0111": 6612,
  ".7%": 6613,
  "ze": 6614,
  "\u258127.": 6615,
  "\u2581path": 6616,
  "\u2581tveim": 6617,
  "kyn": 6618,
  "nefnd": 6619,
  "\u2581Sal": 6620,
  "\u2581gate": 6621,
  "\u2581platelet": 6622,
  "\u2581sad": 6623,
  "asil": 6624,
  "ck": 6625,
  "free": 6626,
  "pyr": 6627,
  "s\u00f3larhring": 6628,
  "\u2581A\u00f0eins": 6629,
  "\u2581Later": 6630,
  "\u2581S\u00fdnt": 6631,
  "\u2581endure": 6632,
  "\u2581star": 6633,
  "\u2581stored": 6634,
  "\u2581lj\u0137s": 6635,
  "gja": 6636,
  "r\u00e6\u00f0i": 6637,
  "\u2581heldur\u0111u": 6638,
  "\u2581stunda": 6639,
  "ier": 6640,
  "\u00deetta": 6641,
  "\u2581Park": 6642,
  "\u2581fit": 6643,
  "\u2581n\u00fdjum": 6644,
  "\u2581paradise": 6645,
  "LD": 6646,
  "gre": 6647,
  "\u2581Cr": 6648,
  "\u2581Star": 6649,
  "\u2581bj\u00f3\u00f0a": 6650,
  "\u2581eta": 6651,
  "\u2581fyrra": 6652,
  "\u2581sm\u00e1m": 6653,
  "\u2581storm": 6654,
  "\u2581heads": 6655,
  "\u2581m\u00e1la": 6656,
  "\u2581statistically": 6657,
  "mmol": 6658,
  "\u25816.1": 6659,
  "\u2581diet": 6660,
  "\u2581education": 6661,
  "\u2581engum": 6662,
  "\u2581fj\u00f6gur": 6663,
  "\u2581f\u00f3lki\u00f0": 6664,
  "\u2581guide": 6665,
  "\u2581hrifinn": 6666,
  "\u2581vi\u00f0halds": 6667,
  "\u2581Konur": 6668,
  "\u2581behalf": 6669,
  "\u2581growing": 6670,
  "\u2581legg": 6671,
  "\u2581lesi\u00f0": 6672,
  "ial": 6673,
  "od": 6674,
  "roli": 6675,
  "\u2581File": 6676,
  "\u2581Fred": 6677,
  "\u2581Mundu": 6678,
  "\u2581anywhere": 6679,
  "\u2581hugrekki": 6680,
  "\u2581ma\u0111urinn": 6681,
  "\u2581remains": 6682,
  "St": 6683,
  "last": 6684,
  "r\u00edk": 6685,
  "you": 6686,
  "z\u00fa": 6687,
  "\u258131.": 6688,
  "\u2581lami": 6689,
  "\u2581m\u0137ti": 6690,
  "\u2581sennilega": 6691,
  "\u2581Note": 6692,
  "\u2581practical": 6693,
  "\u2581r\u00edki\u00f0": 6694,
  "\u2581sk\u00fdrt": 6695,
  "\u2581sn": 6696,
  "\u25aa": 6697,
  "/3": 6698,
  "ock": 6699,
  "\u00edr": 6700,
  "\u2581Jordan": 6701,
  "\u2581binding": 6702,
  "\u2581br\u0137\u0111ir": 6703,
  "\u2581h\u00e6g": 6704,
  "\u2581method": 6705,
  "\u2581planning": 6706,
  "\u2581vir\u00f0i": 6707,
  "\u2581visual": 6708,
  "\u2581\u00ferj\u00fa": 6709,
  "\u2581SEM": 6710,
  "\u2581Veldu": 6711,
  "\u2581disk": 6712,
  "\u2581gef": 6713,
  "\u2581smoke": 6714,
  "CEL": 6715,
  "\u2581Allar": 6716,
  "\u2581bl\u0137\u0111": 6717,
  "\u2581hrein": 6718,
  "\u2581sj\u00faklings": 6719,
  "EL": 6720,
  "svo": 6721,
  "s\u00fdki": 6722,
  "\u2581F\u00e1": 6723,
  "\u2581Mi\u00f0gildi": 6724,
  "\u2581declared": 6725,
  "\u2581lengra": 6726,
  "\u2581refer": 6727,
  "\u2581reflect": 6728,
  "\u2581sendir": 6729,
  "\u2581stone": 6730,
  "\u2581virk": 6731,
  "\u2581credit": 6732,
  "\u2581drunk": 6733,
  "\u2581kennslu": 6734,
  "\u2581leitar": 6735,
  "\u2581r\u00f6k": 6736,
  "side": 6737,
  "\u258133.": 6738,
  "\u2581System": 6739,
  "\u2581anxiety": 6740,
  "\u2581bo\u00f0unarstarfinu": 6741,
  "\u2581byrjun": 6742,
  "\u2581stress": 6743,
  "\u2581svart": 6744,
  "\u2581tilheyrir": 6745,
  "\u2581unglingar": 6746,
  "d\u0169r": 6747,
  "natr\u00edumkl\u00f3r\u00ed\u00f0": 6748,
  "\u2581survive": 6749,
  "\u2581L\u00edt": 6750,
  "\u2581dau\u0111": 6751,
  "\u2581d\u00e1inn": 6752,
  "\u2581geti\u00f0": 6753,
  "\u2581lengd": 6754,
  "n\u00fa": 6755,
  "zha": 6756,
  "\u2581antibody": 6757,
  "\u2581exercised": 6758,
  "\u2581household": 6759,
  "\u2581hungry": 6760,
  "\u2581m\u00f6rk": 6761,
  "\u2581veitti": 6762,
  "\u2581vir\u00f0ast": 6763,
  "\u2581\u016aegi\u0111u": 6764,
  "\u2581Breez": 6765,
  "\u2581Tri": 6766,
  "\u2581breyting": 6767,
  "\u2581teachings": 6768,
  "57": 6769,
  "\u2581A\u00d0": 6770,
  "\u2581m\u00e1lum": 6771,
  "\u2581personality": 6772,
  "\u2581safna": 6773,
  "\u2581svara\u00f0": 6774,
  "eins": 6775,
  "heim": 6776,
  "mod": 6777,
  "\u2581afst\u00f6\u00f0u": 6778,
  "\u2581forrit": 6779,
  "\u2581laun": 6780,
  "\u2581supply": 6781,
  ",7%": 6782,
  "Cause": 6783,
  "fyrir": 6784,
  "\u2581gr": 6785,
  "\u2581mi\u00f0ur": 6786,
  "\u2581nearly": 6787,
  "\u2581stein": 6788,
  "\u2581sudden": 6789,
  "22": 6790,
  "29": 6791,
  "ative": 6792,
  "h\u00fa\u00f0": 6793,
  "\u2581bo\u00f0or\u00f0": 6794,
  "\u2581cup": 6795,
  "\u2581fjandinn": 6796,
  "\u2581hra\u00f0a": 6797,
  "\u2581lies": 6798,
  "ISTA": 6799,
  "\u2581aga": 6800,
  "\u2581heil": 6801,
  "\u2581kaffi": 6802,
  "\u2581n\u00e1nast": 6803,
  "\u2581outcome": 6804,
  "\u2581tilfelli": 6805,
  "\u2581weapons": 6806,
  "10/": 6807,
  "lyfi\u00f0": 6808,
  "\u00e1n": 6809,
  "\u2581Someone": 6810,
  "\u2581heitt": 6811,
  "\u2581l\u00e1ttu": 6812,
  "\u2581mein": 6813,
  "\u00e6r": 6814,
  "\u2581Danny": 6815,
  "\u2581fluid": 6816,
  "\u2581global": 6817,
  "\u2581Fil": 6818,
  "\u2581ofbeldi": 6819,
  "byggjandi": 6820,
  "uman": 6821,
  "\u2581conversation": 6822,
  "sta\u0111": 6823,
  "\u2581Tre": 6824,
  "\u2581plain": 6825,
  "/4": 6826,
  "\u2581Alveg": 6827,
  "\u2581algeng": 6828,
  "\u2581heat": 6829,
  "\u2581naut": 6830,
  "\u2581tiI": 6831,
  "h\u00f3pnum": 6832,
  "\u2581geta\u0111": 6833,
  "\u2581reyndist": 6834,
  ",5%": 6835,
  "agi": 6836,
  "\u2581herself": 6837,
  "\u2581impossible": 6838,
  "ell": 6839,
  "\u2581beinum": 6840,
  "\u2581express": 6841,
  "\u2581primarily": 6842,
  "\u2581sakna": 6843,
  "b\u00fa": 6844,
  "\u2581copies": 6845,
  "\u2581datt": 6846,
  "\u2581fighting": 6847,
  "st\u00f6\u00f0u": 6848,
  "\u2581Both": 6849,
  "\u2581Flott": 6850,
  "\u2581approach": 6851,
  "\u2581base": 6852,
  "\u2581bau\u00f0": 6853,
  "\u2581bygg\u00f0": 6854,
  "\u2581m\u00e6\u00f0i": 6855,
  "\u2581personally": 6856,
  "\u2581u": 6857,
  "skipti": 6858,
  "\u2581cost": 6859,
  "\u2581lei\u0111inni": 6860,
  "\u2581smart": 6861,
  "\u2581speed": 6862,
  "\u2581sprautunni": 6863,
  "2-": 6864,
  "For": 6865,
  "chi": 6866,
  "\u2581be\u00f0i\u00f0": 6867,
  "\u2581horses": 6868,
  "\u2581wide": 6869,
  "\u2581\u00e6tlar\u0111u": 6870,
  "47": 6871,
  "tafla": 6872,
  "\u2581aukningu": 6873,
  "\u2581hjartabilun": 6874,
  "\u2581interests": 6875,
  "\u2581me\u00f0h\u00f6ndlun": 6876,
  "\u2581situations": 6877,
  "\u2581vega": 6878,
  "br\u00e9f": 6879,
  "\u258123,": 6880,
  "\u2581fyrirmynd": 6881,
  "\u2581f\u00ednt": 6882,
  "\u2581f\u0137lki": 6883,
  "\u2581nein": 6884,
  "\u2581\u00e1fengi": 6885,
  "\u2581\u2191": 6886,
  "OL": 6887,
  "skot": 6888,
  "\u2581bought": 6889,
  "\u2581contraception": 6890,
  "\u2581l\u00fdkur": 6891,
  "\u2581sprautur": 6892,
  "f\u00e6r": 6893,
  "\u2581Far\u00f0u": 6894,
  "\u2581andlegu": 6895,
  "\u2581sj\u00e1lfa": 6896,
  "\u2581viti": 6897,
  "67": 6898,
  "MD": 6899,
  "gg": 6900,
  "\u2581Afr\u00edku": 6901,
  "\u2581Fimm": 6902,
  "\u2581b\u00e6nir": 6903,
  "\u2581enn\u016b\u00e1": 6904,
  "\u2581stars": 6905,
  "MA": 6906,
  "\u2581Kristni": 6907,
  "\u2581adequate": 6908,
  "\u2581foreldrum": 6909,
  "\u2581hinar": 6910,
  "\u2581metasta": 6911,
  "\u2581r\u00fam": 6912,
  "\u2581s\u00ed\u0111ar": 6913,
  "\u2581\u00d6ryggi": 6914,
  ",2%": 6915,
  "PP": 6916,
  "ss": 6917,
  "\u2581Anti": 6918,
  "\u2581Mean": 6919,
  "\u2581Tru": 6920,
  "\u2581hvetur": 6921,
  "av\u00edrs": 6922,
  "dir": 6923,
  "\u2581Samt": 6924,
  "\u2581br\u00e1\u00f0": 6925,
  "\u2581cis": 6926,
  "\u2581lesson": 6927,
  "\u2581subsequent": 6928,
  "med": 6929,
  "\u2581dying": 6930,
  "\u2581easily": 6931,
  "\u2581greiningu": 6932,
  "0.5": 6933,
  "a\u00f0l\u00f6gun": 6934,
  "\u2581humble": 6935,
  "\u2581postula": 6936,
  "\u2581tak": 6937,
  "\u00fer\u00fdstingur": 6938,
  "\u2581Pat": 6939,
  "\u2581Russell": 6940,
  "\u2581appetite": 6941,
  "\u2581kristinna": 6942,
  "\u2581nefna": 6943,
  "\u2581Street": 6944,
  "\u2581f\u00e6kkun": 6945,
  "\u2581operation": 6946,
  "\u2581vel\u00fe\u00f3knun": 6947,
  "\u2581\u016bessar": 6948,
  "\u2581devotion": 6949,
  "\u2581l\u00edti\u0111": 6950,
  "\u2581Mem": 6951,
  "\u2581burning": 6952,
  "\u2581central": 6953,
  "\u2581fulln\u00e6gjandi": 6954,
  "\u2581l\u00e9st": 6955,
  "\u2581suppose": 6956,
  "jected": 6957,
  "phylaxis": 6958,
  "v\u00edri": 6959,
  "\u2581Witness": 6960,
  "\u2581a\u00f0ger\u00f0": 6961,
  "\u2581examine": 6962,
  "\u2581geta\u00f0": 6963,
  "\u2581n\u00e1l": 6964,
  "\u2581E\u00f0a": 6965,
  "\u2581G\u00e6ti": 6966,
  "\u2581a\u00f0fer\u00f0": 6967,
  "\u2581bent": 6968,
  "\u2581fagna\u00f0arerindi": 6969,
  "\u2581f\u00edfl": 6970,
  "\u2581glyco": 6971,
  "\u2581\u016bekkir": 6972,
  "11": 6973,
  "\u2581UM": 6974,
  "\u2581consistent": 6975,
  "\u2581e\u00f0lilega": 6976,
  "\u2581improve": 6977,
  "\u2581meat": 6978,
  "\u2581minor": 6979,
  "\u2581n\u00e1\u00f0i": 6980,
  "\u2581tengsl": 6981,
  "\u2581vottur": 6982,
  "\u2581\u00f6\u00f0last": 6983,
  "ash": 6984,
  "fram": 6985,
  "landi": 6986,
  "lun": 6987,
  "\u2581Alm\u00e1ttugur": 6988,
  "\u2581feed": 6989,
  "\u2581injury": 6990,
  "\u2581parameters": 6991,
  "\u2581reglur": 6992,
  "8)": 6993,
  "ddu": 6994,
  "\u016aetta": 6995,
  "\u2581Book": 6996,
  "\u2581Sch": 6997,
  "\u2581angry": 6998,
  "\u2581f\u00f3tum": 6999,
  "\u2581f\u00fa": 7000,
  "\u2581v\u00e9l": 7001,
  "\u2581Caution": 7002,
  "\u2581Happy": 7003,
  "\u2581Through": 7004,
  "\u2581benti": 7005,
  "\u2581brj\u00f3ta": 7006,
  "\u2581l\u00e1ti\u0111": 7007,
  "\u2581n\u00e1\u0111i": 7008,
  "\u2581skjal": 7009,
  "bak": 7010,
  "\u00f3kl": 7011,
  "\u2581Africa": 7012,
  "\u2581excluded": 7013,
  "\u2581frequent": 7014,
  "\u2581languages": 7015,
  "\u2581lykil": 7016,
  "\u2581\u00feurfi": 7017,
  "tantly": 7018,
  "\u2581Little": 7019,
  "\u2581Sta": 7020,
  "\u2581vildir": 7021,
  "ight": 7022,
  "\u2581Ezekiel": 7023,
  "\u2581H\u00e6gt": 7024,
  "\u2581f\u00e6st": 7025,
  "\u2581h\u00e6\u00f0": 7026,
  "\u2581ni\u0111ri": 7027,
  "ud": 7028,
  "\u25812-": 7029,
  "\u2581hugsanir": 7030,
  "\u2581kleift": 7031,
  "\u2581risks": 7032,
  "ET": 7033,
  "ene": 7034,
  "\u00f3tt": 7035,
  "\u2581ho": 7036,
  "\u2581hvarfefni": 7037,
  "\u2581refrigerator": 7038,
  "\u2581Fr\u00fa": 7039,
  "\u2581balance": 7040,
  "\u2581bi\u00f0": 7041,
  "\u2581onto": 7042,
  "\u2581t\u00f6lfr\u00e6\u00f0ilega": 7043,
  "\u2581\u25aa": 7044,
  "14": 7045,
  "falt": 7046,
  "hald": 7047,
  "uff": 7048,
  "\u2581Foreldrar": 7049,
  "\u2581IX": 7050,
  "\u2581Lam": 7051,
  "\u2581b\u00faast": 7052,
  "\u2581fundi\u0111": 7053,
  "\u2581ladies": 7054,
  "\u2581\u00b0": 7055,
  "En": 7056,
  "ats": 7057,
  "v\u00edn": 7058,
  "\u2581Honey": 7059,
  "\u2581les": 7060,
  "\u2581tested": 7061,
  "\u2581125": 7062,
  "\u2581Komum": 7063,
  "\u2581Spirit": 7064,
  "\u2581deyr": 7065,
  "\u2581garden": 7066,
  "\u2581goodness": 7067,
  "\u2581remaining": 7068,
  "\u2581vekja": 7069,
  "ecit": 7070,
  "jo": 7071,
  "tami": 7072,
  "\u2581burn": 7073,
  "\u2581d\u00f3m": 7074,
  "\u2581messages": 7075,
  "\u2581misst": 7076,
  "\u2581mj\u00f3lk": 7077,
  "\u2581sv\u00f6r": 7078,
  "\u2581tilbi\u00f0ja": 7079,
  "aquin": 7080,
  "dan": 7081,
  "flug": 7082,
  "k\u00edn": 7083,
  "\u00edta": 7084,
  "\u2581Clear": 7085,
  "\u2581Eg": 7086,
  "\u2581Green": 7087,
  "\u2581determine": 7088,
  "\u2581gaur": 7089,
  "\u2581request": 7090,
  "\u2581turning": 7091,
  "\")": 7092,
  "methyl": 7093,
  "\u00f3rt": 7094,
  "\u258166": 7095,
  "\u2581Hafa": 7096,
  "\u2581V\u00e1": 7097,
  "\u2581farin": 7098,
  "\u2581instructed": 7099,
  "\u2581pioneer": 7100,
  "\u2581seriously": 7101,
  "There": 7102,
  "glita": 7103,
  "\u2581Ru": 7104,
  "\u2581cartridge": 7105,
  "\u2581getir": 7106,
  "\u2581model": 7107,
  "\u2581\u00e6tla\u00f0i": 7108,
  "inda": 7109,
  "\u2581length": 7110,
  "\u2581thine": 7111,
  "\u2581Los": 7112,
  "\u2581cats": 7113,
  "\u2581gla": 7114,
  "\").": 7115,
  "))": 7116,
  "berg": 7117,
  "\u2581aukaverkanirnar": 7118,
  "\u2581brau\u00f0": 7119,
  "\u2581d\u00e6ma": 7120,
  "\u2581g\u0137\u0111u": 7121,
  "\u2581huge": 7122,
  "\u2581l\u00edt": 7123,
  "etta": 7124,
  "stigm": 7125,
  "\u2581AF": 7126,
  "\u2581Gi": 7127,
  "\u2581Virka": 7128,
  "\u2581fund": 7129,
  "\u2581inter": 7130,
  "\u2581letters": 7131,
  "\u2581beast": 7132,
  "\u2581volunteers": 7133,
  "genic": 7134,
  "\u2581Ephesians": 7135,
  "\u2581altar": 7136,
  "\u2581background": 7137,
  "\u2581kj\u00f6t": 7138,
  "\u2581planet": 7139,
  "\u2581route": 7140,
  "\u2581secondary": 7141,
  "\u2581society": 7142,
  "\u2581spurningu": 7143,
  "\u2581storage": 7144,
  "\u2581s\u00fdkingum": 7145,
  "\u2581\u00e6xlis": 7146,
  "Why": 7147,
  "row": 7148,
  "\u2581Chi": 7149,
  "\u2581forms": 7150,
  "\u2581f\u00f3l": 7151,
  "\u2581impact": 7152,
  "\u2581submit": 7153,
  "6)": 7154,
  "\u2581Ari": 7155,
  "006": 7156,
  "talin": 7157,
  "\u2581Four": 7158,
  "\u2581hollustu": 7159,
  ",1%": 7160,
  "opathy": 7161,
  "qui": 7162,
  "\u2581Opinberunarb\u00f3k": 7163,
  "\u2581Tu": 7164,
  "\u2581f\u00f3rn": 7165,
  "\u2581importance": 7166,
  "unit": 7167,
  "\u2581CART": 7168,
  "\u2581Del": 7169,
  "\u2581Fyrsta": 7170,
  "\u2581S\u00ed\u0111an": 7171,
  "\u2581bl\u00f3\u00f0leysi": 7172,
  "\u2581maintained": 7173,
  "\u2581sacrifices": 7174,
  "\u2581sky": 7175,
  "d\u00fdr": 7176,
  "\u2581Bond": 7177,
  "\u2581Canada": 7178,
  "\u2581Gary": 7179,
  "\u2581Similarly": 7180,
  "\u2581S\u00e9": 7181,
  "\u2581kynsl\u00f3\u00f0": 7182,
  "\u2581outer": 7183,
  "\u2581reynst": 7184,
  "\u2581stable": 7185,
  "\u2581\u00feremur": 7186,
  "lif": 7187,
  "\u2581Others": 7188,
  "\u2581Steve": 7189,
  "\u2581appeared": 7190,
  "\u2581formulation": 7191,
  "\u2581fyrirgefa": 7192,
  "\u2581students": 7193,
  "\u2581thereof": 7194,
  "\u2581treysti": 7195,
  "Who": 7196,
  "\u2581Ey\u00f0a": 7197,
  "\u2581fali\u00f0": 7198,
  "\u2581gler": 7199,
  "\u2581l\u00f6ngun": 7200,
  "\u2581v\u00edsbendingar": 7201,
  "skammti": 7202,
  "\u2581Hef": 7203,
  "\u2581Whoa": 7204,
  "\u2581dau\u0111a": 7205,
  "\u2581dau\u0111ur": 7206,
  "\u2581induction": 7207,
  "76": 7208,
  "c\u00ed": 7209,
  "\u2581Kevin": 7210,
  "\u2581alvarlegt": 7211,
  "\u2581fj\u00f3rum": 7212,
  "\u2581invited": 7213,
  "\u2581langan": 7214,
  "aria": 7215,
  "biga": 7216,
  "\u2581Somebody": 7217,
  "\u2581flogaveiki": 7218,
  "\u2581mountains": 7219,
  "\u2581vs": 7220,
  "\u2581\u00fej\u00f3\u00f0um": 7221,
  "TNF": 7222,
  "ford": 7223,
  "\u2581Hal": 7224,
  "\u2581arfger\u00f0": 7225,
  "\u2581forgot": 7226,
  "\u2581laboratory": 7227,
  "\u2581teeth": 7228,
  "\u2581ya": 7229,
  "\u2581youths": 7230,
  "34": 7231,
  "\u2581Eitthva\u0111": 7232,
  "\u2581Five": 7233,
  "\u2581Reyndar": 7234,
  "\u2581Tem": 7235,
  "\u2581wilderness": 7236,
  "ls": 7237,
  "\u2581Kin": 7238,
  "\u2581Simon": 7239,
  "\u2581Under": 7240,
  "\u2581alvara": 7241,
  "\u2581desires": 7242,
  "My": 7243,
  "oxin": 7244,
  "sorb": 7245,
  "\u2581Gef\u0111u": 7246,
  "ses": 7247,
  "\u2581Eden": 7248,
  "\u2581Hvern": 7249,
  "\u2581Seve": 7250,
  "\u2581Th": 7251,
  "\u2581covered": 7252,
  "\u2581flokkur": 7253,
  "\u2581prolong": 7254,
  "\u2581slys": 7255,
  "\u2581vir\u0111i": 7256,
  "7)": 7257,
  "\u2581Rose": 7258,
  "\u2581belong": 7259,
  "\u2581upset": 7260,
  "low": 7261,
  "tam": 7262,
  "\u00feurrkur": 7263,
  "\u2581Ken": 7264,
  "\u2581Looks": 7265,
  "\u2581liti\u00f0": 7266,
  "xan": 7267,
  "\u2581divorce": 7268,
  "\u2581lo": 7269,
  "\u2581transient": 7270,
  "88": 7271,
  "VR": 7272,
  "fr\u00e1": 7273,
  "gy": 7274,
  "\u2581Andskotinn": 7275,
  "\u2581Change": 7276,
  "\u2581Jake": 7277,
  "\u2581NS": 7278,
  "\u2581military": 7279,
  "\u2581onset": 7280,
  "\u2581sand": 7281,
  "\u2581vegu": 7282,
  "Hey": 7283,
  "astig": 7284,
  "\u2581Number": 7285,
  "\u2581Spurningar": 7286,
  "\u2581authorisation": 7287,
  "\u2581bl\u00f3\u00f0sykur": 7288,
  "\u2581fr\u00e6\u00f0slu": 7289,
  "\u2581kunni": 7290,
  "\u2581\u00f6ldungar": 7291,
  "ZA": 7292,
  "ability": 7293,
  "endum": 7294,
  "notkun": 7295,
  "\u2581(\"": 7296,
  "\u2581Meta": 7297,
  "\u2581daughters": 7298,
  "\u2581drengur": 7299,
  "\u2581eflaust": 7300,
  "\u2581innri": 7301,
  "\u2581mass": 7302,
  "\u2581stelpa": 7303,
  "HEX": 7304,
  "vi\u0111": 7305,
  "\u2581prop": 7306,
  "\u2581s\u00f6fnu\u00f0i": 7307,
  "\u2581trained": 7308,
  "ants": 7309,
  "label": 7310,
  "\u2581bo\u00f0skap": 7311,
  "\u2581dollars": 7312,
  "\u2581f\u00e1ir": 7313,
  "\u2581lj\u00faka": 7314,
  "\u2581m\u00f3\u00f0ir": 7315,
  "\u2581urinary": 7316,
  "rine": 7317,
  "\u2581Joey": 7318,
  "\u2581far\u0111u": 7319,
  "\u2581interesting": 7320,
  "END": 7321,
  "\u2581Efesusbr\u00e9fi\u00f0": 7322,
  "\u2581lines": 7323,
  "\u2581n\u00fdrnasj\u00fakd\u00f3m": 7324,
  "\u2581sneri": 7325,
  "BA": 7326,
  "clinical": 7327,
  "dur": 7328,
  "j\u0137n": 7329,
  "\u2581basic": 7330,
  "\u2581h\u00f6mlun": 7331,
  "\u2581kalla\u00f0": 7332,
  "\u2581pr\u00f3sent": 7333,
  "bur\u00f0arranns\u00f3kn": 7334,
  "mennirnir": 7335,
  "\u2581magni": 7336,
  "arnar": 7337,
  "pip": 7338,
  "\u2581assigned": 7339,
  "\u2581flight": 7340,
  "\u2581konungi": 7341,
  "\u2581scene": 7342,
  "\u2581sleeping": 7343,
  "\u2581tr\u00fasystkini": 7344,
  "legg": 7345,
  "\u2581Fj\u00f6l": 7346,
  "\u2581Insu": 7347,
  "\u2581atri\u00f0i": 7348,
  "\u2581delight": 7349,
  "\u2581interview": 7350,
  "\u2581kaup": 7351,
  "\u2581miklar": 7352,
  "\u2581persecution": 7353,
  "\u2581s\u00falf": 7354,
  "ww": 7355,
  "\u00f3tr": 7356,
  "\u2581bodies": 7357,
  "\u2581potentially": 7358,
  "\u2581ranns\u00f3kna": 7359,
  "\u2581reward": 7360,
  "\u2581\u00e1rangri": 7361,
  "toxic": 7362,
  "\u2581%2": 7363,
  "\u2581Kl": 7364,
  "\u2581Non": 7365,
  "\u2581creatures": 7366,
  "\u2581eventually": 7367,
  "\u2581mess": 7368,
  "\u2581roll": 7369,
  "\u2581\u00e1kve\u00f0in": 7370,
  "lengd": 7371,
  "\u00edb": 7372,
  "\u2581Flokkun": 7373,
  "\u2581Hell": 7374,
  "\u2581Jess": 7375,
  "\u2581Str": 7376,
  "\u2581b\u0137k": 7377,
  "\u2581south": 7378,
  "\u2581vi\u00f0halda": 7379,
  "\u2581\u016b\u00e1tt": 7380,
  "dis": 7381,
  "stur": 7382,
  "\u2581Jane": 7383,
  "\u2581Ung": 7384,
  "\u2581h\u00fasi\u0111": 7385,
  "\u2581pump": 7386,
  "\u2581samm\u00e1la": 7387,
  "cipients": 7388,
  "\u00edt": 7389,
  "\u2581gj\u00f6rir": 7390,
  "\u2581influenza": 7391,
  "\u2581skr\u00e1\u00f0": 7392,
  "\u2581\u010cg": 7393,
  "\u258100": 7394,
  "\u2581Page": 7395,
  "\u2581samvisku": 7396,
  "\u2581soft": 7397,
  "\u2581suffered": 7398,
  "koma": 7399,
  "nafn": 7400,
  "\u2581Rare": 7401,
  "\u2581adjusted": 7402,
  "\u2581hamla": 7403,
  "\u2581heml": 7404,
  "elle": 7405,
  "iptin": 7406,
  "\u2581fool": 7407,
  "\u2581reyndu": 7408,
  "\u2581v\u00ed\u00f0a": 7409,
  "\u2581worried": 7410,
  "done": 7411,
  "\u2581be\u0111i\u0111": 7412,
  "\u2581fullkomlega": 7413,
  "\u2581gj\u00f6r": 7414,
  "\u2581greinar": 7415,
  "\u2581mati": 7416,
  "\u2581monitor": 7417,
  "\u2581staf": 7418,
  "\u2581ungur": 7419,
  "\u2581yr\u00f0u": 7420,
  "ette": 7421,
  "\u2581afternoon": 7422,
  "\u2581conclusion": 7423,
  "\u2581fagna": 7424,
  "\u2581\u0101": 7425,
  "\u2581Sara": 7426,
  "\u2581Stan": 7427,
  "\u2581fixed": 7428,
  "\u2581precautions": 7429,
  "\u2581skilar": 7430,
  "buty": 7431,
  "\u2581afs\u00f6kunar": 7432,
  "\u2581ham": 7433,
  "\u2581hotel": 7434,
  "\u2581mention": 7435,
  "\u2581rau\u00f0": 7436,
  "\u2581sv": 7437,
  "\u2581warned": 7438,
  "ize": 7439,
  "\u2581Sim": 7440,
  "\u2581bardaga": 7441,
  "\u2581b\u00edddu": 7442,
  "\u2581captain": 7443,
  "\u2581jar\u00f0": 7444,
  "\u2581neinar": 7445,
  "\u2581preparation": 7446,
  "\u2581remained": 7447,
  "over": 7448,
  "\u2581Ze": 7449,
  "\u2581g\u00f3\u00f0um": 7450,
  "\u2581m\u0137\u0111ur": 7451,
  "Hvernig": 7452,
  "\u2581Young": 7453,
  "\u2581bull": 7454,
  "\u2581emergency": 7455,
  "\u2581gaum": 7456,
  "\u2581heil\u00f6gum": 7457,
  "\u2581potent": 7458,
  "Vi\u0111": 7459,
  "br": 7460,
  "r\u0169": 7461,
  "\u2581F\u00e1\u0111": 7462,
  "\u2581h\u00e1ls": 7463,
  "\u2581manninum": 7464,
  "\u2581needles": 7465,
  "\u2581research": 7466,
  "\u2581vinn": 7467,
  "33": 7468,
  "ett": 7469,
  "klst": 7470,
  "\u2581minnar": 7471,
  "\u2581observe": 7472,
  "\u2581sj\u00e1lfir": 7473,
  "ass": 7474,
  "v\u00edsa\u00f0": 7475,
  "\u2581\"%": 7476,
  "\u2581Ko": 7477,
  "\u2581discipline": 7478,
  "\u2581lifum": 7479,
  "\u2581l\u00e1tum": 7480,
  "\u2581relief": 7481,
  "dom": 7482,
  "kre": 7483,
  "und": 7484,
  "ville": 7485,
  "\u2581au\u0111vita\u0111": 7486,
  "\u2581hj\u00f3naband": 7487,
  "\u2581jar\u00f0arinnar": 7488,
  "\u2581mainly": 7489,
  "\u2581st\u00falka": 7490,
  "\u2581tali": 7491,
  "kan": 7492,
  "\u2581Dagsetning": 7493,
  "\u2581currently": 7494,
  "\u2581fylgjendur": 7495,
  "\u2581mikli": 7496,
  "72": 7497,
  "ise": 7498,
  "lia": 7499,
  "\u258120%": 7500,
  "\u2581A\u00f0rir": 7501,
  "\u2581fj\u00f6lskylda": 7502,
  "\u2581jafnt": 7503,
  "\u2581pao": 7504,
  "\u2581pattern": 7505,
  "\u2581s\u00e1u": 7506,
  "PS": 7507,
  "rubin": 7508,
  "\u258153": 7509,
  "\u2581dreams": 7510,
  "\u2581ensku": 7511,
  "\u2581hurry": 7512,
  "\u2581j\u00f6r\u00f0in": 7513,
  "\u2581neighbor": 7514,
  "10,000": 7515,
  "els": 7516,
  "read": 7517,
  "\u2581F\u0137lk": 7518,
  "\u2581Internet": 7519,
  "t\u00edni": 7520,
  "\u2581Che": 7521,
  "\u2581German": 7522,
  "\u2581Women": 7523,
  "\u2581attend": 7524,
  "\u2581brotthvarf": 7525,
  "\u2581fyrirheit": 7526,
  "\u2581imperfect": 7527,
  "\u2581prayed": 7528,
  "\u2581solid": 7529,
  "\u2581\u016burfa": 7530,
  "\u00fe\u00e6tti": 7531,
  "\u25812001": 7532,
  "\u2581accounts": 7533,
  "\u2581himna": 7534,
  "\u2581h\u00f3fst": 7535,
  "\u2581l\u00e6risveinar": 7536,
  "\u2581possibility": 7537,
  "\u2581rita\u00f0": 7538,
  "77": 7539,
  "ngi": 7540,
  "\u00edn\u00fat": 7541,
  "\u2581Len": 7542,
  "\u2581Scott": 7543,
  "\u2581Sestu": 7544,
  "\u2581fr\u00e6ndi": 7545,
  "\u2581react": 7546,
  "\u2581\u016bj\u0137\u0111": 7547,
  "ATA": 7548,
  "stj\u00f3rn": 7549,
  "\u2581Breyta": 7550,
  "\u2581Hurry": 7551,
  "\u2581morgni": 7552,
  ",6%": 7553,
  "dreifi": 7554,
  "fr": 7555,
  "\u00d6": 7556,
  "\u2581(8": 7557,
  "\u2581EEA": 7558,
  "\u2581bl\u00e6\u00f0ing": 7559,
  "\u2581checked": 7560,
  "\u2581fr": 7561,
  "\u2581healthcare": 7562,
  "\u2581sl\u00edkar": 7563,
  "\u2581su": 7564,
  "ical": 7565,
  "\u2581ins\u00fal\u00edni": 7566,
  "\u2581returns": 7567,
  "ven": 7568,
  "\u2581Ranns\u00f3kn": 7569,
  "\u2581infl\u00faensu": 7570,
  "\u2581l\u00e6knisins": 7571,
  "10.000": 7572,
  "gal": 7573,
  "\u2581Find": 7574,
  "\u2581h\u00f3p": 7575,
  "\u2581stuck": 7576,
  "Og": 7577,
  "\u2581Kom": 7578,
  "\u2581Sea": 7579,
  "\u2581inhaler": 7580,
  "\u2581myndum": 7581,
  "\u2581summer": 7582,
  "\u2581unni\u0111": 7583,
  "h\u00e1\u00f0": 7584,
  "stund": 7585,
  "\u2581Hi\u00f0": 7586,
  "\u2581Lag": 7587,
  "\u2581moon": 7588,
  "\u2581pig": 7589,
  "\u2581\u00feyngd": 7590,
  "MS": 7591,
  "steroids": 7592,
  "yto": 7593,
  "\u2581committed": 7594,
  "\u2581existence": 7595,
  "\u2581framt\u00ed\u00f0": 7596,
  "\u2581gul": 7597,
  "\u2581myelo": 7598,
  "\u2581viral": 7599,
  "59": 7600,
  "ATE": 7601,
  "lakt": 7602,
  "lot": 7603,
  "\u2581Hug": 7604,
  "\u2581divided": 7605,
  "\u2581ger": 7606,
  "\u2581losna": 7607,
  "\u2581n\u00e1nar": 7608,
  "\u2581rak": 7609,
  "RTI": 7610,
  "TT": 7611,
  "tti": 7612,
  "\u00e6ling": 7613,
  "\u2581Enda": 7614,
  "\u2581Gefa": 7615,
  "\u2581Tar": 7616,
  "\u2581bor\u00f0a": 7617,
  "\u2581encourage": 7618,
  "\u2581n\u00f3gu": 7619,
  "\u2581verkir": 7620,
  "\u2581\u00fe\u00ednir": 7621,
  "\u2581Conco": 7622,
  "\u2581Mama": 7623,
  "\u2581Roger": 7624,
  "\u2581Store": 7625,
  "\u2581breyst": 7626,
  "\u2581lungum": 7627,
  "\u2581rapidly": 7628,
  "\u2581rat": 7629,
  "\u2581sleg": 7630,
  "\u2581writer": 7631,
  "200": 7632,
  "4,": 7633,
  "mip": 7634,
  "\u2581berst": 7635,
  "\u2581kross": 7636,
  "tru": 7637,
  "\u2581Start": 7638,
  "\u2581Type": 7639,
  "\u2581owe": 7640,
  "\u2581pictures": 7641,
  "\u2581realized": 7642,
  "\u2581science": 7643,
  "\u2581\u00f6\u0111ru": 7644,
  "lix": 7645,
  "nginn": 7646,
  "\u2581East": 7647,
  "\u2581foreign": 7648,
  "\u2581glyc": 7649,
  "\u2581setur": 7650,
  "\u2581ytri": 7651,
  "VO": 7652,
  "\u2581Santa": 7653,
  "\u2581emotional": 7654,
  "\u2581flow": 7655,
  "\u2581issues": 7656,
  "\u2581literature": 7657,
  "\u2581officer": 7658,
  "\u2581ol\u00edu": 7659,
  "\u2581ra": 7660,
  "\u2581sk\u00edt": 7661,
  "\u2581\u00f6skju": 7662,
  "\u2581\u00feroti": 7663,
  "\u2581\u016burfti": 7664,
  "non": 7665,
  "\u2581(1)": 7666,
  "\u258124)": 7667,
  "\u2581unglinga": 7668,
  "me\u00f0fer\u00f0ar": 7669,
  "ningar": 7670,
  "sog": 7671,
  "\u2581Inc": 7672,
  "\u2581drawn": 7673,
  "\u2581severity": 7674,
  "8/": 7675,
  "che": 7676,
  "ich": 7677,
  "veg": 7678,
  "\u2581Sum": 7679,
  "einkenni": 7680,
  "\u25816-": 7681,
  "\u2581Comment": 7682,
  "\u2581behavior": 7683,
  "\u2581degree": 7684,
  "\u2581flutti": 7685,
  "\u2581f\u00f6t": 7686,
  "m\u00f3t": 7687,
  "s\u00f3kn": 7688,
  "\u2581b\u00faist": 7689,
  "\u2581gel": 7690,
  "\u2581jump": 7691,
  "\u2581krefst": 7692,
  "\u2581pieces": 7693,
  "FU": 7694,
  "\u2581convention": 7695,
  "\u2581demonstrate": 7696,
  "\u2581n\u00e1unga": 7697,
  "\u2581s\u00e6ll": 7698,
  "ction": 7699,
  "efnum": 7700,
  "fang": 7701,
  "\u2581FBI": 7702,
  "\u2581b\u00f3kinni": 7703,
  "\u2581finding": 7704,
  "\u2581gu\u00f0": 7705,
  "\u2581h\u00e6\u0111": 7706,
  "\u2581pe": 7707,
  "\u2581r\u00e9ttum": 7708,
  "\u2581slowly": 7709,
  "\u2581sta\u00f0inn": 7710,
  "\u2581upprisu": 7711,
  "\u2581International": 7712,
  "\u2581Veri\u00f0": 7713,
  "\u2581aldurs": 7714,
  "\u2581l\u00edfsh\u00e6ttuleg": 7715,
  "\u2581st\u00f3rum": 7716,
  "AB": 7717,
  "AC": 7718,
  "s\u00f3pr": 7719,
  "\u2581Benjamin": 7720,
  "\u2581T\u00edm": 7721,
  "\u2581bottom": 7722,
  "\u2581g\u00famm\u00ed": 7723,
  "\u2581marrow": 7724,
  "48": 7725,
  "ice": 7726,
  "\u258158": 7727,
  "\u2581Summary": 7728,
  "\u2581b\u00e6": 7729,
  "\u2581plastic": 7730,
  "\u2581\u00f3vart": 7731,
  "dagur": 7732,
  "nin": 7733,
  "race": 7734,
  "\u00feekju": 7735,
  "\u2581ATC": 7736,
  "\u2581apartment": 7737,
  "\u2581atvinnu": 7738,
  "\u2581cop": 7739,
  "\u2581hlutverki": 7740,
  "st\u00e6\u00f0": 7741,
  "\u00d3": 7742,
  "\u2581CH": 7743,
  "\u2581Grand": 7744,
  "\u2581Ti": 7745,
  "\u2581hvarf": 7746,
  "\u2581reference": 7747,
  "\u2581t\u00e6kni": 7748,
  "\u2581veru": 7749,
  "\u2581\u00ferj\u00e1": 7750,
  "l\u00fa": 7751,
  "\u00f6ld": 7752,
  "\u2581Karl": 7753,
  "\u2581commandments": 7754,
  "\u2581consequences": 7755,
  "\u2581deficiency": 7756,
  "\u2581frelsa": 7757,
  "\u2581fucked": 7758,
  "\u2581spurning": 7759,
  "\u2581\u00feykir": 7760,
  "Re": 7761,
  "nes": 7762,
  "s\u00edn": 7763,
  "\u2581Fj\u00e1rinn": 7764,
  "\u2581blanda\u00f0": 7765,
  "\u2581causing": 7766,
  "\u2581fj\u00f6lskyldunnar": 7767,
  "\u2581s\u00f3l": 7768,
  "\u2581testing": 7769,
  "\u2581yfirgefa": 7770,
  "\u2581Dude": 7771,
  "\u2581F\u00ednt": 7772,
  "\u2581River": 7773,
  "\u2581ga": 7774,
  "\u2581h\u00e6fileika": 7775,
  "\u2581s\u00edma": 7776,
  "31": 7777,
  "lor": 7778,
  "sero": 7779,
  "\u03b1": 7780,
  "\u2581Loka": 7781,
  "\u2581essential": 7782,
  "\u2581illkynja": 7783,
  "\u2581legal": 7784,
  "\u2581sn\u0169st": 7785,
  "\u2581station": 7786,
  "\u2581Nex": 7787,
  "\u2581annt": 7788,
  "\u2581beauty": 7789,
  "\u2581birds": 7790,
  "\u2581ke": 7791,
  "\u2581passa": 7792,
  "tocon": 7793,
  "\u2581BL": 7794,
  "\u2581aside": 7795,
  "\u2581claim": 7796,
  "\u2581grip": 7797,
  "\u2581minds": 7798,
  "\u2581\u00e1vallt": 7799,
  "acin": 7800,
  "\u2581Without": 7801,
  "\u2581besti": 7802,
  "\u2581board": 7803,
  "\u2581sold": 7804,
  "\u2581s\u00e1ust": 7805,
  "\u2581t\u00edminn": 7806,
  "\u2581\u00e1r\u00e1s": 7807,
  "\u2581\u00e6tli": 7808,
  "\u2581\u00feurftu": 7809,
  "formin": 7810,
  "\u25813-": 7811,
  "\u2581Lilly": 7812,
  "\u2581Ph": 7813,
  "\u2581andr": 7814,
  "\u2581inhabitants": 7815,
  "\u2581normally": 7816,
  "\u2581production": 7817,
  "S\u00e1lm": 7818,
  "Vi\u00f0": 7819,
  "a\u00f0u": 7820,
  "\u00fdlen": 7821,
  "\u2581eytt": 7822,
  "\u2581grown": 7823,
  "\u2581hei\u00f0ur": 7824,
  "\u2581kynl\u00edf": 7825,
  "\u2581merkt": 7826,
  "\u2581remnant": 7827,
  "\u2581\u00cdsraelsm\u00f6nnum": 7828,
  "TH": 7829,
  "ixi": 7830,
  "\u2581F\u00f3lk": 7831,
  "\u2581lei\u00f0andi": 7832,
  "tel": 7833,
  "\u2581Mess\u00edas": 7834,
  "\u2581Rome": 7835,
  "\u2581college": 7836,
  "\u2581skipulag": 7837,
  "Taki\u00f0": 7838,
  "\u258132:": 7839,
  "\u2581Andrew": 7840,
  "\u2581FRAM": 7841,
  "\u2581Rit": 7842,
  "\u2581arrest": 7843,
  "\u2581deeply": 7844,
  "\u2581dj\u00fapt": 7845,
  "\u2581itching": 7846,
  "\u2581leyfir": 7847,
  "\u2581reisa": 7848,
  "-6": 7849,
  "AG": 7850,
  "j\u00e1lf": 7851,
  "j\u00fa": 7852,
  "sak": 7853,
  "\u2581Church": 7854,
  "\u2581Water": 7855,
  "\u2581keeps": 7856,
  "\u2581s\u00e9rt\u00e6k": 7857,
  "\u2581\u00fej\u00f3\u00f0anna": 7858,
  "aut": 7859,
  "kun": 7860,
  "ma\u00f0urinn": 7861,
  "naz": 7862,
  "s\u00e1r": 7863,
  "\u2581Rem": 7864,
  "\u2581andlit": 7865,
  "\u2581understood": 7866,
  "13": 7867,
  "algia": 7868,
  "tant": 7869,
  "\u258122)": 7870,
  "\u2581England": 7871,
  "\u2581Hjarta": 7872,
  "\u2581Too": 7873,
  "\u2581island": 7874,
  "\u2581mi": 7875,
  "\u2581skilning": 7876,
  "9,": 7877,
  "d\u00ed": 7878,
  "ensin": 7879,
  "ermal": 7880,
  "field": 7881,
  "styrk": 7882,
  "\u258164": 7883,
  "\u2581Among": 7884,
  "\u2581Po": 7885,
  "\u2581inform": 7886,
  "\u2581kostar": 7887,
  "\u2581perforat": 7888,
  "\u2581suddenly": 7889,
  "\u2581sv\u00edn": 7890,
  "\u2581transport": 7891,
  "r\u00edki": 7892,
  "\u2581distress": 7893,
  "\u2581illustration": 7894,
  "Star": 7895,
  "deild": 7896,
  "jan": 7897,
  "\u00f0ri": 7898,
  "\u2581Fj\u00f6ldi": 7899,
  "\u2581Haldi\u0111": 7900,
  "\u2581Villa": 7901,
  "\u2581n\u00e1\u0111": 7902,
  "\u2581sykur": 7903,
  "\u2581veruleg": 7904,
  "Cl": 7905,
  "They": 7906,
  "degi": 7907,
  "ff": 7908,
  "or\u0111": 7909,
  "rely": 7910,
  "\u2581Ruth": 7911,
  "\u2581ideas": 7912,
  "\u2581lovely": 7913,
  "\u2581unique": 7914,
  "fylltum": 7915,
  "ivac": 7916,
  "myndunar": 7917,
  "\u2581asshole": 7918,
  "\u2581bird": 7919,
  "\u2581played": 7920,
  "\u2581skaut": 7921,
  "\u2581s\u00fdnum": 7922,
  "\u2581temporary": 7923,
  "tilfinning": 7924,
  "tirfarandi": 7925,
  "\u2581(18": 7926,
  "\u2581Gar": 7927,
  "\u2581H\u00e1": 7928,
  "\u2581N\u00f3a": 7929,
  "\u2581bones": 7930,
  "\u2581col": 7931,
  "\u2581repeat": 7932,
  "\u2581\u016bann": 7933,
  "CG": 7934,
  "fo": 7935,
  "range": 7936,
  "\u2581bug": 7937,
  "\u2581placed": 7938,
  "\u2581samb\u00e6rileg": 7939,
  "b\u00fat": 7940,
  "ts": 7941,
  "uria": 7942,
  "\u2581eiginkonu": 7943,
  "\u2581fyrsti": 7944,
  "\u2581j\u00f6r\u00f0u": 7945,
  "\u2581spor": 7946,
  "\u2581studying": 7947,
  "get": 7948,
  "vis": 7949,
  "\u2581bullshit": 7950,
  "\u2581erfi\u00f0leika": 7951,
  "\u2581fatigue": 7952,
  "\u2581fj\u00e1r": 7953,
  "\u2581framkv\u00e6ma": 7954,
  "tica": 7955,
  "\u2581Annars": 7956,
  "\u2581Step": 7957,
  "\u2581eykur": 7958,
  "\u2581handling": 7959,
  "\u2581reproductive": 7960,
  "\u2581flestum": 7961,
  "\u2581getna\u00f0arv\u00f6rn": 7962,
  "\u2581hugsun": 7963,
  "\u2581lord": 7964,
  "a\u00f0ar": 7965,
  "ma\u0111urinn": 7966,
  "\u2581Best": 7967,
  "\u2581assay": 7968,
  "\u2581auto": 7969,
  "\u2581fjarl\u00e6g\u00f0": 7970,
  "\u2581hole": 7971,
  "\u2581skrifa\u00f0": 7972,
  "\u2581unity": 7973,
  "\u2581\u00f6skjunni": 7974,
  "\u2581hrygg": 7975,
  "\u2581shock": 7976,
  "\u2581ur": 7977,
  "ID": 7978,
  "ient": 7979,
  "itol": 7980,
  "ray": 7981,
  "\u2581Cha": 7982,
  "\u2581Dag": 7983,
  "\u2581Due": 7984,
  "\u2581allsherjar": 7985,
  "\u2581banka": 7986,
  "\u2581framkv\u00e6md": 7987,
  "\u2581frj\u00e1ls": 7988,
  "\u2581host": 7989,
  "tengd": 7990,
  "\u00d0": 7991,
  "\u2581(100": 7992,
  "\u2581Fa": 7993,
  "\u2581price": 7994,
  "\u2581sta\u00f0i\u00f0": 7995,
  "\u2581tough": 7996,
  "\u2581wash": 7997,
  "\u2581\u00e1v\u00edsa": 7998,
  "v\u00e9l": 7999,
  "\u2581involves": 8000,
  "\u2581l\u00edkamans": 8001,
  "\u2581sj\u00fakrah\u00fas": 8002,
  "46": 8003,
  "5%)": 8004,
  "PA": 8005,
  "stin": 8006,
  "\u2581Isaac": 8007,
  "\u2581Meira": 8008,
  "\u2581Rock": 8009,
  "\u2581camera": 8010,
  "\u2581dedication": 8011,
  "\u2581encouraged": 8012,
  "\u2581n\u00e1\u00f0u": 8013,
  "\u2581\u00e1\u00e6tla": 8014,
  "Go": 8015,
  "add": 8016,
  "ben": 8017,
  "bit": 8018,
  "fr\u00e6\u0111i": 8019,
  "\u2581eitthvert": 8020,
  "\u2581enjoyed": 8021,
  "\u2581girlfriend": 8022,
  "\u2581hlutum": 8023,
  "\u2581reasonable": 8024,
  "\u2581snertingu": 8025,
  "\u2581\u00feeirrar": 8026,
  "DA": 8027,
  "ION": 8028,
  "eal": 8029,
  "ros": 8030,
  "\u258125%": 8031,
  "\u2581aflei\u00f0ingar": 8032,
  "\u2581breytir": 8033,
  "\u2581completed": 8034,
  "\u2581embryo": 8035,
  "\u2581eternal": 8036,
  "\u2581fullkominn": 8037,
  "\u2581kapp": 8038,
  "\u2581machine": 8039,
  "\u2581principle": 8040,
  "\u2581vernd": 8041,
  "coagul": 8042,
  "rif": 8043,
  "\u2581Ser": 8044,
  "\u2581Vira": 8045,
  "\u2581aukist": 8046,
  "\u2581a\u0111al": 8047,
  "\u2581bi\u0111ja": 8048,
  "\u2581fr\u00e9tti": 8049,
  "\u2581kick": 8050,
  "\u2581manifest": 8051,
  "\u2581sj\u00e1lfs\u00f6g\u00f0u": 8052,
  "\u2581student": 8053,
  "\u2581Burt": 8054,
  "\u2581Didn": 8055,
  "\u2581tann": 8056,
  "\u2581uppruna": 8057,
  "a\u00f0ger\u00f0": 8058,
  "\u2581Skil": 8059,
  "\u2581offspring": 8060,
  "\u2581ro\u00f0i": 8061,
  "\u2581t\u00edmabili": 8062,
  "pag": 8063,
  "\u2581Image": 8064,
  "\u2581Paris": 8065,
  "\u2581loose": 8066,
  "\u2581loyalty": 8067,
  "\u2581myndast": 8068,
  "\u2581situr": 8069,
  "\u2581statement": 8070,
  "\u2581unlikely": 8071,
  "\u2581\u00fe\u00fd\u00f0i": 8072,
  "\u2581Einkenni": 8073,
  "\u2581Sam\u00faelsb\u00f3k": 8074,
  "\u2581Want": 8075,
  "\u2581asleep": 8076,
  "\u2581beloved": 8077,
  "\u2581stea": 8078,
  "\u2581s\u00e1ttm\u00e1la": 8079,
  "aga": 8080,
  "\u2581Old": 8081,
  "\u2581easier": 8082,
  "\u2581fals": 8083,
  "\u2581fosf": 8084,
  "\u2581innocent": 8085,
  "bo\u0111": 8086,
  "breytingar": 8087,
  "eld": 8088,
  "\u2581Fe": 8089,
  "\u2581Special": 8090,
  "\u2581loka\u00f0": 8091,
  "\u2581\u00deessalon\u00edkubr\u00e9f": 8092,
  "008": 8093,
  "HA": 8094,
  "\u2581Gangi": 8095,
  "\u2581Ready": 8096,
  "\u2581absolute": 8097,
  "\u2581hugsar": 8098,
  "\u2581karl": 8099,
  "\u2581l\u00edst": 8100,
  "\u2581powers": 8101,
  "\u2581season": 8102,
  "\u2581\u00e1fengis": 8103,
  "gul": 8104,
  "oma": 8105,
  "pack": 8106,
  "\u2581Annie": 8107,
  "\u2581Mon": 8108,
  "\u2581Tveir": 8109,
  "\u2581alvarlegra": 8110,
  "\u2581bl\u00f3\u00f0v\u00f6kva": 8111,
  "\u2581continues": 8112,
  "\u2581mal": 8113,
  "\u2581track": 8114,
  "\u2581unusual": 8115,
  "\u2581var\u00fa\u00f0": 8116,
  "\u2581\u00cdsraelsmanna": 8117,
  "\u2581\u00feakka": 8118,
  "0%)": 8119,
  "aug": 8120,
  "gun": 8121,
  "omy": 8122,
  "\u2581Pharaoh": 8123,
  "\u2581adjustments": 8124,
  "\u2581cab": 8125,
  "\u2581greatly": 8126,
  "\u2581mj\u00fak": 8127,
  "\u2581p\u00ed": 8128,
  "\u2581s\u00ed\u0111ustu": 8129,
  "\u2581t\u00ed\u00f0": 8130,
  "\u2581\u00feekkir": 8131,
  "urea": 8132,
  "virk": 8133,
  "\u2581Johnson": 8134,
  "\u2581absolutely": 8135,
  "\u2581nau\u00f0syn": 8136,
  "\u2581painful": 8137,
  "krabbameini": 8138,
  "\u2581PAGE": 8139,
  "\u2581Paradise": 8140,
  "Efesusbr\u00e9fi\u00f0": 8141,
  "frumum": 8142,
  "lopin": 8143,
  "natr\u00edum": 8144,
  "ri\u0111": 8145,
  "ylene": 8146,
  "\u00ed\u00f0a": 8147,
  "\u00fa\u00f0": 8148,
  "\u2581Work": 8149,
  "\u2581andlegum": 8150,
  "\u2581hindra": 8151,
  "\u2581shepherd": 8152,
  "\u2581stopping": 8153,
  "arins": 8154,
  "head": 8155,
  "stj\u0137ri": 8156,
  "vaka": 8157,
  "\u2581Kr": 8158,
  "\u2581barninu": 8159,
  "\u2581orders": 8160,
  "\u2581sumt": 8161,
  "\u2581twenty": 8162,
  "\u2581\u00fe\u00e9tt": 8163,
  "penna": 8164,
  "\u2581arrangement": 8165,
  "\u2581authorities": 8166,
  "\u2581dust": 8167,
  "\u2581fresh": 8168,
  "\u2581mor\u0111": 8169,
  "\u2581opna\u00f0": 8170,
  "RO": 8171,
  "croli": 8172,
  "ino": 8173,
  "oedema": 8174,
  "oxa": 8175,
  "tro": 8176,
  "\u2581ark": 8177,
  "\u2581sag\u0111ir\u0111u": 8178,
  "\u2581\u00e1st\u00e6\u00f0a": 8179,
  "VE": 8180,
  "hafsgildi": 8181,
  "\u2581agreed": 8182,
  "\u2581comparable": 8183,
  "\u2581darling": 8184,
  "\u2581meti\u00f0": 8185,
  "\u2581pakka": 8186,
  "\u2581pit": 8187,
  "\u2581speki": 8188,
  "\u2581tilheyra": 8189,
  "\u2581uppreisn": 8190,
  "\u2581\u00f6rugg": 8191,
  "fr\u00e6\u00f0ileg": 8192,
  "skip": 8193,
  "stofnun": 8194,
  "t\u00f6ku": 8195,
  "\u2581\"[": 8196,
  "\u2581hl": 8197,
  "\u2581leads": 8198,
  "\u2581obligation": 8199,
  "\u2581tilefni": 8200,
  "\u2581\u016barfnast": 8201,
  "m\u00e1la": 8202,
  "\u2581AIDS": 8203,
  "\u2581Peg": 8204,
  "\u2581Veit": 8205,
  "\u2581affection": 8206,
  "\u2581assignment": 8207,
  "\u2581fyndi\u0111": 8208,
  "\u2581hv\u00ed": 8209,
  "\u2581l\u00edff\u00e6ra": 8210,
  "\u2581prevention": 8211,
  "\u2581s\u00f6kum": 8212,
  "\u2581Qu": 8213,
  "\u2581asthma": 8214,
  "\u2581dealing": 8215,
  "\u2581images": 8216,
  "\u2581review": 8217,
  "\u2581series": 8218,
  "FY": 8219,
  "spil": 8220,
  "\u2581Leik": 8221,
  "\u2581cycles": 8222,
  "\u2581excuse": 8223,
  "\u2581fisk": 8224,
  "\u2581g\u00f6mul": 8225,
  "\u2581shame": 8226,
  "\u2581tight": 8227,
  "l\u00e6ti": 8228,
  "port": 8229,
  "sky": 8230,
  "\u2581(0.9": 8231,
  "\u2581Carl": 8232,
  "\u2581None": 8233,
  "\u2581hj\u00f6rtu": 8234,
  "\u2581jail": 8235,
  "\u2581ker": 8236,
  "\u2581m\u00fasum": 8237,
  "\u2581\u00deeim": 8238,
  "Al": 8239,
  "ably": 8240,
  "ni\u00f0": 8241,
  "\u258130%": 8242,
  "\u2581Stevens": 8243,
  "\u2581greininni": 8244,
  "\u2581grei\u0111a": 8245,
  "\u2581klukkustund": 8246,
  "\u2581unable": 8247,
  "\u2581\u00ferj\u00e1r": 8248,
  "fene": 8249,
  "\u00e1t": 8250,
  "\u2581G\u00e6ttu": 8251,
  "\u2581Trac": 8252,
  "\u2581diluted": 8253,
  "\u2581follows": 8254,
  "\u2581fullkomna": 8255,
  "\u2581spray": 8256,
  "\u2581stories": 8257,
  "\u2581successful": 8258,
  "\u2581super": 8259,
  "\u2581\u00fearfnast": 8260,
  "\u2581\u00ferisvar": 8261,
  "fr\u00ed": 8262,
  "harm": 8263,
  "\u2581haldi": 8264,
  "\u2581particles": 8265,
  "DR": 8266,
  "etan": 8267,
  "f\u00f6ld": 8268,
  "ious": 8269,
  "n\u00e1m": 8270,
  "ose": 8271,
  "\u00f3s\u00edn": 8272,
  "\u2581fyrirt\u00e6ki": 8273,
  "\u2581hn": 8274,
  "\u2581hydroxide": 8275,
  "\u2581l\u00fdsti": 8276,
  "\u2581minnku\u00f0": 8277,
  "\u2581peak": 8278,
  "\u2581settu": 8279,
  "\u2581superior": 8280,
  "42": 8281,
  "\u2581ac": 8282,
  "\u2581bl\u00f3\u00f0\u00fer\u00fdstingi": 8283,
  "\u2581breytni": 8284,
  "\u2581fri\u00f0ar": 8285,
  "\u2581innilega": 8286,
  "\u2581lesum": 8287,
  "\u2581mannleg": 8288,
  "\u2581mennirnir": 8289,
  "\u2581sk\u00fd": 8290,
  "\u2581\u00e6xli": 8291,
  "66": 8292,
  "\u2581ang": 8293,
  "\u2581eigi\u00f0": 8294,
  "\u2581einingu": 8295,
  "\u2581fellur": 8296,
  "\u2581f\u00e6ddist": 8297,
  "\u2581item": 8298,
  "\u2581proteins": 8299,
  "\u2581suicide": 8300,
  "\\": 8301,
  "muscular": 8302,
  "\u2581Follow": 8303,
  "\u2581Group": 8304,
  "\u2581Pull": 8305,
  "\u2581h\u00e1t\u00ed\u00f0": 8306,
  "\u2581s\u00fdking": 8307,
  "\u2581\u00f6rugga": 8308,
  "AP": 8309,
  "inga": 8310,
  "\u00fatbrot": 8311,
  "\u2581Soon": 8312,
  "\u2581archive": 8313,
  "\u2581b\u00e6\u0111i": 8314,
  "\u2581einstaka": 8315,
  "\u2581hj\u00e1lpa\u00f0i": 8316,
  "\u2581mail": 8317,
  "\u2581saga": 8318,
  "\u2581saklaus": 8319,
  "\u2581slag": 8320,
  "\u2581virkt": 8321,
  "\u2581witnesses": 8322,
  "\u2581\u016br\u00edr": 8323,
  "87": 8324,
  "oo": 8325,
  "tv\u00edox\u00ed\u00f0": 8326,
  "\u2581Being": 8327,
  "\u2581Syn": 8328,
  "\u2581Vo": 8329,
  "\u2581advantage": 8330,
  "\u2581breytingum": 8331,
  "\u2581confusion": 8332,
  "\u2581flestir": 8333,
  "\u2581forystu": 8334,
  "\u2581hafna": 8335,
  "\u2581inheritance": 8336,
  "\u2581liked": 8337,
  "\u2581st\u00f3\u00f0u": 8338,
  "\u2581absence": 8339,
  "\u2581aldar": 8340,
  "\u2581cough": 8341,
  "\u2581everywhere": 8342,
  "\u2581sta": 8343,
  "rami": 8344,
  "\u2581,\"": 8345,
  "\u2581articles": 8346,
  "\u2581attempt": 8347,
  "\u2581augnablik": 8348,
  "\u2581b\u00e6tir": 8349,
  "\u2581contribute": 8350,
  "\u2581hreint": 8351,
  "\u2581viv": 8352,
  "arfar": 8353,
  "\u258126,": 8354,
  "\u2581Sag\u0111i": 8355,
  "\u2581abuse": 8356,
  "\u2581a\u00f0sto\u00f0": 8357,
  "\u2581findings": 8358,
  "\u2581j\u00f3kst": 8359,
  "\u2581s\u00edfellt": 8360,
  "amethasone": 8361,
  "\u2581aukna": 8362,
  "\u2581hv\u00edtra": 8363,
  "\u2581jafna": 8364,
  "\u2581neinu": 8365,
  "\u2581snow": 8366,
  "\u2581umsj\u00f3n": 8367,
  "ig": 8368,
  "\u2581Asa": 8369,
  "\u2581Down": 8370,
  "\u2581Hum": 8371,
  "\u2581grew": 8372,
  "\u2581li\u0111": 8373,
  "\u2581merkingu": 8374,
  "\u2581n\u0169tt": 8375,
  "\u2581stolt": 8376,
  "\u2581wrath": 8377,
  "\u2581\u00fe\u00f3knast": 8378,
  "EN": 8379,
  "r\u00e6\u0111i": 8380,
  "\u2581Bad": 8381,
  "\u2581pr\u00f3f": 8382,
  "\u2581umhverfi": 8383,
  "CA": 8384,
  "\u2581Aftur": 8385,
  "\u2581Master": 8386,
  "\u2581kyns": 8387,
  "espite": 8388,
  "h\u00e6f": 8389,
  "ken": 8390,
  "\u00fal": 8391,
  "\u2581Greg": 8392,
  "\u2581Jerry": 8393,
  "\u2581Stri": 8394,
  "\u2581corner": 8395,
  "\u2581fr\u00f6ken": 8396,
  "\u2581l\u00e6kka": 8397,
  "\u2581project": 8398,
  ".2%": 8399,
  "69": 8400,
  "ob": 8401,
  "\u00f3p": 8402,
  "\u2581PRE": 8403,
  "\u2581Port": 8404,
  "\u2581heilaga": 8405,
  "\u2581heilsa": 8406,
  "\u2581induce": 8407,
  "\u2581nefnd": 8408,
  "\u2581teachers": 8409,
  "\u2581worst": 8410,
  "LV": 8411,
  "grein": 8412,
  "interf": 8413,
  "treatment": 8414,
  "zi": 8415,
  "\u2581Anything": 8416,
  "\u2581Hang": 8417,
  "\u2581Kal": 8418,
  "\u2581gather": 8419,
  "\u2581ni\u00f0urst\u00f6\u00f0um": 8420,
  "\u2581sta\u0111inn": 8421,
  "\u2581syngja": 8422,
  "\u2581s\u00f6gn": 8423,
  ".1%": 8424,
  "gel": 8425,
  "\u00f6g": 8426,
  "\u2581geti\u0111": 8427,
  "\u2581hlj\u0137\u0111": 8428,
  "\u2581sj\u00faklingurinn": 8429,
  "\u2581workers": 8430,
  "Be": 8431,
  "amine": 8432,
  "\u2581bl\u00e6\u00f0ingu": 8433,
  "\u2581components": 8434,
  "\u2581discomfort": 8435,
  "\u2581environmental": 8436,
  "\u2581exists": 8437,
  "\u2581lunch": 8438,
  "\u2581president": 8439,
  "\u2581sterile": 8440,
  "\u2581tra": 8441,
  "\u2581\u00e6xlun": 8442,
  "EV": 8443,
  "calc": 8444,
  "opa": 8445,
  "r\u00ed": 8446,
  "\u2581160": 8447,
  "\u2581bjuggu": 8448,
  "\u2581d\u0169r": 8449,
  "\u2581noti\u00f0": 8450,
  "\u2581sl\u00e6m": 8451,
  "\u2581style": 8452,
  "ess": 8453,
  "lli": 8454,
  "vant": 8455,
  "\u2581dialysis": 8456,
  "\u2581forgotten": 8457,
  "\u2581litli": 8458,
  "\u2581sko\u00f0un": 8459,
  "6/": 8460,
  "kl\u00edn\u00edsk": 8461,
  "ovid": 8462,
  "\u2581List": 8463,
  "\u2581br\u00e6\u00f0rum": 8464,
  "\u2581krampa": 8465,
  "\u2581mellitus": 8466,
  "\u2581seizures": 8467,
  "0,0": 8468,
  "BC": 8469,
  "osa": 8470,
  "togenic": 8471,
  "\u016a": 8472,
  "\u2581Langar": 8473,
  "\u2581borgina": 8474,
  "\u2581cute": 8475,
  "\u2581komumst": 8476,
  "\u2581stj\u00f3rnandi": 8477,
  "\u2581vakti": 8478,
  "\u2581\u00e1standi": 8479,
  "Id": 8480,
  "PD": 8481,
  "amyndun": 8482,
  "l\u0169": 8483,
  "\u2581A\u00f0al": 8484,
  "\u2581Body": 8485,
  "\u2581Hinir": 8486,
  "\u2581losing": 8487,
  "\u2581meginreglur": 8488,
  "\u2581petta": 8489,
  "\u2581rid": 8490,
  "\u2581wars": 8491,
  "\u2581\u00f3breytt": 8492,
  "achet": 8493,
  "pla": 8494,
  "sig": 8495,
  "\u2581Kl\u00edn": 8496,
  "\u2581Uncle": 8497,
  "\u2581Way": 8498,
  "\u2581apparent": 8499,
  "\u2581dysp": 8500,
  "\u2581l\u00f6g\u00f0u": 8501,
  "\u2581sko": 8502,
  "\u2581sver": 8503,
  "\u2581tribe": 8504,
  "300": 8505,
  "amount": 8506,
  "gangur": 8507,
  "\u2581Awake": 8508,
  "\u2581Gard": 8509,
  "\u2581IM": 8510,
  "\u2581Veri\u0111": 8511,
  "\u2581com": 8512,
  "\u2581familiar": 8513,
  "\u2581hugarfar": 8514,
  "\u2581munu\u00f0": 8515,
  "\u2581ox": 8516,
  "\u2581spurninga": 8517,
  "\u2581vaxa": 8518,
  "ENT": 8519,
  "OT": 8520,
  "\u2581(0)": 8521,
  "\u2581Ger\u00f0u": 8522,
  "\u2581Gleymdu": 8523,
  "\u2581Skr\u00e1": 8524,
  "\u2581Sodium": 8525,
  "\u2581S\u00ed\u00f0ar": 8526,
  "\u2581achieve": 8527,
  "\u2581dans": 8528,
  "\u2581faced": 8529,
  "\u2581kv\u00f6ldi": 8530,
  "\u2581location": 8531,
  "\u2581nuclear": 8532,
  "\u2581reka": 8533,
  "\u2581svi\u00f0i": 8534,
  "\u2581treating": 8535,
  "\u2581vissir": 8536,
  "\u2581\u00e1vinning": 8537,
  "010": 8538,
  "bility": 8539,
  "\u00e6\u00f0": 8540,
  "\u2581Error": 8541,
  "\u2581elevated": 8542,
  "\u2581enable": 8543,
  "\u2581involving": 8544,
  "gildum": 8545,
  "hu": 8546,
  "\u2581D\u00fdra": 8547,
  "\u2581Hand": 8548,
  "\u2581Limited": 8549,
  "\u2581acceptable": 8550,
  "\u2581aukinn": 8551,
  "\u2581communication": 8552,
  "\u2581fe": 8553,
  "\u2581houses": 8554,
  "\u2581langa": 8555,
  "\u2581passing": 8556,
  "\u2581\u00fer\u00f3un": 8557,
  "Don": 8558,
  "ferli": 8559,
  "ther": 8560,
  "\u2581Ram": 8561,
  "\u2581breg\u00f0ast": 8562,
  "\u2581corresponding": 8563,
  "dispers": 8564,
  "\u2581Amen": 8565,
  "\u2581Information": 8566,
  "\u2581Studies": 8567,
  "\u2581dollara": 8568,
  "\u2581g\u00f3\u00f0vild": 8569,
  "\u2581hundra\u00f0": 8570,
  "\u2581skor": 8571,
  "\u2581tapa": 8572,
  "\u2581vi\u00f0varandi": 8573,
  "\u2581wound": 8574,
  "1-": 8575,
  "mol": 8576,
  "samur": 8577,
  "\u2581bis": 8578,
  "\u2581branch": 8579,
  "\u2581fanga": 8580,
  "\u2581orally": 8581,
  "\u2581ra\u00f0": 8582,
  "iskir": 8583,
  "komu": 8584,
  "ong": 8585,
  "\u2581110": 8586,
  "\u2581Br": 8587,
  "\u2581GmbH": 8588,
  "\u2581Vera": 8589,
  "\u2581einfaldlega": 8590,
  "\u2581genuine": 8591,
  "\u2581k\u00f6rlum": 8592,
  "\u2581mission": 8593,
  "\u2581n\u00fdr": 8594,
  "\u2581vertu": 8595,
  "\u2581Anyway": 8596,
  "\u2581Clearly": 8597,
  "\u2581Jason": 8598,
  "\u2581alternative": 8599,
  "\u2581d\u0137ttur": 8600,
  "\u2581l\u00edfi\u0111": 8601,
  "\u2581\u00e1rangur": 8602,
  "hand": 8603,
  "heila": 8604,
  "hemla": 8605,
  "\u2581Ki": 8606,
  "\u2581Wil": 8607,
  "\u2581brott": 8608,
  "\u2581burnt": 8609,
  "\u2581homes": 8610,
  "\u2581lifi": 8611,
  "\u2581reality": 8612,
  "\u2581tears": 8613,
  "\u2581video": 8614,
  "HD": 8615,
  "hen": 8616,
  "\u2581Louis": 8617,
  "\u2581MS": 8618,
  "\u2581Text": 8619,
  "\u2581au\u00f0m\u00fdkt": 8620,
  "\u2581langvinn": 8621,
  "\u2581park": 8622,
  "\u2581sharing": 8623,
  "moz": 8624,
  "v\u00f6\u00f0va": 8625,
  "\u258135.": 8626,
  "\u2581Milli": 8627,
  "\u2581Senda": 8628,
  "\u2581beitt": 8629,
  "\u2581endurance": 8630,
  "\u2581fa": 8631,
  "\u2581f\u00f6l": 8632,
  "\u2581str": 8633,
  "\u2581s\u00e6t": 8634,
  "\u2581vi\u00f0komandi": 8635,
  "ens\u00edn": 8636,
  "\u2581beer": 8637,
  "\u2581drepur": 8638,
  "\u2581laugh": 8639,
  "\u2581rugl": 8640,
  "\u2581samskipti": 8641,
  "\u2581suit": 8642,
  "\u2581tap": 8643,
  "\u2581\u00feinna": 8644,
  "PT": 8645,
  "iski": 8646,
  "l\u0137": 8647,
  "svar": 8648,
  "\u2581ER": 8649,
  "\u2581Peace": 8650,
  "\u2581a\u00f5": 8651,
  "\u2581transplant": 8652,
  "SD": 8653,
  "\u2581Baal": 8654,
  "\u2581Bl": 8655,
  "\u2581dilution": 8656,
  "\u2581r\u00edkja": 8657,
  "\u2581vegum": 8658,
  "\u2581vina": 8659,
  "IST": 8660,
  "To": 8661,
  "gir": 8662,
  "oni": 8663,
  "\u2581Guys": 8664,
  "\u2581VEL": 8665,
  "\u2581awesome": 8666,
  "\u2581plant": 8667,
  "\u2581purposes": 8668,
  "\u2581r\u00e1\u00f0vendni": 8669,
  "SH": 8670,
  "gu\u00f0": 8671,
  "interfer": 8672,
  "\u2581Col": 8673,
  "\u2581approved": 8674,
  "\u2581barni\u0111": 8675,
  "\u2581flying": 8676,
  "\u2581nemur": 8677,
  "\u2581traveling": 8678,
  "b\u00ed": 8679,
  "rel": 8680,
  "uzu": 8681,
  "\u00fear": 8682,
  "\u2581(23": 8683,
  "\u2581efninu": 8684,
  "\u2581elta": 8685,
  "\u2581f\u00f3rnir": 8686,
  "\u2581gamli": 8687,
  "\u2581map": 8688,
  "\u2581steal": 8689,
  "\u2581travel": 8690,
  "ban": 8691,
  "key": 8692,
  "korn": 8693,
  "r\u00f3l\u00ed": 8694,
  "\u258128)": 8695,
  "\u2581Skammta": 8696,
  "\u2581haf": 8697,
  "\u2581practices": 8698,
  "\u2581s\u00e1rsauka": 8699,
  "\u2581s\u00e9r\u0111": 8700,
  "\u2581\u00feakkl\u00e1t": 8701,
  "jandi": 8702,
  "\u2581>": 8703,
  "\u2581Abel": 8704,
  "\u2581Class": 8705,
  "\u2581encouragement": 8706,
  "\u2581indicates": 8707,
  "\u2581keyra": 8708,
  "\u2581pru": 8709,
  "\u2581rarely": 8710,
  "\u2581sovereignty": 8711,
  "\u2581\u016brj\u00fa": 8712,
  "availability": 8713,
  "box": 8714,
  "len": 8715,
  "pote": 8716,
  "setning": 8717,
  "trex": 8718,
  "\u2581L\u00edf": 8719,
  "\u2581Marka\u00f0s": 8720,
  "\u2581SUN": 8721,
  "\u2581ace": 8722,
  "\u2581ep": 8723,
  "\u2581hj\u00f3n": 8724,
  "\u2581leyft": 8725,
[...]
