{
  "</s>": 0,
  "<unk>": 1,
  ".": 2,
  "'": 3,
  ",": 4,
  "s": 5,
  "\u2581the": 6,
  "\u2581yn": 7,
  ":": 8,
  "\u2581y": 9,
  "r": 10,
  "\u2581_": 11,
  "\u2581to": 12,
  "\u2581a": 13,
  "\u2581i": 14,
  "\u2581%": 15,
  "n": 16,
  "\u2581of": 17,
  "-": 18,
  "\u2581\"": 19,
  "\u2581o": 20,
  "\u2581(": 21,
  "\u2581ar": 22,
  "\u2581in": 23,
  ")": 24,
  "\u2581and": 25,
  "\u2581ei": 26,
  "_": 27,
  "\u2581not": 28,
  "?": 29,
  "/": 30,
  "\u2581is": 31,
  "\u2581for": 32,
  "\u2581": 33,
  "d": 34,
  "\u2581wedi": 35,
  "\u2581you": 36,
  "\u2581yr": 37,
  "\u2581Mae": 38,
  "\u2581The": 39,
  "\u2581-": 40,
  "\"": 41,
  "\u2581be": 42,
  "\u2581that": 43,
  "\u2581'%": 44,
  "\u2581A": 45,
  "...": 46,
  "\u2581&": 47,
  "\u2581am": 48,
  "\u2581this": 49,
  ";": 50,
  "ing": 51,
  "\u2581at": 52,
  "\u2581I": 53,
  "\u2581gyfer": 54,
  "t": 55,
  "\u2581or": 56,
  "i": 57,
  "!": 58,
  "\u2581on": 59,
  "\u2581with": 60,
  "\u2581mae": 61,
  "\u2581\"%": 62,
  "\u2581name": 63,
  "m": 64,
  "\u2581ac": 65,
  "\u2581file": 66,
  "\u2581yw": 67,
  "\u2581ni": 68,
  "\u2581will": 69,
  "\u2581ffeil": 70,
  "\u2581wrth": 71,
  "\u2581Methu": 72,
  "\u2581eu": 73,
  "\u2581'": 74,
  "\u2581neu": 75,
  "\u2581chi": 76,
  "\u2581it": 77,
  "\u2581from": 78,
  "\u2581mewn": 79,
  "\u2581r": 80,
  "\u2581\u00e2": 81,
  "wch": 82,
  "\u2581fod": 83,
  "\u2581as": 84,
  "\u2581are": 85,
  "\u2581un": 86,
  "a": 87,
  "\u2581was": 88,
  "\u2581Y": 89,
  "w": 90,
  "\u2581bod": 91,
  "\u2581we": 92,
  "\u2581your": 93,
  "ed": 94,
  "au": 95,
  "\u2581have": 96,
  "\u2581all": 97,
  "\u2581size": 98,
  "\u2581eich": 99,
  "\u2581sy": 100,
  "\u2581gan": 101,
  "\u2581Dangos": 102,
  "\u25811": 103,
  "\u2581fel": 104,
  "\u2581kg": 105,
  "\u2581an": 106,
  "\u2581can": 107,
  "\u2581hyn": 108,
  "\u2581by": 109,
  "\u2581when": 110,
  "\u2581label": 111,
  "\u2581C": 112,
  "ch": 113,
  "e": 114,
  "\u2581gyda": 115,
  "\u2581cael": 116,
  "\u2581Could": 117,
  "\u2581Jehovah": 118,
  "\u2581does": 119,
  "\u2581Show": 120,
  "\u2581folder": 121,
  "\u2581Jehofa": 122,
  "u": 123,
  "\u2581This": 124,
  "\u2581do": 125,
  "\u2581he": 126,
  "\u2581his": 127,
  "\u2581neges": 128,
  "\u2581newydd": 129,
  "\u2581nhw": 130,
  "\u2581window": 131,
  "\u2581has": 132,
  ",\"": 133,
  "\u2581You": 134,
  "\u2581ein": 135,
  "\u2581er": 136,
  "\u2581ond": 137,
  "\u2581hwn": 138,
  "\u2581Yn": 139,
  "%": 140,
  "\u2581Gwall": 141,
  "\u2581Os": 142,
  "\u2581oedd": 143,
  "\u2581If": 144,
  "\u2581list": 145,
  ".\"": 146,
  "\u2581Methwyd": 147,
  "\u2581mwyn": 148,
  "\u2581message": 149,
  "\u2581new": 150,
  "\u2581\u00f4l": 151,
  "\u2581Ni": 152,
  "\u2581enw": 153,
  "\u2581os": 154,
  "\u2581sydd": 155,
  "o": 156,
  "\u2581selected": 157,
  "\u2581need": 158,
  "\u2581ddim": 159,
  "\u2581if": 160,
  "\u2581use": 161,
  "\u2581yma": 162,
  "\u2581set": 163,
  "\u2581na": 164,
  "\u2581e": 165,
  "\u2581gael": 166,
  "odd": 167,
  "\u2581[": 168,
  "\u2581Whether": 169,
  "\u2581key": 170,
  "\u2581Name": 171,
  "\u2581Evolution": 172,
  "\u2581America": 173,
  "\u2581pan": 174,
  "\u2581GNOME": 175,
  "\u2581No": 176,
  "]": 177,
  "\u2581rhestr": 178,
  "\u2581S": 179,
  "\u2581Error": 180,
  "\u2581should": 181,
  "\u2581system": 182,
  "City": 183,
  "\u2581Enw": 184,
  ":%": 185,
  "\u25812": 186,
  "\u2581time": 187,
  "\u2581Nid": 188,
  "\u2581hon": 189,
  "y": 190,
  "\u2581text": 191,
  "optional": 192,
  "\u2581files": 193,
  "\u2581ffeiliau": 194,
  "M": 195,
  "\u2581one": 196,
  "\u2581fydd": 197,
  "\u2581fy": 198,
  "\u2581they": 199,
  "\u2581used": 200,
  "Name": 201,
  "\u2581us": 202,
  "\u2581Dim": 203,
  "\u2581color": 204,
  "\u2581data": 205,
  "\u25813": 206,
  "\u2581server": 207,
  "g": 208,
  "\u2581want": 209,
  "\u2581help": 210,
  "\u2581Roedd": 211,
  "\u2581ddefnyddio": 212,
  "\u2581error": 213,
  "\u2581dangos": 214,
  "\u2581heb": 215,
  "\u2581no": 216,
  "\u2581agor": 217,
  "\u2581g\u00eam": 218,
  "\u2581could": 219,
  "\u2581but": 220,
  "\u2581Canno": 221,
  "\u2581panel": 222,
  "wyd": 223,
  "\u2581Failed": 224,
  "b": 225,
  "\u2581God": 226,
  "\u2581about": 227,
  "paper": 228,
  "\u2581wneud": 229,
  "\u2581current": 230,
  "\u2581what": 231,
  "\u2581open": 232,
  "\u2581New": 233,
  "\u2581them": 234,
  "\u2581Wedi": 235,
  "\u2581amser": 236,
  "\u2581our": 237,
  "\u2581game": 238,
  "x": 239,
  "\u2581(%": 240,
  "\u2581cynnwys": 241,
  "\u2581testun": 242,
  "\u2581D": 243,
  "\u2581bar": 244,
  "\u2581newid": 245,
  "\u2581Select": 246,
  "\u2581only": 247,
  "\u2581blygell": 248,
  "\u2581display": 249,
  "\u2581may": 250,
  "\u2581What": 251,
  "\u2581up": 252,
  "\u2581hynny": 253,
  "\u2581had": 254,
  "\u2581translation": 255,
  "\u2581defnyddio": 256,
  "l": 257,
  "\u2581nad": 258,
  "\u2581bydd": 259,
  "\u2581X": 260,
  "\u2581Dewis": 261,
  "\u2581him": 262,
  "\u2581rhai": 263,
  "\u2581bob": 264,
  "\u2581B": 265,
  "\u2581value": 266,
  "bost": 267,
  "\u2581%1": 268,
  "\u2581Please": 269,
  "\u2581who": 270,
  "p": 271,
  "\u2581which": 272,
  "I": 273,
  "ably": 274,
  "\u2581gwneud": 275,
  "f": 276,
  "\u2581Gosod": 277,
  "\u2581messages": 278,
  "\u2581type": 279,
  "\u2581plygell": 280,
  "\u2581prob": 281,
  "\u2581beth": 282,
  "\u2581been": 283,
  "\u2581G": 284,
  "\u2581so": 285,
  "\u2581Asia": 286,
  "\u2581ydych": 287,
  "\u2581Open": 288,
  "\u2581lle": 289,
  "\u2581more": 290,
  "\u2581rhaglen": 291,
  "\u2581did": 292,
  "\u2581Symud": 293,
  "\u2581In": 294,
  "\u2581hyd": 295,
  "\u2581dim": 296,
  "\u2581ddyli": 297,
  "\u2581information": 298,
  "\u2581Rhestr": 299,
  "\u2581unrhyw": 300,
  "\u2581dy": 301,
  "\u2581eraill": 302,
  "c": 303,
  "\u2581P": 304,
  "\u2581iawn": 305,
  "\u2581out": 306,
  "\u2581ffenestr": 307,
  "\u2581gweinydd": 308,
  "\u2581negeseuon": 309,
  "\u2581E": 310,
  "\u2581roedd": 311,
  "\u2581symud": 312,
  "\u2581Do": 313,
  "\u2581Dewiswch": 314,
  "\u2581image": 315,
  "\u2581creu": 316,
  "\u2581me": 317,
  "ly": 318,
  "\u2581Agor": 319,
  "\u2581paper": 320,
  "\u2581Cadw": 321,
  "\u2581hi": 322,
  "\u2581rhaid": 323,
  "\u2581annilys": 324,
  "\u2581All": 325,
  "\u2581default": 326,
  "\u2581their": 327,
  "\u2581g": 328,
  "\u2581would": 329,
  "\u2581must": 330,
  "BAR": 331,
  "\u2581there": 332,
  "S": 333,
  "\u2581/": 334,
  "\u2581option": 335,
  "\u2581said": 336,
  "2": 337,
  "\u2581pob": 338,
  "\u2581O": 339,
  "\u2581Unable": 340,
  "\u2581were": 341,
  "\u2581Ffeil": 342,
  "er": 343,
  "\u2581ti": 344,
  "\u2581File": 345,
  "\u2581n": 346,
  "\u2581show": 347,
  "\u2581move": 348,
  "\u2581my": 349,
  "\u2581Beth": 350,
  "\u2581arall": 351,
  "\u2581Lliw": 352,
  "\u2581people": 353,
  ").": 354,
  "\u2581nid": 355,
  "\u2581modd": 356,
  "\u2581Ar": 357,
  "A": 358,
  "\u2581Newid": 359,
  "\u2581get": 360,
  "\u2581allwedd": 361,
  "\u2581wir": 362,
  "\u2581Bydd": 363,
  "\u2581Duw": 364,
  "\u2581Creu": 365,
  "\u2581rhoi": 366,
  "\u2581Defnyddio": 367,
  "\u2581number": 368,
  "\u2581drwy": 369,
  "\u2581ffenest": 370,
  "\u2581ddewiswyd": 371,
  "\u2581search": 372,
  "\u2581like": 373,
  "\u2581Color": 374,
  "\u2581document": 375,
  "\u2581mode": 376,
  "\u2581Maint": 377,
  "\u2581Move": 378,
  "\u2581cannot": 379,
  "\u2581It": 380,
  "\u2581right": 381,
  "\u2581make": 382,
  "\u2581List": 383,
  "\u2581cyn": 384,
  "\u2581other": 385,
  "\u2581find": 386,
  "\u2581To": 387,
  "\u2581command": 388,
  "\u2581He": 389,
  "\u2581Use": 390,
  "\u2581How": 391,
  "\u2581dod": 392,
  "\u2581tab": 393,
  "\u2581methu": 394,
  "\u2581helpu": 395,
  "\u2581Ond": 396,
  "\u2581create": 397,
  "\u2581view": 398,
  "\u2581unig": 399,
  "\u2581password": 400,
  "\u2581iddo": 401,
  "\u2581ddogfen": 402,
  "\u2581gwerth": 403,
  "\u2581yna": 404,
  "\u2581Ydych": 405,
  "\u2581user": 406,
  "\u2581Chwilio": 407,
  "\u2581ddangos": 408,
  "\u2581City": 409,
  "\u2581gosod": 410,
  "\u2581address": 411,
  "\u2581defnyddiwr": 412,
  "\u2581cadw": 413,
  "\u2581Newydd": 414,
  "\u2581N": 415,
  "\u2581T": 416,
  "\u2581how": 417,
  "\u2581gwall": 418,
  "\u2581--": 419,
  "Y": 420,
  "B": 421,
  "\u2581then": 422,
  "\u2581oes": 423,
  "\u2581elli": 424,
  "\u2581dda": 425,
  "\u2581directory": 426,
  "\u2581fewn": 427,
  "\u2581Iesu": 428,
  "\u2581inni": 429,
  "\u2581lliw": 430,
  "Stock": 431,
  "\u2581Set": 432,
  "\u2581Galluogi": 433,
  "\u2581Search": 434,
  "\u2581rydy": 435,
  "\u25810": 436,
  "\u2581failed": 437,
  "\u2581Time": 438,
  "\u2581Key": 439,
  "\u2581found": 440,
  "\u2581mail": 441,
  "\u2581any": 442,
  "\u2581chwilio": 443,
  "\u2581true": 444,
  "\u2581chwarae": 445,
  "\u2581anhysbys": 446,
  "\u2581read": 447,
  "\u2581Math": 448,
  "\u2581Jesus": 449,
  "\u2581Add": 450,
  "\u2581()": 451,
  "\u2581View": 452,
  "\u2581bodoli": 453,
  "\u2581Bible": 454,
  "\u2581into": 455,
  "\u2581format": 456,
  "\u2581Sut": 457,
  "\u2581dros": 458,
  "\u2581she": 459,
  "\u2581calendar": 460,
  "\u2581eisiau": 461,
  "\u2581Create": 462,
  "\u2581anfon": 463,
  "\u2581Enable": 464,
  "\u2581Save": 465,
  "\u2581keyboard": 466,
  "\u2581Folder": 467,
  "on": 468,
  "\u2581dewis": 469,
  "\u2581llwytho": 470,
  "\u2581Tab": 471,
  "\u2581button": 472,
  "\u2581darllen": 473,
  "\u2581We": 474,
  "\u2581Game": 475,
  "\u2581action": 476,
  "\u2581ail": 477,
  "\u2581some": 478,
  "\u2581Default": 479,
  "\u2581eto": 480,
  "\u2581angen": 481,
  "\u2581her": 482,
  "\u2581hun": 483,
  "\u2581Display": 484,
  "\u2581There": 485,
  "\u2581opsiwn": 486,
  "\u2581rhagosodedig": 487,
  "\u2581already": 488,
  "\u2581ID": 489,
  "\u2581math": 490,
  "yn": 491,
  "th": 492,
  "\u2581<": 493,
  "\u2581Dileu": 494,
  "\u2581mwy": 495,
  "\u2581than": 496,
  "\u2581string": 497,
  "\u2581page": 498,
  "\u2581osod": 499,
  "\u2581while": 500,
  "':": 501,
  "\u25815": 502,
  "\u2581gallu": 503,
  "\u2581di": 504,
  "\u2581rhwng": 505,
  "\u2581Bar": 506,
  "\u2581before": 507,
  "\u2581application": 508,
  "\u2581part": 509,
  "\u2581gwesteiwr": 510,
  "\u2581cyswllt": 511,
  "\u2581But": 512,
  "\u2581allan": 513,
  "\u2581hefyd": 514,
  "\u2581holl": 515,
  "\u2581sure": 516,
  ">": 517,
  "\u2581Ychwanegu": 518,
  "\u2581item": 519,
  "\u2581menu": 520,
  "\u2581mi": 521,
  "\u2581between": 522,
  "\u2581d": 523,
  "\u2581also": 524,
  "\u2581because": 525,
  "\u2581bysellfwrdd": 526,
  "\u2581sut": 527,
  "\u2581dialog": 528,
  "\u2581Beibl": 529,
  "\u2581delwedd": 530,
  "\u2581Type": 531,
  "\u2581line": 532,
  "\u2581same": 533,
  "\u2581M": 534,
  "\u2581start": 535,
  "\u2581work": 536,
  "\u2581fe": 537,
  "\u2581location": 538,
  "\u2581gorchymyn": 539,
  "\u25814": 540,
  "\u2581lawr": 541,
  "\u2581Text": 542,
  "\u2581Rho": 543,
  "\u2581available": 544,
  "\u2581left": 545,
  "\u2581mynd": 546,
  "\u2581Neges": 547,
  "\u2581Paul": 548,
  "\u2581c": 549,
  "\u2581HTML": 550,
  "\u2581ffordd": 551,
  "\u2581save": 552,
  "\u2581Number": 553,
  "\u2581font": 554,
  "\u2581pobl": 555,
  "\u2581KDE": 556,
  "\u2581love": 557,
  "\u2581weithred": 558,
  "\u2581bobl": 559,
  "\u2581fwy": 560,
  "\u2581llinell": 561,
  "\u2581Er": 562,
  "\u2581Plygell": 563,
  "\u2581ffenestri": 564,
  "\u2581eitem": 565,
  "\u2581Un": 566,
  "\u2581cyfrinair": 567,
  "\u2581For": 568,
  "\u2581task": 569,
  "\u2581way": 570,
  "\u2581When": 571,
  "\u2581Unknown": 572,
  "\u2581fath": 573,
  "\u2581F": 574,
  "\u2581oherwydd": 575,
  "\u2581after": 576,
  "\u2581canfod": 577,
  "\u2581Window": 578,
  "\u2581icon": 579,
  "\u2581another": 580,
  "Comment": 581,
  "3": 582,
  "\u2581these": 583,
  "\u2581moves": 584,
  "\u2581W": 585,
  "\u2581unit": 586,
  "\u2581Wrth": 587,
  "\u2581know": 588,
  "\u2581GDM": 589,
  "\u2581sain": 590,
  "\u2581Delete": 591,
  "\u2581gwybod": 592,
  "\u2581sgrin": 593,
  "\u2581again": 594,
  "ol": 595,
  "\u2581desktop": 596,
  "\u2581here": 597,
  "\u2581ag": 598,
  "\u2581options": 599,
  "\u2581using": 600,
  "\u2581Image": 601,
  "\u2581Gall": 602,
  "\u2581Rhaid": 603,
  "\u2581Your": 604,
  "\u2581fyny": 605,
  "\u2581many": 606,
  "/%": 607,
  "\u2581And": 608,
  "\u2581Invalid": 609,
  "\u2581dychwelyd": 610,
  "\u2581botwm": 611,
  "\u2581memo": 612,
  "\u2581Lleoliad": 613,
  "\u2581configuration": 614,
  "\u2581dweud": 615,
  "\u2581gadw": 616,
  "\u2581nesaf": 617,
  "\u2581contact": 618,
  "\u2581thema": 619,
  "\u2581ydy": 620,
  "ion": 621,
  "\u2581cyfeiriadur": 622,
  "\u2581good": 623,
  "\u2581Yr": 624,
  "\u2581down": 625,
  "\u2581see": 626,
  "\u2581x": 627,
  "\u2581(_": 628,
  "\u2581theme": 629,
  "4": 630,
  "\u2581Not": 631,
  "\u2581System": 632,
  "\u2581first": 633,
  "\u2581such": 634,
  "\u2581G\u00eam": 635,
  "\u2581over": 636,
  "\u2581Cyswllt": 637,
  "\u2581next": 638,
  "H": 639,
  "ir": 640,
  "in": 641,
  "\u2581ai": 642,
  "\u2581shortcut": 643,
  "\u2581take": 644,
  "\u2581specified": 645,
  "\u2581R": 646,
  "\u2581ef": 647,
  "\u2581source": 648,
  "\u2581De": 649,
  "quot": 650,
  "\u2581info": 651,
  "\u2581last": 652,
  "\u2581Argraffu": 653,
  "\u2581cefndir": 654,
  "\u2581Ail": 655,
  "\u2581dileu": 656,
  "\u2581ffont": 657,
  "\u2581lefel": 658,
  "\u2581access": 659,
  "\u2581load": 660,
  "\u2581nifer": 661,
  "\u2581valid": 662,
  "\u2581cyfredol": 663,
  "\u2581elfen": 664,
  "\u2581Print": 665,
  "\u2581go": 666,
  "\u2581URI": 667,
  "\u2581roi": 668,
  "\u2581#": 669,
  "\u2581check": 670,
  "\u2581even": 671,
  "\u2581position": 672,
  "h": 673,
  "\u2581eicon": 674,
  "\u2581rhan": 675,
  "+": 676,
  "\u2581gwybodaeth": 677,
  "\u2581ddarllen": 678,
  "ville": 679,
  "\u2581@": 680,
  "en": 681,
  "\u2581Amser": 682,
  "\u2581Enter": 683,
  "\u2581character": 684,
  "\u2581H": 685,
  "\u2581Keyboard": 686,
  "ydd": 687,
  "\u2581ddewis": 688,
  "\u2581Lake": 689,
  "\u2581Methodd": 690,
  "\u2581following": 691,
  "\u2581oed": 692,
  "\u2581version": 693,
  "\u2581ddileu": 694,
  "\u2581two": 695,
  "al": 696,
  "\u2581penbwrdd": 697,
  "@": 698,
  "\u2581diogel": 699,
  "\u2581example": 700,
  "\u2581very": 701,
  "\u2581CD": 702,
  "\u2581lleoliad": 703,
  "\u2581Message": 704,
  "dd": 705,
  "\u2581column": 706,
  "\u2581offer": 707,
  "\u2581session": 708,
  "\u2581barod": 709,
  "\u2581Ewrop": 710,
  "\u2581da": 711,
  "\u2581Size": 712,
  "\u2581llinyn": 713,
  "\u2581sefydlu": 714,
  "\u2581date": 715,
  "\u2581screen": 716,
  "\u2581now": 717,
  "1": 718,
  "\u2581life": 719,
  "\u2581ochr": 720,
  "\u2581terminal": 721,
  "\u2581Pa": 722,
  "\u2581Testun": 723,
  "\u2581account": 724,
  "\u2581exist": 725,
  "type": 726,
  "\u2581ychwanegu": 727,
  "\u2581where": 728,
  "\u2581maint": 729,
  "\u2581w": 730,
  "lein": 731,
  "\u2581An": 732,
  "\u2581GTK": 733,
  "\u2581ceisio": 734,
  "\u2581eisoes": 735,
  "\u2581those": 736,
  "\u2581calendr": 737,
  "\u2581Pob": 738,
  "\u2581de": 739,
  "\u2581sesiwn": 740,
  "\u2581folders": 741,
  "\u2581windows": 742,
  "\u2581Address": 743,
  "keyboard": 744,
  "\u2581archif": 745,
  "\u2581gall": 746,
  "\u2581llawer": 747,
  "\u2581event": 748,
  "\u2581program": 749,
  "\u2581URL": 750,
  "\u2581gweld": 751,
  "\u2581As": 752,
  "\u2581Gwybodaeth": 753,
  "\u2581man": 754,
  "\u2581ddefnyddir": 755,
  "\u2581gychwyn": 756,
  "\u2581made": 757,
  "\u2581Pan": 758,
  "\u2581nod": 759,
  "\u2581symudiadau": 760,
  "\u2581ysgrifennu": 761,
  "\u2581dde": 762,
  "\u2581too": 763,
  "\u2581log": 764,
  "\u2581computer": 765,
  "\u2581cyfrifiadur": 766,
  "\u2581Server": 767,
  "\u2581K": 768,
  "\u2581Hoffterau": 769,
  "\u2581ben": 770,
  "\u2581element": 771,
  "\u2581status": 772,
  "\u2581felly": 773,
  "\u2581mor": 774,
  "\u2581Saint": 775,
  "\u2581group": 776,
  "\u2581s": 777,
  "\u2581gwaith": 778,
  "\u2581supported": 779,
  "\u2581gwel": 780,
  "\u2581si\u0175r": 781,
  "or": 782,
  "\u2581Alice": 783,
  "\u2581change": 784,
  "\u2581others": 785,
  "5": 786,
  "C": 787,
  "text": 788,
  "\u2581Change": 789,
  "\u2581ddelwedd": 790,
  "\u2581changes": 791,
  "\u2581ymlaen": 792,
  "\u2581Doe": 793,
  "\u2581background": 794,
  "\u2581ebost": 795,
  "\u2581pecyn": 796,
  "\u2581Page": 797,
  "\u2581book": 798,
  "\u2581gennych": 799,
  "\u2581ym": 800,
  "\u2581ch": 801,
  "\u2581Font": 802,
  "\u2581delete": 803,
  "\u2581well": 804,
  "es": 805,
  "\u2581Fe": 806,
  "\u2581object": 807,
  "\u2581cysylltu": 808,
  "io": 809,
  "\u2581Lled": 810,
  "\u2581archive": 811,
  "\u2581rhedeg": 812,
  "\u2581just": 813,
  "\u2581Preferences": 814,
  "\u2581ddylai": 815,
  "\u2581L": 816,
  "=": 817,
  "\u2581Stock": 818,
  "\u2581chwith": 819,
  "\u2581copy": 820,
  "\u2581without": 821,
  "\u2581invalid": 822,
  "\u2581lleol": 823,
  "\u2581ffurf": 824,
  "\u2581style": 825,
  "\u2581Go": 826,
  "\u2581bryd": 827,
  "\u2581Edit": 828,
  "\u2581Europe": 829,
  "\u2581empty": 830,
  "\u2581person": 831,
  "\u2581title": 832,
  "\u2581Fel": 833,
  "ton": 834,
  "\u2581aros": 835,
  "\u2581its": 836,
  "\u2581through": 837,
  "\u2581La": 838,
  "\u2581print": 839,
  "\u2581back": 840,
  "\u2581San": 841,
  "\u2581word": 842,
  "\u2581installed": 843,
  "\u2581support": 844,
  "\u2581cyfrif": 845,
  "\u2581gedit": 846,
  "D": 847,
  "\u2581Panel": 848,
  "\u2581meddwl": 849,
  "\u2581Anfon": 850,
  "\u2581byd": 851,
  "\u2581newidiadau": 852,
  "\u2581process": 853,
  "?\"": 854,
  "\u2581cychwyn": 855,
  "\u2581Dyddiad": 856,
  "\u2581draw": 857,
  "\u2581edrych": 858,
  "\u2581level": 859,
  "\u2581Choose": 860,
  "\u2581derbyn": 861,
  "\u2581end": 862,
  "\u2581Exchange": 863,
  "\u2581contains": 864,
  "\u2581wyf": 865,
  "\u2581network": 866,
  "\u2581Contact": 867,
  "\u2581Mr": 868,
  "\u2581Start": 869,
  "\u2581child": 870,
  "\u2581day": 871,
  "\u2581meddai": 872,
  "\u2581state": 873,
  "\u2581Dduw": 874,
  "\u2581Password": 875,
  "R": 876,
  "\u258110": 877,
  "\u2581add": 878,
  "\u2581argraffu": 879,
  "\u2581displayed": 880,
  "\u2581efo": 881,
  "\u2581golygu": 882,
  "\u2581returns": 883,
  "\u2581safe": 884,
  "\u2581dan": 885,
  "\u2581GNU": 886,
  "\u2581Copy": 887,
  "\u2581each": 888,
  "\u2581Click": 889,
  "\u2581things": 890,
  "\u2581Affrica": 891,
  "\u2581So": 892,
  "\u2581gywir": 893,
  "\u25817": 894,
  "\u2581Dydy": 895,
  "\u2581items": 896,
  "\u2581being": 897,
  "\u2581world": 898,
  "\u2581wybodaeth": 899,
  "\u2581awtomatig": 900,
  "color": 901,
  "\u2581Are": 902,
  "\u2581Felly": 903,
  "\u2581values": 904,
  "\u2581Peidi": 905,
  "\u2581Lefel": 906,
  "\u2581local": 907,
  "\u2581width": 908,
  "\u2581Sgrin": 909,
  "\u2581map": 910,
  "\u2581Can": 911,
  "\u2581gallwn": 912,
  "\u2581try": 913,
  "wn": 914,
  "--": 915,
  "\u2581Africa": 916,
  "\u2581Cliciw": 917,
  "\u2581Golygu": 918,
  "\u2581Remove": 919,
  "\u2581settings": 920,
  "\u2581General": 921,
  "\u2581dudalen": 922,
  "\u2581ymddangos": 923,
  "New": 924,
  "St": 925,
  "\u2581enghraifft": 926,
  "\u2581month": 927,
  "\u2581Gosodiadau": 928,
  "\u2581gofyn": 929,
  "\u2581Comment": 930,
  "\u2581m": 931,
  "\u2581Golwg": 932,
  "\u2581byddai": 933,
  "\u25816": 934,
  "\u2581Chwarae": 935,
  "\u2581order": 936,
  "\u2581cyfluniad": 937,
  "\u2581Cop\u00efo": 938,
  "\u2581Mynd": 939,
  "\u2581operation": 940,
  "\u2581deleted": 941,
  "\u2581byth": 942,
  "\u2581space": 943,
  "un": 944,
  "\u2581Fort": 945,
  "\u2581tro": 946,
  "\u2581different": 947,
  "\u2581link": 948,
  "\u2581tu": 949,
  "ve": 950,
  "\u2581Heb": 951,
  "\u2581Free": 952,
  "\u2581Date": 953,
  "\u2581weld": 954,
  "\u2581run": 955,
  "\u2581fysell": 956,
  "\u2581instead": 957,
  "\u2581old": 958,
  "\u2581Cau": 959,
  "\u2581Cyfeiriad": 960,
  "\u2581connect": 961,
  "\u2581Byrlwybr": 962,
  "\u2581tag": 963,
  "\u2581Pam": 964,
  "\u2581dilys": 965,
  "\u2581give": 966,
  "Z": 967,
  "able": 968,
  "\u2581hen": 969,
  "\u2581Settings": 970,
  "\u2581LAU": 971,
  "\u2581safle": 972,
  "\u2581Port": 973,
  "\u2581Modd": 974,
  "\u2581cyfeiriad": 975,
  "\u2581gweithio": 976,
  "us": 977,
  "\u2581Island": 978,
  "\u2581sound": 979,
  "\u2581bynnag": 980,
  "\u2581gorffen": 981,
  "\u2581field": 982,
  "\u25811.": 983,
  "\u2581presennol": 984,
  "\u2581dechrau": 985,
  "\u2581Delwedd": 986,
  "\u2581select": 987,
  "\u2581Close": 988,
  "k": 989,
  "\u2581Clear": 990,
  "\u2581Nifer": 991,
  "\u2581fo": 992,
  "\u2581gyd": 993,
  "\u2581pane": 994,
  "\u2581Why": 995,
  "\u2581fersiwn": 996,
  "\u2581gadael": 997,
  "\u2581oddi": 998,
  "\u2581ydyn": 999,
  "\u2581%.1": 1000,
  "\u2581Check": 1001,
  "\u2581Gwerth": 1002,
  "\u2581fynd": 1003,
  "\u2581lwytho": 1004,
  "\u2581think": 1005,
  "na": 1006,
  "\u2581deialog": 1007,
  "\u2581gr\u0175p": 1008,
  "\u2581send": 1009,
  "ll": 1010,
  "\u2581gilydd": 1011,
  "\u25812:": 1012,
  "\u2581They": 1013,
  "\u2581manager": 1014,
  "encil": 1015,
  "id": 1016,
  "\u2581Calendar": 1017,
  "format": 1018,
  "\u2581Background": 1019,
  "\u2581Nautilus": 1020,
  "\u2581POP": 1021,
  "\u2581olwg": 1022,
  "attr": 1023,
  "iad": 1024,
  "\u2581User": 1025,
  "\u2581Opsiynau": 1026,
  "\u2581custom": 1027,
  "\u2581cyfeiriadau": 1028,
  "\u2581awr": 1029,
  "\u2581sbwriel": 1030,
  "re": 1031,
  "\u2581plentyn": 1032,
  "\u2581derfynell": 1033,
  "\u2581Find": 1034,
  "\u2581cymorth": 1035,
  "\u2581teimlo": 1036,
  "\u2581By": 1037,
  "\u2581ddweud": 1038,
  "\u2581Files": 1039,
  "\u2581Ffeiliau": 1040,
  "\u2581given": 1041,
  "\u2581Ffont": 1042,
  "\u2581St": 1043,
  "\u2581dal": 1044,
  "\u2581symudiad": 1045,
  "\u2581On": 1046,
  "\u2581llyfr": 1047,
  "\u2581gefn": 1048,
  "\u2581Document": 1049,
  "\u2581remove": 1050,
  "\u2581yng": 1051,
  "to": 1052,
  "\u258118": 1053,
  "\u2581brothers": 1054,
  "\u2581Unicode": 1055,
  "\u2581ffynhonnell": 1056,
  "\u2581gyfredol": 1057,
  "\u2581Robots": 1058,
  "\u2581wnaeth": 1059,
  "\u2581alluogi": 1060,
  "\u2581preview": 1061,
  "\u2581Ffenestr": 1062,
  "\u2581Sain": 1063,
  "\u2581permissions": 1064,
  "\u2581Priodweddau": 1065,
  "\u2581Screen": 1066,
  "\u2581gaf": 1067,
  "\u2581Data": 1068,
  "\u2581nodau": 1069,
  "\u2581delweddau": 1070,
  "\u2581ddod": 1071,
  "\u2581whether": 1072,
  "F": 1073,
  "aiff": 1074,
  "\u2581eitemau": 1075,
  "\u2581pell": 1076,
  "\u2581Rhif": 1077,
  "-8": 1078,
  "\u2581ddewislen": 1079,
  "\u2581ddechrau": 1080,
  "\u2581LDAP": 1081,
  "\u2581Only": 1082,
  "\u2581ddata": 1083,
  "\u2581exists": 1084,
  "\u2581p": 1085,
  "\u2581specify": 1086,
  "\u2581Mewnosod": 1087,
  "\u2581Options": 1088,
  "\u2581certificate": 1089,
  "\u2581maes": 1090,
  "\u2581family": 1091,
  "\u2581hytrach": 1092,
  "\u2581allowed": 1093,
  "\u2581pa": 1094,
  "st": 1095,
  "\u2581XML": 1096,
  "\u258115": 1097,
  "\u2581Custom": 1098,
  "\u2581Ebost": 1099,
  "\u2581>": 1100,
  "\u2581bach": 1101,
  "\u2581copi": 1102,
  "\u2581Ac": 1103,
  "\u2581country": 1104,
  "\u2581special": 1105,
  "\u2581Gadael": 1106,
  "\u2581IMAP": 1107,
  "\u2581Play": 1108,
  "\u2581remote": 1109,
  "\u2581gwrthrych": 1110,
  "\u2581description": 1111,
  "\u2581email": 1112,
  "\u2581off": 1113,
  "\u2581Pennawd": 1114,
  "disabled": 1115,
  "\u2581enable": 1116,
  "\u2581package": 1117,
  "\u2581years": 1118,
  "\u2581States": 1119,
  "\u2581opsiynau": 1120,
  "\u2581sent": 1121,
  "N": 1122,
  "\u2581pethau": 1123,
  "\u2581dysgu": 1124,
  "\u2581ffr\u00e2m": 1125,
  "\u2581write": 1126,
  "\u2581Home": 1127,
  "\u2581might": 1128,
  "\u2581Symbol": 1129,
  "\u2581Tudalen": 1130,
  "\u2581hwnnw": 1131,
  "\u258114": 1132,
  "\u2581meeting": 1133,
  "\u2581offline": 1134,
  "\u2581Send": 1135,
  "\u2581trash": 1136,
  "\u258112": 1137,
  "\u2581mewngofnodi": 1138,
  "\u2581Llwytho": 1139,
  "\u2581iddyn": 1140,
  "\u2581most": 1141,
  "\u2581much": 1142,
  "\u2581Disgrifiad": 1143,
  "\u2581Properties": 1144,
  "\u2581picseli": 1145,
  "\u2581previous": 1146,
  "\u25811:": 1147,
  "\u2581language": 1148,
  "\u2581required": 1149,
  "\u2581gallwch": 1150,
  "\u2581gyntaf": 1151,
  "\u2581selection": 1152,
  "\u25814:": 1153,
  "\u2581fyddai": 1154,
  "\u2581names": 1155,
  "\u2581rhwydwaith": 1156,
  "Mae": 1157,
  "ng": 1158,
  "\u2581own": 1159,
  "\u2581Gwiriw": 1160,
  "\u2581teitl": 1161,
  "\u258111": 1162,
  "\u2581Current": 1163,
  "\u2581Rydych": 1164,
  "\u2581South": 1165,
  "\u2581golwg": 1166,
  "\u2581nag": 1167,
  "\u2581Certificate": 1168,
  "\u2581Maes": 1169,
  "\u2581connection": 1170,
  "\u2581output": 1171,
  "\u2581dasg": 1172,
  "\u2581keep": 1173,
  "\u2581power": 1174,
  "\u2581Efallai": 1175,
  "\u2581learn": 1176,
  "\u2581tuag": 1177,
  "\u2581contents": 1178,
  "\u2581mawr": 1179,
  "T": 1180,
  "\u2581Teitl": 1181,
  "\u2581Trash": 1182,
  "\u2581means": 1183,
  "\u2581under": 1184,
  "\u2581keys": 1185,
  "\u2581images": 1186,
  "\u2581Link": 1187,
  "\u2581function": 1188,
  "\u2581Next": 1189,
  "\u2581say": 1190,
  "\u2581Canada": 1191,
  "\u2581bresennol": 1192,
  "\u2581important": 1193,
  "\u2581dangosydd": 1194,
  "\u2581widget": 1195,
  "an": 1196,
  "onstellation": 1197,
  "\u2581Import": 1198,
  "\u2581Sun": 1199,
  "\u2581byw": 1200,
  "\u2581unknown": 1201,
  "\u2581Arddull": 1202,
  "\u2581allbwn": 1203,
  "\u2581efallai": 1204,
  "\u2581Desktop": 1205,
  "\u2581Level": 1206,
  "\u2581European": 1207,
  "\u2581hanes": 1208,
  "\u2581Information": 1209,
  "\u2581adael": 1210,
  "\u2581Cynnwys": 1211,
  "\u2581cyflwr": 1212,
  "\u2581wag": 1213,
  "\u2581Other": 1214,
  "\u2581blwch": 1215,
  "\u2581h": 1216,
  "\u2581saved": 1217,
  "\u2581Right": 1218,
  "\u2581Switch": 1219,
  "\u2581l": 1220,
  "\u2581long": 1221,
  "\u2581annisgwyl": 1222,
  "\u2581below": 1223,
  "\u2581Mode": 1224,
  "P": 1225,
  "\u25815:": 1226,
  "\u2581Amlen": 1227,
  "\u2581Bysell": 1228,
  "\u2581Mark": 1229,
  "france": 1230,
  "\u2581North": 1231,
  "\u2581inside": 1232,
  "\u2581penodi": 1233,
  "\u2581Sbwriel": 1234,
  "\u2581Gweld": 1235,
  "\u2581iddi": 1236,
  "\u2581play": 1237,
  "\u2581chwaraewr": 1238,
  "\u2581addasedig": 1239,
  "\u2581deall": 1240,
  "\u2581Insert": 1241,
  "\u2581Satan": 1242,
  "\u2581header": 1243,
  "\u2581choose": 1244,
  "\u2581filter": 1245,
  "\u2581gweithredu": 1246,
  "symbols": 1247,
  "is": 1248,
  "\u2581License": 1249,
  "\u2581Location": 1250,
  "\u2581setting": 1251,
  "\u2581unwaith": 1252,
  "\u2581pixels": 1253,
  "\u2581side": 1254,
  "\u2581statws": 1255,
  "O": 1256,
  "\u2581One": 1257,
  "\u2581Some": 1258,
  "\u2581chynhelir": 1259,
  "\u2581hoffech": 1260,
  "\u25818": 1261,
  "\u2581ask": 1262,
  "\u2581close": 1263,
  "\u2581disk": 1264,
  "\u2581put": 1265,
  "frica": 1266,
  "\u2581possible": 1267,
  "v": 1268,
  "\u2581Bay": 1269,
  "\u2581siarad": 1270,
  "\u2581Re": 1271,
  "\u2581expression": 1272,
  "\u2581peth": 1273,
  "\u2581Group": 1274,
  "\u2581currently": 1275,
  "\u2581minutes": 1276,
  "\u2581visible": 1277,
  "wr": 1278,
  "\u2581don": 1279,
  "\u2581ymateb": 1280,
  "OF": 1281,
  "\u2581Games": 1282,
  "\u2581free": 1283,
  "\u2581Hyd": 1284,
  "\u2581entry": 1285,
  "\u2581prif": 1286,
  "L": 1287,
  "\u2581ychydig": 1288,
  "\u2581eiconau": 1289,
  "\u2581llinellau": 1290,
  "\u2581Mail": 1291,
  "\u2581cynnal": 1292,
  "\u2581diwethaf": 1293,
  "\u2581occurred": 1294,
  "\u2581Line": 1295,
  "\u2581apwyntiad": 1296,
  "E": 1297,
  "\u2581cyntaf": 1298,
  "\u2581feel": 1299,
  "\u2581greu": 1300,
  "\u2581parse": 1301,
  "\u2581history": 1302,
  "!\"": 1303,
  "z": 1304,
  "\u2581dro": 1305,
  "\u2581ennill": 1306,
  "\u2581CPU": 1307,
  "\u2581home": 1308,
  "\u2581signature": 1309,
  "\u2581words": 1310,
  "\u2581Email": 1311,
  "\u2581always": 1312,
  "\u2581come": 1313,
  "\u2581Cyfrinair": 1314,
  "iau": 1315,
  "\u2581days": 1316,
  "\u2581gwahanol": 1317,
  "Enw": 1318,
  "\u2581%2": 1319,
  "\u2581fformat": 1320,
  "\u2581geiriadur": 1321,
  "\u2581Calendr": 1322,
  "\u2581Falls": 1323,
  "\u2581Pacific": 1324,
  "\u2581Work": 1325,
  "\u2581dderbyn": 1326,
  "\u2581root": 1327,
  "\u2581understand": 1328,
  "\u2581able": 1329,
  "\u2581cyrraedd": 1330,
  "\u2581ffyddlon": 1331,
  "\u2581login": 1332,
  "\u2581something": 1333,
  "6": 1334,
  "\u2581correctly": 1335,
  "\u2581ateb": 1336,
  "\u2581profile": 1337,
  "\u2581waith": 1338,
  "\u2581Gwirio": 1339,
  "\u2581Is": 1340,
  "\u2581bosib": 1341,
  "\u2581contacts": 1342,
  "\u2581cursor": 1343,
  "\u2581blocks": 1344,
  "\u2581brodyr": 1345,
  "\u2581browser": 1346,
  "\u2581gwnaeth": 1347,
  "\u2581TRANSLATORS": 1348,
  "\u2581memory": 1349,
  "\u2581At": 1350,
  "\u2581Canfod": 1351,
  "\u2581Defnyddiwr": 1352,
  "\u2581arbennig": 1353,
  "\u2581contain": 1354,
  "\u2581dewisedig": 1355,
  "\u25816:": 1356,
  "\u2581applications": 1357,
  "\u2581dyn": 1358,
  "\u25811,": 1359,
  "\u2581Mewnforio": 1360,
  "\u2581Point": 1361,
  "\u2581cariad": 1362,
  "\u2581debyg": 1363,
  "\u2581dyddiad": 1364,
  "\u2581fawr": 1365,
  "\u2581Rwy": 1366,
  "\u2581attribute": 1367,
  "\u2581device": 1368,
  "\u2581enter": 1369,
  "\u2581Gweinydd": 1370,
  "\u2581row": 1371,
  "the": 1372,
  "\u2581River": 1373,
  "\u2581pennawd": 1374,
  "\u2581still": 1375,
  "\u2581click": 1376,
  "\u2581lines": 1377,
  "\u2581ystod": 1378,
  "no": 1379,
  "\u2581height": 1380,
  "\u2581cysylltiad": 1381,
  "\u2581full": 1382,
  "\u2581Tynnu": 1383,
  "\u2581'{0}'": 1384,
  "\u2581llawn": 1385,
  "\u2581border": 1386,
  "\u2581children": 1387,
  "\u2581shown": 1388,
  "\u2581sounds": 1389,
  "ar": 1390,
  "\u2581Negeseuon": 1391,
  "\u2581Width": 1392,
  "\u2581gosodiadau": 1393,
  "\u2581mis": 1394,
  "\u2581enabled": 1395,
  "\u2581geiriau": 1396,
  "\u2581gosodiad": 1397,
  "\u2581ragosodedig": 1398,
  "\u2581rhy": 1399,
  "\u2581Rhaglen": 1400,
  "\u2581gair": 1401,
  "\u2581never": 1402,
  "\u2581That": 1403,
  "\u2581byddw": 1404,
  "\u2581ganfod": 1405,
  "\u2581service": 1406,
  "\u2581cofnod": 1407,
  "G": 1408,
  "\u2581disgwyl": 1409,
  "\u2581reading": 1410,
  "\u2581rhif": 1411,
  "\u25819": 1412,
  "\u2581audio": 1413,
  "\u2581case": 1414,
  "\u2581software": 1415,
  "\u2581f": 1416,
  "ia": 1417,
  "\u2581Cisco": 1418,
  "\u2581Header": 1419,
  "\u2581faith": 1420,
  "\u2581fertigol": 1421,
  "\u2581please": 1422,
  "\u2581rhes": 1423,
  "\u2581Title": 1424,
  "\u2581workspace": 1425,
  "\u2581Command": 1426,
  "\u2581Pasi": 1427,
  "world": 1428,
  "\u2581State": 1429,
  "\u2581input": 1430,
  "eg": 1431,
  "\u2581Left": 1432,
  "\u258119": 1433,
  "\u25812.": 1434,
  "\u2581opened": 1435,
  "\u258120": 1436,
  "\u2581toolbar": 1437,
  "wyr": 1438,
  "\u2581Arall": 1439,
  "\u2581Public": 1440,
  "\u2581hap": 1441,
  "\u2581Filter": 1442,
  "\u2581canlynol": 1443,
  "\u2581authentication": 1444,
  "\u2581cwarel": 1445,
  "\u2581tasks": 1446,
  "\u2581John": 1447,
  "\u2581Table": 1448,
  "\u2581West": 1449,
  "\u2581(1": 1450,
  "\u2581Derbyn": 1451,
  "\u2581Network": 1452,
  "\u2581changed": 1453,
  "\u2581gynnwys": 1454,
  "\u2581icons": 1455,
  "\u2581penodol": 1456,
  "\u2581become": 1457,
  "\u2581dilyn": 1458,
  "\u2581plygellau": 1459,
  "\u2581volume": 1460,
  "\u2581Foundation": 1461,
  "\u2581arno": 1462,
  "\u2581+": 1463,
  "\u2581Dogfen": 1464,
  "\u2581Language": 1465,
  "\u2581dewislen": 1466,
  "\u2581later": 1467,
  "\u2581says": 1468,
  "\u2581three": 1469,
  "ic": 1470,
  "\u2581Offer": 1471,
  "\u2581player": 1472,
  "\u2581Cartref": 1473,
  "\u2581Cyfrif": 1474,
  "\u2581adolygu": 1475,
  "\u2581control": 1476,
  "\u2581fideo": 1477,
  "\u2581look": 1478,
  "\u2581really": 1479,
  "\u2581seconds": 1480,
  "Golygu": 1481,
  "\u2581adfer": 1482,
  "\u2581got": 1483,
  "\u2581teclyn": 1484,
  "ffig": 1485,
  "\u2581battery": 1486,
  "\u2581cyd": 1487,
  "\u2581destun": 1488,
  "\u2581t": 1489,
  "\u2581video": 1490,
  "\u2581Gorchymyn": 1491,
  "\u2581ddysgu": 1492,
  "\u2581dictionary": 1493,
  "\u2581gwastad": 1494,
  "\u2581Penbwrdd": 1495,
  "\u2581running": 1496,
  "\u2581Player": 1497,
  "\u2581Value": 1498,
  "\u2581Rheolwr": 1499,
  "\u2581appointment": 1500,
  "\u2581media": 1501,
  "\u2581wlad": 1502,
  "total": 1503,
  "\u2581Al": 1504,
  "\u2581Sound": 1505,
  "\u2581ffydd": 1506,
  "\u2581Cuddio": 1507,
  "\u2581Am": 1508,
  "\u2581Icon": 1509,
  "\u2581UTF": 1510,
  "\u2581congregation": 1511,
  "\u2581Mount": 1512,
  "\u2581colofn": 1513,
  "\u2581gwag": 1514,
  "\u2581rhag": 1515,
  "All": 1516,
  "\u2581Christians": 1517,
  "\u2581around": 1518,
  "\u2581erbyn": 1519,
  "\u2581plugin": 1520,
  "\u2581mai": 1521,
  "\u2581tasgau": 1522,
  "\u2581update": 1523,
  "and": 1524,
  "\u2581dydd": 1525,
  "\u2581Santa": 1526,
  "\u2581Volume": 1527,
  "\u2581weladwy": 1528,
  "\u2581Log": 1529,
  "\u2581With": 1530,
  "\u2581allow": 1531,
  "),": 1532,
  "ops": 1533,
  "\u2581Status": 1534,
  "\u2581box": 1535,
  "\u2581hunain": 1536,
  "\u2581weithredu": 1537,
  "cyfanswm": 1538,
  "map": 1539,
  "\u2581Action": 1540,
  "\u2581Darllen": 1541,
  "\u2581Editor": 1542,
  "\u2581ddangosir": 1543,
  "\u2581Label": 1544,
  "\u2581http": 1545,
  "\u2581little": 1546,
  "\u2581permanently": 1547,
  "\u2581Beach": 1548,
  "\u2581She": 1549,
  "\u2581Word": 1550,
  "\u2581cau": 1551,
  "\u2581tool": 1552,
  "\u2581bywyd": 1553,
  "\u2581dau": 1554,
  "\u2581cyfarfod": 1555,
  "\u2581gysylltu": 1556,
  "\u2581le": 1557,
  "\u2581Anhysbys": 1558,
  "\u2581Nesaf": 1559,
  "\u2581Source": 1560,
  "\u2581tynnu": 1561,
  "\u2581peidio": 1562,
  "\u2581Unit": 1563,
  "\u2581continue": 1564,
  "\u2581heddiw": 1565,
  "\u2581tabl": 1566,
  "\u2581Zoom": 1567,
  "\u2581caiff": 1568,
  "\u2581details": 1569,
  "\u2581digwydd": 1570,
  "\u2581enough": 1571,
  "\u2581gelli": 1572,
  "\u2581lock": 1573,
  "\u2581main": 1574,
  "\u2581rhagolwg": 1575,
  "os": 1576,
  "\u2581Configure": 1577,
  "\u2581Style": 1578,
  "\u2581benodi": 1579,
  "\u2581buttons": 1580,
  "\u2581Messages": 1581,
  "\u2581focus": 1582,
  "\u2581host": 1583,
  "\u2581let": 1584,
  "ie": 1585,
  "\u2581automatically": 1586,
  "\u2581Read": 1587,
  "\u2581Uchder": 1588,
  "\u2581Web": 1589,
  "\u2581bwysig": 1590,
  "\u2581cyrchu": 1591,
  "\u2581every": 1592,
  "\u2581storfa": 1593,
  "\u2581TRUE": 1594,
  "\u2581Tystysgrif": 1595,
  "\u2581cysylltiadau": 1596,
  "\u2581feddwl": 1597,
  "\u2581why": 1598,
  "\u258116": 1599,
  "\u2581Make": 1600,
  "\u2581See": 1601,
  "\u2581Windows": 1602,
  "\u2581anghywir": 1603,
  "\u2581code": 1604,
  "\u2581hir": 1605,
  "\u2581Penodi": 1606,
  "\u2581Software": 1607,
  "\u2581digwyddiad": 1608,
  "\u2581ffwythiant": 1609,
  "\u2581posib": 1610,
  "\u2581GConf": 1611,
  "\u2581clec": 1612,
  "\u2581grid": 1613,
  "\u2581tell": 1614,
  "\u2581top": 1615,
  "\u2581tra": 1616,
  "\u258121": 1617,
  "\u258130": 1618,
  "\u2581Cyfeiriadau": 1619,
  "\u2581Description": 1620,
  "\u2581allweddi": 1621,
  "\u2581chwaraewyr": 1622,
  "\u2581dewisiad": 1623,
  "\u2581rhydd": 1624,
  "Open": 1625,
  "list": 1626,
  "\u2581Dyma": 1627,
  "\u2581Gwaredu": 1628,
  "\u2581either": 1629,
  "\u2581iaith": 1630,
  "\u2581*": 1631,
  "\u2581Ff\u00f4n": 1632,
  "\u2581Llinell": 1633,
  "\u2581graff": 1634,
  "\u2581pecynnau": 1635,
  "\u2581Awyr": 1636,
  "\u2581Red": 1637,
  "\u2581events": 1638,
  "\u2581job": 1639,
  "\u2581u": 1640,
  "\u2581area": 1641,
  "\u2581diwrnod": 1642,
  "\u2581ifanc": 1643,
  "\u2581re": 1644,
  "\u2581El": 1645,
  "\u2581Audio": 1646,
  "\u2581Job": 1647,
  "\u2581b": 1648,
  "\u2581clipboard": 1649,
  "\u2581gramadegu": 1650,
  "\u2581press": 1651,
  ".]": 1652,
  "et": 1653,
  "\u2581resource": 1654,
  "\u2581today": 1655,
  "9": 1656,
  "\u2581Border": 1657,
  "\u2581Mewn": 1658,
  "\u2581Q": 1659,
  "\u2581analluogi": 1660,
  "\u2581startup": 1661,
  "\u2581Run": 1662,
  "\u2581switch": 1663,
  "\u2581together": 1664,
  "\u2581tudalen": 1665,
  "le": 1666,
  "\u2581Ddim": 1667,
  "\u2581Monitor": 1668,
  "\u2581sicr": 1669,
  "\u2581Diweddaru": 1670,
  "\u2581From": 1671,
  "\u2581Gwe": 1672,
  "\u2581adnodd": 1673,
  "\u2581anodd": 1674,
  "\u2581until": 1675,
  "\u258124": 1676,
  "\u2581Rydy": 1677,
  "\u2581batri": 1678,
  "8": 1679,
  "\u2581frame": 1680,
  "\u2581packages": 1681,
  "org": 1682,
  "\u2581Peter": 1683,
  "\u2581super": 1684,
  "ain": 1685,
  "\u2581bwrdd": 1686,
  "\u2581Gyhoeddus": 1687,
  "\u2581editor": 1688,
  "\u2581eiliad": 1689,
  "\u2581fwyaf": 1690,
  "\u2581started": 1691,
  "\u2581Disable": 1692,
  "\u2581Top": 1693,
  "\u2581against": 1694,
  "\u2581ddewisedig": 1695,
  "\u2581times": 1696,
  "\u2581turn": 1697,
  "\u2581Note": 1698,
  "\u2581handle": 1699,
  "Edit": 1700,
  "\u2581Contacts": 1701,
  "\u2581com": 1702,
  "\u2581rhywbeth": 1703,
  "\u2581Kingdom": 1704,
  "\u2581Totem": 1705,
  "\u2581Would": 1706,
  "\u2581characters": 1707,
  "\u2581maen": 1708,
  "Dangos": 1709,
  "\u2581dylai": 1710,
  "\u2581enwau": 1711,
  "\u2581install": 1712,
  "\u2581loading": 1713,
  "\u2581yno": 1714,
  "\u2581Dywedodd": 1715,
  "\u2581olygu": 1716,
  "\u2581Ewropeaidd": 1717,
  "\u2581ddilys": 1718,
  "\u2581dogfen": 1719,
  "\u2581160;:": 1720,
  "\u2581Cyffredinol": 1721,
  "\u2581GroupWise": 1722,
  "\u2581Rock": 1723,
  "\u2581adnabod": 1724,
  "\u2581per": 1725,
  "\u2581proses": 1726,
  "oedd": 1727,
  "\u2581bookmarks": 1728,
  "\u2581llwybr": 1729,
  "\u2581table": 1730,
  "\u2581printer": 1731,
  "name": 1732,
  "\u2581Application": 1733,
  "\u2581Blwch": 1734,
  "\u2581mark": 1735,
  "\u2581mouse": 1736,
  "\u2581place": 1737,
  "\u2581sgema": 1738,
  "See": 1739,
  "\u2581...": 1740,
  "\u2581Gwaith": 1741,
  "\u2581llygoden": 1742,
  "\u2581navigation": 1743,
  "\u2581trwy": 1744,
  "\u2581ysbrydol": 1745,
  "\u2581cell": 1746,
  "\u2581llun": 1747,
  "\u2581low": 1748,
  "\u2581path": 1749,
  "\u2581plant": 1750,
  "\u2581result": 1751,
  "\u2581active": 1752,
  "0": 1753,
  "\u258113": 1754,
  "\u2581applet": 1755,
  "\u2581great": 1756,
  "\u2581receive": 1757,
  "\u2581ailgychwyn": 1758,
  "\u2581came": 1759,
  "\u2581gynulleidfa": 1760,
  "\u2581penderfynu": 1761,
  "\u2581\u2022": 1762,
  "\u2581Ch": 1763,
  "\u2581botymau": 1764,
  "\u2581lled": 1765,
  "\u2581Dydd": 1766,
  "\u2581hour": 1767,
  "\u2581once": 1768,
  "Gweler": 1769,
  "\u2581Cyflwr": 1770,
  "\u2581Golygydd": 1771,
  "\u2581barhau": 1772,
  "\u2581ddau": 1773,
  "\u2581lliwiau": 1774,
  "\u2581point": 1775,
  "7": 1776,
  "\u2581Hide": 1777,
  "\u2581article": 1778,
  "\u2581score": 1779,
  "\u2581Allwedd": 1780,
  "\u2581complete": 1781,
  "\u2581nes": 1782,
  "at": 1783,
  "\u2581broses": 1784,
  "\u2581byddwch": 1785,
  "\u2581fi": 1786,
  "\u2581protocol": 1787,
  "\u2581wahanol": 1788,
  "\u2581{0}": 1789,
  "\u2581Manylion": 1790,
  "\u2581Marcio": 1791,
  "\u2581away": 1792,
  "\u2581parents": 1793,
  "\u2581Member": 1794,
  "\u2581SSL": 1795,
  "\u2581rhywun": 1796,
  "\u2581doing": 1797,
  "\u2581bookmark": 1798,
  "\u2581trying": 1799,
  "\u2581young": 1800,
  "Read": 1801,
  "\u2581Bysellfap": 1802,
  "\u2581erthygl": 1803,
  "\u2581mwyaf": 1804,
  "\u2581rows": 1805,
  "\u2581spirit": 1806,
  "\u2581U": 1807,
  "\u2581nawr": 1808,
  "\u2581Be": 1809,
  "\u2581Puerto": 1810,
  "\u2581Statws": 1811,
  "\u2581ca": 1812,
  "\u2581cof": 1813,
  "\u2581MIME": 1814,
  "\u2581affect": 1815,
  "\u2581amdano": 1816,
  "\u2581modify": 1817,
  "\u2581Cychwyn": 1818,
  "\u2581Springs": 1819,
  "\u2581wythnos": 1820,
  "\u2581digwyddiadau": 1821,
  "\u2581terfynell": 1822,
  "Newydd": 1823,
  "\u2581Clirio": 1824,
  "\u2581Islands": 1825,
  "\u2581llaw": 1826,
  "\u2581wrong": 1827,
  "\u2581Mahjongg": 1828,
  "\u2581response": 1829,
  "\u2581rhifau": 1830,
  "\u2581database": 1831,
  "\u2581flat": 1832,
  "\u2581hide": 1833,
  "\u2581Control": 1834,
  "\u2581Fformat": 1835,
  "\u2581Llyfr": 1836,
  "\u2581arian": 1837,
  "\u2581cop\u00efo": 1838,
  "\u2581rhaglenni": 1839,
  "www": 1840,
  "\u2581Light": 1841,
  "\u2581Loading": 1842,
  "\u2581rhaglennig": 1843,
  "\u258117": 1844,
  "\u2581=": 1845,
  "\u2581Account": 1846,
  "\u2581Analluogi": 1847,
  "\u2581Eicon": 1848,
  "\u2581Gyffredinol": 1849,
  "\u2581hapus": 1850,
  "\u2581players": 1851,
  "\u2581teulu": 1852,
  "\u2581Character": 1853,
  "\u2581cartref": 1854,
  "\u2581hawl": 1855,
  "\u2581olaf": 1856,
  "\u2581CJK": 1857,
  "\u2581blociau": 1858,
  "\u2581gorau": 1859,
  "\u2581large": 1860,
  "\u2581opening": 1861,
  "View": 1862,
  "\u2581Then": 1863,
  "\u2581Empty": 1864,
  "\u2581ffwrdd": 1865,
  "\u2581gau": 1866,
  "\u2581review": 1867,
  "%%)": 1868,
  "ISO": 1869,
  "\u2581Ab": 1870,
  "\u2581Phone": 1871,
  "\u2581appear": 1872,
  "\u2581cylch": 1873,
  "\u2581launch": 1874,
  "\u2581non": 1875,
  "\u2581schema": 1876,
  "\u2581updates": 1877,
  "for": 1878,
  "\u2581Digwyddod": 1879,
  "\u2581bottom": 1880,
  "Ychwanegu": 1881,
  "only": 1882,
  "\u2581dynnu": 1883,
  "\u2581problem": 1884,
  "\u2581wyt": 1885,
  "Cadw": 1886,
  "\u2581Puzzle": 1887,
  "\u2581byrlwybr": 1888,
  "\u2581effeithio": 1889,
  "\u2581kind": 1890,
  "razil": 1891,
  "\u2581Dad": 1892,
  "\u2581End": 1893,
  "\u2581Moses": 1894,
  "\u2581Tasg": 1895,
  "\u2581Workspace": 1896,
  "\u2581live": 1897,
  "\u2581pryd": 1898,
  "\u2581though": 1899,
  "field": 1900,
  "\u2581David": 1901,
  "\u2581ROMEO": 1902,
  "\u2581Toggle": 1903,
  "\u2581agwedd": 1904,
  "\u2581diwedd": 1905,
  "\u2581room": 1906,
  "\u2581sail": 1907,
  "\u2581yet": 1908,
  "\u2581Format": 1909,
  "\u2581Weather": 1910,
  "\u2581due": 1911,
  "\u2581standard": 1912,
  "\u25813.": 1913,
  "\u2581Tabl": 1914,
  "\u2581effect": 1915,
  "\u2581flag": 1916,
  "\u2581second": 1917,
  "\u2581Abraham": 1918,
  "\u2581Nod": 1919,
  "\u2581Up": 1920,
  "\u2581teleport": 1921,
  "\u2581Dafydd": 1922,
  "\u2581Previous": 1923,
  "\u2581Task": 1924,
  "\u2581clipfwrdd": 1925,
  "\u2581correct": 1926,
  "\u2581Fersiwn": 1927,
  "\u2581Full": 1928,
  "\u2581colors": 1929,
  "\u2581porwr": 1930,
  "\u2581regular": 1931,
  "\u2581union": 1932,
  "Add": 1933,
  "\u2581Dechrau": 1934,
  "\u2581both": 1935,
  "\u2581defnydd": 1936,
  "\u2581earth": 1937,
  "\u2581getting": 1938,
  "\u2581himself": 1939,
  "\u25810.": 1940,
  "\u2581achosi": 1941,
  "\u2581amgryptio": 1942,
  "\u2581arddull": 1943,
  "\u2581Dewisiadau": 1944,
  "\u2581EU": 1945,
  "\u2581aml": 1946,
  "\u2581cymryd": 1947,
  "\u2581honno": 1948,
  "\u2581sort": 1949,
  "\u2581Memo": 1950,
  "\u2581More": 1951,
  "\u2581White": 1952,
  "\u2581bell": 1953,
  "\u2581cyrchwr": 1954,
  "\u2581dydy": 1955,
  "\u2581heart": 1956,
  "\u2581sero": 1957,
  "Use": 1958,
  "\u2581Nodau": 1959,
  "\u2581call": 1960,
  "\u2581disabled": 1961,
  "\u2581goll": 1962,
  "\u2581hard": 1963,
  "\u2581isel": 1964,
  "\u2581safonol": 1965,
  "\u2581slot": 1966,
  "\u2581trefnu": 1967,
  "\u2581Christian": 1968,
  "\u2581Colofn": 1969,
  "\u2581hope": 1970,
  "\u2581lansio": 1971,
  "\u2581light": 1972,
  "do": 1973,
  "province": 1974,
  "\u2581My": 1975,
  "\u2581along": 1976,
  "\u2581radio": 1977,
  "\u2581wait": 1978,
  "\u2581werth": 1979,
  "fodd": 1980,
  "\u2581Theme": 1981,
  "\u2581faint": 1982,
  "{0}": 1983,
  "\u2581Australia": 1984,
  "\u2581Gregor": 1985,
  "\u2581content": 1986,
  "\u2581golofn": 1987,
  "\u2581osgoi": 1988,
  "\u2581golygydd": 1989,
  "\u2581gwerthoedd": 1990,
  "\u2581gwir": 1991,
  "\u2581ones": 1992,
  "Darllen": 1993,
  "est": 1994,
  "\u258112:": 1995,
  "\u2581Co": 1996,
  "\u2581Or": 1997,
  "\u2581received": 1998,
  "\u2581vertical": 1999,
  "\u2581year": 2000,
  "Windows": 2001,
  "ur": 2002,
  "\u2581Konqueror": 2003,
  "\u2581Preview": 2004,
  "\u2581Rhwydwaith": 2005,
  "\u2581Tali": 2006,
  "\u2581dilysu": 2007,
  "K": 2008,
  "\u2581Manager": 2009,
  "\u2581XDMCP": 2010,
  "\u2581digon": 2011,
  "\u2581Daniel": 2012,
  "\u2581Du": 2013,
  "\u2581k": 2014,
  "\u2581men": 2015,
  "\u2581uchaf": 2016,
  "\u2581Details": 2017,
  "\u2581Gweler": 2018,
  "\u2581Llefaru": 2019,
  "\u2581Yna": 2020,
  "\u2581beidio": 2021,
  "\u2581orchymyn": 2022,
  "\u2581proxy": 2023,
  "\u2581request": 2024,
  "Cop\u00efo": 2025,
  "\u2581(\"": 2026,
  "\u2581Side": 2027,
  "\u2581ddaear": 2028,
  "\u2581expected": 2029,
  "\u2581playing": 2030,
  "\u2581sillafu": 2031,
  "\u2581thing": 2032,
  "\u2581users": 2033,
  "\u2581v": 2034,
  "\u2581DVD": 2035,
  "\u2581Express": 2036,
  "\u2581Stop": 2037,
  "\u2581numbers": 2038,
  "\u2581\u00d4l": 2039,
  "\u2581SMTP": 2040,
  "\u2581agored": 2041,
  "\u2581best": 2042,
  "\u2581sylw": 2043,
  "\u2581Cape": 2044,
  "\u2581deg": 2045,
  "\u2581done": 2046,
  "\u2581fonts": 2047,
  "\u2581quit": 2048,
  "\u2581rheolwr": 2049,
  "Nesaf": 2050,
  "\u258122": 2051,
  "\u25815.": 2052,
  "\u2581dilysiant": 2053,
  "\u2581robotiaid": 2054,
  "\u2581serve": 2055,
  "\u2581told": 2056,
  "Delete": 2057,
  "ka": 2058,
  "\u2581Book": 2059,
  "\u2581Safle": 2060,
  "\u2581achos": 2061,
  "\u2581islaw": 2062,
  "\")": 2063,
  "The": 2064,
  "wneud": 2065,
  "\u2581Digwyddiad": 2066,
  "\u2581administrator": 2067,
  "\u2581ehangu": 2068,
  "edig": 2069,
  "se": 2070,
  "\u258125": 2071,
  "\u2581High": 2072,
  "\u2581happy": 2073,
  "\u2581llenwi": 2074,
  "\u2581notification": 2075,
  "\u2581sgrolio": 2076,
  "GenericName": 2077,
  "Mac": 2078,
  "\u2581Addasedig": 2079,
  "\u2581Greek": 2080,
  "\u2581King": 2081,
  "\u2581caniat\u00e2d": 2082,
  "\u2581edit": 2083,
  "\u2581restart": 2084,
  "Cynnwys": 2085,
  "time": 2086,
  "\u2581East": 2087,
  "\u2581Llofnod": 2088,
  "\u2581Maximum": 2089,
  "\u2581Ym": 2090,
  "\u2581argraffydd": 2091,
  "\u2581asked": 2092,
  "\u2581determine": 2093,
  "\u2581gave": 2094,
  "\u2581geisio": 2095,
  "W": 2096,
  "\u2581Cell": 2097,
  "\u2581ardal": 2098,
  "\u2581galluogi": 2099,
  "\u2581gwirio": 2100,
  "\u2581hint": 2101,
  "\u2581saving": 2102,
  "\u2581web": 2103,
  "\u25814.": 2104,
  "\u2581DPI": 2105,
  "\u2581Pedr": 2106,
  "\u2581during": 2107,
  "\u2581hysbysu": 2108,
  "\u2581progress": 2109,
  "\u2581troi": 2110,
  "\u2581week": 2111,
  "Help": 2112,
  "Save": 2113,
  "go": 2114,
  "\u2581Configuration": 2115,
  "\u2581adnewyddu": 2116,
  "\u2581mod": 2117,
  "\u2581pos": 2118,
  "\u2581reminder": 2119,
  "\u2581rheoli": 2120,
  "nt": 2121,
  "\u2581Gr\u0175p": 2122,
  "\u2581J": 2123,
  "\u2581Position": 2124,
  "\u2581weithio": 2125,
  "\u2581gwbl": 2126,
  "\u2581ohono": 2127,
  "\u2581security": 2128,
  "Agor": 2129,
  "\u2581Chi": 2130,
  "\u2581Did": 2131,
  "\u2581Export": 2132,
  "\u2581MB": 2133,
  "\u2581Map": 2134,
  "\u2581cache": 2135,
  "\u2581fyw": 2136,
  "\u2581gwe": 2137,
  "\u2581method": 2138,
  "\u2581About": 2139,
  "\u2581Ioan": 2140,
  "\u2581Pos": 2141,
  "\u2581Replace": 2142,
  "\u2581brother": 2143,
  "\u2581follow": 2144,
  "\u2581mewnol": 2145,
  "\u2581thought": 2146,
  "\u2581truth": 2147,
  "!'": 2148,
  "\u2581Defnyddiwch": 2149,
  "\u2581alarm": 2150,
  "\u2581colli": 2151,
  "\u2581death": 2152,
  "\u2581reason": 2153,
  "\u2581rwy": 2154,
  "\u2581Christ": 2155,
  "\u2581accept": 2156,
  "\u2581pam": 2157,
  "Dileu": 2158,
  "\u2581caru": 2159,
  "\u2581expect": 2160,
  "ant": 2161,
  "\u25812)": 2162,
  "\u2581Amnewid": 2163,
  "\u2581Gelli": 2164,
  "\u2581Groeg": 2165,
  "\u2581Menu": 2166,
  "\u2581Nibbles": 2167,
  "\u2581encoding": 2168,
  "\u2581filename": 2169,
  "\u2581gwael": 2170,
  "\u2581relative": 2171,
  "+.": 2172,
  "safe": 2173,
  "\u2581Always": 2174,
  "\u2581Gweithred": 2175,
  "\u2581Gwneu": 2176,
  "\u2581Internet": 2177,
  "\u2581Tar": 2178,
  "\u2581defined": 2179,
  "\u2581disg": 2180,
  "\u2581fill": 2181,
  "\u2581wedyn": 2182,
  "\u2581went": 2183,
  "Cymorth": 2184,
  "de": 2185,
  "\u2581V": 2186,
  "\u2581least": 2187,
  "\u2581pen": 2188,
  "fed": 2189,
  "\u2581Gweithredu": 2190,
  "\u2581Last": 2191,
  "\u2581Thema": 2192,
  "\u2581diweddaru": 2193,
  "\u2581hand": 2194,
  "\u2581rhieni": 2195,
  "\u2581stop": 2196,
  "\u2581wants": 2197,
  "ngl\u0177n": 2198,
  "\u2581Chwith": 2199,
  "\u2581Diddymu": 2200,
  "\u2581Grand": 2201,
  "\u2581Yma": 2202,
  "\u2581gwirionedd": 2203,
  "\u2581rename": 2204,
  "X": 2205,
  "destun": 2206,
  "\u2581arferol": 2207,
  "\u2581barhaol": 2208,
  "\u2581golau": 2209,
  "\u25817.": 2210,
  "\u2581Ffurfweddu": 2211,
  "\u2581chwyddo": 2212,
  "\u2581course": 2213,
  "\u2581destination": 2214,
  "UTF": 2215,
  "\u25818.": 2216,
  "\u2581Gludo": 2217,
  "\u2581Gogledd": 2218,
  "\u2581Rhagosodedig": 2219,
  "\u2581above": 2220,
  "\u2581baptized": 2221,
  "\u2581dyfodol": 2222,
  "\u2581gallai": 2223,
  "\u2581lost": 2224,
  "\u2581whatsthis": 2225,
  "all": 2226,
  "\u2581Cysylltu": 2227,
  "\u2581Field": 2228,
  "\u2581PNG": 2229,
  "\u2581Paste": 2230,
  "\u2581llofnod": 2231,
  "\u2581sir": 2232,
  "\u2581wish": 2233,
  "\u2581writing": 2234,
  "\u2581Romeo": 2235,
  "\u2581Terminal": 2236,
  "\u2581avoid": 2237,
  "\u2581card": 2238,
  "\u2581cysylltion": 2239,
  "\u2581dystysgrif": 2240,
  "\u2581tri": 2241,
  "\u2581ychwanegol": 2242,
  "\u2581Arferol": 2243,
  "\u2581Rhybudd": 2244,
  "\u2581astudio": 2245,
  "\u2581ati": 2246,
  "\u2581law": 2247,
  "\u2581Central": 2248,
  "\u2581Device": 2249,
  "\u2581Pine": 2250,
  "\u2581Possible": 2251,
  "\u2581arwain": 2252,
  "\u2581installation": 2253,
  "\u2581llorweddol": 2254,
  "\u2581played": 2255,
  "\u2581pregethu": 2256,
  "\u2581upon": 2257,
  "land": 2258,
  "\u2581Alt": 2259,
  "\u2581Column": 2260,
  "\u2581Dogfennau": 2261,
  "\u2581Here": 2262,
  "\u2581Local": 2263,
  "\u2581Me": 2264,
  "\u2581Mi": 2265,
  "\u2581dywedodd": 2266,
  "\u2581ffrindiau": 2267,
  "\u2581llai": 2268,
  "\u2581modified": 2269,
  "\u2581Inc": 2270,
  "\u2581Keep": 2271,
  "\u2581atodi": 2272,
  "\u2581blaenorol": 2273,
  "\u2581ddyfais": 2274,
  "\u2581eiliadau": 2275,
  "\u2581ofyn": 2276,
  "as": 2277,
  "italy": 2278,
  "\u2581\"{0}.\"": 2279,
  "\u2581Gorffenn": 2280,
  "\u2581Model": 2281,
  "\u2581Out": 2282,
  "\u2581better": 2283,
  "\u2581called": 2284,
  "\u2581going": 2285,
  "\u2581head": 2286,
  "\u2581larwm": 2287,
  "\u2581results": 2288,
  "\u2581syr": 2289,
  "\u2581vCard": 2290,
  "\u2581Connection": 2291,
  "\u2581Gwerthoedd": 2292,
  "\u2581Gwnaeth": 2293,
  "\u2581body": 2294,
  "\u2581cais": 2295,
  "\u2581esiampl": 2296,
  "af": 2297,
  "com": 2298,
  "of": 2299,
  "\u2581Chwaraewr": 2300,
  "\u2581Scores": 2301,
  "\u2581face": 2302,
  "\u2581gyrchu": 2303,
  "\u2581nodyn": 2304,
  "\u2581total": 2305,
  "\u2581fan": 2306,
  "by": 2307,
  "\u258110:": 2308,
  "\u2581Boston": 2309,
  "\u2581Login": 2310,
  "\u2581addasu": 2311,
  "\u2581working": 2312,
  "Copy": 2313,
  "\u2581Atal": 2314,
  "\u2581Jeeves": 2315,
  "\u2581completed": 2316,
  "\u2581maent": 2317,
  "To": 2318,
  "fa": 2319,
  "\u2581Normal": 2320,
  "\u2581Object": 2321,
  "\u2581These": 2322,
  "\u2581arfer": 2323,
  "\u2581llyfrnod": 2324,
  "\u2581wanted": 2325,
  "10": 2326,
  "\u258111:": 2327,
  "\u2581Mynegi": 2328,
  "\u2581Trwydded": 2329,
  "\u2581board": 2330,
  "\u2581door": 2331,
  "\u2581human": 2332,
  "\u2581ysbryd": 2333,
  "\u2581Antarctica": 2334,
  "\u2581Atodiad": 2335,
  "\u2581However": 2336,
  "\u2581Oherwydd": 2337,
  "\u2581Selection": 2338,
  "\u2581Shift": 2339,
  "\u2581Specify": 2340,
  "\u2581atal": 2341,
  "\u2581chaniateir": 2342,
  "\u2581fywyd": 2343,
  "\u2581headers": 2344,
  "ad": 2345,
  "enwi": 2346,
  "net": 2347,
  "\u2581Cefndir": 2348,
  "\u2581Rhedeg": 2349,
  "\u2581arbenni": 2350,
  "\u2581argument": 2351,
  "\u2581attachment": 2352,
  "\u2581difficult": 2353,
  "\u2581drop": 2354,
  "\u2581dylid": 2355,
  "\u2581loaded": 2356,
  "\u2581moving": 2357,
  "\u2581needed": 2358,
  "\u2581ran": 2359,
  "\u258128": 2360,
  "\u2581Directory": 2361,
  "\u2581gwasanaethu": 2362,
  "\u2581gyfeiriadur": 2363,
  "\u2581recipients": 2364,
  "\u2581synau": 2365,
  "\u2581weithfan": 2366,
  "\u2581Forward": 2367,
  "\u2581rhagosodiad": 2368,
  "\u2581Ategyn": 2369,
  "\u2581Don": 2370,
  "\u2581Jabber": 2371,
  "\u2581MSN": 2372,
  "\u2581MA": 2373,
  "\u2581Toolbar": 2374,
  "\u2581gwlad": 2375,
  "\u2581mean": 2376,
  "\u2581someone": 2377,
  "\u2581Load": 2378,
  "\u2581Sudoku": 2379,
  "\u2581faithful": 2380,
  "\u2581gyfrinair": 2381,
  "\u2581restr": 2382,
  "\u2581small": 2383,
  "ent": 2384,
  "\u2581Gyda": 2385,
  "\u2581Klotski": 2386,
  "\u2581Remote": 2387,
  "\u2581Vertical": 2388,
  "\u2581apply": 2389,
  "\u2581naill": 2390,
  "\u2581needs": 2391,
  "\u2581trefn": 2392,
  "\u2581Aelod": 2393,
  "\u2581Estynedig": 2394,
  "\u2581chwiliad": 2395,
  "\u2581ngh": 2396,
  "\u2581peace": 2397,
  "\u2581port": 2398,
  "neu": 2399,
  "town": 2400,
  "\u2581Hidlo": 2401,
  "\u2581Subject": 2402,
  "\u2581moved": 2403,
  "\u2581unexpectedly": 2404,
  "\u2581Doedd": 2405,
  "\u2581Fideo": 2406,
  "\u2581Video": 2407,
  "\u2581Yahoo": 2408,
  "\u2581began": 2409,
  "\u2581b\u0175er": 2410,
  "\u2581hours": 2411,
  "\u2581lladd": 2412,
  "\u2581Gwelydd": 2413,
  "\u2581Now": 2414,
  "\u2581direction": 2415,
  "\u2581range": 2416,
  "!!": 2417,
  "sville": 2418,
  "view": 2419,
  "\u2581Authentication": 2420,
  "\u2581Ffenest": 2421,
  "\u2581Help": 2422,
  "\u2581Symbolau": 2423,
  "\u2581Tetravex": 2424,
  "\u2581Ynysoedd": 2425,
  "\u2581drws": 2426,
  "\u2581munud": 2427,
  "\u2581necessary": 2428,
  "\u2581present": 2429,
  "mode": 2430,
  "\u2581Gair": 2431,
  "\u2581ailenwi": 2432,
  "\u2581ddeialog": 2433,
  "\u2581disable": 2434,
  "\u2581domain": 2435,
  "\u2581popeth": 2436,
  "\u2581usage": 2437,
  "iadau": 2438,
  "\u258126": 2439,
  "\u2581Allow": 2440,
  "\u2581Back": 2441,
  "\u2581Frame": 2442,
  "\u2581Gwrthrych": 2443,
  "\u2581Le": 2444,
  "\u2581Robotiaid": 2445,
  "\u2581Street": 2446,
  "\u2581car": 2447,
  "\u2581easy": 2448,
  "\u2581night": 2449,
  "\u2581stay": 2450,
  "\u2581trust": 2451,
  "\u2581Ffynhonnell": 2452,
  "\u2581Profile": 2453,
  "\u2581Quit": 2454,
  "\u2581context": 2455,
  "\u2581hoffterau": 2456,
  "\u2581named": 2457,
  "\u2581sawl": 2458,
  "\u2581warning": 2459,
  "\u2581Awtomatig": 2460,
  "\u2581Blygell": 2461,
  "\u2581Deyrnas": 2462,
  "\u2581Mar": 2463,
  "\u2581Rhagolwg": 2464,
  "\u2581Sort": 2465,
  "\u2581cyfan": 2466,
  "\u2581dad": 2467,
  "\u2581leiaf": 2468,
  "\u2581llyfrnodau": 2469,
  "\u2581sisters": 2470,
  "da": 2471,
  "it": 2472,
  "\u2581Cyrillic": 2473,
  "\u2581Fath": 2474,
  "\u2581Lawr": 2475,
  "\u2581Package": 2476,
  "\u2581Sg\u00f4r": 2477,
  "\u2581columns": 2478,
  "\u2581cyfesur": 2479,
  "\u2581drive": 2480,
  "\u2581flaen": 2481,
  "\u2581hawdd": 2482,
  "\u2581hidlo": 2483,
  "\u2581reoli": 2484,
  "\u2581since": 2485,
  "\u2581study": 2486,
  "\u2581temporary": 2487,
  "List": 2488,
  "\u2581Bysellfwrdd": 2489,
  "\u2581Id": 2490,
  "\u2581Tywydd": 2491,
  "\u2581dab": 2492,
  "\u2581documents": 2493,
  "\u2581hidden": 2494,
  "\u2581less": 2495,
  "\u2581provided": 2496,
  "\u2581random": 2497,
  "\u2581zoom": 2498,
  "america": 2499,
  "\u2581Harbor": 2500,
  "\u2581Large": 2501,
  "\u2581Rhyngrwyd": 2502,
  "\u2581Saw": 2503,
  "\u2581Witnesses": 2504,
  "\u2581ddigon": 2505,
  "\u2581father": 2506,
  "EMAIL": 2507,
  "\u2581Dylai": 2508,
  "\u2581Lliwiau": 2509,
  "\u2581UE": 2510,
  "\u2581dynol": 2511,
  "\u2581uwch": 2512,
  "://": 2513,
  "Ail": 2514,
  "man": 2515,
  "\u2581Coordinate": 2516,
  "\u2581Cor": 2517,
  "\u2581George": 2518,
  "\u2581Horizontal": 2519,
  "\u2581Rename": 2520,
  "\u2581Tag": 2521,
  "\u2581component": 2522,
  "\u2581printing": 2523,
  "\u2581puzzle": 2524,
  "\u2581symbolaidd": 2525,
  "-1": 2526,
  "\u2581Browser": 2527,
  "\u2581Iaith": 2528,
  "\u2581KMail": 2529,
  "\u2581Man": 2530,
  "\u2581Na": 2531,
  "\u2581Sgoriau": 2532,
  "\u2581Supplement": 2533,
  "\u2581dasgau": 2534,
  "\"?": 2535,
  "Cau": 2536,
  "asia": 2537,
  "tmon": 2538,
  "\u2581Adfer": 2539,
  "\u2581After": 2540,
  "\u2581Down": 2541,
  "\u2581None": 2542,
  "\u2581Trefnu": 2543,
  "\u2581bethau": 2544,
  "\u2581credu": 2545,
  "\u2581far": 2546,
  "\u2581kyfieithu": 2547,
  "\u2581missing": 2548,
  "\u2581rai": 2549,
  "\u2581rhesi": 2550,
  "\u2581seibio": 2551,
  "\u2581thou": 2552,
  "\u2581white": 2553,
  "up": 2554,
  "\u2581Flo": 2555,
  "\u2581Plain": 2556,
  "\u2581Unig": 2557,
  "\u2581newyddion": 2558,
  "\u2581single": 2559,
  "out": 2560,
  "\u258112.": 2561,
  "\u2581Artist": 2562,
  "\u2581Restart": 2563,
  "\u2581Update": 2564,
  "\u2581bad": 2565,
  "\u2581unigol": 2566,
  "object": 2567,
  "\u2581Hefyd": 2568,
  "\u2581creating": 2569,
  "\u2581gwrthod": 2570,
  "\u2581preaching": 2571,
  "\u2581report": 2572,
  "rwyt": 2573,
  "usa": 2574,
  "\u2581Allforio": 2575,
  "\u2581Because": 2576,
  "\u2581Black": 2577,
  "\u2581HTTP": 2578,
  "\u2581Include": 2579,
  "\u2581Kind": 2580,
  "\u2581bug": 2581,
  "\u2581dylen": 2582,
  "\u2581gweinyddwr": 2583,
  "\u2581hawliau": 2584,
  "\u2581lawn": 2585,
  "\u2581notes": 2586,
  "\u2581nothing": 2587,
  "\u2581sefyllfa": 2588,
  "\u2581bellach": 2589,
  "\u2581ever": 2590,
  "\u2581guddio": 2591,
  "\u2581imi": 2592,
  "\u2581query": 2593,
  "\u2581syth": 2594,
  "%%": 2595,
  "ta": 2596,
  "\u258127": 2597,
  "\u2581Grande": 2598,
  "\u2581Row": 2599,
  "\u2581Toglu": 2600,
  "\u2581cydweddu": 2601,
  "\u2581echo": 2602,
  "\u2581etc": 2603,
  "\u2581ganddo": 2604,
  "\u2581gyfan": 2605,
  "\u2581gyfrol": 2606,
  "\u2581isod": 2607,
  "\u2581removed": 2608,
  "\u2581wnewch": 2609,
  "sh": 2610,
  "\u2581Cyfeiriadur": 2611,
  "\u2581Mewngofnodi": 2612,
  "\u2581PNM": 2613,
  "\u2581Specifie": 2614,
  "\u2581ddisg": 2615,
  "\u2581mewnbwn": 2616,
  "\u2581Get": 2617,
  "\u2581Israel": 2618,
  "\u2581chwaer": 2619,
  "\u2581money": 2620,
  "\u2581pwysig": 2621,
  "About": 2622,
  "\u2581Base": 2623,
  "\u2581Park": 2624,
  "\u2581Si": 2625,
  "\u2581Solomon": 2626,
  "\u2581Symbols": 2627,
  "\u2581backup": 2628,
  "\u2581block": 2629,
  "\u2581bysell": 2630,
  "\u2581dirprwy": 2631,
  "\u2581false": 2632,
  "\u2581farw": 2633,
  "\u2581parent": 2634,
  "\u2581requested": 2635,
  "\u2581spiritual": 2636,
  "\u2581wasanaethu": 2637,
  "Show": 2638,
  "der": 2639,
  "\u258131": 2640,
  "\u2581Airport": 2641,
  "\u2581Bad": 2642,
  "\u2581Cyflymder": 2643,
  "\u2581gen": 2644,
  "\u2581gnome": 2645,
  "\u2581lawer": 2646,
  "\u2581prc": 2647,
  "\u2581questions": 2648,
  "\u2581subject": 2649,
  "Chwilio": 2650,
  "V": 2651,
  "\u2581Lladin": 2652,
  "\u2581PackageKit": 2653,
  "\u2581Popeth": 2654,
  "\u2581Printer": 2655,
  "\u2581Rhagosodiad": 2656,
  "\u2581anything": 2657,
  "\u2581rheolaidd": 2658,
  "\u2581sgr\u00eenlun": 2659,
  "\u2581whole": 2660,
  "\u2581ymyl": 2661,
  "Move": 2662,
  "\u2581%1.": 2663,
  "\u2581Applet": 2664,
  "\u2581Junk": 2665,
  "\u2581Unexpected": 2666,
  "\u2581Union": 2667,
  "\u2581allanol": 2668,
  "\u2581daeth": 2669,
  "\u2581execute": 2670,
  "\u2581gollwng": 2671,
  "\u2581making": 2672,
  "\u2581neilltuo": 2673,
  "\u2581proffil": 2674,
  "\u2581strong": 2675,
  "ussia": 2676,
  "\u2581(2": 2677,
  "\u2581Station": 2678,
  "\u2581equals": 2679,
  "\u2581exit": 2680,
  "\u2581forward": 2681,
  "\u2581gof": 2682,
  "\u2581lex": 2683,
  "\u2581mewnforio": 2684,
  "\u2581properties": 2685,
  "Next": 2686,
  "\\": 2687,
  "\u258123": 2688,
  "\u2581Cristnogion": 2689,
  "\u2581LexUriServ": 2690,
  "\u2581Lock": 2691,
  "\u2581allwch": 2692,
  "\u2581amlapio": 2693,
  "\u2581angenrheidiol": 2694,
  "\u2581became": 2695,
  "\u2581brif": 2696,
  "\u2581gronfa": 2697,
  "\u2581normal": 2698,
  "\u2581preferences": 2699,
  "\u2581rather": 2700,
  "\u2581rhybudd": 2701,
  "q": 2702,
  "\u2581busy": 2703,
  "\u2581consider": 2704,
  "\u2581created": 2705,
  "\u2581dyma": 2706,
  "\u2581gam": 2707,
  "ai": 2708,
  "ies": 2709,
  "\u2581Di": 2710,
  "\u2581Let": 2711,
  "\u2581felt": 2712,
  "\u2581gwreiddiol": 2713,
  "\u2581gynnal": 2714,
  "\u2581henuriaid": 2715,
  "\u2581provide": 2716,
  "\u2581robots": 2717,
  "\u2581speed": 2718,
  "\u2581ynddi": 2719,
  "\u2581ystafell": 2720,
  "U": 2721,
  "urope": 2722,
  "\u2581Green": 2723,
  "\u2581Gtk": 2724,
  "\u2581Two": 2725,
  "\u2581games": 2726,
  "\u2581gwmpas": 2727,
  "\u2581servers": 2728,
  "\u2581specific": 2729,
  "\u2581terfynu": 2730,
  "ach": 2731,
  "\u2581Day": 2732,
  "\u2581Ehangu": 2733,
  "\u2581Restore": 2734,
  "\u2581USA": 2735,
  "\u2581accounts": 2736,
  "\u2581actions": 2737,
  "\u2581client": 2738,
  "\u2581entire": 2739,
  "\u2581roedden": 2740,
  "ter": 2741,
  "\u2581Atlantic": 2742,
  "\u2581Marc": 2743,
  "\u2581Meddalwedd": 2744,
  "\u2581caniat\u00e1u": 2745,
  "\u2581certain": 2746,
  "\u2581few": 2747,
  "\u2581sister": 2748,
  "\u2581tree": 2749,
  "\u2581\"%1\"": 2750,
  "\u25816.": 2751,
  "\u2581Even": 2752,
  "\u2581Searching": 2753,
  "\u2581Tystysgrifau": 2754,
  "\u2581clear": 2755,
  "\u2581colofnau": 2756,
  "\u2581ended": 2757,
  "\u2581heaven": 2758,
  "\u2581personal": 2759,
  "\u2581picture": 2760,
  "Find": 2761,
  "Symud": 2762,
  "\u258110.": 2763,
  "\u258151": 2764,
  "\u2581Addasu": 2765,
  "\u2581Dewislen": 2766,
  "\u2581Sganio": 2767,
  "\u2581ffocws": 2768,
  "\u2581shell": 2769,
  "\u2581storio": 2770,
  "\u2581within": 2771,
  "burg": 2772,
  "\u2581Cysylltiadau": 2773,
  "\u2581Mawr": 2774,
  "\u2581containing": 2775,
  "\u2581drwg": 2776,
  "\u2581ers": 2777,
  "\u2581knew": 2778,
  "\u2581layout": 2779,
  "if": 2780,
  "\u2581Western": 2781,
  "\u2581backend": 2782,
  "\u2581class": 2783,
  "\u2581known": 2784,
  "\u2581remember": 2785,
  "\u2581viewer": 2786,
  "oftware": 2787,
  "\u25813,": 2788,
  "\u2581May": 2789,
  "\u2581Prif": 2790,
  "\u2581Viewer": 2791,
  "\u2581arlunio": 2792,
  "\u2581nodiadau": 2793,
  "\u2581store": 2794,
  "\u2581ystyried": 2795,
  "\u2581Meddai": 2796,
  "\u2581Try": 2797,
  "\u2581ddilyn": 2798,
  "\u2581future": 2799,
  "\u2581gemau": 2800,
  "\u2581mynegiant": 2801,
  "\u2581perthyn": 2802,
  "\u2581post": 2803,
  "\u2581tiles": 2804,
  "\u2581won": 2805,
  "Peidi": 2806,
  "ac": 2807,
  "gt": 2808,
  "la": 2809,
  "\u2581Amgodiad": 2810,
  "\u2581Automatic": 2811,
  "\u2581Cyflym": 2812,
  "\u2581JB": 2813,
  "\u2581heddwch": 2814,
  "\u2581iti": 2815,
  "\u2581matching": 2816,
  "\u2581matter": 2817,
  "\u2581memos": 2818,
  "\u2581module": 2819,
  "\u2581original": 2820,
  "\u2581remain": 2821,
  "\u2581reply": 2822,
  "\u2581sefyll": 2823,
  "\u2581torri": 2824,
  "\u2581useful": 2825,
  "\u2581voice": 2826,
  "\u2581wasgu": 2827,
  "You": 2828,
  "am": 2829,
  "help": 2830,
  "\u2581Cyfanswm": 2831,
  "\u2581Cyflunio": 2832,
  "\u2581Dde": 2833,
  "\u2581Drwydded": 2834,
  "\u2581Hanes": 2835,
  "\u2581Prompt": 2836,
  "\u2581Tool": 2837,
  "\u2581match": 2838,
  "\u2581popup": 2839,
  "\u2581return": 2840,
  "\u2581sgr\u00een": 2841,
  "$": 2842,
  "Ffeil": 2843,
  "tar": 2844,
  "\u2581Neu": 2845,
  "\u2581Porwr": 2846,
  "\u2581Salm": 2847,
  "\u2581Ynghylch": 2848,
  "\u2581blaen": 2849,
  "\u2581countries": 2850,
  "\u2581erioed": 2851,
  "\u2581fact": 2852,
  "\u2581import": 2853,
  "\u2581summary": 2854,
  "\u2581wybod": 2855,
  "\u2581Chwyddo": 2856,
  "\u2581Cut": 2857,
  "\u2581Height": 2858,
  "\u2581Pell": 2859,
  "\u2581adeg": 2860,
  "\u2581answer": 2861,
  "\u2581cause": 2862,
  "\u2581chael": 2863,
  "\u2581chwiorydd": 2864,
  "\u2581gymryd": 2865,
  "\u2581pages": 2866,
  "\u2581rights": 2867,
  "\u2581took": 2868,
  "File": 2869,
  "Yn": 2870,
  "\u258129": 2871,
  "\u2581Llawn": 2872,
  "\u2581Llyfrnodau": 2873,
  "\u2581UID": 2874,
  "\u2581addresses": 2875,
  "\u2581ba": 2876,
  "\u2581gobaith": 2877,
  "\u2581joy": 2878,
  "\u2581sg\u00f4r": 2879,
  "\u00e1": 2880,
  "\u25811)": 2881,
  "\u2581CSV": 2882,
  "\u2581Dyfais": 2883,
  "\u2581Heddiw": 2884,
  "\u2581Llwybr": 2885,
  "\u2581Macro": 2886,
  "\u2581Orca": 2887,
  "\u2581Speak": 2888,
  "\u2581Yes": 2889,
  "\u2581chaiff": 2890,
  "\u2581eyes": 2891,
  "\u2581script": 2892,
  "\u2581sending": 2893,
  "\u2581ways": 2894,
  "\u2581Bookmarks": 2895,
  "\u2581Cyrilig": 2896,
  "\u2581Highlight": 2897,
  "\u2581Llinellau": 2898,
  "\u2581Mary": 2899,
  "\u2581Outlook": 2900,
  "\u2581Version": 2901,
  "\u2581ddwy": 2902,
  "\u2581defnyddwyr": 2903,
  "\u2581emails": 2904,
  "\u2581having": 2905,
  "\u2581iCalendar": 2906,
  "\u2581limit": 2907,
  "\u2581mind": 2908,
  "\u2581tan": 2909,
  "It": 2910,
  "ham": 2911,
  "set": 2912,
  "\u2581AC": 2913,
  "\u2581Computer": 2914,
  "\u2581Today": 2915,
  "\u2581Ubuntu": 2916,
  "\u2581amgylch": 2917,
  "\u2581bosibl": 2918,
  "\u2581elders": 2919,
  "\u2581fewngofnodi": 2920,
  "\u2581often": 2921,
  "\u2581track": 2922,
  "el": 2923,
  "\u2581Cam": 2924,
  "\u2581Hidlen": 2925,
  "\u2581Rheolydd": 2926,
  "\u2581aeth": 2927,
  "\u2581associated": 2928,
  "\u2581calls": 2929,
  "\u2581cywir": 2930,
  "\u2581draws": 2931,
  "\u2581gwasgu": 2932,
  "\u2581question": 2933,
  "\u2581returned": 2934,
  "\u2581soon": 2935,
  "AR": 2936,
  "Blaenorol": 2937,
  "\u2581Enwau": 2938,
  "\u2581Ffla": 2939,
  "\u2581GIF": 2940,
  "\u2581Moves": 2941,
  "\u2581Saving": 2942,
  "\u2581agos": 2943,
  "\u2581clywed": 2944,
  "\u2581cyfarfodydd": 2945,
  "\u2581fuan": 2946,
  "\u2581guide": 2947,
  "\u2581wife": 2948,
  "\u2581wyneb": 2949,
  "Rwy": 2950,
  "date": 2951,
  "lu": 2952,
  "\u25819.": 2953,
  "\u2581AIM": 2954,
  "\u2581Auto": 2955,
  "\u2581Ctrl": 2956,
  "\u2581Envelope": 2957,
  "\u2581Gorffen": 2958,
  "\u2581assigned": 2959,
  "\u2581atodiad": 2960,
  "\u2581briodwedd": 2961,
  "\u2581canceled": 2962,
  "\u2581diogelwch": 2963,
  "\u2581graph": 2964,
  "\u2581objects": 2965,
  "\u2581wraig": 2966,
  "Previous": 2967,
  "file": 2968,
  "\u2581Awstralia": 2969,
  "\u2581Dangosydd": 2970,
  "\u2581Documents": 2971,
  "\u2581Erfyn": 2972,
  "\u2581First": 2973,
  "\u2581Gwlad": 2974,
  "\u2581Selected": 2975,
  "\u2581Small": 2976,
  "\u2581amgodiad": 2977,
  "\u2581ddeall": 2978,
  "\u2581dwy": 2979,
  "\u2581greater": 2980,
  "\u2581lleiaf": 2981,
  "\u2581meetings": 2982,
  "\u2581trafod": 2983,
  "Defnyddio": 2984,
  "il": 2985,
  "\u2581Act": 2986,
  "\u2581Changes": 2987,
  "\u2581Gett": 2988,
  "\u2581Haen": 2989,
  "\u2581Seibio": 2990,
  "\u2581annog": 2991,
  "\u2581gariad": 2992,
  "\u2581links": 2993,
  "\u2581model": 2994,
  "\u2581pe": 2995,
  "\u2581short": 2996,
  "Bar": 2997,
  "Image": 2998,
  "\u2581Bottom": 2999,
  "\u2581Dictionary": 3000,
  "\u2581Franklin": 3001,
  "\u2581Gwesteiwr": 3002,
  "\u2581ICQ": 3003,
  "\u2581cyfnod": 3004,
  "\u2581lead": 3005,
  "\u2581rheswm": 3006,
  "\u2581saw": 3007,
  "\u2581shows": 3008,
  "Select": 3009,
  "bar": 3010,
  "ment": 3011,
  "\u00a9": 3012,
  "\u2581Angen": 3013,
  "\u2581Cysylltiad": 3014,
  "\u2581Holmes": 3015,
  "\u2581TIFF": 3016,
  "\u2581mother": 3017,
  "\u2581retrieve": 3018,
  "No": 3019,
  "\u2581Braille": 3020,
  "\u2581Cursor": 3021,
  "\u2581PGP": 3022,
  "\u2581Undo": 3023,
  "\u2581ffontiau": 3024,
  "\u2581galendr": 3025,
  "\u2581gyflym": 3026,
  "\u2581paragraph": 3027,
  "\u2581test": 3028,
  "\u2581wise": 3029,
  "eithfan": 3030,
  "\u2581Five": 3031,
  "\u2581Pwnc": 3032,
  "\u2581URLs": 3033,
  "\u2581configure": 3034,
  "\u2581holy": 3035,
  "\u2581news": 3036,
  "\u2581published": 3037,
  "\u2581screenshot": 3038,
  "\u2581worship": 3039,
  "\u2581yourself": 3040,
  "key": 3041,
  "\u2581Available": 3042,
  "\u2581Colors": 3043,
  "\u2581Cyn": 3044,
  "\u2581Cysylltion": 3045,
  "\u2581bloc": 3046,
  "\u2581entries": 3047,
  "\u2581ffug": 3048,
  "\u2581fyddw": 3049,
  "\u2581none": 3050,
  "\u25818:": 3051,
  "\u2581Bylchu": 3052,
  "\u2581Extended": 3053,
  "\u2581ISO": 3054,
  "\u2581Rheoli": 3055,
  "\u2581Undeb": 3056,
  "\u2581anfonwr": 3057,
  "\u2581multiple": 3058,
  "\u2581sequence": 3059,
  "\u2581upgrade": 3060,
  "\u2581weekday": 3061,
  "\u2581~": 3062,
  "euon": 3063,
  "\u2581Corinthiaid": 3064,
  "\u2581bai": 3065,
  "\u2581clock": 3066,
  "\u2581units": 3067,
  "ation": 3068,
  "\u2581Install": 3069,
  "\u2581Ti": 3070,
  "\u2581added": 3071,
  "\u2581berthnasol": 3072,
  "\u2581ddal": 3073,
  "\u2581glicio": 3074,
  "\u2581gwaelod": 3075,
  "\u2581larymau": 3076,
  "\u2581online": 3077,
  "\u2581problems": 3078,
  "\u2581property": 3079,
  "\u258114.": 3080,
  "\u258116:": 3081,
  "\u2581Defnyddir": 3082,
  "\u2581Gwne": 3083,
  "\u2581Hill": 3084,
  "\u2581IP": 3085,
  "\u2581Iagno": 3086,
  "\u2581PM": 3087,
  "\u2581Redo": 3088,
  "\u2581cudd": 3089,
  "\u2581ddiwedd": 3090,
  "\u2581friends": 3091,
  "\u2581gweithred": 3092,
  "\u2581probably": 3093,
  "\u2581respect": 3094,
  "\u2581roeddwn": 3095,
  "\u2581scheme": 3096,
  "\u2581tebyg": 3097,
  "ze": 3098,
  "\u2581AT": 3099,
  "\u2581Indian": 3100,
  "\u2581Plugin": 3101,
  "\u2581Refresh": 3102,
  "\u2581Timotheus": 3103,
  "\u2581chadw": 3104,
  "\u2581doedd": 3105,
  "\u2581effaith": 3106,
  "\u2581mha": 3107,
  "\u2581nam": 3108,
  "\u2581prawf": 3109,
  "\u2581ymddiried": 3110,
  "Close": 3111,
  "Math": 3112,
  "\u258132": 3113,
  "\u2581Ekiga": 3114,
  "\u2581Folders": 3115,
  "\u2581Ochr": 3116,
  "\u2581Path": 3117,
  "\u2581Torri": 3118,
  "\u2581black": 3119,
  "\u2581editing": 3120,
  "\u2581filled": 3121,
  "\u2581gwasanaeth": 3122,
  "\u2581note": 3123,
  "\u2581parameter": 3124,
  "\u2581starting": 3125,
  "\u2581wrote": 3126,
  "MIME": 3127,
  "bbles": 3128,
  "\u2581'%1": 3129,
  "\u258117.": 3130,
  "\u2581Defnydd": 3131,
  "\u2581Scroll": 3132,
  "\u2581Test": 3133,
  "\u2581animation": 3134,
  "\u2581anyway": 3135,
  "\u2581benodol": 3136,
  "\u2581break": 3137,
  "\u2581bron": 3138,
  "\u2581fanylion": 3139,
  "\u2581house": 3140,
  "\u2581longer": 3141,
  "\u2581pointer": 3142,
  "\u2581sender": 3143,
  "\u2581target": 3144,
  "og": 3145,
  "right": 3146,
  "\u25813:": 3147,
  "\u2581Ailgychwyn": 3148,
  "\u2581Bookmark": 3149,
  "\u2581Hall": 3150,
  "\u2581Hebrew": 3151,
  "\u2581Lines": 3152,
  "\u2581Mines": 3153,
  "\u2581PKCS": 3154,
  "\u2581cynnydd": 3155,
  "\u2581derbynwyr": 3156,
  "\u2581fullscreen": 3157,
  "\u2581gyfartal": 3158,
  "\u2581locked": 3159,
  "\u2581loyal": 3160,
  "\u2581secure": 3161,
  "dale": 3162,
  "ness": 3163,
  "\u25810.0": 3164,
  "\u2581Bug": 3165,
  "\u2581Iawn": 3166,
  "\u2581Trac": 3167,
  "\u2581allows": 3168,
  "\u2581insert": 3169,
  "\u2581labels": 3170,
  "\u2581liw": 3171,
  "\u2581requires": 3172,
  "\u2581shall": 3173,
  "Contents": 3174,
  "Eich": 3175,
  "me": 3176,
  "\u2581Automatically": 3177,
  "\u2581Brenin": 3178,
  "\u2581Fertigol": 3179,
  "\u2581House": 3180,
  "\u2581NAME": 3181,
  "\u2581Rhaglennig": 3182,
  "\u2581air": 3183,
  "\u2581brawd": 3184,
  "\u2581bregethu": 3185,
  "\u2581four": 3186,
  "\u2581mynegiad": 3187,
  "\u2581obey": 3188,
  "\u2581red": 3189,
  "\u2581reference": 3190,
  "\u2581sothach": 3191,
  "\\.": 3192,
  "ais": 3193,
  "day": 3194,
  "im": 3195,
  "\u258102110-1301": 3196,
  "\u2581Ailenwi": 3197,
  "\u2581Block": 3198,
  "\u2581Cafod": 3199,
  "\u2581En": 3200,
  "\u2581Encryption": 3201,
  "\u2581Geiriadur": 3202,
  "\u2581Java": 3203,
  "\u2581Long": 3204,
  "\u2581Setup": 3205,
  "\u2581Trefn": 3206,
  "\u2581Uchel": 3207,
  "\u2581atgoffa": 3208,
  "\u2581bit": 3209,
  "\u2581cyfanswm": 3210,
  "\u2581ddyn": 3211,
  "\u2581encryption": 3212,
  "\u2581ger": 3213,
  "\u2581minute": 3214,
  "\u2581site": 3215,
  "\":": 3216,
  "?'": 3217,
  "Lleoliad": 3218,
  "ers": 3219,
  "nc": 3220,
  "\u2581//": 3221,
  "\u2581Aborting": 3222,
  "\u2581Chinese": 3223,
  "\u2581Ho": 3224,
  "\u2581Plaen": 3225,
  "\u2581Space": 3226,
  "\u2581buffer": 3227,
  "\u2581city": 3228,
  "\u2581codi": 3229,
  "\u2581killed": 3230,
  "Popeth": 3231,
  "Undo": 3232,
  "\u2581Screenshot": 3233,
  "\u2581Total": 3234,
  "\u2581Warning": 3235,
  "\u2581apostle": 3236,
  "\u2581begin": 3237,
  "\u2581definition": 3238,
  "\u2581fyddwch": 3239,
  "\u2581heard": 3240,
  "\u2581milliseconds": 3241,
  "\u2581near": 3242,
  "\u2581pawb": 3243,
  "\u2581plugins": 3244,
  "\u2581sin": 3245,
  "\u2581stream": 3246,
  "\u2581tooltip": 3247,
  "\u2581tystysgrif": 3248,
  "Dim": 3249,
  "Search": 3250,
  "\u2581Adnewyddu": 3251,
  "\u2581Ffurf": 3252,
  "\u2581Session": 3253,
  "\u2581Signature": 3254,
  "\u2581Z": 3255,
  "\u2581allai": 3256,
  "\u2581configured": 3257,
  "\u2581dot": 3258,
  "\u2581friend": 3259,
  "\u2581golli": 3260,
  "\u2581gtk": 3261,
  "\u2581paragraff": 3262,
  "\u2581specification": 3263,
  "\u2581tasg": 3264,
  "Offer": 3265,
  "command": 3266,
  "\u2581Cancel": 3267,
  "\u2581Connector": 3268,
  "\u2581Dark": 3269,
  "\u2581Dechreu": 3270,
  "\u2581Mozilla": 3271,
  "\u2581daemon": 3272,
  "\u2581double": 3273,
  "\u2581nos": 3274,
  "\u2581orffen": 3275,
  "\u2581pattern": 3276,
  "Golwg": 3277,
  "Location": 3278,
  "\u2581100": 3279,
  "\u2581JPEG": 3280,
  "\u2581Sending": 3281,
  "\u2581Speed": 3282,
  "\u2581Ymlaen": 3283,
  "\u2581allocate": 3284,
  "\u2581disciples": 3285,
  "\u2581disgrifiad": 3286,
  "\u2581galw": 3287,
  "\u2581mailing": 3288,
  "\u2581monitor": 3289,
  "\u2581squares": 3290,
  "\u2581ten": 3291,
  "Cyfrinair": 3292,
  "\u2581*.": 3293,
  "\u2581Any": 3294,
  "\u2581Battery": 3295,
  "\u2581Dyna": 3296,
  "\u2581FOR": 3297,
  "\u2581Gwasgwch": 3298,
  "\u2581Mont": 3299,
  "\u2581Nam": 3300,
  "\u2581Template": 3301,
  "\u2581Toggles": 3302,
  "\u2581Ymyl": 3303,
  "\u2581droi": 3304,
  "\u2581ofalus": 3305,
  "\u2581quality": 3306,
  "\u2581rate": 3307,
  "11": 3308,
  "Print": 3309,
  "europa": 3310,
  "port": 3311,
  "\u2581\"{0}\"": 3312,
  "\u25819,": 3313,
  "\u2581Bob": 3314,
  "\u2581Bu": 3315,
  "\u2581Cof": 3316,
  "\u2581Cyfluniad": 3317,
  "\u2581Have": 3318,
  "\u2581History": 3319,
  "\u2581Los": 3320,
  "\u2581Minimum": 3321,
  "\u2581Tasks": 3322,
  "\u2581arrow": 3323,
  "\u2581conditions": 3324,
  "\u2581connected": 3325,
  "\u2581include": 3326,
  "\u2581led": 3327,
  "\u2581rhyw": 3328,
  "\u2581sgript": 3329,
  "\u2581taken": 3330,
  "\u258111.": 3331,
  "\u2581Draw": 3332,
  "\u2581Epiphany": 3333,
  "\u2581Fif": 3334,
  "\u2581Llorweddol": 3335,
  "\u2581Mis": 3336,
  "\u2581Mo": 3337,
  "\u2581based": 3338,
  "\u2581bring": 3339,
  "\u2581care": 3340,
  "\u2581closing": 3341,
  "\u2581efelychu": 3342,
  "\u2581marw": 3343,
  "\u2581node": 3344,
  "\u2581serving": 3345,
  "\u2581sgwariau": 3346,
  "Redo": 3347,
  "iaid": 3348,
  "line": 3349,
  "\u2581His": 3350,
  "\u2581arg": 3351,
  "\u2581corff": 3352,
  "\u2581delay": 3353,
  "\u2581genny": 3354,
  "\u2581gives": 3355,
  "\u2581iddynt": 3356,
  "\u2581imitate": 3357,
  "\u2581ninnau": 3358,
  "\u2581permission": 3359,
  "\u2581replace": 3360,
  "\u2581talk": 3361,
  "\u2581terms": 3362,
  "\u2581trac": 3363,
  "\u2581ynghyd": 3364,
  "star": 3365,
  "ynhaliaeth": 3366,
  "\u2581Drwy": 3367,
  "\u2581Ffatri": 3368,
  "\u2581Post": 3369,
  "\u2581Take": 3370,
  "\u2581Visible": 3371,
  "\u2581environment": 3372,
  "\u2581escape": 3373,
  "\u2581ignored": 3374,
  "\u2581looked": 3375,
  "\u2581preach": 3376,
  "\u2581scroll": 3377,
  "\u2581tabs": 3378,
  "Up": 3379,
  "ce": 3380,
  "gychwyn": 3381,
  "value": 3382,
  "\u2581Crynodeb": 3383,
  "\u2581Factory": 3384,
  "\u2581Hebraeg": 3385,
  "\u2581Lleihau": 3386,
  "\u2581Memory": 3387,
  "\u2581OF": 3388,
  "\u2581Thai": 3389,
  "\u2581addoli": 3390,
  "\u2581al": 3391,
  "\u2581dull": 3392,
  "\u2581gift": 3393,
  "\u2581levels": 3394,
  "\u2581medru": 3395,
  "\u2581updated": 3396,
  "\u2581visited": 3397,
  "edd": 3398,
  "te": 3399,
  "\u2581Dirprwy": 3400,
  "\u2581Fedrw": 3401,
  "\u2581Google": 3402,
  "\u2581Rhaglenni": 3403,
  "\u2581amount": 3404,
  "\u2581arbedw": 3405,
  "\u2581authenticate": 3406,
  "\u2581brysur": 3407,
  "\u2581horizontal": 3408,
  "\u2581ministry": 3409,
  "\u2581pair": 3410,
  "\u2581redeg": 3411,
  "\u2581tabiau": 3412,
  "\u2581win": 3413,
  "Plygell": 3414,
  "j": 3415,
  "png": 3416,
  "\u2581Amlygu": 3417,
  "\u2581Button": 3418,
  "\u2581Dyle": 3419,
  "\u2581FTP": 3420,
  "\u2581Many": 3421,
  "\u2581Mwy": 3422,
  "\u2581Pango": 3423,
  "\u2581Pause": 3424,
  "\u2581Section": 3425,
  "\u2581apostol": 3426,
  "\u2581form": 3427,
  "\u2581immediately": 3428,
  "\u2581llais": 3429,
  "\u2581meth": 3430,
  "\u2581owner": 3431,
  "\u2581ramadegu": 3432,
  "\u2581restore": 3433,
  "\u2581username": 3434,
  "Play": 3435,
  "mail": 3436,
  "\u2581Ask": 3437,
  "\u2581Da": 3438,
  "\u2581Dewisydd": 3439,
  "\u2581Score": 3440,
  "\u2581defnyddir": 3441,
  "\u2581eistedd": 3442,
  "\u2581gwraidd": 3443,
  "\u2581lluniau": 3444,
  "\u2581looking": 3445,
  "\u2581remov": 3446,
  "\u2581rhannu": 3447,
  "\u2581rhiant": 3448,
  "\u2581seen": 3449,
  "Tynnu": 3450,
  "ca": 3451,
  "nwch": 3452,
  "sburg": 3453,
  "unig": 3454,
  "\u25811\"": 3455,
  "\u2581Botwm": 3456,
  "\u2581Ffwythiannau": 3457,
  "\u2581eithaf": 3458,
  "\u2581gwrs": 3459,
  "\u2581hanner": 3460,
  "\u2581living": 3461,
  "\u2581nefoedd": 3462,
  "\u2581ourselves": 3463,
  "\u2581servants": 3464,
  "\u2581trin": 3465,
  "IBM": 3466,
  "ra": 3467,
  "\u2581Access": 3468,
  "\u2581Blaenorol": 3469,
  "\u2581Gn": 3470,
  "\u2581Israeliaid": 3471,
  "\u2581JavaScript": 3472,
  "\u2581external": 3473,
  "\u2581freedom": 3474,
  "\u2581gyfeiriad": 3475,
  "\u2581int": 3476,
  "\u2581patrwm": 3477,
  "\u2581pwnc": 3478,
  "\u2581p\u0175er": 3479,
  "\u2581rhagosod": 3480,
  "\u2581rheolydd": 3481,
  "\u2581rhyngwyneb": 3482,
  "\u2581self": 3483,
  "\u2581son": 3484,
  "\u2581workspaces": 3485,
  "Q": 3486,
  "Send": 3487,
  "off": 3488,
  "\u2581Attribute": 3489,
  "\u2581Keys": 3490,
  "\u2581Lawrlwytho": 3491,
  "\u2581MERC": 3492,
  "\u2581Personal": 3493,
  "\u2581Rh": 3494,
  "\u2581Saul": 3495,
  "\u2581Where": 3496,
  "\u2581awgrym": 3497,
  "\u2581deleting": 3498,
  "\u2581flaenorol": 3499,
  "\u2581real": 3500,
  "\u2581simple": 3501,
  "Lliw": 3502,
  "Maint": 3503,
  "Ynghylch": 3504,
  "be": 3505,
  "ibbles": 3506,
  "ith": 3507,
  "ld": 3508,
  "\u2581#1": 3509,
  "\u25812,": 3510,
  "\u2581Bethel": 3511,
  "\u2581Caniat\u00e1u": 3512,
  "\u2581Corff": 3513,
  "\u2581Gan": 3514,
  "\u2581Gweithfan": 3515,
  "\u2581Lu": 3516,
  "\u2581chanfu": 3517,
  "\u2581cydran": 3518,
  "\u2581cynllun": 3519,
  "\u2581du": 3520,
  "\u2581entered": 3521,
  "\u2581interface": 3522,
  "\u2581makes": 3523,
  "\u2581relevant": 3524,
  "Left": 3525,
  "default": 3526,
  "\u258113.": 3527,
  "\u25814)": 3528,
  "\u2581ARGLWYDD": 3529,
  "\u2581Classic": 3530,
  "\u2581Ffenestri": 3531,
  "\u2581Gwaelod": 3532,
  "\u2581Tasgau": 3533,
  "\u2581cloi": 3534,
  "\u2581confirmation": 3535,
  "\u2581cwestiwn": 3536,
  "\u2581ddrwg": 3537,
  "\u2581flynyddoedd": 3538,
  "\u2581gell": 3539,
  "\u2581hear": 3540,
  "\u2581learned": 3541,
  "\u2581situation": 3542,
  "\u2581ynghylch": 3543,
  "\u2581ysgol": 3544,
  "\";": 3545,
  "ech": 3546,
  "\u00d7": 3547,
  "\u2581Copi": 3548,
  "\u2581Fake": 3549,
  "\u2581KGyfieithu": 3550,
  "\u2581Rhydd": 3551,
  "\u2581World": 3552,
  "\u2581awyr": 3553,
  "\u2581cam": 3554,
  "\u2581datnamu": 3555,
  "\u2581else": 3556,
  "\u2581maximum": 3557,
  "\u2581nodi": 3558,
  "\u2581rywun": 3559,
  "\u2581sicrhau": 3560,
  "\u2581syml": 3561,
  "\u2581teach": 3562,
  "nau": 3563,
  "\u2581Anodd": 3564,
  "\u2581Archive": 3565,
  "\u2581Cyfradd": 3566,
  "\u2581Cyfrol": 3567,
  "\u2581Download": 3568,
  "\u2581PDF": 3569,
  "\u2581Proffil": 3570,
  "\u2581Reset": 3571,
  "\u2581Rhoi": 3572,
  "\u2581Ymateb": 3573,
  "\u2581ato": 3574,
  "\u2581benefit": 3575,
  "\u2581channel": 3576,
  "\u2581clo": 3577,
  "\u2581cloc": 3578,
  "\u2581cysawd": 3579,
  "\u2581ddefnyddwyr": 3580,
  "\u2581fully": 3581,
  "\u2581oeddwn": 3582,
  "Description": 3583,
  "IS": 3584,
  "keypad": 3585,
  "vik": 3586,
  "\u25818)": 3587,
  "\u2581Bysellau": 3588,
  "\u2581Double": 3589,
  "\u2581Goe": 3590,
  "\u2581Has": 3591,
  "\u2581Llenwi": 3592,
  "\u2581arali": 3593,
  "\u2581attachments": 3594,
  "\u2581bo": 3595,
  "\u2581cyrchydd": 3596,
  "\u2581dangosir": 3597,
  "\u2581flags": 3598,
  "\u2581placed": 3599,
  "\u2581thinking": 3600,
  "\u2581thy": 3601,
  "\u2581uchel": 3602,
  "Pob": 3603,
  "Remove": 3604,
  "Shortcut": 3605,
  "ine": 3606,
  "lo": 3607,
  "lwytho": 3608,
  "ne": 3609,
  "\u258113:": 3610,
  "\u2581Fyny": 3611,
  "\u2581Must": 3612,
  "\u2581Sgr\u00eenlun": 3613,
  "\u2581Standard": 3614,
  "\u2581ategyn": 3615,
  "\u2581auto": 3616,
  "\u2581broblem": 3617,
  "\u2581byr": 3618,
  "\u2581bywydau": 3619,
  "\u2581decisions": 3620,
  "\u2581experience": 3621,
  "\u2581locate": 3622,
  "\u2581older": 3623,
  "\u2581tua": 3624,
  "Chwith": 3625,
  "um": 3626,
  "ut": 3627,
  "\u25815,": 3628,
  "\u2581Ceisi": 3629,
  "\u2581Extract": 3630,
  "\u2581Great": 3631,
  "\u2581Media": 3632,
  "\u2581dynion": 3633,
  "\u2581hagor": 3634,
  "\u2581motion": 3635,
  "\u2581proffeil": 3636,
  "\u2581profi": 3637,
  "\u2581Applications": 3638,
  "\u2581Argraffydd": 3639,
  "\u2581Manage": 3640,
  "\u2581Of": 3641,
  "\u2581Office": 3642,
  "\u2581Pen": 3643,
  "\u2581Python": 3644,
  "\u2581Sothach": 3645,
  "\u2581Trefnydd": 3646,
  "\u2581US": 3647,
  "\u2581Wynebfath": 3648,
  "\u2581anointed": 3649,
  "\u2581arguments": 3650,
  "\u2581calonnau": 3651,
  "\u2581drawing": 3652,
  "\u2581hunan": 3653,
  "\u2581leave": 3654,
  "\u2581lenwi": 3655,
  "\u2581past": 3656,
  "\u2581rules": 3657,
  ":%02": 3658,
  "Rhagolwg": 3659,
  "\u00e3o": 3660,
  "\u2581Meeting": 3661,
  "\u2581Newyddion": 3662,
  "\u2581PAR": 3663,
  "\u2581Uwch": 3664,
  "\u2581Welcome": 3665,
  "\u2581animeiddiad": 3666,
  "\u2581byddaf": 3667,
  "\u2581fall": 3668,
  "\u2581gl\u00e2n": 3669,
  "\u2581humans": 3670,
  "\u2581instance": 3671,
  "\u2581itself": 3672,
  "\u2581keyring": 3673,
  "\u2581llythrennau": 3674,
  "\u2581menubar": 3675,
  "\u2581methodd": 3676,
  "\u2581mhob": 3677,
  "\u2581remaining": 3678,
  "15": 3679,
  "ddigwydd": 3680,
  "\u2581Bonobo": 3681,
  "\u2581Hard": 3682,
  "\u2581KB": 3683,
  "\u2581Ma": 3684,
  "\u2581Reply": 3685,
  "\u2581Summary": 3686,
  "\u2581amlwg": 3687,
  "\u2581canlyniadau": 3688,
  "\u2581cyrchfan": 3689,
  "\u2581ddefnyddiol": 3690,
  "\u2581del": 3691,
  "\u2581mbox": 3692,
  "\u2581milfed": 3693,
  "\u2581n\u00f4l": 3694,
  "\u2581pressed": 3695,
  "\u2581strength": 3696,
  "\u2581syniad": 3697,
  "\u2581wall": 3698,
  "\u2581waredu": 3699,
  "draw": 3700,
  "\u258110)": 3701,
  "\u2581Canol": 3702,
  "\u2581Glaw": 3703,
  "\u2581Gofod": 3704,
  "\u2581Noa": 3705,
  "\u2581Pre": 3706,
  "\u2581Psalm": 3707,
  "\u2581UPS": 3708,
  "\u2581cyngor": 3709,
  "\u2581happened": 3710,
  "\u2581initial": 3711,
  "\u2581private": 3712,
  "\u2581sianel": 3713,
  "\u2581sign": 3714,
  "aidd": 3715,
  "ga": 3716,
  "not": 3717,
  "uk": 3718,
  "\u25811.0": 3719,
  "\u2581Active": 3720,
  "\u2581Glas": 3721,
  "\u2581Gwasanaeth": 3722,
  "\u2581Hawlfraint": 3723,
  "\u2581Lawn": 3724,
  "\u2581Paper": 3725,
  "\u2581Pori": 3726,
  "\u2581ategion": 3727,
  "\u2581drawn": 3728,
  "\u2581elements": 3729,
  "\u2581ffyrdd": 3730,
  "\u2581gyflawni": 3731,
  "\u2581high": 3732,
  "\u2581languages": 3733,
  "#": 3734,
  "Rhestr": 3735,
  "ronfa": 3736,
  "\u258115.": 3737,
  "\u2581Ailosod": 3738,
  "\u2581Ca": 3739,
  "\u2581Element": 3740,
  "\u2581Gwyn": 3741,
  "\u2581Las": 3742,
  "\u2581Over": 3743,
  "\u2581Personol": 3744,
  "\u2581RHYBUDD": 3745,
  "\u2581WARNING": 3746,
  "\u2581ichi": 3747,
  "\u2581likely": 3748,
  "\u2581sticky": 3749,
  "\u2581stopio": 3750,
  "ish": 3751,
  "log": 3752,
  "\u2581CA": 3753,
  "\u2581Gwahanydd": 3754,
  "\u2581Proxy": 3755,
  "\u2581Punctuation": 3756,
  "\u2581adeiladu": 3757,
  "\u2581darparu": 3758,
  "\u2581eiriau": 3759,
  "\u2581parhau": 3760,
  "\u2581public": 3761,
  "\u2581via": 3762,
  "\u2581weinydd": 3763,
  "coming": 3764,
  "\u2581Chat": 3765,
  "\u2581Event": 3766,
  "\u2581Resize": 3767,
  "\u2581amlygu": 3768,
  "\u2581anwybyddu": 3769,
  "\u2581base": 3770,
  "\u2581deimlo": 3771,
  "\u2581diweddariadau": 3772,
  "\u2581drefn": 3773,
  "\u2581feature": 3774,
  "\u2581ganiat\u00e2d": 3775,
  "\u2581identify": 3776,
  "\u2581movie": 3777,
  "\u2581quite": 3778,
  "\u2581spaces": 3779,
  "\u2581speak": 3780,
  "ddechrau": 3781,
  "use": 3782,
  "wood": 3783,
  "\u2581360": 3784,
  "\u258140": 3785,
  "\u2581Daeth": 3786,
  "\u2581French": 3787,
  "\u2581Latin": 3788,
  "\u2581Moving": 3789,
  "\u2581ble": 3790,
  "\u2581darganfod": 3791,
  "\u2581dewisiedig": 3792,
  "\u2581dewiswch": 3793,
  "\u2581ffurfweddu": 3794,
  "\u2581fit": 3795,
  "\u2581gyflunio": 3796,
  "\u2581hoffi": 3797,
  "\u2581mynediad": 3798,
  "\u2581porth": 3799,
  "\u2581uchder": 3800,
  "\u2581wrap": 3801,
  "\").": 3802,
  "Folder": 3803,
  "Very": 3804,
  "get": 3805,
  "\u2581-1": 3806,
  "\u258116.": 3807,
  "\u25818,": 3808,
  "\u2581AI": 3809,
  "\u2581Activate": 3810,
  "\u2581Client": 3811,
  "\u2581Function": 3812,
  "\u2581Hey": 3813,
  "\u2581Sand": 3814,
  "\u2581Track": 3815,
  "\u2581blue": 3816,
  "\u2581dark": 3817,
  "\u2581download": 3818,
  "\u2581eang": 3819,
  "\u2581hail": 3820,
  "\u2581hearts": 3821,
  "\u2581king": 3822,
  "\u2581sydyn": 3823,
  "\u2581tudalennau": 3824,
  "\u2581ufudd": 3825,
  "\u2581wrthod": 3826,
  "\u2581ydynt": 3827,
  "align": 3828,
  "nd": 3829,
  "son": 3830,
  "theme": 3831,
  "\u2581Arabic": 3832,
  "\u2581Chwiliad": 3833,
  "\u2581Filename": 3834,
  "\u2581Look": 3835,
  "\u2581Saesneg": 3836,
  "\u2581Ta": 3837,
  "\u2581dogfennau": 3838,
  "\u2581drag": 3839,
  "\u2581garu": 3840,
  "\u2581hanfon": 3841,
  "\u2581hoff": 3842,
  "\u2581mailbox": 3843,
  "\u2581music": 3844,
  "\u2581seemed": 3845,
  "\u2581star": 3846,
  "\u2581wynebu": 3847,
  "Enable": 3848,
  "dyrannu": 3849,
  "\u2581Bach": 3850,
  "\u2581Connect": 3851,
  "\u2581Match": 3852,
  "\u2581Option": 3853,
  "\u2581Tai": 3854,
  "\u2581co": 3855,
  "\u2581console": 3856,
  "\u2581cromfach": 3857,
  "\u2581cyfanrif": 3858,
  "\u2581junk": 3859,
  "\u2581moment": 3860,
  "\u2581showing": 3861,
  "\u2581teils": 3862,
  "\u2581ymdrin": 3863,
  "12": 3864,
  "\u258111)": 3865,
  "\u2581Anwybyddu": 3866,
  "\u2581CMS": 3867,
  "\u2581Copying": 3868,
  "\u2581Eraill": 3869,
  "\u2581Faint": 3870,
  "\u2581Graphics": 3871,
  "\u2581Israelites": 3872,
  "\u2581Pecyn": 3873,
  "\u2581Plygellau": 3874,
  "\u2581Protocol": 3875,
  "\u2581Son": 3876,
  "\u2581United": 3877,
  "\u2581Win": 3878,
  "\u2581chat": 3879,
  "\u2581enjoy": 3880,
  "\u2581pori": 3881,
  "\u2581rule": 3882,
  "\u2581translations": 3883,
  "\u2581unless": 3884,
  "Lawr": 3885,
  "dir": 3886,
  "ran": 3887,
  "\u2581Advanced": 3888,
  "\u2581Air": 3889,
  "\u2581Fit": 3890,
  "\u2581Linux": 3891,
  "\u2581Pwyntydd": 3892,
  "\u2581Return": 3893,
  "\u2581Waiting": 3894,
  "\u2581among": 3895,
  "\u2581cefnogi": 3896,
  "\u2581coeden": 3897,
  "\u2581cymaint": 3898,
  "\u2581m\u00f4r": 3899,
  "\u2581priodwedd": 3900,
  "\u2581thread": 3901,
  ",--": 3902,
  "Anfon": 3903,
  "CMS": 3904,
  "Down": 3905,
  "Gadael": 3906,
  "ba": 3907,
  "ity": 3908,
  "\u25813)": 3909,
  "\u2581ASCII": 3910,
  "\u2581Adran": 3911,
  "\u2581Batri": 3912,
  "\u2581Lower": 3913,
  "\u2581Oak": 3914,
  "\u2581Operation": 3915,
  "\u2581Output": 3916,
  "\u2581Porth": 3917,
  "\u2581Press": 3918,
  "\u2581Republic": 3919,
  "\u2581Rhifau": 3920,
  "\u2581append": 3921,
  "\u2581combo": 3922,
  "\u2581comes": 3923,
  "\u2581considered": 3924,
  "\u2581encourage": 3925,
  "\u2581five": 3926,
  "\u2581honor": 3927,
  "\u2581locations": 3928,
  "\u2581ogystal": 3929,
  "\u2581ohonyn": 3930,
  "\u2581places": 3931,
  "\u2581raglenni": 3932,
  "\u2581shift": 3933,
  "\u2581stored": 3934,
  "9:": 3935,
  "Mathew": 3936,
  "Port": 3937,
  "Salm": 3938,
  "ael": 3939,
  "dim": 3940,
  "em": 3941,
  "one": 3942,
  "\u258133": 3943,
  "\u25816,": 3944,
  "\u2581BCC": 3945,
  "\u2581Effaith": 3946,
  "\u2581Gad": 3947,
  "\u2581Lle": 3948,
  "\u2581Llinyn": 3949,
  "\u2581Rhannu": 3950,
  "\u2581Sesiwn": 3951,
  "\u2581Spacing": 3952,
  "\u2581Swyddfa": 3953,
  "\u2581Sylw": 3954,
  "\u2581Tsiein\u00ebeg": 3955,
  "\u2581ddi": 3956,
  "\u2581discuss": 3957,
  "\u2581gofod": 3958,
  "\u2581megis": 3959,
  "\u2581neb": 3960,
  "\u2581oedden": 3961,
  "\u2581priodoledd": 3962,
  "\u2581signed": 3963,
  "\u2581successfully": 3964,
  "Forward": 3965,
  "Right": 3966,
  "true": 3967,
  "\u25817)": 3968,
  "\u2581Another": 3969,
  "\u2581Chwaraewyr": 3970,
  "\u2581Ffugio": 3971,
  "\u2581Human": 3972,
  "\u2581James": 3973,
  "\u2581Remember": 3974,
  "\u2581Security": 3975,
  "\u2581Teclyn": 3976,
  "\u2581UDA": 3977,
  "\u2581cofio": 3978,
  "\u2581disc": 3979,
  "\u2581everything": 3980,
  "\u2581flwyddyn": 3981,
  "\u2581land": 3982,
  "\u2581loving": 3983,
  "\u2581penderfyniadau": 3984,
  "\u2581pipe": 3985,
  "\u2581round": 3986,
  "\u2581school": 3987,
  "\u2581sorted": 3988,
  "\u2581translated": 3989,
  "RWYDD": 3990,
  "ford": 3991,
  "menu": 3992,
  "ternal": 3993,
  "\u2581Disg": 3994,
  "\u2581Ffrwydron": 3995,
  "\u2581Recent": 3996,
  "\u2581Special": 3997,
  "\u2581THE": 3998,
  "\u2581Untitled": 3999,
  "\u2581[50": 4000,
  "\u2581anghofio": 4001,
  "\u2581believe": 4002,
  "\u2581ddiwethaf": 4003,
  "\u2581encodings": 4004,
  "\u2581married": 4005,
  "\u2581personol": 4006,
  "\u2581purpose": 4007,
  "\u2581zone": 4008,
  "Restart": 4009,
  "co": 4010,
  "universal": 4011,
  "\u2581160;": 4012,
  "\u2581Case": 4013,
  "\u2581Croeso": 4014,
  "\u2581Dadwneud": 4015,
  "\u2581Golau": 4016,
  "\u2581Graph": 4017,
  "\u2581Mountain": 4018,
  "\u2581Our": 4019,
  "\u2581Priodwedd": 4020,
  "\u2581Ydy": 4021,
  "\u2581caniatadau": 4022,
  "\u2581fap": 4023,
  "\u2581galwadau": 4024,
  "\u2581lives": 4025,
  "\u2581llwyr": 4026,
  "\u2581manylion": 4027,
  "\u2581peiriant": 4028,
  "\u2581ph": 4029,
  "\u2581systems": 4030,
  "\u2581toggle": 4031,
  "\u2581ynddo": 4032,
  "Go": 4033,
  "Gweithredu": 4034,
  "J": 4035,
  "Preview": 4036,
  "end": 4037,
  "ever": 4038,
  "false": 4039,
  "gan": 4040,
  "ha": 4041,
  "ig": 4042,
  "open": 4043,
  "\u2581Browse": 4044,
  "\u2581Creek": 4045,
  "\u2581Power": 4046,
  "\u2581Roll": 4047,
  "\u2581Service": 4048,
  "\u2581XPM": 4049,
  "\u2581count": 4050,
  "\u2581ewyllys": 4051,
  "\u2581gweladwy": 4052,
  "\u2581poor": 4053,
  "\u2581sef": 4054,
  "\u2581share": 4055,
  "\u2581sources": 4056,
  "\u2581speech": 4057,
  "\u2581types": 4058,
  "1:": 4059,
  "ddelio": 4060,
  "ewch": 4061,
  "he": 4062,
  "\u2581Assistant": 4063,
  "\u2581Bloc": 4064,
  "\u2581Board": 4065,
  "\u2581Car": 4066,
  "\u2581Cyfansoddi": 4067,
  "\u2581Diweddar": 4068,
  "\u2581Form": 4069,
  "\u2581GhostScript": 4070,
  "\u2581Good": 4071,
  "\u2581KD": 4072,
  "\u2581Ko": 4073,
  "\u2581Main": 4074,
  "\u2581Noah": 4075,
  "\u2581Sul": 4076,
  "\u2581Sylfaenol": 4077,
  "\u2581cofnodion": 4078,
  "\u2581dyna": 4079,
  "\u2581nac": 4080,
  "\u2581seiniau": 4081,
  "\u2581whom": 4082,
  "\u25815)": 4083,
  "\u2581Apply": 4084,
  "\u2581Arabeg": 4085,
  "\u2581Attachment": 4086,
  "\u2581Center": 4087,
  "\u2581Content": 4088,
  "\u2581Encoding": 4089,
  "\u2581Grid": 4090,
  "\u2581Gristnogion": 4091,
  "\u2581Joseph": 4092,
  "\u2581Mexico": 4093,
  "\u2581Numbers": 4094,
  "\u2581Pe": 4095,
  "\u2581Trosi": 4096,
  "\u2581Unol": 4097,
  "\u2581Week": 4098,
  "\u2581corner": 4099,
  "\u2581cysgu": 4100,
  "\u2581ddiweddaraf": 4101,
  "\u2581diffiniad": 4102,
  "\u2581gwrando": 4103,
  "\u2581index": 4104,
  "\u2581management": 4105,
  "\u2581nodwedd": 4106,
  "\u2581region": 4107,
  "\u2581similar": 4108,
  "\u2581sudoku": 4109,
  "\u2581themselves": 4110,
  "\u2581ystyr": 4111,
  "-%": 4112,
  "ROM": 4113,
  "Time": 4114,
  "What": 4115,
  "china": 4116,
  "task": 4117,
  "\u2581Aros": 4118,
  "\u2581Catalog": 4119,
  "\u2581Coch": 4120,
  "\u2581Gludiog": 4121,
  "\u2581Gorsaf": 4122,
  "\u2581Headers": 4123,
  "\u2581Hysbysu": 4124,
  "\u2581Items": 4125,
  "\u2581Original": 4126,
  "\u2581Printing": 4127,
  "\u2581Square": 4128,
  "\u2581Ynys": 4129,
  "\u2581alw": 4130,
  "\u2581annwyl": 4131,
  "\u2581cynnig": 4132,
  "\u2581gyhoeddi": 4133,
  "\u2581overwrite": 4134,
  "\u2581training": 4135,
  "\u2581woman": 4136,
  "\u2581ymysgogol": 4137,
  "\u2581ysgrifenn": 4138,
  ":\\": 4139,
  "Date": 4140,
  "less": 4141,
  "\u25814,": 4142,
  "\u2581Bains": 4143,
  "\u2581Blue": 4144,
  "\u2581Father": 4145,
  "\u2581Force": 4146,
  "\u2581Graffeg": 4147,
  "\u2581Japanese": 4148,
  "\u2581Layer": 4149,
  "\u2581Roedden": 4150,
  "\u2581Slow": 4151,
  "\u2581Sorry": 4152,
  "\u2581SpamAssassin": 4153,
  "\u2581Tools": 4154,
  "\u2581closed": 4155,
  "\u2581commands": 4156,
  "\u2581encrypted": 4157,
  "\u2581marwolaeth": 4158,
  "\u2581perhaps": 4159,
  "\u2581period": 4160,
  "\u2581template": 4161,
  "\u2581tried": 4162,
  "\u2581weddill": 4163,
  "side": 4164,
  "\u258112)": 4165,
  "\u258115,": 4166,
  "\u258119.": 4167,
  "\u2581Arch": 4168,
  "\u2581BE": 4169,
  "\u2581Camera": 4170,
  "\u2581Contrast": 4171,
  "\u2581Llwyth": 4172,
  "\u2581Reload": 4173,
  "\u2581Rhodd": 4174,
  "\u2581Script": 4175,
  "\u2581Scriptures": 4176,
  "\u2581calendars": 4177,
  "\u2581dechreuodd": 4178,
  "\u2581diffinio": 4179,
  "\u2581estyniad": 4180,
  "\u2581gryf": 4181,
  "\u2581gweithredoedd": 4182,
  "\u2581letter": 4183,
  "\u2581participants": 4184,
  "\u2581sleep": 4185,
  "\u2581wins": 4186,
  "\u2581ymgychwyn": 4187,
  "Hello": 4188,
  "[": 4189,
  "disgwyliwyd": 4190,
  "lt": 4191,
  "\u2581100%": 4192,
  "\u258112,": 4193,
  "\u258137": 4194,
  "\u2581Byddai": 4195,
  "\u2581Elm": 4196,
  "\u2581Ffug": 4197,
  "\u2581Gorllewin": 4198,
  "\u2581Gwir": 4199,
  "\u2581Modem": 4200,
  "\u2581Ne": 4201,
  "\u2581Pick": 4202,
  "\u2581Queen": 4203,
  "\u2581Tudalennau": 4204,
  "\u2581UN": 4205,
  "\u2581completely": 4206,
  "\u2581ddisgyblion": 4207,
  "\u2581diweddariad": 4208,
  "\u2581enwi": 4209,
  "\u2581gofio": 4210,
  "\u2581length": 4211,
  "\u2581lythrennedd": 4212,
  "\u2581mo": 4213,
  "\u2581petai": 4214,
  "\u2581problemau": 4215,
  "\u2581rhannol": 4216,
  "\u2581screensaver": 4217,
  "\u2581socket": 4218,
  "button": 4219,
  "den": 4220,
  "li": 4221,
  "rwydd": 4222,
  "\u2581Contents": 4223,
  "\u2581Cynllun": 4224,
  "\u2581Echdynnu": 4225,
  "\u2581Gallwn": 4226,
  "\u2581HEB": 4227,
  "\u2581Mathew": 4228,
  "\u2581Paratoi": 4229,
  "\u2581Pass": 4230,
  "\u2581Rhes": 4231,
  "\u2581Same": 4232,
  "\u2581Scan": 4233,
  "\u2581bysellau": 4234,
  "\u2581choice": 4235,
  "\u2581dead": 4236,
  "\u2581dibynnu": 4237,
  "\u2581gorfod": 4238,
  "\u2581idea": 4239,
  "\u2581margin": 4240,
  "\u2581movement": 4241,
  "\u2581water": 4242,
  "\u2581weinidogaeth": 4243,
  "\u2581ymgom": 4244,
  "\u2581ymholiad": 4245,
  "44)": 4246,
  "Do": 4247,
  "Hoffterau": 4248,
  "ffurfio": 4249,
  "\u258100:00": 4250,
  "\u2581Adam": 4251,
  "\u2581Also": 4252,
  "\u2581Binding": 4253,
  "\u2581Caniatadau": 4254,
  "\u2581Copyright": 4255,
  "\u2581Global": 4256,
  "\u2581Host": 4257,
  "\u2581Korean": 4258,
  "\u2581Llyfrnod": 4259,
  "\u2581Miscellaneous": 4260,
  "\u2581Mor": 4261,
  "\u2581Notes": 4262,
  "\u2581Permissions": 4263,
  "\u2581Regular": 4264,
  "\u2581Sent": 4265,
  "\u2581Variable": 4266,
  "\u2581Ystadegau": 4267,
  "\u2581allwn": 4268,
  "\u2581checked": 4269,
  "\u2581cyfeirio": 4270,
  "\u2581expanded": 4271,
  "\u2581ffrind": 4272,
  "\u2581galon": 4273,
  "\u2581giving": 4274,
  "\u2581glas": 4275,
  "\u2581gwaredu": 4276,
  "\u2581hold": 4277,
  "\u2581individual": 4278,
  "\u2581tywyll": 4279,
  "\u2581weithiau": 4280,
  "\u2581willing": 4281,
  "Delwedd": 4282,
  "HAN": 4283,
  "od": 4284,
  "\u258114)": 4285,
  "\u2581Daleithiau": 4286,
  "\u2581Neidio": 4287,
  "\u2581Palm": 4288,
  "\u2581Program": 4289,
  "\u2581Report": 4290,
  "\u2581crynodeb": 4291,
  "\u2581cuddio": 4292,
  "\u2581cwmpas": 4293,
  "\u2581decision": 4294,
  "\u2581dosbarth": 4295,
  "\u2581drafod": 4296,
  "\u2581dw": 4297,
  "\u2581edge": 4298,
  "\u2581force": 4299,
  "\u2581happen": 4300,
  "\u2581however": 4301,
  "\u2581organization": 4302,
  "\u2581printed": 4303,
  "\u2581square": 4304,
  "\u2581trwm": 4305,
  "\u2581uniongyrchol": 4306,
  "Roedd": 4307,
  "Type": 4308,
  "deprecated": 4309,
  "{1}": 4310,
  "\u2581Allan": 4311,
  "\u2581Diweddariad": 4312,
  "\u2581Fax": 4313,
  "\u2581Hatter": 4314,
  "\u2581Ignore": 4315,
  "\u2581Missing": 4316,
  "\u2581Porto": 4317,
  "\u2581dwbl": 4318,
  "\u2581examples": 4319,
  "\u2581months": 4320,
  "\u2581pre": 4321,
  "\u2581scale": 4322,
  "\u2581works": 4323,
  "Dde": 4324,
  "dair": 4325,
  "var": 4326,
  "\u2581(0": 4327,
  "\u2581Amgryptio": 4328,
  "\u2581Defaults": 4329,
  "\u2581Four": 4330,
  "\u2581Hi": 4331,
  "\u2581Hwn": 4332,
  "\u2581Isdeitl": 4333,
  "\u2581Leave": 4334,
  "\u2581Matthew": 4335,
  "\u2581Others": 4336,
  "\u2581Sticky": 4337,
  "\u2581Unsupported": 4338,
  "\u2581alignment": 4339,
  "\u2581bwlch": 4340,
  "\u2581byffer": 4341,
  "\u2581ddiweddarach": 4342,
  "\u2581echelin": 4343,
  "\u2581encountered": 4344,
  "\u2581eneiniog": 4345,
  "\u2581gludiog": 4346,
  "\u2581green": 4347,
  "\u2581llusgo": 4348,
  "\u2581pwynt": 4349,
  "\u2581spell": 4350,
  "danysgrifio": 4351,
  "\u2581Atalnod": 4352,
  "\u2581Cross": 4353,
  "\u2581Ffacs": 4354,
  "\u2581KWord": 4355,
  "\u2581Nodyn": 4356,
  "\u2581Notification": 4357,
  "\u2581Ontario": 4358,
  "\u2581Uned": 4359,
  "\u2581Unedig": 4360,
  "\u2581bed": 4361,
  "\u2581cod": 4362,
  "\u2581cyhoeddi": 4363,
  "\u2581dice": 4364,
  "\u2581dyfais": 4365,
  "\u2581fail": 4366,
  "\u2581gwyn": 4367,
  "\u2581including": 4368,
  "\u2581org": 4369,
  "\u2581requests": 4370,
  "\u2581seek": 4371,
  "\u2581serious": 4372,
  "\u2581spelling": 4373,
  "\u2581taking": 4374,
  "\u2581worm": 4375,
  "Canfod": 4376,
  "Mynd": 4377,
  "Number": 4378,
  "Rho": 4379,
  "ary": 4380,
  "ster": 4381,
  "though": 4382,
  "top": 4383,
  "za": 4384,
  "\u2581Araf": 4385,
  "\u2581Definition": 4386,
  "\u2581Low": 4387,
  "\u2581Ro": 4388,
  "\u2581True": 4389,
  "\u2581amyneddgar": 4390,
  "\u2581blant": 4391,
  "\u2581cyfrifiadurol": 4392,
  "\u2581deulu": 4393,
  "\u2581linell": 4394,
  "\u2581parsing": 4395,
  "\u2581pay": 4396,
  "\u2581priodweddau": 4397,
  "\u2581ready": 4398,
  "\u2581roddwyd": 4399,
  "\u2581seem": 4400,
  "\u2581several": 4401,
  "Ar": 4402,
  "RW": 4403,
  "ah": 4404,
  "bo": 4405,
  "iwch": 4406,
  "mewn": 4407,
  "read": 4408,
  "yr": 4409,
  "\u258113,": 4410,
  "\u258115)": 4411,
  "\u258118.": 4412,
  "\u25812000": 4413,
  "\u2581Boole": 4414,
  "\u2581Category": 4415,
  "\u2581Delweddau": 4416,
  "\u2581Effect": 4417,
  "\u2581External": 4418,
  "\u2581Ffitio": 4419,
  "\u2581Gorfodi": 4420,
  "\u2581Ha": 4421,
  "\u2581Hoffe": 4422,
  "\u2581Mouse": 4423,
  "\u2581PDA": 4424,
  "\u2581Tystion": 4425,
  "\u2581aelodau": 4426,
  "\u2581ddiweddar": 4427,
  "\u2581ellyll": 4428,
  "\u2581factor": 4429,
  "\u2581fodlon": 4430,
  "\u2581gconfd": 4431,
  "\u2581graffigol": 4432,
  "\u2581hex": 4433,
  "\u2581hysbysiad": 4434,
  "\u2581km": 4435,
  "\u2581mount": 4436,
  "\u2581otherwise": 4437,
  "\u2581tyfu": 4438,
  "\u2581uwchben": 4439,
  "\u2581visit": 4440,
  "\u2581ymddwyn": 4441,
  "ANT": 4442,
  "Color": 4443,
  "Fyny": 4444,
  "US": 4445,
  "ge": 4446,
  "\u2581Allbwn": 4447,
  "\u2581Box": 4448,
  "\u2581Columbia": 4449,
  "\u2581English": 4450,
  "\u2581Ewch": 4451,
  "\u2581Perhaps": 4452,
  "\u2581Starting": 4453,
  "\u2581Symudiad": 4454,
  "\u2581Well": 4455,
  "\u2581awdurdodaeth": 4456,
  "\u2581cerdyn": 4457,
  "\u2581che": 4458,
  "\u2581fellow": 4459,
  "\u2581ffactor": 4460,
  "\u2581fish": 4461,
  "\u2581gwledydd": 4462,
  "\u2581pixbuf": 4463,
  "\u2581plain": 4464,
  "\u2581recently": 4465,
  "\u2581saeth": 4466,
  "\u2581thebyg": 4467,
  "\u2581tries": 4468,
  "\u2581wisdom": 4469,
  "Testun": 4470,
  "custom": 4471,
  "ually": 4472,
  "\u2581${": 4473,
  "\u2581CC": 4474,
  "\u2581Cyflwyniad": 4475,
  "\u2581GWIR": 4476,
  "\u2581Marvel": 4477,
  "\u2581News": 4478,
  "\u2581Sh": 4479,
  "\u2581Te": 4480,
  "\u2581age": 4481,
  "\u2581amodau": 4482,
  "\u2581arbed": 4483,
  "\u2581cryno": 4484,
  "\u2581ffiniau": 4485,
  "\u2581gyfrif": 4486,
  "\u2581llawenydd": 4487,
  "\u2581logio": 4488,
  "\u2581mlynedd": 4489,
  "\u2581restored": 4490,
  "\u2581sea": 4491,
  "\u2581timeout": 4492,
  "\u2581trosi": 4493,
  "Act": 4494,
  "CE": 4495,
  "Nid": 4496,
  "Size": 4497,
  "eoli": 4498,
  "riniaeth": 4499,
  "\u2581(12": 4500,
  "\u2581Ffwythiant": 4501,
  "\u2581France": 4502,
  "\u2581Layout": 4503,
  "\u2581Process": 4504,
  "\u2581Usage": 4505,
  "\u2581arnyn": 4506,
  "\u2581beginning": 4507,
  "\u2581build": 4508,
  "\u2581chapter": 4509,
  "\u2581cyflymder": 4510,
  "\u2581cymhwysiad": 4511,
  "\u2581ddylech": 4512,
  "\u2581deal": 4513,
  "\u2581distribution": 4514,
  "\u2581frodyr": 4515,
  "\u2581gop\u00efo": 4516,
  "\u2581locale": 4517,
  "\u2581mwydyn": 4518,
  "\u2581myself": 4519,
  "\u2581pixmap": 4520,
  "\u2581rolls": 4521,
  "\u2581s\u00f4n": 4522,
  "\u2581ymddygiad": 4523,
  "Tab": 4524,
  "csv": 4525,
  "ive": 4526,
  "meeting": 4527,
  "ot": 4528,
  "\u2581Cyrchu": 4529,
  "\u2581Diogelwch": 4530,
  "\u2581Hen": 4531,
  "\u2581Input": 4532,
  "\u2581Kolab": 4533,
  "\u2581Po": 4534,
  "\u2581Sgrolio": 4535,
  "\u2581Territory": 4536,
  "\u2581automatic": 4537,
  "\u2581business": 4538,
  "\u2581charge": 4539,
  "\u2581convert": 4540,
  "\u2581ddatrys": 4541,
  "\u2581early": 4542,
  "\u2581extension": 4543,
  "\u2581galed": 4544,
  "\u2581gyrraedd": 4545,
  "\u2581notice": 4546,
  "\u2581percentage": 4547,
  "\u2581provides": 4548,
  "\u2581rheolau": 4549,
  "\u2581views": 4550,
  ".--": 4551,
  "nes": 4552,
  "red": 4553,
  "ural": 4554,
  "\u258110,": 4555,
  "\u2581Dilysiant": 4556,
  "\u2581Monte": 4557,
  "\u2581Paragraph": 4558,
  "\u2581Promptio": 4559,
  "\u2581Sets": 4560,
  "\u2581Terfyn": 4561,
  "\u2581bore": 4562,
  "\u2581cards": 4563,
  "\u2581cyfle": 4564,
  "\u2581drosodd": 4565,
  "\u2581ffilm": 4566,
  "\u2581food": 4567,
  "\u2581g\u0175r": 4568,
  "\u2581ladd": 4569,
  "\u2581launcher": 4570,
  "\u2581llall": 4571,
  "\u2581lot": 4572,
  "\u2581occurrence": 4573,
  "\u2581policy": 4574,
  "\u2581rich": 4575,
  "In": 4576,
  "local": 4577,
  "\u2581%1:": 4578,
  "\u2581Ateb": 4579,
  "\u2581Boeun": 4580,
  "\u2581Call": 4581,
  "\u2581Cofnod": 4582,
  "\u2581EN": 4583,
  "\u2581Got": 4584,
  "\u2581Hope": 4585,
  "\u2581Info": 4586,
  "\u2581Juliet": 4587,
  "\u2581Playlist": 4588,
  "\u2581Rhybuddio": 4589,
  "\u2581Sail": 4590,
  "\u2581Valley": 4591,
  "\u2581common": 4592,
  "\u2581ddaeth": 4593,
  "\u2581dyddiadau": 4594,
  "\u2581ffolder": 4595,
  "\u2581fixed": 4596,
  "\u2581forever": 4597,
  "\u2581llofnodi": 4598,
  "\u2581points": 4599,
  "\u2581prove": 4600,
  "\u2581rhyddid": 4601,
  "\u2581th": 4602,
  "\u2581wledydd": 4603,
  "Background": 4604,
  "Dadwneud": 4605,
  "NESS": 4606,
  "channel": 4607,
  "ez": 4608,
  "print": 4609,
  "root": 4610,
  "way": 4611,
  "ya": 4612,
  "\u044f": 4613,
  "\u2581.--": 4614,
  "\u2581Archif": 4615,
  "\u2581Chapter": 4616,
  "\u2581Database": 4617,
  "\u2581Rio": 4618,
  "\u2581Rotate": 4619,
  "\u2581TO": 4620,
  "\u2581Us": 4621,
  "\u2581bedyddio": 4622,
  "\u2581brofi": 4623,
  "\u2581dear": 4624,
  "\u2581died": 4625,
  "\u2581dylech": 4626,
  "\u2581ganlynol": 4627,
  "\u2581hwyr": 4628,
  "\u2581interval": 4629,
  "\u2581members": 4630,
  "\u2581nodweddion": 4631,
  "\u2581piece": 4632,
  "\u2581pwyntydd": 4633,
  "\u2581rhain": 4634,
  "\u2581stretch": 4635,
  "\u2581wishes": 4636,
  "\u2581written": 4637,
  "\u2581ysgrifo": 4638,
  "Cyfeiriad": 4639,
  "Run": 4640,
  "cefndir": 4641,
  "ma": 4642,
  "\u2581(2)": 4643,
  "\u2581160;...": 4644,
  "\u258123.": 4645,
  "\u2581Accessibility": 4646,
  "\u2581Author": 4647,
  "\u2581Cl": 4648,
  "\u2581Give": 4649,
  "\u2581Instead": 4650,
  "\u2581Llun": 4651,
  "\u2581Mewnbwn": 4652,
  "\u2581Mynegai": 4653,
  "\u2581Radio": 4654,
  "\u2581Rhufeiniaid": 4655,
  "\u2581Romans": 4656,
  "\u2581Second": 4657,
  "\u2581Who": 4658,
  "\u2581accelerator": 4659,
  "\u2581chosen": 4660,
  "\u2581cysgod": 4661,
  "\u2581ddigwydd": 4662,
  "\u2581defnyddiwch": 4663,
  "\u2581denied": 4664,
  "\u2581expand": 4665,
  "\u2581fork": 4666,
  "\u2581gweithrediad": 4667,
  "\u2581hollol": 4668,
  "\u2581husband": 4669,
  "\u2581kept": 4670,
  "\u2581marcio": 4671,
  "\u2581ratio": 4672,
  "40": 4673,
  "gwerth": 4674,
  "left": 4675,
  "que": 4676,
  "\u2581Adda": 4677,
  "\u2581Community": 4678,
  "\u2581Eitem": 4679,
  "\u2581Fi": 4680,
  "\u2581Medium": 4681,
  "\u2581Priority": 4682,
  "\u2581Samuel": 4683,
  "\u2581USB": 4684,
  "\u2581additional": 4685,
  "\u2581blentyn": 4686,
  "\u2581cronfa": 4687,
  "\u2581half": 4688,
  "\u2581llamu": 4689,
  "\u2581morning": 4690,
  "\u2581operator": 4691,
  "\u2581thoughts": 4692,
  "\u2581topic": 4693,
  "\u2581unsupported": 4694,
  "NORMAL": 4695,
  "None": 4696,
  "UO": 4697,
  "\u2581(+": 4698,
  "\u258122:": 4699,
  "\u2581Awdur": 4700,
  "\u2581Cymorth": 4701,
  "\u2581Cysawd": 4702,
  "\u2581Dab": 4703,
  "\u2581Indiaidd": 4704,
  "\u2581Letter": 4705,
  "\u2581Meta": 4706,
  "\u2581Most": 4707,
  "\u2581Nawr": 4708,
  "\u2581Pi": 4709,
  "\u2581Statistics": 4710,
  "\u2581Still": 4711,
  "\u2581T\u0177": 4712,
  "\u2581arloesi": 4713,
  "\u2581awgrymu": 4714,
  "\u2581bathodyn": 4715,
  "\u2581clici": 4716,
  "\u2581fedyddio": 4717,
  "\u2581hands": 4718,
  "\u2581mwynhau": 4719,
  "\u2581naidlen": 4720,
  "\u2581oni": 4721,
  "\u2581operand": 4722,
  "\u2581properly": 4723,
  "\u2581resi": 4724,
  "\u2581statusbar": 4725,
  "\u2581symboli": 4726,
  "\u2581warranty": 4727,
  "\u2581weather": 4728,
  "\u2581weithredol": 4729,
  "\u2581ymylon": 4730,
  "!--": 4731,
  "ETH": 4732,
  "bottom": 4733,
  "ize": 4734,
  "\u00e1n": 4735,
  "\u2581\")": 4736,
  "\u258113)": 4737,
  "\u2581Checking": 4738,
  "\u2581Cloi": 4739,
  "\u2581Cyfredol": 4740,
  "\u2581Nodiadau": 4741,
  "\u2581Watch": 4742,
  "\u2581Wyt": 4743,
  "\u2581agoriadol": 4744,
  "\u2581bytes": 4745,
  "\u2581echdynnu": 4746,
  "\u2581groups": 4747,
  "\u2581marked": 4748,
  "\u2581mentioned": 4749,
  "\u2581noson": 4750,
  "\u2581relationship": 4751,
  "\u2581spool": 4752,
  "\u2581starts": 4753,
  "\u2581talu": 4754,
  "\u2581ymuno": 4755,
  "full": 4756,
  "lx": 4757,
  "size": 4758,
  "string": 4759,
  "ted": 4760,
  "\u2581Amount": 4761,
  "\u2581Functions": 4762,
  "\u2581Fy": 4763,
  "\u2581Lleol": 4764,
  "\u2581Logo": 4765,
  "\u2581Mod": 4766,
  "\u2581PostScript": 4767,
  "\u2581SONG": 4768,
  "\u2581Spell": 4769,
  "\u2581Timothy": 4770,
  "\u2581Tybalt": 4771,
  "\u2581amnewid": 4772,
  "\u2581aspect": 4773,
  "\u2581atodiadau": 4774,
  "\u2581comfort": 4775,
  "\u2581contrast": 4776,
  "\u2581directories": 4777,
  "\u2581en": 4778,
  "\u2581equal": 4779,
  "\u2581extra": 4780,
  "\u2581ffurfio": 4781,
  "\u2581gwell": 4782,
  "\u2581gwely": 4783,
  "\u2581meddyliau": 4784,
  "\u2581palette": 4785,
  "\u2581rest": 4786,
  "\u2581ryw": 4787,
  "\u2581section": 4788,
  "\u2581simply": 4789,
  "ficial": 4790,
  "ified": 4791,
  "unit": 4792,
  "yd": 4793,
  "}": 4794,
  "\u0435": 4795,
  "\u25819:": 4796,
  "\u2581CANE": 4797,
  "\u2581Cylchdroi": 4798,
  "\u2581Never": 4799,
  "\u2581Papur": 4800,
  "\u2581Quebec": 4801,
  "\u2581Room": 4802,
  "\u2581Running": 4803,
  "\u2581benodir": 4804,
  "\u2581brenin": 4805,
  "\u2581deep": 4806,
  "\u2581falch": 4807,
  "\u2581ffurflen": 4808,
  "\u2581goes": 4809,
  "\u2581hyfforddi": 4810,
  "\u2581llam": 4811,
  "\u2581locally": 4812,
  "\u2581meet": 4813,
  "\u2581ransom": 4814,
  "\u2581sendmail": 4815,
  "\u2581south": 4816,
  "\u2581tywydd": 4817,
  "Pos": 4818,
  "Prysur": 4819,
  "Statws": 4820,
  "aeth": 4821,
  "gnome": 4822,
  "\u2581%.2": 4823,
  "\u258117:": 4824,
  "\u258134": 4825,
  "\u2581Actions": 4826,
  "\u2581Arglwydd": 4827,
  "\u2581Cysoni": 4828,
  "\u2581Diddymwyd": 4829,
  "\u2581Disk": 4830,
  "\u2581Hangul": 4831,
  "\u2581Hidlydd": 4832,
  "\u2581JULIET": 4833,
  "\u2581JULlET": 4834,
  "\u2581awdurdod": 4835,
  "\u2581blaendir": 4836,
  "\u2581compressed": 4837,
  "\u2581counsel": 4838,
  "\u2581determined": 4839,
  "\u2581distribute": 4840,
  "\u2581golofnau": 4841,
  "\u2581gwelydd": 4842,
  "\u2581llwyth": 4843,
  "\u2581minimum": 4844,
  "\u2581national": 4845,
  "\u2581office": 4846,
  "\u2581parth": 4847,
  "\u2581priority": 4848,
  "\u2581unigryw": 4849,
  "2001": 4850,
  "Clirio": 4851,
  "Dad": 4852,
  "Gosodiadau": 4853,
  "Newid": 4854,
  "riting": 4855,
  "ver": 4856,
  "\u2581Algorithm": 4857,
  "\u2581Appearance": 4858,
  "\u2581Atlantai": 4859,
  "\u2581Colofnau": 4860,
  "\u2581Completed": 4861,
  "\u2581Convert": 4862,
  "\u2581Palette": 4863,
  "\u2581Uchafswm": 4864,
  "\u2581appears": 4865,
  "\u2581benodwyd": 4866,
  "\u2581cysoni": 4867,
  "\u2581datrys": 4868,
  "\u2581ddywedodd": 4869,
  "\u2581discipline": 4870,
  "\u2581esbonio": 4871,
  "\u2581fewnbwn": 4872,
  "\u2581fodd": 4873,
  "\u2581gone": 4874,
  "\u2581gorffennol": 4875,
  "\u2581hidlydd": 4876,
  "\u2581hwyrach": 4877,
  "\u2581leol": 4878,
  "\u2581lower": 4879,
  "\u2581mewnosod": 4880,
  "\u2581notifications": 4881,
  "\u2581passwords": 4882,
  "\u2581promise": 4883,
  "\u2581qualities": 4884,
  "\u2581ragor": 4885,
  "\u2581replaced": 4886,
  "\u2581stand": 4887,
  "\u2581tax": 4888,
  "\u2581trawsnewid": 4889,
  "End": 4890,
  "Toolbar": 4891,
  "\\@": 4892,
  "\u2581Area": 4893,
  "\u2581Carolina": 4894,
  "\u2581Cylch": 4895,
  "\u2581Dosbarth": 4896,
  "\u2581Extension": 4897,
  "\u2581Flag": 4898,
  "\u2581Harbour": 4899,
  "\u2581Importing": 4900,
  "\u2581Mat": 4901,
  "\u2581Saeth": 4902,
  "\u2581Super": 4903,
  "\u2581Turkish": 4904,
  "\u2581adroddiad": 4905,
  "\u2581alarms": 4906,
  "\u2581allgofnodi": 4907,
  "\u2581category": 4908,
  "\u2581comment": 4909,
  "\u2581cyffredinol": 4910,
  "\u2581especially": 4911,
  "\u2581ffrwydron": 4912,
  "\u2581munudau": 4913,
  "\u2581parsed": 4914,
  "\u2581seiliedig": 4915,
  "\u2581soced": 4916,
  "\u2581step": 4917,
  "\u2581trosglwyddiad": 4918,
  "\u2581uri": 4919,
  "OUT": 4920,
  "Password": 4921,
  "Reset": 4922,
  "Wlad": 4923,
  "ei": 4924,
  "gar": 4925,
  "ting": 4926,
  "tt": 4927,
  "\u0435\u043c": 4928,
  "\u2581Del": 4929,
  "\u2581Eastern": 4930,
  "\u2581Ga": 4931,
  "\u2581Inline": 4932,
  "\u2581Ka": 4933,
  "\u2581Luc": 4934,
  "\u2581Mongolia": 4935,
  "\u2581Pointer": 4936,
  "\u2581Ra": 4937,
  "\u2581Sender": 4938,
  "\u2581Unrhyw": 4939,
  "\u2581WIR": 4940,
  "\u2581attach": 4941,
  "\u2581canran": 4942,
  "\u2581corrupt": 4943,
  "\u2581estyn": 4944,
  "\u2581fotwm": 4945,
  "\u2581funud": 4946,
  "\u2581gadarnhad": 4947,
  "\u2581gofnod": 4948,
  "\u2581gweithredol": 4949,
  "\u2581llif": 4950,
  "\u2581llygaid": 4951,
  "\u2581million": 4952,
  "\u2581modem": 4953,
  "\u2581playlist": 4954,
  "\u2581roddir": 4955,
  "\u2581stopped": 4956,
  "\u2581t\u0177": 4957,
  "\u2581ydw": 4958,
  "Argraffu": 4959,
  "PAS": 4960,
  "age": 4961,
  "ston": 4962,
  "\u2581300": 4963,
  "\u25819)": 4964,
  "\u2581Baltic": 4965,
  "\u2581Benbwrdd": 4966,
  "\u2581Dechreuwr": 4967,
  "\u2581Dywed": 4968,
  "\u2581Edge": 4969,
  "\u2581Guinea": 4970,
  "\u2581March": 4971,
  "\u2581Mewnforiwr": 4972,
  "\u2581Penawdau": 4973,
  "\u2581People": 4974,
  "\u2581Pie": 4975,
  "\u2581Skip": 4976,
  "\u2581Tanysgrifio": 4977,
  "\u2581amryw": 4978,
  "\u2581appointments": 4979,
  "\u2581assignment": 4980,
  "\u2581bawb": 4981,
  "\u2581cyflwyno": 4982,
  "\u2581dewislenni": 4983,
  "\u2581ganlyniad": 4984,
  "\u2581geometry": 4985,
  "\u2581grwpiau": 4986,
  "\u2581orientation": 4987,
  "\u2581perthynas": 4988,
  "\u2581p\u00e2r": 4989,
  "\u2581sbwlio": 4990,
  "\u2581six": 4991,
  "\u2581truly": 4992,
  "\u2581typed": 4993,
  "\u2581wrthwynebwyr": 4994,
  "005": 4995,
  "Dewis": 4996,
  "Ffeiliau": 4997,
  "LEX": 4998,
  "NAME": 4999,
  "ja": 5000,
  "led": 5001,
  "style": 5002,
  "\u2581Bicky": 5003,
  "\u2581Big": 5004,
  "\u2581Dilyn": 5005,
  "\u2581Downloading": 5006,
  "\u2581Extra": 5007,
  "\u2581Ffr\u00e2m": 5008,
  "\u2581NNTP": 5009,
  "\u2581Preparing": 5010,
  "\u2581SIP": 5011,
  "\u2581Straight": 5012,
  "\u2581classic": 5013,
  "\u2581cyflunio": 5014,
  "\u2581cyfseriadau": 5015,
  "\u2581depend": 5016,
  "\u2581driver": 5017,
  "\u2581fewnosod": 5018,
  "\u2581ff\u00f4n": 5019,
  "\u2581front": 5020,
  "\u2581glo": 5021,
  "\u2581mines": 5022,
  "\u2581opponents": 5023,
  "\u2581storage": 5024,
  "Ailgychwyn": 5025,
  "Cysylltu": 5026,
  "DVD": 5027,
  "Sgwrs": 5028,
  "TICUL": 5029,
  "blygellau": 5030,
  "fynd": 5031,
  "iaeth": 5032,
  "sk": 5033,
  "tab": 5034,
  "\u2581Canolig": 5035,
  "\u2581Cyfuno": 5036,
  "\u2581Gorllewinol": 5037,
  "\u2581Initial": 5038,
  "\u2581Just": 5039,
  "\u2581Newidiwyd": 5040,
  "\u2581PURPOSE": 5041,
  "\u2581Paris": 5042,
  "\u2581Progress": 5043,
  "\u2581Selector": 5044,
  "\u2581Separator": 5045,
  "\u2581Turn": 5046,
  "\u2581artist": 5047,
  "\u2581coming": 5048,
  "\u2581gormod": 5049,
  "\u2581modiwl": 5050,
  "\u2581obtain": 5051,
  "\u2581perthnasol": 5052,
  "\u2581programs": 5053,
  "\u2581teipio": 5054,
  "\u2581temple": 5055,
  "\u2581warant": 5056,
  "LITY": 5057,
  "TAB": 5058,
  "Ymlaen": 5059,
  "cy": 5060,
  "ful": 5061,
  "\u2581Card": 5062,
  "\u2581Characters": 5063,
  "\u2581FIT": 5064,
  "\u2581Memos": 5065,
  "\u2581Netscape": 5066,
  "\u2581Nightmare": 5067,
  "\u2581Orllewin": 5068,
  "\u2581Pedwar": 5069,
  "\u2581Primary": 5070,
  "\u2581Query": 5071,
  "\u2581Teipi": 5072,
  "\u2581Tel": 5073,
  "\u2581Teleport": 5074,
  "\u2581Term": 5075,
  "\u2581Wythnos": 5076,
  "\u2581activity": 5077,
  "\u2581amgodio": 5078,
  "\u2581attempt": 5079,
  "\u2581cwestiynau": 5080,
  "\u2581cyfnewid": 5081,
  "\u2581darnau": 5082,
  "\u2581dawel": 5083,
  "\u2581ddigwyddodd": 5084,
  "\u2581decide": 5085,
  "\u2581edefyn": 5086,
  "\u2581ffeithiau": 5087,
  "\u2581filters": 5088,
  "\u2581godi": 5089,
  "\u2581gyflawn": 5090,
  "\u2581gyfnod": 5091,
  "\u2581indicator": 5092,
  "\u2581mab": 5093,
  "\u2581meta": 5094,
  "\u2581raglen": 5095,
  "\u2581shared": 5096,
  "\u2581supports": 5097,
  "\u2581toglu": 5098,
  "\u2581walk": 5099,
  "Busy": 5100,
  "apps": 5101,
  "chi": 5102,
  "mer": 5103,
  "none": 5104,
  "\u2581Accelerator": 5105,
  "\u2581Additional": 5106,
  "\u2581Arrow": 5107,
  "\u2581Baner": 5108,
  "\u2581Blaenoriaeth": 5109,
  "\u2581Cyferbyniad": 5110,
  "\u2581Cyrhaedd": 5111,
  "\u2581Dwyrain": 5112,
  "\u2581Ei": 5113,
  "\u2581Forms": 5114,
  "\u2581Fullscreen": 5115,
  "\u2581Ie": 5116,
  "\u2581Pecynnau": 5117,
  "\u2581Pwy": 5118,
  "\u2581Se": 5119,
  "\u2581Village": 5120,
  "\u2581behind": 5121,
  "\u2581benderfynu": 5122,
  "\u2581blynyddoedd": 5123,
  "\u2581books": 5124,
  "\u2581cardiau": 5125,
  "\u2581cyflym": 5126,
  "\u2581darn": 5127,
  "\u2581dis": 5128,
  "\u2581dymuno": 5129,
  "\u2581executable": 5130,
  "\u2581ganrif": 5131,
  "\u2581herself": 5132,
  "\u2581highlight": 5133,
  "\u2581lansiwr": 5134,
  "\u2581related": 5135,
  "\u2581setup": 5136,
  "\u2581specifie": 5137,
  "\u2581taflu": 5138,
  "\u2581women": 5139,
  "Chwarae": 5140,
  "Server": 5141,
  "enw": 5142,
  "icrosoft": 5143,
  "struct": 5144,
  "tion": 5145,
  "\u258135": 5146,
  "\u2581Alinio": 5147,
  "\u2581Allanol": 5148,
  "\u2581Before": 5149,
  "\u2581Bobbie": 5150,
  "\u2581Class": 5151,
  "\u2581Gossip": 5152,
  "\u2581Jerwsalem": 5153,
  "\u2581Junction": 5154,
  "\u2581SVG": 5155,
  "\u2581Storm": 5156,
  "\u2581Terfynell": 5157,
  "\u2581Upper": 5158,
  "\u2581Username": 5159,
  "\u2581York": 5160,
  "\u2581addas": 5161,
  "\u2581anffodus": 5162,
  "\u2581brightness": 5163,
  "\u2581clicking": 5164,
  "\u2581ddarganfod": 5165,
  "\u2581gadew": 5166,
  "\u2581gliniadur": 5167,
  "\u2581gorchmynion": 5168,
  "\u2581gynhelir": 5169,
  "\u2581hwy": 5170,
  "\u2581h\u0177n": 5171,
  "\u2581listen": 5172,
  "\u2581rendering": 5173,
  "\u2581sessions": 5174,
  "\u2581variable": 5175,
  "\u2581wrtho": 5176,
  "GStreamer": 5177,
  "abbreviat": 5178,
  "fg": 5179,
  "large": 5180,
  "ock": 5181,
  "sp": 5182,
  "space": 5183,
  "\u2581Amlapio": 5184,
  "\u2581Amryw": 5185,
  "\u2581Ba": 5186,
  "\u2581Gefn": 5187,
  "\u2581Integer": 5188,
  "\u2581Joseff": 5189,
  "\u2581Lansio": 5190,
  "\u2581MD": 5191,
  "\u2581Old": 5192,
  "\u2581Operator": 5193,
  "\u2581Orange": 5194,
  "\u2581Prevent": 5195,
  "\u2581Warn": 5196,
  "\u2581arwydd": 5197,
  "\u2581broken": 5198,
  "\u2581clicio": 5199,
  "\u2581ddewisir": 5200,
  "\u2581dwyn": 5201,
  "\u2581egwyddorion": 5202,
  "\u2581ga": 5203,
  "\u2581glir": 5204,
  "\u2581gymharu": 5205,
  "\u2581hidlyddion": 5206,
  "\u2581mine": 5207,
  "\u2581partial": 5208,
  "\u2581perform": 5209,
  "\u2581reach": 5210,
  "\u2581signal": 5211,
  "\u2581str": 5212,
  "\u2581swydd": 5213,
  "\u2581swyddfa": 5214,
  "\u2581unavailable": 5215,
  "Hide": 5216,
  "Id": 5217,
  "Lock": 5218,
  "MD": 5219,
  "Teitl": 5220,
  "enburg": 5221,
  "fel": 5222,
  "\u2581Baltig": 5223,
  "\u2581Complete": 5224,
  "\u2581Congratulations": 5225,
  "\u2581Eiconau": 5226,
  "\u2581Gweithredoedd": 5227,
  "\u2581IM": 5228,
  "\u2581Interface": 5229,
  "\u2581Jerusalem": 5230,
  "\u2581Mercutio": 5231,
  "\u2581Rhyngwyneb": 5232,
  "\u2581Sea": 5233,
  "\u2581Snow": 5234,
  "\u2581addition": 5235,
  "\u2581awto": 5236,
  "\u2581copied": 5237,
  "\u2581dioddef": 5238,
  "\u2581diweddar": 5239,
  "\u2581fam": 5240,
  "\u2581fast": 5241,
  "\u2581feelings": 5242,
  "\u2581ferch": 5243,
  "\u2581float": 5244,
  "\u2581hecs": 5245,
  "\u2581ieithoedd": 5246,
  "\u2581parts": 5247,
  "\u2581pioneer": 5248,
  "\u2581principles": 5249,
  "\u2581reasons": 5250,
  "\u2581refer": 5251,
  "\u2581rym": 5252,
  "\u2581separator": 5253,
  "\u2581weision": 5254,
  "Adfer": 5255,
  "Indiana": 5256,
  "SO": 5257,
  "info": 5258,
  "nir": 5259,
  "ty": 5260,
  "\u2581720": 5261,
  "\u2581Ardal": 5262,
  "\u2581Bend": 5263,
  "\u2581Categori": 5264,
  "\u2581Chess": 5265,
  "\u2581Columns": 5266,
  "\u2581Congo": 5267,
  "\u2581Crist": 5268,
  "\u2581Cyfuniad": 5269,
  "\u2581Cynyddu": 5270,
  "\u2581Dan": 5271,
  "\u2581Destination": 5272,
  "\u2581Dw": 5273,
  "\u2581FALSE": 5274,
  "\u2581Foreground": 5275,
  "\u2581Geiriau": 5276,
  "\u2581Issued": 5277,
  "\u2581Ki": 5278,
  "\u2581Louis": 5279,
  "\u2581Marie": 5280,
  "\u2581Organization": 5281,
  "\u2581Prince": 5282,
  "\u2581Rome": 5283,
  "\u2581Sefydlu": 5284,
  "\u2581Taflu": 5285,
  "\u2581Val": 5286,
  "\u2581Vietnamese": 5287,
  "\u2581WITH": 5288,
  "\u2581Xnest": 5289,
  "\u2581amrediad": 5290,
  "\u2581belongs": 5291,
  "\u2581canlyniad": 5292,
  "\u2581daughter": 5293,
  "\u2581endid": 5294,
  "\u2581expired": 5295,
  "\u2581gwefru": 5296,
  "\u2581pass": 5297,
  "\u2581patient": 5298,
  "\u2581penawdau": 5299,
  "\u2581proceed": 5300,
  "\u2581pysgodyn": 5301,
  "\u2581p\u00eal": 5302,
  "\u2581shadow": 5303,
  "Alt": 5304,
  "Dyddiad": 5305,
  "Ffenestri": 5306,
  "Game": 5307,
  "Llongyfarchiadau": 5308,
  "Luc": 5309,
  "ina": 5310,
  "like": 5311,
  "\u0432\u0440": 5312,
  "\u062f": 5313,
  "\u0631": 5314,
  "\u2581Alarm": 5315,
  "\u2581Canran": 5316,
  "\u2581Con": 5317,
  "\u2581Gryphon": 5318,
  "\u2581Ieithoedd": 5319,
  "\u2581Marks": 5320,
  "\u2581Module": 5321,
  "\u2581Presentation": 5322,
  "\u2581Speech": 5323,
  "\u2581Yet": 5324,
  "\u2581arrive": 5325,
  "\u2581authorities": 5326,
  "\u2581century": 5327,
  "\u2581cysyllt": 5328,
  "\u2581ddiogel": 5329,
  "\u2581llwyddiannus": 5330,
  "\u2581ofn": 5331,
  "\u2581phobl": 5332,
  "\u2581residence": 5333,
  "\u2581rywbeth": 5334,
  "\u2581selecting": 5335,
  "\u2581sense": 5336,
  "\u2581trywydd": 5337,
  "Only": 5338,
  "PID": 5339,
  "Region": 5340,
  "Yes": 5341,
  "are": 5342,
  "arious": 5343,
  "display": 5344,
  "rd": 5345,
  "system": 5346,
  "\u2581$": 5347,
  "\u2581%3": 5348,
  "\u2581'/'": 5349,
  "\u25813=": 5350,
  "\u2581400": 5351,
  "\u2581Alberta": 5352,
  "\u2581Align": 5353,
  "\u2581American": 5354,
  "\u2581Caniat\u00e2d": 5355,
  "\u2581Datgysylltu": 5356,
  "\u2581Diwedd": 5357,
  "\u2581Eitemau": 5358,
  "\u2581Gogwydd": 5359,
  "\u2581Iddewon": 5360,
  "\u2581Overwrite": 5361,
  "\u2581Perchennog": 5362,
  "\u2581Rapid": 5363,
  "\u2581Removing": 5364,
  "\u2581Victoria": 5365,
  "\u2581\\\\": 5366,
  "\u2581ailadrodd": 5367,
  "\u2581algorithm": 5368,
  "\u2581angle": 5369,
  "\u2581anyone": 5370,
  "\u2581apwyntiadau": 5371,
  "\u2581arni": 5372,
  "\u2581blank": 5373,
  "\u2581busnes": 5374,
  "\u2581consol": 5375,
  "\u2581dd": 5376,
  "\u2581directly": 5377,
  "\u2581dpi": 5378,
  "\u2581drefnu": 5379,
  "\u2581drin": 5380,
  "\u2581esiamplau": 5381,
  "\u2581gwedd\u00efo": 5382,
  "\u2581hostname": 5383,
  "\u2581integer": 5384,
  "\u2581lose": 5385,
  "\u2581ofni": 5386,
  "\u2581outside": 5387,
  "\u2581panels": 5388,
  "\u2581penderfyniad": 5389,
  "\u2581services": 5390,
  "\u2581showed": 5391,
  "\u2581strengthen": 5392,
  "\u2581timezone": 5393,
  "\u2581wrthyf": 5394,
  "5)": 5395,
  "Enter": 5396,
  "FILE": 5397,
  "bl": 5398,
  "ian": 5399,
  "isiau": 5400,
  "lmost": 5401,
  "nage": 5402,
  "oggle": 5403,
  "window": 5404,
  "with": 5405,
  "\u258150%": 5406,
  "\u2581Album": 5407,
  "\u2581Cyffredin": 5408,
  "\u2581Expand": 5409,
  "\u2581Fill": 5410,
  "\u2581Fonts": 5411,
  "\u2581Hua": 5412,
  "\u2581Increase": 5413,
  "\u2581Mawrth": 5414,
  "\u2581Modiwl": 5415,
  "\u2581Record": 5416,
  "\u2581Sa": 5417,
  "\u2581String": 5418,
  "\u2581Weladwy": 5419,
  "\u2581byddi": 5420,
  "\u2581canol": 5421,
  "\u2581eilaidd": 5422,
  "\u2581geometreg": 5423,
  "\u2581glic": 5424,
  "\u2581holi": 5425,
  "\u2581interest": 5426,
  "\u2581kill": 5427,
  "\u2581naturiol": 5428,
  "\u2581ostyngedig": 5429,
  "\u2581refused": 5430,
  "\u2581rhyddhau": 5431,
  "\u2581sensitive": 5432,
  "\u2581stock": 5433,
  "Default": 5434,
  "adwy": 5435,
  "illo": 5436,
  "label": 5437,
  "meddai": 5438,
  "pa": 5439,
  "polis": 5440,
  "sufficient": 5441,
  "\u2581150": 5442,
  "\u2581Follow": 5443,
  "\u2581GnuPG": 5444,
  "\u2581Haven": 5445,
  "\u2581Kemp": 5446,
  "\u2581Lawrence": 5447,
  "\u2581Pack": 5448,
  "\u2581Perform": 5449,
  "\u2581Playing": 5450,
  "\u2581Reversi": 5451,
  "\u2581Servers": 5452,
  "\u2581Tra": 5453,
  "\u2581Virtual": 5454,
  "\u2581Will": 5455,
  "\u2581amgylchedd": 5456,
  "\u2581appropriate": 5457,
  "\u2581articles": 5458,
  "\u2581bwyd": 5459,
  "\u2581cytuno": 5460,
  "\u2581ddosbarthu": 5461,
  "\u2581diddymu": 5462,
  "\u2581drawsnewid": 5463,
  "\u2581dynodi": 5464,
  "\u2581fs": 5465,
  "\u2581glywed": 5466,
  "\u2581gyfraith": 5467,
  "\u2581inserted": 5468,
  "\u2581llawen": 5469,
  "\u2581loved": 5470,
  "\u2581saib": 5471,
  "\u2581sometimes": 5472,
  "\u2581steps": 5473,
  "\u2581taught": 5474,
  "\u2581understood": 5475,
  "Priodweddau": 5476,
  "Title": 5477,
  "cio": 5478,
  "distribute": 5479,
  "ito": 5480,
  "never": 5481,
  "ring": 5482,
  "search": 5483,
  "vertical": 5484,
  "\u258117)": 5485,
  "\u2581Cywir": 5486,
  "\u2581Datrys": 5487,
  "\u2581Eve": 5488,
  "\u2581Gweinyddion": 5489,
  "\u2581Jonathan": 5490,
  "\u2581Llygoden": 5491,
  "\u2581Lord": 5492,
  "\u2581PC": 5493,
  "\u2581Person": 5494,
  "\u2581Proses": 5495,
  "\u2581Real": 5496,
  "\u2581Skype": 5497,
  "\u2581Sync": 5498,
  "\u2581Wedyn": 5499,
  "\u2581adrodd": 5500,
  "\u2581berson": 5501,
  "\u2581charged": 5502,
  "\u2581clasurol": 5503,
  "\u2581ddinas": 5504,
  "\u2581ddylen": 5505,
  "\u2581enwedig": 5506,
  "\u2581exactly": 5507,
  "\u2581fedr": 5508,
  "\u2581graphical": 5509,
  "\u2581gweinyddion": 5510,
  "\u2581mater": 5511,
  "\u2581papur": 5512,
  "\u2581parameters": 5513,
  "\u2581perfect": 5514,
  "\u2581restarted": 5515,
  "\u2581rotate": 5516,
  "\u2581song": 5517,
  "\u2581spoke": 5518,
  "\u2581strwythur": 5519,
  "\u2581travel": 5520,
  "\u2581visibility": 5521,
  "ANY": 5522,
  "And": 5523,
  "Beth": 5524,
  "Desktop": 5525,
  "El": 5526,
  "ID": 5527,
  "Not": 5528,
  "Page": 5529,
  "RHYW": 5530,
  "di": 5531,
  "ho": 5532,
  "over": 5533,
  "user": 5534,
  "\u2581Alignment": 5535,
  "\u2581BSD": 5536,
  "\u2581Byth": 5537,
  "\u2581Drop": 5538,
  "\u2581Her": 5539,
  "\u2581Launch": 5540,
  "\u2581Modify": 5541,
  "\u2581Names": 5542,
  "\u2581Otherwise": 5543,
  "\u2581Par": 5544,
  "\u2581Quick": 5545,
  "\u2581TLS": 5546,
  "\u2581Tom": 5547,
  "\u2581UK": 5548,
  "\u2581War": 5549,
  "\u2581addo": 5550,
  "\u2581awdurdodau": 5551,
  "\u2581chooser": 5552,
  "\u2581courage": 5553,
  "\u2581cychwynnol": 5554,
  "\u2581cyffredin": 5555,
  "\u2581deml": 5556,
  "\u2581god": 5557,
  "\u2581gweithfan": 5558,
  "\u2581gwisgo": 5559,
  "\u2581gymaint": 5560,
  "\u2581implie": 5561,
  "\u2581leoliad": 5562,
  "\u2581nwyddau": 5563,
  "\u2581seilio": 5564,
  "\u2581snow": 5565,
  "\u2581sylfaenol": 5566,
  "\u2581unlock": 5567,
  ".245": 5568,
  "ARRA": 5569,
  "Gosod": 5570,
  "Ioan": 5571,
  "NTY": 5572,
  "Ond": 5573,
  "Quit": 5574,
  "WAR": 5575,
  "aid": 5576,
  "bostio": 5577,
  "can": 5578,
  "ext": 5579,
  "ington": 5580,
  "meters": 5581,
  "small": 5582,
  "testun": 5583,
  "\u2581(1)": 5584,
  "\u258100": 5585,
  "\u25811=": 5586,
  "\u25812002": 5587,
  "\u2581Attach": 5588,
  "\u2581Awdurdod": 5589,
  "\u2581Behavior": 5590,
  "\u2581Bell": 5591,
  "\u2581Corinthians": 5592,
  "\u2581Dash": 5593,
  "\u2581Dod": 5594,
  "\u2581Drive": 5595,
  "\u2581Duplicate": 5596,
  "\u2581Ffurfi": 5597,
  "\u2581Internal": 5598,
  "\u2581Larwm": 5599,
  "\u2581Mai": 5600,
  "\u2581Maps": 5601,
  "\u2581Off": 5602,
  "\u2581Pages": 5603,
  "\u2581Patrwm": 5604,
  "\u2581Required": 5605,
  "\u2581Sangmin": 5606,
  "\u2581asking": 5607,
  "\u2581berchen": 5608,
  "\u2581cewch": 5609,
  "\u2581ddiolchgar": 5610,
  "\u2581define": 5611,
  "\u2581dyddiau": 5612,
  "\u2581efe": 5613,
  "\u2581evolution": 5614,
  "\u2581fields": 5615,
  "\u2581gofalu": 5616,
  "\u2581gwahaniaeth": 5617,
  "\u2581gyfundrefn": 5618,
  "\u2581gymorth": 5619,
  "\u2581gysylltiedig": 5620,
  "\u2581penodedig": 5621,
  "\u2581quick": 5622,
  "\u2581rhoddodd": 5623,
  "\u2581saying": 5624,
  "\u2581separate": 5625,
  "\u2581stor": 5626,
  "\u2581wynebfath": 5627,
  "\u2581zero": 5628,
  "Amnewid": 5629,
  "LET": 5630,
  "Monospace": 5631,
  "Top": 5632,
  "ate": 5633,
  "number": 5634,
  "\u2581Arwyddluni": 5635,
  "\u2581Cu": 5636,
  "\u2581Edrych": 5637,
  "\u2581Eira": 5638,
  "\u2581Fast": 5639,
  "\u2581Focus": 5640,
  "\u2581Images": 5641,
  "\u2581Scheme": 5642,
  "\u2581Villa": 5643,
  "\u2581abbreviat": 5644,
  "\u2581amdanynt": 5645,
  "\u2581ansawdd": 5646,
  "\u2581cefn": 5647,
  "\u2581chafod": 5648,
  "\u2581clubs": 5649,
  "\u2581debug": 5650,
  "\u2581dewisiadau": 5651,
  "\u2581effects": 5652,
  "\u2581features": 5653,
  "\u2581ffaith": 5654,
  "\u2581fix": 5655,
  "\u2581graphics": 5656,
  "\u2581listed": 5657,
  "\u2581llywio": 5658,
  "\u2581oriau": 5659,
  "\u2581paratoi": 5660,
  "\u2581pwy": 5661,
  "\u2581scripts": 5662,
  "\u2581sync": 5663,
  "\u2581uchod": 5664,
  "\u2581ufuddhau": 5665,
  "\u2581verify": 5666,
  "\u2581wyth": 5667,
  "\u2581yrru": 5668,
  "=\"": 5669,
  "But": 5670,
  "This": 5671,
  "always": 5672,
  "boro": 5673,
  "bury": 5674,
  "click": 5675,
  "hose": 5676,
  "mddengys": 5677,
  "screen": 5678,
  "unicode": 5679,
  "\u2581Bi": 5680,
  "\u2581Bwlch": 5681,
  "\u2581Dystion": 5682,
  "\u2581Gdk": 5683,
  "\u2581Gymuned": 5684,
  "\u2581Hills": 5685,
  "\u2581Law": 5686,
  "\u2581OK": 5687,
  "\u2581Oni": 5688,
  "\u2581OpenPGP": 5689,
  "\u2581Subtitle": 5690,
  "\u2581Vi": 5691,
  "\u2581WebDAV": 5692,
  "\u2581alone": 5693,
  "\u2581basio": 5694,
  "\u2581berffaith": 5695,
  "\u2581bold": 5696,
  "\u2581clic": 5697,
  "\u2581desired": 5698,
  "\u2581endure": 5699,
  "\u2581everyone": 5700,
  "\u2581ganslo": 5701,
  "\u2581gosodir": 5702,
  "\u2581hints": 5703,
  "\u2581iechyd": 5704,
  "\u2581marriage": 5705,
  "\u2581outgoing": 5706,
  "\u2581pibell": 5707,
  "\u2581prison": 5708,
  "\u2581tad": 5709,
  "\u2581writable": 5710,
  "\u2581ysgafn": 5711,
  "\u2581ystadegau": 5712,
  "Bus": 5713,
  "Day": 5714,
  "G\u00eam": 5715,
  "Mewnforio": 5716,
  "NET": 5717,
  "gwblhau": 5718,
  "let": 5719,
  "lia": 5720,
  "path": 5721,
  "xref": 5722,
  "yf": 5723,
  "\u258116)": 5724,
  "\u2581Addysg": 5725,
  "\u2581Disc": 5726,
  "\u2581Dull": 5727,
  "\u2581KOffice": 5728,
  "\u2581Length": 5729,
  "\u2581Month": 5730,
  "\u2581Multiple": 5731,
  "\u2581Palet": 5732,
  "\u2581SE": 5733,
  "\u2581SHA": 5734,
  "\u2581Setting": 5735,
  "\u2581Signing": 5736,
  "\u2581Tree": 5737,
  "\u2581Trust": 5738,
  "\u2581Tu": 5739,
  "\u2581amddiffyn": 5740,
  "\u2581bylchau": 5741,
  "\u2581caret": 5742,
  "\u2581ceisiwch": 5743,
  "\u2581certificates": 5744,
  "\u2581copying": 5745,
  "\u2581counter": 5746,
  "\u2581ddiffinio": 5747,
  "\u2581difethiant": 5748,
  "\u2581disgrifio": 5749,
  "\u2581eye": 5750,
  "\u2581finished": 5751,
  "\u2581gorwedd": 5752,
  "\u2581gpg": 5753,
  "\u2581gwared": 5754,
  "\u2581join": 5755,
  "\u2581kde": 5756,
  "\u2581logged": 5757,
  "\u2581negative": 5758,
  "\u2581notify": 5759,
  "\u2581smooth": 5760,
  "\u2581subfolders": 5761,
  "\u2581unrecognized": 5762,
  "\u2581unselected": 5763,
  "\u2581\u00b0": 5764,
  "%.1": 5765,
  "Update": 5766,
  "ddosbarthu": 5767,
  "desktop": 5768,
  "heb": 5769,
  "uti": 5770,
  "zi": 5771,
  "\u2581Bol": 5772,
  "\u2581Capulet": 5773,
  "\u2581Deleting": 5774,
  "\u2581Developer": 5775,
  "\u2581Devil": 5776,
  "\u2581Diolch": 5777,
  "\u2581Diweddariadau": 5778,
  "\u2581Evince": 5779,
  "\u2581Ffontiau": 5780,
  "\u2581Index": 5781,
  "\u2581Modified": 5782,
  "\u2581Place": 5783,
  "\u2581Simplified": 5784,
  "\u2581Trans": 5785,
  "\u2581Virginia": 5786,
  "\u2581anrheg": 5787,
  "\u2581blwyddyn": 5788,
  "\u2581canu": 5789,
  "\u2581cyfateb": 5790,
  "\u2581ddefnyddiwr": 5791,
  "\u2581doeth": 5792,
  "\u2581encouragement": 5793,
  "\u2581explained": 5794,
  "\u2581fake": 5795,
  "\u2581femos": 5796,
  "\u2581forget": 5797,
  "\u2581further": 5798,
  "\u2581gwnaetho": 5799,
  "\u2581gyfarfod": 5800,
  "\u2581gysgu": 5801,
  "\u2581paramedr": 5802,
  "\u2581performed": 5803,
  "\u2581pridwerth": 5804,
  "\u2581render": 5805,
  "\u2581role": 5806,
  "\u2581seems": 5807,
  "\u2581shut": 5808,
  "\u2581te": 5809,
  "\u2581tray": 5810,
  "\u2581wnaethoch": 5811,
  "=%": 5812,
  "Bay": 5813,
  "GTK": 5814,
  "He": 5815,
  "Out": 5816,
  "System": 5817,
  "auto": 5818,
  "berg": 5819,
  "iant": 5820,
  "wa": 5821,
  "well": 5822,
  "\u00e9": 5823,
  "\u00f6": 5824,
  "\u2581'--": 5825,
  "\u2581AND": 5826,
  "\u2581Aliniad": 5827,
  "\u2581Arhoswch": 5828,
  "\u2581Bwrdd": 5829,
  "\u2581CAPU": 5830,
  "\u2581Decrease": 5831,
  "\u2581Diogel": 5832,
  "\u2581Gemau": 5833,
  "\u2581German": 5834,
  "\u2581Hysbysiad": 5835,
  "\u2581Isel": 5836,
  "\u2581Lo": 5837,
  "\u2581Luke": 5838,
  "\u2581M\u00f4r": 5839,
  "\u2581Orientation": 5840,
  "\u2581PID": 5841,
  "\u2581Pont": 5842,
  "\u2581Popup": 5843,
  "\u2581Pwysig": 5844,
  "\u2581Rhan": 5845,
  "\u2581Su": 5846,
  "\u2581Unedau": 5847,
  "\u2581act": 5848,
  "\u2581afraid": 5849,
  "\u2581benefits": 5850,
  "\u2581bwys": 5851,
  "\u2581carchar": 5852,
  "\u2581clybiau": 5853,
  "\u2581contract": 5854,
  "\u2581ddefnyddiwyd": 5855,
  "\u2581ddiwrnod": 5856,
  "\u2581diamonds": 5857,
  "\u2581fear": 5858,
  "\u2581grow": 5859,
  "\u2581html": 5860,
  "\u2581indicated": 5861,
  "\u2581mam": 5862,
  "\u2581ohoni": 5863,
  "\u2581orau": 5864,
  "\u2581pedwar": 5865,
  "\u2581pieces": 5866,
  "\u2581prayer": 5867,
  "\u2581spiritually": 5868,
  "\u2581strings": 5869,
  "\u2581undone": 5870,
  "\u2581wicked": 5871,
  "2)": 5872,
  "35": 5873,
  "BWR": 5874,
  "EU": 5875,
  "ang": 5876,
  "car": 5877,
  "\u258120.": 5878,
  "\u2581Allweddi": 5879,
  "\u2581BMP": 5880,
  "\u2581Byddwn": 5881,
  "\u2581CAPULET": 5882,
  "\u2581China": 5883,
  "\u2581Corky": 5884,
  "\u2581Cruz": 5885,
  "\u2581Cyd": 5886,
  "\u2581Disabled": 5887,
  "\u2581GB": 5888,
  "\u2581Margin": 5889,
  "\u2581Middle": 5890,
  "\u2581Oh": 5891,
  "\u2581Pwynt": 5892,
  "\u2581Sicrhe": 5893,
  "\u2581Tang": 5894,
  "\u2581Valid": 5895,
  "\u2581Which": 5896,
  "\u2581Ysgrythurau": 5897,
  "\u2581asia": 5898,
  "\u2581boy": 5899,
  "\u2581cleient": 5900,
  "\u2581clirio": 5901,
  "\u2581ddisgwyl": 5902,
  "\u2581debugging": 5903,
  "\u2581downloaded": 5904,
  "\u2581ex": 5905,
  "\u2581gweithfannau": 5906,
  "\u2581gyffredinol": 5907,
  "\u2581kindness": 5908,
  "\u2581lythrennau": 5909,
  "\u2581met": 5910,
  "\u2581mynychwr": 5911,
  "\u2581palet": 5912,
  "\u2581pray": 5913,
  "\u2581recognition": 5914,
  "\u2581sengl": 5915,
  "\u2581variation": 5916,
  "\u2581virtual": 5917,
  "\u2581ymarferol": 5918,
  "32": 5919,
  "Dw": 5920,
  "ER": 5921,
  "Fullscreen": 5922,
  "IENT": 5923,
  "Window": 5924,
  "alformed": 5925,
  "ana": 5926,
  "gair": 5927,
  "hou": 5928,
  "mouth": 5929,
  "ri": 5930,
  "ue": 5931,
  "\u258121.": 5932,
  "\u2581ADDAS": 5933,
  "\u2581Aelodau": 5934,
  "\u2581Arg": 5935,
  "\u2581Bluff": 5936,
  "\u2581Due": 5937,
  "\u2581Glannau": 5938,
  "\u2581Gray": 5939,
  "\u2581Han": 5940,
  "\u2581Heading": 5941,
  "\u2581Inbox": 5942,
  "\u2581KP": 5943,
  "\u2581Later": 5944,
  "\u2581Like": 5945,
  "\u2581Mewnoliad": 5946,
  "\u2581Mynegiant": 5947,
  "\u2581Noder": 5948,
  "\u2581Olwg": 5949,
  "\u2581Prairie": 5950,
  "\u2581Retriev": 5951,
  "\u2581Society": 5952,
  "\u2581Target": 5953,
  "\u2581Teils": 5954,
  "\u2581Tower": 5955,
  "\u2581UNIX": 5956,
  "\u2581WM": 5957,
  "\u2581amgodiadau": 5958,
  "\u2581attached": 5959,
  "\u2581baneri": 5960,
  "\u2581bound": 5961,
  "\u2581categories": 5962,
  "\u2581ddigwyddiadau": 5963,
  "\u2581diemwntau": 5964,
  "\u2581fach": 5965,
  "\u2581fine": 5966,
  "\u2581gwaethaf": 5967,
  "\u2581llygru": 5968,
  "\u2581mistake": 5969,
  "\u2581presentation": 5970,
  "\u2581rhawiau": 5971,
  "\u2581spacing": 5972,
  "\u2581spades": 5973,
  "\u2581swm": 5974,
  "\u2581worked": 5975,
  "As": 5976,
  "Ateb": 5977,
  "Genesis": 5978,
  "dod": 5979,
  "fs": 5980,
  "inder": 5981,
  "sa": 5982,
  "\u258160": 5983,
  "\u2581Addasiedig": 5984,
  "\u2581Adjust": 5985,
  "\u2581Canolfan": 5986,
  "\u2581Cho": 5987,
  "\u2581Corea": 5988,
  "\u2581Cydweddu": 5989,
  "\u2581Dibrisia": 5990,
  "\u2581Gadew": 5991,
  "\u2581Genesis": 5992,
  "\u2581Gnome": 5993,
  "\u2581Icons": 5994,
  "\u2581International": 5995,
  "\u2581Jews": 5996,
  "\u2581Pennsylvania": 5997,
  "\u2581Requested": 5998,
  "\u2581Revert": 5999,
  "\u2581Spelling": 6000,
  "\u2581Van": 6001,
  "\u2581Xi": 6002,
  "\u2581addewid": 6003,
  "\u2581behavior": 6004,
  "\u2581big": 6005,
  "\u2581brysgymorth": 6006,
  "\u2581desire": 6007,
  "\u2581devices": 6008,
  "\u2581dewisydd": 6009,
  "\u2581dropped": 6010,
  "\u2581entitled": 6011,
  "\u2581goeden": 6012,
  "\u2581greatest": 6013,
  "\u2581hygyrchedd": 6014,
  "\u2581poeni": 6015,
  "\u2581positive": 6016,
  "\u2581register": 6017,
  "\u2581require": 6018,
  "\u2581suggest": 6019,
  "Country": 6020,
  "HTML": 6021,
  "Printer": 6022,
  "Unicode": 6023,
  "Wel": 6024,
  "\\\\": 6025,
  "axis": 6026,
  "digit": 6027,
  "ff": 6028,
  "heim": 6029,
  "icon": 6030,
  "ih": 6031,
  "iodd": 6032,
  "word": 6033,
  "\u2581Basic": 6034,
  "\u2581Cloc": 6035,
  "\u2581Code": 6036,
  "\u2581Coeden": 6037,
  "\u2581Cyfarfod": 6038,
  "\u2581Dilyniant": 6039,
  "\u2581Duration": 6040,
  "\u2581Filters": 6041,
  "\u2581IN": 6042,
  "\u2581Item": 6043,
  "\u2581Launcher": 6044,
  "\u2581Li": 6045,
  "\u2581Mapiau": 6046,
  "\u2581Montague": 6047,
  "\u2581Private": 6048,
  "\u2581Receiving": 6049,
  "\u2581Reserved": 6050,
  "\u2581Ridge": 6051,
  "\u2581Rule": 6052,
  "\u2581Stephen": 6053,
  "\u2581Sylwer": 6054,
  "\u2581Syntax": 6055,
  "\u2581Translation": 6056,
  "\u2581Tywyll": 6057,
  "\u2581accepted": 6058,
  "\u2581anogaeth": 6059,
  "\u2581apostles": 6060,
  "\u2581boolean": 6061,
  "\u2581browsing": 6062,
  "\u2581bwyta": 6063,
  "\u2581calculate": 6064,
  "\u2581clicked": 6065,
  "\u2581conversation": 6066,
  "\u2581gornel": 6067,
  "\u2581laws": 6068,
  "\u2581machine": 6069,
  "\u2581practical": 6070,
  "\u2581preferred": 6071,
  "\u2581reswm": 6072,
  "\u2581rhowch": 6073,
  "\u2581tystysgrifau": 6074,
  "<": 6075,
  "Always": 6076,
  "Disgrifiad": 6077,
  "Well": 6078,
  "google": 6079,
  "hu": 6080,
  "ti": 6081,
  "\u00e4": 6082,
  "\u2581\"#": 6083,
  "\u2581Awgrym": 6084,
  "\u2581Ben": 6085,
  "\u2581Busnes": 6086,
  "\u2581Eseia": 6087,
  "\u2581Gwrthrychau": 6088,
  "\u2581Gwylio": 6089,
  "\u2581Indonesia": 6090,
  "\u2581Kill": 6091,
  "\u2581Miss": 6092,
  "\u2581Resolution": 6093,
  "\u2581Single": 6094,
  "\u2581Syth": 6095,
  "\u2581Wooster": 6096,
  "\u2581Yellow": 6097,
  "\u2581alffa": 6098,
  "\u2581bracket": 6099,
  "\u2581compassion": 6100,
  "\u2581cwblhau": 6101,
  "\u2581eat": 6102,
  "\u2581farcio": 6103,
  "\u2581health": 6104,
  "\u2581license": 6105,
  "\u2581matters": 6106,
  "\u2581plesio": 6107,
  "\u2581prevent": 6108,
  "\u2581protect": 6109,
  "\u2581spend": 6110,
  "\u2581translate": 6111,
  "\u2581wael": 6112,
  "Ailenwi": 6113,
  "Bydd": 6114,
  "Font": 6115,
  "Properties": 6116,
  "cuddio": 6117,
  "ysau": 6118,
  "\u2581\";": 6119,
  "\u258148": 6120,
  "\u2581Accept": 6121,
  "\u2581Amgodiadau": 6122,
  "\u2581Babylon": 6123,
  "\u2581Continue": 6124,
  "\u2581Dar": 6125,
  "\u2581Dialog": 6126,
  "\u2581Gucharmap": 6127,
  "\u2581Meddylia": 6128,
  "\u2581Notify": 6129,
  "\u2581Ruth": 6130,
  "\u2581Sign": 6131,
  "\u2581Thomas": 6132,
  "\u2581Tro": 6133,
  "\u2581Tynn": 6134,
  "\u2581\\": 6135,
  "\u2581adegau": 6136,
  "\u2581alt": 6137,
  "\u2581amgylchiadau": 6138,
  "\u2581cancel": 6139,
  "\u2581creation": 6140,
  "\u2581dianc": 6141,
  "\u2581doubt": 6142,
  "\u2581fd": 6143,
  "\u2581greeter": 6144,
  "\u2581gweithredadwy": 6145,
  "\u2581hael": 6146,
  "\u2581heibio": 6147,
  "\u2581laptop": 6148,
  "\u2581menus": 6149,
  "\u2581project": 6150,
  "\u2581sacrifice": 6151,
  "\u2581sgw\u00e2r": 6152,
  "\u2581sylwi": 6153,
  "\u2581trials": 6154,
  "\u2581war": 6155,
  "Apply": 6156,
  "Clear": 6157,
  "Replace": 6158,
  "Tasgau": 6159,
  "Terfynell": 6160,
  "based": 6161,
  "current": 6162,
  "rydw": 6163,
  "session": 6164,
  "\u043a": 6165,
  "\u2581-!": 6166,
  "\u2581200": 6167,
  "\u2581Body": 6168,
  "\u2581Business": 6169,
  "\u2581Canlyniadau": 6170,
  "\u2581Charles": 6171,
  "\u2581Che": 6172,
  "\u2581Come": 6173,
  "\u2581Cristnogol": 6174,
  "\u2581Ddelwedd": 6175,
  "\u2581Defnyddwyr": 6176,
  "\u2581Fish": 6177,
  "\u2581GenericName": 6178,
  "\u2581NURSE": 6179,
  "\u2581NYRS": 6180,
  "\u2581Phineas": 6181,
  "\u2581Ste": 6182,
  "\u2581Trywydd": 6183,
  "\u2581Tw": 6184,
  "\u2581Voice": 6185,
  "\u2581achub": 6186,
  "\u2581advice": 6187,
  "\u2581agorwyd": 6188,
  "\u2581alwad": 6189,
  "\u2581attendee": 6190,
  "\u2581attitude": 6191,
  "\u2581authority": 6192,
  "\u2581boxes": 6193,
  "\u2581calendrau": 6194,
  "\u2581cdr": 6195,
  "\u2581cells": 6196,
  "\u2581circumstances": 6197,
  "\u2581crash": 6198,
  "\u2581critical": 6199,
  "\u2581cywaith": 6200,
  "\u2581decided": 6201,
  "\u2581ffrwyth": 6202,
  "\u2581flociau": 6203,
  "\u2581footnote": 6204,
  "\u2581gwych": 6205,
  "\u2581humble": 6206,
  "\u2581mime": 6207,
  "\u2581nautilus": 6208,
  "\u2581nerth": 6209,
  "\u2581ofnadwy": 6210,
  "\u2581paragraphs": 6211,
  "\u2581phone": 6212,
  "\u2581rieni": 6213,
  "\u2581sub": 6214,
  "\u2581syrthio": 6215,
  "\u2581trusted": 6216,
  "\u2581tryloywder": 6217,
  "\u2581wah\u00e2n": 6218,
  "\u2581wastad": 6219,
  "0]": 6220,
  "24": 6221,
  "Diweddaru": 6222,
  "Other": 6223,
  "RAM": 6224,
  "Settings": 6225,
  "chess": 6226,
  "ini": 6227,
  "westeiwyr": 6228,
  "\u00f3": 6229,
  "\u0645": 6230,
  "\u2581(0)": 6231,
  "\u2581Byd": 6232,
  "\u2581Cold": 6233,
  "\u2581Dyw": 6234,
  "\u2581Indent": 6235,
  "\u2581Jos\u00e9": 6236,
  "\u2581Mailing": 6237,
  "\u2581Marble": 6238,
  "\u2581Question": 6239,
  "\u2581RSVP": 6240,
  "\u2581Really": 6241,
  "\u2581Star": 6242,
  "\u2581Sy": 6243,
  "\u2581TimeBrazil": 6244,
  "\u2581Traditional": 6245,
  "\u2581URIs": 6246,
  "\u2581apostolion": 6247,
  "\u2581ariannol": 6248,
  "\u2581bwnc": 6249,
  "\u2581casgliad": 6250,
  "\u2581char": 6251,
  "\u2581checking": 6252,
  "\u2581cyfrifo": 6253,
  "\u2581disconnected": 6254,
  "\u2581dorri": 6255,
  "\u2581gwelededd": 6256,
  "\u2581gwrthrychau": 6257,
  "\u2581gwyrdd": 6258,
  "\u2581hysbys": 6259,
  "\u2581interpreted": 6260,
  "\u2581marble": 6261,
  "\u2581material": 6262,
  "\u2581nor": 6263,
  "\u2581periodHello": 6264,
  "\u2581rendro": 6265,
  "\u2581resurrection": 6266,
  "\u2581rheol": 6267,
  "\u2581rhyfedd": 6268,
  "\u2581scan": 6269,
  "\u2581sgriptiau": 6270,
  "\u2581shade": 6271,
  "\u2581solve": 6272,
  "\u2581thumbnail": 6273,
  "\u2581visual": 6274,
  "\u2581ydym": 6275,
  "Amser": 6276,
  "Animeiddio": 6277,
  "Cancel": 6278,
  "Os": 6279,
  "addasedig": 6280,
  "awa": 6281,
  "nos": 6282,
  "ou": 6283,
  "\u258120,": 6284,
  "\u2581AR": 6285,
  "\u2581Byddaf": 6286,
  "\u2581Categories": 6287,
  "\u2581Col": 6288,
  "\u2581Entry": 6289,
  "\u2581Es": 6290,
  "\u2581Estyniad": 6291,
  "\u2581Hat": 6292,
  "\u2581Lleferydd": 6293,
  "\u2581Llythyren": 6294,
  "\u2581Metacity": 6295,
  "\u2581Pronunciation": 6296,
  "\u2581Received": 6297,
  "\u2581Smith": 6298,
  "\u2581Tiles": 6299,
  "\u2581alert": 6300,
  "\u2581angel": 6301,
  "\u2581araf": 6302,
  "\u2581carefully": 6303,
  "\u2581die": 6304,
  "\u2581encouraged": 6305,
  "\u2581exec": 6306,
  "\u2581handler": 6307,
  "\u2581j": 6308,
  "\u2581mynegai": 6309,
  "\u2581performing": 6310,
  "\u2581si": 6311,
  "\u2581terfyn": 6312,
  "\u2581united": 6313,
  "\u2581wonderful": 6314,
  "...]": 6315,
  "Al": 6316,
  "Canolig": 6317,
  "Diddymu": 6318,
  "Ffont": 6319,
  "Meeting": 6320,
  "OK": 6321,
  "Pa": 6322,
  "Ukrainian": 6323,
  "\\-": 6324,
  "defnyddiwr": 6325,
  "etc": 6326,
  "iedig": 6327,
  "stown": 6328,
  "yddbwyll": 6329,
  "\u2581#%": 6330,
  "\u2581Alta": 6331,
  "\u2581Bon": 6332,
  "\u2581Common": 6333,
  "\u2581Cyfrifiadur": 6334,
  "\u2581Cynt": 6335,
  "\u2581Dewch": 6336,
  "\u2581Disgleirdeb": 6337,
  "\u2581Enabled": 6338,
  "\u2581Extensions": 6339,
  "\u2581Gofyn": 6340,
  "\u2581Gosodiad": 6341,
  "\u2581Gwag": 6342,
  "\u2581Hint": 6343,
  "\u2581Lady": 6344,
  "\u2581Night": 6345,
  "\u2581RAID": 6346,
  "\u2581Request": 6347,
  "\u2581Sgr\u00een": 6348,
  "\u2581Terfynu": 6349,
  "\u2581TrueType": 6350,
  "\u2581Updating": 6351,
  "\u2581activate": 6352,
  "\u2581alpha": 6353,
  "\u2581benderfynol": 6354,
  "\u2581bonuses": 6355,
  "\u2581br": 6356,
  "\u2581corrupted": 6357,
  "\u2581cymdeithasol": 6358,
  "\u2581deils": 6359,
  "\u2581difficulty": 6360,
  "\u2581dynodiad": 6361,
  "\u2581d\u0175r": 6362,
  "\u2581eight": 6363,
  "\u2581ellid": 6364,
  "\u2581gets": 6365,
  "\u2581goals": 6366,
  "\u2581latest": 6367,
  "\u2581lived": 6368,
  "\u2581lleoli": 6369,
  "\u2581opportunity": 6370,
  "\u2581personality": 6371,
  "\u2581promised": 6372,
  "\u2581randomly": 6373,
  "\u2581tilde": 6374,
  "\u2581transfer": 6375,
  "\u2581wirio": 6376,
  "62": 6377,
  "Calendr": 6378,
  "Medium": 6379,
  "ServAuthDir": 6380,
  "Set": 6381,
  "referred": 6382,
  "\u2581Annilys": 6383,
  "\u2581Backend": 6384,
  "\u2581Bo": 6385,
  "\u2581Canfuwyd": 6386,
  "\u2581Cat": 6387,
  "\u2581Charge": 6388,
  "\u2581Cleient": 6389,
  "\u2581DNS": 6390,
  "\u2581Drag": 6391,
  "\u2581Fair": 6392,
  "\u2581Gweithredol": 6393,
  "\u2581Gyrru": 6394,
  "\u2581Ivan": 6395,
  "\u2581Niwl": 6396,
  "\u2581Owner": 6397,
  "\u2581RA": 6398,
  "\u2581Root": 6399,
  "\u2581Santiago": 6400,
  "\u2581Subscribe": 6401,
  "\u2581Timeout": 6402,
  "\u2581Whil": 6403,
  "\u2581Wi": 6404,
  "\u2581actually": 6405,
  "\u2581aelod": 6406,
  "\u2581ago": 6407,
  "\u2581arnoch": 6408,
  "\u2581bitmap": 6409,
  "\u2581byddan": 6410,
  "\u2581cain": 6411,
  "\u2581cryf": 6412,
  "\u2581cwbl": 6413,
  "\u2581cystrawen": 6414,
  "\u2581ddiogelwch": 6415,
  "\u2581ddiweddaru": 6416,
  "\u2581definitions": 6417,
  "\u2581diwrnodau": 6418,
  "\u2581fin": 6419,
  "\u2581flwch": 6420,
  "\u2581haul": 6421,
  "\u2581instantly": 6422,
  "\u2581invited": 6423,
  "\u2581knows": 6424,
  "\u2581library": 6425,
  "\u2581listing": 6426,
  "\u2581maximized": 6427,
  "\u2581meddalwedd": 6428,
  "\u2581particular": 6429,
  "\u2581pentwr": 6430,
  "\u2581processes": 6431,
  "\u2581prosesau": 6432,
  "\u2581quickly": 6433,
  "\u2581reached": 6434,
  "\u2581recipient": 6435,
  "\u2581release": 6436,
  "\u2581roll": 6437,
  "\u2581rownd": 6438,
  "\u2581slave": 6439,
  "\u2581social": 6440,
  "\u2581story": 6441,
  "\u2581subscribe": 6442,
  "\u2581swyddogaeth": 6443,
  "\u2581teithio": 6444,
  "\u2581till": 6445,
  "Last": 6446,
  "^": 6447,
  "dos": 6448,
  "iwr": 6449,
  "prysur": 6450,
  "rate": 6451,
  "\u2581(*.": 6452,
  "\u2581--------": 6453,
  "\u2581Ai": 6454,
  "\u2581Asa": 6455,
  "\u2581Atodiadau": 6456,
  "\u2581Briti": 6457,
  "\u2581Compatibility": 6458,
  "\u2581Ddwyrain": 6459,
  "\u2581Gwyrdd": 6460,
  "\u2581Hunan": 6461,
  "\u2581II": 6462,
  "\u2581Juicer": 6463,
  "\u2581Kexi": 6464,
  "\u2581Marshall": 6465,
  "\u2581Reverse": 6466,
  "\u2581Salt": 6467,
  "\u2581Salvador": 6468,
  "\u2581VM": 6469,
  "\u2581arweiniad": 6470,
  "\u2581blygellau": 6471,
  "\u2581difrifol": 6472,
  "\u2581entity": 6473,
  "\u2581fedru": 6474,
  "\u2581garedig": 6475,
  "\u2581general": 6476,
  "\u2581gobeithio": 6477,
  "\u2581gyffredin": 6478,
  "\u2581gymharol": 6479,
  "\u2581imperfect": 6480,
  "\u2581modern": 6481,
  "\u2581provider": 6482,
  "\u2581quotation": 6483,
  "\u2581reminders": 6484,
  "\u2581rotation": 6485,
  "\u2581seven": 6486,
  "\u2581shape": 6487,
  "\u2581sidebar": 6488,
  "\u2581third": 6489,
  "\u2581translator": 6490,
  "\u2581waelod": 6491,
  "\u2581whe": 6492,
  "\u2581ymladd": 6493,
  ",000": 6494,
  "/*": 6495,
  "Padding": 6496,
  "Restore": 6497,
  "WRA": 6498,
  "b\u00e2r": 6499,
  "oddodd": 6500,
  "orff": 6501,
  "\u2581Allgofnodi": 6502,
  "\u2581Caps": 6503,
  "\u2581Chart": 6504,
  "\u2581College": 6505,
  "\u2581County": 6506,
  "\u2581Cristion": 6507,
  "\u2581Cyprus": 6508,
  "\u2581Dodge": 6509,
  "\u2581Drosodd": 6510,
  "\u2581Estyniadau": 6511,
  "\u2581Fietnameg": 6512,
  "\u2581Gael": 6513,
  "\u2581Martin": 6514,
  "\u2581Mobile": 6515,
  "\u2581Order": 6516,
  "\u2581Property": 6517,
  "\u2581Pryd": 6518,
  "\u2581P\u0175er": 6519,
  "\u2581Russell": 6520,
  "\u2581Symudol": 6521,
  "\u2581Targed": 6522,
  "\u2581Wake": 6523,
  "\u2581Ymddangosiad": 6524,
  "\u2581accessibility": 6525,
  "\u2581across": 6526,
  "\u2581bu": 6527,
  "\u2581closer": 6528,
  "\u2581connecting": 6529,
  "\u2581delegate": 6530,
  "\u2581express": 6531,
  "\u2581feet": 6532,
  "\u2581fewnol": 6533,
  "\u2581forgive": 6534,
  "\u2581gwestiynau": 6535,
  "\u2581gyrchfan": 6536,
  "\u2581knowledge": 6537,
  "\u2581lenwir": 6538,
  "\u2581lleferydd": 6539,
  "\u2581rannu": 6540,
  "\u2581sanctaidd": 6541,
  "\u2581tragwyddol": 6542,
  "\u2581ysgrifenadwy": 6543,
  "\u2581ysgrifennodd": 6544,
  "Blaenoriaeth": 6545,
  "If": 6546,
  "Pause": 6547,
  "Text": 6548,
  "any": 6549,
  "cyflym": 6550,
  "del": 6551,
  "http": 6552,
  "mm": 6553,
  "water": 6554,
  "width": 6555,
  "\u2581Ann": 6556,
  "\u2581Bor": 6557,
  "\u2581Bras\u00edlia": 6558,
  "\u2581Channel": 6559,
  "\u2581Comisiwn": 6560,
  "\u2581Distance": 6561,
  "\u2581Dros": 6562,
  "\u2581Dychwelyd": 6563,
  "\u2581Dynol": 6564,
  "\u2581Eagle": 6565,
  "\u2581Elizabeth": 6566,
  "\u2581Empathy": 6567,
  "\u2581Fformatio": 6568,
  "\u2581Isaiah": 6569,
  "\u2581Mair": 6570,
  "\u2581Modifier": 6571,
  "\u2581Motty": 6572,
  "\u2581Newidiadau": 6573,
  "\u2581Offline": 6574,
  "\u2581Platinwm": 6575,
  "\u2581Preifat": 6576,
  "\u2581Reminder": 6577,
  "\u2581Roman": 6578,
  "\u2581Sillafu": 6579,
  "\u2581Sub": 6580,
  "\u2581Trosysgrifo": 6581,
  "\u2581amdanyn": 6582,
  "\u2581amledd": 6583,
  "\u2581camera": 6584,
  "\u2581canslo": 6585,
  "\u2581caption": 6586,
  "\u2581certainly": 6587,
  "\u2581cyfrifon": 6588,
  "\u2581dderbynwyr": 6589,
  "\u2581drink": 6590,
  "\u2581eira": 6591,
  "\u2581faneri": 6592,
  "\u2581influence": 6593,
  "\u2581merch": 6594,
  "\u2581mynychu": 6595,
  "\u2581pennyn": 6596,
  "\u2581pile": 6597,
  "\u2581refresh": 6598,
  "\u2581sefydlog": 6599,
  "\u2581speaking": 6600,
  "\u2581sylweddoli": 6601,
  "\u2581syntax": 6602,
  "\u2581transport": 6603,
  "\u2581ymhl": 6604,
  "-4": 6605,
  ";...": 6606,
  "D\u00cfA": 6607,
  "Ehangu": 6608,
  "Marcio": 6609,
  "Rhagosodiad": 6610,
  "Tools": 6611,
  "copi": 6612,
  "les": 6613,
  "mond": 6614,
  "single": 6615,
  "spain": 6616,
  "uan": 6617,
  "uro": 6618,
  "\u258120)": 6619,
  "\u25812003": 6620,
  "\u2581ARBENNIG": 6621,
  "\u2581Animation": 6622,
  "\u2581Bat": 6623,
  "\u2581Beep": 6624,
  "\u2581CUPS": 6625,
  "\u2581Ceisio": 6626,
  "\u2581Cop": 6627,
  "\u2581Dau": 6628,
  "\u2581Execute": 6629,
  "\u2581Floating": 6630,
  "\u2581Gr": 6631,
  "\u2581India": 6632,
  "\u2581Jones": 6633,
  "\u2581Llamu": 6634,
  "\u2581Mrs": 6635,
  "\u2581Penod": 6636,
  "\u2581Pixels": 6637,
  "\u2581Sianel": 6638,
  "\u2581Store": 6639,
  "\u2581Was": 6640,
  "\u2581Wrap": 6641,
  "\u2581Xft": 6642,
  "\u2581adjustment": 6643,
  "\u2581aur": 6644,
  "\u2581brown": 6645,
  "\u2581cancelation": 6646,
  "\u2581canolbwyntio": 6647,
  "\u2581cyfer": 6648,
  "\u2581cyfuno": 6649,
  "\u2581ddifrifol": 6650,
  "\u2581engine": 6651,
  "\u2581everlasting": 6652,
  "\u2581gwblhau": 6653,
  "\u2581gyflwyno": 6654,
  "\u2581italy": 6655,
  "\u2581lay": 6656,
  "\u2581letters": 6657,
  "\u2581lleoliadau": 6658,
  "\u2581middle": 6659,
  "\u2581newly": 6660,
  "\u2581peilot": 6661,
  "\u2581pump": 6662,
  "\u2581sesiynau": 6663,
  "\u2581sylfaen": 6664,
  "\u2581touch": 6665,
  "\u2581twice": 6666,
  "\u2581unedau": 6667,
  "\u2581waiting": 6668,
  "\u2581weithle": 6669,
  "\u2581ymwelwyd": 6670,
  "Cefndir": 6671,
  "Continue": 6672,
  "Reply": 6673,
  "SIAN": 6674,
  "Work": 6675,
  "ail": 6676,
  "head": 6677,
  "synau": 6678,
  "\u2581(199": 6679,
  "\u25816)": 6680,
  "\u2581Aeth": 6681,
  "\u2581Ailddechrau": 6682,
  "\u2581Appointment": 6683,
  "\u2581Baker": 6684,
  "\u2581Cafwyd": 6685,
  "\u2581Cynnydd": 6686,
  "\u2581Dango": 6687,
  "\u2581Dasgau": 6688,
  "\u2581Dinas": 6689,
  "\u2581Disgwyl": 6690,
  "\u2581Documentation": 6691,
  "\u2581Efa": 6692,
  "\u2581Elements": 6693,
  "\u2581Encrypt": 6694,
  "\u2581FAR": 6695,
  "\u2581Fewnforio": 6696,
  "\u2581Hebrea": 6697,
  "\u2581Jefftha": 6698,
  "\u2581Little": 6699,
  "\u2581Llythrennau": 6700,
  "\u2581Methiant": 6701,
  "\u2581Rate": 6702,
  "\u2581Resume": 6703,
  "\u2581Rica": 6704,
  "\u2581Sgript": 6705,
  "\u2581Supported": 6706,
  "\u2581Suspend": 6707,
  "\u2581Wladwriaeth": 6708,
  "\u2581Wneud": 6709,
  "\u2581Yeah": 6710,
  "\u2581amherffaith": 6711,
  "\u2581arnawf": 6712,
  "\u2581balance": 6713,
  "\u2581boundaries": 6714,
  "\u2581celloedd": 6715,
  "\u2581cop\u00efau": 6716,
  "\u2581ddarparu": 6717,
  "\u2581ddoeth": 6718,
  "\u2581digit": 6719,
  "\u2581final": 6720,
  "\u2581foreground": 6721,
  "\u2581foreign": 6722,
  "\u2581gysylltiadau": 6723,
  "\u2581harpooneer": 6724,
  "\u2581held": 6725,
  "\u2581justification": 6726,
  "\u2581late": 6727,
  "\u2581member": 6728,
  "\u2581operat": 6729,
  "\u2581pham": 6730,
  "\u2581prompt": 6731,
  "\u2581raise": 6732,
  "\u2581resigned": 6733,
  "\u2581rwydwaith": 6734,
  "\u2581saith": 6735,
  "\u2581treat": 6736,
  "\u2581verified": 6737,
  "\u2581wonder": 6738,
  "6)": 6739,
  "Creu": 6740,
  "Four": 6741,
  "LE": 6742,
  "Opsiynau": 6743,
  "Query": 6744,
  "border": 6745,
  "ell": 6746,
  "ena": 6747,
  "epreciation": 6748,
  "ged": 6749,
  "jo": 6750,
  "kai": 6751,
  "osod": 6752,
  "rey": 6753,
  "tra": 6754,
  "where": 6755,
  "\u25811%": 6756,
  "\u25811/": 6757,
  "\u2581Amlygiad": 6758,
  "\u2581Apwyntiad": 6759,
  "\u2581Bandar": 6760,
  "\u2581Blank": 6761,
  "\u2581Colorado": 6762,
  "\u2581Commission": 6763,
  "\u2581Compose": 6764,
  "\u2581Cwestiwn": 6765,
  "\u2581Cydran": 6766,
  "\u2581Cyfrifiannell": 6767,
  "\u2581Cyhoeddi": 6768,
  "\u2581Grist": 6769,
  "\u2581Grwpi": 6770,
  "\u2581Gweithrediadau": 6771,
  "\u2581Gyfredol": 6772,
  "\u2581Ham": 6773,
  "\u2581Highlighting": 6774,
  "\u2581Ideographs": 6775,
  "\u2581Kate": 6776,
  "\u2581Llysenw": 6777,
  "\u2581Marbl": 6778,
  "\u2581Meseia": 6779,
  "\u2581Multimedia": 6780,
  "\u2581Picture": 6781,
  "\u2581Rapids": 6782,
  "\u2581Sam": 6783,
  "\u2581Santo": 6784,
  "\u2581Scanning": 6785,
  "\u2581Should": 6786,
  "\u2581Strategaeth": 6787,
  "\u2581Tic": 6788,
  "\u2581Tracker": 6789,
  "\u2581Underline": 6790,
  "\u2581Unix": 6791,
  "\u2581Wel": 6792,
  "\u2581allu": 6793,
  "\u2581anrhydeddu": 6794,
  "\u2581brough": 6795,
  "\u2581cheisi": 6796,
  "\u2581cyflymydd": 6797,
  "\u2581cyhoeddus": 6798,
  "\u2581cywasg": 6799,
  "\u2581daro": 6800,
  "\u2581ddadwneud": 6801,
  "\u2581dyfyniad": 6802,
  "\u2581elder": 6803,
  "\u2581examine": 6804,
  "\u2581galwad": 6805,
  "\u2581gweledol": 6806,
  "\u2581hamnewid": 6807,
  "\u2581kppp": 6808,
  "\u2581lamu": 6809,
  "\u2581mask": 6810,
  "\u2581meaning": 6811,
  "\u2581motivate": 6812,
  "\u2581passed": 6813,
  "\u2581stoc": 6814,
  "\u2581suddenly": 6815,
  "\u2581trosysgrifo": 6816,
  "\u2581uwchraddio": 6817,
  "\u2581wrthyn": 6818,
  "Neges": 6819,
  "Normal": 6820,
  "Porth": 6821,
  "Preferences": 6822,
  "Profile": 6823,
  "Seibio": 6824,
  "Sgorau": 6825,
  "eth": 6826,
  "newydd": 6827,
  "select": 6828,
  "sia": 6829,
  "slow": 6830,
  "wedi": 6831,
  "win": 6832,
  "ylchfa": 6833,
  "\u2581Adroddiad": 6834,
  "\u2581Alexander": 6835,
  "\u2581Cod": 6836,
  "\u2581Cyfrifon": 6837,
  "\u2581Detholiad": 6838,
  "\u2581Elfen": 6839,
  "\u2581Friar": 6840,
  "\u2581Fydd": 6841,
  "\u2581GUI": 6842,
  "\u2581Gallai": 6843,
  "\u2581GdictContext": 6844,
  "\u2581Gychwyn": 6845,
  "\u2581Hong": 6846,
  "\u2581Important": 6847,
  "\u2581Jacob": 6848,
  "\u2581Krita": 6849,
  "\u2581Marciau": 6850,
  "\u2581Mathemategol": 6851,
  "\u2581Newfoundland": 6852,
  "\u2581Ocean": 6853,
  "\u2581Repeat": 6854,
  "\u2581Role": 6855,
  "\u2581Rydw": 6856,
  "\u2581Short": 6857,
  "\u2581Slide": 6858,
  "\u2581Users": 6859,
  "\u2581Wacom": 6860,
  "\u2581Watchtower": 6861,
  "\u2581bendithio": 6862,
  "\u2581chreu": 6863,
  "\u2581connections": 6864,
  "\u2581cwrdd": 6865,
  "\u2581cydnabod": 6866,
  "\u2581doethineb": 6867,
  "\u2581dop": 6868,
  "\u2581explain": 6869,
  "\u2581ffitio": 6870,
  "\u2581gallaf": 6871,
  "\u2581gwylio": 6872,
  "\u2581gyrrydd": 6873,
  "\u2581hyder": 6874,
  "\u2581invitation": 6875,
  "\u2581marblen": 6876,
  "\u2581paragraffau": 6877,
  "\u2581precious": 6878,
  "\u2581siwr": 6879,
  "\u2581sp": 6880,
  "\u2581tile": 6881,
  "\u2581trefnydd": 6882,
  "\u2581trial": 6883,
  "\u2581upper": 6884,
  "\u2581weeks": 6885,
  "\u2581wide": 6886,
  "\u2581wrthi": 6887,
  "CONF": 6888,
  "Cyswllt": 6889,
  "EN": 6890,
  "Gwybodaeth": 6891,
  "LT": 6892,
  "Link": 6893,
  "Mawr": 6894,
  "bit": 6895,
  "ble": 6896,
  "fast": 6897,
  "lock": 6898,
  "mian": 6899,
  "nod": 6900,
  "yama": 6901,
  "year": 6902,
  "\u2581Aml": 6903,
  "\u2581Amrediad": 6904,
  "\u2581Angeles": 6905,
  "\u2581Beginner": 6906,
  "\u2581Buddy": 6907,
  "\u2581Constant": 6908,
  "\u2581Cre": 6909,
  "\u2581Diwrnod": 6910,
  "\u2581Dur": 6911,
  "\u2581Graddfa": 6912,
  "\u2581Gurmukhi": 6913,
  "\u2581Japan": 6914,
  "\u2581Land": 6915,
  "\u2581Memorial": 6916,
  "\u2581Polon": 6917,
  "\u2581Region": 6918,
  "\u2581Rheolaeth": 6919,
  "\u2581Signer": 6920,
  "\u2581Temple": 6921,
  "\u2581Think": 6922,
  "\u2581Troi": 6923,
  "\u2581Unread": 6924,
  "\u2581Unwaith": 6925,
  "\u2581Worm": 6926,
  "\u2581angry": 6927,
  "\u2581baptism": 6928,
  "\u2581blaenoriaeth": 6929,
  "\u2581broblemau": 6930,
  "\u2581cenedlaethol": 6931,
  "\u2581clean": 6932,
  "\u2581deipio": 6933,
  "\u2581distance": 6934,
  "\u2581encrypt": 6935,
  "\u2581gain": 6936,
  "\u2581henuriad": 6937,
  "\u2581imported": 6938,
  "\u2581indentation": 6939,
  "\u2581lesson": 6940,
  "\u2581phrase": 6941,
  "\u2581remotely": 6942,
  "\u2581sgorio": 6943,
  "\u2581stori": 6944,
  "\u2581symbol": 6945,
  "\u2581underline": 6946,
  "19": 6947,
  "AN": 6948,
  "CL": 6949,
  "Ddw": 6950,
  "De": 6951,
  "Style": 6952,
  "aise": 6953,
  "dde": 6954,
  "gyda": 6955,
  "ncient": 6956,
  "ougou": 6957,
  "xt": 6958,
  "\u2581(1998)": 6959,
  "\u2581(1=": 6960,
  "\u25812001": 6961,
  "\u258190": 6962,
  "\u2581Angle": 6963,
  "\u2581Bern": 6964,
  "\u2581Birthday": 6965,
  "\u2581Cleopatra": 6966,
  "\u2581Controls": 6967,
  "\u2581Cove": 6968,
  "\u2581Cyntaf": 6969,
  "\u2581Cysyllt": 6970,
  "\u2581Deer": 6971,
  "\u2581Does": 6972,
  "\u2581Dominica": 6973,
  "\u2581Dyli": 6974,
  "\u2581ENW": 6975,
  "\u2581England": 6976,
  "\u2581Found": 6977,
  "\u2581Glen": 6978,
  "\u2581Grwpiau": 6979,
  "\u2581Hot": 6980,
  "\u2581ISDN": 6981,
  "\u2581Jo": 6982,
  "\u2581Join": 6983,
  "\u2581Kirk": 6984,
  "\u2581Lansiwr": 6985,
  "\u2581LongName": 6986,
  "\u2581MH": 6987,
  "\u2581Meysydd": 6988,
  "\u2581Nodi": 6989,
  "\u2581SQL": 6990,
  "\u2581Sadwrn": 6991,
  "\u2581Split": 6992,
  "\u2581Sylwad": 6993,
  "\u2581Thread": 6994,
  "\u2581Visual": 6995,
  "\u2581Ymddiheuriad": 6996,
  "\u2581Ymddygiad": 6997,
  "\u2581Zealand": 6998,
  "\u2581[20": 6999,
  "\u2581according": 7000,
  "\u2581actual": 7001,
  "\u2581answered": 7002,
  "\u2581average": 7003,
  "\u2581bear": 7004,
  "\u2581beit": 7005,
  "\u2581bra": 7006,
  "\u2581braille": 7007,
  "\u2581cofrestru": 7008,
  "\u2581cy": 7009,
  "\u2581ddynion": 7010,
  "\u2581fair": 7011,
  "\u2581graffeg": 7012,
  "\u2581grateful": 7013,
  "\u2581ha": 7014,
  "\u2581hundred": 7015,
  "\u2581hwyl": 7016,
  "\u2581importer": 7017,
  "\u2581phob": 7018,
  "\u2581plisgyn": 7019,
  "\u2581recurr": 7020,
  "\u2581rhestru": 7021,
  "\u2581snippets": 7022,
  "\u2581throw": 7023,
  "\u2581tip": 7024,
  "\u2581tone": 7025,
  "\u2581unique": 7026,
  ".*": 7027,
  "Anodd": 7028,
  "Arddull": 7029,
  "CC": 7030,
  "Fel": 7031,
  "Large": 7032,
  "Mewnosod": 7033,
  "Oh": 7034,
  "State": 7035,
  "Tac": 7036,
  "Thema": 7037,
  "aill": 7038,
  "ey": 7039,
  "hir": 7040,
  "vcf": 7041,
  "\u00e5": 7042,
  "\u0628": 7043,
  "\u2581/_": 7044,
  "\u258118)": 7045,
  "\u2581Agat": 7046,
  "\u2581Ategion": 7047,
  "\u2581Atgof": 7048,
  "\u2581Bcc": 7049,
  "\u2581Cerdyn": 7050,
  "\u2581Cipio": 7051,
  "\u2581Completion": 7052,
  "\u2581Cyflawnwyd": 7053,
  "\u2581Draft": 7054,
  "\u2581Eang": 7055,
  "\u2581Far": 7056,
  "\u2581Firefox": 7057,
  "\u2581Harbo": 7058,
  "\u2581Hebrews": 7059,
  "\u2581Je": 7060,
  "\u2581Jephthah": 7061,
  "\u2581Llwyd": 7062,
  "\u2581Mac": 7063,
  "\u2581Mathematic": 7064,
  "\u2581Maximize": 7065,
  "\u2581Mon": 7066,
  "\u2581Olaf": 7067,
  "\u2581Rhaglenigion": 7068,
  "\u2581Rholio": 7069,
  "\u2581Saskatchewan": 7070,
  "\u2581Sheet": 7071,
  "\u2581Solve": 7072,
  "\u2581Sunday": 7073,
  "\u2581Switcher": 7074,
  "\u2581Symleiddiedig": 7075,
  "\u2581Tad": 7076,
  "\u2581Trail": 7077,
  "\u2581UI": 7078,
  "\u2581Williams": 7079,
  "\u2581Zig": 7080,
  "\u2581amynedd": 7081,
  "\u2581array": 7082,
  "\u2581attention": 7083,
  "\u2581bachgen": 7084,
  "\u2581beautiful": 7085,
  "\u2581bus": 7086,
  "\u2581center": 7087,
  "\u2581copies": 7088,
  "\u2581dalu": 7089,
  "\u2581established": 7090,
  "\u2581gadarn": 7091,
  "\u2581hynod": 7092,
  "\u2581issue": 7093,
  "\u2581la": 7094,
  "\u2581mankind": 7095,
  "\u2581matches": 7096,
  "\u2581mounted": 7097,
  "\u2581pause": 7098,
  "\u2581record": 7099,
  "\u2581smaller": 7100,
  "\u2581stood": 7101,
  "\u2581term": 7102,
  "\u2581themes": 7103,
  "\u2581therefore": 7104,
  "\u2581unedig": 7105,
  "\u2581xterm": 7106,
  "2):": 7107,
  "Address": 7108,
  "Ailosod": 7109,
  "Diarhebion": 7110,
  "Rename": 7111,
  "Status": 7112,
  "chwith": 7113,
  "ics": 7114,
  "illa": 7115,
  "ke": 7116,
  "mgryptiad": 7117,
  "ok": 7118,
  "op": 7119,
  "panel": 7120,
  "radar": 7121,
  "resize": 7122,
  "tag": 7123,
  "ten": 7124,
  "ush": 7125,
  "\u2581Antonio": 7126,
  "\u2581Attendee": 7127,
  "\u2581CORBA": 7128,
  "\u2581Cais": 7129,
  "\u2581Ci": 7130,
  "\u2581Cloud": 7131,
  "\u2581Cofio": 7132,
  "\u2581Component": 7133,
  "\u2581Eto": 7134,
  "\u2581Gwrthodwyd": 7135,
  "\u2581IID": 7136,
  "\u2581Iago": 7137,
  "\u2581Incorrect": 7138,
  "\u2581Indiana": 7139,
  "\u2581Invisible": 7140,
  "\u2581KSpread": 7141,
  "\u2581Kun": 7142,
  "\u2581Love": 7143,
  "\u2581MS": 7144,
  "\u2581Merge": 7145,
  "\u2581Mini": 7146,
  "\u2581Mwydyn": 7147,
  "\u2581Nor": 7148,
  "\u2581Nova": 7149,
  "\u2581Oddi": 7150,
  "\u2581Pattern": 7151,
  "\u2581R\u00f4l": 7152,
  "\u2581SOCKS": 7153,
  "\u2581Spool": 7154,
  "\u2581Step": 7155,
  "\u2581Sur": 7156,
  "\u2581Unique": 7157,
  "\u2581[25": 7158,
  "\u2581[3": 7159,
  "\u2581adjust": 7160,
  "\u2581adnoddau": 7161,
  "\u2581bool": 7162,
  "\u2581cragen": 7163,
  "\u2581ddelweddau": 7164,
  "\u2581defnyddiwyd": 7165,
  "\u2581dermau": 7166,
  "\u2581desires": 7167,
  "\u2581duration": 7168,
  "\u2581dyfynnod": 7169,
  "\u2581easily": 7170,
  "\u2581exception": 7171,
  "\u2581experienced": 7172,
  "\u2581ganddyn": 7173,
  "\u2581goal": 7174,
  "\u2581grynodeb": 7175,
  "\u2581gweision": 7176,
  "\u2581gweler": 7177,
  "\u2581gydweddu": 7178,
  "\u2581highlighting": 7179,
  "\u2581incorrect": 7180,
  "\u2581lofnodi": 7181,
  "\u2581lygaid": 7182,
  "\u2581manage": 7183,
  "\u2581naw": 7184,
  "\u2581nine": 7185,
  "\u2581party": 7186,
  "\u2581previously": 7187,
  "\u2581recent": 7188,
  "\u2581replied": 7189,
  "\u2581safonau": 7190,
  "\u2581sheet": 7191,
  "\u2581teaching": 7192,
  "\u2581tests": 7193,
  "\u2581ymhlyg": 7194,
  "14": 7195,
  "Amgodiad": 7196,
  "BCC": 7197,
  "Chwyddo": 7198,
  "Dewiswch": 7199,
  "French": 7200,
  "Gyrru": 7201,
  "add": 7202,
  "cket": 7203,
  "copy": 7204,
  "dulliau": 7205,
  "ec": 7206,
  "een": 7207,
  "hall": 7208,
  "metacity": 7209,
  "ond": 7210,
  "password": 7211,
  "pn": 7212,
  "start": 7213,
  "\u2581(%.0": 7214,
  "\u258123)": 7215,
  "\u258123:": 7216,
  "\u2581500": 7217,
  "\u2581Arbennig": 7218,
  "\u2581Attachments": 7219,
  "\u2581Bedford": 7220,
  "\u2581Brawd": 7221,
  "\u2581Brown": 7222,
  "\u2581Cha": 7223,
  "\u2581Creator": 7224,
  "\u2581Croes": 7225,
  "\u2581Cwarel": 7226,
  "\u2581Cyrchwr": 7227,
  "\u2581DEL": 7228,
  "\u2581Heavy": 7229,
  "\u2581Iau": 7230,
  "\u2581Incomplete": 7231,
  "\u2581Installed": 7232,
  "\u2581Llywodraethol": 7233,
  "\u2581Newidyn": 7234,
  "\u2581Pennod": 7235,
  "\u2581Photo": 7236,
  "\u2581Profi": 7237,
  "\u2581Pump": 7238,
  "\u2581Quality": 7239,
  "\u2581Rhagosodiadau": 7240,
  "\u2581Saib": 7241,
  "\u2581Tryloywder": 7242,
  "\u2581T\u0175r": 7243,
  "\u2581Words": 7244,
  "\u2581addasydd": 7245,
  "\u2581arweinwyr": 7246,
  "\u2581assistant": 7247,
  "\u2581conversion": 7248,
  "\u2581cownter": 7249,
  "\u2581cyfeiriaduron": 7250,
  "\u2581fewnforio": 7251,
  "\u2581friendship": 7252,
  "\u2581gennym": 7253,
  "\u2581hadfer": 7254,
  "\u2581initialize": 7255,
  "\u2581llwyddo": 7256,
  "\u2581llys": 7257,
  "\u2581merched": 7258,
  "\u2581multi": 7259,
  "\u2581mynnu": 7260,
  "\u2581nationals": 7261,
  "\u2581ohonynt": 7262,
  "\u2581paused": 7263,
  "\u2581pechod": 7264,
  "\u2581proper": 7265,
  "\u2581pwrpas": 7266,
  "\u2581rhinweddau": 7267,
  "\u2581rhoddwyd": 7268,
  "\u2581rhywfaint": 7269,
  "\u2581scope": 7270,
  "\u2581sgwrs": 7271,
  "\u2581sovereignty": 7272,
  "\u2581symudol": 7273,
  "\u2581troelli": 7274,
  "\u2581trugaredd": 7275,
  "\u2581waeth": 7276,
  "\u2581weithredoedd": 7277,
  "\u2581wella": 7278,
  "\u2581wrthych": 7279,
  "\u2581{1}": 7280,
  "*": 7281,
  "*)": 7282,
  "30": 7283,
  "Gorffen": 7284,
  "Group": 7285,
  "Home": 7286,
  "Leave": 7287,
  "Odd": 7288,
  "Rhufeiniaid": 7289,
  "Shift": 7290,
  "Trefnu": 7291,
  "Vertical": 7292,
  "XDMCP": 7293,
  "effeithiau": 7294,
  "eu": 7295,
  "ffeil": 7296,
  "south": 7297,
  "tic": 7298,
  "twee": 7299,
  "\u25811.\"": 7300,
  "\u258136": 7301,
  "\u2581Beaufort": 7302,
  "\u2581Botymau": 7303,
  "\u2581Charlotte": 7304,
  "\u2581Clock": 7305,
  "\u2581Cran": 7306,
  "\u2581Cyf": 7307,
  "\u2581Cyfreithiol": 7308,
  "\u2581Cyrchfan": 7309,
  "\u2581Digwyddiadau": 7310,
  "\u2581Engine": 7311,
  "\u2581Exit": 7312,
  "\u2581Fawrth": 7313,
  "\u2581Fo": 7314,
  "\u2581Generic": 7315,
  "\u2581Georgia": 7316,
  "\u2581Gweithredydd": 7317,
  "\u2581Kal": 7318,
  "\u2581Kontact": 7319,
  "\u2581Lloegr": 7320,
  "\u2581Mewnol": 7321,
  "\u2581NULL": 7322,
  "\u2581Patrymlun": 7323,
  "\u2581Rhestru": 7324,
  "\u2581Shut": 7325,
  "\u2581Topic": 7326,
  "\u2581Wa": 7327,
  "\u2581Watson": 7328,
  "\u2581YN": 7329,
  "\u2581Ysgrifennodd": 7330,
  "\u2581basic": 7331,
  "\u2581contribute": 7332,
  "\u2581cryfhau": 7333,
  "\u2581daith": 7334,
  "\u2581ddyddiad": 7335,
  "\u2581dial": 7336,
  "\u2581digits": 7337,
  "\u2581executing": 7338,
  "\u2581feeling": 7339,
  "\u2581fire": 7340,
  "\u2581gefnogi": 7341,
  "\u2581graddfa": 7342,
  "\u2581hwnt": 7343,
  "\u2581includes": 7344,
  "\u2581lady": 7345,
  "\u2581linellau": 7346,
  "\u2581loves": 7347,
  "\u2581maildir": 7348,
  "\u2581newidyn": 7349,
  "\u2581north": 7350,
  "\u2581perchennog": 7351,
  "\u2581promises": 7352,
  "\u2581resize": 7353,
  "\u2581resources": 7354,
  "\u2581respond": 7355,
  "\u2581sat": 7356,
  "\u2581sky": 7357,
  "\u2581terfynol": 7358,
  "\u2581wnaed": 7359,
  "\u2581wrapping": 7360,
  "\u2581ymdrech": 7361,
  "\u2581ymwneud": 7362,
  "%02": 7363,
  "Ctrl": 7364,
  "Sothach": 7365,
  "When": 7366,
  "Wrap": 7367,
  "anga": 7368,
  "both": 7369,
  "dideitl": 7370,
  "fall": 7371,
  "ganiad": 7372,
  "part": 7373,
  "schema": 7374,
  "see": 7375,
  "suspend": 7376,
  "tree": 7377,
  "\u25810000": 7378,
  "\u2581Accounts": 7379,
  "\u2581Ad": 7380,
  "\u2581Adrodd": 7381,
  "\u2581Already": 7382,
  "\u2581Anyway": 7383,
  "\u2581Atodiadol": 7384,
  "\u2581Calculator": 7385,
  "\u2581Cyrchydd": 7386,
  "\u2581Daemon": 7387,
  "\u2581Domain": 7388,
  "\u2581Fawr": 7389,
  "\u2581Flags": 7390,
  "\u2581Haute": 7391,
  "\u2581Ireland": 7392,
  "\u2581Non": 7393,
  "\u2581Pac": 7394,
  "\u2581Paragraff": 7395,
  "\u2581Paramedrau": 7396,
  "\u2581Penn": 7397,
  "\u2581Rhufain": 7398,
  "\u2581Salmon": 7399,
  "\u2581Secondary": 7400,
  "\u2581Sha": 7401,
  "\u2581Startup": 7402,
  "\u2581Stor": 7403,
  "\u2581Success": 7404,
  "\u2581Th": 7405,
  "\u2581Young": 7406,
  "\u2581adding": 7407,
  "\u2581adlais": 7408,
  "\u2581atgyfodiad": 7409,
  "\u2581bedydd": 7410,
  "\u2581beibl": 7411,
  "\u2581bost": 7412,
  "\u2581brosesu": 7413,
  "\u2581conscience": 7414,
  "\u2581container": 7415,
  "\u2581cyfansoddi": 7416,
  "\u2581cyflawni": 7417,
  "\u2581edited": 7418,
  "\u2581elfennau": 7419,
  "\u2581elwa": 7420,
  "\u2581erthyglau": 7421,
  "\u2581export": 7422,
  "\u2581farwolaeth": 7423,
  "\u2581followed": 7424,
  "\u2581gryfhau": 7425,
  "\u2581gwasg": 7426,
  "\u2581higher": 7427,
  "\u2581hyfforddiant": 7428,
  "\u2581identity": 7429,
  "\u2581marker": 7430,
  "\u2581mistakes": 7431,
  "\u2581nice": 7432,
  "\u2581osodiadau": 7433,
  "\u2581repeat": 7434,
  "\u2581slider": 7435,
  "\u2581troednodyn": 7436,
  "\u2581watch": 7437,
  "\u2581westeiwr": 7438,
  "\u2581whatever": 7439,
  "-2022-": 7440,
  "2003;": 7441,
  "Insert": 7442,
  "Key": 7443,
  "Movie": 7444,
  "RC": 7445,
  "Rhes": 7446,
  "Rong": 7447,
  "Wait": 7448,
  "amser": 7449,
  "ath": 7450,
  "busy": 7451,
  "ee": 7452,
  "essive": 7453,
  "gtk": 7454,
  "ities": 7455,
  "law": 7456,
  "most": 7457,
  "nomine": 7458,
  "point": 7459,
  "terminal": 7460,
  "\u2581(%1)": 7461,
  "\u258150": 7462,
  "\u2581600": 7463,
  "\u2581Ana": 7464,
  "\u2581British": 7465,
  "\u2581COLOR": 7466,
  "\u2581Cap": 7467,
  "\u2581Certificates": 7468,
  "\u2581Cyhoeddwr": 7469,
  "\u2581Deialog": 7470,
  "\u2581Done": 7471,
  "\u2581Dyd": 7472,
  "\u2581GStreamer": 7473,
  "\u2581Jam": 7474,
  "\u2581Kla": 7475,
  "\u2581LE": 7476,
  "\u2581Languages": 7477,
  "\u2581Llythyr": 7478,
  "\u2581Max": 7479,
  "\u2581Mem": 7480,
  "\u2581Mewngofnodiad": 7481,
  "\u2581Prawf": 7482,
  "\u2581Secure": 7483,
  "\u2581Too": 7484,
  "\u2581Tystysgrifo": 7485,
  "\u2581Widget": 7486,
  "\u2581Ydw": 7487,
  "\u2581activated": 7488,
  "\u2581allaf": 7489,
  "\u2581animations": 7490,
  "\u2581annhymerus": 7491,
  "\u2581cerddoriaeth": 7492,
  "\u2581challenge": 7493,
  "\u2581chynnal": 7494,
  "\u2581clocwedd": 7495,
  "\u2581completion": 7496,
  "\u2581concerned": 7497,
  "\u2581confidence": 7498,
  "\u2581continued": 7499,
  "\u2581coordinate": 7500,
  "\u2581cyfarchwr": 7501,
  "\u2581cyfnodol": 7502,
  "\u2581darfod": 7503,
  "\u2581ddwywaith": 7504,
  "\u2581edges": 7505,
  "\u2581education": 7506,
  "\u2581employment": 7507,
  "\u2581fab": 7508,
  "\u2581fformatio": 7509,
  "\u2581gold": 7510,
  "\u2581gwerthfawrogi": 7511,
  "\u2581gynorthwyo": 7512,
  "\u2581init": 7513,
  "\u2581jobs": 7514,
  "\u2581llinynnau": 7515,
  "\u2581morfil": 7516,
  "\u2581natural": 7517,
  "\u2581nghanol": 7518,
  "\u2581parchu": 7519,
  "\u2581polisi": 7520,
  "\u2581pretty": 7521,
  "\u2581priodol": 7522,
  "\u2581regularly": 7523,
  "\u2581resolution": 7524,
  "\u2581served": 7525,
  "\u2581standards": 7526,
  "\u2581trail": 7527,
  "\u2581treulio": 7528,
  "\u2581wylaidd": 7529,
  "\u2581ymofyn": 7530,
  "Cuddio": 7531,
  "Llenwi": 7532,
  "Opsiwn": 7533,
  "bz": 7534,
  "entry": 7535,
  "nable": 7536,
  "om": 7537,
  "pid": 7538,
  "should": 7539,
  "stdin": 7540,
  "\u25811'.": 7541,
  "\u2581Atodi": 7542,
  "\u2581Awr": 7543,
  "\u2581Calculate": 7544,
  "\u2581Composer": 7545,
  "\u2581Dakota": 7546,
  "\u2581Delay": 7547,
  "\u2581Dewisiad": 7548,
  "\u2581Diarhebion": 7549,
  "\u2581Dy": 7550,
  "\u2581Encrypted": 7551,
  "\u2581Frenhines": 7552,
  "\u2581Fwy": 7553,
  "\u2581Goffadwriaeth": 7554,
  "\u2581Gofynn": 7555,
  "\u2581Gwraidd": 7556,
  "\u2581Keywords": 7557,
  "\u2581Mare": 7558,
  "\u2581Music": 7559,
  "\u2581Northern": 7560,
  "\u2581Pelo": 7561,
  "\u2581Random": 7562,
  "\u2581Sianeli": 7563,
  "\u2581Since": 7564,
  "\u2581Tagiau": 7565,
  "\u2581Used": 7566,
  "\u2581Wilson": 7567,
  "\u2581addysg": 7568,
  "\u2581bersonol": 7569,
  "\u2581bopeth": 7570,
  "\u2581bwrpas": 7571,
  "\u2581circuit": 7572,
  "\u2581cyfeiri": 7573,
  "\u2581cyfwng": 7574,
  "\u2581cymhareb": 7575,
  "\u2581cynnar": 7576,
  "\u2581c\u00eal": 7577,
  "\u2581darparwr": 7578,
  "\u2581detect": 7579,
  "\u2581fesu": 7580,
  "\u2581foundation": 7581,
  "\u2581frys": 7582,
  "\u2581ganol": 7583,
  "\u2581gonna": 7584,
  "\u2581gyfrwng": 7585,
  "\u2581gyngor": 7586,
  "\u2581hedfan": 7587,
  "\u2581justice": 7588,
  "\u2581llyfn": 7589,
  "\u2581maddau": 7590,
  "\u2581pennod": 7591,
  "\u2581pick": 7592,
  "\u2581righteous": 7593,
  "\u2581situations": 7594,
  "\u2581states": 7595,
  "\u2581students": 7596,
  "\u2581towards": 7597,
  "\u2581traciwr": 7598,
  "\u2581weak": 7599,
  "\u2581werthoedd": 7600,
  "\u2581wnes": 7601,
  "\u2581ymweld": 7602,
  "\u2581\u00c2": 7603,
  "ING": 7604,
  "RSA": 7605,
  "Sain": 7606,
  "Scores": 7607,
  "credits": 7608,
  "erton": 7609,
  "int": 7610,
  "lenni": 7611,
  "mper": 7612,
  "vnc": 7613,
  "{2}": 7614,
  "\u2581%1$": 7615,
  "\u258145": 7616,
  "\u2581Alpha": 7617,
  "\u2581Arthur": 7618,
  "\u2581Builtin": 7619,
  "\u2581Cadarnhau": 7620,
  "\u2581Categor\u00efau": 7621,
  "\u2581Codi": 7622,
  "\u2581Consider": 7623,
  "\u2581Country": 7624,
  "\u2581Creating": 7625,
  "\u2581Dyfyniad": 7626,
  "\u2581Erthygl": 7627,
  "\u2581Ffoto": 7628,
  "\u2581Installing": 7629,
  "\u2581London": 7630,
  "\u2581Mel": 7631,
  "\u2581N\u00f4l": 7632,
  "\u2581Publishing": 7633,
  "\u2581Sechareia": 7634,
  "\u2581Sweden": 7635,
  "\u2581Uchafrif": 7636,
  "\u2581Waith": 7637,
  "\u2581Ymddiried": 7638,
  "\u2581angylion": 7639,
  "\u2581authorization": 7640,
  "\u2581aware": 7641,
  "\u2581coch": 7642,
  "\u2581cried": 7643,
  "\u2581daw": 7644,
  "\u2581deprecated": 7645,
  "\u2581effort": 7646,
  "\u2581embedded": 7647,
  "\u2581faes": 7648,
  "\u2581femo": 7649,
  "\u2581fforchio": 7650,
  "\u2581flesh": 7651,
  "\u2581gorfodi": 7652,
  "\u2581gredu": 7653,
  "\u2581lais": 7654,
  "\u2581manual": 7655,
  "\u2581mesur": 7656,
  "\u2581methods": 7657,
  "\u2581natur": 7658,
  "\u2581ongl": 7659,
  "\u2581paneli": 7660,
  "\u2581paths": 7661,
  "\u2581plaen": 7662,
  "\u2581react": 7663,
  "\u2581rhwymiad": 7664,
  "\u2581sitting": 7665,
  "\u2581spin": 7666,
  "\u2581unsubscribe": 7667,
  "\u2581utility": 7668,
  "\u2581website": 7669,
  "\u2581yesterday": 7670,
  "ES": 7671,
  "Fertigol": 7672,
  "Ffenestr": 7673,
  "Gadu": 7674,
  "Memory": 7675,
  "Test": 7676,
  "Tudalen": 7677,
  "User": 7678,
  "Wedi": 7679,
  "ally": 7680,
  "but": 7681,
  "dpi": 7682,
  "gweler": 7683,
  "ima": 7684,
  "mae": 7685,
  "\u0441\u043a\u043e": 7686,
  "\u0646": 7687,
  "\u2581Bersonol": 7688,
  "\u2581Blwyddyn": 7689,
  "\u2581Bond": 7690,
  "\u2581C\u00eal": 7691,
  "\u2581DVI": 7692,
  "\u2581Expected": 7693,
  "\u2581Ffynonellau": 7694,
  "\u2581Golden": 7695,
  "\u2581Gweithrediad": 7696,
  "\u2581IO": 7697,
  "\u2581Italic": 7698,
  "\u2581Kansas": 7699,
  "\u2581Mewnoli": 7700,
  "\u2581NOT": 7701,
  "\u2581Offset": 7702,
  "\u2581Once": 7703,
  "\u2581Panama": 7704,
  "\u2581Parent": 7705,
  "\u2581Pemb": 7706,
  "\u2581Ri": 7707,
  "\u2581Scale": 7708,
  "\u2581Shape": 7709,
  "\u2581ShortName": 7710,
  "\u2581Shortcut": 7711,
  "\u2581Sialens": 7712,
  "\u2581Troedyn": 7713,
  "\u2581Wyth": 7714,
  "\u2581Ymgom": 7715,
  "\u2581anhawster": 7716,
  "\u2581archives": 7717,
  "\u2581arddangos": 7718,
  "\u2581behave": 7719,
  "\u2581bevel": 7720,
  "\u2581composer": 7721,
  "\u2581ddewr": 7722,
  "\u2581ddoe": 7723,
  "\u2581develop": 7724,
  "\u2581duplicate": 7725,
  "\u2581feithrin": 7726,
  "\u2581fersiynau": 7727,
  "\u2581fruit": 7728,
  "\u2581gostwng": 7729,
  "\u2581ho": 7730,
  "\u2581indicate": 7731,
  "\u2581inmenu": 7732,
  "\u2581lie": 7733,
  "\u2581lleihau": 7734,
  "\u2581llithrydd": 7735,
  "\u2581lofnod": 7736,
  "\u2581myfyrio": 7737,
  "\u2581pairs": 7738,
  "\u2581pennu": 7739,
  "\u2581percent": 7740,
  "\u2581quote": 7741,
  "\u2581renam": 7742,
  "\u2581rhagolygon": 7743,
  "\u2581safbwynt": 7744,
  "\u2581segur": 7745,
  "\u2581sofraniaeth": 7746,
  "\u2581strategy": 7747,
  "\u2581supply": 7748,
  "\u2581s\u00e2l": 7749,
  "16": 7750,
  "Gofyn": 7751,
  "How": 7752,
  "Input": 7753,
  "Keep": 7754,
  "That": 7755,
  "Un": 7756,
  "WM": 7757,
  "amount": 7758,
  "ave": 7759,
  "cyfarfod": 7760,
  "dal": 7761,
  "ear": 7762,
  "eh": 7763,
  "mas": 7764,
  "messages": 7765,
  "ram": 7766,
  "rich": 7767,
  "server": 7768,
  "state": 7769,
  "ul": 7770,
  "\u25811440": 7771,
  "\u258138": 7772,
  "\u2581Albert": 7773,
  "\u2581Alert": 7774,
  "\u2581Ansawdd": 7775,
  "\u2581Bwrw": 7776,
  "\u2581Clean": 7777,
  "\u2581Every": 7778,
  "\u2581Fields": 7779,
  "\u2581Future": 7780,
  "\u2581Gallu": 7781,
  "\u2581Gen": 7782,
  "\u2581Gristnogol": 7783,
  "\u2581Har": 7784,
  "\u2581Helena": 7785,
  "\u2581Hygyrchedd": 7786,
  "\u2581KDM": 7787,
  "\u2581Madison": 7788,
  "\u2581Melyn": 7789,
  "\u2581RGB": 7790,
  "\u2581Rosa": 7791,
  "\u2581R\u00edo": 7792,
  "\u2581SRA": 7793,
  "\u2581Ser": 7794,
  "\u2581Tabiau": 7795,
  "\u2581Write": 7796,
  "\u2581Writing": 7797,
  "\u2581Zechariah": 7798,
  "\u2581activities": 7799,
  "\u2581anifeiliaid": 7800,
  "\u2581aseiniad": 7801,
  "\u2581balls": 7802,
  "\u2581becomes": 7803,
  "\u2581blessings": 7804,
  "\u2581brac": 7805,
  "\u2581built": 7806,
  "\u2581chwi": 7807,
  "\u2581congregations": 7808,
  "\u2581cyflwyniad": 7809,
  "\u2581cysylltau": 7810,
  "\u2581ddatgloi": 7811,
  "\u2581declined": 7812,
  "\u2581dehongli": 7813,
  "\u2581delio": 7814,
  "\u2581delivery": 7815,
  "\u2581drosglwyddo": 7816,
  "\u2581ends": 7817,
  "\u2581ffurfweddiad": 7818,
  "\u2581fight": 7819,
  "\u2581focused": 7820,
  "\u2581frequency": 7821,
  "\u2581fu": 7822,
  "\u2581gartref": 7823,
  "\u2581gwahanydd": 7824,
  "\u2581gyfrannu": 7825,
  "\u2581gynnig": 7826,
  "\u2581hannog": 7827,
  "\u2581haws": 7828,
  "\u2581hidlen": 7829,
  "\u2581i\u00e2": 7830,
  "\u2581lookup": 7831,
  "\u2581materol": 7832,
  "\u2581miles": 7833,
  "\u2581mouth": 7834,
  "\u2581mywyd": 7835,
  "\u2581opposite": 7836,
  "\u2581para": 7837,
  "\u2581picsel": 7838,
  "\u2581powerful": 7839,
  "\u2581purple": 7840,
  "\u2581remind": 7841,
  "\u2581responsibility": 7842,
  "\u2581rhagosodol": 7843,
  "\u2581searched": 7844,
  "\u2581talking": 7845,
  "\u2581tr": 7846,
  "\u2581wers": 7847,
  "Admi": 7848,
  "Anwybyddu": 7849,
  "Check": 7850,
  "Commander": 7851,
  "Download": 7852,
  "Remember": 7853,
  "URL": 7854,
  "We": 7855,
  "Where": 7856,
  "anada": 7857,
  "critical": 7858,
  "down": 7859,
  "eich": 7860,
  "ength": 7861,
  "ermany": 7862,
  "item": 7863,
  "oe": 7864,
  "real": 7865,
  "tsu": 7866,
  "zip": 7867,
  "\u2581171": 7868,
  "\u2581Ah": 7869,
  "\u2581Aifft": 7870,
  "\u2581Amrywiol": 7871,
  "\u2581Both": 7872,
  "\u2581Castle": 7873,
  "\u2581Chile": 7874,
  "\u2581Danfon": 7875,
  "\u2581Drafft": 7876,
  "\u2581Dyfeisiau": 7877,
  "\u2581Ein": 7878,
  "\u2581Events": 7879,
  "\u2581Frequency": 7880,
  "\u2581Georgian": 7881,
  "\u2581Gostwng": 7882,
  "\u2581Graddfeydd": 7883,
  "\u2581Gweladwy": 7884,
  "\u2581Heseceia": 7885,
  "\u2581Hezekiah": 7886,
  "\u2581Isle": 7887,
  "\u2581Llwyddiant": 7888,
  "\u2581NFS": 7889,
  "\u2581Peiriant": 7890,
  "\u2581Pwrpas": 7891,
  "\u2581RSA": 7892,
  "\u2581Range": 7893,
  "\u2581Rhesi": 7894,
  "\u2581Rhyngwladol": 7895,
  "\u2581Terre": 7896,
  "\u2581Trwy": 7897,
  "\u2581Units": 7898,
  "\u2581art": 7899,
  "\u2581arwyddo": 7900,
  "\u2581banel": 7901,
  "\u2581blychau": 7902,
  "\u2581breifat": 7903,
  "\u2581brifo": 7904,
  "\u2581canllaw": 7905,
  "\u2581cariadus": 7906,
  "\u2581cut": 7907,
  "\u2581cymharu": 7908,
  "\u2581cysgodi": 7909,
  "\u2581ddibynnu": 7910,
  "\u2581ddydd": 7911,
  "\u2581disgyblion": 7912,
  "\u2581dosbarthu": 7913,
  "\u2581drwodd": 7914,
  "\u2581eglwys": 7915,
  "\u2581fframiau": 7916,
  "\u2581filesystem": 7917,
  "\u2581fwyd": 7918,
  "\u2581generous": 7919,
  "\u2581gludfwrdd": 7920,
  "\u2581golygon": 7921,
  "\u2581government": 7922,
  "\u2581grynhoi": 7923,
  "\u2581gwas": 7924,
  "\u2581gynnar": 7925,
  "\u2581gynt": 7926,
  "\u2581hit": 7927,
  "\u2581hurt": 7928,
  "\u2581ignore": 7929,
  "\u2581llawlyfr": 7930,
  "\u2581located": 7931,
  "\u2581lywio": 7932,
  "\u2581mercy": 7933,
  "\u2581negyddol": 7934,
  "\u2581prophet": 7935,
  "\u2581publications": 7936,
  "\u2581retriev": 7937,
  "\u2581rhed": 7938,
  "\u2581rhwystro": 7939,
  "\u2581rhyfel": 7940,
  "\u2581r\u00f4l": 7941,
  "\u2581scrollbar": 7942,
  "\u2581secret": 7943,
  "\u2581trigger": 7944,
  "\u2581twenty": 7945,
  "\u2581uid": 7946,
  "\u2581understanding": 7947,
  "\u2581unity": 7948,
  "\u2581yfed": 7949,
  "-16": 7950,
  "/_": 7951,
  "4000": 7952,
  "Back": 7953,
  "CID": 7954,
  "CRE": 7955,
  "Defnyddiwr": 7956,
  "Document": 7957,
  "HOME": 7958,
  "Heb": 7959,
  "Nifer": 7960,
  "Why": 7961,
  "ava": 7962,
  "bi": 7963,
  "cyfarfodydd": 7964,
  "eyword": 7965,
  "geisio": 7966,
  "inese": 7967,
  "isgwyliwyd": 7968,
  "lO": 7969,
  "mar": 7970,
  "ov": 7971,
  "tasg": 7972,
  "tasgau": 7973,
  "token": 7974,
  "\u00f3n": 7975,
  "\u25810)": 7976,
  "\u258159": 7977,
  "\u2581Adrann": 7978,
  "\u2581Again": 7979,
  "\u2581Albwm": 7980,
  "\u2581Backup": 7981,
  "\u2581Ball": 7982,
  "\u2581Beiblaidd": 7983,
  "\u2581Bickersteth": 7984,
  "\u2581Broken": 7985,
  "\u2581Calendrau": 7986,
  "\u2581Child": 7987,
  "\u2581Context": 7988,
  "\u2581Ddogfen": 7989,
  "\u2581Defnyddi": 7990,
  "\u2581Deut": 7991,
  "\u2581Dynodiad": 7992,
  "\u2581Family": 7993,
  "\u2581Gog": 7994,
  "\u2581Gollwng": 7995,
  "\u2581Gwasanaethau": 7996,
  "\u2581Identifier": 7997,
  "\u2581Importer": 7998,
  "\u2581Konsole": 7999,
  "\u2581Manual": 8000,
  "\u2581Members": 8001,
  "\u2581Method": 8002,
  "\u2581Microsoft": 8003,
  "\u2581Neilltuo": 8004,
  "\u2581Newport": 8005,
  "\u2581Pixbuf": 8006,
  "\u2581Polynesia": 8007,
  "\u2581Present": 8008,
  "\u2581Shaw": 8009,
  "\u2581Sin": 8010,
  "\u2581Sources": 8011,
  "\u2581Unlock": 8012,
  "\u2581Zero": 8013,
  "\u2581alluog": 8014,
  "\u2581berthynas": 8015,
  "\u2581bon": 8016,
  "\u2581breintiau": 8017,
  "\u2581caled": 8018,
  "\u2581careful": 8019,
  "\u2581catalog": 8020,
  "\u2581chwantau": 8021,
  "\u2581compiled": 8022,
  "\u2581derfynu": 8023,
  "\u2581gdm": 8024,
  "\u2581gweddill": 8025,
  "\u2581gwiri": 8026,
  "\u2581gyfranwyr": 8027,
  "\u2581involved": 8028,
  "\u2581logging": 8029,
  "\u2581logs": 8030,
  "\u2581loss": 8031,
  "\u2581lunio": 8032,
  "\u2581monitro": 8033,
  "\u2581nefol": 8034,
  "\u2581ormod": 8035,
  "\u2581passphrase": 8036,
  "\u2581patience": 8037,
  "\u2581reward": 8038,
  "\u2581sefyllfaoedd": 8039,
  "\u2581sites": 8040,
  "\u2581songs": 8041,
  "\u2581trade": 8042,
  "\u2581train": 8043,
  "\u2581undo": 8044,
  "\u2581viewing": 8045,
  "--\"": 8046,
  "Database": 8047,
  "Exeunt": 8048,
  "IST": 8049,
  "Language": 8050,
  "NVOL": 8051,
  "Na": 8052,
  "Rydych": 8053,
  "address": 8054,
  "angle": 8055,
  "eland": 8056,
  "lin": 8057,
  "lzo": 8058,
  "ph": 8059,
  "po": 8060,
  "ro": 8061,
  "ymryd": 8062,
  "\u2581Above": 8063,
  "\u2581Almaen": 8064,
  "\u2581Amlgyfrwng": 8065,
  "\u2581Ble": 8066,
  "\u2581Calendars": 8067,
  "\u2581Combining": 8068,
  "\u2581Confirm": 8069,
  "\u2581Cyfrinachol": 8070,
  "\u2581Cynorthwyydd": 8071,
  "\u2581Dadosod": 8072,
  "\u2581Dia": 8073,
  "\u2581Duchess": 8074,
  "\u2581Eject": 8075,
  "\u2581Enghreifftiau": 8076,
  "\u2581Estonia": 8077,
  "\u2581Georgeg": 8078,
  "\u2581Instance": 8079,
  "\u2581Jersey": 8080,
  "\u2581Jona": 8081,
  "\u2581Lakes": 8082,
  "\u2581Library": 8083,
  "\u2581Martha": 8084,
  "\u2581Moscow": 8085,
  "\u2581Oct": 8086,
  "\u2581Parod": 8087,
  "\u2581Parth": 8088,
  "\u2581Per": 8089,
  "\u2581Picseli": 8090,
  "\u2581Proverbs": 8091,
  "\u2581Samba": 8092,
  "\u2581Samsa": 8093,
  "\u2581Storio": 8094,
  "\u2581Tunisia": 8095,
  "\u2581Views": 8096,
  "\u2581Website": 8097,
  "\u2581accessible": 8098,
  "\u2581amserau": 8099,
  "\u2581anghyfiawnder": 8100,
  "\u2581atebodd": 8101,
  "\u2581barchu": 8102,
  "\u2581blood": 8103,
  "\u2581branch": 8104,
  "\u2581briodoledd": 8105,
  "\u2581church": 8106,
  "\u2581covered": 8107,
  "\u2581ddychwelyd": 8108,
  "\u2581dwi": 8109,
  "\u2581exercise": 8110,
  "\u2581feddalwedd": 8111,
  "\u2581fell": 8112,
  "\u2581goch": 8113,
  "\u2581ground": 8114,
  "\u2581gwasanaethau": 8115,
  "\u2581gyrru": 8116,
  "\u2581improve": 8117,
  "\u2581judge": 8118,
  "\u2581llog": 8119,
  "\u2581llygad": 8120,
  "\u2581miliwn": 8121,
  "\u2581mm": 8122,
  "\u2581popular": 8123,
  "\u2581pwysicaf": 8124,
  "\u2581religion": 8125,
  "\u2581remained": 8126,
  "\u2581tardd": 8127,
  "\u2581variant": 8128,
  "\u2581ymresymiad": 8129,
  "2002": 8130,
  "DateTime": 8131,
  "Derbyn": 8132,
  "Don": 8133,
  "Ethiopia": 8134,
  "FF": 8135,
  "Ffilm": 8136,
  "Highlight": 8137,
  "OU": 8138,
  "Theme": 8139,
  "ag": 8140,
  "ance": 8141,
  "face": 8142,
  "from": 8143,
  "locale": 8144,
  "octal": 8145,
  "ollapse": 8146,
  "paragraph": 8147,
  "ppointment": 8148,
  "sbaid": 8149,
  "war": 8150,
  "we": 8151,
  "xml": 8152,
  "ying": 8153,
  "\u2581---": 8154,
  "\u2581Accessible": 8155,
  "\u2581Alamos": 8156,
  "\u2581Apwyntiadau": 8157,
  "\u2581BENVOLIO": 8158,
  "\u2581Camp": 8159,
  "\u2581Days": 8160,
  "\u2581Deal": 8161,
  "\u2581Define": 8162,
  "\u2581Ex": 8163,
  "\u2581Fa": 8164,
  "\u2581Finger": 8165,
  "\u2581Galluog": 8166,
  "\u2581Garden": 8167,
  "\u2581Grove": 8168,
  "\u2581Hygyrchol": 8169,
  "\u2581Hyper": 8170,
  "\u2581Laptop": 8171,
  "\u2581Matsu": 8172,
  "\u2581OWA": 8173,
  "\u2581Pago": 8174,
  "\u2581RAS": 8175,
  "\u2581Remaining": 8176,
  "\u2581Solaris": 8177,
  "\u2581Sum": 8178,
  "\u2581Thus": 8179,
  "\u2581Unnamed": 8180,
  "\u2581Vista": 8181,
  "\u2581ability": 8182,
  "\u2581achlysur": 8183,
  "\u2581addasiedig": 8184,
  "\u2581addoliad": 8185,
  "\u2581amgodydd": 8186,
  "\u2581angels": 8187,
  "\u2581anwybyddir": 8188,
  "\u2581awgrymiadau": 8189,
  "\u2581bicseli": 8190,
  "\u2581bydden": 8191,
  "\u2581caused": 8192,
  "\u2581cipher": 8193,
  "\u2581claim": 8194,
  "\u2581couple": 8195,
  "\u2581cylchfa": 8196,
  "\u2581cynhyrchu": 8197,
  "\u2581dadosod": 8198,
  "\u2581diffiniadau": 8199,
  "\u2581exceeded": 8200,
  "\u2581frawd": 8201,
  "\u2581gydol": 8202,
  "\u2581handled": 8203,
  "\u2581honni": 8204,
  "\u2581hyfryd": 8205,
  "\u2581llwyd": 8206,
  "\u2581llyfryn": 8207,
  "\u2581llythyr": 8208,
  "\u2581l\u00e2n": 8209,
  "\u2581master": 8210,
  "\u2581normally": 8211,
  "\u2581oer": 8212,
  "\u2581opportunities": 8213,
  "\u2581parch": 8214,
  "\u2581perffaith": 8215,
  "\u2581physical": 8216,
  "\u2581pioneers": 8217,
  "\u2581poker": 8218,
  "\u2581postio": 8219,
  "\u2581profion": 8220,
  "\u2581rem": 8221,
  "\u2581resymau": 8222,
  "\u2581rhybuddio": 8223,
  "\u2581risk": 8224,
  "\u2581sa": 8225,
  "\u2581safely": 8226,
  "\u2581sc": 8227,
  "\u2581sefydliad": 8228,
  "\u2581semicolon": 8229,
  "\u2581sh": 8230,
  "\u2581sins": 8231,
  "\u2581sun": 8232,
  "\u2581suspend": 8233,
  "\u2581technology": 8234,
  "\u2581teclynnau": 8235,
  "\u2581titlebar": 8236,
  "\u2581whale": 8237,
  "\u2581wobr": 8238,
  "\u2581wrando": 8239,
  "\u2581ydyw": 8240,
  "...\"": 8241,
  "25": 8242,
  "ALL": 8243,
  "Antarctica": 8244,
  "Delay": 8245,
  "Gludo": 8246,
  "Gwirio": 8247,
  "Message": 8248,
  "UTl": 8249,
  "back": 8250,
  "dangos": 8251,
  "droi": 8252,
  "iba": 8253,
  "ier": 8254,
  "lobal": 8255,
  "ous": 8256,
  "switch": 8257,
  "via": 8258,
  "volume": 8259,
  "\u258180": 8260,
  "\u2581Addasydd": 8261,
  "\u2581Brightness": 8262,
  "\u2581Bychan": 8263,
  "\u2581Cei": 8264,
  "\u2581Costa": 8265,
  "\u2581Cy": 8266,
  "\u2581Cyfaddas": 8267,
  "\u2581Cyfnewid": 8268,
  "\u2581Cyrchwyd": 8269,
  "\u2581DN": 8270,
  "\u2581Derbyniwyd": 8271,
  "\u2581Devices": 8272,
  "\u2581Easy": 8273,
  "\u2581Enghraifft": 8274,
  "\u2581Ge": 8275,
  "\u2581Golygon": 8276,
  "\u2581Holy": 8277,
  "\u2581IS": 8278,
  "\u2581Installer": 8279,
  "\u2581Jonah": 8280,
  "\u2581Maria": 8281,
  "\u2581Nan": 8282,
  "\u2581Nelson": 8283,
  "\u2581Pop": 8284,
  "\u2581Saethau": 8285,
  "\u2581Saturday": 8286,
  "\u2581Sc": 8287,
  "\u2581Stoc": 8288,
  "\u2581Storage": 8289,
  "\u2581Tim": 8290,
  "\u2581Wales": 8291,
  "\u2581album": 8292,
  "\u2581anniversary": 8293,
  "\u2581arloeswyr": 8294,
  "\u2581barn": 8295,
  "\u2581born": 8296,
  "\u2581correspond": 8297,
  "\u2581digid": 8298,
  "\u2581dinistrio": 8299,
  "\u2581diolch": 8300,
  "\u2581drwydded": 8301,
  "\u2581edafedd": 8302,
  "\u2581egluro": 8303,
  "\u2581finish": 8304,
  "\u2581gafael": 8305,
  "\u2581gloi": 8306,
  "\u2581gyfrifol": 8307,
  "\u2581heavy": 8308,
  "\u2581identifier": 8309,
  "\u2581insurance": 8310,
  "\u2581layer": 8311,
  "\u2581looks": 8312,
  "\u2581permit": 8313,
  "\u2581prepare": 8314,
  "\u2581recover": 8315,
  "\u2581seiffr": 8316,
  "\u2581series": 8317,
  "\u2581submenu": 8318,
  "\u2581sylweddol": 8319,
  "\u2581s\u0175n": 8320,
  "\u2581toward": 8321,
  "\u2581usa": 8322,
  "\u2581viewed": 8323,
  "\u2581witness": 8324,
  "\u2581younger": 8325,
  "Australia": 8326,
  "Ie": 8327,
  "La": 8328,
  "Trywydd": 8329,
  "Yr": 8330,
  "check": 8331,
  "efallai": 8332,
  "ermissions": 8333,
  "iudad": 8334,
  "nice": 8335,
  "older": 8336,
  "oux": 8337,
  "ry": 8338,
  "tad": 8339,
  "und": 8340,
  "wain": 8341,
  "ynnau": 8342,
  "you": 8343,
  "ysgogi": 8344,
  "\u258125.": 8345,
  "\u2581Authority": 8346,
  "\u2581Bold": 8347,
  "\u2581Brother": 8348,
  "\u2581Bylchiad": 8349,
  "\u2581Byrlwybrau": 8350,
  "\u2581Cynhaliwr": 8351,
  "\u2581Cywirdeb": 8352,
  "\u2581Dalen": 8353,
  "\u2581Des": 8354,
  "\u2581Ebrill": 8355,
  "\u2581Emacs": 8356,
  "\u2581Enclos": 8357,
  "\u2581Galendr": 8358,
  "\u2581Grab": 8359,
  "\u2581Hepgor": 8360,
  "\u2581Hol": 8361,
  "\u2581Ku": 8362,
  "\u2581Malta": 8363,
  "\u2581Mesa": 8364,
  "\u2581Nathan": 8365,
  "\u2581Nebraska": 8366,
  "\u2581Paid": 8367,
  "\u2581Pans": 8368,
  "\u2581Saved": 8369,
  "\u2581Shared": 8370,
  "\u2581Shortcuts": 8371,
  "\u2581Support": 8372,
  "\u2581TGA": 8373,
  "\u2581Water": 8374,
  "\u2581activation": 8375,
  "\u2581answers": 8376,
  "\u2581anxiety": 8377,
  "\u2581atebion": 8378,
  "\u2581atynt": 8379,
  "\u2581beyond": 8380,
  "\u2581bys": 8381,
  "\u2581chose": 8382,
  "\u2581cold": 8383,
  "\u2581conduct": 8384,
  "\u2581constant": 8385,
  "\u2581dangerous": 8386,
  "\u2581ddyddiau": 8387,
  "\u2581deeply": 8388,
  "\u2581determin": 8389,
  "\u2581dilyniant": 8390,
  "\u2581divisions": 8391,
  "\u2581drosysgrifo": 8392,
  "\u2581firm": 8393,
  "\u2581fwyta": 8394,
  "\u2581gconf": 8395,
  "\u2581girl": 8396,
  "\u2581gofal": 8397,
  "\u2581indeed": 8398,
  "\u2581introduce": 8399,
  "\u2581labeli": 8400,
  "\u2581logout": 8401,
  "\u2581markup": 8402,
  "\u2581mh": 8403,
  "\u2581minnau": 8404,
  "\u2581prin": 8405,
  "\u2581reflect": 8406,
  "\u2581registered": 8407,
  "\u2581renamed": 8408,
  "\u2581rhith": 8409,
  "\u2581rhwygo": 8410,
  "\u2581rybuddio": 8411,
  "\u2581sample": 8412,
  "\u2581sentence": 8413,
  "\u2581sufficient": 8414,
  "\u2581taro": 8415,
  "\u2581transparency": 8416,
  "\u2581unset": 8417,
  "\u2581uwchddefnyddiwr": 8418,
  "\u2581wythnosau": 8419,
  "\u2581ymarfer": 8420,
  "Ac": 8421,
  "CD": 8422,
  "Diar": 8423,
  "FRl": 8424,
  "GB": 8425,
  "Hebrea": 8426,
  "Row": 8427,
  "Screen": 8428,
  "ani": 8429,
  "ata": 8430,
  "ational": 8431,
  "emporary": 8432,
  "gurat": 8433,
  "how": 8434,
  "lance": 8435,
  "lie": 8436,
  "lor": 8437,
  "pur": 8438,
  "rup": 8439,
  "through": 8440,
  "wan": 8441,
  "yes": 8442,
  "ynorthwywr": 8443,
  "\u00ed": 8444,
  "\u043e": 8445,
  "\u258133.": 8446,
  "\u2581Analluogwyd": 8447,
  "\u2581Anfonwyd": 8448,
  "\u2581CRL": 8449,
  "\u2581Cerddorol": 8450,
  "\u2581Console": 8451,
  "\u2581Dewislenni": 8452,
  "\u2581Eden": 8453,
  "\u2581Eidal": 8454,
  "\u2581Embedded": 8455,
  "\u2581Fab": 8456,
  "\u2581Gwagu": 8457,
  "\u2581Gwarchodedig": 8458,
  "\u2581Gwreiddiol": 8459,
  "\u2581Gwrthdroi": 8460,
  "\u2581Instant": 8461,
  "\u2581Inverse": 8462,
  "\u2581KOrganizer": 8463,
  "\u2581Llywio": 8464,
  "\u2581Mill": 8465,
  "\u2581Periodic": 8466,
  "\u2581Players": 8467,
  "\u2581Pr": 8468,
  "\u2581Prepar": 8469,
  "\u2581Seek": 8470,
  "\u2581Sharing": 8471,
  "\u2581Spain": 8472,
  "\u2581Spring": 8473,
  "\u2581Syml": 8474,
  "\u2581Tags": 8475,
  "\u2581Tomorrow": 8476,
  "\u2581XBM": 8477,
  "\u2581absolute": 8478,
  "\u2581alongside": 8479,
  "\u2581amdani": 8480,
  "\u2581attend": 8481,
  "\u2581becoming": 8482,
  "\u2581befel": 8483,
  "\u2581behalf": 8484,
  "\u2581buddy": 8485,
  "\u2581bylchu": 8486,
  "\u2581cases": 8487,
  "\u2581compared": 8488,
  "\u2581cross": 8489,
  "\u2581cynorthwyydd": 8490,
  "\u2581degol": 8491,
  "\u2581dipyn": 8492,
  "\u2581disgiau": 8493,
  "\u2581dock": 8494,
  "\u2581downloads": 8495,
  "\u2581dramor": 8496,
  "\u2581educational": 8497,
  "\u2581emblem": 8498,
  "\u2581explains": 8499,
  "\u2581frames": 8500,
  "\u2581gloch": 8501,
  "\u2581gwraig": 8502,
  "\u2581gyfyngu": 8503,
  "\u2581idle": 8504,
  "\u2581llw": 8505,
  "\u2581medium": 8506,
  "\u2581paren": 8507,
  "\u2581pechu": 8508,
  "\u2581pennau": 8509,
  "\u2581prefix": 8510,
  "\u2581priodi": 8511,
  "\u2581privileges": 8512,
  "\u2581revealed": 8513,
  "\u2581rhannau": 8514,
  "\u2581rif": 8515,
  "\u2581scores": 8516,
  "\u2581sides": 8517,
  "\u2581spread": 8518,
  "\u2581standing": 8519,
  "\u2581statistics": 8520,
  "\u2581supplied": 8521,
  "\u2581synnu": 8522,
  "\u2581territory": 8523,
  "\u2581thinks": 8524,
  "\u2581trosglwyddo": 8525,
  "\u2581wasanaeth": 8526,
  ".323": 8527,
  "75%": 8528,
  "AM": 8529,
  "ANGO": 8530,
  "DEFAULT": 8531,
  "Encoding": 8532,
  "First": 8533,
  "Format": 8534,
  "Galluogi": 8535,
  "Junk": 8536,
  "Match": 8537,
  "Pane": 8538,
  "Reload": 8539,
  "Sesiwn": 8540,
  "Sgrin": 8541,
  "Ystafell": 8542,
  "bb": 8543,
  "bin": 8544,
  "cl": 8545,
  "description": 8546,
  "exit": 8547,
  "lines": 8548,
  "mport": 8549,
  "orda": 8550,
  "orway": 8551,
  "ping": 8552,
  "sboro": 8553,
  "suitable": 8554,
  "uma": 8555,
  "vious": 8556,
  "waith": 8557,
  "your": 8558,
  "\u0633": 8559,
  "\u2581Append": 8560,
  "\u2581Ariannol": 8561,
  "\u2581Cyflymydd": 8562,
  "\u2581Cynlluniau": 8563,
  "\u2581DMX": 8564,
  "\u2581Dasher": 8565,
  "\u2581Debian": 8566,
  "\u2581Delio": 8567,
  "\u2581Ethiopeg": 8568,
  "\u2581Fingerprint": 8569,
  "\u2581Forwarded": 8570,
  "\u2581Galwad": 8571,
  "\u2581Graham": 8572,
  "\u2581Hampton": 8573,
  "\u2581Head": 8574,
  "\u2581Hidl": 8575,
  "\u2581ICO": 8576,
  "\u2581Issuer": 8577,
  "\u2581Iwerddon": 8578,
  "\u2581Kong": 8579,
  "\u2581LAD": 8580,
  "\u2581Movie": 8581,
  "\u2581Oklahoma": 8582,
  "\u2581Organizer": 8583,
  "\u2581Part": 8584,
  "\u2581Project": 8585,
  "\u2581Tabs": 8586,
  "\u2581Tri": 8587,
  "\u2581Trinidad": 8588,
  "\u2581Upgrade": 8589,
  "\u2581VCard": 8590,
  "\u2581Wichita": 8591,
  "\u2581Yfory": 8592,
  "\u2581anrhydedd": 8593,
  "\u2581applied": 8594,
  "\u2581atyn": 8595,
  "\u2581awyddus": 8596,
  "\u2581clicks": 8597,
  "\u2581cookies": 8598,
  "\u2581credentials": 8599,
  "\u2581cyf": 8600,
  "\u2581cyflawn": 8601,
  "\u2581cynrychioli": 8602,
  "\u2581cynulleidfa": 8603,
  "\u2581ddangosydd": 8604,
  "\u2581density": 8605,
  "\u2581earlier": 8606,
  "\u2581extended": 8607,
  "\u2581failure": 8608,
  "\u2581floating": 8609,
  "\u2581foot": 8610,
  "\u2581gad": 8611,
  "\u2581gosodedig": 8612,
  "\u2581grant": 8613,
  "\u2581hamgryptio": 8614,
  "\u2581knowing": 8615,
  "\u2581moniker": 8616,
  "\u2581nation": 8617,
  "\u2581pack": 8618,
  "\u2581primary": 8619,
  "\u2581proud": 8620,
  "\u2581realize": 8621,
  "\u2581religious": 8622,
  "\u2581rely": 8623,
  "\u2581ship": 8624,
  "\u2581slower": 8625,
  "\u2581strange": 8626,
  "\u2581swyddi": 8627,
  "\u2581synchronize": 8628,
  "\u2581treialon": 8629,
  "\u2581trethi": 8630,
  "34": 8631,
  "Bookmarks": 8632,
  "Cofio": 8633,
  "Deprecated": 8634,
  "Gwaelod": 8635,
  "Load": 8636,
  "Skip": 8637,
  "Value": 8638,
  "blwydd": 8639,
  "clock": 8640,
  "court": 8641,
  "gen": 8642,
  "gl": 8643,
  "ill": 8644,
  "ite": 8645,
  "ki": 8646,
  "ku": 8647,
  "lib": 8648,
  "light": 8649,
  "llinell": 8650,
  "more": 8651,
  "new": 8652,
  "oc": 8653,
  "pt": 8654,
  "welydd": 8655,
  "\u2581101": 8656,
  "\u258164": 8657,
  "\u2581Achos": 8658,
  "\u2581Ailadrodd": 8659,
  "\u2581Alffa": 8660,
  "\u2581Animeiddiad": 8661,
  "\u2581Arrows": 8662,
  "\u2581Atred": 8663,
  "\u2581Cawodydd": 8664,
  "\u2581Clipboard": 8665,
  "\u2581Cofia": 8666,
  "\u2581Diffinio": 8667,
  "\u2581Dudalen": 8668,
  "\u2581Exec": 8669,
  "\u2581False": 8670,
  "\u2581Fernando": 8671,
  "\u2581Galeon": 8672,
  "\u2581Imperial": 8673,
  "\u2581Juan": 8674,
  "\u2581Lan": 8675,
  "\u2581Lead": 8676,
  "\u2581Locale": 8677,
  "\u2581Lot": 8678,
  "\u2581Management": 8679,
  "\u2581Mynegiad": 8680,
  "\u2581Newidynnau": 8681,
  "\u2581Nuev": 8682,
  "\u2581Oedi": 8683,
  "\u2581Parse": 8684,
  "\u2581Payne": 8685,
  "\u2581Pu": 8686,
  "\u2581Rheswm": 8687,
  "\u2581Sal": 8688,
  "\u2581Sans": 8689,
  "\u2581Shade": 8690,
  "\u2581Shell": 8691,
  "\u2581Turk": 8692,
  "\u2581Updates": 8693,
  "\u2581Wells": 8694,
  "\u2581affected": 8695,
  "\u2581ahead": 8696,
  "\u2581animeiddio": 8697,
  "\u2581bump": 8698,
  "\u2581carry": 8699,
  "\u2581chwech": 8700,
  "\u2581concern": 8701,
  "\u2581cyfrin": 8702,
  "\u2581ddarganfu": 8703,
  "\u2581ddefnydd": 8704,
  "\u2581decimal": 8705,
  "\u2581dideitl": 8706,
  "\u2581documentation": 8707,
  "\u2581dri": 8708,
  "\u2581encouraging": 8709,
  "\u2581fetch": 8710,
  "\u2581ffocysu": 8711,
  "\u2581followers": 8712,
  "\u2581fyddaf": 8713,
  "\u2581fyddi": 8714,
  "\u2581ganiateir": 8715,
  "\u2581gardiau": 8716,
  "\u2581gofynnodd": 8717,
  "\u2581grym": 8718,
  "\u2581gwallau": 8719,
  "\u2581gwerthfawr": 8720,
  "\u2581gyfansoddi": 8721,
  "\u2581gyson": 8722,
  "\u2581gysylltiad": 8723,
  "\u2581hot": 8724,
  "\u2581inactive": 8725,
  "\u2581kcm": 8726,
  "\u2581keybinding": 8727,
  "\u2581logiau": 8728,
  "\u2581logo": 8729,
  "\u2581mom": 8730,
  "\u2581parau": 8731,
  "\u2581parenthesis": 8732,
  "\u2581perygl": 8733,
  "\u2581processing": 8734,
  "\u2581receipt": 8735,
  "\u2581reject": 8736,
  "\u2581scrollback": 8737,
  "\u2581switcher": 8738,
  "\u2581trinydd": 8739,
  "\u2581versions": 8740,
  "\u2581wal": 8741,
  "\u2581wasgi": 8742,
  "\u2581wedd\u00efo": 8743,
  "\u2581widgets": 8744,
  "\u2581worldwide": 8745,
  "-8859-1": 8746,
  "1\"": 8747,
  ":--": 8748,
  "At": 8749,
  "Big": 8750,
  "English": 8751,
  "France": 8752,
  "Gweinydd": 8753,
  "Hygyrchedd": 8754,
  "Llwytho": 8755,
  "Llyfrnodau": 8756,
  "Resolution": 8757,
  "URI": 8758,
  "ak": 8759,
  "analluogi": 8760,
  "cen": 8761,
  "daf": 8762,
  "hide": 8763,
  "ietnam": 8764,
  "ignore": 8765,
  "nl": 8766,
  "plygell": 8767,
  "policy": 8768,
  "rs": 8769,
  "ware": 8770,
  "write": 8771,
  "\u00eb": 8772,
  "\u2581\"%1.\"": 8773,
  "\u2581%2.": 8774,
  "\u2581(3)": 8775,
  "\u2581119": 8776,
  "\u258142": 8777,
  "\u2581Addresses": 8778,
  "\u2581Backspace": 8779,
  "\u2581Beau": 8780,
  "\u2581Boolean": 8781,
  "\u2581Byr": 8782,
  "\u2581Campo": 8783,
  "\u2581Canadian": 8784,
  "\u2581Cyfeiriaduron": 8785,
  "\u2581Cyfrifo": 8786,
  "\u2581Dal": 8787,
  "\u2581Dewiswyd": 8788,
  "\u2581Editing": 8789,
  "\u2581Education": 8790,
  "\u2581Estyn": 8791,
  "\u2581Expression": 8792,
  "\u2581Gofynnodd": 8793,
  "\u2581Graddio": 8794,
  "\u2581Gwrthod": 8795,
  "\u2581Gyfraith": 8796,
  "\u2581Gyswllt": 8797,
  "\u2581Ile": 8798,
  "\u2581Interval": 8799,
  "\u2581Iowa": 8800,
  "\u2581Isaac": 8801,
  "\u2581Jump": 8802,
  "\u2581Kan": 8803,
  "\u2581Mason": 8804,
  "\u2581Morris": 8805,
  "\u2581Noua": 8806,
  "\u2581Paulo": 8807,
  "\u2581Pierre": 8808,
  "\u2581Pres": 8809,
  "\u2581Processes": 8810,
  "\u2581Put": 8811,
  "\u2581Raise": 8812,
  "\u2581Rehoboam": 8813,
  "\u2581Rhith": 8814,
  "\u2581Rose": 8815,
  "\u2581Suite": 8816,
  "\u2581Titus": 8817,
  "\u2581Tryloyw": 8818,
  "\u2581UA": 8819,
  "\u2581Wayne": 8820,
  "\u2581Weithiau": 8821,
  "\u2581Ysgrythurol": 8822,
  "\u2581Yukon": 8823,
  "\u2581aberth": 8824,
  "\u2581amheuaeth": 8825,
  "\u2581amrywiad": 8826,
  "\u2581amrywiol": 8827,
  "\u2581binding": 8828,
  "\u2581chwincio": 8829,
  "\u2581c\u00f4d": 8830,
  "\u2581ddiffini": 8831,
  "\u2581detected": 8832,
  "\u2581dyfeisiau": 8833,
  "\u2581d\u0177": 8834,
  "\u2581easier": 8835,
  "\u2581eject": 8836,
  "\u2581evening": 8837,
  "\u2581fallback": 8838,
  "\u2581fotymau": 8839,
  "\u2581fun": 8840,
  "\u2581gamgymeriad": 8841,
  "\u2581gwahodd": 8842,
  "\u2581impossible": 8843,
  "\u2581individuals": 8844,
  "\u2581instant": 8845,
  "\u2581leaders": 8846,
  "\u2581lies": 8847,
  "\u2581lists": 8848,
  "\u2581llywodraeth": 8849,
  "\u2581neidio": 8850,
  "\u2581peli": 8851,
  "\u2581political": 8852,
  "\u2581presence": 8853,
  "\u2581produce": 8854,
[...]
