{
  "</s>": 0,
  "<unk>": 1,
  ",": 2,
  ".": 3,
  "\u2019": 4,
  "\u2581the": 5,
  "s": 6,
  "\u2581to": 7,
  "\u2581a": 8,
  "\u2581of": 9,
  "\u2581mu": 10,
  "\u2581n": 11,
  "\u2581and": 12,
  "\u2581\u201c": 13,
  "\u2581\u201d": 14,
  "?": 15,
  "\u2581in": 16,
  ":": 17,
  "\u2581ku": 18,
  "\u2581": 19,
  "\u2581that": 20,
  "\u2581ba": 21,
  "\u2581\u2014": 22,
  "\u2581ko": 23,
  "ing": 24,
  "\u2581y": 25,
  "\u2581be": 26,
  "i": 27,
  "ed": 28,
  "\u2581ya": 29,
  "\u2581is": 30,
  "\u2581i": 31,
  "\u2581we": 32,
  "\u2581for": 33,
  "\u2581I": 34,
  "\u2581Jehovah": 35,
  "\u2581Yehova": 36,
  "\u2581bi": 37,
  "\u2581na": 38,
  "\u2581God": 39,
  "d": 40,
  "\u2581his": 41,
  "ri": 42,
  "ra": 43,
  "\u2581muri": 44,
  "\u2581ari": 45,
  "\u2581-": 46,
  "\u2581with": 47,
  "re": 48,
  "\u2581was": 49,
  "ko": 50,
  "\u2581ni": 51,
  "n": 52,
  "\u2581you": 53,
  "\u2581not": 54,
  "\u2581w": 55,
  "\u2581u": 56,
  "ly": 57,
  "a": 58,
  "ro": 59,
  "\u2581b": 60,
  "\u2581kandi": 61,
  "\u2581as": 62,
  "\u2581he": 63,
  "t": 64,
  "\u2581no": 65,
  "e": 66,
  "ba": 67,
  "\u2581\u2019": 68,
  "na": 69,
  "\u2581on": 70,
  "\u2581ngo": 71,
  "\u2581will": 72,
  "\u2581have": 73,
  "]": 74,
  "\u2581are": 75,
  "\u2581vy": 76,
  "\u2581(": 77,
  "\u2581c": 78,
  "\u2581The": 79,
  ")": 80,
  "y": 81,
  "\u2581it": 82,
  "\u2581A": 83,
  "\u2581yuko": 84,
  "\u2581[": 85,
  "ta": 86,
  "u": 87,
  "\u2581kugira": 88,
  "\u2581ivyo": 89,
  "\u2581gu": 90,
  "zi": 91,
  ";": 92,
  "\u2581Imana": 93,
  "\u2581Jesus": 94,
  "\u2581iki": 95,
  "\u2581Ni": 96,
  "\u2581Yezu": 97,
  "\u2581our": 98,
  "\u2581by": 99,
  "\u2581from": 100,
  "\u2581kw": 101,
  "\u2581\u2018": 102,
  "r": 103,
  "\u2581Bibiliya": 104,
  "ha": 105,
  "ga": 106,
  "\u2581co": 107,
  "za": 108,
  "\u2581yari": 109,
  "\u2581bu": 110,
  "\u2581yo": 111,
  "\u2581can": 112,
  "\u2581Bible": 113,
  "Imana": 114,
  "\u2581their": 115,
  "\u2581us": 116,
  "\u2581who": 117,
  "p": 118,
  "we": 119,
  "!": 120,
  "\u2581aba": 121,
  "\u2581they": 122,
  "ne": 123,
  "ka": 124,
  "ma": 125,
  "\u2581ca": 126,
  "\u2581or": 127,
  "\u2581ati": 128,
  "\u2581mw": 129,
  "m": 130,
  "\u2581wa": 131,
  "\u2581vya": 132,
  "er": 133,
  "\u2581yara": 134,
  "\u2581nk": 135,
  "\u2581abantu": 136,
  "mu": 137,
  "\u2581bw": 138,
  "\u2581tu": 139,
  "shobora": 140,
  "\u2581What": 141,
  "\u2581ico": 142,
  "\u2581bara": 143,
  "ya": 144,
  "\u2581what": 145,
  "\u2581kuba": 146,
  "\u25811": 147,
  "\u2581do": 148,
  "\u2581bo": 149,
  "ti": 150,
  "\u2581this": 151,
  "te": 152,
  "ho": 153,
  "\u2581canke": 154,
  "ru": 155,
  "c": 156,
  "\u2581gihe": 157,
  "\u2581igihe": 158,
  "\u2581In": 159,
  "ni": 160,
  "\u2581Mu": 161,
  "\u2581ry": 162,
  "\u2581s": 163,
  "I": 164,
  "uko": 165,
  "\u2581all": 166,
  "\u2581zi": 167,
  "\u2581your": 168,
  "in": 169,
  "\u2581ki": 170,
  "b": 171,
  "ye": 172,
  "bi": 173,
  "\u2581vyo": 174,
  "\u2581at": 175,
  "\u2581were": 176,
  "\u2581had": 177,
  "\u2581gute": 178,
  "\u2581one": 179,
  "\u2581buryo": 180,
  "\u2581cane": 181,
  "\u2581kuri": 182,
  "\u2581him": 183,
  "sa": 184,
  "\u2581an": 185,
  "\u2581them": 186,
  "\u2581people": 187,
  "to": 188,
  "\u2581bari": 189,
  "\u2581du": 190,
  "se": 191,
  "o": 192,
  "gi": 193,
  "ki": 194,
  "go": 195,
  "\u2581about": 196,
  "he": 197,
  "\u2581ibi": 198,
  "\u2581ri": 199,
  "\u258119": 200,
  "\u2581How": 201,
  "\u2581wo": 202,
  "gu": 203,
  "bu": 204,
  "\u2581would": 205,
  "g": 206,
  "tu": 207,
  "\u2581did": 208,
  "\u2581when": 209,
  "mwo": 210,
  "\u2581has": 211,
  "\u2581my": 212,
  "ke": 213,
  "\u2581U": 214,
  "A": 215,
  "ca": 216,
  "isi": 217,
  "\u25812": 218,
  "al": 219,
  "\u2581so": 220,
  "ze": 221,
  "\u2581rero": 222,
  "\u2581umu": 223,
  "\u2581kubera": 224,
  "or": 225,
  "no": 226,
  "rwa": 227,
  "\u2581life": 228,
  "\u2581time": 229,
  "gira": 230,
  "\u2581He": 231,
  "zo": 232,
  "\u2581ara": 233,
  "\u2581ibintu": 234,
  "le": 235,
  "\u2581ka": 236,
  "\u2581umuntu": 237,
  "ku": 238,
  "nya": 239,
  "\u2581may": 240,
  "li": 241,
  "\u2581rya": 242,
  "\u2581\u201d.": 243,
  "U": 244,
  "\u2581N": 245,
  "yi": 246,
  "\u2581but": 247,
  "be": 248,
  "\u2581z": 249,
  "hi": 250,
  "nga": 251,
  "aba": 252,
  "je": 253,
  "\u2581those": 254,
  "\u2581kwi": 255,
  "\u2581Ariko": 256,
  "nye": 257,
  "\u2581gi": 258,
  "k": 259,
  "\u2581bwa": 260,
  "\u2581ru": 261,
  "\u2581me": 262,
  "\u2581bwo": 263,
  "\u25814": 264,
  "\u2581ata": 265,
  "\u2581neza": 266,
  "\u25815": 267,
  "\u2581ubu": 268,
  "\u2581uwo": 269,
  "mi": 270,
  "sha": 271,
  "\u2581ha": 272,
  "l": 273,
  "ge": 274,
  "E": 275,
  "\u2581iyo": 276,
  "ukuri": 277,
  "me": 278,
  "\u2581nyene": 279,
  "\u2581S": 280,
  "es": 281,
  "\u2581mbere": 282,
  "\u2581out": 283,
  "\u2581We": 284,
  "an": 285,
  "\u2581C": 286,
  "\u2581some": 287,
  "si": 288,
  "kora": 289,
  "\u2581ama": 290,
  "ur": 291,
  "w": 292,
  "\u2581P": 293,
  "\u2581how": 294,
  "hu": 295,
  "\u2581her": 296,
  "\u2581help": 297,
  "\u2581gusa": 298,
  "\u2581love": 299,
  "\u2581good": 300,
  "st": 301,
  "\u2581more": 302,
  "\u2581also": 303,
  "f": 304,
  "shi": 305,
  "en": 306,
  "\u2581T": 307,
  "\u2581ukuntu": 308,
  "\u2581re": 309,
  "\u2581up": 310,
  "ar": 311,
  "la": 312,
  "yo": 313,
  "it": 314,
  "\u2581maze": 315,
  "\u2581B": 316,
  "\u2581aho": 317,
  "\u2581za": 318,
  "\u2581two": 319,
  "umu": 320,
  "\u2581Ku": 321,
  "th": 322,
  "so": 323,
  "\u2581nta": 324,
  "\u2581been": 325,
  "\u2581Igihe": 326,
  "\u2581such": 327,
  "\u201c": 328,
  "ce": 329,
  "\u2581Paul": 330,
  "\u2581ma": 331,
  "mba": 332,
  "\u2581It": 333,
  "N": 334,
  "impwemu": 335,
  "\u2581bijanye": 336,
  "\u2581should": 337,
  "\u2581Paulo": 338,
  "bo": 339,
  "cu": 340,
  "tsi": 341,
  "\u2581nti": 342,
  "\u2581make": 343,
  "\u2581wiwe": 344,
  "\u2581aka": 345,
  "\u2581imbere": 346,
  "\u2581E": 347,
  "\u2581does": 348,
  "\u2581many": 349,
  "ama": 350,
  "\u2581work": 351,
  "\u2581things": 352,
  "\u2581vyose": 353,
  "\u2581umwe": 354,
  "\u258115": 355,
  "\u2581Ivyo": 356,
  "\u25816": 357,
  "\u2581way": 358,
  "ubu": 359,
  "\u2581abo": 360,
  "\u2581un": 361,
  "\u2581k": 362,
  "h": 363,
  "\u2581man": 364,
  "S": 365,
  "\u2581ivy": 366,
  "...": 367,
  "\u2581de": 368,
  "\u2581if": 369,
  "\u258110": 370,
  "ivyo": 371,
  "ci": 372,
  "\u2581yose": 373,
  "\u2581uko": 374,
  "\u2581even": 375,
  "\u2581world": 376,
  "\u2581hari": 377,
  "\u25813": 378,
  "the": 379,
  "ation": 380,
  "\u2581there": 381,
  "vuga": 382,
  "ngu": 383,
  "abantu": 384,
  "\u2581Witnesses": 385,
  "\u2581Why": 386,
  "\u2581abandi": 387,
  "\u2581kwa": 388,
  "\u2581G": 389,
  "\u2581said": 390,
  "lo": 391,
  "\u2581ariko": 392,
  "\u258111": 393,
  "ibi": 394,
  "\u25817": 395,
  "\u2581f": 396,
  "ndi": 397,
  "\u2581other": 398,
  "\u2581Christ": 399,
  "\u2581For": 400,
  "\u2581Christian": 401,
  "\u2581When": 402,
  "va": 403,
  "\u2581Christians": 404,
  "\u2581day": 405,
  "bona": 406,
  "\u2581could": 407,
  "\u2581earth": 408,
  "ment": 409,
  "ch": 410,
  "\u2581Ba": 411,
  "\u2581gukora": 412,
  "ja": 413,
  "\u2581first": 414,
  "\u2581umutima": 415,
  "du": 416,
  "v": 417,
  "\u2581F": 418,
  "\u2581hamwe": 419,
  "T": 420,
  "ic": 421,
  "\u2581into": 422,
  "\u2581twa": 423,
  "\u2581spirit": 424,
  "\u2581than": 425,
  "\u2581Aba": 426,
  "\u2581As": 427,
  "0": 428,
  "\u2581faith": 429,
  "\u2581she": 430,
  "\u25818": 431,
  "O": 432,
  "\u2581afise": 433,
  "\u2581rwa": 434,
  "at": 435,
  "ion": 436,
  "\u2581/": 437,
  "ness": 438,
  "\u2581these": 439,
  "\u2581si": 440,
  "\u2581which": 441,
  "da": 442,
  "C": 443,
  "\u258120": 444,
  "\u2581others": 445,
  "\u2581Kubera": 446,
  "\u2581benshi": 447,
  "ent": 448,
  "\u2581Kingdom": 449,
  "\u2581biwe": 450,
  "\u2581need": 451,
  "\u2581bose": 452,
  "\u2581Muri": 453,
  "ers": 454,
  "baye": 455,
  "\u2581see": 456,
  "\u2581years": 457,
  "vi": 458,
  "ngo": 459,
  "z": 460,
  "il": 461,
  "\u258114": 462,
  "on": 463,
  "\u2581nka": 464,
  "\u2022": 465,
  "\u2581But": 466,
  "9": 467,
  "5": 468,
  "shika": 469,
  "\u2581rw": 470,
  "\u2581ikintu": 471,
  "ate": 472,
  "\u2581akaba": 473,
  "\u2581over": 474,
  "\u2581They": 475,
  "nyi": 476,
  "\u2581Nk": 477,
  "\u2581ubuzima": 478,
  "ive": 479,
  "\u2581yavuze": 480,
  "3": 481,
  "el": 482,
  "1": 483,
  "\u2581nda": 484,
  "\u2581Ha": 485,
  "\u2581zo": 486,
  "twa": 487,
  "\u2581uku": 488,
  "\u2581example": 489,
  "G": 490,
  "\u2581aga": 491,
  "\u2581ryo": 492,
  "\u258113": 493,
  "\u2581This": 494,
  "\u2581kuruta": 495,
  "vu": 496,
  "giye": 497,
  "\u2581spiritual": 498,
  "\u2581family": 499,
  "\u2581children": 500,
  "\u2581must": 501,
  "able": 502,
  "\u2581ho": 503,
  "\u2581If": 504,
  "\u2581says": 505,
  "de": 506,
  "ity": 507,
  "\u2581page": 508,
  "\u2581because": 509,
  "M": 510,
  "\u2581Naho": 511,
  "\u2581M": 512,
  "kwi": 513,
  "ve": 514,
  "\u2581nziza": 515,
  "\u2581like": 516,
  "\u2581mugabo": 517,
  "\u2581made": 518,
  "\u2581rup": 519,
  "zwa": 520,
  "\u2581imyaka": 521,
  "di": 522,
  "\u2581tw": 523,
  "\u2581congregation": 524,
  "\u25819": 525,
  "\u2581being": 526,
  "\u2581ga": 527,
  "us": 528,
  "\u2581You": 529,
  "\u2581mutima": 530,
  "\u2581twi": 531,
  "co": 532,
  "\u2581only": 533,
  "nu": 534,
  "un": 535,
  "kira": 536,
  "wa": 537,
  "maze": 538,
  "\u258112": 539,
  "\u2581none": 540,
  "\u2581kubona": 541,
  "sho": 542,
  "\u2581tura": 543,
  "im": 544,
  "mwe": 545,
  "nda": 546,
  "\u2581know": 547,
  "\u2581baba": 548,
  "kunda": 549,
  "kwiye": 550,
  "ir": 551,
  "\u2581J": 552,
  "\u2581become": 553,
  "\u2581abana": 554,
  "\u2581W": 555,
  "6": 556,
  "\u2581heart": 557,
  "um": 558,
  "4": 559,
  "nge": 560,
  "7": 561,
  "\u2581kimwe": 562,
  "tanga": 563,
  "\u2581part": 564,
  "pa": 565,
  "\u2581ubwo": 566,
  "\u2581avuga": 567,
  "\u2581To": 568,
  "kuru": 569,
  "ol": 570,
  "\u2581gushika": 571,
  "ciye": 572,
  "\u2581ugu": 573,
  "\u2581true": 574,
  "\u2581Be": 575,
  "genda": 576,
  "su": 577,
  "\u2581bintu": 578,
  "\u2581words": 579,
  "\u2581then": 580,
  "\u2581come": 581,
  "\u2581own": 582,
  "\u2581Re": 583,
  "\u2581bira": 584,
  "2": 585,
  "\u2581name": 586,
  "she": 587,
  "\u258117": 588,
  "\u2581None": 589,
  "\u2581ones": 590,
  "mo": 591,
  "\u2581p": 592,
  "mw": 593,
  "\u258121": 594,
  "rira": 595,
  "\u2581kumenya": 596,
  "em": 597,
  "\u2581take": 598,
  "\u2581truth": 599,
  "\u2581Do": 600,
  "8": 601,
  "shira": 602,
  "\u2581Umu": 603,
  "\u2581ingingo": 604,
  "tse": 605,
  "\u2581d": 606,
  "zu": 607,
  "\u2581might": 608,
  "\u2581So": 609,
  "akarorero": 610,
  "fata": 611,
  "\u2581just": 612,
  "aho": 613,
  "\u2581imi": 614,
  "\u2581death": 615,
  "\u2581Shetani": 616,
  "\u2581Ya": 617,
  "gera": 618,
  "ul": 619,
  "\u2581well": 620,
  "\u2581azo": 621,
  "\u2581turi": 622,
  "\u2581bafise": 623,
  "\u2581its": 624,
  "\u2581before": 625,
  "iki": 626,
  "\u2581Na": 627,
  "\u2581after": 628,
  "\u258116": 629,
  "\u2581And": 630,
  "nd": 631,
  "H": 632,
  "nze": 633,
  "do": 634,
  "riye": 635,
  "\u2581isi": 636,
  "\u2581Bi": 637,
  "\u2581O": 638,
  "rya": 639,
  "\u2581cose": 640,
  "\u2581any": 641,
  "\u2581iryo": 642,
  "tuma": 643,
  "\u2581new": 644,
  "\u2581izo": 645,
  "\u2581vyari": 646,
  "fise": 647,
  "\u2581kintu": 648,
  "\u2581h": 649,
  "\u2581men": 650,
  "tera": 651,
  "guma": 652,
  "\u2581kuvuga": 653,
  "\u2581give": 654,
  "vyi": 655,
  "\u2581con": 656,
  "basavyi": 657,
  "\u2581baka": 658,
  "ugu": 659,
  "\u2581John": 660,
  "\u2581*": 661,
  "\u2581nyuma": 662,
  "\u2581person": 663,
  "\u2581Ma": 664,
  "ct": 665,
  "po": 666,
  "\u2581wacu": 667,
  "\u2581end": 668,
  "\u2581g": 669,
  "\u2581Ubu": 670,
  "less": 671,
  "\u2581urukundo": 672,
  "vuze": 673,
  "\u258124": 674,
  "\u2581That": 675,
  "\u2581use": 676,
  "nira": 677,
  "\u2581yiwe": 678,
  "\u2581Word": 679,
  "gize": 680,
  "\u2581go": 681,
  "uku": 682,
  "\u258122": 683,
  "\u2581dis": 684,
  "ful": 685,
  "L": 686,
  "ting": 687,
  "ijuru": 688,
  "\u2581now": 689,
  "ter": 690,
  "\u2581atari": 691,
  "D": 692,
  "fi": 693,
  "\u2581musi": 694,
  "\u2581find": 695,
  "wi": 696,
  "\u2581vyinshi": 697,
  "\u2581Ico": 698,
  "\u2581Gu": 699,
  "\u258123": 700,
  "\u2581Ivyabona": 701,
  "\u2581uru": 702,
  "\u2581today": 703,
  "ishengero": 704,
  "\u2581another": 705,
  "\u2581bantu": 706,
  "\u2581igikorwa": 707,
  "\u2581mi": 708,
  "\u2581inkuru": 709,
  "rashobora": 710,
  "\u2581David": 711,
  "\u2581faithful": 712,
  "\u2581rimwe": 713,
  "koresha": 714,
  "\u2581wese": 715,
  "ia": 716,
  "\u2581ukwizera": 717,
  "nwa": 718,
  "nyu": 719,
  "\u2581ira": 720,
  "\u2581Satan": 721,
  "\u2581through": 722,
  "zoba": 723,
  "\u2581kumwe": 724,
  "\u2581times": 725,
  "as": 726,
  "\u2581igi": 727,
  "\u2581gutuma": 728,
  "\u2581ibihe": 729,
  "\u2581Y": 730,
  "mera": 731,
  "fashe": 732,
  "\u2581ivya": 733,
  "pfa": 734,
  "tari": 735,
  "nde": 736,
  "\u2581feel": 737,
  "\u2581Israel": 738,
  "\u2581great": 739,
  "\u258118": 740,
  "\u2581keep": 741,
  "\u2581parents": 742,
  "\u2581study": 743,
  "ry": 744,
  "\u2581home": 745,
  "\u2581kera": 746,
  "kura": 747,
  "jwe": 748,
  "et": 749,
  "\u2581Dawidi": 750,
  "\u2581Ifoto": 751,
  "\u2581much": 752,
  "R": 753,
  "tion": 754,
  "\u2581K": 755,
  "\u2581ukwo": 756,
  "\u2581abakirisu": 757,
  "\u2581apostle": 758,
  "ruka": 759,
  "\u2581Tu": 760,
  "\u2581buzima": 761,
  "\u2581right": 762,
  "\u2581under": 763,
  "\u2581worship": 764,
  "\u2581found": 765,
  "\u2581ukuri": 766,
  "am": 767,
  "\u2581usanga": 768,
  "\u2581Kristu": 769,
  "\u2581D": 770,
  "ico": 771,
  "\u258125": 772,
  "Aba": 773,
  "shu": 774,
  "bura": 775,
  "menye": 776,
  "\u2581biri": 777,
  "\u2581very": 778,
  "Ubwami": 779,
  "mara": 780,
  "shaka": 781,
  "\u2581brothers": 782,
  "kazi": 783,
  "\u2581show": 784,
  "vuye": 785,
  "\u2581No": 786,
  "geze": 787,
  "\u2581m": 788,
  "\u2581Hari": 789,
  "menya": 790,
  "rwe": 791,
  "\u2581learn": 792,
  "\u2581vyara": 793,
  "\u2581where": 794,
  "\u2581nari": 795,
  "bereye": 796,
  "\u2581mind": 797,
  "fa": 798,
  "om": 799,
  "B": 800,
  "hambaye": 801,
  "\u2581read": 802,
  "ivy": 803,
  "\u2581put": 804,
  "\u2581babo": 805,
  "\u2581Peter": 806,
  "\u2581himself": 807,
  "\u2581igiki": 808,
  "ndo": 809,
  "\u2581human": 810,
  "ous": 811,
  "\u2581Zaburi": 812,
  "shoboye": 813,
  "abandi": 814,
  "\u2581naho": 815,
  "\u2581ex": 816,
  "igihe": 817,
  "\u2581t": 818,
  "tahura": 819,
  "\u2581against": 820,
  "\u2581place": 821,
  "bwiye": 822,
  "ies": 823,
  "ph": 824,
  "ck": 825,
  "\u2581say": 826,
  "est": 827,
  "pfu": 828,
  "\u2581iti": 829,
  "Y": 830,
  "ted": 831,
  "\u2581Petero": 832,
  "nje": 833,
  "ng": 834,
  "\u2581One": 835,
  "\u2581wrote": 836,
  "ant": 837,
  "bonye": 838,
  "\u2581young": 839,
  "gura": 840,
  "\u2581Picture": 841,
  "\u2581However": 842,
  "boneka": 843,
  "\u2581kwo": 844,
  "\u2581ivuga": 845,
  "\u2581why": 846,
  "saba": 847,
  "\u2581view": 848,
  "\u2581Si": 849,
  "\u2581most": 850,
  "\u2581means": 851,
  "kiri": 852,
  "pe": 853,
  "\u2581each": 854,
  "\u2581ntiba": 855,
  "\u2581e": 856,
  "\u2581long": 857,
  "ndu": 858,
  "x": 859,
  "K": 860,
  "\u2581yitwa": 861,
  "\u2581ayo": 862,
  "\u2581fact": 863,
  "uru": 864,
  "\u2581\u201d?": 865,
  "bara": 866,
  "korera": 867,
  "ther": 868,
  "\u2581word": 869,
  "\u2581Du": 870,
  "\u2581consider": 871,
  "is": 872,
  "The": 873,
  "\u2581hope": 874,
  "abo": 875,
  "\u2581yabo": 876,
  "pp": 877,
  "\u2581Iyo": 878,
  "\u2581ukuvuga": 879,
  "\u2581Father": 880,
  "\u2581bazo": 881,
  "\u2581Is": 882,
  "\u2581Nta": 883,
  "mwa": 884,
  "vugwa": 885,
  "nyo": 886,
  "tumye": 887,
  "\u258130": 888,
  "\u2581At": 889,
  "baza": 890,
  "\u25811,": 891,
  "V": 892,
  "\u2581book": 893,
  "\u2581year": 894,
  "reka": 895,
  "\u2581yacu": 896,
  "\u2581Nu": 897,
  "\u2581vyerekeye": 898,
  "ab": 899,
  "igi": 900,
  "\u2581Mugabo": 901,
  "\u2581izina": 902,
  "\u2581twebwe": 903,
  "pi": 904,
  "kurikira": 905,
  "ist": 906,
  "\u2581never": 907,
  "gwa": 908,
  "\u2581muntu": 909,
  "\u2581bwiwe": 910,
  "\u2581important": 911,
  "\u2581biciye": 912,
  "\u2581every": 913,
  "\u2581though": 914,
  "id": 915,
  "ian": 916,
  "\u2581majambo": 917,
  "meze": 918,
  "\u2581upon": 919,
  "\u2581yoba": 920,
  "ated": 921,
  "kw": 922,
  "\u2581same": 923,
  "\u2581\u201c[": 924,
  "lu": 925,
  "\u2581Some": 926,
  "kwa": 927,
  "\u2581Ijambo": 928,
  "\u2581news": 929,
  "\u2581ingene": 930,
  "ll": 931,
  "\u2581ministry": 932,
  "\u2581course": 933,
  "mbi": 934,
  "\u2581kumu": 935,
  "\u2581gikorwa": 936,
  "\u2581Kirisitu": 937,
  "\u2581kuguma": 938,
  "\u2581kuko": 939,
  "koze": 940,
  "\u2581let": 941,
  "\u2581gutyo": 942,
  "\u258128": 943,
  "\u2581serve": 944,
  "\u2581power": 945,
  "\u2581yaba": 946,
  "\u2581bamwebamwe": 947,
  "\u2581holy": 948,
  "rushiriza": 949,
  "\u2581Isirayeli": 950,
  "ig": 951,
  "\u2581Mana": 952,
  "\u2581ura": 953,
  "\u2581peace": 954,
  "keneye": 955,
  "\u2581cari": 956,
  "imi": 957,
  "\u2581back": 958,
  "\u2581bata": 959,
  "\u2581uri": 960,
  "renga": 961,
  "tagira": 962,
  "\u2581used": 963,
  "\u2581abi": 964,
  "\u2581purpose": 965,
  "\u2581R": 966,
  "\u2581am": 967,
  "\u2581came": 968,
  "\u2581Se": 969,
  "teye": 970,
  "\u2581bariko": 971,
  "umuntu": 972,
  "\u2581Vyongeye": 973,
  "mbu": 974,
  "\u2581King": 975,
  "\u2581uwu": 976,
  "\u2581inyuma": 977,
  "\u2581amajambo": 978,
  "\u2581down": 979,
  "yaga": 980,
  "\u2581too": 981,
  "vya": 982,
  "\u2581After": 983,
  "\u2581kwiga": 984,
  "\u2581bita": 985,
  "\u2581Psalm": 986,
  "\u2581baga": 987,
  "\u2581get": 988,
  "\u2581want": 989,
  "age": 990,
  "\u2581De": 991,
  "\u2581ako": 992,
  "\u2581days": 993,
  "\u00e9": 994,
  "\u2581wife": 995,
  "\u2581set": 996,
  "\u2581Read": 997,
  "\u2581became": 998,
  "\u2581Woba": 999,
  "kiye": 1000,
  "\u2581yaciye": 1001,
  "ot": 1002,
  "\u2581wanje": 1003,
  "\u2581live": 1004,
  "\u2581Abakirisu": 1005,
  "\u2581With": 1006,
  "\u2581ingorane": 1007,
  "retse": 1008,
  "ivya": 1009,
  "\u2581reason": 1010,
  "senga": 1011,
  "biri": 1012,
  "\u2581service": 1013,
  "ryo": 1014,
  "\u2581disciples": 1015,
  "\u2581preaching": 1016,
  "\u2581gituma": 1017,
  "\u2581among": 1018,
  "\u2581sin": 1019,
  "mye": 1020,
  "yu": 1021,
  "\u2581Ab": 1022,
  "\u2581care": 1023,
  "\u2581article": 1024,
  "tangura": 1025,
  "\u25813:": 1026,
  "fasha": 1027,
  "\u2581knowledge": 1028,
  "\u2581nya": 1029,
  "tic": 1030,
  "\u2581200": 1031,
  "\u2581kure": 1032,
  "ear": 1033,
  "\u2581told": 1034,
  "ibijanye": 1035,
  "shitse": 1036,
  "uwo": 1037,
  "\u2581Kugira": 1038,
  "ver": 1039,
  "\u2581bimwe": 1040,
  "\u2581nabi": 1041,
  "ji": 1042,
  "ranga": 1043,
  "\u2581iyi": 1044,
  "\u2581v": 1045,
  "Ivyabona": 1046,
  "zima": 1047,
  "\u2581hand": 1048,
  "\u2581away": 1049,
  "P": 1050,
  "\u2581often": 1051,
  "ad": 1052,
  "\u2581His": 1053,
  "\u2581Abantu": 1054,
  "riza": 1055,
  "\u2581hagati": 1056,
  "\u2581kwamamaza": 1057,
  "\u2581akarorero": 1058,
  "ut": 1059,
  "\u2581Nti": 1060,
  "\u2581umuryango": 1061,
  "ance": 1062,
  "\u2581yanditse": 1063,
  "\u2581father": 1064,
  "\u2581loving": 1065,
  "\u2581house": 1066,
  "\u2581nara": 1067,
  "\u2581uburyo": 1068,
  "\u2581vyiza": 1069,
  "\u2581Tura": 1070,
  "ence": 1071,
  "bwira": 1072,
  "girira": 1073,
  "\u2581abavyeyi": 1074,
  "\u2581order": 1075,
  "aga": 1076,
  "\u2581ways": 1077,
  "\u258126": 1078,
  "\u2581en": 1079,
  "\u2581By": 1080,
  "\u2581gihugu": 1081,
  "\u2581buri": 1082,
  "\u2581century": 1083,
  "\u2581during": 1084,
  "\u258129": 1085,
  "ary": 1086,
  "\u2581Musa": 1087,
  "umwe": 1088,
  "\u2581doing": 1089,
  "\u2581Sa": 1090,
  "iyo": 1091,
  "girwa": 1092,
  "ld": 1093,
  "\u2581Scriptures": 1094,
  "\u2581Ibi": 1095,
  "\u2581dufise": 1096,
  "\u2581dukwiye": 1097,
  "hera": 1098,
  "\u2581hanyuma": 1099,
  "\u2581fear": 1100,
  "\u2581fellow": 1101,
  "\u2581ashobora": 1102,
  "\u2581later": 1103,
  "\u2581uruhara": 1104,
  "\u2581iri": 1105,
  "\u2581ntango": 1106,
  "\u2581given": 1107,
  "tra": 1108,
  "tegerezwa": 1109,
  "\u2581umwanya": 1110,
  "ine": 1111,
  "\u2581Matthew": 1112,
  "\u2581ukwi": 1113,
  "\u2581Soma": 1114,
  "rimwo": 1115,
  "\u2581wawe": 1116,
  "\u2581Uwo": 1117,
  "\u2581agira": 1118,
  "W": 1119,
  "\u2581bacu": 1120,
  "\u2581kamere": 1121,
  "gire": 1122,
  "\u2581began": 1123,
  "\u2581Yara": 1124,
  "\u2581Bu": 1125,
  "yobo": 1126,
  "\u2581Ca": 1127,
  "\u2581pro": 1128,
  "\u2581She": 1129,
  "\u2581Matayo": 1130,
  "\u2581gave": 1131,
  "\u258112:": 1132,
  "\u2581themselves": 1133,
  "\u2581gikirisu": 1134,
  "\u2581result": 1135,
  "\u2581dushobora": 1136,
  "ating": 1137,
  "\u2581bihe": 1138,
  "\u2581pre": 1139,
  "ronka": 1140,
  "\u2581sp": 1141,
  "\u2581r": 1142,
  "\u2581bring": 1143,
  "buka": 1144,
  "\u2581Ese": 1145,
  "\u2581bakaba": 1146,
  "\u2581living": 1147,
  "\u2581ntibi": 1148,
  "\u2581called": 1149,
  "\u2581vyoba": 1150,
  "\u2581old": 1151,
  "\u2581An": 1152,
  "\u2581servants": 1153,
  "\u2581making": 1154,
  "\u25812.": 1155,
  "\u258131": 1156,
  "\u2581child": 1157,
  "\u2581mwene": 1158,
  "janye": 1159,
  "\u2581experience": 1160,
  "ish": 1161,
  "\u2581prayer": 1162,
  "bandanya": 1163,
  "\u2581New": 1164,
  "\u2581gutahura": 1165,
  "\u2581point": 1166,
  "\u2581husband": 1167,
  "ial": 1168,
  "\u2581Me": 1169,
  "\u2581Our": 1170,
  "\u2581On": 1171,
  "\u2581whom": 1172,
  "fu": 1173,
  "\u25814.": 1174,
  "\u2581bashobora": 1175,
  "wu": 1176,
  "\u2581H": 1177,
  "\u2581bato": 1178,
  "\u2581rwo": 1179,
  "\u2581still": 1180,
  "\u2581Z": 1181,
  "mere": 1182,
  "tege": 1183,
  "rere": 1184,
  "\u2581kubaho": 1185,
  "\u2581Yohani": 1186,
  "\u2581humans": 1187,
  "\u2581ryiwe": 1188,
  "ukuntu": 1189,
  "\u2581There": 1190,
  "hora": 1191,
  "gara": 1192,
  "min": 1193,
  "\u2581support": 1194,
  "heza": 1195,
  "\u2581bituma": 1196,
  "\u2581ivyiyumviro": 1197,
  "\u2581tuka": 1198,
  "bera": 1199,
  "\u2581kinjana": 1200,
  "sigura": 1201,
  "\u2581Son": 1202,
  "\u2581umwana": 1203,
  "bwa": 1204,
  "\u2581mo": 1205,
  "tanguye": 1206,
  "\u258127": 1207,
  "\u2581amaze": 1208,
  "mira": 1209,
  "\u2581Yamara": 1210,
  "\u2581three": 1211,
  "\u2581Jerusalem": 1212,
  "\u2581however": 1213,
  "\u2581Even": 1214,
  "\u2581son": 1215,
  "\u2581able": 1216,
  "\u2581rwose": 1217,
  "\u2581kuva": 1218,
  "\u2581inyigisho": 1219,
  "\u2581marriage": 1220,
  "\u2581azi": 1221,
  "\u2581bugufi": 1222,
  "\u2581L": 1223,
  "shima": 1224,
  "\u2581mankind": 1225,
  "gerageza": 1226,
  "\u2581Yes": 1227,
  "\u2581act": 1228,
  "ngana": 1229,
  "nka": 1230,
  "\u2581tuba": 1231,
  "vo": 1232,
  "idini": 1233,
  "subira": 1234,
  "\u2581respect": 1235,
  "\u2581myaka": 1236,
  "\u2581counsel": 1237,
  "\u2581think": 1238,
  "hanga": 1239,
  "\u2581ibindi": 1240,
  "\u2581gitabu": 1241,
  "\u2581both": 1242,
  "\u2581full": 1243,
  "\u2581Nimba": 1244,
  "\u2581kuronka": 1245,
  "\u2581form": 1246,
  "\u2581personal": 1247,
  "ubuzima": 1248,
  "ors": 1249,
  "\u2581Abisirayeli": 1250,
  "\u25811:": 1251,
  "\u2581Mo": 1252,
  "\u258133": 1253,
  "\u2581po": 1254,
  "komeye": 1255,
  "shasha": 1256,
  "\u2581Ama": 1257,
  "\u2581abigishwa": 1258,
  "sanga": 1259,
  "\u2581free": 1260,
  "\u2581without": 1261,
  "\u2581anointed": 1262,
  "\u2581gusenga": 1263,
  "\u2581always": 1264,
  "\u2581share": 1265,
  "\u2581Ka": 1266,
  "umubiri": 1267,
  "shize": 1268,
  "\u2581amahoro": 1269,
  "ju": 1270,
  "himba": 1271,
  "\u2581speak": 1272,
  "\u2581Ubwami": 1273,
  "\u2581last": 1274,
  "\u2581joy": 1275,
  "\u2581hafi": 1276,
  "\u2581muryango": 1277,
  "garagaza": 1278,
  "\u2581continue": 1279,
  "\u2581intumwa": 1280,
  "gizwe": 1281,
  "ibindi": 1282,
  "one": 1283,
  "shwa": 1284,
  "\u2581face": 1285,
  "\u2581hariho": 1286,
  "\u2581ryari": 1287,
  "\u2581questions": 1288,
  "erekeye": 1289,
  "\u2581impwemu": 1290,
  "\u2581Abo": 1291,
  "\u2581conduct": 1292,
  "\u2581Moses": 1293,
  "\u2581ibiki": 1294,
  "ite": 1295,
  "\u2581kabiri": 1296,
  "fashije": 1297,
  "\u2581ivyerekeye": 1298,
  "\u2581Iki": 1299,
  "\u2581took": 1300,
  "gwi": 1301,
  "umutima": 1302,
  "\u2581enjoy": 1303,
  "\u2581wabo": 1304,
  "\u2581ziwe": 1305,
  "\u2581mother": 1306,
  "tinya": 1307,
  "\u2581Then": 1308,
  "\u2581look": 1309,
  "\u2581yariko": 1310,
  "\u2581Yet": 1311,
  "\u2581bikaba": 1312,
  "mbe": 1313,
  "\u2581Israelites": 1314,
  "bwirizwa": 1315,
  "mbo": 1316,
  "\u2581Yesaya": 1317,
  "nt": 1318,
  "\u2581prophet": 1319,
  "mbara": 1320,
  "\u2581hard": 1321,
  "twara": 1322,
  "\u2581lead": 1323,
  "\u2581Yeruzalemu": 1324,
  "ure": 1325,
  "\u2581umunezero": 1326,
  "\u2581while": 1327,
  "\u2581ask": 1328,
  "aka": 1329,
  "nzi": 1330,
  "\u2581far": 1331,
  "\u2581Let": 1332,
  "\u2581nde": 1333,
  "\u2581ndi": 1334,
  "\u2581Abraham": 1335,
  "\u2581future": 1336,
  "\u2581heaven": 1337,
  "\u2581\u2019.": 1338,
  "ibintu": 1339,
  "\u258110.": 1340,
  "\u2581asked": 1341,
  "\u2581toward": 1342,
  "\u2581Isaiah": 1343,
  "\u2581gutanga": 1344,
  "ahavuye": 1345,
  "\u2581relationship": 1346,
  "tw": 1347,
  "ions": 1348,
  "\u2581Aburahamu": 1349,
  "riwe": 1350,
  "ica": 1351,
  "op": 1352,
  "vy": 1353,
  "jana": 1354,
  "\u2581kind": 1355,
  "\u2581remain": 1356,
  "ling": 1357,
  "\u2581close": 1358,
  "\u0101": 1359,
  "\u2581high": 1360,
  "\u2581something": 1361,
  "zigira": 1362,
  "\u2581benefit": 1363,
  "\u2581kira": 1364,
  "gisha": 1365,
  "taba": 1366,
  "\u2581gufasha": 1367,
  "ronse": 1368,
  "\u2581babona": 1369,
  "\u2581gisagara": 1370,
  "\u25818.": 1371,
  "\u2581ica": 1372,
  "\u2581guha": 1373,
  "\u2581kubi": 1374,
  "\u2581Many": 1375,
  "BA": 1376,
  "gani": 1377,
  "\u2581situation": 1378,
  "rondera": 1379,
  "\u2581brother": 1380,
  "Umu": 1381,
  "sh": 1382,
  "\u2581war": 1383,
  "imyaka": 1384,
  "\u2581wari": 1385,
  "\u2581ntiya": 1386,
  "\u2581wicked": 1387,
  "\u2581meetings": 1388,
  "\u2581Raba": 1389,
  "\u2581really": 1390,
  "ts": 1391,
  "\u2581bwacu": 1392,
  "\u2581St": 1393,
  "shingiye": 1394,
  "\u2581ngenderwako": 1395,
  "nywe": 1396,
  "\u2581having": 1397,
  "\u2581gukoresha": 1398,
  "\u2581imp": 1399,
  "\u2581bad": 1400,
  "\u2581gukorera": 1401,
  "\u2581real": 1402,
  "\u2581together": 1403,
  "\u2581law": 1404,
  "\u2581bwose": 1405,
  "\u2581nyamukuru": 1406,
  "\u2581canecane": 1407,
  "hari": 1408,
  "\u2581present": 1409,
  "koreshwa": 1410,
  "\u2581message": 1411,
  "\u2581ubwa": 1412,
  "\u2581nyakuri": 1413,
  "\u2581maso": 1414,
  "ill": 1415,
  "\u25816:": 1416,
  "\u2581Mi": 1417,
  "uba": 1418,
  "\u2581ibikorwa": 1419,
  "\u2581impanuro": 1420,
  "\u2581comfort": 1421,
  "\u2581bati": 1422,
  "ac": 1423,
  "\u2581woman": 1424,
  "erekana": 1425,
  "\u25813.": 1426,
  "\u25817.": 1427,
  "koresheje": 1428,
  "\u2581biba": 1429,
  "\u2581religious": 1430,
  "\u2581From": 1431,
  "\u2581ubukerebutsi": 1432,
  "\u2581bagize": 1433,
  "\u2581heavenly": 1434,
  "pfuye": 1435,
  "\u2581case": 1436,
  "led": 1437,
  "\u25815.": 1438,
  "\u258112.": 1439,
  "Mu": 1440,
  "\u2581learned": 1441,
  "mp": 1442,
  "remesha": 1443,
  "\u2581between": 1444,
  "\u258114.": 1445,
  "\u2581uwa": 1446,
  "nywa": 1447,
  "ud": 1448,
  "\u2581helped": 1449,
  "\u2581wewe": 1450,
  "\u2581nor": 1451,
  "soma": 1452,
  "\u2581understand": 1453,
  "\u2581talk": 1454,
  "\u258116.": 1455,
  "\u2581turn": 1456,
  "\u2581Le": 1457,
  "\u2581My": 1458,
  "\u2581account": 1459,
  "\u2581number": 1460,
  "\u2581city": 1461,
  "\u2581someone": 1462,
  "\u2581trust": 1463,
  "rerekana": 1464,
  "\u2581sh": 1465,
  "\u2581sense": 1466,
  "twararika": 1467,
  "\u258111.": 1468,
  "vyo": 1469,
  "\u2581kuja": 1470,
  "\u2581ububasha": 1471,
  "\u2581Bara": 1472,
  "ven": 1473,
  "\u2581mwaka": 1474,
  "\u2581wise": 1475,
  "\u2581twari": 1476,
  "son": 1477,
  "\u2581needed": 1478,
  "\u2581aha": 1479,
  "\u2581bihambaye": 1480,
  "\u2581elders": 1481,
  "\u016b": 1482,
  "bone": 1483,
  "kiza": 1484,
  "all": 1485,
  "\u2581V": 1486,
  "red": 1487,
  "\u2581system": 1488,
  "\u2581avoid": 1489,
  "\u2581believe": 1490,
  "\u2581desire": 1491,
  "ty": 1492,
  "\u2581water": 1493,
  "\u2581wisdom": 1494,
  "RA": 1495,
  "\u2581tuga": 1496,
  "\u2581felt": 1497,
  "\u25816.": 1498,
  "\u2581Of": 1499,
  "\u258113.": 1500,
  "\u2581nimba": 1501,
  "\u2581Aho": 1502,
  "\u2581slave": 1503,
  "\u2581Mar": 1504,
  "\u2581king": 1505,
  "\u2581best": 1506,
  "savye": 1507,
  "\u2581twara": 1508,
  "\u2581ubucuti": 1509,
  "\u2581bavuga": 1510,
  "renge": 1511,
  "mpa": 1512,
  "kozi": 1513,
  "\u258117.": 1514,
  "\u2581Yakobo": 1515,
  "\u2581bada": 1516,
  "\u2581possible": 1517,
  "\u25819.": 1518,
  "\u2581ijambo": 1519,
  "\u2581language": 1520,
  "ukwi": 1521,
  "\u2581See": 1522,
  "zera": 1523,
  "ations": 1524,
  "banza": 1525,
  "\u2581tr": 1526,
  "\u2581Pa": 1527,
  "\u2581umugabo": 1528,
  "\u2581imwe": 1529,
  "\u258132": 1530,
  "\u2581nations": 1531,
  "F": 1532,
  "\u2581bizo": 1533,
  "\u2581food": 1534,
  "\u2581happy": 1535,
  "\u2581koko": 1536,
  "\u2581bakora": 1537,
  "vye": 1538,
  "\u2581agaciro": 1539,
  "\u2581kuki": 1540,
  "\u2581eyes": 1541,
  "\u2581amahera": 1542,
  "bayeho": 1543,
  "\u2581deal": 1544,
  "\u2581kiri": 1545,
  "\u2581lives": 1546,
  "\u2581attitude": 1547,
  "\u2581ourselves": 1548,
  "\u2581cause": 1549,
  "\u2581strong": 1550,
  "gra": 1551,
  "\u2581All": 1552,
  "\u2581icizigiro": 1553,
  "\u258115.": 1554,
  "\u2581matter": 1555,
  "\u2581Wa": 1556,
  "\u2581urwo": 1557,
  "gendera": 1558,
  "\u2581answer": 1559,
  "\u2581nyinshi": 1560,
  "\u2581pioneer": 1561,
  "\u2581ciwe": 1562,
  "\u2581kuntu": 1563,
  "\u2581teaching": 1564,
  "\u2581bar": 1565,
  "\u2581nkuru": 1566,
  "ff": 1567,
  "himbarwa": 1568,
  "\u2581mean": 1569,
  "\u2581babi": 1570,
  "\u258140": 1571,
  "\u2581again": 1572,
  "\u2581haba": 1573,
  "buye": 1574,
  "\u2581whole": 1575,
  "Ni": 1576,
  "\u2581Luke": 1577,
  "\u2581done": 1578,
  "\u2581following": 1579,
  "\u2581Po": 1580,
  "\u2581zose": 1581,
  "ake": 1582,
  "hose": 1583,
  "\u2581misi": 1584,
  "\u2581Law": 1585,
  "\u2581Umwami": 1586,
  "suku": 1587,
  "\u2581amu": 1588,
  "ten": 1589,
  "dasanzwe": 1590,
  "\u2581Luka": 1591,
  "\u2581gufata": 1592,
  "\u2581ten": 1593,
  "ronke": 1594,
  "\u2581few": 1595,
  "\u2581Who": 1596,
  "\u2581fine": 1597,
  "\u2581righteous": 1598,
  "lic": 1599,
  "\u2581saying": 1600,
  "sanzwe": 1601,
  "\u2581guca": 1602,
  "fitaniye": 1603,
  "\u2581land": 1604,
  "ntu": 1605,
  "\u2581Consider": 1606,
  "\u2581Proverbs": 1607,
  "\u2581material": 1608,
  "\u2581aca": 1609,
  "ubaha": 1610,
  "\u2581school": 1611,
  "\u2581Your": 1612,
  "man": 1613,
  "ever": 1614,
  "\u2581religion": 1615,
  "\u2581kazoza": 1616,
  "\u2581temple": 1617,
  "ious": 1618,
  "ongere": 1619,
  "\u2581Vyanditswe": 1620,
  "\u2581ever": 1621,
  "epfo": 1622,
  "\u2581left": 1623,
  "\u2581different": 1624,
  "tandukanye": 1625,
  "\u2581ancient": 1626,
  "kongera": 1627,
  "tura": 1628,
  "abana": 1629,
  "\u2581follow": 1630,
  "\u2581kiganiro": 1631,
  "and": 1632,
  "hana": 1633,
  "\u2581age": 1634,
  "\u2581se": 1635,
  "\u2581bwabo": 1636,
  "\u2581known": 1637,
  "\u2581little": 1638,
  "\u2581Uko": 1639,
  "\u2581gift": 1640,
  "\u2581These": 1641,
  "myi": 1642,
  "ongera": 1643,
  "\u2581certain": 1644,
  "\u2581near": 1645,
  "ap": 1646,
  "\u2581listen": 1647,
  "000": 1648,
  "rirwa": 1649,
  "\u2581nzu": 1650,
  "\u2581rule": 1651,
  "\u2581perfect": 1652,
  "\u2581ahantu": 1653,
  "kenguruka": 1654,
  "wo": 1655,
  "\u2581ubutumwa": 1656,
  "\u2581bamu": 1657,
  "\u2581better": 1658,
  "\u2581allow": 1659,
  "\u2581Timothy": 1660,
  "side": 1661,
  "\u2581ishengero": 1662,
  "tunga": 1663,
  "\u2581Co": 1664,
  "\u2581question": 1665,
  "\u2581Greek": 1666,
  "\u2581karere": 1667,
  "\u2581Al": 1668,
  "\u25aa": 1669,
  "ganza": 1670,
  "\u2581Timoteyo": 1671,
  "\u2581harimwo": 1672,
  "\u2581thought": 1673,
  "\u2581cannot": 1674,
  "rera": 1675,
  "\u2581lo": 1676,
  "\u2581whe": 1677,
  "zwe": 1678,
  "bira": 1679,
  "\u2581uzo": 1680,
  "\u2581wose": 1681,
  "\u2581group": 1682,
  "\u2581kwemera": 1683,
  "\u2581Lord": 1684,
  "\u2581bagira": 1685,
  "\u2581receive": 1686,
  "gereranya": 1687,
  "\u2581vyifashe": 1688,
  "teka": 1689,
  "ens": 1690,
  "twe": 1691,
  "\u2581yatanze": 1692,
  "vuka": 1693,
  "zokw": 1694,
  "cisha": 1695,
  "fitiye": 1696,
  "ubwo": 1697,
  "\u2581Ch": 1698,
  "\u2581kwose": 1699,
  "\u2581visit": 1700,
  "\u2581off": 1701,
  "mpi": 1702,
  "ize": 1703,
  "\u2581Jews": 1704,
  "\u2581NW": 1705,
  "\u2581hejuru": 1706,
  "\u2581privilege": 1707,
  "\u2581giti": 1708,
  "\u2581ibibazo": 1709,
  "\u2581agatima": 1710,
  "RI": 1711,
  "\u2581Intumwa": 1712,
  "ow": 1713,
  "\u2581Ahubwo": 1714,
  "\u2581Because": 1715,
  "\u2581witness": 1716,
  "erekeza": 1717,
  "\u2581self": 1718,
  "banga": 1719,
  "\u2581serving": 1720,
  "ual": 1721,
  "\u2581yourself": 1722,
  "\u2581difficult": 1723,
  "per": 1724,
  "ard": 1725,
  "\u2581Job": 1726,
  "nini": 1727,
  "tora": 1728,
  "\u2581Adam": 1729,
  "\u2581gushira": 1730,
  "\u2581iyihe": 1731,
  "\u2581wrong": 1732,
  "\u2581went": 1733,
  "\u2581Yobu": 1734,
  "\u2581kindness": 1735,
  "\u2581giving": 1736,
  "gana": 1737,
  "sigaye": 1738,
  "\u2581mbi": 1739,
  "\u2581twese": 1740,
  "kwe": 1741,
  "\u2581im": 1742,
  "ical": 1743,
  "\u2581kurya": 1744,
  "\u2581vyatumye": 1745,
  "siga": 1746,
  "\u2581members": 1747,
  "\u2581jewe": 1748,
  "ise": 1749,
  "\u2581head": 1750,
  "\u2581light": 1751,
  "\u2581Igi": 1752,
  "\u2581friends": 1753,
  "rinda": 1754,
  "YE": 1755,
  "\u2581baptized": 1756,
  "ism": 1757,
  "\u2581Nara": 1758,
  "\u2581yet": 1759,
  "ities": 1760,
  "\u2581accept": 1761,
  "\u2581strengthen": 1762,
  "\u2581since": 1763,
  "\u2581Kandi": 1764,
  "\u2581bwiza": 1765,
  "\u2581health": 1766,
  "hile": 1767,
  "\u2581value": 1768,
  "\u2581Acts": 1769,
  "\u2581gato": 1770,
  "\u2581saw": 1771,
  "\u2581kingdom": 1772,
  "Ijambo": 1773,
  "\u2581problems": 1774,
  "ruta": 1775,
  "\u2581Adamu": 1776,
  "\u2581suffering": 1777,
  "isunga": 1778,
  "\u2581dead": 1779,
  "\u2581early": 1780,
  "\u2581Revelation": 1781,
  "end": 1782,
  "iyi": 1783,
  "huza": 1784,
  "qu": 1785,
  "\u2581similar": 1786,
  "ally": 1787,
  "\u2581bimwebimwe": 1788,
  "riya": 1789,
  "ny": 1790,
  "\u2581Corinthians": 1791,
  "\u2581soul": 1792,
  "sinzi": 1793,
  "umva": 1794,
  "\u2581thus": 1795,
  "\u2581bakeneye": 1796,
  "rs": 1797,
  "Ubu": 1798,
  "\u2581abavukanyi": 1799,
  "\u2581along": 1800,
  "\u2581bihugu": 1801,
  "\u2581turashobora": 1802,
  "\u2581women": 1803,
  "rangwa": 1804,
  "\u2581Can": 1805,
  "\u2581states": 1806,
  "\u2581Ja": 1807,
  "umvikana": 1808,
  "\u2581ita": 1809,
  "bigira": 1810,
  "kenewe": 1811,
  "\u2581imisi": 1812,
  "\u2581kivuga": 1813,
  "\u2581menshi": 1814,
  "\u2581nko": 1815,
  "ned": 1816,
  "ning": 1817,
  "\u2581mis": 1818,
  "\u2581blood": 1819,
  "\u2581followers": 1820,
  "\u2581ada": 1821,
  "rangura": 1822,
  "hinduka": 1823,
  "\u2581ng": 1824,
  "\u2581attention": 1825,
  "\u2581false": 1826,
  "duha": 1827,
  "\u2581Does": 1828,
  "kirisu": 1829,
  "\u2581knew": 1830,
  "rutse": 1831,
  "\u2581kura": 1832,
  "\u2581sure": 1833,
  "\u2581please": 1834,
  "\u2581uka": 1835,
  "\u2581Thus": 1836,
  "\u2581Two": 1837,
  "ell": 1838,
  "\u2581muhira": 1839,
  "\u2581Vya": 1840,
  "\u2581Although": 1841,
  "\u2581received": 1842,
  "\u2581moved": 1843,
  "\u2581THE": 1844,
  "garuka": 1845,
  "tara": 1846,
  "\u2581move": 1847,
  "\u2581clean": 1848,
  "\u2581gain": 1849,
  "\u2581tell": 1850,
  "\u2581willing": 1851,
  "gororotse": 1852,
  "\u258118.": 1853,
  "\u2581next": 1854,
  "\u2581per": 1855,
  "ipfuza": 1856,
  "\u2581brought": 1857,
  "\u2581ivyiza": 1858,
  "\u2581sacrifice": 1859,
  "YA": 1860,
  "mvi": 1861,
  "\u2581ahubwo": 1862,
  "\u2581mwiza": 1863,
  "\u2581yoshobora": 1864,
  "\u2581yakoze": 1865,
  "shikira": 1866,
  "\u2581needs": 1867,
  "gume": 1868,
  "heze": 1869,
  "\u2581kuyi": 1870,
  "\u2581subject": 1871,
  "ner": 1872,
  "\u2581Joseph": 1873,
  "\u2581likely": 1874,
  "\u2581principles": 1875,
  "\u2581yawe": 1876,
  "\u2581nation": 1877,
  "genzi": 1878,
  "\u2581Wo": 1879,
  "ach": 1880,
  "\u2581teach": 1881,
  "\u2581until": 1882,
  "\u2581issue": 1883,
  "ring": 1884,
  "kingira": 1885,
  "\u2581mukuru": 1886,
  "gatuma": 1887,
  "\u2581draw": 1888,
  "\u2581deep": 1889,
  "\u2581kwacu": 1890,
  "kire": 1891,
  "\u2581abona": 1892,
  "\u2581ibiri": 1893,
  "\u2581Romans": 1894,
  "\u2581ab": 1895,
  "ubaka": 1896,
  "\u2581babiri": 1897,
  "\u258135": 1898,
  "ster": 1899,
  "\u2581aya": 1900,
  "sobanura": 1901,
  "\u2581inzira": 1902,
  "\u2581resurrection": 1903,
  "ight": 1904,
  "\u2581Yari": 1905,
  "\u2581influence": 1906,
  "\u2581umusi": 1907,
  "\u2581nzira": 1908,
  "\u2581pray": 1909,
  "\u2581reflect": 1910,
  "\u2581apply": 1911,
  "\u2581kurondera": 1912,
  "\u2581mfise": 1913,
  "\u2581bakwiye": 1914,
  "\u2581especially": 1915,
  "\u2581Mw": 1916,
  "\u2581body": 1917,
  "\u2581hold": 1918,
  "\u2581provide": 1919,
  "\u2581feelings": 1920,
  "\u2581udu": 1921,
  "\u2581soon": 1922,
  "\u2581thinking": 1923,
  "nditse": 1924,
  "SH": 1925,
  "\u2581money": 1926,
  "for": 1927,
  "\u2581force": 1928,
  "ath": 1929,
  "\u2581everlasting": 1930,
  "\u2581stand": 1931,
  "\u2581gusoma": 1932,
  "vuzwe": 1933,
  "\u2581Solomon": 1934,
  "ishure": 1935,
  "raba": 1936,
  "\u2581Salomo": 1937,
  "\u2581ufise": 1938,
  "od": 1939,
  "\u2581Abayuda": 1940,
  "\u2581bidahera": 1941,
  "\u2581taught": 1942,
  "nditswe": 1943,
  "\u2581ikaba": 1944,
  "kara": 1945,
  "\u258134": 1946,
  "\u2581maintain": 1947,
  "\u2581reading": 1948,
  "\u2581works": 1949,
  "\u2581Ivyanditswe": 1950,
  "\u2581control": 1951,
  "uzuye": 1952,
  "\u2581Leta": 1953,
  "\u2581ngiro": 1954,
  "\u2581remember": 1955,
  "\u2581abari": 1956,
  "\u2581sent": 1957,
  "\u2581yongera": 1958,
  "ronsa": 1959,
  "buza": 1960,
  "\u2581test": 1961,
  "\u2581Creator": 1962,
  "\u2581four": 1963,
  "\u2581Uku": 1964,
  "ranguka": 1965,
  "\u258137": 1966,
  "\u2581large": 1967,
  "\u2581night": 1968,
  "\u2581died": 1969,
  "mvu": 1970,
  "\u2581nyeranda": 1971,
  "\u2581akora": 1972,
  "\u2581including": 1973,
  "\u2581return": 1974,
  "\u2581amazi": 1975,
  "\u2581bake": 1976,
  "\u2581bivuye": 1977,
  "\u2581Such": 1978,
  "\u2581kibazo": 1979,
  "os": 1980,
  "\u2581divine": 1981,
  "\u2581guhindura": 1982,
  "\u2581serious": 1983,
  "\u2581call": 1984,
  "\u2581hara": 1985,
  "\u2581Ki": 1986,
  "\u2581sons": 1987,
  "urukundo": 1988,
  "shikiriza": 1989,
  "\u2581Bo": 1990,
  "\u2581effect": 1991,
  "\u2581gihambaye": 1992,
  "\u2581urugero": 1993,
  "\u2581Since": 1994,
  "\u2581small": 1995,
  "gamburuka": 1996,
  "\u2581kenshi": 1997,
  "\u2581More": 1998,
  "\u2581iteka": 1999,
  "\u2581doubt": 2000,
  "\u2581kwigisha": 2001,
  "\u2581matters": 2002,
  "umugore": 2003,
  "\u2581bazi": 2004,
  "\u2581bisobanura": 2005,
  "subiye": 2006,
  "\u2581kwiwe": 2007,
  "In": 2008,
  "\u2581pain": 2009,
  "over": 2010,
  "\u2581change": 2011,
  "shoboka": 2012,
  "\u2581makes": 2013,
  "garagaje": 2014,
  "\u2581special": 2015,
  "\u2581La": 2016,
  "\u2581individuals": 2017,
  "\u2581leave": 2018,
  "\u2581apostles": 2019,
  "\u2581kiringo": 2020,
  "cika": 2021,
  "ngira": 2022,
  "\u2581spiritually": 2023,
  "rwanya": 2024,
  "\u2581information": 2025,
  "\u2581married": 2026,
  "bajije": 2027,
  "\u2581happiness": 2028,
  "\u2581ubuhe": 2029,
  "\u2581James": 2030,
  "\u2581baki": 2031,
  "\u2581tuzo": 2032,
  "\u2581around": 2033,
  "dufasha": 2034,
  "vamwo": 2035,
  "\u2581ubuntu": 2036,
  "\u2581ubwiwe": 2037,
  "\u2581Ho": 2038,
  "\u2581nshasha": 2039,
  "korwa": 2040,
  "\u2581batari": 2041,
  "rije": 2042,
  "\u2581Devil": 2043,
  "jejwe": 2044,
  "\u2581sheep": 2045,
  "\u2581Ro": 2046,
  "\u2581banje": 2047,
  "\u2581ubuyobozi": 2048,
  "),": 2049,
  "\u2581Are": 2050,
  "\u2581bura": 2051,
  "\u2581loyal": 2052,
  "goye": 2053,
  "\u2581wanted": 2054,
  "tumwe": 2055,
  "act": 2056,
  "gen": 2057,
  "\u2581bwite": 2058,
  "\u2581kwirinda": 2059,
  "\u2581Rather": 2060,
  "\u2581umugore": 2061,
  "\u2581walk": 2062,
  "\u2581physical": 2063,
  "\u2581gukeka": 2064,
  "tangaje": 2065,
  "\u2581busuku": 2066,
  "\u2581organization": 2067,
  "\u2581righteousness": 2068,
  "\u2581akaryo": 2069,
  "\u2581qualities": 2070,
  "You": 2071,
  "\u2581akazi": 2072,
  "\u2581ngorane": 2073,
  "\u2581kikaba": 2074,
  "\u2581Umwana": 2075,
  "\u2581World": 2076,
  "gere": 2077,
  "tswe": 2078,
  "\u2581taking": 2079,
  "\u2581Data": 2080,
  "\u2581amakoraniro": 2081,
  "\u2581Bira": 2082,
  "roshe": 2083,
  "\u2581tugira": 2084,
  "KA": 2085,
  "fe": 2086,
  "uch": 2087,
  "\u2581Hebrew": 2088,
  ",000": 2089,
  "\u2581Watchtower": 2090,
  "shigikira": 2091,
  "\u2581imvo": 2092,
  "\u2581second": 2093,
  "\u2581Uhoraho": 2094,
  "\u2581igituma": 2095,
  "hawe": 2096,
  "jo": 2097,
  "niye": 2098,
  "\u2581cacu": 2099,
  "\u2581igitabu": 2100,
  "\u2581prophecy": 2101,
  "\u2581KU": 2102,
  "\u2581honor": 2103,
  "\u2581Kuba": 2104,
  "\u2581occasion": 2105,
  "umuryango": 2106,
  "\u2581Or": 2107,
  "\u2581muto": 2108,
  "\u2581bakirisu": 2109,
  "\u2581la": 2110,
  "hindu": 2111,
  "\u2581Would": 2112,
  "\u2581Like": 2113,
  "\u2581mazi": 2114,
  "\u2581Ru": 2115,
  "\u2581Will": 2116,
  "\u2581clear": 2117,
  "\u2581gives": 2118,
  "AN": 2119,
  "rika": 2120,
  "\u2581preach": 2121,
  "rizwa": 2122,
  "\u2581going": 2123,
  "\u2581bida": 2124,
  "\u2581bamaze": 2125,
  "con": 2126,
  "\u2581letter": 2127,
  "\u2581meaning": 2128,
  "\u2581approach": 2129,
  "\u2581dutegerezwa": 2130,
  "\u2581grow": 2131,
  "\u2581loved": 2132,
  "\u2581inspired": 2133,
  "\u2581kuza": 2134,
  "erekanye": 2135,
  "\u2581sign": 2136,
  "\u2581Eli": 2137,
  "\u2581akwiye": 2138,
  "\u2581past": 2139,
  "\u2581sea": 2140,
  "ES": 2141,
  "ai": 2142,
  "teze": 2143,
  "\u2581thing": 2144,
  "\u2581yamu": 2145,
  "\u2581chapter": 2146,
  "\u2581interest": 2147,
  "hindura": 2148,
  "\u2581amakuru": 2149,
  "\u2581certainly": 2150,
  "\u2581kino": 2151,
  "\u2581Ego": 2152,
  "\u2581shows": 2153,
  "ukw": 2154,
  "\u2581ikihe": 2155,
  "\u2581nothing": 2156,
  "\u2581obey": 2157,
  "\u2581kwiyumvira": 2158,
  "\u2581woba": 2159,
  "\u2581ngingo": 2160,
  "duga": 2161,
  "\u2581intahe": 2162,
  "\u2581gutera": 2163,
  "\u2581imitate": 2164,
  "\u2581yar": 2165,
  "onyene": 2166,
  "\u2581week": 2167,
  "\u2581kanaka": 2168,
  "ie": 2169,
  "\u2581bawe": 2170,
  "\u2581comes": 2171,
  "\u2581protect": 2172,
  "shinzwe": 2173,
  "\u2581agateka": 2174,
  "\u2581akenshi": 2175,
  "\u2581kwumva": 2176,
  "\u2581Yozefu": 2177,
  "\u2581try": 2178,
  "baho": 2179,
  "\u2581command": 2180,
  "\u2581yanje": 2181,
  "\u2581Umuntu": 2182,
  "\u2581heard": 2183,
  "\u2581die": 2184,
  "zana": 2185,
  "\u2581umutwe": 2186,
  "\u2581regard": 2187,
  "ah": 2188,
  "hitamwo": 2189,
  "\u2581utu": 2190,
  "\u2581kwerekana": 2191,
  "\u2581th": 2192,
  "\u2581biga": 2193,
  "zirikana": 2194,
  "\u2581couple": 2195,
  "\u2581flesh": 2196,
  "\u2581ntu": 2197,
  "habwa": 2198,
  "out": 2199,
  "\u2581uti": 2200,
  "cy": 2201,
  "\u2581Not": 2202,
  "\u2581kwubaka": 2203,
  "kete": 2204,
  "\u2581sisters": 2205,
  "\u2581moral": 2206,
  "\u2581appreciate": 2207,
  "\u2581amaso": 2208,
  "\u2581ugira": 2209,
  "\u2581Con": 2210,
  "\u2581Imigani": 2211,
  "\u2581involved": 2212,
  "\u2581judgment": 2213,
  "\u2581vyerekana": 2214,
  "har": 2215,
  "\u2581abe": 2216,
  "bigisha": 2217,
  "ikibi": 2218,
  "liya": 2219,
  "mana": 2220,
  "use": 2221,
  "\u2581offer": 2222,
  "ward": 2223,
  "\u2581circumstances": 2224,
  "\u2581ijwi": 2225,
  "reke": 2226,
  "\u2581uwundi": 2227,
  "Uhoraho": 2228,
  "urupfu": 2229,
  "\u2581ciza": 2230,
  "\u2581nzo": 2231,
  "\u2581uba": 2232,
  "rerwa": 2233,
  "mvyi": 2234,
  "\u2581Scriptural": 2235,
  "mpe": 2236,
  "\u2581Today": 2237,
  "\u2581kahise": 2238,
  "\u2581mentioned": 2239,
  "\u2581wonderful": 2240,
  "merewe": 2241,
  "\u2581Ra": 2242,
  "\u2581favor": 2243,
  "\u2581strength": 2244,
  "\u2581Lo": 2245,
  "\u2581include": 2246,
  "agaciro": 2247,
  "\u2581evidence": 2248,
  "\u2581reach": 2249,
  "\u2581Genesis": 2250,
  "\u2581according": 2251,
  "\u2581Nowa": 2252,
  "\u2581di": 2253,
  "\u2581forever": 2254,
  "giza": 2255,
  "\u2581truly": 2256,
  "ice": 2257,
  "\u2581Footnote": 2258,
  "\u2581iba": 2259,
  "\u2581public": 2260,
  "zwi": 2261,
  "\u2581expression": 2262,
  "\u2581inyishu": 2263,
  "our": 2264,
  "\u2581keza": 2265,
  "\u2581provided": 2266,
  "espite": 2267,
  "\u2581Noah": 2268,
  "\u2581prove": 2269,
  "\u2581ngirakamaro": 2270,
  "Inderetsi": 2271,
  "tal": 2272,
  "\u2581coming": 2273,
  "gumye": 2274,
  "\u2581government": 2275,
  "kajambo": 2276,
  "ship": 2277,
  "\u2581gito": 2278,
  "\u2581gukunda": 2279,
  "\u2581short": 2280,
  "buze": 2281,
  "gaba": 2282,
  "\u2581daughter": 2283,
  "\u2581tubi": 2284,
  "\u258118:": 2285,
  "\u2581remind": 2286,
  "\u2581umugambi": 2287,
  "les": 2288,
  "Abayuda": 2289,
  "J": 2290,
  "\u2581Eve": 2291,
  "\u2581Jewish": 2292,
  "\u2581happen": 2293,
  "\u2581trans": 2294,
  "\u2581twe": 2295,
  "nije": 2296,
  "\u2581Abaroma": 2297,
  "\u2581car": 2298,
  "\u2581fully": 2299,
  "\u2581kand": 2300,
  "nta": 2301,
  "gabo": 2302,
  "\u2581friend": 2303,
  "nse": 2304,
  "\u258160": 2305,
  "\u2581Kw": 2306,
  "\u2581Mesiya": 2307,
  "\u2581abayoboke": 2308,
  "swa": 2309,
  "\u2581complete": 2310,
  "\u2581umuti": 2311,
  "org": 2312,
  "\u2581bishoboka": 2313,
  "\u2581rest": 2314,
  "\u2581Rimbura": 2315,
  "\u2581based": 2316,
  "emeza": 2317,
  "\u2581hear": 2318,
  "himbawe": 2319,
  "remwa": 2320,
  "\u2581bibi": 2321,
  "ized": 2322,
  "yobora": 2323,
  "\u2581aki": 2324,
  "if": 2325,
  "\u2581written": 2326,
  "\u2581shall": 2327,
  "\u2581stay": 2328,
  "ex": 2329,
  "port": 2330,
  "up": 2331,
  "bwe": 2332,
  "\u2581Daniel": 2333,
  "ron": 2334,
  "\u2581kugaragaza": 2335,
  "kuye": 2336,
  "\u2581ziri": 2337,
  "\u2581praise": 2338,
  "ER": 2339,
  "\u2581reward": 2340,
  "low": 2341,
  "\u2581gushobora": 2342,
  "himbara": 2343,
  "\u2581Did": 2344,
  "\u2581bikorwa": 2345,
  "\u2581minister": 2346,
  "\u2581yigisha": 2347,
  "kunze": 2348,
  "ikinyoma": 2349,
  "\u2581examples": 2350,
  "nti": 2351,
  "\u2581anyone": 2352,
  "\u2581promise": 2353,
  "\u2581Hebrews": 2354,
  "\u2581local": 2355,
  "ging": 2356,
  "\u2581boshobora": 2357,
  "\u2581taken": 2358,
  "\u2581heavens": 2359,
  "\u2581seen": 2360,
  "\u2581mahanga": 2361,
  "\u2581sister": 2362,
  "nza": 2363,
  "\u2581Dur": 2364,
  "\u2581ijuru": 2365,
  "\u2581zira": 2366,
  "sanze": 2367,
  "\u2581urupfu": 2368,
  "\u2581bategerezwa": 2369,
  "\u2581bwari": 2370,
  "WA": 2371,
  "huma": 2372,
  "some": 2373,
  "\u2581concern": 2374,
  "\u2581focus": 2375,
  "\u2581hati": 2376,
  "\u2581text": 2377,
  "land": 2378,
  "\u2581Amerika": 2379,
  "\u2581kumbure": 2380,
  "\u2581kwabo": 2381,
  "\u2581field": 2382,
  "\u2581kwigana": 2383,
  "terwa": 2384,
  "tewe": 2385,
  "hwaniro": 2386,
  "\u2581li": 2387,
  "\u2581blessings": 2388,
  "guru": 2389,
  "\u2581ar": 2390,
  "\u2581inzu": 2391,
  "\u2581open": 2392,
  "\u2581Nda": 2393,
  "\u2581confidence": 2394,
  "\u2581prayers": 2395,
  "\u2581Twa": 2396,
  "\u2581class": 2397,
  "\u2581common": 2398,
  "\u2581display": 2399,
  "ongereza": 2400,
  "\u2581Ubwo": 2401,
  "\u2581Korinto": 2402,
  "\u2581yerekana": 2403,
  "shikirwa": 2404,
  "gora": 2405,
  "\u2581haciye": 2406,
  "\u2581hearts": 2407,
  "\u2581understanding": 2408,
  "\u2581adu": 2409,
  "\u2581Ar": 2410,
  "\u2581direct": 2411,
  "\u2581therefore": 2412,
  "\u2581ubona": 2413,
  "\u2581Yohana": 2414,
  "\u2581vyiwe": 2415,
  "randa": 2416,
  "\u2581ic": 2417,
  "tunganye": 2418,
  "\u2581rwiwe": 2419,
  "\u2581glory": 2420,
  "\u2581showed": 2421,
  "\u2581ubwoba": 2422,
  "dahemuka": 2423,
  "\u2581effort": 2424,
  "\u2581boba": 2425,
  "\u2581born": 2426,
  "\u2581carry": 2427,
  "\u2581lived": 2428,
  "form": 2429,
  "que": 2430,
  "rire": 2431,
  "\u2581direction": 2432,
  "\u2581here": 2433,
  "senge": 2434,
  "\u2581authority": 2435,
  "\u2581dukeneye": 2436,
  "\u2581once": 2437,
  "\u2581abagenzi": 2438,
  "\u2581endure": 2439,
  "\u2581kari": 2440,
  "\u2581vyabo": 2441,
  "\u2581dukora": 2442,
  "ify": 2443,
  "ified": 2444,
  "tegeka": 2445,
  "\u2581kuzirikana": 2446,
  "\u2581greater": 2447,
  "\u2581izindi": 2448,
  "\u2581baca": 2449,
  "\u2581neighbor": 2450,
  "ndika": 2451,
  "\u2581According": 2452,
  "\u2581spoke": 2453,
  "\u2581ubwenge": 2454,
  "\u2581further": 2455,
  "\u2581promises": 2456,
  "\u2581Gi": 2457,
  "\u2581agree": 2458,
  "\u2581covenant": 2459,
  "\u2581bika": 2460,
  "\u2581kwitwararika": 2461,
  "\u2581blessing": 2462,
  "\u2581bitari": 2463,
  "\u2581ikindi": 2464,
  "\u2581accomplish": 2465,
  "\u2581powerful": 2466,
  "\u2581abakurambere": 2467,
  "ged": 2468,
  "\u2581Li": 2469,
  "\u2581baha": 2470,
  "mamaza": 2471,
  "\u2581abagabo": 2472,
  "\u2581lesson": 2473,
  "jw": 2474,
  "lar": 2475,
  "gitabu": 2476,
  "qui": 2477,
  "\u2581Ko": 2478,
  "\u2581simply": 2479,
  "kiriye": 2480,
  "\u2581biraba": 2481,
  "\u2581rurimi": 2482,
  "\u2581ubushobozi": 2483,
  "\u2581vyacu": 2484,
  "\u2581congregations": 2485,
  "\u2581lost": 2486,
  "\u2581using": 2487,
  "ngwa": 2488,
  "umvise": 2489,
  "\u2581Kwi": 2490,
  "\u2581kept": 2491,
  "\u2581Their": 2492,
  "\u2581regarding": 2493,
  "\u2581turiko": 2494,
  "Na": 2495,
  "\u2581rugero": 2496,
  "rura": 2497,
  "\u2581speaking": 2498,
  "pec": 2499,
  "\u2581akiri": 2500,
  "\u2581baciye": 2501,
  "\u2581respond": 2502,
  "\u2581urupapuro": 2503,
  "\u2581wonder": 2504,
  "huye": 2505,
  "\u2581Instead": 2506,
  "\u2581Ukwo": 2507,
  "\u2581write": 2508,
  "mbura": 2509,
  "\u2581indwara": 2510,
  "\u2581rugabo": 2511,
  "\u2581ruhande": 2512,
  "ese": 2513,
  "rema": 2514,
  "\u2581gikomeye": 2515,
  "ier": 2516,
  "kozwe": 2517,
  "\u2581role": 2518,
  "gore": 2519,
  "shinga": 2520,
  "\u25811914": 2521,
  "\u2581believers": 2522,
  "\u2581o": 2523,
  "\u2581Yo": 2524,
  "\u2581eka": 2525,
  "\u2581meeting": 2526,
  "\u2581reveal": 2527,
  "\u2581ugusenga": 2528,
  "\u2581vital": 2529,
  "\u2581watch": 2530,
  "hatira": 2531,
  "haye": 2532,
  "ific": 2533,
  "\u2581bagenzi": 2534,
  "\u2581hakaba": 2535,
  "\u2581myinshi": 2536,
  "\u2581pa": 2537,
  "\u2581rather": 2538,
  "\u2581Yeremiya": 2539,
  "mbere": 2540,
  "\u2581Jeremiah": 2541,
  "\u2581kwizigira": 2542,
  "\u2581seek": 2543,
  "\u2581uriko": 2544,
  "komeza": 2545,
  "\u2581Uru": 2546,
  "\u2581office": 2547,
  "tere": 2548,
  "\u2581Umwe": 2549,
  "\u2581Roman": 2550,
  "BI": 2551,
  "\u2581already": 2552,
  "\u2581fall": 2553,
  "\u2581ubumenyi": 2554,
  "\u2581country": 2555,
  "\u2581develop": 2556,
  "\u2581umwami": 2557,
  "\u2581Now": 2558,
  "\u2581ikibi": 2559,
  "\u2581opportunity": 2560,
  "\u2581perhaps": 2561,
  "\u2581Ugu": 2562,
  "istic": 2563,
  "\u2581Emwe": 2564,
  "\u2581Hall": 2565,
  "\u2581build": 2566,
  "\u2581contain": 2567,
  "\u2581decisions": 2568,
  "\u2581standards": 2569,
  "\u2581bemera": 2570,
  "hangana": 2571,
  "miye": 2572,
  "shusho": 2573,
  "\u2581barashobora": 2574,
  "\u2581longer": 2575,
  "\u2581efforts": 2576,
  "\u2581zari": 2577,
  "giriye": 2578,
  "\u2581bg": 2579,
  "\u2581illustration": 2580,
  "\u2581seven": 2581,
  "\u2581zabo": 2582,
  "che": 2583,
  "iyumvira": 2584,
  "korana": 2585,
  "ran": 2586,
  "tandatu": 2587,
  "menyesha": 2588,
  "\u2581Uti": 2589,
  "\u2581kwizera": 2590,
  "KO": 2591,
  "YI": 2592,
  "com": 2593,
  "\u2581exercise": 2594,
  "bigenza": 2595,
  "\u2581don": 2596,
  "\u2581else": 2597,
  "\u2581period": 2598,
  "\u2581verse": 2599,
  "\u2581bene": 2600,
  "amadini": 2601,
  "gishije": 2602,
  "sezera": 2603,
  "\u2581belong": 2604,
  "\u2581bumwe": 2605,
  "\u2581butandukanye": 2606,
  "\u2581uta": 2607,
  "ile": 2608,
  "\u2581Daniyeli": 2609,
  "\u2581helps": 2610,
  "\u2581shepherd": 2611,
  "kurwa": 2612,
  "\u2581events": 2613,
  "\u2581idini": 2614,
  "tega": 2615,
  "\u2581Samuel": 2616,
  "\u2581rira": 2617,
  "\u2581ubumwe": 2618,
  "\u2581play": 2619,
  "\u2581tuda": 2620,
  "shobore": 2621,
  "\u2581kudufasha": 2622,
  "\u2581yagize": 2623,
  "God": 2624,
  "rate": 2625,
  "tangwa": 2626,
  "\u2581crowd": 2627,
  "\u2581history": 2628,
  "\u2581Still": 2629,
  "\u2581instance": 2630,
  "\u2581proper": 2631,
  "cept": 2632,
  "gerera": 2633,
  "\u2581igira": 2634,
  "\u2581indwi": 2635,
  "Jehovah": 2636,
  "ob": 2637,
  "ijoro": 2638,
  "zira": 2639,
  "\u2581term": 2640,
  "mb": 2641,
  "\u2581kudu": 2642,
  "bonera": 2643,
  "\u2581assignment": 2644,
  "\u2581express": 2645,
  "\u2581guta": 2646,
  "\u2581mate": 2647,
  "WI": 2648,
  "boneye": 2649,
  "\u012b": 2650,
  "\u2581budahera": 2651,
  "\u2581amagara": 2652,
  "\u2581pay": 2653,
  "\u2581start": 2654,
  "\u2581treat": 2655,
  "\u2581amaraso": 2656,
  "\u2581gushitsa": 2657,
  "\u2581kinini": 2658,
  "\u2581Tw": 2659,
  "ide": 2660,
  "\u258170": 2661,
  "\u2581started": 2662,
  "RE": 2663,
  "\u2581urubanza": 2664,
  "ative": 2665,
  "ganira": 2666,
  "\u2581Abanya": 2667,
  "\u2581Eva": 2668,
  "\u2581ci": 2669,
  "\u2581ika": 2670,
  "\u2581addition": 2671,
  "\u2581bibazo": 2672,
  "hinduye": 2673,
  "rwaye": 2674,
  "tanze": 2675,
  "\u2581May": 2676,
  "\u2581Niwi": 2677,
  "\u2581Umuremyi": 2678,
  "\u2581firm": 2679,
  "\u2581idea": 2680,
  "\u2581recorded": 2681,
  "\u2581runtu": 2682,
  "\u2581Pro": 2683,
  "\u2581ifise": 2684,
  "\u2581youth": 2685,
  "\u2581iciyumviro": 2686,
  "\u2581angels": 2687,
  "\u2581bakunda": 2688,
  "\u2581within": 2689,
  "amazi": 2690,
  "\u2581Ubumwe": 2691,
  "babaje": 2692,
  "\u258115,": 2693,
  "\u2581Icabona": 2694,
  "\u2581amazinda": 2695,
  "\u2581expect": 2696,
  "\u2581hose": 2697,
  "\u2581Un": 2698,
  "\u2581bikomeye": 2699,
  "\u2581convention": 2700,
  "\u2581anything": 2701,
  "\u2581conscience": 2702,
  "\u2581inyifato": 2703,
  "\u2581report": 2704,
  "\u2581ransom": 2705,
  "\u2581ukwiye": 2706,
  "\u2581Mary": 2707,
  "\u2581foretold": 2708,
  "\u2581stated": 2709,
  "ansi": 2710,
  "ub": 2711,
  "\u0113": 2712,
  "\u2581answers": 2713,
  "\u2581pages": 2714,
  "\u2581lack": 2715,
  "\u2581tree": 2716,
  "\u2581tubona": 2717,
  "\u2581yerekeye": 2718,
  "vyuri": 2719,
  "\u2581People": 2720,
  "\u2581everything": 2721,
  "\u2581hands": 2722,
  "\u2581kuta": 2723,
  "\u2581riri": 2724,
  "\u2581Imi": 2725,
  "\u2581bwerekeye": 2726,
  "sabwa": 2727,
  "\u2581accurate": 2728,
  "\u2581exist": 2729,
  "\u2581sub": 2730,
  "\u2581appointed": 2731,
  "\u2581le": 2732,
  "\u2581Hence": 2733,
  "\u2581cumi": 2734,
  "\u2581decision": 2735,
  "\u2581kuzo": 2736,
  "PURO": 2737,
  "OR": 2738,
  "\u2581Nkako": 2739,
  "ably": 2740,
  "nce": 2741,
  "\u2581intumbero": 2742,
  "\u2581older": 2743,
  "\u2581source": 2744,
  "\u2581ururimi": 2745,
  "\u014d": 2746,
  "\u2581sins": 2747,
  "igishwa": 2748,
  "\u2581position": 2749,
  "kera": 2750,
  "mar": 2751,
  "ingorane": 2752,
  "ose": 2753,
  "shwe": 2754,
  "ishuye": 2755,
  "\u2581Niba": 2756,
  "\u2581cara": 2757,
  "\u2581nyina": 2758,
  "\u2581Babiloni": 2759,
  "\u2581umwete": 2760,
  "\u2581yanyu": 2761,
  "\u2581earthly": 2762,
  "\u2581kibanza": 2763,
  "\u2581seem": 2764,
  "niya": 2765,
  "\u2581attend": 2766,
  "\u2581uno": 2767,
  "uma": 2768,
  "\u2581Samweli": 2769,
  "\u2581ategerezwa": 2770,
  "\u2581ngombwa": 2771,
  "\u2581pass": 2772,
  "\u2581Mbega": 2773,
  "\u2581[\u201c": 2774,
  "shura": 2775,
  "\u2581Us": 2776,
  "\u2581Vy": 2777,
  "\u2581promised": 2778,
  "amahoro": 2779,
  "\u2581PAGE": 2780,
  "\u2581progress": 2781,
  "\u2581record": 2782,
  "\u2581served": 2783,
  "\u2581birth": 2784,
  "\u2581agahimbare": 2785,
  "\u2581encourage": 2786,
  "\u2581kirekire": 2787,
  "\u2581yama": 2788,
  "\u2581yaravuze": 2789,
  "\u2581umuvukanyi": 2790,
  "yoni": 2791,
  "\u2581True": 2792,
  "WE": 2793,
  "fo": 2794,
  "aha": 2795,
  "citse": 2796,
  "\u2581Ivya": 2797,
  "\u2581appreciation": 2798,
  "\u2581bishingiye": 2799,
  "\u2581ciyumviro": 2800,
  "\u2581prison": 2801,
  "\u2581umugwi": 2802,
  "\u2581ubw": 2803,
  "Iryo": 2804,
  "\u2581considered": 2805,
  "\u2581urashobora": 2806,
  "\u2581URUP": 2807,
  "\u2581render": 2808,
  "isengesho": 2809,
  "\u2581Misiri": 2810,
  "\u2581fruit": 2811,
  "shitsa": 2812,
  "\u2581continued": 2813,
  "\u2581godly": 2814,
  "\u2581imbabazi": 2815,
  "\u2581named": 2816,
  "shingira": 2817,
  "\u2581bamwe": 2818,
  "\u2581akongera": 2819,
  "\u2581integrity": 2820,
  "intumwa": 2821,
  "\u2581Mark": 2822,
  "\u2581claim": 2823,
  "\u2581incur": 2824,
  "\u2581choice": 2825,
  "\u2581kuraba": 2826,
  "\u2581amategeko": 2827,
  "\u2581forth": 2828,
  "\u2581translation": 2829,
  "\u2581Indeed": 2830,
  "\u2581Su": 2831,
  "\u2581guide": 2832,
  "\u2581led": 2833,
  "\u2581Yuda": 2834,
  "\u2581demonstrate": 2835,
  "\u2581ukaba": 2836,
  "\u2581dusanga": 2837,
  "tter": 2838,
  "twarwa": 2839,
  "\u2581Itanguriro": 2840,
  "\u2581Just": 2841,
  "\u2581branch": 2842,
  "umwizigirwa": 2843,
  "\u2581Pictures": 2844,
  "\u2581affect": 2845,
  "\u2581bike": 2846,
  "\u258150": 2847,
  "\u2581Di": 2848,
  "\u2581bear": 2849,
  "\u2581happened": 2850,
  "\u2581observe": 2851,
  "\u2581umubiri": 2852,
  "\u2581ago": 2853,
  "\u2581intege": 2854,
  "butumwa": 2855,
  "tomoye": 2856,
  "toyi": 2857,
  "\u2581determined": 2858,
  "\u2581ukw": 2859,
  "genga": 2860,
  "\u2581Zun": 2861,
  "\u2581appear": 2862,
  "\u2581thoughts": 2863,
  "abizigirwa": 2864,
  "fungurwa": 2865,
  "ible": 2866,
  "\u2581psalmist": 2867,
  "\u2581rusengero": 2868,
  "gufasha": 2869,
  "\u2581tuta": 2870,
  "\u2581vyabaye": 2871,
  "\u2581Mariya": 2872,
  "\u2581bimeze": 2873,
  "\u2581bisaba": 2874,
  "\u2581biva": 2875,
  "oc": 2876,
  "tubwira": 2877,
  "\u2581Abaheburayo": 2878,
  "\u2581Egypt": 2879,
  "\u2581activities": 2880,
  "\u2581got": 2881,
  "\u2581published": 2882,
  "\u2581raba": 2883,
  "day": 2884,
  "\u2581gupfa": 2885,
  "\u2581mirongo": 2886,
  "babaza": 2887,
  "\u2581kutu": 2888,
  "\u2581whose": 2889,
  "herezi": 2890,
  "\u2581alone": 2891,
  "\u2581picture": 2892,
  "\u2581pressure": 2893,
  "shavu": 2894,
  "bw": 2895,
  "ikigabane": 2896,
  "\u2581single": 2897,
  "gomba": 2898,
  "tabereye": 2899,
  "\u2581changed": 2900,
  "own": 2901,
  "GA": 2902,
  "Umukama": 2903,
  "cha": 2904,
  "\u258138": 2905,
  "\u2581bigoye": 2906,
  "iy": 2907,
  "zura": 2908,
  "\u2581bwawe": 2909,
  "\u2581entire": 2910,
  "ave": 2911,
  "\u2581itanga": 2912,
  "\u2581practice": 2913,
  "\u2581baja": 2914,
  "\u2581comment": 2915,
  "\u2581deliver": 2916,
  "ukwo": 2917,
  "\u2581Bari": 2918,
  "\u2581kubandanya": 2919,
  "\u2581rich": 2920,
  "fatiye": 2921,
  "umviriza": 2922,
  "\u2581available": 2923,
  "\u2581bakiri": 2924,
  "\u2581igomba": 2925,
  "\u25a1": 2926,
  "tuntu": 2927,
  "\u2581teachings": 2928,
  "\u2581uda": 2929,
  "fatanya": 2930,
  "ikigereranyo": 2931,
  "point": 2932,
  "\u2581\u25a1": 2933,
  "dusaba": 2934,
  "\u2581Avuga": 2935,
  "\u2581Witness": 2936,
  "\u2581birimwo": 2937,
  "\u2581described": 2938,
  "Umwami": 2939,
  "vuge": 2940,
  "\u2581rugo": 2941,
  "misiyonari": 2942,
  "\u2581iy": 2943,
  "\u2581Ivyakozwe": 2944,
  "\u2581ability": 2945,
  "\u2581amakosa": 2946,
  "\u2581twoba": 2947,
  "nji": 2948,
  "rushirije": 2949,
  "\u2581bitandukanye": 2950,
  "\u2581delight": 2951,
  "\u2581harmony": 2952,
  "\u2581nawe": 2953,
  "ingabo": 2954,
  "\u2581gatoyi": 2955,
  "RO": 2956,
  "bagira": 2957,
  "izuka": 2958,
  "\u2581kindi": 2959,
  "\u2581poor": 2960,
  "\u2581proved": 2961,
  "keye": 2962,
  "ue": 2963,
  "\u2581clearly": 2964,
  "\u2581kurushiriza": 2965,
  "\u2581wants": 2966,
  "bere": 2967,
  "iba": 2968,
  "\u2581En": 2969,
  "\u2581Inyuma": 2970,
  "\u2581bisa": 2971,
  "\u2581sound": 2972,
  "bgenge": 2973,
  "\u2581akamaro": 2974,
  "\u2581experienced": 2975,
  "\u2581ibanga": 2976,
  "\u2581arrangement": 2977,
  "\u2581meet": 2978,
  "\u2581mere": 2979,
  "\u2581ndimi": 2980,
  "\u2581represent": 2981,
  "\u2581fulfillment": 2982,
  "\u2581itself": 2983,
  "\u2581wara": 2984,
  "kuraho": 2985,
  "\u2581cover": 2986,
  "\u2581ingaruka": 2987,
  "\u2581Ex": 2988,
  "\u2581mubiri": 2989,
  "like": 2990,
  "mvye": 2991,
  "\u2581First": 2992,
  "\u2581explained": 2993,
  "\u2581yipfuza": 2994,
  "ikindi": 2995,
  "kurikiza": 2996,
  "uwu": 2997,
  "\u2581imvugo": 2998,
  "\u2581modern": 2999,
  "\u2581murimo": 3000,
  "\u2581salvation": 3001,
  "gamburukira": 3002,
  "kenera": 3003,
  "\u2581ibihumbi": 3004,
  "\u2581Ubwa": 3005,
  "\u2581warning": 3006,
  "ravye": 3007,
  "rindira": 3008,
  "twigisha": 3009,
  "\u2581yayo": 3010,
  "dondora": 3011,
  "ick": 3012,
  "der": 3013,
  "mbwa": 3014,
  "tunganya": 3015,
  "\u2581Ayo": 3016,
  "\u2581door": 3017,
  "\u2581offered": 3018,
  "\u2581choose": 3019,
  "\u2581twoshobora": 3020,
  "fer": 3021,
  "fully": 3022,
  "\u2581Ara": 3023,
  "\u2581baptism": 3024,
  "\u2581eat": 3025,
  "\u2581Life": 3026,
  "\u2581months": 3027,
  "agezwe": 3028,
  "gororotsi": 3029,
  "ira": 3030,
  "\u2581evil": 3031,
  "\u00b7": 3032,
  "iherezo": 3033,
  "nzwe": 3034,
  "\u2581accepted": 3035,
  "\u2581creation": 3036,
  "\u2581kwihanganira": 3037,
  "\u2581discipline": 3038,
  "\u2581Imbere": 3039,
  "\u2581Messiah": 3040,
  "\u2581bazoba": 3041,
  "ganwa": 3042,
  "gende": 3043,
  "\u2581appropriate": 3044,
  "\u2581Egome": 3045,
  "\u2581individual": 3046,
  "\u2581lie": 3047,
  "\u2581conclude": 3048,
  "\u2581natural": 3049,
  "remera": 3050,
  "siguro": 3051,
  "\u25813,": 3052,
  "\u2581actions": 3053,
  "\u2581discuss": 3054,
  "\u2581plan": 3055,
  "nire": 3056,
  "\u2581kuda": 3057,
  "ino": 3058,
  "\u2581advice": 3059,
  "koraniro": 3060,
  "\u2581bibiri": 3061,
  "\u2581created": 3062,
  "guye": 3063,
  "kwegera": 3064,
  "\u2581angel": 3065,
  "\u2581earlier": 3066,
  "\u2581problem": 3067,
  "\u2581responsibility": 3068,
  "gihugu": 3069,
  "gumya": 3070,
  "\u2581ingendo": 3071,
  "\u2581worldwide": 3072,
  "\u2581held": 3073,
  "\u2581ibifungurwa": 3074,
  "\u2581icubahiro": 3075,
  "\u2581priest": 3076,
  "\u2581Go": 3077,
  "\u2581Saul": 3078,
  "\u2581household": 3079,
  "\u2581precious": 3080,
  "Inkuru": 3081,
  "izing": 3082,
  "\u2581helping": 3083,
  "Ku": 3084,
  "heba": 3085,
  "shinze": 3086,
  "\u2581gusubira": 3087,
  "\u2581hirya": 3088,
  "\u2581ntivya": 3089,
  "\u2581side": 3090,
  "\u2581six": 3091,
  "\u2581trials": 3092,
  "\u258136": 3093,
  "\u2581Therefore": 3094,
  "\u2581destruction": 3095,
  "\u2581Have": 3096,
  "\u2581amamiliyoni": 3097,
  "\u2581guidance": 3098,
  "\u2581icipfuzo": 3099,
  "\u2581students": 3100,
  "ungere": 3101,
  "\u2581Babylon": 3102,
  "\u2581Nimuze": 3103,
  "\u2581Great": 3104,
  "\u2581isano": 3105,
  "\u2581muzirikanyi": 3106,
  "\u2581speech": 3107,
  "ns": 3108,
  "\u2581practical": 3109,
  "izina": 3110,
  "\u2581enter": 3111,
  "\u2581hino": 3112,
  "\u2581line": 3113,
  "\u2581various": 3114,
  "ft": 3115,
  "goro": 3116,
  "two": 3117,
  "\u2581Reka": 3118,
  "\u2581education": 3119,
  "\u2581mugwi": 3120,
  "\u2581reasons": 3121,
  "\u2581voice": 3122,
  "hagaze": 3123,
  "\u2581address": 3124,
  "\u2581nyigisho": 3125,
  "ern": 3126,
  "ton": 3127,
  "\u2581describe": 3128,
  "\u2581hasi": 3129,
  "\u2581yabona": 3130,
  "\u2581imitima": 3131,
  "gan": 3132,
  "garagariza": 3133,
  "\u2581church": 3134,
  "\u2581yera": 3135,
  "00": 3136,
  "ngwe": 3137,
  "zigiye": 3138,
  "\u2581Da": 3139,
  "\u2581fight": 3140,
  "bigize": 3141,
  "hwa": 3142,
  "mwigisha": 3143,
  "\u2581met": 3144,
  "shikana": 3145,
  "\u2581MU": 3146,
  "\u2581action": 3147,
  "\u2581activity": 3148,
  "\u2581ibitabu": 3149,
  "\u2581laws": 3150,
  "hemu": 3151,
  "\u258145": 3152,
  "\u2581raised": 3153,
  "\u2581sun": 3154,
  "\u2581uga": 3155,
  "men": 3156,
  "\u2581akomeye": 3157,
  "\u2581bwanje": 3158,
  "\u2581easy": 3159,
  "\u2581izihe": 3160,
  "\u2581kazi": 3161,
  "rimbura": 3162,
  "time": 3163,
  "\u2581attack": 3164,
  "ibihe": 3165,
  "iya": 3166,
  "ped": 3167,
  "\u2581challenge": 3168,
  "\u2581kubwira": 3169,
  "\u2581Judah": 3170,
  "\u2581Sauli": 3171,
  "\u2581job": 3172,
  "batizwa": 3173,
  "mer": 3174,
  "\u2581above": 3175,
  "\u2581ubukuru": 3176,
  "hood": 3177,
  "\u2581Gutyo": 3178,
  "\u2581intambara": 3179,
  "bwo": 3180,
  "imbere": 3181,
  "\u2581abagore": 3182,
  "\u2581niba": 3183,
  "\u2581original": 3184,
  "tohoza": 3185,
  "\u2581United": 3186,
  "\u2581area": 3187,
  "\u2581less": 3188,
  "\u2581mba": 3189,
  "\u2581tribulation": 3190,
  "\u2581umuhungu": 3191,
  "hunga": 3192,
  "\u2581irya": 3193,
  "\u2581success": 3194,
  "\u2581Brother": 3195,
  "\u2581Teach": 3196,
  "\u2581bande": 3197,
  "\u2581positive": 3198,
  "ongerekana": 3199,
  "\u2581indero": 3200,
  "\u2581ne": 3201,
  "right": 3202,
  "\u2581Most": 3203,
  "\u2581justice": 3204,
  "\u2581ndwi": 3205,
  "\u2581umukirisu": 3206,
  "\u2581zabukuru": 3207,
  "abakirisu": 3208,
  "\u02b9": 3209,
  "\u2581bakongera": 3210,
  "\u2581kubigira": 3211,
  "\u2581courage": 3212,
  "\u2581neither": 3213,
  "ZA": 3214,
  "humetswe": 3215,
  "\u2581Aha": 3216,
  "teguriye": 3217,
  "vura": 3218,
  "\u2581building": 3219,
  "\u2581increase": 3220,
  "\u2581languages": 3221,
  "\u2581yavuga": 3222,
  "tume": 3223,
  "\u2581magazine": 3224,
  "renze": 3225,
  "sohokayandikiro": 3226,
  "\u2581basizwe": 3227,
  "\u2581cur": 3228,
  "\u25cf": 3229,
  "ukwizera": 3230,
  "\u2581Nari": 3231,
  "\u2581honest": 3232,
  "remwe": 3233,
  "\u2581Vyoba": 3234,
  "\u2581cabo": 3235,
  "\u2581wenyene": 3236,
  "\u2581Bethel": 3237,
  "\u2581judge": 3238,
  "\u2581tukaba": 3239,
  "kuwe": 3240,
  "\u2581Later": 3241,
  "\u2581examine": 3242,
  "\u2581kwari": 3243,
  "\u2581regular": 3244,
  "\u2581sort": 3245,
  "\u2581Love": 3246,
  "\u2581five": 3247,
  "\u2581indeed": 3248,
  "\u2581training": 3249,
  "\u2581humble": 3250,
  "\u2581ukunze": 3251,
  "muha": 3252,
  "\u2581correct": 3253,
  "\u2581image": 3254,
  "\u2581suffer": 3255,
  "\u2581uburenganzira": 3256,
  "\u2581zibiri": 3257,
  "ger": 3258,
  "\u2581indicate": 3259,
  "\u2581mugore": 3260,
  "\u2581tried": 3261,
  "Ha": 3262,
  "\u2581actually": 3263,
  "\u2581bindi": 3264,
  "rwana": 3265,
  "\u2581ikibanza": 3266,
  "\u2581sexual": 3267,
  "terera": 3268,
  "\u2581amabanga": 3269,
  "\u2581aspect": 3270,
  "\u2581forgive": 3271,
  "intahemuka": 3272,
  "ukuba": 3273,
  "\u2581books": 3274,
  "\u2581explains": 3275,
  "\u2581manifest": 3276,
  "\u2581meza": 3277,
  "\u2581mountain": 3278,
  "\u258124:": 3279,
  "\u2581IKI": 3280,
  "\u2581buzo": 3281,
  "hanganye": 3282,
  "\u2581Jo": 3283,
  "\u2581Kuva": 3284,
  "\u2581vision": 3285,
  "\u2581yamara": 3286,
  "\u2581Eliya": 3287,
  "\u2581Mbere": 3288,
  "\u2581biranga": 3289,
  "\u2581count": 3290,
  "bonwa": 3291,
  "\u2581Vi": 3292,
  "\u2581ishusho": 3293,
  "\u2581kwama": 3294,
  "\u2581tuzi": 3295,
  "abavukanyi": 3296,
  "amahanga": 3297,
  "mumarayika": 3298,
  "\u2581bisanzwe": 3299,
  "\u2581everyone": 3300,
  "\u2581several": 3301,
  "\u2581takes": 3302,
  "abi": 3303,
  "\u2581gikurikira": 3304,
  "\u2581showing": 3305,
  "\u2581Tim": 3306,
  "\u2581former": 3307,
  "\u2581learning": 3308,
  "\u2581makoraniro": 3309,
  "gaca": 3310,
  "geza": 3311,
  "shirwa": 3312,
  "ug": 3313,
  "\u2581York": 3314,
  "\u2581amasengesho": 3315,
  "\u2581begin": 3316,
  "\u2581bwinshi": 3317,
  "\u2581working": 3318,
  "ninahazwa": 3319,
  "\u2581fail": 3320,
  "\u2581yabi": 3321,
  "\u2581abigiranye": 3322,
  "\u2581anger": 3323,
  "\u2581regularly": 3324,
  "\u2581umurimo": 3325,
  "io": 3326,
  "\u2581Catholic": 3327,
  "\u2581instruction": 3328,
  "\u2581lands": 3329,
  "\u2581low": 3330,
  "\u2581provides": 3331,
  "duka": 3332,
  "\u2581ato": 3333,
  "\u2581bivugwa": 3334,
  "\u2581stop": 3335,
  "\u2581patient": 3336,
  "\u2581weak": 3337,
  "Umwana": 3338,
  "ient": 3339,
  "\u2581atu": 3340,
  "\u2581mark": 3341,
  "hava": 3342,
  "tongo": 3343,
  "\u2581ituma": 3344,
  "\u2581kara": 3345,
  "\u2581kinaka": 3346,
  "\u2581prospect": 3347,
  "\u2581str": 3348,
  "\u2581icaha": 3349,
  "\u2581iciza": 3350,
  "ak": 3351,
  "\u2581ntiyari": 3352,
  "\u2581vuba": 3353,
  "\u2581wayo": 3354,
  "hisemwo": 3355,
  "ongeye": 3356,
  "ou": 3357,
  "ubw": 3358,
  "\u2581myself": 3359,
  "\u2581\u2019?": 3360,
  "genza": 3361,
  "hura": 3362,
  "nezereza": 3363,
  "\u2581biboneka": 3364,
  "\u2581daily": 3365,
  "\u2581ntidu": 3366,
  "\u2581writing": 3367,
  "ishami": 3368,
  "\u2581fire": 3369,
  "emera": 3370,
  "ubugororotsi": 3371,
  "\u2581Abandi": 3372,
  "\u2581bandi": 3373,
  "zuka": 3374,
  "....": 3375,
  "pol": 3376,
  "\u2581fulfilled": 3377,
  "incungu": 3378,
  "koreshejwe": 3379,
  "yumvira": 3380,
  "\u2581Maze": 3381,
  "ayo": 3382,
  "\u2581bikenewe": 3383,
  "\u2581boy": 3384,
  "\u2581buta": 3385,
  "\u2581intahemuka": 3386,
  "\u2581spend": 3387,
  "\u2581baguma": 3388,
  "\u2581explain": 3389,
  "\u2581knows": 3390,
  "ought": 3391,
  "tama": 3392,
  "ungukira": 3393,
  "\u2581akunda": 3394,
  "\u2581elder": 3395,
  "\u2581recent": 3396,
  "hinduwe": 3397,
  "ook": 3398,
  "\u2581Abavyeyi": 3399,
  "\u2581enemies": 3400,
  "bibona": 3401,
  "kwiriye": 3402,
  "ronkera": 3403,
  "\u2581bakoze": 3404,
  "\u2581ameze": 3405,
  "\u2581enough": 3406,
  "\u2581imperfect": 3407,
  "iryo": 3408,
  "ubatse": 3409,
  "vyifatamwo": 3410,
  "\u2581akeneye": 3411,
  "\u2581effective": 3412,
  "\u2581Wi": 3413,
  "\u2581promote": 3414,
  "\u2581results": 3415,
  "\u2581riho": 3416,
  "cungu": 3417,
  "ingene": 3418,
  "\u2581Though": 3419,
  "\u2581gatatu": 3420,
  "harira": 3421,
  "\u2581ABA": 3422,
  "\u2581atanga": 3423,
  "\u2581imigambi": 3424,
  "\u2581millions": 3425,
  "koreye": 3426,
  "ric": 3427,
  "\u2581umwi": 3428,
  "\u2581urugendo": 3429,
  "ikigiriki": 3430,
  "ries": 3431,
  "shikiye": 3432,
  "\u2581blessed": 3433,
  "era": 3434,
  "fate": 3435,
  "ido": 3436,
  "\u2581mpera": 3437,
  "emeye": 3438,
  "gero": 3439,
  "himbaye": 3440,
  "\u2581azoba": 3441,
  "\u2581ubusuku": 3442,
  "\u2581utwigoro": 3443,
  "\u2581duti": 3444,
  "\u2581girl": 3445,
  "\u2581gutsimbataza": 3446,
  "\u2581interests": 3447,
  "\u2581yemera": 3448,
  "taye": 3449,
  "\u2581Elijah": 3450,
  "\u2581Umw": 3451,
  "\u2581decided": 3452,
  "\u2581umukenyezi": 3453,
  "komoka": 3454,
  "tevye": 3455,
  "\u2581ida": 3456,
  "\u2581itari": 3457,
  "\u2581unity": 3458,
  "bafasha": 3459,
  "ibigeragezo": 3460,
  "\u2581cultivate": 3461,
  "\u2581families": 3462,
  "\u2581genuine": 3463,
  "emewe": 3464,
  "onona": 3465,
  "\u2581kinyamakuru": 3466,
  "\u2581nanje": 3467,
  "\u2581walking": 3468,
  "rou": 3469,
  "hejeje": 3470,
  "zotuma": 3471,
  "\u2581bibereye": 3472,
  "\u2581bica": 3473,
  "\u2581ruler": 3474,
  "\u2581ryara": 3475,
  "\u2581ryose": 3476,
  "\u2581throughout": 3477,
  "\u2581umubano": 3478,
  "\u2581yumva": 3479,
  "ngoro": 3480,
  "\u2581Uwitwa": 3481,
  "bga": 3482,
  "\u2581allowed": 3483,
  "\u2581ishinga": 3484,
  "\u2581offering": 3485,
  "\u2581Amafoto": 3486,
  "hoze": 3487,
  "line": 3488,
  "\u2581BIBILIYA": 3489,
  "\u2581Jacob": 3490,
  "\u2581break": 3491,
  "\u2581kiba": 3492,
  "\u2581ukwemera": 3493,
  "\u2581Nka": 3494,
  "\u2581inkomezi": 3495,
  "\u2581knowing": 3496,
  "turi": 3497,
  "\u2581behind": 3498,
  "\u2581desires": 3499,
  "\u2581dukunda": 3500,
  "amategeko": 3501,
  "hishura": 3502,
  "kwigera": 3503,
  "more": 3504,
  "ugusenga": 3505,
  "\u2581bishitse": 3506,
  "\u2581mawe": 3507,
  "tre": 3508,
  "\u2581aja": 3509,
  "\u2581goal": 3510,
  "\u2581prayed": 3511,
  "\u2581servant": 3512,
  "ndwa": 3513,
  "shikiwe": 3514,
  "\u2581kizo": 3515,
  "kiriho": 3516,
  "umukenyezi": 3517,
  "\u2581changes": 3518,
  "\u2581imihezagiro": 3519,
  "\u2581search": 3520,
  "ishirahamwe": 3521,
  "\u2581Internet": 3522,
  "\u2581seeking": 3523,
  "fungura": 3524,
  "suzuma": 3525,
  "tunze": 3526,
  "\u2581bga": 3527,
  "\u2581politike": 3528,
  "\u2581seed": 3529,
  "papuro": 3530,
  "\u2581worth": 3531,
  "TA": 3532,
  "\u258144": 3533,
  "\u2581Africa": 3534,
  "\u2581Mariko": 3535,
  "\u2581bayo": 3536,
  "\u2581flock": 3537,
  "\u2581ntambara": 3538,
  "\u2581travel": 3539,
  "\u2581ukuba": 3540,
  "kino": 3541,
  "\u2581buhanuzi": 3542,
  "\u2581confident": 3543,
  "\u2581rukundo": 3544,
  "ngiro": 3545,
  "radufasha": 3546,
  "\u2581gukura": 3547,
  "\u2581tells": 3548,
  "\u2581tongue": 3549,
  "\u2581twokwi": 3550,
  "\u2581guard": 3551,
  "\u2581nantaryo": 3552,
  "\u2581ubi": 3553,
  "\u2581centuries": 3554,
  "\u2581ingabirano": 3555,
  "\u2581rejoice": 3556,
  "\u2581sacred": 3557,
  "izindi": 3558,
  "mero": 3559,
  "ububasha": 3560,
  "\u2581Man": 3561,
  "\u2581basis": 3562,
  "\u2581freedom": 3563,
  "\u2581kurangura": 3564,
  "ZI": 3565,
  "ibikorwa": 3566,
  "work": 3567,
  "\u2581encouraged": 3568,
  "\u2581mercy": 3569,
  "\u2581Te": 3570,
  "umvira": 3571,
  "\u2581provision": 3572,
  "\u2581Dis": 3573,
  "\u2581akoresha": 3574,
  "\u2581fulfill": 3575,
  "Yehova": 3576,
  "giriza": 3577,
  "injira": 3578,
  "\u2581studying": 3579,
  "log": 3580,
  "menyereza": 3581,
  "\u2581Before": 3582,
  "\u2581ntitu": 3583,
  "\u2581quality": 3584,
  "\u2581returned": 3585,
  "izo": 3586,
  "kanye": 3587,
  "\u2581mpwemu": 3588,
  "\u2581turned": 3589,
  "\u2581advance": 3590,
  "\u2581Ibintu": 3591,
  "\u2581dwell": 3592,
  "\u2581igishika": 3593,
  "\u2581mutwe": 3594,
  "\u2581successful": 3595,
  "\u2581zimwezimwe": 3596,
  "hagije": 3597,
  "\u2581general": 3598,
  "\u2581paradise": 3599,
  "\u2581umugenzi": 3600,
  "amagara": 3601,
  "rindiriye": 3602,
  "\u2581parent": 3603,
  "itaho": 3604,
  "\u2581mpanuro": 3605,
  "\u2581ubuhanuzi": 3606,
  "inkuru": 3607,
  "\u2581illustrate": 3608,
  "\u2581occur": 3609,
  "\u2581rupapuro": 3610,
  "\u2581shown": 3611,
  "\u2581specific": 3612,
  "shingwa": 3613,
  "\u2581improve": 3614,
  "\u2581intwaro": 3615,
  "\u2581warm": 3616,
  "\u2581kwitaba": 3617,
  "rew": 3618,
  "\u2581Benshi": 3619,
  "\u2581kukw": 3620,
  "\u2581leaders": 3621,
  "aratumye": 3622,
  "kenye": 3623,
  "kunzi": 3624,
  "ral": 3625,
  "tangaza": 3626,
  "\u2581Canke": 3627,
  "\u2581Joshua": 3628,
  "\u2581Others": 3629,
  "\u2581acts": 3630,
  "\u2581benefits": 3631,
  "dandaza": 3632,
  "ruvyaro": 3633,
  "\u2581beyond": 3634,
  "\u2581presence": 3635,
  "\u2581request": 3636,
  "\u25819,": 3637,
  "\u2581ayandi": 3638,
  "\u2581companion": 3639,
  "ON": 3640,
  "\u2581detail": 3641,
  "\u2581personality": 3642,
  "\u2581places": 3643,
  "\u2581realize": 3644,
  "\u2581sacrifices": 3645,
  "iyemeje": 3646,
  "\u2581Faith": 3647,
  "\u2581becoming": 3648,
  "\u2581bwayo": 3649,
  "\u2581enable": 3650,
  "\u2581ubundi": 3651,
  "\u2581Iciyumviro": 3652,
  "\u2581Ke": 3653,
  "\u2581kibi": 3654,
  "\u2581yarerekany": 3655,
  "\u2581biyumvira": 3656,
  "\u2581caused": 3657,
  "\u2581interested": 3658,
  "Abakirisu": 3659,
  "\u2581ababa": 3660,
  "\u2581ifoto": 3661,
  "\u2581irenga": 3662,
  "\u2581utwo": 3663,
  "fatwa": 3664,
  "\u25819:": 3665,
  "\u2581abagize": 3666,
  "\u2581alive": 3667,
  "\u2581run": 3668,
  "\u2581tuki": 3669,
  "\u2581havuga": 3670,
  "If": 3671,
  "banyeshure": 3672,
  "ororoka": 3673,
  "tonde": 3674,
  "\u2581Beteli": 3675,
  "\u2581gusaba": 3676,
  "\u2581Urukundo": 3677,
  "\u2581citwa": 3678,
  "\u2581quit": 3679,
  "abavyeyi": 3680,
  "cira": 3681,
  "\u2581enjoyed": 3682,
  "Abisirayeli": 3683,
  "\u2581Mat": 3684,
  "\u2581ahead": 3685,
  "\u2581grand": 3686,
  "ihweza": 3687,
  "ubg": 3688,
  "\u2581Umusi": 3689,
  "\u2581association": 3690,
  "\u2581danger": 3691,
  "\u2581greatest": 3692,
  "lin": 3693,
  "\u016bra": 3694,
  "\u2581Another": 3695,
  "\u2581Th": 3696,
  "\u2581abakiri": 3697,
  "\u2581depend": 3698,
  "\u2581faced": 3699,
  "\u2581ikomeye": 3700,
  "\u2581priests": 3701,
  "\u2581thank": 3702,
  "\u2581emotional": 3703,
  "\u2581traveling": 3704,
  "abatijwe": 3705,
  "hezagira": 3706,
  "shemeza": 3707,
  "tsa": 3708,
  "\u2581Ephesians": 3709,
  "\u2581Pre": 3710,
  "\u2581War": 3711,
  "\u2581insobanuro": 3712,
  "\u2581miles": 3713,
  "\u2581worked": 3714,
  "\u2581writer": 3715,
  "han": 3716,
  "ishije": 3717,
  "vyashikiye": 3718,
  "\u2581igihugu": 3719,
  "\u2581inda": 3720,
  "\u2581scholar": 3721,
  "ibonekeza": 3722,
  "igiheburayo": 3723,
  "umugabo": 3724,
  "\u258142": 3725,
  "\u2581rusangi": 3726,
  "\u2581suggest": 3727,
  "hama": 3728,
  "\u2581Gospel": 3729,
  "\u2581ihanga": 3730,
  "\u2581threat": 3731,
  "Ivyagezwe": 3732,
  "\u2581BIBLE": 3733,
  "\u2581gushinga": 3734,
  "kwega": 3735,
  "\u2581imagine": 3736,
  "\u2581secret": 3737,
  "aking": 3738,
  "babarira": 3739,
  "kurikiye": 3740,
  "\u2581ikibazo": 3741,
  "\u2581kurimbura": 3742,
  "\u2581Yosuwa": 3743,
  "isunze": 3744,
  "mubwira": 3745,
  "somwa": 3746,
  "\u2581Kristo": 3747,
  "\u2581biteye": 3748,
  "\u2581kugendera": 3749,
  "\u2581notice": 3750,
  "\u2581prevent": 3751,
  "\u2581sincere": 3752,
  "kundwa": 3753,
  "yumva": 3754,
  "\u2581Ruth": 3755,
  "\u2581brings": 3756,
  "\u2581igitangaza": 3757,
  "\u2581program": 3758,
  "\u2581violence": 3759,
  "nijwe": 3760,
  "\u2581condition": 3761,
  "\u2581contrast": 3762,
  "\u2581friendship": 3763,
  "\u2581measure": 3764,
  "\u2581completely": 3765,
  "\u2581distress": 3766,
  "\u2581encouragement": 3767,
  "garariji": 3768,
  "hereza": 3769,
  "\u2581Holy": 3770,
  "\u2581aware": 3771,
  "\u2581beautiful": 3772,
  "\u2581beginning": 3773,
  "\u2581literature": 3774,
  "\u2581natwe": 3775,
  "ijambo": 3776,
  "\u2581Ge": 3777,
  "\u2581Ri": 3778,
  "\u2581deeply": 3779,
  "\u2581itegeko": 3780,
  "amahera": 3781,
  "ineza": 3782,
  "\u2581final": 3783,
  "\u2581ryayo": 3784,
  "bisha": 3785,
  "ew": 3786,
  "\u2581added": 3787,
  "\u2581revealed": 3788,
  "dakwiye": 3789,
  "hevye": 3790,
  "teba": 3791,
  "\u2581Similarly": 3792,
  "\u2581mental": 3793,
  "AL": 3794,
  "\u2581resurrected": 3795,
  "\u2581twiga": 3796,
  "\u2013": 3797,
  "\u2581goals": 3798,
  "\u2581necessary": 3799,
  "\u2581agomba": 3800,
  "\u2581bat": 3801,
  "\u2581foreign": 3802,
  "\u2581humility": 3803,
  "\u2581imizi": 3804,
  "\u2581principle": 3805,
  "\u2581vyanditswe": 3806,
  "\u2581Kuri": 3807,
  "\u2581kings": 3808,
  "lle": 3809,
  "majambo": 3810,
  "sangiye": 3811,
  "\u2581atangura": 3812,
  "\u2581behalf": 3813,
  "igikorwa": 3814,
  "zodufasha": 3815,
  "\u2581akosho": 3816,
  "\u2581steps": 3817,
  "mfasha": 3818,
  "\u2581execut": 3819,
  "\u2581iyindi": 3820,
  "besha": 3821,
  "shimika": 3822,
  "\u2581affection": 3823,
  "\u2581conclusion": 3824,
  "\u2581yashaka": 3825,
  "Do": 3826,
  "ubutunzi": 3827,
  "\u2581Perhaps": 3828,
  "\u2581cerekana": 3829,
  "\u2581harm": 3830,
  "\u2581recall": 3831,
  "\u2581Remember": 3832,
  "\u2581icese": 3833,
  "\u2581inama": 3834,
  "\u2581invited": 3835,
  "\u2581mistake": 3836,
  "j": 3837,
  "\u2581amaherezo": 3838,
  "\u2581basavyi": 3839,
  "\u2581uwari": 3840,
  "\u2581States": 3841,
  "\u2581Ukuntu": 3842,
  "\u2581kunywa": 3843,
  "\u2581proclaim": 3844,
  "\u2581seems": 3845,
  "\u2581yourselves": 3846,
  "\u2581irimwo": 3847,
  "\u2581ready": 3848,
  "\u2581road": 3849,
  "\u2581wives": 3850,
  "fatira": 3851,
  "\u2581obedient": 3852,
  "abagore": 3853,
  "\u2581Keep": 3854,
  "\u2581Was": 3855,
  "\u2581imfashanyo": 3856,
  "\u2581zara": 3857,
  "\u2581bikwiye": 3858,
  "\u2581urugamba": 3859,
  "gendeye": 3860,
  "uburyo": 3861,
  "\u2581Matt": 3862,
  "\u2581zacu": 3863,
  "dict": 3864,
  "ingingo": 3865,
  "\u2581Answer": 3866,
  "\u2581bwoko": 3867,
  "\u2581zealous": 3868,
  "\u2581Further": 3869,
  "\u2581Ikintu": 3870,
  "500": 3871,
  "Nda": 3872,
  "rwo": 3873,
  "where": 3874,
  "\u2581disciple": 3875,
  "\u2581statement": 3876,
  "bandanije": 3877,
  "\u2581Ntu": 3878,
  "\u2581gukurikiza": 3879,
  "\u2581ingeso": 3880,
  "\u2581produce": 3881,
  "\u2581ryawe": 3882,
  "\u2581umeng": 3883,
  "pre": 3884,
  "\u2581Clearly": 3885,
  "\u2581eventually": 3886,
  "\u2581expressed": 3887,
  "\u2581kama": 3888,
  "\u2581umubabaro": 3889,
  "egereje": 3890,
  "\u2581Bwami": 3891,
  "\u2581hantu": 3892,
  "\u2581vyaba": 3893,
  "\u2581widow": 3894,
  "inkerebutsi": 3895,
  "\u2581amahanga": 3896,
  "\u2581disease": 3897,
  "\u2581ground": 3898,
  "\u2581looking": 3899,
  "\u2581resist": 3900,
  "He": 3901,
  "hagarara": 3902,
  "\u2581ubwoko": 3903,
  "\u2581worshippers": 3904,
  "shikamye": 3905,
  "tory": 3906,
  "\u2581bito": 3907,
  "\u2581followed": 3908,
  "\u2581kumara": 3909,
  "\u2581missionary": 3910,
  "\u2581umunya": 3911,
  "cishije": 3912,
  "dahorereza": 3913,
  "\u2581biratuma": 3914,
  "\u2581fo": 3915,
  "\u2581inguvu": 3916,
  "\u2581recognize": 3917,
  "shimishije": 3918,
  "\u2581dedicated": 3919,
  "\u2581ikimenyamenya": 3920,
  "\u2581ill": 3921,
  "NTU": 3922,
  "light": 3923,
  "rd": 3924,
  "shizwe": 3925,
  "wigere": 3926,
  "\u2581burn": 3927,
  "\u2581contribute": 3928,
  "\u2581umwumwe": 3929,
  "van": 3930,
  "\u2581conversation": 3931,
  "\u2581loyalty": 3932,
  "\u2581Abakorinto": 3933,
  "\u2581feet": 3934,
  "ED": 3935,
  "Iparadizo": 3936,
  "We": 3937,
  "rijwe": 3938,
  "ubakwa": 3939,
  "\u2581Twara": 3940,
  "\u2581VY": 3941,
  "\u2581pursue": 3942,
  "tanzwe": 3943,
  "\u2581Nevertheless": 3944,
  "\u2581challenges": 3945,
  "\u2581importance": 3946,
  "\u2581jambo": 3947,
  "\u2581member": 3948,
  "\u2581mwinshi": 3949,
  "\u2581related": 3950,
  "\u2581ta": 3951,
  "bivuga": 3952,
  "\u2581akigoro": 3953,
  "\u2581simple": 3954,
  "\u2581sometimes": 3955,
  "zigama": 3956,
  "\u2581Ica": 3957,
  "\u2581beliefs": 3958,
  "\u2581j": 3959,
  "\u2581karorero": 3960,
  "\u2581kureka": 3961,
  "\u2581ndimiro": 3962,
  "\u2581thousands": 3963,
  "\u2581wide": 3964,
  "Z": 3965,
  "abanya": 3966,
  "cor": 3967,
  "\u2581Twoba": 3968,
  "\u2581least": 3969,
  "\u2581Rom": 3970,
  "\u2581included": 3971,
  "\u2581scripture": 3972,
  "\u2581wumva": 3973,
  "fashwe": 3974,
  "rondere": 3975,
  "tandukanya": 3976,
  "\u2581sovereignty": 3977,
  "NT": 3978,
  "igitsina": 3979,
  "keza": 3980,
  "\u2581keeping": 3981,
  "\u2581publications": 3982,
  "\u2581rikaba": 3983,
  "fatanije": 3984,
  "titut": 3985,
  "\u2581bipfuza": 3986,
  "\u2581itatu": 3987,
  "\u2581persecution": 3988,
  "\u2581state": 3989,
  "\u2581yakoresheje": 3990,
  "ingenzi": 3991,
  "tsinda": 3992,
  "ubakanye": 3993,
  "\u2581bizoba": 3994,
  "\u2581content": 3995,
  "\u2581town": 3996,
  "\u2581Under": 3997,
  "\u2581amashengero": 3998,
  "\u2581yuzuye": 3999,
  "\u2581Really": 4000,
  "\u2581Uburyo": 4001,
  "\u2581ahanini": 4002,
  "\u2581destroyed": 4003,
  "\u2581hundred": 4004,
  "\u2581whatever": 4005,
  "bivuze": 4006,
  "henda": 4007,
  "\u2581assigned": 4008,
  "\u2581bongera": 4009,
  "\u2581devotion": 4010,
  "\u2581eye": 4011,
  "\u2581kwawe": 4012,
  "\u2581mfatirwako": 4013,
  "\u2581quickly": 4014,
  "\u2581spread": 4015,
  "\u2581uvuga": 4016,
  "mererwa": 4017,
  "nyura": 4018,
  "uwa": 4019,
  "\u2581hours": 4020,
  "\u2581manner": 4021,
  "\u2581yindi": 4022,
  "binjana": 4023,
  "\u2581guhitamwo": 4024,
  "\u2581banyu": 4025,
  "muka": 4026,
  "\u2581Am": 4027,
  "\u2581English": 4028,
  "\u2581Izo": 4029,
  "\u2581instruct": 4030,
  "\u2581inyiyumvo": 4031,
  "\u2581izoba": 4032,
  "\u2581meant": 4033,
  "\u2581print": 4034,
  "\u2581step": 4035,
  "\u2581turushiriza": 4036,
  "\u2581arrived": 4037,
  "\u2581custom": 4038,
  "\u2581forget": 4039,
  "\u2581iva": 4040,
  "mufasha": 4041,
  "rengagiza": 4042,
  "way": 4043,
  "\u2581Roma": 4044,
  "\u2581ashaka": 4045,
  "\u2581yatumye": 4046,
  "menyetso": 4047,
  "ramutse": 4048,
  "suzum": 4049,
  "\u2581Yaciye": 4050,
  "\u2581key": 4051,
  "\u2581mwubakanye": 4052,
  "\u2581yabaye": 4053,
  "ibikoko": 4054,
  "icwa": 4055,
  "kinyamakuru": 4056,
  "mble": 4057,
  "mbuka": 4058,
  "shire": 4059,
  "ease": 4060,
  "humuriza": 4061,
  "\u2581Mwami": 4062,
  "\u2581Soon": 4063,
  "\u2581Umunar": 4064,
  "\u2581cloth": 4065,
  "\u2581getting": 4066,
  "\u2581hehe": 4067,
  "\u2581par": 4068,
  "subiramwo": 4069,
  "\u2581akaga": 4070,
  "\u2581commit": 4071,
  "\u2581conditions": 4072,
  "\u2581fla": 4073,
  "\u2581motivate": 4074,
  "\u2581urged": 4075,
  "inyigisho": 4076,
  "shimwa": 4077,
  "\u2581bubereye": 4078,
  "\u2581protection": 4079,
  "\u2581rishasha": 4080,
  "\u2581vyiyumviro": 4081,
  "\u2581dedication": 4082,
  "\u2581filled": 4083,
  "\u2581political": 4084,
  "\u2581react": 4085,
  "ari": 4086,
  "\u2581countries": 4087,
  "\u2581either": 4088,
  "\u2581personally": 4089,
  "IN": 4090,
  "emerwa": 4091,
  "ology": 4092,
  "\u2581accounts": 4093,
  "\u2581character": 4094,
  "\u2581umwidegemvyo": 4095,
  "prove": 4096,
  "\u258116:": 4097,
  "\u2581ashoboye": 4098,
  "\u2581dukesha": 4099,
  "\u2581mvugo": 4100,
  "\u2581ntumwa": 4101,
  "ler": 4102,
  "\u2581Through": 4103,
  "\u2581canditswe": 4104,
  "\u2581impera": 4105,
  "amajambo": 4106,
  "\u2581About": 4107,
  "\u2581hate": 4108,
  "\u2581ran": 4109,
  "\u2581yahaye": 4110,
  "ING": 4111,
  "ade": 4112,
  "koreshe": 4113,
  "\u2581bread": 4114,
  "\u2581contact": 4115,
  "\u2581naciye": 4116,
  "\u2581relate": 4117,
  "miliyoni": 4118,
  "suka": 4119,
  "\u2581kwibaza": 4120,
  "abaherezi": 4121,
  "\u2581bavukanyi": 4122,
  "\u2581discussion": 4123,
  "\u2581involves": 4124,
  "\u2581reasonable": 4125,
  "\u2581spent": 4126,
  "\u2581wait": 4127,
  "kuze": 4128,
  "\u2581TO": 4129,
  "\u2581Where": 4130,
  "\u2581basangiye": 4131,
  "\u2581habit": 4132,
  "\u2581Her": 4133,
  "\u2581Inyishu": 4134,
  "\u2581standing": 4135,
  "\u2581type": 4136,
  "yumvamwo": 4137,
  "\u2581Govern": 4138,
  "\u2581Rimwe": 4139,
  "\u2581igicumuro": 4140,
  "\u2581morning": 4141,
  "\u2581mwana": 4142,
  "\u2581wundi": 4143,
  "ST": 4144,
  "\u2581Line": 4145,
  "\u2581Rome": 4146,
  "\u2581bitabu": 4147,
  "\u2581cut": 4148,
  "\u2581kwihangana": 4149,
  "intama": 4150,
  "kurikirana": 4151,
  "\u2581Cor": 4152,
  "\u2581Ikindi": 4153,
  "\u2581Umuvukanyi": 4154,
  "\u2581akoresheje": 4155,
  "\u2581araba": 4156,
  "\u2581batatu": 4157,
  "\u2581dawe": 4158,
  "\u2581difference": 4159,
  "\u2581hurt": 4160,
  "\u2581kiwe": 4161,
  "\u2581month": 4162,
  "\u2581ntangere": 4163,
  "\u2581ubutunzi": 4164,
  "\u2581wind": 4165,
  "\u2581adult": 4166,
  "\u2581basic": 4167,
  "\u2581forward": 4168,
  "\u2581opposition": 4169,
  "\u2581realized": 4170,
  "\u2581yagiye": 4171,
  "\u2581Ask": 4172,
  "\u2581gake": 4173,
  "\u2581uw": 4174,
  "subiza": 4175,
  "umwaka": 4176,
  "\u2581Hu": 4177,
  "\u2581bwenge": 4178,
  "\u2581ijisho": 4179,
  "\u2581kwibuka": 4180,
  "\u2581obedience": 4181,
  "\u2581ruri": 4182,
  "\u2581spoken": 4183,
  "umwana": 4184,
  "\u2581asking": 4185,
  "\u2581cank": 4186,
  "\u2581survive": 4187,
  "\u2581trying": 4188,
  "\u2581Ivyahishuriwe": 4189,
  "ibimenyetso": 4190,
  "inyifato": 4191,
  "umukobwa": 4192,
  "\u2581Uruzitiro": 4193,
  "\u2581bigize": 4194,
  "\u2581closer": 4195,
  "\u2581million": 4196,
  "\u2581prepare": 4197,
  "\u2581safe": 4198,
  "\u2581wish": 4199,
  "ihanganira": 4200,
  "\u2581abamamaji": 4201,
  "\u2581ntama": 4202,
  "\u2581umuco": 4203,
  "\u2581active": 4204,
  "\u2581chosen": 4205,
  "\u2581prepared": 4206,
  "\u2581temptation": 4207,
  "\u2581treasure": 4208,
  "\u2581urge": 4209,
  "\u2581welcome": 4210,
  "incabwenge": 4211,
  "nganji": 4212,
  "nkomezi": 4213,
  "tadohoka": 4214,
  "\u2581Credit": 4215,
  "\u2581stress": 4216,
  "\u2581succeed": 4217,
  "bandanye": 4218,
  "renza": 4219,
  "\u2581discreet": 4220,
  "\u2581kubatizwa": 4221,
  "\u2581ahambaye": 4222,
  "\u2581arondera": 4223,
  "\u2581numva": 4224,
  "himbaza": 4225,
  "serura": 4226,
  "ubuhinga": 4227,
  "\u2581business": 4228,
  "umugambi": 4229,
  "\u2581barenga": 4230,
  "\u2581bashoboye": 4231,
  "\u2581court": 4232,
  "\u2581igitigiri": 4233,
  "\u2581perform": 4234,
  "\u2581required": 4235,
  "\u2581Europe": 4236,
  "\u2581SONGS": 4237,
  "\u2581master": 4238,
  "\u2581surprise": 4239,
  "bumba": 4240,
  "\u2581Prov": 4241,
  "\u2581akari": 4242,
  "\u2581bakoresha": 4243,
  "\u2581discover": 4244,
  "kekeranya": 4245,
  "\u2581INDIRIMBO": 4246,
  "\u2581feeling": 4247,
  "\u2581kwifatanya": 4248,
  "\u2581kwizigirwa": 4249,
  "\u2581main": 4250,
  "\u2581release": 4251,
  "\u2581response": 4252,
  "genewe": 4253,
  "giranira": 4254,
  "\u2581animals": 4255,
  "\u2581butagira": 4256,
  "\u2581half": 4257,
  "\u2581ukwihangana": 4258,
  "\u2581Noba": 4259,
  "\u2581imwimwe": 4260,
  "HA": 4261,
  "ijana": 4262,
  "inzu": 4263,
  "ivyipfuzo": 4264,
  "lent": 4265,
  "\u2581abandon": 4266,
  "\u2581barondera": 4267,
  "\u2581kirere": 4268,
  "\u2581lot": 4269,
  "\u2581strive": 4270,
  "ZE": 4271,
  "rwaruka": 4272,
  "\u2581Mount": 4273,
  "\u2581nature": 4274,
  "\u2581camp": 4275,
  "It": 4276,
  "gumiza": 4277,
  "ikintu": 4278,
  "\u2581Sh": 4279,
  "\u2581acknowledge": 4280,
  "\u2581demons": 4281,
  "\u2581ikimazi": 4282,
  "\u2581pleasure": 4283,
  "\u2581usually": 4284,
  "\u2581wealth": 4285,
  "banje": 4286,
  "himiriza": 4287,
  "twaye": 4288,
  "\u2581bond": 4289,
  "\u2581extend": 4290,
  "\u2581isengesho": 4291,
  "abagenzi": 4292,
  "ushizemwo": 4293,
  "\u2581bubakanye": 4294,
  "\u2581calls": 4295,
  "\u2581murongo": 4296,
  "\u2581passed": 4297,
  "\u2581resolve": 4298,
  "\u2581yamaze": 4299,
  "but": 4300,
  "rungika": 4301,
  "\u2581buranga": 4302,
  "\u2581carefully": 4303,
  "\u2581eager": 4304,
  "\u2581yitwararika": 4305,
  "abanyagihugu": 4306,
  "bure": 4307,
  "tujambo": 4308,
  "umusi": 4309,
  "wibuke": 4310,
  "\u2581Over": 4311,
  "\u2581igisagara": 4312,
  "\u2581munsi": 4313,
  "\u2581mvo": 4314,
  "ganda": 4315,
  "imiryango": 4316,
  "musaba": 4317,
  "tegetse": 4318,
  "\u2581built": 4319,
  "\u2581miracle": 4320,
  "\u2581overseer": 4321,
  "come": 4322,
  "\u2581Ezekiyeli": 4323,
  "\u2581gushikira": 4324,
  "\u2581ikimenyetso": 4325,
  "\u2581kibereye": 4326,
  "hema": 4327,
  "indongozi": 4328,
  "\u2581Bamwebamwe": 4329,
  "\u2581Car": 4330,
  "\u2581almo": 4331,
  "\u2581umaze": 4332,
  "SI": 4333,
  "WO": 4334,
  "abahungu": 4335,
  "\u2581akanyota": 4336,
  "\u2581ishirahamwe": 4337,
  "\u2581room": 4338,
  "huje": 4339,
  "\u2581IBI": 4340,
  "\u2581Kumbure": 4341,
  "\u2581surely": 4342,
  "\u2581tribe": 4343,
  "Igihe": 4344,
  "born": 4345,
  "bucuti": 4346,
  "kengera": 4347,
  "kure": 4348,
  "shigikiye": 4349,
  "\u2581Br": 4350,
  "\u2581YOU": 4351,
  "\u2581bameze": 4352,
  "\u2581insiguro": 4353,
  "\u2581research": 4354,
  "\u2581yompi": 4355,
  "ibiganiro": 4356,
  "ibohero": 4357,
  "roranirwa": 4358,
  "tware": 4359,
  "\u2581Every": 4360,
  "\u2581akoze": 4361,
  "\u2581late": 4362,
  "gereranije": 4363,
  "\u2581Ezekiel": 4364,
  "\u2581ikiganiro": 4365,
  "\u2581star": 4366,
  "\u2581wasanga": 4367,
  "\u2581Umwanditsi": 4368,
  "\u2581battle": 4369,
  "\u2581ntiwumve": 4370,
  "\u2581yiga": 4371,
  "herutse": 4372,
  "war": 4373,
  "\u2581consequences": 4374,
  "\u2581established": 4375,
  "\u2581forgiveness": 4376,
  "\u2581studies": 4377,
  "\u2581third": 4378,
  "\u2581umuhanuzi": 4379,
  "Abaroma": 4380,
  "Let": 4381,
  "lace": 4382,
  "nezerwa": 4383,
  "\u2581engage": 4384,
  "\u2581kwandika": 4385,
  "\u2581namwe": 4386,
  "\u2581outside": 4387,
  "Be": 4388,
  "posed": 4389,
  "\u2581bifise": 4390,
  "\u2581joyful": 4391,
  "\u2581save": 4392,
  "bacungezi": 4393,
  "ek": 4394,
  "hold": 4395,
  "\u2581Look": 4396,
  "\u2581Paradise": 4397,
  "\u2581send": 4398,
  "bumbe": 4399,
  "\u2581Ta": 4400,
  "\u2581bless": 4401,
  "\u2581destroy": 4402,
  "\u2581iriko": 4403,
  "\u2581moment": 4404,
  "shashaye": 4405,
  "sigara": 4406,
  "sukurira": 4407,
  "\u2581abamarayika": 4408,
  "ubwenge": 4409,
  "\u2581Good": 4410,
  "\u2581cope": 4411,
  "\u2581event": 4412,
  "\u2581negative": 4413,
  "\u2581universe": 4414,
  "\u2581utuntu": 4415,
  "ubwami": 4416,
  "\u2581ak": 4417,
  "\u2581discern": 4418,
  "\u2581fish": 4419,
  "\u2581sharing": 4420,
  "\u2581stone": 4421,
  "HE": 4422,
  "gurwa": 4423,
  "misi": 4424,
  "\u2581Abanyefeso": 4425,
  "\u2581areas": 4426,
  "\u2581arm": 4427,
  "\u2581basanzwe": 4428,
  "\u2581endurance": 4429,
  "\u2581music": 4430,
  "intambara": 4431,
  "\u2581Learn": 4432,
  "\u2581Time": 4433,
  "\u2581convinced": 4434,
  "hagarika": 4435,
  "\u2581Mika": 4436,
  "\u2581km": 4437,
  "\u2581kurwanya": 4438,
  "\u2581umwaka": 4439,
  "Isezerano": 4440,
  "ubahiriza": 4441,
  "yumviriye": 4442,
  "\u2581atagira": 4443,
  "\u2581gisa": 4444,
  "\u2581publishers": 4445,
  "ZO": 4446,
  "samaza": 4447,
  "\u2581nimuze": 4448,
  "girirwa": 4449,
  "umuzirikanyi": 4450,
  "\u2581join": 4451,
  "\u2581mwebwe": 4452,
  "\u2581prophecies": 4453,
  "hindutse": 4454,
  "utundi": 4455,
  "vyerekana": 4456,
  "\u2581Each": 4457,
  "\u2581gutsinda": 4458,
  "\u2581skill": 4459,
  "\u2581social": 4460,
  "\u2581yaremye": 4461,
  "gereranywa": 4462,
  "iparadizo": 4463,
  "turonsa": 4464,
  "\u2581Make": 4465,
  "\u2581rwari": 4466,
  "mucungezi": 4467,
  "\u2581Questions": 4468,
  "\u2581akahe": 4469,
  "\u2581existence": 4470,
  "\u2581official": 4471,
  "Nta": 4472,
  "\u2581agasembwa": 4473,
  "\u2581grateful": 4474,
  "\u2581literal": 4475,
  "\u2581preached": 4476,
  "\u2581Birumvikana": 4477,
  "\u2581Rusi": 4478,
  "\u2581asaba": 4479,
  "\u2581seemed": 4480,
  "Itegeko": 4481,
  "\u2581Regard": 4482,
  "\u2581amasaha": 4483,
  "\u2581amezi": 4484,
  "\u2581appeal": 4485,
  "\u2581kamwe": 4486,
  "\u2581pure": 4487,
  "\u2581requires": 4488,
  "\u2581riti": 4489,
  "\u2581somambike": 4490,
  "dodo": 4491,
  "ngire": 4492,
  "\u2581High": 4493,
  "\u2581advantage": 4494,
  "\u2581bagabo": 4495,
  "\u2581sleep": 4496,
  "\u2581ukwa": 4497,
  "Ba": 4498,
  "gurira": 4499,
  "rokora": 4500,
  "shike": 4501,
  "\u2581suffered": 4502,
  "\u2581wanyu": 4503,
  "ibinyoma": 4504,
  "nuye": 4505,
  "\u2581assist": 4506,
  "\u2581dusangiye": 4507,
  "indimi": 4508,
  "ius": 4509,
  "mbabazi": 4510,
  "stand": 4511,
  "\u0113ra": 4512,
  "\u2581Also": 4513,
  "\u2581admit": 4514,
  "\u2581bwato": 4515,
  "\u2581compassion": 4516,
  "\u2581declared": 4517,
  "\u2581profess": 4518,
  "\u2581ubusa": 4519,
  "himirije": 4520,
  "teraniro": 4521,
  "\u2581hour": 4522,
  "\u2581restore": 4523,
  "igeze": 4524,
  "\u2581baronka": 4525,
  "\u2581conflict": 4526,
  "\u2581eight": 4527,
  "\u2581harvest": 4528,
  "\u2581teachers": 4529,
  "\u2581Ga": 4530,
  "\u2581Give": 4531,
  "\u2581gifise": 4532,
  "\u2581guheba": 4533,
  "\u2581intambwe": 4534,
  "\u2581overseers": 4535,
  "komere": 4536,
  "\u2581amajana": 4537,
  "\u2581fill": 4538,
  "\u2581possession": 4539,
  "\u2581practices": 4540,
  "yegereza": 4541,
  "\u2581ibice": 4542,
  "\u2581iherezo": 4543,
  "\u2581lose": 4544,
  "\u2581mention": 4545,
  "\u2581separate": 4546,
  "fashijwe": 4547,
  "\u2581commanded": 4548,
  "\u2581isezerano": 4549,
  "\u2581race": 4550,
  "\u2581remove": 4551,
  "\u2581sick": 4552,
  "\u2581teaches": 4553,
  "\u2581wipfuza": 4554,
  "kirwa": 4555,
  "\u2581Sara": 4556,
  "\u2581attending": 4557,
  "\u2581reject": 4558,
  "\u2581ruin": 4559,
  "abavukanyikazi": 4560,
  "yonga": 4561,
  "\u2581butomoye": 4562,
  "\u2581legal": 4563,
  "\u2581meal": 4564,
  "\u2581warned": 4565,
  "\u2581yandikiye": 4566,
  "menyeshakazoza": 4567,
  "rumva": 4568,
  "\u2581Ngoro": 4569,
  "\u2581gutangura": 4570,
  "\u2581reference": 4571,
  "\u2581uburorero": 4572,
  "\u2581wine": 4573,
  "itavye": 4574,
  "\u2581plant": 4575,
  "\u2581rwabo": 4576,
  "ash": 4577,
  "garagara": 4578,
  "zoronka": 4579,
  "\u2581Hara": 4580,
  "\u2581Memorial": 4581,
  "\u2581Philippians": 4582,
  "\u2581gusuzuma": 4583,
  "\u2581mitima": 4584,
  "\u2581twaba": 4585,
  "\u2581ubutungane": 4586,
  "\u2581ushaka": 4587,
  "isezerano": 4588,
  "matwi": 4589,
  "now": 4590,
  "\u2581drink": 4591,
  "SE": 4592,
  "kiganiro": 4593,
  "mukunda": 4594,
  "siguye": 4595,
  "\u2581govern": 4596,
  "\u2581opening": 4597,
  "\u2581super": 4598,
  "Ivyanditswe": 4599,
  "ratuma": 4600,
  "vyigwa": 4601,
  "\u2581Dawe": 4602,
  "\u2581School": 4603,
  "\u2581Should": 4604,
  "\u2581Yoba": 4605,
  "\u2581broke": 4606,
  "\u2581gusumba": 4607,
  "\u2581song": 4608,
  "201": 4609,
  "keka": 4610,
  "\u2581Gilead": 4611,
  "\u2581abansi": 4612,
  "\u2581yasezeranye": 4613,
  "amaboko": 4614,
  "\u2581vyagezwe": 4615,
  "ijwi": 4616,
  "\u2581Box": 4617,
  "\u2581Ecclesiastes": 4618,
  "\u2581acceptable": 4619,
  "\u2581bumenyi": 4620,
  "\u2581dufitaniye": 4621,
  "\u2581icigwa": 4622,
  "\u2581ntimu": 4623,
  "\u2581oppos": 4624,
  "mission": 4625,
  "mutima": 4626,
  "\u2581Har": 4627,
  "\u2581UMU": 4628,
  "\u2581Umukirisu": 4629,
  "\u2581date": 4630,
  "remesheje": 4631,
  "shikanwa": 4632,
  "shimitse": 4633,
  "\u2581babigiranye": 4634,
  "\u2581commend": 4635,
  "\u2581failed": 4636,
  "\u2581mice": 4637,
  "\u2581risobanura": 4638,
  "kaze": 4639,
  "umwami": 4640,
  "\u2581compar": 4641,
  "\u2581intuntu": 4642,
  "\u2581security": 4643,
  "\u2581sight": 4644,
  "inzira": 4645,
  "sambanyi": 4646,
  "\u2581Lu": 4647,
  "\u2581bumva": 4648,
  "\u2581path": 4649,
  "\u2581persecut": 4650,
  "\u2581relatives": 4651,
  "\u2581tender": 4652,
  "asohowe": 4653,
  "kubita": 4654,
  "\u2581Hoba": 4655,
  "\u2581imfungurwa": 4656,
  "\u2581loss": 4657,
  "\u2581IN": 4658,
  "\u2581bitatu": 4659,
  "\u2581mouth": 4660,
  "\u2581prior": 4661,
  "\u2581turere": 4662,
  "bwirij": 4663,
  "\u2581ishavu": 4664,
  "\u2581nkeka": 4665,
  "\u2581valuable": 4666,
  "abizerwa": 4667,
  "tyoroye": 4668,
  "\u2581ivyigwa": 4669,
  "\u2581kwishura": 4670,
  "\u2581referred": 4671,
  "\u2581zeal": 4672,
  "mple": 4673,
  "\u2581associate": 4674,
  "\u2581big": 4675,
  "\u2581imiryango": 4676,
  "\u2581observed": 4677,
  "ikibabarwe": 4678,
  "\u2581amount": 4679,
  "irizo": 4680,
  "rist": 4681,
  "\u2581bikoze": 4682,
  "\u2581gushigikira": 4683,
  "\u2581ivyaha": 4684,
  "\u2581overcome": 4685,
  "erekane": 4686,
  "iswe": 4687,
  "sengera": 4688,
  "\u2581Body": 4689,
  "\u2581Know": 4690,
  "\u2581Vyabona": 4691,
  "\u2581elderly": 4692,
  "\u2581obtain": 4693,
  "ble": 4694,
  "\u2581Gusubira": 4695,
  "\u2581NI": 4696,
  "\u2581patience": 4697,
  "\u2581remained": 4698,
  "\u2581Think": 4699,
  "\u2581Well": 4700,
  "\u2581grew": 4701,
  "\u2581ihambaye": 4702,
  "\u2581immediately": 4703,
  "\u2581missionaries": 4704,
  "\u2581train": 4705,
  "\u2581zayo": 4706,
  "ubwikunzi": 4707,
  "\u2581abapfuye": 4708,
  "\u2581answered": 4709,
  "\u2581bapfuye": 4710,
  "\u2581believed": 4711,
  "\u2581feature": 4712,
  "\u2581kibano": 4713,
  "\u2581kugufasha": 4714,
  "\u2581opened": 4715,
  "\u2581student": 4716,
  "BO": 4717,
  "When": 4718,
  "abami": 4719,
  "korere": 4720,
  "responsibilities": 4721,
  "unguru": 4722,
  "inyama": 4723,
  "\u2581concerned": 4724,
  "\u2581kill": 4725,
  "kugendera": 4726,
  "takaza": 4727,
  "\u2581bagenziwe": 4728,
  "\u2581impuhwe": 4729,
  "\u2581lay": 4730,
  "\u2581limited": 4731,
  "\u2581relief": 4732,
  "\u2581umwanditsi": 4733,
  "Ivyahishuwe": 4734,
  "\u2581aravuga": 4735,
  "\u2581process": 4736,
  "\u2581rumwe": 4737,
  "\u2581ryacu": 4738,
  "\u2581yandika": 4739,
  "\u2581yerekanye": 4740,
  "This": 4741,
  "cumukura": 4742,
  "scribe": 4743,
  "\u2581Christianity": 4744,
  "\u2581consideration": 4745,
  "\u2581mbona": 4746,
  "\u2581mugoroba": 4747,
  "mwigeme": 4748,
  "\u2581Gileyadi": 4749,
  "\u2581ahabona": 4750,
  "\u2581commission": 4751,
  "\u2581discourage": 4752,
  "\u2581approval": 4753,
  "\u2581gold": 4754,
  "\u2581mwami": 4755,
  "\u2581rupfu": 4756,
  "\u2581ryiza": 4757,
  "\u2581secular": 4758,
  "\u2581Isaac": 4759,
  "\u2581amahinduka": 4760,
  "\u2581army": 4761,
  "\u2581guhera": 4762,
  "\u2581kwumviriza": 4763,
  "\u2581makuru": 4764,
  "\u2581percent": 4765,
  "\u2581refers": 4766,
  "\u2581sad": 4767,
  "mbira": 4768,
  "sign": 4769,
  "\u2581impuzu": 4770,
  "\u2581product": 4771,
  "\u2581ryanje": 4772,
  "\u2581ubutsimvyi": 4773,
  "read": 4774,
  "\u2581Buraya": 4775,
  "\u2581Help": 4776,
  "\u2581umukurambere": 4777,
  "\u2581workers": 4778,
  "\u2581yagumye": 4779,
  "shimwe": 4780,
  "\u2581cry": 4781,
  "\u2581endeavor": 4782,
  "\u2581garden": 4783,
  "\u2581insight": 4784,
  "\u2581struggle": 4785,
  "imigenzo": 4786,
  "\u2581Only": 4787,
  "hindurwa": 4788,
  "\u2581b\u0101": 4789,
  "\u2581irihe": 4790,
  "\u2581prophetic": 4791,
  "kenerwa": 4792,
  "somye": 4793,
  "\u2581budasanzwe": 4794,
  "\u2581instead": 4795,
  "\u2581ningoga": 4796,
  "US": 4797,
  "shikirije": 4798,
  "\u2581collect": 4799,
  "\u2581offspring": 4800,
  "Ibi": 4801,
  "cipfuzo": 4802,
  "imukira": 4803,
  "okimwe": 4804,
  "zokwama": 4805,
  "\u2581Young": 4806,
  "\u2581Zab": 4807,
  "\u2581birenze": 4808,
  "\u2581fruitage": 4809,
  "\u2581kwigira": 4810,
  "\u2581modest": 4811,
  "\u2581symbol": 4812,
  "\u2581translated": 4813,
  "\u2581visited": 4814,
  "igitabu": 4815,
  "runkwekwe": 4816,
  "\u2581Awake": 4817,
  "\u2581Colossians": 4818,
  "\u2581center": 4819,
  "\u2581discussed": 4820,
  "\u2581listening": 4821,
  "\u2581mihingo": 4822,
  "\u2581viewed": 4823,
  "\u2581yiyumvira": 4824,
  "\u2581Church": 4825,
  "\u2581Nyobozi": 4826,
  "\u2581although": 4827,
  "\u2581kumwi": 4828,
  "\u2581require": 4829,
  "bwenge": 4830,
  "\u2581background": 4831,
  "\u2581gukomeza": 4832,
  "\u2581intama": 4833,
  "\u2581ruto": 4834,
  "AMA": 4835,
  "abagabo": 4836,
  "masengesho": 4837,
  "rafise": 4838,
  "\u2581Deuteronomy": 4839,
  "\u2581Iyumvire": 4840,
  "\u2581greatly": 4841,
  "\u2581refused": 4842,
  "\u2581condemn": 4843,
  "\u2581finally": 4844,
  "\u2581incuti": 4845,
  "\u2581refresh": 4846,
  "\u2581ubwami": 4847,
  "\u2581umuvyeyi": 4848,
  "ripfuza": 4849,
  "umushumba": 4850,
  "gaye": 4851,
  "rangiye": 4852,
  "\u2581attended": 4853,
  "\u2581refuge": 4854,
  "GANIRO": 4855,
  "Q": 4856,
  "rangutse": 4857,
  "\u2581circuit": 4858,
  "\u2581mushumba": 4859,
  "\u2581responsible": 4860,
  "aught": 4861,
  "hindagurika": 4862,
  "mong": 4863,
  "nezerewe": 4864,
  "rokoka": 4865,
  "suma": 4866,
  "tegura": 4867,
  "\u2581blind": 4868,
  "abanyagasembwa": 4869,
  "udu": 4870,
  "\u2581await": 4871,
  "\u2581bitoroshe": 4872,
  "\u2581ibisabwa": 4873,
  "\u2581territory": 4874,
  "\u2581understood": 4875,
  "\u2581yashinze": 4876,
  "\u2581Children": 4877,
  "\u2581demand": 4878,
  "\u2581inherit": 4879,
  "\u2581ivyamwa": 4880,
  "\u2581wall": 4881,
  "hearted": 4882,
  "iyindi": 4883,
  "juru": 4884,
  "kugomba": 4885,
  "\u2581Family": 4886,
  "\u2581Filipi": 4887,
  "\u2581Migani": 4888,
  "\u2581bukomeye": 4889,
  "\u2581commandments": 4890,
  "\u2581eternal": 4891,
  "\u2581urusengero": 4892,
  "\u2581village": 4893,
  "\u2581box": 4894,
  "rangi": 4895,
  "sohoka": 4896,
  "\u2581ahandi": 4897,
  "\u2581risk": 4898,
  "\u2581saved": 4899,
  "\u2581urutonde": 4900,
  "\u2581yaragize": 4901,
  "bigiranye": 4902,
  "kengurukira": 4903,
  "\u2581hi": 4904,
  "\u2581particular": 4905,
  "akantu": 4906,
  "ranguye": 4907,
  "ubuhanuzi": 4908,
  "yobokera": 4909,
  "\u2581Kukab": 4910,
  "\u2581disaster": 4911,
  "\u2581encouraging": 4912,
  "\u2581killed": 4913,
  "\u2581praying": 4914,
  "hingura": 4915,
  "rengeye": 4916,
  "ukwezi": 4917,
  "\u2581creatures": 4918,
  "\u2581energy": 4919,
  "dafise": 4920,
  "icubahiro": 4921,
  "ivyiyumviro": 4922,
  "\u2581evident": 4923,
  "\u2581guserura": 4924,
  "\u2581invitation": 4925,
  "\u2581finish": 4926,
  "\u2581ikigongwe": 4927,
  "\u2581leading": 4928,
  "\u2581rundi": 4929,
  "\u2581sinful": 4930,
  "gerageje": 4931,
  "\u00e8": 4932,
  "\u2581bidasanzwe": 4933,
  "\u2581easily": 4934,
  "\u2581kwungukira": 4935,
  "\u2581rugendo": 4936,
  "itegurira": 4937,
  "menyereye": 4938,
  "\u2581Akenshi": 4939,
  "\u2581assured": 4940,
  "\u2581concerning": 4941,
  "\u2581courageous": 4942,
  "\u2581evidently": 4943,
  "\u2581igice": 4944,
  "\u2581win": 4945,
  "ababiranye": 4946,
  "urwo": 4947,
  "\u2581Christendom": 4948,
  "\u2581Year": 4949,
  "\u2581cokimwe": 4950,
  "\u2581ibimazi": 4951,
  "Ishure": 4952,
  "hisha": 4953,
  "ubushegabo": 4954,
  "\u2581Note": 4955,
  "\u2581Ukwizera": 4956,
  "\u2581kwihweza": 4957,
  "\u2581qua": 4958,
  "\u2581raise": 4959,
  "\u2581riches": 4960,
  "\u2581root": 4961,
  "\u2581zituma": 4962,
  "Icibutso": 4963,
  "ibutsa": 4964,
  "lock": 4965,
  "mbitse": 4966,
  "subiriza": 4967,
  "\u2581twipfuza": 4968,
  "bungabunga": 4969,
  "kumva": 4970,
  "ngene": 4971,
  "\u25812011": 4972,
  "\u2581kirimwo": 4973,
  "\u2581oppress": 4974,
  "\u2581rivuga": 4975,
  "\u2581umuhezagiro": 4976,
  "\u2581umunani": 4977,
  "ubusuku": 4978,
  "\u2581escape": 4979,
  "\u2581izuba": 4980,
  "\u2581preserve": 4981,
  "\u2581ship": 4982,
  "\u2581teacher": 4983,
  "\u2581temper": 4984,
  "ishimikiro": 4985,
  "let": 4986,
  "\u2581adopt": 4987,
  "\u2581highlight": 4988,
  "\u2581non": 4989,
  "\u2581sex": 4990,
  "\u2581slow": 4991,
  "\u2581ukwicisha": 4992,
  "dome": 4993,
  "sizwe": 4994,
  "vuyemwo": 4995,
  "\u2581bibanza": 4996,
  "\u2581front": 4997,
  "bwire": 4998,
  "kuriye": 4999,
  "robanu": 5000,
  "\u2581caring": 5001,
  "\u2581casohowe": 5002,
  "\u2581imana": 5003,
  "\u2581ndiko": 5004,
  "\u2581society": 5005,
  "\u2581turabe": 5006,
  "\u2581turimbure": 5007,
  "\u2581zikomeye": 5008,
  "aving": 5009,
  "erekanwa": 5010,
  "ihitiramwo": 5011,
  "tsimbataza": 5012,
  "\u2581Work": 5013,
  "\u2581bashiki": 5014,
  "\u2581impress": 5015,
  "\u2581mubano": 5016,
  "\u2581muhanuzi": 5017,
  "\u2581ngw": 5018,
  "\u2581presented": 5019,
  "\u2581satisfaction": 5020,
  "temera": 5021,
  "\u2581affected": 5022,
  "\u2581amashure": 5023,
  "\u2581mike": 5024,
  "\u2581task": 5025,
  "\u2581tradition": 5026,
  "imisi": 5027,
  "ririmba": 5028,
  "\u2581Watch": 5029,
  "\u2581chose": 5030,
  "\u2581extent": 5031,
  "\u2581inyungu": 5032,
  "\u2581uwitwa": 5033,
  "0.000": 5034,
  "ME": 5035,
  "Nti": 5036,
  "\u2581Inama": 5037,
  "\u2581Land": 5038,
  "\u2581buva": 5039,
  "\u2581paragraph": 5040,
  "indwara": 5041,
  "vyara": 5042,
  "\u2581Exodus": 5043,
  "\u2581rain": 5044,
  "\u2581umuriro": 5045,
  "bonetse": 5046,
  "iah": 5047,
  "ukugororoka": 5048,
  "\u2581employ": 5049,
  "\u2581handle": 5050,
  "\u2581injustice": 5051,
  "Happy": 5052,
  "dukura": 5053,
  "ishijwe": 5054,
  "kwigenza": 5055,
  "\u2581Study": 5056,
  "\u2581bizotuma": 5057,
  "\u2581developed": 5058,
  "\u2581hearing": 5059,
  "\u2581umunega": 5060,
  "\u2581yaratanze": 5061,
  "\u2581zitatu": 5062,
  "gicumuro": 5063,
  "itegereza": 5064,
  "\u2581doctor": 5065,
  "\u2581identify": 5066,
  "gitigiri": 5067,
  "ronderera": 5068,
  "vyuka": 5069,
  "\u2581Qu": 5070,
  "\u2581ikaze": 5071,
  "\u2581immorality": 5072,
  "\u2581miraculous": 5073,
  "\u2581particularly": 5074,
  "erekwa": 5075,
  "\u2581goes": 5076,
  "\u2581imibabaro": 5077,
  "\u2581normal": 5078,
  "\u2581busy": 5079,
  "\u2581cerekeye": 5080,
  "\u2581fast": 5081,
  "\u2581looked": 5082,
  "\u2581madini": 5083,
  "\u2581spouse": 5084,
  "abakenyezi": 5085,
  "\u2581Sea": 5086,
  "\u2581essential": 5087,
  "\u2581ibicumuro": 5088,
  "ibibazo": 5089,
  "sangangurwa": 5090,
  "\u2581Sarah": 5091,
  "\u2581major": 5092,
  "amaraso": 5093,
  "\u2581BE": 5094,
  "\u2581barobanuwe": 5095,
  "\u2581bearing": 5096,
  "\u2581undeserved": 5097,
  "TE": 5098,
  "\u2581helpful": 5099,
  "\u2581motive": 5100,
  "\u2581rid": 5101,
  "RWA": 5102,
  "rangira": 5103,
  "\u2581WHAT": 5104,
  "\u2581amaganya": 5105,
  "\u2581appeared": 5106,
  "\u2581enemy": 5107,
  "\u2581ibivugwa": 5108,
  "\u2581pattern": 5109,
  "\u2581ubutegetsi": 5110,
  "ounded": 5111,
  "\u2581ubuhanga": 5112,
  "\u2581financial": 5113,
  "\u2581gucika": 5114,
  "\u2581island": 5115,
  "\u2581kwiyegereza": 5116,
  "\u2581national": 5117,
  "\u2581ndwara": 5118,
  "shakashatsi": 5119,
  "ubukerebutsi": 5120,
  "vukana": 5121,
  "\u2581Other": 5122,
  "\u2581carried": 5123,
  "\u2581reality": 5124,
  "\u2581selfish": 5125,
  "\u2581severe": 5126,
  "\u2581victim": 5127,
  "LE": 5128,
  "\u2581Abakurambere": 5129,
  "\u2581Afirika": 5130,
  "\u2581declare": 5131,
  "\u2581kwezi": 5132,
  "\u2581limit": 5133,
  "\u2581Nehemiya": 5134,
  "\u2581Yesu": 5135,
  "\u2581arise": 5136,
  "\u2581drive": 5137,
  "\u2581mashengero": 5138,
  "There": 5139,
  "Umuntu": 5140,
  "mbera": 5141,
  "pul": 5142,
  "teguye": 5143,
  "umurimo": 5144,
  "\u2581Israelite": 5145,
  "\u2581OF": 5146,
  "\u2581cities": 5147,
  "IRA": 5148,
  "ibitabu": 5149,
  "vutse": 5150,
  "\u2581generation": 5151,
  "\u2581ibigirwamana": 5152,
  "genze": 5153,
  "mber": 5154,
  "\u2581Abami": 5155,
  "\u2581Explain": 5156,
  "\u2581gathering": 5157,
  "\u2581relative": 5158,
  "\u2581unique": 5159,
  "\u2581united": 5160,
  "Injili": 5161,
  "andikira": 5162,
  "ency": 5163,
  "imiburiburi": 5164,
  "\u2581Nehemiah": 5165,
  "\u2581Philip": 5166,
  "\u2581beloved": 5167,
  "\u2581biganiro": 5168,
  "\u2581opportunities": 5169,
  "\u2581possess": 5170,
  "\u2581setting": 5171,
  "\u2581trouble": 5172,
  "\u2581unbeliev": 5173,
  "\u2581Amaherezo": 5174,
  "\u2581Imagine": 5175,
  "\u2581Ndi": 5176,
  "\u2581error": 5177,
  "\u2581object": 5178,
  "\u2581wedding": 5179,
  "izeye": 5180,
  "uwundi": 5181,
  "\u2581Day": 5182,
  "\u2581Galatians": 5183,
  "\u2581ataco": 5184,
  "\u2581muvukanyi": 5185,
  "\u2581rinini": 5186,
  "MI": 5187,
  "iness": 5188,
  "komotse": 5189,
  "\u2581Babylonian": 5190,
  "\u2581throw": 5191,
  "\u2581ubugingo": 5192,
  "Umusiguzi": 5193,
  "tahuye": 5194,
  "\u2581awake": 5195,
  "\u2581careful": 5196,
  "\u2581chief": 5197,
  "\u2581journey": 5198,
  "\u2581ukuboko": 5199,
  "\u2581yaremeye": 5200,
  "Mosaic": 5201,
  "mpengamiro": 5202,
  "rungitswe": 5203,
  "ryoshe": 5204,
  "\u2581Once": 5205,
  "\u2581attempt": 5206,
  "\u2581ignore": 5207,
  "\u2581medical": 5208,
  "\u00e1": 5209,
  "\u2581Impwemu": 5210,
  "\u2581alcohol": 5211,
  "\u2581kwitega": 5212,
  "\u2581treatment": 5213,
  "Jewe": 5214,
  "sezerana": 5215,
  "\u00c9": 5216,
  "\u2581Take": 5217,
  "\u2581apart": 5218,
  "\u2581dream": 5219,
  "\u2581quoted": 5220,
  "\u2581trial": 5221,
  "\u2581ubugenzi": 5222,
  "\u2581ubuhirwe": 5223,
  "NDI": 5224,
  "ahukana": 5225,
  "sohora": 5226,
  "\u2581Germany": 5227,
  "\u2581Vyo": 5228,
  "\u2581anxiety": 5229,
  "\u2581list": 5230,
  "\u2581meditate": 5231,
  "\u2581method": 5232,
  "\u2581strange": 5233,
  "\u2581tax": 5234,
  "\u2581thousand": 5235,
  "\u2581adds": 5236,
  "\u2581dear": 5237,
  "\u2581kiyaga": 5238,
  "\u2581rebel": 5239,
  "TION": 5240,
  "babazwa": 5241,
  "her": 5242,
  "\u2581Translation": 5243,
  "\u2581assure": 5244,
  "\u2581cost": 5245,
  "\u2581origin": 5246,
  "\u2581sword": 5247,
  "hebera": 5248,
  "iyubara": 5249,
  "\u2581deeds": 5250,
  "\u2581glad": 5251,
  "butse": 5252,
  "shinge": 5253,
  "\u2581Kuvayo": 5254,
  "\u2581Micah": 5255,
  "\u2581Ntidu": 5256,
  "\u2581Wh": 5257,
  "\u2581abuse": 5258,
  "\u2581bigishwa": 5259,
  "\u2581buy": 5260,
  "\u2581communication": 5261,
  "\u2581culture": 5262,
  "\u2581drug": 5263,
  "\u2581involve": 5264,
  "\u2581ivyanditswe": 5265,
  "\u2581permit": 5266,
  "\u2581\u2014\u2060": 5267,
  "bahaye": 5268,
  "muhaye": 5269,
  "ndirimbo": 5270,
  "\u2581Gen": 5271,
  "\u2581bazokwi": 5272,
  "\u2581closely": 5273,
  "\u2581connection": 5274,
  "\u2581gufashwa": 5275,
  "\u2581immoral": 5276,
  "\u2581trained": 5277,
  "menyerezwa": 5278,
  "ubugeni": 5279,
  "\u2581Umugabo": 5280,
  "\u2581cell": 5281,
  "\u2581outstanding": 5282,
  "\u2581pride": 5283,
  "What": 5284,
  "tekanye": 5285,
  "\u2581animal": 5286,
  "\u2581burden": 5287,
  "\u2581drawn": 5288,
  "\u2581gitondo": 5289,
  "\u2581mugaragaro": 5290,
  "\u2581reached": 5291,
  "\u2581gukomeye": 5292,
  "\u2581rulership": 5293,
  "\u00ed": 5294,
  "\u2581applied": 5295,
  "\u2581attract": 5296,
  "\u2581b\u01ce": 5297,
  "\u2581corrupt": 5298,
  "\u2581ikiringo": 5299,
  "\u2581nguvu": 5300,
  "ANA": 5301,
  "will": 5302,
  "\u2581decide": 5303,
  "\u2581produced": 5304,
  "\u2581waiting": 5305,
  "akarenganyo": 5306,
  "kundira": 5307,
  "\u2581design": 5308,
  "\u2581military": 5309,
  "\u2581receiving": 5310,
  "My": 5311,
  "amadayimoni": 5312,
  "iyongereye": 5313,
  "remeshe": 5314,
  "twereka": 5315,
  "umuyabaga": 5316,
  "\u2581conquer": 5317,
  "\u2581contrary": 5318,
  "\u2581heartfelt": 5319,
  "\u2581store": 5320,
  "\u2581sustain": 5321,
  "\u2581vyoroshe": 5322,
  "NE": 5323,
  "UR": 5324,
  "rondeye": 5325,
  "\u2581Ngoma": 5326,
  "\u2581refer": 5327,
  "\u2581superior": 5328,
  "ubuntu": 5329,
  "uruhamo": 5330,
  "vugisha": 5331,
  "\u2581earnest": 5332,
  "\u2581nyabuna": 5333,
  "\u2581pen": 5334,
  "\u2581younger": 5335,
  "\u2581adjust": 5336,
  "\u2581responded": 5337,
  "\u2581south": 5338,
  "kurikije": 5339,
  "turuka": 5340,
  "ubushobozi": 5341,
  "\u2581Budagi": 5342,
  "\u2581UBU": 5343,
  "\u2581dusoma": 5344,
  "\u2581eating": 5345,
  "\u2581fell": 5346,
  "\u2581inzoga": 5347,
  "\u2581violent": 5348,
  "ether": 5349,
  "garukira": 5350,
  "subire": 5351,
  "\u2581Finally": 5352,
  "\u2581Ubuzima": 5353,
  "\u2581Urabona": 5354,
  "\u2581itabi": 5355,
  "\u2581ubwabo": 5356,
  "\u2581umutsimvyi": 5357,
  "Ishirahamwe": 5358,
  "\u2581Sad": 5359,
  "\u2581abakozi": 5360,
  "\u2581behavior": 5361,
  "\u2581bompi": 5362,
  "\u2581ryinshi": 5363,
  "\u2581studied": 5364,
  "\u2581associated": 5365,
  "\u2581select": 5366,
  "\u2581throne": 5367,
  "\u2581troubled": 5368,
  "\u2581zitandukanye": 5369,
  "dushikira": 5370,
  "uff": 5371,
  "umunezero": 5372,
  "\u2581Akarorero": 5373,
  "\u2581Pharaoh": 5374,
  "\u2581environment": 5375,
  "\u2581host": 5376,
  "\u2581indefinite": 5377,
  "\u2581rejected": 5378,
  "\u2581rutonde": 5379,
  "\u2581tudakeka": 5380,
  "shusha": 5381,
  "\u2581abasuku": 5382,
  "\u2581mva": 5383,
  "\u2581ubwacu": 5384,
  "akanyamuneza": 5385,
  "batohoji": 5386,
  "hurira": 5387,
  "kwemera": 5388,
  "serukira": 5389,
  "\u2581bonyene": 5390,
  "\u2581establish": 5391,
  "\u2581illness": 5392,
  "\u2581murder": 5393,
  "\u2581vyagenze": 5394,
  "kijwe": 5395,
  "mbwira": 5396,
  "ubwibone": 5397,
  "\u2581Readers": 5398,
  "\u2581designed": 5399,
  "\u2581expected": 5400,
  "\u2581kwinjira": 5401,
  "\u2581likewise": 5402,
  "\u2581ubwato": 5403,
  "remeye": 5404,
  "\u2581Kimwe": 5405,
  "\u2581copy": 5406,
  "\u2581directed": 5407,
  "\u2581due": 5408,
  "\u2581extreme": 5409,
  "\u2581kirumara": 5410,
  "\u2581tubigiranye": 5411,
  "igisagara": 5412,
  "ough": 5413,
  "\u2581Aziya": 5414,
  "\u2581Yona": 5415,
  "\u2581entered": 5416,
  "\u2581isoni": 5417,
  "acamanza": 5418,
  "umugororotsi": 5419,
  "\u2581amwamwe": 5420,
  "\u2581buntu": 5421,
  "\u2581ibimenyamenya": 5422,
  "\u2581imanza": 5423,
  "menyesheje": 5424,
  "\u2581Hav": 5425,
  "\u2581Pet": 5426,
  "\u2581akamo": 5427,
  "\u2581arrange": 5428,
  "\u2581cizigiro": 5429,
  "\u2581kigereranyo": 5430,
  "ambaye": 5431,
  "aporo": 5432,
  "caniro": 5433,
  "rangurira": 5434,
  "room": 5435,
  "tunganije": 5436,
  "\u2581kaminuza": 5437,
  "\u2581publication": 5438,
  "\u2581amosozi": 5439,
  "\u2581anti": 5440,
  "\u2581igisomwa": 5441,
  "\u2581season": 5442,
  "\u2581upright": 5443,
  "\u2581uturyo": 5444,
  "foto": 5445,
  "intara": 5446,
  "inyenyeri": 5447,
  "\u2581decades": 5448,
  "\u2581gone": 5449,
  "\u2581growth": 5450,
  "\u2581indicated": 5451,
  "\u2581marry": 5452,
  "\u2581mugambi": 5453,
  "aramfashije": 5454,
  "nezererwa": 5455,
  "umwizerwa": 5456,
  "\u2581Russia": 5457,
  "\u2581bukaba": 5458,
  "\u2581gutorera": 5459,
  "\u2581wickedness": 5460,
  "serur": 5461,
  "urusengero": 5462,
  "\u2581bound": 5463,
  "\u2581figurative": 5464,
  "\u2581organized": 5465,
  "\u2581story": 5466,
  "aratanguye": 5467,
  "sigurira": 5468,
  "\u2581probably": 5469,
  "\u2581requirements": 5470,
  "\u2581ukundi": 5471,
  "intango": 5472,
  "\u2581Eden": 5473,
  "\u2581Edeni": 5474,
  "\u2581Igikorwa": 5475,
  "\u2581birahambaye": 5476,
  "\u2581committed": 5477,
  "\u2581consist": 5478,
  "\u2581cra": 5479,
  "\u2581region": 5480,
  "\u2581tempt": 5481,
  "ibihumbi": 5482,
  "\u2581bold": 5483,
  "\u2581darkness": 5484,
  "\u2581exhort": 5485,
  "\u2581rise": 5486,
  "Abalewi": 5487,
  "b\u012b": 5488,
  "\u2581Brooklyn": 5489,
  "\u2581invite": 5490,
  "\u2581performed": 5491,
  "\u2581Elisha": 5492,
  "\u2581bisagara": 5493,
  "\u2581occurred": 5494,
  "\u2581twihweze": 5495,
  "gabanya": 5496,
  "\u2581afraid": 5497,
  "\u2581altar": 5498,
  "\u2581appearance": 5499,
  "\u2581equip": 5500,
  "\u2581gathered": 5501,
  "\u2581preced": 5502,
  "IC": 5503,
  "inkota": 5504,
  "shatse": 5505,
  "wirinde": 5506,
  "\u2581abubakanye": 5507,
  "\u2581authorities": 5508,
  "\u2581gakomeye": 5509,
  "\u2581leg": 5510,
  "press": 5511,
  "tumvikana": 5512,
  "\u2581Jonah": 5513,
  "\u2581Musozi": 5514,
  "\u2581entertainment": 5515,
  "\u2581gukurikirana": 5516,
  "\u2581listed": 5517,
  "\u2581table": 5518,
  "\u2581unclean": 5519,
  "tumire": 5520,
  "\u2581Likewise": 5521,
  "\u2581Spirit": 5522,
  "\u2581charge": 5523,
  "\u2581flow": 5524,
  "\u2581guilt": 5525,
  "twibutsa": 5526,
  "\u2581Farawo": 5527,
  "\u2581global": 5528,
  "\u2581nyabaki": 5529,
  "\u2581pursuit": 5530,
  "\u2581utter": 5531,
  "injiye": 5532,
  "\u2581Ibibazo": 5533,
  "\u2581RE": 5534,
  "\u2581ark": 5535,
  "\u2581beneficial": 5536,
  "\u2581determine": 5537,
  "\u2581gitangaro": 5538,
  "\u2581mugongo": 5539,
  "farasi": 5540,
  "\u2581South": 5541,
  "\u2581art": 5542,
  "\u2581inhabitants": 5543,
  "\u2581yigana": 5544,
  "ubgami": 5545,
  "ukwiga": 5546,
  "umwungere": 5547,
  "\u2581Egyptian": 5548,
  "\u2581guhagarika": 5549,
  "\u2581impressed": 5550,
  "\u2581mass": 5551,
  "\u2581reported": 5552,
  "\u2581vyavuyemwo": 5553,
  "\u2581weigh": 5554,
  "worth": 5555,
  "\u2581Ntibitangaje": 5556,
  "\u2581deserve": 5557,
  "\u2581dangerous": 5558,
  "\u2581rob": 5559,
  "\u2581vow": 5560,
  "yoborwa": 5561,
  "\u2581Recall": 5562,
  "\u2581drinking": 5563,
  "\u2581flee": 5564,
  "\u2581joined": 5565,
  "\u2581mikuru": 5566,
  "\u2581significant": 5567,
  "ikinjana": 5568,
  "\u2581Pentecost": 5569,
  "\u2581imperfection": 5570,
  "\u2581inkuka": 5571,
  "\u2581parable": 5572,
  "abasomyi": 5573,
  "gabisha": 5574,
  "kwiyumvira": 5575,
  "shimishwa": 5576,
  "\u2581Bwongereza": 5577,
  "\u2581arch": 5578,
  "\u2581author": 5579,
  "\u2581gusukurira": 5580,
  "\u2581miryango": 5581,
  "\u2581ngendo": 5582,
  "\u2581yes": 5583,
  "abubatse": 5584,
  "shimira": 5585,
  "tunganijwe": 5586,
  "yeguriye": 5587,
  "\u2581Could": 5588,
  "\u2581abicishije": 5589,
  "\u2581amabwirizwa": 5590,
  "\u2581mugozi": 5591,
  "\u2581opinion": 5592,
  "\u2581project": 5593,
  "URU": 5594,
  "itondera": 5595,
  "ological": 5596,
  "\u2581male": 5597,
  "keep": 5598,
  "twigoro": 5599,
  "\u2581confirm": 5600,
  "\u2581differ": 5601,
  "\u2581grasp": 5602,
  "\u2581oil": 5603,
  "\u2581proceed": 5604,
  "\u2581replace": 5605,
  "Mwa": 5606,
  "most": 5607,
  "\u2581abahinga": 5608,
  "\u2581determination": 5609,
  "\u2581expectation": 5610,
  "\u2581peaceful": 5611,
  "\u2581rurangiranwa": 5612,
  "\u2581tegeko": 5613,
  "amarushwa": 5614,
  "arrow": 5615,
  "biyita": 5616,
  "ukuhaba": 5617,
  "\u2581Armageddon": 5618,
  "\u2581Kor": 5619,
  "\u2581constantly": 5620,
  "\u2581inheritance": 5621,
  "\u2581intsinzi": 5622,
  "egereye": 5623,
  "hagaritse": 5624,
  "igitangaza": 5625,
  "\u2581straight": 5626,
  "MWO": 5627,
  "butegetsi": 5628,
  "umuriro": 5629,
  "\u2581Biragaragara": 5630,
  "\u2581nyubakwa": 5631,
  "\u2581reaction": 5632,
  "\u2581reign": 5633,
  "\u2581siyansi": 5634,
  "\u2581trip": 5635,
  "\u2581ubushakashatsi": 5636,
  "80": 5637,
  "gurisha": 5638,
  "\u2581Buseruko": 5639,
  "\u2581Judge": 5640,
  "\u2581Parents": 5641,
  "\u2581igihumbi": 5642,
  "\u2581mwanya": 5643,
  "\u2581ntumbero": 5644,
  "\u2581primary": 5645,
  "\u2581umwiyemezo": 5646,
  "\u2581worshipers": 5647,
  "gufi": 5648,
  "\u2581East": 5649,
  "\u2581easier": 5650,
  "\u2581recognized": 5651,
  "\u2581settle": 5652,
  "HO": 5653,
  "abamarayika": 5654,
  "k\u012b": 5655,
  "ov": 5656,
  "rongora": 5657,
  "ruhura": 5658,
  "rungitse": 5659,
  "vyura": 5660,
  "\u2581ugutwi": 5661,
  "\u2581yita": 5662,
  "All": 5663,
  "arobanuwe": 5664,
  "umuhungu": 5665,
  "\u2581COVER": 5666,
  "\u2581birashoboka": 5667,
  "\u2581mature": 5668,
  "\u2581rebellion": 5669,
  "\u2581remarkable": 5670,
  "iyumvire": 5671,
  "\u2581Both": 5672,
  "\u2581Phil": 5673,
  "\u2581Promised": 5674,
  "\u2581Tanga": 5675,
  "\u2581emphasize": 5676,
  "\u2581mikeyi": 5677,
  "\u2581sebibondo": 5678,
  "\u2581stick": 5679,
  "kwerekana": 5680,
  "long": 5681,
  "uburake": 5682,
  "\u2581Biblical": 5683,
  "\u2581Gra": 5684,
  "\u2581Va": 5685,
  "\u2581acquire": 5686,
  "\u2581divorce": 5687,
  "\u2581providing": 5688,
  "\u2581resident": 5689,
  "intwaro": 5690,
  "rangiza": 5691,
  "rushirize": 5692,
  "\u2581abundant": 5693,
  "\u2581satisfying": 5694,
  "\u2581shengero": 5695,
  "imirije": 5696,
  "\u2581baby": 5697,
  "\u2581belief": 5698,
  "\u2581cross": 5699,
  "\u2581zikaba": 5700,
  "hiriwe": 5701,
  "ubuhumbu": 5702,
  "\u2581Imig": 5703,
  "\u2581Twisun": 5704,
  "\u2581devote": 5705,
  ">": 5706,
  "Dutegerezwa": 5707,
  "Ivyo": 5708,
  "egereza": 5709,
  "\u2581El": 5710,
  "\u2581overwhelm": 5711,
  "Jesus": 5712,
  "lurb": 5713,
  "piece": 5714,
  "ububisha": 5715,
  "\u2581greed": 5716,
  "\u2581river": 5717,
  "\u2581vast": 5718,
  "\u2581worse": 5719,
  "nsobanuro": 5720,
  "\u2581conviction": 5721,
  "\u2581runaka": 5722,
  "ability": 5723,
  "kikuje": 5724,
  "nonekaye": 5725,
  "\u00fc": 5726,
  "\u2581Lot": 5727,
  "\u2581bubasha": 5728,
  "\u2581site": 5729,
  "\u2581wilderness": 5730,
  "No": 5731,
  "\u2581model": 5732,
  "\u2581Follow": 5733,
  "\u2581achieve": 5734,
  "\u2581bidashira": 5735,
  "\u2581crush": 5736,
  "\u2581scene": 5737,
  "\u2581silver": 5738,
  "\u2581yishura": 5739,
  "Ntimu": 5740,
  "ihutirwa": 5741,
  "\u2581MURI": 5742,
  "\u2581historian": 5743,
  "\u2581mwebge": 5744,
  "\u2581nyifato": 5745,
  "amaguru": 5746,
  "hakana": 5747,
  "indemesho": 5748,
  "twararitse": 5749,
  "\u2581Right": 5750,
  "\u2581foundation": 5751,
  "\u2581glorious": 5752,
  "\u2581moving": 5753,
  "\u2581repent": 5754,
  "abigishwa": 5755,
  "menyekana": 5756,
  "tanguza": 5757,
  "\u2581August": 5758,
  "\u2581GIPFUKISHO": 5759,
  "\u2581Name": 5760,
  "\u2581beast": 5761,
  "\u2581company": 5762,
  "\u2581fault": 5763,
  "\u2581impossible": 5764,
  "\u2581makeyi": 5765,
  "\u2581stopped": 5766,
  "goyagoya": 5767,
  "\u2581Harumagedoni": 5768,
  "\u2581dress": 5769,
  "\u2581price": 5770,
  "\u2581Book": 5771,
  "\u2581Him": 5772,
  "\u2581except": 5773,
  "\u2581granted": 5774,
  "\u2581international": 5775,
  "\u2581mahoro": 5776,
  "\u2581prosper": 5777,
  "\u2581repeat": 5778,
  "\u2581twumva": 5779,
  "kingire": 5780,
  "omite": 5781,
  "twitwararika": 5782,
  "\u2581Mother": 5783,
  "\u2581abundance": 5784,
  "\u2581community": 5785,
  "\u2581deliverance": 5786,
  "\u2581lying": 5787,
  "arumvise": 5788,
  "\u2581intunganyo": 5789,
  "\u2581leaving": 5790,
  "\u2581passage": 5791,
  "\u2581recommend": 5792,
  "\u2581stake": 5793,
  "50": 5794,
  "aratahuye": 5795,
  "dahumanye": 5796,
  "icizigiro": 5797,
  "jijuka": 5798,
  "abanyamahanga": 5799,
  "tegekanya": 5800,
  "turemesha": 5801,
  "\u2581Compare": 5802,
  "\u2581Ikibabaje": 5803,
  "\u2581Loti": 5804,
  "\u2581anxious": 5805,
  "\u2581attendance": 5806,
  "\u2581balanced": 5807,
  "\u2581generous": 5808,
  "\u2581poverty": 5809,
  "\u2581street": 5810,
  "NGA": 5811,
  "abakobwa": 5812,
  "s\u00f4ko": 5813,
  "umve": 5814,
  "zirikanye": 5815,
  "\u2581Abavukanyi": 5816,
  "\u2581Australia": 5817,
  "\u2581amavuta": 5818,
  "\u2581complain": 5819,
  "\u2581mildness": 5820,
  "\u2581popular": 5821,
  "\u2581ubusegaba": 5822,
  "Abagiriki": 5823,
  "ibiriho": 5824,
  "mwumviriza": 5825,
  "tandukaniro": 5826,
  "\u2581April": 5827,
  "\u2581Ekeleziya": 5828,
  "\u2581Ibikorwa": 5829,
  "\u2581Messianic": 5830,
  "\u2581discernment": 5831,
  "\u2581equal": 5832,
  "\u2581kanini": 5833,
  "\u2581kwironkera": 5834,
  "\u2581link": 5835,
  "Mw": 5836,
  "great": 5837,
  "igice": 5838,
  "yigisha": 5839,
  "\u2581Draw": 5840,
  "\u2581Ndamukiza": 5841,
  "\u2581Nyakanga": 5842,
  "\u2581Segaba": 5843,
  "\u2581Sovereign": 5844,
  "\u2581announc": 5845,
  "\u2581assistance": 5846,
  "\u2581bitter": 5847,
  "\u2581bunaka": 5848,
  "\u2581exactly": 5849,
  "\u2581hatred": 5850,
  "\u2581makuba": 5851,
  "\u2018": 5852,
  "\u2581armies": 5853,
  "\u2581brief": 5854,
  "\u2581color": 5855,
  "\u2581inhabited": 5856,
  "\u2581ntwaro": 5857,
  "hemukira": 5858,
  "tazokwiger": 5859,
  "\u2581100": 5860,
  "\u2581buhorobuhoro": 5861,
  "\u2581critical": 5862,
  "\u2581introduc": 5863,
  "IBIRI": 5864,
  "ninahaza": 5865,
  "\u2581begotten": 5866,
  "\u2581bird": 5867,
  "\u2581misozi": 5868,
  "\u2581yiha": 5869,
  "NW": 5870,
  "abakuze": 5871,
  "\u2581Bakirisu": 5872,
  "\u2581Corinth": 5873,
  "\u2581Flood": 5874,
  "\u2581Society": 5875,
  "\u2581sentence": 5876,
  "iminwe": 5877,
  "mwamamaji": 5878,
  "\u2581Buraruko": 5879,
  "\u2581Tower": 5880,
  "\u2581calm": 5881,
  "\u2581increasing": 5882,
  "\u2581mvarukundo": 5883,
  "\u2581porogarama": 5884,
  "\u2581potential": 5885,
  "\u2581unrighteous": 5886,
  "\u2581Hezekiya": 5887,
  "\u2581ikosa": 5888,
  "\u2581impart": 5889,
  "\u2581twinshi": 5890,
  "garariza": 5891,
  "iheka": 5892,
  "nyororo": 5893,
  "\u2581Yoh": 5894,
  "\u2581grief": 5895,
  "\u2581heavy": 5896,
  "\u2581ivyiwe": 5897,
  "\u2581kwiyigisha": 5898,
  "KE": 5899,
  "abakurambere": 5900,
  "shikirizwa": 5901,
  "\u2581Second": 5902,
  "\u2581challenging": 5903,
  "\u2581damage": 5904,
  "\u2581dig": 5905,
  "\u2581foot": 5906,
  "\u2581series": 5907,
  "\u2581ugasanga": 5908,
  "\u2581umuhango": 5909,
  "\u2581umusavyi": 5910,
  "\u2581volunteer": 5911,
  "\u2581witnesses": 5912,
  "tahure": 5913,
  "\u2060": 5914,
  "\u2581economic": 5915,
  "\u2581viewpoint": 5916,
  "b\u0101": 5917,
  "imisozi": 5918,
  "\u2581Judea": 5919,
  "\u2581Munara": 5920,
  "\u2581adultery": 5921,
  "\u2581obligation": 5922,
  "\u2581teenager": 5923,
  "\u2581ugutungana": 5924,
  "\u2581wild": 5925,
  "Come": 5926,
  "igenekerezo": 5927,
  "tugirira": 5928,
  "\u2581Way": 5929,
  "\u2581immortal": 5930,
  "\u2581pagan": 5931,
  "ibonekeje": 5932,
  "igiciro": 5933,
  "\u2581Surely": 5934,
  "\u2581assurance": 5935,
  "\u2581familiar": 5936,
  "\u2581festival": 5937,
  "\u2581hardship": 5938,
  "\u2581rock": 5939,
  "inzahabu": 5940,
  "ubumisiyonari": 5941,
  "umuziki": 5942,
  "\u2581bodies": 5943,
  "\u2581deaf": 5944,
  "\u2581doctrine": 5945,
  "\u2581meek": 5946,
  "\u2581ngaha": 5947,
  "\u2581sought": 5948,
  "\u2581transform": 5949,
  "dondorwa": 5950,
  "ibitungwa": 5951,
  "\u2581Heb": 5952,
  "\u2581Hezekiah": 5953,
  "\u2581Prayer": 5954,
  "\u2581Zechariah": 5955,
  "\u2581bumwebumwe": 5956,
  "\u2581mpinduro": 5957,
  "\u2581mpuzamakungu": 5958,
  "\u2581worthy": 5959,
  "abasoda": 5960,
  "ingoma": 5961,
  "\u2581France": 5962,
  "\u2581arrest": 5963,
  "\u2581cruel": 5964,
  "\u2581permanent": 5965,
  "\u2581secure": 5966,
  "ERE": 5967,
  "asezeranywe": 5968,
  "umuvinyu": 5969,
  "vyifashemwo": 5970,
  "\u2581gifaransa": 5971,
  "\u2581ibitangaro": 5972,
  "Keep": 5973,
  "komeje": 5974,
  "ryoherwa": 5975,
  "ww": 5976,
  "\u2581grown": 5977,
  "\u2581peer": 5978,
  "\u2581proof": 5979,
  "\u2581yiyumva": 5980,
  "\u2581development": 5981,
  "\u2581gratitude": 5982,
  "\u2581labor": 5983,
  "\u2581merciful": 5984,
  "\u2581neutral": 5985,
  "bushobozi": 5986,
  "hanitse": 5987,
  "\u2581Efeso": 5988,
  "\u2581ICO": 5989,
  "\u2581Njili": 5990,
  "\u2581Sometimes": 5991,
  "\u2581Thessalonians": 5992,
  "\u2581Zekariya": 5993,
  "\u2581billion": 5994,
  "\u2581create": 5995,
  "\u2581degree": 5996,
  "\u2581garment": 5997,
  "\u2581identified": 5998,
  "cumura": 5999,
  "\u258139": 6000,
  "\u2581Bayali": 6001,
  "\u2581amajwi": 6002,
  "\u2581brochure": 6003,
  "\u2581compos": 6004,
  "\u2581mushiki": 6005,
  "\u2581refuse": 6006,
  "\u2581suit": 6007,
  "\u2581yigishije": 6008,
  "arabandanije": 6009,
  "\u258141": 6010,
  "\u2581Pasika": 6011,
  "\u2581buhinga": 6012,
  "\u2581exile": 6013,
  "\u2581ntiyigeze": 6014,
  "\u2581reside": 6015,
  "\u2581yiteze": 6016,
  "inyuma": 6017,
  "yemerera": 6018,
  "\u2581German": 6019,
  "\u2581Wokwishu": 6020,
  "\u2581diligent": 6021,
  "\u2581mild": 6022,
  "\u2581submit": 6023,
  "\u2581sudden": 6024,
  "Umunar": 6025,
  "humekewe": 6026,
  "sandugu": 6027,
  "seruye": 6028,
  "\u2581Students": 6029,
  "\u2581Ubuhanuzi": 6030,
  "\u2581idol": 6031,
  "\u2581numerous": 6032,
  "\u2581plague": 6033,
  "\u2581private": 6034,
  "\u2581white": 6035,
  "kwiragiza": 6036,
  "zirikane": 6037,
  "\u2581clergy": 6038,
  "\u2581descendants": 6039,
  "\u2581intense": 6040,
  "\u2581meaningful": 6041,
  "\u2581partner": 6042,
  "\u2581regret": 6043,
  "ereranya": 6044,
  "fadika": 6045,
  "\u2581Baal": 6046,
  "\u2581Visit": 6047,
  "akaroruhore": 6048,
  "\u2581Earth": 6049,
  "\u2581Testament": 6050,
  "\u2581civil": 6051,
  "\u2581communicate": 6052,
  "\u2581compare": 6053,
  "umuzunguruko": 6054,
  "\u2581Imvugo": 6055,
  "\u2581Japan": 6056,
  "\u2581across": 6057,
  "\u2581gitewokarasi": 6058,
  "\u2581mid": 6059,
  "\u2581repentance": 6060,
  "hengamiye": 6061,
  "impinduro": 6062,
  "\u2581Hannah": 6063,
  "\u2581Vyagezwe": 6064,
  "\u2581convey": 6065,
  "\u2581failure": 6066,
  "\u2581ishingiro": 6067,
  "\u2581shure": 6068,
  "andikwa": 6069,
  "bwiriza": 6070,
  "ikinege": 6071,
  "\u2581imbuto": 6072,
  "X": 6073,
  "ayandi": 6074,
  "bwiwe": 6075,
  "mpagararo": 6076,
  "sohorwa": 6077,
  "\u2581Almighty": 6078,
  "\u2581aderese": 6079,
  "\u2581apparently": 6080,
  "\u2581crime": 6081,
  "\u2581debt": 6082,
  "\u2581foolish": 6083,
  "\u2581horse": 6084,
  "\u2581mategeko": 6085,
  "\u2581ngeso": 6086,
  "\u2581replied": 6087,
  "\u2581sinned": 6088,
  "\u2581stood": 6089,
  "Itanguriro": 6090,
  "novora": 6091,
  "\u2581Mwene": 6092,
  "\u2581Never": 6093,
  "\u2581Tegeko": 6094,
  "\u2581abenshi": 6095,
  "\u2581ruling": 6096,
  "\u2581sekuruza": 6097,
  "imetero": 6098,
  "imitima": 6099,
  "\u2581Peace": 6100,
  "\u2581churches": 6101,
  "\u2581grain": 6102,
  "\u2581minute": 6103,
  "\u2581mweranda": 6104,
  "\u2581raporo": 6105,
  "\u2581reap": 6106,
  "\u2581September": 6107,
  "\u2581Worship": 6108,
  "\u2581YO": 6109,
  "\u2581construction": 6110,
  "\u2581iruhande": 6111,
  "\u2581safeguard": 6112,
  "\u2581telefone": 6113,
  "\u2581thorough": 6114,
  "\u2581uruzitiro": 6115,
  "videwo": 6116,
  "\u2581Kolosayi": 6117,
  "\u2581exercising": 6118,
  "\u2581maboko": 6119,
  "\u2581marvelous": 6120,
  "ungura": 6121,
  "\u2581defend": 6122,
  "\u2581exert": 6123,
  "\u2581lift": 6124,
  "orosha": 6125,
  "shikije": 6126,
  "\u2581Again": 6127,
  "\u2581Mwana": 6128,
  "\u2581assembly": 6129,
  "\u2581blame": 6130,
  "\u2581forgiving": 6131,
  "\u2581frequent": 6132,
  "\u2581midst": 6133,
  "Mbeg": 6134,
  "See": 6135,
  "jijura": 6136,
  "with": 6137,
  "\u01ce": 6138,
  "\u2581Aaron": 6139,
  "\u2581Esther": 6140,
  "\u2581IVYO": 6141,
  "\u2581fornication": 6142,
  "\u2581quiet": 6143,
  "\u2581solid": 6144,
  "miliyaridi": 6145,
  "\u2581Human": 6146,
  "\u2581Spanish": 6147,
  "\u2581proud": 6148,
  "\u2581teen": 6149,
  "Ubuyuda": 6150,
  "abanyamwete": 6151,
  "hushanye": 6152,
  "ibilometero": 6153,
  "remeshwa": 6154,
  "rongowe": 6155,
  "umutekano": 6156,
  "\u2581American": 6157,
  "\u2581Eph": 6158,
  "\u2581admonition": 6159,
  "\u2581agahaze": 6160,
  "\u2581corruption": 6161,
  "\u2581opposers": 6162,
  "\u2581repentant": 6163,
  "\u2581review": 6164,
  "proving": 6165,
  "\u2581Assyria": 6166,
  "\u2581Chronicles": 6167,
  "\u2581Close": 6168,
  "\u2581attain": 6169,
  "\u2581bavyeyi": 6170,
  "\u2581healing": 6171,
  "\u2581location": 6172,
  "\u2581persist": 6173,
  "\u2581previous": 6174,
  "ograph": 6175,
  "q": 6176,
  "tanguje": 6177,
  "\u2581Bayuda": 6178,
  "\u2581Gihugu": 6179,
  "\u2581Jonathan": 6180,
  "\u2581Nzero": 6181,
  "\u2581audience": 6182,
  "\u2581bitagoranye": 6183,
  "\u2581document": 6184,
  "\u2581minwe": 6185,
  "\u2581YEHOVA": 6186,
  "\u2581iterambere": 6187,
  "\u2581pursuing": 6188,
  "\u2581qualified": 6189,
  "bujije": 6190,
  "randura": 6191,
  "\u2581December": 6192,
  "\u2581Inyigisho": 6193,
  "\u2581Syria": 6194,
  "\u2581encounter": 6195,
  "bibondo": 6196,
  "bujijwe": 6197,
  "gabanuka": 6198,
  "garurira": 6199,
  "ihebura": 6200,
  "ikigeragezo": 6201,
  "ologist": 6202,
  "umviye": 6203,
  "\u2581Abeli": 6204,
  "\u2581Cain": 6205,
  "\u2581copies": 6206,
  "\u2581gukomera": 6207,
  "\u2581initial": 6208,
  "\u2581invisible": 6209,
  "\u2581portion": 6210,
  "\u2581sang": 6211,
  "ifeza": 6212,
  "pfiriye": 6213,
  "\u2581Out": 6214,
  "\u2581arrive": 6215,
  "\u2581conscious": 6216,
  "\u2581distract": 6217,
  "\u2581element": 6218,
  "\u2581gradually": 6219,
  "\u2581outcome": 6220,
  "\u2581police": 6221,
  "\u2581sengesho": 6222,
  "\u2581sezerano": 6223,
  "\u2581sickness": 6224,
  "How": 6225,
  "\u2581Birashoboka": 6226,
  "\u2581Kigarama": 6227,
  "\u2581planet": 6228,
  "\u2581solution": 6229,
  "\u2581symbolic": 6230,
  "imibabaro": 6231,
  "\u2581angry": 6232,
  "\u2581bilometero": 6233,
  "\u2581prefer": 6234,
  "rungikwa": 6235,
  "\u2581affairs": 6236,
  "\u2581alert": 6237,
  "\u2581distance": 6238,
  "\u2581extra": 6239,
  "\u2581offend": 6240,
  "tomora": 6241,
  "\u2581January": 6242,
  "\u2581jealous": 6243,
  "\u2581referring": 6244,
  "\u2581remnant": 6245,
  "\u2581thereafter": 6246,
  "\u2581wave": 6247,
  "\u2581yize": 6248,
  "abansi": 6249,
  "ubugwaneza": 6250,
  "\u2581Buyuda": 6251,
  "\u2581FOR": 6252,
  "\u2581Galatiya": 6253,
  "\u2581Gentile": 6254,
  "\u2581Ingingo": 6255,
  "\u2581Izina": 6256,
  "\u2581JEHOVAH": 6257,
  "\u2581Mukakaro": 6258,
  "\u2581beauty": 6259,
  "\u2581bugaragwa": 6260,
  "\u2581humbly": 6261,
  "\u2581manuscript": 6262,
  "\u2581relations": 6263,
  "\u2581standard": 6264,
  "Abanazi": 6265,
  "ubugingo": 6266,
  "umubabaro": 6267,
  "\u2581144,000": 6268,
  "\u2581Notice": 6269,
  "\u2581THIS": 6270,
  "\u2581Version": 6271,
  "\u2581hospital": 6272,
  "\u2581lifestyle": 6273,
  "\u2581prejudice": 6274,
  "\u2581rescue": 6275,
  "\u2581royal": 6276,
  "\u2581theocratic": 6277,
  "\u2581weapon": 6278,
  "nyenyeri": 6279,
  "ugerageze": 6280,
  "\u2581Comp": 6281,
  "\u2581Mubesheranyi": 6282,
  "\u2581Passover": 6283,
  "\u2581amahero": 6284,
  "\u2581ngirakimazi": 6285,
  "wiyegereze": 6286,
  "\u2581Gitugutu": 6287,
  "\u2581October": 6288,
  "\u2581cherish": 6289,
  "\u2581cibare": 6290,
  "\u2581cloud": 6291,
  "\u2581video": 6292,
  "0,000": 6293,
  "Uburoma": 6294,
  "bigenjeje": 6295,
  "injiza": 6296,
  "umwiza": 6297,
  "\u2581Bisirayeli": 6298,
  "\u2581Latin": 6299,
  "\u2581Show": 6300,
  "\u2581Spiritual": 6301,
  "\u2581kunanira": 6302,
  "\u2581ngabirano": 6303,
  "\u2581objective": 6304,
  "babwira": 6305,
  "cumuye": 6306,
  "\u2581Aroni": 6307,
  "\u2581Nakare": 6308,
  "\u2581Spain": 6309,
  "\u2581apostate": 6310,
  "\u2581capital": 6311,
  "\u2581explanation": 6312,
  "\u2581science": 6313,
  "\u2581televiziyo": 6314,
  "fold": 6315,
  "itegeko": 6316,
  "mariye": 6317,
  "ncabwenge": 6318,
  "senyera": 6319,
  "\u2581Ephesus": 6320,
  "\u2581July": 6321,
  "\u2581accuse": 6322,
  "\u2581greet": 6323,
  "\u2581interpret": 6324,
  "\u2581mine": 6325,
  "\u2581ntunganyo": 6326,
  "\u2581yibuka": 6327,
  "kosora": 6328,
  "\u2581causing": 6329,
  "\u2581majority": 6330,
  "\u2581wrath": 6331,
  "garagarije": 6332,
  "inguvu": 6333,
  "iyegurira": 6334,
  "\u2581Bumanuko": 6335,
  "\u2581Kayini": 6336,
  "\u2581Rusama": 6337,
  "\u2581abilities": 6338,
  "\u2581deceive": 6339,
  "\u2581hair": 6340,
  "\u2581level": 6341,
  "\u2581quick": 6342,
  "\u2581unexpected": 6343,
  "inginze": 6344,
  "manuka": 6345,
  "\u2581Contents": 6346,
  "\u2581Malaki": 6347,
  "\u2581Upon": 6348,
  "\u2581confront": 6349,
  "\u2581dark": 6350,
  "\u2581eliminate": 6351,
  "\u2581gather": 6352,
  "\u2581harsh": 6353,
  "\u2581length": 6354,
  "\u2581pick": 6355,
  "\u2581punishment": 6356,
  "\u2581yeretswe": 6357,
  "IVYA": 6358,
  "imfura": 6359,
  "indwi": 6360,
  "takaje": 6361,
  "\u2581Intumbero": 6362,
  "\u2581Malachi": 6363,
  "\u2581bigeragezo": 6364,
  "\u2581involv": 6365,
  "\u2581plea": 6366,
  "duct": 6367,
  "\u2581Mexico": 6368,
  "\u2581difficulties": 6369,
  "\u2581identity": 6370,
  "\u2581HOW": 6371,
  "\u2581India": 6372,
  "\u2581Lazaro": 6373,
  "\u2581Titus": 6374,
  "\u2581surrounding": 6375,
  "\u2581temporary": 6376,
  "\u2581yizigiye": 6377,
  "mpuhwe": 6378,
  "rangurwa": 6379,
  "\u2581Lazarus": 6380,
  "\u2581Nathan": 6381,
  "\u2581Nawomi": 6382,
  "\u2581dignity": 6383,
  "\u2581load": 6384,
  "\u2581myiza": 6385,
  "\u2581orodinateri": 6386,
  "\u2581pleasant": 6387,
  "\u2581sect": 6388,
  "bwirwa": 6389,
  "wigane": 6390,
  "\u2581consult": 6391,
  "\u2581district": 6392,
  "\u2581herself": 6393,
  "\u2581nine": 6394,
  "\u2581recover": 6395,
  "\u2581tact": 6396,
  "emeje": 6397,
  "gabishije": 6398,
  "ikambi": 6399,
  "itwararike": 6400,
  "ubumenyi": 6401,
  "ukwamamaza": 6402,
  "\u2581Bufaransa": 6403,
  "\u2581Naomi": 6404,
  "\u2581Yonatani": 6405,
  "\u2581balance": 6406,
  "\u2581bgose": 6407,
  "\u2581check": 6408,
  "\u2581facing": 6409,
  "\u2581struck": 6410,
  "\u2581thankful": 6411,
  "\u2581wood": 6412,
  "asezeraniye": 6413,
  "canke": 6414,
  "igishijwe": 6415,
  "izuba": 6416,
  "kurikizi": 6417,
  "\u2581Heart": 6418,
  "\u2581Mushoboravyose": 6419,
  "\u2581Pilato": 6420,
  "\u2581muhungu": 6421,
  "\u2581pleasing": 6422,
  "\u2581prompt": 6423,
  "\u2581supply": 6424,
  "ANI": 6425,
  "imvo": 6426,
  "ingahe": 6427,
  "ukwihangana": 6428,
  "urw": 6429,
  "\u2581employment": 6430,
  "Epfo": 6431,
  "ihanganiye": 6432,
  "naniwe": 6433,
  "\u2581Habakkuk": 6434,
  "\u2581Ministry": 6435,
  "\u2581Truth": 6436,
  "\u2581embrace": 6437,
  "\u2581fundamental": 6438,
  "\u2581limitations": 6439,
  "\u2581mold": 6440,
  "\u2581repeatedly": 6441,
  "\u2581ridicule": 6442,
  "\u2581sentare": 6443,
  "\u2581variety": 6444,
  "\u2581victory": 6445,
  "\u2581wipe": 6446,
  "mashini": 6447,
  "nyinyana": 6448,
  "\u016a": 6449,
  "\u2581Nazi": 6450,
  "\u2581accident": 6451,
  "\u2581flood": 6452,
  "\u2581paid": 6453,
  "\u2581publish": 6454,
  "\u2581readily": 6455,
  "hagarikira": 6456,
  "sohotse": 6457,
  "\u2581Abel": 6458,
  "\u2581Amos": 6459,
  "\u2581Concern": 6460,
  "\u2581Habakuki": 6461,
  "\u2581Umuryango": 6462,
  "\u2581View": 6463,
  "\u2581grave": 6464,
  "\u2581nearby": 6465,
  "\u2581newspaper": 6466,
  "\u2581trap": 6467,
  "angahe": 6468,
  "ubushuhe": 6469,
  "\u2581Gal": 6470,
  "\u2581east": 6471,
  "\u2581excellent": 6472,
  "\u2581otherwise": 6473,
  "ihutira": 6474,
  "irinde": 6475,
  "\u2581brotherhood": 6476,
  "\u2581compassionate": 6477,
  "\u2581compet": 6478,
  "\u2581entitled": 6479,
  "\u2581evolution": 6480,
  "\u2581hospitality": 6481,
  "\u2581prominent": 6482,
  "\u2581strike": 6483,
  "abahanuzi": 6484,
  "aragize": 6485,
  "hereje": 6486,
  "ibiyayuramutwe": 6487,
  "\u2581Tito": 6488,
  "\u2581Zirikana": 6489,
  "\u2581icenda": 6490,
  "\u2581laid": 6491,
  "\u2581psalm": 6492,
  "\u2581reputation": 6493,
  "\u2581title": 6494,
  "\u2581umurongo": 6495,
  "\u2581umusore": 6496,
  "mutohoji": 6497,
  "\u2581Amosi": 6498,
  "\u2581Scripture": 6499,
  "\u2581Twebwe": 6500,
  "\u2581citizen": 6501,
  "\u2581figure": 6502,
  "\u2581pronoun": 6503,
  "\u2581rugamba": 6504,
  "\u2581schedule": 6505,
  "Ikigiriki": 6506,
  "agaragaye": 6507,
  "agiraniye": 6508,
  "aragerageje": 6509,
  "izinga": 6510,
  "munezero": 6511,
  "\u2581Enoch": 6512,
  "\u2581akanenge": 6513,
  "\u2581fitting": 6514,
  "ihuta": 6515,
  "\u2581Eventually": 6516,
  "\u2581Kanada": 6517,
  "\u2581Source": 6518,
  "\u2581constant": 6519,
  "\u2581intention": 6520,
  "30": 6521,
  "herereye": 6522,
  "nyamugigima": 6523,
  "\u2581Abahinga": 6524,
  "\u2581Bidatevye": 6525,
  "\u2581Number": 6526,
  "\u2581Shortly": 6527,
  "\u2581accord": 6528,
  "\u2581description": 6529,
  "\u2581dutoduto": 6530,
  "\u2581expand": 6531,
  "\u2581reliable": 6532,
  "\u2581translator": 6533,
  "body": 6534,
  "impene": 6535,
  "nteguro": 6536,
  "ramutsa": 6537,
  "shikirijwe": 6538,
  "ungukiye": 6539,
  "\u2581Esiteri": 6540,
  "\u2581shebuja": 6541,
  "\u2581shock": 6542,
  "_": 6543,
  "inginga": 6544,
  "umuvukanyi": 6545,
  "\u2581campaign": 6546,
  "\u2581property": 6547,
  "\u2581suggestions": 6548,
  "\u2581ungodly": 6549,
  "icuza": 6550,
  "vyizigiro": 6551,
  "\u2581Ann": 6552,
  "\u2581Ntwarante": 6553,
  "\u2581buraruko": 6554,
  "\u2581dust": 6555,
  "\u2581routine": 6556,
  "\u2581violat": 6557,
  "humurizwa": 6558,
  "ononekara": 6559,
  "rnal": 6560,
  "\u2581alien": 6561,
  "\u2581harmful": 6562,
  "\u2581inclined": 6563,
  "\u2581kitoroshe": 6564,
  "\u2581recreation": 6565,
  "\u2581stumble": 6566,
  "\u2581yield": 6567,
  "geragezwa": 6568,
  "terereye": 6569,
  "\u2581Caesar": 6570,
  "\u2581Granted": 6571,
  "\u2581Kanani": 6572,
  "\u2581Megizike": 6573,
  "\u2581Myandagaro": 6574,
  "\u2581chance": 6575,
  "\u2581context": 6576,
  "\u2581contribution": 6577,
  "\u2581cumba": 6578,
  "\u2581earn": 6579,
  "\u2581kigeragezo": 6580,
  "\u2581skin": 6581,
  "gikenurwa": 6582,
  "itirirwa": 6583,
  "mushumba": 6584,
  "tugingo": 6585,
  "umutunzi": 6586,
  "\u00f4": 6587,
  "\u2581admonish": 6588,
  "\u2581amatungo": 6589,
  "\u2581brain": 6590,
  "\u2581complex": 6591,
  "\u2581ibitegereka": 6592,
  "\u2581imigenderanire": 6593,
  "\u2581inclination": 6594,
  "\u2581scale": 6595,
  "wigishe": 6596,
  "\u2581Herod": 6597,
  "\u2581Pilate": 6598,
  "\u2581neglect": 6599,
  "\u2581obstacle": 6600,
  "\u2581profound": 6601,
  "\u2581twitonze": 6602,
  "babajwe": 6603,
  "subirira": 6604,
  "ubwitonzi": 6605,
  "\u2581Congregation": 6606,
  "\u2581French": 6607,
  "\u2581betray": 6608,
  "\u2581computer": 6609,
  "hagarikiye": 6610,
  "imigambi": 6611,
  "kwiragiye": 6612,
  "racari": 6613,
  "rokotse": 6614,
  "\u2581Ingorane": 6615,
  "\u2581Izahaki": 6616,
  "\u2581River": 6617,
  "\u2581reduce": 6618,
  "\u2581rudende": 6619,
  "\u2581sacrificing": 6620,
  "\u2581storm": 6621,
  "\u2581surface": 6622,
  "\u2581tabernacle": 6623,
  "\u2581trade": 6624,
  "Umuyuda": 6625,
  "izigirwa": 6626,
  "shemez": 6627,
  "umudurumbanyo": 6628,
  "\u2581Grand": 6629,
  "\u2581Nyen": 6630,
  "\u2581bride": 6631,
  "\u2581confess": 6632,
  "\u2581historical": 6633,
  "\u2581inabibondo": 6634,
  "\u2581perceive": 6635,
  "\u2581significance": 6636,
  "\u2581torture": 6637,
  "\u2581vyeranda": 6638,
  "Amahoro": 6639,
  "tihagire": 6640,
  "ubutungane": 6641,
  "\u2581Canada": 6642,
  "\u2581akamenyero": 6643,
  "\u2581iwawe": 6644,
  "\u2581micungararo": 6645,
  "\u2581opposite": 6646,
  "\u2581plain": 6647,
  "\u2581population": 6648,
  "Abafarizayo": 6649,
  "abanyakibi": 6650,
  "gabitanya": 6651,
  "uwitwa": 6652,
  "\u2581Marita": 6653,
  "\u2581Need": 6654,
  "\u2581define": 6655,
  "\u2581ibitsina": 6656,
  "\u2581serpent": 6657,
  "\u2581virgin": 6658,
  "abashitsi": 6659,
  "erekanywe": 6660,
  "\u2581Isaka": 6661,
  "\u2581akamwemwe": 6662,
  "\u2581drunk": 6663,
  "\u2581exalt": 6664,
  "\u2581gisirikare": 6665,
  "\u2581grant": 6666,
  "\u2581ntahara": 6667,
  "\u2581steal": 6668,
  "Yezu": 6669,
  "imiyabaga": 6670,
  "kayangana": 6671,
  "kingirwa": 6672,
  "\u2581Brazil": 6673,
  "\u2581Joel": 6674,
  "\u2581access": 6675,
  "\u2581defense": 6676,
  "\u2581divided": 6677,
  "\u2581marushwa": 6678,
  "\u2581obvious": 6679,
  "\u2581yoke": 6680,
  "83,": 6681,
  "ibidukikije": 6682,
  "takambira": 6683,
  "\u2581Canaan": 6684,
  "\u2581Martha": 6685,
  "\u2581Robert": 6686,
  "\u2581imirongo": 6687,
  "\u2581meditation": 6688,
  "\u2581restrict": 6689,
  "\u2581satisfied": 6690,
  "bukije": 6691,
  "\u2581Gatolika": 6692,
  "\u2581Thank": 6693,
  "\u2581bunyagano": 6694,
  "\u2581cast": 6695,
  "\u2581distinct": 6696,
  "\u2581foretell": 6697,
  "\u2581mwanditsi": 6698,
  "\u2581possibly": 6699,
  "\u2581principal": 6700,
  "\u2581style": 6701,
  "\u2581uturorero": 6702,
  "\u2581weaknesses": 6703,
  "\u2581wibuka": 6704,
  "aririmvye": 6705,
  "dondoye": 6706,
  "rtyo": 6707,
  "\u2581Find": 6708,
  "\u2581Henoki": 6709,
  "\u2581Jude": 6710,
  "\u2581Person": 6711,
  "\u2581shape": 6712,
  "\u2581silent": 6713,
  "Umuremyi": 6714,
  "mayinga": 6715,
  "wandikire": 6716,
  "\u2581Christmas": 6717,
  "\u2581Welcome": 6718,
  "\u2581abukwiriye": 6719,
  "\u2581current": 6720,
  "\u2581distant": 6721,
  "\u2581entrusted": 6722,
  "\u2581glorify": 6723,
  "\u2581impamvu": 6724,
  "\u2581kakaba": 6725,
  "\u2581preparing": 6726,
  "\u2581upbuilding": 6727,
  "\u2581warns": 6728,
  "\u2581yinaka": 6729,
  "Abaheburayo": 6730,
  "Uwundi": 6731,
  "firm": 6732,
  "sagamba": 6733,
  "turn": 6734,
  "\u2581Burengero": 6735,
  "\u2581Friend": 6736,
  "\u2581Galilaya": 6737,
  "\u2581assume": 6738,
  "\u2581keen": 6739,
  "\u2581warfare": 6740,
  "ibigirankana": 6741,
  "umunega": 6742,
  "vugishwa": 6743,
  "\u2581Impanuro": 6744,
  "\u2581Ishengero": 6745,
  "\u2581Unlike": 6746,
  "\u2581graduate": 6747,
  "\u2581inambu": 6748,
  "\u2581reproach": 6749,
  "\u2581uburemere": 6750,
  "\u2581vessel": 6751,
  "\u2581welfare": 6752,
  "\u2581England": 6753,
  "\u2581Jordan": 6754,
  "\u2581decree": 6755,
  "\u2581depth": 6756,
  "\u2581innocent": 6757,
  "\u2581kwiyemeza": 6758,
  "\u2581pwemu": 6759,
  "\u2581reply": 6760,
  "\u2581team": 6761,
  "kurikire": 6762,
  "\u2581Esupanye": 6763,
  "\u2581Noweli": 6764,
  "\u2581Ruheshi": 6765,
  "\u2581Service": 6766,
  "\u2581applies": 6767,
  "\u2581credit": 6768,
  "\u2581shame": 6769,
  "\u2581suppose": 6770,
  "\u2581umwuga": 6771,
  "Look": 6772,
  "harurwa": 6773,
  "impumyi": 6774,
  "nsozero": 6775,
  "subiriye": 6776,
  "\u2581Change": 6777,
  "\u2581Galilee": 6778,
  "\u2581SUBJECT": 6779,
  "\u2581breath": 6780,
  "\u2581initiative": 6781,
  "\u2581kanseri": 6782,
  "\u2581turakwinginze": 6783,
  "[": 6784,
  "cicaro": 6785,
  "\u2581June": 6786,
  "\u2581USED": 6787,
  "\u2581empty": 6788,
  "\u2581northern": 6789,
  "\u2581prevail": 6790,
  "\u2581punish": 6791,
  "incuti": 6792,
  "mburizi": 6793,
  "ubuvuzi": 6794,
  "\u2581Leviticus": 6795,
  "\u2581boat": 6796,
  "\u2581function": 6797,
  "\u2581intended": 6798,
  "\u2581participate": 6799,
  "\u2581resources": 6800,
  "Umunya": 6801,
  "ingeso": 6802,
  "\u2581Abakolosayi": 6803,
  "\u2581ZIKORESH": 6804,
  "\u2581absolute": 6805,
  "\u2581accompanie": 6806,
  "\u2581bull": 6807,
  "\u2581evangelizer": 6808,
  "\u2581ibwina": 6809,
  "\u2581ryeranda": 6810,
  "bimenyamenya": 6811,
  "burenganzira": 6812,
  "emezwa": 6813,
  "\u2581Canaanite": 6814,
  "\u2581emwe": 6815,
  "\u2581minenegwe": 6816,
  "\u2581tendency": 6817,
  "\u2581ultimate": 6818,
  "erekeje": 6819,
  "menyerejwe": 6820,
  "mwigana": 6821,
  "umubano": 6822,
  "\u2581gatabu": 6823,
  "\u2581idolatry": 6824,
  "\u2581operation": 6825,
  "\u2581patriarch": 6826,
  "\u2581representative": 6827,
  "\u2581stories": 6828,
  "\u2581yemwe": 6829,
  "igikundiro": 6830,
  "mashirahamwe": 6831,
  "rimbuye": 6832,
  "\u2581Lamb": 6833,
  "\u2581Vyahishuriwe": 6834,
  "\u2581broad": 6835,
  "\u2581descend": 6836,
  "\u2581disturb": 6837,
  "\u2581edition": 6838,
  "\u2581huge": 6839,
  "\u2581iron": 6840,
  "\u2581memory": 6841,
  "\u2581primarily": 6842,
  "\u2581uburimbane": 6843,
  "Abanyababiloni": 6844,
  "igitangaro": 6845,
  "\u2581Umuhanuzi": 6846,
  "\u2581earthquake": 6847,
  "\u2581petition": 6848,
  "\u2581topic": 6849,
  "\u2581version": 6850,
  "abagatolika": 6851,
  "domako": 6852,
  "itude": 6853,
  "tikizwa": 6854,
  "\u2581Baroma": 6855,
  "\u2581Bujumbura": 6856,
  "\u2581Certain": 6857,
  "\u2581Committee": 6858,
  "\u2581Philistine": 6859,
  "\u2581media": 6860,
  "\u2581messenger": 6861,
  "\u2581raising": 6862,
  "oroheje": 6863,
  "\u25812150": 6864,
  "\u2581Burusiya": 6865,
  "\u2581Munyonyo": 6866,
  "\u2581Umukenyezi": 6867,
  "\u2581famine": 6868,
  "\u2581synagogue": 6869,
  "ibatisimu": 6870,
  "inyiyumvo": 6871,
  "kwiragira": 6872,
  "menyekanisha": 6873,
  "mwizera": 6874,
  "uzuza": 6875,
  "\u2581celebrate": 6876,
  "\u2581choosing": 6877,
  "\u2581distinguish": 6878,
  "\u2581game": 6879,
  "\u2581joro": 6880,
  "\u2581rejoicing": 6881,
  "shimishijwe": 6882,
  "ururimi": 6883,
  "\u2581Yorodani": 6884,
  "\u2581annual": 6885,
  "\u2581guarantee": 6886,
  "\u2581kigabane": 6887,
  "\u2581phone": 6888,
  "\u2581pornography": 6889,
  "zimiza": 6890,
  "\u2581Columbia": 6891,
  "\u2581Hoseya": 6892,
  "\u2581Imvo": 6893,
  "\u2581Thousand": 6894,
  "\u2581Umuhing": 6895,
  "\u2581distribute": 6896,
  "\u2581footnote": 6897,
  "\u2581gracious": 6898,
  "\u2581humankind": 6899,
  "\u2581incident": 6900,
  "\u2581meditating": 6901,
  "Igiheburayo": 6902,
  "bicumuro": 6903,
  "impfagusa": 6904,
  "\u2581bamarayika": 6905,
  "\u2581universal": 6906,
  "abayoboke": 6907,
  "amazaburi": 6908,
  "uburebure": 6909,
  "\u2581application": 6910,
  "\u2581bumanuko": 6911,
  "\u2581calamity": 6912,
  "\u2581cancer": 6913,
  "\u2581unfaithful": 6914,
  "NGE": 6915,
  "kijije": 6916,
  "ririmb": 6917,
  "takamba": 6918,
  "\u2581Ezra": 6919,
  "\u2581Tesalonike": 6920,
  "\u2581Things": 6921,
  "\u2581bahumuye": 6922,
  "\u2581igihano": 6923,
  "rink": 6924,
  "\u2581(1)": 6925,
  "\u2581Umuvyeyi": 6926,
  "\u2581disfellowshipp": 6927,
  "\u2581surprising": 6928,
  "\u2581yitonze": 6929,
  "shigikirwa": 6930,
  "\u00fa": 6931,
  "\u2581AND": 6932,
  "\u2581Afrika": 6933,
  "\u2581Ahab": 6934,
  "\u2581STUDY": 6935,
  "\u2581believing": 6936,
  "\u2581rare": 6937,
  "\u2581steadfast": 6938,
  "\u2581Empire": 6939,
  "\u2581Evidently": 6940,
  "\u2581Heights": 6941,
  "\u2581Hosea": 6942,
  "\u2581Levites": 6943,
  "\u2581November": 6944,
  "\u2581Priest": 6945,
  "\u2581Which": 6946,
  "\u2581station": 6947,
  "Continue": 6948,
  "\u2581Ruler": 6949,
  "\u2581Trust": 6950,
  "\u2581captive": 6951,
  "\u2581creature": 6952,
  "\u2581estimate": 6953,
  "Christ": 6954,
  "\u2581ARTICLE": 6955,
  "\u2581Protestant": 6956,
  "\u2581Sermon": 6957,
  "\u2581multi": 6958,
  "\u2581scroll": 6959,
  "\u2581solve": 6960,
  "\u2581Besides": 6961,
  "\u2581worry": 6962,
  "\u25811919": 6963,
  "\u2581Sabbath": 6964,
  "\u2581Sunday": 6965,
  "\u2581adjustments": 6966,
  "\u2581instrument": 6967,
  "\u2581Italy": 6968,
  "\u2581accompany": 6969,
  "\u2581desirable": 6970,
  "\u2581enduring": 6971,
  "\u25812010": 6972,
  "\u2581Abram": 6973,
  "\u2581Joy": 6974,
  "\u2581eternity": 6975,
  "\u2581incense": 6976,
  "\u2581located": 6977,
  "\u2581overlook": 6978,
  "\u2581average": 6979,
  "\u2581comparison": 6980,
  "\u2581empire": 6981,
  "\u2581expert": 6982,
  "\u2581intimate": 6983,
  "\u2581wrongdoing": 6984,
  "\u2581arrival": 6985,
  "\u2581capable": 6986,
  "\u2581consume": 6987,
  "\u2581observing": 6988,
  "\u2581defeat": 6989,
  "Every": 6990,
  "\u00e6": 6991,
  "\u00f3": 6992,
  "\u2581Gideon": 6993,
  "\u2581Nisan": 6994,
  "\u2581correspond": 6995,
  "\u2581delay": 6996,
  "\u2581disobedience": 6997,
  "\u2581fair": 6998,
  "\u2581famous": 6999,
  "\u2581maturity": 7000,
  "\u2581Court": 7001,
  "\u2581Greece": 7002,
  "\u2581atmosphere": 7003,
  "\u2581depict": 7004,
  "\u2581depression": 7005,
  "\u2581disobey": 7006,
  "\u2581Illustrate": 7007,
  "\u2581fresh": 7008,
  "\u2581lips": 7009,
  "\u2581mislead": 7010,
  "\u2581Jephthah": 7011,
  "\u2581Rich": 7012,
  "\u2581Samaritan": 7013,
  "\u2581absorb": 7014,
  "\u2581hidden": 7015,
  "\u2581proverb": 7016,
  "\u2581refrain": 7017,
  "\u2581session": 7018,
  "\u2581sufficient": 7019,
  "\u2581valid": 7020,
  "\u2581verb": 7021,
  "\u2581visible": 7022,
  "\u2581addict": 7023,
  "\u2581argument": 7024,
  "\u2581disagree": 7025,
  "\u2581stage": 7026,
  "craft": 7027,
  "\u2581disappointment": 7028,
  "\u2581rebellious": 7029,
  "\u2581strict": 7030,
  "ncient": 7031,
  "upreme": 7032,
  "\u2581amazing": 7033,
  "\u2581desperate": 7034,
  "\u2581guest": 7035,
  "\u2581rapid": 7036,
  "\u2581smoking": 7037,
  "\u2581Please": 7038,
  "\u2581adhere": 7039,
  "\u2581capacity": 7040,
  "\u2581inspiring": 7041,
  "\u2581isolated": 7042,
  "\u2581sharp": 7043,
  "\u2581terrible": 7044,
  "doubtedly": 7045,
  "\u2581compromise": 7046,
  "\u2581ethnic": 7047,
  "\u2581murmur": 7048,
  "\u2581outlook": 7049,
  "\u2581February": 7050,
  "\u2581anxieties": 7051,
  "\u2581board": 7052,
  "\u2581exciting": 7053,
  "\u2581expense": 7054,
  "\u2581hesitate": 7055,
  "\u2581infant": 7056,
  "\u2581phrase": 7057,
  "\u25812012": 7058,
  "\u2581bank": 7059,
  "\u2581chariot": 7060,
  "\u2581ensure": 7061,
  "\u2581lamp": 7062,
  "\u2581wound": 7063,
  "\u2581Britain": 7064,
  "\u2581Josiah": 7065,
  "\u2581Michael": 7066,
  "\u2581Shepherd": 7067,
  "\u2581attribute": 7068,
  "\u2581extensive": 7069,
  "\u2581journal": 7070,
  "\u2581remark": 7071,
  "\u2581Power": 7072,
  "\u2581Sodom": 7073,
  "critical": 7074,
  "\u2581Esau": 7075,
  "\u2581Next": 7076,
  "\u2581boast": 7077,
  "\u2581exchange": 7078,
  "\u2581satisfy": 7079,
  "\u2581smoke": 7080,
  "\u2581Bethlehem": 7081,
  "\u2581dominate": 7082,
  "\u2581educat": 7083,
  "\u2581minor": 7084,
  "\u2581repair": 7085,
  "\u2581snare": 7086,
  "\u2581virtue": 7087,
  "\u2581America": 7088,
  "\u2581Cyrus": 7089,
  "\u2581Encyclopedia": 7090,
  "\u2581Three": 7091,
  "\u2581declaring": 7092,
  "\u2581examination": 7093,
  "\u2581immediate": 7094,
  "\u2581uncertain": 7095,
  "dicating": 7096,
  "\u2581Marriage": 7097,
  "\u2581abusive": 7098,
  "\u2581criminal": 7099,
  "\u2581excel": 7100,
  "\u2581female": 7101,
  "\u2581intelligent": 7102,
  "\u2581photo": 7103,
  "\u2581push": 7104,
  "\u2581Rebekah": 7105,
  "\u2581acquainted": 7106,
  "\u2581coast": 7107,
  "\u2581portray": 7108,
  "\u2581purchase": 7109,
  "\u2581testimony": 7110,
  "\u2581Trinity": 7111,
  "\u2581Walk": 7112,
  "\u2581afford": 7113,
  "\u2581celebration": 7114,
  "\u2581cooperate": 7115,
  "\u2581cultivating": 7116,
  "\u2581exclusive": 7117,
  "\u2581philosophy": 7118,
  "\u2581restrain": 7119,
  "\u2581unusual": 7120,
  "Why": 7121,
  "\u2581Stephen": 7122,
  "\u2581abroad": 7123,
  "\u2581adapt": 7124,
  "\u2581compel": 7125,
  "\u2581multitude": 7126,
  "\u2581sail": 7127,
  "\u2581scientific": 7128,
  "\u2581valley": 7129,
  "\u2581assemblies": 7130,
  "\u2581middle": 7131,
  "\u2581restoration": 7132,
  "\u2581stream": 7133,
  "\u2581Judas": 7134,
  "\u2581necessarily": 7135,
  "\u2581parallel": 7136,
  "\u2581preparation": 7137,
  "\u2581Jehu": 7138,
  "\u2581Leader": 7139,
  "\u2581Rahab": 7140,
  "\u2581argue": 7141,
  "\u2581asleep": 7142,
  "\u2581extraordinary": 7143,
  "\u2581possibility": 7144,
  "\u2581slander": 7145,
  "\u2581steward": 7146,
  "\u2581summer": 7147,
  "\u2581Elders": 7148,
  "\u2581Listen": 7149,
  "\u2581conceal": 7150,
  "\u2581deliberate": 7151,
  "\u2581feast": 7152,
  "\u2581hinder": 7153,
  "\u2581hunger": 7154,
  "\u2581shield": 7155,
  "\u2581terror": 7156,
  "\u2581unselfish": 7157,
  "\u2581voluntary": 7158,
  "\u2581Knowledge": 7159,
  "\u2581Lessons": 7160,
  "\u2581Purpose": 7161,
  "\u2581declaration": 7162,
  "\u2581marital": 7163,
  "\u2581supplies": 7164,
  "\u2581International": 7165,
  "\u2581Living": 7166,
  "\u2581prize": 7167,
  "\u2581prophesied": 7168,
  "\u2581roof": 7169,
  "\u2581trustworthy": 7170,
  "\u2581(2)": 7171,
  "\u2581Above": 7172,
  "\u2581GOD": 7173,
  "\u2581HAVE": 7174,
  "\u2581Published": 7175,
  "\u2581black": 7176,
  "\u2581catch": 7177,
  "\u2581construct": 7178,
  "\u2581domestic": 7179,
  "\u2581empower": 7180,
  "\u2581headquarters": 7181,
  "\u2581qualify": 7182,
  "\u2581structure": 7183,
  "\u2581unwise": 7184,
  "\u2581urgency": 7185,
  "wept": 7186,
  "\u2581Boaz": 7187,
  "\u2581Zephaniah": 7188,
  "\u2581crown": 7189,
  "\u2581engaging": 7190,
  "\u2581excuse": 7191,
  "\u2581experiencing": 7192,
  "\u2581smile": 7193,
  "\u2581Avoid": 7194,
  "\u2581Baruch": 7195,
  "\u2581PRO": 7196,
  "\u2581adolescent": 7197,
  "\u2581imprisoned": 7198,
  "\u2581precise": 7199,
  "\u2581refine": 7200,
  "\u2581resurrect": 7201,
  "\u2581taste": 7202,
  "\u2581television": 7203,
  "\u2581thorn": 7204,
  "\u2581wrongdoer": 7205,
  "\u2581Consequently": 7206,
  "\u2581Religion": 7207,
  "\u2581Truly": 7208,
  "\u2581base": 7209,
  "\u2581prais": 7210,
  "\u2581sorrow": 7211,
  "\u2581widespread": 7212,
  "kept": 7213,
  "\u2581LIFE": 7214,
  "\u2581Nebuchadnezzar": 7215,
  "\u2581Russell": 7216,
  "\u2581Speaking": 7217,
  "\u2581clay": 7218,
  "\u2581definite": 7219,
  "\u2581hungry": 7220,
  "\u2581imitating": 7221,
  "\u2581laugh": 7222,
  "\u2581supplication": 7223,
  "\u2581tragic": 7224,
  "\u2581Haggai": 7225,
  "\u2581courtyard": 7226,
  "\u2581division": 7227,
  "\u2581haughty": 7228,
  "\u2581improper": 7229,
  "\u2581utmost": 7230,
  "\u2581Chinese": 7231,
  "\u2581funeral": 7232,
  "\u2581offense": 7233,
  "\u2581Nineveh": 7234,
  "\u2581Reflect": 7235,
  "\u2581SEE": 7236,
  "\u2581accusation": 7237,
  "\u2581enhance": 7238,
  "\u2581indication": 7239,
  "\u2581politics": 7240,
  "\u2581WHEN": 7241,
  "\u2581fiery": 7242,
  "\u2581reassure": 7243,
  "\u2581Barnabas": 7244,
  "\u2581Happiness": 7245,
  "\u2581Loyal": 7246,
  "\u2581appreciative": 7247,
  "\u2581assert": 7248,
  "\u2581central": 7249,
  "\u2581changing": 7250,
  "\u2581chaste": 7251,
  "\u2581continually": 7252,
  "\u2581dispute": 7253,
  "\u2581target": 7254,
  "\u2581thrilling": 7255,
  "\u2581typical": 7256,
  "\u2581vain": 7257,
  "\u2581Reign": 7258,
  "\u2581border": 7259,
  "\u2581deception": 7260,
  "\u2581floor": 7261,
  "\u2581FROM": 7262,
  "\u2581associating": 7263,
  "\u2581concentration": 7264,
  "\u2581delegate": 7265,
  "\u2581despise": 7266,
  "\u2581duties": 7267,
  "\u2581sibling": 7268,
  "\u2581stretch": 7269,
  "\u2581Maintain": 7270,
  "\u2581elevat": 7271,
  "\u2581route": 7272,
  "\u2581thirst": 7273,
  "\u2581Additionally": 7274,
  "\u2581Angel": 7275,
  "\u2581Author": 7276,
  "\u2581continuing": 7277,
  "\u2581derive": 7278,
  "\u2581examining": 7279,
  "\u2581fashion": 7280,
  "\u2581match": 7281,
  "\u2581outcry": 7282,
  "\u2581shadow": 7283,
  "\u2581vivid": 7284,
  "\u2581Korea": 7285,
  "\u2581cycle": 7286,
  "\u2581double": 7287,
  "\u2581hoping": 7288,
  "\u2581movie": 7289,
  "\u2581tragedy": 7290,
  "\u2581wholeheartedly": 7291,
  "\u2581Imitate": 7292,
  "\u2581University": 7293,
  "\u2581contract": 7294,
  "\u2581exploit": 7295,
  "\u2581gentle": 7296,
  "\u2581logical": 7297,
  "\u2581practicing": 7298,
  "\u2581twice": 7299,
  "\u2581commercial": 7300,
  "\u2581dishonest": 7301,
  "\u2581embarrass": 7302,
  "\u2581funds": 7303,
  "\u2581imagin": 7304,
  "\u2581memories": 7305,
  "\u2581observance": 7306,
  "\u2581ponder": 7307,
  "\u2581profit": 7308,
  "\u2581remote": 7309,
  "\u2581slaughter": 7310,
  "\u2581striving": 7311,
  "\u00f6": 7312,
  "\u2581Review": 7313,
  "\u2581Samaria": 7314,
  "\u2581globe": 7315,
  "\u2581immense": 7316,
  "\u2581march": 7317,
  "\u2581sanctified": 7318,
  "\u2581Millions": 7319,
  "\u2581Republic": 7320,
  "\u2581WAS": 7321,
  "\u2581holiness": 7322,
  "\u2581reserved": 7323,
  "\u2581silence": 7324,
  "\u2581telephone": 7325,
  "\u2581Example": 7326,
  "\u2581Serving": 7327,
  "\u2581Simon": 7328,
  "\u2581disposition": 7329,
  "\u2581independent": 7330,
  "\u2581injury": 7331,
  "\u2581milk": 7332,
  "\u2581plenty": 7333,
  "\u2581unscriptural": 7334,
  "break": 7335,
  "\u2581Article": 7336,
  "\u2581corner": 7337,
  "\u2581depressed": 7338,
  "\u00e3": 7339,
  "\u2581Absalom": 7340,
  "\u2581Theocratic": 7341,
  "\u2581commemorat": 7342,
  "\u2581contradict": 7343,
  "\u2581decisive": 7344,
  "\u2581enlighten": 7345,
  "\u2581happily": 7346,
  "\u2581judicial": 7347,
  "\u2581philosopher": 7348,
  "\u2581producing": 7349,
  "\u2581pull": 7350,
  "\u2581space": 7351,
  "\u2581stumbling": 7352,
  "\u2581ANSWER": 7353,
  "\u2581conquest": 7354,
  "\u2581medicine": 7355,
  "\u25811999": 7356,
  "\u2581George": 7357,
  "\u2581London": 7358,
  "\u2581Sinai": 7359,
  "\u2581conscientious": 7360,
  "\u2581dedicate": 7361,
  "\u2581merchant": 7362,
  "\u2581operate": 7363,
  "\u2581persuade": 7364,
  "\u2581relax": 7365,
  "\u2581Professor": 7366,
  "\u2581Sanhedrin": 7367,
  "\u2581apostasy": 7368,
  "\u2581captivity": 7369,
  "\u2581convince": 7370,
  "\u2581disrespect": 7371,
  "\u2581magnificent": 7372,
  "\u2581territories": 7373,
  "$": 7374,
  "\u2581British": 7375,
  "\u2581Divine": 7376,
  "\u2581ISSUE": 7377,
  "\u2581caution": 7378,
  "\u2581constitute": 7379,
  "\u2581desert": 7380,
  "\u2581esteem": 7381,
  "\u2581Alexander": 7382,
  "\u2581fascinat": 7383,
  "\u2581gross": 7384,
  "\u2581disappear": 7385,
  "\u2581fifth": 7386,
  "\u2581heartwarming": 7387,
  "\u2581inspiration": 7388,
  "\u2581interview": 7389,
  "\u2581struggling": 7390,
  "\u2581volume": 7391,
  "\u2581climate": 7392,
  "\u2581excessive": 7393,
  "\u2581memorial": 7394,
  "\u2581pregnant": 7395,
  "\u2581resentment": 7396,
  "\u2581perspective": 7397,
  "\u2581promot": 7398,
  "\u01d2": 7399,
  "\u00ea": 7400,
  "\u00ee": 7401,
  "\u00e0": 7402,
  "\u00a9": 7403,
  "\u0142": 7404,
  "\u00e2": 7405,
  "\u01d0": 7406,
  "\u00fb": 7407,
  "\u012a": 7408,
  "\u02bc": 7409,
  "\u2581acknowledg": 7410,
  "\u00c1": 7411,
  "\u00e7": 7412,
  "\u05d4": 7413,
  "\u25cb": 7414,
  "\u00f1": 7415,
  "\u25ef": 7416,
  "\u00ef": 7417,
  "\u00eb": 7418,
  "\u25c6": 7419,
  "\u00b0": 7420,
  "&": 7421,
  "\u00e4": 7422,
  "%": 7423,
  "\u05d9": 7424,
  "\u05d5": 7425,
  "\u010d": 7426,
  "\u02bd": 7427,
  "\u0103": 7428,
  "\u011b": 7429,
  "\u25b8": 7430,
  "\u25c7": 7431,
  "\u01d4": 7432,
  "\u0161": 7433,
  "-": 7434,
  "\u25b6": 7435,
  "=": 7436,
  "\u2714": 7437,
  "\u00df": 7438,
  "\u00f8": 7439,
  "\u00c8": 7440,
  "\u00d4": 7441,
  "\u00fd": 7442,
  "#": 7443,
  "\u00c2": 7444,
  "\u017d": 7445,
  "\u0306": 7446,
  "\u00ad": 7447,
  "\u00cd": 7448,
  "\u00e5": 7449,
  "\u2192": 7450,
  "\u2212": 7451,
  "\u05c1": 7452,
  "\u05e0": 7453,
  "\u05e4": 7454,
  "\u05e9": 7455,
  "\u2756": 7456,
  "\u0301": 7457,
  "\u201b": 7458,
  "\u00c5": 7459,
  "\u015e": 7460,
  "\u0160": 7461,
  "\u017b": 7462,
  "\u017c": 7463,
  "\u05b9": 7464,
  "\u2190": 7465,
  "\u261e": 7466,
  "\u00f9": 7467,
  "\u0153": 7468,
  "\u20ac": 7469,
  "\u25d7": 7470,
  "\u2751": 7471,
  "+": 7472,
  "\u00c3": 7473,
  "\u00d3": 7474,
  "\u0105": 7475,
  "\u0107": 7476,
  "\u0131": 7477,
  "\u0141": 7478,
  "\u0144": 7479,
  "\u015f": 7480,
  "\u0317": 7481,
  "\u05b0": 7482,
  "\u1e24": 7483,
  "\u1e25": 7484,
  "\u2044": 7485,
  "\u00c0": 7486,
  "\u0100": 7487,
  "\u0112": 7488,
  "\u0115": 7489,
  "\u21e8": 7490,
  "@": 7491,
  "\u00a1": 7492,
  "\u00c4": 7493,
  "\u00cf": 7494,
  "\u00d6": 7495,
  "\u00da": 7496,
  "\u00ec": 7497,
  "\u00f2": 7498,
  "\u0119": 7499,
  "\u014c": 7500,
  "\u015b": 7501,
  "\u016f": 7502,
  "\u017a": 7503,
  "\u017e": 7504,
  "\u01cd": 7505,
  "\u0226": 7506,
  "\u05b8": 7507,
  "\u1e6c": 7508,
  "\u20a6": 7509,
  "\u2191": 7510,
  "\u2193": 7511,
  "(": 7512,
  "\\": 7513,
  "\u00a3": 7514,
  "\u00c7": 7515,
  "\u00ca": 7516,
  "\u00d1": 7517,
  "\u00dc": 7518,
  "\u010a": 7519,
  "\u016d": 7520,
  "\u01d1": 7521,
  "\u02ba": 7522,
  "\u0307": 7523,
  "\u203a": 7524,
  "\u21e9": 7525,
  "\u25a0": 7526,
  "<pad>": 7527
}