{
  "</s>": 0,
  "<unk>": 1,
  "\u2581na": 2,
  ",": 3,
  ".": 4,
  "\u2581ya": 5,
  "\u2581\"": 6,
  "\u2581the": 7,
  "\u2581to": 8,
  "\u2581oyo": 9,
  "\u2581of": 10,
  "\u2581mpe": 11,
  "\u2581and": 12,
  "\u2581-": 13,
  "?": 14,
  "\u2581in": 15,
  "\u2581ete": 16,
  ":": 17,
  "\u2581a": 18,
  "\u2581yango": 19,
  "\u2581te": 20,
  "\u2581ye": 21,
  "s": 22,
  "\u2581that": 23,
  "\u2581mpo": 24,
  "\u2581ezali": 25,
  "\u2581moko": 26,
  "\u2581is": 27,
  "\u2581bato": 28,
  "'": 29,
  "\u2581bango": 30,
  "\u2581": 31,
  "\u2581biso": 32,
  "\u2581for": 33,
  "\u2581Jehovah": 34,
  "\u2581Nzambe": 35,
  "\u2581Na": 36,
  "\u2581Yehova": 37,
  "\u2581mingi": 38,
  "\u2581nini": 39,
  "\u2581God": 40,
  "\u2581his": 41,
  "\u2581was": 42,
  "\u2581ntango": 43,
  "\u2581with": 44,
  "\u2581be": 45,
  "\u2581nyonso": 46,
  "\u2581we": 47,
  "\u2581makambo": 48,
  "i": 49,
  "\u2581mosusu": 50,
  "\u2581not": 51,
  "\u2581I": 52,
  "\u2581you": 53,
  "\u2581as": 54,
  "\u2581on": 55,
  "\u2581ndenge": 56,
  "\u2581wana": 57,
  "\u2581are": 58,
  "\u2581he": 59,
  "\u2581The": 60,
  "\u2581have": 61,
  "\u2581ngai": 62,
  "\u2581will": 63,
  "\u2581mpenza": 64,
  ";": 65,
  "\u2581malamu": 66,
  "\u2581it": 67,
  "\u2581bazali": 68,
  "\u2581(": 69,
  "a": 70,
  "\u2581'": 71,
  "\u2581moto": 72,
  "\u2581[": 73,
  "\u2581by": 74,
  "\u2581kati": 75,
  "\u2581from": 76,
  "\u2581yo": 77,
  "\u2581Biblia": 78,
  "\u2581kosala": 79,
  "\u2581Bible": 80,
  "!": 81,
  "\u2581their": 82,
  "\u2581Yesu": 83,
  "\u2581azali": 84,
  "\u2581Jesus": 85,
  "\u2581they": 86,
  "\u2581our": 87,
  "\u2581who": 88,
  "\u2581azalaki": 89,
  ")": 90,
  "\u2581can": 91,
  "\u2581bazalaki": 92,
  "\u2581ezalaki": 93,
  "\u2581soki": 94,
  "\u2581or": 95,
  "\u2581us": 96,
  "\u2581lokola": 97,
  "\u2581this": 98,
  "\u25811": 99,
  "ing": 100,
  "\u2581mosala": 101,
  "\u2581were": 102,
  "\u2581what": 103,
  "\u2581likambo": 104,
  "\u2581liboso": 105,
  "\u2581epai": 106,
  "\u2581had": 107,
  "\u2581do": 108,
  "\u2581all": 109,
  "\u2581What": 110,
  "\u2581one": 111,
  "\u2581ntina": 112,
  "\u2581bomoi": 113,
  "\u2581at": 114,
  "\u2581makasi": 115,
  "\u2581your": 116,
  "]": 117,
  "\u2581nde": 118,
  "e": 119,
  "\u2581boye": 120,
  "\u2581them": 121,
  "\u2581people": 122,
  "\u2581In": 123,
  "\u2581mabe": 124,
  "\u2581him": 125,
  "\u2581an": 126,
  "\u2581kozala": 127,
  "\u2581about": 128,
  "\u2581ekoki": 129,
  "\u2581nsima": 130,
  "\u2581my": 131,
  "\u2581kasi": 132,
  "\u2581motema": 133,
  "\u2581has": 134,
  "\u2581would": 135,
  "\u2581mokili": 136,
  "\u2581when": 137,
  "\u2581solo": 138,
  "\u2581Kasi": 139,
  "\u2581Mpo": 140,
  "\u2581time": 141,
  "\u2581did": 142,
  "\u2581How": 143,
  "\u2581mbala": 144,
  "\u2581bongo": 145,
  "\u2581kaka": 146,
  "\u2581A": 147,
  "\u2581elimo": 148,
  "\u2581esika": 149,
  "\u2581but": 150,
  "\u2581life": 151,
  "\u2581may": 152,
  "\u2581lisusu": 153,
  "\u2581nzela": 154,
  "\u2581tozali": 155,
  "\u2581bana": 156,
  "\u2581so": 157,
  "\u2581monene": 158,
  "\u2581me": 159,
  "\u2581those": 160,
  "\u2581kopesa": 161,
  "\u2581alobaki": 162,
  "\u2581He": 163,
  "\u2581Ntango": 164,
  "\u2581kozwa": 165,
  "\u2581more": 166,
  "\u2581likol\u00f3": 167,
  "\u2581mwasi": 168,
  "\u2581also": 169,
  "\u2581her": 170,
  "\u2581ndakisa": 171,
  "\u2581some": 172,
  "\u2581mobimba": 173,
  "ka": 174,
  "\u2581koleka": 175,
  "\u0301": 176,
  "\u2581Soki": 177,
  "\u2581koloba": 178,
  "\u2581been": 179,
  "\u2581mwa": 180,
  "\u2581n\u00e1": 181,
  "\u2581makanisi": 182,
  "\u2581out": 183,
  "\u2581mbula": 184,
  "\u2581Witnesses": 185,
  "\u2581mokolo": 186,
  "\u2581many": 187,
  "\u2581esengo": 188,
  "\u2581It": 189,
  "\u2581such": 190,
  "\u2581maloba": 191,
  "\u2581kondima": 192,
  "\u2581Ndeng": 193,
  "\u2581how": 194,
  "\u2581ata": 195,
  "\u2581help": 196,
  "\u2581bino": 197,
  "\u2581good": 198,
  "\u2581up": 199,
  "\u2581mpasi": 200,
  "\u2581moke": 201,
  "\u2581/": 202,
  "\u2581lokasa": 203,
  "\u2581Yango": 204,
  "\u2581no": 205,
  "\u2581there": 206,
  "\u2581Paul": 207,
  "\u2581Batatoli": 208,
  "\u2581We": 209,
  "\u2581Paulo": 210,
  "\u2581biloko": 211,
  "\"": 212,
  "\u2581said": 213,
  "\u2581koyeba": 214,
  "\u2581should": 215,
  "b": 216,
  "\u2581love": 217,
  "\u2581things": 218,
  "\u2581way": 219,
  "\u2581komonisa": 220,
  "\u2581kosalela": 221,
  "\u2581if": 222,
  "\u2581bandeko": 223,
  "\u2581work": 224,
  "\u2581mibale": 225,
  "\u2581does": 226,
  "\u2581other": 227,
  "\u2581world": 228,
  "\u25815": 229,
  "\u2581libota": 230,
  "\u25812": 231,
  "\u2581tokoki": 232,
  "\u2581ndako": 233,
  "\u2581kosalisa": 234,
  "\u2581than": 235,
  "\u2581nzoto": 236,
  "\u2581Christian": 237,
  "\u2581even": 238,
  "\u2581could": 239,
  "\u2581mposa": 240,
  "\u2581mwana": 241,
  "\u2581man": 242,
  "\u2581day": 243,
  "\u2581When": 244,
  "\u2581years": 245,
  "\u2581these": 246,
  "\u258115": 247,
  "\u2581But": 248,
  "\u2581elongo": 249,
  "\u2581bolingo": 250,
  "\u2581into": 251,
  "\u2581which": 252,
  "\u2581make": 253,
  "\u2581lolenge": 254,
  "\u2581mobali": 255,
  "\u2581sembo": 256,
  "\u2581kosakola": 257,
  "\u2581elobi": 258,
  "\u2581baoyo": 259,
  "\u2581earth": 260,
  "\u2581page": 261,
  "ed": 262,
  "\u2581she": 263,
  "\u2581Why": 264,
  "\u2581Christians": 265,
  "\u2581tosengeli": 266,
  "\u2581first": 267,
  "\u2581They": 268,
  "\u2581Christ": 269,
  "\u2581Lokola": 270,
  "\u2581This": 271,
  "\u2581lisang\u00e1": 272,
  "\u2581Kingdom": 273,
  "\u2581For": 274,
  "\u2581To": 275,
  "\u2581Bokonzi": 276,
  "\u2581mayele": 277,
  "\u2581others": 278,
  "ly": 279,
  "\u2581mikolo": 280,
  "\u2581komona": 281,
  "\u2581Bato": 282,
  "\u2581mpamba": 283,
  "\u2581children": 284,
  "\u25813:": 285,
  "\u2581because": 286,
  "\u2581only": 287,
  "\u2581family": 288,
  "\u2581says": 289,
  "Ezali": 290,
  "\u2581faith": 291,
  "\u2581spirit": 292,
  "\u2581need": 293,
  "\u2581made": 294,
  "\u2581nkombo": 295,
  "\u2581ba": 296,
  "\u2581baklisto": 297,
  "\u2581kozanga": 298,
  "...": 299,
  "\u2581nsuka": 300,
  "\u2581As": 301,
  "\u2581being": 302,
  "the": 303,
  "\u2581E": 304,
  "\u25812:": 305,
  "\u2581lelo": 306,
  "\u2581mboka": 307,
  "\u2581L": 308,
  "\u2581example": 309,
  "\u2581must": 310,
  "\u2581If": 311,
  "\u2581bakoki": 312,
  "\u2581akoki": 313,
  "\u2581kala": 314,
  "\u2581over": 315,
  "\u2581Ba": 316,
  "\u2581Atako": 317,
  "\u2581*": 318,
  "\u2581like": 319,
  "\u2581nsango": 320,
  "\u2581koyekola": 321,
  "\u2581Nzokande": 322,
  "\u2581ebele": 323,
  "\u2581see": 324,
  "\u2581apesaki": 325,
  "\u2581then": 326,
  "\u2581congregation": 327,
  "\u2581You": 328,
  "\u2581naino": 329,
  "\u2581nazalaki": 330,
  "\u2581know": 331,
  "\u25814": 332,
  "\u2581spiritual": 333,
  "\u2581misala": 334,
  "\u2581ozali": 335,
  "\u25817": 336,
  "\u2581Klisto": 337,
  "\u2581eleki": 338,
  "\u2581sika": 339,
  "\u2581emonisi": 340,
  "\u2581asalaki": 341,
  "\u2581its": 342,
  "\u2581eloko": 343,
  "\u2581true": 344,
  "\u2581come": 345,
  "\u2581koluka": 346,
  "\u2581well": 347,
  "\u2581elikya": 348,
  "\u2581take": 349,
  "\u2581basi": 350,
  "\u2581words": 351,
  "\u2581just": 352,
  "\u2581own": 353,
  "\u2022": 354,
  "\u2581death": 355,
  "\u2581bobele": 356,
  "\u2581And": 357,
  "\u2581mawa": 358,
  "\u2581become": 359,
  "\u2581basusu": 360,
  "\u2581heart": 361,
  "\u2581after": 362,
  "\u2581before": 363,
  "t": 364,
  "\u2581ones": 365,
  "\u2581Ya": 366,
  "\u25816:": 367,
  "\u2581mabel\u00e9": 368,
  "\u2581men": 369,
  "\u2581now": 370,
  "\u2581polele": 371,
  "\u2581mokano": 372,
  "\u2581John": 373,
  "\u2581baninga": 374,
  "\u2581bayekoli": 375,
  "\u2581two": 376,
  "\u2581alobi": 377,
  "\u2581new": 378,
  "E": 379,
  "\u2581any": 380,
  "\u2581another": 381,
  "\u2581kokanisa": 382,
  "\u2581mokonzi": 383,
  "\u2581M": 384,
  "\u2581Liloba": 385,
  "\u2581mateya": 386,
  "\u2581kotalela": 387,
  "\u2581very": 388,
  "\u2581kitoko": 389,
  "\u2581esengeli": 390,
  "\u2581mbongo": 391,
  "\u2581name": 392,
  "\u2581engumba": 393,
  "\u2581give": 394,
  "\u2581nguya": 395,
  "\u2581etali": 396,
  "\u2581kolanda": 397,
  "\u2581boumeli": 398,
  "\u258112": 399,
  "d": 400,
  "\u2581ek\u00f3lo": 401,
  "\u2581mai": 402,
  "\u2581study": 403,
  "\u2581B": 404,
  "\u2581through": 405,
  "\u2581much": 406,
  "\u2581truth": 407,
  "\u2581That": 408,
  "\u2581awa": 409,
  "\u2581mikakatano": 410,
  "\u2581times": 411,
  "\u2581person": 412,
  "\u2581baboti": 413,
  "\u2581miso": 414,
  "\u2581Picture": 415,
  "\u2581basaleli": 416,
  "\u2581kimya": 417,
  "\u2581today": 418,
  "\u2581kokende": 419,
  "\u2581might": 420,
  "\u2581So": 421,
  "\u2581boyokani": 422,
  "na": 423,
  "\u2581great": 424,
  "\u258120": 425,
  "\u2581parents": 426,
  "\u2581mibali": 427,
  "\u25811,": 428,
  "\u2581bambula": 429,
  "\u2581brothers": 430,
  "\u2581basengeli": 431,
  "\u258114": 432,
  "\u2581Word": 433,
  "\u258110": 434,
  "\u2581David": 435,
  "\u2581most": 436,
  "\u2581Satana": 437,
  "ma": 438,
  "\u2581kot\u00e1nga": 439,
  "\u2581mikanda": 440,
  "\u2581toli": 441,
  "I": 442,
  "\u2581mabele": 443,
  "\u2581koyoka": 444,
  "\u2581part": 445,
  "\u2581kotala": 446,
  "\u2581found": 447,
  "\u2581mpiko": 448,
  "\u2581koteya": 449,
  "\u2581mokanda": 450,
  "\u2581misato": 451,
  "\u2581ndeko": 452,
  "\u2581ntembe": 453,
  "\u2581bizaleli": 454,
  "\u2581ezalaka": 455,
  "\u2581One": 456,
  "\u2581say": 457,
  "\u2581find": 458,
  "\u2581where": 459,
  "\u2581Satan": 460,
  "\u2581apostle": 461,
  "\u2581Israel": 462,
  "\u2581losambo": 463,
  "\u2581bokonzi": 464,
  "\u2581each": 465,
  "\u2581feel": 466,
  "\u2581lisolo": 467,
  "\u2581against": 468,
  "B": 469,
  "\u2581Elilingi": 470,
  "\u2581tii": 471,
  "\u2581young": 472,
  "\u2581home": 473,
  "\u2581kotya": 474,
  "\u2581okoki": 475,
  "\u2581himself": 476,
  "\u2581human": 477,
  "\u2581mobu": 478,
  "\u2581akomaki": 479,
  "\u2581Davidi": 480,
  "\u2581mibeko": 481,
  "\u2581Likambo": 482,
  "\u2581liwa": 483,
  "\u2581C": 484,
  "\u2581book": 485,
  "\u2581year": 486,
  "\u2581ekozala": 487,
  "\u2581use": 488,
  "\u2581However": 489,
  "\u2581nse": 490,
  "\u2581keep": 491,
  "\u2581bisika": 492,
  "\u2581bosembo": 493,
  "\u2581Yoane": 494,
  "\u2581Maloba": 495,
  "\u2581learn": 496,
  "\u2581wrote": 497,
  "\u2581ebongi": 498,
  "\u2581Peter": 499,
  "o": 500,
  "\u2581boboto": 501,
  "\u2581likebi": 502,
  "\u2581means": 503,
  "\u2581ezala": 504,
  "\u2581Do": 505,
  "\u2581libala": 506,
  "\u2581worship": 507,
  "\u2581kok\u00f3ma": 508,
  "\u2581never": 509,
  "\u2581T": 510,
  "\u2581same": 511,
  "\u2581long": 512,
  "\u2581end": 513,
  "\u2581show": 514,
  "\u2581used": 515,
  "),": 516,
  "\u2581mangomba": 517,
  "\u2581kofanda": 518,
  "\u2581though": 519,
  "\u2581upon": 520,
  "\u2581right": 521,
  "\u2581why": 522,
  "\u2581maladi": 523,
  "\u2581kobatela": 524,
  "\u2581put": 525,
  "\u2581Tata": 526,
  "\u2581New": 527,
  "\u2581place": 528,
  "\u2581Some": 529,
  "\u2581read": 530,
  "\u2581Makambo": 531,
  "\u2581Nzembo": 532,
  "\u2581ekateli": 533,
  "\u2581\u25a1": 534,
  "\u2581ebandeli": 535,
  "\u2581e": 536,
  "n": 537,
  "\u2581lingomba": 538,
  "\u2581came": 539,
  "\u2581O": 540,
  "\u2581Father": 541,
  "\u2581became": 542,
  "\u2581motuya": 543,
  "\u2581At": 544,
  "\u2581Mbala": 545,
  "\u2581After": 546,
  "\u2581word": 547,
  "\u2581ezaleli": 548,
  "\u25813": 549,
  "\u2581Moto": 550,
  "\u2581under": 551,
  "\u2581go": 552,
  "\u2581Bayuda": 553,
  "\u2581faithful": 554,
  "\u2581every": 555,
  "\u2581important": 556,
  "\u2581kokokisa": 557,
  "\u258113": 558,
  "\u2581nazali": 559,
  "\u2581days": 560,
  "\u2581too": 561,
  "\u2581get": 562,
  "\u2581Nsima": 563,
  "\u2581back": 564,
  "\u2581wife": 565,
  "\u2581kuna": 566,
  "\u2581koya": 567,
  "\u2581tozalaki": 568,
  "\u2581course": 569,
  "\u2581Matthew": 570,
  "Yehova": 571,
  "\u2581news": 572,
  "\u2581Mpe": 573,
  "\u2581sanza": 574,
  "\u2581Matai": 575,
  "\u2581elingi": 576,
  "\u2581minene": 577,
  "\u2581ministry": 578,
  "\u2581want": 579,
  "\u2581mab\u0254k\u0254": 580,
  "\u2581often": 581,
  "\u2581amonisaki": 582,
  "\u2581among": 583,
  "\u2581mon\u0254k\u0254": 584,
  "\u2581told": 585,
  "\u2581bilenge": 586,
  "\u2581ak\u00f3maki": 587,
  "\u2581called": 588,
  "The": 589,
  "\u2581mokumba": 590,
  "\u2581down": 591,
  "\u2581during": 592,
  "\u2581makita": 593,
  "\u2581bakonzi": 594,
  "\u2581preaching": 595,
  "\u2581kos\u025bnga": 596,
  "\u2581live": 597,
  "\u258111": 598,
  "\u2581mind": 599,
  "\u2581kino": 600,
  "\u25816": 601,
  "S": 602,
  "\u2581libaku": 603,
  "\u2581away": 604,
  "\u2581hope": 605,
  "\u2581kolobela": 606,
  "\u25814.": 607,
  "\u2581Is": 608,
  "\u2581lokumu": 609,
  "\u2581seko": 610,
  "\u2581later": 611,
  "\u2581kelasi": 612,
  "\u2581began": 613,
  "\u2581Psalm": 614,
  "\u2581ebongiseli": 615,
  "\u2581mbuma": 616,
  "\u2581kosalema": 617,
  "\u2581knowledge": 618,
  "\u2581service": 619,
  "\u2581am": 620,
  "\u25814:": 621,
  "\u2581atako": 622,
  "\u2581view": 623,
  "\u2581holy": 624,
  "\u2581kotosa": 625,
  "\u2581let": 626,
  "\u2581NW": 627,
  "\u2581still": 628,
  "\u2581lokuta": 629,
  "\u2581given": 630,
  "\u2581pene": 631,
  "\u2581serve": 632,
  "\u2581libela": 633,
  "\u2581century": 634,
  "\u2581mama": 635,
  "\u2581boklisto": 636,
  "\u2581kokoka": 637,
  "\u2581motindo": 638,
  "\u2581three": 639,
  "\u2581By": 640,
  "\u2581euti": 641,
  "\u2581themselves": 642,
  "\u2581tata": 643,
  "\u2581elobeli": 644,
  "\u258119": 645,
  "\u2581There": 646,
  "\u25812.": 647,
  "\u2581gave": 648,
  "\u2581doing": 649,
  "\u258122": 650,
  "\u2581mosika": 651,
  "\u2581azwaki": 652,
  "\u2581kosepela": 653,
  "\u2581old": 654,
  "\u00e1k\u00e1": 655,
  "\u2581liloba": 656,
  "\u2581No": 657,
  "\u2581Scriptures": 658,
  "Na": 659,
  "\u2581kolendisa": 660,
  "\u2581elimboli": 661,
  "\u25811:": 662,
  "\u2581ayebisaki": 663,
  "\u2581Makomami": 664,
  "\u2581eleko": 665,
  "\u258110.": 666,
  "y": 667,
  "\u2581peace": 668,
  "\u2581living": 669,
  "\u2581esalemaki": 670,
  "\u2581ntoma": 671,
  "\u2581power": 672,
  "\u2581On": 673,
  "\u2581able": 674,
  "\u25818": 675,
  "\u258125": 676,
  "\u2581amonaki": 677,
  "\u2581disciples": 678,
  "\u2581buku": 679,
  "\u2581Mwana": 680,
  "\u2581house": 681,
  "\u2581set": 682,
  "\u25818.": 683,
  "\u258111:": 684,
  "\u2581His": 685,
  "\u2581basalaki": 686,
  "\u2581boyebi": 687,
  "\u2581bik\u00f3lo": 688,
  "\u2581without": 689,
  "\u2581koyebisa": 690,
  "\u2581mituna": 691,
  "\u2581asengeli": 692,
  "\u2581de": 693,
  "\u2581however": 694,
  "\u2581King": 695,
  "\u2581matomba": 696,
  "\u2581She": 697,
  "\u2581With": 698,
  "\u2581lisalisi": 699,
  "\u2581molai": 700,
  "\u2581Then": 701,
  "\u2581batisimo": 702,
  "\u2581asked": 703,
  "\u2581kotika": 704,
  "\u258114.": 705,
  "\u2581mikili": 706,
  "\u2581Our": 707,
  "\u2581ways": 708,
  "\u258124": 709,
  "\u2581father": 710,
  "\u258113.": 711,
  "\u2581Mokonzi": 712,
  "\u2581full": 713,
  "\u2581making": 714,
  "\u2581always": 715,
  "\u2581mabota": 716,
  "\u2581Lisusu": 717,
  "\u25819": 718,
  "\u2581Ata": 719,
  "\u2581kolya": 720,
  "\u25817.": 721,
  "\u2581makoki": 722,
  "\u2581result": 723,
  "\u2581Yes": 724,
  "\u2581both": 725,
  "\u2581fact": 726,
  "\u2581likoki": 727,
  "\u2581humans": 728,
  "\u2581servants": 729,
  "\u2581ekeke": 730,
  "\u2581loving": 731,
  "\u258112.": 732,
  "\u2581marriage": 733,
  "\u2581bak\u00f3maki": 734,
  "\u2581elenge": 735,
  "\u2581took": 736,
  "\u2581whom": 737,
  "\u2581Yet": 738,
  "\u2581while": 739,
  "\u258111.": 740,
  "\u2581lisumu": 741,
  "\u2581Many": 742,
  "\u2581moninga": 743,
  "\u2581mother": 744,
  "\u25819.": 745,
  "\u2581child": 746,
  "\u258121": 747,
  "\u2581kobanga": 748,
  "\u2581religious": 749,
  "\u2581consider": 750,
  "olenge": 751,
  "\u25815.": 752,
  "\u2581makila": 753,
  "\u2581article": 754,
  "\u2581Jerusalem": 755,
  "\u2581mankind": 756,
  "\u2581order": 757,
  "\u2581hand": 758,
  "\u258116.": 759,
  "\u2581solosolo": 760,
  "\u2581mitema": 761,
  "\u2581S": 762,
  "\u2581kolinga": 763,
  "\u2581think": 764,
  "\u2581likanisi": 765,
  "\u2581Even": 766,
  "\u2581something": 767,
  "\u2581purpose": 768,
  "\u2581mokomoko": 769,
  "\u258117.": 770,
  "\u2581son": 771,
  "\u2581sikoyo": 772,
  "\u2581Yisaya": 773,
  "\u2581husband": 774,
  "\u2581reason": 775,
  "\u25816.": 776,
  "\u2581Lelo": 777,
  "\u2581Petelo": 778,
  "\u2581city": 779,
  "\u2581bilei": 780,
  "\u2581fellow": 781,
  "\u2581alingaki": 782,
  "\u258115.": 783,
  "\u2581really": 784,
  "\u2581Isaiah": 785,
  "\u2581kobongisa": 786,
  "\u2581woman": 787,
  "\u2581joy": 788,
  "\u25813.": 789,
  "\u2581Yisalaele": 790,
  "\u2581future": 791,
  "\u2581kosolola": 792,
  "\u2581personal": 793,
  "\u2581Son": 794,
  "\u2581From": 795,
  "\u258117": 796,
  "\u2581My": 797,
  "\u2581molende": 798,
  "\u2581between": 799,
  "\u2581basalaka": 800,
  "al": 801,
  "\u2581Watchtower": 802,
  "\u2581meetings": 803,
  "\u2581kotambola": 804,
  "\u2581having": 805,
  "\u2581together": 806,
  "\u2581komonana": 807,
  "\u258118": 808,
  "\u2581sin": 809,
  "\u2581NA": 810,
  "\u2581bakristo": 811,
  "\u2581questions": 812,
  "\u2581masolo": 813,
  "\u2581santu": 814,
  "\u2581mazali": 815,
  "\u2581learned": 816,
  "\u2581kobimisa": 817,
  "\u2581brother": 818,
  "\u2581etumba": 819,
  "\u2581Nini": 820,
  "\u2581soko": 821,
  "\u2581toward": 822,
  "\u2581masumu": 823,
  "\u2581mot\u00f3": 824,
  "\u2581Nkolo": 825,
  "\u2581Moses": 826,
  "\u2581Kutu": 827,
  "\u2581heaven": 828,
  "\u2581again": 829,
  "\u2581kokamwa": 830,
  "\u2581happy": 831,
  "\u2581bamposa": 832,
  "si": 833,
  "\u25813,": 834,
  "\u25818:": 835,
  "\u2581prayer": 836,
  "\u2581koboma": 837,
  "\u258130": 838,
  "\u2581someone": 839,
  "\u2581ayebaki": 840,
  "er": 841,
  "\u2581little": 842,
  "\u2581few": 843,
  "\u2581helped": 844,
  "\u2581look": 845,
  "\u2581bring": 846,
  "\u2581Tokoki": 847,
  "\u2581Masese": 848,
  "\u2581elders": 849,
  "\u2581number": 850,
  "\u2581YA": 851,
  "\u2581bankulutu": 852,
  "A": 853,
  "\u2581experience": 854,
  "\u2581felt": 855,
  "T": 856,
  "\u258128": 857,
  "\u2581anointed": 858,
  "\u2581food": 859,
  "\u2581left": 860,
  "\u2581lives": 861,
  "\u2581wisdom": 862,
  "\u2581Proverbs": 863,
  "\u2581counsel": 864,
  "\u2581care": 865,
  "\u2581J\u00e9hovah": 866,
  "\u2581wicked": 867,
  "\u2581kotinda": 868,
  "\u2581nkanda": 869,
  "\u2581needed": 870,
  "\u2581These": 871,
  "\u2581Israelites": 872,
  "\u2581minei": 873,
  "\u2581Tosengeli": 874,
  "\u2581problems": 875,
  "\u2581last": 876,
  "\u2581nations": 877,
  "\u2581teaching": 878,
  "\u2581koboya": 879,
  "Mokolo": 880,
  "\u2581ekosalisa": 881,
  "\u25aa": 882,
  "\u2581fear": 883,
  "\u2581komema": 884,
  "\u2581likama": 885,
  "\u2581banda": 886,
  "\u2581following": 887,
  "\u2581possible": 888,
  "\u258115,": 889,
  "\u2581better": 890,
  "\u2581done": 891,
  "\u2581bwanya": 892,
  "\u2581language": 893,
  "\u2581went": 894,
  "\u2581All": 895,
  "\u2581women": 896,
  "\u2581since": 897,
  "\u2581Ekoki": 898,
  "\u2581different": 899,
  "....": 900,
  "ki": 901,
  "\u2581mobulu": 902,
  "\u258118.": 903,
  "\u2581relationship": 904,
  "\u2581free": 905,
  "\u2581conduct": 906,
  "\u2581known": 907,
  "\u2581face": 908,
  "\u2581Abraham": 909,
  "\u2581boyengebene": 910,
  "\u2581law": 911,
  "th": 912,
  "\u2581Corinthians": 913,
  "\u258116": 914,
  "\u2581bazwaki": 915,
  "\u2581eyes": 916,
  "\u2581continue": 917,
  "\u2581ever": 918,
  "\u25819,": 919,
  "\u2581Greek": 920,
  "\u2581elilingi": 921,
  "\u2581mingimingi": 922,
  "\u2581Timothy": 923,
  "\u2581close": 924,
  "ngi": 925,
  "\u2581off": 926,
  "C": 927,
  "\u2581bad": 928,
  "\u2581thought": 929,
  "\u2581heavenly": 930,
  "\u2581alingi": 931,
  "\u2581believe": 932,
  "\u2581matter": 933,
  "\u2581Let": 934,
  "\u25819:": 935,
  "\u2581kobanda": 936,
  "\u2581message": 937,
  "\u2581malamumalamu": 938,
  "\u25815,": 939,
  "\u2581nor": 940,
  "\u2581best": 941,
  "\u2581cannot": 942,
  "m": 943,
  "\u2581bayebi": 944,
  "\u2581members": 945,
  "\u2581hard": 946,
  "\u2581Yakobo": 947,
  "\u2581kotyela": 948,
  "\u2581system": 949,
  "\u2581water": 950,
  "\u2581World": 951,
  "\u2581understand": 952,
  "\u2581Lord": 953,
  "\u2581komikitisa": 954,
  "\u258129": 955,
  "\u2581ask": 956,
  "\u2581Ntoma": 957,
  "\u2581righteous": 958,
  "\u2581Job": 959,
  "\u2581blood": 960,
  "\u2581Yobo": 961,
  "\u2581Luka": 962,
  "\u2581ek\u00f3maki": 963,
  "\u2581epesaka": 964,
  "\u2581ma": 965,
  "\u2581fine": 966,
  "\u2581Luke": 967,
  "\u2581near": 968,
  "\u2581o": 969,
  "\u2581early": 970,
  "\u2581share": 971,
  "\u2581ancient": 972,
  "\u2581baptized": 973,
  "c": 974,
  "\u2581far": 975,
  "\u2581Misala": 976,
  "\u2581Ndeko": 977,
  "\u2581avoid": 978,
  "\u2581present": 979,
  "\u2581kosilisa": 980,
  "\u2581bandako": 981,
  "\u25816,": 982,
  "\u2581kokutana": 983,
  "\u2581esalisaki": 984,
  "\u2581kobebisa": 985,
  "\u2581money": 986,
  "\u2581Mibeko": 987,
  "\u2581Ye": 988,
  "\u2581Because": 989,
  "\u2581et\u00fak\u00e1": 990,
  "\u2581kokanga": 991,
  "\u2581esengelaki": 992,
  "\u2581religion": 993,
  "\u2581kobongola": 994,
  "\u2581support": 995,
  "\u2581friends": 996,
  "\u2581Thus": 997,
  "\u2581age": 998,
  "\u2581ourselves": 999,
  "\u258123": 1000,
  "\u2581mean": 1001,
  "\u2581Oyo": 1002,
  "\u2581king": 1003,
  "\u2581desire": 1004,
  "\u2581land": 1005,
  "\u2581Revelation": 1006,
  "\u2581until": 1007,
  "\u2581Your": 1008,
  "\u2581bitumba": 1009,
  "\u2581Jews": 1010,
  "\u2581milende": 1011,
  "\u25818,": 1012,
  "\u2581N": 1013,
  "\u2581situation": 1014,
  "\u2581Emoniseli": 1015,
  "\u2581school": 1016,
  "\u258140": 1017,
  "\u2581answer": 1018,
  "\u2581next": 1019,
  "\u2581enjoy": 1020,
  "te": 1021,
  "\u2581ayebi": 1022,
  "\u258120.": 1023,
  "\u2581kobima": 1024,
  "\u2581self": 1025,
  "\u2581kobondela": 1026,
  "\u2581died": 1027,
  "\u2581Yelusaleme": 1028,
  "\u2581Acts": 1029,
  "\u2581basengelaki": 1030,
  "\u258117:": 1031,
  "\u2581saying": 1032,
  "\u2581serving": 1033,
  "\u2581Who": 1034,
  "\u2581Motatoli": 1035,
  "\u2581esalisaka": 1036,
  "\u2581kozela": 1037,
  "\u2581yet": 1038,
  "\u2581difficult": 1039,
  "\u2581benefit": 1040,
  "\u2581speak": 1041,
  "\u2581Moize": 1042,
  "\u2581received": 1043,
  "\u2581saw": 1044,
  "\u258127": 1045,
  "\u258119.": 1046,
  "\u2581James": 1047,
  "\u2581giving": 1048,
  "\u25814,": 1049,
  "\u2581boni": 1050,
  "\u2581Ezalaki": 1051,
  "\u2581dead": 1052,
  "\u2581Alobaki": 1053,
  "\u2581Lingomba": 1054,
  "\u2581Adam": 1055,
  "\u2581certain": 1056,
  "\u2581account": 1057,
  "\u2581boyekoli": 1058,
  "\u2581yourself": 1059,
  "\u2581Although": 1060,
  "\u2581apesi": 1061,
  "\u2581mokakatano": 1062,
  "\u2581body": 1063,
  "\u2581brought": 1064,
  "\u2581especially": 1065,
  "\u2581along": 1066,
  "\u2581kind": 1067,
  "Those": 1068,
  "\u2581akokaki": 1069,
  "\u2581bamonaki": 1070,
  "\u258131": 1071,
  "\u2581Society": 1072,
  "\u2581balobaka": 1073,
  "\u2581nani": 1074,
  "\u258114,": 1075,
  "\u2581around": 1076,
  "\u2581sense": 1077,
  "\u2581Law": 1078,
  "st": 1079,
  "\u2581knew": 1080,
  "\u2581temple": 1081,
  "\u2581penepene": 1082,
  "\u2581mbeka": 1083,
  "\u2581bolamu": 1084,
  "\u2581whole": 1085,
  "\u2581case": 1086,
  "\u2581tempelo": 1087,
  "\u2581komipesa": 1088,
  "\u2581bazalaka": 1089,
  "\u2581mikumba": 1090,
  "Nazali": 1091,
  ").": 1092,
  "\u2581attention": 1093,
  "\u258126": 1094,
  "\u2581light": 1095,
  "\u2581reading": 1096,
  "\u2581mosakoli": 1097,
  "\u2581war": 1098,
  "\u2581wise": 1099,
  "\u2581thus": 1100,
  "\u2581wanted": 1101,
  "\u2581nokinoki": 1102,
  "\u2581states": 1103,
  "\u2581moi": 1104,
  "\u2581litomba": 1105,
  "\u2581Since": 1106,
  "\u2581butu": 1107,
  "\u00e1": 1108,
  "\u2581respect": 1109,
  "\u2581soon": 1110,
  "\u2581se": 1111,
  "\u2581asengelaki": 1112,
  "\u2581mitinda": 1113,
  "\u2581basakoli": 1114,
  "\u2581real": 1115,
  "\u2581Kristo": 1116,
  "\u2581talk": 1117,
  "\u2581bozali": 1118,
  "\u2581high": 1119,
  "\u2581Azalak": 1120,
  "\u2581mosuni": 1121,
  "\u2581etumbu": 1122,
  "\u2581Adama": 1123,
  "\u2581point": 1124,
  "\u2581cause": 1125,
  "to": 1126,
  "\u2581bol\u0254k\u0254": 1127,
  "\u2581liteya": 1128,
  "\u25817,": 1129,
  "\u2581Can": 1130,
  "\u2581taught": 1131,
  "\u2581moved": 1132,
  "\u2581small": 1133,
  "\u2581Of": 1134,
  "\u2581moklisto": 1135,
  "\u2581going": 1136,
  "\u2581question": 1137,
  "\u2581kolimbola": 1138,
  "\u2581Lisolo": 1139,
  "\u2581Okoki": 1140,
  "\u2581kosambela": 1141,
  "\u2581Bayisalaele": 1142,
  "\u2581esili": 1143,
  "\u2581wrong": 1144,
  "in": 1145,
  "\u2581ek\u00f3mi": 1146,
  "\u2581needs": 1147,
  "\u258112:": 1148,
  "\u2581special": 1149,
  "\u2581receive": 1150,
  "\u2581feelings": 1151,
  "\u2581Romans": 1152,
  "\u2581Watch": 1153,
  "\u2581attitude": 1154,
  "\u25812,": 1155,
  "\u2581esalaka": 1156,
  "\u2581follow": 1157,
  "\u2581nzambe": 1158,
  "\u2581suffering": 1159,
  "\u2581asalelaki": 1160,
  "\u2581nkembo": 1161,
  "\u2581sure": 1162,
  "\u2581ngonga": 1163,
  "\u2581b\u00e1zala": 1164,
  "\u2581kotambwisa": 1165,
  "\u2581mike": 1166,
  "\u2581Unis": 1167,
  "\u2581Consider": 1168,
  "\u2581kosangisa": 1169,
  "\u2581including": 1170,
  "\u2581nation": 1171,
  "\u2581basali": 1172,
  "\u2581divine": 1173,
  "\u2581sent": 1174,
  "zalaki": 1175,
  "\u2581eyano": 1176,
  "\u2581basoda": 1177,
  "\u2581000": 1178,
  "\u2581balingaka": 1179,
  "\u2581teach": 1180,
  "\u258112,": 1181,
  "\u2581Tozali": 1182,
  "\u2581trust": 1183,
  "\u2581principles": 1184,
  "\u2581married": 1185,
  "\u2581prophet": 1186,
  "\u2581York": 1187,
  "\u2581Tal\u00e1": 1188,
  "\u2581Creator": 1189,
  "\u2581bo": 1190,
  "\u2581bozwi": 1191,
  "\u2581ndambo": 1192,
  "\u2581kindness": 1193,
  "\u2581Tower": 1194,
  "\u2581etinda": 1195,
  "\u2581turn": 1196,
  "\u2581strong": 1197,
  "\u2581makes": 1198,
  "\u2581provide": 1199,
  "\u2581More": 1200,
  "\u2581kutu": 1201,
  "\u2581Does": 1202,
  "\u258116:": 1203,
  "\u2581mobeko": 1204,
  "\u2581andimaki": 1205,
  "\u2581four": 1206,
  "\u258111,": 1207,
  "\u2581mokapo": 1208,
  "\u258121.": 1209,
  "\u2581followers": 1210,
  "\u2581libondeli": 1211,
  "\u2581kok\u0254ta": 1212,
  "\u2581happiness": 1213,
  "\u2581information": 1214,
  "\u2581Are": 1215,
  "\u2581Daniel": 1216,
  "\u2581thinking": 1217,
  "\u258133": 1218,
  "\u2581Such": 1219,
  "\u2581mitano": 1220,
  "\u2581sheep": 1221,
  "\u2581Timote": 1222,
  "\u258110,": 1223,
  "\u2581likely": 1224,
  "\u2581s": 1225,
  "\u258118:": 1226,
  "\u2581Whil": 1227,
  "\u2581bomoko": 1228,
  "\u2581Mozalisi": 1229,
  "\u2581lead": 1230,
  "\u2581kopona": 1231,
  "\u2581change": 1232,
  "\u2581Footnote": 1233,
  "\u2581mobongisi": 1234,
  "\u2581limemya": 1235,
  "\u2581alingaka": 1236,
  "\u2581kolekisa": 1237,
  "\u2581Salomo": 1238,
  "\u2581alobelaki": 1239,
  "\u2581night": 1240,
  "\u2581false": 1241,
  "\u2581nzete": 1242,
  "\u2581Hebrew": 1243,
  "\u2581bampate": 1244,
  "\u2581act": 1245,
  "\u2581kolonga": 1246,
  "\u2581resurrection": 1247,
  "\u2581bandimi": 1248,
  "\u2581ekokaki": 1249,
  "\u2581heard": 1250,
  "\u2581Solomon": 1251,
  "\u2581whether": 1252,
  "\u2581Bakolinti": 1253,
  "\u2581p\u025bt\u025b\u025b": 1254,
  "\u2581Wana": 1255,
  "\u2581health": 1256,
  "\u2581taken": 1257,
  "\u2581masang\u00e1": 1258,
  "\u2581everlasting": 1259,
  "\u2581nothing": 1260,
  "\u2581bot\u0254ndi": 1261,
  "\u2581thing": 1262,
  "\u2581kokufa": 1263,
  "\u2581Mos\u025bnz\u025bli": 1264,
  "\u2581Be": 1265,
  "\u2581mafuta": 1266,
  "\u2581etamboli": 1267,
  "\u2581Not": 1268,
  "\u2581kingdom": 1269,
  "\u2581lob\u0254k\u0254": 1270,
  "\u2581Today": 1271,
  "\u2581mikano": 1272,
  "mi": 1273,
  "\u2581Liboso": 1274,
  "\u2581sacrifice": 1275,
  "\u2581matters": 1276,
  "\u258116,": 1277,
  "\u2581p\u0254s\u0254": 1278,
  "\u2581group": 1279,
  "\u2581zomi": 1280,
  "\u2581Lin\u0254": 1281,
  "\u2581Dur": 1282,
  "\u2581THE": 1283,
  "\u2581sons": 1284,
  "r": 1285,
  "\u258110:": 1286,
  "\u2581Joseph": 1287,
  "\u2581certainly": 1288,
  "\u2581works": 1289,
  "\u2581komekama": 1290,
  "\u2581taking": 1291,
  "\u2581similar": 1292,
  "\u2581kotonga": 1293,
  "\u2581pray": 1294,
  "\u2581nzembo": 1295,
  "\u2581mibu": 1296,
  "\u2581mobembo": 1297,
  "\u2581righteousness": 1298,
  "\u2581sisters": 1299,
  "\u2581United": 1300,
  "\u2581bonsomi": 1301,
  "\u2581involved": 1302,
  "\u2581ndimbola": 1303,
  "\u2581kolakisa": 1304,
  "\u2581loved": 1305,
  "\u2581try": 1306,
  "\u2581boyangeli": 1307,
  "\u2581t\u00f3zala": 1308,
  "\u2581ebandaki": 1309,
  "\u2581seen": 1310,
  "\u2581remain": 1311,
  "\u2581slave": 1312,
  "\u258113,": 1313,
  "\u2581shows": 1314,
  "\u2581soul": 1315,
  "\u2581K": 1316,
  "\u2581bapesaki": 1317,
  "\u2581apostles": 1318,
  "\u2581kokoba": 1319,
  "\u2581started": 1320,
  "ya": 1321,
  "\u2581perfect": 1322,
  "\u2581Jewish": 1323,
  "\u2581according": 1324,
  "\u2581allow": 1325,
  "\u2581gives": 1326,
  "O": 1327,
  "\u2581eteni": 1328,
  "\u2581prophecy": 1329,
  "\u2581\u00c9tat": 1330,
  "\u2581Bazalak": 1331,
  "\u2581individuals": 1332,
  "\u2581zulunalo": 1333,
  "\u2581coming": 1334,
  "\u2581second": 1335,
  "\u2581truly": 1336,
  "\u2581Z": 1337,
  "\u2581etondi": 1338,
  "\u2581spiritually": 1339,
  "\u2581clear": 1340,
  "\u2581country": 1341,
  "\u2581akufaki": 1342,
  "\u2581organization": 1343,
  "\u2581Rather": 1344,
  "\u2581nyama": 1345,
  "\u2581past": 1346,
  "\u2581p\u025bto": 1347,
  "\u2581control": 1348,
  "\u2581kosepelisa": 1349,
  "\u258119,": 1350,
  "\u2581mapamboli": 1351,
  "\u2581nkasa": 1352,
  "\u2581here": 1353,
  "\u2581comes": 1354,
  "\u2581asali": 1355,
  "uta": 1356,
  "\u2581Would": 1357,
  "\u2581large": 1358,
  "\u2581J": 1359,
  "\u2581likabo": 1360,
  "\u258113:": 1361,
  "\u2581Devil": 1362,
  "\u2581simply": 1363,
  "\u2581osengeli": 1364,
  "\u2581qualities": 1365,
  "\u2581return": 1366,
  "\u2581kopekisa": 1367,
  "\u2581mbindo": 1368,
  "\u2581liyangani": 1369,
  "\u2581D": 1370,
  "\u2581Mwa": 1371,
  "\u2581ndelo": 1372,
  "\u2581showed": 1373,
  "\u2581inspired": 1374,
  "\u2581mabondeli": 1375,
  "\u258123.": 1376,
  "\u2581evidence": 1377,
  "\u2581wonderful": 1378,
  "\u2581pioneer": 1379,
  "\u2581once": 1380,
  "\u2581interest": 1381,
  "\u2581material": 1382,
  "\u2581based": 1383,
  "\u2581meeting": 1384,
  "\u2581Hebrews": 1385,
  "\u2581leave": 1386,
  "\u2581makabo": 1387,
  "\u2581Their": 1388,
  "\u2581authority": 1389,
  "\u2581bakozala": 1390,
  "\u2581Genesis": 1391,
  "\u2581anyone": 1392,
  "\u2581ezangi": 1393,
  "\u2581provided": 1394,
  "\u2581bamosusu": 1395,
  "\u2581tell": 1396,
  "\u2581wapi": 1397,
  "\u2581Baloma": 1398,
  "\u2581kolongola": 1399,
  "\u2581as\u025bngaki": 1400,
  "\u2581bakokaki": 1401,
  "\u2581bantoma": 1402,
  "\u2581mentioned": 1403,
  "\u2581esalaki": 1404,
  "\u2581Kati": 1405,
  "\u2581emonisaki": 1406,
  "\u2581epesi": 1407,
  "\u2581komituna": 1408,
  "\u2581local": 1409,
  "\u2581already": 1410,
  "\u2581toyebi": 1411,
  "\u2581lived": 1412,
  "\u2581further": 1413,
  "\u2581ayokaki": 1414,
  "\u2581epesaki": 1415,
  "\u2581forever": 1416,
  "\u2581lisekwa": 1417,
  "\u2581esakweli": 1418,
  "\u2581accept": 1419,
  "\u2581motuna": 1420,
  "\u2581congregations": 1421,
  "\u258122.": 1422,
  "\u2581An": 1423,
  "\u2581Babilone": 1424,
  "\u2581nak\u00f3maki": 1425,
  "\u2581abandaki": 1426,
  "\u2581Witness": 1427,
  "k\u00e1": 1428,
  "\u2581According": 1429,
  "\u2581meaning": 1430,
  "\u2581bikateli": 1431,
  "\u258150": 1432,
  "\u2581Betele": 1433,
  "\u2581Now": 1434,
  "\u2581azala": 1435,
  "\u2581written": 1436,
  "\u2581church": 1437,
  "\u2581public": 1438,
  "\u2581T\u00e1ng\u00e1": 1439,
  "\u2581bapakolami": 1440,
  "\u2581biyano": 1441,
  "\u2581fully": 1442,
  "\u2581shall": 1443,
  "\u2581kom\u025bla": 1444,
  "\u2581months": 1445,
  "\u2581therefore": 1446,
  "\u2581la": 1447,
  "\u2581masano": 1448,
  "\u2581sister": 1449,
  "\u2581moombo": 1450,
  "\u2581kob\u025bta": 1451,
  "\u2581kosunga": 1452,
  "\u2581Roman": 1453,
  "\u2581circumstances": 1454,
  "\u258137": 1455,
  "\u2581bilamba": 1456,
  "Nzambe": 1457,
  "\u2581kept": 1458,
  "\u2581Longola": 1459,
  "\u2581molimo": 1460,
  "\u2581mokuse": 1461,
  "\u2581stand": 1462,
  "\u2581Yuda": 1463,
  "\u2581gift": 1464,
  "\u2581litatoli": 1465,
  "\u258117,": 1466,
  "\u2581call": 1467,
  "\u2581lost": 1468,
  "\u2581sikawa": 1469,
  "\u2581strength": 1470,
  "\u2581ekeseni": 1471,
  "\u2581mayoki": 1472,
  "\u2581understanding": 1473,
  "t\u0254": 1474,
  "\u2581longer": 1475,
  "\u2581masuwa": 1476,
  "\u2581rather": 1477,
  "\u2581hearts": 1478,
  "\u2581kobosana": 1479,
  "\u2581promise": 1480,
  "\u2581Afrika": 1481,
  "\u2581koyangana": 1482,
  "\u2581min\u0254k\u0254": 1483,
  "\u2581rule": 1484,
  "\u2581heavens": 1485,
  "\u2581using": 1486,
  "\u2581People": 1487,
  "\u2581Pictures": 1488,
  "\u2581balobaki": 1489,
  "\u2581bak\u00f3mi": 1490,
  "\u2581mo": 1491,
  "You": 1492,
  "\u2581comfort": 1493,
  "\u2581bamboka": 1494,
  "\u2581born": 1495,
  "\u2581botosi": 1496,
  "T\u00e1ng\u00e1": 1497,
  "\u2581form": 1498,
  "\u2581nzokande": 1499,
  "\u2581Abalayama": 1500,
  "\u2581Will": 1501,
  "\u2581bantango": 1502,
  "\u2581es\u025bngaka": 1503,
  "\u2581F": 1504,
  "\u2581kobota": 1505,
  "\u2581kokima": 1506,
  "\u2581bapaya": 1507,
  "Read": 1508,
  "\u2581effort": 1509,
  "\u2581ekoya": 1510,
  "\u2581balingi": 1511,
  "\u2581banyama": 1512,
  "\u2581bi": 1513,
  "\u2581physical": 1514,
  "\u2581motoba": 1515,
  "\u2581witness": 1516,
  "\u2581Noa": 1517,
  "\u2581Like": 1518,
  "\u2581history": 1519,
  "\u2581W": 1520,
  "\u2581die": 1521,
  "\u2581Bazali": 1522,
  "\u2581kozongisa": 1523,
  "\u2581momeseno": 1524,
  "\u2581greater": 1525,
  "\u2581eteyelo": 1526,
  "\u2581serious": 1527,
  "\u2581nsambo": 1528,
  "\u2581anything": 1529,
  "\u2581Danyele": 1530,
  "\u2581Scriptural": 1531,
  "\u2581explained": 1532,
  "\u2581politiki": 1533,
  "l": 1534,
  "\u2581atindaki": 1535,
  "\u2581pembeni": 1536,
  "\u2581Mary": 1537,
  "\u2581kobunda": 1538,
  "\u2581Yisraele": 1539,
  "\u2581spoke": 1540,
  "\u2581banguna": 1541,
  "\u258124.": 1542,
  "\u2581etuluku": 1543,
  "\u2581preach": 1544,
  "\u2581Kanis\u00e1": 1545,
  "Tal\u00e1": 1546,
  "\u2581deep": 1547,
  "ba": 1548,
  "\u2581Hall": 1549,
  "\u2581got": 1550,
  "\u2581speaking": 1551,
  "\u2581friend": 1552,
  "\u2581atunaki": 1553,
  "\u2581examples": 1554,
  "\u2581problem": 1555,
  "\u2581Bililingi": 1556,
  "\u2581Read": 1557,
  "\u2581continued": 1558,
  "\u2581pages": 1559,
  "\u2581perhaps": 1560,
  "\u2581within": 1561,
  "\u2581Instead": 1562,
  "\u2581gain": 1563,
  "\u2581\"[": 1564,
  "\u2581mozindo": 1565,
  "\u2581P": 1566,
  "\u2581kobikisa": 1567,
  "\u2581Did": 1568,
  "\u2581elembo": 1569,
  "\u2581Eva": 1570,
  "\u2581motuka": 1571,
  "\u2581France": 1572,
  "\u2581Noah": 1573,
  "\u2581loyal": 1574,
  "\u2581promises": 1575,
  "\u2581Baebele": 1576,
  "\u2581blessing": 1577,
  "\u2581confidence": 1578,
  "\u2581Petro": 1579,
  "\u2581asalaka": 1580,
  "\u2581imitate": 1581,
  "\u2581Life": 1582,
  "\u2581remember": 1583,
  "\u2581draw": 1584,
  "\u2581powerful": 1585,
  "\u258118,": 1586,
  "\u2581Ezipito": 1587,
  "\u2581served": 1588,
  "\u2581Masiya": 1589,
  "\u2581elandi": 1590,
  "\u2581baanzelu": 1591,
  "\u2581glory": 1592,
  "\u2581please": 1593,
  "\u2581five": 1594,
  "li": 1595,
  "\u2581longwa": 1596,
  "\u2581masanga": 1597,
  "\u2581hands": 1598,
  "\u2581common": 1599,
  "\u2581mik\u00f3l\u00f3": 1600,
  "\u2581opportunity": 1601,
  "\u2581prayers": 1602,
  "\u2581atikaki": 1603,
  "\u2581older": 1604,
  "\u2581privilege": 1605,
  "\u2581apply": 1606,
  "\u2581Bayisraele": 1607,
  "\u2581States": 1608,
  "\u2581biro": 1609,
  "\u2581everything": 1610,
  "\u2581godly": 1611,
  "\u2581hear": 1612,
  "\u2581Biso": 1613,
  "Emonani": 1614,
  "\u2581letter": 1615,
  "\u2581Ndako": 1616,
  "\u2581ago": 1617,
  "\u2581alone": 1618,
  "\u2581emonani": 1619,
  "\u2581Bandeko": 1620,
  "\u2581mosolo": 1621,
  "\u2581Etanda": 1622,
  "\u2581mokomi": 1623,
  "\u2581lisol\u00f3": 1624,
  "\u2581judgment": 1625,
  "\u2581efforts": 1626,
  "\u2581held": 1627,
  "\u2581helps": 1628,
  "\u2581regarding": 1629,
  "es": 1630,
  "\u2581pain": 1631,
  "\u2581Leta": 1632,
  "\u2581effect": 1633,
  "\u2581itself": 1634,
  "\u258120,": 1635,
  "\u2581honor": 1636,
  "\u2581accepted": 1637,
  "\u2581doubt": 1638,
  "\u2581kokokisama": 1639,
  ",...": 1640,
  "],": 1641,
  "\u2581Mark": 1642,
  "\u2581malako": 1643,
  "\u2581b\u00e1yeba": 1644,
  "\u2581tal\u00e1": 1645,
  "\u2581blessings": 1646,
  "\u2581R": 1647,
  "\u2581Catholic": 1648,
  "\u2581bakufi": 1649,
  "\u2581mongongo": 1650,
  "\u2581Indeed": 1651,
  "\u2581standards": 1652,
  "re": 1653,
  "\u2581decision": 1654,
  "\u2581Jeremiah": 1655,
  "\u2581Still": 1656,
  "\u2581bayebaki": 1657,
  "\u2581hold": 1658,
  "\u2581visit": 1659,
  "\u2581value": 1660,
  "].": 1661,
  "\u2581True": 1662,
  "\u2581couple": 1663,
  "Jehovah": 1664,
  "\u2581Mosala": 1665,
  "\u2581T\u00f3talela": 1666,
  "\u2581angels": 1667,
  "\u2581area": 1668,
  "\u2581events": 1669,
  "\u2581mop\u025bp\u025b": 1670,
  "\u2581stated": 1671,
  "\u2581teachings": 1672,
  "\u2581prove": 1673,
  "\u2581ayaki": 1674,
  "\u258124:": 1675,
  "\u2581Buku": 1676,
  "\u2581deal": 1677,
  "\u00b7": 1678,
  "\u2581kokumisa": 1679,
  "\u2581vital": 1680,
  "\u2581Te": 1681,
  "\u2581eyokani": 1682,
  "\u2581bibongiseli": 1683,
  "God": 1684,
  "\u2581pole": 1685,
  "\u2581Bethel": 1686,
  "\u2581koyangela": 1687,
  "\u2581mizali": 1688,
  "\u2581named": 1689,
  "\u2581whose": 1690,
  "\u2581published": 1691,
  "\u2581baf\u0254t\u0254": 1692,
  "\u2581happened": 1693,
  "\u2581Samuel": 1694,
  "\u2581period": 1695,
  "\u2581lisosoli": 1696,
  "\u2581Alobi": 1697,
  "\u2581emonisaka": 1698,
  "\u2581modern": 1699,
  "\u2581Hence": 1700,
  "\u2581led": 1701,
  "\u2581boombo": 1702,
  "\u2581students": 1703,
  "\u2581forth": 1704,
  "\u2581monganga": 1705,
  "\u2581kok\u00f3misa": 1706,
  "\u2581chapter": 1707,
  "\u2581kokoma": 1708,
  "\u2581bandimaka": 1709,
  "\u2581move": 1710,
  "Soki": 1711,
  "\u258170": 1712,
  "\u2581considered": 1713,
  "\u2581makolo": 1714,
  "\u2581head": 1715,
  "\u2581molongani": 1716,
  "\u2581offer": 1717,
  "\u2581branch": 1718,
  "\u2581class": 1719,
  "\u2581sins": 1720,
  "\u2581listen": 1721,
  "\u258125.": 1722,
  "\u2581bafandi": 1723,
  "\u2581bomoto": 1724,
  "\u2581Monene": 1725,
  "\u2581kolala": 1726,
  "\u2581countries": 1727,
  "\u2581li": 1728,
  "\u2581sikisiki": 1729,
  "\u2581litambwisi": 1730,
  "\u2581nazwaki": 1731,
  "\u2581pite": 1732,
  "\u2581\u0190\u025b": 1733,
  "\u2581field": 1734,
  "\u2581mimeseno": 1735,
  "\u2581willing": 1736,
  "\u2581walk": 1737,
  "\u2581flesh": 1738,
  "\u2581appointed": 1739,
  "\u2581recorded": 1740,
  "\u2581various": 1741,
  "M": 1742,
  "\u2581described": 1743,
  "\u2581b\u00e1sala": 1744,
  "\u2581elaka": 1745,
  "\u2581May": 1746,
  "\u2581ebimaki": 1747,
  "\u2581ekokani": 1748,
  "\u2581influence": 1749,
  "\u2581konyokwama": 1750,
  "\u2581bayaki": 1751,
  "aki": 1752,
  "\u2581available": 1753,
  "\u2581Moko": 1754,
  "ng\u0254": 1755,
  "\u2581government": 1756,
  "\u2581mosantu": 1757,
  "\u2581tried": 1758,
  "\u2581appreciation": 1759,
  "\u2581easy": 1760,
  "\u2581U": 1761,
  "\u2581ns\u0254ni": 1762,
  "\u2581birth": 1763,
  "\u2581answers": 1764,
  "\u2581books": 1765,
  "\u2581kozonga": 1766,
  "\u2581nkisi": 1767,
  "\u2581praise": 1768,
  "\u2581promised": 1769,
  "ulunalo": 1770,
  "\u2581decisions": 1771,
  "\u2581maintain": 1772,
  "\u2581poor": 1773,
  "\u2581bopusi": 1774,
  "\u2581changed": 1775,
  "sengelaki": 1776,
  "\u2581six": 1777,
  "\u2581banzela": 1778,
  "\u2581libosoliboso": 1779,
  "\u2581banganga": 1780,
  "\u2581foretold": 1781,
  "\u2581several": 1782,
  "\u258134": 1783,
  "\u2581clearly": 1784,
  "\u2581worldwide": 1785,
  "\u2581proved": 1786,
  "\u2581role": 1787,
  "\u2581Eve": 1788,
  "\u2581elobaki": 1789,
  "\u2581thoughts": 1790,
  "\u2581covenant": 1791,
  "\u2581mbongwana": 1792,
  "\u2581Baklisto": 1793,
  "\u2581appreciate": 1794,
  "\u2581Zabolo": 1795,
  "\u2581open": 1796,
  "\u2581bampasi": 1797,
  "\u2581issue": 1798,
  "\u2581million": 1799,
  "\u2581offered": 1800,
  "over": 1801,
  "\u2581direction": 1802,
  "\u2581instance": 1803,
  "\u2581met": 1804,
  "\u2581miziki": 1805,
  "\u2581ability": 1806,
  "\u2581makomi": 1807,
  "\u2581konyokola": 1808,
  "\u2581believers": 1809,
  "\u2581explains": 1810,
  "\u2581learning": 1811,
  "\u2581azalaka": 1812,
  "\u2581Liebele": 1813,
  "\u2581Most": 1814,
  "\u2581rest": 1815,
  "\u2581activity": 1816,
  "\u2581determined": 1817,
  "\u2581etindaki": 1818,
  "\u2581'?": 1819,
  "\u2581Later": 1820,
  "\u2581advice": 1821,
  "\u2581kotikala": 1822,
  "\u2581lands": 1823,
  "\u2581moral": 1824,
  "\u2581siansi": 1825,
  "\u2581integrity": 1826,
  "\u2581created": 1827,
  "\u2581enough": 1828,
  "\u2581affect": 1829,
  "\u2581position": 1830,
  "\u2581seek": 1831,
  "\u2581accurate": 1832,
  "\u2581harmony": 1833,
  "\u2581responsibility": 1834,
  "\u2581kosangana": 1835,
  "\u2581mikemike": 1836,
  "\u2581mitungisi": 1837,
  "\u2581working": 1838,
  "\u2581clean": 1839,
  "\u2581kosimba": 1840,
  "\u2581akendaki": 1841,
  "\u2581bososoli": 1842,
  "\u2581mabunga": 1843,
  "\u2581build": 1844,
  "\u2581complete": 1845,
  "\u2581indeed": 1846,
  "\u2581Loma": 1847,
  "\u2581families": 1848,
  "\u2581myself": 1849,
  "\u2581psalmist": 1850,
  "\u2581Credit": 1851,
  "\u2581attend": 1852,
  "\u2581office": 1853,
  "\u2581regular": 1854,
  "\u2581Samwele": 1855,
  "\u2581meet": 1856,
  "\u2581Ko": 1857,
  "\u2581Mokili": 1858,
  "\u2581millions": 1859,
  "\u2581ten": 1860,
  "\u2581wants": 1861,
  "\u2581stay": 1862,
  "\u2581makama": 1863,
  "\u2581apesaka": 1864,
  "\u2581experienced": 1865,
  "\u2581ransom": 1866,
  "\u2581Brother": 1867,
  "\u258122,": 1868,
  "\u2581text": 1869,
  "\u2581First": 1870,
  "\u2581above": 1871,
  "\u2581baptism": 1872,
  "\u2581kobenda": 1873,
  "\u2581carry": 1874,
  "\u2581Tik\u00e1": 1875,
  "\u2581du": 1876,
  "\u2581neither": 1877,
  "\u2581else": 1878,
  "P": 1879,
  "\u2581Bana": 1880,
  "\u2581source": 1881,
  "\u2581lisungi": 1882,
  "\u2581obey": 1883,
  "an": 1884,
  "\u2581See": 1885,
  "\u2581conscience": 1886,
  "\u258132": 1887,
  "\u2581actually": 1888,
  "\u2581convention": 1889,
  "\u2581ekosalema": 1890,
  "\u2581Egypt": 1891,
  "\u2581decided": 1892,
  "\u2581helping": 1893,
  "or": 1894,
  "\u2581Mosakoli": 1895,
  "\u2581Saulo": 1896,
  "\u2581Ozal": 1897,
  "\u2581elanga": 1898,
  "\u2581assignment": 1899,
  "\u2581everyone": 1900,
  "\u2581likita": 1901,
  "\u258129.": 1902,
  "\u2581activities": 1903,
  "\u2581reach": 1904,
  "\u2581strengthen": 1905,
  "\u2581Just": 1906,
  "\u2581balingaki": 1907,
  "\u2581earthly": 1908,
  "\u2581bandakisa": 1909,
  "\u2581fulfillment": 1910,
  "\u2581miles": 1911,
  "\u2581bazangi": 1912,
  "\u2581olingi": 1913,
  "\u2581asala": 1914,
  "\u2581Soci\u00e9t\u00e9": 1915,
  "\u2581atyaki": 1916,
  "\u2581Ngai": 1917,
  "\u2581kososola": 1918,
  "\u2581precious": 1919,
  "\u2581kondimana": 1920,
  "\u2581minyoko": 1921,
  "\u2581mombongo": 1922,
  "\u2581seem": 1923,
  "\u2581Mwasi": 1924,
  "\u2581Mose": 1925,
  "\u2581un": 1926,
  "Moto": 1927,
  "le": 1928,
  "\u2581less": 1929,
  "\u2581action": 1930,
  "\u2581kobuka": 1931,
  "\u2581Tract": 1932,
  "\u2581bamonaka": 1933,
  "\u2581v\u025brs\u025b": 1934,
  "\u2581bakozwa": 1935,
  "\u2581basalelaka": 1936,
  "\u2581laws": 1937,
  "\u2581literature": 1938,
  "\u2581Allemagne": 1939,
  "\u2581Yozefe": 1940,
  "\u2581noki": 1941,
  "\u2581mpate": 1942,
  "\u2581practical": 1943,
  "\u2581bakanisaka": 1944,
  "\u2581elekaki": 1945,
  "\u2581training": 1946,
  "\u2581crowd": 1947,
  "\u2581languages": 1948,
  "\u2581entire": 1949,
  "\u2581percent": 1950,
  "\u2581Gr\u025bki": 1951,
  "\u2581akozala": 1952,
  "\u2581Genese": 1953,
  "\u2581basangani": 1954,
  "\u2581destruction": 1955,
  "\u2581earlier": 1956,
  "\u2581sexual": 1957,
  "\u2581magazine": 1958,
  "k\u0254": 1959,
  "\u2581kotuna": 1960,
  "\u2581returned": 1961,
  "\u2581Mokanda": 1962,
  "\u2581grow": 1963,
  "\u2581elder": 1964,
  "\u2581mbano": 1965,
  "\u2581Saul": 1966,
  "\u2581hours": 1967,
  "\u2581creation": 1968,
  "\u2581thousands": 1969,
  "\u2581Have": 1970,
  "\u2581occasion": 1971,
  "\u2581Great": 1972,
  "\u2581natural": 1973,
  "\u2581t\u00f3yeba": 1974,
  "\u2581Africa": 1975,
  "\u2581akosala": 1976,
  "\u2581Another": 1977,
  "\u2581mitindo": 1978,
  "\u2581ng\u00e1mbo": 1979,
  "\u2581akopesa": 1980,
  "\u2581babandaki": 1981,
  "\u2581missionary": 1982,
  "\u2581ngomba": 1983,
  "\u2581English": 1984,
  "\u2581freedom": 1985,
  "\u2581single": 1986,
  "\u2581Bongo": 1987,
  "\u2581regularly": 1988,
  "\u2581asakolaki": 1989,
  "\u2581bazwi": 1990,
  "\u2581Babylon": 1991,
  "\u2581Or": 1992,
  "\u2581reasons": 1993,
  "\u2581encouraged": 1994,
  "\u2581basili": 1995,
  "\u2581concern": 1996,
  "\u2581prison": 1997,
  "\u2581salvation": 1998,
  "\u2581start": 1999,
  "N": 2000,
  "\u2581Mbula": 2001,
  "\u2581daughter": 2002,
  "\u2581minganga": 2003,
  "\u2581bandimaki": 2004,
  "\u2581eat": 2005,
  "\u2581100": 2006,
  "\u2581raised": 2007,
  "\u2581short": 2008,
  "\u2581nkulutu": 2009,
  "\u2581force": 2010,
  "\u2581places": 2011,
  "\u2581write": 2012,
  "\u258128.": 2013,
  "\u2581appropriate": 2014,
  "\u2581subject": 2015,
  "L": 2016,
  "\u2581lolendo": 2017,
  "\u2581evil": 2018,
  "\u2581violence": 2019,
  "\u2581mol\u0254ng\u0254": 2020,
  "\u2581Katolike": 2021,
  "\u2581education": 2022,
  "\u2581daily": 2023,
  "\u2581shown": 2024,
  "\u2581anger": 2025,
  "\u2581paradise": 2026,
  "la": 2027,
  "\u2581ko": 2028,
  "\u2581former": 2029,
  "Mpo": 2030,
  "ic": 2031,
  "\u2581ns\u0254m\u0254": 2032,
  "us": 2033,
  "is": 2034,
  "\u2581kot\u025bm\u025bla": 2035,
  "\u2581lib\u00e1nd\u00e1": 2036,
  "\u2581m\u0254": 2037,
  "\u2581regard": 2038,
  "\u2581respond": 2039,
  "\u2581G": 2040,
  "\u2581justice": 2041,
  "\u2581interested": 2042,
  "\u2581knows": 2043,
  "\u2581stop": 2044,
  "\u2581tik\u00e1": 2045,
  "\u2581tribulation": 2046,
  "\u258160": 2047,
  "\u2581bikeko": 2048,
  "\u2581centuries": 2049,
  "\u2581m\u0254t\u0254": 2050,
  "\u2581throughout": 2051,
  "\u2581results": 2052,
  "\u2581aboyaki": 2053,
  "\u2581babongisi": 2054,
  "\u2581takes": 2055,
  "\u2581traveling": 2056,
  "\u2581namonaki": 2057,
  "\u2581Judah": 2058,
  "\u2581turned": 2059,
  "\u2581Line": 2060,
  "\u2581caused": 2061,
  "\u2581endure": 2062,
  "\u2581vinyo": 2063,
  "\u2581baombo": 2064,
  "\u2581ekomamaki": 2065,
  "\u2581emonanaka": 2066,
  "\u2581seven": 2067,
  "\u2581Baboti": 2068,
  "\u2581Therefore": 2069,
  "\u2581sign": 2070,
  "\u2581studying": 2071,
  "en": 2072,
  "\u2581tree": 2073,
  "p": 2074,
  "\u2581kokola": 2075,
  "\u2581mok\u025bng\u025bli": 2076,
  "\u2581Baoyo": 2077,
  "\u2581trials": 2078,
  "\u2581allowed": 2079,
  "\u2581humble": 2080,
  "\u2581mate": 2081,
  "\u2581Mituna": 2082,
  "\u2581Ndakisa": 2083,
  "\u2581door": 2084,
  "\u2581Though": 2085,
  "\u2581ekobo": 2086,
  "\u2581kobenga": 2087,
  "\u2581elingaki": 2088,
  "\u2581katikati": 2089,
  "\u2581lobiko": 2090,
  "See": 2091,
  "\u2581Messiah": 2092,
  "\u2581ns\u00e9": 2093,
  "\u2581Ephesians": 2094,
  "\u2581building": 2095,
  "\u2581invited": 2096,
  "akutanaki": 2097,
  "\u2581bilanga": 2098,
  "\u2581b\u00e1k\u00f3ma": 2099,
  "\u2581practice": 2100,
  "\u2581Baefese": 2101,
  "\u2581alendisaki": 2102,
  "\u2581job": 2103,
  "\u2581t\u025b": 2104,
  "\u2581behind": 2105,
  "\u2581elandaki": 2106,
  "\u2581guidance": 2107,
  "\u2581Kaka": 2108,
  "\u2581rich": 2109,
  "\u2581zemi": 2110,
  "\u2581actions": 2111,
  "\u2581individual": 2112,
  "\u2581kolela": 2113,
  "\u2581tells": 2114,
  "\u2581courage": 2115,
  "\u2581t\u00f3talela": 2116,
  "\u2581expression": 2117,
  "\u2581Before": 2118,
  "\u2581morning": 2119,
  "\u2581proper": 2120,
  "\u2581mot\u00e1ng": 2121,
  "\u2581bantina": 2122,
  "\u2581priest": 2123,
  "\u2581choose": 2124,
  "\u2581emonanaki": 2125,
  "\u2581basis": 2126,
  "\u2581Likanisi": 2127,
  "\u2581Others": 2128,
  "\u2581added": 2129,
  "\u2581boninga": 2130,
  "\u2581b\u00faku": 2131,
  "\u2581discipline": 2132,
  "\u2581week": 2133,
  "\u2581leaders": 2134,
  "\u2581Church": 2135,
  "\u2581aya": 2136,
  "\u2581provides": 2137,
  "\u2581realize": 2138,
  "k\u00f3maki": 2139,
  "\u2581kosomba": 2140,
  "\u2581paragrafe": 2141,
  "ela": 2142,
  "\u2581arrived": 2143,
  "\u2581enjoyed": 2144,
  "\u2581Lingelesi": 2145,
  "\u2581servant": 2146,
  "\u2581babengi": 2147,
  "\u2581Bolingo": 2148,
  "\u2581Rome": 2149,
  "\u2581fulfilled": 2150,
  "\u02b9": 2151,
  "\u2581Love": 2152,
  "\u2581addition": 2153,
  "u": 2154,
  "\u2581Nsukansuka": 2155,
  "\u2581bisakweli": 2156,
  "\u2581eutaka": 2157,
  "\u25811914": 2158,
  "\u258135": 2159,
  "\u2581mabaku": 2160,
  "\u2581esalemi": 2161,
  "\u2581km": 2162,
  "\u2581mabanga": 2163,
  "ness": 2164,
  "\u258131.": 2165,
  "\u2581War": 2166,
  "\u2581changes": 2167,
  "\u2581side": 2168,
  "\u2581speech": 2169,
  "\u258121:": 2170,
  "\u2581Brooklyn": 2171,
  "\u2581least": 2172,
  "\u2581mbangu": 2173,
  "\u2581prayed": 2174,
  "\u2581showing": 2175,
  "\u2581walking": 2176,
  "\u2581Canada": 2177,
  "\u2581bindimeli": 2178,
  "\u2581koyika": 2179,
  "\u2581nakoki": 2180,
  "\u2581beginning": 2181,
  "\u2581seems": 2182,
  "\u2581display": 2183,
  "\u2581member": 2184,
  "\u2581assigned": 2185,
  "\u2581kofuta": 2186,
  "\u2581expect": 2187,
  "\u2581develop": 2188,
  "\u2581feet": 2189,
  "\u2581happen": 2190,
  "\u2581mibange": 2191,
  "\u2581record": 2192,
  "ni": 2193,
  "\u2581positive": 2194,
  "Bobele": 2195,
  "\u2581followed": 2196,
  "If": 2197,
  "\u2581kobotama": 2198,
  "\u2581bamonisaki": 2199,
  "\u2581bikelamu": 2200,
  "\u2581blessed": 2201,
  "\u2581state": 2202,
  "\u2581bav\u025brs\u025b": 2203,
  "\u2581bakendaki": 2204,
  "\u2581beliefs": 2205,
  "\u2581voice": 2206,
  "\u2581half": 2207,
  "\u2581wonder": 2208,
  "\u2581encouragement": 2209,
  "\u2581quickly": 2210,
  "\u2581pay": 2211,
  "\u2581personality": 2212,
  "\u2581worked": 2213,
  "bato": 2214,
  "Ntango": 2215,
  "\u2581beautiful": 2216,
  "\u2581komekola": 2217,
  "\u2581almo": 2218,
  "\u2581becoming": 2219,
  "\u2581knowing": 2220,
  "\u2581necessary": 2221,
  "\u2581report": 2222,
  "\u25817]": 2223,
  "\u2581Awake": 2224,
  "\u2581enemies": 2225,
  "\u2581sometimes": 2226,
  "\u2581matata": 2227,
  "\u258124,": 2228,
  "\u2581Box": 2229,
  "\u2581basepelaka": 2230,
  "\u2581challenge": 2231,
  "\u2581getting": 2232,
  "\u2581suffer": 2233,
  "\u2581PAGE": 2234,
  "\u2581exercise": 2235,
  "\u2581priests": 2236,
  "\u2581Etumba": 2237,
  "\u2581moyekoli": 2238,
  "\u2581alive": 2239,
  "\u2581condition": 2240,
  "\u2581encourage": 2241,
  "\u2581imperfect": 2242,
  "\u2581spent": 2243,
  "ers": 2244,
  "loko": 2245,
  "\u2581interests": 2246,
  "\u2581protect": 2247,
  "\u2581tolingi": 2248,
  "\u2581Further": 2249,
  "\u2581ezalela": 2250,
  "\u2581program": 2251,
  "\u2581Gilead": 2252,
  "\u2581mi": 2253,
  "\u2581t\u00f3sala": 2254,
  "\u2581ekopesa": 2255,
  "\u2581eteyaka": 2256,
  "\u2581greatest": 2257,
  "\u2581sea": 2258,
  "\u2581Soon": 2259,
  "\u2581aleki": 2260,
  "\u2581parts": 2261,
  "\u2581seeking": 2262,
  "\u2581Perhaps": 2263,
  "\u2581Yilimia": 2264,
  "\u2581Banda": 2265,
  "\u2581bilaka": 2266,
  "\u2581babalani": 2267,
  "\u2581beyond": 2268,
  "\u2581b\u00e1zwa": 2269,
  "\u2581completely": 2270,
  "\u2581favor": 2271,
  "\u2581komeka": 2272,
  "on": 2273,
  "\u2581Nevertheless": 2274,
  "\u2581lisiko": 2275,
  "\u2581Holy": 2276,
  "\u2581Nyonso": 2277,
  "\u2581ateyaki": 2278,
  "\u2581kobala": 2279,
  "\u2581presence": 2280,
  "\u258123]": 2281,
  "\u2581T\u00e9moin": 2282,
  "\u2581bol\u025bmbu": 2283,
  "\u2581include": 2284,
  "\u2581ready": 2285,
  "\u2581St": 2286,
  "\u2581nzala": 2287,
  "KASA": 2288,
  "que": 2289,
  "\u258121,": 2290,
  "\u2581kob\u0254ndisa": 2291,
  "\u2581Jacob": 2292,
  "\u2581b\u00f3": 2293,
  "\u2581mercy": 2294,
  "\u2581bakufaki": 2295,
  "\u2581batoli": 2296,
  "\u2581kobomba": 2297,
  "\u2581moboko": 2298,
  "\u2581express": 2299,
  "\u2581deeply": 2300,
  "\u2581quality": 2301,
  "\u2581filiale": 2302,
  "\u2581molili": 2303,
  "\u258130.": 2304,
  "\u2581Tozalaki": 2305,
  "\u2581fire": 2306,
  "\u2581baboyaki": 2307,
  "We": 2308,
  "\u2581Eliya": 2309,
  "\u2581H": 2310,
  "\u2581apesa": 2311,
  "\u2581Wapi": 2312,
  "\u2581final": 2313,
  "\u2581political": 2314,
  "\u2581mpokwa": 2315,
  "\u2581eventually": 2316,
  "\u2581Azali": 2317,
  "\u2581original": 2318,
  "\u2581acts": 2319,
  "\u2581bokeseni": 2320,
  "\u2581kilo": 2321,
  "\u2581sound": 2322,
  "\u2581studies": 2323,
  "\u2581benefits": 2324,
  "\u2581esalemaka": 2325,
  "\u2581girl": 2326,
  "\u2581overseer": 2327,
  "\u2581About": 2328,
  "\u2581bear": 2329,
  "\u2581looking": 2330,
  "\u2581either": 2331,
  "\u2581eutaki": 2332,
  "\u2581goal": 2333,
  "\u2581warning": 2334,
  "\u2581desires": 2335,
  "\u2581lack": 2336,
  "\u2581publications": 2337,
  "\u2581Mobali": 2338,
  "\u2581conditions": 2339,
  "\u2581related": 2340,
  "\u2581test": 2341,
  "\u2581Elijah": 2342,
  "\u2581paladiso": 2343,
  "\u2581Christendom": 2344,
  "\u2581eyebisi": 2345,
  "\u2581progress": 2346,
  "\u2581usually": 2347,
  "\u2581parent": 2348,
  "\u2581Despi": 2349,
  "\u2581reports": 2350,
  "\u2581Similarly": 2351,
  "\u2581libula": 2352,
  "\u2581Keep": 2353,
  "\u2581Mama": 2354,
  "\u2581Where": 2355,
  "\u2581dedication": 2356,
  "\u2581kondimisa": 2357,
  "\u2581translation": 2358,
  "ve": 2359,
  "\u2581animals": 2360,
  "\u2581enable": 2361,
  "\u2581month": 2362,
  "\u2581wives": 2363,
  "\u2581yourselves": 2364,
  "\u2581biteni": 2365,
  "\u2581Christianity": 2366,
  "\u2581bizali": 2367,
  "\u2581kobundisa": 2368,
  "\u2581missionaries": 2369,
  "\u2581sacred": 2370,
  "\u2581devotion": 2371,
  "\u2581don": 2372,
  "\u2581explain": 2373,
  "\u2581eyebani": 2374,
  "\u2581flock": 2375,
  "\u2581Abrahama": 2376,
  "\u2581Us": 2377,
  "\u2581Kozala": 2378,
  "\u2581balobi": 2379,
  "\u2581success": 2380,
  "\u2581trying": 2381,
  "\u2581ahead": 2382,
  "\u2581dedicated": 2383,
  "\u2581mokemoke": 2384,
  "\u2581asili": 2385,
  "\u2581kosambisa": 2386,
  "\u2581filled": 2387,
  "\u2581kob\u0254k\u0254la": 2388,
  "\u2581esilaki": 2389,
  "\u2581kokabola": 2390,
  "It": 2391,
  "\u2581prepared": 2392,
  "\u2581whatever": 2393,
  "\u2581ekosala": 2394,
  "\u2581banzambe": 2395,
  "\u2581n": 2396,
  "\u2581passed": 2397,
  "\u2581brings": 2398,
  "\u2581firm": 2399,
  "\u2581kokata": 2400,
  "\u2581mp\u0254ngi": 2401,
  "org": 2402,
  "\u2581angel": 2403,
  "\u2581komitungisa": 2404,
  "\u2581revealed": 2405,
  "ndi": 2406,
  "\u258126.": 2407,
  "\u258127.": 2408,
  "\u258136": 2409,
  "\u2581resurrected": 2410,
  "\u2581meant": 2411,
  "\u2581zingazinga": 2412,
  "zalaka": 2413,
  "\u2581b\u00e1": 2414,
  "\u2581feeling": 2415,
  "\u2581genuine": 2416,
  "less": 2417,
  "\u2581Internet": 2418,
  "\u2581begin": 2419,
  "\u2581School": 2420,
  "\u2581Sikoyo": 2421,
  "\u2581South": 2422,
  "\u2581Maria": 2423,
  "\u2581choice": 2424,
  "\u2581kufa": 2425,
  "\u2581line": 2426,
  "\u2581bapesaka": 2427,
  "\u2581banani": 2428,
  "\u2581mosaleli": 2429,
  "\u258135.": 2430,
  "\u2581lot": 2431,
  "\u2581protection": 2432,
  "\u2581Lamuk\u00e1": 2433,
  "\u2581contrast": 2434,
  "\u2581built": 2435,
  "\u2581kolimbisa": 2436,
  "\u258128,": 2437,
  "\u2581II": 2438,
  "\u2581bingumba": 2439,
  "\u2581Through": 2440,
  "\u2581ak\u00f3ma": 2441,
  "\u2581elongi": 2442,
  "\u2581Joshua": 2443,
  "\u2581lotomo": 2444,
  "\u2581sun": 2445,
  "\u2581bayokaki": 2446,
  "\u2581fall": 2447,
  "\u2581libateli": 2448,
  "\u2581spend": 2449,
  "\u2581expressed": 2450,
  "\u2581faced": 2451,
  "\u2581forward": 2452,
  "\u2581kokangama": 2453,
  "\u2581destroyed": 2454,
  "\u2581fruit": 2455,
  "\u2581persecution": 2456,
  "\u2581bakuf\u00e1": 2457,
  "\u2581bautaki": 2458,
  "engebene": 2459,
  "\u2581Yo": 2460,
  "s\u0254": 2461,
  "\u2581oyebi": 2462,
  "\u2581azwi": 2463,
  "\u2581koyina": 2464,
  "\u2581unity": 2465,
  "\u2581town": 2466,
  "\u2581keeping": 2467,
  "\u2581sacrifices": 2468,
  "\u2581command": 2469,
  "\u2581bakomi": 2470,
  "\u2581bazulunalo": 2471,
  "\u2581kings": 2472,
  "\u2581mposo": 2473,
  "\u2581third": 2474,
  "Do": 2475,
  "\u2581Angleterre": 2476,
  "\u2581Clearly": 2477,
  "\u2581lik\u00e1m\u00e1": 2478,
  "\u2581reflect": 2479,
  "\u2581babuku": 2480,
  "\u2581pressure": 2481,
  "\u2581matal": 2482,
  "\u2581outside": 2483,
  "\u2581truths": 2484,
  "\u2581w": 2485,
  "\u2581banzete": 2486,
  "\u2581noted": 2487,
  "\u2581f\u025bti": 2488,
  "\u2581importance": 2489,
  "\u2581nature": 2490,
  "\u258115]": 2491,
  "\u2581Eteyelo": 2492,
  "\u2581Malako": 2493,
  "\u2581affection": 2494,
  "\u2581illustration": 2495,
  "\u2581realized": 2496,
  "\u2581Paradise": 2497,
  "\u2581sick": 2498,
  "\u2581molakisi": 2499,
  "\u2581kobika": 2500,
  "\u2581akufi": 2501,
  "\u2581behalf": 2502,
  "\u2581nt\u0254ng\u0254": 2503,
  "In": 2504,
  "ar": 2505,
  "\u2581Remember": 2506,
  "\u2581ak\u00f3mi": 2507,
  "\u2581areas": 2508,
  "\u2581nganga": 2509,
  "\u2581spoken": 2510,
  "\u2581teacher": 2511,
  "\u2581Latin": 2512,
  "\u2581Liteya": 2513,
  "\u2581Malia": 2514,
  "\u2581komibanzabanza": 2515,
  "\u2581calls": 2516,
  "\u2581idea": 2517,
  "\u2581Yosua": 2518,
  "\u2581carefully": 2519,
  "\u00a9": 2520,
  "\u2581ground": 2521,
  "\u2581standing": 2522,
  "\u2581bak\u025bng\u025bli": 2523,
  "\u2581batindaki": 2524,
  "\u2581included": 2525,
  "\u2581Bomoi": 2526,
  "\u2581established": 2527,
  "\u2581neighbor": 2528,
  "\u258114;": 2529,
  "\u2581nsukansuka": 2530,
  "\u25814;": 2531,
  "\u2581mwambe": 2532,
  "\u258133.": 2533,
  "\u2581azwa": 2534,
  "\u2581babola": 2535,
  "\u2581batyaki": 2536,
  "\u2581chosen": 2537,
  "\u2581term": 2538,
  "\u2581arrangement": 2539,
  "\u258145": 2540,
  "\u2581bul\u025b\u025b": 2541,
  "\u2581business": 2542,
  "\u2581LO": 2543,
  "\u2581lesson": 2544,
  "\u2581despite": 2545,
  "\u2581forgive": 2546,
  "\u2581m": 2547,
  "\u2581matiti": 2548,
  "\u2581required": 2549,
  "\u2581basambeli": 2550,
  "\u2581esanga": 2551,
  "\u2581experiences": 2552,
  "\u2581matoi": 2553,
  "\u2581principle": 2554,
  "ri": 2555,
  "\u2581music": 2556,
  "\u2581security": 2557,
  "\u2581aware": 2558,
  "\u2581mayangani": 2559,
  "\u2581recognize": 2560,
  "\u2581simple": 2561,
  "\u2581youths": 2562,
  "\u2581Mpoto": 2563,
  "\u2581cultivate": 2564,
  "\u2581mopaya": 2565,
  "\u2581pioneers": 2566,
  "\u2581accounts": 2567,
  "\u2581observed": 2568,
  "\u2581opposition": 2569,
  "\u2581batikaki": 2570,
  "\u2581disease": 2571,
  "\u2581es\u025bngi": 2572,
  "\u2581kouta": 2573,
  "\u2581mental": 2574,
  "\u2581tolingaka": 2575,
  "\u2581aponaki": 2576,
  "\u2581urged": 2577,
  "as": 2578,
  "\u2581kotungisa": 2579,
  "\u2581relief": 2580,
  "\u258165": 2581,
  "\u2581humility": 2582,
  "\u2581steps": 2583,
  "\u2581vision": 2584,
  "\u2581closer": 2585,
  "\u2581goals": 2586,
  "\u2581kobongwana": 2587,
  "\u2581prevent": 2588,
  "\u2581Mingi": 2589,
  "\u2581homes": 2590,
  "\u2581verse": 2591,
  "\u2581visited": 2592,
  "ra": 2593,
  "\u2581Toli": 2594,
  "\u2581\u25cf": 2595,
  "\u2581attended": 2596,
  "\u2581contact": 2597,
  "\u2581milio": 2598,
  "\u2581publishers": 2599,
  "\u2581emotional": 2600,
  "\u2581mbisi": 2601,
  "\u2581seemed": 2602,
  "\u2581Bafilipi": 2603,
  "\u2581Basusu": 2604,
  "Let": 2605,
  "\u2581Nani": 2606,
  "\u2581asepelaki": 2607,
  "saki": 2608,
  "\u2581articles": 2609,
  "\u2581general": 2610,
  "\u2581Epai": 2611,
  "\u2581Well": 2612,
  "\u2581key": 2613,
  "\u2581komiyoka": 2614,
  "\u2581teachers": 2615,
  "\u2581approach": 2616,
  "\u2581involves": 2617,
  "\u2581personally": 2618,
  "\u2581OYO": 2619,
  "\u2581ntalo": 2620,
  "\u2581Elimo": 2621,
  "\u2581suffered": 2622,
  "\u2581immediately": 2623,
  "\u2581bililingi": 2624,
  "\u2581loyalty": 2625,
  "\u2581picture": 2626,
  "\u2581Philippians": 2627,
  "\u2581discuss": 2628,
  "\u2581killed": 2629,
  "\u2581teritware": 2630,
  "\u2581declared": 2631,
  "\u2581groups": 2632,
  "\u2581etikali": 2633,
  "\u2581treat": 2634,
  "\u258110;": 2635,
  "\u2581hour": 2636,
  "\u2581rejoice": 2637,
  "\u2581zongazonga": 2638,
  "\u2581Also": 2639,
  "\u2581kokamba": 2640,
  "\u2581observe": 2641,
  "\u258110]": 2642,
  "\u2581cases": 2643,
  "\u2581nk\u00f3to": 2644,
  "\u2581sex": 2645,
  "si\u025bkl\u025b": 2646,
  "\u2581attending": 2647,
  "\u2581forget": 2648,
  "\u2581Likol\u00f3": 2649,
  "\u2581atalelaka": 2650,
  "\u2581bangomba": 2651,
  "\u2581basalelaki": 2652,
  "\u2581household": 2653,
  "\u2581Each": 2654,
  "\u2581address": 2655,
  "\u2581libunga": 2656,
  "\u2581association": 2657,
  "\u2581examine": 2658,
  "\u2581produce": 2659,
  "\u258116;": 2660,
  "\u2581t\u00f3": 2661,
  "\u2581youth": 2662,
  "\u25819]": 2663,
  "\u2581boy": 2664,
  "\u2581recent": 2665,
  "\u2581seed": 2666,
  "lo": 2667,
  "\u2581cut": 2668,
  "\u2581ek\u00f3ma": 2669,
  "\u2581kokitisa": 2670,
  "\u2581shepherd": 2671,
  "\u2581although": 2672,
  "\u2581anzelu": 2673,
  "Ba": 2674,
  "\u2581kol\u025bmba": 2675,
  "\u2581koumela": 2676,
  "\u2581koyamba": 2677,
  "\u258126]": 2678,
  "\u2581Was": 2679,
  "\u2581finally": 2680,
  "\u2581akomelaki": 2681,
  "\u2581alakaki": 2682,
  "\u2581society": 2683,
  "\u2581Mai": 2684,
  "\u2581obedient": 2685,
  "\u2581Ntina": 2686,
  "\u2581Bayekoli": 2687,
  "\u2581IN": 2688,
  "\u2581bakutanaki": 2689,
  "\u2581fight": 2690,
  "\u2581practices": 2691,
  "\u2581sharing": 2692,
  "\u2581convinced": 2693,
  "\u2581prepare": 2694,
  "\u2581watch": 2695,
  "D": 2696,
  "\u2581asalisaki": 2697,
  "\u2581bakomaki": 2698,
  "\u2581balukaka": 2699,
  "\u2581ebimisaki": 2700,
  "\u2581focus": 2701,
  "\u2581bazwaka": 2702,
  "\u2581remained": 2703,
  "Bato": 2704,
  "\u2581kol\u00f3nga": 2705,
  "\u2581sort": 2706,
  "\u2581Makanisi": 2707,
  "\u2581answered": 2708,
  "\u2581asepelaka": 2709,
  "\u2581grateful": 2710,
  "\u2581instead": 2711,
  "\u2581libongoli": 2712,
  "ta": 2713,
  "\u2581Baroma": 2714,
  "\u2581mokambi": 2715,
  "\u2581Children": 2716,
  "\u2581destroy": 2717,
  "\u2581mol\u0254": 2718,
  "\u2581bankombo": 2719,
  "\u2581bat\u00e1ngi": 2720,
  "\u2581des": 2721,
  "\u2581tongue": 2722,
  "\u2581warned": 2723,
  "ever": 2724,
  "\u2581endurance": 2725,
  "\u2581kotyola": 2726,
  "\u2581amonisi": 2727,
  "\u2581ek\u00f3melaki": 2728,
  "\u2581imagine": 2729,
  "\u2581lopitalo": 2730,
  "He": 2731,
  "\u2581Yerusaleme": 2732,
  "\u2581bilembo": 2733,
  "\u258123,": 2734,
  "\u2581asalisa": 2735,
  "\u2581nkolo": 2736,
  "\u2581compassion": 2737,
  "\u2581kol\u025bmbisa": 2738,
  "\u2581bakangaki": 2739,
  "\u2581conclusion": 2740,
  "\u2581Ecclesiastes": 2741,
  "\u2581Really": 2742,
  "it": 2743,
  "\u2581Good": 2744,
  "\u2581reported": 2745,
  "be": 2746,
  "\u2581Mateya": 2747,
  "\u2581danger": 2748,
  "\u2581developed": 2749,
  "\u2581ebimisaka": 2750,
  "\u2581Young": 2751,
  "\u2581car": 2752,
  "\u2581obedience": 2753,
  "\u2581evening": 2754,
  "\u2581Germany": 2755,
  "\u2581Memorial": 2756,
  "\u2581Europe": 2757,
  "\u2581believed": 2758,
  "\u2581preached": 2759,
  "\u2581minister": 2760,
  "\u2581abimisaki": 2761,
  "\u2581alaki": 2762,
  "\u2581asking": 2763,
  "\u2581reasonable": 2764,
  "\u2581Ruth": 2765,
  "\u2581mbu": 2766,
  "\u2581BIBLIA": 2767,
  "\u2581La": 2768,
  "\u2581bamilio": 2769,
  "\u2581batyami": 2770,
  "\u2581kobeba": 2771,
  "\u258112;": 2772,
  "\u2581Bl": 2773,
  "\u2581Bo": 2774,
  "\u2581major": 2775,
  "yebisaki": 2776,
  "\u258118]": 2777,
  "\u2581Mokomi": 2778,
  "\u2581Over": 2779,
  "\u2581bamision\u025br\u025b": 2780,
  "\u2581bread": 2781,
  "\u2581cope": 2782,
  "\u2581refused": 2783,
  "sa": 2784,
  "\u2581Ask": 2785,
  "\u2581elderly": 2786,
  "\u2581manner": 2787,
  "\u2581commanded": 2788,
  "\u2581opened": 2789,
  "This": 2790,
  "\u2581existence": 2791,
  "ti": 2792,
  "\u258138": 2793,
  "\u2581Ezekiel": 2794,
  "\u2581agree": 2795,
  "\u2581lizali": 2796,
  "h": 2797,
  "quite": 2798,
  "\u2581Bakonzi": 2799,
  "\u2581Ezekiele": 2800,
  "\u2581Mount": 2801,
  "\u2581consequences": 2802,
  "\u2581requires": 2803,
  "\u2581sight": 2804,
  "\u2581July": 2805,
  "\u2581NZEMBO": 2806,
  "\u2581bipai": 2807,
  "more": 2808,
  "\u2581nabandaki": 2809,
  "\u2581tosalaka": 2810,
  "able": 2811,
  "\u2581social": 2812,
  "\u2581sovereignty": 2813,
  "\u2581abondelaki": 2814,
  "\u2581situations": 2815,
  "\u2581Colossians": 2816,
  "\u2581army": 2817,
  "\u2581basepelaki": 2818,
  "\u2581bayebisaki": 2819,
  "\u2581kopusa": 2820,
  "\u2581seeing": 2821,
  "\u2581bobola": 2822,
  "\u2581front": 2823,
  "\u2581medical": 2824,
  "\u2581workers": 2825,
  "no": 2826,
  "\u2581Only": 2827,
  "\u2581disciple": 2828,
  "\u2581mouth": 2829,
  "\u2581discreet": 2830,
  "\u2581prophets": 2831,
  "tuku": 2832,
  "\u2581Bakolose": 2833,
  "\u2581Ekaniseli": 2834,
  "\u2581forgiveness": 2835,
  "\u2581limited": 2836,
  "\u2581pure": 2837,
  "\u25813;": 2838,
  "\u2581continues": 2839,
  "\u2581kolona": 2840,
  "\u2581abengaki": 2841,
  "\u2581Kondima": 2842,
  "\u2581akanisaki": 2843,
  "\u2581military": 2844,
  "\u2581room": 2845,
  "mong": 2846,
  "\u2581Dr": 2847,
  "\u2581Ngomba": 2848,
  "\u2581etaleli": 2849,
  "\u2581kopema": 2850,
  "\u2581kozongela": 2851,
  "\u2581ebimisami": 2852,
  "\u2581failed": 2853,
  "\u2581mision\u025br\u025b": 2854,
  "\u2581points": 2855,
  "utelo": 2856,
  "\u2581bolimbisi": 2857,
  "\u2581prophecies": 2858,
  "k": 2859,
  "\u2581bamoni": 2860,
  "\u2581mwango": 2861,
  "\u2581concerned": 2862,
  "\u2581kolata": 2863,
  "\u2581race": 2864,
  "\u2581step": 2865,
  "\u00e9": 2866,
  "\u2581alukaki": 2867,
  "\u2581delight": 2868,
  "\u2581tokozala": 2869,
  "\u2581relatives": 2870,
  "\u2581spread": 2871,
  "\u2581authorities": 2872,
  "\u2581esali": 2873,
  "\u2581telefone": 2874,
  "\u2581Body": 2875,
  "\u2581appear": 2876,
  "\u2581cities": 2877,
  "\u2581event": 2878,
  "\u2581gifts": 2879,
  "\u2581increase": 2880,
  "\u2581save": 2881,
  "R": 2882,
  "ik\u00f3l\u00f3": 2883,
  "\u2581Japon": 2884,
  "\u2581challenges": 2885,
  "\u2581effective": 2886,
  "\u2581ndingisa": 2887,
  "\u2581road": 2888,
  "\u2581valuable": 2889,
  "\u2581ememaka": 2890,
  "\u2581komela": 2891,
  "\u2581late": 2892,
  "\u2581looked": 2893,
  "\u2581includes": 2894,
  "\u2581note": 2895,
  "\u2581specific": 2896,
  "\u2581student": 2897,
  "\u2581Ezala": 2898,
  "\u2581active": 2899,
  "\u2581b\u0254\u0254ng\u0254": 2900,
  "\u2581lokoso": 2901,
  "\u2581bokatikati": 2902,
  "\u2581bokristo": 2903,
  "\u2581guard": 2904,
  "\u2581responsible": 2905,
  "\u2581zamba": 2906,
  "\u2581basanza": 2907,
  "\u2581fail": 2908,
  "\u2581kosalelama": 2909,
  "\u2581putt": 2910,
  "\u2581weeks": 2911,
  "\u2581wolo": 2912,
  "ion": 2913,
  "\u2581Mother": 2914,
  "\u2581negative": 2915,
  "\u2581offering": 2916,
  "\u2581reward": 2917,
  "\u2581Greke": 2918,
  "\u2581bol\u0254zi": 2919,
  "\u2581esalisi": 2920,
  "\u2581bapesi": 2921,
  "\u2581surely": 2922,
  "kilom\u025btr\u025b": 2923,
  "\u2581at\u00e1ngaki": 2924,
  "\u2581referred": 2925,
  "f": 2926,
  "\u2581Bango": 2927,
  "\u2581concerning": 2928,
  "\u2581sincere": 2929,
  "\u2581Pennsylvania": 2930,
  "\u2581Kuna": 2931,
  "\u2581Masolo": 2932,
  "\u2581abotamaki": 2933,
  "\u2581carried": 2934,
  "\u2581grew": 2935,
  "\u2581names": 2936,
  "\u2581teaches": 2937,
  "\u2581minzoto": 2938,
  "\u2581strive": 2939,
  "U": 2940,
  "like": 2941,
  "\u2581Lisangani": 2942,
  "\u2581TO": 2943,
  "\u2581Testament": 2944,
  "\u2581bom\u025bngo": 2945,
  "\u2581loss": 2946,
  "\u2581particularly": 2947,
  "\u2581writing": 2948,
  "\u2581lopango": 2949,
  "\u2581tosali": 2950,
  "\u2581baby": 2951,
  "\u2581goes": 2952,
  "\u2581play": 2953,
  "\u2581train": 2954,
  "\u2581Nguya": 2955,
  "\u2581asalelaka": 2956,
  "\u2581ekok\u00f3ma": 2957,
  "\u2581es\u025bngaki": 2958,
  "\u2581komanyola": 2959,
  "\u2581komipekisa": 2960,
  "\u2581koyokana": 2961,
  "\u2581treatment": 2962,
  "ro": 2963,
  "\u2581Finally": 2964,
  "\u2581foreign": 2965,
  "\u2581ndai": 2966,
  "\u2581overseers": 2967,
  "\u2581Her": 2968,
  "\u2581Mpamb": 2969,
  "\u2581overcome": 2970,
  "\u2581zeal": 2971,
  "\u258132.": 2972,
  "\u2581BIBLE": 2973,
  "\u2581Bilenge": 2974,
  "\u2581Should": 2975,
  "\u2581easily": 2976,
  "\u2581emonisami": 2977,
  "\u2581greatly": 2978,
  "\u2581likaya": 2979,
  "\u2581lose": 2980,
  "\u2581purposes": 2981,
  "oyo": 2982,
  "\u2581Amerika": 2983,
  "\u2581Bakambi": 2984,
  "\u2581Exodus": 2985,
  "\u2581basic": 2986,
  "\u2581enter": 2987,
  "\u2581response": 2988,
  "\u2581Faith": 2989,
  "\u2581balakisi": 2990,
  "\u2581describes": 2991,
  "\u2581eye": 2992,
  "\u2581leading": 2993,
  "\u2581Times": 2994,
  "\u2581saved": 2995,
  "\u2581t\u00f3zwa": 2996,
  "\u2581bank\u00f3to": 2997,
  "\u2581b\u00e1salela": 2998,
  "\u2581kiti": 2999,
  "\u2581presented": 3000,
  "\u2581universe": 3001,
  "When": 3002,
  "man": 3003,
  "\u2581(1)": 3004,
  "\u2581image": 3005,
  "\u2581Kosala": 3006,
  "\u2581confident": 3007,
  "\u2581ekomami": 3008,
  "\u2581Deuteronomy": 3009,
  "\u2581bokosi": 3010,
  "\u2581circuit": 3011,
  "\u2581n\u0254rdi": 3012,
  "\u2581unique": 3013,
  "\u2581acceptable": 3014,
  "all": 3015,
  "\u258155": 3016,
  "\u2581Govern": 3017,
  "\u2581Sea": 3018,
  "\u2581gods": 3019,
  "\u2581prospect": 3020,
  "\u2581encouraging": 3021,
  "\u2581viewed": 3022,
  "\u2581lipamboli": 3023,
  "\u2581patient": 3024,
  "\u2581understood": 3025,
  "\u2581drink": 3026,
  "\u2581ezwami": 3027,
  "\u2581particular": 3028,
  "\u2581thousand": 3029,
  "\u2581translated": 3030,
  "\u2581discussion": 3031,
  "\u2581publication": 3032,
  "\u2581village": 3033,
  "\u2581Family": 3034,
  "\u2581balandaki": 3035,
  "\u2581reached": 3036,
  "ngebene": 3037,
  "\u2581Questions": 3038,
  "\u2581affected": 3039,
  "\u2581reveal": 3040,
  "\u2581territory": 3041,
  "\u2581(2)": 3042,
  "\u2581ekomonisa": 3043,
  "\u2581remind": 3044,
  "\u2581Isaac": 3045,
  "\u2581elobaka": 3046,
  "\u2581koyanola": 3047,
  "\u2581opening": 3048,
  "\u2581elimbolaka": 3049,
  "\u2581hearing": 3050,
  "\u2581kolongwa": 3051,
  "\u2581molunge": 3052,
  "\u2581persons": 3053,
  "\u2581Eutelo": 3054,
  "\u2581Once": 3055,
  "\u2581demons": 3056,
  "responsibilities": 3057,
  "\u2581High": 3058,
  "\u2581T\u00f3zwa": 3059,
  "\u2581claim": 3060,
  "\u2581listening": 3061,
  "\u2581mibembo": 3062,
  "jw": 3063,
  "ne": 3064,
  "saka": 3065,
  "\u2581bringing": 3066,
  "\u2581due": 3067,
  "\u2581mosali": 3068,
  "\u2581placed": 3069,
  "\u2581warm": 3070,
  "\u2581wine": 3071,
  "\u2581instruction": 3072,
  "\u2581refers": 3073,
  "\u2581tok\u00f3maki": 3074,
  "\u258125]": 3075,
  "\u2581sleep": 3076,
  "\u2581Encyclopedia": 3077,
  "\u2581Espagne": 3078,
  "\u2581merely": 3079,
  "\u2581wait": 3080,
  "\u258117]": 3081,
  "\u2581attack": 3082,
  "\u2581bank\u0254k\u0254": 3083,
  "\u2581judge": 3084,
  "\u2581mikapo": 3085,
  "\u2581successful": 3086,
  "\u2581Bagalatia": 3087,
  "\u2581Elek": 3088,
  "\u2581inside": 3089,
  "ww": 3090,
  "\u2581bazalani": 3091,
  "\u2581emonaneli": 3092,
  "\u2581break": 3093,
  "\u2581caring": 3094,
  "\u2581ekokokisama": 3095,
  "\u2581becomes": 3096,
  "\u2581esalema": 3097,
  "\u2581lie": 3098,
  "\u2581Nsango": 3099,
  "\u2581minds": 3100,
  "and": 3101,
  "longola": 3102,
  "\u2581August": 3103,
  "\u2581ayokaka": 3104,
  "\u2581bop\u0254l\u0254": 3105,
  "\u2581Sika": 3106,
  "\u2581Two": 3107,
  "\u2581V": 3108,
  "\u2581bituluku": 3109,
  "\u2581eight": 3110,
  "\u2581tomoni": 3111,
  "\u258180": 3112,
  "\u2581Ekozala": 3113,
  "\u2581camp": 3114,
  "\u2581careful": 3115,
  "\u2581formasyo": 3116,
  "\u2581mikrobe": 3117,
  "\u2581mobateli": 3118,
  "\u2581nayebaki": 3119,
  "\u2581secular": 3120,
  "\u2581tears": 3121,
  "\u2581Biblical": 3122,
  "\u2581ayekolaki": 3123,
  "\u2581busy": 3124,
  "\u2581growing": 3125,
  "\u2581probably": 3126,
  "\u2581amoni": 3127,
  "\u2581consideration": 3128,
  "\u2581immorality": 3129,
  "\u2581malili": 3130,
  "\u2581risk": 3131,
  "\u2581adds": 3132,
  "\u2581amount": 3133,
  "\u2581comments": 3134,
  "\u2581eternal": 3135,
  "\u2581fulfill": 3136,
  "\u2581appeared": 3137,
  "\u2581direct": 3138,
  "\u2581search": 3139,
  "\u2581televizyo": 3140,
  "\u2581200": 3141,
  "\u2581harm": 3142,
  "\u2581pursue": 3143,
  "\u2581Galatians": 3144,
  "\u2581energy": 3145,
  "\u2581soda": 3146,
  "he": 3147,
  "\u258142": 3148,
  "\u2581esuki": 3149,
  "\u2581occur": 3150,
  "There": 3151,
  "\u2581Book": 3152,
  "ko": 3153,
  "zwaki": 3154,
  "\u2581Ebandeli": 3155,
  "\u2581Mokano": 3156,
  "\u2581Translation": 3157,
  "\u2581measure": 3158,
  "\u2581worth": 3159,
  "\u2581Gospel": 3160,
  "\u2581Bakorinti": 3161,
  "\u2581accomplish": 3162,
  "\u2581court": 3163,
  "\u2581creatures": 3164,
  "\u2581kobomama": 3165,
  "\u2581religions": 3166,
  "\u2581uses": 3167,
  "\u2581approval": 3168,
  "\u2581belief": 3169,
  "\u2581big": 3170,
  "\u2581mobange": 3171,
  "\u2581statement": 3172,
  "\u2581Mbu": 3173,
  "\u2581Time": 3174,
  "\u2581mas\u025bngami": 3175,
  "\u2581trained": 3176,
  "\u2581welcome": 3177,
  "\u2581writer": 3178,
  "\u2581Make": 3179,
  "\u2581improve": 3180,
  "\u2581longonya": 3181,
  "\u2581ns\u0254": 3182,
  "\u2581tokomona": 3183,
  "\u2581video": 3184,
  "\u2581Koband": 3185,
  "\u2581battle": 3186,
  "\u2581expected": 3187,
  "\u2581react": 3188,
  "\u2581worshipers": 3189,
  "pe": 3190,
  "\u2581119": 3191,
  "\u2581Robert": 3192,
  "\u2581ebimi": 3193,
  "\u2581African": 3194,
  "\u2581commandments": 3195,
  "\u2581demonstrate": 3196,
  "\u2581fruitage": 3197,
  "\u2581thank": 3198,
  "For": 3199,
  "\u2581Esengel": 3200,
  "\u2581kowelana": 3201,
  "\u2581produced": 3202,
  "\u2581studied": 3203,
  "\u2581talking": 3204,
  "\u2581Boye": 3205,
  "\u2581join": 3206,
  "kozala": 3207,
  "\u2581pleasure": 3208,
  "moto": 3209,
  "\u2581500": 3210,
  "\u2581Australie": 3211,
  "\u2581Being": 3212,
  "\u2581evident": 3213,
  "\u2581mat\u0254ndi": 3214,
  "\u2581y\u0254ns\u0254": 3215,
  "\u2581bakangami": 3216,
  "\u2581behavior": 3217,
  "\u2581communication": 3218,
  "\u2581discussed": 3219,
  "\u2581island": 3220,
  "\u2581kok\u0254tisa": 3221,
  "\u2581komibatela": 3222,
  "\u2581mazalaki": 3223,
  "\u2581mino": 3224,
  "\u2581relative": 3225,
  "\u2581younger": 3226,
  "\u2581abongi": 3227,
  "\u2581friendship": 3228,
  "\u2581atyelak": 3229,
  "\u2581batalelaka": 3230,
  "\u2581libumu": 3231,
  "\u2581patience": 3232,
  "\u2581Inc": 3233,
  "\u2581chose": 3234,
  "\u2581ebongolami": 3235,
  "\u2581issues": 3236,
  "\u2581legal": 3237,
  "\u2581makamwisi": 3238,
  "\u2581extent": 3239,
  "\u2581kominanola": 3240,
  "\u2581lisese": 3241,
  "\u2581causes": 3242,
  "\u2581impressed": 3243,
  "\u2581mp\u025bmb\u025b": 3244,
  "\u2581offspring": 3245,
  "\u2581police": 3246,
  "\u2581secret": 3247,
  "\u2581violent": 3248,
  "\u2581andimaka": 3249,
  "\u2581fill": 3250,
  "\u2581helpful": 3251,
  "\u2581mituka": 3252,
  "\u2581Russell": 3253,
  "\u2581date": 3254,
  "\u2581kobakisa": 3255,
  "\u2581mere": 3256,
  "\u2581Elenge": 3257,
  "\u2581eumelaki": 3258,
  "\u2581notes": 3259,
  "\u2581story": 3260,
  "\u258148": 3261,
  "\u25815]": 3262,
  "\u2581guide": 3263,
  "Ngai": 3264,
  "\u2581Gileadi": 3265,
  "\u2581banso": 3266,
  "\u2581bolukiluki": 3267,
  "\u2581elobelaki": 3268,
  "\u2581riches": 3269,
  "\u2581ekokisamaki": 3270,
  "\u2581kokita": 3271,
  "\u2581organized": 3272,
  "\u2581tozwaki": 3273,
  "\u2581b\u00e1kende": 3274,
  "\u2581community": 3275,
  "\u2581contribute": 3276,
  "\u2581conversation": 3277,
  "\u2581immoral": 3278,
  "\u2581mountain": 3279,
  "\u2581request": 3280,
  "\u258123:": 3281,
  "\u2581American": 3282,
  "\u2581Naomi": 3283,
  "\u2581elamba": 3284,
  "\u2581main": 3285,
  "\u2581zealous": 3286,
  "me": 3287,
  "\u2581Kozang": 3288,
  "\u2581bomwana": 3289,
  "\u2581correct": 3290,
  "\u2581invitation": 3291,
  "\u2581praying": 3292,
  "\u2581slaves": 3293,
  "\u2581Mobeko": 3294,
  "\u2581eating": 3295,
  "\u2581kokeba": 3296,
  "\u2581mokristo": 3297,
  "\u2581pass": 3298,
  "\u2581worshippers": 3299,
  "G": 3300,
  "\u2581bangonga": 3301,
  "g": 3302,
  "\u2581autaki": 3303,
  "\u2581bas\u025bngaki": 3304,
  "\u2581enemy": 3305,
  "\u2581garden": 3306,
  "\u2581gone": 3307,
  "\u2581ngambo": 3308,
  "\u2581Bandako": 3309,
  "\u2581Ee": 3310,
  "\u2581June": 3311,
  "\u2581copy": 3312,
  "\u2581god": 3313,
  "\u2581langi": 3314,
  "\u2581letters": 3315,
  "\u2581motambo": 3316,
  "\u2581mpako": 3317,
  "\u2581April": 3318,
  "\u2581aid": 3319,
  "\u2581batunaki": 3320,
  "\u2581fell": 3321,
  "\u2581radio": 3322,
  "\u2581wars": 3323,
  "To": 3324,
  "\u258141": 3325,
  "\u2581Tim": 3326,
  "\u2581international": 3327,
  "\u2581loves": 3328,
  "\u2581reality": 3329,
  "\u2581Land": 3330,
  "\u2581Mo": 3331,
  "\u2581contains": 3332,
  "\u2581powers": 3333,
  "\u2581process": 3334,
  "What": 3335,
  "\u2581Elikya": 3336,
  "\u2581History": 3337,
  "\u2581extreme": 3338,
  "\u2581hundreds": 3339,
  "\u2581kokwea": 3340,
  "\u2581manifest": 3341,
  "\u2581ruler": 3342,
  "\u2581sudi": 3343,
  "ation": 3344,
  "\u25811993": 3345,
  "\u25811995": 3346,
  "\u2581Under": 3347,
  "\u2581kobakisama": 3348,
  "\u2581tokozwa": 3349,
  "\u2581quoted": 3350,
  "\u2581satisfaction": 3351,
  "\u2581Center": 3352,
  "\u2581atika": 3353,
  "\u2581darkness": 3354,
  "\u2581divorce": 3355,
  "\u2581val\u025br\u025b": 3356,
  "\u2581Elisha": 3357,
  "\u2581applied": 3358,
  "\u2581hurt": 3359,
  "\u2581likebisi": 3360,
  "\u2581rejected": 3361,
  "Mposa": 3362,
  "\u2581joyful": 3363,
  "\u2581poverty": 3364,
  "\u2581responded": 3365,
  "\u2581troubled": 3366,
  "ll": 3367,
  "\u2581Teach": 3368,
  "\u2581bapakano": 3369,
  "\u2581tozwi": 3370,
  "\u258125,": 3371,
  "K": 3372,
  "\u2581Kings": 3373,
  "\u2581appears": 3374,
  "\u2581evidently": 3375,
  "\u2581magazines": 3376,
  "\u2581300": 3377,
  "\u2581nasalaki": 3378,
  "\u2581neighbors": 3379,
  "\u2581yikiyiki": 3380,
  "\u2581assured": 3381,
  "\u2581ayeba": 3382,
  "\u2581bolenge": 3383,
  "\u2581churches": 3384,
  "\u2581values": 3385,
  "\u258126,": 3386,
  "\u2581cover": 3387,
  "\u2581indicate": 3388,
  "\u2581kol\u0254ng\u0254n\u0254": 3389,
  "\u2581masol\u00f3": 3390,
  "\u2581\"\"": 3391,
  "\u2581Help": 3392,
  "\u2581Koyeba": 3393,
  "\u2581bapolisi": 3394,
  "\u2581easier": 3395,
  "\u2581joined": 3396,
  "\u2581sinful": 3397,
  "\u2581Bankulutu": 3398,
  "\u2581Israelite": 3399,
  "\u2581ebandi": 3400,
  "\u2581lies": 3401,
  "elimo": 3402,
  "\u2581dangerous": 3403,
  "\u2581drinking": 3404,
  "\u2581gold": 3405,
  "\u2581hatred": 3406,
  "\u2581insight": 3407,
  "\u2581lisukulu": 3408,
  "\u2581mok\u00f3l\u00f3": 3409,
  "\u2581newspaper": 3410,
  "\u2581type": 3411,
  "\u2581abuse": 3412,
  "\u2581omoni": 3413,
  "\u2581views": 3414,
  "\u2581advantage": 3415,
  "\u2581amonaka": 3416,
  "\u2581baleki": 3417,
  "\u2581re": 3418,
  "\u2581waiting": 3419,
  "\u2581Take": 3420,
  "\u2581b\u00e1mona": 3421,
  "\u2581growth": 3422,
  "\u2581shared": 3423,
  "\u258134.": 3424,
  "\u2581air": 3425,
  "\u2581kobebisama": 3426,
  "\u2581notice": 3427,
  "\u258113]": 3428,
  "\u2581aside": 3429,
  "\u2581Man": 3430,
  "\u2581azangi": 3431,
  "\u2581anxiety": 3432,
  "\u2581SONGS": 3433,
  "\u2581associated": 3434,
  "\u2581bisengo": 3435,
  "\u2581emotions": 3436,
  "\u2581endeavor": 3437,
  "\u2581mabala": 3438,
  "mo": 3439,
  "\u2581atiki": 3440,
  "\u2581batyak": 3441,
  "\u2581esepelisaka": 3442,
  "\u2581likamwisi": 3443,
  "\u2581undeserved": 3444,
  "My": 3445,
  "\u2581bless": 3446,
  "\u2581bol\u0254": 3447,
  "\u2581closely": 3448,
  "\u2581daughters": 3449,
  "\u2581eya": 3450,
  "\u2581faithfully": 3451,
  "\u2581contrary": 3452,
  "\u2581exist": 3453,
  "\u2581kosembola": 3454,
  "\u2581mb\u025bl\u025b": 3455,
  "\u2581y\u0254": 3456,
  "H": 3457,
  "\u2581abakisaki": 3458,
  "\u2581wish": 3459,
  "\u2581witnessing": 3460,
  "\u2581Libota": 3461,
  "\u2581Other": 3462,
  "\u2581Yisaka": 3463,
  "\u2581forces": 3464,
  "\u2581(3)": 3465,
  "\u2581Osengeli": 3466,
  "\u2581generation": 3467,
  "\u2581trial": 3468,
  "Y": 3469,
  "z": 3470,
  "\u2581Without": 3471,
  "\u2581assist": 3472,
  "\u2581seriously": 3473,
  "\u25812000": 3474,
  "\u2581bosolo": 3475,
  "\u25811950": 3476,
  "\u2581Bamosusu": 3477,
  "\u2581Sarah": 3478,
  "\u2581bademo": 3479,
  "\u2581ezwaki": 3480,
  "\u2581p\u0254": 3481,
  "\u2581subjects": 3482,
  "kutanaki": 3483,
  "\u25811919": 3484,
  "\u258190": 3485,
  "\u2581animal": 3486,
  "\u2581conclude": 3487,
  "\u2581illness": 3488,
  "\u2581kobwaka": 3489,
  "\u2581promote": 3490,
  "\u2581Here": 3491,
  "\u2581Imagine": 3492,
  "\u2581Think": 3493,
  "\u2581essential": 3494,
  "\u2581husbands": 3495,
  "\u2581libanga": 3496,
  "\u2581recently": 3497,
  "2": 3498,
  "\u2581Nkombo": 3499,
  "\u2581ayanolaki": 3500,
  "\u2581lisano": 3501,
  "\u2581trees": 3502,
  "\u2581Readers": 3503,
  "\u2581formed": 3504,
  "\u2581occurred": 3505,
  "\u2581remains": 3506,
  "\u2581wealth": 3507,
  "\u258146": 3508,
  "\u2581Mosika": 3509,
  "\u2581distress": 3510,
  "\u2581honest": 3511,
  "\u2581resist": 3512,
  "\u2581Toyebi": 3513,
  "\u2581Version": 3514,
  "\u2581mitind\u00e1": 3515,
  "\u2581decades": 3516,
  "\u2581drawn": 3517,
  "\u2581etonga": 3518,
  "\u2581gathered": 3519,
  "\u2581heavy": 3520,
  "urb": 3521,
  "\u2581Esika": 3522,
  "\u2581afraid": 3523,
  "\u2581bamipesi": 3524,
  "\u2581esimbaki": 3525,
  "\u2581kokakatana": 3526,
  "\u2581moboti": 3527,
  "\u2581mp\u0254": 3528,
  "\u2581non": 3529,
  "\u25816]": 3530,
  "\u2581babongi": 3531,
  "\u2581connection": 3532,
  "\u2581harvest": 3533,
  "\u2581outstanding": 3534,
  "\u2581united": 3535,
  "\u2581Work": 3536,
  "\u2581alakisaki": 3537,
  "\u2581committed": 3538,
  "\u2581economic": 3539,
  "\u2581entered": 3540,
  "\u2581kokamwisa": 3541,
  "\u2581mbalakaka": 3542,
  "\u2581verses": 3543,
  "\u2581Timot\u00e9": 3544,
  "\u2581bearing": 3545,
  "\u2581factors": 3546,
  "\u2581master": 3547,
  "\u2581Gr\u00e8ce": 3548,
  "\u2581Lifalanse": 3549,
  "\u2581Mexico": 3550,
  "\u2581beneficial": 3551,
  "\u2581popular": 3552,
  "\u2581stress": 3553,
  "4": 3554,
  "\u2581andimi": 3555,
  "\u2581babengaka": 3556,
  "\u2581setting": 3557,
  "\u2581Pharisees": 3558,
  "\u2581Regard": 3559,
  "\u2581akozwa": 3560,
  "\u2581bayangani": 3561,
  "\u2581financial": 3562,
  "\u2581listed": 3563,
  "\u2581speaks": 3564,
  "\u2581treated": 3565,
  "\u2581Yona": 3566,
  "\u2581bonene": 3567,
  "\u2581bosepeli": 3568,
  "\u2581elobelami": 3569,
  "\u2581kosukola": 3570,
  "\u2581lasting": 3571,
  "\u2581survive": 3572,
  "\u2581Baevanzile": 3573,
  "\u2581alobeli": 3574,
  "\u2581ebimaka": 3575,
  "\u2581wide": 3576,
  "ty": 3577,
  "\u2581blind": 3578,
  "\u2581okomona": 3579,
  "\u2581Jonah": 3580,
  "\u2581ministers": 3581,
  "\u2581receiving": 3582,
  "Tik\u00e1": 3583,
  "\u2581Its": 3584,
  "\u2581directed": 3585,
  "\u2581eb\u00e9ngami": 3586,
  "\u2581ideas": 3587,
  "\u2581komemela": 3588,
  "\u2581temptation": 3589,
  "ment": 3590,
  "\u258130,": 3591,
  "\u2581Japan": 3592,
  "\u2581Sometimes": 3593,
  "\u2581William": 3594,
  "\u2581d": 3595,
  "\u2581decide": 3596,
  "\u2581reveals": 3597,
  "co": 3598,
  "do": 3599,
  "\u2581aspects": 3600,
  "\u2581babimisaki": 3601,
  "\u2581elendisaka": 3602,
  "\u2581indicates": 3603,
  "\u2581kokosa": 3604,
  "\u2581nayebi": 3605,
  "\u2581ozwi": 3606,
  "ur": 3607,
  "\u2581German": 3608,
  "\u2581Note": 3609,
  "\u2581bot\u025bm\u025bli": 3610,
  "\u2581describe": 3611,
  "\u2581ek\u0254taki": 3612,
  "\u2581likewise": 3613,
  "\u2581recognized": 3614,
  "\u2581inhabitants": 3615,
  "\u2581mok\u0254ng\u0254": 3616,
  "\u2581molulu": 3617,
  "\u2581mpisoli": 3618,
  "\u2581normal": 3619,
  "ga": 3620,
  "\u2581Me": 3621,
  "\u2581beloved": 3622,
  "\u258143": 3623,
  "\u2581City": 3624,
  "\u2581libwa": 3625,
  "\u2581research": 3626,
  "el": 3627,
  "\u2581Biloko": 3628,
  "\u2581environment": 3629,
  "\u2581escape": 3630,
  "\u2581nsuki": 3631,
  "\u2581opportunities": 3632,
  "\u2581Roma": 3633,
  "\u2581attendance": 3634,
  "\u2581cost": 3635,
  "\u2581expressions": 3636,
  "\u2581kok\u00f3la": 3637,
  "\u2581prophetic": 3638,
  "\u2581render": 3639,
  "\u2581soldiers": 3640,
  "\u2581telling": 3641,
  "\u2581designed": 3642,
  "\u2581run": 3643,
  "\u25811992": 3644,
  "\u2581azongaki": 3645,
  "\u2581koyemba": 3646,
  "\u2581lessons": 3647,
  "\u2581mature": 3648,
  "\u2581mind\u0254nd\u0254": 3649,
  "\u2581George": 3650,
  "\u2581Un": 3651,
  "\u2581discovered": 3652,
  "\u2581journey": 3653,
  "\u2581kill": 3654,
  "\u2581meal": 3655,
  "\u2581stopped": 3656,
  "se": 3657,
  "\u2581MPO": 3658,
  "\u2581Pes\u00e1": 3659,
  "\u2581Russie": 3660,
  "\u2581deliver": 3661,
  "\u2581difference": 3662,
  "\u2581increased": 3663,
  "\u2581succeed": 3664,
  "\u2581superior": 3665,
  "\u2581tolobelaki": 3666,
  "\u2581Parents": 3667,
  "\u2581filozofi": 3668,
  "\u2581oil": 3669,
  "kopesa": 3670,
  "\u2581Matt": 3671,
  "\u2581ememaki": 3672,
  "\u2581hundred": 3673,
  "\u2581Australia": 3674,
  "\u2581ek\u00f3maka": 3675,
  "\u2581global": 3676,
  "\u2581kokolisa": 3677,
  "\u2581trouble": 3678,
  "\u2581effects": 3679,
  "\u2581kopusana": 3680,
  "\u2581limpa": 3681,
  "\u2581concluded": 3682,
  "\u2581surprise": 3683,
  "de": 3684,
  "\u2581State": 3685,
  "\u2581balandaka": 3686,
  "\u2581guv\u025brnema": 3687,
  "\u2581koningana": 3688,
  "\u2581leaving": 3689,
  "\u2581Hav": 3690,
  "\u2581doctor": 3691,
  "\u2581waters": 3692,
  "at": 3693,
  "\u2581September": 3694,
  "\u2581bayebaka": 3695,
  "\u2581delivered": 3696,
  "\u2581lis\u025bki": 3697,
  "\u2581p": 3698,
  "\u2581separate": 3699,
  "\u2581t\u00f3k\u00f3ma": 3700,
  "\u2581\u025b\u025b": 3701,
  "Mosaic": 3702,
  "\u2581applying": 3703,
  "\u2581box": 3704,
  "\u2581b\u00e1pesa": 3705,
  "\u2581facts": 3706,
  "\u2581mauti": 3707,
  "\u2581site": 3708,
  "\u2581wedding": 3709,
  "\u2581mpenzampenza": 3710,
  "\u2581providing": 3711,
  "\u2581buy": 3712,
  "\u2581drugs": 3713,
  "\u2581kok\u00f3mela": 3714,
  "\u2581monguna": 3715,
  "\u2581refer": 3716,
  "\u2581replied": 3717,
  "\u2581series": 3718,
  "6": 3719,
  "eli": 3720,
  "\u2581bakambi": 3721,
  "\u2581dealings": 3722,
  "\u2581severe": 3723,
  "\u2581strengthened": 3724,
  "\u2581throne": 3725,
  "\u2581YOU": 3726,
  "\u2581akel\u00e1": 3727,
  "\u2581bamaladi": 3728,
  "\u2581bankisi": 3729,
  "\u2581bauti": 3730,
  "\u2581ekosila": 3731,
  "\u2581mountains": 3732,
  "\u2581Br\u00e9sil": 3733,
  "\u2581bikeke": 3734,
  "\u2581companions": 3735,
  "\u2581dealing": 3736,
  "\u2581heed": 3737,
  "\u2581kobungisa": 3738,
  "\u2581komikundola": 3739,
  "\u2581koyokela": 3740,
  "\u2581refuge": 3741,
  "\u2581sword": 3742,
  "\u2581tomonaki": 3743,
  "\u2581Association": 3744,
  "\u2581R\u00e9publi": 3745,
  "\u2581batata": 3746,
  "\u2581performed": 3747,
  "bo": 3748,
  "\u2581December": 3749,
  "\u2581Ezaleli": 3750,
  "\u2581Nations": 3751,
  "\u2581Re": 3752,
  "\u2581Tomoni": 3753,
  "\u2581akokisaki": 3754,
  "\u2581freely": 3755,
  "\u2581scholars": 3756,
  "\u2581send": 3757,
  "\u2581Pharaoh": 3758,
  "\u2581company": 3759,
  "\u2581conventions": 3760,
  "\u2581count": 3761,
  "\u2581fearing": 3762,
  "\u2581ofandi": 3763,
  "pa": 3764,
  "yebaki": 3765,
  "\u2581Sad": 3766,
  "\u2581details": 3767,
  "\u2581forms": 3768,
  "\u2581national": 3769,
  "\u2581pattern": 3770,
  "\u2581scriptures": 3771,
  "\u2581bisanga": 3772,
  "\u2581heartfelt": 3773,
  "\u2581indicated": 3774,
  "\u2581kindly": 3775,
  "\u2581pride": 3776,
  "9": 3777,
  "\u2581cry": 3778,
  "\u2581reference": 3779,
  "\u2581s\u00e9": 3780,
  "\u25811990": 3781,
  "\u25811997": 3782,
  "\u2581Both": 3783,
  "\u2581Day": 3784,
  "\u2581OF": 3785,
  "\u2581bamemaki": 3786,
  "All": 3787,
  "asilaki": 3788,
  "ted": 3789,
  "\u2581Italie": 3790,
  "\u2581carrying": 3791,
  "\u2581disipilini": 3792,
  "\u2581elakisi": 3793,
  "\u2581kob\u025bla": 3794,
  "\u2581kot\u025bka": 3795,
  "\u2581nasengeli": 3796,
  "\u2581ng\u0254lu": 3797,
  "\u2581relates": 3798,
  "\u2581tender": 3799,
  "n\u0254": 3800,
  "ry": 3801,
  "\u258121]": 3802,
  "\u2581Mika": 3803,
  "\u2581kong\u025bnga": 3804,
  "\u2581tokutani": 3805,
  "m\u0254": 3806,
  "\u2581October": 3807,
  "\u2581constantly": 3808,
  "\u2581etanda": 3809,
  "\u2581hospital": 3810,
  "\u2581ill": 3811,
  "\u2581perform": 3812,
  "\u2581widow": 3813,
  "\u2581yes": 3814,
  "\u2581Give": 3815,
  "\u2581across": 3816,
  "\u2581esangisi": 3817,
  "\u2581eyaki": 3818,
  "\u258116]": 3819,
  "\u2581Michael": 3820,
  "\u2581bakosala": 3821,
  "\u2581deeds": 3822,
  "\u2581kotungisama": 3823,
  "\u2581vast": 3824,
  "\u2581white": 3825,
  "\u2581Deteronome": 3826,
  "\u2581Earth": 3827,
  "\u2581abikisaki": 3828,
  "\u2581bakosepela": 3829,
  "\u2581lifelo": 3830,
  "\u2581mistakes": 3831,
  "\u2581raise": 3832,
  "ntango": 3833,
  "\u2581ayebisi": 3834,
  "\u2581babateli": 3835,
  "\u2581copies": 3836,
  "\u2581listened": 3837,
  "\u2581nkita": 3838,
  "\u2581released": 3839,
  "\u2581wickedness": 3840,
  "1": 3841,
  "\u258139": 3842,
  "\u2581dear": 3843,
  "\u2581directly": 3844,
  "\u2581sees": 3845,
  "\u258166": 3846,
  "\u2581Mat": 3847,
  "\u2581babomaki": 3848,
  "\u2581center": 3849,
  "\u2581kokweisa": 3850,
  "\u2581mpunda": 3851,
  "\u2581writes": 3852,
  "\u2581Likewise": 3853,
  "\u2581feels": 3854,
  "\u2581kompanyi": 3855,
  "\u2581kosanzola": 3856,
  "\u2581pointed": 3857,
  "\u2581privileges": 3858,
  "\u2581bot\u0254": 3859,
  "\u2581entertainment": 3860,
  "\u2581masini": 3861,
  "\u2581reject": 3862,
  "\u2581requirements": 3863,
  "\u2581exactly": 3864,
  "\u2581illustrate": 3865,
  "\u2581sida": 3866,
  "\u258119;": 3867,
  "\u2581England": 3868,
  "\u2581Mibale": 3869,
  "\u2581couples": 3870,
  "\u2581struggle": 3871,
  "3": 3872,
  "\u2581Asalak": 3873,
  "\u2581Bafalisai": 3874,
  "\u2581Spirit": 3875,
  "\u2581abongolaki": 3876,
  "\u2581alimbolaki": 3877,
  "\u2581babongoli": 3878,
  "Oyo": 3879,
  "\u2581Azia": 3880,
  "\u2581Sunday": 3881,
  "\u2581WHAT": 3882,
  "\u2581abundance": 3883,
  "\u2581lokota": 3884,
  "Ye": 3885,
  "zi": 3886,
  "\u258134,": 3887,
  "\u2581Edene": 3888,
  "\u2581Nehemia": 3889,
  "\u2581identify": 3890,
  "\u2581komibongisa": 3891,
  "\u2581lay": 3892,
  "\u2581satisfying": 3893,
  "\u2581shepherds": 3894,
  "\u2581sit": 3895,
  "um": 3896,
  "\u25818]": 3897,
  "\u2581Mpela": 3898,
  "\u2581Nehemiah": 3899,
  "\u2581armies": 3900,
  "\u2581determination": 3901,
  "\u2581kolikya": 3902,
  "\u2581mabaya": 3903,
  "\u2581miracles": 3904,
  "\u2581moment": 3905,
  "\u2581myango": 3906,
  "\u2581obtain": 3907,
  "\u2581Could": 3908,
  "\u2581Study": 3909,
  "\u2581abomaki": 3910,
  "\u2581ak\u0254taki": 3911,
  "\u2581bafandaka": 3912,
  "\u2581bakanisaki": 3913,
  "\u2581bibundeli": 3914,
  "\u2581calling": 3915,
  "\u2581chief": 3916,
  "\u2581impossible": 3917,
  "\u2581mighty": 3918,
  "\u2581ntak": 3919,
  "\u2581pagan": 3920,
  "ling": 3921,
  "\u258112]": 3922,
  "\u2581Charles": 3923,
  "\u2581Cor": 3924,
  "\u2581Micah": 3925,
  "\u2581travel": 3926,
  "\u2581Answer": 3927,
  "\u2581French": 3928,
  "\u2581balanced": 3929,
  "\u2581injustice": 3930,
  "\u2581sought": 3931,
  "\u2581writings": 3932,
  "\u2581Ps": 3933,
  "\u2581akende": 3934,
  "\u2581appearance": 3935,
  "\u2581kaa": 3936,
  "\u2581nzet\u00e9": 3937,
  "\u2581parable": 3938,
  "\u2581March": 3939,
  "\u2581moving": 3940,
  "5": 3941,
  "\u2581Students": 3942,
  "\u2581bayoki": 3943,
  "\u2581entitled": 3944,
  "\u2581proof": 3945,
  "\u2581reminded": 3946,
  "\u2581wind": 3947,
  "we": 3948,
  "\u2581Spanish": 3949,
  "\u2581higher": 3950,
  "\u2581involve": 3951,
  "\u2581ozalaki": 3952,
  "\u2581pleased": 3953,
  "\u2581Ebele": 3954,
  "\u2581Thessalonians": 3955,
  "\u2581granted": 3956,
  "\u2581list": 3957,
  "\u2581nd\u025bk\u025b": 3958,
  "\u2581provisions": 3959,
  "\u2581rise": 3960,
  "\u2581\u025bsti": 3961,
  "\u2581belong": 3962,
  "\u2581capital": 3963,
  "\u2581spouse": 3964,
  "\u2581Basalel": 3965,
  "\u2581Ti": 3966,
  "\u2581alandaki": 3967,
  "\u2581apes\u00e1": 3968,
  "\u2581background": 3969,
  "\u2581crime": 3970,
  "\u2581lolemo": 3971,
  "\u2581ngwi": 3972,
  "\u2581nk\u0254k\u0254": 3973,
  "\u2581tosalaki": 3974,
  "sil\u00e1": 3975,
  "\u2581discernment": 3976,
  "\u2581district": 3977,
  "\u2581marry": 3978,
  "\u2581region": 3979,
  "\u2581upright": 3980,
  "sti": 3981,
  "\u258124;": 3982,
  "\u2581January": 3983,
  "\u2581Soko": 3984,
  "\u2581bangi": 3985,
  "\u2581cares": 3986,
  "\u2581instructions": 3987,
  "\u2581kosila": 3988,
  "\u2581Batesaloniki": 3989,
  "\u2581Exode": 3990,
  "\u2581Paladiso": 3991,
  "\u2581alcohol": 3992,
  "\u2581assistance": 3993,
  "\u2581bayengebene": 3994,
  "\u2581bilongi": 3995,
  "\u2581brochure": 3996,
  "\u2581ny\u025b\u025b": 3997,
  "\u2581ozala": 3998,
  "\u2581worse": 3999,
  "out": 4000,
  "\u2581Every": 4001,
  "\u2581bak\u0254taki": 4002,
  "\u2581botomboki": 4003,
  "\u2581kosuka": 4004,
  "\u2581meditate": 4005,
  "\u2581nyongo": 4006,
  "ibongoli": 4007,
  "sakweli": 4008,
  "\u258127,": 4009,
  "\u2581Explain": 4010,
  "\u2581bakendaka": 4011,
  "\u2581elendisaki": 4012,
  "\u2581fish": 4013,
  "\u2581highly": 4014,
  "\u2581population": 4015,
  "\u2581supply": 4016,
  "\u2581unable": 4017,
  "\u2581zuwa": 4018,
  "Compare": 4019,
  "\u2581Has": 4020,
  "\u2581International": 4021,
  "\u2581critical": 4022,
  "\u2581majority": 4023,
  "\u2581occasions": 4024,
  "\u2581Akomaki": 4025,
  "\u2581BATO": 4026,
  "\u2581milulu": 4027,
  "\u2581peaceful": 4028,
  "\u2581traveled": 4029,
  "hether": 4030,
  "\u258144.": 4031,
  "\u2581Eden": 4032,
  "\u2581Never": 4033,
  "\u2581compare": 4034,
  "\u2581governments": 4035,
  "\u2581hate": 4036,
  "\u2581lib\u0254ndisi": 4037,
  "\u2581grown": 4038,
  "\u2581require": 4039,
  "\u2581visiting": 4040,
  "go": 4041,
  "ive": 4042,
  "maki": 4043,
  "\u2581fast": 4044,
  "\u2581forced": 4045,
  "\u2581walked": 4046,
  "Jesus": 4047,
  "mpo": 4048,
  "\u258122;": 4049,
  "\u2581assembly": 4050,
  "\u2581bonk\u0254k\u0254": 4051,
  "\u2581engage": 4052,
  "\u2581glorious": 4053,
  "\u2581makaya": 4054,
  "\u2581misisa": 4055,
  "\u2581rulership": 4056,
  "\u2581rules": 4057,
  "\u2581terms": 4058,
  "one": 4059,
  "\u2581Njambe": 4060,
  "\u2581b\u00f3zala": 4061,
  "\u2581conflict": 4062,
  "\u2581goodness": 4063,
  "\u2581habits": 4064,
  "\u2581keeps": 4065,
  "\u2581milimo": 4066,
  "\u2581Look": 4067,
  "\u2581agreed": 4068,
  "\u2581ebale": 4069,
  "\u2581firmly": 4070,
  "\u2581Titus": 4071,
  "\u2581akufa": 4072,
  "\u2581stone": 4073,
  "est": 4074,
  "\u2581Surely": 4075,
  "\u2581bamonisaka": 4076,
  "\u2581bokoki": 4077,
  "\u2581koleisa": 4078,
  "\u2581lok\u00f3t\u00e1": 4079,
  "\u2581rebellion": 4080,
  "\u2581akebisaki": 4081,
  "\u2581akotika": 4082,
  "\u2581lying": 4083,
  "\u2581oyeba": 4084,
  "\u2581stood": 4085,
  "\u2581treasure": 4086,
  "isol\u00f3": 4087,
  "\u2581Asia": 4088,
  "\u2581ended": 4089,
  "\u2581fit": 4090,
  "\u2581healthy": 4091,
  "\u2581komitya": 4092,
  "\u2581olive": 4093,
  "\u2581resolve": 4094,
  "Look": 4095,
  "\u2581University": 4096,
  "\u2581b\u00e1ndima": 4097,
  "\u2581difficulties": 4098,
  "\u2581indefinite": 4099,
  "\u2581kot\u025bl\u025bma": 4100,
  "\u2581leads": 4101,
  "un": 4102,
  "\u2581Hosea": 4103,
  "\u2581Motema": 4104,
  "\u2581Namonaki": 4105,
  "\u2581batosaka": 4106,
  "\u2581developing": 4107,
  "\u2581mozali": 4108,
  "\u2581accomplished": 4109,
  "\u2581bayanganaki": 4110,
  "\u2581bodies": 4111,
  "\u2581inhabited": 4112,
  "\u2581primary": 4113,
  "\u2581provision": 4114,
  "\u2581silver": 4115,
  "\u2581atya": 4116,
  "\u2581bambeka": 4117,
  "\u2581afandi": 4118,
  "\u2581bazongaki": 4119,
  "\u2581identified": 4120,
  "\u2581makasimakasi": 4121,
  "\u2581Learn": 4122,
  "\u2581Spain": 4123,
  "\u2581babangaka": 4124,
  "\u2581bileko": 4125,
  "\u2581considering": 4126,
  "\u2581weak": 4127,
  "\u2581Ebongiseli": 4128,
  "\u2581serves": 4129,
  "\u2581stick": 4130,
  "\u00c1": 4131,
  "\u2581Service": 4132,
  "\u2581Sikawa": 4133,
  "\u2581bakofanda": 4134,
  "\u2581bilembeteli": 4135,
  "\u2581bok\u0254n\u0254": 4136,
  "\u2581kanis\u00e1": 4137,
  "\u2581miniti": 4138,
  "\u2581apart": 4139,
  "\u2581remarkable": 4140,
  "\u2581basalisaki": 4141,
  "\u2581comforting": 4142,
  "\u2581construction": 4143,
  "\u2581epesamaki": 4144,
  "\u2581nearby": 4145,
  "\u25811999": 4146,
  "\u2581acted": 4147,
  "\u2581adultery": 4148,
  "\u2581batikali": 4149,
  "\u2581significant": 4150,
  "\u2581song": 4151,
  "\u2581souls": 4152,
  "bandaki": 4153,
  "\u2581Christmas": 4154,
  "\u2581appreciated": 4155,
  "\u2581handle": 4156,
  "\u2581paid": 4157,
  "\u2581safe": 4158,
  "\u2581Bakoki": 4159,
  "\u2581Go": 4160,
  "\u2581balukaki": 4161,
  "\u2581kokebisa": 4162,
  "\u2581kos\u025bka": 4163,
  "\u2581rendered": 4164,
  "\u2581spirituality": 4165,
  "\u2581wilderness": 4166,
  "ary": 4167,
  "\u2581AIDS": 4168,
  "\u2581altar": 4169,
  "\u2581bayokaka": 4170,
  "\u2581clergy": 4171,
  "\u2581etikalaki": 4172,
  "\u2581mbeba": 4173,
  "\u2581stake": 4174,
  "\u2581total": 4175,
  "\u2581witnesses": 4176,
  "\u2581Ayebisak": 4177,
  "\u2581epesami": 4178,
  "\u2581kopesama": 4179,
  "\u2581libulu": 4180,
  "\u2581misusu": 4181,
  "\u2581pre": 4182,
  "\u2581ruin": 4183,
  "\u2581sinned": 4184,
  "\u2581straight": 4185,
  "F": 4186,
  "bi": 4187,
  "\u2581akokokisa": 4188,
  "\u2581esobe": 4189,
  "\u2581mak\u025bl\u025bl\u025b": 4190,
  "\u2581moyengebene": 4191,
  "\u2581nine": 4192,
  "\u2581kokesenisa": 4193,
  "\u2581nakendaki": 4194,
  "\u2581nsolo": 4195,
  "\u2581successfully": 4196,
  "\u2581zambi": 4197,
  "\u2581balobeli": 4198,
  "\u2581dwell": 4199,
  "\u2581elobelaka": 4200,
  "\u2581low": 4201,
  "\u2581touched": 4202,
  "\u2581victims": 4203,
  "NW": 4204,
  "lokola": 4205,
  "s\u00e1": 4206,
  "\u2581Armageddon": 4207,
  "\u2581afandaka": 4208,
  "\u2581apparently": 4209,
  "\u2581aspect": 4210,
  "\u2581official": 4211,
  "\u2581additional": 4212,
  "\u2581andima": 4213,
  "\u2581approached": 4214,
  "\u2581courageous": 4215,
  "\u2581kokuta": 4216,
  "\u2581komata": 4217,
  "\u2581nalingi": 4218,
  "\u2581path": 4219,
  "\u2581bond": 4220,
  "\u2581osali": 4221,
  "\u2581remaining": 4222,
  "isa": 4223,
  "\u2581customs": 4224,
  "\u2581East": 4225,
  "\u2581NINI": 4226,
  "\u2581Truth": 4227,
  "\u2581herself": 4228,
  "\u2581relations": 4229,
  "\u2581writers": 4230,
  "\u2581Banan": 4231,
  "\u2581Halls": 4232,
  "\u2581Ma": 4233,
  "\u2581Yirimia": 4234,
  "\u2581arranged": 4235,
  "\u2581bozito": 4236,
  "\u2581create": 4237,
  "\u2581eager": 4238,
  "\u2581scholar": 4239,
  "\u2581surprised": 4240,
  "\u2581task": 4241,
  "\u258172": 4242,
  "\u2581akoya": 4243,
  "\u2581MAKAMBO": 4244,
  "\u2581Peace": 4245,
  "\u2581Promised": 4246,
  "\u2581gratitude": 4247,
  "\u2581liso": 4248,
  "\u2581sal\u00e1": 4249,
  "\u2581Congo": 4250,
  "\u2581Mexique": 4251,
  "\u2581c": 4252,
  "\u2581compared": 4253,
  "\u2581declare": 4254,
  "\u2581exists": 4255,
  "\u2581girls": 4256,
  "\u2581happens": 4257,
  "\u2581nayokaki": 4258,
  "\u2581resulted": 4259,
  "Yesu": 4260,
  "l\u025b": 4261,
  "\u2581BA": 4262,
  "\u2581Inde": 4263,
  "\u2581bilimo": 4264,
  "\u2581boys": 4265,
  "\u2581determine": 4266,
  "\u2581extend": 4267,
  "\u2581finding": 4268,
  "\u2581marvelous": 4269,
  "\u2581motivated": 4270,
  "\u2581north": 4271,
  "\u2581restored": 4272,
  "\u2581willingly": 4273,
  "ke": 4274,
  "\u2581Bizaleli": 4275,
  "\u2581Cain": 4276,
  "\u2581Ebale": 4277,
  "\u2581London": 4278,
  "\u2581Pentecost": 4279,
  "\u2581bayekolaka": 4280,
  "\u2581constant": 4281,
  "\u2581esukaki": 4282,
  "\u2581kofungola": 4283,
  "\u2581load": 4284,
  "\u2581none": 4285,
  "\u2581plan": 4286,
  "\u2581remove": 4287,
  "\u2581Knorr": 4288,
  "\u2581Recall": 4289,
  "\u2581Sovereign": 4290,
  "\u2581mozalani": 4291,
  "\u2581rain": 4292,
  "\u2581ruling": 4293,
  "\u2581t\u00f3koba": 4294,
  "\u2581worthy": 4295,
  "moombo": 4296,
  "\u2581Compare": 4297,
  "\u2581Ministry": 4298,
  "\u2581Nathan": 4299,
  "\u2581Visit": 4300,
  "\u2581speaker": 4301,
  "They": 4302,
  "\u2581Eventually": 4303,
  "\u2581bas\u00e1li": 4304,
  "\u2581bayekolaki": 4305,
  "\u2581commission": 4306,
  "\u2581mosungi": 4307,
  "\u2581sickness": 4308,
  "sengeli": 4309,
  "\u2581Baebre": 4310,
  "\u2581Matomba": 4311,
  "\u2581Mozw": 4312,
  "\u2581Rom": 4313,
  "\u2581bok\u00f3li": 4314,
  "\u2581ebongolak": 4315,
  "\u2581rulers": 4316,
  "great": 4317,
  "\u2581Kaina": 4318,
  "\u2581Paris": 4319,
  "\u2581bamonisi": 4320,
  "\u2581commit": 4321,
  "\u2581dignity": 4322,
  "As": 4323,
  "il": 4324,
  "ting": 4325,
  "ye": 4326,
  "\u2581ekoumela": 4327,
  "\u2581influenced": 4328,
  "\u2581kondimama": 4329,
  "\u2581le": 4330,
  "\u2581leki": 4331,
  "\u2581mungwa": 4332,
  "\u2581slow": 4333,
  "\u2581Brazil": 4334,
  "\u2581Esengo": 4335,
  "\u2581Rutherford": 4336,
  "\u2581Second": 4337,
  "\u2581Upon": 4338,
  "\u2581affairs": 4339,
  "\u2581atikalaki": 4340,
  "\u2581brain": 4341,
  "\u2581mopanga": 4342,
  "\u2581News": 4343,
  "\u2581ark": 4344,
  "\u2581causing": 4345,
  "\u2581deaf": 4346,
  "\u2581inheritance": 4347,
  "\u2581kondimela": 4348,
  "\u2581koyiba": 4349,
  "\u2581Babiblia": 4350,
  "\u2581conscious": 4351,
  "\u2581culture": 4352,
  "\u2581etondaki": 4353,
  "\u2581foundation": 4354,
  "\u2581mbote": 4355,
  "\u2581mpi\u0254": 4356,
  "\u2581ntolo": 4357,
  "\u2581wild": 4358,
  "\u2581America": 4359,
  "\u2581Dictionary": 4360,
  "\u2581akoyoka": 4361,
  "\u2581beauty": 4362,
  "\u2581begotten": 4363,
  "\u2581grief": 4364,
  "\u2581libongo": 4365,
  "\u2581ought": 4366,
  "\u2581qualified": 4367,
  "ul": 4368,
  "\u2581audience": 4369,
  "\u2581chapters": 4370,
  "\u2581clothing": 4371,
  "\u2581komemya": 4372,
  "\u2581kosal": 4373,
  "\u2581selfish": 4374,
  "mb\u025b": 4375,
  "\u2581Greece": 4376,
  "\u2581Union": 4377,
  "\u2581bakisa": 4378,
  "\u2581bos\u0254t\u0254": 4379,
  "\u2581discern": 4380,
  "\u2581disiplini": 4381,
  "\u2581doctrine": 4382,
  "\u2581familiar": 4383,
  "\u2581kotumba": 4384,
  "\u2581palata": 4385,
  "\u2581tribinale": 4386,
  "makambo": 4387,
  "\u2581150": 4388,
  "\u2581advance": 4389,
  "\u2581alongaki": 4390,
  "\u2581bamoko": 4391,
  "\u2581biteyelo": 4392,
  "\u2581motivate": 4393,
  "\u2581nakokaki": 4394,
  "\u2581Apesak": 4395,
  "\u2581Zal\u00e1": 4396,
  "\u2581abundant": 4397,
  "\u2581band\u025bk\u025b": 4398,
  "\u2581doctors": 4399,
  "\u2581kopalanganisa": 4400,
  "\u2581mention": 4401,
  "\u2581midst": 4402,
  "\u2581okozala": 4403,
  "\u2581season": 4404,
  "Mwana": 4405,
  "ge": 4406,
  "\u258140.": 4407,
  "\u2581Almighty": 4408,
  "\u2581Efese": 4409,
  "\u2581Mikolo": 4410,
  "\u2581bamili\u00f3": 4411,
  "\u2581ekufaka": 4412,
  "\u2581fornication": 4413,
  "\u2581represented": 4414,
  "Keep": 4415,
  "\u258130:": 4416,
  "\u2581Lot": 4417,
  "\u2581akelaki": 4418,
  "\u2581anxious": 4419,
  "\u2581bafandaki": 4420,
  "\u2581claimed": 4421,
  "\u2581reasoning": 4422,
  "\u2581root": 4423,
  "\u2581Chronicles": 4424,
  "\u2581demonstrated": 4425,
  "\u2581nko": 4426,
  "\u2581recall": 4427,
  "\u2581sad": 4428,
  "wa": 4429,
  "\u2581Baal": 4430,
  "\u2581Bill": 4431,
  "\u2581grasp": 4432,
  "\u2581inner": 4433,
  "\u2581numerous": 4434,
  "\u2581tok\u00f3mi": 4435,
  "\u2581Biyano": 4436,
  "\u2581Evanzile": 4437,
  "\u2581Pantekote": 4438,
  "\u2581bakosekwa": 4439,
  "\u2581etyami": 4440,
  "\u2581focused": 4441,
  "\u2581physically": 4442,
  "\u2581thereafter": 4443,
  "\u25811996": 4444,
  "\u25812001": 4445,
  "\u2581conducted": 4446,
  "\u2581covered": 4447,
  "\u2581failure": 4448,
  "\u2581kosukisa": 4449,
  "\u2581pioneering": 4450,
  "\u2581program\u025b": 4451,
  "\u2581punishment": 4452,
  "\u2581release": 4453,
  "\u25812010": 4454,
  "\u2581Columbia": 4455,
  "\u2581Ebre": 4456,
  "\u2581abongisaki": 4457,
  "\u2581assignments": 4458,
  "\u2581basod\u00e1": 4459,
  "\u2581career": 4460,
  "\u2581houses": 4461,
  "\u2581mpambampamba": 4462,
  "\u2581relationships": 4463,
  "\u2581science": 4464,
  "\u2581Am": 4465,
  "\u2581T\u00f3tala": 4466,
  "\u2581adults": 4467,
  "\u2581akobaki": 4468,
  "\u2581as\u025bngi": 4469,
  "\u2581motane": 4470,
  "\u2581nalingaki": 4471,
  "\u2581repentant": 4472,
  "\u258139.": 4473,
  "\u25813]": 4474,
  "\u2581Bakristo": 4475,
  "\u2581Dad": 4476,
  "\u2581Kobosana": 4477,
  "\u2581average": 4478,
  "\u2581kartye": 4479,
  "\u2581trip": 4480,
  "\u2581turning": 4481,
  "\u25811998": 4482,
  "\u25812012": 4483,
  "\u2581balabala": 4484,
  "\u2581bateyi": 4485,
  "\u2581represent": 4486,
  "\u2581theocratic": 4487,
  "\u2581touti": 4488,
  "kokaki": 4489,
  "\u25812011": 4490,
  "\u2581Mabota": 4491,
  "\u2581bamipesak": 4492,
  "\u2581differ": 4493,
  "\u2581engbunduka": 4494,
  "\u2581tomonaka": 4495,
  "\u2581w\u025bsti": 4496,
  "Bo": 4497,
  "\u258131,": 4498,
  "\u2581Boyokani": 4499,
  "\u2581Lota": 4500,
  "\u2581angry": 4501,
  "\u2581grand": 4502,
  "\u2581kop\u025bngola": 4503,
  "\u2581potential": 4504,
  "\u2581607": 4505,
  "\u2581Mikonzi": 4506,
  "\u2581balance": 4507,
  "\u2581burden": 4508,
  "\u2581moimi": 4509,
  "\u2581plans": 4510,
  "\u2581subjection": 4511,
  "ton": 4512,
  "\u258120]": 4513,
  "\u2581Asa": 4514,
  "\u2581Shortly": 4515,
  "\u2581azwaka": 4516,
  "\u2581baboyaka": 4517,
  "\u2581etumbelo": 4518,
  "\u2581recalls": 4519,
  "\u2581sang": 4520,
  "\u2581skills": 4521,
  "\u2581tax": 4522,
  "\u2581t\u00f3mona": 4523,
  "ine": 4524,
  "ity": 4525,
  "\u2581Messianic": 4526,
  "\u2581NY": 4527,
  "\u2581Okosepela": 4528,
  "\u2581arise": 4529,
  "\u2581batikalaki": 4530,
  "\u2581dwelling": 4531,
  "\u2581ememelak": 4532,
  "\u2581koganga": 4533,
  "\u2581mildness": 4534,
  "\u2581motamboli": 4535,
  "\u2581reaction": 4536,
  "\u25811994": 4537,
  "\u2581Grand": 4538,
  "\u2581Scripture": 4539,
  "\u2581asal\u00e1": 4540,
  "\u2581bakok\u00f3ma": 4541,
  "\u2581batunaka": 4542,
  "\u2581corrupt": 4543,
  "\u2581ebongaki": 4544,
  "\u2581invisible": 4545,
  "\u2581mputulu": 4546,
  "\u2581private": 4547,
  "\u2581variety": 4548,
  "asololaki": 4549,
  "son": 4550,
  "\u2581Moyuda": 4551,
  "\u2581bosantu": 4552,
  "\u2581b\u00e1yekola": 4553,
  "\u2581dust": 4554,
  "\u2581methods": 4555,
  "\u2581possess": 4556,
  "\u2581Basalak": 4557,
  "\u2581Hitler": 4558,
  "\u2581amipesaki": 4559,
  "\u2581birds": 4560,
  "\u2581foti": 4561,
  "\u2581noticed": 4562,
  "\u2581rely": 4563,
  "\u2581rock": 4564,
  "\u2581sake": 4565,
  "\u2581stars": 4566,
  "\u2581Zechariah": 4567,
  "\u2581adr\u025bsi": 4568,
  "\u2581allows": 4569,
  "\u2581batyelak": 4570,
  "\u2581ek\u025bng\u025b": 4571,
  "\u2581innocent": 4572,
  "\u2581plant": 4573,
  "\u2581union": 4574,
  "\u2581wall": 4575,
  "\u2581wondered": 4576,
  "\u25811991": 4577,
  "\u2581Eumelak": 4578,
  "\u2581basilaki": 4579,
  "\u2581brotherhood": 4580,
  "\u2581cold": 4581,
  "\u2581ebende": 4582,
  "\u2581tribes": 4583,
  "\u2581t\u00f3landa": 4584,
  "\u2581visits": 4585,
  "ce": 4586,
  "\u2581400": 4587,
  "\u2581India": 4588,
  "\u2581arrested": 4589,
  "\u2581b\u00e1landa": 4590,
  "\u2581corruption": 4591,
  "\u2581excellent": 4592,
  "\u2581faithfulness": 4593,
  "7": 4594,
  "di": 4595,
  "ia": 4596,
  "\u2581Flood": 4597,
  "\u2581River": 4598,
  "\u2581aboyi": 4599,
  "\u2581kosikola": 4600,
  "\u2581meaningful": 4601,
  "\u2581mobola": 4602,
  "\u2581offers": 4603,
  "\u2581supported": 4604,
  "ph": 4605,
  "\u25812009": 4606,
  "\u258156": 4607,
  "\u2581Jonathan": 4608,
  "\u2581associate": 4609,
  "\u2581bisaleli": 4610,
  "\u2581dream": 4611,
  "\u2581ebongwanaki": 4612,
  "\u2581endured": 4613,
  "\u2581glad": 4614,
  "\u2581tokosala": 4615,
  "pi": 4616,
  "\u2581Him": 4617,
  "\u2581abandoned": 4618,
  "\u2581asaleli": 4619,
  "\u2581caught": 4620,
  "\u2581foot": 4621,
  "\u2581historian": 4622,
  "\u2581idolatry": 4623,
  "\u2581lovers": 4624,
  "\u2581quit": 4625,
  "lingaki": 4626,
  "\u258113;": 4627,
  "\u2581Esau": 4628,
  "\u2581Eyano": 4629,
  "\u2581Joel": 4630,
  "\u2581Se": 4631,
  "\u2581Sudi": 4632,
  "\u2581abilities": 4633,
  "\u2581b\u00e1tika": 4634,
  "\u2581ebebaki": 4635,
  "\u2581ekotinda": 4636,
  "\u2581epekisa": 4637,
  "\u2581koyokisa": 4638,
  "\u2581lipaso": 4639,
  "\u2581literal": 4640,
  "\u2581remnant": 4641,
  "\u2581repentance": 4642,
  "\u2581tokendaki": 4643,
  "but": 4644,
  "po": 4645,
  "\u2581Nazi": 4646,
  "\u2581bansango": 4647,
  "\u2581bozoba": 4648,
  "\u2581ebatelaka": 4649,
  "\u2581exercising": 4650,
  "\u2581printed": 4651,
  "\u2581secure": 4652,
  "\u2581struck": 4653,
  "\u258138.": 4654,
  "\u2581November": 4655,
  "\u2581alukaka": 4656,
  "\u2581fleshly": 4657,
  "\u2581humbly": 4658,
  "\u2581kok\u025bng\u025bla": 4659,
  "\u2581komityela": 4660,
  "\u2581worldly": 4661,
  "\u2581Baala": 4662,
  "\u2581anymore": 4663,
  "\u2581translations": 4664,
  "How": 4665,
  "ish": 4666,
  "\u258119]": 4667,
  "\u25812008": 4668,
  "\u2581Baninga": 4669,
  "\u2581Caesar": 4670,
  "\u2581Sara": 4671,
  "\u2581ekobanda": 4672,
  "\u2581laid": 4673,
  "\u2581memory": 4674,
  "mikolo": 4675,
  "\u2581Abel": 4676,
  "\u2581Often": 4677,
  "\u2581Pilate": 4678,
  "\u2581amonisaka": 4679,
  "\u2581assurance": 4680,
  "\u2581discouraged": 4681,
  "\u2581ek\u00f3misak": 4682,
  "\u2581epekisaki": 4683,
  "\u2581esakolaki": 4684,
  "\u2581gathering": 4685,
  "\u2581wipe": 4686,
  "for": 4687,
  "rs": 4688,
  "\u2581Aaron": 4689,
  "\u2581arrangements": 4690,
  "\u2581bak\u00f3maka": 4691,
  "\u2581drug": 4692,
  "\u2581holding": 4693,
  "\u2581nsinga": 4694,
  "\u2581reaching": 4695,
  "naka": 4696,
  "ous": 4697,
  "\u2581Teokrasi": 4698,
  "\u2581descendants": 4699,
  "\u2581involving": 4700,
  "\u2581libebi": 4701,
  "\u258137.": 4702,
  "\u258149": 4703,
  "\u2581bop\u025bto": 4704,
  "\u2581b\u00e1koka": 4705,
  "\u2581ekosuka": 4706,
  "\u2581principal": 4707,
  "\u2581properly": 4708,
  "\u2581refuse": 4709,
  "\u2581store": 4710,
  "Tata": 4711,
  "vi": 4712,
  "\u2581Ayebaki": 4713,
  "\u2581afandaki": 4714,
  "\u2581bamama": 4715,
  "\u2581bazangaki": 4716,
  "\u2581deliverance": 4717,
  "\u2581kopambola": 4718,
  "\u2581ministeri": 4719,
  "\u2581olingaka": 4720,
  "\u2581persecuted": 4721,
  "\u2581scene": 4722,
  "\u2581t\u00f3salela": 4723,
  "ian": 4724,
  "ism": 4725,
  "\u2581February": 4726,
  "\u2581Ndaka": 4727,
  "\u2581S\u025bt\u025bmb\u025b": 4728,
  "\u2581abatelak": 4729,
  "\u2581admonition": 4730,
  "\u2581midi": 4731,
  "\u2581street": 4732,
  "\u2581theme": 4733,
  "\u2581top": 4734,
  "ts": 4735,
  "\u25811914.": 4736,
  "\u2581Boyebi": 4737,
  "\u2581Yosefe": 4738,
  "\u2581completed": 4739,
  "\u2581esaleli": 4740,
  "\u2581increasing": 4741,
  "\u2581kokenda": 4742,
  "\u2581komipimela": 4743,
  "\u2581minutes": 4744,
  "\u2581referring": 4745,
  "\u2581solution": 4746,
  "\u2581attitudes": 4747,
  "\u2581broke": 4748,
  "\u2581nasengelaki": 4749,
  "\u2581rightly": 4750,
  "\u2581stayed": 4751,
  "Lokola": 4752,
  "\u25814]": 4753,
  "\u2581Corinth": 4754,
  "\u2581Lisang\u00e1": 4755,
  "\u2581Luther": 4756,
  "\u2581Mosantu": 4757,
  "\u2581Nz": 4758,
  "\u2581Okanisi": 4759,
  "\u2581error": 4760,
  "\u2581mark": 4761,
  "\u2581mesa": 4762,
  "\u2581officials": 4763,
  "\u2581readily": 4764,
  "os": 4765,
  "v": 4766,
  "\u2581Bas": 4767,
  "\u2581Basi": 4768,
  "\u2581De": 4769,
  "\u2581JEHOVAH": 4770,
  "\u2581Malaki": 4771,
  "\u2581National": 4772,
  "\u2581Tito": 4773,
  "\u2581belongs": 4774,
  "\u2581cells": 4775,
  "\u2581concerns": 4776,
  "\u2581gradually": 4777,
  "\u2581lobi": 4778,
  "\u2581nayekolaki": 4779,
  "\u2581useful": 4780,
  "\u2581Mikakatano": 4781,
  "\u2581amibanzabanzak": 4782,
  "\u2581brief": 4783,
  "\u2581dolare": 4784,
  "\u2581libyangi": 4785,
  "\u2581literally": 4786,
  "\u2581repeatedly": 4787,
  "\u25818;": 4788,
  "\u2581forgiving": 4789,
  "\u2581komonisela": 4790,
  "\u2581kosakana": 4791,
  "\u2581milai": 4792,
  "\u2581nt\u0254": 4793,
  "\u2581proud": 4794,
  "\u2581quick": 4795,
  "\u2581sinners": 4796,
  "nimero": 4797,
  "\u258151": 4798,
  "\u2581Gospels": 4799,
  "\u2581Out": 4800,
  "\u2581bound": 4801,
  "\u2581displayed": 4802,
  "\u2581ebongisami": 4803,
  "\u2581outcome": 4804,
  "\u2581prominent": 4805,
  "\u2581signs": 4806,
  "\u2581suggestions": 4807,
  "\u258136.": 4808,
  "\u2581Jean": 4809,
  "\u2581content": 4810,
  "\u2581ekelamu": 4811,
  "\u2581kol\u0254ng\u0254": 4812,
  "\u2581located": 4813,
  "\u2581possessions": 4814,
  "\u2581reflected": 4815,
  "\u2581Basakoli": 4816,
  "\u2581custom": 4817,
  "\u2581diseases": 4818,
  "\u2581healing": 4819,
  "\u2581huge": 4820,
  "\u2581mak\u00e1m\u00e1": 4821,
  "\u2581merciful": 4822,
  "\u2581viewpoint": 4823,
  "\u2581Aprili": 4824,
  "\u2581Enoch": 4825,
  "\u2581Enoka": 4826,
  "\u2581aponi": 4827,
  "\u2581awake": 4828,
  "\u2581companion": 4829,
  "\u2581exposed": 4830,
  "\u2581kobikela": 4831,
  "\u2581male": 4832,
  "\u2581rights": 4833,
  "\u2581sold": 4834,
  "\u2581Boyekoli": 4835,
  "\u2581Court": 4836,
  "\u2581Following": 4837,
  "\u2581Kolinti": 4838,
  "\u2581Malachi": 4839,
  "\u2581ebimisi": 4840,
  "\u2581kokamata": 4841,
  "\u2581totaleli": 4842,
  "\u2581tribe": 4843,
  "mipesaki": 4844,
  "will": 4845,
  "\u2581000.": 4846,
  "\u258144": 4847,
  "\u25819;": 4848,
  "\u2581Doing": 4849,
  "\u2581Happy": 4850,
  "\u2581Italy": 4851,
  "\u2581Trinity": 4852,
  "\u2581acting": 4853,
  "\u2581afterward": 4854,
  "\u2581broken": 4855,
  "\u2581differences": 4856,
  "\u2581ekeko": 4857,
  "\u2581songs": 4858,
  "\u2581texts": 4859,
  "\u2581Martha": 4860,
  "\u2581b": 4861,
  "\u2581encourages": 4862,
  "\u2581mothers": 4863,
  "\u2581played": 4864,
  "\u2581removed": 4865,
  "nga": 4866,
  "\u2581BE": 4867,
  "\u2581B\u00faku": 4868,
  "\u2581Early": 4869,
  "\u2581azongelaki": 4870,
  "\u2581bakomona": 4871,
  "\u2581factor": 4872,
  "\u2581invite": 4873,
  "\u2581lifuti": 4874,
  "\u2581price": 4875,
  "\u2581reputation": 4876,
  "\u2581thankful": 4877,
  "ies": 4878,
  "ol": 4879,
  "\u2581Balevi": 4880,
  "\u2581akok\u00f3ma": 4881,
  "\u2581bed": 4882,
  "\u2581figurative": 4883,
  "\u2581permanent": 4884,
  "\u2581possibly": 4885,
  "talelaka": 4886,
  "\u2581Al": 4887,
  "\u2581Heights": 4888,
  "\u2581Le": 4889,
  "\u2581Sinai": 4890,
  "\u2581bos\u025bnga": 4891,
  "\u2581cell": 4892,
  "\u2581clothes": 4893,
  "\u2581kalakala": 4894,
  "\u2581mampinga": 4895,
  "\u2581torture": 4896,
  "\u2581Britain": 4897,
  "\u2581alekisaki": 4898,
  "\u2581assures": 4899,
  "\u2581balongaki": 4900,
  "\u2581scientists": 4901,
  "\u2581Congregation": 4902,
  "\u2581Passover": 4903,
  "\u2581devoted": 4904,
  "\u2581finished": 4905,
  "\u2581kobangisa": 4906,
  "\u2581nyoka": 4907,
  "\u2581Abele": 4908,
  "\u2581Lazarus": 4909,
  "\u2581Nigeria": 4910,
  "\u2581amemaki": 4911,
  "\u2581asks": 4912,
  "\u2581damage": 4913,
  "\u2581footnote": 4914,
  "\u2581obligation": 4915,
  "\u2581standard": 4916,
  "m\u025btr\u025b": 4917,
  "\u25811930": 4918,
  "\u25811945": 4919,
  "\u2581V\u025brs\u025b": 4920,
  "\u2581degree": 4921,
  "\u2581gather": 4922,
  "\u2581kok\u00f3lisa": 4923,
  "\u2581l": 4924,
  "\u2581mit\u00f3": 4925,
  "\u2581mobalani": 4926,
  "\u2581mondimi": 4927,
  "\u2581otherwise": 4928,
  "Esengo": 4929,
  "Lingala": 4930,
  "ah": 4931,
  "\u2581Marko": 4932,
  "\u2581approved": 4933,
  "\u2581bibele": 4934,
  "\u2581et\u025bl\u025bm\u025blo": 4935,
  "BY": 4936,
  "ch": 4937,
  "\u2581COVER": 4938,
  "\u2581Source": 4939,
  "\u2581basantu": 4940,
  "\u2581development": 4941,
  "\u2581ears": 4942,
  "\u2581ekos\u025bnga": 4943,
  "\u2581lisangani": 4944,
  "\u2581mampa": 4945,
  "\u2581singing": 4946,
  "za": 4947,
  "\u2581Aleki": 4948,
  "\u2581Hannah": 4949,
  "\u2581Hezekiah": 4950,
  "\u2581extended": 4951,
  "\u2581eyebanaki": 4952,
  "\u2581porte": 4953,
  "\u2581reliable": 4954,
  "\u2581services": 4955,
  "\u2581spirits": 4956,
  "\u2581Londres": 4957,
  "\u2581akobikisa": 4958,
  "\u2581batatoli": 4959,
  "\u2581bibende": 4960,
  "\u2581eko": 4961,
  "\u2581iniversite": 4962,
  "\u2581intense": 4963,
  "\u2581limit": 4964,
  "\u2581mild": 4965,
  "\u2581modest": 4966,
  "\u2581pleasant": 4967,
  "\u2581suggest": 4968,
  "\u2581summer": 4969,
  "\u2581threat": 4970,
  "\u2581touch": 4971,
  "\u2581warns": 4972,
  "ha": 4973,
  "\u25811940": 4974,
  "\u2581Ebongi": 4975,
  "\u2581Kinshasa": 4976,
  "\u2581Mibali": 4977,
  "\u2581West": 4978,
  "\u2581akosalisa": 4979,
  "\u2581epalangani": 4980,
  "\u2581ignore": 4981,
  "\u2581kondimisama": 4982,
  "\u2581style": 4983,
  "\u2581tokotalela": 4984,
  "\u2581Concern": 4985,
  "\u2581accompany": 4986,
  "\u2581disaster": 4987,
  "\u2581endimis": 4988,
  "\u2581grave": 4989,
  "\u2581instructed": 4990,
  "\u2581moves": 4991,
  "\u2581northern": 4992,
  "\u2581per": 4993,
  "\u2581t\u00f3bosana": 4994,
  "Be": 4995,
  "ebele": 4996,
  "\u2581Bosato": 4997,
  "\u2581Welcome": 4998,
  "\u2581Worship": 4999,
  "\u2581akolongola": 5000,
  "\u2581bozalisi": 5001,
  "\u2581dangers": 5002,
  "\u2581distance": 5003,
  "\u2581etalelaka": 5004,
  "\u2581kok\u00f3ba": 5005,
  "\u2581kotombola": 5006,
  "\u2581lovingly": 5007,
  "\u2581opposite": 5008,
  "\u2581river": 5009,
  "\u2581smoking": 5010,
  "our": 5011,
  "\u258154": 5012,
  "\u2581Don": 5013,
  "\u2581Fear": 5014,
  "\u2581Hizikiya": 5015,
  "\u2581Kaisala": 5016,
  "\u2581Know": 5017,
  "\u2581begins": 5018,
  "\u2581leaves": 5019,
  "\u2581level": 5020,
  "\u2581television": 5021,
  "\u2581temporary": 5022,
  "Makambo": 5023,
  "\u2581Eli": 5024,
  "\u2581Empire": 5025,
  "\u2581Noele": 5026,
  "\u2581Solo": 5027,
  "\u2581amona": 5028,
  "\u2581bakitani": 5029,
  "\u2581below": 5030,
  "\u2581mikuwa": 5031,
  "\u2581table": 5032,
  "ca": 5033,
  "\u258147": 5034,
  "\u2581bankama": 5035,
  "\u2581depression": 5036,
  "\u2581etind\u00e1": 5037,
  "\u2581molato": 5038,
  "\u2581namoni": 5039,
  "\u2581newly": 5040,
  "\u2581tradition": 5041,
  "Nazalaki": 5042,
  "ci": 5043,
  "w": 5044,
  "\u2581European": 5045,
  "\u2581Oyebi": 5046,
  "\u2581billion": 5047,
  "\u2581bozindo": 5048,
  "\u2581historical": 5049,
  "\u2581kanyaka": 5050,
  "\u2581miraculous": 5051,
  "\u2581satisfied": 5052,
  "\u2581slavery": 5053,
  "\u2581El": 5054,
  "\u2581Ephesus": 5055,
  "\u2581inherit": 5056,
  "\u2581lowly": 5057,
  "\u2581ngala": 5058,
  "\u2581pursuing": 5059,
  "\u2581resources": 5060,
  "\u2581skin": 5061,
  "\u2581suddenly": 5062,
  "\u2581talks": 5063,
  "\u2581won": 5064,
  "\u2581\u02c8": 5065,
  "\u2581\u25c6": 5066,
  "Bino": 5067,
  "gi": 5068,
  "\u25811939": 5069,
  "\u2581Babylonian": 5070,
  "\u2581Mikanda": 5071,
  "\u2581cared": 5072,
  "\u2581empty": 5073,
  "\u2581koyebana": 5074,
  "\u2581lola": 5075,
  "\u2581paradiso": 5076,
  "\u2581Religion": 5077,
  "\u2581Thomas": 5078,
  "\u2581bafilme": 5079,
  "\u2581challenging": 5080,
  "\u2581drawing": 5081,
  "\u2581generally": 5082,
  "\u2581hardly": 5083,
  "\u2581painful": 5084,
  "\u2581pressures": 5085,
  "\u2581restore": 5086,
  "\u2581review": 5087,
  "\u2581shed": 5088,
  "\u2581ship": 5089,
  "\u2581tests": 5090,
  "\u2581victory": 5091,
  "va": 5092,
  "\u2581Luk\u00e1": 5093,
  "\u2581Sal\u00e1": 5094,
  "\u2581acknowledge": 5095,
  "\u2581alert": 5096,
  "\u2581ban": 5097,
  "\u2581context": 5098,
  "\u2581divided": 5099,
  "\u2581kotanga": 5100,
  "\u2581reign": 5101,
  "\u2581royal": 5102,
  "\u2581stories": 5103,
  "Bandakisa": 5104,
  "\u2581Boyangeli": 5105,
  "\u2581Notice": 5106,
  "\u2581batomboki": 5107,
  "\u2581bok\u025bngi": 5108,
  "\u2581etingya": 5109,
  "\u2581kobongisama": 5110,
  "\u2581libonza": 5111,
  "\u2581marked": 5112,
  "\u2581observes": 5113,
  "\u2581passing": 5114,
  "kokoba": 5115,
  "\u2581NTANGO": 5116,
  "\u2581Show": 5117,
  "\u2581TV": 5118,
  "\u2581akuf\u00e1": 5119,
  "\u2581charge": 5120,
  "\u2581cross": 5121,
  "\u2581employment": 5122,
  "\u2581esalelami": 5123,
  "\u2581harmful": 5124,
  "\u2581lomingo": 5125,
  "bosengeli": 5126,
  "\u2581Alingak": 5127,
  "\u2581Bi": 5128,
  "\u2581alobaka": 5129,
  "\u2581ayebisa": 5130,
  "\u2581basambelaka": 5131,
  "\u2581everywhere": 5132,
  "\u2581routine": 5133,
  "ezali": 5134,
  "\u0190": 5135,
  "\u2581120": 5136,
  "\u2581Old": 5137,
  "\u2581attacks": 5138,
  "\u2581cancer": 5139,
  "\u2581flee": 5140,
  "\u2581listeners": 5141,
  "\u2581moon": 5142,
  "\u2581surface": 5143,
  "\u2581unclean": 5144,
  "\u258111201": 5145,
  "\u2581Draw": 5146,
  "\u2581Name": 5147,
  "\u2581Y": 5148,
  "\u2581abandon": 5149,
  "\u2581ayebaka": 5150,
  "\u2581baponaki": 5151,
  "\u2581commands": 5152,
  "\u2581comment": 5153,
  "\u2581communicate": 5154,
  "\u2581grain": 5155,
  "\u2581inclined": 5156,
  "\u2581model": 5157,
  "\u2581mp\u025bp\u0254": 5158,
  "\u2581strengthening": 5159,
  "\u2581tozwaka": 5160,
  "\u2581Ebimisam": 5161,
  "\u2581bandimbola": 5162,
  "\u2581basalisaka": 5163,
  "\u2581benefited": 5164,
  "\u2581contained": 5165,
  "\u2581distant": 5166,
  "\u2581existed": 5167,
  "\u2581interesting": 5168,
  "\u2581mabongoli": 5169,
  "\u2581mbeto": 5170,
  "\u2581paying": 5171,
  "\u2581tokanisi": 5172,
  "\u2581victim": 5173,
  "moko": 5174,
  "\u025br\u025b": 5175,
  "\u2581Grande": 5176,
  "\u2581Li": 5177,
  "\u2581Pet": 5178,
  "\u2581accepting": 5179,
  "\u2581attempt": 5180,
  "\u2581ebebisaka": 5181,
  "\u2581kobombama": 5182,
  "\u2581kob\u0254ndisama": 5183,
  "\u2581labor": 5184,
  "\u2581ordered": 5185,
  "\u2581pleasing": 5186,
  "\u2581rejoicing": 5187,
  "\u2581attain": 5188,
  "\u2581bakutanaka": 5189,
  "\u2581bamisionere": 5190,
  "\u2581contain": 5191,
  "\u2581masapo": 5192,
  "\u2581moyibi": 5193,
  "\u2581scripture": 5194,
  "\u2581sorts": 5195,
  "\u2581Balobaka": 5196,
  "\u2581Tyndale": 5197,
  "\u2581Way": 5198,
  "\u2581annual": 5199,
  "\u2581b\u00e1tosa": 5200,
  "\u2581establish": 5201,
  "\u2581isolated": 5202,
  "\u2581shortly": 5203,
  "8": 5204,
  "Soko": 5205,
  "\u2581144": 5206,
  "\u2581AS": 5207,
  "\u2581Des\u025bmb\u025b": 5208,
  "\u2581calamity": 5209,
  "\u2581dress": 5210,
  "\u2581etambwisa": 5211,
  "\u2581initiative": 5212,
  "\u2581kobalana": 5213,
  "\u2581team": 5214,
  "\u2581unrighteous": 5215,
  "\u2581weaknesses": 5216,
  "\u2581Human": 5217,
  "\u2581Kanana": 5218,
  "\u2581Marriage": 5219,
  "\u2581add": 5220,
  "\u2581adult": 5221,
  "\u2581arms": 5222,
  "\u2581except": 5223,
  "\u2581facing": 5224,
  "\u2581imperfection": 5225,
  "\u2581inherited": 5226,
  "\u2581kopes\u00e1k\u00e1": 5227,
  "\u2581property": 5228,
  "\u2581station": 5229,
  "\u2581tind\u00e1": 5230,
  "\u2581Amonisak": 5231,
  "\u2581dark": 5232,
  "\u2581generous": 5233,
  "\u2581hell": 5234,
  "\u2581jealousy": 5235,
  "\u2581prisoners": 5236,
  "\u2581widely": 5237,
  "\u2581wisely": 5238,
  "kolinga": 5239,
  "\u258111]": 5240,
  "\u2581Assembly": 5241,
  "\u2581Convention": 5242,
  "\u2581Mayele": 5243,
  "\u2581alekaki": 5244,
  "\u2581makebisi": 5245,
  "\u2581opposers": 5246,
  "\u2581patiently": 5247,
  "\u2581philosophy": 5248,
  "\u2581Elekeli": 5249,
  "\u2581Mbongwana": 5250,
  "\u2581Mp\u00f3t\u00f3": 5251,
  "\u2581Russia": 5252,
  "\u2581Yanuali": 5253,
  "\u2581Yudea": 5254,
  "\u2581acquire": 5255,
  "\u2581aloba": 5256,
  "\u2581conviction": 5257,
  "\u2581depends": 5258,
  "\u2581habit": 5259,
  "\u2581loyembo": 5260,
  "\u2581planet": 5261,
  "\u2581red": 5262,
  "\u2581terrible": 5263,
  "\u2581Esther": 5264,
  "\u2581YEHOVA": 5265,
  "\u2581accord": 5266,
  "\u2581akoka": 5267,
  "\u2581b\u00e1salisa": 5268,
  "\u2581fourth": 5269,
  "\u2581guilty": 5270,
  "\u2581kobengama": 5271,
  "\u2581limitations": 5272,
  "\u2581mourning": 5273,
  "\u2581president": 5274,
  "\u2581returning": 5275,
  "\u2581sustain": 5276,
  "\u2581welfare": 5277,
  "am": 5278,
  "ter": 5279,
  "\u25811980": 5280,
  "\u2581Akoki": 5281,
  "\u2581Awa": 5282,
  "\u2581Ben": 5283,
  "\u2581FOR": 5284,
  "\u2581apambolaki": 5285,
  "\u2581bateyaki": 5286,
  "\u2581compassionate": 5287,
  "\u2581istware": 5288,
  "\u2581osala": 5289,
  "\u2581preced": 5290,
  "\u2581t": 5291,
  "\u2581trusted": 5292,
  "ant": 5293,
  "\u2581Kondimana": 5294,
  "\u2581appeal": 5295,
  "\u2581burning": 5296,
  "\u2581calm": 5297,
  "\u2581ek\u00f3melak": 5298,
  "\u2581fighting": 5299,
  "\u2581fundamental": 5300,
  "\u2581kokabwana": 5301,
  "\u2581kotyama": 5302,
  "\u2581project": 5303,
  "\u2581thanks": 5304,
  "\u2581threatened": 5305,
  "ig": 5306,
  "teni": 5307,
  "yokaki": 5308,
  "\u25812003": 5309,
  "\u2581British": 5310,
  "\u2581Within": 5311,
  "\u2581babengaki": 5312,
  "\u2581batamboli": 5313,
  "\u2581defend": 5314,
  "\u2581description": 5315,
  "\u2581dying": 5316,
  "\u2581ekok\u00f3mela": 5317,
  "\u2581mine": 5318,
  "\u2581reply": 5319,
  "\u2581sango": 5320,
  "im": 5321,
  "mokolo": 5322,
  "\u2581bot\u00e1ngi": 5323,
  "\u2581ebebisaki": 5324,
  "\u2581hospitality": 5325,
  "\u2581mpela": 5326,
  "\u2581opinion": 5327,
  "\u2581running": 5328,
  "\u2581suggests": 5329,
  "\u2581tempted": 5330,
  "\u2581traditional": 5331,
  "nd": 5332,
  "\u25811970": 5333,
  "\u2581Augusto": 5334,
  "\u2581Nde": 5335,
  "\u2581Spiritual": 5336,
  "\u2581equal": 5337,
  "\u2581headquarters": 5338,
  "\u2581illustrations": 5339,
  "\u2581miliare": 5340,
  "\u2581motives": 5341,
  "\u2581possession": 5342,
  "\u2581preparing": 5343,
  "\u2581south": 5344,
  "\u2581spite": 5345,
  "\u2581tear": 5346,
  "\u2581tend": 5347,
  "Les": 5348,
  "RE": 5349,
  "\u2581Bambula": 5350,
  "\u2581Philip": 5351,
  "\u2581Philippines": 5352,
  "\u2581T\u00f3bosana": 5353,
  "\u2581Year": 5354,
  "\u2581akondima": 5355,
  "\u2581associates": 5356,
  "\u2581binama": 5357,
  "\u2581civil": 5358,
  "\u2581enjoying": 5359,
  "\u2581officer": 5360,
  "\u2581okosala": 5361,
  "\u2581okozwa": 5362,
  "\u2581significance": 5363,
  "\u2581surrounded": 5364,
  "au": 5365,
  "\u2581bitumbu": 5366,
  "\u2581bokoli": 5367,
  "\u2581cruel": 5368,
  "\u2581elendiseli": 5369,
  "\u2581leader": 5370,
  "\u2581meko": 5371,
  "\u2581ng\u0254mb\u025b": 5372,
  "\u2581primarily": 5373,
  "\u2581upbuilding": 5374,
  "\u2581weight": 5375,
  "\u2581wrath": 5376,
  "No": 5377,
  "ent": 5378,
  "\u2581Judea": 5379,
  "\u2581Mas": 5380,
  "\u2581Nganga": 5381,
  "\u2581Professor": 5382,
  "\u2581akosalela": 5383,
  "\u2581chance": 5384,
  "\u2581guided": 5385,
  "\u2581harsh": 5386,
  "\u2581partner": 5387,
  "\u2581raising": 5388,
  "\u2581reads": 5389,
  "pesaka": 5390,
  "with": 5391,
  "\u2581Says": 5392,
  "\u2581Ukraine": 5393,
  "\u2581Up": 5394,
  "\u2581akamwaki": 5395,
  "\u2581campaign": 5396,
  "\u2581ebotaka": 5397,
  "\u2581executed": 5398,
  "\u2581images": 5399,
  "\u2581ungodly": 5400,
  "\u2581win": 5401,
  "\u25811943": 5402,
  "\u2581Health": 5403,
  "\u2581Karen": 5404,
  "\u2581Mokumb": 5405,
  "\u2581Molakisi": 5406,
  "\u2581pour": 5407,
  "\u2581quiet": 5408,
  "\u2581ran": 5409,
  "\u2581trade": 5410,
  "ccompanied": 5411,
  "kozwa": 5412,
  "les": 5413,
  "\u258142.": 5414,
  "\u2581Malamu": 5415,
  "\u2581Mingimingi": 5416,
  "\u2581camps": 5417,
  "\u2581ekoyangela": 5418,
  "\u2581monyoko": 5419,
  "\u2581solid": 5420,
  "\u2581traits": 5421,
  "\u2581(1": 5422,
  "\u2581Anna": 5423,
  "\u2581Besides": 5424,
  "\u2581Luta": 5425,
  "\u2581Table": 5426,
  "\u2581adopt": 5427,
  "\u2581bilimu": 5428,
  "\u2581bosikisiki": 5429,
  "\u2581complex": 5430,
  "\u2581epusak": 5431,
  "\u2581eyei": 5432,
  "\u2581kokana": 5433,
  "\u2581lot\u00f3mo": 5434,
  "\u2581nazala": 5435,
  "\u2581salt": 5436,
  "\u2581size": 5437,
  "\u2581visitors": 5438,
  "\u2581Museum": 5439,
  "\u2581baboyi": 5440,
  "\u2581ezwi": 5441,
  "\u2581hair": 5442,
  "\u2581kofinga": 5443,
  "\u2581monzemba": 5444,
  "\u2581pictures": 5445,
  "\u2581soil": 5446,
  "\u2581\u0186k\u0254t\u0254b\u025b": 5447,
  "483,": 5448,
  "Nkolo": 5449,
  "ru": 5450,
  "\u258152": 5451,
  "\u258161": 5452,
  "\u2581Amos": 5453,
  "\u2581Three": 5454,
  "\u2581Zephaniah": 5455,
  "\u2581acknowledged": 5456,
  "\u2581eteyi": 5457,
  "\u2581feed": 5458,
  "\u2581frequently": 5459,
  "\u2581hot": 5460,
  "\u2581identity": 5461,
  "\u2581paragraph": 5462,
  "\u2581plague": 5463,
  "\u2581reap": 5464,
  "\u2581relate": 5465,
  "\u2581rewarded": 5466,
  "\u258124]": 5467,
  "\u258153": 5468,
  "\u2581Arena": 5469,
  "\u2581Bretagne": 5470,
  "\u2581Nisan": 5471,
  "\u2581Unlike": 5472,
  "\u2581b\u00e1luka": 5473,
  "\u2581cast": 5474,
  "\u2581kozipa": 5475,
  "\u2581location": 5476,
  "\u2581miracle": 5477,
  "\u2581ozwa": 5478,
  "\u2581t\u00f3kanisa": 5479,
  "id": 5480,
  "lu": 5481,
  "\u258132:": 5482,
  "\u2581Death": 5483,
  "\u2581EZIPELI": 5484,
  "\u2581LISOLO": 5485,
  "\u2581THIS": 5486,
  "\u2581atmosphere": 5487,
  "\u2581baf\u025bti": 5488,
  "\u2581bap\u025bngwi": 5489,
  "\u2581debt": 5490,
  "\u2581famous": 5491,
  "\u2581origin": 5492,
  "Lifalanse": 5493,
  "\u2581agreement": 5494,
  "\u2581atye": 5495,
  "\u2581ekuke": 5496,
  "\u2581litali": 5497,
  "\u2581lobwaku": 5498,
  "\u2581nayeba": 5499,
  "\u2581nkama": 5500,
  "\u2581readers": 5501,
  "\u2581serpent": 5502,
  "\u2581sitting": 5503,
  "ful": 5504,
  "ist": 5505,
  "ng": 5506,
  "\u2581Portugal": 5507,
  "\u2581Stephen": 5508,
  "\u2581akanaki": 5509,
  "\u2581akoloba": 5510,
  "\u2581burned": 5511,
  "\u2581concentration": 5512,
  "\u2581drew": 5513,
  "\u2581meek": 5514,
  "\u2581mistake": 5515,
  "\u2581obtained": 5516,
  "\u2581tested": 5517,
  "\u2581600": 5518,
  "\u2581Limete": 5519,
  "\u2581Report": 5520,
  "\u2581Sefania": 5521,
  "\u2581Yuli": 5522,
  "\u2581boat": 5523,
  "\u2581choices": 5524,
  "\u2581entrusted": 5525,
  "\u2581koyeisa": 5526,
  "\u2581malasi": 5527,
  "\u2581mass": 5528,
  "\u2581ngenga": 5529,
  "\u2581proceeded": 5530,
  "\u2581spending": 5531,
  "\u2581thrown": 5532,
  "\u2581traditions": 5533,
  "\u2581t\u00f3tika": 5534,
  "\u2581worker": 5535,
  ">": 5536,
  "salaki": 5537,
  "\u2581HOW": 5538,
  "\u2581Kala": 5539,
  "\u2581Monganga": 5540,
  "\u2581Zambi": 5541,
  "\u2581abandi": 5542,
  "\u2581commandment": 5543,
  "\u2581delighted": 5544,
  "\u2581ekitaki": 5545,
  "\u2581ethnic": 5546,
  "\u2581fathers": 5547,
  "\u2581maintaining": 5548,
  "\u2581middle": 5549,
  "\u2581145": 5550,
  "\u2581Egyptian": 5551,
  "\u2581Moklisto": 5552,
  "\u2581Prov": 5553,
  "\u2581akosepela": 5554,
  "\u2581babongolaki": 5555,
  "\u2581bab\u00faku": 5556,
  "\u2581elembeteli": 5557,
  "\u2581epekisi": 5558,
  "\u2581fallen": 5559,
  "\u2581gained": 5560,
  "\u2581gets": 5561,
  "\u2581kobikisama": 5562,
  "\u2581kotikela": 5563,
  "\u2581nkuku": 5564,
  "\u2581opposed": 5565,
  "\u2581refreshing": 5566,
  "\u2581unless": 5567,
  "komemela": 5568,
  "\u25811941": 5569,
  "\u2581Granted": 5570,
  "\u2581Jordan": 5571,
  "\u2581North": 5572,
  "\u2581Prayer": 5573,
  "\u2581San": 5574,
  "\u2581akangaki": 5575,
  "\u2581akomi": 5576,
  "\u2581asalisaka": 5577,
  "\u2581banzembo": 5578,
  "\u2581condemned": 5579,
  "\u2581explanation": 5580,
  "\u2581iron": 5581,
  "\u2581warfare": 5582,
  "\u2581weapons": 5583,
  "\u2581wholesome": 5584,
  "\u2581634": 5585,
  "\u2581abotami": 5586,
  "\u2581dies": 5587,
  "\u2581ebimisamaki": 5588,
  "\u2581ekomema": 5589,
  "\u2581kolob\u00e1k\u00e1": 5590,
  "\u2581preserve": 5591,
  "\u2581searching": 5592,
  "\u2581stronger": 5593,
  "\u2581wrongdoing": 5594,
  "ck": 5595,
  "\u258175": 5596,
  "\u2581Close": 5597,
  "\u2581Elisa": 5598,
  "\u2581Ezalaka": 5599,
  "\u2581Leviticus": 5600,
  "\u2581abimaki": 5601,
  "\u2581beast": 5602,
  "\u2581bolai": 5603,
  "\u2581b\u00e1linga": 5604,
  "\u2581ebengi": 5605,
  "\u2581finds": 5606,
  "\u2581greed": 5607,
  "\u2581holds": 5608,
  "\u2581koyinana": 5609,
  "\u2581survived": 5610,
  "\u2581watching": 5611,
  "\u2581Marsi": 5612,
  "\u2581Richard": 5613,
  "\u2581Russian": 5614,
  "\u2581ekanganeli": 5615,
  "\u2581eternity": 5616,
  "\u2581features": 5617,
  "\u2581kolamba": 5618,
  "\u2581mbwa": 5619,
  "\u2581mid": 5620,
  "\u2581nakende": 5621,
  "\u2581nasala": 5622,
  "\u2581object": 5623,
  "\u2581perfection": 5624,
  "\u2581realm": 5625,
  "\u2581sacrificing": 5626,
  "Ko": 5627,
  "\u2581Albert": 5628,
  "\u2581Britannica": 5629,
  "\u2581Please": 5630,
  "\u2581adopted": 5631,
  "\u2581bakim\u00e1": 5632,
  "\u2581coast": 5633,
  "\u2581dry": 5634,
  "\u2581remembered": 5635,
  "\u2581urges": 5636,
  "\u2581walls": 5637,
  "\u2581Omoni": 5638,
  "\u2581bokabwani": 5639,
  "\u2581etando": 5640,
  "\u2581suggested": 5641,
  "ver": 5642,
  "\u2581Hope": 5643,
  "\u2581Jude": 5644,
  "\u2581Sabbath": 5645,
  "\u2581accused": 5646,
  "\u2581bifelo": 5647,
  "\u2581esalem\u00e1": 5648,
  "\u2581female": 5649,
  "\u2581kokaba": 5650,
  "\u2581mili\u00f3": 5651,
  "\u2581tolobeli": 5652,
  "\u2581t\u00f3luka": 5653,
  "W": 5654,
  "rdi": 5655,
  "\u258100": 5656,
  "\u2581Bagr\u025bki": 5657,
  "\u2581Lamb": 5658,
  "\u2581Martin": 5659,
  "\u2581baselile": 5660,
  "\u2581blame": 5661,
  "\u2581hidden": 5662,
  "\u2581kosalaka": 5663,
  "\u2581obeying": 5664,
  "\u2581ruled": 5665,
  "keep": 5666,
  "\u2581Ninive": 5667,
  "\u2581Things": 5668,
  "\u2581b\u00e1kanga": 5669,
  "\u2581esil\u00e1": 5670,
  "\u2581intended": 5671,
  "\u2581repeated": 5672,
  "\u2581schools": 5673,
  "\u2581seventh": 5674,
  "Kokanis\u00e1": 5675,
  "not": 5676,
  "of": 5677,
  "\u258183": 5678,
  "\u2581Come": 5679,
  "\u2581Rwanda": 5680,
  "\u2581Sabata": 5681,
  "\u2581aged": 5682,
  "\u2581applies": 5683,
  "\u2581bayebani": 5684,
  "\u2581feature": 5685,
  "\u2581publicly": 5686,
  "\u2581smoke": 5687,
  "\u2581symbolic": 5688,
  "\u025b": 5689,
  "\u2581Evidently": 5690,
  "\u2581akomona": 5691,
  "\u2581ekomonana": 5692,
  "\u2581endimami": 5693,
  "\u2581fields": 5694,
  "\u2581foolish": 5695,
  "\u2581kanser": 5696,
  "\u2581mab\u025bl\u025b": 5697,
  "\u2581pregnant": 5698,
  "\u2581replaced": 5699,
  "\u2581sat": 5700,
  "\u25811947": 5701,
  "\u258129,": 5702,
  "\u2581Ana": 5703,
  "\u2581Contents": 5704,
  "\u2581Men": 5705,
  "\u2581abakisi": 5706,
  "\u2581akobatela": 5707,
  "\u2581akopambola": 5708,
  "\u2581atalelaki": 5709,
  "\u2581atosaki": 5710,
  "\u2581black": 5711,
  "\u2581glorify": 5712,
  "\u2581humankind": 5713,
  "\u2581judges": 5714,
  "\u2581kobimisama": 5715,
  "\u2581throw": 5716,
  "\u25812002": 5717,
  "\u258131]": 5718,
  "\u2581asalela": 5719,
  "\u2581babomamaki": 5720,
  "\u2581disasters": 5721,
  "\u2581kosopa": 5722,
  "\u2581storm": 5723,
  "\u2581tired": 5724,
  "Tozali": 5725,
  "et": 5726,
  "\u00ed": 5727,
  "\u2581Hana": 5728,
  "\u2581Master": 5729,
  "\u2581Next": 5730,
  "\u2581Orthodox": 5731,
  "\u2581believing": 5732,
  "\u2581capacity": 5733,
  "\u2581ends": 5734,
  "\u2581finish": 5735,
  "\u2581koswana": 5736,
  "\u2581protected": 5737,
  "\u2581sets": 5738,
  "bana": 5739,
  "\u2581Banazi": 5740,
  "\u2581Long": 5741,
  "\u2581azongisaki": 5742,
  "\u2581citizens": 5743,
  "\u2581contributed": 5744,
  "\u2581d\u00e9mocratique": 5745,
  "\u2581esakolamaki": 5746,
  "\u2581fitting": 5747,
  "\u2581lips": 5748,
  "\u2581milk": 5749,
  "\u2581osepeli": 5750,
  "\u2581turns": 5751,
  "\u2581weakness": 5752,
  "ate": 5753,
  "oyekoli": 5754,
  "\u2581Chine": 5755,
  "\u2581Henry": 5756,
  "\u2581Years": 5757,
  "\u2581bayei": 5758,
  "\u2581ebengami": 5759,
  "\u2581immortal": 5760,
  "\u2581kosilika": 5761,
  "\u2581kos\u025bnz\u025bla": 5762,
  "\u2581lifestyle": 5763,
  "\u2581meditation": 5764,
  "\u2581poured": 5765,
  "\u2581southern": 5766,
  "\u2581supposed": 5767,
  "\u2581tabernacle": 5768,
  "\u2581tokoloba": 5769,
  "\u2581Galilee": 5770,
  "\u2581Mangomba": 5771,
  "\u2581approaching": 5772,
  "\u2581bondeko": 5773,
  "\u2581eagerly": 5774,
  "\u2581reminders": 5775,
  "\u2581schedule": 5776,
  "ER": 5777,
  "ized": 5778,
  "laki": 5779,
  "\u25812013": 5780,
  "\u2581Eastern": 5781,
  "\u2581NDENGE": 5782,
  "\u2581abotaki": 5783,
  "\u2581addressed": 5784,
  "\u2581arkeoloji": 5785,
  "\u2581central": 5786,
  "\u2581discussions": 5787,
  "\u2581okanisi": 5788,
  "\u2581prejudice": 5789,
  "\u2581tendency": 5790,
  "Liloba": 5791,
  "Who": 5792,
  "\u2581(4)": 5793,
  "\u2581Azwak": 5794,
  "\u2581Heb": 5795,
  "\u2581Republic": 5796,
  "\u2581Ruta": 5797,
  "\u2581Uta": 5798,
  "\u2581afternoon": 5799,
  "\u2581akolinga": 5800,
  "\u2581ayei": 5801,
  "\u2581mates": 5802,
  "\u2581outlook": 5803,
  "\u2581paper": 5804,
  "\u2581stones": 5805,
  "ut": 5806,
  "\u25812004": 5807,
  "\u2581Amosa": 5808,
  "\u2581Yoa": 5809,
  "\u2581Yuni": 5810,
  "\u2581accident": 5811,
  "\u2581azalisaki": 5812,
  "\u2581banakelasi": 5813,
  "\u2581ekolanda": 5814,
  "\u2581execution": 5815,
  "\u2581kob\u025bl\u025bma": 5816,
  "\u2581kolakisama": 5817,
  "\u2581natikaki": 5818,
  "\u2581nzoi": 5819,
  "\u2581tent": 5820,
  "\u2581teoloji": 5821,
  "\u2581t\u00f3kende": 5822,
  "ance": 5823,
  "men": 5824,
  "\u258133,": 5825,
  "\u258145.": 5826,
  "\u2581Josiah": 5827,
  "\u2581Kenya": 5828,
  "\u2581bakoyeba": 5829,
  "\u2581kosambisama": 5830,
  "\u2581respected": 5831,
  "\u2581velo": 5832,
  "AL": 5833,
  "Yo": 5834,
  "his": 5835,
  "\u2581admitted": 5836,
  "\u2581ayoki": 5837,
  "\u2581emotionally": 5838,
  "\u2581islands": 5839,
  "\u2581length": 5840,
  "\u2581minzemba": 5841,
  "\u2581moindo": 5842,
  "\u2581nkom\u00e1": 5843,
  "\u2581operation": 5844,
  "\u2581symbol": 5845,
  "\u2581universal": 5846,
  "\u2581wood": 5847,
  "By": 5848,
  "kolobela": 5849,
  "\u2581Heart": 5850,
  "\u2581Koyekola": 5851,
  "\u2581Map": 5852,
  "\u2581UN": 5853,
  "\u2581abalaki": 5854,
  "\u2581b\u00e1ya": 5855,
  "\u2581elambo": 5856,
  "\u2581items": 5857,
  "\u2581kopalangana": 5858,
  "\u2581lombangu": 5859,
  "\u2581momboto": 5860,
  "\u2581murder": 5861,
  "\u2581profound": 5862,
  "\u2581treasures": 5863,
  "\u2581wear": 5864,
  "Ndeng": 5865,
  "tats": 5866,
  "\u2581103": 5867,
  "\u258132,": 5868,
  "\u2581Back": 5869,
  "\u2581Ezra": 5870,
  "\u2581Frank": 5871,
  "\u2581Habakuku": 5872,
  "\u2581Kokanis\u00e1": 5873,
  "\u2581Yosiya": 5874,
  "\u2581[\"": 5875,
  "\u2581ekweaki": 5876,
  "\u2581el\u025bngi": 5877,
  "\u2581format": 5878,
  "\u2581kobatelama": 5879,
  "\u2581kozongisama": 5880,
  "\u2581marital": 5881,
  "\u2581numbers": 5882,
  "\u2581preserved": 5883,
  "\u2581proclaimers": 5884,
  "\u2581scale": 5885,
  "\u2581trusting": 5886,
  "\u25811935": 5887,
  "\u2581Habakkuk": 5888,
  "\u2581Herod": 5889,
  "\u2581Making": 5890,
  "\u2581Much": 5891,
  "\u2581bab\u025btaki": 5892,
  "\u2581bamasini": 5893,
  "\u2581ebembe": 5894,
  "\u2581exert": 5895,
  "\u2581kosakwela": 5896,
  "\u2581momekano": 5897,
  "\u2581mozwi": 5898,
  "\u2581rate": 5899,
  "\u2581tobandaki": 5900,
  "\u2581widespread": 5901,
  "\u2581Committee": 5902,
  "\u2581Kosalela": 5903,
  "\u2581bakimaki": 5904,
  "\u2581bakobika": 5905,
  "\u2581creature": 5906,
  "\u2581ejali": 5907,
  "\u2581engaged": 5908,
  "\u2581heads": 5909,
  "\u2581kolongisa": 5910,
  "\u2581method": 5911,
  "\u2581ngalasisi": 5912,
  "\u2581politics": 5913,
  "\u2581supplies": 5914,
  "\u2581whereas": 5915,
  "ING": 5916,
  "\u2581Living": 5917,
  "\u2581amekaki": 5918,
  "\u2581arrival": 5919,
  "\u2581bakelasi": 5920,
  "\u2581ekosepelisa": 5921,
  "\u2581elimbolaki": 5922,
  "\u2581etalelaki": 5923,
  "\u2581hunger": 5924,
  "\u2581likolo": 5925,
  "\u2581metal": 5926,
  "\u2581proverb": 5927,
  "\u2581safety": 5928,
  "&": 5929,
  "\u258173": 5930,
  "\u2581Amonak": 5931,
  "\u2581Losambo": 5932,
  "\u2581Ntembe": 5933,
  "\u2581ayebanaki": 5934,
  "\u2581efelo": 5935,
  "\u2581eliminate": 5936,
  "\u2581fears": 5937,
  "\u2581hema": 5938,
  "\u2581komimona": 5939,
  "\u2581mizalaki": 5940,
  "\u2581printing": 5941,
  "\u2581privileged": 5942,
  "\u2581recreation": 5943,
  "by": 5944,
  "m\u00e1": 5945,
  "\u2581Bakatolike": 5946,
  "\u2581Mis": 5947,
  "\u2581Orient": 5948,
  "\u2581Pene": 5949,
  "\u2581admits": 5950,
  "\u2581alongolaki": 5951,
  "\u2581depressed": 5952,
  "\u2581desirable": 5953,
  "\u2581guilt": 5954,
  "\u2581kolongobana": 5955,
  "\u2581kotalelama": 5956,
  "\u2581patients": 5957,
  "\u2581rewarding": 5958,
  "\u2581totally": 5959,
  "\u2581virtue": 5960,
  "\u2581visible": 5961,
  "Your": 5962,
  "\u2581Ekateli": 5963,
  "\u2581Published": 5964,
  "\u2581Red": 5965,
  "\u2581babandi": 5966,
  "\u2581bakopesa": 5967,
  "\u2581bride": 5968,
  "\u2581ebimel": 5969,
  "\u2581educational": 5970,
  "\u2581f\u0254t\u0254": 5971,
  "\u2581movement": 5972,
  "\u2581mwinda": 5973,
  "\u2581regardless": 5974,
  "\u2581tobacco": 5975,
  "\u2581zal\u00e1": 5976,
  "\u25811918": 5977,
  "\u2581EZALI": 5978,
  "\u2581Elders": 5979,
  "\u2581Judge": 5980,
  "\u2581access": 5981,
  "\u2581admit": 5982,
  "\u2581akendeki": 5983,
  "\u2581akotya": 5984,
  "\u2581art": 5985,
  "\u2581bizalaki": 5986,
  "\u2581capable": 5987,
  "\u2581empire": 5988,
  "\u2581esilaka": 5989,
  "\u2581kokokanisa": 5990,
  "\u2581konyata": 5991,
  "\u2581kozwama": 5992,
  "\u2581lo": 5993,
  "\u2581looks": 5994,
  "\u2581safeguard": 5995,
  "mokili": 5996,
  "\u2581Basambisi": 5997,
  "\u2581Gal": 5998,
  "\u2581IS": 5999,
  "\u2581bateyaka": 6000,
  "\u2581bitter": 6001,
  "\u2581introduced": 6002,
  "\u2581kozalisa": 6003,
  "\u2581likened": 6004,
  "\u2581losing": 6005,
  "\u2581pembenipembeni": 6006,
  "\u2581pornography": 6007,
  "\u2581sending": 6008,
  "\u2581sentence": 6009,
  "\u2581willingness": 6010,
  "bampate": 6011,
  "\u2581Libondeli": 6012,
  "\u2581abungisaki": 6013,
  "\u2581anti": 6014,
  "\u2581bap\u0254s\u0254": 6015,
  "\u2581b\u00e1tya": 6016,
  "\u2581kopesana": 6017,
  "\u2581namonaka": 6018,
  "\u2581repent": 6019,
  "\u2581yoke": 6020,
  "ir": 6021,
  "tic": 6022,
  "\u2581Truly": 6023,
  "\u2581Vatican": 6024,
  "\u2581akobika": 6025,
  "\u2581credit": 6026,
  "\u2581cup": 6027,
  "\u2581difficulty": 6028,
  "\u2581ek\u0254ti": 6029,
  "\u2581eumeli": 6030,
  "\u2581milona": 6031,
  "\u2581pieces": 6032,
  "\u2581planning": 6033,
  "\u2581scientific": 6034,
  "\u2581sports": 6035,
  "\u2581witnessed": 6036,
  "Go": 6037,
  "biloko": 6038,
  "salaka": 6039,
  "\u25812005": 6040,
  "\u2581Get": 6041,
  "\u2581Judges": 6042,
  "\u2581acquainted": 6043,
  "\u2581akokufa": 6044,
  "\u2581asilisaki": 6045,
  "\u2581covering": 6046,
  "\u2581earnestly": 6047,
  "\u2581ekobatela": 6048,
  "\u2581ekoka": 6049,
  "\u2581heal": 6050,
  "\u2581imprisoned": 6051,
  "\u2581kinds": 6052,
  "\u2581nd\u0254t\u0254": 6053,
  "\u2581ordinat\u025br\u025b": 6054,
  "\u2581totali": 6055,
  "\u2581twice": 6056,
  "\u2581wheat": 6057,
  "\u2581zealously": 6058,
  "ie": 6059,
  "\u2581Again": 6060,
  "\u2581Malawi": 6061,
  "\u2581Motuna": 6062,
  "\u2581bakokufa": 6063,
  "\u2581bakopi": 6064,
  "\u2581conversations": 6065,
  "\u2581cried": 6066,
  "\u2581east": 6067,
  "\u2581faces": 6068,
  "\u2581objective": 6069,
  "\u2581satisfy": 6070,
  "\u2581sayings": 6071,
  "\u2581silent": 6072,
  "com": 6073,
  "other": 6074,
  "sh": 6075,
  "\u2581Western": 6076,
  "\u2581akimaki": 6077,
  "\u2581bobangi": 6078,
  "\u2581claims": 6079,
  "\u2581crowds": 6080,
  "\u2581detail": 6081,
  "\u2581examination": 6082,
  "\u2581mosangan": 6083,
  "\u2581m\u0254k\u0254": 6084,
  "\u2581nzoku": 6085,
  "\u2581practiced": 6086,
  "\u2581prophesied": 6087,
  "\u2581solve": 6088,
  "nda": 6089,
  "that": 6090,
  "\u2581AND": 6091,
  "\u2581MASOLO": 6092,
  "\u2581Nayebi": 6093,
  "\u2581Were": 6094,
  "\u2581amazing": 6095,
  "\u2581application": 6096,
  "\u2581declaring": 6097,
  "\u2581drive": 6098,
  "\u2581happening": 6099,
  "\u2581heat": 6100,
  "\u2581inspiring": 6101,
  "\u2581kokanisela": 6102,
  "\u2581matambe": 6103,
  "\u2581mpaka": 6104,
  "\u2581mpema": 6105,
  "\u2581observing": 6106,
  "\u2581pa": 6107,
  "\u2581programs": 6108,
  "\u2581reside": 6109,
  "\u2581residents": 6110,
  "\u2581senses": 6111,
  "\u2581sources": 6112,
  "\u2581teenager": 6113,
  "yo": 6114,
  "\u00e3o": 6115,
  "\u2581IT": 6116,
  "\u2581Learning": 6117,
  "\u2581Sermon": 6118,
  "\u2581asepeli": 6119,
  "\u2581conflicts": 6120,
  "\u2581courageously": 6121,
  "\u2581ek\u00f3meli": 6122,
  "\u2581goats": 6123,
  "\u2581impact": 6124,
  "\u2581kokokana": 6125,
  "\u2581plants": 6126,
  "age": 6127,
  "sami": 6128,
  "\u2581Elihu": 6129,
  "\u2581Mpate": 6130,
  "\u2581Which": 6131,
  "\u2581abandisaki": 6132,
  "\u2581current": 6133,
  "\u2581disobedience": 6134,
  "\u2581ebanda": 6135,
  "\u2581esepelisak": 6136,
  "\u2581exciting": 6137,
  "\u2581gambling": 6138,
  "\u2581koyikela": 6139,
  "\u2581lofundo": 6140,
  "\u2581participate": 6141,
  "\u2581rendering": 6142,
  "\u2581resolved": 6143,
  "\u2581streets": 6144,
  "so": 6145,
  "\u00f3": 6146,
  "\u25812006": 6147,
  "\u2581Bamonak": 6148,
  "\u2581Jew": 6149,
  "\u2581akei": 6150,
  "\u2581bakobaki": 6151,
  "\u2581choosing": 6152,
  "\u2581compromise": 6153,
  "\u2581ekamwisaki": 6154,
  "\u2581loposo": 6155,
  "\u2581masasi": 6156,
  "\u2581minded": 6157,
  "\u2581prosperity": 6158,
  "\u2581regret": 6159,
  "\u2581testimony": 6160,
  "\u2581t\u00f3batela": 6161,
  "\u2581unusual": 6162,
  "%": 6163,
  "ED": 6164,
  "aka": 6165,
  "nt": 6166,
  "\u2581Canaan": 6167,
  "\u2581babebisaki": 6168,
  "\u2581elements": 6169,
  "\u2581possibility": 6170,
  "\u2581sincerely": 6171,
  "\u2581t\u00f3monisa": 6172,
  "\u25811946": 6173,
  "\u2581Gentiles": 6174,
  "\u2581Knowledge": 6175,
  "\u2581Use": 6176,
  "\u2581akoboma": 6177,
  "\u2581bakoloba": 6178,
  "\u2581balongolaki": 6179,
  "\u2581ear": 6180,
  "\u2581ebakisi": 6181,
  "\u2581firstborn": 6182,
  "\u2581luk\u00e1": 6183,
  "\u2581nkingo": 6184,
  "\u2581title": 6185,
  "k\u00f3m\u00e1": 6186,
  "laka": 6187,
  "ward": 6188,
  "\u2581144,000": 6189,
  "\u25811958": 6190,
  "\u2581Dan": 6191,
  "\u2581Right": 6192,
  "\u2581b\u00e1fanda": 6193,
  "\u2581dati": 6194,
  "\u2581ekoleka": 6195,
  "\u2581evolution": 6196,
  "\u2581extra": 6197,
  "\u2581fled": 6198,
  "\u2581fresh": 6199,
  "\u2581nakanisaki": 6200,
  "\u2581openly": 6201,
  "\u2581winter": 6202,
  "J": 6203,
  "t\u025b": 6204,
  "\u2581Gideon": 6205,
  "\u2581Last": 6206,
  "\u2581MOSUSU": 6207,
  "\u2581Numbers": 6208,
  "\u2581Pe": 6209,
  "\u2581Trust": 6210,
  "\u2581atongaki": 6211,
  "\u2581b\u00e1boma": 6212,
  "\u2581demands": 6213,
  "\u2581ekobima": 6214,
  "\u2581encounter": 6215,
  "\u2581endimisak": 6216,
  "\u2581famine": 6217,
  "\u2581healed": 6218,
  "\u2581helper": 6219,
  "\u2581judicial": 6220,
  "\u2581lip\u025bngwi": 6221,
  "\u2581nasalaka": 6222,
  "\u2581previous": 6223,
  "Ata": 6224,
  "Why": 6225,
  "\u2581Abakisaki": 6226,
  "\u2581Kokanisa": 6227,
  "\u2581Millions": 6228,
  "\u2581Sanza": 6229,
  "\u2581T\u00f3": 6230,
  "\u2581Zekalia": 6231,
  "\u2581akoba": 6232,
  "\u2581atondi": 6233,
  "\u2581bought": 6234,
  "\u2581discussing": 6235,
  "\u2581ebebi": 6236,
  "\u2581elsewhere": 6237,
  "\u2581esalelaka": 6238,
  "\u2581farm": 6239,
  "\u2581lines": 6240,
  "\u2581motive": 6241,
  "\u2581oppression": 6242,
  "\u2581phone": 6243,
  "\u2581telephone": 6244,
  "\u2581Mokakatano": 6245,
  "\u2581ako": 6246,
  "\u2581anxieties": 6247,
  "\u2581auti": 6248,
  "\u2581bus": 6249,
  "\u2581computer": 6250,
  "\u2581equipped": 6251,
  "\u2581handed": 6252,
  "\u2581komitambwisa": 6253,
  "\u2581lapolo": 6254,
  "\u2581nak\u0254taki": 6255,
  "\u2581osalaka": 6256,
  "\u2581reasoned": 6257,
  "\u2581sell": 6258,
  "\u2581sufficient": 6259,
  "\u2581types": 6260,
  "ere": 6261,
  "letting": 6262,
  "\u2581Catholics": 6263,
  "\u2581Kimya": 6264,
  "\u2581Near": 6265,
  "\u2581afflicted": 6266,
  "\u2581atindelak": 6267,
  "\u2581color": 6268,
  "\u2581conform": 6269,
  "\u2581etyamaki": 6270,
  "\u2581figure": 6271,
  "\u2581income": 6272,
  "\u2581linked": 6273,
  "\u2581ministre": 6274,
  "\u2581molung\u00e9": 6275,
  "\u2581previously": 6276,
  "\u2581professor": 6277,
  "\u2581urge": 6278,
  "\u2581Above": 6279,
  "\u2581Happiness": 6280,
  "\u2581Library": 6281,
  "\u2581babomi": 6282,
  "\u2581b\u00f3sala": 6283,
  "\u2581effectively": 6284,
  "\u2581etindi": 6285,
  "\u2581koponapona": 6286,
  "\u2581liziba": 6287,
  "\u2581morally": 6288,
  "\u2581s\u025bk\u025bl\u025b": 6289,
  "\u258129]": 6290,
  "\u2581Joy": 6291,
  "\u2581Palestine": 6292,
  "\u2581Protestant": 6293,
  "\u2581alimbisaka": 6294,
  "\u2581asleep": 6295,
  "\u2581badness": 6296,
  "\u2581baguv\u025brnema": 6297,
  "\u2581batiki": 6298,
  "\u2581childhood": 6299,
  "\u2581defense": 6300,
  "\u2581depend": 6301,
  "\u2581doubts": 6302,
  "\u2581feeding": 6303,
  "\u2581hardships": 6304,
  "\u2581hated": 6305,
  "\u2581izali": 6306,
  "\u2581kosalel\u00e1k\u00e1": 6307,
  "\u2581necessarily": 6308,
  "\u2581prospects": 6309,
  "\u2581typical": 6310,
  "\u2581vow": 6311,
  "Happy": 6312,
  "ncient": 6313,
  "ouvelle": 6314,
  "\u2581700": 6315,
  "\u2581Divine": 6316,
  "\u2581achieve": 6317,
  "\u2581bakamwaki": 6318,
  "\u2581bantaba": 6319,
  "\u2581depth": 6320,
  "\u2581expressing": 6321,
  "\u2581grant": 6322,
  "\u2581influences": 6323,
  "\u2581kopota": 6324,
  "\u2581kotondisa": 6325,
  "\u2581marriages": 6326,
  "\u2581missing": 6327,
  "\u2581mpota": 6328,
  "\u2581ntei": 6329,
  "\u2581portion": 6330,
  "b\u025b": 6331,
  "if": 6332,
  "zwi": 6333,
  "\u2581Les": 6334,
  "\u2581beat": 6335,
  "\u2581check": 6336,
  "\u2581emonisamaki": 6337,
  "\u2581f": 6338,
  "\u2581fruits": 6339,
  "\u2581g": 6340,
  "\u2581governing": 6341,
  "\u2581likol\u00f3likol\u00f3": 6342,
  "\u2581ndakonzambe": 6343,
  "\u2581obeyed": 6344,
  "\u2581passage": 6345,
  "\u2581settled": 6346,
  "\u2581shine": 6347,
  "\u2581survey": 6348,
  "ngumba": 6349,
  "\u25811942": 6350,
  "\u2581Alexander": 6351,
  "\u2581Certainly": 6352,
  "\u2581HAVE": 6353,
  "\u2581as\u025bngaka": 6354,
  "\u2581author": 6355,
  "\u2581experiencing": 6356,
  "\u2581hoped": 6357,
  "\u2581informed": 6358,
  "\u2581ok\u00f3ma": 6359,
  "\u2581permission": 6360,
  "\u2581represents": 6361,
  "da": 6362,
  "x": 6363,
  "\u2581Faithful": 6364,
  "\u2581Irlande": 6365,
  "\u2581al\u025bmbaki": 6366,
  "\u2581elendis": 6367,
  "\u2581errors": 6368,
  "\u2581eut\u00e1": 6369,
  "\u2581expectation": 6370,
  "\u2581flow": 6371,
  "\u2581friendly": 6372,
  "\u2581lacking": 6373,
  "\u2581meditating": 6374,
  "\u2581offerings": 6375,
  "\u2581reduce": 6376,
  "\u2581remote": 6377,
  "\u2581respects": 6378,
  "\u2581temper": 6379,
  "\u2581\u0190": 6380,
  "\u2581Any": 6381,
  "\u2581Bagreke": 6382,
  "\u2581Encyclop\u00e6dia": 6383,
  "\u2581Tosalak": 6384,
  "\u2581Try": 6385,
  "\u2581adjust": 6386,
  "\u2581bamaniskri": 6387,
  "\u2581considerable": 6388,
  "\u2581ebomak": 6389,
  "\u2581ebongwani": 6390,
  "\u2581epemami": 6391,
  "\u2581expectations": 6392,
  "\u2581hungry": 6393,
  "\u2581illustrated": 6394,
  "\u2581impression": 6395,
  "\u2581kokatisa": 6396,
  "\u2581mobotam": 6397,
  "\u2581nak\u00f3ma": 6398,
  "\u2581piece": 6399,
  "\u2581widows": 6400,
  "Spanish": 6401,
  "\u258162": 6402,
  "\u2581Barnabas": 6403,
  "\u2581Cor\u00e9e": 6404,
  "\u2581Far": 6405,
  "\u2581Moyen": 6406,
  "\u2581Need": 6407,
  "\u2581abatelaka": 6408,
  "\u2581akokisa": 6409,
  "\u2581ayembaki": 6410,
  "\u2581babimaki": 6411,
  "\u2581bit\u00fak\u00e1": 6412,
  "\u2581elonga": 6413,
  "\u2581eumelaka": 6414,
  "\u2581eyaka": 6415,
  "\u2581kot\u00e1ngama": 6416,
  "\u2581namely": 6417,
  "\u2581ofele": 6418,
  "\u2581priesthood": 6419,
  "\u2581rebellious": 6420,
  "\u2581solol\u00e1": 6421,
  "\u2581strangers": 6422,
  "\u2581talked": 6423,
  "\u2581weigh": 6424,
  "\u2581worry": 6425,
  "\u25811953": 6426,
  "\u258133:": 6427,
  "\u2581BOMOI": 6428,
  "\u2581Dead": 6429,
  "\u2581Judaism": 6430,
  "\u2581Kopesa": 6431,
  "\u2581MPE": 6432,
  "\u2581abongoli": 6433,
  "\u2581bakeseni": 6434,
  "\u2581b\u00e1kanisa": 6435,
  "\u2581declaration": 6436,
  "\u2581enduring": 6437,
  "\u2581mabongi": 6438,
  "\u2581manifested": 6439,
  "\u2581similarly": 6440,
  "\u2581t\u00f3koka": 6441,
  "\u2581t\u00f3tya": 6442,
  "\u2581Bapesak": 6443,
  "\u2581Pologne": 6444,
  "\u2581baj\u025bst\u025b": 6445,
  "\u2581bakompanyi": 6446,
  "\u2581bakoyangela": 6447,
  "\u2581bamemi": 6448,
  "\u2581batosaki": 6449,
  "\u2581begun": 6450,
  "\u2581floor": 6451,
  "\u2581honesty": 6452,
  "\u2581komikumisa": 6453,
  "\u2581kosakolama": 6454,
  "\u2581loyally": 6455,
  "\u2581manuscripts": 6456,
  "\u2581memories": 6457,
  "\u2581tongues": 6458,
  "\u2581Ahab": 6459,
  "\u2581Ruler": 6460,
  "\u2581View": 6461,
  "\u2581ekende": 6462,
  "\u2581mayemi": 6463,
  "\u2581mazwami": 6464,
  "\u2581messages": 6465,
  "\u2581miss": 6466,
  "\u2581rewards": 6467,
  "\u2581wealthy": 6468,
  "\u2581weather": 6469,
  "apolo": 6470,
  "ud": 6471,
  "\u2581110": 6472,
  "\u25811952": 6473,
  "\u2581Journal": 6474,
  "\u2581badem\u00f3": 6475,
  "\u2581batongaki": 6476,
  "\u2581earnest": 6477,
  "\u2581estimated": 6478,
  "\u2581lion": 6479,
  "\u2581nalobaki": 6480,
  "\u2581obstacles": 6481,
  "\u2581periods": 6482,
  "\u2581plenty": 6483,
  "\u2581rescue": 6484,
  "\u2581stands": 6485,
  "\u2581strike": 6486,
  "\u2581tokolobela": 6487,
  "\u2581vain": 6488,
  "AN": 6489,
  "Kasi": 6490,
  "ho": 6491,
  "okapo": 6492,
  "om": 6493,
  "\u2581appealing": 6494,
  "\u2581changing": 6495,
  "\u2581disappointed": 6496,
  "\u2581ekozwa": 6497,
  "\u2581komesana": 6498,
  "\u2581koyanganisa": 6499,
  "\u2581medicine": 6500,
  "\u2581peaceable": 6501,
  "\u2581refugees": 6502,
  "\u2581surprising": 6503,
  "\u2581uphold": 6504,
  "motema": 6505,
  "\u258132;": 6506,
  "\u2581announced": 6507,
  "\u2581babikaki": 6508,
  "\u2581b\u00e1yoka": 6509,
  "\u2581deeper": 6510,
  "\u2581ebongol": 6511,
  "\u2581esimbi": 6512,
  "\u2581exact": 6513,
  "\u2581facilities": 6514,
  "\u2581festival": 6515,
  "\u2581fulfilling": 6516,
  "\u2581idols": 6517,
  "\u2581joyfully": 6518,
  "\u2581kolangwa": 6519,
  "\u2581larger": 6520,
  "\u2581media": 6521,
  "\u2581pick": 6522,
  "\u2581pwasa": 6523,
  "\u2581statements": 6524,
  "\u2581translators": 6525,
  "\u2581upset": 6526,
  "kanisaki": 6527,
  "pesaki": 6528,
  "\u2581Baanzelu": 6529,
  "\u2581Consequently": 6530,
  "\u2581Eling": 6531,
  "\u2581Espagnol": 6532,
  "\u2581Levites": 6533,
  "\u2581Office": 6534,
  "\u2581Review": 6535,
  "\u2581Zion": 6536,
  "\u2581atambwisa": 6537,
  "\u2581avoided": 6538,
  "\u2581ayebani": 6539,
  "\u2581comfortable": 6540,
  "\u2581convey": 6541,
  "\u2581immediate": 6542,
  "\u2581liboke": 6543,
  "\u2581lower": 6544,
  "\u2581maba": 6545,
  "\u2581omonaka": 6546,
  "\u2581pursuit": 6547,
  "\u2581separated": 6548,
  "\u2581sorrow": 6549,
  "\u2581supporting": 6550,
  "\u2581tondimi": 6551,
  "\u2581weekly": 6552,
  "V": 6553,
  "\u2581Con": 6554,
  "\u2581Mobateli": 6555,
  "\u2581Nalingi": 6556,
  "\u2581Nov\u025bmb\u025b": 6557,
  "\u2581Organization": 6558,
  "\u2581assemblies": 6559,
  "\u2581entirely": 6560,
  "\u2581etambolaka": 6561,
  "\u2581hide": 6562,
  "\u2581hopes": 6563,
  "\u2581kobengana": 6564,
  "\u2581kob\u00e9nga": 6565,
  "\u2581mip\u025bp\u025b": 6566,
  "\u2581misionere": 6567,
  "\u2581nalingaka": 6568,
  "\u2581reflects": 6569,
  "\u2581submit": 6570,
  "\u2581urgency": 6571,
  "\u2581volunteers": 6572,
  "new": 6573,
  "su": 6574,
  "\u25811988": 6575,
  "\u2581Bethlehem": 6576,
  "\u2581Bosembo": 6577,
  "\u2581LI": 6578,
  "\u2581Little": 6579,
  "\u2581Milton": 6580,
  "\u2581Talmud": 6581,
  "\u2581arose": 6582,
  "\u2581bakutani": 6583,
  "\u2581banyongo": 6584,
  "\u2581diet": 6585,
  "\u2581etongamaki": 6586,
  "\u2581kosikolama": 6587,
  "\u2581limpinga": 6588,
  "\u2581nandimaki": 6589,
  "\u2581restoration": 6590,
  "ag": 6591,
  "\u2581Chinese": 6592,
  "\u2581Emonanak": 6593,
  "\u2581Mr": 6594,
  "\u2581bakis\u00e1": 6595,
  "\u2581bankolo": 6596,
  "\u2581base": 6597,
  "\u2581co": 6598,
  "\u2581doors": 6599,
  "\u2581edition": 6600,
  "\u2581fed": 6601,
  "\u2581injury": 6602,
  "\u2581lokolo": 6603,
  "\u2581resort": 6604,
  "\u2581space": 6605,
  "\u2581waste": 6606,
  "\u2581\u025b": 6607,
  "Swahili": 6608,
  "talaki": 6609,
  "\u258132]": 6610,
  "\u2581End": 6611,
  "\u2581Galilai": 6612,
  "\u2581Marie": 6613,
  "\u2581Middle": 6614,
  "\u2581Minganga": 6615,
  "\u2581Rev": 6616,
  "\u2581banki": 6617,
  "\u2581biyambayamba": 6618,
  "\u2581b\u00e1k\u0254ta": 6619,
  "\u2581driving": 6620,
  "\u2581exchange": 6621,
  "\u2581globe": 6622,
  "\u2581koimaima": 6623,
  "\u2581kolandela": 6624,
  "\u2581kotambwisama": 6625,
  "\u2581mbangumbangu": 6626,
  "\u2581molobi": 6627,
  "\u2581nazwa": 6628,
  "\u2581neutral": 6629,
  "\u2581records": 6630,
  "\u2581surrounding": 6631,
  "land": 6632,
  "tra": 6633,
  "\u25811951": 6634,
  "\u258163": 6635,
  "\u2581Index": 6636,
  "\u2581Judas": 6637,
  "\u2581Mapamboli": 6638,
  "\u2581ONU": 6639,
  "\u2581adjustments": 6640,
  "\u2581bakomeli": 6641,
  "\u2581desired": 6642,
  "\u2581director": 6643,
  "\u2581distributed": 6644,
  "\u2581et": 6645,
  "\u2581ezwaka": 6646,
  "\u2581komizela": 6647,
  "\u2581kozokisa": 6648,
  "\u2581lizalaki": 6649,
  "\u2581nakanisi": 6650,
  "\u2581neglect": 6651,
  "\u2581pursuits": 6652,
  "\u2581requirement": 6653,
  "\u2581sing": 6654,
  "\u2581suitable": 6655,
  "\u2581tokutanaki": 6656,
  "koba": 6657,
  "ku": 6658,
  "\u25811949": 6659,
  "\u2581akokanisak": 6660,
  "\u2581apostate": 6661,
  "\u2581duties": 6662,
  "\u2581ekolendisa": 6663,
  "\u2581emphasized": 6664,
  "\u2581expects": 6665,
  "\u2581explaining": 6666,
  "\u2581initial": 6667,
  "\u2581intelligent": 6668,
  "\u2581ofuta": 6669,
  "\u2581prezida": 6670,
  "\u2581recognition": 6671,
  "Etikali": 6672,
  "Mbala": 6673,
  "good": 6674,
  "kotya": 6675,
  "op": 6676,
  "\u2581Cyrus": 6677,
  "\u2581Likely": 6678,
  "\u2581Liwa": 6679,
  "\u2581Nineveh": 6680,
  "\u2581Samaria": 6681,
  "\u2581Simon": 6682,
  "\u2581azangaki": 6683,
  "\u2581code": 6684,
  "\u2581commonly": 6685,
  "\u2581continually": 6686,
  "\u2581cultivating": 6687,
  "\u2581ekotikala": 6688,
  "\u2581ensure": 6689,
  "\u2581flood": 6690,
  "\u2581graduates": 6691,
  "\u2581hates": 6692,
  "\u2581moteyi": 6693,
  "\u2581pity": 6694,
  "\u2581teokrasi": 6695,
  "\u2581tosalelaka": 6696,
  "\u2581tragic": 6697,
  "\u2581unbeliev": 6698,
  "\u2581urgent": 6699,
  "\u2581wa": 6700,
  "mbo": 6701,
  "\u258164": 6702,
  "\u2581Ahaba": 6703,
  "\u2581bazuzi": 6704,
  "\u2581bones": 6705,
  "\u2581celebration": 6706,
  "\u2581comparison": 6707,
  "\u2581esalisa": 6708,
  "\u2581exile": 6709,
  "\u2581friendships": 6710,
  "\u2581journal": 6711,
  "\u2581mbonge": 6712,
  "\u2581nasili": 6713,
  "\u2581prefer": 6714,
  "\u2581shoulder": 6715,
  "\u2581suicide": 6716,
  "\u2581t\u00f3ndima": 6717,
  "\u25811955": 6718,
  "\u2581Bino": 6719,
  "\u2581Jos\u00e9": 6720,
  "\u2581Knowing": 6721,
  "\u2581Modern": 6722,
  "\u2581Priest": 6723,
  "\u2581Theocratic": 6724,
  "\u2581akanisaka": 6725,
  "\u2581belongings": 6726,
  "\u2581bright": 6727,
  "\u2581demand": 6728,
  "\u2581deserve": 6729,
  "\u2581ekobimisa": 6730,
  "\u2581ekosilisa": 6731,
  "\u2581elek\u00e1": 6732,
  "\u2581fought": 6733,
  "\u2581komitalela": 6734,
  "\u2581lifetime": 6735,
  "\u2581maintained": 6736,
  "\u2581mapata": 6737,
  "\u2581nkaka": 6738,
  "\u2581tokomonisa": 6739,
  "Likambo": 6740,
  "Nayebi": 6741,
  "ikita": 6742,
  "my": 6743,
  "\u258141.": 6744,
  "\u2581Everyone": 6745,
  "\u2581Japanese": 6746,
  "\u2581Mom": 6747,
  "\u2581advancement": 6748,
  "\u2581amoniselak": 6749,
  "\u2581apekisaki": 6750,
  "\u2581assume": 6751,
  "\u2581babungisaki": 6752,
  "\u2581bakondima": 6753,
  "\u2581bakoya": 6754,
  "\u2581bayambaki": 6755,
  "\u2581ebendaka": 6756,
  "\u2581endless": 6757,
  "\u2581infant": 6758,
  "\u2581limits": 6759,
  "\u2581loud": 6760,
  "\u2581native": 6761,
  "\u2581post": 6762,
  "\u2581presents": 6763,
  "\u2581promotes": 6764,
  "\u2581reserved": 6765,
  "\u2581staff": 6766,
  "\u2581tosepelaka": 6767,
  "\u2581unfaithful": 6768,
  "bu": 6769,
  "lukaka": 6770,
  "most": 6771,
  "p\u0254": 6772,
  "\u2581Febwali": 6773,
  "\u2581Meanwhile": 6774,
  "\u2581akufel": 6775,
  "\u2581atikelak": 6776,
  "\u2581bab\u00e9ngi": 6777,
  "\u2581banyokolaki": 6778,
  "\u2581bibongi": 6779,
  "\u2581b\u00e1koba": 6780,
  "\u2581character": 6781,
  "\u2581commercial": 6782,
  "\u2581es\u025bngami": 6783,
  "\u2581jobs": 6784,
  "\u2581kingdoms": 6785,
  "\u2581masili": 6786,
  "\u2581miinda": 6787,
  "\u2581nazongaki": 6788,
  "\u2581objects": 6789,
  "\u2581obvious": 6790,
  "\u2581outcry": 6791,
  "\u2581patriarch": 6792,
  "\u2581playing": 6793,
  "\u2581press": 6794,
  "\u2581producing": 6795,
  "\u2581rid": 6796,
  "\u2581strongly": 6797,
  "\u2581unexpected": 6798,
  "kosalisa": 6799,
  "sepelaki": 6800,
  "\u258197": 6801,
  "\u2581Avoid": 6802,
  "\u2581Balobaki": 6803,
  "\u2581Become": 6804,
  "\u2581Ex": 6805,
  "\u2581Rose": 6806,
  "\u2581TIT": 6807,
  "\u2581Ty\u00e1": 6808,
  "\u2581T\u00f3zala": 6809,
  "\u2581akokoka": 6810,
  "\u2581alongwaki": 6811,
  "\u2581cultures": 6812,
  "\u2581ebongisamaki": 6813,
  "\u2581ebotaki": 6814,
  "\u2581engaging": 6815,
  "\u2581fun": 6816,
  "\u2581incident": 6817,
  "\u2581kot\u0254nda": 6818,
  "\u2581lileki": 6819,
  "\u2581modesty": 6820,
  "\u2581owner": 6821,
  "\u2581positions": 6822,
  "\u2581products": 6823,
  "\u2581species": 6824,
  "\u2581stumble": 6825,
  "\u2581tragedy": 6826,
  "ilende": 6827,
  "kotalela": 6828,
  "\u2581Nzela": 6829,
  "\u2581Sodom": 6830,
  "\u2581Walk": 6831,
  "\u2581ab\u025blaki": 6832,
  "\u2581atalaki": 6833,
  "\u2581b\u00e1kokisa": 6834,
  "\u2581ebebisamaki": 6835,
  "\u2581komonis": 6836,
  "\u2581kopamela": 6837,
  "\u2581nak\u00f3mi": 6838,
  "\u2581voluntary": 6839,
  "\u25811938": 6840,
  "\u25812,000": 6841,
  "\u258157": 6842,
  "\u2581Farao": 6843,
  "\u2581Rahab": 6844,
  "\u2581Siona": 6845,
  "\u2581alimboli": 6846,
  "\u2581bow": 6847,
  "\u2581comforted": 6848,
  "\u2581continuing": 6849,
  "\u2581design": 6850,
  "\u2581expensive": 6851,
  "\u2581follows": 6852,
  "\u2581fololo": 6853,
  "\u2581host": 6854,
  "\u2581kokundwela": 6855,
  "\u2581koyokanisa": 6856,
  "\u2581nazwi": 6857,
  "\u2581plain": 6858,
  "\u2581teeth": 6859,
  "\u2581thrilling": 6860,
  "\u2581tofandi": 6861,
  "\u2581t\u00f3kanga": 6862,
  "\u2581whenever": 6863,
  "Bana": 6864,
  "lolenge": 6865,
  "maka": 6866,
  "\u2581Athens": 6867,
  "\u2581Teaching": 6868,
  "\u2581Wisdom": 6869,
  "\u2581abroad": 6870,
  "\u2581angelic": 6871,
  "\u2581asekwisaki": 6872,
  "\u2581b\u00e1sepela": 6873,
  "\u2581cure": 6874,
  "\u2581despair": 6875,
  "\u2581maturity": 6876,
  "\u2581nk\u00f3t\u00e1": 6877,
  "\u2581prompt": 6878,
  "\u2581reproach": 6879,
  "\u2581thrilled": 6880,
  "\u2581trustworthy": 6881,
  "\u2581warnings": 6882,
  "Moombo": 6883,
  "are": 6884,
  "\u2581Ezela": 6885,
  "\u2581Interestingly": 6886,
  "\u2581USED": 6887,
  "\u2581Z\u00e1bolo": 6888,
  "\u2581ak\u00f3maka": 6889,
  "\u2581amipesi": 6890,
  "\u2581arrive": 6891,
  "\u2581bakoyoka": 6892,
  "\u2581balingami": 6893,
  "\u2581highlight": 6894,
  "\u2581hoping": 6895,
  "\u2581intimate": 6896,
  "\u2581judged": 6897,
  "\u2581kosenga": 6898,
  "\u2581nat\u00e1ngaki": 6899,
  "\u2581smile": 6900,
  "\u2581specifically": 6901,
  "\u2581thoroughly": 6902,
  "\u2581toyekoli": 6903,
  "\u2581Andrew": 6904,
  "\u2581BISO": 6905,
  "\u2581CA": 6906,
  "\u2581Ireland": 6907,
  "\u2581Karte": 6908,
  "\u2581Kotika": 6909,
  "\u2581Moninga": 6910,
  "\u2581Rachel": 6911,
  "\u2581Yok\u00e1": 6912,
  "\u2581contribution": 6913,
  "\u2581ebombami": 6914,
  "\u2581experts": 6915,
  "\u2581miraculously": 6916,
  "\u2581opinions": 6917,
  "\u2581priority": 6918,
  "\u2581rage": 6919,
  "\u2581realistic": 6920,
  "\u2581sharp": 6921,
  "\u2581tract": 6922,
  "\u2581t\u00f3sepela": 6923,
  "\u2581zoba": 6924,
  "\u258143.": 6925,
  "\u2581Additionally": 6926,
  "\u2581Art": 6927,
  "\u2581admonished": 6928,
  "\u2581akolaki": 6929,
  "\u2581ayoka": 6930,
  "\u2581conquered": 6931,
  "\u2581extraordinary": 6932,
  "\u2581games": 6933,
  "\u2581mb\u025bki": 6934,
  "\u2581mentions": 6935,
  "\u2581nayaki": 6936,
  "\u2581outset": 6937,
  "\u2581paths": 6938,
  "\u2581prais": 6939,
  "\u2581publisher": 6940,
  "\u2581receives": 6941,
  "\u2581sand": 6942,
  "\u2581shame": 6943,
  "\u2581t\u00f3longa": 6944,
  "kokanisi": 6945,
  "\u0254k\u0254": 6946,
  "\u2581Ave": 6947,
  "\u2581Italian": 6948,
  "\u2581Koluka": 6949,
  "\u2581MOKO": 6950,
  "\u2581Ohio": 6951,
  "\u2581Pays": 6952,
  "\u2581Put": 6953,
  "\u2581Yonatana": 6954,
  "\u2581ab\u025btaki": 6955,
  "\u2581ayekolaka": 6956,
  "\u2581bakokani": 6957,
  "\u2581bal\u025bmbi": 6958,
  "\u2581elekaka": 6959,
  "\u2581gaining": 6960,
  "\u2581handling": 6961,
  "\u2581haughty": 6962,
  "\u2581meantime": 6963,
  "\u2581motambwisi": 6964,
  "\u2581ok\u00f3mi": 6965,
  "\u2581prize": 6966,
  "\u2581p\u0254t\u0254p\u0254t\u0254": 6967,
  "\u2581scribes": 6968,
  "\u2581tokokaki": 6969,
  "Yango": 6970,
  "bosanaka": 6971,
  "per": 6972,
  "proving": 6973,
  "there": 6974,
  "\u25811931": 6975,
  "\u2581Beteleme": 6976,
  "\u2581Jersey": 6977,
  "\u2581SUBJECT": 6978,
  "\u2581Sala": 6979,
  "\u2581Ta": 6980,
  "\u2581Yefeta": 6981,
  "\u2581ajali": 6982,
  "\u2581branches": 6983,
  "\u2581correction": 6984,
  "\u2581diskur": 6985,
  "\u2581householder": 6986,
  "\u2581komik\u0254tisa": 6987,
  "\u2581kongala": 6988,
  "\u2581mindoki": 6989,
  "\u2581narrow": 6990,
  "\u2581permitted": 6991,
  "\u2581pornografi": 6992,
  "\u2581sexually": 6993,
  "\u2581sole": 6994,
  "\u2581spring": 6995,
  "day": 6996,
  "\u258137,": 6997,
  "\u2581Baezipito": 6998,
  "\u2581Est": 6999,
  "\u2581Kobanga": 7000,
  "\u2581Levitike": 7001,
  "\u2581P\u00e1pa": 7002,
  "\u2581Soviet": 7003,
  "\u2581asukisak": 7004,
  "\u2581balekisaki": 7005,
  "\u2581biyangeli": 7006,
  "\u2581crisis": 7007,
  "\u2581discover": 7008,
  "\u2581fiery": 7009,
  "\u2581peers": 7010,
  "\u2581researchers": 7011,
  "\u2581villages": 7012,
  "\u2581virtual": 7013,
  "nkombo": 7014,
  "ster": 7015,
  "uti": 7016,
  "\u25811948": 7017,
  "\u2581250": 7018,
  "\u2581BOYEKOLI": 7019,
  "\u2581Egyptians": 7020,
  "\u2581Jephthah": 7021,
  "\u2581Ki": 7022,
  "\u2581NZAMBE": 7023,
  "\u2581Samaritan": 7024,
  "\u2581Vi": 7025,
  "\u2581azonga": 7026,
  "\u2581bakangamaki": 7027,
  "\u2581batalelaki": 7028,
  "\u2581donations": 7029,
  "\u2581esambiselo": 7030,
  "\u2581esila": 7031,
  "\u2581eyebisaki": 7032,
  "\u2581garments": 7033,
  "\u2581gross": 7034,
  "\u2581killing": 7035,
  "\u2581kokesana": 7036,
  "\u2581minor": 7037,
  "\u2581phrase": 7038,
  "\u2581produces": 7039,
  "\u2581transferred": 7040,
  "ler": 7041,
  "libota": 7042,
  "\u25811957": 7043,
  "\u25812007": 7044,
  "\u258168": 7045,
  "\u2581Kob": 7046,
  "\u2581Let\u00e1": 7047,
  "\u2581Septuagint": 7048,
  "\u2581WHEN": 7049,
  "\u2581billions": 7050,
  "\u2581bopemi": 7051,
  "\u2581buildings": 7052,
  "\u2581commented": 7053,
  "\u2581fault": 7054,
  "\u2581favorable": 7055,
  "\u2581funeral": 7056,
  "\u2581largest": 7057,
  "\u2581liste": 7058,
  "\u2581monkama": 7059,
  "\u2581p\u025bp\u025bl\u025b": 7060,
  "\u2581resurrect": 7061,
  "\u2581soldier": 7062,
  "\u2581version": 7063,
  "ung": 7064,
  "\u2581Anzelu": 7065,
  "\u2581Nokinoki": 7066,
  "\u2581Zw\u00e1": 7067,
  "\u2581amonisa": 7068,
  "\u2581at\u025bl\u025bmaki": 7069,
  "\u2581bafololo": 7070,
  "\u2581bako": 7071,
  "\u2581bank": 7072,
  "\u2581bl\u00e9": 7073,
  "\u2581commendation": 7074,
  "\u2581crushed": 7075,
  "\u2581ekobongwana": 7076,
  "\u2581fifth": 7077,
  "\u2581kofutela": 7078,
  "\u2581kolobama": 7079,
  "\u2581komiboma": 7080,
  "\u2581kotatola": 7081,
  "\u2581ndunda": 7082,
  "\u2581originally": 7083,
  "\u2581overwhelming": 7084,
  "\u2581refreshment": 7085,
  "\u2581strange": 7086,
  "ated": 7087,
  "zang\u00e1": 7088,
  "\u258186": 7089,
  "\u2581Elobi": 7090,
  "\u2581Filipi": 7091,
  "\u2581HIV": 7092,
  "\u2581Happily": 7093,
  "\u2581Reading": 7094,
  "\u2581Sa": 7095,
  "\u2581Septante": 7096,
  "\u2581Sud": 7097,
  "\u2581afungolaki": 7098,
  "\u2581akamataki": 7099,
  "\u2581akosilisa": 7100,
  "\u2581batye": 7101,
  "\u2581di": 7102,
  "\u2581diligent": 7103,
  "\u2581ezwa": 7104,
  "\u2581immortality": 7105,
  "\u2581infected": 7106,
  "\u2581komi": 7107,
  "\u2581k\u0254p\u0254": 7108,
  "\u2581mal\u025bmb\u025bmal\u025bmb\u025b": 7109,
  "\u2581materially": 7110,
  "\u2581materials": 7111,
  "\u2581mpamela": 7112,
  "\u2581pe": 7113,
  "\u2581peer": 7114,
  "\u2581qualify": 7115,
  "\u2581sheba": 7116,
  "\u2581yeb\u00e1": 7117,
  "OLD": 7118,
  "ite": 7119,
  "lelo": 7120,
  "ze": 7121,
  "\u2581104": 7122,
  "\u2581Kobima": 7123,
  "\u2581Lifalans\u00e9": 7124,
  "\u2581Nisana": 7125,
  "\u2581Persian": 7126,
  "\u2581Serving": 7127,
  "\u2581WAS": 7128,
  "\u2581akanisa": 7129,
  "\u2581akozongisa": 7130,
  "\u2581badly": 7131,
  "\u2581bakendeki": 7132,
  "\u2581balongwaki": 7133,
  "\u2581bapekisaki": 7134,
  "\u2581cloud": 7135,
  "\u2581extensive": 7136,
  "\u2581ignored": 7137,
  "\u2581olingaki": 7138,
  "\u2581overwhelmed": 7139,
  "\u2581presentation": 7140,
  "\u2581sensitive": 7141,
  "\u2581settle": 7142,
  "\u2581somewhat": 7143,
  "\u2581yauli": 7144,
  "kosala": 7145,
  "\u2581'!": 7146,
  "\u2581Bisakweli": 7147,
  "\u2581Protesta": 7148,
  "\u2581Rebekah": 7149,
  "\u2581Sam": 7150,
  "\u2581babies": 7151,
  "\u2581bamiliare": 7152,
  "\u2581banyokwamaki": 7153,
  "\u2581concept": 7154,
  "\u2581earn": 7155,
  "\u2581elongobani": 7156,
  "\u2581exercised": 7157,
  "\u2581funds": 7158,
  "\u2581kokomela": 7159,
  "\u2581kosamba": 7160,
  "\u2581mapapu": 7161,
  "\u2581mopesi": 7162,
  "\u2581ns\u0254ng\u025b": 7163,
  "\u2581photo": 7164,
  "\u2581selected": 7165,
  "\u2581trakte": 7166,
  "B\u00f3": 7167,
  "ally": 7168,
  "disfellowshipped": 7169,
  "ial": 7170,
  "koluka": 7171,
  "silaki": 7172,
  "\u2581China": 7173,
  "\u2581GOD": 7174,
  "\u2581Josephus": 7175,
  "\u2581Shepherd": 7176,
  "\u2581babongisaki": 7177,
  "\u2581bamekaki": 7178,
  "\u2581banned": 7179,
  "\u2581basumuki": 7180,
  "\u2581botongi": 7181,
  "\u2581deception": 7182,
  "\u2581distinguish": 7183,
  "\u2581highest": 7184,
  "\u2581hit": 7185,
  "\u2581increasingly": 7186,
  "\u2581kopumbwa": 7187,
  "\u2581mak\u0254n\u0254": 7188,
  "\u2581masalemaki": 7189,
  "\u2581party": 7190,
  "\u2581range": 7191,
  "\u2581reduced": 7192,
  "\u2581tokutanaka": 7193,
  "\u2581t\u00f3tala": 7194,
  "ebimel": 7195,
  "gainst": 7196,
  "mer": 7197,
  "they": 7198,
  "\u2581Codex": 7199,
  "\u2581Eut": 7200,
  "\u2581Nkulutu": 7201,
  "\u2581Saint": 7202,
  "\u2581Salel\u00e1": 7203,
  "\u2581Seed": 7204,
  "\u2581Talel\u00e1": 7205,
  "\u2581abomi": 7206,
  "\u2581advanced": 7207,
  "\u2581akanisi": 7208,
  "\u2581bakoband": 7209,
  "\u2581bakozonga": 7210,
  "\u2581baponami": 7211,
  "\u2581b\u00e1talela": 7212,
  "\u2581characters": 7213,
  "\u2581commitment": 7214,
  "\u2581duty": 7215,
  "\u2581en": 7216,
  "\u2581epalanganaki": 7217,
  "\u2581gatherings": 7218,
  "\u2581grows": 7219,
  "\u2581happily": 7220,
  "\u2581jealous": 7221,
  "\u2581kura": 7222,
  "\u2581malaria": 7223,
  "\u2581masanzoli": 7224,
  "\u2581polelepolele": 7225,
  "\u2581practicing": 7226,
  "\u2581spreading": 7227,
  "\u2581steadfast": 7228,
  "\u2581tolobi": 7229,
  "\u2581valley": 7230,
  "ier": 7231,
  "kosangola": 7232,
  "koyela": 7233,
  "\u25811989": 7234,
  "\u2581Alona": 7235,
  "\u2581Andimaki": 7236,
  "\u2581Gen": 7237,
  "\u2581Lisalisi": 7238,
  "\u2581Nebuchadnezzar": 7239,
  "\u2581Purpose": 7240,
  "\u2581STUDY": 7241,
  "\u2581Suisse": 7242,
  "\u2581Yeb\u00e1": 7243,
  "\u2581ashamed": 7244,
  "\u2581basakolaki": 7245,
  "\u2581bayak": 7246,
  "\u2581bore": 7247,
  "\u2581forest": 7248,
  "\u2581hypocrisy": 7249,
  "\u2581kokangisa": 7250,
  "\u2581market": 7251,
  "\u2581mobulungano": 7252,
  "\u2581preachers": 7253,
  "\u2581proclaim": 7254,
  "\u2581references": 7255,
  "\u2581tolandi": 7256,
  "akobanda": 7257,
  "itomba": 7258,
  "pesi": 7259,
  "\u25811944": 7260,
  "\u2581Abram": 7261,
  "\u2581Afterward": 7262,
  "\u2581Mopesi": 7263,
  "\u2581Psalms": 7264,
  "\u2581Ten": 7265,
  "\u2581Volume": 7266,
  "\u2581accurately": 7267,
  "\u2581ank\u025bt\u025b": 7268,
  "\u2581atambolaki": 7269,
  "\u2581balendisak": 7270,
  "\u2581bears": 7271,
  "\u2581climate": 7272,
  "\u2581cooperate": 7273,
  "\u2581homeland": 7274,
  "\u2581lift": 7275,
  "\u2581masukulu": 7276,
  "\u2581meat": 7277,
  "\u2581natika": 7278,
  "\u2581resident": 7279,
  "\u2581shape": 7280,
  "\u2581striving": 7281,
  "\u2581toyokaka": 7282,
  "\u2581utmost": 7283,
  "em": 7284,
  "komonisa": 7285,
  "now": 7286,
  "\u2581130": 7287,
  "\u2581Answered": 7288,
  "\u2581Arthur": 7289,
  "\u2581Daily": 7290,
  "\u2581Eric": 7291,
  "\u2581Especially": 7292,
  "\u2581Isa": 7293,
  "\u2581Mozambique": 7294,
  "\u2581Washington": 7295,
  "\u2581abortion": 7296,
  "\u2581abosanaki": 7297,
  "\u2581associating": 7298,
  "\u2581balobelaki": 7299,
  "\u2581desert": 7300,
  "\u2581doctrines": 7301,
  "\u2581elakisaka": 7302,
  "\u2581hurtful": 7303,
  "\u2581proves": 7304,
  "\u2581resentment": 7305,
  "\u2581sounds": 7306,
  "\u2581star": 7307,
  "\u2581starting": 7308,
  "\u2581surgery": 7309,
  "\u2581taste": 7310,
  "537": 7311,
  "];": 7312,
  "ron": 7313,
  "samaki": 7314,
  "tii": 7315,
  "\u2581Banganga": 7316,
  "\u2581B\u00f3": 7317,
  "\u2581Island": 7318,
  "\u2581Jos\u00e8phe": 7319,
  "\u2581MI": 7320,
  "\u2581Mayangani": 7321,
  "\u2581Mituya": 7322,
  "\u2581Royaume": 7323,
  "\u2581bat\u00e1ngaka": 7324,
  "\u2581dedicate": 7325,
  "\u2581forgiven": 7326,
  "\u2581kolendisama": 7327,
  "\u2581roads": 7328,
  "\u2581status": 7329,
  "\u2581symbolized": 7330,
  "\u2581unknown": 7331,
  "ence": 7332,
  "isese": 7333,
  "\u2581Kol": 7334,
  "\u2581Leader": 7335,
  "\u2581Maintain": 7336,
  "\u2581ages": 7337,
  "\u2581alongside": 7338,
  "\u2581atalaka": 7339,
  "\u2581b\u00e1longa": 7340,
  "\u2581ekopekisa": 7341,
  "\u2581etambwisaka": 7342,
  "\u2581foremost": 7343,
  "\u2581independence": 7344,
  "\u2581kokipe": 7345,
  "\u2581loose": 7346,
  "\u2581oldest": 7347,
  "\u2581pregnancy": 7348,
  "\u2581roof": 7349,
  "\u2581shepherding": 7350,
  "\u2581speed": 7351,
  "\u2581stating": 7352,
  "\u2581tiny": 7353,
  "\u2581tools": 7354,
  "\u2581womb": 7355,
  "asil\u00e1": 7356,
  "bandi": 7357,
  "\u258128]": 7358,
  "\u258135,": 7359,
  "\u2581Calvin": 7360,
  "\u2581Real": 7361,
  "\u2581attractive": 7362,
  "\u2581avenire": 7363,
  "\u2581balekisak": 7364,
  "\u2581board": 7365,
  "\u2581document": 7366,
  "\u2581emperor": 7367,
  "\u2581ferme": 7368,
  "\u2581kokabela": 7369,
  "\u2581mozalaki": 7370,
  "\u2581occurs": 7371,
  "\u2581permit": 7372,
  "\u2581stage": 7373,
  "\u2581structure": 7374,
  "\u2581succeeded": 7375,
  "\u2581worst": 7376,
  ");": 7377,
  "ak": 7378,
  "mbi": 7379,
  "\u258146.": 7380,
  "\u2581Louis": 7381,
  "\u2581Ra": 7382,
  "\u2581Teacher": 7383,
  "\u2581armed": 7384,
  "\u2581asosolaki": 7385,
  "\u2581blow": 7386,
  "\u2581bosukisi": 7387,
  "\u2581b\u00e1zongisa": 7388,
  "\u2581detailed": 7389,
  "\u2581disappointment": 7390,
  "\u2581ebomaka": 7391,
  "\u2581ekokisama": 7392,
  "\u2581era": 7393,
  "\u2581forgotten": 7394,
  "\u2581judgments": 7395,
  "\u2581kok\u0254tela": 7396,
  "\u2581kopela": 7397,
  "\u2581mikeseni": 7398,
  "\u2581preparation": 7399,
  "\u2581steal": 7400,
  "\u2581strict": 7401,
  "\u2581talents": 7402,
  "\u2581unscriptural": 7403,
  "\u25ab": 7404,
  "Biso": 7405,
  "Ee": 7406,
  "Now": 7407,
  "ions": 7408,
  "yebaka": 7409,
  "\u25811985": 7410,
  "\u25812014": 7411,
  "\u2581Gileade": 7412,
  "\u2581backgrounds": 7413,
  "\u2581bilikya": 7414,
  "\u2581composed": 7415,
  "\u2581dating": 7416,
  "\u2581deceived": 7417,
  "\u2581ebendak": 7418,
  "\u2581etongami": 7419,
  "\u2581execute": 7420,
  "\u2581falling": 7421,
  "\u2581formerly": 7422,
  "\u2581ha": 7423,
  "\u2581honesthearted": 7424,
  "\u2581kolukaluka": 7425,
  "\u2581neutrality": 7426,
  "\u2581proclaimed": 7427,
  "\u2581round": 7428,
  "\u2581saving": 7429,
  "\u2581unwise": 7430,
  "Wana": 7431,
  "doubtedly": 7432,
  "kondima": 7433,
  "\u258135:": 7434,
  "\u2581Es\u025bngaka": 7435,
  "\u2581Light": 7436,
  "\u2581asekwaki": 7437,
  "\u2581babal\u00e1": 7438,
  "\u2581bakokende": 7439,
  "\u2581baministre": 7440,
  "\u2581basal\u00e1": 7441,
  "\u2581bisi": 7442,
  "\u2581centered": 7443,
  "\u2581driver": 7444,
  "\u2581ebebisa": 7445,
  "\u2581ekolobela": 7446,
  "\u2581entering": 7447,
  "\u2581expose": 7448,
  "\u2581imperfections": 7449,
  "\u2581kob\u0254t\u0254la": 7450,
  "\u2581kotimola": 7451,
  "\u2581latter": 7452,
  "\u2581measures": 7453,
  "\u2581mobomi": 7454,
  "\u2581namona": 7455,
  "\u2581oppose": 7456,
  "\u2581paragraphs": 7457,
  "\u2581promoted": 7458,
  "\u2581replace": 7459,
  "\u2581sides": 7460,
  "\u2581spiritism": 7461,
  "\u2581survival": 7462,
  "LO": 7463,
  "kok\u00f3misa": 7464,
  "let": 7465,
  "l\u00e1": 7466,
  "rd": 7467,
  "\u25812]": 7468,
  "\u258191": 7469,
  "\u2581En": 7470,
  "\u2581Language": 7471,
  "\u2581Limbol\u00e1": 7472,
  "\u2581Tozwak": 7473,
  "\u2581abusive": 7474,
  "\u2581apostasy": 7475,
  "\u2581awe": 7476,
  "\u2581balyaka": 7477,
  "\u2581bamasuwa": 7478,
  "\u2581bilangwiseli": 7479,
  "\u2581deaths": 7480,
  "\u2581highlighted": 7481,
  "\u2581kotonda": 7482,
  "\u2581prime": 7483,
  "\u2581productive": 7484,
  "\u2581seeds": 7485,
  "\u2581thereby": 7486,
  "\u2581understands": 7487,
  "\u2581university": 7488,
  "\u2581valid": 7489,
  "\u2581wishes": 7490,
  "fe": 7491,
  "tunaki": 7492,
  "was": 7493,
  "\u2581139": 7494,
  "\u2581Kot\u00e1nga": 7495,
  "\u2581Levi": 7496,
  "\u2581Maladi": 7497,
  "\u2581Nk\u00f3to": 7498,
  "\u2581Tesaloniki": 7499,
  "\u2581arrest": 7500,
  "\u2581bakokoka": 7501,
  "\u2581bak\u0254meli": 7502,
  "\u2581bas\u025bngi": 7503,
  "\u2581bateritware": 7504,
  "\u2581bibembe": 7505,
  "\u2581clay": 7506,
  "\u2581consult": 7507,
  "\u2581eband\u00e1": 7508,
  "\u2581esangisak": 7509,
  "\u2581hesitate": 7510,
  "\u2581pleasures": 7511,
  "\u2581priorities": 7512,
  "\u2581regards": 7513,
  "\u2581sanduku": 7514,
  "\u2581sinner": 7515,
  "\u2581sorry": 7516,
  "\u2581tempered": 7517,
  "\u2581touching": 7518,
  "\u2581t\u00f3pesa": 7519,
  "\u2581z\u00fawa": 7520,
  "AR": 7521,
  "cy": 7522,
  "lin": 7523,
  "\u25811960": 7524,
  "\u2581Ann": 7525,
  "\u2581Ever": 7526,
  "\u2581Speaking": 7527,
  "\u2581WHO": 7528,
  "\u2581Yoele": 7529,
  "\u2581akosunga": 7530,
  "\u2581amazed": 7531,
  "\u2581associations": 7532,
  "\u2581awaiting": 7533,
  "\u2581babali": 7534,
  "\u2581boldness": 7535,
  "\u2581catch": 7536,
  "\u2581confronted": 7537,
  "\u2581constitute": 7538,
  "\u2581kooka": 7539,
  "\u2581mibang\u00e9": 7540,
  "\u2581perfectly": 7541,
  "\u2581rebel": 7542,
  "\u2581representative": 7543,
  "\u2581striking": 7544,
  "\u2581stumbling": 7545,
  "\u2581towns": 7546,
  "che": 7547,
  "okutani": 7548,
  "ot": 7549,
  "\u2581(\"": 7550,
  "\u258159": 7551,
  "\u2581ELOBELI": 7552,
  "\u2581Elizabeth": 7553,
  "\u2581Libala": 7554,
  "\u2581Power": 7555,
  "\u2581absolutely": 7556,
  "\u2581aim": 7557,
  "\u2581akanga": 7558,
  "\u2581arrives": 7559,
  "\u2581bakei": 7560,
  "\u2581bolumbu": 7561,
  "\u2581b\u00e1salaka": 7562,
  "\u2581communities": 7563,
  "\u2581contentment": 7564,
  "\u2581counseled": 7565,
  "\u2581delegates": 7566,
  "\u2581esalelamaka": 7567,
  "\u2581fixed": 7568,
  "\u2581incense": 7569,
  "\u2581lisuk\u00falu": 7570,
  "\u2581mitambo": 7571,
  "\u2581sanctified": 7572,
  "\u2581struggling": 7573,
  "\u2581sukali": 7574,
  "\u2581t\u00f3boya": 7575,
  "?...": 7576,
  "elaki": 7577,
  "ists": 7578,
  "\u25811922": 7579,
  "\u2581Antioch": 7580,
  "\u2581Find": 7581,
  "\u2581Ghana": 7582,
  "\u2581Mobatisi": 7583,
  "\u2581Pray": 7584,
  "\u2581Sanedrina": 7585,
  "\u2581ate": 7586,
  "\u2581bakufaka": 7587,
  "\u2581believer": 7588,
  "\u2581bolingi": 7589,
  "\u2581delay": 7590,
  "\u2581ekobebisa": 7591,
  "\u2581horse": 7592,
  "\u2581inspiration": 7593,
  "\u2581keen": 7594,
  "\u2581nkutu": 7595,
  "\u2581n\u0254": 7596,
  "\u2581respectful": 7597,
  "\u2581sentenced": 7598,
  "\u2581territories": 7599,
  "\u2581thorough": 7600,
  "\u2581tremendous": 7601,
  "\u2581welcomed": 7602,
  "kilom\u025bt\u025bl\u025b": 7603,
  "mba": 7604,
  "\u258169": 7605,
  "\u258195": 7606,
  "\u2581Tokolob": 7607,
  "\u2581alakisa": 7608,
  "\u2581await": 7609,
  "\u2581bakaa": 7610,
  "\u2581bakufeli": 7611,
  "\u2581bandelo": 7612,
  "\u2581bat\u025bm\u025bli": 7613,
  "\u2581el\u00f3nga": 7614,
  "\u2581falls": 7615,
  "\u2581highlights": 7616,
  "\u2581kokumba": 7617,
  "\u2581kong\u025bngisa": 7618,
  "\u2581mamonis": 7619,
  "\u2581mbamba": 7620,
  "\u2581nayokaka": 7621,
  "\u2581perish": 7622,
  "\u2581repair": 7623,
  "\u2581shield": 7624,
  "\u2581snare": 7625,
  "\u2581souled": 7626,
  "\u2581t\u00f3tikala": 7627,
  "ex": 7628,
  "gu": 7629,
  "ill": 7630,
  "ire": 7631,
  "\u25811975": 7632,
  "\u2581Ar": 7633,
  "\u2581Atunaki": 7634,
  "\u2581Department": 7635,
  "\u2581Esili": 7636,
  "\u2581Giving": 7637,
  "\u2581Lessons": 7638,
  "\u2581Mabel\u00e9": 7639,
  "\u2581Makomi": 7640,
  "\u2581Pa": 7641,
  "\u2581Perse": 7642,
  "\u2581Ro": 7643,
  "\u2581Women": 7644,
  "\u2581abanda": 7645,
  "\u2581belonging": 7646,
  "\u2581border": 7647,
  "\u2581broad": 7648,
  "\u2581college": 7649,
  "\u2581convince": 7650,
  "\u2581crying": 7651,
  "\u2581ease": 7652,
  "\u2581gladly": 7653,
  "\u2581happier": 7654,
  "\u2581heartwarming": 7655,
  "\u2581illustrates": 7656,
  "\u2581imitating": 7657,
  "\u2581improved": 7658,
  "\u2581inclination": 7659,
  "\u2581kokunda": 7660,
  "\u2581kopanza": 7661,
  "\u2581kotalatala": 7662,
  "\u2581lawlessness": 7663,
  "\u2581makonzi": 7664,
  "\u2581misled": 7665,
  "\u2581moleki": 7666,
  "\u2581mopanzi": 7667,
  "\u2581product": 7668,
  "\u2581representatives": 7669,
  "\u2581ridicule": 7670,
  "\u2581wash": 7671,
  "Nani": 7672,
  "tyelaka": 7673,
  "\u25811956": 7674,
  "\u25811987": 7675,
  "\u258147.": 7676,
  "\u2581800": 7677,
  "\u2581Abalama": 7678,
  "\u2581District": 7679,
  "\u2581Elambo": 7680,
  "\u2581Evening": 7681,
  "\u2581MITUNA": 7682,
  "\u2581Nakoki": 7683,
  "\u2581Saturday": 7684,
  "\u2581Thessalonica": 7685,
  "\u2581T\u00f3kanisa": 7686,
  "\u2581bibale": 7687,
  "\u2581buried": 7688,
  "\u2581classes": 7689,
  "\u2581element": 7690,
  "\u2581emphasis": 7691,
  "\u2581epekisamaki": 7692,
  "\u2581everyday": 7693,
  "\u2581favorably": 7694,
  "\u2581founded": 7695,
  "\u2581kobombana": 7696,
  "\u2581magnificent": 7697,
  "\u2581makol\u00f3": 7698,
  "\u2581multitude": 7699,
  "\u2581nkunda": 7700,
  "\u2581prior": 7701,
  "\u2581systems": 7702,
  "\u2581temptations": 7703,
  "\u2581theory": 7704,
  "\u2581worthwhile": 7705,
  "ure": 7706,
  "\u2581Bakanana": 7707,
  "\u2581Bamoko": 7708,
  "\u2581Bir": 7709,
  "\u2581Profes": 7710,
  "\u2581Sanhedrin": 7711,
  "\u2581Tempelo": 7712,
  "\u2581Words": 7713,
  "\u2581akoyangela": 7714,
  "\u2581balakisaki": 7715,
  "\u2581cease": 7716,
  "\u2581clouds": 7717,
  "\u2581developments": 7718,
  "\u2581ekobota": 7719,
  "\u2581ekweli": 7720,
  "\u2581equipment": 7721,
  "\u2581examining": 7722,
  "\u2581exemplary": 7723,
  "\u2581greedy": 7724,
  "\u2581impart": 7725,
  "\u2581judging": 7726,
  "\u2581lady": 7727,
  "\u2581mingongo": 7728,
  "\u2581nucle": 7729,
  "\u2581organizations": 7730,
  "\u2581sky": 7731,
  "\u2581timely": 7732,
  "New": 7733,
  "lar": 7734,
  "\u258138,": 7735,
  "\u25815.)": 7736,
  "\u2581Leads": 7737,
  "\u2581Medical": 7738,
  "\u2581Photo": 7739,
  "\u2581Susan": 7740,
  "\u2581al\u025bmbi": 7741,
  "\u2581babatelaka": 7742,
  "\u2581b\u00e1batela": 7743,
  "\u2581b\u00e1loba": 7744,
  "\u2581cleansed": 7745,
  "\u2581damaged": 7746,
  "\u2581deny": 7747,
  "\u2581disposition": 7748,
  "\u2581elobami": 7749,
  "\u2581flight": 7750,
  "\u2581headship": 7751,
  "\u2581lilita": 7752,
  "\u2581lobongi": 7753,
  "\u2581mainly": 7754,
  "\u2581parallel": 7755,
  "\u2581reflecting": 7756,
  "\u2581richly": 7757,
  "\u2581seemingly": 7758,
  "\u2581t\u00f3linga": 7759,
  "ard": 7760,
  "hu": 7761,
  "ja": 7762,
  "ley": 7763,
  "mpe": 7764,
  "ow": 7765,
  "tuluku": 7766,
  "\u25811986": 7767,
  "\u258127]": 7768,
  "\u258184": 7769,
  "\u2581FROM": 7770,
  "\u2581Mi": 7771,
  "\u2581Money": 7772,
  "\u2581Oyebak": 7773,
  "\u2581Reflect": 7774,
  "\u2581Vulgate": 7775,
  "\u2581akokisaka": 7776,
  "\u2581aponaka": 7777,
  "\u2581attracted": 7778,
  "\u2581bakilom\u025bt\u025bl\u025b": 7779,
  "\u2581bambuma": 7780,
  "\u2581bipekiseli": 7781,
  "\u2581bird": 7782,
  "\u2581double": 7783,
  "\u2581ekitisak": 7784,
  "\u2581esteem": 7785,
  "\u2581guarantee": 7786,
  "\u2581hall": 7787,
  "\u2581kop\u025btola": 7788,
  "\u2581largely": 7789,
  "\u2581needy": 7790,
  "\u2581occasionally": 7791,
  "\u2581protective": 7792,
  "\u2581psalm": 7793,
  "\u2581standpoint": 7794,
  "\u2581stream": 7795,
  "\u2581tolingaki": 7796,
  "Bokonzi": 7797,
  "ES": 7798,
  "ens": 7799,
  "kotambolatambola": 7800,
  "\u2581Kolimbola": 7801,
  "\u2581Religious": 7802,
  "\u2581Sydney": 7803,
  "\u2581Toboy": 7804,
  "\u2581abangaki": 7805,
  "\u2581bababa": 7806,
  "\u2581basanganaki": 7807,
  "\u2581bizalisami": 7808,
  "\u2581confirmed": 7809,
  "\u2581contributions": 7810,
  "\u2581delightful": 7811,
  "\u2581fair": 7812,
  "\u2581gentle": 7813,
  "\u2581kokomama": 7814,
  "\u2581komibomba": 7815,
  "\u2581kosekwisa": 7816,
  "\u2581nasali": 7817,
  "\u2581omona": 7818,
  "\u2581onto": 7819,
  "\u2581oversight": 7820,
  "\u2581owe": 7821,
  "\u2581passages": 7822,
  "\u2581reminder": 7823,
  "\u2581scattered": 7824,
  "\u2581upper": 7825,
  "\u2581viewing": 7826,
  "\u2581wherever": 7827,
  "SE": 7828,
  "azali": 7829,
  "lobi": 7830,
  "ven": 7831,
  "yango": 7832,
  "\u2581Basoda": 7833,
  "\u2581Child": 7834,
  "\u2581Illustrate": 7835,
  "\u2581Jehu": 7836,
  "\u2581Kotya": 7837,
  "\u2581Lines": 7838,
  "\u2581MY": 7839,
  "\u2581Minor": 7840,
  "\u2581Sheol": 7841,
  "\u2581Supreme": 7842,
  "\u2581Taking": 7843,
  "\u2581ayinaka": 7844,
  "\u2581backing": 7845,
  "\u2581bakolinga": 7846,
  "\u2581bamipesaka": 7847,
  "\u2581bosili": 7848,
  "\u2581b\u00e1boya": 7849,
  "\u2581ekolonga": 7850,
  "\u2581leadership": 7851,
  "\u2581legs": 7852,
  "\u2581mopepe": 7853,
  "\u2581slowly": 7854,
  "\u2581toyebaki": 7855,
  "\u2581utterance": 7856,
  "\u2581warn": 7857,
  "\u2581worthless": 7858,
  "Ya": 7859,
  "bolingo": 7860,
  "from": 7861,
  "ide": 7862,
  "l\u0254": 7863,
  "\u25811983": 7864,
  "\u2581Barr": 7865,
  "\u2581Hagai": 7866,
  "\u2581Meal": 7867,
  "\u2581Mokambi": 7868,
  "\u2581Ocean": 7869,
  "\u2581Self": 7870,
  "\u2581adding": 7871,
  "\u2581afford": 7872,
  "\u2581babimisi": 7873,
  "\u2581badolare": 7874,
  "\u2581celebrate": 7875,
  "\u2581commissioned": 7876,
  "\u2581containing": 7877,
  "\u2581discouragement": 7878,
  "\u2581exhortation": 7879,
  "\u2581improper": 7880,
  "\u2581magazini": 7881,
  "\u2581manage": 7882,
  "\u2581morality": 7883,
  "\u2581putulu": 7884,
  "\u2581totiki": 7885,
  "mela": 7886,
  "\u2581Actually": 7887,
  "\u2581Bafilistia": 7888,
  "\u2581Haggai": 7889,
  "\u2581Tala": 7890,
  "\u2581Tosepelak": 7891,
  "\u2581aluka": 7892,
  "\u2581bat\u025bm\u025blak": 7893,
  "\u2581cherish": 7894,
  "\u2581classmates": 7895,
  "\u2581criminal": 7896,
  "\u2581cultural": 7897,
  "\u2581destructive": 7898,
  "\u2581ekomam\u00e1": 7899,
  "\u2581elaki": 7900,
  "\u2581esala": 7901,
  "\u2581feast": 7902,
  "\u2581foreigners": 7903,
  "\u2581generosity": 7904,
  "\u2581misuni": 7905,
  "\u2581nakosala": 7906,
  "\u2581ntaba": 7907,
  "\u2581oral": 7908,
  "kitani": 7909,
  "ny": 7910,
  "\u2581133": 7911,
  "\u258171": 7912,
  "\u2581Babylonians": 7913,
  "\u2581Boaz": 7914,
  "\u2581Comment": 7915,
  "\u2581Had": 7916,
  "\u2581Hindu": 7917,
  "\u2581Komite": 7918,
  "\u2581Korea": 7919,
  "\u2581Nothing": 7920,
  "\u2581Poland": 7921,
  "\u2581ami": 7922,
  "\u2581attempts": 7923,
  "\u2581bafundak": 7924,
  "\u2581basepeli": 7925,
  "\u2581cooperation": 7926,
  "\u2581creating": 7927,
  "\u2581ebima": 7928,
  "\u2581ek\u00f3mela": 7929,
  "\u2581enjoyable": 7930,
  "\u2581green": 7931,
  "\u2581komilelalela": 7932,
  "\u2581molingami": 7933,
  "\u2581ndanga": 7934,
  "\u2581nsoso": 7935,
  "\u2581pro": 7936,
  "\u2581recommend": 7937,
  "\u2581rose": 7938,
  "\u2581section": 7939,
  "\u2581unselfish": 7940,
  "\u2581wages": 7941,
  "\u2581weeds": 7942,
  "Ozal": 7943,
  "RI": 7944,
  "ros": 7945,
  "\u25811961": 7946,
  "\u25813,000": 7947,
  "\u2581Baruch": 7948,
  "\u2581Col": 7949,
  "\u2581F\u0254t\u0254": 7950,
  "\u2581Marta": 7951,
  "\u2581Moyangeli": 7952,
  "\u2581YE": 7953,
  "\u2581Yebis\u00e1": 7954,
  "\u2581apartment": 7955,
  "\u2581arrange": 7956,
  "\u2581basilisaki": 7957,
  "\u2581bokol\u0254ng\u0254n\u0254": 7958,
  "\u2581bol\u00f3zi": 7959,
  "\u2581b\u00e1monisa": 7960,
  "\u2581educated": 7961,
  "\u2581generations": 7962,
  "\u2581grass": 7963,
  "\u2581komimonisa": 7964,
  "\u2581koteyama": 7965,
  "\u2581mboto": 7966,
  "\u2581ordinary": 7967,
  "\u2581patr\u0254": 7968,
  "\u2581pes\u00e1": 7969,
  "\u2581praised": 7970,
  "\u2581refrain": 7971,
  "\u2581rob": 7972,
  "\u2581route": 7973,
  "\u2581shadow": 7974,
  "\u2581teenage": 7975,
  "\u2581tosili": 7976,
  "\u2581zuzi": 7977,
  "Bongo": 7978,
  "bazali": 7979,
  "dicating": 7980,
  "mwana": 7981,
  "time": 7982,
  "\u258198": 7983,
  "\u2581Armagedon": 7984,
  "\u2581COR": 7985,
  "\u2581DO": 7986,
  "\u2581Looking": 7987,
  "\u2581Motane": 7988,
  "\u2581Mpasi": 7989,
  "\u2581Neither": 7990,
  "\u2581Patterson": 7991,
  "\u2581Pusan": 7992,
  "\u2581Thank": 7993,
  "\u2581abotama": 7994,
  "\u2581actively": 7995,
  "\u2581babalabala": 7996,
  "\u2581bibwele": 7997,
  "\u2581consist": 7998,
  "\u2581fruitful": 7999,
  "\u2581garment": 8000,
  "\u2581glorified": 8001,
  "\u2581recommended": 8002,
  "\u2581seated": 8003,
  "\u2581taxes": 8004,
  "\u2581west": 8005,
  "\u2581wholeheartedly": 8006,
  "asungaki": 8007,
  "everal": 8008,
  "this": 8009,
  "\u2581Imitate": 8010,
  "\u2581Insight": 8011,
  "\u2581Live": 8012,
  "\u2581Reign": 8013,
  "\u2581Victoria": 8014,
  "\u2581actual": 8015,
  "\u2581atuni": 8016,
  "\u2581bakangi": 8017,
  "\u2581basango": 8018,
  "\u2581behold": 8019,
  "\u2581bitape": 8020,
  "\u2581desperate": 8021,
  "\u2581devastated": 8022,
  "\u2581earthquakes": 8023,
  "\u2581eleka": 8024,
  "\u2581implies": 8025,
  "\u2581imprisonment": 8026,
  "\u2581independent": 8027,
  "\u2581kobyanga": 8028,
  "\u2581meals": 8029,
  "\u2581mob": 8030,
  "\u2581nakopesa": 8031,
  "\u2581outright": 8032,
  "\u2581shut": 8033,
  "\u2581synagogue": 8034,
  "\u2581tries": 8035,
  "B\u00f3koba": 8036,
  "ji": 8037,
  "kati": 8038,
  "red": 8039,
  "res": 8040,
  "\u2581Bwanya": 8041,
  "\u2581Manasseh": 8042,
  "\u2581Pictorial": 8043,
  "\u2581Thereafter": 8044,
  "\u2581alimbisaki": 8045,
  "\u2581apparent": 8046,
  "\u2581armor": 8047,
  "\u2581asilikaki": 8048,
  "\u2581attacked": 8049,
  "\u2581bat\u00e1ngaki": 8050,
  "\u2581confusion": 8051,
  "\u2581creative": 8052,
  "\u2581deed": 8053,
  "\u2581exclusive": 8054,
  "\u2581kingship": 8055,
  "\u2581lifted": 8056,
  "\u2581liyebisi": 8057,
  "\u2581lokito": 8058,
  "\u2581man\u00e1ka": 8059,
  "\u2581okolinga": 8060,
  "\u2581planned": 8061,
  "\u2581racial": 8062,
  "\u2581sowing": 8063,
  "\u2581televizy\u00f3": 8064,
  "\u2581torment": 8065,
  "Baoyo": 8066,
  "Likabo": 8067,
  "Our": 8068,
  "hi": 8069,
  "monaka": 8070,
  "nguya": 8071,
  "ou": 8072,
  "tamboli": 8073,
  "zongelaki": 8074,
  "\u258110.)": 8075,
  "\u25811513": 8076,
  "\u2581Abakisi": 8077,
  "\u2581SIDA": 8078,
  "\u2581Viewpoint": 8079,
  "\u2581Yekol\u00e1": 8080,
  "\u2581attribute": 8081,
  "\u2581babimisaka": 8082,
  "\u2581batikaka": 8083,
  "\u2581bokangami": 8084,
  "\u2581dog": 8085,
  "\u2581domestic": 8086,
  "\u2581earthquake": 8087,
  "\u2581feared": 8088,
  "\u2581fierce": 8089,
  "\u2581grandmother": 8090,
  "\u2581kolingana": 8091,
  "\u2581kolongolama": 8092,
  "\u2581kotongama": 8093,
  "\u2581memorial": 8094,
  "\u2581napesaki": 8095,
  "\u2581nikleere": 8096,
  "\u2581okosepela": 8097,
  "\u2581perspective": 8098,
  "\u2581select": 8099,
  "\u2581sovi\u00e9tique": 8100,
  "\u2581strife": 8101,
  "\u2581technology": 8102,
  "\u2581tomonisaka": 8103,
  "\u2581ty\u00e1": 8104,
  "\u2581watched": 8105,
  "]...": 8106,
  "ious": 8107,
  "lingaka": 8108,
  "vd": 8109,
  "\u25811962": 8110,
  "\u2581230": 8111,
  "\u2581Archive": 8112,
  "\u2581Coliseum": 8113,
  "\u2581Secret": 8114,
  "\u2581YANGO": 8115,
  "\u2581akweaki": 8116,
  "\u2581babotami": 8117,
  "\u2581bansinga": 8118,
  "\u2581bazamba": 8119,
  "\u2581bonk\u0254": 8120,
  "\u2581b\u00e1zonga": 8121,
  "\u2581commended": 8122,
  "\u2581crown": 8123,
  "\u2581ebandaka": 8124,
  "\u2581esilisak": 8125,
  "\u2581exclaimed": 8126,
  "\u2581guv\u025brn\u025br\u025b": 8127,
  "\u2581identifie": 8128,
  "\u2581komindimisa": 8129,
  "\u2581kotindela": 8130,
  "\u2581kowela": 8131,
  "\u2581masese": 8132,
  "\u2581misapi": 8133,
  "\u2581nasepelaka": 8134,
  "\u2581performing": 8135,
  "\u2581prisoner": 8136,
  "\u2581rapidly": 8137,
  "\u2581tondimaka": 8138,
  "\u2581tot\u00e1ngi": 8139,
  "der": 8140,
  "koyebisa": 8141,
  "limboli": 8142,
  "mokonzi": 8143,
  "ner": 8144,
  "ngo": 8145,
  "nsango": 8146,
  "\u2581Batemwe": 8147,
  "\u2581Bokesen": 8148,
  "\u2581Gabriel": 8149,
  "\u2581Gideona": 8150,
  "\u2581Iniversite": 8151,
  "\u2581Motind": 8152,
  "\u2581Proclaimers": 8153,
  "\u2581Swahili": 8154,
  "\u2581abatela": 8155,
  "\u2581adversity": 8156,
  "\u2581alakamaki": 8157,
  "\u2581bakanisi": 8158,
  "\u2581bang\u0254mb\u025b": 8159,
  "\u2581bit": 8160,
  "\u2581diligently": 8161,
  "\u2581dramatic": 8162,
  "\u2581ebongwanaka": 8163,
  "\u2581ememel": 8164,
  "\u2581et\u00e1ngi": 8165,
  "\u2581expand": 8166,
  "\u2581forefathers": 8167,
  "\u2581kopakola": 8168,
  "\u2581manaka": 8169,
  "\u2581masengeli": 8170,
  "\u2581mil\u0254ng\u0254": 8171,
  "\u2581naturally": 8172,
  "\u2581professional": 8173,
  "\u2581protects": 8174,
  "\u2581tokok\u00f3ma": 8175,
  "\u2581ultimate": 8176,
  "ac": 8177,
  "up": 8178,
  "\u2581Caleb": 8179,
  "\u2581Mar": 8180,
  "\u2581Mishnah": 8181,
  "\u2581Mokemoke": 8182,
  "\u2581asimbaki": 8183,
  "\u2581barulo": 8184,
  "\u2581basil\u00e1": 8185,
  "\u2581bas\u025bngaka": 8186,
  "\u2581bikelakela": 8187,
  "\u2581bikuke": 8188,
  "\u2581connected": 8189,
  "\u2581ek\u00f3m\u00e1": 8190,
  "\u2581examined": 8191,
  "\u2581festivals": 8192,
  "\u2581frustration": 8193,
  "\u2581handled": 8194,
  "\u2581heirs": 8195,
  "\u2581immune": 8196,
  "\u2581instruct": 8197,
  "\u2581kolimwa": 8198,
  "\u2581kozwela": 8199,
  "\u2581makeseni": 8200,
  "\u2581moyangeli": 8201,
  "\u2581observance": 8202,
  "\u2581offices": 8203,
  "\u2581seat": 8204,
  "\u2581silence": 8205,
  "\u2581sudden": 8206,
  "\u2581thinks": 8207,
  "\u2581tomorrow": 8208,
  "\u2581v": 8209,
  "Bandeko": 8210,
  "nde": 8211,
  "ntomo": 8212,
  "\u258158": 8213,
  "\u2581Listen": 8214,
  "\u2581Mind": 8215,
  "\u2581Nazareth": 8216,
  "\u2581Part": 8217,
  "\u2581Pope": 8218,
  "\u2581Yehu": 8219,
  "\u2581acquired": 8220,
  "\u2581alonga": 8221,
  "\u2581atindi": 8222,
  "\u2581bak\u0254tisaki": 8223,
  "\u2581bat\u00e1ng\u00e1": 8224,
  "\u2581breaking": 8225,
  "\u2581burial": 8226,
  "\u2581cited": 8227,
  "\u2581condemn": 8228,
  "\u2581deliberately": 8229,
  "\u2581devote": 8230,
  "\u2581disposed": 8231,
  "\u2581epekiseli": 8232,
  "\u2581exercises": 8233,
  "\u2581fails": 8234,
  "\u2581favorite": 8235,
  "\u2581guests": 8236,
  "\u2581guidelines": 8237,
  "\u2581hardship": 8238,
  "\u2581mentally": 8239,
  "\u2581mikonzi": 8240,
  "\u2581nasepelaki": 8241,
  "\u2581pelamoko": 8242,
  "\u2581port": 8243,
  "\u2581p\u00e1pa": 8244,
  "\u2581rape": 8245,
  "\u2581rare": 8246,
  "\u2581reader": 8247,
  "\u2581submission": 8248,
  "\u2581survivors": 8249,
  "Z": 8250,
  "istic": 8251,
  "kokwela": 8252,
  "\u258115.)": 8253,
  "\u2581Easter": 8254,
  "\u2581Gentile": 8255,
  "\u2581Ka": 8256,
  "\u2581Moaba": 8257,
  "\u2581Pacific": 8258,
  "\u2581Syria": 8259,
  "\u2581anyokwamaki": 8260,
  "\u2581binso": 8261,
  "\u2581cleanse": 8262,
  "\u2581complaint": 8263,
  "\u2581confidently": 8264,
  "\u2581deadly": 8265,
  "\u2581ekozanga": 8266,
  "\u2581fishing": 8267,
  "\u2581governor": 8268,
  "\u2581honestly": 8269,
  "\u2581kobongolama": 8270,
  "\u2581lean": 8271,
  "\u2581mawamawa": 8272,
  "\u2581mosambeli": 8273,
  "\u2581nas\u025bngaki": 8274,
  "\u2581salite": 8275,
  "\u2581span": 8276,
  "\u2581sustained": 8277,
  "\u2581s\u0254k\u0254": 8278,
  "\u2581tosaleli": 8279,
  "\u2581transform": 8280,
  "baoyo": 8281,
  "\u258144;": 8282,
  "\u2581Bad": 8283,
  "\u2581Bitumba": 8284,
  "\u2581Mek\u00e1": 8285,
  "\u2581Moteyi": 8286,
  "\u2581Science": 8287,
  "\u2581Wise": 8288,
  "\u2581Worldwide": 8289,
  "\u2581ayambaki": 8290,
  "\u2581bikoki": 8291,
  "\u2581bongolabongola": 8292,
  "\u2581captivity": 8293,
  "\u2581comply": 8294,
  "\u2581defined": 8295,
  "\u2581dressed": 8296,
  "\u2581ekzam\u025b": 8297,
  "\u2581enthusiasm": 8298,
  "\u2581ex": 8299,
  "\u2581forbidden": 8300,
  "\u2581function": 8301,
  "\u2581golden": 8302,
  "\u2581kilikili": 8303,
  "\u2581kokanis\u00e1": 8304,
  "\u2581mikolimbola": 8305,
  "\u2581nights": 8306,
  "\u2581offense": 8307,
  "\u2581pains": 8308,
  "\u2581pair": 8309,
  "\u2581professed": 8310,
  "\u2581revelation": 8311,
  "\u2581sleeping": 8312,
  "\u2581somehow": 8313,
  "\u2581stressed": 8314,
  "\u2581teenagers": 8315,
  "\u2581topesaka": 8316,
  "\u2581t\u00f3yika": 8317,
  "\u2581warmly": 8318,
  "\u2581zando": 8319,
  "sta": 8320,
  "\u2581Cha": 8321,
  "\u2581Creation": 8322,
  "\u2581Obviously": 8323,
  "\u2581Philippi": 8324,
  "\u2581Sin": 8325,
  "\u2581TB": 8326,
  "\u2581bakosi": 8327,
  "\u2581bob\u00e1ngi": 8328,
  "\u2581drove": 8329,
  "\u2581envy": 8330,
  "\u2581evolisyo": 8331,
  "\u2581expelled": 8332,
  "\u2581kobimisela": 8333,
  "\u2581kofunda": 8334,
  "\u2581mabulu": 8335,
  "\u2581miyibi": 8336,
  "\u2581mokauki": 8337,
  "\u2581nt\u0254ki": 8338,
  "\u2581preacher": 8339,
  "\u2581remembering": 8340,
[...]
