{
  "</s>": 0,
  "<unk>": 1,
  ",": 2,
  ".": 3,
  "\u2581i": 4,
  "\u2581blong": 5,
  "\u2581long": 6,
  "\u2581we": 7,
  "\u2581\"": 8,
  "\u2581the": 9,
  "\u2581oli": 10,
  "\u2581ol": 11,
  "\u2581to": 12,
  "\u2581hem": 13,
  "\u2581of": 14,
  "\u2581ya": 15,
  "\u2581man": 16,
  "\u2581and": 17,
  "\u2581mo": 18,
  "\u2581se": 19,
  "\u2581no": 20,
  "\u2581-": 21,
  "?": 22,
  "\u2581in": 23,
  ":": 24,
  "\u2581yumi": 25,
  "\u2581a": 26,
  "\u2581God": 27,
  "\u2581mekem": 28,
  "\u2581wan": 29,
  "\u2581olgeta": 30,
  "\u2581stap": 31,
  "\u2581save": 32,
  "\u2581that": 33,
  "s": 34,
  "\u2581samting": 35,
  "\u2581mi": 36,
  "\u2581yu": 37,
  "\u2581gat": 38,
  "\u2581is": 39,
  "'": 40,
  "\u2581from": 41,
  "\u2581be": 42,
  "\u2581olsem": 43,
  "\u2581taem": 44,
  "\u2581fasin": 45,
  "\u2581for": 46,
  "\u2581bambae": 47,
  "\u2581Jehovah": 48,
  "\u2581I": 49,
  "\u2581wanem": 50,
  "\u2581talem": 51,
  "\u2581mas": 52,
  "\u2581his": 53,
  "\u2581with": 54,
  "\u2581was": 55,
  "\u2581tingting": 56,
  "\u2581not": 57,
  "\u2581(": 58,
  "\u2581wok": 59,
  "\u2581you": 60,
  "\u2581Jeova": 61,
  "\u2581kam": 62,
  "\u2581Ol": 63,
  "\u2581as": 64,
  "\u2581kasem": 65,
  "\u2581wetem": 66,
  "\u2581on": 67,
  "\u2581are": 68,
  "\u2581nomo": 69,
  "\u2581will": 70,
  "\u2581he": 71,
  "\u2581have": 72,
  "\u2581The": 73,
  "\u2581narafala": 74,
  "\u2581'": 75,
  "\u2581Long": 76,
  "\u2581moa": 77,
  "\u2581it": 78,
  "\u2581gud": 79,
  "\u2581go": 80,
  "\u2581laef": 81,
  "\u2581Baebol": 82,
  "\u2581tu": 83,
  "\u2581by": 84,
  "\u2581Jisas": 85,
  "\u2581givim": 86,
  "\u2581tok": 87,
  "\u2581plante": 88,
  "\u2581Be": 89,
  "\u2581their": 90,
  "\u2581wantem": 91,
  "\u2581Jesus": 92,
  "\u2581they": 93,
  "\u2581our": 94,
  "\u2581Bible": 95,
  "!": 96,
  "\u2581can": 97,
  "\u2581saed": 98,
  "\u2581tumas": 99,
  "\u2581who": 100,
  "\u2581[": 101,
  "\u2581stret": 102,
  "\u2581us": 103,
  "\u2581this": 104,
  "\u2581or": 105,
  "\u2581sam": 106,
  "\u2581?": 107,
  "\u2581Hem": 108,
  "\u2581": 109,
  "ing": 110,
  "\u2581wol": 111,
  "\u2581strong": 112,
  "\u2581what": 113,
  ";": 114,
  "\u2581had": 115,
  "\u2581do": 116,
  "\u2581What": 117,
  "\u2581yufala": 118,
  "\u2581were": 119,
  "\u2581all": 120,
  "\u2581tufala": 121,
  "\u25811": 122,
  "\u2581Blong": 123,
  "\u2581yia": 124,
  "\u2581ples": 125,
  "\u2581one": 126,
  "\u2581Kristin": 127,
  "\u2581harem": 128,
  "\u2581at": 129,
  "\u2581nogud": 130,
  "\u2581luk": 131,
  "\u2581them": 132,
  "\u2581nao": 133,
  "\u2581your": 134,
  "\u2581people": 135,
  "\u2581Mo": 136,
  "\u2581him": 137,
  "\u2581In": 138,
  "\u2581Taem": 139,
  "\u2581hemia": 140,
  "\u2581From": 141,
  "\u2581an": 142,
  "\u2581givhan": 143,
  "\u2581bigfala": 144,
  ")": 145,
  "\u2581finis": 146,
  "\u2581has": 147,
  "\u2581about": 148,
  "\u2581ded": 149,
  "\u2581soemaot": 150,
  "\u2581would": 151,
  "\u2581when": 152,
  "\u2581glad": 153,
  "\u2581Yu": 154,
  "\u2581We": 155,
  "\u2581did": 156,
  "\u2581How": 157,
  "\u2581tokbaot": 158,
  "\u2581Kingdom": 159,
  "\u2581gudfala": 160,
  "\u2581pikinini": 161,
  "\u2581Olsem": 162,
  "\u2581bakegen": 163,
  "\u2581bilif": 164,
  "\u2581spirit": 165,
  "\u2581sipos": 166,
  "\u2581bin": 167,
  "\u2581Wan": 168,
  "\u2581woman": 169,
  "\u2581time": 170,
  "\u2581Oli": 171,
  "\u2581Yumi": 172,
  "\u2581folem": 173,
  "\u2581may": 174,
  "\u2581kamaot": 175,
  "\u2581my": 176,
  "\u2581Jehova": 177,
  "\u2581but": 178,
  "]": 179,
  "\u2581life": 180,
  "\u2581tingbaot": 181,
  "a": 182,
  "\u2581mifala": 183,
  "\u2581rod": 184,
  "\u2581yusum": 185,
  "\u2581Wanem": 186,
  "\u2581so": 187,
  "\u2581Sam": 188,
  "\u2581those": 189,
  "\u2581trabol": 190,
  "\u2581bifo": 191,
  "\u2581talemaot": 192,
  "\u2581He": 193,
  "\u2581nating": 194,
  "\u2581help": 195,
  "\u2581more": 196,
  "\u2581also": 197,
  "\u2581me": 198,
  "\u2581some": 199,
  "\u2581joen": 200,
  "\u2581Sipos": 201,
  "\u2581tru": 202,
  "\u2581oltaem": 203,
  "\u2581paoa": 204,
  "\u2581been": 205,
  "\u2581haos": 206,
  "\u2581out": 207,
  "\u2581Mi": 208,
  "\u2581her": 209,
  "\u2581traem": 210,
  "\u2581A": 211,
  "\u2581Paul": 212,
  "\u2581many": 213,
  "\u2581how": 214,
  "\u2581good": 215,
  "\u2581It": 216,
  "\u2581such": 217,
  "\u2581buk": 218,
  "\u2581nem": 219,
  "\u2581Witnesses": 220,
  "\u2581stadi": 221,
  "\u2581should": 222,
  "\u2581Pol": 223,
  "\u2581Tok": 224,
  "\u2581brata": 225,
  "\u2581toktok": 226,
  ".?": 227,
  "\u2581Man": 228,
  "\u2581things": 229,
  "\u2581there": 230,
  "\u2581gohed": 231,
  "\u2581up": 232,
  "\u2581world": 233,
  "\u25812": 234,
  "\u2581famle": 235,
  "\u2581does": 236,
  "\u2581way": 237,
  "\u2581said": 238,
  "\u2581tekem": 239,
  "\u2581dei": 240,
  "\u2581if": 241,
  "??": 242,
  "\u2581bitim": 243,
  "\u2581love": 244,
  "\u2581Taswe": 245,
  "\u2581sem": 246,
  "\u2581other": 247,
  "\u25813:": 248,
  "\u2581kakae": 249,
  "\u2581askem": 250,
  "\u2581sin": 251,
  "\u2581work": 252,
  "b": 253,
  "\u2581Christian": 254,
  "\u2581skul": 255,
  "\u2581evri": 256,
  "\u2581putum": 257,
  "\u2581But": 258,
  "\u2581stat": 259,
  "\u2581even": 260,
  "\u2581than": 261,
  "\u2581mak": 262,
  "\u2581yet": 263,
  "\u2581pulum": 264,
  "\u2581these": 265,
  "\u2581raetem": 266,
  "\u2581biaen": 267,
  "\"": 268,
  "\u2581Yes": 269,
  "\u2581tabu": 270,
  "\u2581Christians": 271,
  "\u2581could": 272,
  "\u2581Christ": 273,
  "ed": 274,
  "\u2581mama": 275,
  "\u2581make": 276,
  "\u2581day": 277,
  "\u2581earth": 278,
  "\u25812:": 279,
  "\u2581fren": 280,
  "\u2581lukaot": 281,
  "\u2581Why": 282,
  "\u2581kongregesen": 283,
  "\u2581papa": 284,
  "\u2581rul": 285,
  "\u2581kantri": 286,
  "\u2581into": 287,
  "\u2581wokem": 288,
  "\u2581prea": 289,
  "\u2581soem": 290,
  "\u2581When": 291,
  "\u2581Kraes": 292,
  "\u2581which": 293,
  "\u2581Bambae": 294,
  "\u2581They": 295,
  "\u2581years": 296,
  "\u2581This": 297,
  "\u2581laekem": 298,
  "\u2581luksave": 299,
  "\u2581Isrel": 300,
  "\u2581pija": 301,
  "\u2581Hemia": 302,
  "\u2581impoten": 303,
  "\u2581faet": 304,
  "\u2581rabis": 305,
  "\u2581smol": 306,
  "\u2581others": 307,
  "\u2581prij": 308,
  "\u2581maet": 309,
  "\u2581page": 310,
  "\u2581because": 311,
  "\u2581King": 312,
  "\u2581first": 313,
  "\u2581nidim": 314,
  "\u2581faith": 315,
  "\u2581faenem": 316,
  "\u25811:": 317,
  "\u2581For": 318,
  "\u2581pej": 319,
  "\u2581she": 320,
  "\u2581need": 321,
  "\u25814:": 322,
  "\u2581Witnes": 323,
  "\u2581mitufala": 324,
  "\u2581must": 325,
  "\u2581spolem": 326,
  "\u2581only": 327,
  "\u2581tijim": 328,
  "\u2581ting": 329,
  "\u2581/": 330,
  "\u2581agensem": 331,
  "\u2581No": 332,
  "the": 333,
  "\u2581*": 334,
  "\u2581children": 335,
  "\u2581family": 336,
  "\u2581If": 337,
  "\u2581naf": 338,
  "\u2581haf": 339,
  "\u2581klia": 340,
  "\u2581being": 341,
  "\u2581bigwan": 342,
  "\u2581Samting": 343,
  "\u2581made": 344,
  "ly": 345,
  "\u258115": 346,
  "\u2581says": 347,
  "\u2581karem": 348,
  "\u2581example": 349,
  "\u2581\"?": 350,
  "...": 351,
  "\u25816": 352,
  "\u2581As": 353,
  "\u2581stanap": 354,
  "\u2581insaed": 355,
  "\u2581yangfala": 356,
  "\u2581mared": 357,
  "t": 358,
  "\u2581winim": 359,
  "\u25815": 360,
  "\u2581like": 361,
  "\u2581antap": 362,
  "\u2581waes": 363,
  "\u2581over": 364,
  "\u2581Plante": 365,
  ")?": 366,
  "\u2581congregation": 367,
  "\u2581then": 368,
  "\u2581know": 369,
  "Ol": 370,
  "\u2581You": 371,
  "\u2581mane": 372,
  "\u2581Nating": 373,
  "\u2581spiritual": 374,
  "\u2581kamtru": 375,
  "\u2581bodi": 376,
  "\u2581leftemap": 377,
  "\u2581see": 378,
  "\u2581hapen": 379,
  "\u2581Setan": 380,
  "\u2581true": 381,
  "\u2581defren": 382,
  "\u2581heven": 383,
  "\u2581lanem": 384,
  "\u2581lav": 385,
  "\u2581letem": 386,
  "\u2581wosip": 387,
  "\u2581And": 388,
  "\u2581Olgeta": 389,
  "\u2581tede": 390,
  "\u2581come": 391,
  "\u25811,": 392,
  "\u2581its": 393,
  "\u2581king": 394,
  "\u2581kilim": 395,
  "\u2581promes": 396,
  "\u2581naoia": 397,
  "\u2581advaes": 398,
  "\u2581trutok": 399,
  "\u2581Fasin": 400,
  "\u2581become": 401,
  "\u2581minim": 402,
  "\u2581ones": 403,
  "\u2581Moses": 404,
  "\u2581elda": 405,
  "\u258111": 406,
  "\u2581take": 407,
  "\u2581well": 408,
  "d": 409,
  "\u2581ridim": 410,
  "\u2581death": 411,
  "\u2581blokem": 412,
  "\u2581just": 413,
  "\u2581own": 414,
  "\u2581words": 415,
  "\u2581traehad": 416,
  "\u2581obei": 417,
  "\u258112": 418,
  "\u25819": 419,
  "\u2581loa": 420,
  "\u2581sik": 421,
  "\u2581men": 422,
  "\u2581before": 423,
  "\u2581fraet": 424,
  "I": 425,
  "\u2581heart": 426,
  "\u2581now": 427,
  "\u2581nambawan": 428,
  "\u2581longtaem": 429,
  "\u2581Nao": 430,
  "\u2581hat": 431,
  "\u2581after": 432,
  "\u2581lavem": 433,
  "\u2581Jerusalem": 434,
  "\u2581evriwan": 435,
  "\u2581new": 436,
  "\u2581John": 437,
  "\u2581lukluk": 438,
  "\u2581any": 439,
  ".!": 440,
  "\u2581kwestin": 441,
  "\u2581very": 442,
  "\u2581sista": 443,
  "\u2581halpem": 444,
  "\u2581lidim": 445,
  "\u2581another": 446,
  "\u2581give": 447,
  "\u258110": 448,
  "\u2581faswan": 449,
  "\u2581Maet": 450,
  "\u2581through": 451,
  "\u2581name": 452,
  "\u2581truth": 453,
  "\u25817": 454,
  "\u2581today": 455,
  "\u2581profet": 456,
  "\u258114": 457,
  "\u2581two": 458,
  "\u2581lego": 459,
  "\u2581person": 460,
  "\u2581great": 461,
  "\u2581taon": 462,
  "\u2581trufala": 463,
  "\u2581Ale": 464,
  "\u2581much": 465,
  "\u2581afta": 466,
  "\u2581klosap": 467,
  "\u2581lanwis": 468,
  "\u2581parents": 469,
  "\u258113": 470,
  "\u2581speret": 471,
  "\u2581ansa": 472,
  "\u2581Word": 473,
  "\u2581fastaem": 474,
  "\u2581That": 475,
  "\u2581might": 476,
  "\u2581times": 477,
  "\u2581holem": 478,
  "\u258118": 479,
  "\u2581So": 480,
  "\u2581filing": 481,
  "\u2581study": 482,
  "\u2581brothers": 483,
  "\u2581Jon": 484,
  "\u2581Wok": 485,
  "\u2581wanwan": 486,
  "\u2581Wetnes": 487,
  "\u2581miting": 488,
  "\u2581pas": 489,
  "\u2581problem": 490,
  "\u2581Satan": 491,
  "\u2581apostle": 492,
  "\u2581say": 493,
  "\u2581tri": 494,
  "\u2581kaen": 495,
  "\u2581Picture": 496,
  "\u2581most": 497,
  "\u2581frut": 498,
  "\u2581part": 499,
  "\u2581David": 500,
  "\u2581Israel": 501,
  "\u2581To": 502,
  "\u2581against": 503,
  "\u2581Papa": 504,
  "\u2581human": 505,
  "\u2581put": 506,
  "\u2581rili": 507,
  "\u2581feel": 508,
  "\u2581grup": 509,
  "\u2581himself": 510,
  "\u2581Job": 511,
  "\u2581One": 512,
  "\u2581pis": 513,
  "\u2581olfala": 514,
  "\u2581sore": 515,
  "\u2581find": 516,
  "\u2581keep": 517,
  "\u2581Deved": 518,
  "\u2581where": 519,
  "\u2581lesin": 520,
  "\u2581namba": 521,
  "\u2581each": 522,
  "\u2581young": 523,
  "\u2581means": 524,
  "\u2581C": 525,
  "\u258119": 526,
  "\u2581Pita": 527,
  "\u2581B": 528,
  "\u2581wrote": 529,
  "\u2581upon": 530,
  "\u2581Peter": 531,
  "\u2581get": 532,
  "\u2581NW": 533,
  "\u2581plan": 534,
  "\u2581blesing": 535,
  "\u2581New": 536,
  "E": 537,
  "\u2581show": 538,
  "\u2581haremgud": 539,
  "\u2581found": 540,
  "\u2581Rom": 541,
  "\u2581use": 542,
  "\u2581foldaon": 543,
  "\u2581home": 544,
  "\u2581trastem": 545,
  "\u2581kros": 546,
  "\u2581book": 547,
  "\u2581Do": 548,
  "\u2581year": 549,
  "\u2581graon": 550,
  "\u2581end": 551,
  "\u2581worship": 552,
  "\u258121": 553,
  "\u2581Adam": 554,
  "\u2581let": 555,
  "\u2581why": 556,
  "\u2581same": 557,
  "\u2581learn": 558,
  "\u2581However": 559,
  "\u2581never": 560,
  "\u2581faithful": 561,
  "\u2581aposol": 562,
  "\u2581place": 563,
  "n": 564,
  "\u2581stori": 565,
  "\u2581stretem": 566,
  "\u2581though": 567,
  "T": 568,
  "\u2581Is": 569,
  "\u2581under": 570,
  "\u2581right": 571,
  "\u2581tijing": 572,
  "\u2581hae": 573,
  "\u2581important": 574,
  "\u2581Proveb": 575,
  "\u2581word": 576,
  "\u2581news": 577,
  "\u258117": 578,
  "\u2581Some": 579,
  "\u2581Matthew": 580,
  "\u2581jenisim": 581,
  "\u2581wokbaot": 582,
  "\u2581jes": 583,
  "\u2581daon": 584,
  "\u25815:": 585,
  "\u2581rere": 586,
  "\u2581want": 587,
  "\u2581every": 588,
  "\u2581sevem": 589,
  "\u2581tanem": 590,
  "\u2581days": 591,
  "\u2581Father": 592,
  "\u2581fulap": 593,
  "\u2581too": 594,
  "\u2581giaman": 595,
  "\u2581used": 596,
  "\u2581course": 597,
  "\u2581Biaen": 598,
  "\u2581presen": 599,
  "\u2581holy": 600,
  "\u2581prapa": 601,
  "\u2581singaot": 602,
  "\u2581became": 603,
  "\u2581read": 604,
  "\u2581among": 605,
  "\u2581sipsip": 606,
  "\u2581isi": 607,
  "\u2581ale": 608,
  "\u2581At": 609,
  "\u2581fulwan": 610,
  "\u2581sanem": 611,
  "\u2581gavman": 612,
  "\u2581came": 613,
  "\u2581hope": 614,
  "\u2581Psalm": 615,
  "\u2581Yufala": 616,
  "\u2581waef": 617,
  "\u2581nius": 618,
  "\u2581After": 619,
  "\u2581agri": 620,
  "\u2581Solomon": 621,
  "\u2581preaching": 622,
  "niufala": 623,
  "\u25812.": 624,
  "\u2581samtaem": 625,
  "\u258125": 626,
  "\u2581down": 627,
  "\u2581wife": 628,
  "\u2581back": 629,
  "\u2581away": 630,
  "\u2581raet": 631,
  "\u2581given": 632,
  "\u2581knowledge": 633,
  "\u2581vas": 634,
  "\u2581handred": 635,
  "\u25813": 636,
  "\u2581slip": 637,
  "\u2581peace": 638,
  "\u2581ministry": 639,
  "\u2581called": 640,
  "\u2581service": 641,
  "\u2581view": 642,
  "\u2581live": 643,
  "\u2581often": 644,
  "\u2581lus": 645,
  "\u2581during": 646,
  "\u2581mind": 647,
  "\u2581themselves": 648,
  "The": 649,
  "\u2581neva": 650,
  "\u2581stamba": 651,
  "\u2581gogo": 652,
  "\u2581fes": 653,
  "\u2581told": 654,
  "\u2581Scriptures": 655,
  "\u258120": 656,
  "\u258116": 657,
  "\u2581tugeta": 658,
  "\u2581boe": 659,
  "ol": 660,
  "\u2581mining": 661,
  "\u2581power": 662,
  "\u2581jusum": 663,
  "\u258110.": 664,
  "\u2581doing": 665,
  "\u2581laen": 666,
  "\u2581Afta": 667,
  "\u2581serve": 668,
  "Mi": 669,
  "\u2581eksplenem": 670,
  "\u25814.": 671,
  "\u2581am": 672,
  "\u2581By": 673,
  "\u2581fri": 674,
  "\u2581disaepol": 675,
  "\u2581still": 676,
  "\u2581gel": 677,
  "\u2581disciples": 678,
  "i": 679,
  "\u2581century": 680,
  "\u2581ona": 681,
  "\u2581There": 682,
  "\u2581han": 683,
  "\u2581servants": 684,
  "\u2581baptaes": 685,
  "\u2581set": 686,
  "\u2581enjel": 687,
  "\u2581later": 688,
  "\u2581jenis": 689,
  "\u2581kalabus": 690,
  "\u2581pem": 691,
  "\u2581old": 692,
  "\u2581Daniel": 693,
  "\u2581living": 694,
  "\u2581gave": 695,
  "\u2581Hae": 696,
  "\u2581three": 697,
  "\u2581\"!": 698,
  "),": 699,
  "e": 700,
  "\u2581house": 701,
  "\u2581bisnes": 702,
  "\u25818:": 703,
  "\u2581began": 704,
  "\u2581able": 705,
  "\u2581without": 706,
  "\u2581Then": 707,
  "\u2581Bigfala": 708,
  "\u2581loving": 709,
  "\u2581mankind": 710,
  "\u2581ways": 711,
  "\u2581Tingbaot": 712,
  "\u2581Korin": 713,
  "\u2581result": 714,
  "\u2581Aesea": 715,
  "\u2581His": 716,
  "\u2581\u25a1": 717,
  "we": 718,
  "\u25816:": 719,
  "\u2581On": 720,
  "\u2581With": 721,
  "\u25818.": 722,
  "\u2581en": 723,
  "\u2581humans": 724,
  "\u2581fact": 725,
  "\u258114.": 726,
  "\u2581however": 727,
  "\u2581making": 728,
  "\u2581kolosap": 729,
  "\u2581Our": 730,
  "\u2581win": 731,
  "\u258113.": 732,
  "\u2581spesel": 733,
  "\u2581always": 734,
  "\u2581whom": 735,
  "\u2581fo": 736,
  "\u2581Yet": 737,
  "\u25819.": 738,
  "God": 739,
  "\u25817.": 740,
  "\u258115,": 741,
  "\u25818": 742,
  "\u2581full": 743,
  "\u25813,": 744,
  "\u2581K": 745,
  "\u2581Pikinini": 746,
  "\u2022": 747,
  "\u25814": 748,
  "y": 749,
  "....": 750,
  "\u2581father": 751,
  "\u258112.": 752,
  "\u2581while": 753,
  "\u2581Isaiah": 754,
  "\u2581both": 755,
  "\u258130": 756,
  "\u2581sua": 757,
  "\u2581religious": 758,
  "\u2581order": 759,
  "\u258124:": 760,
  "\u2581risen": 761,
  "\u25815.": 762,
  "\u2581hasban": 763,
  "\u2581think": 764,
  "\u2581Even": 765,
  "\u258116.": 766,
  "\u2581marriage": 767,
  "\u2581raonabaot": 768,
  "\u2581elders": 769,
  "\u2581asked": 770,
  "\u2581something": 771,
  "\u2581reason": 772,
  "\u258111.": 773,
  "\u2581Many": 774,
  "\u2581joy": 775,
  "\u2581purpose": 776,
  "\u2581tekemaot": 777,
  "S": 778,
  "\u2581Loa": 779,
  "\u2581bon": 780,
  "\u2581olwe": 781,
  "\u25813.": 782,
  "\u2581hand": 783,
  "\u258117.": 784,
  "\u2581jajem": 785,
  "\u25815,": 786,
  "\u2581taswe": 787,
  "\u2581Son": 788,
  "\u258115.": 789,
  "\u2581consider": 790,
  "\u2581klin": 791,
  "\u2581Save": 792,
  "\u2581She": 793,
  "\u2581having": 794,
  "\u2581Luk": 795,
  "al": 796,
  "\u2581Tingting": 797,
  "\u2581longfala": 798,
  "\u2581eksampol": 799,
  "\u25816.": 800,
  "\u2581anointed": 801,
  "\u2581wota": 802,
  "\u2581toward": 803,
  "\u2581Masta": 804,
  "\u2581someone": 805,
  "\u2581blad": 806,
  "\u2581dring": 807,
  "\u2581Naoia": 808,
  "\u2581fellow": 809,
  "\u2581paenia": 810,
  "\u2581future": 811,
  "\u2581kingdom": 812,
  "\u2581Tru": 813,
  "\u2581wari": 814,
  "\u2581heaven": 815,
  "\u2581personal": 816,
  "\u2581article": 817,
  "\u25819,": 818,
  "\u2581bos": 819,
  "\u2581prayer": 820,
  "\u2581sapraes": 821,
  "\u2581really": 822,
  "\u2581Mekem": 823,
  "\u2581anamol": 824,
  "\u2581took": 825,
  "\u2581between": 826,
  "\u2581hop": 827,
  "\u2581kampani": 828,
  "\u2581min": 829,
  "\u2581dip": 830,
  "\u2581jos": 831,
  "\u258122": 832,
  "\u2581Mifala": 833,
  "\u2581brother": 834,
  "\u2581counsel": 835,
  "\u2581World": 836,
  "\u2581intres": 837,
  "\u2581lida": 838,
  "\u2581lusum": 839,
  "\u2581aot": 840,
  "\u2581samfala": 841,
  "\u2581aninit": 842,
  "\u2581bring": 843,
  "\u25816,": 844,
  "\u2581wisdom": 845,
  "\u2581lives": 846,
  "\u2581nations": 847,
  "\u2581hed": 848,
  "\u2581together": 849,
  "\u2581faenemaot": 850,
  "\u25818,": 851,
  "\u2581agens": 852,
  "\u2581Watchtower": 853,
  "\u2581son": 854,
  "\u2581Proverbs": 855,
  "\u2581Corinthians": 856,
  "\u2581happy": 857,
  "\u2581pusum": 858,
  "\u2581leta": 859,
  "\u2581questions": 860,
  "\u2581Matiu": 861,
  "\u2581god": 862,
  "\u2581wicked": 863,
  "\u2581Revelesen": 864,
  "\u25814,": 865,
  "\u2581Israelites": 866,
  "\u2581meetings": 867,
  "\u2581tell": 868,
  "\u2581mother": 869,
  "\u2581look": 870,
  "\u2581Tede": 871,
  "\u2581fear": 872,
  "\u2581teaching": 873,
  "\u2581husband": 874,
  "\u2581done": 875,
  "\u2581city": 876,
  "\u2581Ebraham": 877,
  "\u2581Abraham": 878,
  "\u2581water": 879,
  "\u2581bad": 880,
  "\u2581problems": 881,
  "\u2581pris": 882,
  "\u2581ae": 883,
  "\u2581free": 884,
  "\u2581food": 885,
  "\u2581last": 886,
  "\u2581experience": 887,
  "\u2581gobak": 888,
  "\u2581relationship": 889,
  "\u2581few": 890,
  "\u2581heavenly": 891,
  "\u2581Lord": 892,
  "\u2581number": 893,
  "\u2581needed": 894,
  "\u2581child": 895,
  "\u2581since": 896,
  "\u2581again": 897,
  "\u2581little": 898,
  "\u2581system": 899,
  "\u2581conduct": 900,
  "\u2581rong": 901,
  "\u2581These": 902,
  "\u2581makemaot": 903,
  "\u2581Timothy": 904,
  "\u2581righteous": 905,
  "\u2581law": 906,
  "\u2581women": 907,
  "\u2581All": 908,
  "\u2581cannot": 909,
  "\u2581woning": 910,
  "\u2581self": 911,
  "\u2581following": 912,
  "\u2581lukaotgud": 913,
  "\u25812,": 914,
  "\u2581\u2022?": 915,
  "\u2581fine": 916,
  "\u2581learned": 917,
  "\u2581My": 918,
  "\u2581olbaot": 919,
  "\u2581continue": 920,
  "\u2581manis": 921,
  "\u2581care": 922,
  "\u2581hu": 923,
  "\u258128": 924,
  "\u2581Let": 925,
  "\u258114,": 926,
  "\u2581Revelation": 927,
  "\u2581disisen": 928,
  "\u2581left": 929,
  "\u2581better": 930,
  "\u2581kwaet": 931,
  "\u2581makem": 932,
  "\u2581eksampel": 933,
  "\u2581ful": 934,
  "\u2581religion": 935,
  "\u2581memba": 936,
  "\u2581Tufala": 937,
  "\u2581naet": 938,
  "\u2581S": 939,
  "\u2581eni": 940,
  "\u2581ron": 941,
  "\u2581different": 942,
  "\u2581blood": 943,
  "\u2581slef": 944,
  "\u2581laet": 945,
  "\u2581longwe": 946,
  "\u2581saen": 947,
  "\u2581support": 948,
  "\u258140": 949,
  "\u2581poen": 950,
  "\u2581helped": 951,
  "\u2581face": 952,
  "\u2581matter": 953,
  "\u2581possible": 954,
  "\u2581mean": 955,
  "Yufala": 956,
  "\u2581off": 957,
  "\u2581wet": 958,
  "\u2581Ating": 959,
  "\u2581eyes": 960,
  "\u2581felt": 961,
  "\u2581nor": 962,
  "\u2581Society": 963,
  "\u2581went": 964,
  "\u25817,": 965,
  "\u2581close": 966,
  "\u2581James": 967,
  "\u2581members": 968,
  "\u2581present": 969,
  "\u2581tija": 970,
  "\u2581Samuel": 971,
  "\u2581fiuja": 972,
  "\u2581nyufala": 973,
  "\u2581Haos": 974,
  "\u2581known": 975,
  "\u258126": 976,
  "\u2581believe": 977,
  "\u2581kwiktaem": 978,
  "\u2581ever": 979,
  "\u2581Because": 980,
  "\u2581ourselves": 981,
  "\u2581Who": 982,
  "\u2581hard": 983,
  "\u2581message": 984,
  "\u2581situation": 985,
  "\u2581gyaman": 986,
  "\u2581ten": 987,
  "\u2581Jews": 988,
  "\u2581best": 989,
  "\u2581asembli": 990,
  "\u2581Greek": 991,
  "\u2581baptized": 992,
  "\u2581Laef": 993,
  "\u2581understand": 994,
  "\u2581Thus": 995,
  "\u2581far": 996,
  "\u2581savegud": 997,
  "\u2581respect": 998,
  "er": 999,
  "\u2581slak": 1000,
  "\u2581E": 1001,
  "\u2581sapotem": 1002,
  "\u2581lafet": 1003,
  "\u258133": 1004,
  "\u2581ask": 1005,
  "\u258111,": 1006,
  "\u2581share": 1007,
  "\u2581thought": 1008,
  "\u258127": 1009,
  "\u2581Luke": 1010,
  "\u2581presem": 1011,
  "\u2581fesem": 1012,
  "\u2581ami": 1013,
  "\u2581kastom": 1014,
  "\u2581nesen": 1015,
  "\u2581sas": 1016,
  "\u2581\u25a1?": 1017,
  "\u258119.": 1018,
  "\u2581janis": 1019,
  "\u2581tangkiu": 1020,
  "\u2581Wajtaoa": 1021,
  "\u2581Law": 1022,
  "\u2581enemi": 1023,
  "\u2581klos": 1024,
  "\u2581benefit": 1025,
  "\u2581kindness": 1026,
  "\u258120:": 1027,
  "\u2581finisim": 1028,
  "\u2581until": 1029,
  "\u2581kind": 1030,
  "\u2581ancient": 1031,
  "m": 1032,
  "\u2581Acts": 1033,
  "\u2581early": 1034,
  "\u2581avoid": 1035,
  "\u2581light": 1036,
  "\u258118.": 1037,
  "\u258129": 1038,
  "\u2581dokta": 1039,
  "\u2581answer": 1040,
  "\u2581kambak": 1041,
  "\u2581kolem": 1042,
  "\u2581desire": 1043,
  "\u2581land": 1044,
  "\u2581dead": 1045,
  "\u2581saying": 1046,
  "\u2581Romans": 1047,
  "\u2581sense": 1048,
  "\u258110,": 1049,
  "\u2581giving": 1050,
  "\u2581enjoy": 1051,
  "\u2581Your": 1052,
  "\u2581next": 1053,
  "\u2581yourself": 1054,
  "\u2581spenem": 1055,
  "th": 1056,
  "\u2581certain": 1057,
  "\u2581speak": 1058,
  "\u2581war": 1059,
  "\u2581wrong": 1060,
  "\u2581wise": 1061,
  "Yu": 1062,
  "\u2581friends": 1063,
  "\u2581ransom": 1064,
  "\u2581divine": 1065,
  "\u2581cause": 1066,
  "\u2581body": 1067,
  "\u2581fogivim": 1068,
  "\u2581Of": 1069,
  "\u2581attention": 1070,
  "\u2581temple": 1071,
  "\u2581Not": 1072,
  "\u2581Stap": 1073,
  "\u2581school": 1074,
  "\u2581tinghae": 1075,
  "\u2581especially": 1076,
  "\u2581thus": 1077,
  "\u2581whole": 1078,
  "\u2581attitude": 1079,
  "\u2581Oltaem": 1080,
  "\u2581Since": 1081,
  "\u2581received": 1082,
  "\u2581case": 1083,
  "\u2581money": 1084,
  "\u2581difficult": 1085,
  "\u2581Wol": 1086,
  "\u2581brought": 1087,
  "\u2581seks": 1088,
  "\u2581died": 1089,
  "\u2581follow": 1090,
  "\u2581smosmol": 1091,
  "\u2581false": 1092,
  "\u2581stampa": 1093,
  "\u2581Can": 1094,
  "\u2581going": 1095,
  "\u2581program": 1096,
  "\u2581Aposol": 1097,
  "\u2581T": 1098,
  "\u258112,": 1099,
  "\u2581Watch": 1100,
  "\u2581Jyu": 1101,
  "\u2581seven": 1102,
  "\u258116,": 1103,
  "\u2581control": 1104,
  "\u2581sakemaot": 1105,
  "\u258112:": 1106,
  "\u2581around": 1107,
  "\u2581garen": 1108,
  "\u2581saw": 1109,
  "\u2581serving": 1110,
  "\u2581gru": 1111,
  "\u2581receive": 1112,
  "\u2581language": 1113,
  "\u2581nation": 1114,
  "\u2581Buk": 1115,
  "Jenesis": 1116,
  "\u2581along": 1117,
  "\u2581laenap": 1118,
  "\u2581account": 1119,
  "\u2581talk": 1120,
  "\u2581trust": 1121,
  "\u2581sure": 1122,
  "\u2581More": 1123,
  "\u2581soon": 1124,
  "\u2581desisen": 1125,
  "\u2581happiness": 1126,
  "\u2581sakrefaes": 1127,
  "\u258113,": 1128,
  "\u2581suffering": 1129,
  "\u2581taosen": 1130,
  "\u2581feelings": 1131,
  "\u2581age": 1132,
  "\u2581Line": 1133,
  "\u2581haed": 1134,
  "\u2581needs": 1135,
  "\u258123": 1136,
  "\u2581pruvum": 1137,
  "\u2581knew": 1138,
  "\u2581krae": 1139,
  "\u2581states": 1140,
  "\u2581holemstrong": 1141,
  "\u2581real": 1142,
  "\u2581ating": 1143,
  "\u2581fogetem": 1144,
  "\u2581Although": 1145,
  "\u2581Creator": 1146,
  "\u2581high": 1147,
  "\u2581misinari": 1148,
  "\u2581Those": 1149,
  "\u2581Hu": 1150,
  "\u2581point": 1151,
  "\u2581stop": 1152,
  "\u2581medel": 1153,
  "\u2581doti": 1154,
  "\u2581prophet": 1155,
  "\u2581sacrifice": 1156,
  "\u258121.": 1157,
  "\u2581everlasting": 1158,
  "\u2581followers": 1159,
  "\u2581righteousness": 1160,
  "\u2581trifala": 1161,
  "\u2581special": 1162,
  "\u2581teach": 1163,
  "\u2581ogenaesesen": 1164,
  "in": 1165,
  "\u2581act": 1166,
  "\u2581principles": 1167,
  "\u2581lead": 1168,
  "\u2581'?": 1169,
  "\u2581taught": 1170,
  "\u2581Bifo": 1171,
  "\u2581Consider": 1172,
  "\u2581sent": 1173,
  "\u2581turn": 1174,
  "\u2581health": 1175,
  "\u2581certainly": 1176,
  "\u2581Are": 1177,
  "\u2581nyus": 1178,
  "C": 1179,
  "\u2581works": 1180,
  "\u2581Today": 1181,
  "\u2581respek": 1182,
  "\u2581sheep": 1183,
  "\u2581hil": 1184,
  "\u258120.": 1185,
  "\u258131": 1186,
  "\u2581Tower": 1187,
  "\u2581question": 1188,
  "\u2581small": 1189,
  "\u2581fored": 1190,
  "\u2581ronwe": 1191,
  "\u2581sakem": 1192,
  "\u2581Such": 1193,
  "\u2581makes": 1194,
  "\u2581including": 1195,
  "\u2581taken": 1196,
  "\u2581thinking": 1197,
  "\u2581nid": 1198,
  "\u2581stanemap": 1199,
  "\u2581change": 1200,
  "\u2581pray": 1201,
  "st": 1202,
  "\u2581Ya": 1203,
  "\u2581visitim": 1204,
  "\u2581whether": 1205,
  "\u2581wanted": 1206,
  "\u2581matters": 1207,
  "\u2581resurrection": 1208,
  "\u2581thing": 1209,
  "\u2581wik": 1210,
  "\u2581hadwok": 1211,
  "\u2581provide": 1212,
  "\u2581reading": 1213,
  "\u2581singsing": 1214,
  "\u2581putumap": 1215,
  "\u2581japta": 1216,
  "\u2581haeman": 1217,
  "\u2581Hibru": 1218,
  "\u2581Does": 1219,
  "\u258110:": 1220,
  "\u2581ston": 1221,
  "\u2581slave": 1222,
  "\u258137": 1223,
  "\u2581brekem": 1224,
  "\u2581While": 1225,
  "\u2581Jiu": 1226,
  "\u2581organization": 1227,
  "\u2581Antap": 1228,
  "\u2581store": 1229,
  "\u2581hadtaem": 1230,
  "\u2581perfect": 1231,
  "\u2581Hebrews": 1232,
  "\u2581heard": 1233,
  "\u2581prophecy": 1234,
  "\u2581remain": 1235,
  "\u2581soul": 1236,
  "\u2581seen": 1237,
  "\u2581similar": 1238,
  "Taem": 1239,
  "\u2581O": 1240,
  "\u2581gives": 1241,
  "\u2581apostles": 1242,
  "\u2581Footnote": 1243,
  "\u2581coming": 1244,
  "\u2581defdefren": 1245,
  "\u2581likely": 1246,
  "\u2581nothing": 1247,
  "\u258111:": 1248,
  "\u258132": 1249,
  "\u2581Hebrew": 1250,
  "\u258117,": 1251,
  "\u2581authority": 1252,
  "\u2581Timoti": 1253,
  "\u2581shows": 1254,
  "fala": 1255,
  "\u2581Devil": 1256,
  "\u2581trak": 1257,
  "A": 1258,
  "\u2581spiritually": 1259,
  "\u2581open": 1260,
  "\u2581try": 1261,
  "\u00b7": 1262,
  "\u2581information": 1263,
  "\u2581wanples": 1264,
  "\u2581Futnot": 1265,
  "\u2581four": 1266,
  "\u2581married": 1267,
  "em": 1268,
  "\u2581involved": 1269,
  "\u2581moved": 1270,
  "\u2581Babilon": 1271,
  "\u258113:": 1272,
  "\u2581sons": 1273,
  "\u2581according": 1274,
  "\u2581Matyu": 1275,
  "\u2581comes": 1276,
  "\u2581allow": 1277,
  "\u2581Hibrus": 1278,
  "\u2581Jenesis": 1279,
  "\u2581blesem": 1280,
  "\u2581jyos": 1281,
  "\u2581LONG": 1282,
  "\u2581!": 1283,
  "\u2581pleplei": 1284,
  "\u2581mesej": 1285,
  "\u2581OL": 1286,
  "l": 1287,
  "\u2581material": 1288,
  "\u2581truly": 1289,
  "\u25817:": 1290,
  "\u2581denja": 1291,
  "\u2581taking": 1292,
  "\u2581Jemes": 1293,
  "\u2581night": 1294,
  "\u2581Mesaea": 1295,
  "\u2581further": 1296,
  "\u2581Ijip": 1297,
  "\u2581group": 1298,
  "\u2581BLONG": 1299,
  "\u2581clear": 1300,
  "\u2581Jewish": 1301,
  "\u2581flas": 1302,
  "\u2581qualities": 1303,
  "\u2581oda": 1304,
  "\u2581Would": 1305,
  "\u2581Kam": 1306,
  "\u2581showed": 1307,
  "\u2581Genesis": 1308,
  "\u258119,": 1309,
  "\u2581near": 1310,
  "\u2581Rather": 1311,
  "\u2581sisters": 1312,
  "\u2581bigman": 1313,
  "\u2581faea": 1314,
  "\u2581s": 1315,
  "\u2581anyone": 1316,
  "\u2581here": 1317,
  "\u2581individuals": 1318,
  "\u258123.": 1319,
  "\u2581Yunaete": 1320,
  "\u2581York": 1321,
  "\u2581shall": 1322,
  "\u2581call": 1323,
  "\u2581simply": 1324,
  "\u2581yutufala": 1325,
  "\u258150": 1326,
  "\u2581Gat": 1327,
  "Ridim": 1328,
  "\u2581krangke": 1329,
  "\u2581studen": 1330,
  "K": 1331,
  "Read": 1332,
  "\u2581Samtaem": 1333,
  "\u2581evidence": 1334,
  "\u2581provided": 1335,
  "\u2581loved": 1336,
  "\u2581wosipim": 1337,
  "\u2581fas": 1338,
  "\u2581therefore": 1339,
  "\u258124": 1340,
  "\u2581return": 1341,
  "\u2581wonderful": 1342,
  "\u2581statem": 1343,
  "\u2581Noa": 1344,
  "\u2581storian": 1345,
  "\u2581United": 1346,
  "\u2581based": 1347,
  "\u2581forever": 1348,
  "\u2581magasin": 1349,
  "\u2581jans": 1350,
  "\u2581regard": 1351,
  "Sipos": 1352,
  "\u2581People": 1353,
  "\u2581once": 1354,
  "\u2581Katolik": 1355,
  "\u258134": 1356,
  "\u2581accept": 1357,
  "c": 1358,
  "\u2581past": 1359,
  "\u2581Grik": 1360,
  "\u2581Dur": 1361,
  "\u2581Their": 1362,
  "\u2581politik": 1363,
  "\u2581bighaf": 1364,
  "\u2581wora": 1365,
  "te": 1366,
  "\u2581second": 1367,
  "\u2581already": 1368,
  "\u2581rule": 1369,
  "\u2581wantaem": 1370,
  "\u2581J": 1371,
  "\u2581inspired": 1372,
  "\u2581leave": 1373,
  "\u2581An": 1374,
  "\u2581Efesas": 1375,
  "\u2581promise": 1376,
  "\u2581hearts": 1377,
  "\u2581Joseph": 1378,
  "\u2581loyal": 1379,
  "\u258118,": 1380,
  "\u2581Wetem": 1381,
  "\u2581gift": 1382,
  "\u2581strength": 1383,
  "Aesea": 1384,
  "\u2581THE": 1385,
  "\u2581heavens": 1386,
  "\u2581witness": 1387,
  "\u2581comfort": 1388,
  "\u2581hapi": 1389,
  "You": 1390,
  "\u2581According": 1391,
  "\u2581Tabu": 1392,
  "\u2581glory": 1393,
  "\u2581skelem": 1394,
  "\u2581godaon": 1395,
  "\u2581congregations": 1396,
  "\u2581joengud": 1397,
  "\u2581serious": 1398,
  "\u2581stand": 1399,
  "Man": 1400,
  "\u2581public": 1401,
  "\u2581sidaon": 1402,
  "\u2581understanding": 1403,
  "\u2581interest": 1404,
  "\u2581longer": 1405,
  "\u2581yes": 1406,
  "\u2581church": 1407,
  "\u2581Ridim": 1408,
  "\u2581Now": 1409,
  "\u2581laswan": 1410,
  "\u2581written": 1411,
  "\u2581circumstances": 1412,
  "\u2581Like": 1413,
  "\u2581bildim": 1414,
  "\u2581bonem": 1415,
  "\u2581prayers": 1416,
  "\u2581large": 1417,
  "\u2581meresin": 1418,
  "\u2581girap": 1419,
  "\u2581kept": 1420,
  "\u2581please": 1421,
  ",...": 1422,
  "\u2581history": 1423,
  "\u2581Samfala": 1424,
  "\u2581judgment": 1425,
  "\u2581dedman": 1426,
  "\u2581godly": 1427,
  "\u2581Noah": 1428,
  "\u2581Pictures": 1429,
  "\u2581rather": 1430,
  "\u258122.": 1431,
  "\u2581Namba": 1432,
  "\u2581country": 1433,
  "\u2581examples": 1434,
  "\u2581Will": 1435,
  "\u2581angels": 1436,
  "\u2581raf": 1437,
  "\u2581safa": 1438,
  "\u2581hot": 1439,
  "\u2581mentioned": 1440,
  "\u2581soldia": 1441,
  "\u2581started": 1442,
  "\u2581die": 1443,
  "\u2581fultaem": 1444,
  "\u2581gain": 1445,
  "Long": 1446,
  "kaen": 1447,
  "\u2581fully": 1448,
  "\u2581Afrika": 1449,
  "\u2581powerful": 1450,
  "\u2581kamgud": 1451,
  "ting": 1452,
  "\u2581form": 1453,
  "\u2581imitate": 1454,
  "\u2581Brata": 1455,
  "\u2581Iv": 1456,
  "\u2581sef": 1457,
  "\u2581physical": 1458,
  "\u2581lost": 1459,
  "\u2581pioneer": 1460,
  "\u258122,": 1461,
  "\u2581anything": 1462,
  "\u2581mastik": 1463,
  "\u2581Witness": 1464,
  "\u2581merikel": 1465,
  "\u2581ofis": 1466,
  "\u2581panis": 1467,
  "\u2581Scriptural": 1468,
  "\u2581blessing": 1469,
  "\u2581confidence": 1470,
  "\u2581meaning": 1471,
  "\u2581meeting": 1472,
  "\u2581visit": 1473,
  "o": 1474,
  "\u2581promises": 1475,
  "\u2581Instead": 1476,
  "\u2581sister": 1477,
  "\u2581smoltaem": 1478,
  "\u2581got": 1479,
  "\u2581Hall": 1480,
  "\u2581kot": 1481,
  "\u2581nogat": 1482,
  "\u258124.": 1483,
  "\u2581Fastaem": 1484,
  "\u2581Spirit": 1485,
  "\u2581greater": 1486,
  "\u2581hands": 1487,
  "\u2581sot": 1488,
  "\u2581within": 1489,
  "\u2581preach": 1490,
  "\u2581Roman": 1491,
  "\u2581pepa": 1492,
  "\u2581itself": 1493,
  "\u2581effort": 1494,
  "\u2581lived": 1495,
  "\u2581local": 1496,
  "\u2581spel": 1497,
  "\u2581born": 1498,
  "\u2581stretgud": 1499,
  "\u2581Evri": 1500,
  "\u2581Hence": 1501,
  "\u2581Wokem": 1502,
  "\u2581ripot": 1503,
  "\u2581Eksampel": 1504,
  "\u2581Gilead": 1505,
  "\u2581sins": 1506,
  "\u2581Skul": 1507,
  "\u2581everything": 1508,
  "\u2581histri": 1509,
  "man": 1510,
  "\u2581Timote": 1511,
  "\u2581Josef": 1512,
  "\u2581helps": 1513,
  "\u2581spoke": 1514,
  "\u2581True": 1515,
  "\u2581deep": 1516,
  "\u2581remember": 1517,
  "\u2581apply": 1518,
  "\u2581blessings": 1519,
  "\u2581happened": 1520,
  "\u2581perhaps": 1521,
  "wan": 1522,
  "\u2581(1": 1523,
  "\u2581Indeed": 1524,
  "\u2581continued": 1525,
  "\u2581prove": 1526,
  "\u2581Catholic": 1527,
  "\u2581milian": 1528,
  "\u2581effect": 1529,
  "re": 1530,
  "\u2581hear": 1531,
  "\u2581speaking": 1532,
  "\u2581Mama": 1533,
  "\u2581opportunity": 1534,
  "\u2581letter": 1535,
  "\u2581Gospel": 1536,
  "\u2581alone": 1537,
  "\u2581nekis": 1538,
  "\u2581privilege": 1539,
  "\u2581forth": 1540,
  "\u2581efforts": 1541,
  "\u2581Mas": 1542,
  "\u2581Life": 1543,
  "\u2581milyan": 1544,
  "\u2581semfala": 1545,
  "\u2581hold": 1546,
  "\u2581explained": 1547,
  "\u2581sip": 1548,
  "\u2581standards": 1549,
  "\u2581Read": 1550,
  "\u2581covenant": 1551,
  "\u2581regarding": 1552,
  "\u2581using": 1553,
  "Jehovah": 1554,
  "no": 1555,
  "\u2581months": 1556,
  "\u2581draw": 1557,
  "\u258170": 1558,
  "\u2581Pija": 1559,
  "\u2581value": 1560,
  "sem": 1561,
  "\u2581Mitufala": 1562,
  "\u2581Jeremaea": 1563,
  "\u2581honor": 1564,
  "\u2581Mak": 1565,
  "gud": 1566,
  "\u258120,": 1567,
  "\u2581listen": 1568,
  "oli": 1569,
  "\u2581holemtaet": 1570,
  "\u2581Traem": 1571,
  "\u2581W": 1572,
  "\u2581joenem": 1573,
  "\u2581bi": 1574,
  "\u2581common": 1575,
  "\u2581vital": 1576,
  "\u2581fyuja": 1577,
  "\u2581events": 1578,
  "\u2581flesh": 1579,
  "\u2581kea": 1580,
  "\u2581modern": 1581,
  "\u2581rij": 1582,
  "\u2581decision": 1583,
  "\u2581Strong": 1584,
  "\u2581deal": 1585,
  "\u2581Mary": 1586,
  "\u2581Faswan": 1587,
  "\u2581ago": 1588,
  "\u2581foretold": 1589,
  "\u02b9": 1590,
  "\u2581five": 1591,
  "\u2581naesfala": 1592,
  "\u2581de": 1593,
  "\u2581voes": 1594,
  "\u2581Betel": 1595,
  "\u2581faef": 1596,
  "\u2581Stet": 1597,
  "\u2581praise": 1598,
  "\u258115:": 1599,
  "\u2581naes": 1600,
  "Bambae": 1601,
  "\u2581believers": 1602,
  "\u2581doubt": 1603,
  "\u2581friend": 1604,
  "\u2581older": 1605,
  "\u2581livim": 1606,
  "\u2581promised": 1607,
  "\u2581bel": 1608,
  "\u2581conscience": 1609,
  "over": 1610,
  "\u2581Did": 1611,
  "\u2581olsemia": 1612,
  "\u2581soa": 1613,
  "\u2581chapter": 1614,
  "\u2581Still": 1615,
  "\u2581appointed": 1616,
  "\u2581willing": 1617,
  "\u2581walk": 1618,
  "\u2581pages": 1619,
  "\u2581Amerika": 1620,
  "\u2581served": 1621,
  "\u2581rao": 1622,
  "\u2581whose": 1623,
  "\u2581Pej": 1624,
  "\u2581held": 1625,
  "\u2581seraot": 1626,
  "\u2581teachings": 1627,
  "\u2581Eve": 1628,
  "\u2581Nogat": 1629,
  "\u2581paradaes": 1630,
  "\u258160": 1631,
  "\u2581elder": 1632,
  "\u2581influence": 1633,
  "\u2581harmony": 1634,
  "\u2581pua": 1635,
  "\u2581AIDS": 1636,
  "\u2581move": 1637,
  "\u2581psalmist": 1638,
  "\u2581led": 1639,
  "\u2581decisions": 1640,
  "\u2581freedom": 1641,
  "\u2581earthly": 1642,
  "\u2581seek": 1643,
  "\u2581P": 1644,
  "\u2581kwik": 1645,
  "\u2581salvation": 1646,
  "\u2581stated": 1647,
  "\u2581san": 1648,
  "\u2581field": 1649,
  "\u2581government": 1650,
  "\u2581jusumaot": 1651,
  "\u2581kontrak": 1652,
  "\u2581offer": 1653,
  "\u2581indeed": 1654,
  "\u2581proved": 1655,
  "\u2581[\"": 1656,
  "\u2581million": 1657,
  "\u2581daonem": 1658,
  "\u2581moral": 1659,
  "\u2581pruf": 1660,
  "],": 1661,
  "\u2581crowd": 1662,
  "\u2581period": 1663,
  "\u2581Folem": 1664,
  "\u2581narawan": 1665,
  "\u2581instance": 1666,
  "\u2581millions": 1667,
  "\u2581Kasem": 1668,
  "\u2581accepted": 1669,
  "\u2581direction": 1670,
  "\u2581solwota": 1671,
  "\u2581Jeremiah": 1672,
  "es": 1673,
  "\u2581affect": 1674,
  "\u2581poor": 1675,
  "\u2581everyone": 1676,
  "\u2581obey": 1677,
  "\u2581fulfillment": 1678,
  "!!": 1679,
  "\u2581class": 1680,
  "\u2581leg": 1681,
  "\u2581responsibility": 1682,
  "\u2581tangkyu": 1683,
  "\u2581activity": 1684,
  "\u2581easy": 1685,
  "\u2581recorded": 1686,
  "\u2581thoughts": 1687,
  "\u2581head": 1688,
  "\u2581wants": 1689,
  "\u2581clearly": 1690,
  "\u2581maintain": 1691,
  "\u2581determined": 1692,
  "\u2581Stat": 1693,
  "\u2581integrity": 1694,
  "\u2581clean": 1695,
  "\u2581Japan": 1696,
  "\u2581actually": 1697,
  "\u2581Juda": 1698,
  "\u2581Sol": 1699,
  "\u2581accurate": 1700,
  "\u2581expect": 1701,
  "\u2581ability": 1702,
  "\u2581destruction": 1703,
  "\u2581hanraet": 1704,
  "\u2581protektem": 1705,
  "\u2581above": 1706,
  "\u2581dipen": 1707,
  "\u2581salem": 1708,
  "\u2581aelan": 1709,
  "\u2581anger": 1710,
  "\u2581role": 1711,
  "\u2581smok": 1712,
  "\u2581Most": 1713,
  "\u2581available": 1714,
  "\u2581English": 1715,
  "\u2581States": 1716,
  "\u2581issue": 1717,
  "\u2581worldwide": 1718,
  "\u2581birth": 1719,
  "\u2581lands": 1720,
  "\u2581enough": 1721,
  "\u2581various": 1722,
  "\u2581karemaot": 1723,
  "\u2581tried": 1724,
  "\u2581appropriate": 1725,
  "\u2581percent": 1726,
  "\u2581katem": 1727,
  "\u2581May": 1728,
  "\u2581kavremap": 1729,
  "\u2581precious": 1730,
  "\u2581tribulation": 1731,
  "\u2581Credit": 1732,
  "\u2581created": 1733,
  "\u2581entire": 1734,
  "\u2581seem": 1735,
  "\u2581Bethel": 1736,
  "\u2581described": 1737,
  "\u2581named": 1738,
  "\u2581build": 1739,
  "\u2581changed": 1740,
  "\u2581creation": 1741,
  "\u2581published": 1742,
  "\u2581strengthen": 1743,
  "\u2581L": 1744,
  "\u2581complete": 1745,
  "\u2581families": 1746,
  "\u2581neither": 1747,
  "\u2581pesen": 1748,
  "\u2581Franis": 1749,
  "\u2581countries": 1750,
  "\u2581Gud": 1751,
  "\u2581violence": 1752,
  "\u2581Meri": 1753,
  "\u2581las": 1754,
  "\u2581else": 1755,
  "\u2581rest": 1756,
  "\u2581stay": 1757,
  "long": 1758,
  "\u2581hospital": 1759,
  "\u2581position": 1760,
  "\u258125.": 1761,
  "\u2581area": 1762,
  "\u2581couple": 1763,
  "\u2581experienced": 1764,
  "\u2581paradise": 1765,
  "\u2581laws": 1766,
  "\u2581sexual": 1767,
  "\u2581pain": 1768,
  "\u2581praes": 1769,
  "\u25814;": 1770,
  "\u2581explains": 1771,
  "\u2581magazine": 1772,
  "\u2581Mark": 1773,
  "\u2581advice": 1774,
  "\u2581moagud": 1775,
  "\u2581Gudfala": 1776,
  "\u2581considered": 1777,
  "\u2581offered": 1778,
  "\u2581U": 1779,
  "\u2581helt": 1780,
  "\u2581carry": 1781,
  "\u2581Stret": 1782,
  "\u2581answers": 1783,
  "\u2581evil": 1784,
  "\u2581meet": 1785,
  "\u2581Babylon": 1786,
  "\u2581moning": 1787,
  "\u2581natural": 1788,
  "\u2581Bilif": 1789,
  "\u2581appreciation": 1790,
  "\u2581reasons": 1791,
  "\u2581regular": 1792,
  "\u2581endure": 1793,
  "\u2581Just": 1794,
  "\u2581Narafala": 1795,
  "\u2581Egypt": 1796,
  "\u2581force": 1797,
  "\u2581write": 1798,
  "\u2581(2": 1799,
  "\u2581D": 1800,
  "\u2581Great": 1801,
  "r": 1802,
  "\u2581ronem": 1803,
  "twin": 1804,
  "to": 1805,
  "\u2581Judah": 1806,
  "\u2581Credi": 1807,
  "\u2581Ansa": 1808,
  "\u2581books": 1809,
  "\u2581Jemani": 1810,
  "\u2581skin": 1811,
  "\u2581concern": 1812,
  "\u2581sikis": 1813,
  "\u2581thousands": 1814,
  "\u2581students": 1815,
  "\u258135": 1816,
  "\u2581Or": 1817,
  "\u2581First": 1818,
  "\u2581Christendom": 1819,
  "\u2581trials": 1820,
  "\u2581prison": 1821,
  "\u2581Another": 1822,
  "\u2581baptism": 1823,
  "ic": 1824,
  "\u2581appreciate": 1825,
  "\u2581justice": 1826,
  "\u258117:": 1827,
  "\u2581Gris": 1828,
  "\u2581leaders": 1829,
  "\u2581skae": 1830,
  "\u2581M": 1831,
  "See": 1832,
  "\u2581H": 1833,
  "\u2581Ephesians": 1834,
  "\u2581working": 1835,
  "\u2581six": 1836,
  ").": 1837,
  "\u2581action": 1838,
  "\u2581less": 1839,
  "\u2581Messiah": 1840,
  "\u2581100": 1841,
  "less": 1842,
  "\u2581Bokis": 1843,
  "\u2581source": 1844,
  "\u2581start": 1845,
  "\u2581Wekap": 1846,
  "\u2581takes": 1847,
  "\u2581occasion": 1848,
  "\u2581rum": 1849,
  "\u258121,": 1850,
  "\u258129.": 1851,
  "\u2581Later": 1852,
  "\u2581helping": 1853,
  "\u2581resis": 1854,
  "\u2581short": 1855,
  "\u2581Profet": 1856,
  "\u2581bubu": 1857,
  "\u2581mitim": 1858,
  "\u2581Though": 1859,
  "\u2581activities": 1860,
  "\u2581caused": 1861,
  "\u2581Go": 1862,
  "\u2581knows": 1863,
  "\u2581encouraged": 1864,
  "\u2581shown": 1865,
  "\u2581eat": 1866,
  "\u2581grow": 1867,
  "\u2581Holy": 1868,
  "\u2581Defren": 1869,
  "\u2581YU": 1870,
  "\u2581places": 1871,
  "].": 1872,
  "\u2581Church": 1873,
  "\u2581Have": 1874,
  "an": 1875,
  "\u2581Therefore": 1876,
  "\u2581education": 1877,
  "\u2581proper": 1878,
  "\u2581results": 1879,
  "\u258124,": 1880,
  "\u2581bigbigfala": 1881,
  "\u2581basis": 1882,
  "\u2581tul": 1883,
  "\u2581See": 1884,
  "\u2581several": 1885,
  "\u2581Eksampol": 1886,
  "\u2581respond": 1887,
  "\u2581afsaed": 1888,
  "\u2581reach": 1889,
  "\u2581regularly": 1890,
  "\u2581exercise": 1891,
  "\u2581Moa": 1892,
  "\u2581myself": 1893,
  "\u2581building": 1894,
  "\u2581single": 1895,
  "\u2581imperfect": 1896,
  "\u2581Filipae": 1897,
  "\u2581raised": 1898,
  "\u2581Saul": 1899,
  "\u2581fulfilled": 1900,
  "\u2581training": 1901,
  "\u258110;": 1902,
  "\u2581step": 1903,
  "\u2581frengud": 1904,
  "\u2581sol": 1905,
  "\u2581trenem": 1906,
  "en": 1907,
  "\u2581develop": 1908,
  "\u2581humble": 1909,
  "\u2581languages": 1910,
  "\u2581gudgudfala": 1911,
  "\u2581subject": 1912,
  "on": 1913,
  "\u2581raon": 1914,
  "\u25aa": 1915,
  "\u2581lelebet": 1916,
  "\u2581plis": 1917,
  "\u2581display": 1918,
  "\u2581individual": 1919,
  "\u2581choose": 1920,
  "?!": 1921,
  "\u2581daily": 1922,
  "\u2581sinman": 1923,
  "\u2581happen": 1924,
  "\u2581hevi": 1925,
  "\u2581assignment": 1926,
  "\u2581branch": 1927,
  "\u2581learning": 1928,
  "\u2581F": 1929,
  "\u2581Woman": 1930,
  "\u2581guidance": 1931,
  "\u2581met": 1932,
  "\u2581presence": 1933,
  "\u2581rich": 1934,
  "\u2581walking": 1935,
  "\u2581sid": 1936,
  "Jeova": 1937,
  "\u2581decided": 1938,
  "\u258128.": 1939,
  "\u2581allowed": 1940,
  "\u2581fis": 1941,
  "\u2581practical": 1942,
  "\u2581actions": 1943,
  "\u2581un": 1944,
  "\u2581added": 1945,
  "\u2581political": 1946,
  "\u2581doa": 1947,
  "\u2581throughout": 1948,
  "\u2581(1)?": 1949,
  "\u2581Foto": 1950,
  "\u2581priests": 1951,
  "ach": 1952,
  "\u2581Further": 1953,
  "\u2581mestem": 1954,
  "\u2581servant": 1955,
  "\u2581futnot": 1956,
  "\u2581bebi": 1957,
  "\u2581blessed": 1958,
  "\u2581literature": 1959,
  "\u2581personality": 1960,
  "\u2581attend": 1961,
  "\u2581former": 1962,
  "\u2581least": 1963,
  "\u2581office": 1964,
  "\u2581showing": 1965,
  "\u25817]": 1966,
  "\u2581report": 1967,
  "\u2581mercy": 1968,
  "\u2581respektem": 1969,
  "\u2581enemies": 1970,
  "\u2581warning": 1971,
  "\u2581sea": 1972,
  "or": 1973,
  "\u2581interested": 1974,
  "\u2581St": 1975,
  "\u2581practice": 1976,
  "\u2581polis": 1977,
  "\u2581returned": 1978,
  "\u2581expression": 1979,
  "\u2581Nevertheless": 1980,
  "\u2581Rod": 1981,
  "\u2581suffer": 1982,
  "\u2581\"\"": 1983,
  "\u2581daughter": 1984,
  "\u2581getting": 1985,
  "\u2581pijatok": 1986,
  "\u258114;": 1987,
  "\u2581sometimes": 1988,
  "\u2581stil": 1989,
  "\u2581turned": 1990,
  "\u258136": 1991,
  "\u2581hours": 1992,
  "\u2581provides": 1993,
  "\u2581Tu": 1994,
  "\u2581beswan": 1995,
  "\u2581centuries": 1996,
  "\u2581courage": 1997,
  "\u2581Others": 1998,
  "\u2581missionary": 1999,
  "\u2581side": 2000,
  "\u2581convention": 2001,
  "\u2581earlier": 2002,
  "\u2581aedol": 2003,
  "\u2581encourage": 2004,
  "\u2581prayed": 2005,
  "\u2581Yurop": 2006,
  "\u2581text": 2007,
  "\u2581Box": 2008,
  "\u2581Talem": 2009,
  "\u2581desires": 2010,
  "\u2581voice": 2011,
  "\u2581wonder": 2012,
  "\u2581Krisendom": 2013,
  "\u2581acts": 2014,
  "\u2581behind": 2015,
  "\u2581seeking": 2016,
  "\u2581tree": 2017,
  "If": 2018,
  "\u2581Africa": 2019,
  "\u2581jajmen": 2020,
  "\u258116:": 2021,
  "\u2581Awake": 2022,
  "\u2581hiten": 2023,
  "\u2581(2)?": 2024,
  "\u2581beginning": 2025,
  "us": 2026,
  "\u2581akseptem": 2027,
  "\u2581protect": 2028,
  "\u2581plei": 2029,
  "\u2581Love": 2030,
  "\u2581N": 2031,
  "\u2581discipline": 2032,
  "\u2581fire": 2033,
  "\u2581flock": 2034,
  "\u2581devotion": 2035,
  "\u2581greatest": 2036,
  "\u2581haedem": 2037,
  "\u2581necessary": 2038,
  "\u258128,": 2039,
  "\u2581priest": 2040,
  "\u258131.": 2041,
  "\u2581miles": 2042,
  "\u258112;": 2043,
  "\u2581changes": 2044,
  "\u2581favor": 2045,
  "\u2581morning": 2046,
  "\u2581openem": 2047,
  "\u2581parabol": 2048,
  "\u2581alive": 2049,
  "\u2581masta": 2050,
  "\u2581sign": 2051,
  "\u2581week": 2052,
  "\u2581119": 2053,
  "\u258145": 2054,
  "\u2581Sosaeti": 2055,
  "\u258123,": 2056,
  "\u2581Translation": 2057,
  "\u2581realize": 2058,
  "\u2581waen": 2059,
  "\u2581followed": 2060,
  "\u2581gladhat": 2061,
  "\u2581lack": 2062,
  "\u2581quality": 2063,
  "\u2581state": 2064,
  "\u2581knowing": 2065,
  "\u2581seems": 2066,
  "\u2581completely": 2067,
  "\u2581include": 2068,
  "\u2581becoming": 2069,
  "We": 2070,
  "\u2581hamas": 2071,
  "\u2581niuspepa": 2072,
  "\u2581resurrected": 2073,
  "\u2581dedicated": 2074,
  "\u2581gruap": 2075,
  "\u2581pay": 2076,
  "\u2581raetemdaon": 2077,
  "le": 2078,
  "\u258116;": 2079,
  "\u2581Brother": 2080,
  "\u2581Jacob": 2081,
  "\u2581feet": 2082,
  "\u2581positive": 2083,
  "\u2581Before": 2084,
  "\u2581kala": 2085,
  "\u2581persecution": 2086,
  "mata": 2087,
  "\u2581Kolosi": 2088,
  "\u2581door": 2089,
  "\u2581Givim": 2090,
  "\u2581angel": 2091,
  "\u2581conditions": 2092,
  "\u2581trying": 2093,
  "\u2581encouragement": 2094,
  "\u2581wives": 2095,
  "\u2581Similarly": 2096,
  "\u2581condition": 2097,
  "\u2581beyond": 2098,
  "\u2581Lav": 2099,
  "\u2581benefits": 2100,
  "\u2581yourselves": 2101,
  "\u2581o": 2102,
  "\u2581War": 2103,
  "\u2581final": 2104,
  "\u2581tudak": 2105,
  "\u2581almo": 2106,
  "\u2581Perhaps": 2107,
  "\u2581ready": 2108,
  "\u2581Josua": 2109,
  "\u258165": 2110,
  "\u2581minista": 2111,
  "\u2581quickly": 2112,
  "\u2581interests": 2113,
  "\u2581speech": 2114,
  "\u2581Lot": 2115,
  "\u2581Keep": 2116,
  "\u2581addition": 2117,
  "Olgeta": 2118,
  "\u2581Christianity": 2119,
  "\u2581don": 2120,
  "\u2581vison": 2121,
  "\u2581youths": 2122,
  "\u258123:": 2123,
  "\u2581parent": 2124,
  "\u2581challenge": 2125,
  "\u2581revealed": 2126,
  "\u2581studying": 2127,
  "\u2581whatever": 2128,
  "\u2581parts": 2129,
  "\u2581enjoyed": 2130,
  "\u2581looking": 2131,
  "\u2581traveling": 2132,
  "\u2581Hed": 2133,
  "\u2581Lukluk": 2134,
  "\u2581dedication": 2135,
  "\u2581member": 2136,
  "\u2581givimbak": 2137,
  "\u2581progress": 2138,
  "\u2581pijin": 2139,
  "\u2581Sem": 2140,
  "\u2581invited": 2141,
  "\u2581line": 2142,
  "\u2581sun": 2143,
  "\u2581record": 2144,
  "\u2581seksek": 2145,
  "\u2581fruit": 2146,
  "\u2581half": 2147,
  "\u2581firm": 2148,
  "\u2581reports": 2149,
  "\u2581R": 2150,
  "\u2581deeply": 2151,
  "\u2581success": 2152,
  "\u2581bear": 2153,
  "\u2581beliefs": 2154,
  "\u2581related": 2155,
  "\u2581rid": 2156,
  "\u2581sacred": 2157,
  "\u2581spent": 2158,
  "\u2581worked": 2159,
  "\u2581feeling": 2160,
  "\u2581sound": 2161,
  "\u2581Famle": 2162,
  "\u2581bokis": 2163,
  "\u2581prentem": 2164,
  "\u2581protection": 2165,
  "\u2581Faet": 2166,
  "\u2581Saed": 2167,
  "\u2581ahead": 2168,
  "\u258138": 2169,
  "\u2581job": 2170,
  "\u2581meant": 2171,
  "\u2581mate": 2172,
  "\u2581keeping": 2173,
  "\u258123]": 2174,
  "\u2581Us": 2175,
  "\u2581hareap": 2176,
  "\u2581pei": 2177,
  "\u2581pressure": 2178,
  "\u25815)": 2179,
  "\u2581Se": 2180,
  "\u2581destroyed": 2181,
  "It": 2182,
  "\u2581Clearly": 2183,
  "\u2581filled": 2184,
  "3;": 2185,
  "\u2581Dei": 2186,
  "\u2581nature": 2187,
  "\u2581brings": 2188,
  "\u2581express": 2189,
  "ness": 2190,
  "\u2581Joshua": 2191,
  "\u2581sex": 2192,
  "Do": 2193,
  "\u2581Through": 2194,
  "\u2581unity": 2195,
  "Let": 2196,
  "\u2581kings": 2197,
  "\u2581planem": 2198,
  "\u2581security": 2199,
  "\u2581test": 2200,
  "im": 2201,
  "\u2581Soon": 2202,
  "\u2581arrived": 2203,
  "\u2581choice": 2204,
  "\u2581either": 2205,
  "\u2581publications": 2206,
  "\u258126.": 2207,
  "\u2581noted": 2208,
  "\u258127.": 2209,
  "\u2581taed": 2210,
  "\u2581usually": 2211,
  "\u2581Remember": 2212,
  "\u2581assigned": 2213,
  "\u2581Rul": 2214,
  "\u2581puaman": 2215,
  "\u2581rimemba": 2216,
  "\u2581vision": 2217,
  "\u2581illustration": 2218,
  "\u2581missionaries": 2219,
  "\u2581trap": 2220,
  "\u2581Paoa": 2221,
  "\u2581prepared": 2222,
  "\u2581chosen": 2223,
  "\u2581Philippians": 2224,
  "\u2581Where": 2225,
  "\u2581behalf": 2226,
  "\u2581sacrifices": 2227,
  "\u2581fall": 2228,
  "\u25814)": 2229,
  "\u2581fol": 2230,
  "\u2581aoa": 2231,
  "\u2581outside": 2232,
  "\u2581Jekob": 2233,
  "\u2581Paradise": 2234,
  "\u2581bus": 2235,
  "\u2581disease": 2236,
  "\u2581affection": 2237,
  "\u2581begin": 2238,
  "\u2581\u25cf": 2239,
  "\u2581Ask": 2240,
  "\u2581Brooklyn": 2241,
  "\u2581Kronikel": 2242,
  "\u2581command": 2243,
  "\u2581semtaem": 2244,
  "\u2581televisin": 2245,
  "\u2581calls": 2246,
  "\u2581studies": 2247,
  "\u2581girl": 2248,
  "In": 2249,
  "\u2581declared": 2250,
  "\u2581drag": 2251,
  "\u2581endurance": 2252,
  "\u2581passed": 2253,
  "\u2581seed": 2254,
  "\u2581overseer": 2255,
  "\u258122:": 2256,
  "\u2581G": 2257,
  "\u2581eria": 2258,
  "\u2581eventually": 2259,
  "\u2581forgive": 2260,
  "\u2581genuine": 2261,
  "\u2581goal": 2262,
  "\u2581sick": 2263,
  "\u2581standing": 2264,
  "\u2581hol": 2265,
  "\u2581expressed": 2266,
  "\u25819)": 2267,
  "\u2581contrast": 2268,
  "\u2581Nem": 2269,
  "\u2581reflect": 2270,
  "\u2581areas": 2271,
  "\u2581killed": 2272,
  "\u2581mental": 2273,
  "ve": 2274,
  "\u2581arrangement": 2275,
  "\u2581neson": 2276,
  "is": 2277,
  "\u2581bisi": 2278,
  "\u2581forward": 2279,
  "\u2581fulumap": 2280,
  "\u2581About": 2281,
  "\u2581beautiful": 2282,
  "\u2581km": 2283,
  "\u2581Esikel": 2284,
  "\u2581School": 2285,
  "\u2581flaoa": 2286,
  "\u2581Despi": 2287,
  "\u2581rejoice": 2288,
  "\u2581branj": 2289,
  "\u2581general": 2290,
  "\u2581importance": 2291,
  "\u2581sta": 2292,
  "\u2581Young": 2293,
  "\u258155": 2294,
  "\u2581Rome": 2295,
  "\u2581opposition": 2296,
  "\u2581strongfala": 2297,
  "\u2581address": 2298,
  "\u2581original": 2299,
  "\u2581third": 2300,
  "ers": 2301,
  "\u2581personally": 2302,
  "\u2581relief": 2303,
  "\u2581built": 2304,
  "\u2581te": 2305,
  "P": 2306,
  "as": 2307,
  "\u2581society": 2308,
  "\u2581sovereignty": 2309,
  "NW": 2310,
  "\u258142": 2311,
  "\u2581music": 2312,
  "\u2581Version": 2313,
  "\u2581required": 2314,
  "\u2581spend": 2315,
  "\u2581humility": 2316,
  "\u2581lesson": 2317,
  "\u2581sort": 2318,
  "\u258111)": 2319,
  "\u258133.": 2320,
  "\u2581homes": 2321,
  "\u2581idea": 2322,
  "\u2581cultivate": 2323,
  "\u2581treat": 2324,
  "\u2581month": 2325,
  "\u2581pablisa": 2326,
  "\u2581kaengud": 2327,
  "\u2581Stori": 2328,
  "\u2581WE": 2329,
  "\u2581authorities": 2330,
  "\u25813)": 2331,
  "\u2581bred": 2332,
  "\u2581fight": 2333,
  "\u2581ground": 2334,
  "\u2581recognize": 2335,
  "He": 2336,
  "\u2581tajem": 2337,
  "\u2581aware": 2338,
  "\u2581Book": 2339,
  "\u2581Well": 2340,
  "\u2581obedient": 2341,
  "\u2581Dutronome": 2342,
  "\u2581fulwol": 2343,
  "\u2581Kwestin": 2344,
  "\u2581Memoriol": 2345,
  "\u2581approach": 2346,
  "\u2581youth": 2347,
  "\u2581examine": 2348,
  "\u258110)": 2349,
  "\u2581Galesia": 2350,
  "\u258135.": 2351,
  "\u2581faced": 2352,
  "Eksodas": 2353,
  "\u2581carefully": 2354,
  "\u2581shepherd": 2355,
  "\u2581established": 2356,
  "\u2581lot": 2357,
  "\u2581loyalty": 2358,
  "\u2581spoken": 2359,
  "\u25817)": 2360,
  "\u2581Memorial": 2361,
  "\u2581steps": 2362,
  "\u2581despite": 2363,
  "\u2581explain": 2364,
  "\u2581obedience": 2365,
  "\u2581urged": 2366,
  "\u2581included": 2367,
  "\u2581sakrifaes": 2368,
  "\u2581warned": 2369,
  "\u2581Wantem": 2370,
  "\u2581Colossians": 2371,
  "\u2581although": 2372,
  "\u2581\"[": 2373,
  "\u2581prevent": 2374,
  "\u2581goals": 2375,
  "\u2581business": 2376,
  "\u2581compassion": 2377,
  "\u2581principle": 2378,
  "\u2581recent": 2379,
  "\u2581teacher": 2380,
  "\u2581Ples": 2381,
  "\u2581cases": 2382,
  "\u25816)": 2383,
  "\u2581forget": 2384,
  "\u2581teachers": 2385,
  "\u2581truths": 2386,
  "Sam": 2387,
  "\u25818)": 2388,
  "\u2581publishers": 2389,
  "Job": 2390,
  "\u2581Center": 2391,
  "\u2581Elaeja": 2392,
  "\u2581Smol": 2393,
  "\u2581Tesalonaeka": 2394,
  "\u2581discuss": 2395,
  "\u2581animals": 2396,
  "\u2581key": 2397,
  "olgeta": 2398,
  "\u2581suffered": 2399,
  "\u2581emotional": 2400,
  "\u2581storeyan": 2401,
  "\u2581MAN": 2402,
  "\u2581Promes": 2403,
  "\u2581groups": 2404,
  "\u2581kopi": 2405,
  "\u2581guard": 2406,
  "\u2581Paradaes": 2407,
  "\u2581experiences": 2408,
  "\u2581household": 2409,
  "\u258148": 2410,
  "\u2581Ecclesiastes": 2411,
  "\u2581grateful": 2412,
  "\u2581rijman": 2413,
  "\u2581social": 2414,
  "\u2581tongue": 2415,
  "\u2581goraon": 2416,
  "\u2581lose": 2417,
  "\u2581neighbor": 2418,
  "\u2581involves": 2419,
  "\u2581realized": 2420,
  "\u2581India": 2421,
  "\u2581Yangfala": 2422,
  "\u2581discreet": 2423,
  "\u2581haenem": 2424,
  "\u2581klas": 2425,
  "\u2581vilej": 2426,
  "\u258130.": 2427,
  "\u2581association": 2428,
  "\u2581focus": 2429,
  "\u2581translation": 2430,
  "\u2581worshipers": 2431,
  "\u258110]": 2432,
  "\u2581South": 2433,
  "\u2581observed": 2434,
  "\u2581rerem": 2435,
  "\u2581existence": 2436,
  "\u2581ren": 2437,
  "\u2581universe": 2438,
  "\u2581Good": 2439,
  "\u2581closer": 2440,
  "\u2581image": 2441,
  "\u2581olting": 2442,
  "\u2581requires": 2443,
  "\u2581Glad": 2444,
  "\u2581race": 2445,
  "\u2581conclusion": 2446,
  "\u2581tinghevi": 2447,
  "\u2581danger": 2448,
  "\u2581video": 2449,
  "\u2581\u25aa": 2450,
  "\u2581Klosap": 2451,
  "\u2581immediately": 2452,
  "\u2581observe": 2453,
  "\u2581Elijah": 2454,
  "\u2581reported": 2455,
  "hem": 2456,
  "\u2581Mount": 2457,
  "\u25819]": 2458,
  "\u2581Also": 2459,
  "\u2581Ezekiel": 2460,
  "\u2581Inc": 2461,
  "\u2581manner": 2462,
  "\u2581Kampani": 2463,
  "\u2581finally": 2464,
  "\u2581instead": 2465,
  "\u2581kaon": 2466,
  "\u2581big": 2467,
  "\u2581forgiveness": 2468,
  "\u2581kamdaon": 2469,
  "\u2581seemed": 2470,
  "\u2581situations": 2471,
  "\u2581Sore": 2472,
  "\u2581gowe": 2473,
  "\u2581gudhan": 2474,
  "\u2581panisim": 2475,
  "\u2581practices": 2476,
  "more": 2477,
  "\u2581asking": 2478,
  "\u2581prophets": 2479,
  "\u2581red": 2480,
  "\u2581watch": 2481,
  "\u2581divos": 2482,
  "\u2581fulhat": 2483,
  "\u2581hivimap": 2484,
  "\u2581overseers": 2485,
  "\u2581pioneers": 2486,
  "\u2581prophecies": 2487,
  "\u00a9": 2488,
  "\u2581answered": 2489,
  "\u2581failed": 2490,
  "\u2581hour": 2491,
  "\u2581picture": 2492,
  "\u2581stronghed": 2493,
  "\u2581Dr": 2494,
  "\u2581consequences": 2495,
  "\u2581drim": 2496,
  "\u2581drink": 2497,
  "\u2581major": 2498,
  "\u2581simple": 2499,
  "\u2581bebet": 2500,
  "\u2581points": 2501,
  "\u2581preached": 2502,
  "\u2581refused": 2503,
  "\u2581army": 2504,
  "\u2581delight": 2505,
  "\u2581pure": 2506,
  "\u2581active": 2507,
  "\u2581commanded": 2508,
  "\u2581concerned": 2509,
  "\u2581cut": 2510,
  "\u2581disciple": 2511,
  "\u2581purposes": 2512,
  "\u2581term": 2513,
  "\u258126]": 2514,
  "\u2581Children": 2515,
  "\u2581Galatians": 2516,
  "\u2581sharing": 2517,
  "\u2581Smoltaem": 2518,
  "\u2581serem": 2519,
  "\u2581Only": 2520,
  "\u2581persons": 2521,
  "\u2581American": 2522,
  "This": 2523,
  "\u2581Plis": 2524,
  "\u2581concerning": 2525,
  "\u2581mouth": 2526,
  "\u2581yang": 2527,
  "\u2581Jos": 2528,
  "\u2581contact": 2529,
  "\u2581reva": 2530,
  "\u2581includes": 2531,
  "\u2581Eksodas": 2532,
  "\u2581Trabol": 2533,
  "\u2581accounts": 2534,
  "\u2581opened": 2535,
  "\u2581increase": 2536,
  "\u2581prepare": 2537,
  "quite": 2538,
  "\u258115]": 2539,
  "\u2581boy": 2540,
  "\u2581minister": 2541,
  "\u2581sek": 2542,
  "\u2581reasonable": 2543,
  "\u2581muf": 2544,
  "\u2581reward": 2545,
  "\u2581visited": 2546,
  "\u2581(2)": 2547,
  "\u2581Farisi": 2548,
  "\u2581High": 2549,
  "\u2581fasgud": 2550,
  "\u2581produce": 2551,
  "\u2581demons": 2552,
  "\u2581goes": 2553,
  "\u2581remained": 2554,
  "\u2581saved": 2555,
  "\u2581sight": 2556,
  "\u2581limited": 2557,
  "\u2581e": 2558,
  "\u2581maot": 2559,
  "\u2581(1)": 2560,
  "\u2581fail": 2561,
  "\u2581Was": 2562,
  "\u2581articles": 2563,
  "\u2581energy": 2564,
  "\u2581Ded": 2565,
  "\u258118]": 2566,
  "\u2581spread": 2567,
  "\u2581Encyclopedia": 2568,
  "\u2581responsible": 2569,
  "\u2581trening": 2570,
  "\u2581Should": 2571,
  "\u2581acceptable": 2572,
  "Dutronome": 2573,
  "w": 2574,
  "\u2581Deuteronomy": 2575,
  "\u2581eternal": 2576,
  "\u2581event": 2577,
  "\u2581narakaen": 2578,
  "\u2581play": 2579,
  "\u258117)": 2580,
  "\u2581Exodus": 2581,
  "\u2581Latin": 2582,
  "\u2581continues": 2583,
  "\u2581offering": 2584,
  "\u2581car": 2585,
  "\u2581gods": 2586,
  "\u2581particularly": 2587,
  "\u2581verse": 2588,
  "\u2581workers": 2589,
  "\u2581Saot": 2590,
  "\u2581jekem": 2591,
  "\u2581viewed": 2592,
  "\u2581lie": 2593,
  "\u2581specific": 2594,
  "Hae": 2595,
  "\u2581Europe": 2596,
  "\u2581gifts": 2597,
  "\u2581medical": 2598,
  "\u2581believed": 2599,
  "\u2581sincere": 2600,
  "\u2581zeal": 2601,
  "\u2581July": 2602,
  "\u2581developed": 2603,
  "\u2581effective": 2604,
  "\u2581fulfill": 2605,
  "\u2581town": 2606,
  "Be": 2607,
  "it": 2608,
  "\u2581becomes": 2609,
  "\u2581edukesen": 2610,
  "\u2581encouraging": 2611,
  "\u258112)": 2612,
  "\u2581bread": 2613,
  "\u2581carried": 2614,
  "\u2581instruction": 2615,
  "\u2581judge": 2616,
  "\u2581stilim": 2617,
  "\u2581thousand": 2618,
  "\u2581trikim": 2619,
  "\u2581welcome": 2620,
  "\u2581Family": 2621,
  "\u2581Inglis": 2622,
  "\u2581looked": 2623,
  "\u2581wine": 2624,
  "\u258117]": 2625,
  "\u2581Testament": 2626,
  "\u2581gras": 2627,
  "\u2581Faith": 2628,
  "\u2581cities": 2629,
  "\u2581merely": 2630,
  "\u2581note": 2631,
  "\u25811914,": 2632,
  "\u2581weeks": 2633,
  "\u2581Si": 2634,
  "\u2581behavior": 2635,
  "\u2581Bakegen": 2636,
  "\u2581jea": 2637,
  "\u2581attended": 2638,
  "\u2581bed": 2639,
  "\u2581convinced": 2640,
  "able": 2641,
  "\u2581agree": 2642,
  "\u2581appear": 2643,
  "\u2581basic": 2644,
  "\u2581fasfas": 2645,
  "\u2581hanggri": 2646,
  "\u2581kil": 2647,
  "\u2581relatives": 2648,
  "\u2581wetaem": 2649,
  "\u2581wokgud": 2650,
  "\u2581drae": 2651,
  "\u2581\u2022": 2652,
  "\u2581due": 2653,
  "\u2581enter": 2654,
  "\u2581elderly": 2655,
  "\u2581evening": 2656,
  "\u2581listening": 2657,
  "\u2581minds": 2658,
  "\u2581miusik": 2659,
  "\u2581seeing": 2660,
  "\u2581Spen": 2661,
  "\u2581Tri": 2662,
  "\u2581Help": 2663,
  "\u2581immorality": 2664,
  "\u2581History": 2665,
  "\u2581careful": 2666,
  "\u2581confident": 2667,
  "\u2581cope": 2668,
  "\u2581front": 2669,
  "\u2581rebel": 2670,
  "\u258180": 2671,
  "\u2581Isaac": 2672,
  "\u2581berem": 2673,
  "stap": 2674,
  "\u2581attending": 2675,
  "\u2581rulum": 2676,
  "\u2581creatures": 2677,
  "\u2581occur": 2678,
  "\u2581solwora": 2679,
  "\u2581surely": 2680,
  "sua": 2681,
  "\u258125,": 2682,
  "\u2581greatly": 2683,
  "\u2581Nomata": 2684,
  "\u2581darkness": 2685,
  "\u2581PEJ": 2686,
  "\u2581prospect": 2687,
  "he": 2688,
  "\u2581144,000": 2689,
  "\u258132.": 2690,
  "\u2581wael": 2691,
  "ll": 2692,
  "\u2581London": 2693,
  "\u2581negative": 2694,
  "\u2581strive": 2695,
  "u": 2696,
  "\u2581Times": 2697,
  "\u2581patience": 2698,
  "\u2581student": 2699,
  "\u258141": 2700,
  "\u2581easily": 2701,
  "\u2581eye": 2702,
  "\u2581harm": 2703,
  "\u2581valuable": 2704,
  "\u2581baksaed": 2705,
  "\u2581leading": 2706,
  "\u2581opening": 2707,
  "From": 2708,
  "\u2581Over": 2709,
  "\u2581react": 2710,
  "\u2581stikim": 2711,
  "\u2581wait": 2712,
  "\u2581hif": 2713,
  "\u2581weples": 2714,
  "\u258126,": 2715,
  "\u2581Questions": 2716,
  "\u2581bringing": 2717,
  "\u2581patient": 2718,
  "\u2581demonstrate": 2719,
  "\u2581givimaot": 2720,
  "responsibilities": 2721,
  "\u2581wod": 2722,
  "\u2581manifest": 2723,
  "\u258122;": 2724,
  "\u2581Hil": 2725,
  "\u2581trip": 2726,
  "\u2581fruitage": 2727,
  "\u2581kaontem": 2728,
  "\u2581Her": 2729,
  "\u2581break": 2730,
  "\u2581response": 2731,
  "\u2581Prea": 2732,
  "\u2581appeared": 2733,
  "\u2581belief": 2734,
  "\u2581generation": 2735,
  "\u2581guide": 2736,
  "M": 2737,
  "\u2581200": 2738,
  "\u258143": 2739,
  "mong": 2740,
  "\u2581Yia": 2741,
  "\u2581room": 2742,
  "org": 2743,
  "\u258190": 2744,
  "\u2581affected": 2745,
  "\u2581battle": 2746,
  "\u2581direct": 2747,
  "\u2581reality": 2748,
  "\u2581religions": 2749,
  ".)": 2750,
  "O": 2751,
  "When": 2752,
  "\u258113)": 2753,
  "\u258114)": 2754,
  "\u2581Body": 2755,
  "\u2581hearing": 2756,
  "\u2581pos": 2757,
  "\u258118)": 2758,
  "\u2581abuse": 2759,
  "\u2581road": 2760,
  "\u2581violent": 2761,
  "\u2581commandments": 2762,
  "\u2581names": 2763,
  "\u2581Finally": 2764,
  "\u2581Really": 2765,
  "\u2581accomplish": 2766,
  "\u2581drinking": 2767,
  "\u2581territory": 2768,
  "\u2581wido": 2769,
  "\u25812)": 2770,
  "\u2581IN": 2771,
  "\u2581Nyu": 2772,
  "\u2581describes": 2773,
  "\u2581inside": 2774,
  "\u2581loss": 2775,
  "\u2581presented": 2776,
  "\u2581sikman": 2777,
  "\u2581Make": 2778,
  "\u2581naef": 2779,
  "\u2581sinful": 2780,
  "\u2581Germany": 2781,
  "\u2581entertainment": 2782,
  "\u2581nearly": 2783,
  "\u2581overcome": 2784,
  "\u2581pleasure": 2785,
  "\u2581translated": 2786,
  "\u258115)": 2787,
  "\u2581communication": 2788,
  "\u2581gol": 2789,
  "\u2581referred": 2790,
  "\u2581Lukaot": 2791,
  "\u2581Waes": 2792,
  "\u2581Wetaem": 2793,
  "\u2581pursue": 2794,
  "\u258125]": 2795,
  "\u2581risk": 2796,
  "\u2581Toktok": 2797,
  "\u2581extent": 2798,
  "\u2581fraetgud": 2799,
  "\u2581mek": 2800,
  "\u2581teaches": 2801,
  "\u2581unique": 2802,
  "8;": 2803,
  "\u2581late": 2804,
  "\u2581myusek": 2805,
  "\u2581stopem": 2806,
  "\u258124;": 2807,
  "\u25819;": 2808,
  "\u2581Trutok": 2809,
  "\u2581offspring": 2810,
  "\u2581statement": 2811,
  "\u2581writer": 2812,
  "\u2581Being": 2813,
  "\u2581adds": 2814,
  "\u2581distress": 2815,
  "\u2581evident": 2816,
  "\u2581understood": 2817,
  "\u2581Stadi": 2818,
  "\u2581alcohol": 2819,
  "\u2581bless": 2820,
  "\u2581causes": 2821,
  "\u2581mountain": 2822,
  "\u2581reveal": 2823,
  "\u2581strenja": 2824,
  "\u2581undeserved": 2825,
  "\u2581Bighaf": 2826,
  "\u2581goodness": 2827,
  "\u2581particular": 2828,
  "\u2581placed": 2829,
  "\u2581reached": 2830,
  "\u2581tempol": 2831,
  "\u2581wish": 2832,
  "Oltaem": 2833,
  "\u2581Land": 2834,
  "\u2581immoral": 2835,
  "\u2581joyful": 2836,
  "\u2581discussion": 2837,
  "\u2581secular": 2838,
  "There": 2839,
  "\u2581II": 2840,
  "\u2581busy": 2841,
  "\u2581eating": 2842,
  "\u2581growing": 2843,
  "\u2581secret": 2844,
  "\u2581approval": 2845,
  "\u2581August": 2846,
  "\u2581Bitim": 2847,
  "\u2581Once": 2848,
  "\u2581military": 2849,
  "\u2581consideration": 2850,
  "\u2581pass": 2851,
  "\u2581claim": 2852,
  "\u2581contribute": 2853,
  "\u2581destroy": 2854,
  "\u2581praying": 2855,
  "\u2581relative": 2856,
  "\u2581uses": 2857,
  "\u2581foreign": 2858,
  "\u2581successful": 2859,
  "\u2581wajem": 2860,
  "all": 2861,
  "\u2581chose": 2862,
  "\u2581discussed": 2863,
  "\u2581improve": 2864,
  "\u2581pemaot": 2865,
  "\u2581Biblical": 2866,
  "\u2581Govern": 2867,
  "\u2581Sea": 2868,
  "\u2581Under": 2869,
  "\u2581husbands": 2870,
  "\u2581loves": 2871,
  "\u2581aid": 2872,
  "\u2581aksin": 2873,
  "\u2581measure": 2874,
  "Compare": 2875,
  "bigfala": 2876,
  "\u2581Aesak": 2877,
  "\u2581attack": 2878,
  "\u2581comments": 2879,
  "\u2581ruler": 2880,
  "\u2581seraotem": 2881,
  "\u2581spot": 2882,
  "\u2581waet": 2883,
  "\u2581Givhan": 2884,
  "\u2581caring": 2885,
  "Proveb": 2886,
  "\u2581France": 2887,
  "\u2581committed": 2888,
  "\u2581friendship": 2889,
  "\u2581riches": 2890,
  "\u2581Time": 2891,
  "\u2581Tract": 2892,
  "\u2581imagine": 2893,
  "\u2581lies": 2894,
  "\u2581mere": 2895,
  "\u2581powers": 2896,
  "\u2581Rasia": 2897,
  "\u2581listed": 2898,
  "\u2581treatment": 2899,
  "\u2581dangerous": 2900,
  "\u2581jikim": 2901,
  "\u2581Russell": 2902,
  "\u2581join": 2903,
  "\u2581Think": 2904,
  "\u2581probably": 2905,
  "\u2581troubled": 2906,
  "\u258146": 2907,
  "\u2581extreme": 2908,
  "\u2581resist": 2909,
  "\u25815]": 2910,
  "\u25817;": 2911,
  "\u2581Tijim": 2912,
  "\u2581island": 2913,
  "\u2581worth": 2914,
  "\u258127,": 2915,
  "\u2581request": 2916,
  "\u2581talking": 2917,
  "\u2581writing": 2918,
  "\u2581circuit": 2919,
  "\u2581klinim": 2920,
  "\u2581trep": 2921,
  "\u2581village": 2922,
  "\u2581raise": 2923,
  "\u2581tempel": 2924,
  "\u2581amount": 2925,
  "\u2581challenges": 2926,
  "\u2581enemy": 2927,
  "\u2581jus": 2928,
  "\u2581sleep": 2929,
  "\u2581trained": 2930,
  "\u2581invitation": 2931,
  "\u2581search": 2932,
  "\u2581sing": 2933,
  "Mifala": 2934,
  "Yumi": 2935,
  "\u2581Sarah": 2936,
  "\u2581Work": 2937,
  "\u2581helpful": 2938,
  "\u258139": 2939,
  "\u2581growth": 2940,
  "\u2581legal": 2941,
  "\u2581m": 2942,
  "\u2581superior": 2943,
  "\u2581united": 2944,
  "h": 2945,
  "\u258129,": 2946,
  "\u2581Tumas": 2947,
  "\u2581beneficial": 2948,
  "\u2581community": 2949,
  "\u2581expected": 2950,
  "\u2581witnessing": 2951,
  "like": 2952,
  "\u2581ademap": 2953,
  "\u2581hea": 2954,
  "\u2581hundreds": 2955,
  "\u25811)": 2956,
  "\u2581Jyos": 2957,
  "\u2581Ruth": 2958,
  "\u2581advantage": 2959,
  "\u2581connection": 2960,
  "\u2581correct": 2961,
  "\u2581garden": 2962,
  "\u2581stoa": 2963,
  "\u2581survive": 2964,
  "\u2581wetnes": 2965,
  "Hem": 2966,
  "\u2581Stamb": 2967,
  "\u2581disasta": 2968,
  "\u2581poverty": 2969,
  "\u2581Ken": 2970,
  "\u2581bes": 2971,
  "\u2581global": 2972,
  "\u2581warm": 2973,
  "\u2581wars": 2974,
  "\u2581baby": 2975,
  "\u2581exist": 2976,
  "\u2581saot": 2977,
  "\u2581zealous": 2978,
  "\u2581faithfully": 2979,
  "\u2581issues": 2980,
  "\u2581w": 2981,
  "blong": 2982,
  "\u25816;": 2983,
  "\u2581Joel": 2984,
  "\u2581rejected": 2985,
  "\u2581subjects": 2986,
  "mekem": 2987,
  "\u2581indicate": 2988,
  "\u2581wekap": 2989,
  "\u2581wil": 2990,
  "\u2581Here": 2991,
  "\u2581Trac": 2992,
  "\u2581main": 2993,
  "\u2581pablik": 2994,
  "\u2581slaves": 2995,
  "\u2581Take": 2996,
  "\u2581mature": 2997,
  "ould": 2998,
  "\u2581Amos": 2999,
  "\u2581closely": 3000,
  "\u2581prophetic": 3001,
  "\u2581refers": 3002,
  "\u2581temptation": 3003,
  "\u2581train": 3004,
  "\u2581June": 3005,
  "\u2581Pharisees": 3006,
  "\u2581forces": 3007,
  "\u2581views": 3008,
  "\u2581applied": 3009,
  "\u2581police": 3010,
  "\u2581Asembli": 3011,
  "\u2581entered": 3012,
  "\u2581fell": 3013,
  "\u2581witnes": 3014,
  "\u2581Robert": 3015,
  "\u2581grew": 3016,
  "\u2581quoted": 3017,
  "\u2581werem": 3018,
  "\u2581wud": 3019,
  "and": 3020,
  "\u2581Devel": 3021,
  "\u2581buluk": 3022,
  "\u2581camp": 3023,
  "\u2581court": 3024,
  "\u2581cover": 3025,
  "\u2581kilometa": 3026,
  "\u2581YA": 3027,
  "\u2581assured": 3028,
  "\u2581notice": 3029,
  "\u2581seriously": 3030,
  "\u2581tingtingbak": 3031,
  "\u2581younger": 3032,
  "ns": 3033,
  "\u2581gathered": 3034,
  "For": 3035,
  "\u258134.": 3036,
  "\u2581notes": 3037,
  "\u2581outstanding": 3038,
  "\u2581Other": 3039,
  "\u2581likewise": 3040,
  "ri": 3041,
  "\u25811992": 3042,
  "\u258124]": 3043,
  "\u2581decide": 3044,
  "\u2581gone": 3045,
  "\u2581kruked": 3046,
  "\u2581pre": 3047,
  "\u2581type": 3048,
  "\u2581Its": 3049,
  "\u2581contrary": 3050,
  "\u2581heed": 3051,
  "\u2581insight": 3052,
  "\u2581conclude": 3053,
  "\u2581master": 3054,
  "\u2581responded": 3055,
  "\u2581sel": 3056,
  "\u2581tears": 3057,
  "\u2581treated": 3058,
  "\u2581Oktoba": 3059,
  "\u2581bearing": 3060,
  "\u2581hurt": 3061,
  "\u2581newspaper": 3062,
  "\u2581run": 3063,
  "\u2581seremaot": 3064,
  "\u2581Prija": 3065,
  "\u2581associated": 3066,
  "\u2581fill": 3067,
  "\u2581magazines": 3068,
  "\u2581organized": 3069,
  "ar": 3070,
  "\u2581hatred": 3071,
  "\u2581sloslo": 3072,
  "\u2581trial": 3073,
  "\u2581Thessalonians": 3074,
  "\u2581drawn": 3075,
  "\u2581occurred": 3076,
  "Lukluk": 3077,
  "lavem": 3078,
  "\u2581April": 3079,
  "\u2581Pennsylvania": 3080,
  "\u2581factors": 3081,
  "\u2581facts": 3082,
  "\u2581haoa": 3083,
  "\u2581kill": 3084,
  "\u2581seket": 3085,
  "\u2581Gideon": 3086,
  "\u2581Tija": 3087,
  "\u2581conversation": 3088,
  "\u2581eight": 3089,
  "\u2581neighbors": 3090,
  "\u2581Without": 3091,
  "\u2581African": 3092,
  "\u2581BIBLE": 3093,
  "\u2581contains": 3094,
  "\u2581dealings": 3095,
  "\u2581eit": 3096,
  "\u2581lan": 3097,
  "\u2581story": 3098,
  "\u2581Israelite": 3099,
  "\u2581Kings": 3100,
  "\u2581WAN": 3101,
  "\u2581satisfaction": 3102,
  "\u2581300": 3103,
  "\u2581Nations": 3104,
  "\u2581anxiety": 3105,
  "\u2581harvest": 3106,
  "\u2581publication": 3107,
  "\u2581Mother": 3108,
  "\u2581escape": 3109,
  "\u2581indicates": 3110,
  "\u2581refuge": 3111,
  "\u2581values": 3112,
  "\u2581wasem": 3113,
  "My": 3114,
  "\u25811914": 3115,
  "\u2581Armageddon": 3116,
  "\u2581Septemba": 3117,
  "\u2581churches": 3118,
  "\u2581studied": 3119,
  "\u2581tingtinggud": 3120,
  "\u2581Vas": 3121,
  "\u2581endeavor": 3122,
  "\u2581fearing": 3123,
  "\u2581promote": 3124,
  "\u2581wealth": 3125,
  "\u258131,": 3126,
  "\u2581Tim": 3127,
  "\u2581air": 3128,
  "\u2581impressed": 3129,
  "Wan": 3130,
  "\u25816]": 3131,
  "\u2581economic": 3132,
  "\u2581noes": 3133,
  "\u2581rules": 3134,
  "se": 3135,
  "\u2581Nehemaea": 3136,
  "\u2581evidently": 3137,
  "\u2581jif": 3138,
  "\u2581waiting": 3139,
  "\u2581Answer": 3140,
  "\u2581Pis": 3141,
  "\u2581flae": 3142,
  "\u2581normal": 3143,
  "\u2581setting": 3144,
  "\u2581sora": 3145,
  "ation": 3146,
  "\u2581Nambawan": 3147,
  "\u2581essential": 3148,
  "\u2581international": 3149,
  "\u2581remains": 3150,
  "\u2581telling": 3151,
  "p": 3152,
  "\u25811990": 3153,
  "\u2581Pharaoh": 3154,
  "\u2581Rut": 3155,
  "\u2581appears": 3156,
  "\u2581jaj": 3157,
  "\u2581lay": 3158,
  "\u2581speaks": 3159,
  "\u2581tapolen": 3160,
  "\u2581thank": 3161,
  "D": 3162,
  "R": 3163,
  "\u2581Parents": 3164,
  "\u2581throne": 3165,
  "\u2581waters": 3166,
  "\u258117;": 3167,
  "\u2581Day": 3168,
  "\u2581laf": 3169,
  "\u2581lesingud": 3170,
  "\u2581ideas": 3171,
  "\u2581tren": 3172,
  "\u2581difference": 3173,
  "\u2581glorious": 3174,
  "\u2581non": 3175,
  "\u2581per": 3176,
  "\u2581Note": 3177,
  "\u2581easier": 3178,
  "\u2581emotions": 3179,
  "\u2581recognized": 3180,
  "\u2581trouble": 3181,
  "\u2581Esia": 3182,
  "\u2581Maeka": 3183,
  "\u2581companions": 3184,
  "\u2581decades": 3185,
  "\u2581pride": 3186,
  "\u2581animal": 3187,
  "\u2581deeds": 3188,
  "\u2581heavy": 3189,
  "\u2581inhabitants": 3190,
  "\u2581wide": 3191,
  "\u2581Iden": 3192,
  "\u2581beloved": 3193,
  "\u2581freely": 3194,
  "\u2581gold": 3195,
  "\u2581increased": 3196,
  "\u2581recently": 3197,
  "\u2581Hav": 3198,
  "\u2581hundred": 3199,
  "\u2581mildness": 3200,
  "\u258116)": 3201,
  "\u2581Give": 3202,
  "\u2581divorce": 3203,
  "\u2581plen": 3204,
  "\u2581re": 3205,
  "\u2581receiving": 3206,
  "\u2581Sera": 3207,
  "\u2581aside": 3208,
  "\u2581dealing": 3209,
  "\u2581cost": 3210,
  "\u2581goaot": 3211,
  "\u2581letters": 3212,
  "\u2581velej": 3213,
  "\u2581Hosea": 3214,
  "\u2581Itali": 3215,
  "\u2581Sometimes": 3216,
  "\u2581providing": 3217,
  "Mosaic": 3218,
  "\u2581blind": 3219,
  "\u2581writes": 3220,
  "\u2581German": 3221,
  "\u2581Un": 3222,
  "\u2581joined": 3223,
  "\u2581opportunities": 3224,
  "\u2581produced": 3225,
  "\u258131]": 3226,
  "\u2581Eden": 3227,
  "\u2581Nehemiah": 3228,
  "\u2581daughters": 3229,
  "\u2581deliver": 3230,
  "\u2581sword": 3231,
  "\u25811993": 3232,
  "\u2581Two": 3233,
  "\u2581aean": 3234,
  "\u2581lasting": 3235,
  "\u2581nyuspepa": 3236,
  "\u2581provisions": 3237,
  "\u2581reveals": 3238,
  "\u2581wokhad": 3239,
  "el": 3240,
  "\u2581Earth": 3241,
  "\u2581assist": 3242,
  "\u2581count": 3243,
  "\u2581directed": 3244,
  "\u2581meditate": 3245,
  "\u2581SINGSING": 3246,
  "\u2581attendance": 3247,
  "\u2581delivered": 3248,
  "\u2581fit": 3249,
  "Fasin": 3250,
  "\u258166": 3251,
  "\u2581aspects": 3252,
  "\u2581indicated": 3253,
  "\u2581Imagine": 3254,
  "\u2581State": 3255,
  "\u2581discernment": 3256,
  "\u2581haremsave": 3257,
  "\u2581tender": 3258,
  "\u2581doctor": 3259,
  "\u2581formed": 3260,
  "\u25811994": 3261,
  "\u2581Compare": 3262,
  "\u2581copy": 3263,
  "\u2581describe": 3264,
  "\u2581involve": 3265,
  "\u2581reject": 3266,
  "All": 3267,
  "What": 3268,
  "\u2581date": 3269,
  "\u2581ministers": 3270,
  "\u2581pagan": 3271,
  "\u2581strengthened": 3272,
  "\u2581white": 3273,
  "\u2581constantly": 3274,
  "\u2581oraet": 3275,
  "be": 3276,
  "\u2581Micah": 3277,
  "\u2581Readers": 3278,
  "\u2581armies": 3279,
  "\u2581released": 3280,
  "\u2581send": 3281,
  "\u2581sit": 3282,
  "\u2581Both": 3283,
  "\u2581Maj": 3284,
  "\u2581Nomo": 3285,
  "\u2581sloslou": 3286,
  "um": 3287,
  "\u2581Krismas": 3288,
  "\u2581Sin": 3289,
  "\u2581expressions": 3290,
  "\u2581pattern": 3291,
  "\u2581severe": 3292,
  "\u2581stake": 3293,
  "\u2581succeed": 3294,
  "\u2581wickedness": 3295,
  "go": 3296,
  "\u25811997": 3297,
  "\u2581Kenan": 3298,
  "\u2581conventions": 3299,
  "\u2581souls": 3300,
  "\u2581Regard": 3301,
  "\u2581carrying": 3302,
  "\u2581environment": 3303,
  "\u2581luklukgud": 3304,
  "\u2581remnant": 3305,
  "\u258151": 3306,
  "\u2581Explain": 3307,
  "\u2581afraid": 3308,
  "\u2581cry": 3309,
  "\u2581mighty": 3310,
  "\u2581peaceful": 3311,
  "\u2581popular": 3312,
  "\u258134,": 3313,
  "\u2581Ogis": 3314,
  "\u2581SAM": 3315,
  "\u2581Sad": 3316,
  "\u2581identify": 3317,
  "\u2581meal": 3318,
  "\u2581mit": 3319,
  "\u2581process": 3320,
  "\u2581applying": 3321,
  "\u2581perform": 3322,
  "\u2581soldiers": 3323,
  "\u2581International": 3324,
  "\u2581October": 3325,
  "\u2581fish": 3326,
  "\u2581kolkol": 3327,
  "\u2581trik": 3328,
  "k": 3329,
  "\u2581Look": 3330,
  "\u2581Surely": 3331,
  "\u2581calling": 3332,
  "\u2581cares": 3333,
  "\u2581performed": 3334,
  "\u2581privileges": 3335,
  "\u2581rely": 3336,
  "\u2581details": 3337,
  "\u2581population": 3338,
  "\u2581rise": 3339,
  "\u2581compare": 3340,
  "\u2581digim": 3341,
  "\u2581worshippers": 3342,
  "\u2581belong": 3343,
  "\u2581forms": 3344,
  "\u2581governments": 3345,
  "\u2581granted": 3346,
  "\u2581pointed": 3347,
  "\u2581separate": 3348,
  "at": 3349,
  "\u2581Visit": 3350,
  "\u2581William": 3351,
  "\u2581indefinite": 3352,
  "\u2581kindly": 3353,
  "\u2581stress": 3354,
  "\u2581surprise": 3355,
  "\u2581verses": 3356,
  "ion": 3357,
  "\u2581Nesen": 3358,
  "\u2581habits": 3359,
  "\u2581lesen": 3360,
  "\u2581telefon": 3361,
  "\u2581requirements": 3362,
  "B": 3363,
  "\u2581Charles": 3364,
  "\u2581Sodom": 3365,
  "\u2581fasem": 3366,
  "\u2581leaving": 3367,
  "\u2581planet": 3368,
  "\u2581Studen": 3369,
  "\u2581higher": 3370,
  "\u2581mekemrere": 3371,
  "\u2581Michael": 3372,
  "\u2581chief": 3373,
  "\u2581crime": 3374,
  "\u2581honest": 3375,
  "\u2581pastru": 3376,
  "\u2581provision": 3377,
  "\u2581refer": 3378,
  "\u2581Inglan": 3379,
  "\u2581Likewise": 3380,
  "\u2581Nasi": 3381,
  "\u2581Red": 3382,
  "\u2581illustrate": 3383,
  "\u2581shepherds": 3384,
  "\u2581weak": 3385,
  "\u2581Sipsip": 3386,
  "\u2581fast": 3387,
  "\u2581mekemap": 3388,
  "\u258144.": 3389,
  "\u2581Assembly": 3390,
  "\u2581Dictionary": 3391,
  "\u2581olta": 3392,
  "\u2581total": 3393,
  "ra": 3394,
  "\u2581Brasil": 3395,
  "\u2581Has": 3396,
  "\u2581effects": 3397,
  "\u2581feels": 3398,
  "\u2581financial": 3399,
  "\u2581(3)": 3400,
  "\u2581Students": 3401,
  "\u2581hivap": 3402,
  "\u2581lying": 3403,
  "\u2581rulers": 3404,
  "\u2581shared": 3405,
  "\u2581company": 3406,
  "\u2581listened": 3407,
  "\u2581mistakes": 3408,
  "\u2581tij": 3409,
  "Nao": 3410,
  "\u2581City": 3411,
  "\u2581appearance": 3412,
  "\u2581heartfelt": 3413,
  "\u2581marvelous": 3414,
  "\u2581miracles": 3415,
  "\u2581parable": 3416,
  "\u2581seken": 3417,
  "\u2581worse": 3418,
  "\u2581Dokta": 3419,
  "\u2581majority": 3420,
  "ive": 3421,
  "\u2581Askem": 3422,
  "\u2581Cain": 3423,
  "\u2581England": 3424,
  "\u2581Malakae": 3425,
  "\u2581Matt": 3426,
  "\u2581buy": 3427,
  "\u2581illness": 3428,
  "\u2581lis": 3429,
  "\u2581Columbia": 3430,
  "\u2581Sameria": 3431,
  "\u2581impossible": 3432,
  "\u2581trees": 3433,
  "\u2581Reva": 3434,
  "\u2581September": 3435,
  "\u2581abundance": 3436,
  "\u2581sought": 3437,
  "\u2581upright": 3438,
  "Daniel": 3439,
  "\u2581BAEBOL": 3440,
  "\u2581background": 3441,
  "\u2581worldly": 3442,
  "Hemia": 3443,
  "Jesus": 3444,
  "\u2581Sunday": 3445,
  "\u2581critical": 3446,
  "\u2581lessons": 3447,
  "\u2581nani": 3448,
  "\u2581sinned": 3449,
  "\u2581instructions": 3450,
  "\u2581Recall": 3451,
  "\u2581buklet": 3452,
  "\u2581keeps": 3453,
  "\u2581leads": 3454,
  "\u2581OLI": 3455,
  "\u2581exactly": 3456,
  "\u2581inhabited": 3457,
  "\u2581level": 3458,
  "\u2581proof": 3459,
  "hether": 3460,
  "\u2581Herod": 3461,
  "\u2581Prov": 3462,
  "\u2581kilomita": 3463,
  "\u2581sickness": 3464,
  "\u258116]": 3465,
  "\u258130,": 3466,
  "\u2581Titus": 3467,
  "\u2581apparently": 3468,
  "\u2581clergy": 3469,
  "\u2581draeples": 3470,
  "\u2581marry": 3471,
  "\u2581national": 3472,
  "\u2581widow": 3473,
  "!?": 3474,
  "N": 3475,
  "\u258149": 3476,
  "\u25818]": 3477,
  "\u2581Lan": 3478,
  "\u2581Me": 3479,
  "\u2581Protestan": 3480,
  "\u2581bodies": 3481,
  "\u2581wedding": 3482,
  "\u2581Messianic": 3483,
  "\u2581balanced": 3484,
  "\u2581basket": 3485,
  "\u2581low": 3486,
  "\u2581mountains": 3487,
  "\u2581selfish": 3488,
  "great": 3489,
  "\u2581Rev": 3490,
  "\u2581accomplished": 3491,
  "\u2581determination": 3492,
  "\u2581muv": 3493,
  "\u2581pour": 3494,
  "\u2581slow": 3495,
  "\u2581ekspiryens": 3496,
  "\u2581manples": 3497,
  "\u2581mesin": 3498,
  "\u2581render": 3499,
  "\u2581stonwol": 3500,
  "\u2581terms": 3501,
  "f": 3502,
  "\u2581America": 3503,
  "\u2581alkol": 3504,
  "\u2581box": 3505,
  "\u2581compared": 3506,
  "\u2581grown": 3507,
  "\u2581inheritance": 3508,
  "\u2581remaining": 3509,
  "\u2581resulted": 3510,
  "\u2581Niu": 3511,
  "\u2581Nogud": 3512,
  "\u2581pleased": 3513,
  "\u2581top": 3514,
  "No": 3515,
  "\u2581Association": 3516,
  "\u2581December": 3517,
  "\u2581Sovereign": 3518,
  "\u2581apart": 3519,
  "\u2581causing": 3520,
  "\u2581firmly": 3521,
  "\u2581saenaot": 3522,
  "\u2581spid": 3523,
  "\u2581stopped": 3524,
  "\u2581Julae": 3525,
  "\u2581Pentecost": 3526,
  "\u2581copies": 3527,
  "\u2581designed": 3528,
  "\u2581directly": 3529,
  "\u2581reference": 3530,
  "\u258113]": 3531,
  "\u2581mild": 3532,
  "\u2581ruin": 3533,
  "\u2581Sekaraea": 3534,
  "\u2581create": 3535,
  "\u2581journey": 3536,
  "\u2581rebellion": 3537,
  "\u2581replied": 3538,
  "\u2581straight": 3539,
  "\u258119)": 3540,
  "\u2581GOD": 3541,
  "\u2581Never": 3542,
  "\u2581Promised": 3543,
  "\u2581dear": 3544,
  "\u2581relates": 3545,
  "\u2581scriptures": 3546,
  "\u2581vast": 3547,
  "\u25812,000": 3548,
  "\u2581500": 3549,
  "\u2581Christmas": 3550,
  "\u2581March": 3551,
  "\u2581comforting": 3552,
  "\u2581difficulties": 3553,
  "\u2581identified": 3554,
  "\u2581official": 3555,
  "\u2581posen": 3556,
  "\u2581primary": 3557,
  "\u2581sees": 3558,
  "\u2581series": 3559,
  "\u2581George": 3560,
  "\u2581commission": 3561,
  "\u2581declare": 3562,
  "\u2581determine": 3563,
  "Jeremaea": 3564,
  "\u2581angry": 3565,
  "\u2581couples": 3566,
  "\u2581engage": 3567,
  "\u2581forced": 3568,
  "\u2581witnesses": 3569,
  "1:": 3570,
  "Prija": 3571,
  "est": 3572,
  "\u2581University": 3573,
  "\u2581conflict": 3574,
  "\u2581healthy": 3575,
  "out": 3576,
  "\u2581Asia": 3577,
  "\u2581Kolosap": 3578,
  "\u2581Truth": 3579,
  "\u2581WANEM": 3580,
  "\u2581center": 3581,
  "\u2581concluded": 3582,
  "\u2581developing": 3583,
  "\u2581entitled": 3584,
  "\u2581fasples": 3585,
  "\u2581grand": 3586,
  "\u2581list": 3587,
  "\u2581midst": 3588,
  "\u2581occasions": 3589,
  "\u2581oil": 3590,
  "\u2581repentant": 3591,
  "\u2581satisfying": 3592,
  "\u2581unable": 3593,
  "g": 3594,
  "\u2581abundant": 3595,
  "\u2581begotten": 3596,
  "\u2581resolve": 3597,
  "\u2581sad": 3598,
  "\u2581stood": 3599,
  "ww": 3600,
  "\u2581Kanada": 3601,
  "\u2581Pentekos": 3602,
  "\u2581bren": 3603,
  "\u2581courageous": 3604,
  "\u2581fornication": 3605,
  "\u2581hos": 3606,
  "\u2581require": 3607,
  "\u2581scholar": 3608,
  "\u2581struggle": 3609,
  "\u2581teritori": 3610,
  "\u2581Almighty": 3611,
  "\u2581Finis": 3612,
  "\u2581Fren": 3613,
  "\u2581French": 3614,
  "\u2581altar": 3615,
  "\u2581conscious": 3616,
  "Keep": 3617,
  "\u2581Advaes": 3618,
  "\u2581Every": 3619,
  "\u2581lukaotem": 3620,
  "\u2581takis": 3621,
  "\u2581acted": 3622,
  "\u2581obtain": 3623,
  "\u2581ought": 3624,
  "Skelem": 3625,
  "\u2581Mat": 3626,
  "\u2581Peace": 3627,
  "\u2581dwell": 3628,
  "\u2581happens": 3629,
  "\u2581remove": 3630,
  "\u2581Jona": 3631,
  "\u2581Paris": 3632,
  "\u2581punishment": 3633,
  "\u2581research": 3634,
  "\u2581scholars": 3635,
  "\u2581Blur": 3636,
  "\u2581Flood": 3637,
  "\u2581Maria": 3638,
  "\u2581News": 3639,
  "\u2581Soviet": 3640,
  "\u2581Teach": 3641,
  "\u2581considering": 3642,
  "\u2581injustice": 3643,
  "\u2581relations": 3644,
  "\u2581reminded": 3645,
  "\u2581sigaret": 3646,
  "\u2581song": 3647,
  "\u2581Judas": 3648,
  "\u2581Seken": 3649,
  "\u2581doctrine": 3650,
  "\u2581Chronicles": 3651,
  "\u2581Fero": 3652,
  "\u2581Sande": 3653,
  "\u2581bilivim": 3654,
  "\u2581paid": 3655,
  "\u2581region": 3656,
  "\u2581safe": 3657,
  "\u2581successfully": 3658,
  "\u2581walked": 3659,
  "\u2581wind": 3660,
  "\u25813]": 3661,
  "\u2581handle": 3662,
  "ne": 3663,
  "ro": 3664,
  "\u2581Hitler": 3665,
  "\u2581Insaed": 3666,
  "\u2581assistance": 3667,
  "\u2581hate": 3668,
  "\u2581subjection": 3669,
  "\u2581wild": 3670,
  "\u258129]": 3671,
  "\u2581rulership": 3672,
  "\u2581wilderness": 3673,
  "by": 3674,
  "\u258121]": 3675,
  "\u2581devel": 3676,
  "\u2581exercising": 3677,
  "\u2581foundation": 3678,
  "\u2581herself": 3679,
  "\u2581path": 3680,
  "\u2581qualified": 3681,
  "\u2581silver": 3682,
  "\u2581westem": 3683,
  "Look": 3684,
  "\u2581adultery": 3685,
  "\u2581affairs": 3686,
  "\u2581dog": 3687,
  "\u2581Abel": 3688,
  "\u2581Scripture": 3689,
  "\u2581bond": 3690,
  "\u2581bot": 3691,
  "\u2581disaster": 3692,
  "\u2581Gavman": 3693,
  "\u2581Gohed": 3694,
  "\u2581Meksiko": 3695,
  "\u2581anxious": 3696,
  "\u2581faerap": 3697,
  "\u2581ministeri": 3698,
  "but": 3699,
  "\u2581'!": 3700,
  "\u258172": 3701,
  "\u2581Jun": 3702,
  "\u2581Wota": 3703,
  "\u2581aspect": 3704,
  "\u2581remarkable": 3705,
  "\u2581victims": 3706,
  "\u2581145": 3707,
  "\u2581Malachi": 3708,
  "\u2581constant": 3709,
  "\u2581drugs": 3710,
  "\u2581invisible": 3711,
  "\u2581moment": 3712,
  "\u2581vatu": 3713,
  "\u2581exists": 3714,
  "\u2581faithfulness": 3715,
  "\u2581merciful": 3716,
  "As": 3717,
  "\u25811914.": 3718,
  "\u258120)": 3719,
  "\u2581HIV": 3720,
  "\u2581Taetas": 3721,
  "\u2581motivate": 3722,
  "\u2581blaen": 3723,
  "\u2581Mared": 3724,
  "\u2581bom": 3725,
  "\u2581demonstrated": 3726,
  "\u2581wipe": 3727,
  "\u2581103": 3728,
  "\u2581Australia": 3729,
  "\u2581deliverance": 3730,
  "\u2581ended": 3731,
  "\u2581swim": 3732,
  "\u2581willingly": 3733,
  "\u2581worthy": 3734,
  "3": 3735,
  "\u2581Haf": 3736,
  "\u2581across": 3737,
  "\u2581assembly": 3738,
  "\u2581fleshly": 3739,
  "\u2581rendered": 3740,
  "\u2581ruling": 3741,
  "\u2581Frut": 3742,
  "\u2581Heights": 3743,
  "\u2581Upon": 3744,
  "\u2581advance": 3745,
  "\u2581commit": 3746,
  "\u2581discouraged": 3747,
  "\u2581finding": 3748,
  "\u2581travel": 3749,
  "ling": 3750,
  "\u258112]": 3751,
  "\u25811919": 3752,
  "\u2581Mexico": 3753,
  "\u2581extend": 3754,
  "\u2581highly": 3755,
  "\u2581posisen": 3756,
  "\u2581supply": 3757,
  "\u2581surprised": 3758,
  "\u2581January": 3759,
  "\u2581chapters": 3760,
  "\u2581enabl": 3761,
  "\u2581moving": 3762,
  "\u2581opposite": 3763,
  "\u2581represent": 3764,
  "\u2581restored": 3765,
  "\u2581rop": 3766,
  "\u2581sinners": 3767,
  "They": 3768,
  "\u2581Ministry": 3769,
  "\u2581Rutherford": 3770,
  "\u2581Zechariah": 3771,
  "\u2581dwelling": 3772,
  "\u2581endured": 3773,
  "\u2581footnote": 3774,
  "\u2581stone": 3775,
  "\u2581Greece": 3776,
  "\u2581Tijing": 3777,
  "\u2581arise": 3778,
  "\u2581ill": 3779,
  "\u2581inaf": 3780,
  "\u2581root": 3781,
  "\u2581awake": 3782,
  "\u2581discovered": 3783,
  "\u2581district": 3784,
  "\u2581gathering": 3785,
  "\u2581mention": 3786,
  "\u2581rula": 3787,
  "\u2581theocratic": 3788,
  "\u2581treasure": 3789,
  "\u258122)": 3790,
  "\u2581Skelem": 3791,
  "\u2581kamp": 3792,
  "\u2581none": 3793,
  "\u2581yad": 3794,
  "\u2581MI": 3795,
  "\u2581laeon": 3796,
  "\u2581lif": 3797,
  "\u2581persecuted": 3798,
  "\u2581writings": 3799,
  "\u2581yusumgud": 3800,
  "\u258144": 3801,
  "\u2581YOU": 3802,
  "\u2581additional": 3803,
  "\u2581motivated": 3804,
  "\u2581north": 3805,
  "\u2581relationships": 3806,
  "j": 3807,
  "\u2581Halls": 3808,
  "\u2581Speret": 3809,
  "\u2581discern": 3810,
  "\u2581diseases": 3811,
  "\u2581masket": 3812,
  "\u2581sake": 3813,
  "\u2581secure": 3814,
  "\u2581snek": 3815,
  "\u2581Inok": 3816,
  "\u2581Longtaem": 3817,
  "\u2581adults": 3818,
  "\u2581brochure": 3819,
  "\u2581bun": 3820,
  "\u2581drong": 3821,
  "\u2581private": 3822,
  "\u2581JEHOVAH": 3823,
  "\u2581claimed": 3824,
  "\u2581significant": 3825,
  "\u2581skelemgud": 3826,
  "Jisas": 3827,
  "\u2581400": 3828,
  "\u2581Jonah": 3829,
  "\u2581Novemba": 3830,
  "\u2581Wantaem": 3831,
  "\u2581ark": 3832,
  "\u2581arranged": 3833,
  "\u2581influenced": 3834,
  "\u2581jekemap": 3835,
  "ary": 3836,
  "\u25811991": 3837,
  "\u2581Henry": 3838,
  "\u2581La": 3839,
  "\u2581Religion": 3840,
  "\u2581eager": 3841,
  "\u2581les": 3842,
  "\u2581literal": 3843,
  "\u2581makemgud": 3844,
  "\u2581reasoning": 3845,
  "\u2581season": 3846,
  "ia": 3847,
  "\u2581Josephus": 3848,
  "\u2581National": 3849,
  "\u2581Second": 3850,
  "\u2581failure": 3851,
  "\u2581gratitude": 3852,
  "\u2581hip": 3853,
  "ted": 3854,
  "\u25811996": 3855,
  "\u2581Moab": 3856,
  "\u2581Talemaot": 3857,
  "\u2581putumaot": 3858,
  "\u258111201": 3859,
  "\u258139.": 3860,
  "\u2581Dad": 3861,
  "\u2581Rili": 3862,
  "\u2581hedkwota": 3863,
  "\u2581kaset": 3864,
  "\u2581nearby": 3865,
  "\u2581physically": 3866,
  "\u2581wokman": 3867,
  "olsem": 3868,
  "\u2581corruption": 3869,
  "\u2581gad": 3870,
  "\u2581humbly": 3871,
  "\u2581turning": 3872,
  "\u2581Canada": 3873,
  "\u2581Hat": 3874,
  "\u2581Mei": 3875,
  "\u2581TV": 3876,
  "\u2581Wes": 3877,
  "\u2581brok": 3878,
  "\u2581gofri": 3879,
  "\u2581grief": 3880,
  "\u2581presiden": 3881,
  "\u2581tiokratik": 3882,
  "\u2581Service": 3883,
  "\u2581belongs": 3884,
  "\u2581cold": 3885,
  "\u2581delaet": 3886,
  "\u2581healing": 3887,
  "\u2581tang": 3888,
  "\u2581viewpoint": 3889,
  "\u2581visiting": 3890,
  "ity": 3891,
  "\u2581Kakae": 3892,
  "\u2581Kamaot": 3893,
  "\u2581anymore": 3894,
  "\u2581idolatry": 3895,
  "\u2581inner": 3896,
  "\u2581jelas": 3897,
  "\u2581laid": 3898,
  "\u2581agreed": 3899,
  "\u2581attitudes": 3900,
  "\u2581corrupt": 3901,
  "\u2581possess": 3902,
  "\u2581serves": 3903,
  "\u2581Jaj": 3904,
  "\u2581Kwiktaem": 3905,
  "\u2581customs": 3906,
  "\u2581literally": 3907,
  "\u2581refuse": 3908,
  "\u2581solution": 3909,
  "\u258154": 3910,
  "\u2581Enoch": 3911,
  "\u2581Ps": 3912,
  "\u2581brotherhood": 3913,
  "\u2581descendants": 3914,
  "\u2581fasbon": 3915,
  "\u2581girls": 3916,
  "\u2581kat": 3917,
  "\u2581repentance": 3918,
  "\u2581sinema": 3919,
  "5": 3920,
  "fasin": 3921,
  "\u2581Ebel": 3922,
  "\u2581Welcome": 3923,
  "\u2581rightly": 3924,
  "\u2581Health": 3925,
  "\u2581Ripot": 3926,
  "\u2581abandoned": 3927,
  "\u2581c": 3928,
  "\u2581nine": 3929,
  "\u2581torture": 3930,
  "How": 3931,
  "one": 3932,
  "\u2581Elisha": 3933,
  "\u2581Fas": 3934,
  "\u2581Out": 3935,
  "\u2581Wosip": 3936,
  "\u2581assignments": 3937,
  "\u2581burden": 3938,
  "\u2581lovers": 3939,
  "\u2581numerous": 3940,
  "\u2581oel": 3941,
  "\u2581plant": 3942,
  "\u2581release": 3943,
  "\u2581Corinth": 3944,
  "\u2581NY": 3945,
  "\u2581approached": 3946,
  "\u2581dust": 3947,
  "\u2581reaction": 3948,
  "\u2581theme": 3949,
  "aot": 3950,
  "\u25814]": 3951,
  "\u2581Bal": 3952,
  "\u2581Spanish": 3953,
  "\u2581Wo": 3954,
  "\u2581caught": 3955,
  "\u2581differ": 3956,
  "\u2581jalus": 3957,
  "\u2581raorao": 3958,
  "\u2581ronemaot": 3959,
  "\u2581thereafter": 3960,
  "\u2581traveled": 3961,
  "7": 3962,
  "\u2581Happy": 3963,
  "\u2581apostasi": 3964,
  "\u2581broken": 3965,
  "\u2581content": 3966,
  "\u2581innocent": 3967,
  "\u2581kos": 3968,
  "\u2581writers": 3969,
  "4": 3970,
  "\u2581error": 3971,
  "\u2581hom": 3972,
  "\u2581properly": 3973,
  "\u2581union": 3974,
  "ver": 3975,
  "\u258128]": 3976,
  "\u2581Brazil": 3977,
  "\u2581Him": 3978,
  "\u2581Map": 3979,
  "\u2581Soemaot": 3980,
  "\u2581construction": 3981,
  "\u2581covered": 3982,
  "\u2581signs": 3983,
  "ment": 3984,
  "\u2581Blesing": 3985,
  "\u2581Cor": 3986,
  "\u2581Grand": 3987,
  "\u2581appreciated": 3988,
  "\u2581capital": 3989,
  "\u2581depression": 3990,
  "\u2581possessions": 3991,
  "\u2581spirituality": 3992,
  "uvel": 3993,
  "\u2581Ephesus": 3994,
  "\u2581Jenis": 3995,
  "\u2581J\u00e9hovah": 3996,
  "\u2581Septuagint": 3997,
  "\u2581excellent": 3998,
  "\u2581figurative": 3999,
  "\u2581recalls": 4000,
  "\u00e9moi": 4001,
  "\u258121)": 4002,
  "\u25813;": 4003,
  "\u2581Am": 4004,
  "\u2581hafhaf": 4005,
  "\u2581Concern": 4006,
  "\u2581Eventually": 4007,
  "\u2581Nekis": 4008,
  "\u2581exposed": 4009,
  "\u2581modest": 4010,
  "\u2581naen": 4011,
  "\u2581potential": 4012,
  "\u2581wall": 4013,
  "\u2581Engglan": 4014,
  "\u2581Learn": 4015,
  "\u2581admonition": 4016,
  "\u2581clothing": 4017,
  "\u2581griri": 4018,
  "\u2581increasing": 4019,
  "\u2581proud": 4020,
  "\u2581reaching": 4021,
  "\u2581ring": 4022,
  "\u2581supported": 4023,
  "\u2581Name": 4024,
  "\u2581SAMTING": 4025,
  "\u2581arrangements": 4026,
  "\u2581associate": 4027,
  "\u2581beauty": 4028,
  "\u2581quit": 4029,
  "\u2581shed": 4030,
  "\u2581style": 4031,
  "\u2581beregraon": 4032,
  "\u2581damage": 4033,
  "\u2581dignity": 4034,
  "\u2581gudnem": 4035,
  "\u2581harmful": 4036,
  "\u2581pioneering": 4037,
  "\u2581Following": 4038,
  "\u2581Often": 4039,
  "\u2581Pasova": 4040,
  "\u2581forgiving": 4041,
  "\u2581habit": 4042,
  "\u2581hariken": 4043,
  "\u2581spolemgud": 4044,
  "\u2581task": 4045,
  "\u2581tribes": 4046,
  "Plante": 4047,
  "do": 4048,
  "\u25812000": 4049,
  "\u2581STORI": 4050,
  "\u2581brain": 4051,
  "\u2581outcome": 4052,
  "\u2581plans": 4053,
  "\u2581sefples": 4054,
  "\u2581television": 4055,
  "\u2581welkamem": 4056,
  "2": 4057,
  "\u2581Baptaes": 4058,
  "\u2581acting": 4059,
  "\u2581balance": 4060,
  "\u2581glas": 4061,
  "\u2581obligation": 4062,
  "\u2581repeatedly": 4063,
  "\u2581satem": 4064,
  "taem": 4065,
  "\u2581November": 4066,
  "\u2581average": 4067,
  "\u2581involving": 4068,
  "\u2581quick": 4069,
  "\u2581tabak": 4070,
  "\u2581Cal\u00e9donie": 4071,
  "\u2581Nisan": 4072,
  "\u2581assurance": 4073,
  "\u2581boys": 4074,
  "\u2581dangers": 4075,
  "\u2581generous": 4076,
  "\u2581holding": 4077,
  "\u2581mark": 4078,
  "\u2581meaningful": 4079,
  "\u2581methods": 4080,
  "\u2581offers": 4081,
  "\u2581radio": 4082,
  "\u2581sang": 4083,
  "\u2581stik": 4084,
  "\u2581touched": 4085,
  "\u2581useful": 4086,
  "\u2581Harem": 4087,
  "\u2581YUMI": 4088,
  "\u2581allows": 4089,
  "\u2581ignore": 4090,
  "\u2581spouse": 4091,
  "\u2581wes": 4092,
  "la": 4093,
  "\u2581billion": 4094,
  "\u2581focused": 4095,
  "\u2581street": 4096,
  "ma": 4097,
  "\u258137.": 4098,
  "\u2581Fraet": 4099,
  "\u2581Knorr": 4100,
  "\u2581TO": 4101,
  "\u2581approved": 4102,
  "\u2581assures": 4103,
  "\u2581distrik": 4104,
  "\u2581model": 4105,
  "\u2581represented": 4106,
  "\u2581standard": 4107,
  "\u2581tribe": 4108,
  "\u25811950": 4109,
  "\u2581607": 4110,
  "\u2581Aaron": 4111,
  "\u2581East": 4112,
  "\u2581abilities": 4113,
  "\u2581companion": 4114,
  "\u2581principal": 4115,
  "\u2581removed": 4116,
  "will": 4117,
  "\u258133,": 4118,
  "\u2581Doing": 4119,
  "\u2581Impoten": 4120,
  "\u2581conducted": 4121,
  "\u2581variety": 4122,
  "\u258123)": 4123,
  "\u2581Magasin": 4124,
  "\u2581Shortly": 4125,
  "\u2581historian": 4126,
  "\u2581smoking": 4127,
  "\u2581bas": 4128,
  "\u2581encourages": 4129,
  "\u2581printed": 4130,
  "\u2581reflected": 4131,
  "\u2581rejoicing": 4132,
  "\u2581Triniti": 4133,
  "\u2581aftenun": 4134,
  "\u2581compassionate": 4135,
  "\u2581familiar": 4136,
  "\u2581praod": 4137,
  "\u2581recall": 4138,
  "\u2581sat": 4139,
  "\u2581sayens": 4140,
  "\u2581stars": 4141,
  "\u2581strengthening": 4142,
  "\u2581struck": 4143,
  "\u2581temporary": 4144,
  "ry": 4145,
  "\u2581Judia": 4146,
  "\u2581TAEM": 4147,
  "\u2581arrested": 4148,
  "\u2581intense": 4149,
  "\u2581possibly": 4150,
  "\u2581referring": 4151,
  "kemap": 4152,
  "na": 4153,
  "\u2581accord": 4154,
  "\u2581concerns": 4155,
  "\u2581president": 4156,
  "\u2581threat": 4157,
  "6": 4158,
  "Papa": 4159,
  "\u2581Britain": 4160,
  "\u2581Caesar": 4161,
  "\u2581culture": 4162,
  "\u2581displayed": 4163,
  "\u2581faetem": 4164,
  "\u2581male": 4165,
  "\u2581presina": 4166,
  "\u2581unclean": 4167,
  "\u2581Livaet": 4168,
  "\u2581OF": 4169,
  "\u2581Re": 4170,
  "\u2581imperfection": 4171,
  "\u2581invite": 4172,
  "\u2581jem": 4173,
  "\u2581klaod": 4174,
  "\u2581miraculous": 4175,
  "\u2581rain": 4176,
  "\u2581review": 4177,
  "\u2581songs": 4178,
  "\u2581stories": 4179,
  "\u2581Tahiti": 4180,
  "\u2581devoted": 4181,
  "\u2581givgivhan": 4182,
  "\u2581grave": 4183,
  "\u2581possession": 4184,
  "\u2581singing": 4185,
  "\u2581speaker": 4186,
  "\u2581wrath": 4187,
  "bambae": 4188,
  "me": 4189,
  "\u258138.": 4190,
  "\u2581Anna": 4191,
  "\u2581Early": 4192,
  "\u2581WHAT": 4193,
  "\u2581custom": 4194,
  "\u2581degree": 4195,
  "tok": 4196,
  "\u2581European": 4197,
  "\u2581Old": 4198,
  "\u2581choices": 4199,
  "\u2581noticed": 4200,
  "\u2581remind": 4201,
  "\u2581scene": 4202,
  "\u2581table": 4203,
  "\u2581\u25aa?": 4204,
  "ED": 4205,
  "Y": 4206,
  "\u2581Samson": 4207,
  "\u2581Whatever": 4208,
  "\u2581bound": 4209,
  "\u2581kansa": 4210,
  "\u2581readily": 4211,
  "\u2581Levitikas": 4212,
  "\u2581Passover": 4213,
  "\u2581Sefanaea": 4214,
  "\u2581price": 4215,
  "\u2581suggestions": 4216,
  "\u2581weaknesses": 4217,
  "483,": 4218,
  "\u25813,000": 4219,
  "\u2581Come": 4220,
  "\u2581Kot": 4221,
  "\u2581Lanem": 4222,
  "\u2581Ten": 4223,
  "\u2581Trinity": 4224,
  "\u2581Winim": 4225,
  "\u2581broke": 4226,
  "\u2581Baal": 4227,
  "\u2581Sisa": 4228,
  "\u2581aksen": 4229,
  "\u2581calamity": 4230,
  "\u2581illustrations": 4231,
  "\u2581prominent": 4232,
  "\u2581pursuing": 4233,
  "\u2581saentis": 4234,
  "\u2581stayed": 4235,
  "ur": 4236,
  "\u25811998": 4237,
  "\u25811999": 4238,
  "\u258136.": 4239,
  "\u2581Convention": 4240,
  "\u2581Lamb": 4241,
  "\u2581fogif": 4242,
  "\u2581pressures": 4243,
  "\u2581rights": 4244,
  "\u2581thankful": 4245,
  "Naoia": 4246,
  "\u2581San": 4247,
  "\u2581asks": 4248,
  "\u2581attain": 4249,
  "\u2581inherit": 4250,
  "\u2581niuwan": 4251,
  "\u2581reputation": 4252,
  "\u2581resources": 4253,
  "\u2581En": 4254,
  "\u2581TALEM": 4255,
  "\u2581V": 4256,
  "\u2581development": 4257,
  "\u2581enable": 4258,
  "\u2581factor": 4259,
  "\u2581lovingly": 4260,
  "\u2581skills": 4261,
  "\u2581sorts": 4262,
  "\u2581thanks": 4263,
  "\u2581ungodly": 4264,
  "\u2581victory": 4265,
  "\u2581visits": 4266,
  "\u25811995": 4267,
  "\u2581Source": 4268,
  "\u2581audience": 4269,
  "\u2581guilty": 4270,
  "\u2581instructed": 4271,
  "\u2581painful": 4272,
  "\u2581paying": 4273,
  "\u2581scientists": 4274,
  "\u2581spirits": 4275,
  "\u2581tempted": 4276,
  "\u2581warns": 4277,
  "os": 4278,
  "ous": 4279,
  "\u25812001": 4280,
  "\u2581Asiria": 4281,
  "\u2581brief": 4282,
  "\u2581hell": 4283,
  "\u2581opposers": 4284,
  "\u2581upbuilding": 4285,
  "\u2581wholesome": 4286,
  "with": 4287,
  "\u2581Notice": 4288,
  "\u2581drug": 4289,
  "\u2581judicial": 4290,
  "\u2581officials": 4291,
  "\u2581pleasant": 4292,
  "\u2581pleasing": 4293,
  "\u2581speseli": 4294,
  "\u2581tras": 4295,
  "\u2581unrighteous": 4296,
  "\u2581welfare": 4297,
  "for": 4298,
  "not": 4299,
  "\u2581Yok": 4300,
  "\u2581communicate": 4301,
  "\u2581gradually": 4302,
  "\u2581narasaed": 4303,
  "\u2581tests": 4304,
  "\u2581tobacco": 4305,
  "\u2581Asa": 4306,
  "\u2581flat": 4307,
  "\u2581kaliko": 4308,
  "\u2581singaotem": 4309,
  "\u2581suddenly": 4310,
  "\u2581touch": 4311,
  "\u2581wisely": 4312,
  "\u2581River": 4313,
  "\u2581SONGS": 4314,
  "\u2581Spain": 4315,
  "\u2581differences": 4316,
  "\u2581flee": 4317,
  "\u2581marked": 4318,
  "\u2581moves": 4319,
  "\u258120]": 4320,
  "\u258124)": 4321,
  "\u2581British": 4322,
  "\u2581February": 4323,
  "\u2581Intenet": 4324,
  "\u2581Kongregesen": 4325,
  "\u2581Says": 4326,
  "\u2581divided": 4327,
  "\u2581ears": 4328,
  "\u2581tradition": 4329,
  "\u2581translations": 4330,
  "\u2581unless": 4331,
  "\u2581Amagedon": 4332,
  "\u2581Jonathan": 4333,
  "\u2581Mane": 4334,
  "\u2581Niuspepa": 4335,
  "\u2581ansarem": 4336,
  "\u2581begins": 4337,
  "\u2581otherwise": 4338,
  "\u2581science": 4339,
  "laekem": 4340,
  "\u2581Jud": 4341,
  "\u2581Lidim": 4342,
  "\u2581Spiritual": 4343,
  "\u2581atmosphere": 4344,
  "\u2581career": 4345,
  "\u2581enjoying": 4346,
  "\u2581inclined": 4347,
  "\u2581memory": 4348,
  "\u2581mourning": 4349,
  "\u2581property": 4350,
  "\u2581royal": 4351,
  "\u2581acknowledge": 4352,
  "\u2581attempt": 4353,
  "\u2581bildimap": 4354,
  "\u2581frequently": 4355,
  "\u2581jealousy": 4356,
  "\u2581lowly": 4357,
  "\u2581services": 4358,
  "\u2581Britannica": 4359,
  "\u2581Eksplenem": 4360,
  "\u2581Hezekiah": 4361,
  "\u2581Philip": 4362,
  "\u2581Pris": 4363,
  "\u2581Show": 4364,
  "\u2581Stampa": 4365,
  "\u2581context": 4366,
  "\u2581foot": 4367,
  "\u2581huge": 4368,
  "\u2581mistake": 4369,
  "\u2581newly": 4370,
  "\u2581reign": 4371,
  "\u2581satisfied": 4372,
  "\u2581suggest": 4373,
  "\u2581sustain": 4374,
  "si": 4375,
  "slef": 4376,
  "\u2581150": 4377,
  "\u2581Arena": 4378,
  "\u2581WHO": 4379,
  "\u2581burning": 4380,
  "\u2581everywhere": 4381,
  "\u2581extended": 4382,
  "\u2581fiksimap": 4383,
  "\u2581inherited": 4384,
  "\u2581miracle": 4385,
  "\u2581p": 4386,
  "\u2581reap": 4387,
  "\u2581river": 4388,
  "\u2581site": 4389,
  "\u2581Elders": 4390,
  "\u2581West": 4391,
  "\u2581Zephaniah": 4392,
  "\u2581annual": 4393,
  "\u2581cast": 4394,
  "\u2581empty": 4395,
  "\u2581finish": 4396,
  "\u2581folemgud": 4397,
  "\u2581gotru": 4398,
  "\u2581passing": 4399,
  "\u2581sayentis": 4400,
  "\u2581surface": 4401,
  "\u2581trusted": 4402,
  "\u2581weakness": 4403,
  "\u25811,000": 4404,
  "\u2581120": 4405,
  "\u25811939": 4406,
  "\u2581Habakuk": 4407,
  "\u2581Way": 4408,
  "\u2581abandon": 4409,
  "\u2581alert": 4410,
  "\u2581bak": 4411,
  "\u2581calm": 4412,
  "\u2581depends": 4413,
  "\u2581houses": 4414,
  "\u2581listeners": 4415,
  "\u2581traits": 4416,
  "\u2581Don": 4417,
  "\u2581Jude": 4418,
  "\u2581dark": 4419,
  "\u2581distance": 4420,
  "\u2581gather": 4421,
  "\u2581tested": 4422,
  "Oli": 4423,
  "our": 4424,
  "\u2581Report": 4425,
  "\u2581beast": 4426,
  "\u2581completed": 4427,
  "\u2581doctors": 4428,
  "\u2581fallen": 4429,
  "\u2581guided": 4430,
  "\u2581guilt": 4431,
  "\u2581soil": 4432,
  "\u2581Human": 4433,
  "\u2581Sik": 4434,
  "\u2581accompany": 4435,
  "\u2581adres": 4436,
  "\u2581birds": 4437,
  "\u2581ethnic": 4438,
  "\u2581existed": 4439,
  "\u2581finds": 4440,
  "\u2581klok": 4441,
  "\u2581played": 4442,
  "\u2581preced": 4443,
  "\u2581wrongdoing": 4444,
  "\u2581\u25c6": 4445,
  "ism": 4446,
  "\u25811930": 4447,
  "\u25811945": 4448,
  "\u2581Martin": 4449,
  "\u2581Plan": 4450,
  "\u2581limit": 4451,
  "\u2581observes": 4452,
  "\u2581primarily": 4453,
  "\u2581talks": 4454,
  "\u2581won": 4455,
  "ies": 4456,
  "ized": 4457,
  "li": 4458,
  "\u2581Aelan": 4459,
  "\u2581Egyptian": 4460,
  "\u2581Fear": 4461,
  "\u2581accepting": 4462,
  "\u2581afterward": 4463,
  "\u2581flasem": 4464,
  "\u2581judges": 4465,
  "\u2581menet": 4466,
  "\u2581minutes": 4467,
  "\u2581northern": 4468,
  "\u2581patiently": 4469,
  "mi": 4470,
  "\u2581Marriage": 4471,
  "\u2581headquarters": 4472,
  "\u2581terrible": 4473,
  "BY": 4474,
  "\u2581Besides": 4475,
  "\u2581Eron": 4476,
  "\u2581North": 4477,
  "\u2581Presen": 4478,
  "\u2581Trust": 4479,
  "\u2581associates": 4480,
  "\u2581attacks": 4481,
  "\u2581commands": 4482,
  "\u2581drawing": 4483,
  "\u2581dying": 4484,
  "\u2581hardly": 4485,
  "\u2581kafsaedem": 4486,
  "\u2581leader": 4487,
  "\u2581obeying": 4488,
  "\u2581paragraph": 4489,
  "\u2581preparing": 4490,
  "onagud": 4491,
  "\u2581Laswan": 4492,
  "\u2581Nathan": 4493,
  "\u2581adopt": 4494,
  "\u2581appeal": 4495,
  "\u2581blu": 4496,
  "\u2581dedbodi": 4497,
  "\u2581except": 4498,
  "\u2581grasp": 4499,
  "\u2581historical": 4500,
  "\u2581motives": 4501,
  "\u2581shortly": 4502,
  "mo": 4503,
  "\u258128;": 4504,
  "\u258156": 4505,
  "\u2581Granted": 4506,
  "\u2581Yusum": 4507,
  "\u2581benefited": 4508,
  "\u2581blame": 4509,
  "\u2581immortal": 4510,
  "\u2581kompiuta": 4511,
  "\u2581mita": 4512,
  "\u2581significance": 4513,
  "\u25811940": 4514,
  "\u258119]": 4515,
  "\u2581COVER": 4516,
  "\u2581Gentiles": 4517,
  "\u2581chance": 4518,
  "\u2581charge": 4519,
  "\u2581dream": 4520,
  "\u2581generally": 4521,
  "\u2581harsh": 4522,
  "\u2581leaves": 4523,
  "\u2581permanent": 4524,
  "\u2581plague": 4525,
  "\u2581smoke": 4526,
  "\u2581tear": 4527,
  "lo": 4528,
  "\u2581Esra": 4529,
  "\u2581bag": 4530,
  "\u2581disasters": 4531,
  "\u2581meek": 4532,
  "\u2581ne": 4533,
  "\u2581proceeded": 4534,
  "\u2581reads": 4535,
  "\u2581symbolic": 4536,
  "\u2581universal": 4537,
  "\u2581wondered": 4538,
  "To": 4539,
  "\u258183": 4540,
  "\u2581Court": 4541,
  "\u2581Engglis": 4542,
  "\u2581Judea": 4543,
  "\u2581Leviticus": 4544,
  "\u2581Year": 4545,
  "\u2581conviction": 4546,
  "\u2581dress": 4547,
  "\u2581rewarded": 4548,
  "\u258127]": 4549,
  "\u258152": 4550,
  "\u2581Congregation": 4551,
  "\u2581Epril": 4552,
  "\u2581Lafet": 4553,
  "\u2581MO": 4554,
  "\u2581condemned": 4555,
  "\u2581entrusted": 4556,
  "\u2581fandesen": 4557,
  "\u2581grain": 4558,
  "\u2581initiative": 4559,
  "\u2581interesting": 4560,
  "\u2581victim": 4561,
  "\u258147": 4562,
  "\u258153": 4563,
  "\u2581El": 4564,
  "\u2581agreement": 4565,
  "\u2581glorify": 4566,
  "\u2581maintaining": 4567,
  "\u2581philosophy": 4568,
  "\u2581restore": 4569,
  "\u2581stronger": 4570,
  "am": 4571,
  "\u2581employment": 4572,
  "\u2581executed": 4573,
  "\u2581solid": 4574,
  "\u2581stick": 4575,
  "BA": 4576,
  "\u2581Hop": 4577,
  "\u2581Lazarus": 4578,
  "\u2581Study": 4579,
  "\u2581believing": 4580,
  "\u2581declaring": 4581,
  "\u2581faktri": 4582,
  "\u2581fathers": 4583,
  "\u2581features": 4584,
  "\u2581gets": 4585,
  "\u2581kontrolem": 4586,
  "\u2581saenem": 4587,
  "\u2581sanbij": 4588,
  "\u2581suggests": 4589,
  "Plis": 4590,
  "\u2581Italy": 4591,
  "\u2581NO": 4592,
  "\u2581Organization": 4593,
  "\u2581Pesia": 4594,
  "\u2581Prayer": 4595,
  "\u2581clothes": 4596,
  "\u2581eternity": 4597,
  "\u2581feed": 4598,
  "\u2581south": 4599,
  "\u2581widely": 4600,
  "\u2581wit": 4601,
  "\u2581Elisa": 4602,
  "\u2581Habakkuk": 4603,
  "\u2581contain": 4604,
  "\u2581refuji": 4605,
  "Go": 4606,
  "from": 4607,
  "\u2581Jordan": 4608,
  "\u2581Luther": 4609,
  "\u2581Truly": 4610,
  "\u2581civil": 4611,
  "\u2581commandment": 4612,
  "\u2581cruel": 4613,
  "\u2581labor": 4614,
  "\u2581object": 4615,
  "\u2581proclaimers": 4616,
  "\u2581running": 4617,
  "\u2581spite": 4618,
  "\u2581tend": 4619,
  "\u2581virtue": 4620,
  "Jen": 4621,
  "ever": 4622,
  "\u2581Tyndale": 4623,
  "\u2581Wanwan": 4624,
  "\u2581acknowledged": 4625,
  "\u2581establish": 4626,
  "\u2581facing": 4627,
  "\u2581kasemsave": 4628,
  "\u2581returning": 4629,
  "\u2581samples": 4630,
  "\u2581thrown": 4631,
  "\u2581trusting": 4632,
  "H": 4633,
  "ian": 4634,
  "\u258111]": 4635,
  "\u2581AS": 4636,
  "\u2581Nazi": 4637,
  "\u2581SAVE": 4638,
  "\u2581description": 4639,
  "\u2581feature": 4640,
  "\u2581foolish": 4641,
  "\u2581maredem": 4642,
  "\u2581pictures": 4643,
  "\u2581FROM": 4644,
  "\u2581Stephen": 4645,
  "\u2581below": 4646,
  "\u2581bisop": 4647,
  "\u2581dies": 4648,
  "\u2581fofala": 4649,
  "\u2581hidden": 4650,
  "\u2581humankind": 4651,
  "\u2581ordered": 4652,
  "\u2581recreation": 4653,
  "\u2581reply": 4654,
  "\u2581scripture": 4655,
  "\u2581supposed": 4656,
  "\u2581Ostrelia": 4657,
  "\u2581aged": 4658,
  "\u2581aksiden": 4659,
  "\u2581applies": 4660,
  "\u2581cancer": 4661,
  "\u2581defend": 4662,
  "\u2581fundamental": 4663,
  "\u2581net": 4664,
  "\u2581reliable": 4665,
  "\u2581tired": 4666,
  ":\"": 4667,
  "ka": 4668,
  "\u258186": 4669,
  "\u2581Gospels": 4670,
  "\u2581Rabis": 4671,
  "\u2581Steven": 4672,
  "\u2581approaching": 4673,
  "\u2581fighting": 4674,
  "\u2581malaria": 4675,
  "\u2581tektaem": 4676,
  "\u2581texts": 4677,
  "\u2581traditional": 4678,
  "rs": 4679,
  "\u2581Unlike": 4680,
  "\u2581campaign": 4681,
  "\u2581cell": 4682,
  "\u2581heads": 4683,
  "\u2581perfection": 4684,
  "\u2581sacrificing": 4685,
  "\u2581urges": 4686,
  "ce": 4687,
  "son": 4688,
  "\u2581Babylonian": 4689,
  "\u2581bodaon": 4690,
  "\u2581equal": 4691,
  "\u2581finished": 4692,
  "\u2581fourth": 4693,
  "\u2581gained": 4694,
  "\u2581identity": 4695,
  "\u2581murder": 4696,
  "\u2581opinion": 4697,
  "\u2581photo": 4698,
  "\u2581publicly": 4699,
  "\u2581readers": 4700,
  "\u2581realm": 4701,
  "\u2581reminders": 4702,
  "\u2581repeated": 4703,
  "\u2581responsabiliti": 4704,
  "\u2581sets": 4705,
  "\u2581size": 4706,
  "\u2581sold": 4707,
  "\u2581threatened": 4708,
  "\u2581worker": 4709,
  "\u258132;": 4710,
  "\u2581Empire": 4711,
  "\u2581Fo": 4712,
  "\u2581Letem": 4713,
  "\u2581Nidim": 4714,
  "\u2581PAGE": 4715,
  "\u2581Stanap": 4716,
  "\u2581cared": 4717,
  "\u2581deaf": 4718,
  "\u2581delighted": 4719,
  "\u2581depressed": 4720,
  "\u2581repent": 4721,
  "et": 4722,
  "\u258132,": 4723,
  "\u2581mass": 4724,
  "\u2581printim": 4725,
  "\u2581refreshing": 4726,
  "\u2581searching": 4727,
  "\u2581sutum": 4728,
  "Esikel": 4729,
  "Prov": 4730,
  "keep": 4731,
  "\u2581Men": 4732,
  "\u2581Please": 4733,
  "\u2581Worship": 4734,
  "\u2581adopted": 4735,
  "\u2581camps": 4736,
  "\u2581mothers": 4737,
  "\u2581opposed": 4738,
  "\u2581scale": 4739,
  "\u2581wo": 4740,
  "\u2581Catholics": 4741,
  "\u2581Death": 4742,
  "\u2581Get": 4743,
  "\u2581Siria": 4744,
  "\u2581Up": 4745,
  "\u2581burned": 4746,
  "\u2581located": 4747,
  "\u2581ship": 4748,
  "\u2581summer": 4749,
  "\u2581surrounded": 4750,
  "\u2581weta": 4751,
  "ga": 4752,
  "\u2581Karem": 4753,
  "\u2581Laet": 4754,
  "\u2581add": 4755,
  "\u2581islands": 4756,
  "\u2581protected": 4757,
  "\u2581relate": 4758,
  "\u2581remembered": 4759,
  "\u2581supplies": 4760,
  "\u25811918": 4761,
  "\u2581Ezra": 4762,
  "\u2581Judge": 4763,
  "\u2581Kor": 4764,
  "\u2581comment": 4765,
  "\u2581crowds": 4766,
  "\u2581distant": 4767,
  "\u2581inspiring": 4768,
  "\u2581map": 4769,
  "\u2581preserve": 4770,
  "\u2581reminds": 4771,
  "\u2581throw": 4772,
  "\u2581weight": 4773,
  "&": 4774,
  "By": 4775,
  "Who": 4776,
  "\u2581139": 4777,
  "\u258173": 4778,
  "\u2581Banabas": 4779,
  "\u2581Disemba": 4780,
  "\u2581Galili": 4781,
  "\u2581Prij": 4782,
  "\u2581acquire": 4783,
  "\u2581cross": 4784,
  "\u2581cup": 4785,
  "\u2581earnestly": 4786,
  "\u2581hospitality": 4787,
  "\u2581isolated": 4788,
  "\u2581marital": 4789,
  "\u2581mates": 4790,
  "\u2581tendency": 4791,
  "G": 4792,
  "ty": 4793,
  "\u258140.": 4794,
  "\u2581Absalom": 4795,
  "\u2581Rd": 4796,
  "\u2581UN": 4797,
  "\u2581origin": 4798,
  "\u2581prophesied": 4799,
  "\u2581rock": 4800,
  "\u2581serpent": 4801,
  "\u2581Ben": 4802,
  "\u2581Olfala": 4803,
  "\u2581arms": 4804,
  "\u2581holds": 4805,
  "\u2581krosem": 4806,
  "\u2581project": 4807,
  "\u2581routine": 4808,
  "\u2581solve": 4809,
  "\u2581survived": 4810,
  "3:": 4811,
  "Namba": 4812,
  "U": 4813,
  "ccompanied": 4814,
  "\u2581104": 4815,
  "\u2581Barnabas": 4816,
  "\u2581Hope": 4817,
  "\u2581Levites": 4818,
  "\u2581admitted": 4819,
  "\u2581fears": 4820,
  "\u2581mun": 4821,
  "\u2581Dan": 4822,
  "\u2581Evidently": 4823,
  "\u2581Putum": 4824,
  "\u2581famous": 4825,
  "\u2581fitting": 4826,
  "\u2581hunger": 4827,
  "\u2581intended": 4828,
  "\u2581komplen": 4829,
  "\u2581storm": 4830,
  "\u2581titi": 4831,
  "\u2581walls": 4832,
  "\u2581Know": 4833,
  "\u2581Trastem": 4834,
  "\u2581afternoon": 4835,
  "\u2581educational": 4836,
  "\u2581priesthood": 4837,
  "\u2581ran": 4838,
  "\u2581tent": 4839,
  "\u2581traditions": 4840,
  "\u2581watching": 4841,
  "other": 4842,
  "\u25811943": 4843,
  "\u2581Judaism": 4844,
  "\u2581Master": 4845,
  "\u2581check": 4846,
  "\u2581creature": 4847,
  "\u2581examination": 4848,
  "\u2581greed": 4849,
  "\u2581happening": 4850,
  "\u2581ravemaot": 4851,
  "\u2581Divine": 4852,
  "\u2581Hindu": 4853,
  "\u2581addressed": 4854,
  "\u2581adult": 4855,
  "\u2581cells": 4856,
  "\u2581citizens": 4857,
  "\u2581kad": 4858,
  "\u2581prisoners": 4859,
  "\u2581prosperity": 4860,
  "\u2581proverb": 4861,
  "\u2581visible": 4862,
  "that": 4863,
  "un": 4864,
  "\u2581Jaena": 4865,
  "\u2581Laekem": 4866,
  "\u2581Lines": 4867,
  "\u2581Thomas": 4868,
  "\u2581accused": 4869,
  "\u2581ends": 4870,
  "\u2581images": 4871,
  "\u2581limitations": 4872,
  "\u2581numbers": 4873,
  "\u2581partner": 4874,
  "\u2581slavery": 4875,
  "\u2581submit": 4876,
  "Levitikas": 4877,
  "Your": 4878,
  "\u2581Makem": 4879,
  "\u2581Taosen": 4880,
  "\u2581Three": 4881,
  "\u2581Within": 4882,
  "\u2581bitter": 4883,
  "\u2581contained": 4884,
  "\u2581manifested": 4885,
  "\u2581pa": 4886,
  "\u2581replaced": 4887,
  "ng": 4888,
  "tingting": 4889,
  "\u2581Again": 4890,
  "\u2581Albania": 4891,
  "\u2581Draw": 4892,
  "\u2581Yunivesiti": 4893,
  "\u2581enables": 4894,
  "\u2581explanation": 4895,
  "\u2581lips": 4896,
  "\u2581officer": 4897,
  "\u2581paper": 4898,
  "F": 4899,
  "\u2581Josiah": 4900,
  "\u2581Soem": 4901,
  "\u2581Things": 4902,
  "\u2581Traehad": 4903,
  "\u2581famine": 4904,
  "\u2581female": 4905,
  "\u2581fields": 4906,
  "\u2581governing": 4907,
  "\u2581komiti": 4908,
  "\u2581politics": 4909,
  "\u2581prospects": 4910,
  "\u2581schedule": 4911,
  "1": 4912,
  "co": 4913,
  "eftemap": 4914,
  "\u258125)": 4915,
  "\u258142.": 4916,
  "\u2581Naomi": 4917,
  "\u2581Years": 4918,
  "\u2581black": 4919,
  "\u2581capable": 4920,
  "\u2581challenging": 4921,
  "\u2581expressing": 4922,
  "\u2581raising": 4923,
  "\u2581rate": 4924,
  "\u2581tax": 4925,
  "\u2581wear": 4926,
  "ta": 4927,
  "\u2581Ave": 4928,
  "\u2581Faenem": 4929,
  "\u2581Hesekia": 4930,
  "\u2581Next": 4931,
  "\u2581exert": 4932,
  "\u2581infected": 4933,
  "\u2581Eastern": 4934,
  "\u2581Zion": 4935,
  "\u2581badness": 4936,
  "\u2581halo": 4937,
  "\u2581healed": 4938,
  "\u2581sufficient": 4939,
  "\u2581treasures": 4940,
  "\u2581whereas": 4941,
  "\u25811970": 4942,
  "\u2581Eklesiastis": 4943,
  "\u2581accident": 4944,
  "\u2581admits": 4945,
  "\u2581concentration": 4946,
  "\u2581laek": 4947,
  "\u2581previous": 4948,
  "\u2581ruled": 4949,
  "\u2581title": 4950,
  "jw": 4951,
  "\u2581Albert": 4952,
  "\u2581bisnesman": 4953,
  "\u2581capacity": 4954,
  "\u2581danis": 4955,
  "\u2581execution": 4956,
  "\u2581lawlessness": 4957,
  "\u2581necessarily": 4958,
  "\u2581sending": 4959,
  "\u2581sitting": 4960,
  "\u2581unusual": 4961,
  "\u2581yoke": 4962,
  "\u2581Jew": 4963,
  "\u2581Professor": 4964,
  "\u2581Rimemba": 4965,
  "\u2581admit": 4966,
  "\u2581difficulty": 4967,
  "\u2581drew": 4968,
  "\u2581expectation": 4969,
  "\u2581lion": 4970,
  "\u2581location": 4971,
  "\u2581looks": 4972,
  "\u2581privileged": 4973,
  "\u2581respects": 4974,
  "\u2581tongues": 4975,
  "ful": 4976,
  "\u2581Jehu": 4977,
  "\u2581engaged": 4978,
  "\u2581farawe": 4979,
  "\u2581helfaea": 4980,
  "\u2581loyally": 4981,
  "\u2581rescue": 4982,
  "\u2581senses": 4983,
  "\u2581similarly": 4984,
  "\u2581willingness": 4985,
  "\u2581Close": 4986,
  "\u2581Grup": 4987,
  "\u2581Jodan": 4988,
  "\u2581Makemgud": 4989,
  "\u2581Martha": 4990,
  "\u2581Mont": 4991,
  "\u2581Review": 4992,
  "\u2581contributed": 4993,
  "\u2581debt": 4994,
  "\u2581depend": 4995,
  "\u2581discussions": 4996,
  "\u2581mine": 4997,
  "\u2581sakomsaes": 4998,
  "\u2581totally": 4999,
  "\u25812002": 5000,
  "\u2581Last": 5001,
  "\u2581Were": 5002,
  "\u2581length": 5003,
  "\u2581majik": 5004,
  "\u2581moon": 5005,
  "\u2581pregnant": 5006,
  "\u2581safeguard": 5007,
  "\u2581Drama": 5008,
  "\u2581Millions": 5009,
  "\u2581choosing": 5010,
  "\u2581detail": 5011,
  "\u2581drama": 5012,
  "\u2581fun": 5013,
  "\u2581meditation": 5014,
  "\u2581offerings": 5015,
  "\u2581spending": 5016,
  "\u2581zealously": 5017,
  "ist": 5018,
  "men": 5019,
  "\u258119;": 5020,
  "\u258161": 5021,
  "\u2581Galilee": 5022,
  "\u2581Knowledge": 5023,
  "\u2581art": 5024,
  "\u2581doubts": 5025,
  "\u2581injury": 5026,
  "\u2581lines": 5027,
  "\u2581load": 5028,
  "\u2581middle": 5029,
  "\u2581respected": 5030,
  "\u2581tabernacle": 5031,
  "his": 5032,
  "\u25811960": 5033,
  "\u2581Certainly": 5034,
  "\u2581Frank": 5035,
  "\u2581Internet": 5036,
  "\u2581Japta": 5037,
  "\u2581Joen": 5038,
  "\u2581Judges": 5039,
  "\u2581Pilate": 5040,
  "\u2581Poen": 5041,
  "\u2581Protestant": 5042,
  "\u2581Seed": 5043,
  "\u2581Sermon": 5044,
  "\u2581Which": 5045,
  "\u2581credit": 5046,
  "\u2581disobedience": 5047,
  "\u2581dry": 5048,
  "\u2581fruits": 5049,
  "\u2581hated": 5050,
  "\u2581heal": 5051,
  "\u2581pop": 5052,
  "\u2581resolved": 5053,
  "\u2581110": 5054,
  "\u2581Bodi": 5055,
  "\u2581Desemba": 5056,
  "\u2581Likely": 5057,
  "\u2581OLSEM": 5058,
  "\u2581Win": 5059,
  "\u2581coast": 5060,
  "\u2581courageously": 5061,
  "\u2581hit": 5062,
  "\u2581iron": 5063,
  "\u2581morally": 5064,
  "\u2581quiet": 5065,
  "\u2581reside": 5066,
  "\u2581sayings": 5067,
  "\u2581urgency": 5068,
  "\u2581vain": 5069,
  "z": 5070,
  "\u258128)": 5071,
  "\u2581Josaea": 5072,
  "\u2581Much": 5073,
  "\u2581Polan": 5074,
  "\u2581asleep": 5075,
  "\u2581claims": 5076,
  "\u2581dola": 5077,
  "\u2581firstborn": 5078,
  "\u2581hardships": 5079,
  "\u2581influences": 5080,
  "\u2581kinds": 5081,
  "\u2581lacking": 5082,
  "\u2581operation": 5083,
  "\u2581possibility": 5084,
  "\u2581profound": 5085,
  "\u2581programs": 5086,
  "\u2581team": 5087,
  "\u2581traket": 5088,
  "\u2581urge": 5089,
  "\u2581warfare": 5090,
  "\u2581witnessed": 5091,
  "ti": 5092,
  "\u2581Esther": 5093,
  "\u2581Faithful": 5094,
  "\u2581Orthodox": 5095,
  "\u2581desirable": 5096,
  "\u2581elements": 5097,
  "\u2581enduring": 5098,
  "\u2581foto": 5099,
  "\u2581oppose": 5100,
  "\u2581plantesin": 5101,
  "\u2581pursuit": 5102,
  "\u2581sapa": 5103,
  "\u2581satisfy": 5104,
  "\u2581schools": 5105,
  "\u2581sentence": 5106,
  "9": 5107,
  "Mo": 5108,
  "ch": 5109,
  "il": 5110,
  "\u2581Sloslo": 5111,
  "\u2581emotionally": 5112,
  "\u2581empire": 5113,
  "\u2581goats": 5114,
  "\u2581impact": 5115,
  "\u2581linked": 5116,
  "\u2581minded": 5117,
  "\u2581participate": 5118,
  "\u2581seventh": 5119,
  "pe": 5120,
  "\u2581Above": 5121,
  "\u2581Blokem": 5122,
  "\u2581Medel": 5123,
  "\u2581Richard": 5124,
  "\u2581Sevem": 5125,
  "\u2581Sista": 5126,
  "\u2581application": 5127,
  "\u2581conform": 5128,
  "\u2581kilkilim": 5129,
  "\u2581motive": 5130,
  "\u2581shine": 5131,
  "\u2581station": 5132,
  "\u2581wef": 5133,
  "\u2581yunivesiti": 5134,
  "741,": 5135,
  "\u2581Eprel": 5136,
  "\u2581Hasban": 5137,
  "\u2581Kantri": 5138,
  "\u2581Sabat": 5139,
  "\u2581limits": 5140,
  "\u2581prejudice": 5141,
  "\u2581swit": 5142,
  "\u2581volkeno": 5143,
  "Tok": 5144,
  "ical": 5145,
  "ton": 5146,
  "\u25812013": 5147,
  "\u2581Back": 5148,
  "\u2581Briten": 5149,
  "\u2581Canaan": 5150,
  "\u2581Nius": 5151,
  "\u2581Tokbaot": 5152,
  "\u2581acquainted": 5153,
  "\u2581afflicted": 5154,
  "\u2581hoped": 5155,
  "\u2581introduced": 5156,
  "\u2581sexually": 5157,
  "\u2581testimony": 5158,
  "\u2581weswan": 5159,
  "Happy": 5160,
  "\u258175": 5161,
  "\u2581Problem": 5162,
  "\u2581grant": 5163,
  "\u2581hide": 5164,
  "\u2581kleva": 5165,
  "\u2581restoration": 5166,
  "\u2581rewarding": 5167,
  "Why": 5168,
  "\u258130]": 5169,
  "\u2581Evriwan": 5170,
  "\u2581Lida": 5171,
  "\u2581baptaesem": 5172,
  "\u2581ear": 5173,
  "\u2581eg": 5174,
  "\u2581graonpot": 5175,
  "\u2581heat": 5176,
  "\u2581joyfully": 5177,
  "\u2581messages": 5178,
  "\u2581movement": 5179,
  "\u2581preserved": 5180,
  "\u2581Any": 5181,
  "\u2581Hannah": 5182,
  "\u2581Malawi": 5183,
  "\u2581Neva": 5184,
  "\u2581Po": 5185,
  "\u2581compromise": 5186,
  "\u2581declaration": 5187,
  "\u2581errors": 5188,
  "\u2581estimated": 5189,
  "\u2581handed": 5190,
  "\u2581jen": 5191,
  "\u2581likened": 5192,
  "\u2581milk": 5193,
  "\u2581obeyed": 5194,
  "\u2581plenty": 5195,
  "\u2581produces": 5196,
  "\u2581string": 5197,
  "\u2581symbol": 5198,
  "\u2581toktokgud": 5199,
  "\u2581widespread": 5200,
  "\u2581wing": 5201,
  "ward": 5202,
  "\u258164": 5203,
  "\u2581bilian": 5204,
  "\u2581bride": 5205,
  "\u2581conflicts": 5206,
  "\u2581covering": 5207,
  "\u2581desired": 5208,
  "\u2581discussing": 5209,
  "\u2581gas": 5210,
  "\u2581hair": 5211,
  "\u2581missing": 5212,
  "\u2581practiced": 5213,
  "\u2581reproach": 5214,
  "\u2581sincerely": 5215,
  "\u2581tempered": 5216,
  "\u2581tes": 5217,
  "\u2581weapons": 5218,
  "King": 5219,
  "\u2581Heart": 5220,
  "\u2581Insight": 5221,
  "\u2581Jenuware": 5222,
  "\u2581Numbers": 5223,
  "\u2581Use": 5224,
  "\u2581elsewhere": 5225,
  "\u2581fishing": 5226,
  "\u2581idols": 5227,
  "\u2581kipim": 5228,
  "\u2581melek": 5229,
  "\u2581prize": 5230,
  "\u2581rendering": 5231,
  "\u2581teenager": 5232,
  "\u2581tragic": 5233,
  "\u2581turns": 5234,
  "\u2581visitors": 5235,
  "\u2581warnings": 5236,
  "stret": 5237,
  "\u25811941": 5238,
  "\u2581Al": 5239,
  "\u2581Journal": 5240,
  "\u2581Store": 5241,
  "\u2581anxieties": 5242,
  "\u2581complex": 5243,
  "\u2581experiencing": 5244,
  "\u2581fulfilling": 5245,
  "\u2581imprisoned": 5246,
  "\u2581judged": 5247,
  "\u2581meditating": 5248,
  "\u2581pieces": 5249,
  "\u2581residents": 5250,
  "\u2581suggested": 5251,
  "\u2581Amageden": 5252,
  "\u2581Nineve": 5253,
  "\u2581Russia": 5254,
  "\u2581View": 5255,
  "\u2581Yearbook": 5256,
  "\u2581announced": 5257,
  "\u2581arrival": 5258,
  "\u2581ban": 5259,
  "\u2581continually": 5260,
  "\u2581extra": 5261,
  "\u2581faces": 5262,
  "\u2581fled": 5263,
  "\u2581objective": 5264,
  "\u2581represents": 5265,
  "\u2581strangers": 5266,
  "\u2581survey": 5267,
  "\u2581weigh": 5268,
  "ie": 5269,
  "plante": 5270,
  "vi": 5271,
  "yumi": 5272,
  "\u25811980": 5273,
  "\u2581Happiness": 5274,
  "\u2581Heb": 5275,
  "\u2581IS": 5276,
  "\u2581Komiti": 5277,
  "\u2581Otodoks": 5278,
  "\u2581Ruler": 5279,
  "\u2581Sanhedrin": 5280,
  "\u2581access": 5281,
  "\u2581belongings": 5282,
  "\u2581globe": 5283,
  "\u2581kap": 5284,
  "\u2581namely": 5285,
  "\u2581sevis": 5286,
  "\u2581solda": 5287,
  "\u2581taetel": 5288,
  "\u2581tragedy": 5289,
  "\u2581upset": 5290,
  "\u2581Enjel": 5291,
  "\u2581Le": 5292,
  "\u2581Living": 5293,
  "\u2581computer": 5294,
  "\u2581conversations": 5295,
  "\u2581deeper": 5296,
  "\u2581defense": 5297,
  "\u2581exciting": 5298,
  "\u2581fresh": 5299,
  "\u2581hopes": 5300,
  "\u2581method": 5301,
  "\u2581permission": 5302,
  "\u2581previously": 5303,
  "\u2581silent": 5304,
  "\u2581statements": 5305,
  "\u2581worry": 5306,
  "\u258197": 5307,
  "\u2581Committee": 5308,
  "\u2581avoided": 5309,
  "\u2581bang": 5310,
  "\u2581celebration": 5311,
  "\u2581changing": 5312,
  "\u2581eagerly": 5313,
  "\u2581figure": 5314,
  "\u2581hungry": 5315,
  "\u2581mekemgud": 5316,
  "\u2581n": 5317,
  "\u2581neutral": 5318,
  "\u2581outlook": 5319,
  "\u2581portion": 5320,
  "\u2581reasoned": 5321,
  "\u2581refugees": 5322,
  "\u2581wood": 5323,
  "ah": 5324,
  "ant": 5325,
  "ish": 5326,
  "\u2581Fri": 5327,
  "\u2581Laen": 5328,
  "\u2581Russian": 5329,
  "\u2581Taon": 5330,
  "\u2581continuing": 5331,
  "\u2581east": 5332,
  "\u2581flood": 5333,
  "\u2581hotel": 5334,
  "\u2581media": 5335,
  "\u2581printing": 5336,
  "\u2581smael": 5337,
  "\u2581soldier": 5338,
  "\u2581uphold": 5339,
  "\u2581vow": 5340,
  "ING": 5341,
  "laef": 5342,
  "\u2581FOR": 5343,
  "\u2581JEOVA": 5344,
  "\u2581Talmud": 5345,
  "\u2581Women": 5346,
  "\u2581deserve": 5347,
  "\u2581earnest": 5348,
  "\u2581forgiven": 5349,
  "\u2581friendly": 5350,
  "\u2581hates": 5351,
  "\u2581pasta": 5352,
  "\u2581prais": 5353,
  "\u2581wheat": 5354,
  "gudfala": 5355,
  "\u258127)": 5356,
  "\u2581Athens": 5357,
  "\u2581Dore": 5358,
  "\u2581badly": 5359,
  "\u2581bilyan": 5360,
  "\u2581boat": 5361,
  "\u2581eliminate": 5362,
  "\u2581exercised": 5363,
  "\u2581informed": 5364,
  "\u2581pornography": 5365,
  "\u2581regret": 5366,
  "\u2581space": 5367,
  "\u2581spring": 5368,
  "\u2581strike": 5369,
  "\u2581unbeliev": 5370,
  "\u2581(4)": 5371,
  "\u25812003": 5372,
  "\u258133:": 5373,
  "\u2581Agensem": 5374,
  "\u2581Bill": 5375,
  "\u2581Interestingly": 5376,
  "\u2581Making": 5377,
  "\u2581Right": 5378,
  "\u2581achieve": 5379,
  "\u2581advancement": 5380,
  "\u2581draevem": 5381,
  "\u2581fingga": 5382,
  "\u2581games": 5383,
  "\u2581hang": 5384,
  "\u2581illustrated": 5385,
  "\u2581lektrik": 5386,
  "\u2581observing": 5387,
  "\u2581practicing": 5388,
  "of": 5389,
  "\u25811947": 5390,
  "\u2581Nabal": 5391,
  "\u2581Republic": 5392,
  "\u2581exchange": 5393,
  "\u2581favorable": 5394,
  "\u2581maturity": 5395,
  "\u2581oppression": 5396,
  "\u2581patriarch": 5397,
  "\u2581peaceable": 5398,
  "\u2581plain": 5399,
  "\u2581volunteers": 5400,
  "losing": 5401,
  "\u2581Karen": 5402,
  "\u2581Museum": 5403,
  "\u2581Pet": 5404,
  "\u2581Walk": 5405,
  "\u2581amazing": 5406,
  "\u2581blak": 5407,
  "\u2581equipped": 5408,
  "\u2581peer": 5409,
  "\u2581presents": 5410,
  "\u2581safety": 5411,
  "de": 5412,
  "there": 5413,
  "\u2581Barak": 5414,
  "\u2581Become": 5415,
  "\u2581Priest": 5416,
  "\u2581Proclaimers": 5417,
  "\u2581Rebeka": 5418,
  "\u2581angelic": 5419,
  "\u2581cried": 5420,
  "\u2581festival": 5421,
  "\u2581hel": 5422,
  "\u2581incident": 5423,
  "\u2581obtained": 5424,
  "\u2581phone": 5425,
  "\u2581plants": 5426,
  "\u2581refreshment": 5427,
  "\u2581widows": 5428,
  "Josua": 5429,
  "gainst": 5430,
  "\u2581Hib": 5431,
  "\u2581Holem": 5432,
  "\u2581Photo": 5433,
  "\u2581Pulum": 5434,
  "\u2581Rehab": 5435,
  "\u2581depth": 5436,
  "\u2581exact": 5437,
  "\u2581keagud": 5438,
  "\u2581lower": 5439,
  "\u2581medicine": 5440,
  "\u2581rebellious": 5441,
  "\u2581requirement": 5442,
  "\u2581stones": 5443,
  "Eklesiastis": 5444,
  "Les": 5445,
  "Pikinini": 5446,
  "\u2581600": 5447,
  "\u2581Simon": 5448,
  "\u2581alcoholic": 5449,
  "\u2581author": 5450,
  "\u2581comforted": 5451,
  "\u2581intimate": 5452,
  "\u2581outcry": 5453,
  "\u2581prefer": 5454,
  "\u2581smasem": 5455,
  "\u2581stands": 5456,
  "\u2581twice": 5457,
  "\u2581undergo": 5458,
  "\u2581urgent": 5459,
  "\u2581146": 5460,
  "\u258129)": 5461,
  "\u2581Consequently": 5462,
  "\u2581Itiopia": 5463,
  "\u2581Smith": 5464,
  "\u2581Tekem": 5465,
  "\u2581Viewpoint": 5466,
  "\u2581comfortable": 5467,
  "\u2581demands": 5468,
  "\u2581eli": 5469,
  "\u2581jobs": 5470,
  "\u2581marriages": 5471,
  "\u2581qualify": 5472,
  "\u2581starting": 5473,
  "Aes": 5474,
  "hemia": 5475,
  "new": 5476,
  "\u2581Hana": 5477,
  "\u2581Lasaros": 5478,
  "\u2581anti": 5479,
  "\u2581comparison": 5480,
  "\u2581dedicate": 5481,
  "\u2581distributed": 5482,
  "\u2581doors": 5483,
  "\u2581drive": 5484,
  "\u2581fought": 5485,
  "\u2581immediate": 5486,
  "\u2581items": 5487,
  "\u2581resort": 5488,
  "\u2581rewards": 5489,
  "\u2581silva": 5490,
  "\u2581southern": 5491,
  "\u2581surprising": 5492,
  "\u2581Additionally": 5493,
  "\u2581Creation": 5494,
  "\u2581Lesen": 5495,
  "\u2581Wisdom": 5496,
  "\u2581beat": 5497,
  "\u2581billions": 5498,
  "\u2581cloud": 5499,
  "\u2581concept": 5500,
  "\u2581encounter": 5501,
  "\u2581exile": 5502,
  "\u2581impression": 5503,
  "\u2581komuniti": 5504,
  "\u2581neglect": 5505,
  "\u2581periods": 5506,
  "\u2581producing": 5507,
  "\u2581sotfala": 5508,
  "\u2581talked": 5509,
  "\u2581wealthy": 5510,
  "Franis": 5511,
  "age": 5512,
  "good": 5513,
  "kam": 5514,
  "\u2581130": 5515,
  "\u25812004": 5516,
  "\u2581Elihu": 5517,
  "\u2581Helt": 5518,
  "\u2581Jajes": 5519,
  "\u2581Light": 5520,
  "\u2581Near": 5521,
  "\u2581Samaritan": 5522,
  "\u2581TINGBAOT": 5523,
  "\u2581Try": 5524,
  "\u2581apostate": 5525,
  "\u2581effectively": 5526,
  "\u2581initial": 5527,
  "\u2581openly": 5528,
  "\u2581peers": 5529,
  "\u2581rage": 5530,
  "\u2581streets": 5531,
  "\u2581translesen": 5532,
  "\u2581wel": 5533,
  "Masta": 5534,
  "proving": 5535,
  "\u2581Aninit": 5536,
  "\u2581central": 5537,
  "\u2581duties": 5538,
  "\u2581feeding": 5539,
  "\u2581mid": 5540,
  "\u2581researchers": 5541,
  "\u2581unexpected": 5542,
  "Yes": 5543,
  "ance": 5544,
  "tabu": 5545,
  "\u25811946": 5546,
  "\u2581Dead": 5547,
  "\u2581IT": 5548,
  "\u2581Jean": 5549,
  "\u2581Learning": 5550,
  "\u2581Stretem": 5551,
  "\u2581bones": 5552,
  "\u2581botel": 5553,
  "\u2581cultures": 5554,
  "\u2581extraordinary": 5555,
  "\u2581immortality": 5556,
  "\u2581obstacles": 5557,
  "\u2581recognition": 5558,
  "\u2581separated": 5559,
  "\u2581shepherding": 5560,
  "\u2581sources": 5561,
  "\u2581suicide": 5562,
  "\u2581trade": 5563,
  "\u2581voluntary": 5564,
  "\u2581weather": 5565,
  "Samting": 5566,
  "save": 5567,
  "\u258110,000": 5568,
  "\u258131;": 5569,
  "\u2581Everyone": 5570,
  "\u2581Haremgud": 5571,
  "\u2581Need": 5572,
  "\u2581Sabbath": 5573,
  "\u2581Table": 5574,
  "\u2581Waef": 5575,
  "\u2581aes": 5576,
  "\u2581begun": 5577,
  "\u2581cultivating": 5578,
  "\u2581despair": 5579,
  "\u2581evolusen": 5580,
  "\u2581income": 5581,
  "\u2581katemaot": 5582,
  "\u2581proclaim": 5583,
  "\u2581promotes": 5584,
  "\u2581records": 5585,
  "\u2581reduce": 5586,
  "\u2581scientific": 5587,
  "\u2581shoulder": 5588,
  "\u2581telephone": 5589,
  "\u2581windo": 5590,
  "\u2581yok": 5591,
  "Engglis": 5592,
  "ally": 5593,
  "day": 5594,
  "\u25812012": 5595,
  "\u2581Alexander": 5596,
  "\u2581Bos": 5597,
  "\u2581Coliseum": 5598,
  "\u2581Constantine": 5599,
  "\u2581Japanese": 5600,
  "\u2581appealing": 5601,
  "\u2581considerable": 5602,
  "\u2581fault": 5603,
  "\u2581helper": 5604,
  "\u2581jealous": 5605,
  "\u2581positions": 5606,
  "\u2581publisher": 5607,
  "\u2581tim": 5608,
  "\u2581tract": 5609,
  "\u2581weekly": 5610,
  "2:": 5611,
  "mp": 5612,
  "ts": 5613,
  "\u2581Ogenaesesen": 5614,
  "\u2581Pacific": 5615,
  "\u2581Saeon": 5616,
  "\u2581diksonari": 5617,
  "\u2581earthquakes": 5618,
  "\u2581kalja": 5619,
  "\u2581kingdoms": 5620,
  "\u2581pembak": 5621,
  "\u2581pick": 5622,
  "\u2581pity": 5623,
  "W": 5624,
  "disfellowshipped": 5625,
  "\u2581Avoid": 5626,
  "\u2581Especially": 5627,
  "\u2581Kaen": 5628,
  "\u2581code": 5629,
  "\u2581commented": 5630,
  "\u2581emphasized": 5631,
  "\u2581engaging": 5632,
  "\u2581larger": 5633,
  "\u2581maintained": 5634,
  "\u2581sefgud": 5635,
  "\u2581steadfast": 5636,
  "AL": 5637,
  "FALA": 5638,
  "\u25811919,": 5639,
  "\u2581End": 5640,
  "\u2581Gel": 5641,
  "\u2581Longfala": 5642,
  "\u2581Put": 5643,
  "\u2581Tangkiu": 5644,
  "\u2581Teacher": 5645,
  "\u2581WHEN": 5646,
  "\u2581bright": 5647,
  "\u2581handling": 5648,
  "\u2581honesty": 5649,
  "\u2581pursuits": 5650,
  "\u2581reflects": 5651,
  "\u2581sorrow": 5652,
  "\u2581survivors": 5653,
  "ca": 5654,
  "\u258157": 5655,
  "\u2581Ana": 5656,
  "\u2581Jonatan": 5657,
  "\u2581cleansed": 5658,
  "\u2581crown": 5659,
  "\u2581entirely": 5660,
  "\u2581exemplary": 5661,
  "\u2581folfoldaon": 5662,
  "\u2581headship": 5663,
  "\u2581obvious": 5664,
  "\u2581proves": 5665,
  "\u2581range": 5666,
  "\u2581sinner": 5667,
  "\u2581thrilling": 5668,
  "Bifo": 5669,
  "L": 5670,
  "\u258114]": 5671,
  "\u2581Ebram": 5672,
  "\u2581Ripablik": 5673,
  "\u2581apostasy": 5674,
  "\u2581assemblies": 5675,
  "\u2581baden": 5676,
  "\u2581convey": 5677,
  "\u2581cooperate": 5678,
  "\u2581counseled": 5679,
  "\u2581disappointed": 5680,
  "\u2581grep": 5681,
  "\u2581impart": 5682,
  "\u2581killing": 5683,
  "\u2581lasdei": 5684,
  "\u2581loose": 5685,
  "\u2581passage": 5686,
  "\u2581paths": 5687,
  "\u2581preachers": 5688,
  "\u2581qe": 5689,
  "\u2581scribes": 5690,
  "\u2581settle": 5691,
  "\u2581settled": 5692,
  "\u2581temper": 5693,
  "ine": 5694,
  "ul": 5695,
  "\u2581Jos\u00e9": 5696,
  "\u2581Published": 5697,
  "\u2581Rahab": 5698,
  "\u2581bought": 5699,
  "\u2581di": 5700,
  "\u2581friendships": 5701,
  "\u2581insens": 5702,
  "\u2581judgments": 5703,
  "\u2581laki": 5704,
  "\u2581miraculously": 5705,
  "\u2581parallel": 5706,
  "\u2581press": 5707,
  "\u2581survival": 5708,
  "\u2581tebel": 5709,
  "\u2581transletem": 5710,
  "\u25811942": 5711,
  "\u2581GAT": 5712,
  "\u2581adjustments": 5713,
  "\u2581endless": 5714,
  "\u2581era": 5715,
  "\u2581foremost": 5716,
  "\u2581gatherings": 5717,
  "\u2581haughty": 5718,
  "\u2581insects": 5719,
  "\u2581latter": 5720,
  "\u2581materially": 5721,
  "\u2581risal": 5722,
  "\u2581steal": 5723,
  "\u2581unfaithful": 5724,
  "\u2581whenever": 5725,
  "\u25811949": 5726,
  "\u2581Courtesy": 5727,
  "\u2581District": 5728,
  "\u2581Egyptians": 5729,
  "\u2581Pop": 5730,
  "\u2581Rwanda": 5731,
  "\u2581childhood": 5732,
  "\u2581miss": 5733,
  "\u2581opinions": 5734,
  "\u2581sell": 5735,
  "\u2581surrounding": 5736,
  "\u2581trustworthy": 5737,
  "8": 5738,
  "Nating": 5739,
  "\u258131)": 5740,
  "\u2581Easter": 5741,
  "\u2581Gabriel": 5742,
  "\u2581Jes": 5743,
  "\u2581Olsemia": 5744,
  "\u2581Self": 5745,
  "\u2581awaiting": 5746,
  "\u2581climate": 5747,
  "\u2581floor": 5748,
  "\u2581forest": 5749,
  "\u2581hoping": 5750,
  "\u2581pikimap": 5751,
  "\u2581saving": 5752,
  "\u2581spreading": 5753,
  "\u2581tumora": 5754,
  "po": 5755,
  "\u258126)": 5756,
  "\u2581Filip": 5757,
  "\u2581Hit": 5758,
  "\u2581Lis": 5759,
  "\u2581Stadium": 5760,
  "\u2581akseden": 5761,
  "\u2581bears": 5762,
  "\u2581current": 5763,
  "\u2581director": 5764,
  "\u2581drop": 5765,
  "\u2581eksasaes": 5766,
  "\u2581follows": 5767,
  "\u2581hypocrisy": 5768,
  "\u2581lifetime": 5769,
  "\u2581meantime": 5770,
  "\u2581prime": 5771,
  "\u2581proclaimed": 5772,
  "\u2581snare": 5773,
  "\u2581strange": 5774,
  "\u2581suitable": 5775,
  "\u2581temptations": 5776,
  "ci": 5777,
  "ten": 5778,
  "\u25811938": 5779,
  "\u25811951": 5780,
  "\u2581Abram": 5781,
  "\u2581Had": 5782,
  "\u2581Knowing": 5783,
  "\u2581Paelat": 5784,
  "\u2581Potugal": 5785,
  "\u2581Rebekah": 5786,
  "\u2581arose": 5787,
  "\u2581believer": 5788,
  "\u2581crisis": 5789,
  "\u2581cure": 5790,
  "\u2581diligent": 5791,
  "\u2581earthquake": 5792,
  "\u2581enitaem": 5793,
  "\u2581gaining": 5794,
  "\u2581haftaem": 5795,
  "\u2581ignored": 5796,
  "\u2581increasingly": 5797,
  "\u2581loea": 5798,
  "\u2581pleasures": 5799,
  "\u2581proveb": 5800,
  "\u2581thoroughly": 5801,
  "\u2581tut": 5802,
  "they": 5803,
  "\u258145.": 5804,
  "\u2581Elizabeth": 5805,
  "\u2581Mining": 5806,
  "\u2581Sinai": 5807,
  "\u2581associations": 5808,
  "\u2581householder": 5809,
  "\u2581journal": 5810,
  "\u2581permitted": 5811,
  "\u2581receives": 5812,
  "\u2581specifically": 5813,
  "\u2581systems": 5814,
  "\u2581ti": 5815,
  "\u2581unwise": 5816,
  "\u2581virtual": 5817,
  "id": 5818,
  "ko": 5819,
  "\u2581Contents": 5820,
  "\u2581Leader": 5821,
  "\u2581Mom": 5822,
  "\u2581PLANTE": 5823,
  "\u2581Shepherd": 5824,
  "\u2581Theocratic": 5825,
  "\u2581Tiokratik": 5826,
  "\u2581ages": 5827,
  "\u2581ashamed": 5828,
  "\u2581ate": 5829,
  "\u2581doctrines": 5830,
  "\u2581eskius": 5831,
  "\u2581experts": 5832,
  "\u2581flag": 5833,
  "\u2581formerly": 5834,
  "\u2581highlight": 5835,
  "\u2581honesthearted": 5836,
  "\u2581minor": 5837,
  "\u2581resurrect": 5838,
  "\u2581skulgud": 5839,
  "\u2581status": 5840,
  "\u2581strongly": 5841,
  "\u2581tritmen": 5842,
  "\u2581types": 5843,
  "537": 5844,
  "\u2581(\"": 5845,
  "\u2581Atens": 5846,
  "\u2581Joy": 5847,
  "\u2581Rula": 5848,
  "\u2581buildings": 5849,
  "\u2581exhortation": 5850,
  "\u2581fiery": 5851,
  "\u2581gem": 5852,
  "\u2581occurs": 5853,
  "\u2581permit": 5854,
  "\u2581productive": 5855,
  "\u2581replace": 5856,
  "\u2581sanctified": 5857,
  "\u2581spiritism": 5858,
  "\u2581stilman": 5859,
  "\u2581transferred": 5860,
  "\u25811988": 5861,
  "\u2581HEM": 5862,
  "\u2581Simeon": 5863,
  "\u2581absolutely": 5864,
  "\u2581cease": 5865,
  "\u2581demand": 5866,
  "\u2581developments": 5867,
  "\u2581donations": 5868,
  "\u2581execute": 5869,
  "\u2581intelligent": 5870,
  "\u2581kukum": 5871,
  "\u2581plet": 5872,
  "\u2581sap": 5873,
  "\u2581speed": 5874,
  "\u2581star": 5875,
  "most": 5876,
  "nt": 5877,
  "\u258137,": 5878,
  "\u258141.": 5879,
  "\u2581Afterward": 5880,
  "\u2581Catherine": 5881,
  "\u2581Little": 5882,
  "\u2581Spesel": 5883,
  "\u2581Wora": 5884,
  "\u2581admonished": 5885,
  "\u2581deaths": 5886,
  "\u2581filim": 5887,
  "\u2581heirs": 5888,
  "\u2581illustrates": 5889,
  "\u2581klaem": 5890,
  "\u2581playing": 5891,
  "\u2581pull": 5892,
  "\u2581sand": 5893,
  "\u2581sole": 5894,
  "\u2581species": 5895,
  "\u2581sports": 5896,
  "\u2581stesen": 5897,
  "\u2581warn": 5898,
  "\u2581Amon": 5899,
  "\u2581Antioch": 5900,
  "\u2581Distrik": 5901,
  "\u2581Lessons": 5902,
  "\u2581Western": 5903,
  "\u2581baskel": 5904,
  "\u2581character": 5905,
  "\u2581judging": 5906,
  "\u2581priority": 5907,
  "\u2581smel": 5908,
  "\u2581stumble": 5909,
  "\u2581timely": 5910,
  "\u2581virus": 5911,
  "\u2581worst": 5912,
  "OLD": 5913,
  "are": 5914,
  "fogivim": 5915,
  "les": 5916,
  "longside": 5917,
  "\u25811953": 5918,
  "\u25812008": 5919,
  "\u2581Gal": 5920,
  "\u2581Happily": 5921,
  "\u2581boldness": 5922,
  "\u2581commercial": 5923,
  "\u2581ensure": 5924,
  "\u2581gref": 5925,
  "\u2581hurtful": 5926,
  "\u2581professor": 5927,
  "\u2581staff": 5928,
  "\u2581understands": 5929,
  "\u2581unscriptural": 5930,
  "\u2581Bl": 5931,
  "\u2581Far": 5932,
  "\u2581Gog": 5933,
  "\u2581Janewari": 5934,
  "\u2581adjust": 5935,
  "\u2581conquered": 5936,
  "\u2581fair": 5937,
  "\u2581glorified": 5938,
  "\u2581host": 5939,
  "\u2581independence": 5940,
  "\u2581multitude": 5941,
  "\u2581nuclear": 5942,
  "\u2581paragraphs": 5943,
  "\u2581perfectly": 5944,
  "\u2581piece": 5945,
  "\u2581sorry": 5946,
  ">": 5947,
  "\u258146.": 5948,
  "\u2581700": 5949,
  "\u2581AND": 5950,
  "\u2581Miting": 5951,
  "\u2581Pasifik": 5952,
  "\u2581Union": 5953,
  "\u2581assume": 5954,
  "\u2581bit": 5955,
  "\u2581facilities": 5956,
  "\u2581hangem": 5957,
  "\u2581imperfections": 5958,
  "\u2581loud": 5959,
  "\u2581morality": 5960,
  "\u2581owner": 5961,
  "\u2581presentation": 5962,
  "\u2581ruf": 5963,
  "\u2581sno": 5964,
  "Bigfala": 5965,
  "let": 5966,
  "\u00e9": 5967,
  "\u25811800": 5968,
  "\u25811986": 5969,
  "\u258143.": 5970,
  "\u2581FRAN": 5971,
  "\u2581Islands": 5972,
  "\u2581MEKEM": 5973,
  "\u2581Meanwhile": 5974,
  "\u2581Obviously": 5975,
  "\u2581Reign": 5976,
  "\u2581bow": 5977,
  "\u2581color": 5978,
  "\u2581constitute": 5979,
  "\u2581convince": 5980,
  "\u2581deception": 5981,
  "\u2581discover": 5982,
  "\u2581duty": 5983,
  "\u2581extensive": 5984,
  "\u2581highlighted": 5985,
  "\u2581improper": 5986,
  "\u2581maket": 5987,
  "\u2581meals": 5988,
  "\u2581overwhelming": 5989,
  "\u2581patients": 5990,
  "\u2581pulumaot": 5991,
  "\u2581remote": 5992,
  "\u2581somewhat": 5993,
  "\u2581stage": 5994,
  "\u2581symbolized": 5995,
  "\u2581teenage": 5996,
  "Now": 5997,
  "\u2581Andrew": 5998,
  "\u2581Filistia": 5999,
  "\u2581Golden": 6000,
  "\u2581Italian": 6001,
  "\u2581Nomi": 6002,
  "\u2581arrive": 6003,
  "\u2581captivity": 6004,
  "\u2581classes": 6005,
  "\u2581crushed": 6006,
  "\u2581dating": 6007,
  "\u2581discouragement": 6008,
  "\u2581fed": 6009,
  "\u2581overwhelmed": 6010,
  "\u2581products": 6011,
  "\u2581teenagers": 6012,
  "if": 6013,
  "ivic": 6014,
  "rou": 6015,
  "\u25811931": 6016,
  "\u258159": 6017,
  "\u258169": 6018,
  "\u2581Esau": 6019,
  "\u2581Minor": 6020,
  "\u2581Nyuspepa": 6021,
  "\u2581Psalms": 6022,
  "\u2581accurately": 6023,
  "\u2581defined": 6024,
  "\u2581destructive": 6025,
  "\u2581explaining": 6026,
  "\u2581leva": 6027,
  "\u2581measures": 6028,
  "\u2581misled": 6029,
  "\u2581objects": 6030,
  "\u2581originally": 6031,
  "\u2581raonem": 6032,
  "\u2581reduced": 6033,
  "\u2581strict": 6034,
  "\u2581thinks": 6035,
  "\u2581winter": 6036,
  "\u2581Antiok": 6037,
  "\u2581Est": 6038,
  "\u2581Gentile": 6039,
  "\u2581Hagae": 6040,
  "\u2581Nineveh": 6041,
  "\u2581Spolem": 6042,
  "\u2581advanced": 6043,
  "\u2581arrives": 6044,
  "\u2581buried": 6045,
  "\u2581edition": 6046,
  "\u2581evolution": 6047,
  "\u2581farm": 6048,
  "\u2581nara": 6049,
  "\u2581seftaem": 6050,
  "\u2581sides": 6051,
  "\u2581strife": 6052,
  "\u2581striving": 6053,
  "\u2581suit": 6054,
  "\u2581talents": 6055,
  "\u2581worthless": 6056,
  "\u25811944": 6057,
  "\u25811952": 6058,
  "\u2581HAVE": 6059,
  "\u2581Kenya": 6060,
  "\u2581Meal": 6061,
  "\u2581Middle": 6062,
  "\u2581Olwe": 6063,
  "\u2581Ostrelya": 6064,
  "\u2581commendation": 6065,
  "\u2581foreigners": 6066,
  "\u2581garments": 6067,
  "\u2581la": 6068,
  "\u2581sharp": 6069,
  "\u2581stael": 6070,
  "\u2581tiny": 6071,
  "\u2581tosta": 6072,
  "ig": 6073,
  "time": 6074,
  "upreme": 6075,
  "\u2581Answered": 6076,
  "\u2581Bislama": 6077,
  "\u2581COR": 6078,
  "\u2581De": 6079,
  "\u2581Evening": 6080,
  "\u2581Las": 6081,
  "\u2581Oraet": 6082,
  "\u2581Real": 6083,
  "\u2581abusive": 6084,
  "\u2581associating": 6085,
  "\u2581diet": 6086,
  "\u2581disposition": 6087,
  "\u2581expose": 6088,
  "\u2581fifth": 6089,
  "\u2581gladly": 6090,
  "\u2581grows": 6091,
  "\u2581kliagud": 6092,
  "\u2581oversight": 6093,
  "\u2581phrase": 6094,
  "\u2581shame": 6095,
  "\u2581striking": 6096,
  "\u2581stumbling": 6097,
  "\u2581taet": 6098,
  "\u2581thereby": 6099,
  "\u2581transmitted": 6100,
  "\u2581tremendous": 6101,
  "\u2581utmost": 6102,
  "Come": 6103,
  "ate": 6104,
  "ter": 6105,
  "this": 6106,
  "\u258132]": 6107,
  "\u2581Benjamin": 6108,
  "\u2581Kaonsel": 6109,
  "\u2581Library": 6110,
  "\u2581Listen": 6111,
  "\u2581Pray": 6112,
  "\u2581Raonabaot": 6113,
  "\u2581Sinae": 6114,
  "\u2581Star": 6115,
  "\u2581awe": 6116,
  "\u2581brobrok": 6117,
  "\u2581chaste": 6118,
  "\u2581commonly": 6119,
  "\u2581dramatic": 6120,
  "\u2581earn": 6121,
  "\u2581esteem": 6122,
  "\u2581falling": 6123,
  "\u2581favorably": 6124,
  "\u2581gentle": 6125,
  "\u2581kon": 6126,
  "\u2581party": 6127,
  "\u2581preparation": 6128,
  "\u2581psalm": 6129,
  "\u2581roof": 6130,
  "ag": 6131,
  "alpem": 6132,
  "\u25817.)": 6133,
  "\u2581Disisen": 6134,
  "\u2581Graon": 6135,
  "\u2581Haggai": 6136,
  "\u2581Isa": 6137,
  "\u2581Leads": 6138,
  "\u2581Mankind": 6139,
  "\u2581Power": 6140,
  "\u2581Slef": 6141,
  "\u2581Tak": 6142,
  "\u2581Y": 6143,
  "\u2581arrest": 6144,
  "\u2581attracted": 6145,
  "\u2581banned": 6146,
  "\u2581behold": 6147,
  "\u2581confirmed": 6148,
  "\u2581confronted": 6149,
  "\u2581correction": 6150,
  "\u2581d": 6151,
  "\u2581desert": 6152,
  "\u2581educated": 6153,
  "\u2581freed": 6154,
  "\u2581hesitate": 6155,
  "\u2581highest": 6156,
  "\u2581imitating": 6157,
  "\u2581kapten": 6158,
  "\u2581largely": 6159,
  "\u2581maen": 6160,
  "\u2581mitrifala": 6161,
  "\u2581outset": 6162,
  "\u2581realistic": 6163,
  "\u2581rus": 6164,
  "\u2581stating": 6165,
  "\u2581stream": 6166,
  "\u2581washed": 6167,
  "my": 6168,
  "strong": 6169,
  "\u2581Asaf": 6170,
  "\u2581Fulap": 6171,
  "\u2581Religious": 6172,
  "\u2581Rere": 6173,
  "\u2581Studies": 6174,
  "\u2581Teaching": 6175,
  "\u2581attractive": 6176,
  "\u2581bosta": 6177,
  "\u2581cherish": 6178,
  "\u2581contributions": 6179,
  "\u2581deny": 6180,
  "\u2581emphasis": 6181,
  "\u2581expectations": 6182,
  "\u2581film": 6183,
  "\u2581inclination": 6184,
  "\u2581pentem": 6185,
  "\u2581tendencies": 6186,
  "\u2581thorough": 6187,
  "\u2581valley": 6188,
  "op": 6189,
  "tic": 6190,
  "\u258110.)": 6191,
  "\u25811985": 6192,
  "\u25811989,": 6193,
  "\u258135:": 6194,
  "\u2581Ann": 6195,
  "\u2581Archive": 6196,
  "\u2581Child": 6197,
  "\u2581Esao": 6198,
  "\u2581Fiji": 6199,
  "\u2581Neither": 6200,
  "\u2581Ro": 6201,
  "\u2581SE": 6202,
  "\u2581Speaking": 6203,
  "\u2581cleanse": 6204,
  "\u2581contribution": 6205,
  "\u2581delay": 6206,
  "\u2581detailed": 6207,
  "\u2581gohedgud": 6208,
  "\u2581modesty": 6209,
  "\u2581planning": 6210,
  "\u2581po": 6211,
  "\u2581thrilled": 6212,
  ",000,000": 6213,
  "Evri": 6214,
  "Tingting": 6215,
  "dei": 6216,
  "doubtedly": 6217,
  "ious": 6218,
  "pa": 6219,
  "\u25812005": 6220,
  "\u2581Answers": 6221,
  "\u2581Ever": 6222,
  "\u2581Nothing": 6223,
  "\u2581Toronto": 6224,
  "\u2581believes": 6225,
  "\u2581entering": 6226,
  "\u2581expensive": 6227,
  "\u2581fidim": 6228,
  "\u2581forefathers": 6229,
  "\u2581incense": 6230,
  "\u2581lift": 6231,
  "\u2581perish": 6232,
  "\u2581promoted": 6233,
  "\u2581sensitive": 6234,
  "\u2581standpoint": 6235,
  "\u2581technology": 6236,
  "ir": 6237,
  "narafala": 6238,
  "so": 6239,
  "\u25811922": 6240,
  "\u25811958": 6241,
  "\u25812010": 6242,
  "\u2581Mata": 6243,
  "\u2581Sheol": 6244,
  "\u2581backing": 6245,
  "\u2581board": 6246,
  "\u2581cooperation": 6247,
  "\u2581festivals": 6248,
  "\u2581format": 6249,
  "\u2581frustration": 6250,
  "\u2581lok": 6251,
  "\u2581mentions": 6252,
  "\u2581neutrality": 6253,
  "\u2581nil": 6254,
  "\u2581paep": 6255,
  "\u2581resentment": 6256,
  "\u2581resident": 6257,
  "\u2581respectful": 6258,
  "\u2581ridicule": 6259,
  "\u2581souled": 6260,
  "\u2581stefeket": 6261,
  "\u2581translators": 6262,
  "\u2581utterance": 6263,
  "\u2581wishes": 6264,
  "J": 6265,
  "\u2581100,000": 6266,
  "\u25812]": 6267,
  "\u2581Luksave": 6268,
  "\u2581Maintain": 6269,
  "\u2581Te": 6270,
  "\u2581apostates": 6271,
  "\u2581await": 6272,
  "\u2581belonging": 6273,
  "\u2581deceived": 6274,
  "\u2581distinguish": 6275,
  "\u2581element": 6276,
  "\u2581emperor": 6277,
  "\u2581funeral": 6278,
  "\u2581horse": 6279,
  "\u2581instruct": 6280,
  "\u2581memories": 6281,
  "\u2581organizations": 6282,
  "\u2581ta": 6283,
  "\u2581thief": 6284,
  "\u2581unknown": 6285,
  "\u2581version": 6286,
  "\u2581viewing": 6287,
  "\u2581worshiping": 6288,
  "per": 6289,
  "\u00e3o": 6290,
  "\u2581China": 6291,
  "\u2581Eric": 6292,
  "\u2581Filing": 6293,
  "\u2581Filipin": 6294,
  "\u2581HOW": 6295,
  "\u2581Lavem": 6296,
  "\u2581Ma": 6297,
  "\u2581Plato": 6298,
  "\u2581actively": 6299,
  "\u2581attempts": 6300,
  "\u2581base": 6301,
  "\u2581consult": 6302,
  "\u2581declares": 6303,
  "\u2581generosity": 6304,
  "\u2581highlights": 6305,
  "\u2581pati": 6306,
  "\u2581prior": 6307,
  "\u2581sentenced": 6308,
  "\u2581shut": 6309,
  "\u2581sowing": 6310,
  "\u2581structure": 6311,
  "\u2581taste": 6312,
  "\u2581villages": 6313,
  "\u2581waste": 6314,
  "\u2581waves": 6315,
  "74": 6316,
  "bo": 6317,
  "ilim": 6318,
  "rabis": 6319,
  "\u2581Bethlehem": 6320,
  "\u2581Boe": 6321,
  "\u2581Les": 6322,
  "\u2581armed": 6323,
  "\u2581confusion": 6324,
  "\u2581deed": 6325,
  "\u2581desperate": 6326,
  "\u2581double": 6327,
  "\u2581du": 6328,
  "\u2581feast": 6329,
  "\u2581forgotten": 6330,
  "\u2581guarantee": 6331,
  "\u2581native": 6332,
  "\u2581olive": 6333,
  "\u2581partake": 6334,
  "\u2581praised": 6335,
  "\u2581round": 6336,
  "gat": 6337,
  "ho": 6338,
  "nd": 6339,
  "was": 6340,
  "\u25811995,": 6341,
  "\u258135,": 6342,
  "\u2581Volume": 6343,
  "\u2581adversity": 6344,
  "\u2581attribute": 6345,
  "\u2581boefren": 6346,
  "\u2581catch": 6347,
  "\u2581celebrate": 6348,
  "\u2581creative": 6349,
  "\u2581deliberately": 6350,
  "\u2581fixed": 6351,
  "\u2581gross": 6352,
  "\u2581homeland": 6353,
  "\u2581offended": 6354,
  "\u2581reflecting": 6355,
  "\u2581transfusions": 6356,
  "\u2581tries": 6357,
  "\u25811948": 6358,
  "\u258138,": 6359,
  "\u258178": 6360,
  "\u2581Illustrate": 6361,
  "\u2581Lego": 6362,
  "\u2581Live": 6363,
  "\u2581Modern": 6364,
  "\u2581Samaria": 6365,
  "\u2581Thessalonica": 6366,
  "\u2581apparent": 6367,
  "\u2581centered": 6368,
  "\u2581etkwek": 6369,
  "\u2581examining": 6370,
  "\u2581flow": 6371,
  "\u2581handikap": 6372,
  "\u2581happily": 6373,
  "\u2581infant": 6374,
  "\u2581inspiration": 6375,
  "\u2581lifestyle": 6376,
  "\u2581manuscripts": 6377,
  "\u2581muvi": 6378,
  "\u2581nes": 6379,
  "\u2581owe": 6380,
  "\u2581preacher": 6381,
  "\u2581recommend": 6382,
  "\u2581refrain": 6383,
  "\u2581shield": 6384,
  "\u2581succeeded": 6385,
  "\u2581valid": 6386,
  "\u2581vot": 6387,
  "\u2581wages": 6388,
  "ik": 6389,
  "land": 6390,
  "tu": 6391,
  "\u258115.)": 6392,
  "\u2581Actually": 6393,
  "\u2581Jephthah": 6394,
  "\u2581Pres": 6395,
  "\u2581Secret": 6396,
  "\u2581branches": 6397,
  "\u2581conquer": 6398,
  "\u2581disposed": 6399,
  "\u2581enjoyment": 6400,
  "\u2581everyday": 6401,
  "\u2581haeskul": 6402,
  "\u2581j": 6403,
  "\u2581largest": 6404,
  "\u2581magnificent": 6405,
  "\u2581narrow": 6406,
  "\u2581richly": 6407,
  "\u2581stupid": 6408,
  "8:": 6409,
  "Blong": 6410,
  "\u258184": 6411,
  "\u2581Bad": 6412,
  "\u2581FASIN": 6413,
  "\u2581Lanwis": 6414,
  "\u2581Loving": 6415,
  "\u2581Obei": 6416,
  "\u2581Reading": 6417,
  "\u2581aim": 6418,
  "\u2581disappointment": 6419,
  "\u2581draon": 6420,
  "\u2581equipment": 6421,
  "\u2581greedy": 6422,
  "\u2581metal": 6423,
  "\u2581product": 6424,
  "\u2581rob": 6425,
  "\u2581sheba": 6426,
  "\u2581weeds": 6427,
  "\u2581Ancient": 6428,
  "\u2581Heven": 6429,
  "\u2581Ka": 6430,
  "\u2581Ohio": 6431,
  "\u2581Origen": 6432,
  "\u2581Paulo": 6433,
  "\u2581Press": 6434,
  "\u2581Saelas": 6435,
  "\u2581Serving": 6436,
  "\u2581Thousands": 6437,
  "\u2581abroad": 6438,
  "\u2581amazed": 6439,
  "\u2581communities": 6440,
  "\u2581criminal": 6441,
  "\u2581ease": 6442,
  "\u2581fierce": 6443,
  "\u2581gambling": 6444,
  "\u2581generations": 6445,
  "\u2581hall": 6446,
  "\u2581happier": 6447,
  "\u2581kingship": 6448,
  "\u2581leadership": 6449,
  "\u2581needy": 6450,
  "\u2581priorities": 6451,
  "\u2581saon": 6452,
  "\u2581shadow": 6453,
  "\u2581symptoms": 6454,
  "\u2581tantanem": 6455,
  "ge": 6456,
  "king": 6457,
  "\u2581\")": 6458,
  "\u2581Apparently": 6459,
  "\u2581Jesuit": 6460,
  "\u2581PSALM": 6461,
  "\u2581Praise": 6462,
  "\u2581Reflect": 6463,
  "\u2581alien": 6464,
  "\u2581heartwarming": 6465,
  "\u2581keen": 6466,
  "\u2581maj": 6467,
  "\u2581orders": 6468,
  "\u2581staying": 6469,
  "\u2581upper": 6470,
  "\u2581volontia": 6471,
  "Eks": 6472,
  "put": 6473,
  "\u2581Febuwari": 6474,
  "\u2581OLGETA": 6475,
  "\u2581Sarede": 6476,
  "\u2581THIS": 6477,
  "\u2581boldly": 6478,
  "\u2581broad": 6479,
  "\u2581commissioned": 6480,
  "\u2581devastated": 6481,
  "\u2581devastating": 6482,
  "\u2581enjoyable": 6483,
  "\u2581exercises": 6484,
  "\u2581figtri": 6485,
  "\u2581fruitful": 6486,
  "\u2581individually": 6487,
  "\u2581mistaken": 6488,
  "\u2581ordinary": 6489,
  "\u2581rapidly": 6490,
  "\u2581ripotem": 6491,
  "\u2581selected": 6492,
  "\u2581somehow": 6493,
  "\u2581tomorrow": 6494,
  "\u2581touching": 6495,
  "\u2581v": 6496,
  "New": 6497,
  "dicating": 6498,
  "\u00e6dia": 6499,
  "\u2581250": 6500,
  "\u2581Giving": 6501,
  "\u2581Herald": 6502,
  "\u2581Komunis": 6503,
  "\u2581Rachel": 6504,
  "\u2581Washington": 6505,
  "\u2581adding": 6506,
  "\u2581afford": 6507,
  "\u2581arrange": 6508,
  "\u2581beaten": 6509,
  "\u2581cited": 6510,
  "\u2581containing": 6511,
  "\u2581deadly": 6512,
  "\u2581diligently": 6513,
  "\u2581exclusive": 6514,
  "\u2581foreva": 6515,
  "\u2581materials": 6516,
  "\u2581mentally": 6517,
  "\u2581nyuwan": 6518,
  "\u2581post": 6519,
  "\u2581protects": 6520,
  "\u2581sky": 6521,
  "\u2581somap": 6522,
  "\u2581stressed": 6523,
  "\u2581submission": 6524,
  "\u2581territories": 6525,
  "\u2581turis": 6526,
  "\u2581wipim": 6527,
  "\u25811935": 6528,
  "\u25811975": 6529,
  "\u25817,000": 6530,
  "\u2581800": 6531,
  "\u258196": 6532,
  "\u2581Betlehem": 6533,
  "\u2581Hama": 6534,
  "\u2581Indian": 6535,
  "\u2581Jerome": 6536,
  "\u2581Program": 6537,
  "\u2581Prophecy": 6538,
  "\u2581TINGTING": 6539,
  "\u2581complaint": 6540,
  "\u2581contentment": 6541,
  "\u2581cutting": 6542,
  "\u2581delightful": 6543,
  "\u2581driving": 6544,
  "\u2581forbidden": 6545,
  "\u2581founded": 6546,
  "\u2581kilo": 6547,
  "\u2581meat": 6548,
  "\u2581occasionally": 6549,
  "\u2581onto": 6550,
  "\u2581pregnancy": 6551,
  "\u2581salt": 6552,
  "\u2581session": 6553,
  "\u2581struggling": 6554,
  "\u2581vessel": 6555,
  "\u2581wholeheartedly": 6556,
  "ard": 6557,
  "namba": 6558,
  "\u25811955": 6559,
  "\u25811983": 6560,
  "\u25811987": 6561,
  "\u25812000,": 6562,
  "\u2581Encyclop\u00e6dia": 6563,
  "\u2581Part": 6564,
  "\u2581Philippi": 6565,
  "\u2581Silas": 6566,
  "\u2581Sloslou": 6567,
  "\u2581arm": 6568,
  "\u2581bore": 6569,
  "\u2581confidently": 6570,
  "\u2581consist": 6571,
  "\u2581hedgavman": 6572,
  "\u2581oral": 6573,
  "\u2581prey": 6574,
  "\u2581professed": 6575,
  "\u2581protective": 6576,
  "\u2581references": 6577,
  "\u2581representative": 6578,
  "\u2581seat": 6579,
  "\u2581section": 6580,
  "\u2581seemingly": 6581,
  "\u2581snow": 6582,
  "\u2581span": 6583,
  "\u2581sustained": 6584,
  "\u2581tools": 6585,
  "\u2581unrepentant": 6586,
  "\u258117.)": 6587,
  "\u2581988": 6588,
  "\u2581California": 6589,
  "\u2581Elda": 6590,
  "\u2581GUD": 6591,
  "\u2581Haran": 6592,
  "\u2581Romania": 6593,
  "\u2581Saturday": 6594,
  "\u2581adhere": 6595,
  "\u2581commended": 6596,
  "\u2581crying": 6597,
  "\u2581domestic": 6598,
  "\u2581mainly": 6599,
  "\u2581memorial": 6600,
  "\u2581scattered": 6601,
  "\u2581t": 6602,
  "\u2581womb": 6603,
  "bak": 6604,
  "now": 6605,
  "\u25816,000": 6606,
  "\u2581Benin": 6607,
  "\u2581Branj": 6608,
  "\u2581DO": 6609,
  "\u2581Kamtru": 6610,
  "\u2581Pope": 6611,
  "\u2581b": 6612,
  "\u2581backgrounds": 6613,
  "\u2581betde": 6614,
  "\u2581creating": 6615,
  "\u2581ekspiriens": 6616,
  "\u2581exclaimed": 6617,
  "\u2581garment": 6618,
  "\u2581offense": 6619,
  "\u2581severely": 6620,
  "\u2581ultimate": 6621,
  "\u2581unbelievers": 6622,
  "\u2581wash": 6623,
  "paoa": 6624,
  "\u25811513": 6625,
  "\u25812009": 6626,
  "\u2581CA": 6627,
  "\u2581Greeks": 6628,
  "\u2581Hapi": 6629,
  "\u2581Park": 6630,
  "\u2581Tertullian": 6631,
  "\u2581acquired": 6632,
  "\u2581armor": 6633,
  "\u2581attacked": 6634,
  "\u2581burn": 6635,
  "\u2581hospitable": 6636,
  "\u2581independent": 6637,
  "\u2581motivation": 6638,
  "\u2581radyo": 6639,
  "\u2581raetsaed": 6640,
  "\u2581regulations": 6641,
  "\u2581seeds": 6642,
  "\u2581supplication": 6643,
  "\u2581transform": 6644,
  "lef": 6645,
  "sh": 6646,
  "va": 6647,
  "\u258112.)": 6648,
  "\u258198": 6649,
  "\u2581Ae": 6650,
  "\u2581Chinese": 6651,
  "\u2581Cyrus": 6652,
  "\u2581Jeroboam": 6653,
  "\u2581Lloyd": 6654,
  "\u2581Risen": 6655,
  "\u2581Unti": 6656,
  "\u2581Vulgate": 6657,
  "\u2581Worldwide": 6658,
  "\u2581captive": 6659,
  "\u2581conquest": 6660,
  "\u2581pair": 6661,
  "\u2581proclaiming": 6662,
  "\u2581purposed": 6663,
  "\u2581rentem": 6664,
  "\u2581repair": 6665,
  "\u2581seated": 6666,
  "\u2581wom": 6667,
  "Baebol": 6668,
  "ated": 6669,
  "\u2581Friend": 6670,
  "\u2581Jim": 6671,
  "\u2581Louis": 6672,
  "\u2581Ona": 6673,
  "\u2581STAP": 6674,
  "\u2581Third": 6675,
  "\u2581Wokbaot": 6676,
  "\u2581avoiding": 6677,
  "\u2581bird": 6678,
  "\u2581feared": 6679,
  "\u2581flight": 6680,
  "\u2581hardship": 6681,
  "\u2581movies": 6682,
  "\u2581partial": 6683,
  "\u2581planned": 6684,
  "\u2581raeting": 6685,
  "\u2581recommended": 6686,
  "\u2581riding": 6687,
  "\u2581unselfish": 6688,
  "\u2581yangtaem": 6689,
  "At": 6690,
  "ak": 6691,
  "ial": 6692,
  "ina": 6693,
  "love": 6694,
  "ya": 6695,
  "\u25811957": 6696,
  "\u2581Brian": 6697,
  "\u2581Department": 6698,
  "\u2581Disaepol": 6699,
  "\u2581Lesin": 6700,
  "\u2581Masedonia": 6701,
  "\u2581Nigeria": 6702,
  "\u2581Syria": 6703,
  "\u2581classmates": 6704,
  "\u2581damaged": 6705,
  "\u2581gokros": 6706,
  "\u2581gracious": 6707,
  "\u2581messengers": 6708,
  "\u2581pen": 6709,
  "\u2581perceive": 6710,
  "\u2581professional": 6711,
  "\u2581revelation": 6712,
  "\u2581sacrificed": 6713,
  "\u2581spae": 6714,
  "\u2581university": 6715,
  "\u2581visions": 6716,
  "\u2581worthwhile": 6717,
  "?...": 6718,
  "OKTO": 6719,
  "ably": 6720,
  "pi": 6721,
  "x": 6722,
  "\u258147.": 6723,
  "\u2581Antonio": 6724,
  "\u2581Humans": 6725,
  "\u2581Jusum": 6726,
  "\u2581Karl": 6727,
  "\u2581Nasaret": 6728,
  "\u2581Nebukadnesa": 6729,
  "\u2581Persian": 6730,
  "\u2581Saen": 6731,
  "\u2581Yutufala": 6732,
  "\u2581actual": 6733,
  "\u2581biaenem": 6734,
  "\u2581border": 6735,
  "\u2581breaking": 6736,
  "\u2581clay": 6737,
  "\u2581design": 6738,
  "\u2581empathy": 6739,
  "\u2581enthusiasm": 6740,
  "\u2581evangelizers": 6741,
  "\u2581funds": 6742,
  "\u2581identifie": 6743,
  "\u2581imprisonment": 6744,
  "\u2581indication": 6745,
  "\u2581missed": 6746,
  "\u2581nek": 6747,
  "\u2581remembering": 6748,
  "\u2581representatives": 6749,
  "\u2581submitt": 6750,
  "\u2581typical": 6751,
  "\u2581ultimately": 6752,
  "ER": 6753,
  "Malakae": 6754,
  "Our": 6755,
  "coming": 6756,
  "cy": 6757,
  "ists": 6758,
  "kongregesen": 6759,
  "up": 6760,
  "ut": 6761,
  "\u2581Livae": 6762,
  "\u2581Naejeria": 6763,
  "\u2581Science": 6764,
  "\u2581Standard": 6765,
  "\u2581Swiselan": 6766,
  "\u2581Whom": 6767,
  "\u2581connected": 6768,
  "\u2581disobedient": 6769,
  "\u2581distressed": 6770,
  "\u2581embrace": 6771,
  "\u2581examined": 6772,
  "\u2581immune": 6773,
  "\u2581implies": 6774,
  "\u2581oldest": 6775,
  "\u2581plelaki": 6776,
  "\u2581sado": 6777,
  "\u2581uncleanness": 6778,
  "ntenasnal": 6779,
  "\u2581'...": 6780,
  "\u2581Aes": 6781,
  "\u2581Days": 6782,
  "\u2581Education": 6783,
  "\u2581Korea": 6784,
  "\u2581Lukaotgud": 6785,
  "\u2581Ocean": 6786,
  "\u2581Poland": 6787,
  "\u2581blow": 6788,
  "\u2581card": 6789,
  "\u2581clouds": 6790,
  "\u2581commitment": 6791,
  "\u2581committing": 6792,
  "\u2581concludes": 6793,
  "\u2581cultural": 6794,
  "\u2581enjin": 6795,
  "\u2581exquisite": 6796,
  "\u2581falls": 6797,
  "\u2581guidelines": 6798,
  "\u2581market": 6799,
  "\u2581rarely": 6800,
  "\u2581reregud": 6801,
  "\u2581sil": 6802,
  "\u2581sweet": 6803,
  "\u2581truthfulness": 6804,
  "\u2581virgin": 6805,
  "\u2581worshiped": 6806,
  "Maet": 6807,
  "NS": 6808,
  "V": 6809,
  "lying": 6810,
  "\u25812007": 6811,
  "\u258195": 6812,
  "\u2581Boas": 6813,
  "\u2581Forever": 6814,
  "\u2581Island": 6815,
  "\u2581Jah": 6816,
  "\u2581Midian": 6817,
  "\u2581bae": 6818,
  "\u2581blokemgud": 6819,
  "\u2581comply": 6820,
  "\u2581crush": 6821,
  "\u2581deserves": 6822,
  "\u2581devote": 6823,
  "\u2581dropped": 6824,
  "\u2581faol": 6825,
  "\u2581imitation": 6826,
  "\u2581kemikol": 6827,
  "\u2581leprosi": 6828,
  "\u2581lifted": 6829,
  "\u2581mobaelfon": 6830,
  "\u2581noteworthy": 6831,
  "\u2581nyuklia": 6832,
  "\u2581prisoner": 6833,
  "\u2581reserved": 6834,
  "\u2581romantic": 6835,
  "\u2581selfishness": 6836,
  "\u2581sudden": 6837,
  "\u2581taxes": 6838,
  "\u2581transformed": 6839,
  "Fastaem": 6840,
  "ON": 6841,
  "\u2581148": 6842,
  "\u258162": 6843,
  "\u2581Ahab": 6844,
  "\u2581Asaph": 6845,
  "\u2581Everlasting": 6846,
  "\u2581Giaman": 6847,
  "\u2581Helen": 6848,
  "\u2581Jersey": 6849,
  "\u2581Mr": 6850,
  "\u2581composed": 6851,
  "\u2581deserving": 6852,
  "\u2581expand": 6853,
  "\u2581function": 6854,
  "\u2581klingud": 6855,
  "\u2581misunderstand": 6856,
  "\u2581nafgud": 6857,
  "\u2581pope": 6858,
  "\u2581prayerful": 6859,
  "\u2581shape": 6860,
  "\u2581transfyusen": 6861,
  "\u2581yield": 6862,
  "Christ": 6863,
  "di": 6864,
  "human": 6865,
  "ni": 6866,
  "\u2581Blad": 6867,
  "\u2581Encyclop": 6868,
  "\u2581Kora": 6869,
  "\u2581Looking": 6870,
  "\u2581Muslim": 6871,
  "\u2581Set": 6872,
  "\u2581WAS": 6873,
  "\u2581Wise": 6874,
  "\u2581babies": 6875,
  "\u2581bank": 6876,
  "\u2581correctly": 6877,
  "\u2581disastrous": 6878,
  "\u2581discourse": 6879,
  "\u2581fond": 6880,
  "\u2581ha": 6881,
  "\u2581honestly": 6882,
  "\u2581hurled": 6883,
  "\u2581ideal": 6884,
  "\u2581instrument": 6885,
  "\u2581kwin": 6886,
  "\u2581lady": 6887,
  "\u2581link": 6888,
  "\u2581normally": 6889,
  "\u2581observance": 6890,
  "\u2581pains": 6891,
  "\u2581reader": 6892,
  "\u2581repay": 6893,
  "\u2581saes": 6894,
  "\u2581spared": 6895,
  "\u2581surviving": 6896,
  "\u2581vine": 6897,
  "\u2581wave": 6898,
  "com": 6899,
  "\u2581...": 6900,
  "\u2581Central": 6901,
  "\u2581Daon": 6902,
  "\u2581Ex": 6903,
  "\u2581Fraede": 6904,
  "\u2581Thereafter": 6905,
  "\u2581WOK": 6906,
  "\u2581bottom": 6907,
  "\u2581college": 6908,
  "\u2581combined": 6909,
  "\u2581demon": 6910,
  "\u2581expelled": 6911,
  "\u2581fare": 6912,
  "\u2581hellfire": 6913,
  "\u2581mail": 6914,
  "\u2581ocean": 6915,
  "\u2581perspective": 6916,
  "\u2581plantesen": 6917,
  "\u2581qualifications": 6918,
  "\u2581rebelled": 6919,
  "\u2581regarded": 6920,
  "\u2581sacrificial": 6921,
  "\u2581sofmad": 6922,
  "\u2581tebol": 6923,
  "\u2581towns": 6924,
  "\u2581vengeance": 6925,
  "harem": 6926,
  "nointed": 6927,
  "wept": 6928,
  "woman": 6929,
  "\u2581ON": 6930,
  "\u2581Ones": 6931,
  "\u2581aloud": 6932,
  "\u2581burial": 6933,
  "\u2581condemn": 6934,
  "\u2581existing": 6935,
  "\u2581grass": 6936,
  "\u2581intentions": 6937,
  "\u2581joint": 6938,
  "\u2581koltaem": 6939,
  "\u2581logical": 6940,
  "\u2581moskito": 6941,
  "\u2581outright": 6942,
  "\u2581petitions": 6943,
  "\u2581route": 6944,
  "\u2581sleeping": 6945,
  "\u2581theory": 6946,
  "\u2581torment": 6947,
  "\u2581valued": 6948,
  "\u2581wekapgud": 6949,
  "Spanish": 6950,
  "everal": 6951,
  "za": 6952,
  "\u258163": 6953,
  "\u2581Council": 6954,
  "\u2581Edukesen": 6955,
  "\u2581Esta": 6956,
  "\u2581Friday": 6957,
  "\u2581Index": 6958,
  "\u2581ara": 6959,
  "\u2581bonds": 6960,
  "\u2581breath": 6961,
  "\u2581curse": 6962,
  "\u2581disisin": 6963,
  "\u2581exhorted": 6964,
  "\u2581fastok": 6965,
  "\u2581guests": 6966,
  "\u2581holiness": 6967,
  "\u2581merit": 6968,
  "\u2581oneself": 6969,
  "\u2581performing": 6970,
  "\u2581repented": 6971,
  "\u2581select": 6972,
  "\u2581selling": 6973,
  "\u2581smaller": 6974,
  "\u2581troops": 6975,
  "\u2581unnecessary": 6976,
  "\u2581waited": 6977,
  "\u2581wings": 6978,
  "Is": 6979,
  "With": 6980,
  "haf": 6981,
  "pikinini": 6982,
  "\u2581127": 6983,
  "\u25811900,": 6984,
  "\u2581230": 6985,
  "\u2581Baptizer": 6986,
  "\u2581Franz": 6987,
  "\u2581Into": 6988,
  "\u2581Pu": 6989,
  "\u2581abortion": 6990,
  "\u2581borne": 6991,
  "\u2581celebrated": 6992,
  "\u2581counted": 6993,
  "\u2581demanded": 6994,
  "\u2581distressing": 6995,
  "\u2581fails": 6996,
  "\u2581flocks": 6997,
  "\u2581improved": 6998,
  "\u2581offices": 6999,
  "\u2581promoting": 7000,
  "\u2581racial": 7001,
  "\u2581rising": 7002,
  "\u2581surgery": 7003,
  "\u2581unmarried": 7004,
  "\u2581welcomed": 7005,
  "ius": 7006,
  "sam": 7007,
  "vd": 7008,
  "\u25811984": 7009,
  "\u25812006": 7010,
  "\u258158": 7011,
  "\u2581Age": 7012,
  "\u2581Calvin": 7013,
  "\u2581Head": 7014,
  "\u2581Korah": 7015,
  "\u2581Lebanon": 7016,
  "\u2581Leta": 7017,
  "\u2581Regardless": 7018,
  "\u2581STADI": 7019,
  "\u2581Ur": 7020,
  "\u2581challenged": 7021,
  "\u2581deceptive": 7022,
  "\u2581directions": 7023,
  "\u2581dreams": 7024,
  "\u2581emti": 7025,
  "\u2581f": 7026,
  "\u2581favorite": 7027,
  "\u2581fearful": 7028,
  "\u2581headed": 7029,
  "\u2581hears": 7030,
  "\u2581ignorance": 7031,
  "\u2581infection": 7032,
  "\u2581lean": 7033,
  "\u2581materialistic": 7034,
  "\u2581newborn": 7035,
  "\u2581reminder": 7036,
  "\u2581roots": 7037,
  "\u2581sow": 7038,
  "\u2581stapgud": 7039,
  "\u2581twe": 7040,
  "\u2581watched": 7041,
  "\u25813.)": 7042,
  "\u258130)": 7043,
  "\u25814,000": 7044,
  "\u2581Anyone": 7045,
  "\u2581Fine": 7046,
  "\u2581Ireland": 7047,
  "\u2581Jajmen": 7048,
  "\u2581Jeftaha": 7049,
  "\u2581Jehoshaphat": 7050,
  "\u2581Philippines": 7051,
  "\u2581Weples": 7052,
  "\u2581Yunion": 7053,
  "\u2581alike": 7054,
  "\u2581arguments": 7055,
  "\u2581attempted": 7056,
  "\u2581caution": 7057,
  "\u2581charges": 7058,
  "\u2581closed": 7059,
  "\u2581comforts": 7060,
  "\u2581disorder": 7061,
  "\u2581exalted": 7062,
  "\u2581hon": 7063,
  "\u2581inform": 7064,
  "\u2581issued": 7065,
  "\u2581liar": 7066,
  "\u2581rare": 7067,
  "\u2581shock": 7068,
  "\u2581silence": 7069,
  "\u2581skrol": 7070,
  "\u2581tan": 7071,
  "\u2581target": 7072,
  "\u2581vary": 7073,
  "\u2581waestok": 7074,
  "Isrel": 7075,
  "Tru": 7076,
  "ap": 7077,
  "hearted": 7078,
  "ron": 7079,
  "\u2581147": 7080,
  "\u25811961": 7081,
  "\u2581Accordingly": 7082,
  "\u2581Caleb": 7083,
  "\u2581Future": 7084,
  "\u2581Gen": 7085,
  "\u2581Greater": 7086,
  "\u2581Hospital": 7087,
  "\u2581NARAFALA": 7088,
  "\u2581Nebuchadnezzar": 7089,
  "\u2581Nero": 7090,
  "\u2581Parabol": 7091,
  "\u2581Tutsi": 7092,
  "\u2581absolute": 7093,
  "\u2581bishop": 7094,
  "\u2581buying": 7095,
  "\u2581cured": 7096,
  "\u2581evangelizer": 7097,
  "\u2581excuse": 7098,
  "\u2581forsake": 7099,
  "\u2581graduates": 7100,
  "\u2581honorable": 7101,
  "\u2581honored": 7102,
  "\u2581naturally": 7103,
  "\u2581rap": 7104,
  "\u2581ridimaot": 7105,
  "\u2581ruins": 7106,
  "\u2581sak": 7107,
  "\u2581threw": 7108,
  "\u2581wearing": 7109,
  "thing": 7110,
  "\u25811982": 7111,
  "\u25813,500": 7112,
  "\u2581Bigwan": 7113,
  "\u2581Care": 7114,
  "\u2581Centre": 7115,
  "\u2581Ehab": 7116,
  "\u2581Eli": 7117,
  "\u2581Gett": 7118,
  "\u2581Guide": 7119,
  "\u2581Mind": 7120,
  "\u2581Money": 7121,
  "\u2581Waldenses": 7122,
  "\u2581abound": 7123,
  "\u2581apartment": 7124,
  "\u2581combat": 7125,
  "\u2581crucial": 7126,
  "\u2581demanding": 7127,
  "\u2581denied": 7128,
  "\u2581document": 7129,
  "\u2581ekonomi": 7130,
  "\u2581envy": 7131,
  "\u2581gris": 7132,
  "\u2581guards": 7133,
  "\u2581handled": 7134,
  "\u2581hiding": 7135,
  "\u2581hinder": 7136,
  "\u2581imply": 7137,
  "\u2581jam": 7138,
  "\u2581kamel": 7139,
  "\u2581palm": 7140,
  "\u2581participation": 7141,
  "\u2581responding": 7142,
  "\u2581revealing": 7143,
  "\u2581smile": 7144,
  "\u2581suagud": 7145,
  "\u2581tenderly": 7146,
  "\u2581thanksgiving": 7147,
  "\u2581translate": 7148,
  "ory": 7149,
  "some": 7150,
  "\u25811974": 7151,
  "\u258122]": 7152,
  "\u258148.": 7153,
  "\u25815,000": 7154,
  "\u2581Augustine": 7155,
  "\u2581Cornelius": 7156,
  "\u2581Februari": 7157,
  "\u2581Foldaon": 7158,
  "\u2581Jerry": 7159,
  "\u2581MAS": 7160,
  "\u2581Publications": 7161,
  "\u2581Sa": 7162,
  "\u2581Street": 7163,
  "\u2581Tom": 7164,
  "\u2581Weswe": 7165,
  "\u2581Yugoslavia": 7166,
  "\u2581booklet": 7167,
  "\u2581charged": 7168,
  "\u2581commend": 7169,
  "\u2581committee": 7170,
  "\u2581cycle": 7171,
  "\u2581escaped": 7172,
  "\u2581fiva": 7173,
  "\u2581gate": 7174,
  "\u2581gates": 7175,
  "\u2581golden": 7176,
  "\u2581lacked": 7177,
  "\u2581longing": 7178,
  "\u2581meta": 7179,
  "\u2581mission": 7180,
  "\u2581mob": 7181,
  "\u2581ongoing": 7182,
  "\u2581outer": 7183,
  "\u2581proselytes": 7184,
  "\u2581renewed": 7185,
  "\u2581safely": 7186,
  "\u2581swea": 7187,
  "\u2581tomb": 7188,
  "\u2581unreasonable": 7189,
  "\u2581106": 7190,
  "\u25811956": 7191,
  "\u258141,": 7192,
  "\u2581Bolivia": 7193,
  "\u2581Enemi": 7194,
  "\u2581Institute": 7195,
  "\u2581Jeriko": 7196,
  "\u2581Lus": 7197,
  "\u2581Maker": 7198,
  "\u2581Mountain": 7199,
  "\u2581Raet": 7200,
  "\u2581Thousand": 7201,
  "\u2581beasts": 7202,
  "\u2581befall": 7203,
  "\u2581blesses": 7204,
  "\u2581dollars": 7205,
  "\u2581flowers": 7206,
  "\u2581gossip": 7207,
  "\u2581grieving": 7208,
  "\u2581huk": 7209,
  "\u2581inexperienced": 7210,
  "\u2581instituted": 7211,
  "\u2581minute": 7212,
  "\u2581muvum": 7213,
  "\u2581nus": 7214,
  "\u2581passages": 7215,
  "\u2581progressively": 7216,
  "\u2581reasonableness": 7217,
  "\u2581remarks": 7218,
  "\u2581resting": 7219,
  "\u2581rooted": 7220,
  "\u2581sofsof": 7221,
  "\u2581spoil": 7222,
  "\u2581tenth": 7223,
  "\u2581wanting": 7224,
  "ES": 7225,
  "Mitufala": 7226,
  "Where": 7227,
  "\u2581Bath": 7228,
  "\u2581Eusebius": 7229,
  "\u2581Kastom": 7230,
  "\u2581Manase": 7231,
  "\u2581Manasseh": 7232,
  "\u2581Naesan": 7233,
  "\u2581Suppose": 7234,
  "\u2581Yukren": 7235,
  "\u2581advised": 7236,
  "\u2581argument": 7237,
  "\u2581assure": 7238,
  "\u2581besides": 7239,
  "\u2581cleansing": 7240,
  "\u2581climb": 7241,
  "\u2581dad": 7242,
  "\u2581delegates": 7243,
  "\u2581dota": 7244,
  "\u2581dressed": 7245,
  "\u2581emblems": 7246,
  "\u2581enhance": 7247,
  "\u2581forgave": 7248,
  "\u2581fuel": 7249,
  "\u2581generously": 7250,
  "\u2581height": 7251,
  "\u2581identifying": 7252,
  "\u2581justified": 7253,
  "\u2581mutual": 7254,
  "\u2581refusing": 7255,
  "\u2581sanctify": 7256,
  "\u2581sitisen": 7257,
  "\u2581sixth": 7258,
  "\u2581teens": 7259,
  "\u2581western": 7260,
  "AMBA": 7261,
  "ac": 7262,
  "ded": 7263,
  "der": 7264,
  "seed": 7265,
  "who": 7266,
  "\u25811,500": 7267,
  "\u25811933": 7268,
  "\u2581Anne": 7269,
  "\u2581Babylonians": 7270,
  "\u2581Bas": 7271,
  "\u2581Francisco": 7272,
  "\u2581Kros": 7273,
  "\u2581Nazareth": 7274,
  "\u2581Preaching": 7275,
  "\u2581Savior": 7276,
  "\u2581Very": 7277,
  "\u2581anis": 7278,
  "\u2581appointment": 7279,
  "\u2581block": 7280,
  "\u2581bull": 7281,
  "\u2581crops": 7282,
  "\u2581drove": 7283,
  "\u2581governor": 7284,
  "\u2581industry": 7285,
  "\u2581marks": 7286,
  "\u2581masin": 7287,
  "\u2581necessities": 7288,
  "\u2581remembrance": 7289,
  "\u2581sadness": 7290,
  "\u2581subjected": 7291,
  "\u2581suga": 7292,
  "\u2581testing": 7293,
  "\u2581threatening": 7294,
  "\u2581torn": 7295,
  "\u2581warmly": 7296,
  "Jajes": 7297,
  "Lord": 7298,
  "every": 7299,
  "\u258100": 7300,
  "\u2581Angels": 7301,
  "\u2581Carol": 7302,
  "\u2581Daily": 7303,
  "\u2581Giver": 7304,
  "\u2581Jericho": 7305,
  "\u2581Judgment": 7306,
  "\u2581Polyglot": 7307,
  "\u2581Praes": 7308,
  "\u2581ancestors": 7309,
  "\u2581behave": 7310,
  "\u2581eastern": 7311,
  "\u2581err": 7312,
  "\u2581filling": 7313,
  "\u2581floa": 7314,
  "\u2581horses": 7315,
  "\u2581neighborhood": 7316,
  "\u2581olif": 7317,
  "\u2581pollution": 7318,
  "\u2581promptly": 7319,
  "\u2581queen": 7320,
  "\u2581rapid": 7321,
  "\u2581reflection": 7322,
  "\u2581sounds": 7323,
  "\u2581stad": 7324,
  "\u2581storebaot": 7325,
  "\u2581till": 7326,
  "\u2581vicious": 7327,
  "evri": 7328,
  "ex": 7329,
  "spirit": 7330,
  "\u25811920": 7331,
  "\u2581Better": 7332,
  "\u2581Bi": 7333,
  "\u2581Gestapo": 7334,
  "\u2581Suddenly": 7335,
  "\u2581Universal": 7336,
  "\u2581assembled": 7337,
  "\u2581belonged": 7338,
  "\u2581collection": 7339,
  "\u2581controlled": 7340,
  "\u2581decade": 7341,
  "\u2581decree": 7342,
  "\u2581defeat": 7343,
  "\u2581distribution": 7344,
  "\u2581evangelizing": 7345,
  "\u2581expresses": 7346,
  "\u2581faondesen": 7347,
  "\u2581farmer": 7348,
  "\u2581fortify": 7349,
  "\u2581heritage": 7350,
  "\u2581humanity": 7351,
  "\u2581ice": 7352,
  "\u2581impressive": 7353,
  "\u2581laebri": 7354,
  "\u2581organize": 7355,
  "\u2581overlook": 7356,
  "\u2581parties": 7357,
  "\u2581planted": 7358,
  "\u2581plays": 7359,
  "\u2581profess": 7360,
  "\u2581prominence": 7361,
  "\u2581risks": 7362,
  "\u2581secretary": 7363,
  "\u2581sekretari": 7364,
  "\u2581sheeplike": 7365,
  "\u2581stable": 7366,
  "\u2581strikes": 7367,
  "\u2581tool": 7368,
  "\u2581unrighteousness": 7369,
  "\u2581verb": 7370,
  "\u2581vessels": 7371,
  "\u2581volunteer": 7372,
  "Kristin": 7373,
  "ad": 7374,
  "hi": 7375,
  "que": 7376,
  "\u258114.?": 7377,
  "\u258136,": 7378,
  "\u258189": 7379,
  "\u2581Agens": 7380,
  "\u2581Boaz": 7381,
  "\u2581Histri": 7382,
  "\u2581Ki": 7383,
  "\u2581Netalan": 7384,
  "\u2581Sandra": 7385,
  "\u2581Someone": 7386,
  "\u2581Susan": 7387,
  "\u2581alkolik": 7388,
  "\u2581atikol": 7389,
  "\u2581cleaning": 7390,
  "\u2581detestable": 7391,
  "\u2581dominated": 7392,
  "\u2581favored": 7393,
  "\u2581g": 7394,
  "\u2581greatness": 7395,
  "\u2581green": 7396,
  "\u2581grounds": 7397,
  "\u2581healthful": 7398,
  "\u2581lokis": 7399,
  "\u2581lonely": 7400,
  "\u2581lowliness": 7401,
  "\u2581misleading": 7402,
  "\u2581nobody": 7403,
  "\u2581projects": 7404,
  "\u2581propaganda": 7405,
  "\u2581restrictions": 7406,
  "\u2581roads": 7407,
  "\u2581roll": 7408,
  "\u2581skill": 7409,
  "\u2581weaken": 7410,
  "Those": 7411,
  "samting": 7412,
  "yu": 7413,
  "\u2581Apolos": 7414,
  "\u2581Art": 7415,
  "\u2581Hand": 7416,
  "\u2581Honor": 7417,
  "\u2581JOHN": 7418,
  "\u2581Linda": 7419,
  "\u2581Understandably": 7420,
  "\u2581bare": 7421,
  "\u2581cool": 7422,
  "\u2581driver": 7423,
  "\u2581fewer": 7424,
  "\u2581flying": 7425,
  "\u2581offend": 7426,
  "\u2581onward": 7427,
  "\u2581perel": 7428,
  "\u2581prevented": 7429,
  "\u2581provoked": 7430,
  "\u2581schoolmates": 7431,
  "\u2581shelter": 7432,
  "\u2581stranger": 7433,
  "\u2581submissive": 7434,
  "\u2581tin": 7435,
  "make": 7436,
  "power": 7437,
  "ru": 7438,
  "those": 7439,
  "\u2581105": 7440,
  "\u25811963": 7441,
  "\u25811965": 7442,
  "\u2581Along": 7443,
  "\u2581Assyria": 7444,
  "\u2581Brothers": 7445,
  "\u2581Common": 7446,
  "\u2581Continue": 7447,
  "\u2581Henschel": 7448,
  "\u2581Kontrak": 7449,
  "\u2581Milton": 7450,
  "\u2581Music": 7451,
  "\u2581Nyus": 7452,
  "\u2581Point": 7453,
  "\u2581Sas": 7454,
  "\u2581advantages": 7455,
  "\u2581begged": 7456,
  "\u2581cigarette": 7457,
  "\u2581discourage": 7458,
  "\u2581fat": 7459,
  "\u2581kona": 7460,
  "\u2581occupied": 7461,
  "\u2581regain": 7462,
  "Jehova": 7463,
  "Just": 7464,
  "aze": 7465,
  "gu": 7466,
  "\u2581Da": 7467,
  "\u2581Four": 7468,
  "\u2581Freedom": 7469,
  "\u2581Jer": 7470,
  "\u2581LAEF": 7471,
  "\u2581Philistines": 7472,
  "\u2581Post": 7473,
  "\u2581Rehoboam": 7474,
  "\u2581Rule": 7475,
  "\u2581Ston": 7476,
  "\u2581Switzerland": 7477,
  "\u2581Tingtingbak": 7478,
  "\u2581affliction": 7479,
  "\u2581ases": 7480,
  "\u2581certainty": 7481,
  "\u2581conscientious": 7482,
  "\u2581criticism": 7483,
  "\u2581entrance": 7484,
  "\u2581incite": 7485,
  "\u2581inclinations": 7486,
  "\u2581infancy": 7487,
  "\u2581justify": 7488,
  "\u2581lamp": 7489,
  "\u2581library": 7490,
  "\u2581manage": 7491,
  "\u2581oath": 7492,
  "\u2581peak": 7493,
  "\u2581port": 7494,
  "\u2581production": 7495,
  "\u2581rose": 7496,
  "\u2581selva": 7497,
  "\u2581slou": 7498,
  "\u2581stadigud": 7499,
  "\u2581stuck": 7500,
  "\u2581threats": 7501,
  "\u2581unseen": 7502,
  "\u2581winds": 7503,
  "\u2581wrongdoer": 7504,
  "That": 7505,
  "ent": 7506,
  "ung": 7507,
  "\u25811971": 7508,
  "\u2581Apollos": 7509,
  "\u2581Aristotle": 7510,
  "\u2581Control": 7511,
  "\u2581Emperor": 7512,
  "\u2581Find": 7513,
  "\u2581Research": 7514,
  "\u2581TOK": 7515,
  "\u2581Uganda": 7516,
  "\u2581Water": 7517,
  "\u2581Web": 7518,
  "\u2581amounts": 7519,
  "\u2581confused": 7520,
  "\u2581courtyard": 7521,
  "\u2581dictionary": 7522,
  "\u2581fig": 7523,
  "\u2581harder": 7524,
  "\u2581igel": 7525,
  "\u2581increases": 7526,
  "\u2581muvmuf": 7527,
  "\u2581prospective": 7528,
  "\u2581reassuring": 7529,
  "\u2581remembers": 7530,
  "\u2581supreme": 7531,
  "\u2581weapon": 7532,
  "Lanwis": 7533,
  "ins": 7534,
  "lukaot": 7535,
  "ner": 7536,
  "\u25811500": 7537,
  "\u25811973": 7538,
  "\u2581BE": 7539,
  "\u2581Bon": 7540,
  "\u2581Eni": 7541,
  "\u2581Gamaliel": 7542,
  "\u2581KAM": 7543,
  "\u2581Kindness": 7544,
  "\u2581Language": 7545,
  "\u2581MATTHEW": 7546,
  "\u2581Medical": 7547,
  "\u2581None": 7548,
  "\u2581Pay": 7549,
  "\u2581Prap": 7550,
  "\u2581Sentrol": 7551,
  "\u2581Siti": 7552,
  "\u2581Thank": 7553,
  "\u2581burnt": 7554,
  "\u2581carries": 7555,
  "\u2581claiming": 7556,
  "\u2581con": 7557,
  "\u2581daerekta": 7558,
  "\u2581definitely": 7559,
  "\u2581divisions": 7560,
  "\u2581legally": 7561,
  "\u2581materialism": 7562,
  "\u2581mold": 7563,
  "\u2581opens": 7564,
  "\u2581outlined": 7565,
  "\u2581persist": 7566,
  "\u2581pro": 7567,
  "\u2581rejecting": 7568,
  "\u2581succumb": 7569,
  "\u2581synagogue": 7570,
  "\u2581testify": 7571,
  "\u2581unjust": 7572,
  "\u2581\u25cf?": 7573,
  "5:": 7574,
  "Kraes": 7575,
  "ating": 7576,
  "ck": 7577,
  "ha": 7578,
  "om": 7579,
  "ors": 7580,
  "su": 7581,
  "\u25811981": 7582,
  "\u2581ANSA": 7583,
  "\u2581Barr": 7584,
  "\u2581Five": 7585,
  "\u2581Hades": 7586,
  "\u2581Hutu": 7587,
  "\u2581Madrid": 7588,
  "\u2581Office": 7589,
  "\u2581Rights": 7590,
  "\u2581Sid": 7591,
  "\u2581adequate": 7592,
  "\u2581bold": 7593,
  "\u2581characteristics": 7594,
  "\u2581characters": 7595,
  "\u2581consequence": 7596,
  "\u2581deepen": 7597,
  "\u2581dispute": 7598,
  "\u2581failing": 7599,
  "\u2581farmers": 7600,
  "\u2581grip": 7601,
  "\u2581harmonize": 7602,
  "\u2581lofty": 7603,
  "\u2581mirror": 7604,
  "\u2581murdered": 7605,
  "\u2581philosopher": 7606,
  "\u2581presin": 7607,
  "\u2581reproof": 7608,
  "\u2581rivers": 7609,
  "\u2581sufferings": 7610,
  "\u2581transfusion": 7611,
  "\u2581treacherous": 7612,
  "\u2581west": 7613,
  "\u2581yielding": 7614,
  "44;": 7615,
  "IS": 7616,
  "Photo": 7617,
  "ki": 7618,
  "led": 7619,
  "ug": 7620,
  "\u258111.)": 7621,
  "\u25811962": 7622,
  "\u258139,": 7623,
  "\u2581Author": 7624,
  "\u2581Baruk": 7625,
  "\u2581Bruklin": 7626,
  "\u2581Century": 7627,
  "\u2581Ethiopian": 7628,
  "\u2581Example": 7629,
  "\u2581Home": 7630,
  "\u2581Lo": 7631,
  "\u2581ROM": 7632,
  "\u2581Santa": 7633,
  "\u2581Search": 7634,
  "\u2581cultivated": 7635,
  "\u2581emphasize": 7636,
  "\u2581enjoys": 7637,
  "\u2581fate": 7638,
  "\u2581goddess": 7639,
  "\u2581guides": 7640,
  "\u2581lefsaed": 7641,
  "\u2581managed": 7642,
  "\u2581march": 7643,
  "\u2581moments": 7644,
  "\u2581profit": 7645,
  "\u2581prompted": 7646,
  "\u2581punished": 7647,
  "\u2581subsequent": 7648,
  "\u2581sus": 7649,
  "\u2581violate": 7650,
  "\u2581wounds": 7651,
  "critical": 7652,
  "da": 7653,
  "talemaot": 7654,
  "waes": 7655,
  "\u2581Abigail": 7656,
  "\u2581Agrippa": 7657,
  "\u2581Aquila": 7658,
  "\u2581Elaesa": 7659,
  "\u2581Eph": 7660,
  "\u2581Follow": 7661,
  "\u2581Lydia": 7662,
  "\u2581Maena": 7663,
  "\u2581Must": 7664,
  "\u2581Place": 7665,
  "\u2581SUBJECT": 7666,
  "\u2581Stories": 7667,
  "\u2581Tokyo": 7668,
  "\u2581Verse": 7669,
  "\u2581Vine": 7670,
  "\u2581appoint": 7671,
  "\u2581awaits": 7672,
  "\u2581bataflae": 7673,
  "\u2581conceal": 7674,
  "\u2581confirm": 7675,
  "\u2581considerate": 7676,
  "\u2581contemplate": 7677,
  "\u2581describing": 7678,
  "\u2581devour": 7679,
  "\u2581directing": 7680,
  "\u2581eaten": 7681,
  "\u2581expense": 7682,
  "\u2581frequent": 7683,
  "\u2581goat": 7684,
  "\u2581imminent": 7685,
  "\u2581invaetem": 7686,
  "\u2581mile": 7687,
  "\u2581misery": 7688,
  "\u2581nice": 7689,
  "\u2581nights": 7690,
  "\u2581obligations": 7691,
  "\u2581prevail": 7692,
  "\u2581sanctuary": 7693,
  "\u2581scrolls": 7694,
  "\u2581shocked": 7695,
  "\u2581volume": 7696,
  "\u2581warmth": 7697,
  "Tabu": 7698,
  "holem": 7699,
  "iv": 7700,
  "ster": 7701,
  "\u2581Baruch": 7702,
  "\u2581Beswan": 7703,
  "\u2581Christlike": 7704,
  "\u2581Food": 7705,
  "\u2581Ful": 7706,
  "\u2581Gomora": 7707,
  "\u2581Gomorrah": 7708,
  "\u2581Hans": 7709,
  "\u2581Mormon": 7710,
  "\u2581NAMBA": 7711,
  "\u2581Prisila": 7712,
  "\u2581Ta": 7713,
  "\u2581Together": 7714,
  "\u2581agents": 7715,
  "\u2581anguish": 7716,
  "\u2581appealed": 7717,
  "\u2581appreciative": 7718,
  "\u2581blemem": 7719,
  "\u2581bondage": 7720,
  "\u2581cards": 7721,
  "\u2581co": 7722,
  "\u2581concentrate": 7723,
  "\u2581corrected": 7724,
  "\u2581emergency": 7725,
  "\u2581eskyus": 7726,
  "\u2581exhausted": 7727,
  "\u2581fever": 7728,
  "\u2581krokodael": 7729,
  "\u2581kuk": 7730,
  "\u2581loneliness": 7731,
  "\u2581perceived": 7732,
  "\u2581pleases": 7733,
  "\u2581positively": 7734,
  "\u2581pronounced": 7735,
  "\u2581rebuild": 7736,
  "\u2581regulating": 7737,
  "\u2581relied": 7738,
  "\u2581schooling": 7739,
  "\u2581seasons": 7740,
  "\u2581sentiments": 7741,
  "\u2581shortages": 7742,
  "\u2581shy": 7743,
  "\u2581tons": 7744,
  "\u2581voices": 7745,
  "\u2581wiken": 7746,
  "Vas": 7747,
  "kasem": 7748,
  "red": 7749,
  "\u258121.)": 7750,
  "\u2581Alice": 7751,
  "\u2581Co": 7752,
  "\u2581Earlier": 7753,
  "\u2581Estienne": 7754,
  "\u2581Francis": 7755,
  "\u2581Gogo": 7756,
  "\u2581Hapen": 7757,
  "\u2581Imitate": 7758,
  "\u2581Jan": 7759,
  "\u2581Lodsprea": 7760,
  "\u2581Protestants": 7761,
  "\u2581SEPTEM": 7762,
  "\u2581Tuvalu": 7763,
  "\u2581Z": 7764,
  "\u2581absence": 7765,
  "\u2581achieved": 7766,
  "\u2581answering": 7767,
  "\u2581burdens": 7768,
  "\u2581climax": 7769,
  "\u2581contacted": 7770,
  "\u2581disturbed": 7771,
  "\u2581dominate": 7772,
  "\u2581excessive": 7773,
  "\u2581fascinating": 7774,
  "\u2581heavily": 7775,
  "\u2581initially": 7776,
  "\u2581marrying": 7777,
  "\u2581physician": 7778,
  "\u2581undermine": 7779,
  "\u2581weeping": 7780,
  "ber": 7781,
  "ke": 7782,
  "wok": 7783,
  "\u25812014": 7784,
  "\u25815.?": 7785,
  "\u258177": 7786,
  "\u258185": 7787,
  "\u2581Akwila": 7788,
  "\u2581Con": 7789,
  "\u2581Edom": 7790,
  "\u2581Fiuja": 7791,
  "\u2581Free": 7792,
  "\u2581Macedonia": 7793,
  "\u2581Masoret": 7794,
  "\u2581Saepras": 7795,
  "\u2581Sing": 7796,
  "\u2581Tell": 7797,
  "\u2581aids": 7798,
  "\u2581approaches": 7799,
  "\u2581attached": 7800,
  "\u2581banana": 7801,
  "\u2581ceremony": 7802,
  "\u2581clergymen": 7803,
  "\u2581damaging": 7804,
  "\u2581deceive": 7805,
  "\u2581elevated": 7806,
  "\u2581embraced": 7807,
  "\u2581enormous": 7808,
  "\u2581expenses": 7809,
  "\u2581falsely": 7810,
  "\u2581fame": 7811,
  "\u2581formal": 7812,
  "\u2581legs": 7813,
  "\u2581loaded": 7814,
  "\u2581mixed": 7815,
  "\u2581obviously": 7816,
  "\u2581overlooked": 7817,
  "\u2581partners": 7818,
  "\u2581reacted": 7819,
  "\u2581recovery": 7820,
  "\u2581rejoiced": 7821,
  "\u2581sect": 7822,
  "\u2581testem": 7823,
  "\u2581truthful": 7824,
  "\u2581uncertain": 7825,
  "\u2581washing": 7826,
  "\u2581weary": 7827,
  "lan": 7828,
  "los": 7829,
  "netheless": 7830,
  "oltaem": 7831,
  "smol": 7832,
  "wol": 7833,
  "\u25812015": 7834,
  "\u258144,": 7835,
  "\u2581Centuries": 7836,
  "\u2581Columbus": 7837,
  "\u2581Comment": 7838,
  "\u2581Festival": 7839,
  "\u2581Heaven": 7840,
  "\u2581Ista": 7841,
  "\u2581Peru": 7842,
  "\u2581Ransom": 7843,
  "\u2581TB": 7844,
  "\u2581Than": 7845,
  "\u2581abused": 7846,
  "\u2581cars": 7847,
  "\u2581concealed": 7848,
  "\u2581conclusions": 7849,
  "\u2581excited": 7850,
  "\u2581harlot": 7851,
  "\u2581imagined": 7852,
  "\u2581immense": 7853,
  "\u2581interfere": 7854,
  "\u2581lifesaving": 7855,
  "\u2581misuse": 7856,
  "\u2581outworking": 7857,
  "\u2581perceptive": 7858,
  "\u2581persevere": 7859,
  "\u2581pin": 7860,
  "\u2581progressed": 7861,
  "\u2581provins": 7862,
  "\u2581reaches": 7863,
  "\u2581ride": 7864,
  "\u2581rightful": 7865,
  "\u2581rongud": 7866,
  "\u2581stability": 7867,
  "\u2581tasks": 7868,
  "\u2581thieves": 7869,
  "\u2581thyroid": 7870,
  "\u2581tombs": 7871,
  "\u2581tropical": 7872,
  "\u2581unlike": 7873,
  "\u2581videos": 7874,
  "\u2581wrongdoers": 7875,
  "One": 7876,
  "have": 7877,
  "od": 7878,
  "ova": 7879,
  "vo": 7880,
  "\u258145,": 7881,
  "\u258158.": 7882,
  "\u2581Abigel": 7883,
  "\u2581Alex": 7884,
  "\u2581Comfort": 7885,
  "\u2581Gary": 7886,
  "\u2581Golaeat": 7887,
  "\u2581Ha": 7888,
  "\u2581JISAS": 7889,
  "\u2581Mesej": 7890,
  "\u2581Purpose": 7891,
  "\u2581Them": 7892,
  "\u2581accusations": 7893,
  "\u2581aranis": 7894,
  "\u2581breast": 7895,
  "\u2581constructed": 7896,
  "\u2581contract": 7897,
  "\u2581coping": 7898,
  "\u2581decline": 7899,
  "\u2581differently": 7900,
  "\u2581donated": 7901,
  "\u2581employed": 7902,
  "\u2581equally": 7903,
  "\u2581flatem": 7904,
  "\u2581foods": 7905,
  "\u2581forgives": 7906,
  "\u2581frustrated": 7907,
  "\u2581grin": 7908,
  "\u2581hostile": 7909,
  "\u2581idol": 7910,
  "\u2581levels": 7911,
  "\u2581memori": 7912,
  "\u2581officers": 7913,
  "\u2581prayerfully": 7914,
  "\u2581tower": 7915,
  "\u2581worried": 7916,
  "Even": 7917,
  "ence": 7918,
  "nuk": 7919,
  "\u258118.?": 7920,
  "\u25811978": 7921,
  "\u25812.)": 7922,
  "\u2581Always": 7923,
  "\u2581Klin": 7924,
  "\u2581Kwaet": 7925,
  "\u2581Rap": 7926,
  "\u2581Seeing": 7927,
  "\u2581Stay": 7928,
  "\u2581Thanks": 7929,
  "\u2581Tibi": 7930,
  "\u2581Victoria": 7931,
  "\u2581adapt": 7932,
  "\u2581alienated": 7933,
  "\u2581anywhere": 7934,
  "\u2581argue": 7935,
  "\u2581argued": 7936,
  "\u2581band": 7937,
  "\u2581cling": 7938,
  "\u2581evritaem": 7939,
  "\u2581figuratively": 7940,
  "\u2581firsthand": 7941,
  "\u2581grandmother": 7942,
  "\u2581massive": 7943,
  "\u2581oppressive": 7944,
  "\u2581ranks": 7945,
  "\u2581rebels": 7946,
  "\u2581reliance": 7947,
  "\u2581requests": 7948,
  "\u2581reverence": 7949,
  "\u2581shocking": 7950,
  "\u2581strap": 7951,
  "\u2581stretch": 7952,
  "\u2581sugabag": 7953,
  "\u2581teeth": 7954,
  "\u2581theologians": 7955,
  "\u2581unprecedented": 7956,
  "au": 7957,
  "because": 7958,
  "gi": 7959,
  "ler": 7960,
  "nem": 7961,
  "sipos": 7962,
  "their": 7963,
  "\u258191": 7964,
  "\u2581Barry": 7965,
  "\u2581Blessings": 7966,
  "\u2581Fac": 7967,
  "\u2581Guard": 7968,
  "\u2581Hong": 7969,
  "\u2581Ofis": 7970,
  "\u2581Respek": 7971,
  "\u2581Ukraine": 7972,
  "\u2581Youth": 7973,
  "\u2581absorbed": 7974,
  "\u2581appetite": 7975,
  "\u2581bitterness": 7976,
  "\u2581brekemdaon": 7977,
  "\u2581captives": 7978,
  "\u2581conversion": 7979,
  "\u2581corner": 7980,
  "\u2581displays": 7981,
  "\u2581evridei": 7982,
  "\u2581exalt": 7983,
  "\u2581genuinely": 7984,
  "\u2581harbor": 7985,
  "\u2581hopeless": 7986,
  "\u2581hostility": 7987,
  "\u2581morals": 7988,
  "\u2581numbered": 7989,
  "\u2581permanently": 7990,
  "\u2581persistent": 7991,
  "\u2581portions": 7992,
  "\u2581praises": 7993,
  "\u2581refresh": 7994,
  "\u2581rooms": 7995,
  "\u2581searched": 7996,
  "\u2581slaughter": 7997,
  "\u2581substance": 7998,
  "\u2581surroundings": 7999,
  "\u2581teroris": 8000,
  "\u2581titles": 8001,
  "\u2581tour": 8002,
  "\u2581troubles": 8003,
  "\u2581unhappy": 8004,
  "\u2581uttered": 8005,
  "\u2581vivid": 8006,
  "\u2581vulnerable": 8007,
  "Maeka": 8008,
  "gifts": 8009,
  "ros": 8010,
  "went": 8011,
  "were": 8012,
  "\u25811967": 8013,
  "\u25811979": 8014,
  "\u25812000.": 8015,
  "\u2581Baptist": 8016,
  "\u2581Branch": 8017,
  "\u2581Georgia": 8018,
  "\u2581JESUS": 8019,
  "\u2581Lasros": 8020,
  "\u2581Levite": 8021,
  "\u2581Mass": 8022,
  "\u2581Netherlands": 8023,
  "\u2581Nimrod": 8024,
  "\u2581Ostria": 8025,
  "\u2581Serve": 8026,
  "\u2581Story": 8027,
  "\u2581Swiden": 8028,
  "\u2581apologize": 8029,
  "\u2581authoriz": 8030,
  "\u2581awareness": 8031,
  "\u2581ceased": 8032,
  "\u2581contemporaries": 8033,
  "\u2581covers": 8034,
  "\u2581destination": 8035,
  "\u2581disgusting": 8036,
  "\u2581dishonest": 8037,
  "\u2581distracted": 8038,
  "\u2581distribute": 8039,
  "\u2581draeva": 8040,
  "\u2581eighth": 8041,
  "\u2581equivalent": 8042,
  "\u2581foretell": 8043,
  "\u2581impress": 8044,
  "\u2581injured": 8045,
  "\u2581instill": 8046,
  "\u2581intent": 8047,
  "\u2581invites": 8048,
  "\u2581messenger": 8049,
  "\u2581plane": 8050,
  "\u2581pursued": 8051,
  "\u2581realities": 8052,
  "\u2581spia": 8053,
  "\u2581transfiguration": 8054,
  "\u2581virgins": 8055,
  "\u2581walks": 8056,
  "\u2581weighed": 8057,
  "\u2581wetwet": 8058,
  "\u2581zone": 8059,
  "AS": 8060,
  "EMBA": 8061,
  "IA": 8062,
  "Setan": 8063,
  "ize": 8064,
  "ph": 8065,
  "rd": 8066,
  "tion": 8067,
  "\u2581116": 8068,
  "\u25818.?": 8069,
  "\u2581Ages": 8070,
  "\u2581Australian": 8071,
  "\u2581Everything": 8072,
  "\u2581Klia": 8073,
  "\u2581Neman": 8074,
  "\u2581Noum\u00e9a": 8075,
  "\u2581Zealand": 8076,
  "\u2581accuracy": 8077,
  "\u2581aging": 8078,
  "\u2581complain": 8079,
  "\u2581curious": 8080,
  "\u2581equip": 8081,
  "\u2581faults": 8082,
  "\u2581financially": 8083,
  "\u2581focusing": 8084,
  "\u2581heading": 8085,
  "\u2581influential": 8086,
  "\u2581intently": 8087,
  "\u2581intimacy": 8088,
  "\u2581katemdaon": 8089,
  "\u2581lame": 8090,
  "\u2581latest": 8091,
  "\u2581listens": 8092,
  "\u2581pit": 8093,
  "\u2581purchased": 8094,
  "\u2581requested": 8095,
  "\u2581sanctification": 8096,
  "\u2581slowly": 8097,
  "\u2581sosaeti": 8098,
  "\u2581tanraon": 8099,
  "\u2581tsunami": 8100,
  "\u2581virtuous": 8101,
  "These": 8102,
  "daon": 8103,
  "get": 8104,
  "givim": 8105,
  "glad": 8106,
  "way": 8107,
  "\u25811972": 8108,
  "\u258142,": 8109,
  "\u258168": 8110,
  "\u2581Agripa": 8111,
  "\u2581Angola": 8112,
  "\u2581Budis": 8113,
  "\u2581Cop": 8114,
  "\u2581Ehud": 8115,
  "\u2581False": 8116,
  "\u2581Ferdinand": 8117,
  "\u2581Gibeon": 8118,
  "\u2581Goliath": 8119,
  "\u2581Jesse": 8120,
  "\u2581Ko": 8121,
  "\u2581Maybe": 8122,
  "\u2581Miriam": 8123,
  "\u2581Philo": 8124,
  "\u2581Sen": 8125,
  "\u2581Seven": 8126,
  "\u2581Theresa": 8127,
  "\u2581Tugeta": 8128,
  "\u2581Woning": 8129,
  "\u2581accidents": 8130,
  "\u2581administer": 8131,
  "\u2581analyze": 8132,
  "\u2581boundaries": 8133,
  "\u2581comprehend": 8134,
  "\u2581confess": 8135,
  "\u2581consistently": 8136,
  "\u2581des": 8137,
  "\u2581drunk": 8138,
  "\u2581employer": 8139,
  "\u2581fellowship": 8140,
  "\u2581figures": 8141,
  "\u2581intervention": 8142,
  "\u2581operate": 8143,
  "\u2581permits": 8144,
  "\u2581pointing": 8145,
  "\u2581pot": 8146,
  "\u2581presenting": 8147,
  "\u2581prija": 8148,
  "\u2581prophesy": 8149,
  "\u2581prosperous": 8150,
  "\u2581stealing": 8151,
  "\u2581surprisingly": 8152,
  "\u2581swallow": 8153,
  "\u2581versions": 8154,
  "\u2581waetman": 8155,
  "\u2581wake": 8156,
  "\u2581welkam": 8157,
  "Have": 8158,
  "May": 8159,
  "]...": 8160,
  "bilif": 8161,
  "gen": 8162,
  "has": 8163,
  "wa": 8164,
  "you": 8165,
  "\u25811932": 8166,
  "\u25811959": 8167,
  "\u2581Ar": 8168,
  "\u2581Canaanites": 8169,
  "\u2581Col": 8170,
  "\u2581JON": 8171,
  "\u2581Lasdei": 8172,
  "\u2581Mari": 8173,
  "\u2581Portugal": 8174,
  "\u2581Public": 8175,
  "\u2581Rio": 8176,
  "\u2581Seek": 8177,
  "\u2581Vison": 8178,
  "\u2581acknowledges": 8179,
  "\u2581assault": 8180,
  "\u2581assign": 8181,
  "\u2581avail": 8182,
  "\u2581baehat": 8183,
  "\u2581basically": 8184,
  "\u2581blaenman": 8185,
  "\u2581chores": 8186,
  "\u2581chronic": 8187,
  "\u2581confined": 8188,
  "\u2581depart": 8189,
  "\u2581disloyal": 8190,
  "\u2581dominant": 8191,
  "\u2581expansion": 8192,
  "\u2581fatfat": 8193,
  "\u2581flu": 8194,
  "\u2581govern": 8195,
  "\u2581inactive": 8196,
  "\u2581intellectual": 8197,
  "\u2581keenly": 8198,
  "\u2581lasted": 8199,
  "\u2581mislead": 8200,
  "\u2581oppos": 8201,
  "\u2581oppressed": 8202,
  "\u2581possessed": 8203,
  "\u2581princes": 8204,
  "\u2581print": 8205,
  "\u2581proselaet": 8206,
  "\u2581puff": 8207,
  "\u2581recalled": 8208,
  "\u2581recognizing": 8209,
  "\u2581repem": 8210,
  "\u2581sessions": 8211,
  "\u2581sown": 8212,
  "\u2581spies": 8213,
  "\u2581supplied": 8214,
  "\u2581tracts": 8215,
  "\u2581vacation": 8216,
  "Nehemaea": 8217,
  "ULY": 8218,
  "came": 8219,
  "ities": 8220,
  "\u2581Canaanite": 8221,
  "\u2581Cyril": 8222,
  "\u2581Expositor": 8223,
  "\u2581Haiti": 8224,
  "\u2581Jaracz": 8225,
  "\u2581Kwin": 8226,
  "\u2581Mov": 8227,
  "\u2581Person": 8228,
  "\u2581Ra": 8229,
  "\u2581Respect": 8230,
  "\u2581Seol": 8231,
  "\u2581TEACHINGS": 8232,
  "\u2581arises": 8233,
  "\u2581burst": 8234,
  "\u2581consistent": 8235,
  "\u2581definite": 8236,
  "\u2581desiring": 8237,
  "\u2581destroying": 8238,
  "\u2581dis": 8239,
  "\u2581dismiss": 8240,
  "\u2581distinct": 8241,
  "\u2581distinction": 8242,
  "\u2581dongki": 8243,
  "\u2581doubtless": 8244,
  "\u2581earlie": 8245,
  "\u2581enthroned": 8246,
  "\u2581expert": 8247,
  "\u2581exult": 8248,
  "\u2581fellowman": 8249,
  "\u2581fleeing": 8250,
  "\u2581fly": 8251,
  "\u2581game": 8252,
  "\u2581giant": 8253,
  "\u2581kamhom": 8254,
  "\u2581liked": 8255,
  "\u2581lions": 8256,
  "\u2581psalms": 8257,
  "\u2581push": 8258,
  "\u2581putumgud": 8259,
  "\u2581questioned": 8260,
  "\u2581recommends": 8261,
  "\u2581rescued": 8262,
  "\u2581saplae": 8263,
  "\u2581ships": 8264,
  "\u2581shot": 8265,
  "\u2581slo": 8266,
  "\u2581solap": 8267,
  "\u2581subtle": 8268,
  "\u2581threaten": 8269,
  "\u2581trend": 8270,
  "\u2581victorious": 8271,
  "\u2581window": 8272,
  "RA": 8273,
  "ari": 8274,
  "her": 8275,
  "\u2581*?": 8276,
  "\u258123.)": 8277,
  "\u2581787": 8278,
  "\u2581Apply": 8279,
  "\u2581Assyrian": 8280,
  "\u2581Certain": 8281,
  "\u2581Deborah": 8282,
  "\u2581Efes": 8283,
  "\u2581Ella": 8284,
  "\u2581House": 8285,
  "\u2581Kron": 8286,
  "\u2581Personal": 8287,
  "\u2581Question": 8288,
  "\u2581Ralph": 8289,
  "\u2581Sakrefaes": 8290,
  "\u2581Suffering": 8291,
  "\u2581Tony": 8292,
  "\u2581Uru": 8293,
  "\u2581auxiliary": 8294,
  "\u2581chooses": 8295,
  "\u2581collected": 8296,
  "\u2581condemns": 8297,
  "\u2581contents": 8298,
  "\u2581dawn": 8299,
  "\u2581factory": 8300,
  "\u2581grieve": 8301,
  "\u2581hid": 8302,
  "\u2581instantly": 8303,
  "\u2581kes": 8304,
  "\u2581mud": 8305,
  "\u2581neglected": 8306,
  "\u2581picked": 8307,
  "\u2581pounds": 8308,
  "\u2581raes": 8309,
  "\u2581seremoni": 8310,
  "\u2581tens": 8311,
  "\u2581vows": 8312,
  "Young": 8313,
  "ily": 8314,
  "ot": 8315,
  "tra": 8316,
  "\u2581,\"": 8317,
  "\u25811954": 8318,
  "\u258199": 8319,
  "\u2581Alexandria": 8320,
  "\u2581Blood": 8321,
  "\u2581Cyprus": 8322,
  "\u2581Denja": 8323,
  "\u2581Die": 8324,
  "\u2581Lives": 8325,
  "\u2581Lodsapa": 8326,
  "\u2581Meeting": 8327,
  "\u2581Ne": 8328,
  "\u2581Persia": 8329,
  "\u2581Salvation": 8330,
  "\u2581Solwota": 8331,
  "\u2581accountable": 8332,
  "\u2581addiction": 8333,
  "\u2581appreciates": 8334,
  "\u2581blameless": 8335,
  "\u2581chariot": 8336,
  "\u2581companionship": 8337,
  "\u2581decisive": 8338,
  "\u2581depicted": 8339,
  "\u2581draonem": 8340,
  "\u2581echo": 8341,
  "\u2581ignoring": 8342,
  "\u2581inferior": 8343,
  "\u2581insist": 8344,
  "\u2581kalenda": 8345,
  "\u2581lord": 8346,
  "\u2581obliged": 8347,
  "\u2581originate": 8348,
  "\u2581repeat": 8349,
  "\u2581restricted": 8350,
  "\u2581scenes": 8351,
  "\u2581sites": 8352,
  "\u2581stronghold": 8353,
  "\u2581suppose": 8354,
  "\u2581ties": 8355,
  "\u2581tire": 8356,
  ",900": 8357,
  "-": 8358,
  "AN": 8359,
  "dmittedly": 8360,
  "io": 8361,
  "lin": 8362,
  "\u258118.)": 8363,
  "\u25814.?": 8364,
  "\u2581Believe": 8365,
  "\u2581Edward": 8366,
  "\u2581Full": 8367,
  "\u2581Humility": 8368,
  "\u2581Immediately": 8369,
  "\u2581Kong": 8370,
  "\u2581Maimonides": 8371,
  "\u2581Portuguese": 8372,
  "\u2581Priscilla": 8373,
  "\u2581Start": 8374,
  "\u2581TRAEM": 8375,
  "\u2581Vatican": 8376,
  "\u2581acceptance": 8377,
  "\u2581convictions": 8378,
  "\u2581counsels": 8379,
  "\u2581debate": 8380,
  "\u2581derived": 8381,
  "\u2581ending": 8382,
  "\u2581foolishness": 8383,
  "\u2581governed": 8384,
  "\u2581kompyuta": 8385,
  "\u2581locations": 8386,
  "\u2581maybe": 8387,
  "\u2581musical": 8388,
  "\u2581philosophies": 8389,
  "\u2581representing": 8390,
  "\u2581sale": 8391,
  "\u2581seeks": 8392,
  "\u2581signal": 8393,
  "\u2581singim": 8394,
  "\u2581thirst": 8395,
  "\u2581utter": 8396,
  "%": 8397,
  "0": 8398,
  "EM": 8399,
  "IN": 8400,
  "sis": 8401,
  "\u25811936": 8402,
  "\u258133)": 8403,
  "\u2581Harold": 8404,
  "\u2581Loyalty": 8405,
  "\u2581Nikodimas": 8406,
  "\u2581Referr": 8407,
  "\u2581accordingly": 8408,
  "\u2581almighty": 8409,
  "\u2581altogether": 8410,
  "\u2581ascended": 8411,
  "\u2581ba": 8412,
  "\u2581calamities": 8413,
  "\u2581calf": 8414,
  "\u2581collect": 8415,
  "\u2581contend": 8416,
  "\u2581costs": 8417,
  "\u2581courts": 8418,
  "\u2581crimes": 8419,
  "\u2581dread": 8420,
  "\u2581eyewitnesses": 8421,
  "\u2581gelfren": 8422,
  "\u2581gohom": 8423,
  "\u2581helpless": 8424,
  "\u2581implied": 8425,
  "\u2581inviting": 8426,
  "\u2581k": 8427,
  "\u2581owned": 8428,
  "\u2581pace": 8429,
  "\u2581portrayed": 8430,
  "\u2581punish": 8431,
  "\u2581rebuilt": 8432,
  "\u2581rejection": 8433,
  "\u2581restraint": 8434,
  "\u2581simen": 8435,
  "\u2581soft": 8436,
  "\u2581spare": 8437,
  "\u2581starts": 8438,
  "\u2581teen": 8439,
  "\u2581tokhaed": 8440,
  "\u2581tone": 8441,
  "\u2581truck": 8442,
  "\u2581wage": 8443,
  "EL": 8444,
  "Not": 8445,
  "ens": 8446,
  "gra": 8447,
  "hat": 8448,
  "holy": 8449,
  "well": 8450,
  "\u2581Anthony": 8451,
  "\u2581Car": 8452,
  "\u2581DNA": 8453,
  "\u2581Few": 8454,
  "\u2581Juan": 8455,
  "\u2581Justice": 8456,
  "\u2581Kilim": 8457,
  "\u2581Krit": 8458,
  "\u2581Millennium": 8459,
  "\u2581Nepal": 8460,
  "\u2581Nor": 8461,
  "\u2581Rose": 8462,
  "\u2581Rum": 8463,
  "\u2581Samoa": 8464,
  "\u2581Sipa": 8465,
  "\u2581Sri": 8466,
  "\u2581Training": 8467,
  "\u2581Trening": 8468,
  "\u2581Wall": 8469,
  "\u2581adolescent": 8470,
  "\u2581advances": 8471,
  "\u2581chairman": 8472,
  "\u2581cigarettes": 8473,
  "\u2581controversy": 8474,
  "\u2581deceased": 8475,
  "\u2581decreed": 8476,
  "\u2581depict": 8477,
  "\u2581disappear": 8478,
  "\u2581driven": 8479,
  "\u2581drought": 8480,
  "\u2581earned": 8481,
  "\u2581emotion": 8482,
  "\u2581ex": 8483,
  "\u2581exception": 8484,
  "\u2581exerts": 8485,
  "\u2581fashion": 8486,
  "\u2581follower": 8487,
  "\u2581foretells": 8488,
  "\u2581ho": 8489,
  "\u2581involvement": 8490,
  "\u2581kijin": 8491,
  "\u2581l": 8492,
  "\u2581ledaon": 8493,
  "\u2581machine": 8494,
  "\u2581noble": 8495,
  "\u2581nowhere": 8496,
  "\u2581outward": 8497,
  "\u2581pamtri": 8498,
  "\u2581payment": 8499,
  "\u2581progressive": 8500,
  "\u2581regions": 8501,
  "\u2581respectfully": 8502,
  "\u2581revolt": 8503,
  "\u2581secretly": 8504,
  "\u2581sincerity": 8505,
  "\u2581solutions": 8506,
  "\u2581successor": 8507,
  "\u2581toll": 8508,
  "\u2581traffic": 8509,
  "\u2581transportation": 8510,
  "\u2581unit": 8511,
  "\u2581weakened": 8512,
  "found": 8513,
  "lic": 8514,
  "pro": 8515,
  "\u2581BIG": 8516,
  "\u2581Fulwan": 8517,
  "\u2581Islam": 8518,
  "\u2581Jezebel": 8519,
  "\u2581Koria": 8520,
  "\u2581Na": 8521,
  "\u2581Nicodemus": 8522,
  "\u2581Otherwise": 8523,
  "\u2581Problems": 8524,
  "\u2581QUESTIONS": 8525,
  "\u2581Rejel": 8526,
  "\u2581Scientists": 8527,
  "\u2581attract": 8528,
  "\u2581awaited": 8529,
  "\u2581calendar": 8530,
  "\u2581competition": 8531,
  "\u2581desolation": 8532,
  "\u2581discerning": 8533,
  "\u2581encountered": 8534,
  "\u2581fenis": 8535,
  "\u2581fore": 8536,
  "\u2581insisted": 8537,
  "\u2581introduce": 8538,
  "\u2581kaonsel": 8539,
  "\u2581komanda": 8540,
  "\u2581lover": 8541,
  "\u2581mowas": 8542,
  "\u2581nekiswan": 8543,
  "\u2581occurrence": 8544,
  "\u2581packed": 8545,
  "\u2581persecute": 8546,
  "\u2581presiding": 8547,
  "\u2581prodigal": 8548,
  "\u2581purchase": 8549,
  "\u2581recover": 8550,
  "\u2581resemble": 8551,
  "\u2581shining": 8552,
  "\u2581somewhere": 8553,
  "\u2581steady": 8554,
  "\u2581stricken": 8555,
  "\u2581translating": 8556,
  "\u2581worshipped": 8557,
  "\u2581youngsters": 8558,
  "70": 8559,
  "Jer": 8560,
  "ee": 8561,
  "ier": 8562,
  "ill": 8563,
  "last": 8564,
  "reasonably": 8565,
  "rthern": 8566,
  "\u2581160": 8567,
  "\u25811969": 8568,
  "\u25812011": 8569,
  "\u2581Communist": 8570,
  "\u2581Complete": 8571,
  "\u2581Enter": 8572,
  "\u2581Firm": 8573,
  "\u2581Gini": 8574,
  "\u2581Han": 8575,
  "\u2581Lanka": 8576,
  "\u2581MATIU": 8577,
  "\u2581Magog": 8578,
  "\u2581Naaman": 8579,
  "\u2581Philemon": 8580,
  "\u2581Pro": 8581,
  "\u2581Queen": 8582,
  "\u2581Song": 8583,
  "\u2581alternative": 8584,
  "\u2581arriving": 8585,
[...]
