{
  "</s>": 0,
  "<unk>": 1,
  ".": 2,
  ",": 3,
  "\u2581\"": 4,
  "\u2581the": 5,
  "\u2581ndi": 6,
  "'": 7,
  "\u2581to": 8,
  "\u2581of": 9,
  "\u2581a": 10,
  "\u2581and": 11,
  "\u2581kuti": 12,
  "\u2581-": 13,
  "\u2581in": 14,
  "?": 15,
  "s": 16,
  ":": 17,
  "\u2581that": 18,
  "\u2581m": 19,
  "\u2581is": 20,
  "\u2581wa": 21,
  "\u2581ku": 22,
  "\u2581za": 23,
  "\u2581for": 24,
  "\u2581kwa": 25,
  "\u2581anthu": 26,
  "\u2581pa": 27,
  "\u2581ya": 28,
  "\u2581Mulungu": 29,
  "\u2581be": 30,
  "\u2581was": 31,
  "\u2581with": 32,
  "\u2581Yehova": 33,
  "\u2581Jehovah": 34,
  "\u2581God": 35,
  "\u2581his": 36,
  "\u2581ndipo": 37,
  "\u2581la": 38,
  "\u2581amene": 39,
  "\u2581you": 40,
  "\u2581cha": 41,
  "\u2581I": 42,
  "\u2581not": 43,
  "\u2581Kodi": 44,
  "\u2581as": 45,
  "\u2581on": 46,
  "\u2581The": 47,
  "\u2581are": 48,
  "\u2581": 49,
  "\u2581we": 50,
  "\u2581have": 51,
  "\u2581kwambiri": 52,
  "\u2581it": 53,
  "\u2581'": 54,
  "\u2581he": 55,
  "\u2581will": 56,
  "\u2581by": 57,
  "\u2581ntchito": 58,
  "\u2581n": 59,
  "\u2581[": 60,
  "\u2581from": 61,
  ";": 62,
  "\u2581their": 63,
  "\u2581zimene": 64,
  "\u2581(": 65,
  "\u2581they": 66,
  "\u2581Bible": 67,
  "\u2581or": 68,
  "\u2581zinthu": 69,
  "\u2581mu": 70,
  "\u2581anali": 71,
  "\u2581who": 72,
  "\u2581can": 73,
  "\u2581this": 74,
  "\u2581kapena": 75,
  "nso": 76,
  "\u2581Yesu": 77,
  "!": 78,
  "\u2581Jesus": 79,
  "\u2581our": 80,
  ")": 81,
  "\u2581ana": 82,
  "\u2581ena": 83,
  "ing": 84,
  "\u2581chifukwa": 85,
  "\u2581kukhala": 86,
  "\u2581mwa": 87,
  "\u2581were": 88,
  "\u25811": 89,
  "\u2581one": 90,
  "\u2581at": 91,
  "\u2581ngati": 92,
  "\u2581all": 93,
  "\u2581what": 94,
  "\u2581us": 95,
  "\u2581your": 96,
  "\u2581had": 97,
  "\u2581do": 98,
  "\u2581Baibulo": 99,
  "\u2581an": 100,
  "\u2581munthu": 101,
  "\u2581What": 102,
  "\u2581In": 103,
  "\u2581people": 104,
  "\u2581A": 105,
  "\u2581them": 106,
  "]": 107,
  "\u2581M": 108,
  "\u2581has": 109,
  "\u2581ndiponso": 110,
  "\u2581him": 111,
  "\u2581about": 112,
  "\u2581mtima": 113,
  "\u2581would": 114,
  "a": 115,
  "\u2581zina": 116,
  "\u2581ake": 117,
  "\u2581iye": 118,
  "\u2581my": 119,
  "\u2581monga": 120,
  "\u2581when": 121,
  "\u2581ali": 122,
  "\u2581wake": 123,
  "\u2581time": 124,
  "\u2581Koma": 125,
  "\u2581may": 126,
  "\u2581moyo": 127,
  "\u2581ambiri": 128,
  "\u2581but": 129,
  "\u2581pamene": 130,
  "\u2581mmene": 131,
  "\u2581koma": 132,
  "\u2581life": 133,
  "\u2581did": 134,
  "\u2581ntha\u0175i": 135,
  "\u2581zimenezi": 136,
  "\u2581How": 137,
  "\u2581so": 138,
  "\u2581wina": 139,
  "\u2581bwino": 140,
  "\u2581more": 141,
  "\u2581some": 142,
  "\u2581zonse": 143,
  "\u2581me": 144,
  "\u2581those": 145,
  "\u2581/": 146,
  "\u2581been": 147,
  "\u2581komanso": 148,
  "\u2581also": 149,
  "\u2581N": 150,
  "\u2581He": 151,
  "\u2581her": 152,
  "\u2581out": 153,
  "\u2581zambiri": 154,
  "\u2581It": 155,
  "\u2581kuchita": 156,
  "\u2581such": 157,
  "\u2581nthawi": 158,
  "\u2581many": 159,
  "\u2581zaka": 160,
  "\u2581Mboni": 161,
  "\u2581iwo": 162,
  "\u2581up": 163,
  "\u2581there": 164,
  "\u2581Witnesses": 165,
  "\u2581awo": 166,
  "\u2581dziko": 167,
  "\u2581mawu": 168,
  "\u2581no": 169,
  "\u2581Iye": 170,
  "\u2581chimene": 171,
  "\u2581how": 172,
  "\u2581world": 173,
  "\u2581imene": 174,
  "\u2581onse": 175,
  "b": 176,
  "\u2581other": 177,
  "\u2581ina": 178,
  "\u2581nkhani": 179,
  "\u2581if": 180,
  "\u2581good": 181,
  "\u2581than": 182,
  "\u2581But": 183,
  "\u2581said": 184,
  "\u2581help": 185,
  "\u2581anati": 186,
  "\u2581Komabe": 187,
  "\u2581even": 188,
  "\u2581chiyani": 189,
  "\u2581should": 190,
  "\u2581way": 191,
  "\u2581things": 192,
  "\u2581does": 193,
  "\u2581page": 194,
  "\u2581these": 195,
  "\u2581kodi": 196,
  "\u2581into": 197,
  "\u2581Paul": 198,
  "\u2581work": 199,
  "\"": 200,
  "wo": 201,
  "\u2581which": 202,
  "\u2581lake": 203,
  "\u2581man": 204,
  "\u2581We": 205,
  "ed": 206,
  "\u2581o": 207,
  "po": 208,
  "\u2581Paulo": 209,
  "yo": 210,
  "\u2581Mawu": 211,
  "\u2581ka": 212,
  "d": 213,
  "\u2581years": 214,
  "\u2581could": 215,
  "\u2581love": 216,
  "\u2581Ku": 217,
  "di": 218,
  "\u25812": 219,
  "\u2581Christian": 220,
  "\u2581lapansi": 221,
  "ni": 222,
  "ko": 223,
  "chifukwa": 224,
  "\u2581ngakhale": 225,
  "\u2581day": 226,
  "\u2581This": 227,
  "ono": 228,
  "E": 229,
  "\u2581nawo": 230,
  "\u2581she": 231,
  "\u2581make": 232,
  "\u2581When": 233,
  "t": 234,
  "\u2581They": 235,
  "\u2581earth": 236,
  "\u2581chake": 237,
  "\u2581children": 238,
  "\u2581bwanji": 239,
  "\u2581patsamba": 240,
  "\u258115": 241,
  "\u2581first": 242,
  "\u2581ama": 243,
  "\u2581wo": 244,
  "\u2581says": 245,
  "\u2581For": 246,
  "\u2581Christ": 247,
  "\u2581Why": 248,
  "\u2581Anthu": 249,
  "\u2581omwe": 250,
  "ly": 251,
  "\u2581Pa": 252,
  "...": 253,
  "\u2581only": 254,
  "\u2581Kingdom": 255,
  "\u2581because": 256,
  "\u2581Christians": 257,
  "\u2581njira": 258,
  "\u2581others": 259,
  "\u25813": 260,
  "\u2581zo": 261,
  "be": 262,
  "\u2581lina": 263,
  "\u2581family": 264,
  "\u2581being": 265,
  "\u2581over": 266,
  "\u2581As": 267,
  "\u2581maganizo": 268,
  "the": 269,
  "\u2581C": 270,
  "\u2581made": 271,
  "\u2581If": 272,
  "\u2581yo": 273,
  "\u2581Ufumu": 274,
  "na": 275,
  "m": 276,
  "\u2581its": 277,
  "\u2581*": 278,
  "\u2581must": 279,
  "\u2581need": 280,
  "\u2581like": 281,
  "\u2581mwana": 282,
  "\u2581then": 283,
  "\u2581lonse": 284,
  "\u2581Ndipo": 285,
  "\u2581You": 286,
  "\u2581mavuto": 287,
  "\u2581padziko": 288,
  "\u2581example": 289,
  "\u2581spirit": 290,
  "\u2581chakuti": 291,
  "\u25812:": 292,
  "\u2581dzina": 293,
  "\u2581see": 294,
  "\u2581anga": 295,
  "\u2581Ngati": 296,
  "\u2581faith": 297,
  "ma": 298,
  "\u2581cho": 299,
  "Baibulo": 300,
  "\u2581Ngakhale": 301,
  "n": 302,
  "\u2581Chithunzi": 303,
  "\u2581just": 304,
  "\u2581And": 305,
  "\u2581ti": 306,
  "\u2581well": 307,
  "\u2581know": 308,
  "wa": 309,
  "\u2581ananena": 310,
  "\u2581tsiku": 311,
  "\u2581kumene": 312,
  "\u2581wathu": 313,
  "\u2581ayenera": 314,
  "\u2581zake": 315,
  "\u25814:": 316,
  "\u2581mkazi": 317,
  "\u2581yake": 318,
  "\u2581take": 319,
  "\u2581makolo": 320,
  "\u2581limene": 321,
  "\u2581mfundo": 322,
  "\u2581come": 323,
  "\u2581po": 324,
  "\u2581own": 325,
  "\u2581O": 326,
  "\u2581now": 327,
  "\u2581true": 328,
  "\u2581new": 329,
  "\u2581Akristu": 330,
  "\u2581spiritual": 331,
  "\u2581before": 332,
  "ku": 333,
  "\u2581parents": 334,
  "\u2581become": 335,
  "\u2581after": 336,
  "\u2581Kristu": 337,
  "\u2581imeneyi": 338,
  "\u2581congregation": 339,
  "\u2581any": 340,
  "\u2581zomwe": 341,
  "\u25815:": 342,
  "\u2581two": 343,
  "\u2581wanga": 344,
  "\u2581death": 345,
  "\u2581si": 346,
  "\u2581Pamene": 347,
  "\u2581words": 348,
  "\u2581John": 349,
  "\u25818": 350,
  "\u2581mphamvu": 351,
  "\u2581men": 352,
  "\u2581Mu": 353,
  "\u2581Ndi": 354,
  "\u2581aliyense": 355,
  "\u2581malo": 356,
  "\u2581Picture": 357,
  "li": 358,
  "\u2581New": 359,
  "\u2581umene": 360,
  "\u2581ones": 361,
  "\u2581Choncho": 362,
  "\u2581wawo": 363,
  "\u2581heart": 364,
  "\u2581another": 365,
  "\u2581much": 366,
  "\u2581inu": 367,
  "\u2581through": 368,
  "\u2581most": 369,
  "\u25816:": 370,
  "\u258110": 371,
  "\u2581chikhulupiriro": 372,
  "\u2581limodzi": 373,
  "\u2581very": 374,
  "\u2581Mwachitsanzo": 375,
  "\u2581ndalama": 376,
  "\u2581yemwe": 377,
  "\u2581So": 378,
  "malo": 379,
  "zo": 380,
  "\u2581lo": 381,
  "\u25811,": 382,
  "dziko": 383,
  "\u2581masiku": 384,
  "\u2581banja": 385,
  "I": 386,
  "\u2581mzimu": 387,
  "S": 388,
  "\u2581person": 389,
  "\u2581\u25a1": 390,
  "zi": 391,
  "\u2581aku": 392,
  "\u2581china": 393,
  "\u2581Chifukwa": 394,
  "\u2581motani": 395,
  "\u2581name": 396,
  "\u2581times": 397,
  "lo": 398,
  "\u2581kuli": 399,
  "\u2581give": 400,
  "\u2581tiyenera": 401,
  "\u2581That": 402,
  "\u2581today": 403,
  "\u2581akuti": 404,
  "\u2581pake": 405,
  "\u2581year": 406,
  "\u2581might": 407,
  "\u2581B": 408,
  "\u2581study": 409,
  "\u2581where": 410,
  "\u2581mbali": 411,
  "\u2581book": 412,
  "\u2581pakati": 413,
  "\u2581adza": 414,
  "\u2581say": 415,
  "\u2581One": 416,
  "e": 417,
  "\u2581truth": 418,
  "\u2581great": 419,
  "\u2581home": 420,
  "\u2581found": 421,
  "\u2581human": 422,
  "\u2581mpaka": 423,
  "\u2581young": 424,
  "\u2581chikondi": 425,
  "\u2581part": 426,
  "\u2581athu": 427,
  "\u2581zi": 428,
  "\u2581Iwo": 429,
  "\u2581To": 430,
  "\u2581lakuti": 431,
  "\u2581find": 432,
  "\u2581feel": 433,
  "\u2581pali": 434,
  "\u2581kuchokera": 435,
  "\u2022": 436,
  "\u2581each": 437,
  "\u2581mwamuna": 438,
  "\u2581chi": 439,
  "\u2581wabwino": 440,
  "\u2581nyumba": 441,
  "mo": 442,
  "\u258114": 443,
  "\u2581amenewa": 444,
  "\u2581use": 445,
  "\u2581analemba": 446,
  "re": 447,
  "\u2581Ana": 448,
  "\u2581against": 449,
  "\u2581ndiye": 450,
  "\u2581Do": 451,
  "\u2581same": 452,
  "\u2581Some": 453,
  "\u2581anu": 454,
  "\u2581Word": 455,
  "\u2581himself": 456,
  "\u2581However": 457,
  "\u2581kuposa": 458,
  "\u2581get": 459,
  "\u2581often": 460,
  "\u2581am": 461,
  "\u2581Kuti": 462,
  "\u2581anka": 463,
  "\u2581long": 464,
  "\u2581David": 465,
  "\u2581apostle": 466,
  "\u2581abale": 467,
  "\u2581amakhala": 468,
  "\u2581put": 469,
  "\u2581means": 470,
  "\u2581never": 471,
  "\u2581ine": 472,
  "\u2581used": 473,
  "i": 474,
  "\u2581wanu": 475,
  "\u2581though": 476,
  "\u2581Israel": 477,
  "\u2581too": 478,
  "C": 479,
  "\u2581Yohane": 480,
  "\u2581At": 481,
  "y": 482,
  "\u2581nkhondo": 483,
  "\u2581tsopano": 484,
  "\u2581kwake": 485,
  "\u2581zimenezo": 486,
  "chi": 487,
  "\u2581ponena": 488,
  "\u2581upon": 489,
  "\u2581Peter": 490,
  "\u2581place": 491,
  "\u2581brothers": 492,
  "\u2581wrote": 493,
  "\u2581every": 494,
  "\u2581mtundu": 495,
  "\u2581utumiki": 496,
  "\u2581keep": 497,
  "A": 498,
  "\u2581ife": 499,
  "\u2581kuphunzira": 500,
  "\u2581end": 501,
  "\u2581zinali": 502,
  "\u2581kale": 503,
  "\u2581why": 504,
  "\u2581ano": 505,
  "\u2581under": 506,
  "\u2581called": 507,
  "\u2581imfa": 508,
  "\u2581go": 509,
  "\u2581Is": 510,
  "\u2581zawo": 511,
  "\u2581Satana": 512,
  "\u2581Satan": 513,
  "tu": 514,
  "\u2581zima": 515,
  "\u2581right": 516,
  "\u2581anayamba": 517,
  "\u2581matenda": 518,
  "\u2581kuona": 519,
  "\u2581back": 520,
  "\u2581naye": 521,
  "ti": 522,
  "\u25817": 523,
  "\u2581became": 524,
  "\u2581came": 525,
  "\u2581down": 526,
  "\u2581zabwino": 527,
  "\u2581uthenga": 528,
  "\u2581Zimenezi": 529,
  "\u2581among": 530,
  "\u2581momwe": 531,
  "\u2581pansi": 532,
  "\u2581learn": 533,
  "\u2581course": 534,
  "cho": 535,
  "\u2581chilichonse": 536,
  "\u2581kanthu": 537,
  "\u25813:": 538,
  "\u2581anachita": 539,
  "\u2581want": 540,
  "\u258112": 541,
  "\u2581After": 542,
  "\u2581gulu": 543,
  "\u2581osati": 544,
  "\u2581States": 545,
  "\u2581days": 546,
  "\u2581show": 547,
  "\u2581word": 548,
  "\u2581worship": 549,
  "\u258120": 550,
  "\u2581umboni": 551,
  "The": 552,
  "\u2581old": 553,
  "\u2581during": 554,
  "njira": 555,
  "\u2581read": 556,
  "\u2581important": 557,
  "\u2581live": 558,
  "ka": 559,
  "\u2581away": 560,
  "\u2581Davide": 561,
  "\u2581century": 562,
  "\u25816": 563,
  "\u2581There": 564,
  "\u2581koposa": 565,
  "\u2581wife": 566,
  "\u2581still": 567,
  "\u2581Matthew": 568,
  "\u2581amene\u0175a": 569,
  "\u2581Father": 570,
  "\u2581kaamba": 571,
  "\u2581akazi": 572,
  "o": 573,
  "\u2581ophunzira": 574,
  "\u2581malamulo": 575,
  "\u2581later": 576,
  "\u2581mo": 577,
  "\u2581news": 578,
  "\u2581pafupifupi": 579,
  "\u2581inali": 580,
  "\u2581limeneli": 581,
  "\u2581U": 582,
  "\u25819": 583,
  "\u258111": 584,
  "zaka": 585,
  "\u2581three": 586,
  "\u2581abwino": 587,
  "\u2581makhalidwe": 588,
  "er": 589,
  "\u2581ata": 590,
  "\u2581themselves": 591,
  "\u2581view": 592,
  "\u2581malangizo": 593,
  "\u2581began": 594,
  "u": 595,
  "),": 596,
  "\u2581child": 597,
  "\u2581told": 598,
  "\u2581kupita": 599,
  "\u2581mind": 600,
  "\u2581hope": 601,
  "\u2581chitsanzo": 602,
  "\u2581By": 603,
  "\u2581akhale": 604,
  "\u2581nzeru": 605,
  "\u25815": 606,
  "\u25814": 607,
  "mu": 608,
  "\u2581mpingo": 609,
  "\u2581zili": 610,
  "\u2581let": 611,
  "\u2581without": 612,
  "\u2581aka": 613,
  "\u2581knowledge": 614,
  "\u2581however": 615,
  "\u2581chakudya": 616,
  "\u2581peace": 617,
  "\u2581Atate": 618,
  "\u25814.": 619,
  "\u2581madzi": 620,
  "\u258112:": 621,
  "\u2581pambuyo": 622,
  "\u258116": 623,
  "\u2581given": 624,
  "\u2581pamodzi": 625,
  "\u2581chachikulu": 626,
  "\u2581faithful": 627,
  "\u2581Chotero": 628,
  "\u2581living": 629,
  "\u2581No": 630,
  "\u2581On": 631,
  "\u2581muli": 632,
  "\u2581Po": 633,
  "\u2581With": 634,
  "\u2581She": 635,
  "\u2581wonse": 636,
  "\u2581mtendere": 637,
  "\u2581kwawo": 638,
  "\u2581choncho": 639,
  "\u2581fact": 640,
  "\u2581ma": 641,
  "\u2581kwenikweni": 642,
  "\u2581T": 643,
  "\u2581Psalm": 644,
  "\u2581yawo": 645,
  "\u2581sa": 646,
  "\u2581power": 647,
  "\u2581service": 648,
  "\u2581choti": 649,
  "\u2581ministry": 650,
  "\u2581set": 651,
  "\u2581u": 652,
  "\u2581World": 653,
  "\u2581able": 654,
  "\u2581house": 655,
  "\u25812.": 656,
  "\u2581pang": 657,
  "\u2581Then": 658,
  "\u2581thupi": 659,
  "\u2581while": 660,
  "\u2581Yes": 661,
  "\u2581doing": 662,
  "\u2581nazo": 663,
  "\u2581Scriptures": 664,
  "\u2581kumwamba": 665,
  "\u2581holy": 666,
  "\u2581preaching": 667,
  "\u2581both": 668,
  "\u2581vuto": 669,
  "\u2581yonse": 670,
  "\u2581chinali": 671,
  "ana": 672,
  "\u25811:": 673,
  "....": 674,
  "te": 675,
  "\u2581mmodzi": 676,
  "\u2581limati": 677,
  "\u2581ko": 678,
  "\u2581lomwe": 679,
  "\u2581Many": 680,
  "\u2581Inde": 681,
  "\u2581father": 682,
  "\u2581mankhwala": 683,
  "\u258111:": 684,
  "\u2581gave": 685,
  "\u258110.": 686,
  "\u2581kupeza": 687,
  "\u2581kum": 688,
  "al": 689,
  "\u2581religious": 690,
  "\u2581His": 691,
  "\u2581amuna": 692,
  "\u25aa": 693,
  "th": 694,
  "\u2581chinthu": 695,
  "\u2581serve": 696,
  "\u2581chabwino": 697,
  "\u2581choonadi": 698,
  "\u2581Mwana": 699,
  "\u2581Genesis": 700,
  "\u2581Yet": 701,
  "\u2581Akhristu": 702,
  "\u2581Mateyu": 703,
  "\u2581making": 704,
  "\u2581between": 705,
  "la": 706,
  "\u2581mabuku": 707,
  "\u2581Monga": 708,
  "\u2581always": 709,
  "\u2581zoipa": 710,
  "\u2581mankind": 711,
  "\u258125": 712,
  "\u2581mother": 713,
  "chiyani": 714,
  "\u2581King": 715,
  "\u2581S": 716,
  "\u2581result": 717,
  "\u2581really": 718,
  "\u258122": 719,
  "\u25818.": 720,
  "\u2581chidwi": 721,
  "\u2581disciples": 722,
  "\u2581asked": 723,
  "anira": 724,
  "\u258118": 725,
  "\u25817:": 726,
  "\u2581yomwe": 727,
  "\u2581full": 728,
  "ra": 729,
  "\u2581tima": 730,
  "\u2581mbiri": 731,
  "\u2581yathu": 732,
  "\u2581ways": 733,
  "\u258114.": 734,
  "\u2581chipembedzo": 735,
  "\u258113:": 736,
  "\u2581hand": 737,
  "\u2581mitundu": 738,
  "\u258130": 739,
  "\u2581having": 740,
  "\u2581chiyembekezo": 741,
  "\u258111.": 742,
  "\u2581chaka": 743,
  "\u2581Ena": 744,
  "\u2581Even": 745,
  "\u2581something": 746,
  "\u2581think": 747,
  "\u2581Munthu": 748,
  "\u2581whom": 749,
  "\u2581ninji": 750,
  "\u2581woman": 751,
  "\u258121": 752,
  "\u2581reason": 753,
  "le": 754,
  "\u2581kunena": 755,
  "\u25817.": 756,
  "\u2581chawo": 757,
  "\u2581Our": 758,
  "\u2581took": 759,
  "\u2581order": 760,
  "\u2581little": 761,
  "\u2581Mfumu": 762,
  "\u2581mwina": 763,
  "\u2581humans": 764,
  "\u2581few": 765,
  "\u2581number": 766,
  "\u2581a\u0175iri": 767,
  "\u2581ulamuliro": 768,
  "yi": 769,
  "\u2581My": 770,
  "\u2581motero": 771,
  "\u2581From": 772,
  "\u2581marriage": 773,
  "\u2581ima": 774,
  "\u2581Jerusalem": 775,
  "\u2581yekha": 776,
  "\u25815.": 777,
  "\u2581food": 778,
  "\u2581atumiki": 779,
  "\u2581cholinga": 780,
  "\u258115,": 781,
  "banja": 782,
  "\u2581Mose": 783,
  "\u2581city": 784,
  "\u2581loving": 785,
  "\u2581consider": 786,
  "l": 787,
  "\u2581problems": 788,
  "\u258113.": 789,
  "\u2581yabwino": 790,
  "\u2581yaikulu": 791,
  "\u2581blood": 792,
  "\u2581water": 793,
  "\u2581Ntha\u0175i": 794,
  "\u2581Yesaya": 795,
  "\u2581una": 796,
  "\u258112.": 797,
  "r": 798,
  "\u2581Isaiah": 799,
  "\u2581ndina": 800,
  "\u2581lalikulu": 801,
  "\u2581purpose": 802,
  "\u2581Zimene": 803,
  "\u2581akulu": 804,
  "\u2581okha": 805,
  "\u2581Society": 806,
  "\u2581personal": 807,
  "\u2581Watchtower": 808,
  "\u2581buku": 809,
  "\u2581chomwe": 810,
  "\u2581Salmo": 811,
  "ntha\u0175i": 812,
  "\u2581together": 813,
  "\u2581future": 814,
  "\u2581Motero": 815,
  "\u2581chuma": 816,
  "\u2581toward": 817,
  "\u25819.": 818,
  "\u2581moti": 819,
  "\u2581chimenechi": 820,
  "\u2581women": 821,
  "\u2581mafunso": 822,
  "\u2581son": 823,
  "\u2581Son": 824,
  "in": 825,
  "\u25816.": 826,
  "\u2581umenewu": 827,
  "\u2581kudziwa": 828,
  "\u2581servants": 829,
  "\u2581husband": 830,
  "\u25813,": 831,
  "\u2581since": 832,
  "\u2581off": 833,
  "\u2581Miyambo": 834,
  "\u2581article": 835,
  "\u258117.": 836,
  "\u2581These": 837,
  "ndi": 838,
  "\u2581izi": 839,
  "M": 840,
  "\u2581kusintha": 841,
  "\u2581Ayuda": 842,
  "\u2581someone": 843,
  "\u2581zochita": 844,
  "\u2581look": 845,
  "\u2581na": 846,
  "\u2581makamaka": 847,
  "\u2581care": 848,
  "\u258116.": 849,
  "\u2581lives": 850,
  "\u2581mwake": 851,
  "\u258115.": 852,
  "\u2581anakhala": 853,
  "\u2581palibe": 854,
  "\u2581questions": 855,
  "\u2581Ndiyeno": 856,
  "\u2581ndinali": 857,
  "\u25813.": 858,
  "\u2581linali": 859,
  "\u2581kunali": 860,
  "\u25818,": 861,
  "\u2581unali": 862,
  "\u2581again": 863,
  "\u2581amati": 864,
  "\u258113": 865,
  "\u2581Unite": 866,
  "\u2581left": 867,
  "\u2581okhulupirika": 868,
  "\u2581chotani": 869,
  "\u2581kulambira": 870,
  "\u2581Proverbs": 871,
  "\u2581better": 872,
  "\u2581khalidwe": 873,
  "\u2581zoti": 874,
  "\u2581fellow": 875,
  "\u2581free": 876,
  "\u2581Malemba": 877,
  "\u2581mkhalidwe": 878,
  "\u2581experience": 879,
  "\u2581Petro": 880,
  "\u2581lathu": 881,
  "\u2581bring": 882,
  "ne": 883,
  "\u2581nations": 884,
  "to": 885,
  "\u2581last": 886,
  "\u2581malingaliro": 887,
  "\u2581lamulo": 888,
  "\u2581maphunziro": 889,
  "\u2581li": 890,
  "\u2581different": 891,
  "\u2581joy": 892,
  "\u2581chabe": 893,
  "\u2581sin": 894,
  "\u2581zokhudza": 895,
  "\u2581known": 896,
  "\u2581popeza": 897,
  "\u2581school": 898,
  "\u2581amachita": 899,
  "\u2581chisoni": 900,
  "\u2581woyera": 901,
  "\u2581kupereka": 902,
  "\u2581boma": 903,
  "\u2581fear": 904,
  "\u2581Popeza": 905,
  "\u2581following": 906,
  "\u2581Ambuye": 907,
  "\u2581prayer": 908,
  "\u2581lerolino": 909,
  "\u2581mtumwi": 910,
  "\u2581Nthawi": 911,
  "\u2581brother": 912,
  "\u2581tina": 913,
  "\u2581done": 914,
  "\u2581cannot": 915,
  "\u2581learned": 916,
  "\u2581needed": 917,
  "\u258123": 918,
  "yang": 919,
  "\u2581ever": 920,
  "\u2581nsembe": 921,
  "\u2581anasonyeza": 922,
  "\u2581friends": 923,
  "\u2581All": 924,
  "\u2581nanga": 925,
  "\u2581Kenako": 926,
  "\u2581religion": 927,
  "\u2581system": 928,
  "\u2581heaven": 929,
  "\u2581meetings": 930,
  "\u2581i": 931,
  "\u2581amafuna": 932,
  "\u2581limanena": 933,
  "\u2581anapereka": 934,
  "\u2581Komanso": 935,
  "\u2581self": 936,
  "\u2581face": 937,
  "\u2581ayi": 938,
  "\u2581chimodzi": 939,
  "\u2581possible": 940,
  "\u2581Moses": 941,
  "\u2581ndiwo": 942,
  "\u2581yourself": 943,
  "\u2581felt": 944,
  "\u2581osa": 945,
  "\u2581Nkhani": 946,
  "\u2581elders": 947,
  "\u2581matter": 948,
  "\u2581Wo": 949,
  "\u2581azi": 950,
  "\u2581sana": 951,
  "\u2581York": 952,
  "\u2581Your": 953,
  "\u2581age": 954,
  "\u2581pakuti": 955,
  "\u2581chimwemwe": 956,
  "\u2581hard": 957,
  "\u2581happy": 958,
  "\u2581chilungamo": 959,
  "\u2581far": 960,
  "\u2581thought": 961,
  "\u2581money": 962,
  "\u2581ufulu": 963,
  "\u2581yaitali": 964,
  "\u2581best": 965,
  "\u2581ili": 966,
  "c": 967,
  "\u2581kuma": 968,
  "\u2581Israyeli": 969,
  "\u2581Thus": 970,
  "\u2581believe": 971,
  "\u2581uma": 972,
  "\u2581war": 973,
  "\u2581Ndiponso": 974,
  "munsi": 975,
  "\u2581body": 976,
  "\u2581yakuti": 977,
  "\u2581Africa": 978,
  "\u2581wisdom": 979,
  "\u2581zofunika": 980,
  "\u2581lililonse": 981,
  "\u2581kulankhula": 982,
  "\u2581Aroma": 983,
  "\u2581ta": 984,
  "\u2581Yerusalemu": 985,
  "\u2581Corinthians": 986,
  "\u2581tili": 987,
  "\u2581Khristu": 988,
  "\u2581counsel": 989,
  "\u2581went": 990,
  "\u2581Akorinto": 991,
  "\u2581Kwa": 992,
  "\u2581kugwira": 993,
  "\u25819:": 994,
  "nyumba": 995,
  "\u2581nyama": 996,
  "\u2581chathu": 997,
  "\u2581patsogolo": 998,
  "\u2581mantha": 999,
  "\u2581popanda": 1000,
  "\u2581bad": 1001,
  "\u2581kudzi\u0175a": 1002,
  "\u2581Can": 1003,
  "\u2581conduct": 1004,
  "\u2581Revelation": 1005,
  "\u2581lima": 1006,
  "\u2581wakuti": 1007,
  "\u2581Greek": 1008,
  "\u2581lanu": 1009,
  "\u2581helped": 1010,
  "\u2581chima": 1011,
  "\u2581law": 1012,
  "\u258126": 1013,
  "\u2581high": 1014,
  "\u2581present": 1015,
  "\u2581early": 1016,
  "\u2581E": 1017,
  "\u2581nor": 1018,
  "\u258124:": 1019,
  "\u2581ancient": 1020,
  "\u2581zosiyanasiyana": 1021,
  "\u2581teaching": 1022,
  "\u2581uli": 1023,
  "\u2581eyes": 1024,
  "\u2581land": 1025,
  "\u2581Watch": 1026,
  "\u2581around": 1027,
  "\u2581relationship": 1028,
  "\u2581heavenly": 1029,
  "\u2581fine": 1030,
  "\u2581oipa": 1031,
  "\u2581members": 1032,
  "\u2581adzakhala": 1033,
  "mbuyo": 1034,
  "\u2581kutsatira": 1035,
  "\u2581Mwa": 1036,
  "\u2581wicked": 1037,
  "pa": 1038,
  "\u2581Be": 1039,
  "\u2581situation": 1040,
  "\u2581imodzi": 1041,
  "\u2581lawo": 1042,
  "\u2581Tower": 1043,
  "\u2581Timothy": 1044,
  "\u2581until": 1045,
  "\u2581share": 1046,
  "si": 1047,
  "\u2581language": 1048,
  "\u2581next": 1049,
  "\u2581close": 1050,
  "\u2581along": 1051,
  "\u2581Lord": 1052,
  "\u2581ndani": 1053,
  "\u2581support": 1054,
  "\u2581mean": 1055,
  "\u2581anauza": 1056,
  "\u2581kufikira": 1057,
  "\u2581United": 1058,
  "\u258117": 1059,
  "\u2581ask": 1060,
  "\u2581Who": 1061,
  "ro": 1062,
  "\u2581enjoy": 1063,
  "\u2581cause": 1064,
  "\u2581Luke": 1065,
  "\u2581answer": 1066,
  "\u2581continue": 1067,
  "\u25819,": 1068,
  "\u2581Luka": 1069,
  "\u2581yet": 1070,
  "\u258118.": 1071,
  "\u2581uliwonse": 1072,
  "\u2581nchiyani": 1073,
  "\u2581okhala": 1074,
  "\u25816,": 1075,
  "\u2581chidzi\u0175itso": 1076,
  "\u2581health": 1077,
  "\u2581righteous": 1078,
  "\u2581thus": 1079,
  "\u2581saying": 1080,
  "\u2581certain": 1081,
  "\u258117:": 1082,
  "\u2581talk": 1083,
  "\u2581pafupi": 1084,
  "\u2581Because": 1085,
  "\u2581anointed": 1086,
  "\u2581especially": 1087,
  "\u2581s": 1088,
  "\u2581ziku": 1089,
  "ngo": 1090,
  "\u2581small": 1091,
  "\u2581Israelites": 1092,
  "\u2581going": 1093,
  "\u2581nacho": 1094,
  "\u2581atatu": 1095,
  "\u2581ufumu": 1096,
  "\u2581kind": 1097,
  "\u2581message": 1098,
  "\u2581James": 1099,
  "\u2581case": 1100,
  "\u2581zana": 1101,
  "\u2581mwayi": 1102,
  "ri": 1103,
  "\u2581Let": 1104,
  "\u2581mfumu": 1105,
  "\u2581baptized": 1106,
  "\u2581mlandu": 1107,
  "\u25815,": 1108,
  "\u2581dead": 1109,
  "\u2581feelings": 1110,
  "\u2581Dziko": 1111,
  "\u2581waukulu": 1112,
  "\u2581Chi": 1113,
  "\u2581Of": 1114,
  "\u2581Since": 1115,
  "\u2581Jews": 1116,
  "\u2581mtengo": 1117,
  "\u2581imeneyo": 1118,
  "\u2581states": 1119,
  "\u2581sense": 1120,
  "\u2581understand": 1121,
  "\u2581nyimbo": 1122,
  "\u2581mutu": 1123,
  "\u2581ka\u0175irika\u0175iri": 1124,
  "\u2581including": 1125,
  "\u2581avoid": 1126,
  "\u2581attention": 1127,
  "\u2581Abraham": 1128,
  "\u2581basi": 1129,
  "\u2581desire": 1130,
  "\u2581giving": 1131,
  "\u2581point": 1132,
  "\u2581brought": 1133,
  "\u2581light": 1134,
  "\u2581nkhosa": 1135,
  "\u2581real": 1136,
  "\u2581mumpingo": 1137,
  "\u2581mayi": 1138,
  "\u258119.": 1139,
  "\u2581speak": 1140,
  "\u258131": 1141,
  "\u2581chifundo": 1142,
  "\u2581aakulu": 1143,
  "\u2581king": 1144,
  "\u2581respect": 1145,
  "\u25814,": 1146,
  "\u2581control": 1147,
  "\u2581received": 1148,
  "\u2581pano": 1149,
  "\u2581kwathu": 1150,
  "\u2581kumeneko": 1151,
  "U": 1152,
  "\u2581soon": 1153,
  "\u2581whole": 1154,
  "\u2581Footnote": 1155,
  "\u2581Are": 1156,
  "\u2581form": 1157,
  "\u258120.": 1158,
  "\u2581misonkhano": 1159,
  "\u2581100": 1160,
  "\u2581Ma": 1161,
  "\u2581Ndithudi": 1162,
  "\u2581change": 1163,
  "\u2581saw": 1164,
  "\u2581akufuna": 1165,
  "\u2581latsopano": 1166,
  "\u2581nkha\u0175a": 1167,
  "\u2581needs": 1168,
  "\u2581Although": 1169,
  "\u2581kusonyeza": 1170,
  "\u2581Creator": 1171,
  "\u2581zoona": 1172,
  "\u2581information": 1173,
  "\u2581difficult": 1174,
  "\u2581kunyumba": 1175,
  "\u2581question": 1176,
  "\u2581four": 1177,
  "\u2581amaona": 1178,
  "\u2581kuyambira": 1179,
  "\u2581Acts": 1180,
  "\u2581lead": 1181,
  "\u2581wrong": 1182,
  "\u2581kutumikira": 1183,
  "\u2581died": 1184,
  "\u2581udindo": 1185,
  "\u2581achinyamata": 1186,
  "\u2581ulemu": 1187,
  "\u2581zathu": 1188,
  "\u2581osiyanasiyana": 1189,
  "\u2581mwauzimu": 1190,
  "\u2581pamaso": 1191,
  "\u2581wosatha": 1192,
  "\u2581Adam": 1193,
  "\u2581ourselves": 1194,
  "N": 1195,
  "\u2581account": 1196,
  "ta": 1197,
  "\u2581anam": 1198,
  "\u2581Ti": 1199,
  "\u2581mogwirizana": 1200,
  "\u2581konse": 1201,
  "\u2581pantha\u0175i": 1202,
  "O": 1203,
  "\u2581benefit": 1204,
  "\u2581Not": 1205,
  "\u2581turn": 1206,
  "\u2581opanda": 1207,
  "\u2581akhoza": 1208,
  "\u258127": 1209,
  "\u2581Law": 1210,
  "chaka": 1211,
  "\u2581wise": 1212,
  "\u2581thing": 1213,
  "\u2581makes": 1214,
  "\u2581Consider": 1215,
  "\u2581wokhulupirika": 1216,
  "\u2581iliyonse": 1217,
  "\u2581Dr": 1218,
  "\u2581ukwati": 1219,
  "\u2581special": 1220,
  "\u2581Such": 1221,
  "\u258114,": 1222,
  "\u2581provide": 1223,
  "\u2581amenewo": 1224,
  "\u2581kuthandiza": 1225,
  "nkhani": 1226,
  "\u2581likely": 1227,
  "\u2581maso": 1228,
  "\u2581problem": 1229,
  "\u2581Job": 1230,
  "\u2581amanena": 1231,
  "\u2581simply": 1232,
  "\u2581Adamu": 1233,
  "\u2581bwinobwino": 1234,
  "\u2581anaona": 1235,
  "\u2581divine": 1236,
  "\u2581Ama": 1237,
  "\u2581mkulu": 1238,
  "\u2581K": 1239,
  "\u2581While": 1240,
  "\u2581Today": 1241,
  "\u2581taken": 1242,
  "\u2581akhala": 1243,
  "\u2581nation": 1244,
  "\u2581nothing": 1245,
  "\u2581seen": 1246,
  "\u2581group": 1247,
  "\u2581kudza": 1248,
  "\u2581suffering": 1249,
  "\u258119": 1250,
  "\u2581kokha": 1251,
  "\u2581Those": 1252,
  "\u2581reading": 1253,
  "\u2581Does": 1254,
  "\u2581People": 1255,
  "\u2581principles": 1256,
  "\u2581An": 1257,
  "\u2581Nyumba": 1258,
  "\u2581Romans": 1259,
  "\u2581Yobu": 1260,
  "\u2581Mlengi": 1261,
  "\u2581mnzake": 1262,
  "\u2581yolalikira": 1263,
  "\u258124": 1264,
  "\u2581receive": 1265,
  "nga": 1266,
  "\u2581Chivumbulutso": 1267,
  "\u2581follow": 1268,
  "\u2581sure": 1269,
  "\u2581try": 1270,
  "\u2581Tsiku": 1271,
  "\u2581involved": 1272,
  "\u258118:": 1273,
  "\u2581serving": 1274,
  "moyo": 1275,
  "\u2581inuyo": 1276,
  "\u2581mzinda": 1277,
  "\u2581night": 1278,
  "\u2581mwazi": 1279,
  "\u2581Yakobo": 1280,
  "\u2581wanted": 1281,
  "\u2581moved": 1282,
  "\u2581langa": 1283,
  "\u2581Germany": 1284,
  "\u2581lili": 1285,
  "\u2581sent": 1286,
  "\u2581large": 1287,
  "\u2581temple": 1288,
  "\u2581taking": 1289,
  "\u2581false": 1290,
  "\u258133": 1291,
  "\u2581whether": 1292,
  "\u25812,": 1293,
  "\u2581ndicho": 1294,
  "\u2581knew": 1295,
  "\u2581F": 1296,
  "\u2581THE": 1297,
  "\u2581kulalikira": 1298,
  "\u258140": 1299,
  "\u2581trust": 1300,
  "\u2581NW": 1301,
  "\u2581odzozedwa": 1302,
  "\u2581kuzindikira": 1303,
  "\u2581taught": 1304,
  "\u2581thinking": 1305,
  "\u2581Machitidwe": 1306,
  "\u2581kingdom": 1307,
  "\u2581kukhulupirira": 1308,
  "\u258111,": 1309,
  "\u2581P": 1310,
  "\u2581Zinthu": 1311,
  "\u2581once": 1312,
  "\u258121.": 1313,
  "mayiko": 1314,
  "es": 1315,
  "\u2581ichi": 1316,
  "\u2581Box": 1317,
  "\u2581strong": 1318,
  "\u2581attitude": 1319,
  "\u2581mphatso": 1320,
  "\u2581anzake": 1321,
  "\u25817,": 1322,
  "\u2581happiness": 1323,
  "\u2581Ntchito": 1324,
  "\u2581act": 1325,
  "\u2581W": 1326,
  "\u2581here": 1327,
  "\u2581country": 1328,
  "\u258112,": 1329,
  "\u2581anafotokoza": 1330,
  "\u2581Ndina": 1331,
  "\u2581Dur": 1332,
  "\u2581umodzi": 1333,
  "\u2581works": 1334,
  "\u2581percent": 1335,
  "\u2581similar": 1336,
  "\u2581magazini": 1337,
  "\u2581according": 1338,
  "\u2581matters": 1339,
  "\u258110,": 1340,
  "\u2581According": 1341,
  "\u2581anzawo": 1342,
  "\u2581further": 1343,
  "\u2581married": 1344,
  "gulu": 1345,
  "\u2581ubwenzi": 1346,
  "\u2581angakhale": 1347,
  "\u2581kindness": 1348,
  "\u258120:": 1349,
  "\u2581zotani": 1350,
  "\u00b7": 1351,
  "\u2581zochitika": 1352,
  "\u2581asanu": 1353,
  "\u2581Credit": 1354,
  "\u2581America": 1355,
  "buku": 1356,
  "\u2581past": 1357,
  "ke": 1358,
  "\u2581certainly": 1359,
  "\u2581uphungu": 1360,
  "\u2581Now": 1361,
  "\u258119:": 1362,
  "\u2581sanali": 1363,
  "\u2581heard": 1364,
  "\u2581Daniel": 1365,
  "\u2581prophet": 1366,
  "\u2581J": 1367,
  "ya": 1368,
  "\u2581comes": 1369,
  "\u2581coming": 1370,
  "\u2581evidence": 1371,
  "\u2581history": 1372,
  "\u2581Aisrayeli": 1373,
  "\u2581followers": 1374,
  "\u2581D": 1375,
  "\u2581righteousness": 1376,
  "\u2581Izi": 1377,
  "\u2581call": 1378,
  "\u258116,": 1379,
  "\u2581Zo": 1380,
  "\u2581bambo": 1381,
  "\u2581mkati": 1382,
  "\u2581second": 1383,
  "\u2581physical": 1384,
  "\u2581local": 1385,
  "\u2581near": 1386,
  "kupita": 1387,
  "\u2581thandizo": 1388,
  "\u2581Moyo": 1389,
  "\u2581tell": 1390,
  "\u2581countries": 1391,
  "\u2581womwe": 1392,
  "\u2581already": 1393,
  "\u2581based": 1394,
  "za": 1395,
  "\u2581chifuniro": 1396,
  "\u2581soul": 1397,
  "\u2581kufika": 1398,
  "\u2581started": 1399,
  "\u2581kugwiritsa": 1400,
  "\u2581akufa": 1401,
  "\u2581allow": 1402,
  "\u258110:": 1403,
  "\u2581atsogoleri": 1404,
  "\u2581panali": 1405,
  "\u2581phunziro": 1406,
  "\u2581million": 1407,
  "\u2581clear": 1408,
  "\u2581Hebrew": 1409,
  "\u2581teach": 1410,
  "\u2581zi\u0175iri": 1411,
  "\u2581material": 1412,
  "\u2581South": 1413,
  "cholinga": 1414,
  "\u2581shows": 1415,
  "\u2581ino": 1416,
  "\u2581Catholic": 1417,
  "\u2581kuna": 1418,
  "\u2581everlasting": 1419,
  "\u2581Their": 1420,
  "\u2581perfect": 1421,
  "\u2581interest": 1422,
  "\u2581Life": 1423,
  "\u2581uku": 1424,
  "\u2581amakonda": 1425,
  "\u2581mikhalidwe": 1426,
  "\u2581Pictures": 1427,
  "\u2581kupanga": 1428,
  "\u2581kuphatikizapo": 1429,
  "\u2581kaya": 1430,
  "an": 1431,
  "nji": 1432,
  "\u2581longer": 1433,
  "\u2581Mtumwi": 1434,
  "\u2581May": 1435,
  "\u2581resurrection": 1436,
  "\u2581Buku": 1437,
  "or": 1438,
  "\u2581gives": 1439,
  "\u2581tiku": 1440,
  "\u2581anyone": 1441,
  "\u2581sacrifice": 1442,
  "\u2581public": 1443,
  "\u2581Rather": 1444,
  "\u2581Nsanja": 1445,
  "\u2581Will": 1446,
  "\u2581organization": 1447,
  "ona": 1448,
  "\u2581kumva": 1449,
  "\u258129": 1450,
  "tsogolo": 1451,
  "\u2581leave": 1452,
  "\u2581rather": 1453,
  "\u2581ndithu": 1454,
  "\u258150": 1455,
  "\u2581individuals": 1456,
  "\u2581Olonda": 1457,
  "\u2581alone": 1458,
  "\u2581zauzimu": 1459,
  "\u2581usiku": 1460,
  "\u2581kukonda": 1461,
  "\u2581lino": 1462,
  "\u2581Malinga": 1463,
  "\u2581Would": 1464,
  "\u2581therefore": 1465,
  "yu": 1466,
  "\u2581Jewish": 1467,
  "\u2581pray": 1468,
  "\u2581sons": 1469,
  "\u2581iku": 1470,
  "\u2581return": 1471,
  "\u2581kuyenda": 1472,
  "\u2581magazine": 1473,
  "\u2581pankhani": 1474,
  "\u258128": 1475,
  "Malemba": 1476,
  "masiku": 1477,
  "\u2581atumwi": 1478,
  "\u2581truly": 1479,
  "\u2581Solomon": 1480,
  "thandiza": 1481,
  "\u2581remain": 1482,
  "\u2581Ine": 1483,
  "\u2581chonse": 1484,
  "\u2581mentioned": 1485,
  "p": 1486,
  "\u2581awiri": 1487,
  "\u2581lost": 1488,
  "\u2581perhaps": 1489,
  "\u2581komwe": 1490,
  "\u2581rule": 1491,
  "\u2581months": 1492,
  "\u2581malinga": 1493,
  "\u2581common": 1494,
  "\u2581apostles": 1495,
  "\u2581kuwa": 1496,
  "\u2581kuka": 1497,
  "\u2581anapeza": 1498,
  "\u2581dongosolo": 1499,
  "\u2581loved": 1500,
  "\u2581ati": 1501,
  "\u2581government": 1502,
  "\u2581showed": 1503,
  "\u2581authority": 1504,
  "\u2581zoposa": 1505,
  "\u2581oona": 1506,
  ",...": 1507,
  "\u2581La": 1508,
  "\u2581Mkristu": 1509,
  "\u2581church": 1510,
  "\u2581liku": 1511,
  "\u2581labwino": 1512,
  "\u2581stand": 1513,
  "\u2581friend": 1514,
  "\u2581Zithunzi": 1515,
  "\u2581nkhawa": 1516,
  "\u2581within": 1517,
  "\u2581mumtima": 1518,
  "\u258113,": 1519,
  "\u2581prophecy": 1520,
  "\u2581ago": 1521,
  "\u2581Tsopano": 1522,
  "\u2581using": 1523,
  "\u2581serious": 1524,
  "\u2581fully": 1525,
  "\u2581itself": 1526,
  "\u2581sheep": 1527,
  "\u258132": 1528,
  "\u2581Ka": 1529,
  "\u2581Roman": 1530,
  "\u2581achichepere": 1531,
  "no": 1532,
  "\u0175a": 1533,
  "\u2581Hebrews": 1534,
  "\u2581die": 1535,
  "\u2581Solomo": 1536,
  "\u2581five": 1537,
  "\u2581ochokera": 1538,
  "\u2581kotero": 1539,
  "\u2581oposa": 1540,
  "\u2581lingaliro": 1541,
  "\u2581Mwina": 1542,
  "\u2581chili": 1543,
  "\u2581provided": 1544,
  "\u2581spiritually": 1545,
  "\u2581mamiliyoni": 1546,
  "\u2581born": 1547,
  "\u2581kumvera": 1548,
  "\u258123.": 1549,
  "\u2581written": 1550,
  "\u2581atate": 1551,
  "\u2581Ata": 1552,
  "wu": 1553,
  "\u2581greater": 1554,
  "\u2581kuphunzitsa": 1555,
  "\u258122.": 1556,
  "\u2581akatswiri": 1557,
  "\u2581meaning": 1558,
  "dera": 1559,
  "\u2581kwakuti": 1560,
  "\u2581nyengo": 1561,
  "\u2581qualities": 1562,
  "\u2581ziti": 1563,
  "\u2581Timoteo": 1564,
  "\u2581manja": 1565,
  "\u2581alongo": 1566,
  "\u2581inspired": 1567,
  "\u2581Wa": 1568,
  "mi": 1569,
  "Ku": 1570,
  "\u2581mabanja": 1571,
  "bale": 1572,
  "\u2581Witness": 1573,
  "\u2581lived": 1574,
  "\u2581ndiyo": 1575,
  "\u2581muyenera": 1576,
  "\u2581pofuna": 1577,
  "\u2581wamkulu": 1578,
  "\u2581magulu": 1579,
  "\u2581kenako": 1580,
  "\u2581Joseph": 1581,
  "P": 1582,
  "ga": 1583,
  "\u2581anything": 1584,
  "D": 1585,
  "\u2581meeting": 1586,
  "\u2581Devil": 1587,
  "\u2581wako": 1588,
  "konda": 1589,
  "\u2581Line": 1590,
  "\u258119,": 1591,
  "\u2581tizi": 1592,
  "You": 1593,
  "\u258137": 1594,
  "\u2581zitatu": 1595,
  "\u2581Bokosi": 1596,
  "\u2581amakhulupirira": 1597,
  "\u2581asilikali": 1598,
  "\u2581Pali": 1599,
  "\u2581pioneer": 1600,
  "\u2581kugwiritsira": 1601,
  "\u2581accept": 1602,
  "\u2581tinali": 1603,
  "\u2581Lo": 1604,
  "\u2581anatero": 1605,
  "\u2581effort": 1606,
  "\u2581kept": 1607,
  "k": 1608,
  "\u2581True": 1609,
  "\u2581held": 1610,
  "zoona": 1611,
  "\u2581slave": 1612,
  "\u2581wapatali": 1613,
  "\u2581otsatira": 1614,
  "\u2581explains": 1615,
  "\u2581Masiku": 1616,
  "\u2581kudya": 1617,
  "madera": 1618,
  "\u2581Indeed": 1619,
  "\u2581angathe": 1620,
  "\u2581Yo": 1621,
  "\u2581akuchita": 1622,
  "\u2581got": 1623,
  "\u2581munthuyo": 1624,
  "\u2581shall": 1625,
  "\u2581France": 1626,
  "patsa": 1627,
  "\u2581understanding": 1628,
  "\u2581Japan": 1629,
  "\u2581Roma": 1630,
  "\u2581ulendo": 1631,
  "\u258117,": 1632,
  "\u2581modern": 1633,
  "\u2581nda": 1634,
  "\u2581chanu": 1635,
  "\u2581forever": 1636,
  "\u2581strength": 1637,
  "\u2581zifukwa": 1638,
  "\u2581youths": 1639,
  "\u2581kusa": 1640,
  "\u2581area": 1641,
  "\u2581heavens": 1642,
  "\u2581loyamba": 1643,
  "\u2581explained": 1644,
  "\u2581amayi": 1645,
  "\u2581circumstances": 1646,
  "\u2581msonkhano": 1647,
  "\u2581millions": 1648,
  "ve": 1649,
  "\u2581Aisiraeli": 1650,
  "\u2581wonderful": 1651,
  "\u2581sister": 1652,
  "\u2581congregations": 1653,
  "\u2581effect": 1654,
  "\u02b9": 1655,
  "\u2581choipa": 1656,
  "\u2581hearts": 1657,
  "\u2581speaking": 1658,
  "\u2581Babulo": 1659,
  "\u2581madalitso": 1660,
  "\u2581panyumba": 1661,
  "\u2581efforts": 1662,
  "\u2581less": 1663,
  "\u258124.": 1664,
  "\u2581Onani": 1665,
  "\u2581continued": 1666,
  "\u2581mabwenzi": 1667,
  "sonyeza": 1668,
  "ers": 1669,
  "da": 1670,
  "ndende": 1671,
  "\u2581issue": 1672,
  "\u2581sisters": 1673,
  "\u2581Mary": 1674,
  "\u2581hands": 1675,
  "\u2581promise": 1676,
  "\u2581angapo": 1677,
  "\u2581deep": 1678,
  "\u2581zanu": 1679,
  "\u2581gain": 1680,
  "\u2581kumeneku": 1681,
  "\u2581ndili": 1682,
  "\u2581amasonyeza": 1683,
  "\u2581regarding": 1684,
  "\u2581yoyamba": 1685,
  "dza": 1686,
  "\u2581powerful": 1687,
  "\u2581sukulu": 1688,
  "\u2581milungu": 1689,
  "\u2581named": 1690,
  "\u2581wosa": 1691,
  "\u2581seem": 1692,
  "\u2581Chilamulo": 1693,
  "\u2581older": 1694,
  "\u2581kuganiza": 1695,
  "\u2581achipembedzo": 1696,
  "\u2581zapitazo": 1697,
  "\u2581Makolo": 1698,
  "\u2581alionse": 1699,
  "\u2581magazi": 1700,
  "\u2581zovuta": 1701,
  "\u2581pages": 1702,
  "z": 1703,
  "\u2581deal": 1704,
  "\u2581chofunika": 1705,
  "\u2581zovala": 1706,
  "\u2581enough": 1707,
  "\u2581ulemerero": 1708,
  "\u2581Kukhala": 1709,
  "\u2581Did": 1710,
  "\u2581kulandira": 1711,
  "\u2581oyambirira": 1712,
  "\u2581zakudya": 1713,
  "\u2581Nanga": 1714,
  "\u2581wopanda": 1715,
  "\u2581Mark": 1716,
  "\u2581everything": 1717,
  "\u2581judgment": 1718,
  "\u2581witness": 1719,
  "\u2581events": 1720,
  "\u2581zolinga": 1721,
  "\u2581Like": 1722,
  "\u2581chenicheni": 1723,
  "\u2581tikhale": 1724,
  "\u2581doubt": 1725,
  "\u2581zisanu": 1726,
  "\u2581Mdyerekezi": 1727,
  "\u2581chimenecho": 1728,
  "\u2581nkhaniyi": 1729,
  "\u2581G": 1730,
  "\u2581miyezi": 1731,
  "\u2581hear": 1732,
  "\u2581yanu": 1733,
  "\u2581pain": 1734,
  "\u2581stated": 1735,
  "ki": 1736,
  "\u2581spoke": 1737,
  "\u2581\u25cf": 1738,
  "\u2581godly": 1739,
  "\u2581please": 1740,
  "\u2581akuluakulu": 1741,
  "\u2581angelo": 1742,
  "\u2581gift": 1743,
  "\u2581move": 1744,
  "dzi\u0175a": 1745,
  "\u2581Danieli": 1746,
  "\u2581Ndiye": 1747,
  "\u2581families": 1748,
  "\u2581aja": 1749,
  "\u2581Hence": 1750,
  "\u2581machimo": 1751,
  "\u2581mwamsanga": 1752,
  "\u258170": 1753,
  "\u2581hold": 1754,
  "\u2581visit": 1755,
  "\u2581above": 1756,
  "\u2581yoti": 1757,
  "\u2581ndimotani": 1758,
  "chititsa": 1759,
  "\u2581ansembe": 1760,
  "\u2581violence": 1761,
  "\u2581Bwanji": 1762,
  "\u2581don": 1763,
  "\u2581led": 1764,
  "\u2581forth": 1765,
  "\u2581Great": 1766,
  "\u2581freedom": 1767,
  "\u2581poor": 1768,
  "gwiritsa": 1769,
  "\u2581ndinu": 1770,
  "\u2581wanzeru": 1771,
  "\u2581natural": 1772,
  "\u2581period": 1773,
  "thupi": 1774,
  "\u2581moral": 1775,
  "\u2581value": 1776,
  "\u2581zidza": 1777,
  "\u2581honor": 1778,
  "\u2581whose": 1779,
  "\u2581awa": 1780,
  "chita": 1781,
  "\u258120,": 1782,
  "se": 1783,
  "\u2581mwambo": 1784,
  "\u2581Amene": 1785,
  "\u2581standards": 1786,
  "\u2581ku\u0175erenga": 1787,
  "\u2581glory": 1788,
  "\u2581open": 1789,
  "\u2581English": 1790,
  "\u2581poyamba": 1791,
  "\u2581udza": 1792,
  "\u2581several": 1793,
  "\u2581various": 1794,
  "\u2581wauzimu": 1795,
  "\u2581iwe": 1796,
  "\u2581wotani": 1797,
  "\u2581remember": 1798,
  "ba": 1799,
  "\u2581Tiyeni": 1800,
  "\u2581funso": 1801,
  "\u2581easy": 1802,
  "\u2581prayers": 1803,
  "\u2581published": 1804,
  "\u258118,": 1805,
  "\u2581yofunika": 1806,
  "\u2581comfort": 1807,
  "nthawi": 1808,
  "\u2581Most": 1809,
  "\u2581Njira": 1810,
  "\u2581akana": 1811,
  "\u2581available": 1812,
  "\u2581letter": 1813,
  "Kodi": 1814,
  "tha": 1815,
  "\u2581activity": 1816,
  "\u2581kudzera": 1817,
  "sintha": 1818,
  "\u258122,": 1819,
  "\u2581opportunity": 1820,
  "us": 1821,
  "\u2581mapeto": 1822,
  "\u2581Nowa": 1823,
  "\u2581Kapena": 1824,
  "\u2581tsamba": 1825,
  "\u2581TV": 1826,
  "\u2581confidence": 1827,
  "\u2581six": 1828,
  "\u2581promises": 1829,
  "\u2581blessing": 1830,
  "\u2581kufunika": 1831,
  "\u2581mneneri": 1832,
  "\u2581Cho": 1833,
  "\u2581galimoto": 1834,
  "\u2581ulosi": 1835,
  "\u2581muma": 1836,
  "\u2581wakumwamba": 1837,
  "\u2581bungwe": 1838,
  "\u2581luso": 1839,
  "\u2581considered": 1840,
  "\u2581role": 1841,
  "\u2581limenelo": 1842,
  "\u2581class": 1843,
  "\u2581changed": 1844,
  "\u2581sexual": 1845,
  "\u2581vital": 1846,
  "\u2581influence": 1847,
  "\u2581head": 1848,
  "\u2581kuganizira": 1849,
  "ic": 1850,
  "kuma": 1851,
  "Mulungu": 1852,
  "\u2581field": 1853,
  "sa": 1854,
  "\u2581zipatso": 1855,
  "\u2581Ambiri": 1856,
  "\u2581thousands": 1857,
  "\u2581ndinka": 1858,
  "\u2581Instead": 1859,
  "\u2581See": 1860,
  "\u2581prove": 1861,
  "\u25818:": 1862,
  "\u2581tanthauzo": 1863,
  "\u2581khumi": 1864,
  "\u2581accepted": 1865,
  "\u2581Scriptural": 1866,
  "\u2581Noah": 1867,
  "\u2581Or": 1868,
  "\u2581single": 1869,
  "\u2581described": 1870,
  "\u2581Palibe": 1871,
  "\u2581served": 1872,
  "\u2581Abrahamu": 1873,
  "\u2581ochuluka": 1874,
  "\u258125.": 1875,
  "\u2581akunena": 1876,
  "en": 1877,
  "\u2581draw": 1878,
  "\u2581offer": 1879,
  "\u2581Awake": 1880,
  "\u2581kugonana": 1881,
  "\u2581sama": 1882,
  "\u2581affect": 1883,
  "\u2581Ponena": 1884,
  "\u2581students": 1885,
  "\u2581chotero": 1886,
  "\u2581helps": 1887,
  "\u2581pemphero": 1888,
  "\u2581examples": 1889,
  "\u2581ten": 1890,
  "\u2581tried": 1891,
  "\u2581working": 1892,
  "\u2581worldwide": 1893,
  "\u2581apply": 1894,
  "\u2581kusiyana": 1895,
  "\u2581birth": 1896,
  "\u2581Still": 1897,
  "\u2581lands": 1898,
  "\u2581Another": 1899,
  "g": 1900,
  "\u2581Petulo": 1901,
  "\u2581de": 1902,
  "madzi": 1903,
  "ngakuthandizeni": 1904,
  "\u2581katundu": 1905,
  "\u2581zazikulu": 1906,
  "\u2581dzikoli": 1907,
  "\u2581hours": 1908,
  "\u2581woyamba": 1909,
  "\u2581Mfundo": 1910,
  "\u2581privilege": 1911,
  "\u2581answers": 1912,
  "\u2581covenant": 1913,
  "\u2581listen": 1914,
  "\u2581Australia": 1915,
  "\u2581zida": 1916,
  "\u2581kulingalira": 1917,
  "\u2581panopa": 1918,
  "\u2581posachedwapa": 1919,
  "\u2581First": 1920,
  "\u2581Ayi": 1921,
  "\u2581happened": 1922,
  "\u2581idza": 1923,
  "\u2581Hall": 1924,
  "\u2581Mo": 1925,
  "\u2581proved": 1926,
  "\u2581uja": 1927,
  "\u2581indeed": 1928,
  "God": 1929,
  "gwira": 1930,
  "\u2581Church": 1931,
  "\u2581actually": 1932,
  "\u2581kusankha": 1933,
  "\u2581ameneyu": 1934,
  "\u2581mbewu": 1935,
  "\u2581alibe": 1936,
  "\u2581source": 1937,
  "\u2581tiyeni": 1938,
  "\u2581Jeremiah": 1939,
  "\u2581instance": 1940,
  "we": 1941,
  "\u2581Wamkulu": 1942,
  "\u2581zosangalatsa": 1943,
  "\u2581activities": 1944,
  "\u2581Yeremiya": 1945,
  "\u2581anapita": 1946,
  "\u2581blessings": 1947,
  "\u2581walk": 1948,
  "\u2581miles": 1949,
  "\u2581branch": 1950,
  "\u2581zinachitika": 1951,
  "me": 1952,
  "\u2581chithandizo": 1953,
  "Yehova": 1954,
  "\u2581War": 1955,
  "\u2581else": 1956,
  "\u2581kuyamba": 1957,
  "\u2581yambiri": 1958,
  "\u2581least": 1959,
  "\u2581couple": 1960,
  "\u2581mwa\u0175i": 1961,
  "\u2581angels": 1962,
  "\u2581malonda": 1963,
  "\u2581otani": 1964,
  "\u2581position": 1965,
  "\u2581seek": 1966,
  "panda": 1967,
  "\u2581L": 1968,
  "\u2581Egypt": 1969,
  "\u2581flesh": 1970,
  "\u2581clean": 1971,
  "\u2581myself": 1972,
  "\u2581Zi": 1973,
  "\u2581nkhaniyo": 1974,
  "\u2581pamalo": 1975,
  "\u2581zipembedzo": 1976,
  "manja": 1977,
  "\u2581weniweni": 1978,
  "\u2581Si": 1979,
  "\u2581decision": 1980,
  "\u2581maintain": 1981,
  "mbali": 1982,
  "\u2581Babylon": 1983,
  "\u2581ability": 1984,
  "\u2581books": 1985,
  "\u2581kotheratu": 1986,
  "\u2581ndife": 1987,
  "\u2581everyone": 1988,
  "\u2581Read": 1989,
  "\u2581former": 1990,
  "\u2581mayiko": 1991,
  "\u2581woti": 1992,
  "\u2581anayi": 1993,
  "mawa": 1994,
  "\u2581chiri": 1995,
  "\u2581willing": 1996,
  "\u2581chapter": 1997,
  "f": 1998,
  "\u2581kusukulu": 1999,
  "\u2581kumvetsa": 2000,
  "\u2581rest": 2001,
  "\u2581advice": 2002,
  "\u2581masamba": 2003,
  "\u2581April": 2004,
  "\u2581ambirimbiri": 2005,
  "\u2581kupirira": 2006,
  "ll": 2007,
  "\u2581responsibility": 2008,
  "Jehovah": 2009,
  "\u2581clearly": 2010,
  "\u2581kulamulira": 2011,
  "\u2581manyazi": 2012,
  "\u2581met": 2013,
  "tenga": 2014,
  "\u2581job": 2015,
  "\u2581created": 2016,
  "\u2581Mofanana": 2017,
  "ness": 2018,
  "\u2581meet": 2019,
  "\u2581teachings": 2020,
  "\u2581feet": 2021,
  "\u2581ungwiro": 2022,
  "\u2581Ta": 2023,
  "\u2581Ahebri": 2024,
  "\u2581disease": 2025,
  "\u2581learning": 2026,
  "\u2581write": 2027,
  "\u2581text": 2028,
  "\u2581foretold": 2029,
  "\u2581anachitira": 2030,
  "\u2581political": 2031,
  "\u2581changa": 2032,
  "\u2581laws": 2033,
  "ng": 2034,
  "peza": 2035,
  "\u25817]": 2036,
  "\u2581adani": 2037,
  "\u2581tero": 2038,
  "\u2581carry": 2039,
  "\u2581sanka": 2040,
  "\u2581appropriate": 2041,
  "\u2581entire": 2042,
  "T": 2043,
  "\u2581force": 2044,
  "\u2581destruction": 2045,
  "\u2581chiphunzitso": 2046,
  "\u2581chifuno": 2047,
  "\u2581muna": 2048,
  "\u2581centuries": 2049,
  "\u2581ndinayamba": 2050,
  "\u2581England": 2051,
  "\u2581loyal": 2052,
  "\u2581katswiri": 2053,
  "\u2581sins": 2054,
  "\u2581almost": 2055,
  "\u2581ransom": 2056,
  "\u2581mbale": 2057,
  "\u258134": 2058,
  "\u2581Galamukani": 2059,
  "\u2581anamwalira": 2060,
  "\u2581eat": 2061,
  "ika": 2062,
  "\u2581thanzi": 2063,
  "on": 2064,
  "\u2581baptism": 2065,
  "\u2581AIDS": 2066,
  "\u2581Chikristu": 2067,
  "\u2581zokha": 2068,
  "\u2581accurate": 2069,
  "\u2581regular": 2070,
  "\u2581lemba": 2071,
  "\u2581Just": 2072,
  "\u2581ochepa": 2073,
  "\u2581thoughts": 2074,
  "mva": 2075,
  "\u2581mwini": 2076,
  "\u2581tchalitchi": 2077,
  "tero": 2078,
  "\u2581half": 2079,
  "limbikitsa": 2080,
  "\u2581chilengedwe": 2081,
  "\u2581miliyoni": 2082,
  "\u2581kugwirizana": 2083,
  "B": 2084,
  "funa": 2085,
  "\u2581kuchitira": 2086,
  "\u2581neither": 2087,
  "\u2581report": 2088,
  "tsa": 2089,
  "\u2581'?": 2090,
  "\u2581KU": 2091,
  "\u2581winawake": 2092,
  "fa": 2093,
  "gwiritsira": 2094,
  "pereka": 2095,
  "\u2581convention": 2096,
  "\u2581harmony": 2097,
  "\u2581zimakhala": 2098,
  "\u2581Europe": 2099,
  "\u2581animals": 2100,
  "\u2581recorded": 2101,
  "\u2581Spain": 2102,
  "\u2581mapemphero": 2103,
  "kukhala": 2104,
  "\u258160": 2105,
  "\u2581wamba": 2106,
  "\u2581complete": 2107,
  "\u2581akama": 2108,
  "\u2581appointed": 2109,
  "\u2581reach": 2110,
  "\u2581earlier": 2111,
  "\u2581places": 2112,
  "mawu": 2113,
  "khulupirira": 2114,
  "\u2581Yosefe": 2115,
  "\u2581mlungu": 2116,
  "kuti": 2117,
  "\u2581Zaka": 2118,
  "\u2581subject": 2119,
  "\u2581Later": 2120,
  "\u2581kachisi": 2121,
  "is": 2122,
  "\u2581preach": 2123,
  "\u2581regard": 2124,
  "\u2581appreciation": 2125,
  "\u2581Samuel": 2126,
  "\u2581kunja": 2127,
  "\u2581parent": 2128,
  "\u2581earthly": 2129,
  "\u2581kalata": 2130,
  "\u2581moto": 2131,
  "\u2581uchimo": 2132,
  "\u2581wokhala": 2133,
  "\u2581Beteli": 2134,
  "\u2581throughout": 2135,
  "\u2581ziphunzitso": 2136,
  "pita": 2137,
  "\u2581believers": 2138,
  "\u2581crowd": 2139,
  "\u2581Bethel": 2140,
  "\u2581grow": 2141,
  "\u2581seems": 2142,
  "st": 2143,
  "\u2581concern": 2144,
  "\u2581Hava": 2145,
  "\u2581Yuda": 2146,
  "\u2581ankachita": 2147,
  "dwe": 2148,
  "\u2581Ya": 2149,
  "\u2581chizindikiro": 2150,
  "\u2581justice": 2151,
  "\u2581wakale": 2152,
  "tsatira": 2153,
  "\u2581start": 2154,
  "\u2581takes": 2155,
  "\u2581pamenepo": 2156,
  "\u2581promised": 2157,
  "fika": 2158,
  "\u2581direction": 2159,
  "\u2581getting": 2160,
  "\u2581Christendom": 2161,
  "\u2581education": 2162,
  "\u2581wachikristu": 2163,
  "chitira": 2164,
  "maganizo": 2165,
  "lola": 2166,
  "\u2581develop": 2167,
  "\u2581kusunga": 2168,
  "pe": 2169,
  "\u2581September": 2170,
  "\u2581results": 2171,
  "\u2581experienced": 2172,
  "\u2581kwakukulu": 2173,
  "\u2581mitengo": 2174,
  "\u2581kuchoka": 2175,
  "\u2581offered": 2176,
  "\u2581anzathu": 2177,
  "\u2581daughter": 2178,
  "\u2581mafuta": 2179,
  "\u2581H": 2180,
  "\u2581Ndipotu": 2181,
  "\u2581short": 2182,
  "\u2581American": 2183,
  "\u2581kupemphera": 2184,
  "\u2581anger": 2185,
  "\u2581reasons": 2186,
  "\u2581Have": 2187,
  "\u2581office": 2188,
  "\u2581sometimes": 2189,
  "maiko": 2190,
  "\u2581akuma": 2191,
  "\u2581Tiyenera": 2192,
  "\u2581II": 2193,
  "\u2581Mesiya": 2194,
  "\u2581August": 2195,
  "\u2581mofanana": 2196,
  "\u2581peresenti": 2197,
  "\u2581Werengani": 2198,
  "\u2581creation": 2199,
  "\u2581chowonadi": 2200,
  "\u2581seven": 2201,
  "\u2581oti": 2202,
  "\u2581attend": 2203,
  "\u2581imitate": 2204,
  "\u2581zamoyo": 2205,
  "chokera": 2206,
  "man": 2207,
  "kutheka": 2208,
  "\u2581chilango": 2209,
  "\u2581nthambi": 2210,
  "\u2581akale": 2211,
  "\u2581umenewo": 2212,
  "\u2581alendo": 2213,
  "\u2581changes": 2214,
  "\u2581caused": 2215,
  "\u2581practice": 2216,
  "\u2581side": 2217,
  "\u2581building": 2218,
  "\u2581zakale": 2219,
  "\u2581chi\u0175erengero": 2220,
  "\u2581shown": 2221,
  "\u2581zinka": 2222,
  "Onani": 2223,
  "\u2581Therefore": 2224,
  "\u2581liti": 2225,
  "\u2581ndiko": 2226,
  "\u2581sizi": 2227,
  "\u2581mukufuna": 2228,
  "Moreover": 2229,
  "\u2581Eve": 2230,
  "\u2581chikumbumtima": 2231,
  "\u2581choyamba": 2232,
  "\u2581usually": 2233,
  "\u2581Kenaka": 2234,
  "\u2581kusiya": 2235,
  "\u2581zitsanzo": 2236,
  "dzikoli": 2237,
  "\u2581chiku": 2238,
  "\u2581wakhala": 2239,
  "\u2581salvation": 2240,
  "\u2581decisions": 2241,
  "\u2581fulfillment": 2242,
  "\u2581build": 2243,
  "\u2581km": 2244,
  "\u2581kufuna": 2245,
  "\u2581lidza": 2246,
  "\u2581zedi": 2247,
  "\u2581decided": 2248,
  "\u2581returned": 2249,
  "\u2581Canada": 2250,
  "landira": 2251,
  "\u2581Patapita": 2252,
  "\u2581action": 2253,
  "\u2581appreciate": 2254,
  "\u2581daily": 2255,
  "\u2581December": 2256,
  "\u2581girl": 2257,
  "\u2581occasion": 2258,
  "fe": 2259,
  "\u2581turned": 2260,
  "\u2581basis": 2261,
  "\u2581Mtima": 2262,
  "\u2581conscience": 2263,
  "\u2581kuthetsa": 2264,
  "\u2581proper": 2265,
  "\u2581ngozi": 2266,
  "\u2581training": 2267,
  "\u2581nyanja": 2268,
  "\u2581Asia": 2269,
  "\u2581psalmist": 2270,
  "\u2581Russia": 2271,
  "\u2581anthuwo": 2272,
  "\u2581stop": 2273,
  "one": 2274,
  "\u2581determined": 2275,
  "\u2581mwezi": 2276,
  "Read": 2277,
  "\u2581inayake": 2278,
  "\u2581anafunsa": 2279,
  "\u2581added": 2280,
  "\u2581necessary": 2281,
  "Mawu": 2282,
  "\u2581door": 2283,
  "\u2581parts": 2284,
  "\u2581amapereka": 2285,
  "\u2581Britain": 2286,
  "\u2581chinenero": 2287,
  "\u2581upainiya": 2288,
  "\u2581state": 2289,
  "\u2581morning": 2290,
  "\u2581sex": 2291,
  "\u2581wotchedwa": 2292,
  "kumana": 2293,
  "\u2581Nevertheless": 2294,
  "\u2581behind": 2295,
  "\u2581ndine": 2296,
  "Ndi": 2297,
  "\u2581Young": 2298,
  "\u2581rich": 2299,
  "\u2581Though": 2300,
  "\u2581kumwa": 2301,
  "\u2581makilomita": 2302,
  "\u2581zingapo": 2303,
  "\u2581kusamalira": 2304,
  "\u2581pay": 2305,
  "\u2581prison": 2306,
  "\u2581Ask": 2307,
  "\u2581wonder": 2308,
  "\u2581raised": 2309,
  "\u2581social": 2310,
  "\u2581exercise": 2311,
  "\u2581kulikonse": 2312,
  "\u2581woyang": 2313,
  "\u2581zonsezi": 2314,
  "\u2581praise": 2315,
  "\u2581anafuna": 2316,
  "\u2581kuika": 2317,
  "\u2581leaders": 2318,
  "\u2581elder": 2319,
  "\u2581interested": 2320,
  "\u2581program": 2321,
  "\u2581sea": 2322,
  "\u2581individual": 2323,
  "\u00a9": 2324,
  "\u2581literature": 2325,
  "Werengani": 2326,
  "\u2581eni": 2327,
  "\u2581kulemba": 2328,
  "\u2581helping": 2329,
  "\u2581lack": 2330,
  "\u2581regularly": 2331,
  "\u2581precious": 2332,
  "\u2581Za": 2333,
  "\u2581tree": 2334,
  "de": 2335,
  "\u2581Tina": 2336,
  "\u2581Achikristu": 2337,
  "\u2581Further": 2338,
  "\u2581youth": 2339,
  "tsiku": 2340,
  "\u2581Ali": 2341,
  "\u2581Anali": 2342,
  "\u2581evil": 2343,
  "\u2581tika": 2344,
  "\u2581anafika": 2345,
  "\u2581kwanu": 2346,
  "\u2581maola": 2347,
  "\u2581Nations": 2348,
  "pha": 2349,
  "\u2581paradise": 2350,
  "\u2581Holy": 2351,
  "\u2581Mariya": 2352,
  "\u2581week": 2353,
  "\u2581stay": 2354,
  "\u2581chinachake": 2355,
  "\u2581practical": 2356,
  "\u2581suffer": 2357,
  "\u2581mazana": 2358,
  "\u2581speech": 2359,
  "\u2581wants": 2360,
  "\u2581miyambo": 2361,
  "\u2581tinka": 2362,
  "\u2581music": 2363,
  "\u2581Ulaya": 2364,
  "\u2581include": 2365,
  "\u2581missionary": 2366,
  "\u2581pressure": 2367,
  "\u2581Others": 2368,
  "\u2581bwenzi": 2369,
  "\u2581kufa": 2370,
  "\u258129.": 2371,
  "\u2581odwala": 2372,
  "\u2581More": 2373,
  "\u2581allowed": 2374,
  "\u2581un": 2375,
  "\u2581October": 2376,
  "\u2581integrity": 2377,
  "\u2581Before": 2378,
  "nena": 2379,
  "\u2581asa": 2380,
  "\u2581beginning": 2381,
  "\u2581maziko": 2382,
  "\u2581nayo": 2383,
  "\u2581respond": 2384,
  "ntchito": 2385,
  "\u2581kulo\u0175a": 2386,
  "\u2581medical": 2387,
  "\u2581fire": 2388,
  "\u2581nalo": 2389,
  "tumikira": 2390,
  "\u2581kukula": 2391,
  "\u258124,": 2392,
  "lu": 2393,
  "\u2581conditions": 2394,
  "\u2581khama": 2395,
  "\u2581tells": 2396,
  "\u258121:": 2397,
  "\u2581Ko": 2398,
  "\u2581sayansi": 2399,
  "it": 2400,
  "\u2581knows": 2401,
  "\u2581yomweyo": 2402,
  "\u2581becoming": 2403,
  "\u2581R": 2404,
  "\u2581tidza": 2405,
  "limbitsa": 2406,
  "pempha": 2407,
  "siya": 2408,
  "\u2581Cha": 2409,
  "\u2581line": 2410,
  "\u2581nawonso": 2411,
  "\u2581discipline": 2412,
  "\u2581kukoma": 2413,
  "\u2581sign": 2414,
  "tsimikizira": 2415,
  "\u2581Nkhondo": 2416,
  "\u2581July": 2417,
  "\u2581record": 2418,
  "G": 2419,
  "\u2581mipingo": 2420,
  "\u2581mitima": 2421,
  "\u2581noted": 2422,
  "\u2581yanga": 2423,
  "pi": 2424,
  "\u2581encouraged": 2425,
  "\u2581kholo": 2426,
  "\u2581Brother": 2427,
  "\u2581Li": 2428,
  "\u2581assignment": 2429,
  "\u2581About": 2430,
  "\u2581personality": 2431,
  "sunga": 2432,
  "\u2581woona": 2433,
  "mbiri": 2434,
  "\u2581Aefeso": 2435,
  "\u2581St": 2436,
  "\u2581addition": 2437,
  "\u2581languages": 2438,
  "\u2581beyond": 2439,
  "\u2581Ephesians": 2440,
  "\u2581either": 2441,
  "chakuti": 2442,
  "do": 2443,
  "\u2581challenge": 2444,
  "\u2581mafano": 2445,
  "leza": 2446,
  "\u2581feeling": 2447,
  "\u2581mate": 2448,
  "\u2581yakale": 2449,
  "\u2581China": 2450,
  "\u2581areas": 2451,
  "\u2581condition": 2452,
  "We": 2453,
  "\u2581liwu": 2454,
  "\u2581June": 2455,
  "\u2581achibale": 2456,
  "lingalira": 2457,
  "\u2581sun": 2458,
  "komwe": 2459,
  "\u2581sound": 2460,
  "\u258128.": 2461,
  "\u2581kudzipereka": 2462,
  "\u2581Mexico": 2463,
  "\u2581munali": 2464,
  "\u2581Perhaps": 2465,
  "\u2581Rome": 2466,
  "\u2581Mzimu": 2467,
  "\u2581tinga": 2468,
  "3": 2469,
  "\u2581member": 2470,
  "\u2581positive": 2471,
  "dziwa": 2472,
  "\u2581Mmene": 2473,
  "\u2581mtumiki": 2474,
  "\u2581chiweruzo": 2475,
  "\u2581sadza": 2476,
  "\u2581chiwawa": 2477,
  "\u2581followed": 2478,
  "\u2581provides": 2479,
  "\u2581Kwenikweni": 2480,
  "\u2581Brooklyn": 2481,
  "\u2581cases": 2482,
  "\u2581invited": 2483,
  "\u2581\"\"": 2484,
  "\u2581Children": 2485,
  "\u2581greatest": 2486,
  "\u2581phindu": 2487,
  "yenera": 2488,
  "\u2581India": 2489,
  "\u2581mwanayo": 2490,
  "\u2581protect": 2491,
  "It": 2492,
  "\u2581ankafuna": 2493,
  "\u2581mofulumira": 2494,
  "\u2581realize": 2495,
  "\u2581recent": 2496,
  "\u258123]": 2497,
  "\u2581mnyamata": 2498,
  "\u2581looking": 2499,
  "\u2581March": 2500,
  "\u2581kufufuza": 2501,
  "\u2581showing": 2502,
  "4": 2503,
  "\u258121,": 2504,
  "\u2581malemba": 2505,
  "ze": 2506,
  "\u2581quickly": 2507,
  "],": 2508,
  "\u2581trying": 2509,
  "less": 2510,
  "\u2581zotsatira": 2511,
  "\u2581nature": 2512,
  "\u2581Messiah": 2513,
  "\u2581emotional": 2514,
  "\u2581osauka": 2515,
  "\u2581studying": 2516,
  "\u2581Where": 2517,
  "\u2581expression": 2518,
  "\u2581kukumbukira": 2519,
  "\u2581kuvutika": 2520,
  "\u2581pamwamba": 2521,
  "\u2581reports": 2522,
  "\u2581January": 2523,
  "\u2581Uthenga": 2524,
  "\u2581actions": 2525,
  "\u2581Love": 2526,
  "\u2581NDI": 2527,
  "ch": 2528,
  "\u2581achikulire": 2529,
  "\u2581voice": 2530,
  "\u2581wamphamvu": 2531,
  "\u2581expect": 2532,
  "\u2581mumzinda": 2533,
  "\u2581anakumana": 2534,
  "\u2581happen": 2535,
  "\u2581njala": 2536,
  "so": 2537,
  "yesa": 2538,
  "\u2581amatha": 2539,
  "\u2581miyoyo": 2540,
  "kana": 2541,
  "\u2581iyeyo": 2542,
  "magazini": 2543,
  "\u2581seeking": 2544,
  "zindikira": 2545,
  "\u2581enjoyed": 2546,
  "\u2581saku": 2547,
  "\u2581worked": 2548,
  "\u2581priest": 2549,
  "\u2581ofunika": 2550,
  "as": 2551,
  "\u2581Chiyani": 2552,
  "\u2581Zina": 2553,
  "\u2581kutero": 2554,
  "\u2581Samueli": 2555,
  "\u2581Judah": 2556,
  "\u2581anayankha": 2557,
  "\u2581society": 2558,
  "\u2581walking": 2559,
  "ry": 2560,
  "\u2581arrived": 2561,
  "\u2581guidance": 2562,
  "\u2581oyera": 2563,
  "\u25819]": 2564,
  "\u2581okhulupirira": 2565,
  "K": 2566,
  "Y": 2567,
  "mwa": 2568,
  "\u258128:": 2569,
  "\u2581related": 2570,
  "\u258131.": 2571,
  "\u2581interests": 2572,
  "\u2581ankakhala": 2573,
  "\u2581Komatu": 2574,
  "\u2581mwanzeru": 2575,
  "\u2581priests": 2576,
  "If": 2577,
  "\u2581original": 2578,
  "\u2581otsiriza": 2579,
  "\u2581beautiful": 2580,
  "\u2581choose": 2581,
  "\u2581spent": 2582,
  "\u2581completely": 2583,
  "\u2581outside": 2584,
  "\u2581pamoyo": 2585,
  "\u258135": 2586,
  "\u2581eventually": 2587,
  "\u2581obey": 2588,
  "\u2581Kuwonjezera": 2589,
  "\u2581School": 2590,
  "\u2581devotion": 2591,
  "\u2581analandira": 2592,
  "\u2581ubwino": 2593,
  "\u2581yotchedwa": 2594,
  "\u2581presence": 2595,
  "\u2581Pakuti": 2596,
  "\u2581Soon": 2597,
  "\u2581dzanja": 2598,
  "\u2581kungakhale": 2599,
  "\u2581Wachikristu": 2600,
  "\u2581kosatha": 2601,
  "\u2581mental": 2602,
  "\u2581filled": 2603,
  "\u2581kapolo": 2604,
  "\u2581Choyamba": 2605,
  "\u2581month": 2606,
  "thetsa": 2607,
  "\u2581KODI": 2608,
  "\u2581Kuyambira": 2609,
  "\u2581mtsogolo": 2610,
  "\u2581ready": 2611,
  "\u2581benefits": 2612,
  "\u2581security": 2613,
  "panga": 2614,
  "\u2581traveling": 2615,
  "R": 2616,
  "vi": 2617,
  "\u2581fulfilled": 2618,
  "\u2581Christianity": 2619,
  "\u2581acts": 2620,
  "\u2581mkwiyo": 2621,
  "\u2581beliefs": 2622,
  "\u2581w": 2623,
  "\u2581Saul": 2624,
  "\u2581dipo": 2625,
  "\u2581pomwe": 2626,
  "\u258116:": 2627,
  "\u2581begin": 2628,
  "\u2581ground": 2629,
  "\u2581business": 2630,
  "\u2581reported": 2631,
  "\u2581simple": 2632,
  "\u2581built": 2633,
  "\u2581dera": 2634,
  "\u2581mudza": 2635,
  "\u2581inati": 2636,
  "\u2581Kuchita": 2637,
  "\u2581success": 2638,
  "\u2581strengthen": 2639,
  "\u2581prayed": 2640,
  "ar": 2641,
  "\u2581atsopano": 2642,
  "\u2581chithunzi": 2643,
  "\u2581nyenyezi": 2644,
  "\u2581warning": 2645,
  "\u2581major": 2646,
  "h": 2647,
  "\u2581Brazil": 2648,
  "\u2581Paradise": 2649,
  "\u2581alive": 2650,
  "\u2581final": 2651,
  "\u2581studies": 2652,
  "\u258126.": 2653,
  "\u2581developed": 2654,
  "\u2581persons": 2655,
  "\u2581sitima": 2656,
  "\u2581zosa": 2657,
  "\u2581quality": 2658,
  "\u2581spend": 2659,
  "\u2581third": 2660,
  "dzi": 2661,
  "\u2581Re": 2662,
  "\u2581sacred": 2663,
  "\u2581behavior": 2664,
  "\u2581express": 2665,
  "\u2581mafumu": 2666,
  "\u2581fall": 2667,
  "\u2581general": 2668,
  "\u2581idea": 2669,
  "\u2581knowing": 2670,
  "\u2581lot": 2671,
  "ur": 2672,
  "\u2581endure": 2673,
  "\u2581Keep": 2674,
  "\u2581Similarly": 2675,
  "\u2581bear": 2676,
  "\u2581ofesi": 2677,
  "\u2581su": 2678,
  "\u2581tribulation": 2679,
  "\u258128,": 2680,
  "\u2581mwinamwake": 2681,
  "\u2581chipulumutso": 2682,
  "\u2581progress": 2683,
  "\u2581munga": 2684,
  "\u2581chidza": 2685,
  "\u2581blessed": 2686,
  "\u2581mwakhama": 2687,
  "\u2581zikwi": 2688,
  "\u2581yankho": 2689,
  "\u258145": 2690,
  "\u2581calls": 2691,
  "\u2581Bungwe": 2692,
  "\u2581killed": 2693,
  "\u2581antchito": 2694,
  "\u2581kwina": 2695,
  "\u2581wamkazi": 2696,
  "\u2581ifeyo": 2697,
  "\u2581zithunzi": 2698,
  "\u2581pangano": 2699,
  "go": 2700,
  "\u2581treatment": 2701,
  "\u2581homes": 2702,
  "\u2581Sa": 2703,
  "\u2581prevent": 2704,
  "\u2581Banja": 2705,
  "\u2581mayankho": 2706,
  "anizana": 2707,
  "fotokoza": 2708,
  "\u258130.": 2709,
  "\u2581tchimo": 2710,
  "cha": 2711,
  "\u2581expressed": 2712,
  "\u2581groups": 2713,
  "\u2581tione": 2714,
  "\u2581mlongo": 2715,
  "khala": 2716,
  "\u258115]": 2717,
  "\u2581Times": 2718,
  "\u2581Mayi": 2719,
  "\u2581address": 2720,
  "\u258110]": 2721,
  "lankhula": 2722,
  "\u2581siti": 2723,
  "\u2581test": 2724,
  "\u2581whatever": 2725,
  "zopanda": 2726,
  "\u2581Kunena": 2727,
  "\u2581Mbiri": 2728,
  "\u2581aphunzitsi": 2729,
  "\u2581favor": 2730,
  "In": 2731,
  "\u2581Remember": 2732,
  "\u2581zikusonyeza": 2733,
  "pangitsa": 2734,
  "\u2581term": 2735,
  "\u2581zochuluka": 2736,
  "\u2581V": 2737,
  "\u2581komabe": 2738,
  "\u2581mosavuta": 2739,
  "\u2581yeniyeni": 2740,
  "\u2581wachikondi": 2741,
  "lephera": 2742,
  "mvera": 2743,
  "\u2581sali": 2744,
  "\u2581zizindikiro": 2745,
  "\u2581goal": 2746,
  "\u2581Ha": 2747,
  "\u2581passed": 2748,
  "\u2581Intaneti": 2749,
  "\u2581explain": 2750,
  "\u2581unansi": 2751,
  "\u2581imperfect": 2752,
  "\u2581kupewa": 2753,
  "\u2581pogwiritsa": 2754,
  "\u2581wazaka": 2755,
  "\u2581IN": 2756,
  "\u2581mwamphamvu": 2757,
  "\u2581contact": 2758,
  "\u2581amishonale": 2759,
  "\u2581encourage": 2760,
  "\u2581abuse": 2761,
  "\u2581kudzakhala": 2762,
  "\u2581revealed": 2763,
  "yembekezera": 2764,
  "\u2581enemies": 2765,
  "L": 2766,
  "\u2581aang": 2767,
  "\u2581firm": 2768,
  "\u2581meant": 2769,
  "\u2581pokhala": 2770,
  "\u2581yotsatira": 2771,
  "\u2581keeping": 2772,
  "wononga": 2773,
  "\u2581established": 2774,
  "vomereza": 2775,
  "9": 2776,
  "\u2581boy": 2777,
  "\u2581deeply": 2778,
  "\u2581mpata": 2779,
  "\u2581ng": 2780,
  "\u2581ziri": 2781,
  "\u2581London": 2782,
  "\u2581yoyenera": 2783,
  "el": 2784,
  "\u2581nkhanza": 2785,
  "1": 2786,
  "\u2581Italy": 2787,
  "\u2581Mbale": 2788,
  "\u2581servant": 2789,
  "\u2581zofuna": 2790,
  "\u2581sick": 2791,
  "\u2581Jacob": 2792,
  "\u2581humble": 2793,
  "\u2581missionaries": 2794,
  "Do": 2795,
  "\u2581Her": 2796,
  "yamba": 2797,
  "\u2581anamva": 2798,
  "\u258165": 2799,
  "\u2581November": 2800,
  "\u2581choice": 2801,
  "\u2581picture": 2802,
  "ation": 2803,
  "kofunika": 2804,
  "\u25811914": 2805,
  "letsa": 2806,
  "\u2581protection": 2807,
  "\u2581trials": 2808,
  "\u2581encouragement": 2809,
  "\u2581assigned": 2810,
  "\u2581dedicated": 2811,
  "\u2581mbalame": 2812,
  "\u2581produce": 2813,
  "\u2581Lemba": 2814,
  "\u2581courage": 2815,
  "\u2581zochepa": 2816,
  "\u2581Well": 2817,
  "\u2581play": 2818,
  "\u2581wives": 2819,
  "\u2581yourselves": 2820,
  "\u2581mercy": 2821,
  "\u25814;": 2822,
  "\u2581observed": 2823,
  "\u2581yotani": 2824,
  "\u2581ziwiri": 2825,
  "\u2581prepared": 2826,
  "\u2581De": 2827,
  "\u2581History": 2828,
  "\u2581enieni": 2829,
  "\u2581lonjezo": 2830,
  "\u2581olungama": 2831,
  "\u2581patient": 2832,
  "\u2581Despi": 2833,
  "\u2581East": 2834,
  "\u2581risk": 2835,
  "sankha": 2836,
  "\u2581increase": 2837,
  "\u2581Achinyamata": 2838,
  "\u2581car": 2839,
  "\u2581required": 2840,
  "\u2581articles": 2841,
  "\u2581kumpoto": 2842,
  "\u2581seemed": 2843,
  "\u2581woipa": 2844,
  "\u2581Z": 2845,
  "\u2581anasankha": 2846,
  "\u2581Encyclopedia": 2847,
  "\u2581zinayi": 2848,
  "he": 2849,
  "\u2581ahead": 2850,
  "\u2581included": 2851,
  "SAMBA": 2852,
  "\u2581fruit": 2853,
  "\u2581yense": 2854,
  "mng": 2855,
  "\u2581mokhulupirika": 2856,
  "\u2581pantchito": 2857,
  "\u2581kalekale": 2858,
  "\u2581kupanda": 2859,
  "\u2581Wabwino": 2860,
  "\u2581Translation": 2861,
  "\u2581destroyed": 2862,
  "\u2581kupyolera": 2863,
  "\u2581ankadziwa": 2864,
  "\u2581desires": 2865,
  "\u2581ofalitsa": 2866,
  "\u2581angel": 2867,
  "lira": 2868,
  "\u2581hour": 2869,
  "\u2581kupe\u0175a": 2870,
  "\u2581okhudza": 2871,
  "\u2581City": 2872,
  "\u2581lotchedwa": 2873,
  "\u2581standing": 2874,
  "\u2581achite": 2875,
  "\u2581town": 2876,
  "\u2581drugs": 2877,
  "\u2581iri": 2878,
  "See": 2879,
  "\u2581kuyesetsa": 2880,
  "\u2581relief": 2881,
  "opa": 2882,
  "\u2581analankhula": 2883,
  "\u2581okalamba": 2884,
  "\u2581teacher": 2885,
  "H": 2886,
  "yenda": 2887,
  "\u2581Also": 2888,
  "\u2581household": 2889,
  "\u2581chirichonse": 2890,
  "\u2581key": 2891,
  "\u258136": 2892,
  "\u2581dedication": 2893,
  "\u2581okwana": 2894,
  "\u2581kuwerenga": 2895,
  "\u2581room": 2896,
  "kwaniritsidwa": 2897,
  "\u2581finally": 2898,
  "\u2581kusangalala": 2899,
  "kati": 2900,
  "\u2581Time": 2901,
  "\u2581dokotala": 2902,
  "\u2581kapenanso": 2903,
  "\u2581anakana": 2904,
  "\u2581anazindikira": 2905,
  "\u2581steps": 2906,
  "dwa": 2907,
  "\u2581cope": 2908,
  "zimene": 2909,
  "\u2581Soviet": 2910,
  "\u2581pamisonkhano": 2911,
  "\u2581cities": 2912,
  "\u2581malire": 2913,
  "\u258125]": 2914,
  "\u2581Inu": 2915,
  "\u2581kupha": 2916,
  "ton": 2917,
  "\u2581Each": 2918,
  "\u2581oyamba": 2919,
  "\u2581workers": 2920,
  "\u2581Should": 2921,
  "\u2581genuine": 2922,
  "\u2581kumalo": 2923,
  "\u2581kaye": 2924,
  "\u2581zimasonyeza": 2925,
  "\u2581Clearly": 2926,
  "\u2581Muzi": 2927,
  "\u2581command": 2928,
  "\u2581although": 2929,
  "\u258127.": 2930,
  "\u2581Ezekiel": 2931,
  "\u2581importance": 2932,
  "\u2581nanu": 2933,
  "\u2581\u25c6": 2934,
  "\u2581Through": 2935,
  "\u2581authorities": 2936,
  "\u2581brings": 2937,
  "\u2581chauzimu": 2938,
  "\u2581cut": 2939,
  "ce": 2940,
  "\u2581kuwononga": 2941,
  "\u2581panthawi": 2942,
  "\u2581angachite": 2943,
  "\u2581flock": 2944,
  "\u2581realized": 2945,
  "\u2581Gilead": 2946,
  "\u2581Us": 2947,
  "\u2581amadziwa": 2948,
  "\u2581experiences": 2949,
  "\u2581kings": 2950,
  "\u2581treat": 2951,
  "\u2581unity": 2952,
  "\u2581affection": 2953,
  "\u2581anawa": 2954,
  "\u2581stress": 2955,
  "2": 2956,
  "che": 2957,
  "\u2581akutero": 2958,
  "\u2581basic": 2959,
  "\u2581wapadera": 2960,
  "\u2581theka": 2961,
  "Let": 2962,
  "\u258122:": 2963,
  "\u2581mpweya": 2964,
  "\u2581Chitsanzo": 2965,
  "\u2581ukapolo": 2966,
  "kuyamba": 2967,
  "\u2581Me": 2968,
  "\u2581Sukulu": 2969,
  "\u2581kucheza": 2970,
  "\u2581lotani": 2971,
  "\u2581persecution": 2972,
  "\u2581wophunzira": 2973,
  "\u2581contrast": 2974,
  "\u2581overseer": 2975,
  "\u2581quite": 2976,
  "onopang": 2977,
  "org": 2978,
  "w": 2979,
  "\u2581existence": 2980,
  "\u2581pochita": 2981,
  "\u2581declared": 2982,
  "\u2581kulimbana": 2983,
  "\u2581reflect": 2984,
  "\u2581wachichepere": 2985,
  "\u2581zanga": 2986,
  "\u2581approach": 2987,
  "\u2581ineyo": 2988,
  "\u2581publishers": 2989,
  "\u2581suffered": 2990,
  "\u258114;": 2991,
  "\u2581oterowo": 2992,
  "phunzitsa": 2993,
  "\u2581Chikondi": 2994,
  "\u2581despite": 2995,
  "\u2581sleep": 2996,
  "7": 2997,
  "khoza": 2998,
  "\u2581auzimu": 2999,
  "\u2581anayenera": 3000,
  "uza": 3001,
  "\u2581mowa": 3002,
  "\u2581spread": 3003,
  "\u2581aware": 3004,
  "\u2581zikhulupiriro": 3005,
  "\u2581Ezekieli": 3006,
  "\u2581anavomereza": 3007,
  "\u2581goes": 3008,
  "\u2581growing": 3009,
  "\u2581kutha": 3010,
  "\u2581anabwera": 3011,
  "\u2581kukhalabe": 3012,
  "\u2581nzika": 3013,
  "\u2581Mlaliki": 3014,
  "\u2581particularly": 3015,
  "Chi": 3016,
  "\u2581Sea": 3017,
  "\u2581resurrected": 3018,
  "\u2581zingakhale": 3019,
  "\u2581Good": 3020,
  "ombe": 3021,
  "\u2581achikristu": 3022,
  "\u2581faced": 3023,
  "\u2581Abulahamu": 3024,
  "\u2581publications": 3025,
  "\u2581forward": 3026,
  "\u2581tonsefe": 3027,
  "\u2581watsopano": 3028,
  "dalira": 3029,
  "tsindika": 3030,
  "yambitsa": 3031,
  "\u2581nearly": 3032,
  "\u2581involves": 3033,
  "\u2581pantha\u0175iyo": 3034,
  "ngokhala": 3035,
  "\u2581universe": 3036,
  "\u2581Inc": 3037,
  "\u2581behalf": 3038,
  "\u2581thayo": 3039,
  "\u2581Tima": 3040,
  "\u2581PAGE": 3041,
  "\u2581Was": 3042,
  "\u2581\"[": 3043,
  "\u2581Mwamuna": 3044,
  "\u2581ndilo": 3045,
  "\u2581loss": 3046,
  "\u2581military": 3047,
  "ca": 3048,
  "tse": 3049,
  "\u258117]": 3050,
  "\u2581Mofananamo": 3051,
  "\u2581carefully": 3052,
  "\u2581kukana": 3053,
  "\u2581late": 3054,
  "more": 3055,
  "\u2581kuunika": 3056,
  "\u2581tsoka": 3057,
  "\u2581ankaona": 3058,
  "\u2581wolemba": 3059,
  "\u2581February": 3060,
  "\u2581ada": 3061,
  "\u2581sort": 3062,
  "\u2581Mkazi": 3063,
  "\u2581neighbor": 3064,
  "\u2581principle": 3065,
  "\u2581limasonyeza": 3066,
  "\u2581amphamvu": 3067,
  "\u2581anzeru": 3068,
  "\u2581wolimba": 3069,
  "bwera": 3070,
  "\u2581ogwira": 3071,
  "\u00e9": 3072,
  "\u2581osangalala": 3073,
  "\u2581othandiza": 3074,
  "\u2581teachers": 3075,
  "\u2581active": 3076,
  "\u258135.": 3077,
  "\u2581kulira": 3078,
  "\u2581oyang": 3079,
  "\u2581visited": 3080,
  "ia": 3081,
  "\u2581amaganiza": 3082,
  "\u2581pioneers": 3083,
  "\u258133.": 3084,
  "\u258190": 3085,
  "\u2581Book": 3086,
  "\u2581National": 3087,
  "\u2581consequences": 3088,
  "\u2581race": 3089,
  "\u2581vision": 3090,
  "\u2581Family": 3091,
  "\u2581akakhala": 3092,
  "\u2581kutenga": 3093,
  "\u2581muzi": 3094,
  "\u2581Lerolino": 3095,
  "\u2581anafa": 3096,
  "\u2581anasiya": 3097,
  "\u2581c": 3098,
  "\u2581fight": 3099,
  "\u2581Isiraeli": 3100,
  "\u2581air": 3101,
  "\u2581recognize": 3102,
  "\u2581motere": 3103,
  "est": 3104,
  "\u2581amagwira": 3105,
  "\u2581practices": 3106,
  "able": 3107,
  "pezeka": 3108,
  "\u2581Pantha\u0175i": 3109,
  "\u2581onena": 3110,
  "\u2581responsible": 3111,
  "\u2581chigololo": 3112,
  "\u2581claim": 3113,
  "\u2581immediately": 3114,
  "\u2581kukwaniritsa": 3115,
  "\u2581zinazake": 3116,
  "\u2581Philippians": 3117,
  "\u2581chosen": 3118,
  "\u2581ndidza": 3119,
  "\u2581nsomba": 3120,
  "\u2581attended": 3121,
  "\u2581mokwanira": 3122,
  "\u2581ziyenera": 3123,
  "ganizira": 3124,
  "\u2581Akatswiri": 3125,
  "\u2581anagwiritsa": 3126,
  "\u2581event": 3127,
  "\u2581instead": 3128,
  "\u2581kumu": 3129,
  "lemekeza": 3130,
  "For": 3131,
  "son": 3132,
  "\u258110;": 3133,
  "\u2581200": 3134,
  "\u2581Only": 3135,
  "pu": 3136,
  "\u25811990": 3137,
  "\u2581Ecclesiastes": 3138,
  "\u2581asayansi": 3139,
  "\u2581illustration": 3140,
  "nyanja": 3141,
  "\u2581zenizeni": 3142,
  "\u2581Afilipi": 3143,
  "\u2581asana": 3144,
  "\u2581eating": 3145,
  "\u2581step": 3146,
  "\u2581pure": 3147,
  "\u2581amagwiritsa": 3148,
  "\u2581Pamenepo": 3149,
  "\u2581believed": 3150,
  "\u2581kungo": 3151,
  "\u2581mwawo": 3152,
  "\u2581nayenso": 3153,
  "\u2581opened": 3154,
  "\u2581sikuti": 3155,
  "He": 3156,
  "\u2581easily": 3157,
  "\u2581spoken": 3158,
  "\u2581Taganizirani": 3159,
  "\u2581kumvetsera": 3160,
  "\u2581anawo": 3161,
  "\u2581kuwona": 3162,
  "\u2581manner": 3163,
  "\u2581mosasamala": 3164,
  "\u2581translation": 3165,
  "funikira": 3166,
  "\u2581limited": 3167,
  "\u2581ndemanga": 3168,
  "\u2581writer": 3169,
  "Mu": 3170,
  "kula": 3171,
  "\u2581continues": 3172,
  "wona": 3173,
  "\u2581Motani": 3174,
  "\u2581anapitiriza": 3175,
  "\u2581conclusion": 3176,
  "\u2581reasonable": 3177,
  "\u2581wolungama": 3178,
  "F": 3179,
  "kwaniritsa": 3180,
  "\u2581kukhulupirika": 3181,
  "\u2581akapolo": 3182,
  "\u2581minister": 3183,
  "\u2581truths": 3184,
  "\u2581wosangalala": 3185,
  "\u2581arrangement": 3186,
  "\u2581concerned": 3187,
  "\u2581ndale": 3188,
  "\u2581big": 3189,
  "\u2581danger": 3190,
  "\u2581kukambirana": 3191,
  "\u2581makumi": 3192,
  "\u2581notes": 3193,
  "tuluka": 3194,
  "\u2581goals": 3195,
  "\u2581khamu": 3196,
  "\u2581makonzedwe": 3197,
  "\u2581mouth": 3198,
  "\u2581mungachite": 3199,
  "\u2581viewed": 3200,
  "\u2581appear": 3201,
  "\u258118]": 3202,
  "\u2581anabatizidwa": 3203,
  "\u2581causes": 3204,
  "\u2581mwanjira": 3205,
  "\u2581opposition": 3206,
  "fu": 3207,
  "\u2581miyala": 3208,
  "\u2581mapazi": 3209,
  "\u2581verse": 3210,
  "ha": 3211,
  "\u258116;": 3212,
  "\u2581ndizo": 3213,
  "\u2581Testament": 3214,
  "\u2581kulemekeza": 3215,
  "\u2581kuyang": 3216,
  "\u2581sacrifices": 3217,
  "\u2581urged": 3218,
  "\u2581Eliya": 3219,
  "\u2581maiko": 3220,
  "\u2581African": 3221,
  "\u2581Version": 3222,
  "\u2581doctor": 3223,
  "\u2581mulungu": 3224,
  "\u2581pawo": 3225,
  "\u2581sight": 3226,
  "dzina": 3227,
  "\u2581Panopa": 3228,
  "\u2581mphepo": 3229,
  "co": 3230,
  "ci": 3231,
  "\u2581Kwambiri": 3232,
  "\u2581Onse": 3233,
  "\u2581points": 3234,
  "\u2581kukhalapo": 3235,
  "\u2581leading": 3236,
  "\u2581anaphunzira": 3237,
  "\u2581thousand": 3238,
  "\u2581Komano": 3239,
  "\u2581Nazi": 3240,
  "\u2581Tikama": 3241,
  "\u2581cultivate": 3242,
  "\u2581mtsikana": 3243,
  "\u2581watch": 3244,
  "\u2581answered": 3245,
  "\u2581image": 3246,
  "\u2581anapanga": 3247,
  "\u2581publication": 3248,
  "nyengo": 3249,
  "\u2581Over": 3250,
  "\u2581economic": 3251,
  "\u2581wofunika": 3252,
  "\u2581Joshua": 3253,
  "\u2581UN": 3254,
  "\u2581gods": 3255,
  "\u2581save": 3256,
  "\u2581baby": 3257,
  "bala": 3258,
  "\u2581agree": 3259,
  "\u2581animal": 3260,
  "\u2581display": 3261,
  "\u2581Man": 3262,
  "nyamula": 3263,
  "\u2581anyamata": 3264,
  "\u2581asking": 3265,
  "lo\u0175a": 3266,
  "\u2581chosa": 3267,
  "\u2581warned": 3268,
  "\u2581weeks": 3269,
  "\u2581yokha": 3270,
  "\u2581anapempha": 3271,
  "\u2581apo": 3272,
  "\u2581global": 3273,
  "\u2581maulendo": 3274,
  "\u2581attending": 3275,
  "\u2581front": 3276,
  "\u2581road": 3277,
  "\u2581zilizonse": 3278,
  "\u2581crime": 3279,
  "\u2581fuko": 3280,
  "\u2581sanga": 3281,
  "\u2581wamwamuna": 3282,
  "\u2581yatsopano": 3283,
  "gona": 3284,
  "\u2581carried": 3285,
  "\u2581elderly": 3286,
  "\u2581negative": 3287,
  "\u2581zambirimbiri": 3288,
  "funika": 3289,
  "\u2581Timoteyo": 3290,
  "\u2581analenga": 3291,
  "\u2581nokha": 3292,
  "Ngati": 3293,
  "\u2581evening": 3294,
  "\u2581names": 3295,
  "\u2581amasangalala": 3296,
  "\u2581analibe": 3297,
  "\u2581ochita": 3298,
  "\u2581requires": 3299,
  "\u2581Chikhulupiriro": 3300,
  "\u2581Mount": 3301,
  "\u2581becomes": 3302,
  "\u2581due": 3303,
  "\u2581ndege": 3304,
  "\u2581seed": 3305,
  "\u2581umunthu": 3306,
  "obwerezabwereza": 3307,
  "\u2581amitundu": 3308,
  "\u2581sayenera": 3309,
  "\u2581Ka\u0175irika\u0175iri": 3310,
  "\u2581discuss": 3311,
  "\u2581association": 3312,
  "\u2581tizilombo": 3313,
  "\u2581yochepa": 3314,
  "\u2581accounts": 3315,
  "\u2581anatchula": 3316,
  "\u2581examine": 3317,
  "\u2581padzikoli": 3318,
  "yankha": 3319,
  "\u2581adds": 3320,
  "\u2581effective": 3321,
  "\u2581reached": 3322,
  "\u2581Here": 3323,
  "\u2581International": 3324,
  "\u2581miyezo": 3325,
  "\u2581onga": 3326,
  "\u2581wangwiro": 3327,
  "\u2581zikuchitika": 3328,
  "\u2581ndiyeno": 3329,
  "\u2581tikama": 3330,
  "Anthu": 3331,
  "\u258180": 3332,
  "\u2581rejoice": 3333,
  "\u2581tongue": 3334,
  "samalira": 3335,
  "\u2581anafunikira": 3336,
  "\u2581chisamaliro": 3337,
  "\u2581religions": 3338,
  "\u2581seeing": 3339,
  "\u258123,": 3340,
  "\u25815;": 3341,
  "\u2581eye": 3342,
  "\u2581observe": 3343,
  "\u2581personally": 3344,
  "\u2581refused": 3345,
  "\u2581sharing": 3346,
  "ism": 3347,
  "\u2581kuku": 3348,
  "ment": 3349,
  "zinthu": 3350,
  "\u2581zoyenera": 3351,
  "\u2581ankakonda": 3352,
  "\u2581loyalty": 3353,
  "\u2581msanga": 3354,
  "\u2581population": 3355,
  "thera": 3356,
  "\u2581police": 3357,
  "\u2581High": 3358,
  "\u2581kenaka": 3359,
  "\u2581kuuza": 3360,
  "\u2581yovuta": 3361,
  "\u2581chinyengo": 3362,
  "\u2581failed": 3363,
  "\u2581lesson": 3364,
  "mvetsa": 3365,
  "\u2581Mafunso": 3366,
  "\u2581forget": 3367,
  "\u2581mizimu": 3368,
  "\u2581divorce": 3369,
  "\u2581looked": 3370,
  "tchula": 3371,
  "\u2581mwathu": 3372,
  "\u2581olimba": 3373,
  "5": 3374,
  "\u2581Elijah": 3375,
  "\u2581Its": 3376,
  "\u2581Pokhala": 3377,
  "\u2581kuyamikira": 3378,
  "\u2581relatives": 3379,
  "\u2581zi\u0175alo": 3380,
  "\u2581paradaiso": 3381,
  "\u2581probably": 3382,
  "\u2581values": 3383,
  "\u2581Ophunzira": 3384,
  "\u2581chidaliro": 3385,
  "dya": 3386,
  "ganiza": 3387,
  "\u2581Among": 3388,
  "\u2581Two": 3389,
  "\u2581lose": 3390,
  "\u2581German": 3391,
  "gwirizana": 3392,
  "\u2581Body": 3393,
  "\u2581zinachititsa": 3394,
  "\u2581Khalani": 3395,
  "\u25815]": 3396,
  "\u2581closer": 3397,
  "\u258138": 3398,
  "\u258155": 3399,
  "il": 3400,
  "\u2581anapatsa": 3401,
  "\u2581apeze": 3402,
  "This": 3403,
  "\u2581fail": 3404,
  "\u2581note": 3405,
  "\u2581particular": 3406,
  "\u2581fodya": 3407,
  "\u2581okonda": 3408,
  "chotsa": 3409,
  "\u2581affected": 3410,
  "\u2581drink": 3411,
  "\u2581extreme": 3412,
  "lemba": 3413,
  "\u2581anandi": 3414,
  "\u2581kufunafuna": 3415,
  "\u2581response": 3416,
  "kumbukira": 3417,
  "ting": 3418,
  "\u2581guard": 3419,
  "\u2581village": 3420,
  "\u258112;": 3421,
  "\u2581specific": 3422,
  "\u2581talking": 3423,
  "\u2581worth": 3424,
  "\u2581Poyamba": 3425,
  "\u2581chikhalidwe": 3426,
  "\u2581lie": 3427,
  "\u2581izo": 3428,
  "\u2581payekha": 3429,
  "amba": 3430,
  "\u2581merely": 3431,
  "munda": 3432,
  "\u2581Really": 3433,
  "\u2581belief": 3434,
  "\u2581malonjezo": 3435,
  "fi": 3436,
  "\u2581includes": 3437,
  "\u2581kupitiriza": 3438,
  "\u2581Na": 3439,
  "\u2581Ndinali": 3440,
  "\u2581anzanga": 3441,
  "\u2581chimodzimodzi": 3442,
  "\u2581relative": 3443,
  "\u2581search": 3444,
  "\u2581zothandiza": 3445,
  "\u2581North": 3446,
  "\u2581popular": 3447,
  "\u2581Tchalitchi": 3448,
  "\u2581break": 3449,
  "\u2581environment": 3450,
  "\u2581Gileadi": 3451,
  "\u2581inunso": 3452,
  "\u2581lenileni": 3453,
  "fikira": 3454,
  "kwera": 3455,
  "\u2581inka": 3456,
  "\u2581writing": 3457,
  "\u2581imagine": 3458,
  "\u2581mukhale": 3459,
  "\u2581concerning": 3460,
  "\u2581Kaya": 3461,
  "\u2581apainiya": 3462,
  "\u2581fanizo": 3463,
  "\u2581situations": 3464,
  "\u2581Malo": 3465,
  "\u2581Other": 3466,
  "\u2581inside": 3467,
  "\u2581kena": 3468,
  "\u2581ndiku": 3469,
  "Pa": 3470,
  "\u258117;": 3471,
  "\u2581Union": 3472,
  "ion": 3473,
  "\u2581Finally": 3474,
  "\u2581chisangalalo": 3475,
  "\u2581tita": 3476,
  "\u2581wars": 3477,
  "kha": 3478,
  "\u2581hundreds": 3479,
  "\u2581kufotokoza": 3480,
  "\u2581reality": 3481,
  "\u2581amount": 3482,
  "\u2581convinced": 3483,
  "\u2581focus": 3484,
  "\u2581gifts": 3485,
  "\u2581issues": 3486,
  "\u2581kutali": 3487,
  "\u2581yoipa": 3488,
  "\u2581kofunika": 3489,
  "\u2581mase\u0175era": 3490,
  "\u2581kuno": 3491,
  "\u2581process": 3492,
  "\u2581unique": 3493,
  "and": 3494,
  "\u2581humility": 3495,
  "\u2581mosa": 3496,
  "\u2581attack": 3497,
  "\u2581eternal": 3498,
  "anthu": 3499,
  "pangidwa": 3500,
  "\u2581Abale": 3501,
  "\u2581Health": 3502,
  "\u2581Once": 3503,
  "\u2581mwachikondi": 3504,
  "\u2581onani": 3505,
  "\u2581overcome": 3506,
  "\u2581prophecies": 3507,
  "\u2581tingachite": 3508,
  "lengeza": 3509,
  "\u2581Bambo": 3510,
  "\u2581Greece": 3511,
  "\u2581amachitira": 3512,
  "\u2581obedient": 3513,
  "\u2581remained": 3514,
  "\u2581eight": 3515,
  "\u2581occur": 3516,
  "\u2581drug": 3517,
  "\u2581obedience": 3518,
  "\u2581international": 3519,
  "\u2581prepare": 3520,
  "\u2581timakhala": 3521,
  "\u25813;": 3522,
  "\u2581analimbikitsa": 3523,
  "\u2581nane": 3524,
  "\u2581putt": 3525,
  "\u2581sitiyenera": 3526,
  "funsa": 3527,
  "\u2581Aliyense": 3528,
  "\u2581Apa": 3529,
  "\u2581army": 3530,
  "\u2581kuchotsa": 3531,
  "\u2581Biblical": 3532,
  "\u2581violent": 3533,
  "\u2581ako": 3534,
  "\u2581measure": 3535,
  "When": 3536,
  "\u2581date": 3537,
  "\u2581energy": 3538,
  "\u2581kudzichepetsa": 3539,
  "\u2581lero": 3540,
  "\u2581p": 3541,
  "\u2581purposes": 3542,
  "\u2581type": 3543,
  "ma\u0175a": 3544,
  "\u2581creatures": 3545,
  "\u2581madokotala": 3546,
  "\u2581research": 3547,
  "khudza": 3548,
  "\u2581dangerous": 3549,
  "\u2581enanso": 3550,
  "bu": 3551,
  "\u2581Yoswa": 3552,
  "\u2581court": 3553,
  "\u2581oil": 3554,
  "\u2581amadzi\u0175a": 3555,
  "\u2581hearing": 3556,
  "\u2581kuyenera": 3557,
  "\u2581run": 3558,
  "funafuna": 3559,
  "\u2581mngelo": 3560,
  "\u2581produced": 3561,
  "\u2581achita": 3562,
  "\u2581mwala": 3563,
  "\u2581sindi": 3564,
  "Compare": 3565,
  "\u258132.": 3566,
  "\u2581Mosiyana": 3567,
  "\u2581acceptable": 3568,
  "\u2581amafunika": 3569,
  "\u2581bread": 3570,
  "\u2581describes": 3571,
  "\u2581mafuko": 3572,
  "\u2581mvula": 3573,
  "\u2581anadzi\u0175a": 3574,
  "\u2581greatly": 3575,
  "\u2581kovuta": 3576,
  "6": 3577,
  "\u2581Robert": 3578,
  "\u2581delight": 3579,
  "\u2581dzu\u0175a": 3580,
  "\u2581kuvomereza": 3581,
  "\u2581quoted": 3582,
  "gi": 3583,
  "\u2581Blur": 3584,
  "\u2581liri": 3585,
  "\u2581mukhoza": 3586,
  "\u2581anaphunzitsa": 3587,
  "\u2581chofuna": 3588,
  "\u2581maulosi": 3589,
  "\u2581olamulira": 3590,
  "\u2581anzanu": 3591,
  "\u2581endurance": 3592,
  "\u2581kwanga": 3593,
  "\u2581loti": 3594,
  "\u2581appeared": 3595,
  "\u2581sindina": 3596,
  "\u2581normal": 3597,
  "\u2581secret": 3598,
  "\u2581zolakwa": 3599,
  "zotheka": 3600,
  "\u258125,": 3601,
  "\u2581University": 3602,
  "\u2581preached": 3603,
  "\u2581zatsopano": 3604,
  "There": 3605,
  "ima": 3606,
  "ul": 3607,
  "\u2581Exodus": 3608,
  "\u2581Pennsylvania": 3609,
  "\u2581chonchi": 3610,
  "\u2581victims": 3611,
  "\u2581Zima": 3612,
  "\u2581improve": 3613,
  "\u2581olemera": 3614,
  "\u25816]": 3615,
  "\u2581[\"": 3616,
  "\u2581challenges": 3617,
  "\u2581foreign": 3618,
  "\u2581mapiri": 3619,
  "\u2581osiyana": 3620,
  "\u2581saved": 3621,
  "\u2581sili": 3622,
  "\u2581communication": 3623,
  "\u2581kagulu": 3624,
  "\u2581mtunda": 3625,
  "\u2581Parents": 3626,
  "\u2581apolisi": 3627,
  "\u2581grew": 3628,
  "\u2581patapita": 3629,
  "\u2581presented": 3630,
  "\u2581enter": 3631,
  "\u2581judge": 3632,
  "posa": 3633,
  "\u2581expected": 3634,
  "\u2581iti": 3635,
  "\u2581mere": 3636,
  "\u2581shepherd": 3637,
  "\u2581growth": 3638,
  "\u2581harm": 3639,
  "\u2581story": 3640,
  "\u2581Magazini": 3641,
  "\u2581Deuteronomy": 3642,
  "\u2581musa": 3643,
  "\u2581wine": 3644,
  "oneka": 3645,
  "\u2581Deuteronomo": 3646,
  "\u2581anapatsidwa": 3647,
  "\u2581factors": 3648,
  "\u2581fill": 3649,
  "kwa": 3650,
  "\u2581Under": 3651,
  "\u2581extent": 3652,
  "\u2581forgive": 3653,
  "\u2581Ndili": 3654,
  "\u2581discussion": 3655,
  "\u2581kuchuluka": 3656,
  "\u2581prophets": 3657,
  "\u2581sovereignty": 3658,
  "\u2581successful": 3659,
  "\u2581kulimba": 3660,
  "\u2581Questions": 3661,
  "\u2581State": 3662,
  "\u2581alcohol": 3663,
  "\u2581poverty": 3664,
  "\u2581student": 3665,
  "\u2581drinking": 3666,
  "\u2581surely": 3667,
  "\u2581welcome": 3668,
  "\u2581Chaka": 3669,
  "\u2581mkaziyo": 3670,
  "\u2581prospect": 3671,
  "\u2581yosiyanasiyana": 3672,
  "\u2581kusamala": 3673,
  "\u2581Being": 3674,
  "\u2581fish": 3675,
  "\u2581placed": 3676,
  "\u2581Colossians": 3677,
  "\u2581kui": 3678,
  "\u2581kuzi": 3679,
  "\u2581Katolika": 3680,
  "\u2581apamwamba": 3681,
  "\u2581join": 3682,
  "\u2581valuable": 3683,
  "bo": 3684,
  "\u2581community": 3685,
  "\u2581Akolose": 3686,
  "\u2581direct": 3687,
  "\u2581mwanu": 3688,
  "gwa": 3689,
  "\u2581Galatians": 3690,
  "\u2581bringing": 3691,
  "\u2581zoopsa": 3692,
  "\u2581Mavuto": 3693,
  "\u2581Salimo": 3694,
  "\u2581consideration": 3695,
  "\u2581cost": 3696,
  "\u2581secular": 3697,
  "\u2581(1)": 3698,
  "\u2581copy": 3699,
  "\u2581minds": 3700,
  "\u2581woyenera": 3701,
  "bweretsa": 3702,
  "\u2581Afirika": 3703,
  "malomwake": 3704,
  "\u2581chaputala": 3705,
  "\u2581ija": 3706,
  "\u2581Agalatiya": 3707,
  "\u2581comments": 3708,
  "\u2581illness": 3709,
  "\u2581kukonza": 3710,
  "\u2581loipa": 3711,
  "\u2581reward": 3712,
  "\u2581vinyo": 3713,
  "\u2581yokhala": 3714,
  "\u258113]": 3715,
  "\u2581Ichi": 3716,
  "\u2581linati": 3717,
  "\u2581maboma": 3718,
  "\u2581powers": 3719,
  "\u2581warm": 3720,
  "\u2581amango": 3721,
  "\u2581anaganiza": 3722,
  "\u2581aneneri": 3723,
  "\u2581effects": 3724,
  "\u2581forgiveness": 3725,
  "\u2581mboni": 3726,
  "\u2581newspaper": 3727,
  "um": 3728,
  "\u2581(2)": 3729,
  "\u2581sincere": 3730,
  "\u2581ubongo": 3731,
  "\u2581zoyambirira": 3732,
  "ine": 3733,
  "nda": 3734,
  "wi": 3735,
  "\u2581Faith": 3736,
  "\u2581indicate": 3737,
  "tsutsa": 3738,
  "\u2581144,000": 3739,
  "\u2581exist": 3740,
  "\u2581heavy": 3741,
  "manga": 3742,
  "\u2581commanded": 3743,
  "\u2581reveal": 3744,
  "pitiriza": 3745,
  "\u2581ochimwa": 3746,
  "su": 3747,
  "\u0175erenga": 3748,
  "\u2581Mkhristu": 3749,
  "\u2581forms": 3750,
  "\u2581legal": 3751,
  "\u2581listening": 3752,
  "tsogolera": 3753,
  "\u2581Earth": 3754,
  "\u2581gold": 3755,
  "\u2581kudzi": 3756,
  "\u2581mountain": 3757,
  "\u2581tingathe": 3758,
  "Ma": 3759,
  "\u258142": 3760,
  "\u2581West": 3761,
  "\u2581akusonyeza": 3762,
  "\u2581disciple": 3763,
  "\u2581kwantha\u0175i": 3764,
  "\u2581chiyenera": 3765,
  "\u2581fell": 3766,
  "\u2581gone": 3767,
  "\u2581kill": 3768,
  "\u2581kufunsa": 3769,
  "\u2581chonena": 3770,
  "\u2581Without": 3771,
  "\u2581territory": 3772,
  "\u2581ubatizo": 3773,
  "\u2581zakuti": 3774,
  "\u2581Anatero": 3775,
  "\u2581nkhope": 3776,
  "\u2581referred": 3777,
  "\u258143": 3778,
  "\u2581sichi": 3779,
  "\u2581ukhale": 3780,
  "khalira": 3781,
  "\u2581battle": 3782,
  "\u2581helpful": 3783,
  "\u2581kubwerera": 3784,
  "\u2581poyera": 3785,
  "\u2581wait": 3786,
  "\u2581statement": 3787,
  "\u2581zadziko": 3788,
  "ikidwa": 3789,
  "lamulira": 3790,
  "\u2581Day": 3791,
  "\u2581friendship": 3792,
  "\u25812000": 3793,
  "\u2581Un": 3794,
  "\u2581appears": 3795,
  "\u2581wochita": 3796,
  "\u2581Mother": 3797,
  "\u2581careful": 3798,
  "\u2581Cholinga": 3799,
  "\u2581Govern": 3800,
  "\u2581kumanga": 3801,
  "\u2581main": 3802,
  "\u2581pamenepa": 3803,
  "\u2581tinganene": 3804,
  "\u2581trees": 3805,
  "va": 3806,
  "ye": 3807,
  "\u2581Help": 3808,
  "\u2581Mogwirizana": 3809,
  "\u2581compassion": 3810,
  "\u2581god": 3811,
  "\u2581akukhala": 3812,
  "\u2581increased": 3813,
  "ani": 3814,
  "\u2581kuchi": 3815,
  "\u2581non": 3816,
  "\u2581worshipers": 3817,
  "\u2581grateful": 3818,
  "\u2581listed": 3819,
  "\u2581nyonga": 3820,
  "\u2581recently": 3821,
  "\u2581zimachitika": 3822,
  "\u2581kuchitika": 3823,
  "\u2581wochokera": 3824,
  "chinenero": 3825,
  "taya": 3826,
  "\u2581Go": 3827,
  "\u2581island": 3828,
  "\u2581pangozi": 3829,
  "\u2581zinga": 3830,
  "badwa": 3831,
  "\u2581Mbali": 3832,
  "\u2581Utumiki": 3833,
  "\u2581correct": 3834,
  "\u2581pursue": 3835,
  "chipinda": 3836,
  "\u2581anxiety": 3837,
  "\u2581caring": 3838,
  "\u2581kuchititsa": 3839,
  "\u2581kwabasi": 3840,
  "\u2581otchedwa": 3841,
  "\u2581white": 3842,
  "\u2581younger": 3843,
  "\u2581busy": 3844,
  "\u2581forces": 3845,
  "ho": 3846,
  "\u2581amathandiza": 3847,
  "\u2581pass": 3848,
  "\u2581train": 3849,
  "ity": 3850,
  "\u2581series": 3851,
  "\u2581Lolamulira": 3852,
  "\u2581kudera": 3853,
  "\u2581msinkhu": 3854,
  "\u2581nafe": 3855,
  "\u2581request": 3856,
  "\u2581alipo": 3857,
  "gwiritsiridwa": 3858,
  "\u2581kubadwa": 3859,
  "\u2581okwanira": 3860,
  "\u2581zimachititsa": 3861,
  "\u2581zochititsa": 3862,
  "pulumutsa": 3863,
  "\u2581Le": 3864,
  "\u2581demons": 3865,
  "\u2581kamene": 3866,
  "\u2581kulimbikitsa": 3867,
  "zinenero": 3868,
  "\u2581anamu": 3869,
  "\u2581chikondwerero": 3870,
  "\u2581molimba": 3871,
  "\u2581mosamalitsa": 3872,
  "\u2581panu": 3873,
  "gu": 3874,
  "pitirizabe": 3875,
  "yamikira": 3876,
  "\u2581Michael": 3877,
  "\u2581encouraging": 3878,
  "\u2581Hitler": 3879,
  "\u2581discussed": 3880,
  "\u2581Eastern": 3881,
  "\u2581William": 3882,
  "\u2581anatenga": 3883,
  "\u2581ofanana": 3884,
  "\u2581zosonyeza": 3885,
  "chirikiza": 3886,
  "falitsidwa": 3887,
  "at": 3888,
  "mwamba": 3889,
  "\u258148": 3890,
  "\u2581Memorial": 3891,
  "\u2581Ruth": 3892,
  "\u2581amayamba": 3893,
  "\u2581chikhumbo": 3894,
  "\u2581Amayi": 3895,
  "\u2581zomera": 3896,
  "\u2581Sauli": 3897,
  "\u2581Sometimes": 3898,
  "\u2581misozi": 3899,
  "\u2581overseers": 3900,
  "kunena": 3901,
  "\u2581dzuwa": 3902,
  "\u2581evident": 3903,
  "\u2581simu": 3904,
  "\u2581Taonani": 3905,
  "\u2581Tract": 3906,
  "\u2581mfuti": 3907,
  "x": 3908,
  "\u2581Kumbukirani": 3909,
  "\u2581decades": 3910,
  "\u2581mayina": 3911,
  "\u2581Latin": 3912,
  "\u2581Ndani": 3913,
  "\u2581conversation": 3914,
  "lowa": 3915,
  "\u2581chokhala": 3916,
  "\u2581developing": 3917,
  "\u2581makalata": 3918,
  "\u2581mayesero": 3919,
  "\u2581nthenda": 3920,
  "ian": 3921,
  "\u2581gawo": 3922,
  "\u2581generation": 3923,
  "like": 3924,
  "phunzira": 3925,
  "\u2581hundred": 3926,
  "\u2581wachifundo": 3927,
  "ive": 3928,
  "ww": 3929,
  "\u2581European": 3930,
  "\u2581associated": 3931,
  "\u2581garden": 3932,
  "\u2581kumbali": 3933,
  "\u2581opening": 3934,
  "wathandiza": 3935,
  "\u2581bukhu": 3936,
  "\u2581strive": 3937,
  "\u2581translated": 3938,
  "\u2581uses": 3939,
  "\u2581Katswiri": 3940,
  "\u2581governments": 3941,
  "\u2581remains": 3942,
  "\u2581writes": 3943,
  "\u2581financial": 3944,
  "\u2581kumbuyo": 3945,
  "\u2581lies": 3946,
  "\u2581organized": 3947,
  "\u2581pakhomo": 3948,
  "\u2581re": 3949,
  "\u258126,": 3950,
  "\u2581wide": 3951,
  "\u25811919": 3952,
  "\u2581cover": 3953,
  "\u2581chitsogozo": 3954,
  "\u2581hospital": 3955,
  "\u2581letters": 3956,
  "\u2581offering": 3957,
  "\u2581survive": 3958,
  "vutika": 3959,
  "\u2581advantage": 3960,
  "\u2581anamuuza": 3961,
  "\u2581hurt": 3962,
  "\u2581chokha": 3963,
  "\u2581immorality": 3964,
  "ph": 3965,
  "mvetsera": 3966,
  "\u2581George": 3967,
  "\u2581aid": 3968,
  "\u2581instruction": 3969,
  "\u2581kukwaniritsidwa": 3970,
  "\u2581makina": 3971,
  "chikhulupiriro": 3972,
  "\u2581kudalira": 3973,
  "\u2581kusuta": 3974,
  "\u2581company": 3975,
  "\u2581immoral": 3976,
  "\u2581understood": 3977,
  "responsibilities": 3978,
  "tsala": 3979,
  "\u2581rain": 3980,
  "\u25811995": 3981,
  "\u2581apeza": 3982,
  "\u2581appearance": 3983,
  "\u2581likewise": 3984,
  "\u2581mphindi": 3985,
  "\u25811993": 3986,
  "\u2581Mwinamwake": 3987,
  "\u2581ita": 3988,
  "\u2581nthaka": 3989,
  "\u2581pleasure": 3990,
  "\u2581kumakhala": 3991,
  "\u2581kupezeka": 3992,
  "\u2581magazines": 3993,
  "\u2581manifest": 3994,
  "ract": 3995,
  "tulutsa": 3996,
  "\u2581mamita": 3997,
  "\u2581Igupto": 3998,
  "\u2581azikhala": 3999,
  "\u2581brain": 4000,
  "\u2581kafukufuku": 4001,
  "\u2581olambira": 4002,
  "\u2581uta": 4003,
  "\u2581vast": 4004,
  "\u2581applied": 4005,
  "\u2581camp": 4006,
  "\u2581kutanthauza": 4007,
  "\u2581low": 4008,
  "\u2581tikhoza": 4009,
  "chilengedwe": 4010,
  "\u2581Isaac": 4011,
  "\u2581TO": 4012,
  "\u2581akutumikira": 4013,
  "\u2581ankhondo": 4014,
  "\u2581churches": 4015,
  "\u2581mphunzitsi": 4016,
  "\u2581Take": 4017,
  "\u2581circuit": 4018,
  "\u2581kuipa": 4019,
  "\u2581kuyembekezera": 4020,
  "\u2581yosa": 4021,
  "\u2581discovered": 4022,
  "\u2581linga": 4023,
  "\u2581mudzi": 4024,
  "\u2581offspring": 4025,
  "\u2581react": 4026,
  "\u2581wealth": 4027,
  "un": 4028,
  "\u25818]": 4029,
  "\u2581darkness": 4030,
  "ru": 4031,
  "\u2581apa": 4032,
  "\u2581depression": 4033,
  "\u2581scientists": 4034,
  "\u2581total": 4035,
  "\u2581Make": 4036,
  "\u2581aakazi": 4037,
  "\u2581designed": 4038,
  "\u2581evidently": 4039,
  "\u2581guide": 4040,
  "\u2581pamasamba": 4041,
  "all": 4042,
  "\u2581Land": 4043,
  "\u2581confident": 4044,
  "\u2581occurred": 4045,
  "\u2581teaches": 4046,
  "Ti": 4047,
  "\u2581Gospel": 4048,
  "\u2581box": 4049,
  "\u2581escape": 4050,
  "\u2581higher": 4051,
  "\u2581kupatsa": 4052,
  "\u2581tears": 4053,
  "\u2581Anka": 4054,
  "\u2581across": 4055,
  "\u2581analonjeza": 4056,
  "jw": 4057,
  "\u2581analembera": 4058,
  "\u2581ayambe": 4059,
  "\u2581emotions": 4060,
  "\u2581essential": 4061,
  "\u2581imati": 4062,
  "\u2581kukulitsa": 4063,
  "perekedwa": 4064,
  "\u2581accomplish": 4065,
  "\u2581buy": 4066,
  "\u2581oyenera": 4067,
  "tchedwa": 4068,
  "\u2581Am": 4069,
  "\u2581Kuchokera": 4070,
  "\u2581girls": 4071,
  "maso": 4072,
  "\u2581trained": 4073,
  "\u2581wish": 4074,
  "lambira": 4075,
  "\u2581Dzina": 4076,
  "\u2581chenjezo": 4077,
  "\u2581mwadzidzidzi": 4078,
  "\u2581patience": 4079,
  "\u2581phiri": 4080,
  "\u258139": 4081,
  "\u2581distress": 4082,
  "\u2581linka": 4083,
  "\u2581osokoneza": 4084,
  "\u2581slaves": 4085,
  "\u2581waters": 4086,
  "\u2581contains": 4087,
  "\u2581dealing": 4088,
  "\u2581destroy": 4089,
  "\u2581French": 4090,
  "\u2581approval": 4091,
  "\u2581studied": 4092,
  "kuchita": 4093,
  "\u2581impressed": 4094,
  "\u2581seriously": 4095,
  "\u2581zakuthupi": 4096,
  "\u2581Work": 4097,
  "\u2581indicates": 4098,
  "\u2581muta": 4099,
  "\u2581neighbors": 4100,
  "\u2581setting": 4101,
  "leka": 4102,
  "yandikira": 4103,
  "\u2581create": 4104,
  "chitika": 4105,
  "\u2581kuntchito": 4106,
  "\u2581troubled": 4107,
  "\u2581views": 4108,
  "\u2581Gulu": 4109,
  "\u2581Russell": 4110,
  "\u2581cholimba": 4111,
  "\u2581inanena": 4112,
  "ck": 4113,
  "gwiritsidwa": 4114,
  "\u2581akewo": 4115,
  "\u2581anathandiza": 4116,
  "\u2581fulfill": 4117,
  "\u2581joined": 4118,
  "\u2581Chimene": 4119,
  "\u2581discreet": 4120,
  "\u2581hatred": 4121,
  "\u2581madzulo": 4122,
  "\u2581matchalitchi": 4123,
  "mwera": 4124,
  "\u2581chilakolako": 4125,
  "\u2581kudziletsa": 4126,
  "\u2581wild": 4127,
  "\u2581blind": 4128,
  "\u2581mwachindunji": 4129,
  "\u2581ofuna": 4130,
  "rs": 4131,
  "\u2581anagwira": 4132,
  "\u2581bongo": 4133,
  "\u2581concluded": 4134,
  "\u2581kuwonjezera": 4135,
  "\u2581limafotokoza": 4136,
  "\u2581mmalo": 4137,
  "\u2581muka": 4138,
  "\u2581zikuluzikulu": 4139,
  "kamwa": 4140,
  "tumiza": 4141,
  "\u2581committed": 4142,
  "\u2581husbands": 4143,
  "\u2581isanu": 4144,
  "\u2581superior": 4145,
  "\u2581wolamulira": 4146,
  "My": 4147,
  "wonongeka": 4148,
  "\u2581kupempha": 4149,
  "choka": 4150,
  "\u2581inhabitants": 4151,
  "\u2581ruler": 4152,
  "\u2581uka": 4153,
  "onekera": 4154,
  "\u2581adults": 4155,
  "\u2581anachenjeza": 4156,
  "\u2581linanena": 4157,
  "\u2581Marko": 4158,
  "\u2581conclude": 4159,
  "\u2581healthy": 4160,
  "\u2581contrary": 4161,
  "\u2581describe": 4162,
  "\u2581insight": 4163,
  "\u2581tonse": 4164,
  "ge": 4165,
  "\u2581mphoto": 4166,
  "\u2581formed": 4167,
  "\u2581kudziko": 4168,
  "\u2581kumapeto": 4169,
  "\u2581Mafumu": 4170,
  "\u2581clergy": 4171,
  "\u2581demonstrate": 4172,
  "\u2581facts": 4173,
  "\u2581wachinyamata": 4174,
  "\u2581zeal": 4175,
  "\u2581zikutanthauza": 4176,
  "\u2581zolimba": 4177,
  "Yerekezerani": 4178,
  "ty": 4179,
  "\u2581Akulu": 4180,
  "\u2581enemy": 4181,
  "\u2581mature": 4182,
  "\u2581muku": 4183,
  "\u2581recognized": 4184,
  "\u2581responded": 4185,
  "\u2581telling": 4186,
  "\u2581treated": 4187,
  "chitidwa": 4188,
  "\u2581nkhalango": 4189,
  "\u2581ntchitoyo": 4190,
  "\u2581zozizwitsa": 4191,
  "\u2581beneficial": 4192,
  "\u2581center": 4193,
  "\u2581mosamala": 4194,
  "\u2581300": 4195,
  "\u2581entered": 4196,
  "\u2581kuu": 4197,
  "\u2581promote": 4198,
  "\u258116]": 4199,
  "\u2581Chinthu": 4200,
  "\u2581Pharisees": 4201,
  "\u2581achimwemwe": 4202,
  "\u2581mpainiya": 4203,
  "\u2581count": 4204,
  "\u258141": 4205,
  "\u2581Compare": 4206,
  "\u2581Cor": 4207,
  "\u2581kuimba": 4208,
  "\u2581praying": 4209,
  "\u2581chatsopano": 4210,
  "\u2581chochitika": 4211,
  "\u2581Christmas": 4212,
  "\u2581ideas": 4213,
  "vuta": 4214,
  "\u25812,000": 4215,
  "\u2581entertainment": 4216,
  "\u2581national": 4217,
  "mimba": 4218,
  "\u2581lokha": 4219,
  "\u2581speaks": 4220,
  "\u2581500": 4221,
  "\u2581chochita": 4222,
  "\u2581joyful": 4223,
  "\u2581khungu": 4224,
  "\u2581kotani": 4225,
  "kondweretsa": 4226,
  "\u2581Afarisi": 4227,
  "\u2581ogwirizana": 4228,
  "\u2581species": 4229,
  "\u2581chiyambi": 4230,
  "\u2581drawn": 4231,
  "v": 4232,
  "\u258130,": 4233,
  "\u2581invitation": 4234,
  "\u2581kumatanthauza": 4235,
  "\u2581severe": 4236,
  "\u2581zakhala": 4237,
  "patsidwa": 4238,
  "\u2581El": 4239,
  "\u2581YA": 4240,
  "\u2581refers": 4241,
  "pemphero": 4242,
  "\u2581Spanish": 4243,
  "\u2581fruitage": 4244,
  "\u2581mimba": 4245,
  "\u2581witnessing": 4246,
  "\u25811991": 4247,
  "\u2581Mwachionekere": 4248,
  "\u2581agogo": 4249,
  "\u2581assured": 4250,
  "\u2581chigawo": 4251,
  "\u2581easier": 4252,
  "\u2581odzichepetsa": 4253,
  "ira": 4254,
  "\u2581mungathe": 4255,
  "\u2581science": 4256,
  "\u2581tingakhale": 4257,
  "What": 4258,
  "mabuku": 4259,
  "\u2581ankakhulupirira": 4260,
  "\u2581goodness": 4261,
  "\u2581zita": 4262,
  "\u2581amapeza": 4263,
  "\u2581gathered": 4264,
  "\u2581kungatithandize": 4265,
  "\u2581likulu": 4266,
  "\u2581linalake": 4267,
  "\u2581satisfaction": 4268,
  "\u2581send": 4269,
  "\u2581trouble": 4270,
  "\u2581zam": 4271,
  "\u2581zosiyana": 4272,
  "\u2581chief": 4273,
  "\u2581moving": 4274,
  "\u2581released": 4275,
  "\u2581Nchiyani": 4276,
  "\u2581anafunika": 4277,
  "\u2581anagwiritsira": 4278,
  "\u2581anasangalala": 4279,
  "\u2581itatu": 4280,
  "\u2581notice": 4281,
  "\u2581sangathe": 4282,
  "sangalala": 4283,
  "\u2581e": 4284,
  "pemphera": 4285,
  "\u2581amayesetsa": 4286,
  "\u2581kulibe": 4287,
  "\u2581omvera": 4288,
  "\u2581trial": 4289,
  "wonjezera": 4290,
  "\u2581i\u0175iri": 4291,
  "\u2581Orthodox": 4292,
  "\u2581Y": 4293,
  "\u2581closely": 4294,
  "\u2581wamasalmo": 4295,
  "\u2581aside": 4296,
  "\u2581chose": 4297,
  "\u2581difference": 4298,
  "\u2581kuyesayesa": 4299,
  "\u2581zodabwitsa": 4300,
  "nu": 4301,
  "\u2581Both": 4302,
  "\u2581aamuna": 4303,
  "\u2581icho": 4304,
  "\u2581inde": 4305,
  "\u2581nako": 4306,
  "mudzi": 4307,
  "teteza": 4308,
  "\u2581atsikana": 4309,
  "\u2581okwatirana": 4310,
  "\u2581outstanding": 4311,
  "\u2581zachilengedwe": 4312,
  "\u2581zokwanira": 4313,
  "dutsa": 4314,
  "\u2581Chikumbutso": 4315,
  "\u2581kamodzi": 4316,
  "\u2581koona": 4317,
  "\u2581lasting": 4318,
  "thandizira": 4319,
  "\u2581Eksodo": 4320,
  "ja": 4321,
  "\u2581nyuzipepala": 4322,
  "\u2581waiting": 4323,
  "Koma": 4324,
  "koma": 4325,
  "\u258146": 4326,
  "\u2581BIBLE": 4327,
  "\u2581impossible": 4328,
  "\u2581subjects": 4329,
  "\u2581wokondedwa": 4330,
  "ie": 4331,
  "tanthauza": 4332,
  "\u2581Vuto": 4333,
  "\u2581anayambitsa": 4334,
  "\u2581list": 4335,
  "\u2581shared": 4336,
  "\u2581zika": 4337,
  "\u258121]": 4338,
  "\u2581anaphedwa": 4339,
  "\u2581leaving": 4340,
  "\u2581mudzakhala": 4341,
  "\u258129,": 4342,
  "\u2581surprise": 4343,
  "\u2581thank": 4344,
  "\u2581Maganizo": 4345,
  "\u2581champhamvu": 4346,
  "\u2581chitetezo": 4347,
  "\u2581doctors": 4348,
  "\u2581harvest": 4349,
  "\u2581tsogolo": 4350,
  "\u2581wachimwemwe": 4351,
  "\u2581worse": 4352,
  "\u2581chinachitika": 4353,
  "\u2581ill": 4354,
  "\u2581mountains": 4355,
  "\u2581ruin": 4356,
  "\u2581Peace": 4357,
  "\u2581Posachedwapa": 4358,
  "\u2581cry": 4359,
  "\u2581ntchitoyi": 4360,
  "\u2581pattern": 4361,
  "\u2581safe": 4362,
  "\u2581travel": 4363,
  "konza": 4364,
  "\u2581Zimenezo": 4365,
  "\u2581riches": 4366,
  "\u2581Mkulu": 4367,
  "\u2581assist": 4368,
  "\u2581chisautso": 4369,
  "\u2581meal": 4370,
  "\u2581phwando": 4371,
  "\u2581bodies": 4372,
  "\u2581constantly": 4373,
  "\u2581honest": 4374,
  "\u2581lofunika": 4375,
  "\u2581ngongole": 4376,
  "\u2581Mat": 4377,
  "\u2581Zikuoneka": 4378,
  "\u2581rejected": 4379,
  "\u2581upandu": 4380,
  "\u2581Su": 4381,
  "\u2581sit": 4382,
  "\u2581wansembe": 4383,
  "chigawo": 4384,
  "\u258134.": 4385,
  "\u2581Kings": 4386,
  "\u2581beauty": 4387,
  "\u2581lipoti": 4388,
  "\u2581sinful": 4389,
  "pamene": 4390,
  "\u2581atakhala": 4391,
  "\u2581connection": 4392,
  "\u2581style": 4393,
  "\u2581uwu": 4394,
  "\u2581chonyenga": 4395,
  "sapita": 4396,
  "\u2581Note": 4397,
  "\u2581OF": 4398,
  "ndithandiza": 4399,
  "\u2581otero": 4400,
  "\u2581rise": 4401,
  "\u2581wachita": 4402,
  "\u25811997": 4403,
  "\u2581aspects": 4404,
  "\u2581unable": 4405,
  "\u2581Amuna": 4406,
  "\u2581Hav": 4407,
  "\u2581zotulukapo": 4408,
  "\u2581119": 4409,
  "\u2581PA": 4410,
  "\u2581Poland": 4411,
  "\u2581chotulukapo": 4412,
  "\u2581fast": 4413,
  "\u2581Lachikristu": 4414,
  "\u2581Mateyo": 4415,
  "\u2581amatanthauza": 4416,
  "\u2581anawauza": 4417,
  "\u2581ministers": 4418,
  "\u2581nsanje": 4419,
  "\u2581pointed": 4420,
  "\u2581yochokera": 4421,
  "\u2581zimathandiza": 4422,
  "lalikira": 4423,
  "os": 4424,
  "\u2581diseases": 4425,
  "\u2581majority": 4426,
  "\u2581mtsinje": 4427,
  "\u2581receiving": 4428,
  "\u2581resist": 4429,
  "\u2581decide": 4430,
  "\u2581milandu": 4431,
  "\u2581mpumulo": 4432,
  "\u2581expressions": 4433,
  "All": 4434,
  "Ndina": 4435,
  "\u2581afraid": 4436,
  "\u2581directly": 4437,
  "\u2581kugula": 4438,
  "\u2581obtain": 4439,
  "\u2581opaleshoni": 4440,
  "\u2581providing": 4441,
  "\u2581wotchuka": 4442,
  "kalasi": 4443,
  "\u2581Pofuna": 4444,
  "\u2581chilamulo": 4445,
  "\u2581directed": 4446,
  "\u2581masoka": 4447,
  "\u2581master": 4448,
  "\u2581yes": 4449,
  "\u2581balanced": 4450,
  "\u2581commandments": 4451,
  "\u2581kumka": 4452,
  "\u2581wofuna": 4453,
  "\u2581Imagine": 4454,
  "\u2581habits": 4455,
  "\u2581separate": 4456,
  "\u2581zolengedwa": 4457,
  "Munthu": 4458,
  "kalata": 4459,
  "\u2581capital": 4460,
  "longosola": 4461,
  "\u2581anabadwa": 4462,
  "\u2581delivered": 4463,
  "\u2581ngakhalenso": 4464,
  "\u2581YOU": 4465,
  "\u2581adakali": 4466,
  "\u2581soldiers": 4467,
  "\u2581zinenero": 4468,
  "dzi\u0175ika": 4469,
  "sangalatsa": 4470,
  "\u2581daughters": 4471,
  "\u2581recalls": 4472,
  "ter": 4473,
  "yesetsa": 4474,
  "\u2581imakhala": 4475,
  "\u2581kundi": 4476,
  "\u2581stopped": 4477,
  "\u258112]": 4478,
  "\u25811994": 4479,
  "\u2581heed": 4480,
  "\u2581madera": 4481,
  "\u2581otchuka": 4482,
  "\u2581reveals": 4483,
  "limbana": 4484,
  "maliza": 4485,
  "\u2581Could": 4486,
  "\u2581Has": 4487,
  "\u2581details": 4488,
  "\u2581kuyankha": 4489,
  "fupifupi": 4490,
  "khululukira": 4491,
  "\u25811992": 4492,
  "\u2581Sunday": 4493,
  "\u2581chipatso": 4494,
  "\u2581masewera": 4495,
  "\u2581wailesi": 4496,
  "\u2581highly": 4497,
  "mveka": 4498,
  "\u2581bless": 4499,
  "\u2581calling": 4500,
  "\u2581feels": 4501,
  "\u2581kalikonse": 4502,
  "\u2581prophetic": 4503,
  "\u2581relates": 4504,
  "\u2581Msonkhano": 4505,
  "\u2581average": 4506,
  "\u2581iyi": 4507,
  "hi": 4508,
  "ig": 4509,
  "\u2581Nyanja": 4510,
  "\u2581conflict": 4511,
  "\u2581patsiku": 4512,
  "\u2581(3)": 4513,
  "\u2581Musa": 4514,
  "\u2581Regard": 4515,
  "\u2581fearing": 4516,
  "\u2581kubatizidwa": 4517,
  "\u2581lita": 4518,
  "\u2581mtsogoleri": 4519,
  "\u2581Abwino": 4520,
  "\u2581zipangizo": 4521,
  "lingaliro": 4522,
  "\u2581carrying": 4523,
  "\u2581development": 4524,
  "\u2581kutaya": 4525,
  "\u2581rules": 4526,
  "\u2581zealous": 4527,
  "\u2581NKHANI": 4528,
  "\u2581Ndimotani": 4529,
  "\u2581united": 4530,
  "\u2581Zoonadi": 4531,
  "\u2581ankanena": 4532,
  "\u2581pagan": 4533,
  "\u2581television": 4534,
  "\u2581Ra": 4535,
  "\u2581bearing": 4536,
  "\u2581Phiri": 4537,
  "\u2581Tim": 4538,
  "\u2581kukambitsirana": 4539,
  "\u2581leads": 4540,
  "\u2581perform": 4541,
  "\u2581zoterozo": 4542,
  "\u2581Sal": 4543,
  "\u2581chizunzo": 4544,
  "\u2581cold": 4545,
  "\u2581onsewo": 4546,
  "\u2581boys": 4547,
  "\u2581forced": 4548,
  "\u2581loves": 4549,
  "\u2581attendance": 4550,
  "\u2581culture": 4551,
  "\u2581kulowa": 4552,
  "\u2581pride": 4553,
  "\u2581Ministry": 4554,
  "\u2581Sarah": 4555,
  "\u2581adiresi": 4556,
  "\u2581forest": 4557,
  "\u2581sword": 4558,
  "\u2581zoso\u0175a": 4559,
  "\u2581Charles": 4560,
  "\u2581granted": 4561,
  "\u2581identify": 4562,
  "\u2581molakwa": 4563,
  "chitikira": 4564,
  "khazikitsa": 4565,
  "\u2581Every": 4566,
  "\u2581nati": 4567,
  "\u2581terms": 4568,
  "dziwika": 4569,
  "lera": 4570,
  "\u2581hate": 4571,
  "\u2581kubwera": 4572,
  "\u2581kumvetsetsa": 4573,
  "\u2581kuopa": 4574,
  "\u2581replied": 4575,
  "\u2581zotero": 4576,
  "ir": 4577,
  "\u2581Answer": 4578,
  "\u2581chiwonongeko": 4579,
  "\u2581ngo": 4580,
  "\u2581opportunities": 4581,
  "\u2581British": 4582,
  "\u2581causing": 4583,
  "\u2581dealings": 4584,
  "\u2581raise": 4585,
  "\u2581paid": 4586,
  "kondwera": 4587,
  "vala": 4588,
  "\u2581Republic": 4589,
  "\u2581ika": 4590,
  "\u2581lay": 4591,
  "\u2581zinanso": 4592,
  "\u2581zofanana": 4593,
  "LI": 4594,
  "\u2581Think": 4595,
  "\u2581azichita": 4596,
  "\u2581enaake": 4597,
  "\u2581kudwala": 4598,
  "\u2581limatanthauza": 4599,
  "\u2581losa": 4600,
  "\u2581potential": 4601,
  "\u2581vutolo": 4602,
  "\u2581zachipembedzo": 4603,
  "8": 4604,
  "\u2581News": 4605,
  "\u2581abusa": 4606,
  "\u2581entitled": 4607,
  "\u2581lotsatira": 4608,
  "\u2581succeed": 4609,
  "mtima": 4610,
  "\u2581abundance": 4611,
  "\u2581afunikira": 4612,
  "\u2581akufotokoza": 4613,
  "\u2581cholongosoka": 4614,
  "\u2581conventions": 4615,
  "RA": 4616,
  "siyana": 4617,
  "\u258119;": 4618,
  "\u2581anakonza": 4619,
  "\u2581rights": 4620,
  "\u2581zinyama": 4621,
  "sowa": 4622,
  "\u2581Achichepere": 4623,
  "\u2581udzakhala": 4624,
  "\u2581herself": 4625,
  "\u2581ndika": 4626,
  "\u2581sought": 4627,
  "\u2581zochokera": 4628,
  "ang": 4629,
  "tengera": 4630,
  "\u2581Surely": 4631,
  "\u2581deliver": 4632,
  "\u2581rulers": 4633,
  "\u2581sizina": 4634,
  "\u2581tikambirane": 4635,
  "chipembedzo": 4636,
  "\u2581Human": 4637,
  "\u2581doctrine": 4638,
  "\u2581indicated": 4639,
  "\u2581kulankhulana": 4640,
  "\u2581lofalitsidwa": 4641,
  "zomvetsa": 4642,
  "\u2581Spirit": 4643,
  "\u2581cancer": 4644,
  "\u2581changu": 4645,
  "\u2581chapadera": 4646,
  "\u2581maliro": 4647,
  "\u2581molondola": 4648,
  "\u2581mudziwe": 4649,
  "\u2581song": 4650,
  "\u2581zidzakhala": 4651,
  "Dziko": 4652,
  "ist": 4653,
  "\u258127,": 4654,
  "\u2581iriyonse": 4655,
  "\u2581koteroko": 4656,
  "\u2581level": 4657,
  "onetsa": 4658,
  "\u2581anaika": 4659,
  "\u2581anthufe": 4660,
  "\u2581kuchepetsa": 4661,
  "\u2581kutsogolo": 4662,
  "\u2581owona": 4663,
  "bwerera": 4664,
  "chenjeza": 4665,
  "\u25811,000": 4666,
  "\u2581adzakhale": 4667,
  "ling": 4668,
  "\u258124;": 4669,
  "\u2581beloved": 4670,
  "\u2581copies": 4671,
  "\u2581grown": 4672,
  "\u2581pre": 4673,
  "Paradaiso": 4674,
  "dzikolo": 4675,
  "shi": 4676,
  "\u2581Israelite": 4677,
  "\u2581Religion": 4678,
  "\u2581Se": 4679,
  "\u2581anandiuza": 4680,
  "\u2581construction": 4681,
  "\u2581kuso\u0175a": 4682,
  "\u2581mukuganiza": 4683,
  "\u2581pomwepo": 4684,
  "\u2581require": 4685,
  "\u2581zikuoneka": 4686,
  "\u2581kusinkhasinkha": 4687,
  "\u2581mapindu": 4688,
  "\u2581mbadwa": 4689,
  "\u2581zokhala": 4690,
  "ER": 4691,
  "gula": 4692,
  "\u2581Out": 4693,
  "\u2581akanatha": 4694,
  "\u2581apadera": 4695,
  "\u2581applying": 4696,
  "\u2581critical": 4697,
  "\u2581glorious": 4698,
  "\u2581handle": 4699,
  "\u2581mighty": 4700,
  "\u2581moment": 4701,
  "\u2581struggle": 4702,
  "pirira": 4703,
  "\u25811999": 4704,
  "\u2581Mtendere": 4705,
  "\u2581verses": 4706,
  "\u2581zakubadwa": 4707,
  "\u2581BAIBULO": 4708,
  "\u2581malipiro": 4709,
  "\u2581official": 4710,
  "yesedwa": 4711,
  "\u2581Maria": 4712,
  "\u2581background": 4713,
  "\u2581chiyeso": 4714,
  "\u2581Don": 4715,
  "\u2581Mosasamala": 4716,
  "\u2581endeavor": 4717,
  "\u2581kutsanzira": 4718,
  "khumudwa": 4719,
  "mipingo": 4720,
  "\u2581HIV": 4721,
  "\u2581Yerekezerani": 4722,
  "\u2581asama": 4723,
  "\u2581mwanga": 4724,
  "V": 4725,
  "vo": 4726,
  "\u2581apparently": 4727,
  "\u2581chizolo\u0175ezi": 4728,
  "\u2581site": 4729,
  "\u2581skills": 4730,
  "\u2581undeserved": 4731,
  "\u2581wautali": 4732,
  "Ine": 4733,
  "mphamvu": 4734,
  "mphepete": 4735,
  "\u2581mdima": 4736,
  "\u2581performed": 4737,
  "\u2581temptation": 4738,
  "fotokozedwa": 4739,
  "\u2581ended": 4740,
  "\u2581iwowo": 4741,
  "\u2581kugona": 4742,
  "\u2581kukonzekera": 4743,
  "\u2581skin": 4744,
  "\u2581solution": 4745,
  "\u2581tsankho": 4746,
  "\u2581weight": 4747,
  "\u2581wodzichepetsa": 4748,
  "\u2581yokhudza": 4749,
  "\u2581amavutika": 4750,
  "\u2581ingapo": 4751,
  "\u2581kukwera": 4752,
  "\u2581mgwirizano": 4753,
  "\u2581Thessalonians": 4754,
  "\u2581billion": 4755,
  "\u2581marvelous": 4756,
  "\u2581Organization": 4757,
  "\u2581Tika": 4758,
  "\u2581assistance": 4759,
  "\u2581chosankha": 4760,
  "\u2581identified": 4761,
  "\u2581kuuka": 4762,
  "\u2581lying": 4763,
  "\u2581journey": 4764,
  "\u2581maselo": 4765,
  "\u2581ouziridwa": 4766,
  "\u2581victim": 4767,
  "\u2581wind": 4768,
  "\u2581zonena": 4769,
  "manda": 4770,
  "\u2581Dictionary": 4771,
  "\u2581belong": 4772,
  "\u2581throne": 4773,
  "\u2581armies": 4774,
  "\u2581freely": 4775,
  "\u2581zachuma": 4776,
  "\u2581Columbia": 4777,
  "\u2581contribute": 4778,
  "\u2581illustrate": 4779,
  "\u2581Akazi": 4780,
  "\u2581Atesalonika": 4781,
  "\u2581Kuli": 4782,
  "\u2581wickedness": 4783,
  "\u2581Readers": 4784,
  "\u2581San": 4785,
  "\u2581damage": 4786,
  "\u2581faithfully": 4787,
  "\u2581ilo": 4788,
  "\u2581tikufuna": 4789,
  "\u2581tiri": 4790,
  "\u2581wokha": 4791,
  "pambana": 4792,
  "\u2581ndita": 4793,
  "\u2581reference": 4794,
  "\u2581significant": 4795,
  "\u2581stick": 4796,
  "\u2581top": 4797,
  "\u2581ukulu": 4798,
  "\u2581Akatolika": 4799,
  "\u2581birds": 4800,
  "\u2581kuyesa": 4801,
  "\u2581souls": 4802,
  "\u2581ziwanda": 4803,
  "chuluka": 4804,
  "\u2581Kumeneko": 4805,
  "\u2581amapita": 4806,
  "\u2581finding": 4807,
  "\u2581huge": 4808,
  "hether": 4809,
  "\u2581inhabited": 4810,
  "\u2581pamtima": 4811,
  "\u25813]": 4812,
  "\u2581Look": 4813,
  "\u2581Ndima": 4814,
  "\u2581kuwathandiza": 4815,
  "\u2581maonekedwe": 4816,
  "\u2581minutes": 4817,
  "\u2581region": 4818,
  "yendera": 4819,
  "\u258122;": 4820,
  "\u2581Likewise": 4821,
  "\u2581Sara": 4822,
  "\u2581anawonjezera": 4823,
  "\u2581foot": 4824,
  "\u2581kupweteka": 4825,
  "\u2581nearby": 4826,
  "tani": 4827,
  "\u2581Chima": 4828,
  "\u2581companions": 4829,
  "\u2581siku": 4830,
  "\u2581tingatani": 4831,
  "\u2581ANTHU": 4832,
  "\u2581adult": 4833,
  "\u2581dalitso": 4834,
  "\u2581kupenda": 4835,
  "\u2581stars": 4836,
  "\u2581zilili": 4837,
  "dzafika": 4838,
  "dzetsa": 4839,
  "fanana": 4840,
  "\u2581Mika": 4841,
  "\u2581ayamba": 4842,
  "\u2581determine": 4843,
  "\u2581komatu": 4844,
  "\u2581worshippers": 4845,
  "nyalanyaza": 4846,
  "\u2581Farao": 4847,
  "\u2581Maliko": 4848,
  "\u2581Mlongo": 4849,
  "\u2581involve": 4850,
  "\u2581kuphedwa": 4851,
  "\u2581nchakuti": 4852,
  "\u2581nine": 4853,
  "\u2581odzipereka": 4854,
  "for": 4855,
  "les": 4856,
  "out": 4857,
  "\u2581Britannica": 4858,
  "\u2581Often": 4859,
  "\u2581Trinity": 4860,
  "\u2581kwauzimu": 4861,
  "\u2581mizinda": 4862,
  "\u2581resulted": 4863,
  "\u2581vutoli": 4864,
  "\u2581wodwala": 4865,
  "langiza": 4866,
  "pofunika": 4867,
  "\u2581black": 4868,
  "\u2581compare": 4869,
  "\u2581ndime": 4870,
  "\u2581peaceful": 4871,
  "\u2581physically": 4872,
  "\u2581sees": 4873,
  "menya": 4874,
  "\u2581Al": 4875,
  "\u2581Armageddon": 4876,
  "\u2581Pet": 4877,
  "\u2581Students": 4878,
  "\u2581anthuwa": 4879,
  "\u2581factor": 4880,
  "\u2581iyemwini": 4881,
  "\u2581likhale": 4882,
  "\u2581remarkable": 4883,
  "\u2581scriptures": 4884,
  "\u2581sickness": 4885,
  "\u2581tulo": 4886,
  "sonkhana": 4887,
  "\u2581Chigumula": 4888,
  "\u2581Pharaoh": 4889,
  "\u2581apart": 4890,
  "\u2581ataona": 4891,
  "\u2581balance": 4892,
  "\u2581cells": 4893,
  "\u2581exactly": 4894,
  "\u2581male": 4895,
  "\u2581nthawiyo": 4896,
  "\u2581wothandiza": 4897,
  "\u2581kukumana": 4898,
  "\u2581kuwala": 4899,
  "\u2581limaphunzitsa": 4900,
  "\u2581plant": 4901,
  "\u2581threat": 4902,
  "\u2581waku": 4903,
  "\u2581Ndinka": 4904,
  "\u2581River": 4905,
  "\u2581Rute": 4906,
  "\u2581amamva": 4907,
  "\u2581chisonkhezero": 4908,
  "\u2581constant": 4909,
  "\u2581fornication": 4910,
  "\u2581street": 4911,
  "\u2581supply": 4912,
  "\u2581zikhale": 4913,
  "peze": 4914,
  "\u2581couples": 4915,
  "\u2581scientific": 4916,
  "\u2581wachifumu": 4917,
  "\u2581wofunitsitsa": 4918,
  "\u2581Mosaic": 4919,
  "\u2581Utatu": 4920,
  "\u2581amakumana": 4921,
  "\u2581mkate": 4922,
  "phe": 4923,
  "\u2581Muyenera": 4924,
  "\u2581koyamba": 4925,
  "LE": 4926,
  "\u2581adzachita": 4927,
  "\u2581kindly": 4928,
  "\u2581poti": 4929,
  "\u2581satisfying": 4930,
  "\u2581wonena": 4931,
  "\u2581Never": 4932,
  "\u2581anabwerera": 4933,
  "\u2581analamula": 4934,
  "\u2581failure": 4935,
  "\u2581stood": 4936,
  "\u2581zolembedwa": 4937,
  "dzala": 4938,
  "sh": 4939,
  "\u258144.": 4940,
  "\u2581Paris": 4941,
  "\u2581Teach": 4942,
  "\u2581engage": 4943,
  "\u2581kulinga": 4944,
  "\u2581lessons": 4945,
  "\u2581maudindo": 4946,
  "\u2581olembedwa": 4947,
  "\u2581scholars": 4948,
  "nkhondo": 4949,
  "\u25812001": 4950,
  "\u2581Eden": 4951,
  "\u2581Ireland": 4952,
  "\u2581Matt": 4953,
  "\u2581Padziko": 4954,
  "\u2581Truth": 4955,
  "\u2581ZA": 4956,
  "\u2581kachitidwe": 4957,
  "\u2581mlingo": 4958,
  "\u2581rock": 4959,
  "\u2581witnesses": 4960,
  "tsika": 4961,
  "\u2581Boma": 4962,
  "\u2581adzalandira": 4963,
  "\u2581amu": 4964,
  "\u2581exists": 4965,
  "\u2581generally": 4966,
  "\u2581happens": 4967,
  "\u2581price": 4968,
  "\u2581Service": 4969,
  "\u2581yachikristu": 4970,
  "\u2581yapadera": 4971,
  "mizinda": 4972,
  "munthu": 4973,
  "\u2581cell": 4974,
  "\u2581lolembedwa": 4975,
  "\u2581wosonyeza": 4976,
  "tsegula": 4977,
  "\u2581Encyclop\u00e6dia": 4978,
  "\u2581clothing": 4979,
  "\u2581kupitirizabe": 4980,
  "\u2581privileges": 4981,
  "\u2581relationships": 4982,
  "\u2581Ulamuliro": 4983,
  "\u2581Yona": 4984,
  "\u2581ZIMENE": 4985,
  "\u2581planet": 4986,
  "\u2581successfully": 4987,
  "ish": 4988,
  "\u258151": 4989,
  "\u2581Vi": 4990,
  "\u2581anadza": 4991,
  "\u2581anapemphera": 4992,
  "\u2581angwiro": 4993,
  "\u2581muutumiki": 4994,
  "\u2581umakhala": 4995,
  "ung": 4996,
  "\u25814]": 4997,
  "\u2581Ndita": 4998,
  "\u2581Pakati": 4999,
  "\u2581chitonthozo": 5000,
  "\u2581kukakhala": 5001,
  "\u2581kumathandiza": 5002,
  "\u2581mitu": 5003,
  "\u2581mosiyana": 5004,
  "\u2581mungatani": 5005,
  "\u2581olemba": 5006,
  "\u2581variety": 5007,
  "\u2581Ba": 5008,
  "\u2581akunja": 5009,
  "\u2581bed": 5010,
  "\u2581stake": 5011,
  "\u2581upright": 5012,
  "\u2581nthawiyi": 5013,
  "\u2581okondedwa": 5014,
  "\u2581wokonda": 5015,
  "\u2581Bill": 5016,
  "\u2581accomplished": 5017,
  "\u2581additional": 5018,
  "\u2581analosera": 5019,
  "\u2581assembly": 5020,
  "\u2581bwalo": 5021,
  "\u2581ponse": 5022,
  "\u2581primary": 5023,
  "\u2581weak": 5024,
  "\u2581below": 5025,
  "\u2581compared": 5026,
  "\u2581lupanga": 5027,
  "\u2581rulership": 5028,
  "\u2581slow": 5029,
  "id": 5030,
  "\u2581anatha": 5031,
  "\u2581ankati": 5032,
  "\u2581kulephera": 5033,
  "\u2581marry": 5034,
  "\u2581proof": 5035,
  "\u2581surprised": 5036,
  "\u2581task": 5037,
  "\u2581Chigiriki": 5038,
  "\u2581Museum": 5039,
  "\u2581bokosi": 5040,
  "\u2581injustice": 5041,
  "\u2581moona": 5042,
  "\u2581zamakono": 5043,
  "sokoneza": 5044,
  "\u2581Zonse": 5045,
  "\u2581increasing": 5046,
  "\u2581straight": 5047,
  "\u2581ofotokoza": 5048,
  "\u2581per": 5049,
  "\u2581requirements": 5050,
  "\u2581Naomi": 5051,
  "\u2581Wamphamvuyonse": 5052,
  "\u2581kuvala": 5053,
  "\u2581magwero": 5054,
  "\u2581vesi": 5055,
  "\u2581Flood": 5056,
  "\u2581maluso": 5057,
  "\u2581mnzanu": 5058,
  "\u2581sad": 5059,
  "\u2581tender": 5060,
  "\u2581Mkati": 5061,
  "\u2581conscious": 5062,
  "\u2581weapons": 5063,
  "\u2581writings": 5064,
  "mitundu": 5065,
  "\u2581Umboni": 5066,
  "\u2581Wolemba": 5067,
  "\u2581ameneyo": 5068,
  "\u2581stone": 5069,
  "\u2581surface": 5070,
  "\u2581tikukhala": 5071,
  "chepa": 5072,
  "\u2581momveka": 5073,
  "\u2581occasions": 5074,
  "\u2581strengthened": 5075,
  "\u2581umphumphu": 5076,
  "\u2581zinachitikira": 5077,
  "\u2581zinalili": 5078,
  "ny": 5079,
  "\u2581amoyo": 5080,
  "\u2581provisions": 5081,
  "gwirira": 5082,
  "kayikira": 5083,
  "\u25811996": 5084,
  "\u2581angry": 5085,
  "\u2581opposite": 5086,
  "\u2581remnant": 5087,
  "\u2581resolve": 5088,
  "\u2581wokongola": 5089,
  "mutu": 5090,
  "woneka": 5091,
  "\u2581Ake": 5092,
  "\u2581abandoned": 5093,
  "\u2581determination": 5094,
  "\u2581kudzifunsa": 5095,
  "\u2581none": 5096,
  "\u2581refer": 5097,
  "\u2581refuge": 5098,
  "wonjezereka": 5099,
  "\u2581arranged": 5100,
  "\u2581tisa": 5101,
  "\u2581zoyesayesa": 5102,
  "AL": 5103,
  "Pamene": 5104,
  "tsanzira": 5105,
  "\u258120]": 5106,
  "\u2581Almighty": 5107,
  "\u2581Iguputo": 5108,
  "\u2581Mosakayikira": 5109,
  "\u2581instructions": 5110,
  "\u2581kutentha": 5111,
  "\u2581madola": 5112,
  "\u2581walked": 5113,
  "\u2581Russian": 5114,
  "\u2581customs": 5115,
  "\u2581lirilonse": 5116,
  "\u2581silver": 5117,
  "sonyezedwa": 5118,
  "\u2581agreed": 5119,
  "\u2581ankagwira": 5120,
  "\u2581kuleka": 5121,
  "\u2581treasure": 5122,
  "dziwe": 5123,
  "zungulira": 5124,
  "\u2581Get": 5125,
  "\u2581Kumwamba": 5126,
  "\u2581Paradaiso": 5127,
  "\u2581Western": 5128,
  "\u2581keeps": 5129,
  "\u2581kugonjera": 5130,
  "\u2581listened": 5131,
  "\u2581pakamwa": 5132,
  "\u2581Says": 5133,
  "\u2581claimed": 5134,
  "\u2581mistakes": 5135,
  "\u2581mosangalala": 5136,
  "\u2581north": 5137,
  "\u2581reject": 5138,
  "\u2581timachita": 5139,
  "Z": 5140,
  "\u2581anachititsa": 5141,
  "\u2581indefinite": 5142,
  "\u2581inner": 5143,
  "\u2581mukuona": 5144,
  "\u2581wedding": 5145,
  "\u2581widow": 5146,
  "\u2581zikhoza": 5147,
  "\u258131,": 5148,
  "\u2581affairs": 5149,
  "\u2581chiyambire": 5150,
  "\u2581heartfelt": 5151,
  "\u2581provision": 5152,
  "\u2581worldly": 5153,
  "\u2581Internet": 5154,
  "\u2581Panthawi": 5155,
  "\u2581adziwe": 5156,
  "\u2581akuona": 5157,
  "\u2581inayamba": 5158,
  "\u2581leaves": 5159,
  "\u2581lokhala": 5160,
  "\u2581pamsonkhano": 5161,
  "\u2581rate": 5162,
  "Ndipo": 5163,
  "mbo": 5164,
  "\u2581caught": 5165,
  "\u2581dear": 5166,
  "\u2581kulola": 5167,
  "\u258134,": 5168,
  "\u2581Study": 5169,
  "\u2581WA": 5170,
  "\u2581WHAT": 5171,
  "\u2581Zinali": 5172,
  "\u2581khomo": 5173,
  "\u2581lija": 5174,
  "\u2581mopanda": 5175,
  "\u2581rendered": 5176,
  "\u2581tokha": 5177,
  "chingatithandize": 5178,
  "kulira": 5179,
  "\u2581anasintha": 5180,
  "\u2581chance": 5181,
  "\u2581dwell": 5182,
  "\u2581firmly": 5183,
  "\u2581harmful": 5184,
  "\u2581kusonkhana": 5185,
  "\u2581numerous": 5186,
  "im": 5187,
  "imba": 5188,
  "\u25811945": 5189,
  "\u2581Jonah": 5190,
  "\u2581Kuphunzira": 5191,
  "\u2581choona": 5192,
  "\u2581dangers": 5193,
  "\u2581masomphenya": 5194,
  "\u2581modzichepetsa": 5195,
  "\u2581ndinaona": 5196,
  "\u2581remaining": 5197,
  "\u2581render": 5198,
  "\u2581yonena": 5199,
  "chipululu": 5200,
  "\u2581ananenera": 5201,
  "\u2581cares": 5202,
  "\u2581considering": 5203,
  "\u2581inga": 5204,
  "\u2581president": 5205,
  "\u2581traveled": 5206,
  "\u2581wochuluka": 5207,
  "They": 5208,
  "rd": 5209,
  "tatha": 5210,
  "\u2581Learn": 5211,
  "\u2581Vatican": 5212,
  "\u2581model": 5213,
  "\u2581nambala": 5214,
  "\u2581trip": 5215,
  "am": 5216,
  "land": 5217,
  "samala": 5218,
  "\u2581Court": 5219,
  "\u2581advance": 5220,
  "\u2581deeds": 5221,
  "\u2581panalibe": 5222,
  "ah": 5223,
  "\u2581innocent": 5224,
  "\u2581lopanda": 5225,
  "\u2581mpando": 5226,
  "\u2581ndekha": 5227,
  "\u2581o\u0175erengeka": 5228,
  "\u2581safuna": 5229,
  "\u2581size": 5230,
  "Ana": 5231,
  "\u2581akuphunzira": 5232,
  "\u2581amachititsa": 5233,
  "\u2581analongosola": 5234,
  "\u2581brochure": 5235,
  "\u2581pachaka": 5236,
  "\u2581relations": 5237,
  "\u2581udani": 5238,
  "age": 5239,
  "dzaza": 5240,
  "\u2581Malamulo": 5241,
  "\u2581difficulties": 5242,
  "\u2581estimated": 5243,
  "\u258149": 5244,
  "\u258166": 5245,
  "\u258172": 5246,
  "\u2581Grand": 5247,
  "\u2581familiar": 5248,
  "\u2581mafupa": 5249,
  "\u2581phande": 5250,
  "\u2581zokwana": 5251,
  "men": 5252,
  "\u2581kwaulere": 5253,
  "\u2581mwachangu": 5254,
  "\u2581onyenga": 5255,
  "\u2581private": 5256,
  "\u2581zotsatirazi": 5257,
  "busa": 5258,
  "\u258111]": 5259,
  "\u2581Matenda": 5260,
  "\u2581mdani": 5261,
  "\u2581mildness": 5262,
  "\u2581msewu": 5263,
  "\u2581secure": 5264,
  "\u2581selfish": 5265,
  "dwala": 5266,
  "dzi\u0175e": 5267,
  "wapatsa": 5268,
  "\u258119]": 5269,
  "\u2581Lamulo": 5270,
  "\u2581Mphamvu": 5271,
  "\u2581amawa": 5272,
  "\u2581covered": 5273,
  "\u2581serves": 5274,
  "\u2581theme": 5275,
  "\u2581visiting": 5276,
  "As": 5277,
  "tsimikiza": 5278,
  "\u2581lovers": 5279,
  "\u2581mumakhala": 5280,
  "\u2581ndende": 5281,
  "\u2581panopo": 5282,
  "\u2581unga": 5283,
  "ina": 5284,
  "\u258126]": 5285,
  "\u2581accompany": 5286,
  "\u2581munda": 5287,
  "\u2581tend": 5288,
  "choonadi": 5289,
  "\u2581abundant": 5290,
  "\u2581chibwenzi": 5291,
  "\u2581okhaokha": 5292,
  "\u2581reminded": 5293,
  "\u2581ululu": 5294,
  "\u2581wobadwa": 5295,
  "nde": 5296,
  "\u2581choyenera": 5297,
  "\u2581patients": 5298,
  "\u2581useful": 5299,
  "\u2581ziwalo": 5300,
  "\u25811970": 5301,
  "\u2581Titus": 5302,
  "\u2581okongola": 5303,
  "\u2581won": 5304,
  "\u2581ziyeso": 5305,
  "great": 5306,
  "mitima": 5307,
  "\u2581Mtsikana": 5308,
  "\u2581fit": 5309,
  "\u2581kutuluka": 5310,
  "\u2581turning": 5311,
  "gulitsa": 5312,
  "\u2581400": 5313,
  "\u2581mayendedwe": 5314,
  "\u2581spouse": 5315,
  "\u2581zonga": 5316,
  "chikondi": 5317,
  "mavuto": 5318,
  "\u2581ofunitsitsa": 5319,
  "fufuza": 5320,
  "tithandiza": 5321,
  "\u2581Visit": 5322,
  "\u2581exposed": 5323,
  "ary": 5324,
  "ent": 5325,
  "\u2581Eventually": 5326,
  "\u2581Lonse": 5327,
  "\u2581anymore": 5328,
  "\u2581appreciated": 5329,
  "\u2581bond": 5330,
  "\u2581complex": 5331,
  "\u2581foni": 5332,
  "\u2581wilderness": 5333,
  "\u2581worthy": 5334,
  "\u2581anamvera": 5335,
  "\u2581chingakhale": 5336,
  "\u2581chiukiriro": 5337,
  "\u2581houses": 5338,
  "\u2581images": 5339,
  "\u2581mention": 5340,
  "\u2581observes": 5341,
  "\u2581spirituality": 5342,
  "\u2581zoterezi": 5343,
  "Jesus": 5344,
  "\u2581Sadly": 5345,
  "\u2581khalani": 5346,
  "\u2581kuba": 5347,
  "\u2581kuchipatala": 5348,
  "\u2581ofufuza": 5349,
  "au": 5350,
  "\u2581Achigiriki": 5351,
  "\u2581lako": 5352,
  "\u2581otsalira": 5353,
  "\u2581release": 5354,
  "\u2581uyenera": 5355,
  "W": 5356,
  "\u2581amatsatira": 5357,
  "\u2581declare": 5358,
  "\u2581moyenera": 5359,
  "\u2581onsewa": 5360,
  "\u2581wachikulire": 5361,
  "je": 5362,
  "kwanitsa": 5363,
  "napitirizabe": 5364,
  "\u2581Micah": 5365,
  "\u2581miracles": 5366,
  "\u2581mwamunayo": 5367,
  "\u2581officials": 5368,
  "\u2581path": 5369,
  "\u2581pictures": 5370,
  "\u2581plan": 5371,
  "\u2581pleased": 5372,
  "\u2581restored": 5373,
  "\u2581scene": 5374,
  "\u2581Ina": 5375,
  "\u2581akugwira": 5376,
  "\u2581aspect": 5377,
  "\u2581audience": 5378,
  "\u2581kantha\u0175i": 5379,
  "\u2581mwaulemu": 5380,
  "\u2581remove": 5381,
  "\u2581sizima": 5382,
  "ner": 5383,
  "tengedwa": 5384,
  "\u25811914.": 5385,
  "\u2581Ayenera": 5386,
  "\u2581Death": 5387,
  "\u2581Zochitika": 5388,
  "\u2581chochititsa": 5389,
  "\u2581enabl": 5390,
  "\u2581hair": 5391,
  "\u2581qualified": 5392,
  "\u2581red": 5393,
  "\u2581smoking": 5394,
  "\u2581zopereka": 5395,
  "Chifukwa": 5396,
  "onera": 5397,
  "tchova": 5398,
  "ver": 5399,
  "\u25811930": 5400,
  "\u2581Korinto": 5401,
  "\u2581Ps": 5402,
  "\u2581Second": 5403,
  "\u2581akuvutika": 5404,
  "\u2581phokoso": 5405,
  "\u2581root": 5406,
  "lonjeza": 5407,
  "\u2581Ro": 5408,
  "\u2581atmosphere": 5409,
  "\u2581communicate": 5410,
  "\u2581mulibe": 5411,
  "\u2581offers": 5412,
  "\u2581punishment": 5413,
  "\u2581river": 5414,
  "\u2581wall": 5415,
  "\u2581wotsatira": 5416,
  "ate": 5417,
  "\u258147": 5418,
  "\u2581anxious": 5419,
  "\u2581ark": 5420,
  "\u2581juga": 5421,
  "\u2581kuteteza": 5422,
  "\u2581rebellion": 5423,
  "\u2581shepherds": 5424,
  "\u2581anatumiza": 5425,
  "\u2581disaster": 5426,
  "\u2581discernment": 5427,
  "\u2581magetsi": 5428,
  "\u2581ndithudi": 5429,
  "\u2581yothandiza": 5430,
  "Look": 5431,
  "funitsitsa": 5432,
  "\u2581Rutherford": 5433,
  "\u2581Whatever": 5434,
  "\u2581attitudes": 5435,
  "\u2581degree": 5436,
  "\u2581methods": 5437,
  "\u2581ngwo": 5438,
  "\u2581possess": 5439,
  "\u2581properly": 5440,
  "\u2581services": 5441,
  "\u2581tifunika": 5442,
  "\u2581wachikhristu": 5443,
  "\u2581wamasiye": 5444,
  "\u2581Center": 5445,
  "\u2581Mmodzi": 5446,
  "\u2581Woyera": 5447,
  "\u2581analangiza": 5448,
  "\u2581content": 5449,
  "landa": 5450,
  "mlingo": 5451,
  "\u25811988": 5452,
  "\u2581NYIMBO": 5453,
  "\u2581Thomas": 5454,
  "\u2581Tili": 5455,
  "\u2581kuchitapo": 5456,
  "\u2581numbers": 5457,
  "\u2581sake": 5458,
  "et": 5459,
  "imira": 5460,
  "mangidwa": 5461,
  "\u2581Talingalirani": 5462,
  "\u2581career": 5463,
  "\u2581mild": 5464,
  "\u2581mphotho": 5465,
  "\u2581njinga": 5466,
  "\u2581Middle": 5467,
  "\u2581atamwalira": 5468,
  "\u2581attempt": 5469,
  "\u2581hardly": 5470,
  "\u2581midst": 5471,
  "\u2581BY": 5472,
  "\u2581dignity": 5473,
  "\u2581kutithandiza": 5474,
  "\u2581writers": 5475,
  "J": 5476,
  "khazikika": 5477,
  "\u2581Dad": 5478,
  "\u2581foundation": 5479,
  "\u2581mungakhale": 5480,
  "\u2581oyenerera": 5481,
  "\u2581reaction": 5482,
  "\u2581tax": 5483,
  "ukira": 5484,
  "\u2581Te": 5485,
  "\u2581clothes": 5486,
  "\u2581g": 5487,
  "\u2581kunga": 5488,
  "\u2581played": 5489,
  "\u2581represent": 5490,
  "\u2581resources": 5491,
  "\u2581touch": 5492,
  "\u2581yachi\u0175iri": 5493,
  "Be": 5494,
  "MA": 5495,
  "kakamiza": 5496,
  "tic": 5497,
  "\u2581akupereka": 5498,
  "\u2581dark": 5499,
  "\u2581district": 5500,
  "\u2581gradually": 5501,
  "\u2581laid": 5502,
  "\u2581reaching": 5503,
  "\u2581ubale": 5504,
  "ji": 5505,
  "kachisi": 5506,
  "ous": 5507,
  "phatikizapo": 5508,
  "\u258129:": 5509,
  "\u2581Awo": 5510,
  "\u2581chapters": 5511,
  "\u2581magalimoto": 5512,
  "\u2581makamu": 5513,
  "\u2581mathayo": 5514,
  "\u2581150": 5515,
  "\u2581demonstrated": 5516,
  "\u2581refuse": 5517,
  "\u2581speaker": 5518,
  "\u2581unyinji": 5519,
  "kumene": 5520,
  "que": 5521,
  "wonekera": 5522,
  "zoonekeratu": 5523,
  "\u2581Ndalama": 5524,
  "\u2581mwamtendere": 5525,
  "\u2581wamoyo": 5526,
  "\u2581Mitundu": 5527,
  "\u2581Panali": 5528,
  "\u2581grief": 5529,
  "\u2581obligation": 5530,
  "\u2581opezeka": 5531,
  "\u2581suggestions": 5532,
  "kopa": 5533,
  "tauni": 5534,
  "\u2581influenced": 5535,
  "\u2581invisible": 5536,
  "limba": 5537,
  "\u2581Bukhu": 5538,
  "\u2581adultery": 5539,
  "\u2581burden": 5540,
  "\u2581literally": 5541,
  "\u2581masana": 5542,
  "\u2581ought": 5543,
  "\u2581poona": 5544,
  "\u2581posonyeza": 5545,
  "chedwa": 5546,
  "loledwa": 5547,
  "tion": 5548,
  "tipatsa": 5549,
  "\u2581mumvetse": 5550,
  "\u2581plans": 5551,
  "\u2581wipe": 5552,
  "\u25812002": 5553,
  "\u2581comforting": 5554,
  "\u2581commission": 5555,
  "\u2581concerns": 5556,
  "\u2581grand": 5557,
  "\u2581kana": 5558,
  "\u2581possibly": 5559,
  "\u2581quit": 5560,
  "\u2581tifunikira": 5561,
  "\u2581timakonda": 5562,
  "chipatala": 5563,
  "\u2581arise": 5564,
  "\u2581mavesi": 5565,
  "\u2581scholar": 5566,
  "\u2581suggest": 5567,
  "\u2581trade": 5568,
  "\u25812008": 5569,
  "\u2581approached": 5570,
  "\u2581dzikolo": 5571,
  "\u2581holding": 5572,
  "\u2581signs": 5573,
  "\u2581zosankha": 5574,
  "\u25813,000": 5575,
  "\u2581Institute": 5576,
  "\u2581SONGS": 5577,
  "\u2581amasiye": 5578,
  "\u2581chinsinsi": 5579,
  "\u2581distance": 5580,
  "\u2581mabomba": 5581,
  "\u2581simuna": 5582,
  "Wo": 5583,
  "zikidwa": 5584,
  "\u2581Sovereign": 5585,
  "\u2581amagwiritsira": 5586,
  "\u2581analephera": 5587,
  "\u2581mzindawo": 5588,
  "bwezera": 5589,
  "ies": 5590,
  "\u2581anakhulupirira": 5591,
  "\u2581ananeneratu": 5592,
  "\u2581broken": 5593,
  "\u2581conducted": 5594,
  "\u2581differ": 5595,
  "\u2581historian": 5596,
  "\u2581involving": 5597,
  "\u2581ophunzirawo": 5598,
  "\u2581store": 5599,
  "\u2581suddenly": 5600,
  "\u2581wakeyo": 5601,
  "dana": 5602,
  "thandize": 5603,
  "\u2581healing": 5604,
  "\u2581kwabwino": 5605,
  "mwe": 5606,
  "\u25811940": 5607,
  "\u2581Recall": 5608,
  "\u2581begins": 5609,
  "\u2581kosa": 5610,
  "\u2581mauthenga": 5611,
  "\u2581olimbikitsa": 5612,
  "\u2581plants": 5613,
  "\u2581wokhoza": 5614,
  "dula": 5615,
  "falitsa": 5616,
  "\u25811980": 5617,
  "\u2581Lot": 5618,
  "\u2581WHO": 5619,
  "\u2581asks": 5620,
  "\u2581dress": 5621,
  "\u2581moyenerera": 5622,
  "gonjetsa": 5623,
  "gwera": 5624,
  "nkhaniyi": 5625,
  "\u2581Adza": 5626,
  "\u2581Sinai": 5627,
  "\u2581painful": 5628,
  "\u2581pakhale": 5629,
  "\u2581standard": 5630,
  "\u2581wambiri": 5631,
  "\u2581zako": 5632,
  "bisa": 5633,
  "\u2581Give": 5634,
  "\u2581Mpingo": 5635,
  "\u2581anansi": 5636,
  "\u2581begotten": 5637,
  "fotokozera": 5638,
  "\u2581amavomereza": 5639,
  "\u2581habit": 5640,
  "\u2581traditional": 5641,
  "\u2581Anna": 5642,
  "\u2581Men": 5643,
  "\u2581analipo": 5644,
  "\u2581completed": 5645,
  "\u2581intense": 5646,
  "\u2581koyenera": 5647,
  "\u2581sitina": 5648,
  "\u2581thereafter": 5649,
  "pitirira": 5650,
  "\u2581Di": 5651,
  "\u2581Ife": 5652,
  "\u2581Maphunziro": 5653,
  "\u2581Nehemiah": 5654,
  "\u2581Zili": 5655,
  "\u2581acted": 5656,
  "\u2581associate": 5657,
  "\u2581choyambirira": 5658,
  "\u2581computer": 5659,
  "\u2581luntha": 5660,
  "\u2581repeatedly": 5661,
  "\u2581zinayamba": 5662,
  "gawo": 5663,
  "ga\u0175ira": 5664,
  "kulitsa": 5665,
  "so\u0175a": 5666,
  "\u258113;": 5667,
  "\u2581Chingelezi": 5668,
  "\u2581fleshly": 5669,
  "\u2581paulendo": 5670,
  "\u2581plague": 5671,
  "\u2581potumikira": 5672,
  "\u2581wofanana": 5673,
  "How": 5674,
  "gwirizanitsa": 5675,
  "ike": 5676,
  "\u2581California": 5677,
  "\u2581Philip": 5678,
  "\u2581chopanda": 5679,
  "\u2581dream": 5680,
  "\u2581kake": 5681,
  "\u2581mothers": 5682,
  "\u2581nuclear": 5683,
  "\u2581oterewa": 5684,
  "\u2581pressures": 5685,
  "\u2581suicide": 5686,
  "but": 5687,
  "sha": 5688,
  "\u258139.": 5689,
  "\u2581Knorr": 5690,
  "\u2581chiyamikiro": 5691,
  "\u2581eager": 5692,
  "\u2581kaimidwe": 5693,
  "\u2581motivated": 5694,
  "\u2581struck": 5695,
  "\u2581touched": 5696,
  "\u2581Bwino": 5697,
  "\u2581Nehemiya": 5698,
  "\u2581Pacific": 5699,
  "\u2581arrested": 5700,
  "\u2581bound": 5701,
  "\u2581discern": 5702,
  "\u2581otere": 5703,
  "\u2581recall": 5704,
  "konzekera": 5705,
  "tamanda": 5706,
  "\u2581Sikuti": 5707,
  "\u2581Sosaite": 5708,
  "\u2581Tito": 5709,
  "\u2581Ulosi": 5710,
  "\u2581chinka": 5711,
  "\u2581dust": 5712,
  "\u2581nu": 5713,
  "\u2581prominent": 5714,
  "\u2581timaona": 5715,
  "\u2581visits": 5716,
  "\u2581Mabaibulo": 5717,
  "\u2581corruption": 5718,
  "\u2581kukongola": 5719,
  "\u2581otherwise": 5720,
  "sonkhezera": 5721,
  "\u2581kutchula": 5722,
  "\u2581nsalu": 5723,
  "\u2581removed": 5724,
  "\u2581tikuphunzira": 5725,
  "IN": 5726,
  "ley": 5727,
  "mbe": 5728,
  "\u2581mwachidule": 5729,
  "\u2581okhoza": 5730,
  "\u2581okoma": 5731,
  "\u2581oopsa": 5732,
  "\u2581reputation": 5733,
  "\u2581survey": 5734,
  "kwana": 5735,
  "kweza": 5736,
  "nenedwa": 5737,
  "\u258140.": 5738,
  "\u2581Phunziro": 5739,
  "\u2581Richard": 5740,
  "\u2581ship": 5741,
  "\u2581sinned": 5742,
  "kamba": 5743,
  "lenga": 5744,
  "nd": 5745,
  "\u25811939": 5746,
  "\u2581Aheberi": 5747,
  "\u2581Bo": 5748,
  "\u2581Early": 5749,
  "\u2581amafunikira": 5750,
  "\u2581amodzi": 5751,
  "\u2581chinga": 5752,
  "\u2581photo": 5753,
  "\u2581reflected": 5754,
  "\u2581warns": 5755,
  "\u2581wogwira": 5756,
  "patse": 5757,
  "\u2581Ar": 5758,
  "\u2581amakono": 5759,
  "\u2581amalankhula": 5760,
  "\u2581kuletsa": 5761,
  "\u2581located": 5762,
  "\u2581miyendo": 5763,
  "\u2581reasoning": 5764,
  "\u2581soil": 5765,
  "\u2581subjection": 5766,
  "detsa": 5767,
  "ngati": 5768,
  "tsata": 5769,
  "\u2581Mungayankhe": 5770,
  "\u2581Nayenso": 5771,
  "\u2581allows": 5772,
  "\u2581dwelling": 5773,
  "\u2581famous": 5774,
  "\u2581gathering": 5775,
  "\u2581season": 5776,
  "\u2581sold": 5777,
  "\u2581sports": 5778,
  "ama": 5779,
  "\u2581Jonathan": 5780,
  "\u2581lilime": 5781,
  "\u2581okonzeka": 5782,
  "\u2581tribes": 5783,
  "nenera": 5784,
  "nkhosa": 5785,
  "sonkhezeredwa": 5786,
  "\u25812009": 5787,
  "\u2581Ho": 5788,
  "\u2581Promised": 5789,
  "\u2581njoka": 5790,
  "\u2581torture": 5791,
  "chititsidwa": 5792,
  "muthandiza": 5793,
  "\u2581Con": 5794,
  "\u2581Pamenepa": 5795,
  "\u2581Please": 5796,
  "\u2581differences": 5797,
  "\u2581mopambanitsa": 5798,
  "\u2581paying": 5799,
  "\u2581represented": 5800,
  "\u2581sinners": 5801,
  "\u2581wodwalayo": 5802,
  "dongosolo": 5803,
  "nene": 5804,
  "\u2581Car": 5805,
  "\u2581Chibvumbulutso": 5806,
  "\u2581Loti": 5807,
  "\u2581Photo": 5808,
  "\u2581iyenera": 5809,
  "\u2581labor": 5810,
  "\u2581matupi": 5811,
  "\u2581mi": 5812,
  "\u2581supported": 5813,
  "\u2581zolaula": 5814,
  "kuona": 5815,
  "nya": 5816,
  "\u258138.": 5817,
  "\u2581Him": 5818,
  "\u2581Messianic": 5819,
  "\u2581Pentecost": 5820,
  "\u2581Yankho": 5821,
  "\u2581acting": 5822,
  "\u2581azimayi": 5823,
  "\u2581charge": 5824,
  "\u2581depressed": 5825,
  "\u2581error": 5826,
  "\u2581gets": 5827,
  "\u2581mwachionekere": 5828,
  "\u2581tradition": 5829,
  "\u2581viewpoint": 5830,
  "buka": 5831,
  "ff": 5832,
  "yenerera": 5833,
  "\u2581andale": 5834,
  "\u2581brief": 5835,
  "\u2581companion": 5836,
  "\u2581exercising": 5837,
  "\u2581kunyalanyaza": 5838,
  "\u2581widely": 5839,
  "Keep": 5840,
  "RE": 5841,
  "lembedwa": 5842,
  "nzeru": 5843,
  "\u2581Besides": 5844,
  "\u2581Nyuzipepala": 5845,
  "\u2581Shortly": 5846,
  "\u2581Upon": 5847,
  "\u2581analengeza": 5848,
  "\u2581ang": 5849,
  "\u2581arms": 5850,
  "\u2581cross": 5851,
  "\u2581literal": 5852,
  "\u2581momwemo": 5853,
  "\u2581noticed": 5854,
  "\u2581Korea": 5855,
  "\u2581annual": 5856,
  "\u2581outcome": 5857,
  "\u2581routine": 5858,
  "swa": 5859,
  "\u258137.": 5860,
  "\u2581Caesar": 5861,
  "\u2581Heights": 5862,
  "\u2581experts": 5863,
  "\u2581features": 5864,
  "\u2581quick": 5865,
  "\u2581wam": 5866,
  "puma": 5867,
  "\u2581Way": 5868,
  "\u2581ankaganiza": 5869,
  "\u2581frequently": 5870,
  "\u2581inheritance": 5871,
  "\u2581ruling": 5872,
  "nkhalango": 5873,
  "ster": 5874,
  "umba": 5875,
  "\u2581MA": 5876,
  "\u2581Nda": 5877,
  "\u2581Report": 5878,
  "\u2581Switzerland": 5879,
  "\u2581amam": 5880,
  "\u2581kumadzulo": 5881,
  "\u2581lidzakhala": 5882,
  "\u2581middle": 5883,
  "\u2581ndinakhala": 5884,
  "\u2581principal": 5885,
  "\u2581yopanda": 5886,
  "\u2581Scripture": 5887,
  "\u2581amapezeka": 5888,
  "\u2581hot": 5889,
  "\u2581kuchirikiza": 5890,
  "\u2581kutsimikizira": 5891,
  "\u2581zingatithandize": 5892,
  "chilungamo": 5893,
  "ler": 5894,
  "\u2581Akufunsa": 5895,
  "\u2581Halls": 5896,
  "\u2581Nyengo": 5897,
  "\u2581add": 5898,
  "\u2581anadabwa": 5899,
  "\u2581ears": 5900,
  "\u2581games": 5901,
  "\u2581memory": 5902,
  "con": 5903,
  "ikira": 5904,
  "tchalitchi": 5905,
  "\u2581Sindi": 5906,
  "\u2581afterward": 5907,
  "\u2581meditate": 5908,
  "\u2581pleasant": 5909,
  "\u2581wolemera": 5910,
  "\u2581wopatulika": 5911,
  "ndo": 5912,
  "\u25812012": 5913,
  "\u258153": 5914,
  "\u2581Chiyembekezo": 5915,
  "\u2581art": 5916,
  "\u2581chotsatira": 5917,
  "\u2581kama": 5918,
  "\u2581safety": 5919,
  "khazikitsidwa": 5920,
  "thu": 5921,
  "\u2581Chronicles": 5922,
  "\u2581Lingaliro": 5923,
  "\u2581altar": 5924,
  "\u2581greed": 5925,
  "\u2581kuda": 5926,
  "\u2581kuyanjana": 5927,
  "\u2581Come": 5928,
  "\u2581Eya": 5929,
  "\u2581JEHOVAH": 5930,
  "\u2581Lapansi": 5931,
  "\u2581Tinka": 5932,
  "\u2581Wanu": 5933,
  "\u2581assignments": 5934,
  "\u2581custom": 5935,
  "\u2581female": 5936,
  "\u2581maina": 5937,
  "\u2581professor": 5938,
  "\u2581property": 5939,
  "\u2581spite": 5940,
  "\u2581Malangizo": 5941,
  "\u2581admits": 5942,
  "\u2581akaidi": 5943,
  "\u2581cast": 5944,
  "\u2581finish": 5945,
  "\u2581guilty": 5946,
  "\u2581kalelo": 5947,
  "\u2581northern": 5948,
  "\u2581zomveka": 5949,
  "nt": 5950,
  "\u2581achi": 5951,
  "\u2581anganene": 5952,
  "\u2581dry": 5953,
  "\u2581origin": 5954,
  "Yesu": 5955,
  "bi": 5956,
  "\u258111;": 5957,
  "\u2581Henry": 5958,
  "\u2581broke": 5959,
  "\u2581kutsutsa": 5960,
  "\u2581kuwongolera": 5961,
  "\u2581ofatsa": 5962,
  "\u2581wholesome": 5963,
  "\u2581wondered": 5964,
  "\u2581wopita": 5965,
  "\u2581yophunzitsa": 5966,
  "\u2581yosangalatsa": 5967,
  "pweteka": 5968,
  "\u258175": 5969,
  "\u2581Lazaro": 5970,
  "\u2581anauzidwa": 5971,
  "\u2581deliverance": 5972,
  "\u2581endured": 5973,
  "\u2581rely": 5974,
  "hu": 5975,
  "zu": 5976,
  "\u2581anayenda": 5977,
  "\u2581appeal": 5978,
  "\u2581arrangements": 5979,
  "\u2581chokhudza": 5980,
  "\u2581medicine": 5981,
  "\u2581pamakhala": 5982,
  "\u2581rightly": 5983,
  "\u2581victory": 5984,
  "\u2581zamphamvu": 5985,
  "bukhu": 5986,
  "yerekeza": 5987,
  "\u2581Anati": 5988,
  "\u2581Nigeria": 5989,
  "\u2581Source": 5990,
  "\u2581belongs": 5991,
  "\u2581ch": 5992,
  "\u2581color": 5993,
  "\u2581corrupt": 5994,
  "\u2581matendawa": 5995,
  "\u2581mpikisano": 5996,
  "\u2581otsutsa": 5997,
  "\u2581passing": 5998,
  "\u2581reduce": 5999,
  "\u2581threatened": 6000,
  "\u2581visitors": 6001,
  "\u2581zija": 6002,
  "\u2581zonsezo": 6003,
  "ever": 6004,
  "topa": 6005,
  "\u2581Achihebri": 6006,
  "\u2581Kale": 6007,
  "\u2581anamaliza": 6008,
  "\u2581chimakhala": 6009,
  "\u2581contain": 6010,
  "\u2581dyera": 6011,
  "\u2581gather": 6012,
  "\u2581kulengeza": 6013,
  "\u2581running": 6014,
  "\u2581sakana": 6015,
  "\u2581tidzakhala": 6016,
  "kuwa": 6017,
  "weruza": 6018,
  "\u2581Asuri": 6019,
  "\u2581Ben": 6020,
  "\u2581Following": 6021,
  "\u2581calm": 6022,
  "\u2581excellent": 6023,
  "\u2581readily": 6024,
  "\u2581summer": 6025,
  "\u2581union": 6026,
  "itana": 6027,
  "mikhalidwe": 6028,
  "\u2581607": 6029,
  "\u25818;": 6030,
  "\u2581angati": 6031,
  "\u2581aone": 6032,
  "\u2581liyenera": 6033,
  "\u2581pothandiza": 6034,
  "\u2581repentance": 6035,
  "\u2581repentant": 6036,
  "\u2581wear": 6037,
  "dabwa": 6038,
  "dzipereka": 6039,
  "kuyang": 6040,
  "tulukira": 6041,
  "\u2581Explain": 6042,
  "\u2581Isake": 6043,
  "\u2581Josephus": 6044,
  "\u2581ankagwiritsa": 6045,
  "\u2581chida": 6046,
  "\u2581glad": 6047,
  "\u2581gratitude": 6048,
  "\u2581interesting": 6049,
  "\u2581kochepa": 6050,
  "\u2581products": 6051,
  "\u2581unclean": 6052,
  "\u2581uti": 6053,
  "\u2581yoposa": 6054,
  "chepetsa": 6055,
  "kapolo": 6056,
  "\u2581Aka": 6057,
  "\u2581Mtundu": 6058,
  "\u2581Sana": 6059,
  "\u2581abilities": 6060,
  "\u2581mbuzi": 6061,
  "\u2581mo\u0175a": 6062,
  "nge": 6063,
  "pindula": 6064,
  "\u2581Lolonjezedwa": 6065,
  "\u2581Name": 6066,
  "\u2581Year": 6067,
  "\u2581bodza": 6068,
  "\u2581ethnic": 6069,
  "\u2581ifenso": 6070,
  "\u2581komweko": 6071,
  "\u2581pa\u0175iri": 6072,
  "\u2581temporary": 6073,
  "\u2581zazing": 6074,
  "fala": 6075,
  "tho": 6076,
  "\u2581Corinth": 6077,
  "\u2581Esther": 6078,
  "\u2581Mabuku": 6079,
  "\u2581Old": 6080,
  "\u2581Red": 6081,
  "\u2581Within": 6082,
  "\u2581anamanga": 6083,
  "\u2581establish": 6084,
  "\u2581finished": 6085,
  "\u2581imodzimodziyo": 6086,
  "\u2581theocratic": 6087,
  "lekerera": 6088,
  "\u2581Ga": 6089,
  "\u2581Professor": 6090,
  "\u2581amazindikira": 6091,
  "\u2581dying": 6092,
  "\u2581encourages": 6093,
  "\u2581kuikidwa": 6094,
  "\u2581lapansili": 6095,
  "\u2581limatiuza": 6096,
  "\u2581permanent": 6097,
  "\u2581pioneering": 6098,
  "\u2581possessions": 6099,
  "\u2581unka": 6100,
  "magulu": 6101,
  "phwanya": 6102,
  "zosatheka": 6103,
  "\u2581Imfa": 6104,
  "\u2581Lina": 6105,
  "\u2581burning": 6106,
  "\u2581lower": 6107,
  "\u2581Fotokozani": 6108,
  "\u2581Perekani": 6109,
  "\u2581camps": 6110,
  "\u2581choyera": 6111,
  "\u2581guilt": 6112,
  "\u2581ministeri": 6113,
  "\u2581zilakolako": 6114,
  "\u258144": 6115,
  "\u2581NY": 6116,
  "\u2581achikondi": 6117,
  "\u2581chisembwere": 6118,
  "\u2581invite": 6119,
  "\u2581kuzungulira": 6120,
  "\u2581opinion": 6121,
  "\u2581phone": 6122,
  "\u2581printed": 6123,
  "\u2581project": 6124,
  "\u2581referring": 6125,
  "\u2581team": 6126,
  "\u2581tsitsi": 6127,
  "\u2581willingly": 6128,
  "tcha": 6129,
  "\u2581analingalira": 6130,
  "\u2581olakwika": 6131,
  "\u2581smoke": 6132,
  "lemberani": 6133,
  "\u2581Association": 6134,
  "\u2581Chipembedzo": 6135,
  "\u2581Nzeru": 6136,
  "\u2581akulankhula": 6137,
  "\u2581chosangalatsa": 6138,
  "\u2581iyo": 6139,
  "\u2581mwinanso": 6140,
  "\u2581table": 6141,
  "\u2581tribe": 6142,
  "\u2581usana": 6143,
  "chidzi\u0175itso": 6144,
  "pempherera": 6145,
  "\u258136.": 6146,
  "\u258156": 6147,
  "\u2581amaphunzira": 6148,
  "\u2581anayesa": 6149,
  "\u2581approved": 6150,
  "\u2581boat": 6151,
  "\u2581credit": 6152,
  "\u2581divided": 6153,
  "\u2581except": 6154,
  "\u2581panjira": 6155,
  "\u2581stories": 6156,
  "chimwa": 6157,
  "\u2581Doing": 6158,
  "\u2581accepting": 6159,
  "\u2581angathandize": 6160,
  "\u2581chikwi": 6161,
  "\u2581chochuluka": 6162,
  "\u2581modest": 6163,
  "\u2581ovutika": 6164,
  "pititsa": 6165,
  "\u258154": 6166,
  "\u2581Journal": 6167,
  "\u2581TB": 6168,
  "\u2581chilimbikitso": 6169,
  "\u2581claims": 6170,
  "\u2581displayed": 6171,
  "\u2581kuchiritsa": 6172,
  "\u2581ran": 6173,
  "\u2581unless": 6174,
  "my": 6175,
  "\u2581Choonadi": 6176,
  "\u2581Granted": 6177,
  "\u2581Sweden": 6178,
  "\u2581afunika": 6179,
  "\u2581atamva": 6180,
  "\u2581chiwerengero": 6181,
  "\u2581civil": 6182,
  "\u2581dala": 6183,
  "\u2581everywhere": 6184,
  "\u2581marked": 6185,
  "\u2581potsirizira": 6186,
  "\u2581wokonzeka": 6187,
  "\u2581zilembo": 6188,
  "lepheretsa": 6189,
  "\u2581Fear": 6190,
  "\u2581Zechariah": 6191,
  "\u2581aona": 6192,
  "\u2581condemned": 6193,
  "\u2581items": 6194,
  "\u2581mafilimu": 6195,
  "\u2581mmenemo": 6196,
  "\u2581motivate": 6197,
  "\u2581parable": 6198,
  "\u2581wosangalatsa": 6199,
  "pindulitsa": 6200,
  "semphana": 6201,
  "\u2581Child": 6202,
  "\u2581FOR": 6203,
  "\u2581Lazarus": 6204,
  "\u2581brotherhood": 6205,
  "\u2581courageous": 6206,
  "\u2581empty": 6207,
  "\u2581facing": 6208,
  "\u2581kuwaphunzitsa": 6209,
  "\u2581spirits": 6210,
  "\u2581wisely": 6211,
  "pulumuka": 6212,
  "thokoza": 6213,
  "tsutsana": 6214,
  "zochitika": 6215,
  "\u2581Chatsopano": 6216,
  "\u2581enjoying": 6217,
  "\u2581kumachititsa": 6218,
  "\u2581kumisonkhano": 6219,
  "\u2581mabungwe": 6220,
  "\u2581mnzanga": 6221,
  "\u2581terrible": 6222,
  "ant": 6223,
  "du": 6224,
  "falikira": 6225,
  "ipa": 6226,
  "lin": 6227,
  "\u2581AND": 6228,
  "\u2581Cain": 6229,
  "\u2581analola": 6230,
  "\u2581kugwa": 6231,
  "\u2581lakale": 6232,
  "\u2581scale": 6233,
  "\u2581symptoms": 6234,
  "lole": 6235,
  "ngoti": 6236,
  "op": 6237,
  "pezedwa": 6238,
  "\u2581Gu": 6239,
  "\u2581Three": 6240,
  "\u2581access": 6241,
  "\u2581admitted": 6242,
  "\u2581amaphunzitsa": 6243,
  "\u2581mase\u0175ero": 6244,
  "\u2581moon": 6245,
  "\u2581previous": 6246,
  "\u2581texts": 6247,
  ",000,000": 6248,
  "Pakuti": 6249,
  "ol": 6250,
  "wonjezeka": 6251,
  "\u25812010": 6252,
  "\u2581Alexander": 6253,
  "\u2581Happy": 6254,
  "\u2581Muma": 6255,
  "\u2581akanakhala": 6256,
  "\u2581fighting": 6257,
  "\u2581fourth": 6258,
  "\u2581ignore": 6259,
  "\u2581kumasonyeza": 6260,
  "\u2581kuwapatsa": 6261,
  "\u2581reign": 6262,
  "\u2581yomanga": 6263,
  "sta": 6264,
  "\u2581chiti": 6265,
  "\u2581chokoma": 6266,
  "\u2581extended": 6267,
  "\u2581happening": 6268,
  "\u2581paper": 6269,
  "\u2581resulting": 6270,
  "\u2581wowona": 6271,
  "ING": 6272,
  "kuthandizani": 6273,
  "tonthoza": 6274,
  "\u2581Nathan": 6275,
  "\u2581Ndinayamba": 6276,
  "\u2581Passover": 6277,
  "\u2581accord": 6278,
  "\u2581anachokera": 6279,
  "\u2581anakhazikitsa": 6280,
  "\u2581anawona": 6281,
  "\u2581fields": 6282,
  "\u2581kugonjetsa": 6283,
  "\u2581makampani": 6284,
  "\u2581mark": 6285,
  "\u2581ovuta": 6286,
  "\u2581replaced": 6287,
  "\u2581tingati": 6288,
  "\u2581win": 6289,
  "\u2581zolakwika": 6290,
  "RI": 6291,
  "ponya": 6292,
  "sonyezera": 6293,
  "\u2581Asa": 6294,
  "\u2581chisungiko": 6295,
  "\u2581dama": 6296,
  "\u2581meaningful": 6297,
  "\u2581suggests": 6298,
  "\u2581talks": 6299,
  "tchulidwa": 6300,
  "\u2581Wina": 6301,
  "\u2581akukumbukira": 6302,
  "\u2581blame": 6303,
  "\u2581chipambano": 6304,
  "\u2581chiwerewere": 6305,
  "\u2581feature": 6306,
  "\u2581grave": 6307,
  "\u2581initiative": 6308,
  "\u2581ola": 6309,
  "\u2581thanks": 6310,
  "\u2581tinayamba": 6311,
  "will": 6312,
  "\u2581Concern": 6313,
  "\u2581Efeso": 6314,
  "\u2581Est": 6315,
  "\u2581aged": 6316,
  "\u2581atango": 6317,
  "\u2581focused": 6318,
  "\u2581historical": 6319,
  "\u2581kupambana": 6320,
  "\u2581mass": 6321,
  "\u2581reliable": 6322,
  "Inu": 6323,
  "gwidwa": 6324,
  "kwiya": 6325,
  "\u25812011": 6326,
  "\u2581afternoon": 6327,
  "\u2581alert": 6328,
  "\u2581amapanga": 6329,
  "\u2581assures": 6330,
  "\u2581kulera": 6331,
  "\u2581kumatithandiza": 6332,
  "\u2581remind": 6333,
  "\u2581zingathandize": 6334,
  "ac": 6335,
  "atted": 6336,
  "gen": 6337,
  "per": 6338,
  "ria": 6339,
  "\u2581chochokera": 6340,
  "\u2581lamanja": 6341,
  "\u2581limit": 6342,
  "\u2581mikangano": 6343,
  "\u2581mungafune": 6344,
  "\u2581mwaluso": 6345,
  "\u2581tikambirana": 6346,
  "\u2581translations": 6347,
  "\u2581umpha\u0175i": 6348,
  "\u2581walls": 6349,
  "\u2581winanso": 6350,
  "Iye": 6351,
  "khamu": 6352,
  "not": 6353,
  "phika": 6354,
  "zofunika": 6355,
  "\u2581evolution": 6356,
  "\u2581looks": 6357,
  "\u2581mbusa": 6358,
  "\u2581mwachibadwa": 6359,
  "\u2581watching": 6360,
  "\u2581CHI": 6361,
  "\u2581Chiyuda": 6362,
  "\u2581Munga": 6363,
  "\u2581Nyimbo": 6364,
  "\u2581Science": 6365,
  "\u2581Uma": 6366,
  "\u2581aliwonse": 6367,
  "\u2581anachoka": 6368,
  "\u2581choterocho": 6369,
  "\u2581fun": 6370,
  "\u2581fundamental": 6371,
  "\u2581msonkho": 6372,
  "\u2581wosiyana": 6373,
  "ad": 6374,
  "com": 6375,
  "\u2581Elisa": 6376,
  "\u2581Muka": 6377,
  "\u2581acknowledge": 6378,
  "\u2581descendants": 6379,
  "\u2581discouraged": 6380,
  "\u2581fathers": 6381,
  "\u2581gained": 6382,
  "\u2581inclined": 6383,
  "\u2581kudzipha": 6384,
  "\u2581kukhoza": 6385,
  "\u2581nadza": 6386,
  "\u2581ordered": 6387,
  "\u2581solid": 6388,
  "boma": 6389,
  "dzi\u0175itsa": 6390,
  "there": 6391,
  "ut": 6392,
  "\u2581Kaini": 6393,
  "\u2581Mbonizo": 6394,
  "\u2581Medical": 6395,
  "\u2581amalandira": 6396,
  "\u2581depends": 6397,
  "\u2581diet": 6398,
  "\u2581f": 6399,
  "\u2581kudutsa": 6400,
  "\u2581kukayikira": 6401,
  "\u2581limapereka": 6402,
  "\u2581nafenso": 6403,
  "\u2581primarily": 6404,
  "\u2581yauzimu": 6405,
  "kupeza": 6406,
  "\u2581Catholics": 6407,
  "\u2581Master": 6408,
  "\u2581associates": 6409,
  "\u2581attacks": 6410,
  "\u2581contained": 6411,
  "\u2581distant": 6412,
  "\u2581drawing": 6413,
  "\u2581kope": 6414,
  "\u2581mwakuti": 6415,
  "\u2581mwiniyo": 6416,
  "\u2581paliponse": 6417,
  "\u2581usa": 6418,
  "\u2581welfare": 6419,
  "theka": 6420,
  "zika": 6421,
  "\u2581Kaisara": 6422,
  "\u2581Septuagint": 6423,
  "\u2581chita": 6424,
  "\u2581devoted": 6425,
  "\u2581emotionally": 6426,
  "\u2581employment": 6427,
  "\u2581existed": 6428,
  "\u2581faithfulness": 6429,
  "\u2581fallen": 6430,
  "\u2581isolated": 6431,
  "\u2581mozama": 6432,
  "\u2581nsonga": 6433,
  "\u2581sitinga": 6434,
  "\u2581spending": 6435,
  "mbuyomu": 6436,
  "\u2581120": 6437,
  "\u2581Atumiki": 6438,
  "\u2581Up": 6439,
  "\u2581YEHOVA": 6440,
  "\u2581anavomera": 6441,
  "\u2581anawapatsa": 6442,
  "\u2581merciful": 6443,
  "\u2581mosakayikira": 6444,
  "\u2581newly": 6445,
  "\u2581persecuted": 6446,
  "\u2581proud": 6447,
  "\u2581quiet": 6448,
  "\u2581researchers": 6449,
  "\u2581schools": 6450,
  "\u2581tests": 6451,
  "\u2581tichite": 6452,
  "\u258111201": 6453,
  "\u258152": 6454,
  "\u2581Anga": 6455,
  "\u2581gambling": 6456,
  "\u2581laumwini": 6457,
  "\u2581pamapeto": 6458,
  "\u2581pambali": 6459,
  "\u2581songs": 6460,
  "\u2581Austria": 6461,
  "\u2581coast": 6462,
  "\u2581streets": 6463,
  "simba": 6464,
  "\u2581adopted": 6465,
  "\u2581agreement": 6466,
  "\u2581anango": 6467,
  "\u2581commands": 6468,
  "\u2581context": 6469,
  "\u2581instructed": 6470,
  "\u2581traits": 6471,
  "\u2581ulaliki": 6472,
  "\u2581widespread": 6473,
  "\u2581zotsatirapo": 6474,
  "mabanja": 6475,
  "pang": 6476,
  "\u2581Know": 6477,
  "\u2581Lake": 6478,
  "\u2581elements": 6479,
  "\u2581idolatry": 6480,
  "\u2581padzakhala": 6481,
  "\u2581zokongola": 6482,
  "kupereka": 6483,
  "\u258124]": 6484,
  "\u2581Kulambira": 6485,
  "\u2581Pe": 6486,
  "\u2581enable": 6487,
  "\u2581equal": 6488,
  "\u2581osonyeza": 6489,
  "\u2581review": 6490,
  "\u2581sichina": 6491,
  "kum": 6492,
  "\u2581Mac": 6493,
  "\u2581Netherlands": 6494,
  "\u2581chidzakhala": 6495,
  "\u2581citizens": 6496,
  "\u2581feed": 6497,
  "\u2581introduced": 6498,
  "\u2581mwachiwonekere": 6499,
  "\u2581sustain": 6500,
  "\u2581woposa": 6501,
  "mbi": 6502,
  "\u2581Hope": 6503,
  "\u2581Show": 6504,
  "\u2581admonition": 6505,
  "\u2581anatipatsa": 6506,
  "\u2581heat": 6507,
  "\u2581kunka": 6508,
  "\u2581limakhala": 6509,
  "\u2581otsimikiza": 6510,
  "\u2581programu": 6511,
  "\u2581royal": 6512,
  "\u2581zofunikira": 6513,
  "ngotsala": 6514,
  "\u2581Armagedo": 6515,
  "\u2581Malachi": 6516,
  "\u2581Welcome": 6517,
  "\u2581moves": 6518,
  "\u2581reap": 6519,
  "\u2581zachiwawa": 6520,
  "penda": 6521,
  "werenga": 6522,
  "\u25812003": 6523,
  "\u258161": 6524,
  "\u2581Empire": 6525,
  "\u2581Pemphero": 6526,
  "\u2581childhood": 6527,
  "\u2581chowona": 6528,
  "\u2581concentration": 6529,
  "\u2581iron": 6530,
  "\u2581kumafuna": 6531,
  "\u2581mbadwo": 6532,
  "\u2581miraculous": 6533,
  "\u2581movement": 6534,
  "\u2581unusual": 6535,
  "\u2581wapamwamba": 6536,
  "chotsedwa": 6537,
  "ire": 6538,
  "zing": 6539,
  "\u258114]": 6540,
  "\u2581Aigupto": 6541,
  "\u2581Babylonian": 6542,
  "\u2581En": 6543,
  "\u2581amalimbikitsa": 6544,
  "\u2581apite": 6545,
  "\u2581atayamba": 6546,
  "\u2581burned": 6547,
  "\u2581humbly": 6548,
  "\u2581impact": 6549,
  "\u2581k": 6550,
  "\u2581playing": 6551,
  "\u2581pornography": 6552,
  "\u2581sing": 6553,
  "his": 6554,
  "\u2581Abel": 6555,
  "\u2581Mankhwala": 6556,
  "\u2581cared": 6557,
  "\u2581cholakwa": 6558,
  "\u2581commit": 6559,
  "\u2581mawuwo": 6560,
  "\u2581pamtunda": 6561,
  "\u2581sii": 6562,
  "To": 6563,
  "\u2581Chimwemwe": 6564,
  "\u2581LA": 6565,
  "\u2581Saulo": 6566,
  "\u2581ankaphunzitsa": 6567,
  "\u2581figurative": 6568,
  "\u2581ka\u0175iri": 6569,
  "\u2581kungathandize": 6570,
  "\u2581media": 6571,
  "\u2581minda": 6572,
  "\u2581restore": 6573,
  "bereka": 6574,
  "fo": 6575,
  "tengere": 6576,
  "\u2581Jean": 6577,
  "\u2581Martin": 6578,
  "\u2581anai": 6579,
  "\u2581beast": 6580,
  "\u2581capable": 6581,
  "\u2581finds": 6582,
  "\u2581maulamuliro": 6583,
  "\u2581readers": 6584,
  "\u2581sikuli": 6585,
  "\u25816;": 6586,
  "\u2581Japanese": 6587,
  "\u2581Malaki": 6588,
  "\u2581ankatha": 6589,
  "\u2581shortly": 6590,
  "\u2581thambo": 6591,
  "\u2581zinthuzo": 6592,
  "mbuyomo": 6593,
  "nsi": 6594,
  "\u2581Co": 6595,
  "\u2581Kusintha": 6596,
  "\u2581Marriage": 6597,
  "\u2581Wamasalmo": 6598,
  "\u2581chinachititsa": 6599,
  "\u2581deaf": 6600,
  "\u2581fears": 6601,
  "\u2581kansa": 6602,
  "\u2581kulapa": 6603,
  "\u2581object": 6604,
  "\u2581officer": 6605,
  "\u2581reads": 6606,
  "\u2581tobacco": 6607,
  "\u2581traditions": 6608,
  "\u2581universal": 6609,
  "\u2581yachiwiri": 6610,
  "No": 6611,
  "mapiri": 6612,
  "tso": 6613,
  "\u2581akaona": 6614,
  "\u2581anaimba": 6615,
  "\u2581kumayambiriro": 6616,
  "\u2581sorts": 6617,
  "\u2581visible": 6618,
  "\u2581yani": 6619,
  "kusonyeza": 6620,
  "with": 6621,
  "yendetsa": 6622,
  "\u2581Anu": 6623,
  "\u2581Pilato": 6624,
  "\u2581kameneka": 6625,
  "\u2581kudzipatulira": 6626,
  "\u2581kuwonongedwa": 6627,
  "\u2581linayamba": 6628,
  "\u2581opatulika": 6629,
  "\u2581raising": 6630,
  "\u2581south": 6631,
  "ern": 6632,
  "tetezera": 6633,
  "vu": 6634,
  "\u25812005": 6635,
  "\u2581challenging": 6636,
  "\u2581headquarters": 6637,
  "\u2581losing": 6638,
  "\u2581pama": 6639,
  "\u2581pempho": 6640,
  "\u2581prejudice": 6641,
  "\u2581space": 6642,
  "\u2581suggested": 6643,
  "\u2581yochitira": 6644,
  "\u2581zankhondo": 6645,
  "\u2581zapitazi": 6646,
  "\u2581zisa": 6647,
  "chiritsa": 6648,
  "kwatira": 6649,
  "zonse": 6650,
  "\u25811918": 6651,
  "\u2581Chake": 6652,
  "\u2581amaonera": 6653,
  "\u2581leader": 6654,
  "\u2581mlembi": 6655,
  "\u2581ndikufuna": 6656,
  "\u2581sakhala": 6657,
  "\u2581sitting": 6658,
  "\u2581wamtengo": 6659,
  "\u2581zogwirizana": 6660,
  "khudzidwa": 6661,
  "wala": 6662,
  "\u2581Martha": 6663,
  "\u2581andi": 6664,
  "\u2581a\u0175iriwo": 6665,
  "\u2581banjalo": 6666,
  "\u2581kukhazikitsa": 6667,
  "\u2581maintaining": 6668,
  "\u2581muukwati": 6669,
  "\u2581preparing": 6670,
  "\u2581returning": 6671,
  "\u2581stayed": 6672,
  "\u2581wood": 6673,
  "LA": 6674,
  "\u2581akudwala": 6675,
  "\u2581amayamikira": 6676,
  "\u2581description": 6677,
  "\u2581inherit": 6678,
  "\u2581mourning": 6679,
  "\u2581necessarily": 6680,
  "\u2581programs": 6681,
  "\u2581slavery": 6682,
  "\u2581tingasonyeze": 6683,
  "ali": 6684,
  "langa": 6685,
  "londola": 6686,
  "mtundu": 6687,
  "\u25811950": 6688,
  "\u2581Hu": 6689,
  "\u2581inanso": 6690,
  "\u2581kali": 6691,
  "\u2581kupatsidwa": 6692,
  "\u2581location": 6693,
  "\u2581lonena": 6694,
  "\u2581missing": 6695,
  "\u2581mokoma": 6696,
  "\u2581siliva": 6697,
  "\u2581wachipembedzo": 6698,
  "\u2581Baal": 6699,
  "\u2581Madzi": 6700,
  "\u2581Mapu": 6701,
  "\u2581Misonkhano": 6702,
  "\u2581Yadziko": 6703,
  "\u2581chosonyeza": 6704,
  "\u2581mwalamulo": 6705,
  "\u2581obtained": 6706,
  "\u2581pursuing": 6707,
  "\u2581symbolic": 6708,
  "\u2581zapadera": 6709,
  "gwire": 6710,
  "mera": 6711,
  "mvetsetsa": 6712,
  "ndipatsa": 6713,
  "wopa": 6714,
  "\u2581Central": 6715,
  "\u2581Congregation": 6716,
  "\u2581Worship": 6717,
  "\u2581chotchedwa": 6718,
  "\u2581philosophy": 6719,
  "\u2581southern": 6720,
  "\u2581suna": 6721,
  "dabwitsa": 6722,
  "nyoza": 6723,
  "yesera": 6724,
  "\u2581Gen": 6725,
  "\u2581Mneneri": 6726,
  "\u2581accident": 6727,
  "\u2581achikhristu": 6728,
  "\u2581acknowledged": 6729,
  "\u2581awake": 6730,
  "\u2581creature": 6731,
  "\u2581mine": 6732,
  "\u2581mungakonde": 6733,
  "\u2581systems": 6734,
  "\u2581wrath": 6735,
  "konde": 6736,
  "lakwa": 6737,
  "\u2581Lima": 6738,
  "\u2581Living": 6739,
  "\u2581Ukraine": 6740,
  "\u2581accompanied": 6741,
  "\u2581chonde": 6742,
  "\u2581imperfection": 6743,
  "\u2581lauzimu": 6744,
  "\u2581lowly": 6745,
  "\u2581reply": 6746,
  "\u2581tear": 6747,
  "\u2581trusted": 6748,
  "\u2581wrongdoing": 6749,
  "\u2581zingachititse": 6750,
  "\u2581zi\u0175anda": 6751,
  "\u2581Koposa": 6752,
  "\u2581Kum": 6753,
  "\u2581Mediterranean": 6754,
  "\u2581Nkhaniyi": 6755,
  "\u2581asiye": 6756,
  "\u2581golidi": 6757,
  "\u2581grain": 6758,
  "\u2581length": 6759,
  "\u2581virtual": 6760,
  "\u2581yunivesite": 6761,
  "kapena": 6762,
  "kope": 6763,
  "ow": 6764,
  "\u2581believing": 6765,
  "\u2581calamity": 6766,
  "\u2581campaign": 6767,
  "\u2581chokwanira": 6768,
  "\u2581kulongosola": 6769,
  "\u2581largest": 6770,
  "\u2581lovingly": 6771,
  "\u2581messages": 6772,
  "\u2581momasuka": 6773,
  "\u2581mumkhalidwe": 6774,
  "\u2581ndakhala": 6775,
  "\u2581singing": 6776,
  "\u2581sizinali": 6777,
  "\u2581sources": 6778,
  "\u2581yakanema": 6779,
  "\u2581yopita": 6780,
  "KA": 6781,
  "ber": 6782,
  "chezera": 6783,
  "if": 6784,
  "komera": 6785,
  "tiuza": 6786,
  "\u25811998": 6787,
  "\u2581Khirisimasi": 6788,
  "\u2581assurance": 6789,
  "\u2581cholo\u0175a": 6790,
  "\u2581contributed": 6791,
  "\u2581cruel": 6792,
  "\u2581disasters": 6793,
  "\u2581heads": 6794,
  "\u2581kuchitidwa": 6795,
  "\u2581limitations": 6796,
  "\u2581murder": 6797,
  "\u2581preced": 6798,
  "\u2581tiny": 6799,
  "&": 6800,
  "lingaliridwa": 6801,
  "ola": 6802,
  "\u2581Women": 6803,
  "\u2581grasp": 6804,
  "\u2581harsh": 6805,
  "\u2581holds": 6806,
  "\u2581sang": 6807,
  "Mwa": 6808,
  "kupanga": 6809,
  "\u2581Mkhalidwe": 6810,
  "\u2581Mukhoza": 6811,
  "\u2581amadana": 6812,
  "\u2581amatipatsa": 6813,
  "\u2581changing": 6814,
  "\u2581debt": 6815,
  "\u2581kulakwa": 6816,
  "\u2581kwamuyaya": 6817,
  "\u2581machitidwe": 6818,
  "\u2581metal": 6819,
  "\u2581mwaku": 6820,
  "landire": 6821,
  "siyanitsa": 6822,
  "\u00e1": 6823,
  "\u2581Joel": 6824,
  "\u2581Kuma": 6825,
  "\u2581abandon": 6826,
  "\u2581anaikidwa": 6827,
  "\u2581explanation": 6828,
  "\u2581kampani": 6829,
  "\u2581kulimbitsa": 6830,
  "\u2581previously": 6831,
  "\u2581repeated": 6832,
  "\u2581survived": 6833,
  "\u2581weaknesses": 6834,
  "KU": 6835,
  "Yerusalemu": 6836,
  "dzutsa": 6837,
  "pezera": 6838,
  "\u2581Malawi": 6839,
  "\u2581Viewpoint": 6840,
  "\u2581Zoona": 6841,
  "\u2581anagwirizana": 6842,
  "\u2581analembedwa": 6843,
  "\u2581chilangizo": 6844,
  "\u2581conflicts": 6845,
  "\u2581ear": 6846,
  "\u2581game": 6847,
  "\u2581inherited": 6848,
  "\u2581kusamvera": 6849,
  "\u2581lines": 6850,
  "\u2581maluwa": 6851,
  "\u2581mchere": 6852,
  "\u2581mwapadera": 6853,
  "\u2581satisfied": 6854,
  "sala": 6855,
  "ted": 6856,
  "\u2581Egyptian": 6857,
  "\u2581Mayankho": 6858,
  "\u2581Moscow": 6859,
  "\u2581eliminate": 6860,
  "\u2581executed": 6861,
  "\u2581kwaumulungu": 6862,
  "\u2581ndandanda": 6863,
  "\u2581protected": 6864,
  "\u2581sanafune": 6865,
  "\u2581watipatsa": 6866,
  "\u2581zinam": 6867,
  "iwala": 6868,
  "lamula": 6869,
  "opsa": 6870,
  "\u25811943": 6871,
  "\u2581Pantha\u0175iyo": 6872,
  "\u2581Zekariya": 6873,
  "\u2581hell": 6874,
  "\u2581kumenya": 6875,
  "\u2581lawlessness": 6876,
  "\u2581loipali": 6877,
  "\u2581peers": 6878,
  "\u2581uno": 6879,
  "\u2581wakumunda": 6880,
  "\u2581zapamwamba": 6881,
  "chitire": 6882,
  "ized": 6883,
  "\u25811987": 6884,
  "\u2581Chabwino": 6885,
  "\u2581Stephen": 6886,
  "\u2581chilolezo": 6887,
  "\u2581design": 6888,
  "\u2581forgiving": 6889,
  "\u2581mlendo": 6890,
  "\u2581pathu": 6891,
  "\u2581prisoners": 6892,
  "\u2581proverb": 6893,
  "\u2581winter": 6894,
  "by": 6895,
  "lolera": 6896,
  "tenge": 6897,
  "wonongedwa": 6898,
  "\u2581Elisha": 6899,
  "\u2581Ufumuwo": 6900,
  "\u2581chisomo": 6901,
  "\u2581journal": 6902,
  "\u2581kukuthandizani": 6903,
  "\u2581mungapeze": 6904,
  "\u2581nduna": 6905,
  "\u2581nzo": 6906,
  "\u2581range": 6907,
  "\u2581turns": 6908,
  "qui": 6909,
  "thamanga": 6910,
  "\u2581Chidzi\u0175itso": 6911,
  "\u2581Millions": 6912,
  "\u2581Pofotokoza": 6913,
  "\u2581anatsutsa": 6914,
  "\u2581aziphunzira": 6915,
  "\u2581chikhale": 6916,
  "\u2581shed": 6917,
  "\u2581surrounded": 6918,
  "theketsa": 6919,
  "\u258100": 6920,
  "\u25811986": 6921,
  "\u2581Ephesus": 6922,
  "\u2581Ima": 6923,
  "\u2581Judea": 6924,
  "\u2581Pro": 6925,
  "\u2581central": 6926,
  "\u2581drew": 6927,
  "\u2581extend": 6928,
  "\u2581illustrations": 6929,
  "\u2581income": 6930,
  "\u2581kutsogolera": 6931,
  "\u2581ndinapita": 6932,
  "\u2581sets": 6933,
  "linganiza": 6934,
  "nyenga": 6935,
  "ulula": 6936,
  "\u2581Hezekiya": 6937,
  "\u2581Ifenso": 6938,
  "\u2581Mar": 6939,
  "\u2581akudziwa": 6940,
  "\u2581akudzi\u0175a": 6941,
  "\u2581angafune": 6942,
  "\u2581islands": 6943,
  "\u2581mokhazikika": 6944,
  "\u2581nthano": 6945,
  "\u2581partner": 6946,
  "\u2581realm": 6947,
  "\u2581silina": 6948,
  "\u2581supplies": 6949,
  "\u2581thankful": 6950,
  "\u2581urges": 6951,
  "io": 6952,
  "psa": 6953,
  "\u2581Liwu": 6954,
  "\u2581bukuli": 6955,
  "\u2581fresh": 6956,
  "\u2581pachiyambi": 6957,
  "\u2581throw": 6958,
  "\u2581video": 6959,
  "\u2581zinalembedwa": 6960,
  "\u2581zizi": 6961,
  "ag": 6962,
  "ot": 6963,
  "\u2581Aaron": 6964,
  "\u2581Mi": 6965,
  "\u2581Mwamsanga": 6966,
  "\u2581Pilate": 6967,
  "\u2581kwakukulukulu": 6968,
  "\u2581opposed": 6969,
  "\u2581scripture": 6970,
  "\u2581timafuna": 6971,
  "\u2581upbuilding": 6972,
  "\u2581zolimbikitsa": 6973,
  "fooka": 6974,
  "jambula": 6975,
  "ngozi": 6976,
  "yeretsa": 6977,
  "\u2581Atsogoleri": 6978,
  "\u2581Baala": 6979,
  "\u2581End": 6980,
  "\u2581Esau": 6981,
  "\u2581amamvera": 6982,
  "\u2581ankachitira": 6983,
  "\u2581check": 6984,
  "\u2581kinds": 6985,
  "\u2581makope": 6986,
  "\u2581marital": 6987,
  "\u2581mkangano": 6988,
  "\u2581pankhaniyi": 6989,
  "\u2581surgery": 6990,
  "\u2581tingaphunzire": 6991,
  "\u2581yako": 6992,
  "cy": 6993,
  "\u2581Minor": 6994,
  "\u2581Next": 6995,
  "\u2581Table": 6996,
  "\u2581acquire": 6997,
  "\u2581humankind": 6998,
  "\u2581identity": 6999,
  "\u2581jobs": 7000,
  "\u2581larger": 7001,
  "oleza": 7002,
  "pangano": 7003,
  "paradaiso": 7004,
  "\u2581Again": 7005,
  "\u2581Much": 7006,
  "\u2581Protestant": 7007,
  "\u2581compassionate": 7008,
  "\u2581figure": 7009,
  "\u2581kukwatira": 7010,
  "\u2581possession": 7011,
  "\u2581rejoicing": 7012,
  "\u2581relate": 7013,
  "\u2581sexually": 7014,
  "\u2581solve": 7015,
  "\u2581worker": 7016,
  "phunzitsidwa": 7017,
  "that": 7018,
  "\u2581Eli": 7019,
  "\u2581Luther": 7020,
  "\u2581Ufulu": 7021,
  "\u2581Use": 7022,
  "\u2581Washington": 7023,
  "\u2581conviction": 7024,
  "\u2581helo": 7025,
  "\u2581intended": 7026,
  "\u2581kupembedza": 7027,
  "\u2581method": 7028,
  "\u2581mistake": 7029,
  "\u2581tendency": 7030,
  "\u2581wokhulupirira": 7031,
  "\u2581zinathandiza": 7032,
  "dikira": 7033,
  "khalitsa": 7034,
  "our": 7035,
  "phatikiza": 7036,
  "yambukira": 7037,
  "\u2581Far": 7038,
  "\u2581Hezekiah": 7039,
  "\u2581Papa": 7040,
  "\u2581achiyuda": 7041,
  "\u2581hidden": 7042,
  "ful": 7043,
  "lamulidwa": 7044,
  "otsutsana": 7045,
  "\u2581Agiriki": 7046,
  "\u2581Prayer": 7047,
  "\u2581Which": 7048,
  "\u2581amaganizira": 7049,
  "\u2581amaika": 7050,
  "\u2581difficulty": 7051,
  "\u2581engaged": 7052,
  "\u2581imasonyeza": 7053,
  "\u2581market": 7054,
  "\u2581osakhulupirira": 7055,
  "\u2581pabanja": 7056,
  "kumbutsa": 7057,
  "\u2581Back": 7058,
  "\u2581Galilee": 7059,
  "\u2581Mungathe": 7060,
  "\u2581anakonda": 7061,
  "\u2581athe": 7062,
  "\u2581depend": 7063,
  "\u2581drive": 7064,
  "\u2581kakang": 7065,
  "\u2581load": 7066,
  "\u2581pamutu": 7067,
  "\u2581patali": 7068,
  "\u2581tempted": 7069,
  "\u2581thrown": 7070,
  "\u2581tired": 7071,
  "\u2581types": 7072,
  "tha\u0175a": 7073,
  "vumbula": 7074,
  "\u2581Limaphunzitsa": 7075,
  "\u2581Lipoti": 7076,
  "\u2581Tita": 7077,
  "\u2581akuvomereza": 7078,
  "\u2581comment": 7079,
  "\u2581generous": 7080,
  "\u2581immortal": 7081,
  "\u2581ndinapeza": 7082,
  "\u2581pleasing": 7083,
  "\u2581wotero": 7084,
  "0,000": 7085,
  "q": 7086,
  "rt": 7087,
  "\u2581anatumikira": 7088,
  "\u2581approaching": 7089,
  "\u2581flee": 7090,
  "\u2581mnansi": 7091,
  "\u2581operation": 7092,
  "\u2581Interestingly": 7093,
  "\u2581Mabanja": 7094,
  "\u2581Notice": 7095,
  "\u2581akum": 7096,
  "\u2581chipiriro": 7097,
  "\u2581crisis": 7098,
  "\u2581execution": 7099,
  "\u2581kalasi": 7100,
  "\u2581mabodza": 7101,
  "\u2581pick": 7102,
  "\u2581significance": 7103,
  "\u2581technology": 7104,
  "\u2581warfare": 7105,
  "dandaula": 7106,
  "konzedwa": 7107,
  "ndu": 7108,
  "\u258129]": 7109,
  "\u2581Answers": 7110,
  "\u2581Library": 7111,
  "\u2581Siti": 7112,
  "\u2581Spiritual": 7113,
  "\u2581addressed": 7114,
  "\u2581fruits": 7115,
  "\u2581lodzala": 7116,
  "\u2581mliri": 7117,
  "\u2581sat": 7118,
  "\u2581strengthening": 7119,
  "\u2581tirigu": 7120,
  "\u2581wapereka": 7121,
  "\u2581zosangulutsa": 7122,
  "ated": 7123,
  "chinthu": 7124,
  "tsi": 7125,
  "\u2581Imeneyi": 7126,
  "\u2581Lamb": 7127,
  "\u2581author": 7128,
  "\u2581bride": 7129,
  "\u2581capacity": 7130,
  "\u2581chaumulungu": 7131,
  "\u2581choices": 7132,
  "\u2581dies": 7133,
  "\u2581kuyendetsa": 7134,
  "\u2581mofananamo": 7135,
  "\u2581nthanthi": 7136,
  "\u2581perfection": 7137,
  "\u2581pregnant": 7138,
  "\u2581symbol": 7139,
  "\u2581tipeze": 7140,
  "\u2581unrighteous": 7141,
  "gwetsa": 7142,
  "khu": 7143,
  "thira": 7144,
  "vomerezedwa": 7145,
  "\u2581anapha": 7146,
  "\u2581ends": 7147,
  "\u2581judges": 7148,
  "\u2581oweruza": 7149,
  "\u2581preserve": 7150,
  "\u2581tima\u0175erenga": 7151,
  "den": 7152,
  "dzakhala": 7153,
  "ros": 7154,
  "sungira": 7155,
  "\u2581Age": 7156,
  "\u2581Da": 7157,
  "\u2581Mmalo": 7158,
  "\u2581Review": 7159,
  "\u2581akumva": 7160,
  "\u2581opposers": 7161,
  "\u2581searching": 7162,
  "\u2581similarly": 7163,
  "\u2581sindinka": 7164,
  "\u2581sufficient": 7165,
  "chitiridwa": 7166,
  "\u2581Ansembe": 7167,
  "\u2581Asayansi": 7168,
  "\u2581Chadziko": 7169,
  "\u2581Committee": 7170,
  "\u2581Little": 7171,
  "\u2581akuyembekezera": 7172,
  "\u2581motives": 7173,
  "\u2581ndikhale": 7174,
  "\u2581proceeded": 7175,
  "\u2581title": 7176,
  "dzakuthandizani": 7177,
  "ris": 7178,
  "\u2581145": 7179,
  "\u2581Bar": 7180,
  "\u2581Lu": 7181,
  "\u2581Truly": 7182,
  "\u2581beat": 7183,
  "\u2581benefited": 7184,
  "\u2581bitter": 7185,
  "\u2581chitsutso": 7186,
  "\u2581commonly": 7187,
  "\u2581disorder": 7188,
  "\u2581faces": 7189,
  "\u2581lapadera": 7190,
  "\u2581lips": 7191,
  "\u2581mano": 7192,
  "\u2581possibility": 7193,
  "\u2581siziku": 7194,
  "Ntha\u0175i": 7195,
  "pe\u0175a": 7196,
  "\u2581Ki": 7197,
  "\u2581Tonsefe": 7198,
  "\u2581alili": 7199,
  "\u2581anayesetsa": 7200,
  "\u2581cup": 7201,
  "\u2581floor": 7202,
  "\u2581koloko": 7203,
  "\u2581mkaka": 7204,
  "Atate": 7205,
  "dy": 7206,
  "padziko": 7207,
  "vutitsa": 7208,
  "wauza": 7209,
  "\u2581adzi": 7210,
  "\u2581kundende": 7211,
  "\u2581muno": 7212,
  "\u2581zifuno": 7213,
  "AN": 7214,
  "amene": 7215,
  "der": 7216,
  "lakwitsa": 7217,
  "ran": 7218,
  "ten": 7219,
  "\u25812]": 7220,
  "\u2581Akunja": 7221,
  "\u2581Jordan": 7222,
  "\u2581Makhalidwe": 7223,
  "\u2581anakhalako": 7224,
  "\u2581glorify": 7225,
  "\u2581kupulumutsa": 7226,
  "\u2581kutengera": 7227,
  "\u2581lochokera": 7228,
  "\u2581mayanjano": 7229,
  "\u2581mid": 7230,
  "\u2581miracle": 7231,
  "\u2581moni": 7232,
  "\u2581simunga": 7233,
  "khumudwitsa": 7234,
  "\u25811985": 7235,
  "\u2581AS": 7236,
  "\u2581Mphunzitsi": 7237,
  "\u2581Sam": 7238,
  "\u2581amatithandiza": 7239,
  "\u2581chimachititsa": 7240,
  "\u2581discussions": 7241,
  "\u2581fitting": 7242,
  "\u2581kudana": 7243,
  "\u2581lika": 7244,
  "\u2581woyenerera": 7245,
  "\u2581zigawo": 7246,
  "fanizo": 7247,
  "malemba": 7248,
  "\u2581Akor": 7249,
  "\u2581Archive": 7250,
  "\u2581Chofunika": 7251,
  "\u2581Gospels": 7252,
  "\u2581Mzinda": 7253,
  "\u2581Philippines": 7254,
  "\u2581View": 7255,
  "\u2581bi": 7256,
  "\u2581empire": 7257,
  "\u2581entirely": 7258,
  "\u2581extra": 7259,
  "\u2581foolish": 7260,
  "\u2581friendly": 7261,
  "\u2581listeners": 7262,
  "\u2581meat": 7263,
  "\u2581ndiyenera": 7264,
  "\u2581rewarded": 7265,
  "\u2581serpent": 7266,
  "\u2581ukalamba": 7267,
  "\u2581ungodly": 7268,
  "\u2581yochuluka": 7269,
  "masomphenya": 7270,
  "\u2581anavutika": 7271,
  "\u2581attain": 7272,
  "\u2581chete": 7273,
  "\u2581current": 7274,
  "\u2581demands": 7275,
  "\u2581kutchuka": 7276,
  "\u2581mofatsa": 7277,
  "\u2581ndinazindikira": 7278,
  "\u2581schedule": 7279,
  "ard": 7280,
  "kakhala": 7281,
  "nje": 7282,
  "nka": 7283,
  "tentha": 7284,
  "\u2581600": 7285,
  "\u2581Aku": 7286,
  "\u2581Courtesy": 7287,
  "\u2581Galileya": 7288,
  "\u2581Kenya": 7289,
  "\u2581educational": 7290,
  "\u2581hunger": 7291,
  "\u2581idzakhala": 7292,
  "\u2581kompyuta": 7293,
  "\u2581kufalitsa": 7294,
  "\u2581kumadera": 7295,
  "\u2581mumaona": 7296,
  "\u2581ndimaona": 7297,
  "\u2581osakhala": 7298,
  "\u2581wachi\u0175iri": 7299,
  "\u2581yokwanira": 7300,
  "\u2581zopweteka": 7301,
  "\u2581zowona": 7302,
  "OR": 7303,
  "bwalo": 7304,
  "chititse": 7305,
  "lakalaka": 7306,
  "yerekezera": 7307,
  "\u2581Evidently": 7308,
  "\u2581chikusonyeza": 7309,
  "\u2581commercial": 7310,
  "\u2581equipped": 7311,
  "\u2581masinthidwe": 7312,
  "\u2581olankhula": 7313,
  "\u2581telephone": 7314,
  "\u2581yapamwamba": 7315,
  "ell": 7316,
  "kada": 7317,
  "uka": 7318,
  "\u2581Art": 7319,
  "\u2581COVER": 7320,
  "\u2581Dead": 7321,
  "\u2581Edene": 7322,
  "\u2581Unlike": 7323,
  "\u2581killing": 7324,
  "\u2581kubwezera": 7325,
  "\u2581kumango": 7326,
  "\u2581kutumiza": 7327,
  "\u2581radio": 7328,
  "\u2581residents": 7329,
  "\u2581station": 7330,
  "sinkhasinkha": 7331,
  "zovuta": 7332,
  "\u00e3o": 7333,
  "\u2581Limanena": 7334,
  "\u2581abambo": 7335,
  "\u2581chowonjezereka": 7336,
  "\u2581elsewhere": 7337,
  "\u2581kawirikawiri": 7338,
  "\u2581linked": 7339,
  "\u2581respected": 7340,
  "\u2581sadziwa": 7341,
  "\u2581wosankha": 7342,
  "\u2581wovuta": 7343,
  "WA": 7344,
  "zosadabwitsa": 7345,
  "\u258118;": 7346,
  "\u25811935": 7347,
  "\u2581Jew": 7348,
  "\u2581Leviticus": 7349,
  "\u2581achieve": 7350,
  "\u2581amazing": 7351,
  "\u2581angatithandize": 7352,
  "\u2581bata": 7353,
  "\u2581chomwecho": 7354,
  "\u2581loyera": 7355,
  "\u2581nkomwe": 7356,
  "\u2581om": 7357,
  "\u2581outlook": 7358,
  "\u2581testimony": 7359,
  "\u2581zabodza": 7360,
  "kho": 7361,
  "\u25811;": 7362,
  "\u2581Ann": 7363,
  "\u2581ankafunika": 7364,
  "\u2581chitaganya": 7365,
  "\u2581cure": 7366,
  "\u2581kubala": 7367,
  "\u2581publicly": 7368,
  "\u2581refreshing": 7369,
  "\u2581theory": 7370,
  "\u2581whereas": 7371,
  "\u2581zakuthambo": 7372,
  "deralo": 7373,
  "dyera": 7374,
  "\u2581Andrew": 7375,
  "\u2581Avoid": 7376,
  "\u2581Ke": 7377,
  "\u2581Wake": 7378,
  "\u2581illustrated": 7379,
  "\u2581owonjezereka": 7380,
  "\u2581woyendayenda": 7381,
  "\u2581yakhala": 7382,
  "wiri": 7383,
  "yendayenda": 7384,
  "\u2581Island": 7385,
  "\u2581Modern": 7386,
  "\u2581Mutu": 7387,
  "\u2581Wolamulira": 7388,
  "\u2581Yudeya": 7389,
  "\u2581covering": 7390,
  "\u2581director": 7391,
  "\u2581injury": 7392,
  "\u2581kubweretsa": 7393,
  "\u2581kulemera": 7394,
  "\u2581kutchalitchi": 7395,
  "\u2581meek": 7396,
  "\u2581njo": 7397,
  "\u2581zofooka": 7398,
  "70": 7399,
  "Palibe": 7400,
  "sonyeze": 7401,
  "\u25811941": 7402,
  "\u2581Chuma": 7403,
  "\u2581Levitiko": 7404,
  "\u2581Lines": 7405,
  "\u2581akupita": 7406,
  "\u2581applies": 7407,
  "\u2581climate": 7408,
  "\u2581demand": 7409,
  "\u2581ingakhale": 7410,
  "\u2581khutu": 7411,
  "\u2581mbuye": 7412,
  "\u2581panyanja": 7413,
  "\u2581pomalizira": 7414,
  "\u2581teenager": 7415,
  "\u2581teenagers": 7416,
  "\u2581totally": 7417,
  "\u2581wodzipereka": 7418,
  "\u2581zachilendo": 7419,
  "\u2581zikana": 7420,
  "Ngakhale": 7421,
  "anitsitsa": 7422,
  "lima": 7423,
  "rus": 7424,
  "sanduka": 7425,
  "\u25811960": 7426,
  "\u2581Things": 7427,
  "\u2581Tinali": 7428,
  "\u2581anena": 7429,
  "\u2581begun": 7430,
  "\u2581biliyoni": 7431,
  "\u2581commandment": 7432,
  "\u2581delighted": 7433,
  "\u2581pamtengo": 7434,
  "\u2581poured": 7435,
  "\u2581waung": 7436,
  "\u2581yofanana": 7437,
  "chimodzimodzinso": 7438,
  "of": 7439,
  "\u2581Certainly": 7440,
  "\u2581Chakudya": 7441,
  "\u2581Ja": 7442,
  "\u2581Nawonso": 7443,
  "\u2581diso": 7444,
  "\u2581examination": 7445,
  "\u2581guided": 7446,
  "\u2581kukhululukira": 7447,
  "\u2581patiently": 7448,
  "\u2581profound": 7449,
  "\u2581reminds": 7450,
  "\u2581ruled": 7451,
  "\u2581shuga": 7452,
  "\u2581twice": 7453,
  "\u2581umati": 7454,
  "\u2581weather": 7455,
  "\u2581zowonjezereka": 7456,
  "Ndidza": 7457,
  "\u2581Akuti": 7458,
  "\u2581Yoh": 7459,
  "\u2581akuganiza": 7460,
  "\u2581chiyanjo": 7461,
  "\u2581crowds": 7462,
  "\u2581kuwopa": 7463,
  "\u2581mchimwene": 7464,
  "\u2581zaumulungu": 7465,
  "ger": 7466,
  "\u2581Ca": 7467,
  "\u2581Mungachite": 7468,
  "\u2581Near": 7469,
  "\u2581athandize": 7470,
  "\u2581kukhalira": 7471,
  "\u2581msilikali": 7472,
  "\u2581waste": 7473,
  "\u2581wokhazikika": 7474,
  "\u2581worry": 7475,
  "CHI": 7476,
  "chira": 7477,
  "gonjera": 7478,
  "j": 7479,
  "ndichititsa": 7480,
  "ngakhale": 7481,
  "zinga": 7482,
  "\u2581hit": 7483,
  "\u2581kuoneka": 7484,
  "\u2581lachisanu": 7485,
  "\u2581ochititsa": 7486,
  "\u2581patatha": 7487,
  "\u2581politics": 7488,
  "\u2581rewarding": 7489,
  "\u2581satisfy": 7490,
  "\u2581timasonyeza": 7491,
  "bweza": 7492,
  "ex": 7493,
  "kangana": 7494,
  "ulu": 7495,
  "\u2581Contents": 7496,
  "\u2581Herod": 7497,
  "\u2581Wanga": 7498,
  "\u2581anataya": 7499,
  "\u2581koopsa": 7500,
  "\u2581kuonera": 7501,
  "\u2581mitsinje": 7502,
  "\u2581mnzanuyo": 7503,
  "\u2581pieces": 7504,
  "\u2581portion": 7505,
  "\u2581tested": 7506,
  "\u2581tipitirize": 7507,
  "Near": 7508,
  "lemera": 7509,
  "pho": 7510,
  "\u2581Frank": 7511,
  "\u2581Lamlungu": 7512,
  "\u2581Latsopano": 7513,
  "\u2581Long": 7514,
  "\u2581Mukukumbukira": 7515,
  "\u2581Zamkati": 7516,
  "\u2581Zonsezi": 7517,
  "\u2581akukumana": 7518,
  "\u2581informed": 7519,
  "\u2581ndinaphunzira": 7520,
  "\u2581regardless": 7521,
  "\u2581sacrificing": 7522,
  "Nthawi": 7523,
  "\u2581Abele": 7524,
  "\u2581Jude": 7525,
  "\u2581judicial": 7526,
  "\u2581kuchitanji": 7527,
  "\u2581nanunso": 7528,
  "\u2581obeying": 7529,
  "\u2581sentence": 7530,
  "\u2581teenage": 7531,
  "uluka": 7532,
  "were": 7533,
  "\u2581Athens": 7534,
  "\u2581IT": 7535,
  "\u2581Making": 7536,
  "\u2581Zefaniya": 7537,
  "\u2581criminal": 7538,
  "\u2581eternity": 7539,
  "\u2581mnyamatayo": 7540,
  "\u2581monganso": 7541,
  "\u2581panga": 7542,
  "\u2581periods": 7543,
  "\u2581seventh": 7544,
  "\u2581wachigawo": 7545,
  "50": 7546,
  "SI": 7547,
  "lembera": 7548,
  "mbu": 7549,
  "sanapite": 7550,
  "\u2581Years": 7551,
  "\u2581admit": 7552,
  "\u2581akuyesetsa": 7553,
  "\u2581anatani": 7554,
  "\u2581enables": 7555,
  "\u2581kuyambitsa": 7556,
  "\u2581mchitidwe": 7557,
  "\u2581ntha\u0175iyo": 7558,
  "\u2581records": 7559,
  "\u2581zandale": 7560,
  "\u2581zokumana": 7561,
  "AR": 7562,
  "PA": 7563,
  "mwazi": 7564,
  "yambira": 7565,
  "\u25812483": 7566,
  "\u2581BE": 7567,
  "\u2581Har": 7568,
  "\u2581IS": 7569,
  "\u2581Makamaka": 7570,
  "\u2581Paja": 7571,
  "\u2581a\u0175a": 7572,
  "\u2581character": 7573,
  "\u2581exchange": 7574,
  "\u2581kumbukirani": 7575,
  "\u2581lomwelo": 7576,
  "\u2581lothandiza": 7577,
  "\u2581manda": 7578,
  "\u2581mosalekeza": 7579,
  "\u2581msonkhanowo": 7580,
  "\u2581oyendayenda": 7581,
  "\u2581recreation": 7582,
  "dzera": 7583,
  "\u2581Creation": 7584,
  "\u2581Ex": 7585,
  "\u2581Tikutero": 7586,
  "\u2581accused": 7587,
  "\u2581akupitiriza": 7588,
  "\u2581application": 7589,
  "\u2581chimasonyeza": 7590,
  "\u2581hopes": 7591,
  "\u2581ikhale": 7592,
  "\u2581kuzunzidwa": 7593,
  "\u2581survival": 7594,
  "By": 7595,
  "\u2581Chihebri": 7596,
  "\u2581Department": 7597,
  "\u2581Nisan": 7598,
  "\u2581Portugal": 7599,
  "\u2581kutsimikiza": 7600,
  "\u2581liwongo": 7601,
  "\u2581yolembedwa": 7602,
  "\u2581(4)": 7603,
  "\u2581Dan": 7604,
  "\u2581Live": 7605,
  "\u2581Trust": 7606,
  "\u2581arrival": 7607,
  "\u2581chija": 7608,
  "\u2581kunyamula": 7609,
  "\u2581mwachidwi": 7610,
  "\u2581Pasanapite": 7611,
  "\u2581Zephaniah": 7612,
  "\u2581akamwalira": 7613,
  "\u2581analo\u0175a": 7614,
  "\u2581kumenyana": 7615,
  "\u2581mates": 7616,
  "\u2581msampha": 7617,
  "\u2581yochititsa": 7618,
  "Why": 7619,
  "lamulo": 7620,
  "modzi": 7621,
  "tz": 7622,
  "\u25812006": 7623,
  "\u2581Albert": 7624,
  "\u2581MU": 7625,
  "\u2581Osa": 7626,
  "\u2581Sabata": 7627,
  "\u2581Wathu": 7628,
  "\u2581jealousy": 7629,
  "\u2581kukatumikira": 7630,
  "\u2581limits": 7631,
  "\u2581obvious": 7632,
  "\u2581trusting": 7633,
  "\u2581urge": 7634,
  "masulira": 7635,
  "onedwa": 7636,
  "pp": 7637,
  "ure": 7638,
  "\u258110,000": 7639,
  "\u2581Insight": 7640,
  "\u2581Yaufumu": 7641,
  "\u2581chidani": 7642,
  "\u2581iwiri": 7643,
  "\u2581kupsinjika": 7644,
  "\u2581reside": 7645,
  "\u2581resort": 7646,
  "\u2581stands": 7647,
  "Who": 7648,
  "ally": 7649,
  "phi": 7650,
  "ps": 7651,
  "siye": 7652,
  "\u25811947": 7653,
  "\u2581amafa": 7654,
  "\u2581announced": 7655,
  "\u2581declaring": 7656,
  "\u2581imprisoned": 7657,
  "\u2581kulabadira": 7658,
  "\u2581kupangitsa": 7659,
  "\u2581lankhondo": 7660,
  "\u2581nsapato": 7661,
  "\u2581professional": 7662,
  "\u2581tikudziwa": 7663,
  "dalitsidwa": 7664,
  "gan": 7665,
  "poyerekezera": 7666,
  "tra": 7667,
  "\u2581ampatuko": 7668,
  "\u2581kakuti": 7669,
  "\u2581kuchepa": 7670,
  "\u2581mafanizo": 7671,
  "\u2581paokha": 7672,
  "\u2581weakness": 7673,
  "\u2581witnessed": 7674,
  "anga": 7675,
  "\u258142.": 7676,
  "\u2581Judge": 7677,
  "\u2581Oweruza": 7678,
  "\u2581celebration": 7679,
  "\u2581immediate": 7680,
  "\u2581kumasulira": 7681,
  "\u2581kuweruza": 7682,
  "\u2581paku": 7683,
  "\u2581prosperity": 7684,
  "\u2581zonyenga": 7685,
  "20": 7686,
  "ZI": 7687,
  "ane": 7688,
  "dalitsa": 7689,
  "khumba": 7690,
  "\u2581Mwachiwonekere": 7691,
  "\u2581Prov": 7692,
  "\u2581Ru": 7693,
  "\u2581Were": 7694,
  "\u2581adzawa": 7695,
  "\u2581alembi": 7696,
  "\u2581anadzipereka": 7697,
  "\u2581practiced": 7698,
  "\u2581silent": 7699,
  "\u2581udzu": 7700,
  "\u2581wekha": 7701,
  "iti": 7702,
  "kalamba": 7703,
  "kondera": 7704,
  "\u2581Any": 7705,
  "\u2581Need": 7706,
  "\u2581famine": 7707,
  "\u2581katatu": 7708,
  "\u2581kupuma": 7709,
  "\u2581odzi\u0175a": 7710,
  "\u2581otentha": 7711,
  "\u2581remembered": 7712,
  "\u2581talked": 7713,
  "\u2581upset": 7714,
  "\u2581volunteers": 7715,
  "ron": 7716,
  "zunzidwa": 7717,
  "\u2581ban": 7718,
  "\u2581double": 7719,
  "\u2581intelligent": 7720,
  "\u2581kudzachita": 7721,
  "\u2581matabwa": 7722,
  "\u2581ndinachita": 7723,
  "\u2581ndinakumana": 7724,
  "\u2581salt": 7725,
  "Musa": 7726,
  "mapeto": 7727,
  "om": 7728,
  "res": 7729,
  "thedwa": 7730,
  "\u2581Mbewu": 7731,
  "\u2581adzati": 7732,
  "\u2581ages": 7733,
  "\u2581anakhoza": 7734,
  "\u2581buildings": 7735,
  "\u2581chika": 7736,
  "\u2581discussing": 7737,
  "\u2581east": 7738,
  "\u2581forests": 7739,
  "\u2581guwa": 7740,
  "\u2581ikuluikulu": 7741,
  "\u2581inspiring": 7742,
  "\u2581kungachititse": 7743,
  "\u2581participate": 7744,
  "\u2581preserved": 7745,
  "\u2581printing": 7746,
  "\u2581prize": 7747,
  "kudzi\u0175a": 7748,
  "\u2581Chikatolika": 7749,
  "\u2581Matchalitchi": 7750,
  "\u2581Zealand": 7751,
  "\u2581acquainted": 7752,
  "\u2581amalingalira": 7753,
  "\u2581kanali": 7754,
  "\u2581mmishonale": 7755,
  "\u2581morally": 7756,
  "\u2581permission": 7757,
  "\u2581sipadzakhalanso": 7758,
  "Po": 7759,
  "fulumira": 7760,
  "khutiritsa": 7761,
  "kuka": 7762,
  "labadira": 7763,
  "masulidwa": 7764,
  "\u2581Council": 7765,
  "\u2581HOW": 7766,
  "\u2581Wisdom": 7767,
  "\u2581exact": 7768,
  "\u2581host": 7769,
  "\u2581kuthana": 7770,
  "\u2581materials": 7771,
  "\u2581maufumu": 7772,
  "\u2581milk": 7773,
  "\u2581nthumwi": 7774,
  "\u2581prefer": 7775,
  "Ndima": 7776,
  "fike": 7777,
  "galimoto": 7778,
  "i\u0175ala": 7779,
  "ndale": 7780,
  "sen": 7781,
  "\u258133:": 7782,
  "\u2581Mom": 7783,
  "\u2581Ri": 7784,
  "\u2581bones": 7785,
  "\u2581concept": 7786,
  "\u2581expensive": 7787,
  "\u2581farm": 7788,
  "\u2581hospitality": 7789,
  "\u2581omaliza": 7790,
  "\u2581plenty": 7791,
  "\u2581separated": 7792,
  "\u2581zachitika": 7793,
  "\u2581zosowa": 7794,
  "mtengo": 7795,
  "\u25812004": 7796,
  "\u2581Constantine": 7797,
  "\u2581Herode": 7798,
  "\u2581Kunali": 7799,
  "\u2581Learning": 7800,
  "\u2581Ne": 7801,
  "\u2581anandipatsa": 7802,
  "\u2581anatsatira": 7803,
  "\u2581effectively": 7804,
  "\u2581era": 7805,
  "\u2581exert": 7806,
  "\u2581nlo": 7807,
  "\u2581objects": 7808,
  "\u2581occurs": 7809,
  "\u2581otchulidwa": 7810,
  "\u2581speed": 7811,
  "\u2581statements": 7812,
  "NA": 7813,
  "cu": 7814,
  "\u2581(19": 7815,
  "\u2581Draw": 7816,
  "\u2581Mnyamata": 7817,
  "\u2581expectations": 7818,
  "\u2581opanga": 7819,
  "\u2581sending": 7820,
  "\u2581zinasonyeza": 7821,
  "\u2581zokoma": 7822,
  "ating": 7823,
  "chitsanzo": 7824,
  "letting": 7825,
  "vulaza": 7826,
  "\u2581Chinese": 7827,
  "\u2581Enoch": 7828,
  "\u2581Ge": 7829,
  "\u2581Khalidwe": 7830,
  "\u2581Pentekoste": 7831,
  "\u2581anapulumuka": 7832,
  "\u2581dollars": 7833,
  "\u2581ensure": 7834,
  "\u2581lifestyle": 7835,
  "\u2581misewu": 7836,
  "\u2581polankhula": 7837,
  "\u2581yoke": 7838,
  "Zimene": 7839,
  "ance": 7840,
  "chenicheni": 7841,
  "kantha": 7842,
  "nalimbikitsidwa": 7843,
  "suta": 7844,
  "wachititsa": 7845,
  "\u258183": 7846,
  "\u2581Kanani": 7847,
  "\u2581Lilongwe": 7848,
  "\u2581Nyama": 7849,
  "\u2581chisudzulo": 7850,
  "\u2581co": 7851,
  "\u2581fought": 7852,
  "\u2581hide": 7853,
  "\u2581infected": 7854,
  "\u2581kupulumuka": 7855,
  "\u2581pokhapokha": 7856,
  "\u2581proclaimers": 7857,
  "\u2581sachita": 7858,
  "\u2581staff": 7859,
  "\u2581wofatsa": 7860,
  "\u2581yamphamvu": 7861,
  "ED": 7862,
  "penya": 7863,
  "\u2581Additionally": 7864,
  "\u2581Hannah": 7865,
  "\u2581chimaliziro": 7866,
  "\u2581impression": 7867,
  "\u2581kunachitika": 7868,
  "\u2581kutha\u0175a": 7869,
  "\u2581lachi\u0175iri": 7870,
  "\u2581taganizirani": 7871,
  "\u2581wantchito": 7872,
  "\u2581zaposachedwapa": 7873,
  "\u2581zingati": 7874,
  "\u2581zonyansa": 7875,
  "Ta": 7876,
  "mka": 7877,
  "phedwa": 7878,
  "tola": 7879,
  "\u2581THIS": 7880,
  "\u2581amalephera": 7881,
  "\u2581bizinesi": 7882,
  "\u2581deeper": 7883,
  "\u2581enawo": 7884,
  "\u2581expressing": 7885,
  "\u2581kuyandikira": 7886,
  "\u2581nkofunika": 7887,
  "\u2581popereka": 7888,
  "\u2581surprising": 7889,
  "\u2581zidzachitika": 7890,
  "iki": 7891,
  "now": 7892,
  "\u2581Sindina": 7893,
  "\u2581anapezeka": 7894,
  "\u2581despair": 7895,
  "\u2581kulinganiza": 7896,
  "\u2581midzi": 7897,
  "\u2581otsatirawa": 7898,
  "\u2581pofika": 7899,
  "\u2581tongues": 7900,
  "\u2581usilikali": 7901,
  "kulambira": 7902,
  "ology": 7903,
  "tulutsidwa": 7904,
  "\u2581Dokotala": 7905,
  "\u2581Right": 7906,
  "\u2581Usiku": 7907,
  "\u2581achilengedwe": 7908,
  "\u2581chapamwamba": 7909,
  "\u2581defense": 7910,
  "\u2581green": 7911,
  "\u2581kulondola": 7912,
  "\u2581latter": 7913,
  "\u2581mpira": 7914,
  "\u2581narrow": 7915,
  "\u2581zachititsa": 7916,
  "TE": 7917,
  "walimbikitsa": 7918,
  "yanja": 7919,
  "yera": 7920,
  "\u2581103": 7921,
  "\u25811989,": 7922,
  "\u258164": 7923,
  "\u2581afflicted": 7924,
  "\u2581chamtengo": 7925,
  "\u2581driving": 7926,
  "\u2581hungry": 7927,
  "\u2581kukwiya": 7928,
  "\u2581kusiyanitsa": 7929,
  "\u2581nakhala": 7930,
  "\u2581plain": 7931,
  "\u2581presents": 7932,
  "\u2581producing": 7933,
  "\u2581strange": 7934,
  "\u2581stronger": 7935,
  "\u2581umoyo": 7936,
  "\u2581wokoma": 7937,
  "chu": 7938,
  "funira": 7939,
  "kaganizira": 7940,
  "keep": 7941,
  "kupatsani": 7942,
  "thandizidwa": 7943,
  "zochititsa": 7944,
  "\u2581Assembly": 7945,
  "\u2581Gentiles": 7946,
  "\u2581Owerenga": 7947,
  "\u2581Search": 7948,
  "\u2581bank": 7949,
  "\u2581doors": 7950,
  "\u2581fault": 7951,
  "\u2581kutulutsa": 7952,
  "\u2581mapepala": 7953,
  "\u2581mowonjezereka": 7954,
  "\u2581pankhondo": 7955,
  "\u2581privileged": 7956,
  "\u2581resolved": 7957,
  "\u2581sanachite": 7958,
  "\u2581sikuna": 7959,
  "\u2581spring": 7960,
  "\u2581winayo": 7961,
  "\u2581woweruza": 7962,
  "dzakwaniritsidwa": 7963,
  "gogomezera": 7964,
  "muuza": 7965,
  "\u2581Anachita": 7966,
  "\u2581anadandaula": 7967,
  "\u2581ankango": 7968,
  "\u2581dating": 7969,
  "\u2581discover": 7970,
  "\u2581entrusted": 7971,
  "\u2581hoped": 7972,
  "\u2581khansa": 7973,
  "\u2581matenda\u0175a": 7974,
  "\u2581prospects": 7975,
  "\u2581sitingathe": 7976,
  "IDWA": 7977,
  "Your": 7978,
  "em": 7979,
  "ists": 7980,
  "misewu": 7981,
  "\u2581Siberia": 7982,
  "\u2581amatero": 7983,
  "\u2581apereke": 7984,
  "\u2581bright": 7985,
  "\u2581chi\u0175alo": 7986,
  "\u2581desirable": 7987,
  "\u2581fishing": 7988,
  "\u2581globe": 7989,
  "\u2581handed": 7990,
  "\u2581kumudzi": 7991,
  "\u2581loona": 7992,
  "lankhulira": 7993,
  "let": 7994,
  "limbikira": 7995,
  "seka": 7996,
  "\u2581Angelo": 7997,
  "\u2581Mwanawankhosa": 7998,
  "\u2581Pi": 7999,
  "\u2581Yachikristu": 8000,
  "\u2581amalonda": 8001,
  "\u2581azitha": 8002,
  "\u2581bus": 8003,
  "\u2581choosing": 8004,
  "\u2581compromise": 8005,
  "\u2581conform": 8006,
  "\u2581facilities": 8007,
  "\u2581kulipira": 8008,
  "\u2581kupsa": 8009,
  "\u2581machitachita": 8010,
  "\u2581malu\u0175a": 8011,
  "\u2581repent": 8012,
  "\u2581settled": 8013,
  "\u2581star": 8014,
  "Ambuye": 8015,
  "Zi": 8016,
  "matanthauzanji": 8017,
  "uzidwa": 8018,
  "\u2581Hana": 8019,
  "\u2581Potsirizira": 8020,
  "\u2581ankatanthauza": 8021,
  "\u2581assume": 8022,
  "\u2581likened": 8023,
  "\u2581ndendende": 8024,
  "\u2581passage": 8025,
  "\u2581produces": 8026,
  "\u2581sell": 8027,
  "\u2581stage": 8028,
  "cheza": 8029,
  "dzanja": 8030,
  "simbidwa": 8031,
  "sungidwa": 8032,
  "\u2581Finland": 8033,
  "\u2581Posakhalitsa": 8034,
  "\u2581Try": 8035,
  "\u2581chokumana": 8036,
  "\u2581d": 8037,
  "\u2581detail": 8038,
  "\u2581kawo": 8039,
  "\u2581mpambo": 8040,
  "\u2581odalirika": 8041,
  "\u2581pulezidenti": 8042,
  "\u2581storm": 8043,
  "\u2581surrounding": 8044,
  "\u2581worst": 8045,
  "day": 8046,
  "nce": 8047,
  "thi": 8048,
  "tsani": 8049,
  "yesayesa": 8050,
  "\u25811900": 8051,
  "\u2581Home": 8052,
  "\u2581Last": 8053,
  "\u2581Part": 8054,
  "\u2581kufooka": 8055,
  "\u2581kusangalatsa": 8056,
  "\u2581mozizwitsa": 8057,
  "\u2581objective": 8058,
  "\u2581press": 8059,
  "\u2581prophesied": 8060,
  "\u2581rendering": 8061,
  "\u2581werengani": 8062,
  "\u2581wotumikira": 8063,
  "Chilamulo": 8064,
  "Zo": 8065,
  "kwanira": 8066,
  "letsedwa": 8067,
  "\u25811914,": 8068,
  "\u2581Ever": 8069,
  "\u2581X": 8070,
  "\u2581Zambia": 8071,
  "\u2581Zotsatira": 8072,
  "\u2581anxieties": 8073,
  "\u2581chipinda": 8074,
  "\u2581considerable": 8075,
  "\u2581depth": 8076,
  "\u2581increasingly": 8077,
  "\u2581kuthekera": 8078,
  "\u2581makanda": 8079,
  "\u2581manuscripts": 8080,
  "\u2581mpatuko": 8081,
  "\u2581status": 8082,
  "\u2581structure": 8083,
  "\u2581zing": 8084,
  "Mwana": 8085,
  "tsidwe": 8086,
  "\u25812013": 8087,
  "\u258145.": 8088,
  "\u2581Elders": 8089,
  "\u2581Map": 8090,
  "\u2581Mauthenga": 8091,
  "\u2581akusangalala": 8092,
  "\u2581amakana": 8093,
  "\u2581anau": 8094,
  "\u2581bought": 8095,
  "\u2581exciting": 8096,
  "\u2581ha": 8097,
  "\u2581kukafika": 8098,
  "\u2581kusiyapo": 8099,
  "\u2581minded": 8100,
  "\u2581mwakuthupi": 8101,
  "\u2581realistic": 8102,
  "\u2581remote": 8103,
  "\u2581taona": 8104,
  "\u2581telefoni": 8105,
  "\u2581zolungama": 8106,
  "60": 8107,
  "TI": 8108,
  "new": 8109,
  "\u258132,": 8110,
  "\u258173": 8111,
  "\u2581Meanwhile": 8112,
  "\u2581earnestly": 8113,
  "\u2581fifth": 8114,
  "\u2581kupempherera": 8115,
  "\u2581nam": 8116,
  "\u2581observing": 8117,
  "\u2581onto": 8118,
  "\u2581otha\u0175a": 8119,
  "\u2581pofotokoza": 8120,
  "\u2581pollution": 8121,
  "\u2581product": 8122,
  "\u2581racial": 8123,
  "\u2581tragedy": 8124,
  "\u2581umishonale": 8125,
  "\u2581Likely": 8126,
  "\u2581afuna": 8127,
  "\u2581amabwera": 8128,
  "\u2581amasankha": 8129,
  "\u2581cultures": 8130,
  "\u2581industry": 8131,
  "\u2581misonkho": 8132,
  "\u2581openly": 8133,
  "\u2581pasukulu": 8134,
  "\u2581paubwenzi": 8135,
  "\u2581submit": 8136,
  "\u2581zakumwa": 8137,
  "\u2581zolondola": 8138,
  "NG": 8139,
  "kulalikira": 8140,
  "mlengalenga": 8141,
  "\u2581Close": 8142,
  "\u2581fled": 8143,
  "\u2581komano": 8144,
  "\u2581kopanda": 8145,
  "\u2581kuwauza": 8146,
  "\u2581native": 8147,
  "\u2581nkhondoyo": 8148,
  "Nda": 8149,
  "Sindi": 8150,
  "sana": 8151,
  "sindikiza": 8152,
  "\u258127]": 8153,
  "\u258128]": 8154,
  "\u2581Muli": 8155,
  "\u2581Pomalizira": 8156,
  "\u2581Woweruza": 8157,
  "\u2581adopt": 8158,
  "\u2581badness": 8159,
  "\u2581experiencing": 8160,
  "\u2581kukondana": 8161,
  "\u2581nku": 8162,
  "\u2581party": 8163,
  "\u2581ungakhale": 8164,
  "\u2581virtue": 8165,
  "\u2581walonjeza": 8166,
  "\u2581yoona": 8167,
  "Go": 8168,
  "mwalira": 8169,
  "tchera": 8170,
  "ula": 8171,
  "\u00fc": 8172,
  "\u2581Gi": 8173,
  "\u2581Mpaka": 8174,
  "\u2581angaone": 8175,
  "\u2581destructive": 8176,
  "\u2581iko": 8177,
  "\u2581kuukira": 8178,
  "\u2581miss": 8179,
  "\u2581namely": 8180,
  "\u2581ndikuti": 8181,
  "\u2581oppression": 8182,
  "\u2581tent": 8183,
  "\u2581tragic": 8184,
  "\u2581yopanga": 8185,
  "NGA": 8186,
  "NI": 8187,
  "fera": 8188,
  "kafika": 8189,
  "\u2581Food": 8190,
  "\u2581Mukama": 8191,
  "\u2581Tyndale": 8192,
  "\u2581chinanso": 8193,
  "\u2581domestic": 8194,
  "\u2581eagerly": 8195,
  "\u2581endless": 8196,
  "\u2581grandparents": 8197,
  "\u2581influences": 8198,
  "\u2581podziwa": 8199,
  "\u2581weekly": 8200,
  "\u2581woyambirira": 8201,
  "LO": 8202,
  "dye": 8203,
  "gwe": 8204,
  "watsatanetsatane": 8205,
  "\u00ed": 8206,
  "\u258163": 8207,
  "\u2581Susan": 8208,
  "\u2581analidi": 8209,
  "\u2581anasamukira": 8210,
  "\u2581anasimba": 8211,
  "\u2581attractive": 8212,
  "\u2581card": 8213,
  "\u2581comfortable": 8214,
  "\u2581friendships": 8215,
  "\u2581fumbi": 8216,
  "\u2581governing": 8217,
  "\u2581hated": 8218,
  "\u2581highest": 8219,
  "\u2581mnzawo": 8220,
  "\u2581pursuit": 8221,
  "\u2581rescue": 8222,
  "\u2581vain": 8223,
  "und": 8224,
  "zakuti": 8225,
  "\u25811946": 8226,
  "\u2581Everyone": 8227,
  "\u2581Kukhulupirira": 8228,
  "\u2581atafika": 8229,
  "\u2581desired": 8230,
  "\u2581footnote": 8231,
  "\u2581kufupi": 8232,
  "\u2581kugulitsa": 8233,
  "\u2581kuipitsa": 8234,
  "\u2581lacking": 8235,
  "\u2581memories": 8236,
  "\u2581nyukiliya": 8237,
  "\u2581timapeza": 8238,
  "\u2581transfusions": 8239,
  "\u2581wokwanira": 8240,
  "Kwa": 8241,
  "gra": 8242,
  "midzi": 8243,
  "sautsa": 8244,
  "wongolera": 8245,
  "\u2581Ten": 8246,
  "\u2581Zion": 8247,
  "\u2581adjust": 8248,
  "\u2581amake": 8249,
  "\u2581anatsimikizira": 8250,
  "\u2581kusokoneza": 8251,
  "\u2581manifested": 8252,
  "\u2581measures": 8253,
  "\u2581originally": 8254,
  "\u2581osangalatsa": 8255,
  "\u2581shoulder": 8256,
  "\u2581sina": 8257,
  "\u2581takhala": 8258,
  "\u2581wachibale": 8259,
  "\u2581zino": 8260,
  "dala": 8261,
  "kondwerera": 8262,
  "masuka": 8263,
  "mba": 8264,
  "\u2581Above": 8265,
  "\u2581Aroni": 8266,
  "\u2581Chipangano": 8267,
  "\u2581Judas": 8268,
  "\u2581Judges": 8269,
  "\u2581Malingaliro": 8270,
  "\u2581anamangidwa": 8271,
  "\u2581flood": 8272,
  "\u2581lady": 8273,
  "\u2581malowo": 8274,
  "\u2581mzindawu": 8275,
  "\u2581piece": 8276,
  "\u2581planning": 8277,
  "\u2581starting": 8278,
  "\u2581utali": 8279,
  "\u2581wochepa": 8280,
  "\u2581wosauka": 8281,
  "derali": 8282,
  "kufika": 8283,
  "njo": 8284,
  "\u2581Ancient": 8285,
  "\u2581Persian": 8286,
  "\u2581Sabbath": 8287,
  "\u2581afika": 8288,
  "\u2581alimi": 8289,
  "\u2581aphunzire": 8290,
  "\u2581chozizwitsa": 8291,
  "\u2581continuing": 8292,
  "\u2581encounter": 8293,
  "\u2581kochitidwa": 8294,
  "\u2581sand": 8295,
  "\u2581shame": 8296,
  "\u2581zamankhwala": 8297,
  "zosakayikitsa": 8298,
  "\u2581100,000": 8299,
  "\u2581Denmark": 8300,
  "\u2581Pankhani": 8301,
  "\u2581chronic": 8302,
  "\u2581conversations": 8303,
  "\u2581healed": 8304,
  "\u2581kuperekedwa": 8305,
  "\u2581senses": 8306,
  "\u2581sensitive": 8307,
  "\u2581suitable": 8308,
  "\u2581taste": 8309,
  "\u2581thoroughly": 8310,
  "\u2581yamtengo": 8311,
  "sinthira": 8312,
  "\u0175erengera": 8313,
  "\u2581Amazon": 8314,
  "\u2581anti": 8315,
  "\u2581chiyambukiro": 8316,
  "\u2581cried": 8317,
  "\u2581duties": 8318,
  "\u2581kunyada": 8319,
  "\u2581kuwonongeka": 8320,
  "\u2581mumachita": 8321,
  "\u2581regret": 8322,
  "\u2581respects": 8323,
  "\u2581sky": 8324,
  "\u2581sounds": 8325,
  "\u2581wochimwa": 8326,
  "\u2581zosayenera": 8327,
  "phiri": 8328,
  "sukulu": 8329,
  "\u2581DNA": 8330,
  "\u2581Heart": 8331,
  "\u2581Italian": 8332,
  "\u2581Mtsogoleri": 8333,
  "\u2581amafotokoza": 8334,
  "\u2581chifupifupi": 8335,
  "\u2581expectation": 8336,
  "\u2581foods": 8337,
  "\u2581kanthawi": 8338,
  "\u2581lion": 8339,
  "\u2581mukudziwa": 8340,
  "\u2581paragraph": 8341,
  "\u2581treasures": 8342,
  "\u2581unknown": 8343,
  "\u2581wealthy": 8344,
  "\u2581zithunzithunzi": 8345,
  "gwirizanitsidwa": 8346,
  "kongola": 8347,
  "kovuta": 8348,
  "kuyenda": 8349,
  "sis": 8350,
  "\u25811800": 8351,
  "\u258131]": 8352,
  "\u2581Amos": 8353,
  "\u2581Amosi": 8354,
  "\u2581Elizabeth": 8355,
  "\u2581Miy": 8356,
  "\u2581Sodom": 8357,
  "\u2581avoided": 8358,
  "\u2581distributed": 8359,
  "\u2581maumboni": 8360,
  "\u2581minor": 8361,
  "\u2581strangers": 8362,
  "\u2581tondovi": 8363,
  "\u2581typical": 8364,
  "\u2581wosakhulupirira": 8365,
  "\u2581zakukhosi": 8366,
  "ach": 8367,
  "fuula": 8368,
  "ill": 8369,
  "mwambamwamba": 8370,
  "namizira": 8371,
  "tsegulira": 8372,
  "\u2581Funso": 8373,
  "\u2581Hand": 8374,
  "\u2581adzauka": 8375,
  "\u2581amatumikira": 8376,
  "\u2581anachi": 8377,
  "\u2581chifatso": 8378,
  "\u2581feeding": 8379,
  "\u2581kwakhala": 8380,
  "\u2581marriages": 8381,
  "\u2581meantime": 8382,
  "\u2581ngwa": 8383,
  "\u2581omvetsera": 8384,
  "\u2581papa": 8385,
  "\u2581post": 8386,
  "\u2581production": 8387,
  "\u2581zamtengo": 8388,
  "\u2581zimatithandiza": 8389,
  "\u2581zosavuta": 8390,
  "tangopita": 8391,
  "yese": 8392,
  "\u2581anadwala": 8393,
  "\u2581fat": 8394,
  "\u2581grant": 8395,
  "\u2581ideal": 8396,
  "\u2581lamphamvu": 8397,
  "\u2581peer": 8398,
  "\u2581rage": 8399,
  "\u2581shape": 8400,
  "\u2581silima": 8401,
  "\u2581sincerely": 8402,
  "\u2581yogwira": 8403,
  "ES": 8404,
  "chite": 8405,
  "thetse": 8406,
  "tseguka": 8407,
  "\u2581Jersey": 8408,
  "\u2581Paskha": 8409,
  "\u2581Sermon": 8410,
  "\u2581anadzakhala": 8411,
  "\u2581chilankhulo": 8412,
  "\u2581chovala": 8413,
  "\u2581equipment": 8414,
  "\u2581kukhale": 8415,
  "\u2581kulimbikira": 8416,
  "\u2581mum": 8417,
  "\u2581safeguard": 8418,
  "\u2581willingness": 8419,
  "pandukira": 8420,
  "\u2581Page": 8421,
  "\u2581Research": 8422,
  "\u2581Rwanda": 8423,
  "\u2581amakhalidwe": 8424,
  "\u2581declaration": 8425,
  "\u2581goats": 8426,
  "\u2581initial": 8427,
  "\u2581ndinaganiza": 8428,
  "\u2581seeds": 8429,
  "\u2581sikuma": 8430,
  "\u2581stones": 8431,
  "\u2581tikuchita": 8432,
  "\u2581wom": 8433,
  "\u2581yochita": 8434,
  "fulumiza": 8435,
  "kambirana": 8436,
  "uc": 8437,
  "\u258132]": 8438,
  "\u2581Happiness": 8439,
  "\u2581Numbers": 8440,
  "\u2581Sch": 8441,
  "\u2581Tinga": 8442,
  "\u2581alcoholic": 8443,
  "\u2581armed": 8444,
  "\u2581b": 8445,
  "\u2581catch": 8446,
  "\u2581commented": 8447,
  "\u2581defend": 8448,
  "\u2581idols": 8449,
  "\u2581kufunitsitsa": 8450,
  "\u2581linalembedwa": 8451,
  "\u2581maintained": 8452,
  "\u2581motive": 8453,
  "\u2581obstacles": 8454,
  "\u2581reduced": 8455,
  "\u2581sole": 8456,
  "\u2581strike": 8457,
  "\u258132;": 8458,
  "\u2581Berlin": 8459,
  "\u2581CHA": 8460,
  "\u2581Pre": 8461,
  "\u2581Ulendo": 8462,
  "\u2581anayamikira": 8463,
  "\u2581ankalankhula": 8464,
  "\u2581exile": 8465,
  "\u2581fulfilling": 8466,
  "\u2581inayi": 8467,
  "\u2581koyera": 8468,
  "\u2581loneliness": 8469,
  "\u2581makutu": 8470,
  "\u2581molakwika": 8471,
  "\u2581mwano": 8472,
  "\u2581reflects": 8473,
  "\u2581sadzi\u0175a": 8474,
  "\u2581tabernacle": 8475,
  "\u2581tsikulo": 8476,
  "\u2581uzi": 8477,
  "\u2581zomwezo": 8478,
  "ANI": 8479,
  "ical": 8480,
  "ini": 8481,
  "khutira": 8482,
  "kupha": 8483,
  "phu": 8484,
  "\u25811942": 8485,
  "\u2581Opatulika": 8486,
  "\u2581Published": 8487,
  "\u2581alaliki": 8488,
  "\u2581amayang": 8489,
  "\u2581anandithandiza": 8490,
  "\u2581arrive": 8491,
  "\u2581ashamed": 8492,
  "\u2581disobedience": 8493,
  "\u2581kudandaula": 8494,
  "\u2581mamembala": 8495,
  "\u2581mnzathu": 8496,
  "\u2581outset": 8497,
  "\u2581owner": 8498,
  "\u2581supposed": 8499,
  "\u2581valid": 8500,
  "\u2581zealously": 8501,
  "fikire": 8502,
  "kondwa": 8503,
  "lan": 8504,
  "masula": 8505,
  "tseka": 8506,
  "\u258140:": 8507,
  "\u2581Ezra": 8508,
  "\u2581Joy": 8509,
  "\u2581Power": 8510,
  "\u2581akafuna": 8511,
  "\u2581anayang": 8512,
  "\u2581babies": 8513,
  "\u2581blow": 8514,
  "\u2581chaku": 8515,
  "\u2581cloud": 8516,
  "\u2581festival": 8517,
  "\u2581kabuku": 8518,
  "\u2581mayiyo": 8519,
  "\u2581reasoned": 8520,
  "\u2581represents": 8521,
  "\u2581reproach": 8522,
  "\u2581sizikutanthauza": 8523,
  "\u2581unayamba": 8524,
  "\u2581wokalamba": 8525,
  "ata": 8526,
  "dzikomo": 8527,
  "ense": 8528,
  "mwezi": 8529,
  "ric": 8530,
  "\u2581Du": 8531,
  "\u2581Rights": 8532,
  "\u2581akugwiritsa": 8533,
  "\u2581alinso": 8534,
  "\u2581bird": 8535,
  "\u2581dramatic": 8536,
  "\u2581gaining": 8537,
  "\u2581heal": 8538,
  "\u2581kukhumudwa": 8539,
  "\u2581kunalibe": 8540,
  "\u2581lonselo": 8541,
  "\u2581magawo": 8542,
  "\u2581meditation": 8543,
  "\u2581publisher": 8544,
  "\u2581sayings": 8545,
  "\u2581sichima": 8546,
  "\u2581sindidza": 8547,
  "\u2581temper": 8548,
  "\u2581tizichita": 8549,
  "\u2581woipayo": 8550,
  "\u2581yotsatirayi": 8551,
  "\u2581zapita": 8552,
  "tchuka": 8553,
  "\u25811944": 8554,
  "\u258197": 8555,
  "\u2581Kumadzulo": 8556,
  "\u2581Ni": 8557,
  "\u2581Ukwati": 8558,
  "\u2581achangu": 8559,
  "\u2581lokhudza": 8560,
[...]
