{
  "</s>": 0,
  "<unk>": 1,
  ".": 2,
  ",": 3,
  "\u2581t\u00eb": 4,
  "\u2581e": 5,
  "\u2581the": 6,
  "'": 7,
  "?": 8,
  "\u2581to": 9,
  "\u2581of": 10,
  "s": 11,
  "\u2581n\u00eb": 12,
  "\u2581-": 13,
  "\u2581and": 14,
  "\u2581\"": 15,
  "\u2581i": 16,
  "\u2581dhe": 17,
  "\u2581a": 18,
  "\u2581q\u00eb": 19,
  "\u2581I": 20,
  "\u2581you": 21,
  "\u2581me": 22,
  "\u2581p\u00ebr": 23,
  "\u2581in": 24,
  "!": 25,
  "\u2581do": 26,
  "\u2581nj\u00eb": 27,
  "\u2581that": 28,
  "\u2581is": 29,
  "t": 30,
  "\u2581\u00ebsht\u00eb": 31,
  ":": 32,
  "\u2581nuk": 33,
  "\u2581se": 34,
  "\u2581(": 35,
  "i": 36,
  "\u2581for": 37,
  "\u2581it": 38,
  "\u2581m\u00eb": 39,
  "-": 40,
  "\u2581nga": 41,
  "\u2581not": 42,
  "\u2581be": 43,
  "\u2581on": 44,
  "...": 45,
  ")": 46,
  "\u2581with": 47,
  "\u2581have": 48,
  "\u2581are": 49,
  "n": 50,
  "\u2581they": 51,
  "\u2581will": 52,
  "\u2581ka": 53,
  "\u2581u": 54,
  "\u2581t": 55,
  "\u2581as": 56,
  "\u2581them": 57,
  "\u2581was": 58,
  "\u2581ta": 59,
  "\u2581we": 60,
  "\u2581The": 61,
  "e": 62,
  "\u2581your": 63,
  "\u2581this": 64,
  ";": 65,
  "\u2581he": 66,
  "\u2581si": 67,
  "a": 68,
  "\u2581You": 69,
  "\u2581mund": 70,
  "\u2581ata": 71,
  "\u2581from": 72,
  "m": 73,
  "\u2581who": 74,
  "\u2581And": 75,
  "\u2581his": 76,
  "\u2581po": 77,
  "\u2581te": 78,
  "\u2581A": 79,
  "\u2581We": 80,
  "\u2581God": 81,
  "\u2581E": 82,
  "ve": 83,
  "\u2581He": 84,
  "\u2581their": 85,
  "\u2581shum\u00eb": 86,
  "\u2581": 87,
  "\u2581what": 88,
  "\u2581my": 89,
  "\u2581all": 90,
  "\u2581tij": 91,
  "\u2581jan\u00eb": 92,
  "\u2581tyre": 93,
  "\u2581at\u00eb": 94,
  "\u2581s\u00eb": 95,
  "\u2581him": 96,
  "\u2581ju": 97,
  "\u2581can": 98,
  "\u2581by": 99,
  "in": 100,
  "\u2581k\u00ebt\u00eb": 101,
  "\u2581All": 102,
  "re": 103,
  ".\"": 104,
  "\u2581ai": 105,
  "\u2581What": 106,
  "\u2581edhe": 107,
  "\u2581Po": 108,
  "\u2581kur": 109,
  "\u2581It": 110,
  "\u2581[": 111,
  "\u2581at": 112,
  "\u2581has": 113,
  "\u2581mir\u00eb": 114,
  "\u2581one": 115,
  "\u2581know": 116,
  "\u2581ishte": 117,
  "\u2581said": 118,
  "it": 119,
  "\u2581but": 120,
  "\u2581or": 121,
  "\u2581duke": 122,
  "\u2581Dhe": 123,
  "\u2581Ai": 124,
  "\u2581an": 125,
  "\u2581Allah": 126,
  "\u2581ne": 127,
  "\u2581were": 128,
  "u": 129,
  "\u2581por": 130,
  "]": 131,
  "\u2581N\u00eb": 132,
  "\u2581Do": 133,
  "\u2581duhet": 134,
  "\u2581out": 135,
  "\u2581about": 136,
  "\u2581there": 137,
  "ing": 138,
  "\u2581Nuk": 139,
  "\u2581kan\u00eb": 140,
  "\u2581so": 141,
  "\u2581up": 142,
  "\u2581us": 143,
  "\u2581when": 144,
  "\u2581people": 145,
  "\u2581tha": 146,
  "\u2581those": 147,
  "\u2581ti": 148,
  "\u2581no": 149,
  "\u2581time": 150,
  "\u2581'": 151,
  "\u2581had": 152,
  "d": 153,
  "\u2581our": 154,
  "\u00eb": 155,
  "\u2581if": 156,
  "\u2581vet\u00ebm": 157,
  "\u2581would": 158,
  "\u2581prej": 159,
  "\u2581un\u00eb": 160,
  "\u2581Jehovah": 161,
  "\u2581di": 162,
  "\u2581like": 163,
  "\u2581mos": 164,
  "\u2581na": 165,
  "\u2581which": 166,
  "\u2581been": 167,
  "\u2581just": 168,
  "\u2581gjith\u00eb": 169,
  "\u2581here": 170,
  ",\"": 171,
  "\u2581But": 172,
  "\u2581don": 173,
  "\u2581ajo": 174,
  "\u2581M\u00eb": 175,
  "\u2581T\u00eb": 176,
  "\u2581No": 177,
  "\u2581right": 178,
  "\u2581go": 179,
  "\u2581v\u00ebrtet\u00eb": 180,
  "\u2581kjo": 181,
  "\u2581Por": 182,
  "),": 183,
  "\u2581They": 184,
  "\u2581her": 185,
  "ll": 186,
  "\u2581get": 187,
  "sh": 188,
  "\u2581did": 189,
  "\u2581Per\u00ebndis\u00eb": 190,
  "\u2581\u00c7far\u00eb": 191,
  "\u2581kemi": 192,
  "\u2581good": 193,
  "\u2581pa": 194,
  "\u2581So": 195,
  "\u2581jo": 196,
  "\u2581par\u00eb": 197,
  "\u2581Jo": 198,
  "\u2581That": 199,
  "\u2581Ne": 200,
  "\u2581kam": 201,
  "\u2581more": 202,
  "\u2581n\u00ebse": 203,
  "\u2581shall": 204,
  "\u2581In": 205,
  "\u2581tjet\u00ebr": 206,
  "\u2581Oh": 207,
  "\u2581ose": 208,
  "\u2581jet\u00eb": 209,
  "\u2581Un\u00eb": 210,
  "\u2581Lord": 211,
  "\u2581Si": 212,
  "n\u00eb": 213,
  "\u2581some": 214,
  "\u2581sa": 215,
  "\u2581then": 216,
  "\u2581b\u00ebr\u00eb": 217,
  "\u2581s": 218,
  "\u2581see": 219,
  "\u2581say": 220,
  "\u2581Me": 221,
  "ja": 222,
  "\u2581This": 223,
  "\u2581S": 224,
  "\u2581man": 225,
  "ed": 226,
  "\u2581Kjo": 227,
  "\u2581Per\u00ebndia": 228,
  "llahu": 229,
  "\u2581come": 230,
  "\u2581k\u00ebtu": 231,
  "\u2581ke": 232,
  "\u2581may": 233,
  "\u2581now": 234,
  "\u2581disa": 235,
  "\u2581mbi": 236,
  "\u2581para": 237,
  "\"": 238,
  "t\u00eb": 239,
  ").": 240,
  "\u2581over": 241,
  "\u2581pas": 242,
  "\u2581P\u00ebr": 243,
  "\u2581kishte": 244,
  "\u2581jam": 245,
  "\u2581dy": 246,
  "\u2581How": 247,
  "\u2581way": 248,
  "\u2581want": 249,
  "\u2581je": 250,
  "\u2581down": 251,
  "\u2581only": 252,
  "\u2581ku": 253,
  "\u2581life": 254,
  "\u2581Ata": 255,
  "\u2581she": 256,
  "\u2581Nj\u00eb": 257,
  "\u2581should": 258,
  "\u2581into": 259,
  "\u2581Jesus": 260,
  "\u2581make": 261,
  "\u2581than": 262,
  "\u2581atyre": 263,
  "\u2581other": 264,
  "\u2581thot\u00eb": 265,
  "\u2581back": 266,
  "\u2581Ti": 267,
  "\u2581got": 268,
  "\u2581how": 269,
  "\u2581Bible": 270,
  "\u2581\u00e7do": 271,
  "\u2581O": 272,
  "\u2581could": 273,
  "\u2581think": 274,
  "\u2581tani": 275,
  "\u2581ty": 276,
  "et": 277,
  "\u2581take": 278,
  "\u2581Kur": 279,
  "\u2581before": 280,
  "\u2581Zoti": 281,
  "\u2581day": 282,
  "\u2581saj": 283,
  "\u2581also": 284,
  "\u2581--": 285,
  "\u2581\u00e7far\u00eb": 286,
  "I": 287,
  "\u2581two": 288,
  "\u2581If": 289,
  "\u2581its": 290,
  "\u2581made": 291,
  "\u2581gj\u00eb": 292,
  "\u2581mua": 293,
  "\u2581any": 294,
  "\u2581Yeah": 295,
  "\u2581_": 296,
  "\u2581apo": 297,
  "\u2581\u00cbsht\u00eb": 298,
  "\u2581need": 299,
  "\u25811": 300,
  "\u2581qen\u00eb": 301,
  "\u2581Jehovait": 302,
  "ni": 303,
  "\u2581these": 304,
  "y": 305,
  "\u2581%": 306,
  "\u2581going": 307,
  "\u2581gjitha": 308,
  "\u2581im": 309,
  "th": 310,
  "\u2581after": 311,
  "\u2581pak": 312,
  "\u2581sepse": 313,
  "\u2581things": 314,
  "\u2581even": 315,
  "/": 316,
  "er": 317,
  "\u2581help": 318,
  "\u2581because": 319,
  "\u2581earth": 320,
  "\u2581ato": 321,
  "ka": 322,
  "\u2581ndonj\u00eb": 323,
  "\u2581gonna": 324,
  "!\"": 325,
  "\u2581ishin": 326,
  "o": 327,
  "\u2581per": 328,
  "\u2581first": 329,
  "te": 330,
  "je": 331,
  "\u2581koh\u00eb": 332,
  "\u2581years": 333,
  "ju": 334,
  "s\u00eb": 335,
  "O": 336,
  "\u2581world": 337,
  "\u2581keni": 338,
  "\u2581tek": 339,
  "\u2581deri": 340,
  "\u2581many": 341,
  "\u2581Mos": 342,
  "\u2581k\u00ebto": 343,
  "\u2581re": 344,
  "r": 345,
  "\u2581ndaj": 346,
  "\u2581Why": 347,
  "\u2581qe": 348,
  "\u2581vend": 349,
  "\u2581His": 350,
  "\u2581work": 351,
  "\u2581jemi": 352,
  "\u2581give": 353,
  "\u2581When": 354,
  "ly": 355,
  "A": 356,
  "\u2581N\u00ebse": 357,
  "\u2581gjat\u00eb": 358,
  "\u2581There": 359,
  "\u2581let": 360,
  "\u2581...": 361,
  "\u2581does": 362,
  "\u2581such": 363,
  "\u2581Ju": 364,
  "\u2581tuaj": 365,
  "\u2581njer\u00ebzit": 366,
  "\u2581believe": 367,
  "\u2581rregull": 368,
  "\u2581love": 369,
  "llahut": 370,
  "\u2581new": 371,
  "\u2581am": 372,
  "\u2581Ajo": 373,
  "\u2581well": 374,
  "\u2581where": 375,
  "\u2581dit\u00eb": 376,
  "\u2581For": 377,
  "\u2581away": 378,
  "\u2581b\u00ebn": 379,
  "\u2581never": 380,
  "\u2581She": 381,
  "\u2581against": 382,
  "\u2581My": 383,
  "\u2581Come": 384,
  "\u2581vet": 385,
  "\u2581jeni": 386,
  "\u2581di\u00e7ka": 387,
  "\u2581upon": 388,
  "\u2581very": 389,
  "\u2581Edhe": 390,
  "b": 391,
  "\u2581marr\u00eb": 392,
  "\u2581keq": 393,
  "\u2581As": 394,
  "\u00ebt": 395,
  "\u2581Let": 396,
  "\u2581men": 397,
  "\u2581drejt\u00eb": 398,
  "\u2581Well": 399,
  "\u2581Ka": 400,
  "\u2581.\"": 401,
  "\u2581k\u00ebshtu": 402,
  "\u2581Then": 403,
  "\u2581rreth": 404,
  "\u2581madh": 405,
  "\u2581\u00e7": 406,
  "\u2581Jehovai": 407,
  "\u2581cili": 408,
  "\u2581Hey": 409,
  "?\"": 410,
  "\u2581m\u00ebnyr\u00eb": 411,
  "\u2581much": 412,
  "\u2581something": 413,
  "im": 414,
  "\u2581find": 415,
  "\u2581B": 416,
  "\u2581off": 417,
  "\u2581ky": 418,
  "\u2581Zotit": 419,
  "\u2581Yes": 420,
  "\u2581too": 421,
  "\u2581most": 422,
  "j": 423,
  "\u2581ashtu": 424,
  "\u2581fundit": 425,
  "\u2581Sa": 426,
  "\u2581little": 427,
  "\u2581kund\u00ebr": 428,
  "\u2581pse": 429,
  "\u2581madhe": 430,
  "\u2581must": 431,
  "\u2581among": 432,
  "\u2581U": 433,
  "\u2581came": 434,
  "\u2581being": 435,
  "\u2581own": 436,
  "\u2581says": 437,
  "\u2581nje": 438,
  "\u2581ton\u00eb": 439,
  "\u2581Pse": 440,
  "\u2581njer\u00ebz": 441,
  "\u2581unto": 442,
  "\u2581really": 443,
  "\u2581doing": 444,
  "on": 445,
  "\u2581cil\u00ebt": 446,
  "\u2581name": 447,
  "\u2581vjen": 448,
  "\u2581ri": 449,
  "\u2581told": 450,
  "\u2581tell": 451,
  "m\u00eb": 452,
  "do": 453,
  "\u2581ye": 454,
  "\u2581\u00e7ka": 455,
  "\u2581Duhet": 456,
  "\u2581Okay": 457,
  "\u2581k\u00ebsaj": 458,
  "the": 459,
  "\u2581Who": 460,
  "\u2581EU": 461,
  "\u2581eshte": 462,
  "\u2581place": 463,
  "\u2581great": 464,
  "\u2581through": 465,
  "\u2581pjes\u00eb": 466,
  "k": 467,
  "\u2581children": 468,
  "\u2581another": 469,
  "\u2581every": 470,
  "E": 471,
  "\u2581ia": 472,
  "\u2581look": 473,
  "\u2581put": 474,
  "\u2581b\u00ebj": 475,
  "\u2581Now": 476,
  "an": 477,
  "\u2581whom": 478,
  "\u2581Mir\u00eb": 479,
  "\u2581b\u00ebjn\u00eb": 480,
  "\u2581European": 481,
  "\u2581kush": 482,
  "\u2581atij": 483,
  "\u2581sikur": 484,
  "en": 485,
  "\u2581year": 486,
  "\u2581C": 487,
  "\u2581\u00c7": 488,
  "\u2581thing": 489,
  "\u2581Ky": 490,
  "\u2581/": 491,
  "\u2581sent": 492,
  "S": 493,
  "me": 494,
  "\u2581tjera": 495,
  "\u2581tim": 496,
  "\u2581her\u00eb": 497,
  "\u2581dh\u00ebn\u00eb": 498,
  "\u2581Ku": 499,
  "\u2581thon\u00eb": 500,
  "\u2581still": 501,
  "\u2581BE": 502,
  "\u2581between": 503,
  "\u2581Him": 504,
  "_": 505,
  "\u2581Don": 506,
  "\u2581njeri": 507,
  "l": 508,
  "\u2581dua": 509,
  "\u2581To": 510,
  "\u2581jet\u00ebn": 511,
  "\u2581Jezui": 512,
  "\u2581ket\u00eb": 513,
  "\u2581truth": 514,
  "\u2581Our": 515,
  "\u2581last": 516,
  "\u25812": 517,
  "\u2581Na": 518,
  "\u2581Mund": 519,
  "\u2581long": 520,
  "\u2581family": 521,
  "\u2581P": 522,
  "\u2581th\u00ebn\u00eb": 523,
  "\u2581Nga": 524,
  "\u2581didn": 525,
  "ia": 526,
  "\u2581vet\u00eb": 527,
  "\u2581home": 528,
  "\u2581might": 529,
  "\u2581why": 530,
  "\u2581asnj\u00eb": 531,
  "uar": 532,
  "\u2581t\u00ebnd": 533,
  "\u2581atje": 534,
  "\u2581while": 535,
  "\u2581better": 536,
  "\u2581Tani": 537,
  "\u2581call": 538,
  "H": 539,
  "\u2581juaj": 540,
  "\u2581kishin": 541,
  "\u2581yt": 542,
  "\u2581three": 543,
  "\u2581Pra": 544,
  "\u2581pasi": 545,
  "\u2581country": 546,
  "\u2581Kosovo": 547,
  "\u2581ime": 548,
  "\u2581again": 549,
  "\u2581mes": 550,
  "\u2581pra": 551,
  "\u2581others": 552,
  "\u2581fund": 553,
  "\u2581son": 554,
  "\u2581found": 555,
  "\u2581asgj\u00eb": 556,
  "\u2581mean": 557,
  "\u2581le": 558,
  "\u2581pastaj": 559,
  "\u2581lutem": 560,
  "\u2581Serbia": 561,
  "ne": 562,
  "\u2581gjithashtu": 563,
  "\u2581duket": 564,
  "\u2581t\u00ebnde": 565,
  "\u2581veten": 566,
  "\u258115": 567,
  "\u2581night": 568,
  "\u2581part": 569,
  "\u2581nor": 570,
  "\u2581keep": 571,
  "\u2581jep": 572,
  "\u2581tok\u00eb": 573,
  "\u2581sht\u00ebpi": 574,
  "\u2581njer\u00ebzve": 575,
  "\u2581used": 576,
  "\u2581kurr\u00eb": 577,
  "\u2581One": 578,
  "\u2581iu": 579,
  "\u2581ever": 580,
  "\u2581page": 581,
  "\u2581Duke": 582,
  "al": 583,
  "\u2581Kush": 584,
  "\u2581Are": 585,
  "\u2581end": 586,
  "\u2581Your": 587,
  "\u2581jen\u00eb": 588,
  "to": 589,
  "\u2581become": 590,
  "\u2581b\u00ebjm\u00eb": 591,
  "\u2581Jam": 592,
  "\u2581Go": 593,
  "\u2581Kam": 594,
  "\u2581K\u00ebshtu": 595,
  "\u2581at\u00ebher\u00eb": 596,
  "se": 597,
  "\u2581problem": 598,
  "\u2581pasur": 599,
  "es": 600,
  "\u2581Where": 601,
  "\u2581same": 602,
  "\u2581house": 603,
  "\u2581each": 604,
  "\u2581shkak": 605,
  "\u2581mira": 606,
  "\u2581true": 607,
  "\u2581given": 608,
  "at": 609,
  "\u2581sot": 610,
  "\u2581faith": 611,
  "\u2581aty": 612,
  "\u2581aq": 613,
  "\u2581called": 614,
  "\u2581Paul": 615,
  "\u2581Tij": 616,
  "p": 617,
  "\u2581Je": 618,
  "\u2581death": 619,
  "\u2581around": 620,
  "\u2581person": 621,
  "\u2581bring": 622,
  "\u2581b\u00ebri": 623,
  "\u2581okay": 624,
  "\u2581pun\u00eb": 625,
  "\u2581done": 626,
  "\u2581vjet": 627,
  "\u2581father": 628,
  "\u2581government": 629,
  "\u2581under": 630,
  "\u2581thou": 631,
  "\u2581p\u00ebrpara": 632,
  "\u2581saying": 633,
  "ur": 634,
  "\u2581fear": 635,
  "\u2581Ja": 636,
  "\u2581ua": 637,
  "\u2581old": 638,
  "\u2581b\u00ebhet": 639,
  "\u2581Witnesses": 640,
  "\u2581tep\u00ebr": 641,
  "\u2581heart": 642,
  "\u2581Day": 643,
  "\u2581indeed": 644,
  "\u2581show": 645,
  "\u2581set": 646,
  "\u2581Get": 647,
  "\u2581left": 648,
  "\u2581Just": 649,
  "\u2581than\u00eb": 650,
  "\u2581nothing": 651,
  "\u2581without": 652,
  "\u2581si\u00e7": 653,
  "\u2581n\u00ebn": 654,
  "\u2581kaq": 655,
  "\u2581tona": 656,
  "\u2581Le": 657,
  "\u2581use": 658,
  "\u2581anything": 659,
  "\u2581Times": 660,
  "\u2581jasht\u00eb": 661,
  "c": 662,
  "\u2581days": 663,
  "or": 664,
  "The": 665,
  "\u2581By": 666,
  "\u2581tjer\u00eb": 667,
  "\u2581sure": 668,
  "\u2581Christ": 669,
  "\u2581best": 670,
  "ta": 671,
  "\u2581sipas": 672,
  "\u2581feel": 673,
  "\u258120": 674,
  "\u25813": 675,
  "\u2581ask": 676,
  "\u2581turn": 677,
  "\u2581hand": 678,
  "\u2581wrong": 679,
  "\u2581asaj": 680,
  "\u2581gj\u00ebra": 681,
  "\u2581tre": 682,
  "\u2581dead": 683,
  "\u2581K": 684,
  "na": 685,
  "\u2581nevoj\u00eb": 686,
  "\u2581faqen": 687,
  "\u2581until": 688,
  "si": 689,
  "\u2581Can": 690,
  "\u2581dashur": 691,
  "\u2581Hej": 692,
  "\u2581ma": 693,
  "\u2581thought": 694,
  "\u2581took": 695,
  "\u2581Say": 696,
  "\u2581brenda": 697,
  "\u2581Megjithat\u00eb": 698,
  "\u2581together": 699,
  "\u2581both": 700,
  "\u2581today": 701,
  "\u2581Per\u00ebndin\u00eb": 702,
  "\u2581Israel": 703,
  "\u2581leave": 704,
  "\u2581qoft\u00eb": 705,
  "\u2581money": 706,
  "\u2581Zot": 707,
  "\u2581themselves": 708,
  "\u258110": 709,
  "\u2581M": 710,
  "\u2581b\u00ebj\u00eb": 711,
  "\u2581shembull": 712,
  "\u2581power": 713,
  "\u2581gave": 714,
  "\u2581Not": 715,
  "\u2581v\u00ebrtet": 716,
  "\u2581,\"": 717,
  "\u2581water": 718,
  "\u2581land": 719,
  "\u2581talk": 720,
  "\u2581fjal\u00eb": 721,
  "\u2581Faleminderit": 722,
  "--": 723,
  "\u2581T": 724,
  "va": 725,
  "\u2581Look": 726,
  "\u2581Vet\u00ebm": 727,
  "\u00ebn": 728,
  "\u2581ones": 729,
  "ua": 730,
  "\u2581evil": 731,
  "\u2581cilat": 732,
  "\u258130": 733,
  "\u2581always": 734,
  "\u2581words": 735,
  "\u2581Ke": 736,
  "\u2581course": 737,
  "\u2581went": 738,
  "\u2581understand": 739,
  "\u2581live": 740,
  "\u2581mi": 741,
  "\u2581file": 742,
  "\u2581Minister": 743,
  "\u2581rrug\u00eb": 744,
  "\u2581vog\u00ebl": 745,
  "\u2581besojn\u00eb": 746,
  "\u2581bukur": 747,
  "\u2581surely": 748,
  "\u2581gati": 749,
  "\u258112": 750,
  "\u2581vitin": 751,
  "\u2581von\u00eb": 752,
  "\u2581sigurt": 753,
  "\u2581ende": 754,
  "\u2581lart\u00eb": 755,
  "\u2581*": 756,
  "\u2581gj\u00ebrat": 757,
  "\u2581Prandaj": 758,
  "p\u00ebr": 759,
  "\u2581nj\u00ebri": 760,
  "le": 761,
  "\u2581tuaja": 762,
  "\u2581Christian": 763,
  "\u2581everything": 764,
  "\u2581nd\u00ebrsa": 765,
  "\u2581sorry": 766,
  "\u2581yn\u00eb": 767,
  "B": 768,
  "\u2581Bibla": 769,
  "\u2581hear": 770,
  "\u2581brought": 771,
  "\u2581At": 772,
  "\u2581women": 773,
  "\u2581example": 774,
  "\u2581qart\u00eb": 775,
  "\u2581juve": 776,
  "\u2581On": 777,
  "\u25815": 778,
  "\u2581Bi": 779,
  "\u2581though": 780,
  "\u2581D": 781,
  "\u2581t\u00ebr\u00eb": 782,
  "\u2581times": 783,
  "\u2581human": 784,
  "\u2581kisha": 785,
  "eve": 786,
  "\u2581yet": 787,
  "\u2581Thank": 788,
  "\u2581during": 789,
  "\u2581clear": 790,
  "h": 791,
  "\u2581means": 792,
  "\u2581thee": 793,
  "\u2581next": 794,
  "\u2581bashk\u00eb": 795,
  "\u2581fucking": 796,
  "\u2581vdekur": 797,
  "\u2581news": 798,
  "\u2581please": 799,
  "\u2581knowledge": 800,
  "\u2581number": 801,
  "ra": 802,
  "/0": 803,
  "\u2581f\u00ebmij\u00ebt": 804,
  "\u2581word": 805,
  "\u2581SE": 806,
  "\u2581lidhje": 807,
  "\u00ebve": 808,
  "\u2581Thuaj": 809,
  "\u2581kurse": 810,
  "\u2581heavens": 811,
  "\u2581fal": 812,
  "C": 813,
  "ke": 814,
  "\u2581siguri": 815,
  "\u2581kind": 816,
  "\u2581Ta": 817,
  "\u2581cila": 818,
  "\u2581till\u00eb": 819,
  "\u2581wife": 820,
  "\u2581coming": 821,
  "\u043b": 822,
  "\u2581Pastaj": 823,
  "\u2581Shum\u00eb": 824,
  "\u2581won": 825,
  "\u2581David": 826,
  "\u2581Good": 827,
  "We": 828,
  "\u2581Those": 829,
  "\u2581Christians": 830,
  "Times": 831,
  "ko": 832,
  "\u2581New": 833,
  "\u2581Please": 834,
  "\u2581jush": 835,
  "st": 836,
  "\u2581p\u00ebrs\u00ebri": 837,
  "\u2581p\u00ebrve\u00e7": 838,
  "\u2581bot\u00eb": 839,
  "\u2581seen": 840,
  "\u2581fort\u00eb": 841,
  "\u2581already": 842,
  "\u2581face": 843,
  "imi": 844,
  "\u2581countries": 845,
  "\u2581disbelieve": 846,
  "\u2581Sepse": 847,
  "\u2581dha": 848,
  "\u2581saw": 849,
  "\u2581tjer\u00ebt": 850,
  "\u2581worship": 851,
  "\u2581dit\u00ebn": 852,
  "\u2581isha": 853,
  "\u2581himself": 854,
  "\u2581Mr": 855,
  "\u2581At\u00ebher\u00eb": 856,
  "\u2581spirit": 857,
  "\u2581war": 858,
  "\u2581ardhur": 859,
  "\u2581John": 860,
  "\u2581kaluar": 861,
  "\u2581except": 862,
  "\u2581o": 863,
  "\u2581Pa": 864,
  "\u2581de": 865,
  "\u2581lot": 866,
  "z": 867,
  "\u2581created": 868,
  "\u2581brother": 869,
  "\u2581b\u00ebni": 870,
  "\u2581mendoj": 871,
  "\u2581Kingdom": 872,
  "\u2581vendin": 873,
  "\u2581Q\u00eb": 874,
  "\u2581rrug\u00ebn": 875,
  "\u2581city": 876,
  "\u2581since": 877,
  "):": 878,
  "\u2581full": 879,
  "\u2581mind": 880,
  "\u2581mother": 881,
  "\u2581Re": 882,
  "\u2581parents": 883,
  "\u2581hope": 884,
  "\u2581shit": 885,
  "\u2581head": 886,
  "\u2581NATO": 887,
  "\u2581young": 888,
  "\u2581midis": 889,
  "\u2581posht\u00eb": 890,
  "\u2581b\u00ebn\u00eb": 891,
  "\u2581important": 892,
  "\u2581book": 893,
  "\u2581bad": 894,
  "M": 895,
  "\u2581zem\u00ebr": 896,
  "\u2581jote": 897,
  "\u2581real": 898,
  "\u2581f\u00ebmij\u00eb": 899,
  "\u2581shpejt": 900,
  "\u2581far": 901,
  "\u2581z": 902,
  "\u2581cil\u00ebn": 903,
  "\u2581krishter\u00eb": 904,
  "\u2581kill": 905,
  "\u2581Dua": 906,
  "\u2581Te": 907,
  "\u2581n\u00ebp\u00ebr": 908,
  "g": 909,
  "\u2581able": 910,
  "\u2581send": 911,
  "\u2581tu": 912,
  "\u2581knows": 913,
  "\u2581Or": 914,
  "\u258118": 915,
  "\u2581remember": 916,
  "\u2581mund\u00ebsi": 917,
  "\u2581dyshim": 918,
  "ri": 919,
  "\u2581few": 920,
  "\u2581care": 921,
  "\u2581dini": 922,
  "ut": 923,
  "\u25813:": 924,
  "\u2581order": 925,
  "\u25814": 926,
  "\u00e7": 927,
  "\u2581eyes": 928,
  "\u2581Did": 929,
  "\u2581thy": 930,
  "\u2581cannot": 931,
  "\u2581G": 932,
  "\u2581peace": 933,
  "\u2581move": 934,
  "\u2581Some": 935,
  "\u00ebsht\u00eb": 936,
  "\u2581follow": 937,
  "\u2581b\u00ebsh": 938,
  "\u2581wanted": 939,
  "\u2581ndoshta": 940,
  "\u00ebs": 941,
  "\u2581Book": 942,
  "\u2581Be": 943,
  "\u2581k\u00ebta": 944,
  "\u2581open": 945,
  "\u2581Indeed": 946,
  "ti": 947,
  "\u2581guys": 948,
  "\u2581guy": 949,
  "\u2581matter": 950,
  "\u2581k\u00ebtij": 951,
  "\u2581Z": 952,
  "\u2581euro": 953,
  "\u2581ndryshme": 954,
  "\u2581someone": 955,
  "\u258125": 956,
  "\u2581die": 957,
  "\u2581hands": 958,
  "\u2581co": 959,
  "\u2581high": 960,
  "\u2581Disa": 961,
  "\u25816": 962,
  "\u2581heard": 963,
  "\u2581king": 964,
  "\u2581These": 965,
  "\u2581read": 966,
  "ers": 967,
  "\u2581later": 968,
  "\u2581Ndoshta": 969,
  "\u2581punishment": 970,
  "\u2581Moses": 971,
  "\u2581m": 972,
  "\u2581frik\u00eb": 973,
  "\u2581fine": 974,
  "\u2581happened": 975,
  "po": 976,
  "\u2581yourself": 977,
  "ic": 978,
  "\u2581mendon": 979,
  "\u2581return": 980,
  "\u258111": 981,
  "mi": 982,
  "\u2581Kosov\u00ebs": 983,
  "li": 984,
  "\u2581v\u00ebshtir\u00eb": 985,
  "\u2581veta": 986,
  "man": 987,
  "\u2581Ma": 988,
  "\u25818": 989,
  "un": 990,
  "\u2581mori": 991,
  "\u2581stop": 992,
  "as": 993,
  "\u2581drejt": 994,
  "\u2581emrin": 995,
  "\u2581cilin": 996,
  "\u2581hell": 997,
  "\u2581ja": 998,
  "\u25812:": 999,
  "\u2581sir": 1000,
  "\u2581Because": 1001,
  "\u2581d\u00ebshiron": 1002,
  "\u2581Eja": 1003,
  "P": 1004,
  "\u2581gjith\u00e7ka": 1005,
  "\u2581asked": 1006,
  "\u2581hard": 1007,
  "\u2581v\u00ebrtet\u00ebn": 1008,
  "\u2581With": 1009,
  "\u2581duhej": 1010,
  "\u2581ndodh": 1011,
  "\u2581Se": 1012,
  "\u2581four": 1013,
  "\u2581Bibl\u00ebs": 1014,
  "\u2581state": 1015,
  "\u2581whole": 1016,
  "\u2581bot\u00ebn": 1017,
  "\u2581Of": 1018,
  "\u2581law": 1019,
  "\u2581vete": 1020,
  "rs": 1021,
  "\u2581marrin": 1022,
  "\u2581support": 1023,
  "\u2581dikush": 1024,
  "\u2581jet\u00ebs": 1025,
  "\u2581woman": 1026,
  "\u2581fact": 1027,
  "\u2581shkoj": 1028,
  "\u2581cause": 1029,
  "\u2581merr": 1030,
  "\u2581humbur": 1031,
  "\u2581hearts": 1032,
  "\u2581r\u00ebnd\u00ebsishme": 1033,
  "\u2581larg": 1034,
  "\u2581However": 1035,
  "\u25817": 1036,
  "\u2581friend": 1037,
  "\u258116": 1038,
  "\u2581message": 1039,
  "\u2581thjesht": 1040,
  "\u2581second": 1041,
  "\u2581krijuar": 1042,
  "\u2581change": 1043,
  "\u2581forth": 1044,
  "\u2581populli": 1045,
  "\u2581enough": 1046,
  "\u2581After": 1047,
  "\u2581different": 1048,
  "\u2581comes": 1049,
  "la": 1050,
  "\u2581shoh": 1051,
  "\u2581believers": 1052,
  "\u2581became": 1053,
  "\u2581having": 1054,
  "\u2581fire": 1055,
  "\u2581knew": 1056,
  "\u2581Picture": 1057,
  "\u2581sheh": 1058,
  "\u2581Have": 1059,
  "\u2581vit": 1060,
  "\u2581vende": 1061,
  "\u2581try": 1062,
  "\u2581Shiko": 1063,
  "of": 1064,
  "\u2581Turkey": 1065,
  "\u2581Jezuit": 1066,
  "\u2581besim": 1067,
  "\u2581light": 1068,
  "\u2581njeriu": 1069,
  "\u2581certainly": 1070,
  "\u2581speak": 1071,
  "\u2581mia": 1072,
  "\u2581erdhi": 1073,
  "\u258114": 1074,
  "\u25814:": 1075,
  "\u2581At\u00eb": 1076,
  "T": 1077,
  "\u2581living": 1078,
  "\u2581m\u00ebdha": 1079,
  "\u2581meet": 1080,
  "\u2581plan": 1081,
  "\u2581mend": 1082,
  "\u2581signs": 1083,
  "\u2581making": 1084,
  "\u2581shenjt\u00eb": 1085,
  "iH": 1086,
  "\u2581pamundur": 1087,
  "\u2581'.": 1088,
  "\u2581fakt": 1089,
  "\u2581bot\u00ebs": 1090,
  "\u2581b\u00eb": 1091,
  "\u2581tregon": 1092,
  "f": 1093,
  "\u2581stay": 1094,
  "\u2581vendit": 1095,
  "\u2581plot\u00eb": 1096,
  "\u2581case": 1097,
  "D": 1098,
  "ma": 1099,
  "\u2581free": 1100,
  "\u2581jesh": 1101,
  "\u2581spiritual": 1102,
  "\u2581big": 1103,
  "\u2581vij\u00eb": 1104,
  "\u2581friends": 1105,
  "\u2581d\u00ebrguar": 1106,
  "\u2581car": 1107,
  "mund": 1108,
  "llahun": 1109,
  "\u2581congregation": 1110,
  "\u2581fuck": 1111,
  "\u2581hath": 1112,
  "\u258113": 1113,
  "\u2581syt\u00eb": 1114,
  "\u258117": 1115,
  "\u2581an\u00eb": 1116,
  "uan": 1117,
  "\u2581fight": 1118,
  "\u2581Sipas": 1119,
  "\u2581wait": 1120,
  "\u2581zot\u00ebri": 1121,
  "w": 1122,
  "\u2581akoma": 1123,
  "\u2581mjaft": 1124,
  "\u25811:": 1125,
  "\u2581alone": 1126,
  "\u2581soon": 1127,
  "\u2581study": 1128,
  "het": 1129,
  "\u2581system": 1130,
  "\u2581future": 1131,
  "\u2581fare": 1132,
  "\u2581political": 1133,
  "sa": 1134,
  "\u2581Pas": 1135,
  "\u2581keqe": 1136,
  "\u2581taken": 1137,
  "\u2581ana": 1138,
  "ci": 1139,
  "\u2581else": 1140,
  "\u2581leht\u00eb": 1141,
  "\u2581caktuar": 1142,
  "\u2581tua": 1143,
  "\u2581v\u00ebn\u00eb": 1144,
  "\u2581girl": 1145,
  "\u2581start": 1146,
  "\u2581madje": 1147,
  "\u2581child": 1148,
  "\u2581koh\u00ebn": 1149,
  "\u2581Here": 1150,
  "x": 1151,
  "\u2581save": 1152,
  "\u2581doesn": 1153,
  "hen": 1154,
  "\u2581blood": 1155,
  "\u2581ken\u00eb": 1156,
  "\u2581!": 1157,
  "\u2581D\u00ebshmitar\u00ebt": 1158,
  "G": 1159,
  "\u2581meeting": 1160,
  "di": 1161,
  "\u2581p\u00eblqen": 1162,
  "\u2581looking": 1163,
  "\u2581food": 1164,
  "\u2581lidhur": 1165,
  "\u2581vendi": 1166,
  "\u2581arsye": 1167,
  "\u2581eat": 1168,
  "\u2581talking": 1169,
  "\u2581Hi": 1170,
  "us": 1171,
  "\u2581vendosur": 1172,
  "\u2581killed": 1173,
  "\u2581school": 1174,
  "\u2581police": 1175,
  "\u2581lost": 1176,
  "\u2581five": 1177,
  "\u2581ndodhi": 1178,
  "\u2581behind": 1179,
  "\u2581job": 1180,
  "\u2581vepra": 1181,
  "\u2581Satan": 1182,
  "\u2581President": 1183,
  "\u2581brothers": 1184,
  "\u2581Most": 1185,
  "\u2581public": 1186,
  "\u2581tan\u00eb": 1187,
  "\u2581close": 1188,
  "\u2581k\u00ebtyre": 1189,
  "\u2581fjal\u00ebt": 1190,
  "\u2581vendet": 1191,
  "\u2581p\u00ebrfshir\u00eb": 1192,
  "\u2581l\u00ebn\u00eb": 1193,
  "\u2581F": 1194,
  "\u2581reason": 1195,
  "\u2581kat\u00ebr": 1196,
  "\u2581nd\u00ebr": 1197,
  "\u2581ago": 1198,
  "\u2581q\u00ebllim": 1199,
  "\u2581according": 1200,
  "\u2581gjithmon\u00eb": 1201,
  "\u2581trying": 1202,
  "\u2581Ashtu": 1203,
  "\u2581sjell\u00eb": 1204,
  "\u2581learn": 1205,
  "\u2581morning": 1206,
  "\u25815:": 1207,
  "\u2581Ishte": 1208,
  "\u2581anyone": 1209,
  "\u2581vijn\u00eb": 1210,
  "\u2581K\u00ebto": 1211,
  "\u2581shkon": 1212,
  "\u2581thuhet": 1213,
  "\u2581deeds": 1214,
  "\u2581near": 1215,
  "\u2581P\u00ebrse": 1216,
  "\u2581kete": 1217,
  "\u2581mercy": 1218,
  "\u2581known": 1219,
  "\u2581k\u00ebrkon": 1220,
  "\u2581getting": 1221,
  "\u258119": 1222,
  "\u2581dor\u00eb": 1223,
  "\u2581vitit": 1224,
  "\u2581mankind": 1225,
  "\u2581bashku": 1226,
  "\u2581p": 1227,
  "\u2581pran\u00eb": 1228,
  "\u2581shkojm\u00eb": 1229,
  "\u2581hold": 1230,
  "\u2581whose": 1231,
  "\u2581la": 1232,
  "Un\u00eb": 1233,
  "ojn\u00eb": 1234,
  "\u2581makes": 1235,
  "\u25811,": 1236,
  "\u2581Macedonia": 1237,
  "\u2581promise": 1238,
  "\u2581lloj": 1239,
  "\u2581Serbian": 1240,
  "\u2581Jehovain": 1241,
  "\u2581\u2022": 1242,
  "\u25819": 1243,
  "Po": 1244,
  "\u2581kujdes": 1245,
  "V": 1246,
  "\u2581muaj": 1247,
  "\u2581months": 1248,
  "\u2581business": 1249,
  "\u2581shohim": 1250,
  "\u2581Peter": 1251,
  "\u2581ready": 1252,
  "\u2581moment": 1253,
  "\u2581servants": 1254,
  "sh\u00ebm": 1255,
  "\u2581ndihm\u00eb": 1256,
  "\u2581trust": 1257,
  "\u2581duan": 1258,
  "\u2581however": 1259,
  "\u2581once": 1260,
  "\u2581deal": 1261,
  "\u2581lumtur": 1262,
  "\u25816:": 1263,
  "eth": 1264,
  "\u2581often": 1265,
  "ast": 1266,
  "\u2581marr": 1267,
  "\u2581ate": 1268,
  "\u2581party": 1269,
  "\u2581af\u00ebr": 1270,
  "\u2581turned": 1271,
  "\u2581Europe": 1272,
  "\u2581Lo": 1273,
  "\u2581Mendoj": 1274,
  "\u2581whatever": 1275,
  "\u2581point": 1276,
  "\u2581Zi": 1277,
  "ar": 1278,
  "\u2581thuaj": 1279,
  "em": 1280,
  "\u2581World": 1281,
  "\u2581derisa": 1282,
  "\u2581began": 1283,
  "\u2581duart": 1284,
  "\u2581Will": 1285,
  "\u2581side": 1286,
  "\u2581sht\u00ebpin\u00eb": 1287,
  "\u2581k\u00ebrkuar": 1288,
  "\u2581Father": 1289,
  "\u2581soul": 1290,
  "\u2581possible": 1291,
  "\u2581shume": 1292,
  "\u2581prind\u00ebrit": 1293,
  "\u2581information": 1294,
  "K": 1295,
  "\u2581un": 1296,
  "\u2581Gjithashtu": 1297,
  "\u2581pay": 1298,
  "\u2581heaven": 1299,
  "\u25812.": 1300,
  "\u2581shkuar": 1301,
  "\u2581shpesh": 1302,
  "\u2581week": 1303,
  "\u2581teje": 1304,
  "\u2581prandaj": 1305,
  "\u2581Even": 1306,
  "pa": 1307,
  "\u2581Atij": 1308,
  "esh": 1309,
  "\u2581Word": 1310,
  "F": 1311,
  "\u2581righteous": 1312,
  "ce": 1313,
  "\u2581tok\u00ebn": 1314,
  "\u2581gjendje": 1315,
  "\u2581Take": 1316,
  "\u2581group": 1317,
  "imin": 1318,
  "\u2581gotta": 1319,
  "ro": 1320,
  "\u2581past": 1321,
  "\u2581din\u00eb": 1322,
  "shme": 1323,
  "\u2581gjall\u00eb": 1324,
  "\u2581tilla": 1325,
  "\u2581along": 1326,
  "\u2581boy": 1327,
  "U": 1328,
  "\u2581UN": 1329,
  "\u2581uj\u00eb": 1330,
  "\u2581actually": 1331,
  "\u2581Izraelit": 1332,
  "\u2581body": 1333,
  "\u2581reward": 1334,
  "\u2581LORD": 1335,
  "\u258124": 1336,
  "\u2581small": 1337,
  "imit": 1338,
  "\u2581Sigurisht": 1339,
  "\u2581local": 1340,
  "\u2581neither": 1341,
  "\u2581m\u00ebsuar": 1342,
  "\u2581Greek": 1343,
  "\u2581taking": 1344,
  "\u2581Figura": 1345,
  "Do": 1346,
  "\u2581Messenger": 1347,
  "able": 1348,
  "\u2581ndihmoj\u00eb": 1349,
  "ani": 1350,
  "\u2581Prit": 1351,
  "\u2581international": 1352,
  "\u2581gone": 1353,
  "\u2581sin": 1354,
  "\u258150": 1355,
  "\u2581Belgrade": 1356,
  "\u2581gjetur": 1357,
  "You": 1358,
  "\u2581Right": 1359,
  "\u2581former": 1360,
  "\u2581..": 1361,
  "\u2581Dr": 1362,
  "\u2581happy": 1363,
  "\u2581sjell": 1364,
  "\u2581sign": 1365,
  "\u2581following": 1366,
  "\u2581question": 1367,
  "\u2581apostle": 1368,
  "\u258121": 1369,
  "\u2581ca": 1370,
  "\u2581milion": 1371,
  "\u2581N": 1372,
  "\u2581mundur": 1373,
  "\u2581working": 1374,
  "\u2581Southeast": 1375,
  "\u2581including": 1376,
  "\u2581popullit": 1377,
  "\u2581wrote": 1378,
  "\u2581service": 1379,
  "\u2581answer": 1380,
  "\u2581Jerusalem": 1381,
  "\u2581lives": 1382,
  "\u2581jon\u00eb": 1383,
  "\u2581met": 1384,
  "\u2581room": 1385,
  "\u2581idea": 1386,
  "\u258122": 1387,
  "Ne": 1388,
  "\u2581wants": 1389,
  "\u2581dashuri": 1390,
  "\u2581within": 1391,
  "ku": 1392,
  "\u2581pari": 1393,
  "\u2581listen": 1394,
  "\u2581rast": 1395,
  "\u2581prayer": 1396,
  "\u2581From": 1397,
  "\u2581W": 1398,
  "\u2581mire": 1399,
  "\u2581dreqin": 1400,
  "\u2581report": 1401,
  "\u2581view": 1402,
  "\u2581krishter\u00ebt": 1403,
  "\u2581serve": 1404,
  "\u2581Nd\u00ebrsa": 1405,
  "\u2581pyetje": 1406,
  "\u258140": 1407,
  "\u2581revealed": 1408,
  "Y": 1409,
  "\u2581works": 1410,
  "\u2581Ah": 1411,
  "nin": 1412,
  "\u2581stand": 1413,
  "\u2581biblike": 1414,
  "\u2581shohin": 1415,
  "\u2581special": 1416,
  "\u2581Thus": 1417,
  "\u2581run": 1418,
  "\u2581njohur": 1419,
  "\u2581ways": 1420,
  "\u2581d\u00ebnim": 1421,
  "q\u00eb": 1422,
  "\u2581Croatia": 1423,
  "\u2581dot": 1424,
  "\u2581rest": 1425,
  "\u2581members": 1426,
  "\u2581argumentet": 1427,
  "\u2581personal": 1428,
  "\u2581wanna": 1429,
  "\u2581#": 1430,
  "\u2581See": 1431,
  "\u2581dobi": 1432,
  "\u2581De": 1433,
  "\u2581Pavli": 1434,
  "\u2581baby": 1435,
  "ues": 1436,
  "de": 1437,
  "no": 1438,
  "ter": 1439,
  "ohen": 1440,
  "\u2581An": 1441,
  "\u2581Yet": 1442,
  "\u2581Zotin": 1443,
  "\u2581door": 1444,
  "\u2581Epo": 1445,
  "\u2581askush": 1446,
  "\u2581d\u00ebgjuar": 1447,
  "\u2581ndonj\u00ebher\u00eb": 1448,
  "\u2581sy": 1449,
  "\u2581lart": 1450,
  "da": 1451,
  "\u2581problems": 1452,
  "\u2581religion": 1453,
  "\u2581japin": 1454,
  "5": 1455,
  "\u2581zgjedhur": 1456,
  "\u2581plot": 1457,
  "\u2581zemrat": 1458,
  "\u2581reja": 1459,
  "\u2581People": 1460,
  "zi": 1461,
  "\u2581economic": 1462,
  "\u2581account": 1463,
  "\u2581nesh": 1464,
  "\u2581thua": 1465,
  "is": 1466,
  "\u2581treguar": 1467,
  "\u2581ministry": 1468,
  "\u2581needs": 1469,
  "N": 1470,
  "son": 1471,
  "\u2581L": 1472,
  "\u2581b\u00ebnte": 1473,
  "\u2581menj\u00ebher\u00eb": 1474,
  "\u2581least": 1475,
  "\u2581dyt\u00eb": 1476,
  "\u2581punuar": 1477,
  "\u2581therefore": 1478,
  "oni": 1479,
  "It": 1480,
  "\u2581Wait": 1481,
  "\u2581pes\u00eb": 1482,
  "\u2581continue": 1483,
  "\u2581jem": 1484,
  "\u2581According": 1485,
  "\u2581pos": 1486,
  "\u2581situation": 1487,
  "\u2581meje": 1488,
  "\u2581whether": 1489,
  "\u2581sons": 1490,
  "\u2581Prime": 1491,
  "\u2581l\u00eb": 1492,
  "\u2581died": 1493,
  "\u2581V\u00ebrtet": 1494,
  "\u2581month": 1495,
  "\u2581fal\u00eb": 1496,
  "Kur": 1497,
  "\u2581Hello": 1498,
  "\u2581shumica": 1499,
  "\u2581King": 1500,
  "\u2581control": 1501,
  "\u2581gjithnj\u00eb": 1502,
  "\u2581security": 1503,
  "\u2581early": 1504,
  "\u2581drink": 1505,
  "\u2581ndihmuar": 1506,
  "\u2581faithful": 1507,
  "\u2581seek": 1508,
  "\u2581euros": 1509,
  "ohet": 1510,
  "\u2581koha": 1511,
  "\u2581six": 1512,
  "\u2581p\u00ebrdorur": 1513,
  "\u2581Hajde": 1514,
  "\u2581folur": 1515,
  "\u2581United": 1516,
  "\u2581Man": 1517,
  "\u2581myself": 1518,
  "\u2581share": 1519,
  "\u2581fillim": 1520,
  "\u2581thinking": 1521,
  "\u0117": 1522,
  "\u2581easy": 1523,
  "\u2581R": 1524,
  "\u2581besimtar\u00eb": 1525,
  "\u2581besuar": 1526,
  "\u2581fat": 1527,
  "\u2581witness": 1528,
  "\u2581Images": 1529,
  "\u2581menduar": 1530,
  "\u2581r\u00ebnd\u00eb": 1531,
  "\u2581present": 1532,
  "ton": 1533,
  "\u2581hap": 1534,
  "\u2581play": 1535,
  "\u2581flet": 1536,
  "\u2581husband": 1537,
  "\u2581pun\u00ebn": 1538,
  "os": 1539,
  "\u2581towards": 1540,
  "\u2581thash\u00eb": 1541,
  "\u2581or\u00eb": 1542,
  "\u2581angels": 1543,
  "\u2581grup": 1544,
  "\u258127": 1545,
  "\u2581ish": 1546,
  "\u2581guidance": 1547,
  "\u2581Maybe": 1548,
  "\u2581lead": 1549,
  "\u2581em\u00ebr": 1550,
  "\u2581hapur": 1551,
  "\u2581Stop": 1552,
  "\u2581Al": 1553,
  "\u2581strong": 1554,
  "\u2581\u00e7\u00ebshtje": 1555,
  "\u2581process": 1556,
  "est": 1557,
  "\u2581command": 1558,
  "\u2581zjarr": 1559,
  "\u2581cut": 1560,
  "\u2581Surely": 1561,
  "Getty": 1562,
  "\u2581Shko": 1563,
  "\u2581line": 1564,
  "\u2581tok\u00ebs": 1565,
  "\u2581Like": 1566,
  "\u2581above": 1567,
  "\u2581Us": 1568,
  "\u2581n\u00ebp\u00ebrmjet": 1569,
  "\u2581grua": 1570,
  "\u2581started": 1571,
  "\u2581d\u00ebnimi": 1572,
  "\u2581marrim": 1573,
  "\u2581doja": 1574,
  "\u2581needed": 1575,
  "\u2581Abraham": 1576,
  "nd": 1577,
  "\u2581certain": 1578,
  "\u2581OK": 1579,
  "\u2581Kemi": 1580,
  "\u2581believed": 1581,
  "\u2581besoj": 1582,
  "\u2581dal\u00eb": 1583,
  "\u2581une": 1584,
  "\u2581Kurse": 1585,
  "\u2581half": 1586,
  "\u2581million": 1587,
  "\u2581none": 1588,
  "nga": 1589,
  "\u2581therein": 1590,
  "\u2581century": 1591,
  "\u2581v\u00ebrteta": 1592,
  "\u2581Yahweh": 1593,
  "\u00ebsh": 1594,
  "\u2581popull": 1595,
  "\u2581Tha": 1596,
  "\u2581cilit": 1597,
  "\u2581Mi": 1598,
  "\u2581ra": 1599,
  "\u2581p\u00ebrse": 1600,
  "\u2581result": 1601,
  "\u2581shtat\u00eb": 1602,
  "\u2581Albania": 1603,
  "\u2581Jezu": 1604,
  "\u2581l": 1605,
  "\u2581yeah": 1606,
  "v": 1607,
  "\u2581everyone": 1608,
  "2": 1609,
  "lo": 1610,
  "ej": 1611,
  "ness": 1612,
  "\u2581Turkish": 1613,
  "\u2581pret": 1614,
  "\u2581qytet": 1615,
  "za": 1616,
  "\u2581p\u00ebrgjithmon\u00eb": 1617,
  "This": 1618,
  "hej": 1619,
  "\u2581vesh": 1620,
  "\u2581shkroi": 1621,
  "\u2581top": 1622,
  "\u2581received": 1623,
  "\u2581thoshte": 1624,
  "\u2581jeta": 1625,
  "\u2581La": 1626,
  "and": 1627,
  "\u2581100": 1628,
  "oj\u00eb": 1629,
  "\u2581company": 1630,
  "el": 1631,
  "\u2581Fire": 1632,
  "\u2581receive": 1633,
  "\u2581wish": 1634,
  "\u2581remain": 1635,
  "\u2581Give": 1636,
  "\u2581tashm\u00eb": 1637,
  "\u2581num\u00ebr": 1638,
  "\u2581besimin": 1639,
  "\u2581verily": 1640,
  "dhe": 1641,
  "\u258126": 1642,
  "\u2581arritur": 1643,
  "\u2581nat\u00ebn": 1644,
  "oi": 1645,
  "pi": 1646,
  "\u2581familjen": 1647,
  "\u2581consider": 1648,
  "What": 1649,
  "\u2581kryesore": 1650,
  "\u2581town": 1651,
  "\u2581visit": 1652,
  "\u2581dim\u00eb": 1653,
  "\u2581nation": 1654,
  "\u2581del": 1655,
  "\u2581frymore": 1656,
  "\u2581decision": 1657,
  "\u2581\u00c7do": 1658,
  "\u2581age": 1659,
  "\u2581besuan": 1660,
  "\u2581Many": 1661,
  "\u2581tri": 1662,
  "\u25814.": 1663,
  "\u2581questions": 1664,
  "\u2581holy": 1665,
  "\u2581May": 1666,
  "\u2581koh\u00ebs": 1667,
  "\u2581plot\u00ebsisht": 1668,
  "\u2581popullin": 1669,
  "\u2581happen": 1670,
  "1": 1671,
  "\u2581walk": 1672,
  "\u2581thuash": 1673,
  "\u2581US": 1674,
  "\u2581ha": 1675,
  "\u2581kesh": 1676,
  "for": 1677,
  "\u2581nice": 1678,
  "\u2581Bashkuara": 1679,
  "\u2581seven": 1680,
  "\u2581Ha": 1681,
  "\u2581Mbret\u00ebris\u00eb": 1682,
  "\u2581grat\u00eb": 1683,
  "\u2581issue": 1684,
  "\u2581Krishtit": 1685,
  "\u2581'%": 1686,
  "\u2581politike": 1687,
  "lla": 1688,
  "\u2581kohe": 1689,
  "jn\u00eb": 1690,
  "\u2581toward": 1691,
  "\u2581desire": 1692,
  "\u2581filloi": 1693,
  "\u2581nations": 1694,
  "\u2581sea": 1695,
  "\u2581shiko": 1696,
  "\u2581Southe": 1697,
  "\u2581Tell": 1698,
  "\u2581thell\u00eb": 1699,
  "\u2581jap": 1700,
  "\u2581held": 1701,
  "\u2581project": 1702,
  "\u2581path": 1703,
  "\u2581president": 1704,
  "\u2581zemr\u00ebn": 1705,
  "\u2581enter": 1706,
  "\u2581Bulgaria": 1707,
  "bi": 1708,
  "\u2581H": 1709,
  "\u2581ketu": 1710,
  "\u2581gjasht\u00eb": 1711,
  "\u2581isn": 1712,
  "\u2581OKB": 1713,
  "\u2581lir\u00eb": 1714,
  "\u2581V": 1715,
  "\u2581region": 1716,
  "\u2581puna": 1717,
  "\"?": 1718,
  "\u2581Mary": 1719,
  "\u2581Adam": 1720,
  "\u2581fall": 1721,
  "\u2581\u25a1": 1722,
  "\u2581jav\u00eb": 1723,
  "\u2581sense": 1724,
  "\u2581ndodhur": 1725,
  "\u2581ndodh\u00eb": 1726,
  "pejgamber": 1727,
  "ga": 1728,
  "\u2581States": 1729,
  "\u2581talks": 1730,
  "iu": 1731,
  "\u2581njeriut": 1732,
  "\u2581K\u00ebtu": 1733,
  "\u2581gives": 1734,
  "\u2581rritur": 1735,
  "\u2581doubt": 1736,
  "\u2581k\u00ebrkojn\u00eb": 1737,
  "\u2581k\u00eb": 1738,
  "\u2581tregojn\u00eb": 1739,
  "\u2581hours": 1740,
  "\u2581Greece": 1741,
  "\u2581ten": 1742,
  "ist": 1743,
  "\u2581purpose": 1744,
  "\u2581Thanks": 1745,
  "\u2581Di": 1746,
  "\u2581cil\u00ebve": 1747,
  "\u2581late": 1748,
  "\u2581provide": 1749,
  "\u2581yourselves": 1750,
  "\u2581Verily": 1751,
  "\u2581duhur": 1752,
  "\u2581list": 1753,
  "\u258129": 1754,
  "\u2581ishe": 1755,
  "\u2581babai": 1756,
  "il": 1757,
  "\u2581rinj": 1758,
  "\u2581mendojn\u00eb": 1759,
  "\u2581Would": 1760,
  "\u258131": 1761,
  "\u2581bir": 1762,
  "ation": 1763,
  "\u2581Gjat\u00eb": 1764,
  "j\u00eb": 1765,
  "\u2581helped": 1766,
  "\u2581nj\u00ebjt\u00ebn": 1767,
  "ah": 1768,
  "\u2581falni": 1769,
  "go": 1770,
  "\u258123": 1771,
  "\u2581beautiful": 1772,
  "\u2581jap\u00eb": 1773,
  "nte": 1774,
  "\u2581thus": 1775,
  "Z": 1776,
  "\u2581doni": 1777,
  "\u2581donte": 1778,
  "\u2581Pasi": 1779,
  "\u2581feet": 1780,
  "\u2581inside": 1781,
  "\u2581story": 1782,
  "\u2581sapo": 1783,
  "\u2581luft\u00ebs": 1784,
  "\u2581respect": 1785,
  "\u2581minutes": 1786,
  "\u2581act": 1787,
  "\u2581wasn": 1788,
  "\u2581ditur": 1789,
  "\u2581m\u00ebnyra": 1790,
  "\u2581veprat": 1791,
  "\u2581gra": 1792,
  "\u2581mbajtur": 1793,
  "\u2581god": 1794,
  "\u2581daughter": 1795,
  "\u2581pun\u00ebs": 1796,
  "\u2581b\u00ebhen": 1797,
  "\u2581vetes": 1798,
  "All": 1799,
  "\u2581further": 1800,
  "\u2581Their": 1801,
  "ore": 1802,
  "\u2581less": 1803,
  "\u2581sesa": 1804,
  "\u2581shok": 1805,
  "\u258128": 1806,
  "oj": 1807,
  "\u2581c": 1808,
  "\u2581promised": 1809,
  "\u2581dik\u00eb": 1810,
  "\u25813.": 1811,
  "\u2581tjer\u00ebve": 1812,
  "\u2581fjal\u00ebn": 1813,
  "\u2581vdekjes": 1814,
  "\u2581Romania": 1815,
  "\u2581fuqi": 1816,
  "\u2581marriage": 1817,
  "am": 1818,
  "\u2581Dit\u00ebn": 1819,
  "\u2581Bibl\u00ebn": 1820,
  "\u2581key": 1821,
  "\u2581flas": 1822,
  "\u2581states": 1823,
  "\u2581past\u00ebr": 1824,
  "\u2581almost": 1825,
  "\u2581vjet\u00ebr": 1826,
  "\u2581kuptoj": 1827,
  "\u2581shpejt\u00eb": 1828,
  "\u2581religious": 1829,
  "\u2581wisdom": 1830,
  "\u2581tjetrin": 1831,
  "ha": 1832,
  "\u2581felt": 1833,
  "\u2581office": 1834,
  "\u2581marr\u00ebveshje": 1835,
  "\u2581cent": 1836,
  "\u2581single": 1837,
  "\u2581Uh": 1838,
  "\u2581experience": 1839,
  "\u2581d\u00ebgjon": 1840,
  "\u2581position": 1841,
  "\u2581Could": 1842,
  "\u2581vendeve": 1843,
  "\u2581tried": 1844,
  "\u2581appointed": 1845,
  "\u2581sun": 1846,
  "\u2581giving": 1847,
  "\u2581Son": 1848,
  "\u2581Sorry": 1849,
  "\u2581Per": 1850,
  "\u2581article": 1851,
  "\u2581rather": 1852,
  "\u2581SHBA": 1853,
  "\u2581lie": 1854,
  "\u2581p\u00ebrqind": 1855,
  "\u2581hurt": 1856,
  "\u2581pass": 1857,
  "isht": 1858,
  "\u2581Dad": 1859,
  "08": 1860,
  "\u258110.": 1861,
  "ovic": 1862,
  "\u2581Jan\u00eb": 1863,
  "\u2581serious": 1864,
  "\u2581forever": 1865,
  "\u2581dhjet\u00eb": 1866,
  "\u25aa": 1867,
  "\u2581beson": 1868,
  "\u2581foreign": 1869,
  "\u2581Fuck": 1870,
  "\u2581librin": 1871,
  "hu": 1872,
  "\u2581m\u00ebngjes": 1873,
  "\u2581burr\u00eb": 1874,
  "\u2581minuta": 1875,
  "ul": 1876,
  "\u2581provided": 1877,
  "\u2581Ri": 1878,
  "ova": 1879,
  "\u2581k\u00ebnaqur": 1880,
  "tar": 1881,
  "\u2581Bosnia": 1882,
  "\u2581difficult": 1883,
  "she": 1884,
  "\u2581shkojn\u00eb": 1885,
  "\u2581vje\u00e7": 1886,
  "be": 1887,
  "\u2581watch": 1888,
  "all": 1889,
  "\u2581either": 1890,
  "ng": 1891,
  "\u2581fundi": 1892,
  "\u2581York": 1893,
  "uese": 1894,
  "\u2581phone": 1895,
  "anin": 1896,
  "\u2581Does": 1897,
  "\u2581b\u00ebra": 1898,
  "operation": 1899,
  "\u2581large": 1900,
  "\u2581program": 1901,
  "\u2581dit\u00ebt": 1902,
  "\u2581familje": 1903,
  "\u2581pjes\u00ebn": 1904,
  "\u2581self": 1905,
  "ale": 1906,
  "\u2581Mark": 1907,
  "\u2581area": 1908,
  "kemi": 1909,
  "\u2581shoku": 1910,
  "\u2581viteve": 1911,
  "\u2581alive": 1912,
  "\u2581kthyer": 1913,
  "men": 1914,
  "\u2581andaj": 1915,
  "\u2581front": 1916,
  "ca": 1917,
  "\u2581djal\u00eb": 1918,
  "\u2581expected": 1919,
  "\u2581maybe": 1920,
  "\u2581afraid": 1921,
  "\u2581agreement": 1922,
  "\u2581baz\u00eb": 1923,
  "\u2581Matthew": 1924,
  "\u25815.": 1925,
  "\u2581ahead": 1926,
  "\u2581pro": 1927,
  "\u2581learned": 1928,
  "\u2581Great": 1929,
  "\u2581Sot": 1930,
  "\u2581duam": 1931,
  "\u2581pre": 1932,
  "r\u00eb": 1933,
  "\u2581Such": 1934,
  "\u2581bit": 1935,
  "\u2581history": 1936,
  "\u2581parat\u00eb": 1937,
  "\u2581prapa": 1938,
  "\u2581break": 1939,
  "\u258112:": 1940,
  "\u2581benefit": 1941,
  "\u2581poor": 1942,
  "\u2581J": 1943,
  "\u2581guide": 1944,
  "\u2581shpallur": 1945,
  "\u2581b\u00ebnin": 1946,
  "\u2581reach": 1947,
  "\u2581vrar\u00eb": 1948,
  "\u2581humans": 1949,
  "\u2581using": 1950,
  "\u2581Para": 1951,
  "\u2581deny": 1952,
  "\u2581f\u00ebmij\u00ebve": 1953,
  "\u2581familjes": 1954,
  "\u2581vite": 1955,
  "\u2581Listen": 1956,
  "\u2581Ato": 1957,
  "\u25817.": 1958,
  "\u2581kishim": 1959,
  "\u2581bear": 1960,
  "\u2581ndihmojn\u00eb": 1961,
  "\u2581due": 1962,
  "\u2581ve\u00e7ant\u00eb": 1963,
  "\u2581nd\u00ebrmjet": 1964,
  "L": 1965,
  "\u2581building": 1966,
  "\u2581evidence": 1967,
  "\u2581gabuar": 1968,
  "ch": 1969,
  "\u2581create": 1970,
  "\u2581ekonomike": 1971,
  "\u2581sister": 1972,
  "ba": 1973,
  "\u2581member": 1974,
  "\u2581mban": 1975,
  "\u2581Jehova": 1976,
  "\u2581raised": 1977,
  "R": 1978,
  "\u2581besimtar\u00ebt": 1979,
  "\u2581destroyed": 1980,
  "\u2581gabim": 1981,
  "\u2581accept": 1982,
  "\u2581mine": 1983,
  "\u2581mrekullueshme": 1984,
  "\u2581takon": 1985,
  "\u2581sleep": 1986,
  "\u2581shkruar": 1987,
  "\u2581longer": 1988,
  "\u2581thjesht\u00eb": 1989,
  "\u2581step": 1990,
  "\u2581concerning": 1991,
  "osh": 1992,
  "\u2581Ra": 1993,
  "\u2581sh\u00ebrbimin": 1994,
  "\u2581health": 1995,
  "3": 1996,
  "\u2581military": 1997,
  "q": 1998,
  "\u2581z\u00eb": 1999,
  "\u2581tregoi": 2000,
  "\u2581v\u00eb": 2001,
  "\u2581wouldn": 2002,
  "\u2581married": 2003,
  "\u2581Musa": 2004,
  "\u2581form": 2005,
  "\u2581Prophet": 2006,
  "\u2581disciples": 2007,
  "\u2581enjoy": 2008,
  "\u2581ndihmon": 2009,
  "uni": 2010,
  "\u2581Really": 2011,
  "\u2581language": 2012,
  "ish": 2013,
  "\u2581Dy": 2014,
  "\u2581safe": 2015,
  "\u2581creation": 2016,
  "\u2581merrni": 2017,
  "\u2581outside": 2018,
  "\u2581tregoj": 2019,
  "\u25818.": 2020,
  "\u2581wicked": 2021,
  "\u2581force": 2022,
  "\u2581mohues": 2023,
  "\u2581short": 2024,
  "\u2581torment": 2025,
  "\u2581luft\u00eb": 2026,
  "\u2581goes": 2027,
  "\u2581v\u00ebllez\u00ebrit": 2028,
  "ari": 2029,
  "\u2581whoever": 2030,
  "\u2581K\u00ebt\u00eb": 2031,
  "\u2581Ose": 2032,
  "\u2581p\u00ebrket": 2033,
  "\u2581greater": 2034,
  "\u2581toka": 2035,
  "\u2581While": 2036,
  "\u2581offer": 2037,
  "\u2581spend": 2038,
  "\u2581qiej": 2039,
  "\u2581especially": 2040,
  "\u2581several": 2041,
  "\u2581sins": 2042,
  "\u2581mik": 2043,
  "\u2581taught": 2044,
  "ty": 2045,
  "ki": 2046,
  "\u2581qeveria": 2047,
  "\u2581International": 2048,
  "kur": 2049,
  "\u2581led": 2050,
  "\u2581m\u00ebkat": 2051,
  "\u2581preaching": 2052,
  "\u2581likely": 2053,
  "\u2581Jews": 2054,
  "\u2581argument": 2055,
  "\u2581Jemi": 2056,
  "\u2581joy": 2057,
  "\u2581Une": 2058,
  "\u2581forgive": 2059,
  "\u2581interest": 2060,
  "He": 2061,
  "\u2581Monday": 2062,
  "\u2581ndryshe": 2063,
  "\u2581ardhmen": 2064,
  "\u2581mbetet": 2065,
  "\u2581h\u00ebn\u00ebn": 2066,
  "\u2581hit": 2067,
  "\u2581viti": 2068,
  "\u2581kept": 2069,
  "\u2581vajza": 2070,
  "\u2581zot": 2071,
  "\u2581qiell": 2072,
  "\u2581leaders": 2073,
  "\u2581term": 2074,
  "\u2581art": 2075,
  "\u2581r\u00ebnd\u00ebsi": 2076,
  "\u2581team": 2077,
  "\u2581Psalm": 2078,
  "\u2581attention": 2079,
  "\u2581shp\u00ebrblim": 2080,
  "\u2581d\u00ebnimin": 2081,
  "\u2581mendoni": 2082,
  "\u2581Merciful": 2083,
  "ent": 2084,
  "\u2581krye": 2085,
  "Nuk": 2086,
  "\u2581ide": 2087,
  "lu": 2088,
  "\u2581authority": 2089,
  "\u2581current": 2090,
  "\u2581efforts": 2091,
  "\u2581warn": 2092,
  "\u2581Serbi": 2093,
  "\u2581private": 2094,
  "\u2581minister": 2095,
  "\u2581media": 2096,
  "\u2581gjej": 2097,
  "\u2581huh": 2098,
  "\u2581video": 2099,
  "If": 2100,
  "ojm\u00eb": 2101,
  "\u2581pretty": 2102,
  "ullum": 2103,
  "\u2581fellow": 2104,
  "\u2581megjithat\u00eb": 2105,
  "\u2581event": 2106,
  "\u2581S\u00eb": 2107,
  "\u2581astray": 2108,
  "\u2581worry": 2109,
  "ovi\u00e7": 2110,
  "\u2581Serbis\u00eb": 2111,
  "so": 2112,
  "\u25816.": 2113,
  "\u2581ourselves": 2114,
  "\u2581followed": 2115,
  "ment": 2116,
  "\u2581krijoi": 2117,
  "\u2581ishim": 2118,
  "\u2581rruga": 2119,
  "\u2581shihni": 2120,
  "\u2581Muhammad": 2121,
  "\u2581frym\u00eb": 2122,
  "he": 2123,
  "\u2581kthehet": 2124,
  "\u2581perfect": 2125,
  "co": 2126,
  "jet": 2127,
  "\u2581Watch": 2128,
  "\u2581mendjen": 2129,
  "\u2581officials": 2130,
  "\u2581waiting": 2131,
  "\u2581k": 2132,
  "\u2581Sikur": 2133,
  "jen": 2134,
  "\u25819.": 2135,
  "\u2581pik\u00eb": 2136,
  "\u258110:": 2137,
  "\u2581themi": 2138,
  "\u2581guess": 2139,
  "k\u00eb": 2140,
  "\u2581neve": 2141,
  "\u2581flasim": 2142,
  "\u2581japim": 2143,
  "\u2581zemra": 2144,
  "\u2581test": 2145,
  "\u2581Bank": 2146,
  "\u2581community": 2147,
  "\u2581authorities": 2148,
  "\u2581probleme": 2149,
  "\u2581chance": 2150,
  "\u2581fjala": 2151,
  "\u2581changed": 2152,
  "\u2581Solomon": 2153,
  "\u2581Two": 2154,
  "\u2581X": 2155,
  "\u2581build": 2156,
  "\u2581sound": 2157,
  "\u2581truly": 2158,
  "\u2581serb": 2159,
  "\u2581Croatian": 2160,
  "\u2581energy": 2161,
  "\u2581ushqim": 2162,
  "\u2581kthehen": 2163,
  "\u258111:": 2164,
  "\u2581protect": 2165,
  "ion": 2166,
  "nj\u00eb": 2167,
  "\u2581final": 2168,
  "\u2581emri": 2169,
  "\u2581thoni": 2170,
  "\u2581pray": 2171,
  "\u2581Dur": 2172,
  "\u2581\u266a": 2173,
  "\u2581vdiq": 2174,
  "\u2581gjendet": 2175,
  "\u2581kurrfar": 2176,
  "\u2581dollar\u00eb": 2177,
  "\u2581k\u00ebnaq\u00ebsi": 2178,
  "\u258112.": 2179,
  "\u2581probably": 2180,
  "\u2581Scriptures": 2181,
  "\u2581thank": 2182,
  "qe": 2183,
  "\u2581address": 2184,
  "\u2581gruaja": 2185,
  "\u2581loving": 2186,
  "\u2581forget": 2187,
  "\u2581duhen": 2188,
  "\u2581P\u00ebrve\u00e7": 2189,
  "\u2581added": 2190,
  "\u2581doj\u00eb": 2191,
  "\u258111.": 2192,
  "\u2581gjuh\u00ebn": 2193,
  "\u2581bar": 2194,
  "\u2581nevojshme": 2195,
  "\u2581sht\u00ebpia": 2196,
  "\u2581couple": 2197,
  "\u2581jetojn\u00eb": 2198,
  "\u2581progress": 2199,
  "\u2581rrug\u00ebs": 2200,
  "\u2581bijt\u00eb": 2201,
  "\u2581dija": 2202,
  "\u2581sakt\u00eb": 2203,
  "\u2581voice": 2204,
  "\u2581ekziston": 2205,
  "W": 2206,
  "\u2581justice": 2207,
  "\u2581involved": 2208,
  "\u2581takes": 2209,
  "\u2581error": 2210,
  "\u2581Although": 2211,
  "\u2581ground": 2212,
  "\u2581Since": 2213,
  "dijsh\u00ebm": 2214,
  "\u2581ancient": 2215,
  "\u2581Hell": 2216,
  "\u2581relationship": 2217,
  "\u2581uh": 2218,
  "\u2581vajz\u00eb": 2219,
  "\u2581returned": 2220,
  "\u2581kishe": 2221,
  "\u2581moved": 2222,
  "\u2581Keep": 2223,
  "\u2581kupton": 2224,
  "\u2581third": 2225,
  "\u2581passed": 2226,
  "\u258114.": 2227,
  "\u2581qielli": 2228,
  "\u2581increase": 2229,
  "\u2581fast": 2230,
  "\u2581filluar": 2231,
  "\u2581tree": 2232,
  "\u2581hour": 2233,
  "mo": 2234,
  "\u2581field": 2235,
  "\u2581join": 2236,
  "\u2581avoid": 2237,
  "\u2581James": 2238,
  "\u2581obey": 2239,
  "\u2581Ok": 2240,
  "\u2581write": 2241,
  "\u2581decided": 2242,
  "\u2581Un": 2243,
  "\u2581sigurt\u00eb": 2244,
  "ad": 2245,
  "\u2581social": 2246,
  "ck": 2247,
  "min": 2248,
  "\u2581njer\u00ebzore": 2249,
  "\u2581falje": 2250,
  "\u2581strength": 2251,
  "\u2581milion\u00eb": 2252,
  "\u2581mu": 2253,
  "\u2581qytetit": 2254,
  "\u258113.": 2255,
  "\u2581kid": 2256,
  "\u2581\"%": 2257,
  "\u2581yes": 2258,
  "\u2581wise": 2259,
  "\u2581teach": 2260,
  "up": 2261,
  "\u2581Ho": 2262,
  "\u2581written": 2263,
  "fi": 2264,
  "\u2581Psalmi": 2265,
  "\u2581drejtuar": 2266,
  "\u2581guided": 2267,
  "\u2581Therefore": 2268,
  "\u2581Mom": 2269,
  "\u2581bindur": 2270,
  "\u2581changes": 2271,
  "\u2581jane": 2272,
  "\u2581unbelievers": 2273,
  "Kjo": 2274,
  "\u2581favor": 2275,
  "\u2581vdes": 2276,
  "\u2581k\u00ebmb\u00eb": 2277,
  "\u2581sht\u00ebpis\u00eb": 2278,
  "\u2581sight": 2279,
  "\u2581Albanian": 2280,
  "\u2581ndaluar": 2281,
  "\u2581rritje": 2282,
  "bo": 2283,
  "jo": 2284,
  "\u2581main": 2285,
  "\u2581Krishti": 2286,
  "Jo": 2287,
  "\u2581percent": 2288,
  "\u2581p\u00ebrgatitur": 2289,
  "tur": 2290,
  "\u25817:": 2291,
  "\u2581seem": 2292,
  "\u2581covenant": 2293,
  "\u2581rri": 2294,
  "\u2581\u00eb": 2295,
  "\u2581chief": 2296,
  "\u2581publik": 2297,
  "\u2581minute": 2298,
  "\u2581qeveris\u00eb": 2299,
  "\u2581mbetur": 2300,
  "\u2581opened": 2301,
  "\u258160": 2302,
  "\u2581tonight": 2303,
  "\u2581Show": 2304,
  "\u2581',": 2305,
  "\u2581based": 2306,
  "\u2581entire": 2307,
  "\u2581kids": 2308,
  "\u2581crimes": 2309,
  "\u2581ndihm\u00ebn": 2310,
  "\u2581reading": 2311,
  "ler": 2312,
  "\u2581Daniel": 2313,
  "\u2581Shtetet": 2314,
  "sht": 2315,
  "\u2581harm": 2316,
  "\u2581date": 2317,
  "ate": 2318,
  "um": 2319,
  "\u2581grave": 2320,
  "\u2581vogla": 2321,
  "\u2581clean": 2322,
  "\u2581shkoi": 2323,
  "\u2581secret": 2324,
  "\u2581crime": 2325,
  "\u2581game": 2326,
  "\u2581kryer": 2327,
  "/11": 2328,
  "\u2581forgiveness": 2329,
  "\u2581common": 2330,
  "\u2581court": 2331,
  "\u2581wealth": 2332,
  "\u2581humbje": 2333,
  "/10": 2334,
  "\u2581born": 2335,
  "\u2581complete": 2336,
  "\u2581air": 2337,
  "\u2581gjejm\u00eb": 2338,
  "\u258115.": 2339,
  "\u2581fe": 2340,
  "\u2581ain": 2341,
  "\u2581fathers": 2342,
  "\u2581lived": 2343,
  ");": 2344,
  "\u25813,": 2345,
  "\u2581mbar\u00eb": 2346,
  "sin": 2347,
  "\u2581huaj": 2348,
  "\u2581r\u00ebnd\u00ebsish\u00ebm": 2349,
  "\u2581kingdom": 2350,
  "\u2581gold": 2351,
  "\u2581sh\u00ebrbim": 2352,
  "\u2581mbreti": 2353,
  "\u2581saved": 2354,
  "\u2581eye": 2355,
  "\u2581fully": 2356,
  "\u2581bote": 2357,
  "\u2581djema": 2358,
  "\u2581lasht\u00eb": 2359,
  "\u2581counsel": 2360,
  "Zoti": 2361,
  "\u2581haven": 2362,
  "\u2581major": 2363,
  "\u2581lose": 2364,
  "\u25811.": 2365,
  "\u258113:": 2366,
  "\u2581dakord": 2367,
  "ov": 2368,
  "\u2581BR": 2369,
  "\u2581San": 2370,
  "\u2581itself": 2371,
  "%": 2372,
  "\u2581understanding": 2373,
  "\u2581earlier": 2374,
  "\u258117.": 2375,
  "\u2581Mar": 2376,
  "\u2581Only": 2377,
  "\u2581meetings": 2378,
  "\u2581Joseph": 2379,
  "\u2581dit\u00ebs": 2380,
  "\u2581Today": 2381,
  "\u2581Shit": 2382,
  "\u2581looks": 2383,
  "\u2581shikon": 2384,
  "\u2581grow": 2385,
  "\u2581pe": 2386,
  "\u2581period": 2387,
  "di\u00e7": 2388,
  "\u2581road": 2389,
  "\u2581Ben": 2390,
  "\u2581m\u00ebkatet": 2391,
  "jm\u00eb": 2392,
  "\u2581dor\u00ebn": 2393,
  "jes": 2394,
  "\u2581Pharaoh": 2395,
  "\u2581bota": 2396,
  "FOR": 2397,
  "\u2581Co": 2398,
  "\u2581tomorrow": 2399,
  "\u2581status": 2400,
  "per": 2401,
  "\u2581couldn": 2402,
  "\u2581serbe": 2403,
  "\u2581supposed": 2404,
  "\u2581rule": 2405,
  "\u2581Herzegovina": 2406,
  "\u2581Cfare": 2407,
  "\u2581sime": 2408,
  "\u2581caused": 2409,
  "\u2581nd\u00ebrkomb\u00ebtare": 2410,
  "\u2581parasysh": 2411,
  "\u2581sit": 2412,
  "\u2581running": 2413,
  "aj": 2414,
  "\u2581lib\u00ebr": 2415,
  "\u2581crazy": 2416,
  "\u2581flasin": 2417,
  "ze": 2418,
  "\u258116.": 2419,
  "onte": 2420,
  "\u2581Jack": 2421,
  "\u2581K\u00ebta": 2422,
  "My": 2423,
  "rat": 2424,
  "\u2581n": 2425,
  "\u2581mbretit": 2426,
  "\u2581Ko": 2427,
  "\u2581pi": 2428,
  "\u2581vdekje": 2429,
  "\u2581shot": 2430,
  "\u2581sick": 2431,
  "\u2581check": 2432,
  "\u2581Help": 2433,
  "\u2581Noah": 2434,
  "\u2581prepared": 2435,
  "\u2581sukses": 2436,
  "\u2581showed": 2437,
  "\u2581vazhdon": 2438,
  "\u2581doli": 2439,
  "\u2581ngjashme": 2440,
  "\u2581punojn\u00eb": 2441,
  "\u2581gun": 2442,
  "\u2581vitet": 2443,
  "\u2581instead": 2444,
  "\u2581judge": 2445,
  "\u2581kuptojn\u00eb": 2446,
  "T\u00eb": 2447,
  "\u2581argumente": 2448,
  "\u2581data": 2449,
  "\u2581text": 2450,
  "\u2581qarta": 2451,
  "ver": 2452,
  "\u2581d\u00ebgjojn\u00eb": 2453,
  "\u2581prit": 2454,
  "\u2581v\u00eblla": 2455,
  "\u2581America": 2456,
  "\u2581Hereafter": 2457,
  "\u2581Beogradi": 2458,
  "\u2581Davidi": 2459,
  "ity": 2460,
  "\u2581loved": 2461,
  "\u2581Shkojm\u00eb": 2462,
  "\u2581mor\u00ebn": 2463,
  "\u2581allow": 2464,
  "\u2581conduct": 2465,
  "\u2581failed": 2466,
  "ry": 2467,
  "\u2581prophet": 2468,
  "\u2581shkat\u00ebrruar": 2469,
  "\u2581Emri": 2470,
  "\u2581forward": 2471,
  "\u2581seems": 2472,
  "\u2581Ar": 2473,
  "\u2581Which": 2474,
  "\u2581z\u00ebn\u00eb": 2475,
  "\u2581Ki": 2476,
  "\u2581faleminderit": 2477,
  "\u2581njeh": 2478,
  "\u2581action": 2479,
  "\u2581mendje": 2480,
  "\u2581punon": 2481,
  "\u2581qet\u00eb": 2482,
  "\u2581Wednesday": 2483,
  "\u2581quite": 2484,
  "\u2581teaching": 2485,
  "\u2581similar": 2486,
  "\u2581expect": 2487,
  "\u2581vepr\u00ebn": 2488,
  "\u2581dalin": 2489,
  "\u2581dreq": 2490,
  "\u2581thanks": 2491,
  "\u2581exactly": 2492,
  "\u2581hundred": 2493,
  "\u2581b\u00ebm\u00eb": 2494,
  "\u2581lies": 2495,
  "\u2581ve\u00e7an\u00ebrisht": 2496,
  "\u2581Li": 2497,
  "\u2581gods": 2498,
  "\u2581shows": 2499,
  "gji": 2500,
  "by": 2501,
  "\u2581flesh": 2502,
  "\u2581Her": 2503,
  "\u2581elections": 2504,
  "\u2581qytetin": 2505,
  "\u2581\u00c7ka": 2506,
  "ner": 2507,
  "\u2581premtuar": 2508,
  "\u2581prison": 2509,
  "vi": 2510,
  "\u2581Sir": 2511,
  "\u2581belongs": 2512,
  "ave": 2513,
  "\u2581First": 2514,
  "\u2581cast": 2515,
  "\u2581praise": 2516,
  "\u2581Duket": 2517,
  "\u2581p\u00ebrdor": 2518,
  "\u2581ruajtur": 2519,
  "\u2581Kosov\u00eb": 2520,
  "\u2581shkurt": 2521,
  "\u25812,": 2522,
  "\u2581m\u00ebnyr\u00ebn": 2523,
  "\u2581planet": 2524,
  "\u2581till": 2525,
  "\u2581besimi": 2526,
  "\u2581fun": 2527,
  "\u2581p\u00ebrpjekje": 2528,
  "\u2581issues": 2529,
  "\u2581material": 2530,
  "\u2581righteousness": 2531,
  "adic": 2532,
  "\u2581gje": 2533,
  "ren": 2534,
  "7": 2535,
  "\u2581leader": 2536,
  "\u2581considered": 2537,
  "\u2581Got": 2538,
  "\u2581biblik": 2539,
  "\u2581makin\u00eb": 2540,
  "\u2581parties": 2541,
  "\u2581pakt\u00ebn": 2542,
  "\u2581fuqish\u00ebm": 2543,
  "\u2581ashp\u00ebr": 2544,
  "\u2581shpejti": 2545,
  "\u2581vinte": 2546,
  "zo": 2547,
  "\u2581Pav\u00ebl": 2548,
  "\u2581thousand": 2549,
  "\u2581role": 2550,
  "\u2581drive": 2551,
  "\u2581perhaps": 2552,
  "\u2581stuff": 2553,
  "\u2581Party": 2554,
  "ber": 2555,
  "\u2581touch": 2556,
  "\u2581fetare": 2557,
  "\u2581maj": 2558,
  "\u2581P\u00ebrsh\u00ebndetje": 2559,
  "\u2581Tuesday": 2560,
  "\u2581mij\u00eb": 2561,
  "\u2581shk\u00eblqyer": 2562,
  "\u2581corruption": 2563,
  "\u2581miri": 2564,
  "\u00ebm": 2565,
  "\u2581File": 2566,
  "\u2581Bib\u00ebl": 2567,
  "\u2581quajtur": 2568,
  "\u2581across": 2569,
  "\u2581mbaj": 2570,
  "\u2581ndryshuar": 2571,
  "\u2581vetme": 2572,
  "\u2581sinqert\u00eb": 2573,
  "i\u00e7": 2574,
  "\u2581forc\u00eb": 2575,
  "\u2581places": 2576,
  "\u2581Macedonian": 2577,
  "\u2581telling": 2578,
  "\u2581bie": 2579,
  "\u2581More": 2580,
  "\u2581choice": 2581,
  "\u2581Fjala": 2582,
  "\u2581false": 2583,
  "\u2581D\u00ebshmitar\u00ebve": 2584,
  "\u2581fituar": 2585,
  "\u2581matters": 2586,
  "\u2581Mateu": 2587,
  "\u2581paqe": 2588,
  "\u2581familja": 2589,
  "\u2581Isaiah": 2590,
  "\u2581p\u00ebrsosur": 2591,
  "\u2581General": 2592,
  "\u2581k\u00ebrkoj": 2593,
  "ial": 2594,
  "\u2581enemy": 2595,
  "\u2581ngusht\u00eb": 2596,
  "\u2581Make": 2597,
  "\u2581built": 2598,
  "\u2581sky": 2599,
  "\u2581reported": 2600,
  "\u2581Njer\u00ebzit": 2601,
  "\u2581besides": 2602,
  "\u2581b\u00ebja": 2603,
  "\u2581cfare": 2604,
  "ak": 2605,
  "\u2581Ministri": 2606,
  "\u2581kujtohet": 2607,
  "\u2581calls": 2608,
  "\u2581Bot\u00ebrore": 2609,
  "\u2581Hold": 2610,
  "\u2581mouth": 2611,
  "\u2581shkoj\u00eb": 2612,
  "\u2581mountains": 2613,
  "\u2581Eshte": 2614,
  "\u2581Remember": 2615,
  "\u2581gruan": 2616,
  "\u2581national": 2617,
  "\u2581straight": 2618,
  "\u2581\u00e7mendur": 2619,
  "\u2581kryesor": 2620,
  "\u2581Last": 2621,
  "\u2581weeks": 2622,
  "\u2581xhen": 2623,
  "\u2581contact": 2624,
  "\u2581painful": 2625,
  "\u2581djali": 2626,
  "\u2581Askush": 2627,
  "\u2581recent": 2628,
  "\u2581Nothing": 2629,
  "\u2581gets": 2630,
  "imet": 2631,
  "\u2581TV": 2632,
  "\u2581pati": 2633,
  "\u2581Council": 2634,
  "\u2581marr\u00ebsh": 2635,
  "\u2581prap\u00eb": 2636,
  "\u2581pune": 2637,
  "\u2581Tom": 2638,
  "\u2581vetem": 2639,
  "\u2581Da": 2640,
  "\u2581Tok\u00eb": 2641,
  "\u2581named": 2642,
  "No": 2643,
  "\u2581Er": 2644,
  "\u2581Sunday": 2645,
  "\u2581shkosh": 2646,
  "\u2581Open": 2647,
  "pe": 2648,
  "\u2581raste": 2649,
  "ks": 2650,
  "\u2581reached": 2651,
  "\u2581shpres\u00eb": 2652,
  "\u2581worked": 2653,
  "\u2581glad": 2654,
  "\u2581suffering": 2655,
  "\u2581p\u00ebrgjigje": 2656,
  "\u2581presin": 2657,
  "\u2581km": 2658,
  "\u2581jete": 2659,
  "\u2581nat\u00eb": 2660,
  "\u2581mbajn\u00eb": 2661,
  "\u2581pritet": 2662,
  "\u2581modern": 2663,
  "tu": 2664,
  "\u2581ndihm\u00ebs": 2665,
  "one": 2666,
  "ting": 2667,
  "\u2581Gjith\u00eb": 2668,
  "\u2581Serb": 2669,
  "\u2581k\u00ebrkoi": 2670,
  "\u2581Apo": 2671,
  "\u2581Pejgam": 2672,
  "\u2581besoni": 2673,
  "\u2581njoh": 2674,
  "\u2581rrezik": 2675,
  "shi": 2676,
  "\u2581burra": 2677,
  "\u2581eight": 2678,
  "\u2581cool": 2679,
  "\u2581nj\u00ebmend": 2680,
  "\u2581wives": 2681,
  "\u2581destroy": 2682,
  "\u2581dashuria": 2683,
  "ana": 2684,
  "\u2581deep": 2685,
  "\u2581nes\u00ebr": 2686,
  "\u2581results": 2687,
  "6": 2688,
  "\u2581film": 2689,
  "\u2581shoh\u00ebsh": 2690,
  "\u2581siguruar": 2691,
  "t\u00ebs": 2692,
  "\u2581mrekulli": 2693,
  "\u2581girls": 2694,
  "J": 2695,
  "\u2581buy": 2696,
  "\u2581calling": 2697,
  "\u2581citizens": 2698,
  "rit": 2699,
  "\u2581tej": 2700,
  "\u2581value": 2701,
  "\u2581American": 2702,
  "\u25818:": 2703,
  "\u2581army": 2704,
  "\u2581Si\u00e7": 2705,
  "\u2581Put": 2706,
  "\u2581banor\u00ebt": 2707,
  "\u2581areas": 2708,
  "\u2581manifest": 2709,
  "\u2581vall\u00eb": 2710,
  "\u2581zgjidhje": 2711,
  "fe": 2712,
  "\u2581elders": 2713,
  "\u2581faces": 2714,
  "\u2581moving": 2715,
  "\u2581simply": 2716,
  "r\u00ebn": 2717,
  "\u2581kujt": 2718,
  "\u2581vazhdimisht": 2719,
  "\u2581carry": 2720,
  "\u2581sonte": 2721,
  "\u2581Evolution": 2722,
  "\u2581m\u00ebshir\u00eb": 2723,
  "\u2581p\u00ebrhershme": 2724,
  "\u2581source": 2725,
  "\u2581trouble": 2726,
  "\u2581cover": 2727,
  "\u2581apostles": 2728,
  "\u2581spoke": 2729,
  "\u2581burg": 2730,
  "rin": 2731,
  "\u2581standards": 2732,
  "\u2581Thjesht": 2733,
  "\u2581honor": 2734,
  "\u2581accepted": 2735,
  "ten": 2736,
  "\u25818,": 2737,
  "\u258170": 2738,
  "\u2581ndihmoj": 2739,
  "\u2581total": 2740,
  "ho": 2741,
  "ine": 2742,
  "\u2581Resurrection": 2743,
  "N\u00eb": 2744,
  "\u2581Creator": 2745,
  "\u2581anymore": 2746,
  "\u2581vdekjen": 2747,
  "\u2581blessings": 2748,
  "\u2581opposition": 2749,
  "\u2581pash\u00eb": 2750,
  "\u2581vij": 2751,
  "\u2581Asnj\u00eb": 2752,
  "\u2581natural": 2753,
  "\u2581patient": 2754,
  "\u2581Thou": 2755,
  "\u2581powerful": 2756,
  "\u2581Sam": 2757,
  "\u2581koh\u00ebt": 2758,
  "\u2581violence": 2759,
  "\u2581kuptuar": 2760,
  "\u2581gjithe": 2761,
  "\u2581Luka": 2762,
  "\u2581kok\u00ebn": 2763,
  "In": 2764,
  "\u2581El": 2765,
  "\u2581m\u00ebrkur\u00ebn": 2766,
  "\u2581Holy": 2767,
  "\u2581gift": 2768,
  "nuk": 2769,
  "\u2581Move": 2770,
  "\u2581glory": 2771,
  "\u2581image": 2772,
  "\u2581Excuse": 2773,
  "\u2581hot": 2774,
  "fer": 2775,
  "ie": 2776,
  "\u2581Beograd": 2777,
  "\u2581shkoll\u00eb": 2778,
  "\u2581billion": 2779,
  "4": 2780,
  "\u2581cil\u00ebs": 2781,
  "\u2581mb\u00ebshtetur": 2782,
  "\u2581oil": 2783,
  "\u2581boys": 2784,
  "\u2581shko": 2785,
  "\u2581fort": 2786,
  "\u00ebr": 2787,
  "lin": 2788,
  "\u2581sacrifice": 2789,
  "\u2581shkoni": 2790,
  "07": 2791,
  "\u2581mir\u00ebn": 2792,
  "\u2581dashurin\u00eb": 2793,
  "\u2581statement": 2794,
  "\u2581Law": 2795,
  "\u2581p\u00ebrpjekjet": 2796,
  "\u2581thirrje": 2797,
  "ata": 2798,
  "\u2581Zot\u00ebri": 2799,
  "\u2581Montenegro": 2800,
  "\u2581dad": 2801,
  "\u2581AP": 2802,
  "mer": 2803,
  "\u2581jepni": 2804,
  "\u2581commanded": 2805,
  "\u2581established": 2806,
  "\u2581jepet": 2807,
  "\u2581asking": 2808,
  "\u2581white": 2809,
  "\u2581p\u00ebrfshin": 2810,
  "\u2581tet\u00eb": 2811,
  "ster": 2812,
  "\u2581p\u00ebrbashk\u00ebt": 2813,
  "\u2581shekullit": 2814,
  "\u2581fell": 2815,
  "P\u00ebr": 2816,
  "\u2581shp\u00ebtuar": 2817,
  "\u2581education": 2818,
  "\u2581Paradise": 2819,
  "\u2581beginning": 2820,
  "\u2581looked": 2821,
  "\u2581regarding": 2822,
  "\u2581pain": 2823,
  "\u2581speech": 2824,
  "\u2581gain": 2825,
  "emi": 2826,
  "\u2581Shkrimet": 2827,
  "\u2581Zagreb": 2828,
  "\u2581arm\u00eb": 2829,
  "\u25815,": 2830,
  "\u2581level": 2831,
  "\u2581vdekja": 2832,
  "\u2581Presidenti": 2833,
  "\u2581miq": 2834,
  "\u2581taste": 2835,
  "uesit": 2836,
  "\u2581men\u00e7ur": 2837,
  "ohej": 2838,
  "\u2581Ibrahimi": 2839,
  "\u2581fen\u00eb": 2840,
  "\u2581vuri": 2841,
  "Allah": 2842,
  "\u2581low": 2843,
  "\u2581qiejve": 2844,
  "\u2581nder": 2845,
  "\u2581Watchtower": 2846,
  "\u2581problemet": 2847,
  "sha": 2848,
  "\u2581market": 2849,
  "\u2581temple": 2850,
  "And": 2851,
  "ian": 2852,
  "\u2581mentioned": 2853,
  "\u2581ngritur": 2854,
  "\u2581prove": 2855,
  "\u2581shtoi": 2856,
  "\u00e7i": 2857,
  "\u2581swear": 2858,
  "\u2581Cili": 2859,
  "\u2581anti": 2860,
  "\u2581available": 2861,
  "\u2581Mjaft": 2862,
  "\u2581Over": 2863,
  "\u2581beyond": 2864,
  "\u2581mesazh": 2865,
  "\u2581wonderful": 2866,
  "\u2581Turqis\u00eb": 2867,
  "\u2581opportunity": 2868,
  "\u2581mallkuar": 2869,
  "\u2581nd\u00ebrkomb\u00ebtar": 2870,
  "\u2581Babi": 2871,
  "\u2581lexuar": 2872,
  "\u2581Reuters": 2873,
  "\u2581record": 2874,
  "\u2581histori": 2875,
  "AFP": 2876,
  "\u2581Aty": 2877,
  "\u2581larta": 2878,
  "\u2581bitch": 2879,
  "\u2581k\u00ebmb\u00ebt": 2880,
  "\u2581messages": 2881,
  "Me": 2882,
  "\u2581presence": 2883,
  "\u2581shpirt": 2884,
  "\u2581200": 2885,
  "\u2581feeling": 2886,
  "\u2581effort": 2887,
  "\u2581About": 2888,
  "\u2581b\u00ebre": 2889,
  "\u2581secili": 2890,
  "\u2581Gjoni": 2891,
  "\u2581pothuajse": 2892,
  "uesi": 2893,
  "\u2581Shfaq": 2894,
  "\u2581worth": 2895,
  "\u2581arrest": 2896,
  "\u2581hate": 2897,
  "\u2581financial": 2898,
  "\u2581seeing": 2899,
  "ev": 2900,
  "\u258118.": 2901,
  "\u2581dinte": 2902,
  "\u2581gjuh\u00eb": 2903,
  "net": 2904,
  "\u2581spent": 2905,
  "\u2581National": 2906,
  "\u2581drit\u00eb": 2907,
  "\u2581Mo": 2908,
  "\u2581leaving": 2909,
  "\u2581standing": 2910,
  "\u2581normal": 2911,
  "\u2581desires": 2912,
  "\u2581development": 2913,
  "\u2581effect": 2914,
  "\u25814,": 2915,
  "\u2581bed": 2916,
  "\u2581besojm\u00eb": 2917,
  "\u2581class": 2918,
  "kam": 2919,
  "\u2581firm": 2920,
  "\u2581Jepi": 2921,
  "\u2581Muhammed": 2922,
  "\u2581Time": 2923,
  "\u2581Proverbs": 2924,
  "\u2581zgjuar": 2925,
  "\u2581growth": 2926,
  "\u2581mundem": 2927,
  "\u2581gjak": 2928,
  "\u2581letter": 2929,
  "\u2581mart\u00ebn": 2930,
  "\u2581feelings": 2931,
  "\u2581r\u00ebn\u00eb": 2932,
  "God": 2933,
  "\u2581Tu": 2934,
  "less": 2935,
  "\u2581vi": 2936,
  "\u2581families": 2937,
  "\u2581quhet": 2938,
  "\u2581sigurisht": 2939,
  "\u2581War": 2940,
  "\u2581music": 2941,
  "\u2581rinjt\u00eb": 2942,
  "\u2581choose": 2943,
  "\u2581general": 2944,
  "\u2581libri": 2945,
  "\u2581Egypt": 2946,
  "\u2581Job": 2947,
  "M\u00eb": 2948,
  "tra": 2949,
  "\u2581p\u00ebrgjigj": 2950,
  "\u2581English": 2951,
  "\u2581miles": 2952,
  "der": 2953,
  "\u2581&": 2954,
  "\u2581an\u00ebn": 2955,
  "\u2581relations": 2956,
  "\u2581conditions": 2957,
  "\u2581attack": 2958,
  "\u2581begin": 2959,
  "\u2581rich": 2960,
  "\u2581equal": 2961,
  "\u2581Burimi": 2962,
  "\u2581State": 2963,
  "\u2581Children": 2964,
  "\u2581arriti": 2965,
  "\u2581kreu": 2966,
  "\u2581Bar": 2967,
  "\u2581allowed": 2968,
  "\u2581Foreign": 2969,
  "\u2581laws": 2970,
  "\u2581shikoni": 2971,
  "\u2581vetmi": 2972,
  "\u2581Boris": 2973,
  "hi": 2974,
  "\u2581p\u00ebrmes": 2975,
  "\u2581reports": 2976,
  "\u2581include": 2977,
  "04": 2978,
  "\u25816,": 2979,
  "\u2581events": 2980,
  "\u2581kindness": 2981,
  "\u2581parts": 2982,
  "\u2581border": 2983,
  "\u2581homes": 2984,
  "\u2581mbrojtur": 2985,
  "\u2581D\u00ebgjo": 2986,
  "\u2581folder": 2987,
  "\u2581Esht\u00eb": 2988,
  "land": 2989,
  "ristina": 2990,
  "\u2581cities": 2991,
  "\u2581Luke": 2992,
  "\u2581enemies": 2993,
  "\u2581aware": 2994,
  "\u2581blind": 2995,
  "\u2581revelations": 2996,
  "\u2581Every": 2997,
  "\u2581zjarrit": 2998,
  "\u2581Ana": 2999,
  "\u2581daily": 3000,
  "\u2581necessary": 3001,
  "\u2581students": 3002,
  "\u2581server": 3003,
  "\u2581\u00e7\u00ebshtjet": 3004,
  "\u2581sort": 3005,
  "\u2581Pro": 3006,
  "\u2581Jezuin": 3007,
  "\u2581mbrapa": 3008,
  "\u2581type": 3009,
  "\u2581groups": 3010,
  "\u2581serving": 3011,
  "\u2581announced": 3012,
  "\u2581June": 3013,
  "\u2581parliament": 3014,
  "\u2581servant": 3015,
  "\u2581erdh\u00ebn": 3016,
  "\u2581jetuar": 3017,
  "\u2581window": 3018,
  "\u258115:": 3019,
  "\u2581zjarri": 3020,
  "\u2581completely": 3021,
  "\u2581lindur": 3022,
  "\u2581win": 3023,
  "\u2581brings": 3024,
  "\u2581church": 3025,
  "\u2581ngaq\u00eb": 3026,
  "\u25819:": 3027,
  "\u2581explain": 3028,
  "\u2581task": 3029,
  "\u2581qind": 3030,
  "\u2581slave": 3031,
  "\u2581anointed": 3032,
  "\u2581d\u00ebshmi": 3033,
  "\u2581freedom": 3034,
  "\u2581rights": 3035,
  "\u2581RS": 3036,
  "ogan": 3037,
  "\u2581mars": 3038,
  "\u2581njeriun": 3039,
  "\u2581gjeni": 3040,
  "\u2581plans": 3041,
  "\u2581g\u00ebzim": 3042,
  "\u2581positive": 3043,
  "r\u00ebs": 3044,
  "\u2581dear": 3045,
  "\u2581dita": 3046,
  "\u2581al": 3047,
  "\u2581thereof": 3048,
  "\u2581High": 3049,
  "\u2581Gjithsesi": 3050,
  "\u2581kah": 3051,
  "\u2581mir\u00ebnjoh\u00ebs": 3052,
  "\u2581reform": 3053,
  "\u2581official": 3054,
  "\u2581trial": 3055,
  "pro": 3056,
  "\u2581selected": 3057,
  "eni": 3058,
  "\u258133": 3059,
  "\u2581Had": 3060,
  "\u2581vler\u00eb": 3061,
  "\u25819,": 3062,
  "\u2581Also": 3063,
  "\u2581Balkans": 3064,
  "\u2581judgment": 3065,
  "\u2581animals": 3066,
  "\u2581followers": 3067,
  "\u2581mom": 3068,
  "\u2581Dreq": 3069,
  "ling": 3070,
  "\u258137": 3071,
  "\u2581draw": 3072,
  "\u2581dite": 3073,
  "\u2581partner": 3074,
  "ron": 3075,
  "\u2581Israelites": 3076,
  "\u2581but\u00eb": 3077,
  "\u2581Frank": 3078,
  "\u2581black": 3079,
  "\u2581THE": 3080,
  "\u2581Thursday": 3081,
  "\u2581happens": 3082,
  "\u2581tetor": 3083,
  "\u2581evening": 3084,
  "\u2581training": 3085,
  "Na": 3086,
  "\u2581warning": 3087,
  "\u2581qershor": 3088,
  "\u2581round": 3089,
  "\u2581numri": 3090,
  "\u2581p\u00ebrgjigjet": 3091,
  "\u2581measure": 3092,
  "\u2581ulur": 3093,
  "\u2581behold": 3094,
  "\u2581gjesh": 3095,
  "\u2581trade": 3096,
  "\u2581ardhsh\u00ebm": 3097,
  "\u2581Timothy": 3098,
  "\u258124:": 3099,
  "year": 3100,
  "\u2581pick": 3101,
  "\u2581rejected": 3102,
  "\u2581gjenden": 3103,
  "\u2581kthye": 3104,
  "\u2581various": 3105,
  "isation": 3106,
  "vo": 3107,
  "\u2581Jacob": 3108,
  "\u2581non": 3109,
  "\u2581uji": 3110,
  "\u2581pres": 3111,
  "ies": 3112,
  "\u2581unless": 3113,
  "\u2581d\u00ebm": 3114,
  "\u2581heavenly": 3115,
  "\u2581Truth": 3116,
  "\u2581chosen": 3117,
  "\u258135": 3118,
  "\u2581Ankara": 3119,
  "\u2581kthehem": 3120,
  "\u2581principles": 3121,
  "\u2581pressure": 3122,
  "\u2581tret\u00eb": 3123,
  "\u2581Mua": 3124,
  "\u2581forces": 3125,
  "\u2581Judah": 3126,
  "\u2581dhjetor": 3127,
  "\u2581dob\u00ebt": 3128,
  "\u2581shown": 3129,
  "ol": 3130,
  "\u2581March": 3131,
  "\u2581clearly": 3132,
  "\u2581fighting": 3133,
  "\u2581answered": 3134,
  "\u2581sheep": 3135,
  "\u2581vish": 3136,
  "\u2581April": 3137,
  "\u2581Consider": 3138,
  "\u2581cases": 3139,
  "\u2581ki": 3140,
  "8": 3141,
  "uam": 3142,
  "\u2581form\u00eb": 3143,
  "Reuters": 3144,
  "\u2581Asgj\u00eb": 3145,
  "\u2581Romanian": 3146,
  "\u2581News": 3147,
  "\u2581besnik\u00eb": 3148,
  "\u2581model": 3149,
  "Ju": 3150,
  "\u2581shenj\u00eb": 3151,
  "\u2581marr\u00ebdh\u00ebnie": 3152,
  "\u258115,": 3153,
  "\u2581nxjerr\u00eb": 3154,
  "\u2581kem": 3155,
  "\u2581pare": 3156,
  "\u2581Y": 3157,
  "\u2581djatht\u00eb": 3158,
  "\u2581suffer": 3159,
  "\u2581Am": 3160,
  "\u2581warned": 3161,
  "\u2581gjith\u00ebve": 3162,
  "\u2581Sh": 3163,
  "\u2581simple": 3164,
  "\u2581shoot": 3165,
  "\u2581membership": 3166,
  "\u2581rain": 3167,
  "\u2581shtetit": 3168,
  "\u2581global": 3169,
  "\u2581welcome": 3170,
  "rd": 3171,
  "hem": 3172,
  "\u2581Bulgarian": 3173,
  "\u2581presim": 3174,
  "\u2581mas\u00eb": 3175,
  "\u2581Life": 3176,
  "\u2581prevent": 3177,
  "\u2581guard": 3178,
  "\u2581Tre": 3179,
  "\u2581dyja": 3180,
  "\u2581d\u00ebgjoni": 3181,
  "\u2581Credit": 3182,
  "\u2581afat": 3183,
  "\u2581vep\u00ebr": 3184,
  "day": 3185,
  "\u2581protection": 3186,
  "\u2581zoti": 3187,
  "\u2581happiness": 3188,
  "ant": 3189,
  "\u2581Su": 3190,
  "\u2581host": 3191,
  "bar": 3192,
  "\u2581krejt": 3193,
  "\u2581December": 3194,
  "\u2581sometimes": 3195,
  "\u2581picture": 3196,
  "ance": 3197,
  "\u2581speaking": 3198,
  "\u2581mission": 3199,
  "\u2581remains": 3200,
  "\u2581kudo": 3201,
  "lli": 3202,
  "heshin": 3203,
  "\u2581Line": 3204,
  "\u2581dream": 3205,
  "\u2581raise": 3206,
  "\u2581male": 3207,
  "\u2581tregojm\u00eb": 3208,
  "\u2581books": 3209,
  "\u2581mbrojt\u00ebs": 3210,
  "\u2581nxjerr": 3211,
  "\u2581verses": 3212,
  "\u2581kontroll": 3213,
  "\u2581Bethel": 3214,
  "\u2581negative": 3215,
  "\u2581prill": 3216,
  "\u2581fruit": 3217,
  "\u2581activities": 3218,
  "\u2581dishepujt": 3219,
  "\u2581q\u00ebn\u00eb": 3220,
  "\u2581burri": 3221,
  "\u2581sht\u00ebpit\u00eb": 3222,
  "\u2581Know": 3223,
  "\u2581Still": 3224,
  "\u2581urdh\u00ebruar": 3225,
  "\u2581besimit": 3226,
  "\u2581n\u00ebna": 3227,
  "\u2581pranuar": 3228,
  "\u2581spread": 3229,
  "\"!": 3230,
  "06": 3231,
  "\u2581names": 3232,
  "\u2581rastin": 3233,
  "\u2581ship": 3234,
  "\u2581lo": 3235,
  "\u2581pjesa": 3236,
  "\u2581sources": 3237,
  "\u2581pranoi": 3238,
  "\u2581pranon": 3239,
  "\u2581b": 3240,
  "\u2581\u00e7\u00ebshtjen": 3241,
  "\u2581bank": 3242,
  "\u2581finally": 3243,
  "\u2581Stay": 3244,
  "\u2581inspired": 3245,
  "\u2581kalon": 3246,
  "\u2581moral": 3247,
  "\u2581Gjith\u00e7ka": 3248,
  "ge": 3249,
  "\u2581thousands": 3250,
  "\u2581nd\u00ebrtuar": 3251,
  "\u2581secure": 3252,
  "ria": 3253,
  "van": 3254,
  "\u2581Quran": 3255,
  "\u2581nese": 3256,
  "tic": 3257,
  "\u2581ndjekur": 3258,
  "\u2581policy": 3259,
  "\u2581sh\u00ebrb\u00ebtor\u00ebt": 3260,
  "\u258145": 3261,
  "\u2581fish": 3262,
  "\u2581Another": 3263,
  "\u2581October": 3264,
  "\u2581price": 3265,
  "\u2581Messengers": 3266,
  "\u2581hide": 3267,
  "\u2581fryma": 3268,
  "\u2581prayers": 3269,
  "\u2581pyesin": 3270,
  "\u2581vazhdojn\u00eb": 3271,
  "\u2581signed": 3272,
  "\u2581Cilat": 3273,
  "\u2581offering": 3274,
  "\u2581quickly": 3275,
  "ey": 3276,
  "nder": 3277,
  "\u2581St": 3278,
  "\u2581vendos": 3279,
  "ever": 3280,
  "ini": 3281,
  "\u2581battle": 3282,
  "\u258114:": 3283,
  "\u2581reforms": 3284,
  "\u2581published": 3285,
  "\u2581kongregacionit": 3286,
  "\u2581seeking": 3287,
  "\u2581Union": 3288,
  "\u2581Dreqin": 3289,
  "\u2581qiejt": 3290,
  "\u2581shut": 3291,
  "BAR": 3292,
  "\u2581responsibility": 3293,
  "\u2581doctor": 3294,
  "\u2581idiot": 3295,
  "\u2581q\u00ebndrojn\u00eb": 3296,
  "\u2581Jeni": 3297,
  "\u2581everybody": 3298,
  "\u2581Zgjidh": 3299,
  "\u2581files": 3300,
  "\u2581Cila": 3301,
  "\u2581July": 3302,
  "\u2581d\u00ebgjo": 3303,
  "\u2581fair": 3304,
  "\u2581January": 3305,
  "\u2581Tona": 3306,
  "\u2581pushtet": 3307,
  "\u2581unjust": 3308,
  "\u2581shi": 3309,
  "\u2581chastisement": 3310,
  "\u2581Atje": 3311,
  "\u2581Was": 3312,
  "\u2581served": 3313,
  "\u2581Revelation": 3314,
  "\u2581continued": 3315,
  "\u2581provision": 3316,
  "\u2581houses": 3317,
  "\u2581ndar\u00eb": 3318,
  "\u2581anije": 3319,
  "\u2581baba": 3320,
  "\u2581prind\u00ebrve": 3321,
  "\u2581korrik": 3322,
  "\u2581s\u00ebrish": 3323,
  "\u2581Mu": 3324,
  "\u2581publike": 3325,
  "\u2581Wise": 3326,
  "\u2581paid": 3327,
  "\u2581studim": 3328,
  "\u2581greatest": 3329,
  "\u2581m\u00ebsim": 3330,
  "\u2581Pi": 3331,
  "\u2581AFP": 3332,
  "\u2581blessed": 3333,
  "\u2581dal": 3334,
  "\u2581engj\u00ebjt": 3335,
  "\u2581her\u00ebt": 3336,
  "\u2581desh": 3337,
  "\u2581dog": 3338,
  "\u2581South": 3339,
  "\u2581agreed": 3340,
  "\u2581institutions": 3341,
  "Our": 3342,
  "\u2581mighty": 3343,
  "sit": 3344,
  "\u2581sh": 3345,
  "\u2581Africa": 3346,
  "\u2581Michael": 3347,
  "\u258119.": 3348,
  "\u2581birth": 3349,
  "\u2581d\u00ebrguarit": 3350,
  "\u2581arrijn\u00eb": 3351,
  "\u2581legal": 3352,
  "ft": 3353,
  "\u2581delivered": 3354,
  "\u2581pritur": 3355,
  "\u2581Corinthians": 3356,
  "\u2581lack": 3357,
  "\u2581offered": 3358,
  "\u2581somebody": 3359,
  "\u2581wind": 3360,
  "ary": 3361,
  "\u2581divine": 3362,
  "\u2581baptized": 3363,
  "\u2581Per\u00ebndi": 3364,
  "\u2581drejtim": 3365,
  "Ai": 3366,
  "\u2581sex": 3367,
  "\u2581Germany": 3368,
  "\u2581l\u00ebviz": 3369,
  "\u2581shpjegon": 3370,
  "\u2581projekt": 3371,
  "\u2581janar": 3372,
  "\u258132": 3373,
  "\u2581Roman": 3374,
  "\u2581durim": 3375,
  "\u2581vullnetin": 3376,
  "\u2581k\u00ebqija": 3377,
  "ji": 3378,
  "\u2581d\u00ebrgoi": 3379,
  "\u2581shtator": 3380,
  "\u2581personale": 3381,
  "\u2581p\u00ebrshtatshme": 3382,
  "\u2581Madje": 3383,
  "\u2581bo": 3384,
  "\u2581dukje": 3385,
  "\u2581zi": 3386,
  "\u2581numrin": 3387,
  "\u2581attitude": 3388,
  "\u2581kok\u00eb": 3389,
  "\u2581explained": 3390,
  "mon": 3391,
  "\u2581dicka": 3392,
  "\u2581risk": 3393,
  "\u2581gjejn\u00eb": 3394,
  "\u2581greke": 3395,
  "\u2581q": 3396,
  "\u2581denied": 3397,
  "\u2581ligjit": 3398,
  "\u2581prek": 3399,
  "\u25812010": 3400,
  "\u2581property": 3401,
  "\u2581gas": 3402,
  "\u2581Turqia": 3403,
  "\u2581wonder": 3404,
  "\u2581shkurt\u00ebr": 3405,
  "doers": 3406,
  "gen": 3407,
  "\u2581goal": 3408,
  "\u2581George": 3409,
  "\u2581Herz": 3410,
  "\u258180": 3411,
  "\u2581Pak": 3412,
  "\u2581resurrection": 3413,
  "lic": 3414,
  "\u2581hair": 3415,
  "\u2581pavar\u00ebsisht": 3416,
  "\u2581Tower": 3417,
  "\u2581advice": 3418,
  "\u2581rajon": 3419,
  "\u2581meant": 3420,
  "dy": 3421,
  "\u2581Footnote": 3422,
  "\u2581France": 3423,
  "\u2581Kryeministri": 3424,
  "\u2581crisis": 3425,
  "\u2581Has": 3426,
  "\u2581direction": 3427,
  "\u2581individuals": 3428,
  "\u258120.": 3429,
  "\u2581adhuroni": 3430,
  "\u2581condition": 3431,
  "\u2581willing": 3432,
  "\u2581Whatever": 3433,
  "\u2581organizuar": 3434,
  "kut": 3435,
  "\u2581vdekurit": 3436,
  "\u2581wine": 3437,
  "\u2581committed": 3438,
  "\u2581mbyllur": 3439,
  "\u2581s\u00ebmur\u00eb": 3440,
  "\u2581ikim": 3441,
  "\u2581$": 3442,
  "\u2581qyteti": 3443,
  "\u2581zakonisht": 3444,
  "\u2581Paris": 3445,
  "\u2581etc": 3446,
  "\u2581metra": 3447,
  "\u2581severe": 3448,
  "\u258117:": 3449,
  "\u2581Isaia": 3450,
  "\u2581confidence": 3451,
  "\u2581success": 3452,
  "\u2581pleasure": 3453,
  "\u2581sisters": 3454,
  "ism": 3455,
  "\u2581shok\u00ebt": 3456,
  "\u2581commit": 3457,
  "\u2581Kon": 3458,
  "\u2581September": 3459,
  "\u2581Nju": 3460,
  "\u2581arrij\u00eb": 3461,
  "\u2581sh\u00ebrbyer": 3462,
  "\u2581deliver": 3463,
  "\u2581pik\u00ebrisht": 3464,
  "\u2581train": 3465,
  "\u2581v\u00ebshtir\u00ebsi": 3466,
  "\u2581loss": 3467,
  "\u2581Babai": 3468,
  "\u2581m\u00ebson": 3469,
  "\u2581steps": 3470,
  "\u2581Before": 3471,
  "\u2581mail": 3472,
  "\u2581vote": 3473,
  "\u2581Never": 3474,
  "\u2581affect": 3475,
  "\u2581meaning": 3476,
  "\u2581helping": 3477,
  "\u2581trupin": 3478,
  "\u2581proud": 3479,
  "\u2581kuptim": 3480,
  "\u2581k\u00ebrkoni": 3481,
  "\u2581rivers": 3482,
  "\u2581zgjedhjet": 3483,
  "\u2581biri": 3484,
  "\u2581nearly": 3485,
  "\u2581nxit": 3486,
  "dis": 3487,
  "\u2581Sapo": 3488,
  "\u258110,": 3489,
  "\u2581Librin": 3490,
  "\u2581concern": 3491,
  "\u2581interested": 3492,
  "\u2581souls": 3493,
  "mir": 3494,
  "\u2581Hall": 3495,
  "\u2581Lut": 3496,
  "\u2581enjten": 3497,
  "\u2581regular": 3498,
  "\u2581comfort": 3499,
  "\u2581Deri": 3500,
  "\u2581darkness": 3501,
  "\u2581gjendjen": 3502,
  "\u2581physical": 3503,
  "\u2581martuar": 3504,
  "Mos": 3505,
  "\u2581messengers": 3506,
  "\u2581subject": 3507,
  "ueshme": 3508,
  "\u2581Pe": 3509,
  "\u2581p\u00ebrdorin": 3510,
  "\u2581throughout": 3511,
  "\u2581vetmja": 3512,
  "\u2581display": 3513,
  "\u2581solli": 3514,
  "\u2581agree": 3515,
  "ina": 3516,
  "\u25817,": 3517,
  "\u2581autoritetet": 3518,
  "09": 3519,
  "\u2581bashkuar": 3520,
  "\u2581faqet": 3521,
  "\u2581immediately": 3522,
  "\u2581v\u00ebrtet\u00ebs": 3523,
  "\u2581described": 3524,
  "\u2581rritet": 3525,
  "sia": 3526,
  "\u2581mbr\u00ebmje": 3527,
  "ruar": 3528,
  "\u2581merrte": 3529,
  "\u2581Kujdes": 3530,
  "\u2581librit": 3531,
  "\u2581produce": 3532,
  "\u2581press": 3533,
  "\u2581p\u00ebrdorim": 3534,
  "Per\u00ebndia": 3535,
  "\u2581f": 3536,
  "\u2581maintain": 3537,
  "\u2581mosbesimtar\u00eb": 3538,
  "\u2581piece": 3539,
  "ijametit": 3540,
  "\u2581placed": 3541,
  "\u2581m\u00ebsojm\u00eb": 3542,
  "\u2581v\u00ebllai": 3543,
  "\u2581everlasting": 3544,
  "\u2581trego": 3545,
  "\u2581sip\u00ebr": 3546,
  "\u2581arrived": 3547,
  "\u2581cry": 3548,
  "\u2581gathered": 3549,
  "\u2581shikoj": 3550,
  "\u2581red": 3551,
  "\u2581vendim": 3552,
  "\u2581d\u00ebshirojn\u00eb": 3553,
  "\u2581independence": 3554,
  "\u2581ardhshme": 3555,
  "\u2581frym\u00ebn": 3556,
  "ovski": 3557,
  "\u2581Sha": 3558,
  "\u2581ajet": 3559,
  "\u2581Rather": 3560,
  "\u2581Balkan": 3561,
  "\u2581Nd\u00ebrkoh\u00eb": 3562,
  "\u2581Pre": 3563,
  "\u2581destruction": 3564,
  "\u2581mora": 3565,
  "\u2581af\u00ebrt": 3566,
  "\u2581j": 3567,
  "\u2581mjafton": 3568,
  "\u2581society": 3569,
  "\u2581Pictures": 3570,
  "\u2581vendosi": 3571,
  "\u2581escape": 3572,
  "\u2581Shut": 3573,
  "\u2581realize": 3574,
  "\u2581Friday": 3575,
  "\u2581economy": 3576,
  "tim": 3577,
  "\u2581Prishtin\u00eb": 3578,
  "\u2581fshehur": 3579,
  "\u2581shqyrtojm\u00eb": 3580,
  "\u2581takim": 3581,
  "\u2581Name": 3582,
  "\u2581associate": 3583,
  "\u2581d\u00ebshironi": 3584,
  "\u2581Society": 3585,
  "\u2581Euro": 3586,
  "\u2581anger": 3587,
  "\u2581island": 3588,
  "\u2581meq\u00eb": 3589,
  "\u2581Saul": 3590,
  "\u2581stupid": 3591,
  "\u2581ujit": 3592,
  "\u2581Sarajevo": 3593,
  "\u2581hearing": 3594,
  "\u2581let\u00ebr": 3595,
  "\u2581siguris\u00eb": 3596,
  "\u2581worse": 3597,
  "\u2581Rreth": 3598,
  "\u2581det": 3599,
  "\u2581figure": 3600,
  "\u2581shal": 3601,
  "gu": 3602,
  "\u2581Con": 3603,
  "\u2581Maqedonis\u00eb": 3604,
  "\u2581Nice": 3605,
  "\u2581Isha": 3606,
  "\u2581apostulli": 3607,
  "hemi": 3608,
  "t\u00ebn": 3609,
  "\u2581Gabim": 3610,
  "\u2581burrat": 3611,
  "\u2581lajmin": 3612,
  "fa": 3613,
  "\u2581search": 3614,
  "ir": 3615,
  "\u2581Perhaps": 3616,
  "\u2581flow": 3617,
  "\u2581duty": 3618,
  "\u2581mesazhin": 3619,
  "den": 3620,
  "\u2581pasoj\u00eb": 3621,
  "\u2581responsible": 3622,
  "\u2581x": 3623,
  "\u2581hedh": 3624,
  "\u2581foli": 3625,
  "\u2581remove": 3626,
  "\u2581vdesin": 3627,
  "\u2581v\u00ebmendje": 3628,
  "\u2581\u00e7far\u00ebdo": 3629,
  "\u2581terrible": 3630,
  "\u2581m\u00ebsojn\u00eb": 3631,
  "\u2581fill": 3632,
  "\u2581moon": 3633,
  "\u2581closer": 3634,
  "\u2581nd\u00ebrkoh\u00eb": 3635,
  "\u2581p\u00ebrreth": 3636,
  "\u2581Keni": 3637,
  "\u2581recompense": 3638,
  "\u2581plane": 3639,
  "\u2581measures": 3640,
  "\u2581ngr\u00ebn\u00eb": 3641,
  "com": 3642,
  "ted": 3643,
  "\u2581politik": 3644,
  "\u2581v": 3645,
  "\u2581Satanai": 3646,
  "\u2581access": 3647,
  "gj": 3648,
  "ive": 3649,
  "\u2581vras": 3650,
  "\u2581dhurat\u00eb": 3651,
  "\u2581nat\u00ebs": 3652,
  "mp": 3653,
  "\u2581actions": 3654,
  "\u2581Acts": 3655,
  "\u2581fuqin\u00eb": 3656,
  "\u2581student": 3657,
  "\u2581companies": 3658,
  "\u2581focus": 3659,
  "\u2581blessing": 3660,
  "\u2581nature": 3661,
  "\u2581happening": 3662,
  "\u2581north": 3663,
  "\u2581d": 3664,
  "\u2581partners": 3665,
  "\u2581Sure": 3666,
  "\u2581Korintasve": 3667,
  "\u2581Mbret\u00ebrin\u00eb": 3668,
  "\u2581careful": 3669,
  "\u2581mb\u00ebshtetje": 3670,
  "\u2581jepte": 3671,
  "\u2581turns": 3672,
  "\u2581miss": 3673,
  "\u2581shtuar": 3674,
  "\u2581y": 3675,
  "\u2581tjetrit": 3676,
  "SE": 3677,
  "\u2581dangerous": 3678,
  "\u2581energjis\u00eb": 3679,
  "\u2581environment": 3680,
  "\u2581gatsh\u00ebm": 3681,
  "ator": 3682,
  "\u2581Lu": 3683,
  "\u2581jeton": 3684,
  "\u2581older": 3685,
  "There": 3686,
  "age": 3687,
  "\u2581b\u00ebhej": 3688,
  "\u2581l\u00ebr": 3689,
  "\u2581m\u00ebshirues": 3690,
  "Be": 3691,
  "\u2581diku": 3692,
  "op": 3693,
  "\u2581Ndon\u00ebse": 3694,
  "\u2581Bosnje": 3695,
  "\u2581bukura": 3696,
  "\u2581policis\u00eb": 3697,
  "\u2581p\u00ebrpiqen": 3698,
  "\u2581masa": 3699,
  "\u2581din": 3700,
  "sen": 3701,
  "\u258121.": 3702,
  "\u2581kongregacion": 3703,
  "\u2581sh\u00ebrbejn\u00eb": 3704,
  "\u2581son\u00eb": 3705,
  "line": 3706,
  "\u2581Moisiu": 3707,
  "\u2581shpirtin": 3708,
  "gi": 3709,
  "\u25812008": 3710,
  "\u2581apart": 3711,
  "\u2581jashtme": 3712,
  "\u2581response": 3713,
  "\u2581kafsh\u00eb": 3714,
  "\u2581\u00e7uditshme": 3715,
  "\u2581llogari": 3716,
  "\u2581marr\u00ebdh\u00ebniet": 3717,
  "far\u00eb": 3718,
  "\u2581damn": 3719,
  "\u2581II": 3720,
  "\u2581cost": 3721,
  "\u2581problemi": 3722,
  "\u2581August": 3723,
  "\u2581table": 3724,
  "\u2581Tim": 3725,
  "\u2581fillon": 3726,
  "\u2581Bosnian": 3727,
  "\u2581dish": 3728,
  "\u2581financiare": 3729,
  "gan": 3730,
  "\u2581ability": 3731,
  "\u2581increased": 3732,
  "\u2581n\u00ebntor": 3733,
  "\u2581walking": 3734,
  "\u2581SAW": 3735,
  "\u2581frymor": 3736,
  "\u2581addition": 3737,
  "\u2581bardh\u00eb": 3738,
  "islav": 3739,
  "\u2581Western": 3740,
  "\u2581dije": 3741,
  "id": 3742,
  "\u2581rezultat": 3743,
  "\u2581dukej": 3744,
  "\u2581aspak": 3745,
  "\u2581Canno": 3746,
  "\u2581Za": 3747,
  "\u2581pat\u00ebn": 3748,
  "her": 3749,
  "\u2581tmerrshme": 3750,
  "\u2581mbajm\u00eb": 3751,
  "\u2581raport": 3752,
  "\u2581ul\u00ebt": 3753,
  "\u2581Romans": 3754,
  "\u2581mbret": 3755,
  "\u2581post": 3756,
  "\u2581approach": 3757,
  "\u2581practice": 3758,
  "\u2581Sofia": 3759,
  "din": 3760,
  "\u2581p\u00ebrg\u00ebnjeshtrua": 3761,
  "ger": 3762,
  "\u258114,": 3763,
  "\u2581rules": 3764,
  "\u2581Parti": 3765,
  "\u2581Russia": 3766,
  "\u2581determined": 3767,
  "\u2581opening": 3768,
  "\u2581pasuri": 3769,
  "\u2581shkruaj": 3770,
  "\u2581respekt": 3771,
  "\u2581Commission": 3772,
  "\u2581population": 3773,
  "\u2581jasht\u00ebm": 3774,
  "\u2581cold": 3775,
  "\u2581bere": 3776,
  "\u2581dark": 3777,
  "\u2581ndjekin": 3778,
  "\u2581circumstances": 3779,
  "\u2581rob\u00ebrit": 3780,
  "\u2581Unto": 3781,
  "\u2581mij\u00ebra": 3782,
  "\u2581p\u00ebrmendur": 3783,
  "\u2581Meq\u00eb": 3784,
  "\u2581capital": 3785,
  "\u2581promises": 3786,
  "soever": 3787,
  "uesh\u00ebm": 3788,
  "\u25812000": 3789,
  "\u2581p\u00ebrgjigjen": 3790,
  "UNMIK": 3791,
  "05": 3792,
  "old": 3793,
  "\u2581master": 3794,
  "\u2581mrekulluesh\u00ebm": 3795,
  "\u2581gruas": 3796,
  "\u2581njoftoi": 3797,
  "let": 3798,
  "\u2581ruling": 3799,
  "\u2581kuptojm\u00eb": 3800,
  "lt": 3801,
  "\u2581Mir\u00ebpo": 3802,
  "\u2581gjer\u00eb": 3803,
  "\u2581pun\u00ebt": 3804,
  "\u2581village": 3805,
  "\u2581filled": 3806,
  "\u2581miqt\u00eb": 3807,
  "\u2581wall": 3808,
  "tjetrin": 3809,
  "\u2581Hebrew": 3810,
  "ard": 3811,
  "\u2581q\u00ebndruar": 3812,
  "\u2581pure": 3813,
  "\u2581hani": 3814,
  "\u2581Hu": 3815,
  "\u2581Three": 3816,
  "\u2581bi": 3817,
  "\u25812001": 3818,
  "\u2581Skopje": 3819,
  "\u2581construction": 3820,
  "\u2581hospital": 3821,
  "\u2581priest": 3822,
  "\u2581300": 3823,
  "\u2581Internet": 3824,
  "\u2581disease": 3825,
  "eshin": 3826,
  "\u2581gjysm\u00eb": 3827,
  "\u2581trees": 3828,
  "\u2581drop": 3829,
  "\u2581turk": 3830,
  "tro": 3831,
  "\u2581lejuar": 3832,
  "\u2581Everything": 3833,
  "\u2581Mendon": 3834,
  "ence": 3835,
  "\u2581d\u00ebshir\u00eb": 3836,
  "\u2581tjeter": 3837,
  "ste": 3838,
  "\u2581gj\u00ebrave": 3839,
  "\u258112,": 3840,
  "unica": 3841,
  "\u2581Ask": 3842,
  "\u2581g\u00ebnjeshtra": 3843,
  "\u2581nj\u00ebra": 3844,
  "\u2581charge": 3845,
  "\u2581discuss": 3846,
  "\u2581recently": 3847,
  "II": 3848,
  "ous": 3849,
  "\u2581Mbase": 3850,
  "\u2581points": 3851,
  "\u2581November": 3852,
  "\u2581imagine": 3853,
  "\u2581influence": 3854,
  "\u2581mbledhjet": 3855,
  "\u2581German": 3856,
  "\u2581pranojn\u00eb": 3857,
  "\u2581p\u00ebrputhje": 3858,
  "\u2581reject": 3859,
  "\u2581fitoi": 3860,
  "\u2581French": 3861,
  "\u2581babi": 3862,
  "\u2581gjith": 3863,
  "\u2581ve\u00e7": 3864,
  "hether": 3865,
  "kon": 3866,
  "tuar": 3867,
  "\u2581Ati": 3868,
  "\u2581luft\u00ebn": 3869,
  "\u2581m\u00ebshir\u00ebn": 3870,
  "\u2581Athens": 3871,
  "\u2581Peace": 3872,
  "\u2581document": 3873,
  "\u2581Gu": 3874,
  "\u2581Vall\u00eb": 3875,
  "\u2581hey": 3876,
  "\u2581Ba": 3877,
  "\u2581gusht": 3878,
  "\u2581appreciate": 3879,
  "\u2581filluan": 3880,
  "\u2581qend\u00ebr": 3881,
  "ley": 3882,
  "time": 3883,
  "mit": 3884,
  "\u2581leje": 3885,
  "\u2581quoted": 3886,
  "\u2581bot\u00ebrore": 3887,
  "\u2581whosoever": 3888,
  "ndi": 3889,
  "\u258116,": 3890,
  "\u2581g": 3891,
  "\u2581lying": 3892,
  "\u2581500": 3893,
  "\u2581Dikush": 3894,
  "\u2581size": 3895,
  "dh": 3896,
  "\u2581believing": 3897,
  "\u2581benefits": 3898,
  "\u2581kthehemi": 3899,
  "\u2581mbushur": 3900,
  "\u2581Serbs": 3901,
  "\u2581improve": 3902,
  "00": 3903,
  "\u2581heavy": 3904,
  "\u2581blame": 3905,
  "Ma": 3906,
  "\u2581mish": 3907,
  "\u2581dust": 3908,
  "\u2581faqe": 3909,
  "\u2581g\u00ebzuar": 3910,
  "sta": 3911,
  "\u2581amount": 3912,
  "\u2581challenge": 3913,
  "\u2581Ej": 3914,
  "\u2581hedhur": 3915,
  "\u2581angel": 3916,
  "\u2581ethnic": 3917,
  "\u2581drejtimin": 3918,
  "\u2581guilty": 3919,
  "\u2581pyet": 3920,
  "uara": 3921,
  "\u2581Qeveria": 3922,
  "\u2581djalli": 3923,
  "\u2581ndjenjat": 3924,
  "\u2581plant": 3925,
  "\u2581zbuluar": 3926,
  "out": 3927,
  "\u2581Security": 3928,
  "\u2581decisions": 3929,
  "\u2581ktheheni": 3930,
  "\u2581papritur": 3931,
  "\u2581fulfilled": 3932,
  "\u2581kopje": 3933,
  "\u2581ngjarje": 3934,
  "Bi": 3935,
  "\u2581Atyre": 3936,
  "\u2581Xhon": 3937,
  "\u2581nine": 3938,
  "\u2581Mami": 3939,
  "\u2581Should": 3940,
  "\u2581punoni": 3941,
  "\u2581vazhdojm\u00eb": 3942,
  "\u2581shpres\u00ebn": 3943,
  "\u2581Kosov\u00ebn": 3944,
  "\u2581Libri": 3945,
  "\u2581Read": 3946,
  "\u2581radio": 3947,
  "\u2581Kutia": 3948,
  "\u2581kon": 3949,
  "Si": 3950,
  "\u2581Call": 3951,
  "\u2581mesi": 3952,
  "\u2581dijeni": 3953,
  "\u2581D\u00ebshmitar\u00eb": 3954,
  "\u2581cell": 3955,
  "\u2581kuptoni": 3956,
  "\u2581magazine": 3957,
  "\u2581tells": 3958,
  "\u2581veshur": 3959,
  "\u2581granted": 3960,
  "\u2581integration": 3961,
  "\u2581Kara": 3962,
  "\u2581forta": 3963,
  "\u258111,": 3964,
  "\u2581Dan": 3965,
  "\u2581carried": 3966,
  "\u2581mb\u00ebshtetjen": 3967,
  "\u2581ill": 3968,
  "\u2581higher": 3969,
  "\u2581m\u00ebsoi": 3970,
  "\u2581conflict": 3971,
  "9": 3972,
  "\u2581Fjal\u00ebn": 3973,
  "\u2581foot": 3974,
  "\u2581ndryshim": 3975,
  "\u2581thoughts": 3976,
  "\u2581vlen": 3977,
  "ska": 3978,
  "\u00e9": 3979,
  "\u2581pat": 3980,
  "\u2581Kar": 3981,
  "\u2581lest": 3982,
  "ful": 3983,
  "\u2581Kroacia": 3984,
  "\u2581bej": 3985,
  "\u2581lokale": 3986,
  "\u2581p\u00ebrgjegj\u00ebsi": 3987,
  "\u2581ngjar\u00eb": 3988,
  "Muhammad": 3989,
  "\u2581aren": 3990,
  "atin": 3991,
  "ld": 3992,
  "\u2581frika": 3993,
  "\u2581playing": 3994,
  "\u2581street": 3995,
  "\u2581Maria": 3996,
  "\u2581answers": 3997,
  "\u2581individual": 3998,
  "\u2581knowing": 3999,
  "\u2581kryesisht": 4000,
  "\u2581develop": 4001,
  "\u2581ligj": 4002,
  "\u2581shekullin": 4003,
  "\u2581Witness": 4004,
  "\u25812007": 4005,
  "\u2581kalojn\u00eb": 4006,
  "\u2581ndihmoi": 4007,
  "\u2581sistemit": 4008,
  "\u2581ve": 4009,
  "\u2581d\u00ebnimit": 4010,
  "\u2581telefon": 4011,
  "\u2581detit": 4012,
  "\u2581messenger": 4013,
  "\u2581manner": 4014,
  "\u2581pyeti": 4015,
  "\u2581rise": 4016,
  "\u2581Krishtin": 4017,
  "\u2581Veprat": 4018,
  "\u2581p\u00ebrpos": 4019,
  "\u2581successful": 4020,
  "\u258121:": 4021,
  "\u2581heq": 4022,
  "\u2581reasons": 4023,
  "tike": 4024,
  "\u2581lutje": 4025,
  "\u2581plak": 4026,
  "\u2581bisedimet": 4027,
  "\u2581der\u00ebn": 4028,
  "\u2581required": 4029,
  "tor": 4030,
  "\u2581Vazhdo": 4031,
  "\u2581lay": 4032,
  "\u2581t\u00ebra": 4033,
  "\u2581Ro": 4034,
  "\u2581keqen": 4035,
  "\u2581nj\u00ebfar\u00eb": 4036,
  "\u2581research": 4037,
  "\u2581victory": 4038,
  "\u2581loves": 4039,
  "\u2581mendoja": 4040,
  "\u2581shton": 4041,
  "\u2581solution": 4042,
  "\u2581Vo": 4043,
  "\u2581establish": 4044,
  "\u2581q\u00ebndron": 4045,
  "\u2581brain": 4046,
  "\u2581gjeti": 4047,
  "\u2581sword": 4048,
  "\u2581Mire": 4049,
  "\u2581catch": 4050,
  "\u2581djalin": 4051,
  "\u2581dwell": 4052,
  "\u2581heads": 4053,
  "\u2581shoq\u00ebri": 4054,
  "\u2581weight": 4055,
  "\u2581favour": 4056,
  "\u2581mbledhje": 4057,
  "\u2581True": 4058,
  "\u2581operation": 4059,
  "\u2581regional": 4060,
  "\u2581Kosova": 4061,
  "\u2581quality": 4062,
  "\u2581larguar": 4063,
  "\u2581motra": 4064,
  "\u2581Jewish": 4065,
  "\u2581becoming": 4066,
  "\u2581vazhdoj\u00eb": 4067,
  "\u2581inter": 4068,
  "\u2581loj\u00eb": 4069,
  "\u2581rrjedhin": 4070,
  "\u2581Bu": 4071,
  "\u2581gjen": 4072,
  "\u2581grateful": 4073,
  "\u2581p\u00ebrmban": 4074,
  "\u2581Fi": 4075,
  "\u2581duken": 4076,
  "\u2581attend": 4077,
  "\u2581pages": 4078,
  "\u2581sjellin": 4079,
  "\u2581throw": 4080,
  "\u2581accession": 4081,
  "\u2581conference": 4082,
  "\u2581directory": 4083,
  "\u2581explains": 4084,
  "\u2581nisi": 4085,
  "\u2581tidings": 4086,
  "\u2581travel": 4087,
  "Democratic": 4088,
  "\u2581mirat": 4089,
  "\u2581patur": 4090,
  "\u2581grupe": 4091,
  "\u2581k\u00ebshill\u00eb": 4092,
  "\u2581refuge": 4093,
  "\u2581box": 4094,
  "\u2581ears": 4095,
  "\u2581P\u00ebrkundrazi": 4096,
  "\u2581mund\u00ebsin\u00eb": 4097,
  "\u2581sake": 4098,
  "z\u00eb": 4099,
  "\u2581helps": 4100,
  "\u2581tongue": 4101,
  "sim": 4102,
  "ud": 4103,
  "\u25812004": 4104,
  "\u2581s\u00ebmundje": 4105,
  "\u2581watching": 4106,
  "\u2581budalla": 4107,
  "\u2581urged": 4108,
  "\u2581Forgiving": 4109,
  "\u2581activity": 4110,
  "\u2581Samuel": 4111,
  "\u2581although": 4112,
  "\u2581p\u00ebrdoret": 4113,
  "\u2581Kor": 4114,
  "\u2581usually": 4115,
  "\u2581gjakut": 4116,
  "\u2581ishit": 4117,
  "\u2581vajzat": 4118,
  "\u2581Scripture": 4119,
  "\u2581luftuar": 4120,
  "xhi": 4121,
  "\u2581gj\u00ebja": 4122,
  "\u2581ndjek": 4123,
  "\u2581k\u00ebshilla": 4124,
  "\u2581daughters": 4125,
  "\u2581gardens": 4126,
  "\u2581permission": 4127,
  "\u2581funny": 4128,
  "\u2581millions": 4129,
  "\u2581sector": 4130,
  "\u2581space": 4131,
  "\u2581strengthen": 4132,
  "\u2581weapons": 4133,
  "met": 4134,
  "\u2581terms": 4135,
  "oje": 4136,
  "\u2581medical": 4137,
  "\u2581middle": 4138,
  "Ky": 4139,
  "\u2581apply": 4140,
  "\u2581sistemi": 4141,
  "\u2581pije": 4142,
  "\u2581race": 4143,
  "\u2581Welcome": 4144,
  "\u2581fault": 4145,
  "*": 4146,
  "\u2581drejta": 4147,
  "\u2581predikimit": 4148,
  "\u258118:": 4149,
  "\u2581b\u00ebhesh": 4150,
  "\u258190": 4151,
  "\u2581p\u00ebrgjithsh\u00ebm": 4152,
  "onin": 4153,
  "\u258116:": 4154,
  "\u2581ari": 4155,
  "\u2581p\u00ebrtej": 4156,
  "\u2581related": 4157,
  "\u2581shpin\u00ebn": 4158,
  "\u2581Ad": 4159,
  "\u2581Sidoqoft\u00eb": 4160,
  "\u2581belong": 4161,
  "\u2581patience": 4162,
  "gje": 4163,
  "\u2581Par": 4164,
  "\u2581krejt\u00ebsisht": 4165,
  "\u2581veprim": 4166,
  "\u2581mountain": 4167,
  "ble": 4168,
  "anit": 4169,
  "\u2581krime": 4170,
  "\u2581instance": 4171,
  "\u2581krishtere": 4172,
  "\u25812005": 4173,
  "\u2581Miss": 4174,
  "\u2581Robert": 4175,
  "\u2581Very": 4176,
  "\u2581noted": 4177,
  "\u2581ride": 4178,
  "\u2581acts": 4179,
  "\u2581honey": 4180,
  "X": 4181,
  "bu": 4182,
  "les": 4183,
  "\u2581appear": 4184,
  "\u258123.": 4185,
  "\u2581T\u00cb": 4186,
  "\u2581njohuri": 4187,
  "\u2581tamam": 4188,
  "han": 4189,
  "\u2581handle": 4190,
  "\u2581invited": 4191,
  "\u2581miliona": 4192,
  "\u2581nj\u00ebher\u00eb": 4193,
  "They": 4194,
  "\u2581broke": 4195,
  "\u2581ndodhet": 4196,
  "\u2581Maqedonia": 4197,
  "\u2581green": 4198,
  "\u2581pleased": 4199,
  "\u2581proper": 4200,
  "led": 4201,
  "\u2581drejt\u00ebn": 4202,
  "\u2581hidden": 4203,
  "ik": 4204,
  "\u2581House": 4205,
  "\u2581dukshme": 4206,
  "\u2581pleqt\u00eb": 4207,
  "\u2581scared": 4208,
  "\u2581Under": 4209,
  "\u2581bijve": 4210,
  "\u2581kafsh\u00ebt": 4211,
  "\u2581ligjin": 4212,
  "\u2581decide": 4213,
  "\u2581rate": 4214,
  "\u2581Christmas": 4215,
  "\u2581organization": 4216,
  "\u2581silver": 4217,
  "\u2581urt\u00eb": 4218,
  "\u2581er\u00eb": 4219,
  "\u2581potential": 4220,
  "\u2581dhom\u00ebn": 4221,
  "\u2581drejt\u00ebsi": 4222,
  "nes": 4223,
  "\u2581dhom\u00eb": 4224,
  "\u25810": 4225,
  "\u2581iden\u00eb": 4226,
  "\u2581trupit": 4227,
  "\u2581Wow": 4228,
  "\u2581copy": 4229,
  "\u2581Um": 4230,
  "\u2581detyr\u00eb": 4231,
  "\u2581sikurse": 4232,
  "\u2581ba": 4233,
  "\u2581fail": 4234,
  "\u2581makina": 4235,
  "\u2581zgjedhje": 4236,
  "\u2581examples": 4237,
  "\u2581shumta": 4238,
  "\u2581q\u00ebllimin": 4239,
  "\u2581vision": 4240,
  "\u2581harruar": 4241,
  "\u2581n\u00ebnt\u00eb": 4242,
  "\u2581v\u00ebshtira": 4243,
  "\u2581Martin": 4244,
  "\u2581cop\u00eb": 4245,
  "\u2581proved": 4246,
  "\u2581rregullisht": 4247,
  "\u2581sell": 4248,
  "\u2581shfaq": 4249,
  "\u2581rrug\u00ebt": 4250,
  "\u2581witnesses": 4251,
  "\u00ebsi": 4252,
  "\u2581exercise": 4253,
  "\u2581makin\u00ebn": 4254,
  "\u2581sidomos": 4255,
  "\u2581dance": 4256,
  "\u2581fuqishme": 4257,
  "\u2581interes": 4258,
  "\u2581Maqedoni": 4259,
  "\u2581anyway": 4260,
  "\u2581Ivan": 4261,
  "\u2581Xhennet": 4262,
  "\u2581stood": 4263,
  "Ti": 4264,
  "\u2581direct": 4265,
  "\u2581ministers": 4266,
  "\u2581regard": 4267,
  "\u2581spoken": 4268,
  "\u2581pasurin\u00eb": 4269,
  "\u2581radh\u00eb": 4270,
  "\u2581saq\u00eb": 4271,
  "\u2581mbaj\u00eb": 4272,
  "\u2581workers": 4273,
  "\u2581\u25cf": 4274,
  "\u2581sweet": 4275,
  "\u2581Cyprus": 4276,
  "\u2581Pjetrit": 4277,
  "\u2581forbidden": 4278,
  "02/": 4279,
  "\u2581besimtar\u00ebve": 4280,
  "\u2581besnik": 4281,
  "\u2581budget": 4282,
  "kovic": 4283,
  "\u2581February": 4284,
  "\u2581Instead": 4285,
  "\u2581leading": 4286,
  "\u2581majority": 4287,
  "\u2581grace": 4288,
  "\u2581remained": 4289,
  "\u2581li": 4290,
  "ek": 4291,
  "\u2581Once": 4292,
  "\u2581babait": 4293,
  "\u2581prophecy": 4294,
  "\u2581keeping": 4295,
  "\u2581fytyr\u00ebn": 4296,
  "\u2581missing": 4297,
  "\u2581mate": 4298,
  "\u2581anglisht": 4299,
  "\u2581drejt\u00ebsis\u00eb": 4300,
  "\u2581hyr\u00eb": 4301,
  "\u2581t\u00ebrhequr": 4302,
  "mos": 4303,
  "\u25811990": 4304,
  "\u2581beat": 4305,
  "\u2581historin\u00eb": 4306,
  "\u2581showing": 4307,
  "\u2581lodhur": 4308,
  "ven": 4309,
  "\u2581Kurr\u00eb": 4310,
  "\u2581rrezikshme": 4311,
  "\u2581huge": 4312,
  "\u2581w": 4313,
  "\u2581materiale": 4314,
  "fik": 4315,
  "\u2581Brother": 4316,
  "\u2581add": 4317,
  "\u2581recorded": 4318,
  "\u2581biznesit": 4319,
  "\u2581mendojm\u00eb": 4320,
  "\u2581bashk\u00ebpunimin": 4321,
  "\u2581entered": 4322,
  "gj\u00eb": 4323,
  "jtin": 4324,
  "\u258119:": 4325,
  "\u2581izraelit\u00ebt": 4326,
  "\u2581mbaruar": 4327,
  "\u25811999": 4328,
  "\u2581Mother": 4329,
  "\u2581Washington": 4330,
  "\u2581Russian": 4331,
  "\u2581broken": 4332,
  "\u2581busy": 4333,
  "\u2581garden": 4334,
  "llo": 4335,
  "tjetrit": 4336,
  "\u2581campaign": 4337,
  "\u2581d\u00ebgjoj": 4338,
  "\u2581gjaku": 4339,
  "\u2581minut\u00eb": 4340,
  "\u2581priests": 4341,
  "\u2581v\u00ebllez\u00ebr": 4342,
  "Oh": 4343,
  "\u00c7far\u00eb": 4344,
  "\u2581pull": 4345,
  "duke": 4346,
  "\u2581nxjerrim": 4347,
  "\u2581female": 4348,
  "\u2581pem\u00eb": 4349,
  "\u2581goj\u00ebn": 4350,
  "\u2581B\u00ebj": 4351,
  "\u2581University": 4352,
  "\u2581shqet\u00ebsuar": 4353,
  "zh": 4354,
  "\u2581vajz\u00ebn": 4355,
  "ike": 4356,
  "if": 4357,
  "\u2581Shpresoj": 4358,
  "Muhammed": 4359,
  "\u2581b\u00ebje": 4360,
  "\u2581frym\u00ebs": 4361,
  "\u2581interests": 4362,
  "\u2581namazin": 4363,
  "\u2581provides": 4364,
  "\u2581dobishme": 4365,
  "\u2581luftojn\u00eb": 4366,
  "\u2581p\u00ebrpjekur": 4367,
  "org": 4368,
  "\u2581joined": 4369,
  "\u2581seed": 4370,
  "Why": 4371,
  "\u2581Nor": 4372,
  "\u2581Red": 4373,
  "\u2581exist": 4374,
  "\u2581killing": 4375,
  "\u2581gjykimit": 4376,
  "\u2581Ejani": 4377,
  "\u2581drit\u00ebn": 4378,
  "\u2581vje\u00e7are": 4379,
  "or\u00eb": 4380,
  "\u2581ngarkuar": 4381,
  "\u2581vegj\u00ebl": 4382,
  "\u2581Back": 4383,
  "\u2581Box": 4384,
  "\u2581Love": 4385,
  "\u2581intereson": 4386,
  "\u25812006": 4387,
  "\u2581City": 4388,
  "\u2581Mbreti": 4389,
  "\u2581aid": 4390,
  "\u2581marry": 4391,
  "\u2581shum": 4392,
  "\u2581bread": 4393,
  "\u2581sees": 4394,
  "bra": 4395,
  "\u2581udh\u00ebzon": 4396,
  "0": 4397,
  "\u2581Behold": 4398,
  "\u2581Davidit": 4399,
  "\u2581Mendova": 4400,
  "\u2581basis": 4401,
  "\u2581laid": 4402,
  "\u2581ndryshime": 4403,
  "\u2581dhan\u00eb": 4404,
  "\u2581Asia": 4405,
  "\u2581East": 4406,
  "\u2581lumenj": 4407,
  "\u2581stated": 4408,
  "\u2581creatures": 4409,
  "\u2581sistem": 4410,
  "prej": 4411,
  "\u2581djemt\u00eb": 4412,
  "\u2581Reh": 4413,
  "\u2581writing": 4414,
  "form": 4415,
  "\u2581hir": 4416,
  "\u2581trip": 4417,
  "\u2581dikujt": 4418,
  "\u2581Merre": 4419,
  "\u2581qualities": 4420,
  "\u2581Knowing": 4421,
  "\u2581artikull": 4422,
  "\u2581SH": 4423,
  "from": 4424,
  "\u2581k\u00ebqia": 4425,
  "\u2581Ty": 4426,
  "\u2581kuptova": 4427,
  "\u2581slow": 4428,
  "\u2581hast": 4429,
  "ura": 4430,
  "\u2581Earth": 4431,
  "\u2581floor": 4432,
  "\u2581Moisiut": 4433,
  "\u2581Thuaju": 4434,
  "\u2581becomes": 4435,
  "\u2581hequr": 4436,
  "\u2581rob": 4437,
  "\u2581birds": 4438,
  "\u2581prime": 4439,
  "\u2581computer": 4440,
  "\u2581kalimin": 4441,
  "\u2581sotme": 4442,
  "fin": 4443,
  "\u258120:": 4444,
  "\u2581Bill": 4445,
  "\u2581reflect": 4446,
  "\u2581seriozisht": 4447,
  "Ka": 4448,
  "\u2581soldiers": 4449,
  "\u2581Devil": 4450,
  "\u2581Master": 4451,
  "\u2581Think": 4452,
  "\u2581p\u00ebrulur": 4453,
  "kovi\u00e7": 4454,
  "tar\u00ebt": 4455,
  "\u2581causes": 4456,
  "\u2581learning": 4457,
  "\u2581krijimin": 4458,
  "\u2581recognize": 4459,
  "\u2581truthful": 4460,
  "\u2581visited": 4461,
  "sh\u00eb": 4462,
  "\u2581Aaron": 4463,
  "\u2581cil\u00ebsi": 4464,
  "\u2581jetojm\u00eb": 4465,
  "\u2581privat": 4466,
  "\u2581haptazi": 4467,
  "\u2581Jud\u00ebs": 4468,
  "\u2581da": 4469,
  "\u2581dispozicion": 4470,
  "\u2581bekuar": 4471,
  "\u2581growing": 4472,
  "\u2581murder": 4473,
  "\u2581Tri": 4474,
  "\u2581lindi": 4475,
  "\u2581mundesh": 4476,
  "\u2581krijon": 4477,
  "\u2581k\u00ebrkojm\u00eb": 4478,
  "\u2581grant": 4479,
  "\u2581Kan\u00eb": 4480,
  "\u2581v\u00ebllez\u00ebrve": 4481,
  "\u2581branch": 4482,
  "\u2581djalosh": 4483,
  "\u2581mungon": 4484,
  "\u2581vizit\u00eb": 4485,
  "\u2581animal": 4486,
  "\u2581weak": 4487,
  "ker": 4488,
  "\u2581Ca": 4489,
  "\u2581Musai": 4490,
  "\u2581expressed": 4491,
  "N\u00ebse": 4492,
  "\u2581programme": 4493,
  "\u2581shprehur": 4494,
  "qi": 4495,
  "\u2581dispute": 4496,
  "\u2581site": 4497,
  "4/": 4498,
  "\u2581Save": 4499,
  "\u2581prov\u00eb": 4500,
  "\u2581askujt": 4501,
  "\u2581proces": 4502,
  "\u2581stopped": 4503,
  "\u2581varf\u00ebr": 4504,
  "\u258113,": 4505,
  "\u25812009": 4506,
  "\u2581Ver": 4507,
  "\u2581ikur": 4508,
  "\u2581pat\u00ebm": 4509,
  "\u2581shpreh": 4510,
  "\u2581lutemi": 4511,
  "\u2581dalim": 4512,
  "\u2581kapur": 4513,
  "\u2581sexual": 4514,
  "hesh": 4515,
  "\u2581gather": 4516,
  "\u2581mirosur": 4517,
  "mb": 4518,
  "\u2581Something": 4519,
  "\u2581aft\u00eb": 4520,
  "\u2581rrit": 4521,
  "/12": 4522,
  "con": 4523,
  "\u2581\u00e7muar": 4524,
  "tin": 4525,
  "\u2581fotografi": 4526,
  "\u2581numbers": 4527,
  "\u2581heed": 4528,
  "\u2581Any": 4529,
  "\u2581joint": 4530,
  "\u2581lower": 4531,
  "\u2581Bob": 4532,
  "\u2581summer": 4533,
  "\u2581vital": 4534,
  "duhet": 4535,
  "\u2581negotiations": 4536,
  "\u2581organised": 4537,
  "are": 4538,
  "\u258136": 4539,
  "\u2581turning": 4540,
  "\u2581Merr": 4541,
  "ica": 4542,
  "\u2581duash": 4543,
  "\u2581Nay": 4544,
  "\u2581bien": 4545,
  "\u2581lufte": 4546,
  "\u2581tax": 4547,
  "\u2581\u00e7on": 4548,
  "03": 4549,
  "\u25812002": 4550,
  "\u2581anybody": 4551,
  "\u2581calm": 4552,
  "\u2581strive": 4553,
  "ll\u00eb": 4554,
  "\u2581respond": 4555,
  "jinn": 4556,
  "\u2581lini": 4557,
  "\u2581presidenti": 4558,
  "\u2581river": 4559,
  "\u2581caught": 4560,
  "\u2581mbase": 4561,
  "\u2581p\u00ebrmend": 4562,
  "but": 4563,
  "\u2581Roj\u00ebs": 4564,
  "\u2581paper": 4565,
  "\u2581seemed": 4566,
  "lan": 4567,
  "\u2581Har": 4568,
  "\u2581interesuar": 4569,
  "\u2581policia": 4570,
  "\u2581reveal": 4571,
  "\u2581varet": 4572,
  ")!": 4573,
  "Who": 4574,
  "\u2581ban": 4575,
  "\u2581count": 4576,
  "\u2581jav\u00ebn": 4577,
  "\u2581shkonte": 4578,
  "\u2581sh\u00ebrbimit": 4579,
  "\u2581Agency": 4580,
  "\u2581boat": 4581,
  "\u2581original": 4582,
  "pre": 4583,
  "\u2581chapter": 4584,
  "\u2581mosh\u00ebn": 4585,
  "\u2581nj\u00ebsoj": 4586,
  "\u2581quick": 4587,
  "\u2581q\u00ebndrim": 4588,
  "\u2581Du": 4589,
  "\u2581Kisha": 4590,
  "\u2581Timoteut": 4591,
  "\u2581aside": 4592,
  "\u2581gjej\u00eb": 4593,
  "\u2581shaka": 4594,
  "\u2581Leave": 4595,
  "\u2581Vet": 4596,
  "\u2581festival": 4597,
  "\u2581kilometra": 4598,
  "\u2581spiritually": 4599,
  "ex": 4600,
  "\u2581excellent": 4601,
  "\u2581p\u00eblqejn\u00eb": 4602,
  "\u2581review": 4603,
  "\u2581lands": 4604,
  "\u2581presented": 4605,
  "\u2581ushtarake": 4606,
  "\u2581bazuar": 4607,
  "\u2581detyruar": 4608,
  "\u2581lady": 4609,
  "\u2581appropriate": 4610,
  "\u2581mention": 4611,
  "\u2581verb\u00ebr": 4612,
  "\u258122.": 4613,
  "\u2581shpall\u00eb": 4614,
  "\u2581included": 4615,
  "t\u00ebr": 4616,
  "tri": 4617,
  "\u2581Njeriu": 4618,
  "\u2581luck": 4619,
  "\u2581ministri": 4620,
  "\u2581worst": 4621,
  "\u2581claim": 4622,
  "\u2581kap": 4623,
  "\u2581mendova": 4624,
  "\u2581shp\u00ebrblimi": 4625,
  "\u2581waste": 4626,
  "\u2581bringing": 4627,
  "\u2581finished": 4628,
  "\u2581Genesis": 4629,
  "\u2581ransom": 4630,
  "\u2581covered": 4631,
  "As": 4632,
  "\u2581njohin": 4633,
  "\u2581rock": 4634,
  "\u2581kombet": 4635,
  "\u2581ndikim": 4636,
  "\u2581tribunal": 4637,
  "\u2581Babylon": 4638,
  "\u2581difference": 4639,
  "\u2581magji": 4640,
  "\u2581padrejt\u00eb": 4641,
  "For": 4642,
  "\u2581Hap": 4643,
  "\u2581sought": 4644,
  "\u2581takuar": 4645,
  "\u2581lavdi": 4646,
  "\u2581p\u00ebrvoj\u00eb": 4647,
  "\u2581artikullin": 4648,
  "\u2581grupi": 4649,
  "\u2581debt": 4650,
  "\u2581djem": 4651,
  "\u2581journey": 4652,
  "\u25811995": 4653,
  "\u2581Ga": 4654,
  "\u2581Lexo": 4655,
  "\u2581Sea": 4656,
  "\u2581kane": 4657,
  "\u2581Sara": 4658,
  "\u2581gjeta": 4659,
  "\u2581nisur": 4660,
  "ski": 4661,
  "und": 4662,
  "\u2581drug": 4663,
  "\u2581sitting": 4664,
  "When": 4665,
  "\u2581gjykat\u00ebs": 4666,
  "\u2581kongregacionin": 4667,
  "\u2581Amerik\u00eb": 4668,
  "\u2581Ndalo": 4669,
  "\u2581zakonshme": 4670,
  "\u2581Jan": 4671,
  "\u2581code": 4672,
  "\u2581k\u00ebtej": 4673,
  "\u2581particular": 4674,
  "\u2581BBC": 4675,
  "\u2581Mrs": 4676,
  "\u2581kushtet": 4677,
  "\u2581patjet\u00ebr": 4678,
  "\u2581amazing": 4679,
  "\u2581zon\u00eb": 4680,
  "\u2581Each": 4681,
  "\u2581burden": 4682,
  "espite": 4683,
  "\u2581adhurimin": 4684,
  "\u2581crowd": 4685,
  "\u2581despite": 4686,
  "\u2581arrested": 4687,
  "\u2581cross": 4688,
  "\u2581ga": 4689,
  "\u2581request": 4690,
  "\u2581shok\u00eb": 4691,
  "\u258122:": 4692,
  "\u2581dhunti": 4693,
  "\u2581mistake": 4694,
  "\u2581\u00e7ast": 4695,
  "\u2581drejtat": 4696,
  "\u2581lejon": 4697,
  "\u2581bisedimeve": 4698,
  "\u2581botuar": 4699,
  "\u2581ftoht\u00eb": 4700,
  "\u2581maqedonas": 4701,
  "\u2581qindra": 4702,
  "\u2581rejoice": 4703,
  "wa": 4704,
  "\u2581punish": 4705,
  "\u2581ndihmo": 4706,
  "\u2581specific": 4707,
  "To": 4708,
  "\u2581brendshme": 4709,
  "\u2581fi": 4710,
  "\u2581futur": 4711,
  "bel": 4712,
  "7/": 4713,
  "\u2581Out": 4714,
  "\u2581Ali": 4715,
  "\u2581fush\u00eb": 4716,
  "\u2581fliste": 4717,
  "\u2581lejo": 4718,
  "\u2581mbani": 4719,
  "\u2581Van": 4720,
  "\u2581keto": 4721,
  "\u2581hotel": 4722,
  "\u2581premten": 4723,
  "\u2581r\u00ebnda": 4724,
  "\u2581Them": 4725,
  "\u2581Ve\u00e7": 4726,
  "\u2581West": 4727,
  "\u2581Proverbat": 4728,
  "\u2581election": 4729,
  "\u2581drejt\u00ebsin\u00eb": 4730,
  "\u2581kurrsesi": 4731,
  "oja": 4732,
  "\u2581kujton": 4733,
  "lle": 4734,
  "\u2581Shqip\u00ebri": 4735,
  "tion": 4736,
  "with": 4737,
  "\u2581dham\u00eb": 4738,
  "\u2581nobody": 4739,
  "\u2581prophets": 4740,
  "\u2581putting": 4741,
  "\u2581ran": 4742,
  "\u2581worldwide": 4743,
  "\u2581njer\u00ebzimin": 4744,
  "\u2581thirri": 4745,
  "\u2581tregoj\u00eb": 4746,
  "por": 4747,
  "\u2581Qur": 4748,
  "\u2581d\u00ebshmitar": 4749,
  "\u2581Musait": 4750,
  "\u2581rritjen": 4751,
  "\u2581fizike": 4752,
  "\u2581sistemin": 4753,
  "\u2581science": 4754,
  "\u2581series": 4755,
  "\u2581admit": 4756,
  "6/": 4757,
  "Re": 4758,
  "\u2581particularly": 4759,
  "\u2581sexhde": 4760,
  "\u2581shkruan": 4761,
  "Montenegro": 4762,
  "\u2581frik\u00ebsuar": 4763,
  "\u2581serb\u00eb": 4764,
  "\u2581store": 4765,
  "\u2581vepruar": 4766,
  "\u2581zon\u00ebn": 4767,
  "\u2581ended": 4768,
  "\u2581leaves": 4769,
  "\u2581mendja": 4770,
  "\u2581provuar": 4771,
  "\u2581wronged": 4772,
  "RI": 4773,
  "\u2581finish": 4774,
  "\u2581ndihesh": 4775,
  "\u2581barabart\u00eb": 4776,
  "\u2581precious": 4777,
  "\u2581qiellit": 4778,
  "\u2581telashe": 4779,
  "\u2581director": 4780,
  "\u2581lesson": 4781,
  "\u2581ho": 4782,
  "\u2581sides": 4783,
  "Pa": 4784,
  "tari": 4785,
  "\u2581Dav": 4786,
  "ris": 4787,
  "\u258148": 4788,
  "\u2581burim": 4789,
  "\u2581kuptimin": 4790,
  "\u2581dit\u00ebve": 4791,
  "\u2581Radio": 4792,
  "\u2581double": 4793,
  "\u2581forcat": 4794,
  "\u2581p\u00ebrpiqet": 4795,
  "ier": 4796,
  "\u2581Mal": 4797,
  "\u2581lufta": 4798,
  "\u258142": 4799,
  "\u2581Zoran": 4800,
  "\u2581camp": 4801,
  "\u2581procesin": 4802,
  "nik": 4803,
  "\u2581IN": 4804,
  "\u2581Though": 4805,
  "\u2581drugs": 4806,
  "\u2581investment": 4807,
  "KP": 4808,
  "\u2581Megjith\u00ebse": 4809,
  "\u2581Other": 4810,
  "\u2581lejoni": 4811,
  "\u2581Church": 4812,
  "\u2581Damn": 4813,
  "\u2581Evrop\u00ebs": 4814,
  "\u2581krishter\u00ebve": 4815,
  "\u2581seized": 4816,
  "\u2581shembuj": 4817,
  "\u2581languages": 4818,
  "\u2581serioze": 4819,
  "that": 4820,
  "\u2581Mike": 4821,
  "\u2581Pasha": 4822,
  "\u2581merrnin": 4823,
  "\u2581tjetri": 4824,
  "\u2581zhdukur": 4825,
  "\u2581Catholic": 4826,
  "\u2581Nikola": 4827,
  "\u2581mbrojtjes": 4828,
  "\u2581sh\u00ebmtuar": 4829,
  "like": 4830,
  "uri": 4831,
  "\u258138": 4832,
  "\u2581grek": 4833,
  "\u2581zemr\u00ebs": 4834,
  "\u2581proof": 4835,
  "\u2581services": 4836,
  "\u2581shkall\u00eb": 4837,
  "off": 4838,
  "\u2581miku": 4839,
  "\u2581station": 4840,
  "\u2581z\u00ebrin": 4841,
  "\u2581Simon": 4842,
  "\u2581altar": 4843,
  "\u2581prayed": 4844,
  "\u2581eating": 4845,
  "\u2581listening": 4846,
  "\u2581ora": 4847,
  "\u2581wedding": 4848,
  "\u2581Librit": 4849,
  "\u2581eventually": 4850,
  "\u2581zbatimi": 4851,
  "\u2581Among": 4852,
  "\u2581Bukur": 4853,
  "30": 4854,
  "\u2581profet": 4855,
  "\u2581Apostulli": 4856,
  "\u2581Huh": 4857,
  "\u2581Kroacis\u00eb": 4858,
  "\u2581abide": 4859,
  "\u2581besuesh\u00ebm": 4860,
  "\u2581informacion": 4861,
  "\u2581Mbi": 4862,
  "\u2581Select": 4863,
  "\u2581largest": 4864,
  "How": 4865,
  "\u2581kings": 4866,
  "\u2581Dakord": 4867,
  "\u2581Jeremiah": 4868,
  "\u2581par\u00ebt": 4869,
  "\u2581N\u00cb": 4870,
  "shem": 4871,
  "\u2581Biri": 4872,
  "\u2581experienced": 4873,
  "\u2581kot": 4874,
  "\u2581release": 4875,
  "\u2581pyes": 4876,
  "\u2581Besoj": 4877,
  "\u2581fsheht\u00eb": 4878,
  "\u2581Shpejt": 4879,
  "\u2581danger": 4880,
  "Sa": 4881,
  "arious": 4882,
  "ban": 4883,
  "\u2581humble": 4884,
  "\u2581l\u00ebm\u00eb": 4885,
  "ac": 4886,
  "\u2581Gati": 4887,
  "\u2581Moreover": 4888,
  "\u2581average": 4889,
  "\u2581feed": 4890,
  "\u2581m\u00ebparshme": 4891,
  "\u2581rreme": 4892,
  "\u2581stone": 4893,
  "\u2581magic": 4894,
  "\u2581projects": 4895,
  "\u2581super": 4896,
  "\u2581concerned": 4897,
  "\u2581replied": 4898,
  "\u2581premtimin": 4899,
  "\u2581sprov\u00eb": 4900,
  "\u2581observe": 4901,
  "\u2581fakti": 4902,
  "ose": 4903,
  "\u2581p\u00eblqente": 4904,
  "\u2581Social": 4905,
  "\u2581turke": 4906,
  "\u2581blow": 4907,
  "\u2581Parliament": 4908,
  "\u2581cattle": 4909,
  "\u2581exchange": 4910,
  "\u2581vini": 4911,
  "ru": 4912,
  "\u2581d\u00ebrguam": 4913,
  "\u2581importance": 4914,
  "\u2581vinin": 4915,
  "\u2581cultural": 4916,
  "\u2581centuries": 4917,
  "\u2581veshin": 4918,
  "k\u00ebs": 4919,
  "\u258117,": 4920,
  "\u2581periudh\u00eb": 4921,
  "\u2581p\u00ebrgjith\u00ebsi": 4922,
  "\u258124.": 4923,
  "\u2581Bye": 4924,
  "\u2581Turqi": 4925,
  "\u2581dore": 4926,
  "\u2581northern": 4927,
  "\u2581pika": 4928,
  "kun": 4929,
  "\u2581era": 4930,
  "\u2581arrin": 4931,
  "\u2581chose": 4932,
  "\u2581d\u00ebshtoi": 4933,
  "\u2581loyal": 4934,
  "\u2581ekonomik": 4935,
  "\u2581punoj": 4936,
  "\u2581North": 4937,
  "\u2581Pjetri": 4938,
  "\u2581trup": 4939,
  "\u2581Whoa": 4940,
  "\u2581profet\u00ebt": 4941,
  "\u2581treat": 4942,
  "\u2581earned": 4943,
  "\u2581hero": 4944,
  "\u2581ngase": 4945,
  "\u2581stars": 4946,
  "\u2581vazhdim": 4947,
  "gar": 4948,
  "\u2581Court": 4949,
  "\u2581Fjal\u00ebt": 4950,
  "\u2581Joe": 4951,
  "\u2581park": 4952,
  "\u2581rregullt": 4953,
  "\u2581sacred": 4954,
  "\u2581kroat": 4955,
  "\u2581ok": 4956,
  "\u2581Figurat": 4957,
  "\u2581preach": 4958,
  "ash": 4959,
  "\u2581Hebrews": 4960,
  "\u2581prefer": 4961,
  "\u2581p\u00ebrball\u00eb": 4962,
  "\u2581fillimi": 4963,
  "\u2581thyer": 4964,
  "Ku": 4965,
  "\u2581Everyone": 4966,
  "\u2581kafe": 4967,
  "\u2581Romak\u00ebve": 4968,
  "\u2581Satanait": 4969,
  "\u2581fly": 4970,
  "\u2581mami": 4971,
  "\u2581mohuar": 4972,
  "\u2581padrejt\u00ebsi": 4973,
  "\u2581rrotull": 4974,
  "\u2581th\u00ebrret": 4975,
  "\u2581bodies": 4976,
  "\u2581gjithsesi": 4977,
  "\u2581mbrojtje": 4978,
  "\u2581rriten": 4979,
  "\u2581keqja": 4980,
  "\u2581or\u00ebn": 4981,
  "\u2581opinion": 4982,
  "\u2581p\u00ebrfunduar": 4983,
  "\u2581Soon": 4984,
  "\u2581]": 4985,
  "\u2581affairs": 4986,
  "\u2581declared": 4987,
  "\u2581diel\u00ebn": 4988,
  "\u2581forc\u00ebn": 4989,
  "\u2581strike": 4990,
  "uk": 4991,
  "\u2581Bullgaria": 4992,
  "\u2581challenges": 4993,
  "\u2581location": 4994,
  "\u2581refused": 4995,
  "\u2581krijimi": 4996,
  "\u2581mamaja": 4997,
  "\u2581pioneer": 4998,
  "\u2581siguron": 4999,
  "\u00c7": 5000,
  "\u2581fes\u00eb": 5001,
  "\u258143": 5002,
  "\u2581Ministry": 5003,
  "\u2581ithtar\u00ebt": 5004,
  "\u2581released": 5005,
  "\u2581Shto": 5006,
  "\u2581gur\u00eb": 5007,
  "\u2581separate": 5008,
  "\u2581Whoever": 5009,
  "\u2581pension": 5010,
  "LEX": 5011,
  "\u2581Yo": 5012,
  "\u2581njer\u00ebzimit": 5013,
  "\u2581kidding": 5014,
  "\u2581survive": 5015,
  "\u2581produced": 5016,
  "ez": 5017,
  "ham": 5018,
  "\u2581hi": 5019,
  "\u2581interesante": 5020,
  "\u2581perform": 5021,
  "\u2581prova": 5022,
  "\u2581tregoni": 5023,
  "\u2581Ce": 5024,
  "\u2581Hour": 5025,
  "\u2581Italy": 5026,
  "\u2581rol": 5027,
  "\u2581shp\u00ebrblimin": 5028,
  "\u2581sold": 5029,
  "\u2581n\u00ebn\u00ebs": 5030,
  "\u2581warm": 5031,
  "\u2581Run": 5032,
  "\u2581Ballkanit": 5033,
  "\u2581an\u00ebtar": 5034,
  "\u2581kushdo": 5035,
  "\u2581overcome": 5036,
  "zon": 5037,
  "\u2581Natyrisht": 5038,
  "ang": 5039,
  "\u2581bag": 5040,
  "\u2581buddy": 5041,
  "\u2581zhvillimin": 5042,
  "Yes": 5043,
  "bit": 5044,
  "\u2581somewhere": 5045,
  "que": 5046,
  "\u2581Later": 5047,
  "\u2581Nese": 5048,
  "\u2581Ni": 5049,
  "\u2581color": 5050,
  "\u2581Shqip\u00ebria": 5051,
  "\u2581deklarat\u00eb": 5052,
  "\u2581men\u00e7uri": 5053,
  "\u2581takimin": 5054,
  "\u2581Shkup": 5055,
  "\u2581mbeten": 5056,
  "\u2581mbledhur": 5057,
  "nim": 5058,
  "sion": 5059,
  "\u2581Rome": 5060,
  "\u2581luan": 5061,
  "\u258122,": 5062,
  "\u2581setting": 5063,
  "\u2581shembullin": 5064,
  "tit": 5065,
  "\u2581British": 5066,
  "\u2581London": 5067,
  "\u2581Shikoni": 5068,
  "\u2581below": 5069,
  "\u2581cried": 5070,
  "\u2581Jusuf": 5071,
  "\u2581Tirana": 5072,
  "ph": 5073,
  "\u2581Shi": 5074,
  "\u2581disi": 5075,
  "\u2581shfaqur": 5076,
  "\u2581Qe": 5077,
  "\u2581belief": 5078,
  "\u2581Muslims": 5079,
  "\u258119,": 5080,
  "\u2581arms": 5081,
  "\u2581assistance": 5082,
  "\u2581believes": 5083,
  "\u2581p\u00ebrfundoi": 5084,
  "xh": 5085,
  "\u2581Awake": 5086,
  "\u2581hall": 5087,
  "\u2581teacher": 5088,
  "\u2581udh\u00ebzuar": 5089,
  "\u2581Saturday": 5090,
  "\u2581waters": 5091,
  "\u2581developed": 5092,
  "\u2581dinner": 5093,
  "\u2581kaloi": 5094,
  "\u2581parimet": 5095,
  "\u2581vrau": 5096,
  "\u2581v\u00ebrejtjen": 5097,
  "\u2581wide": 5098,
  "ok": 5099,
  "\u2581Sh\u00ebnimi": 5100,
  "\u2581includes": 5101,
  "\u2581youth": 5102,
  "\u2581Daddy": 5103,
  "\u2581Jovan": 5104,
  "\u2581persons": 5105,
  "\u2581p\u00ebrcaktuar": 5106,
  "bin": 5107,
  "\u2581Check": 5108,
  "\u2581fa": 5109,
  "\u2581impossible": 5110,
  "\u2581pamje": 5111,
  "\u2581that\u00eb": 5112,
  "lon": 5113,
  "\u2581Car": 5114,
  "\u2581ore": 5115,
  "\u2581vrasin": 5116,
  "\u2581inhabitants": 5117,
  "\u2581V\u00ebrtet\u00eb": 5118,
  "\u2581Zgjohuni": 5119,
  "\u2581lindjes": 5120,
  "\u2581nd\u00ebrtimin": 5121,
  "\u2581nevojat": 5122,
  "\u2581\u00ebnd\u00ebrr": 5123,
  "nk": 5124,
  "\u2581p\u00ebrgjegj\u00ebs": 5125,
  "\u2581Anna": 5126,
  "\u2581bind": 5127,
  "\u2581dollars": 5128,
  "\u2581hije": 5129,
  "\u2581correct": 5130,
  "\u2581Tra": 5131,
  "\u2581Way": 5132,
  "\u2581holding": 5133,
  "\u2581internet": 5134,
  "tha": 5135,
  "\u2581Rat": 5136,
  "\u2581afrohet": 5137,
  "\u2581ring": 5138,
  "\u2581safety": 5139,
  "KK": 5140,
  "kin": 5141,
  "\u2581central": 5142,
  "\u2581congregations": 5143,
  "\u2581k\u00ebndshme": 5144,
  "\u2581nevojitet": 5145,
  "\u2581spital": 5146,
  "\u2581komb\u00ebtare": 5147,
  "\u2581wake": 5148,
  "we": 5149,
  "\u2581Koha": 5150,
  "\u2581cdo": 5151,
  "\u2581clothes": 5152,
  "\u2581grew": 5153,
  "\u2581kthyen": 5154,
  "\u2581Secretary": 5155,
  "\u2581goditur": 5156,
  "\u2581nxitur": 5157,
  "\u2581plain": 5158,
  "\u2581reality": 5159,
  "\u25812011": 5160,
  "\u2581Greqia": 5161,
  "\u2581Hence": 5162,
  "\u2581Val": 5163,
  "\u2581empty": 5164,
  "DP": 5165,
  "\u2581personi": 5166,
  "mat": 5167,
  "\u2581Art": 5168,
  "\u2581Gul": 5169,
  "\u2581Sali": 5170,
  "\u2581assigned": 5171,
  "\u2581threat": 5172,
  "\u2581curse": 5173,
  "cent": 5174,
  "zuar": 5175,
  "\u2581Find": 5176,
  "\u2581han\u00eb": 5177,
  "\u2581privilege": 5178,
  "\u2581veprimet": 5179,
  "\u2581attended": 5180,
  "\u2581ndjenja": 5181,
  "\u2581salvation": 5182,
  "\u2581Shumica": 5183,
  "\u2581Ligji": 5184,
  "\u2581Spirit": 5185,
  "\u2581Zbulesa": 5186,
  "\u2581continues": 5187,
  "\u2581pan\u00eb": 5188,
  "\u2581Ik": 5189,
  "\u2581Tek": 5190,
  "\u2581urrej": 5191,
  "var": 5192,
  "\u2581Jake": 5193,
  "\u2581Ru": 5194,
  "\u2581momentin": 5195,
  "\u2581previous": 5196,
  "\u2581civil": 5197,
  "\u2581currently": 5198,
  "\u2581jap\u00ebsh": 5199,
  "\u2581Bring": 5200,
  "\u2581completed": 5201,
  "\u2581qejf": 5202,
  "\u2581treatment": 5203,
  "ps": 5204,
  "\u2581enjoyed": 5205,
  "\u2581expression": 5206,
  "\u2581hyjn\u00eb": 5207,
  "\u2581kijametit": 5208,
  "\u2581mundshme": 5209,
  "\u2581quiet": 5210,
  "\u2581closed": 5211,
  "\u2581coalition": 5212,
  "\u2581shoh\u00eb": 5213,
  "kovski": 5214,
  "\u2581Both": 5215,
  "\u2581Mat": 5216,
  "\u2581Media": 5217,
  "\u2581Use": 5218,
  "\u2581zbritur": 5219,
  "Read": 5220,
  "\u2581ice": 5221,
  "\u2581integrity": 5222,
  "\u2581stick": 5223,
  "\u2581technology": 5224,
  "\u2581wear": 5225,
  "\u2581guxim": 5226,
  "\u2581Nje": 5227,
  "\u2581criminal": 5228,
  "\u2581realized": 5229,
  "Kush": 5230,
  "\u2581ligji": 5231,
  "cause": 5232,
  "au": 5233,
  "\u00e7e": 5234,
  "nit": 5235,
  "\u2581Next": 5236,
  "\u2581seksuale": 5237,
  "\u2581starting": 5238,
  "gur": 5239,
  "\u2581H\u00eb": 5240,
  "\u2581iki": 5241,
  "\u2581lloji": 5242,
  "\u2581mendimet": 5243,
  "\u2581push": 5244,
  "\u2581shouldn": 5245,
  "\u2581supported": 5246,
  "kat": 5247,
  "\u2581moshuar": 5248,
  "\u2581mundet": 5249,
  "\u2581p\u00ebrjashtim": 5250,
  "\u2581sigurin\u00eb": 5251,
  "zic": 5252,
  "\u2581victims": 5253,
  "That": 5254,
  "\u2581FBI": 5255,
  "\u2581courage": 5256,
  "\u2581donin": 5257,
  "\u2581significant": 5258,
  "\u2581tender": 5259,
  "\u2581endure": 5260,
  "\u2581fytyr\u00eb": 5261,
  "esa": 5262,
  "\u2581Brussels": 5263,
  "\u2581Jordan": 5264,
  "\u2581ruhen": 5265,
  "\u2581Hague": 5266,
  "\u2581India": 5267,
  "\u2581Shihemi": 5268,
  "\u2581consequences": 5269,
  "\u2581dashuris\u00eb": 5270,
  "\u2581province": 5271,
  "\u2581p\u00ebrfshijn\u00eb": 5272,
  "\u2581saith": 5273,
  "\u2581tip": 5274,
  "\u2581Faith": 5275,
  "\u2581ndihma": 5276,
  "fu": 5277,
  "\u2581removed": 5278,
  "\u2581song": 5279,
  "\u2581Gar": 5280,
  "\u2581af\u00ebrmit": 5281,
  "\u2581fruits": 5282,
  "\u2581normale": 5283,
  "\u2581paradise": 5284,
  "\u2581tend": 5285,
  "ther": 5286,
  "\u2581midst": 5287,
  "\u2581veri": 5288,
  "\u2581credit": 5289,
  "\u2581culture": 5290,
  "\u2581discussed": 5291,
  "\u2581generations": 5292,
  "\u2581pavarur": 5293,
  "\u2581relative": 5294,
  "\u2581Bo": 5295,
  "\u2581ushtris\u00eb": 5296,
  "\u2581ball": 5297,
  "\u2581ndihmoni": 5298,
  "you": 5299,
  "\u2581Di\u00e7ka": 5300,
  "\u2581conscience": 5301,
  "\u2581mesin": 5302,
  "\u2581popular": 5303,
  "\u2581quit": 5304,
  "\u2581informacione": 5305,
  "\u2581matur": 5306,
  "\u2581shmangur": 5307,
  "\u2581south": 5308,
  "\u2581staff": 5309,
  "\u2581Captain": 5310,
  "Let": 5311,
  "nde": 5312,
  "\u2581gji": 5313,
  "\u2581situat\u00eb": 5314,
  "\u2581Patjet\u00ebr": 5315,
  "\u2581Han": 5316,
  "\u2581kontakt": 5317,
  "\u2581Ibrahim": 5318,
  "lar": 5319,
  "\u2581d\u00ebshir\u00ebn": 5320,
  "\u2581far\u00eb": 5321,
  "at\u00eb": 5322,
  "oheshin": 5323,
  "ya": 5324,
  "\u2581Shih": 5325,
  "\u2581bast": 5326,
  "\u2581flisni": 5327,
  "\u2581suffered": 5328,
  "\u2581Central": 5329,
  "\u2581Gardens": 5330,
  "\u2581Mir": 5331,
  "\u2581Lart\u00eb": 5332,
  "\u2581arsyeja": 5333,
  "\u2581discovered": 5334,
  "\u2581occasion": 5335,
  "\u2581p\u00ebrfundimin": 5336,
  "\u2581tmerrsh\u00ebm": 5337,
  "\u2581Add": 5338,
  "\u2581Charlie": 5339,
  "har": 5340,
  "\u2581Q": 5341,
  "\u2581seat": 5342,
  "\u2581urdh\u00ebr": 5343,
  "\u2581kinds": 5344,
  "\u2581vendimin": 5345,
  "\u2581ver\u00eb": 5346,
  "ove": 5347,
  "\u2581Alo": 5348,
  "\u2581Baba": 5349,
  "\u2581Tung": 5350,
  "\u2581hang": 5351,
  "\u2581lut": 5352,
  "\u2581va": 5353,
  "\u2581kuqe": 5354,
  "\u2581mbyll": 5355,
  "\u2581plako": 5356,
  "\u2581p\u00ebrdori": 5357,
  "fo": 5358,
  "\u2581basic": 5359,
  "\u2581newspaper": 5360,
  "\u2581pasardh\u00ebsit": 5361,
  "92": 5362,
  "\u2581m\u00ebdhenj": 5363,
  "\u2581persona": 5364,
  "om": 5365,
  "\u2581drinking": 5366,
  "\u2581lajm": 5367,
  "\u2581shkuan": 5368,
  "\u2581majt\u00eb": 5369,
  "\u2581sends": 5370,
  "\u2581cop": 5371,
  "\u2581kujdeset": 5372,
  "\u2581wrath": 5373,
  "ros": 5374,
  "\u2581Krisht": 5375,
  "\u2581d\u00ebnuar": 5376,
  "\u2581guides": 5377,
  "\u2581paqen": 5378,
  "\u2581target": 5379,
  "ishte": 5380,
  "\u2581Big": 5381,
  "\u2581Messiah": 5382,
  "\u2581an\u00ebtar\u00ebt": 5383,
  "\u2581falur": 5384,
  "\u2581shpie": 5385,
  "sti": 5386,
  "\u258125.": 5387,
  "\u2581ndrysh\u00ebm": 5388,
  "\u2581panjohur": 5389,
  "\u2581cilave": 5390,
  "\u2581household": 5391,
  "\u2581version": 5392,
  "Lexo": 5393,
  "\u2581accounts": 5394,
  "\u2581active": 5395,
  "\u2581prepare": 5396,
  "\u2581suddenly": 5397,
  "\u2581Chinese": 5398,
  "\u2581planifikuar": 5399,
  "jt": 5400,
  "\u25811998": 5401,
  "\u2581possess": 5402,
  "\u2581Free": 5403,
  "\u2581bestowed": 5404,
  "port": 5405,
  "\u2581Eve": 5406,
  "\u2581exists": 5407,
  "\u2581gate": 5408,
  "\u2581hyri": 5409,
  "\u2581troops": 5410,
  "\u2581du": 5411,
  "\u2581largohet": 5412,
  "\u2581hua": 5413,
  "\u2581praktike": 5414,
  "\u2581vetveten": 5415,
  "io": 5416,
  "\u2581Nobody": 5417,
  "\u2581boss": 5418,
  "\u2581mohojn\u00eb": 5419,
  "\u2581Pop": 5420,
  "\u2581kulturore": 5421,
  "\u2581Banka": 5422,
  "\u2581Black": 5423,
  "\u2581Georgi": 5424,
  "\u2581trap": 5425,
  "\u2581twice": 5426,
  "\u2581t\u00ebrheq": 5427,
  "eli": 5428,
  "\u2581conversation": 5429,
  "\u2581dhembsh\u00ebm": 5430,
  "based": 5431,
  "\u2581gjakun": 5432,
  "eri": 5433,
  "\u2581bler\u00eb": 5434,
  "tik": 5435,
  "\u2581Message": 5436,
  "\u2581dis": 5437,
  "\u2581pir\u00eb": 5438,
  "\u2581representatives": 5439,
  "\u2581shfaqje": 5440,
  "\u2581erdhe": 5441,
  "\u2581lajme": 5442,
  "\u2581Scriptural": 5443,
  "\u2581match": 5444,
  "\u2581mesazhit": 5445,
  "\u2581an\u00ebtar\u00eb": 5446,
  "\u2581sekonda": 5447,
  "\u2581accurate": 5448,
  "\u2581energji": 5449,
  "\u2581experts": 5450,
  "\u2581femra": 5451,
  "\u2581hapi": 5452,
  "\u2581kusht": 5453,
  "mar": 5454,
  "\u2581ran\u00eb": 5455,
  "timi": 5456,
  "...\"": 5457,
  "\u2581submit": 5458,
  "\u2581surprise": 5459,
  "\u258118,": 5460,
  "\u2581Qet\u00ebsohu": 5461,
  "\u2581express": 5462,
  "\u2581movie": 5463,
  "\u2581d\u00ebshmitar\u00eb": 5464,
  "\u2581zgjedhjeve": 5465,
  "tru": 5466,
  "\u2581ruin": 5467,
  "\u2581Sometimes": 5468,
  "quot": 5469,
  "rja": 5470,
  "\u2581Sta": 5471,
  "\u2581asnj\u00ebher\u00eb": 5472,
  "\u2581effective": 5473,
  "\u2581emrat": 5474,
  "\u2581honest": 5475,
  "\u2581l\u00ebvizje": 5476,
  "\u2581150": 5477,
  "\u2581impact": 5478,
  "\u2581reminder": 5479,
  "\u2581tjetr\u00ebn": 5480,
  "\u2581Vuk": 5481,
  "\u2581f\u00ebmij\u00ebn": 5482,
  "\u2581incident": 5483,
  "\u2581totally": 5484,
  "\u2581portion": 5485,
  "\u2581practical": 5486,
  "\u2581Hebrenjve": 5487,
  "Q": 5488,
  "\u2581armik": 5489,
  "\u2581fought": 5490,
  "\u2581relatives": 5491,
  "\u2581shumic\u00ebn": 5492,
  "ating": 5493,
  "tare": 5494,
  "\u258165": 5495,
  "\u2581Madh": 5496,
  "\u2581emrit": 5497,
  "\u2581pik\u00ebpamje": 5498,
  "\u2581qeverin\u00eb": 5499,
  "\u2581slaves": 5500,
  "\u2581ujin": 5501,
  "\u2581Kthehu": 5502,
  "\u2581adopted": 5503,
  "\u2581dikur": 5504,
  "\u2581prostrate": 5505,
  "\u2581till\u00ebt": 5506,
  "ens": 5507,
  "\u2581morale": 5508,
  "\u2581m\u00ebparsh\u00ebm": 5509,
  "\u2581poverty": 5510,
  "\u2581udh\u00ebn": 5511,
  "\u2581v\u00ebmendjen": 5512,
  "nu": 5513,
  "\u2581Without": 5514,
  "\u2581lavd\u00ebruar": 5515,
  "\u2581ndodhte": 5516,
  "\u2581\u00e7uar": 5517,
  "\u2581Sarajev\u00eb": 5518,
  "\u2581appeared": 5519,
  "\u2581kaluar\u00ebn": 5520,
  "\u2581ndryshon": 5521,
  "\u2581leads": 5522,
  "\u2581p\u00ebrgjithshme": 5523,
  "\u2581ushqimin": 5524,
  "\u2581Kost": 5525,
  "\u2581Rumania": 5526,
  "\u2581existence": 5527,
  "\u2581online": 5528,
  "\u2581Shqip\u00ebris\u00eb": 5529,
  "\u2581biggest": 5530,
  "\u2581hundreds": 5531,
  "\u2581ndryshojn\u00eb": 5532,
  "\u2581q\u00ebllimi": 5533,
  "\u2581tired": 5534,
  "\u2581400": 5535,
  "\u2581Fa": 5536,
  "\u2581Stan": 5537,
  "\u2581divided": 5538,
  "\u2581ko": 5539,
  "\u2581ndodhin": 5540,
  "\u2581aft\u00ebsi": 5541,
  "\u2581drita": 5542,
  "\u2581zyrtare": 5543,
  "\u2581zakon": 5544,
  "See": 5545,
  "\u2581zyrtar\u00ebt": 5546,
  "\u2581List": 5547,
  "\u2581pjekur": 5548,
  "\u2581struck": 5549,
  "lat": 5550,
  "lik": 5551,
  "\u2581ben": 5552,
  "\u2581krer\u00ebt": 5553,
  "\u2581k\u00ebrkoj\u00eb": 5554,
  "\u2581repentance": 5555,
  "\u2581angry": 5556,
  "\u2581takimit": 5557,
  "\u2581meat": 5558,
  "\u2581wherein": 5559,
  "\u2581ndryshimet": 5560,
  "\u2581nj\u00ebjta": 5561,
  "\u2581Tiran\u00eb": 5562,
  "\u2581Turn": 5563,
  "\u2581familjet": 5564,
  "\u2581meriton": 5565,
  "\u2581bounty": 5566,
  "\u2581lord": 5567,
  "\u2581stayed": 5568,
  "\u2581whatsoever": 5569,
  "\u2581Beth": 5570,
  "\u2581p\u00ebrshkruan": 5571,
  "\u2581sounds": 5572,
  "Ja": 5573,
  "\u2581Others": 5574,
  "\u2581goditi": 5575,
  "\u2581note": 5576,
  "\u2581stability": 5577,
  "\u2581touched": 5578,
  "\u2581bow": 5579,
  "\u2581zhvilluar": 5580,
  "jan\u00eb": 5581,
  "\u2581Matt": 5582,
  "\u2581appreciation": 5583,
  "\u2581behalf": 5584,
  "\u2581connection": 5585,
  "\u2581ideas": 5586,
  "\u2581m\u00ebkateve": 5587,
  "\u2581ofron": 5588,
  "\u2581secilin": 5589,
  "\u2581thonin": 5590,
  "\";": 5591,
  "ot": 5592,
  "\u2581Ge": 5593,
  "\u2581b\u00ebhemi": 5594,
  "\u2581dry": 5595,
  "\u2581k\u00ebrkonte": 5596,
  "\u2581ngjyr\u00eb": 5597,
  "\u2581talked": 5598,
  "\u2581values": 5599,
  "ite": 5600,
  "\u2581udh\u00ebtim": 5601,
  "esku": 5602,
  "\u2581Yugoslavia": 5603,
  "\u2581teachings": 5604,
  "nja": 5605,
  "\u2581notice": 5606,
  "\u2581pjes\u00ebtar\u00eb": 5607,
  "\u2581repent": 5608,
  "oz": 5609,
  "tes": 5610,
  "ndr": 5611,
  "\u2581andej": 5612,
  "\u2581studying": 5613,
  "Burime": 5614,
  "\u2581easily": 5615,
  "\u2581miliard": 5616,
  "ime": 5617,
  "vin": 5618,
  "\u2581forced": 5619,
  "\u2581Sarah": 5620,
  "\u2581stories": 5621,
  "IN": 5622,
  "MF": 5623,
  "\u2581bid": 5624,
  "\u2581interesting": 5625,
  "\u2581kombeve": 5626,
  "\u2581lajmeve": 5627,
  "\u2581seconds": 5628,
  "\u2581backs": 5629,
  "\u2581jasht\u00ebzakonshme": 5630,
  "\u2581jobs": 5631,
  "\u2581tutje": 5632,
  "Go": 5633,
  "\u2581Demokratike": 5634,
  "\u2581shpjegoi": 5635,
  "\u2581Failed": 5636,
  "\u2581Nevertheless": 5637,
  "\u2581Pavar\u00ebsisht": 5638,
  "\u2581drejton": 5639,
  "dit": 5640,
  "\u2581Association": 5641,
  "\u2581Mbret\u00ebria": 5642,
  "\u2581Nd\u00ebr": 5643,
  "\u2581afro": 5644,
  "\u2581approved": 5645,
  "\u2581con": 5646,
  "\u2581seriously": 5647,
  ":%": 5648,
  "\u2581Mon": 5649,
  "\u2581Bullgaris\u00eb": 5650,
  "\u2581humbi": 5651,
  "\u2581sending": 5652,
  "\u2581Nikol": 5653,
  "\u2581agency": 5654,
  "\u2581doje": 5655,
  "\u2581encourage": 5656,
  "\u2581rolin": 5657,
  "ub": 5658,
  "\u2581Fine": 5659,
  "\u2581feels": 5660,
  "\u2581gjendja": 5661,
  "\u2581mbuluar": 5662,
  "\u2581qiellore": 5663,
  "\u2581ushtri": 5664,
  "\u2581banor\u00eb": 5665,
  "\u2581harmoni": 5666,
  "\u2581ndonje": 5667,
  "\u2581ndon\u00ebse": 5668,
  "\u2581offspring": 5669,
  "\u2581rrobat": 5670,
  "rik": 5671,
  "\u2581luajtur": 5672,
  "\u2581polic": 5673,
  "\u2581beauty": 5674,
  "\u2581mbrojtjen": 5675,
  "\u2581ngjash\u00ebm": 5676,
  "\u258155": 5677,
  "\u2581Bor": 5678,
  "\u2581P\u00cbR": 5679,
  "\u2581details": 5680,
  "\u2581ships": 5681,
  "\u2581Dis": 5682,
  "\u2581carefully": 5683,
  "\u2581played": 5684,
  "\u2581remind": 5685,
  "\u2581an\u00ebtare": 5686,
  "\u2581vjet\u00ebsh": 5687,
  "chi": 5688,
  "\u2581base": 5689,
  "\u2581dinin": 5690,
  "\u2581grieve": 5691,
  "\u2581strange": 5692,
  "\u2581wild": 5693,
  "\u2581Kal": 5694,
  "\u2581hapa": 5695,
  "\u2581nevoj\u00ebn": 5696,
  "TY": 5697,
  "end": 5698,
  "\u2581anywhere": 5699,
  "\u2581f\u00ebmija": 5700,
  "\u2581kthehesh": 5701,
  "anovic": 5702,
  "\u2581Pavlit": 5703,
  "\u2581fush\u00ebn": 5704,
  "\u2581tone": 5705,
  "\u2581turp": 5706,
  "bri": 5707,
  "\u2581Gjithmon\u00eb": 5708,
  "\u2581Lot": 5709,
  "\u2581adhurojn\u00eb": 5710,
  "\u2581format": 5711,
  "\u2581godly": 5712,
  "\u2581pranimit": 5713,
  "\u2581universe": 5714,
  "\u2581bought": 5715,
  "\u2581pasojat": 5716,
  "\u258120,": 5717,
  "\u2581coffee": 5718,
  "\u2581p\u00ebrditshme": 5719,
  "\u2581ushtarak": 5720,
  "novi\u00e7": 5721,
  "\u2581dishepujve": 5722,
  "\u2581prekur": 5723,
  "ON": 5724,
  "\u2581Someone": 5725,
  "\u2581imitate": 5726,
  "\u2581heat": 5727,
  "\u2581pieces": 5728,
  "\u2581politik\u00eb": 5729,
  "\u2581miratimin": 5730,
  "\u2581territory": 5731,
  "RS": 5732,
  "don": 5733,
  "\u2581Q\u00ebndro": 5734,
  "\u2581dyve": 5735,
  "\u2581Mount": 5736,
  "\u2581ball\u00eb": 5737,
  "\u2581harmony": 5738,
  "\u2581p\u00ebrfundim": 5739,
  "\u2581quajn\u00eb": 5740,
  "\u2581bird": 5741,
  "\u2581regularly": 5742,
  "\u2581gjum\u00eb": 5743,
  "\u2581thinks": 5744,
  "\u2581list\u00ebn": 5745,
  "\u2581pasuria": 5746,
  "\u2581species": 5747,
  "\u2581terrorist": 5748,
  "\u2581vertete": 5749,
  "\u2581D\u00ebshiron": 5750,
  "\u2581arm": 5751,
  "\u2581l\u00ebsh": 5752,
  "\u2581mohoni": 5753,
  "\u2581smoke": 5754,
  "\u2581Akoma": 5755,
  "\u2581ati": 5756,
  "Musai": 5757,
  "ran": 5758,
  "\u2581Work": 5759,
  "ize": 5760,
  "\u2581vazhdoi": 5761,
  "res": 5762,
  "\u2581Evropian": 5763,
  "\u2581Max": 5764,
  "\u2581dude": 5765,
  "\u2581zjarrin": 5766,
  "ap": 5767,
  "\u2581Fir": 5768,
  "\u2581Istanbul": 5769,
  "\u2581Tok\u00ebs": 5770,
  "\u2581martes\u00eb": 5771,
  "Laughter": 5772,
  "enca": 5773,
  "\u2581kini": 5774,
  "\u2581Australia": 5775,
  "\u2581shp\u00ebtoj\u00eb": 5776,
  "oh": 5777,
  "\u2581;": 5778,
  "\u2581Everybody": 5779,
  "\u2581generation": 5780,
  "\u2581programin": 5781,
  "\u2581bastard": 5782,
  "\u2581bones": 5783,
  "\u2581gjet\u00ebn": 5784,
  "\u2581tham\u00eb": 5785,
  "\u2581unable": 5786,
  "\u258141": 5787,
  "\u2581lawful": 5788,
  "\u2581lumturi": 5789,
  "\u2581dje": 5790,
  "\u2581mark": 5791,
  "ky": 5792,
  "\u2581Prej": 5793,
  "\u2581Mali": 5794,
  "\u2581familjare": 5795,
  "\u2581q\u00ebndrueshme": 5796,
  "\u2581Im": 5797,
  "\u2581krimet": 5798,
  "\u2581mad": 5799,
  "\u2581m\u00ebshira": 5800,
  "\u2581object": 5801,
  "\u2581plot\u00ebsuar": 5802,
  "\u2581resources": 5803,
  "\u2581session": 5804,
  "\u2581zona": 5805,
  "stra": 5806,
  "\u2581suaj": 5807,
  "\u2581keeps": 5808,
  "\u2581mbush": 5809,
  "nd\u00ebr": 5810,
  "\u2581card": 5811,
  "\u2581figura": 5812,
  "\u2581kryejn\u00eb": 5813,
  "02": 5814,
  "ized": 5815,
  "\u2581Ml": 5816,
  "\u2581dh\u00ebnat": 5817,
  "\u2581funds": 5818,
  "\u2581mjaftueshme": 5819,
  "\u2581muajin": 5820,
  "\u2581planned": 5821,
  "\u2581shkaktuar": 5822,
  "\u2581driving": 5823,
  "\u2581gj\u00ebje": 5824,
  "\u2581Bucharest": 5825,
  "\u2581Gal": 5826,
  "\u2581fem\u00ebr": 5827,
  "\u2581fresh": 5828,
  "\u2581frym\u00ebsisht": 5829,
  "\u2581memory": 5830,
  "\u2581veprojn\u00eb": 5831,
  "\u2581D\u00ebshmitar": 5832,
  "\u2581m\u00ebtejshme": 5833,
  "+": 5834,
  "\u2581throne": 5835,
  "jam": 5836,
  "\u2581Ji": 5837,
  "\u2581dometh\u00ebn\u00eb": 5838,
  "\u2581premtimi": 5839,
  "\u2581EC": 5840,
  "\u2581Joshua": 5841,
  "\u2581Mighty": 5842,
  "\u2581cells": 5843,
  "\u2581lloje": 5844,
  "\u2581m\u00ebsimet": 5845,
  "\u2581n\u00ebn\u00ebn": 5846,
  "\u2581sincere": 5847,
  "\u2581Isaac": 5848,
  "\u2581mbash": 5849,
  "\u2581pride": 5850,
  "\u2581Linda": 5851,
  "\u2581fit": 5852,
  "\u2581forgot": 5853,
  "\u2581largohen": 5854,
  "\u2581mbante": 5855,
  "\u2581vendimi": 5856,
  "\u2581Forca": 5857,
  "\u2581Islam": 5858,
  "\u2581Jeta": 5859,
  "\u2581divorce": 5860,
  "\u2581habit": 5861,
  "\u2581theksoi": 5862,
  "\u2581Nat\u00ebn": 5863,
  "\u2581Partis\u00eb": 5864,
  "\u2581beneath": 5865,
  "\u2581occurred": 5866,
  "\u2581(%": 5867,
  "\u2581trials": 5868,
  "\u2581illegal": 5869,
  "\u2581kthejn\u00eb": 5870,
  "mor": 5871,
  "\u2581Dita": 5872,
  "\u2581Drag": 5873,
  "\u2581Faraoni": 5874,
  "\u2581Police": 5875,
  "\u2581convinced": 5876,
  "\u2581goxha": 5877,
  "\u2581bro": 5878,
  "\u2581liri": 5879,
  "\u2581njer\u00ebzish": 5880,
  "pas": 5881,
  "\u2581Error": 5882,
  "\u2581requires": 5883,
  "\u2581speed": 5884,
  "b\u00ebr": 5885,
  "\u2581Jobi": 5886,
  "\u2581ensure": 5887,
  "iste": 5888,
  "\u2581Ban": 5889,
  "\u2581dielli": 5890,
  "\u2581fjal\u00ebve": 5891,
  "\u2581arrij": 5892,
  "\u2581limit": 5893,
  "\u2581arrit\u00ebn": 5894,
  "\u2581premton": 5895,
  "\u2581vuajtje": 5896,
  "\u2581nxiti": 5897,
  "ff": 5898,
  "ig": 5899,
  "\u2581burn": 5900,
  "\u2581violent": 5901,
  "ohem": 5902,
  "\u00cbsht\u00eb": 5903,
  "\u2581veprimtari": 5904,
  "\u2581designed": 5905,
  "\u2581q\u00ebndrojm\u00eb": 5906,
  "\u2581shqiptare": 5907,
  "\u2581Ulu": 5908,
  "\u2581arm\u00ebt": 5909,
  "\u2581deeply": 5910,
  "\u2581encouraged": 5911,
  "\u2581ngrit": 5912,
  "\u2581stones": 5913,
  "\u2581zhduk": 5914,
  "\u2581Fat": 5915,
  "\u2581abuse": 5916,
  "\u2581ex": 5917,
  "\u2581falsehood": 5918,
  "\u2581contains": 5919,
  "\u2581skin": 5920,
  "\u2581Judgment": 5921,
  "\u2581Up": 5922,
  "\u2581officer": 5923,
  "\u2581pushim": 5924,
  "\u2581zonja": 5925,
  "\u258123]": 5926,
  "\u2581Pu": 5927,
  "\u2581appears": 5928,
  "\u2581walked": 5929,
  "\u2581Ton\u00eb": 5930,
  "\u2581calendar": 5931,
  "\u2581popujt": 5932,
  "\u2581unique": 5933,
  "zar": 5934,
  "\u2581fusha": 5935,
  "\u2581m\u00ebshirsh\u00ebm": 5936,
  "\u2581accident": 5937,
  "\u2581mb\u00ebshtet": 5938,
  "ung": 5939,
  "\u2581China": 5940,
  "\u2581Were": 5941,
  "\u2581capacity": 5942,
  "\u2581convention": 5943,
  "\u2581faced": 5944,
  "\u2581implement": 5945,
  "\u2581inform": 5946,
  "\u2581weird": 5947,
  "tja": 5948,
  "\u2581Actually": 5949,
  "\u2581transport": 5950,
  "\u2581veprave": 5951,
  "\u2581krimit": 5952,
  "\u2581traveling": 5953,
  "\u2581zonj\u00eb": 5954,
  "ohuni": 5955,
  "\u2581Japan": 5956,
  "\u2581qeveri": 5957,
  "\u2581shih": 5958,
  "\u2581compared": 5959,
  "\u2581hyjnor": 5960,
  "\u2581missed": 5961,
  "\u2581nis": 5962,
  "\u00e7it": 5963,
  "\u2581Fjal\u00ebs": 5964,
  "\u2581doktor": 5965,
  "che": 5966,
  "izuar": 5967,
  "red": 5968,
  "\u2581ID": 5969,
  "\u2581Ndihm\u00eb": 5970,
  "\u2581assignment": 5971,
  "\u2581diellit": 5972,
  "03/": 5973,
  "\u2581Projekti": 5974,
  "\u2581ecin": 5975,
  "\u2581Dit\u00eb": 5976,
  "\u2581cancer": 5977,
  "\u2581failure": 5978,
  "\u2581pyetjeve": 5979,
  "cy": 5980,
  "ush": 5981,
  "\u2581kroate": 5982,
  "\u2581sh\u00ebnuar": 5983,
  "kan\u00eb": 5984,
  "\u2581production": 5985,
  "\u2581birin": 5986,
  "\u2581flas\u00ebsh": 5987,
  "\u2581innocent": 5988,
  "TI": 5989,
  "\u2581Except": 5990,
  "\u2581mbik\u00ebqyr\u00ebs": 5991,
  "\u2581aft\u00ebsin\u00eb": 5992,
  "\u2581hera": 5993,
  "\u2581hyrje": 5994,
  "\u2581Nick": 5995,
  "\u2581foto": 5996,
  "\u2581politicians": 5997,
  "\u2581writer": 5998,
  "AL": 5999,
  "Jehovah": 6000,
  "kul": 6001,
  "\u2581ends": 6002,
  "\u2581lexojm\u00eb": 6003,
  "\u2581losers": 6004,
  "\u2581qytete": 6005,
  "\u2581shpirti": 6006,
  "\u2581N\u00ebn": 6007,
  "\u2581candidate": 6008,
  "\u2581customs": 6009,
  "\u2581goals": 6010,
  "\u2581observed": 6011,
  "\u2581abode": 6012,
  "\u2581formed": 6013,
  "\u2581parent": 6014,
  "\u2581p\u00eb": 6015,
  "lia": 6016,
  "\u2581Bra": 6017,
  "\u2581KE": 6018,
  "\u2581damage": 6019,
  "\u2581shpresa": 6020,
  "\u2581understood": 6021,
  "lloj": 6022,
  "\u2581akuzuar": 6023,
  "\u2581blue": 6024,
  "\u2581dreqi": 6025,
  "\u2581fjal\u00ebs": 6026,
  "\u2581images": 6027,
  "\u2581willed": 6028,
  "VE": 6029,
  "\u2581Ruaj": 6030,
  "\u2581Shu": 6031,
  "\u2581board": 6032,
  "\u2581flight": 6033,
  "\u2581p\u00ebrparim": 6034,
  "\u2581shesh": 6035,
  "\u2581Atit": 6036,
  "\u2581fol": 6037,
  "\u2581steal": 6038,
  "gt": 6039,
  "\u2581advantage": 6040,
  "\u2581hodhi": 6041,
  "\u2581jetoj": 6042,
  "\u2581plus": 6043,
  "ese": 6044,
  "our": 6045,
  "\u2581b\u00ebhem": 6046,
  "\u2581situata": 6047,
  "nda": 6048,
  "\u2581d\u00ebrguari": 6049,
  "\u2581sat": 6050,
  "ise": 6051,
  "iz": 6052,
  "si\u00e7": 6053,
  "\u2581Zanafilla": 6054,
  "\u2581forca": 6055,
  "\u2581Jezusi": 6056,
  "\u2581fillojn\u00eb": 6057,
  "\u2581Cha": 6058,
  "\u2581Path": 6059,
  "\u2581View": 6060,
  "\u2581herself": 6061,
  "\u2581horse": 6062,
  "thi": 6063,
  "\u2581Eli": 6064,
  "\u2581baptism": 6065,
  "\u2581K\u00eb": 6066,
  "\u2581Shikoje": 6067,
  "\u2581mar": 6068,
  "\u2581paguar": 6069,
  "zer": 6070,
  "\u2581birthday": 6071,
  "\u2581denj\u00eb": 6072,
  "\u2581feja": 6073,
  "\u2581wrongdoers": 6074,
  "\u2581Street": 6075,
  "\u2581ligjet": 6076,
  "\u2581ndjekim": 6077,
  "\u2581qysh": 6078,
  "\u2581minds": 6079,
  "\u2581paqes": 6080,
  "\u2581burgosur": 6081,
  "\u2581east": 6082,
  "\u2581humb": 6083,
  "\u2581k\u00ebrkesat": 6084,
  "\u2581literature": 6085,
  "\u00ebse": 6086,
  "\u2581p\u00ebrshtypje": 6087,
  "\u2581vran\u00eb": 6088,
  "\u2581ndal": 6089,
  "\u2581nuclear": 6090,
  "\u2581stage": 6091,
  "\u2581affected": 6092,
  "\u2581attacks": 6093,
  "\u2581shkoll\u00ebs": 6094,
  "\u2581shqet\u00ebso": 6095,
  "\u2581\u00e7\u00ebshtja": 6096,
  "l\u00eb": 6097,
  "\u2581Kroaci": 6098,
  "\u2581domestic": 6099,
  "\u2581folk": 6100,
  "\u2581grand": 6101,
  "azi": 6102,
  "bal": 6103,
  "\u2581l\u00ebshon": 6104,
  "\u2581plugin": 6105,
  "\u2581shpejt\u00ebsi": 6106,
  "\u2581sinners": 6107,
  "tar\u00eb": 6108,
  "\u2581Plot\u00ebfuqish\u00ebm": 6109,
  "\u2581buk\u00eb": 6110,
  "ught": 6111,
  "\u2581hungry": 6112,
  "\u2581hyjnore": 6113,
  "\u2581officers": 6114,
  "\u2581p\u00ebrpar\u00ebsi": 6115,
  "\u2581\u00ebmb\u00ebl": 6116,
  "\u2581Believers": 6117,
  "\u2581Izraelin": 6118,
  "\u2581hersh\u00ebm": 6119,
  "\u2581highest": 6120,
  "\u2581sasi": 6121,
  "\u2581shpalli": 6122,
  "\u2581unit": 6123,
  "\u2581fle": 6124,
  "\u2581Ya": 6125,
  "\u2581dying": 6126,
  "\u2581ordered": 6127,
  "way": 6128,
  "\u2581Dil": 6129,
  "\u2581p\u00ebrhapur": 6130,
  "\u2581p\u00ebrmir\u00ebsuar": 6131,
  "\u2581shprehu": 6132,
  "\u2581teksa": 6133,
  "\u2581behavior": 6134,
  "\u2581b\u00ebnim": 6135,
  "\u2581center": 6136,
  "\u2581dhimbje": 6137,
  "\u2581mir\u00ebsi": 6138,
  "\u2581nxeht\u00eb": 6139,
  "\u2581parlamentit": 6140,
  "\u2581additional": 6141,
  "\u2581miliard\u00eb": 6142,
  "\u2581pushteti": 6143,
  "ada": 6144,
  "\u2581Mama": 6145,
  "\u2581School": 6146,
  "\u2581Zem\u00ebr": 6147,
  "\u2581latest": 6148,
  "\u2581teachers": 6149,
  "\u2581trupi": 6150,
  "\u2581urdh\u00ebron": 6151,
  "\u2581Land": 6152,
  "\u2581gur": 6153,
  "\u2581koh\u00ebve": 6154,
  "\u2581lajmet": 6155,
  "\u2581adding": 6156,
  "\u2581limited": 6157,
  "\u2581sh\u00ebrben": 6158,
  "\u2581studies": 6159,
  "\u00ebsit": 6160,
  "\u25811914": 6161,
  "\u2581goditje": 6162,
  "\u2581planning": 6163,
  "\u2581spring": 6164,
  "But": 6165,
  "ated": 6166,
  "\u2581Largohu": 6167,
  "\u2581shame": 6168,
  "jua": 6169,
  "\u2581articles": 6170,
  "\u2581dokument": 6171,
  "\u2581dol\u00ebn": 6172,
  "\u2581easier": 6173,
  "\u2581g\u00ebnjeshtar": 6174,
  "\u2581q\u00ebndrimin": 6175,
  "\u2581signal": 6176,
  "put": 6177,
  "\u2581Meri": 6178,
  "\u2581anemban\u00eb": 6179,
  "\u2581dr": 6180,
  "\u2581ear": 6181,
  "\u2581fulfillment": 6182,
  "\u2581mohuan": 6183,
  "\u2581mundsh\u00ebm": 6184,
  "tan": 6185,
  "\u2581Fu": 6186,
  "\u2581Through": 6187,
  "\u2581admonition": 6188,
  "\u2581distress": 6189,
  "\u2581root": 6190,
  "\u2581Iraq": 6191,
  "\u2581Numri": 6192,
  "\u2581kufirin": 6193,
  "\u2581lucky": 6194,
  "\u2581shpall": 6195,
  "ow": 6196,
  "\u2581load": 6197,
  "AP": 6198,
  "duk": 6199,
  "para": 6200,
  "shin": 6201,
  "tet": 6202,
  "\u2581Brazil": 6203,
  "\u2581accord": 6204,
  "\u2581foretold": 6205,
  "\u2581sad": 6206,
  "\u2581shtet\u00ebrore": 6207,
  "\u2581sufficient": 6208,
  "\u2581ushqimi": 6209,
  "\u2581FMN": 6210,
  "\u2581Mbylle": 6211,
  "\u2581balance": 6212,
  "\u2581beso": 6213,
  "\u2581discipline": 6214,
  "\u2581lessons": 6215,
  "ane": 6216,
  "\u2581K\u00ebshillit": 6217,
  "\u2581mjek": 6218,
  "\u2581refer": 6219,
  "\u2581style": 6220,
  "\u2581Centre": 6221,
  "\u2581Cor": 6222,
  "\u2581Five": 6223,
  "\u2581Hmm": 6224,
  "\u2581Islamic": 6225,
  "\u2581Rom": 6226,
  "\u2581Trust": 6227,
  "\u2581governments": 6228,
  "mbi": 6229,
  "ohesh": 6230,
  "\u258115]": 6231,
  "\u2581kompani": 6232,
  "\u2581Cfar\u00eb": 6233,
  "\u2581paraqitur": 6234,
  "\u2581carrying": 6235,
  "\u2581powers": 6236,
  "\u2581streets": 6237,
  "\u2581vain": 6238,
  "\u2581Young": 6239,
  "\u2581fix": 6240,
  "\u2581weren": 6241,
  "\u2581mizor\u00eb": 6242,
  "\u2581p\u00ebrmbushur": 6243,
  "\u2581star": 6244,
  "\u2581Andaj": 6245,
  "\u2581frik\u00ebsohen": 6246,
  "\u2581harro": 6247,
  "\u2581recognise": 6248,
  "\u2581track": 6249,
  "\u2581Rad": 6250,
  "\u2581Search": 6251,
  "\u2581scene": 6252,
  "ell": 6253,
  "\u2581d\u00ebnon": 6254,
  "\u2581sate": 6255,
  "\u2581vjetra": 6256,
  "pin": 6257,
  "\u2581Ci": 6258,
  "\u2581disbelief": 6259,
  "set": 6260,
  "\u2581Shpesh": 6261,
  "\u2581dedicated": 6262,
  "\u2581defence": 6263,
  "\u2581gjera": 6264,
  "\u2581mesazhe": 6265,
  "\u2581rob\u00ebrve": 6266,
  "pri": 6267,
  "\u2581Group": 6268,
  "\u2581Stefan": 6269,
  "\u2581destination": 6270,
  "\u2581element": 6271,
  "\u2581bim\u00eb": 6272,
  "\u2581everywhere": 6273,
  "\u2581librat": 6274,
  "\u2581luaj": 6275,
  "\u2581p\u00ebrfundimtar": 6276,
  "\u2581sh\u00ebrbimi": 6277,
  "\u2581vendime": 6278,
  "\u2581boost": 6279,
  "\u2581famous": 6280,
  "\u2581thoshin": 6281,
  "\u2581web": 6282,
  "suar": 6283,
  "\u2581Faraonit": 6284,
  "\u2581Roma": 6285,
  "\u2581d\u00ebrgoj": 6286,
  "\u2581ease": 6287,
  "\u2581hopes": 6288,
  "\u2581ul": 6289,
  "\u2581moderne": 6290,
  "oglu": 6291,
  "\u2581None": 6292,
  "\u2581Rumanis\u00eb": 6293,
  "05/": 6294,
  "ide": 6295,
  "\u25811991": 6296,
  "\u2581Xhek": 6297,
  "\u2581kaloj\u00eb": 6298,
  "\u2581list\u00eb": 6299,
  "\u2581vazhdueshme": 6300,
  "\u2581vje\u00e7ar": 6301,
  "\u2581Close": 6302,
  "\u2581Gi": 6303,
  "\u2581reformat": 6304,
  "\u2581wishes": 6305,
  "\u2581Mirupafshim": 6306,
  "\u2581dru": 6307,
  "\u2581shtrat": 6308,
  "\u2581directly": 6309,
  "\u2581d\u00ebshira": 6310,
  "\u2581earthly": 6311,
  "\u2581highly": 6312,
  "\u2581lidh": 6313,
  "\u2581qiellin": 6314,
  "Sh": 6315,
  "du": 6316,
  "\u2581administration": 6317,
  "\u2581idols": 6318,
  "\u2581\u00e7ift": 6319,
  "\u2581adhurimit": 6320,
  "\u2581associated": 6321,
  "\u2581besuat": 6322,
  "\u2581dh\u00ebna": 6323,
  "\u2581dress": 6324,
  "\u2581d\u00ebmtuar": 6325,
  "\u2581shtun\u00ebn": 6326,
  "\u2581smell": 6327,
  "\u2581assist": 6328,
  "\u2581lokal": 6329,
  "\u2581obedient": 6330,
  "\u2581th": 6331,
  "\u2581zbatuar": 6332,
  "\u2581Srpska": 6333,
  "\u2581paralajm\u00ebroi": 6334,
  "\u2581pozitive": 6335,
  "\u2581figur\u00ebs": 6336,
  "\u2581fut": 6337,
  "\u2581shenja": 6338,
  "\u2581whereas": 6339,
  "\u258123:": 6340,
  "\u2581email": 6341,
  "\u2581lule": 6342,
  "\u2581reduce": 6343,
  "\u2581supply": 6344,
  "Yeah": 6345,
  "burg": 6346,
  "nie": 6347,
  "sic": 6348,
  "\u2581doors": 6349,
  "\u2581faji": 6350,
  "\u2581hypocrites": 6351,
  "\u2581plants": 6352,
  "\u2581qiellor": 6353,
  "\u2581shprehje": 6354,
  "uat": 6355,
  "\u2581Certainly": 6356,
  "\u2581annual": 6357,
  "\u2581loan": 6358,
  "\u258139": 6359,
  "\u2581Little": 6360,
  "\u2581personally": 6361,
  "\u2581'?": 6362,
  "\u2581appointment": 6363,
  "\u2581dora": 6364,
  "\u2581kor": 6365,
  "\u2581rehat": 6366,
  "\u2581Igor": 6367,
  "\u2581Policia": 6368,
  "\u2581cars": 6369,
  "\u2581p\u00ebrpiqemi": 6370,
  "bul": 6371,
  "\u2581Tok\u00ebn": 6372,
  "\u2581mesazhet": 6373,
  "\u2581tregosh": 6374,
  "rr": 6375,
  "\u25811997": 6376,
  "\u2581Ham": 6377,
  "\u2581Qoft\u00eb": 6378,
  "\u2581dhurata": 6379,
  "\u2581kryeministri": 6380,
  "\u2581malet": 6381,
  "\u2581Signs": 6382,
  "\u2581bound": 6383,
  "\u2581charges": 6384,
  "\u2581judges": 6385,
  "\u2581Zonja": 6386,
  "\u2581dakort": 6387,
  "\u2581debate": 6388,
  "\u2581ec\u00ebn": 6389,
  "\u2581frame": 6390,
  "\u2581konsiderojn\u00eb": 6391,
  "\u2581krahasim": 6392,
  "\u2581ofruar": 6393,
  "AR": 6394,
  "\u2581Home": 6395,
  "\u2581burning": 6396,
  "\u2581fourth": 6397,
  "tat": 6398,
  "\u2581Va": 6399,
  "\u2581emotional": 6400,
  "\u2581hyni": 6401,
  "\u2581notes": 6402,
  "\u2581wearing": 6403,
  "\u2581etnike": 6404,
  "\u2581zgjedh": 6405,
  "jeni": 6406,
  "\u2581Gjith": 6407,
  "\u2581treguan": 6408,
  "\u2581tribe": 6409,
  "\u2581zone": 6410,
  "\u2581dhoma": 6411,
  "\u2581ligjore": 6412,
  "\u2581ndersh\u00ebm": 6413,
  "\u2581ngadal\u00eb": 6414,
  "\u2581vetja": 6415,
  "\u2581Serbin\u00eb": 6416,
  "\u2581qytetet": 6417,
  "\u2581zgjidhur": 6418,
  "\u2581Chief": 6419,
  "\u2581Ec": 6420,
  "\u2581p\u00ebrshkruar": 6421,
  "\u2581worried": 6422,
  "\u2581Mendo": 6423,
  "\u2581birit": 6424,
  "\u2581filloj\u00eb": 6425,
  "\u2581independent": 6426,
  "\u2581relief": 6427,
  "\u2581shpresoj": 6428,
  "\u2581truck": 6429,
  "can": 6430,
  "dia": 6431,
  "\u258117]": 6432,
  "\u2581Brenda": 6433,
  "\u2581Che": 6434,
  "\u2581Greqis\u00eb": 6435,
  "\u2581stress": 6436,
  "\u2581tregonte": 6437,
  "\u2581Human": 6438,
  "\u2581goodness": 6439,
  "\u2581parliamentar": 6440,
  "\u2581principle": 6441,
  "\u2581promote": 6442,
  "\u2581shoq\u00ebrore": 6443,
  "\u2581syve": 6444,
  "\u2581cfar\u00eb": 6445,
  "\u2581filloj": 6446,
  "\u2581k\u00ebnd": 6447,
  "\u2581mental": 6448,
  "\u2581mothers": 6449,
  "\u2581pictures": 6450,
  "\u2581vaj": 6451,
  "\u2581haj\u00eb": 6452,
  "\u2581surface": 6453,
  "nj": 6454,
  "\u2581Nd\u00ebrkomb\u00ebtare": 6455,
  "\u2581vrasje": 6456,
  "\u2581\u00e7oi": 6457,
  "\u2581Evrop\u00eb": 6458,
  "\u2581goddamn": 6459,
  "\u2581sh\u00ebndosh\u00eb": 6460,
  "kan": 6461,
  "\u2581Adami": 6462,
  "\u2581Erd": 6463,
  "\u2581eg\u00ebr": 6464,
  "\u2581kuti": 6465,
  "\u2581mbret\u00ebrin\u00eb": 6466,
  "\u2581prishur": 6467,
  "\u2581studimi": 6468,
  "\u2581bus": 6469,
  "\u2581companions": 6470,
  "\u2581movement": 6471,
  "\u2581Profeti": 6472,
  "\u2581communities": 6473,
  "\u2581excuse": 6474,
  "\u2581grown": 6475,
  "\u2581pushtetin": 6476,
  "\u2581remaining": 6477,
  "ER": 6478,
  "\u25817]": 6479,
  "\u2581L\u00ebre": 6480,
  "\u2581kontrollin": 6481,
  "\u2581neighbor": 6482,
  "\u2581Ndonj\u00ebher\u00eb": 6483,
  "\u2581gjysma": 6484,
  "\u2581studimin": 6485,
  "TA": 6486,
  "fit": 6487,
  "izmi": 6488,
  "vis": 6489,
  "\u2581Mor": 6490,
  "\u2581beside": 6491,
  "\u2581themel": 6492,
  "\u2581vie": 6493,
  "\u2581hosts": 6494,
  "\u2581pranish\u00ebm": 6495,
  "\u2581Alice": 6496,
  "\u2581Toka": 6497,
  "\u2581avail": 6498,
  "\u2581dyshuar": 6499,
  "\u2581nxjerrin": 6500,
  "\u2581tash": 6501,
  "ship": 6502,
  "\u2581effects": 6503,
  "\u2581keshtu": 6504,
  "\u2581mbytur": 6505,
  "\u2581takua": 6506,
  "ali": 6507,
  "\u2581Best": 6508,
  "\u2581Kishte": 6509,
  "\u2581su": 6510,
  "\u2581youths": 6511,
  "\u2581facing": 6512,
  "\u2581ve\u00e7se": 6513,
  "\u2581\u00e7mimin": 6514,
  "\u2581Meanwhile": 6515,
  "\u2581Men": 6516,
  "\u2581letters": 6517,
  "\u2581thirrur": 6518,
  "\u2581Henry": 6519,
  "50": 6520,
  "So": 6521,
  "more": 6522,
  "\u2581Pik\u00ebrisht": 6523,
  "\u2581River": 6524,
  "\u2581resurrected": 6525,
  "kov": 6526,
  "\u2581Europian": 6527,
  "\u2581Far": 6528,
  "\u2581Nuh": 6529,
  "\u2581fytyra": 6530,
  "\u2581p\u00ebrfaq\u00ebsues": 6531,
  "\u2581p\u00ebrgjat\u00eb": 6532,
  "\u2581shekuj": 6533,
  "\u2581bjer\u00eb": 6534,
  "\u2581cope": 6535,
  "ser": 6536,
  "\u2581contrast": 6537,
  "De": 6538,
  "\u258129.": 6539,
  "\u2581Finally": 6540,
  "\u2581fitore": 6541,
  "\u2581mban\u00eb": 6542,
  "\u2581Gruaja": 6543,
  "\u2581affection": 6544,
  "\u2581demand": 6545,
  "\u2581m\u00ebkatin": 6546,
  "\u2581tekstin": 6547,
  "\u2581Park": 6548,
  "\u2581f\u00ebmij\u00ebs": 6549,
  "ase": 6550,
  "\u00b7": 6551,
  "\u258147": 6552,
  "\u2581Apostle": 6553,
  "\u2581Gjon": 6554,
  "\u2581dal\u00ebsh": 6555,
  "\u2581investigation": 6556,
  "\u2581njer\u00ebzor": 6557,
  "\u2581oh": 6558,
  "\u2581shpreson": 6559,
  "Te": 6560,
  "od": 6561,
  "pun": 6562,
  "pur": 6563,
  "\u2581Republic": 6564,
  "\u2581flock": 6565,
  "\u2581Harry": 6566,
  "\u2581delight": 6567,
  "\u2581Try": 6568,
  "\u2581fixed": 6569,
  "\u2581k\u00ebnaq\u00ebsin\u00eb": 6570,
  "ft\u00eb": 6571,
  "\u2581Alex": 6572,
  "\u2581Jugut": 6573,
  "\u2581arrogant": 6574,
  "\u2581betohem": 6575,
  "\u2581nj\u00ebqind": 6576,
  "\u2581orders": 6577,
  "itet": 6578,
  "\u2581normat": 6579,
  "[": 6580,
  "\u2581ar": 6581,
  "\u2581ardhmja": 6582,
  "\u2581attempt": 6583,
  "\u2581dij\u00eb": 6584,
  "\u2581ndihmojm\u00eb": 6585,
  "\u2581pilot": 6586,
  "Cause": 6587,
  "OR": 6588,
  "ors": 6589,
  "\u00e7ka": 6590,
  "\u2581Mac": 6591,
  "\u2581frym\u00ebzuar": 6592,
  "\u2581reasonable": 6593,
  "\u2581shtepi": 6594,
  "\u2581stronger": 6595,
  "des": 6596,
  "era": 6597,
  "\u2581finding": 6598,
  "\u2581Ye": 6599,
  "\u2581deaf": 6600,
  "\u2581raporti": 6601,
  "\u2581shp\u00ebtuam": 6602,
  "xha": 6603,
  "zeq": 6604,
  "\u2581Lib\u00ebr": 6605,
  "\u2581bottom": 6606,
  "\u2581conceal": 6607,
  "\u2581rendit": 6608,
  "un\u00eb": 6609,
  "\u2581duar": 6610,
  "\u2581dukesh": 6611,
  "\u2581faktin": 6612,
  "\u2581Xho": 6613,
  "\u2581aktual": 6614,
  "\u2581burrin": 6615,
  "\u2581elder": 6616,
  "\u2581en": 6617,
  "\u2581obtain": 6618,
  "\u2581psalmist": 6619,
  "\u2581rroba": 6620,
  "\u2581vepron": 6621,
  "Dhe": 6622,
  "rues": 6623,
  "\u2581mbroj\u00eb": 6624,
  "\u266a": 6625,
  "\u2581L\u00ebviz": 6626,
  "\u2581lidhjet": 6627,
  "\u2581shteti": 6628,
  "ative": 6629,
  "\u2581Albanians": 6630,
  "\u2581competition": 6631,
  "\u2581shared": 6632,
  "\u2581shtyp": 6633,
  "\u2581sovereignty": 6634,
  "\u2581Ivo": 6635,
  "\u2581besonin": 6636,
  "\u2581gentlemen": 6637,
  "\u2581kuptosh": 6638,
  "\u2581qene": 6639,
  "\u2581shqiptar\u00eb": 6640,
  "\u2581situat\u00ebn": 6641,
  "\u2581v\u00ebm\u00eb": 6642,
  "len": 6643,
  "\u258128.": 6644,
  "\u2581Dar": 6645,
  "\u2581Del": 6646,
  "\u2581Spain": 6647,
  "\u2581dealing": 6648,
  "\u2581hajde": 6649,
  "\u2581vje\u00e7e": 6650,
  "wise": 6651,
  "\u2581iron": 6652,
  "\u2581urdh\u00ebroi": 6653,
  "\u2581Clear": 6654,
  "\u2581armiqt\u00eb": 6655,
  "\u2581her\u00ebn": 6656,
  "\u2581personality": 6657,
  "\u2581succeed": 6658,
  "\u2581adds": 6659,
  "\u2581bu": 6660,
  "\u2581centre": 6661,
  "\u2581Bart": 6662,
  "\u2581burime": 6663,
  "\u2581content": 6664,
  "\u2581k\u00ebrkohet": 6665,
  "\u2581shpallet": 6666,
  "\u2581sjelljen": 6667,
  "\u2581vetvetes": 6668,
  "shit": 6669,
  "\u2581Web": 6670,
  "\u2581lashta": 6671,
  "\u2581lines": 6672,
  "\u2581mbaroi": 6673,
  "\u2581mesme": 6674,
  "\u2581motrat": 6675,
  "EC": 6676,
  "dor": 6677,
  "\u2581aft\u00ebsit\u00eb": 6678,
  "\u2581approval": 6679,
  "\u2581huaja": 6680,
  "\u2581Army": 6681,
  "\u2581Ze": 6682,
  "\u2581gu": 6683,
  "\u2581mezi": 6684,
  "\u2581walls": 6685,
  "ou": 6686,
  "\u2581Tar": 6687,
  "\u2581fest\u00eb": 6688,
  "\u2581letra": 6689,
  "\u2581hyj\u00eb": 6690,
  "\u2581kaloj": 6691,
  "\u2581ndryshoj\u00eb": 6692,
  "\u2581zero": 6693,
  "ori": 6694,
  "\u2581Thomas": 6695,
  "\u2581aksident": 6696,
  "\u2581boll\u00ebk": 6697,
  "\u2581der\u00eb": 6698,
  "\u2581duruesh\u00ebm": 6699,
  "\u2581ndihmosh": 6700,
  "\u2581shp\u00ebtim": 6701,
  "\u2581ndesh": 6702,
  "\u2581weapon": 6703,
  "dar": 6704,
  "\u2581Mexico": 6705,
  "\u2581natyrore": 6706,
  "\u2581season": 6707,
  "\u2581spending": 6708,
  "IC": 6709,
  "ium": 6710,
  "sin\u00eb": 6711,
  "\u2581Bash": 6712,
  "\u2581declare": 6713,
  "\u2581qendra": 6714,
  "ati": 6715,
  "\u2581premtim": 6716,
  "\u2581sing": 6717,
  "\u2581split": 6718,
  "\u2581thine": 6719,
  "\u2581Komisioni": 6720,
  "\u2581Mak": 6721,
  "\u2581examine": 6722,
  "\u2581lirin\u00eb": 6723,
  "\u2581network": 6724,
  "\u2581IC": 6725,
  "\u2581dyti": 6726,
  "\u2581jobesimtar\u00ebt": 6727,
  "\u2581realitet": 6728,
  "\u2581ru": 6729,
  "\u2581shembulli": 6730,
  "qui": 6731,
  "\u2581Bota": 6732,
  "\u2581Izraeli": 6733,
  "\u2581injustice": 6734,
  "\u2581launch": 6735,
  "\u2581summit": 6736,
  "\u2581val\u00eb": 6737,
  "Is": 6738,
  "\u258146": 6739,
  "\u2581Ter": 6740,
  "\u2581devotion": 6741,
  "\u2581institucionet": 6742,
  "\u2581holds": 6743,
  "\u2581m\u00ebsues": 6744,
  "\u2581Bosnj\u00eb": 6745,
  "\u2581Lisa": 6746,
  "\u2581sustenance": 6747,
  "\u2581telefonoj": 6748,
  "dra": 6749,
  "\u258124,": 6750,
  "\u2581Sem": 6751,
  "\u2581Sit": 6752,
  "\u2581Vendi": 6753,
  "\u2581Zo": 6754,
  "\u2581confirmed": 6755,
  "val": 6756,
  "\u25811,000": 6757,
  "\u2581Fe": 6758,
  "\u2581ndihmonte": 6759,
  "\u2581pranoj": 6760,
  "\u2581range": 6761,
  "\u2581Shall": 6762,
  "\u2581fillova": 6763,
  "\u2581p\u00ebrdoren": 6764,
  "\u2581trupat": 6765,
  "\u2581treasure": 6766,
  "l\u00ebn": 6767,
  "\u2581Jeremia": 6768,
  "\u2581ardhme": 6769,
  "\u2581godet": 6770,
  "\u2581qen": 6771,
  "\u2581ushtria": 6772,
  "RA": 6773,
  "\u2581Tract": 6774,
  "\u2581recite": 6775,
  "\u2581shkoll\u00ebn": 6776,
  "UR": 6777,
  "US": 6778,
  "\u2581Ten": 6779,
  "\u2581acting": 6780,
  "\u2581desert": 6781,
  "\u2581extra": 6782,
  "\u2581maqedonase": 6783,
  "\u2581nivelin": 6784,
  "\u2581paguaj": 6785,
  "\u2581paying": 6786,
  "\u2581shkolla": 6787,
  "\u2581Eden": 6788,
  "\u2581Krijuesi": 6789,
  "\u2581dispozita": 6790,
  "\u2581fiton": 6791,
  "\u2581remembrance": 6792,
  "\u2581worthy": 6793,
  "\u2581Honey": 6794,
  "\u2581Krijo": 6795,
  "\u2581strategy": 6796,
  "berit": 6797,
  "\u2581korrupsionit": 6798,
  "\u2581mal": 6799,
  "\u2581pal\u00eb": 6800,
  "\u2581referendum": 6801,
  "\u2581upright": 6802,
  "m\u00ebnyr\u00eb": 6803,
  "\u2581ndihem": 6804,
  "\u2581rezultatet": 6805,
  "ING": 6806,
  "\u2581decades": 6807,
  "\u2581d\u00ebgjoi": 6808,
  "\u2581fears": 6809,
  "\u2581premtoj": 6810,
  "\u2581sports": 6811,
  "ohemi": 6812,
  "\u2581entertainment": 6813,
  "\u2581komb\u00ebtar": 6814,
  "qar\u00eb": 6815,
  "\u2581Mbaje": 6816,
  "\u2581delet": 6817,
  "\u2581fulfill": 6818,
  "\u2581g\u00ebzimi": 6819,
  "\u2581operations": 6820,
  "\u2581sinful": 6821,
  "\u2581England": 6822,
  "\u2581Hape": 6823,
  "\u2581Kosh": 6824,
  "\u2581complex": 6825,
  "\u2581konsideron": 6826,
  "\u2581partis\u00eb": 6827,
  "\u2581vdesim": 6828,
  "c\u00eb": 6829,
  "\u2581Until": 6830,
  "\u2581asgje": 6831,
  "\u2581contract": 6832,
  "\u2581drawn": 6833,
  "\u2581forcuar": 6834,
  "\u2581greatly": 6835,
  "\u2581l\u00ebshuar": 6836,
  "\u2581metal": 6837,
  "\u2581dritare": 6838,
  "\u2581log": 6839,
  "\u2581riches": 6840,
  "\u2581shp": 6841,
  "\u2581thereby": 6842,
  "\u2581Abrahami": 6843,
  "\u2581distance": 6844,
  "\u2581forest": 6845,
  "\u2581k\u00ebrkes\u00eb": 6846,
  "\u2581nj\u00ebjt\u00eb": 6847,
  "IT": 6848,
  "ag": 6849,
  "\u2581concerns": 6850,
  "\u2581discussion": 6851,
  "\u2581nxori": 6852,
  "\u2581rregullat": 6853,
  "\u2581shquar": 6854,
  "dh\u00eb": 6855,
  "my": 6856,
  "\u2581Dashuria": 6857,
  "\u2581kthen": 6858,
  "nem": 6859,
  "\u2581reale": 6860,
  "ong": 6861,
  "\u2581afternoon": 6862,
  "\u2581fallen": 6863,
  "\u2581mid": 6864,
  "\u2581Shkoni": 6865,
  "\u2581career": 6866,
  "\u2581friendship": 6867,
  "\u2581machine": 6868,
  "\u2581hiding": 6869,
  "\u2581Ish": 6870,
  "\u2581Mm": 6871,
  "\u2581mor": 6872,
  "\u2581uses": 6873,
  "\u2581whenever": 6874,
  "\u2581Indian": 6875,
  "\u2581White": 6876,
  "\u2581kushte": 6877,
  "\u2581meal": 6878,
  "\u2581ndezur": 6879,
  "\u2581nivel": 6880,
  "\u2581pages\u00eb": 6881,
  "\u2581popullsis\u00eb": 6882,
  "\u2581shihte": 6883,
  "09/": 6884,
  "ken": 6885,
  "\u2581Steve": 6886,
  "\u2581dwelling": 6887,
  "\u2581firmly": 6888,
  "\u2581lind": 6889,
  "\u2581merely": 6890,
  "\u2581mosh\u00eb": 6891,
  "\u2581obedience": 6892,
  "\u2581Star": 6893,
  "\u2581limits": 6894,
  "\u2581sulm": 6895,
  "\u2581thoja": 6896,
  "\u2581Profetit": 6897,
  "\u2581communication": 6898,
  "\u2581fal\u00ebs": 6899,
  "\u2581honour": 6900,
  "\u2581losing": 6901,
  "\u2581ngjall": 6902,
  "lit": 6903,
  "\u258125:": 6904,
  "\u2581imja": 6905,
  "Pse": 6906,
  "\u2581Ndal": 6907,
  "\u2581games": 6908,
  "\u2581lejohet": 6909,
  "\u2581merret": 6910,
  "\u2581par": 6911,
  "\u2581shtes\u00eb": 6912,
  "\u2581smart": 6913,
  "Moses": 6914,
  "\u2581mode": 6915,
  "\u2581n\u00ebnshtruar": 6916,
  "\u2581popujve": 6917,
  "\u2581shefi": 6918,
  "\u2581vija": 6919,
  "\u2581aktuale": 6920,
  "\u2581befall": 6921,
  "\u2581beliefs": 6922,
  "\u2581camera": 6923,
  "\u2581commission": 6924,
  "\u2581flak\u00eb": 6925,
  "\u2581opozit\u00eb": 6926,
  "cha": 6927,
  "rk": 6928,
  "\u2581Kaq": 6929,
  "\u2581mjaftuesh\u00ebm": 6930,
  "\u2581momenti": 6931,
  "\u2581tough": 6932,
  "\u2581worldly": 6933,
  "ohu": 6934,
  "\u2581initiative": 6935,
  "\u2581moves": 6936,
  "\u2581Italian": 6937,
  "\u2581Long": 6938,
  "\u2581historis\u00eb": 6939,
  "\u2581mot\u00ebr": 6940,
  "\u2581trained": 6941,
  "af": 6942,
  "risht": 6943,
  "\u2581Department": 6944,
  "\u2581Ve": 6945,
  "\u2581an\u00ebt": 6946,
  "\u2581persecution": 6947,
  "\u2581politics": 6948,
  "\u2581tregohet": 6949,
  "ring": 6950,
  "\u2581evropiane": 6951,
  "\u2581pritje": 6952,
  "\u2581sh\u00ebrb\u00ebtor\u00eb": 6953,
  "\u2581Happy": 6954,
  "\u2581arrangement": 6955,
  "\u2581charity": 6956,
  "\u2581diskutuar": 6957,
  "\u2581hole": 6958,
  "\u2581vjedhur": 6959,
  "ket": 6960,
  "yr": 6961,
  "\u2581Justice": 6962,
  "\u2581critical": 6963,
  "\u2581paditur": 6964,
  "Indeed": 6965,
  "hy": 6966,
  "\u2581fillojm\u00eb": 6967,
  "\u2581mbas": 6968,
  "\u2581qet\u00ebsi": 6969,
  "\u2581spot": 6970,
  "\u2581standard": 6971,
  "roni": 6972,
  "\u2581Almighty": 6973,
  "\u2581arm\u00ebn": 6974,
  "\u2581fate": 6975,
  "\u2581gifts": 6976,
  "\u2581valuable": 6977,
  "\u2581v\u00ebllait": 6978,
  "\u2581appearance": 6979,
  "\u2581charged": 6980,
  "\u2581fytyrat": 6981,
  "\u2581products": 6982,
  "\u2581thereafter": 6983,
  "\u2581ties": 6984,
  "\u2581um": 6985,
  "right": 6986,
  "\u2581Vi": 6987,
  "\u2581fsheh": 6988,
  "\u2581lutjet": 6989,
  "\u2581Gruevski": 6990,
  "\u2581Hurry": 6991,
  "\u2581flas\u00eb": 6992,
  "\u2581goj\u00eb": 6993,
  "\u2581parajs\u00eb": 6994,
  "\u2581profit": 6995,
  "\u2581shtypur": 6996,
  "\u2581zyrtar": 6997,
  "rri": 6998,
  "\u2581nderuar": 6999,
  "\u2581suggest": 7000,
  "\u2581trajtuar": 7001,
  "k\u00ebn": 7002,
  "par": 7003,
  "\u2581arrijm\u00eb": 7004,
  "\u2581assembly": 7005,
  "\u2581forms": 7006,
  "\u2581vendbanim": 7007,
  "12": 7008,
  "art": 7009,
  "\u2581Post": 7010,
  "\u2581fitojn\u00eb": 7011,
  "\u2581nevoja": 7012,
  "\u2581scientists": 7013,
  "\u2581shp\u00ebrndar\u00eb": 7014,
  "\u2581mo": 7015,
  "\u2581neck": 7016,
  "\u2581speaks": 7017,
  "bor": 7018,
  "\u2581Bad": 7019,
  "\u2581TO": 7020,
  "\u2581duk": 7021,
  "\u2581p\u00ebrdorimin": 7022,
  "\u2581Ponte": 7023,
  "\u2581mama": 7024,
  "\u2581shp\u00ebtoi": 7025,
  "\u2581vlefshme": 7026,
  "AN": 7027,
  "\u2581cops": 7028,
  "\u2581industry": 7029,
  "\u2581udh\u00ebheq\u00ebs": 7030,
  "\u2581Malit": 7031,
  "\u2581funksionon": 7032,
  "\u2581genuine": 7033,
  "\u2581inheritance": 7034,
  "\u2581krah": 7035,
  "\u2581masat": 7036,
  "\u2581rajonal": 7037,
  "\u2581seks": 7038,
  "\u2581Greqi": 7039,
  "\u2581Noble": 7040,
  "\u2581mbeti": 7041,
  "\u2581wherever": 7042,
  "\u2581bosh": 7043,
  "\u2581d\u00ebshirat": 7044,
  "\u2581entry": 7045,
  "\u2581invitation": 7046,
  "\u2581ngre": 7047,
  "\u2581onto": 7048,
  "\u2581zyr\u00ebn": 7049,
  "\u2581merren": 7050,
  "\u2581regime": 7051,
  "\u2581respite": 7052,
  "?.\"": 7053,
  "hur": 7054,
  "\u2581remote": 7055,
  "\u2581Office": 7056,
  "\u2581Vet\u00eb": 7057,
  "\u2581follows": 7058,
  "\u2581kufizuar": 7059,
  "\u2581larg\u00ebt": 7060,
  "\u2581marr\u00ebveshjen": 7061,
  "\u2581surprised": 7062,
  "v\u00eb": 7063,
  "\u258134": 7064,
  "\u2581ferr": 7065,
  "\u2581q\u00ebndroj\u00eb": 7066,
  "\u2581tears": 7067,
  "beri": 7068,
  "\u2581humility": 7069,
  "\u2581kthej": 7070,
  "\u2581presion": 7071,
  "\u2581Global": 7072,
  "\u2581application": 7073,
  "\u2581mbahet": 7074,
  "\u2581zot\u00ebrinj": 7075,
  "20": 7076,
  "\u2581beni": 7077,
  "\u2581frik\u00ebn": 7078,
  "\u2581lan\u00eb": 7079,
  "\u2581tra": 7080,
  "huni": 7081,
  "\u2581prind\u00ebr": 7082,
  "\u2581sjellje": 7083,
  "\u258126]": 7084,
  "\u2581Vu": 7085,
  "\u2581shkakton": 7086,
  "\u2581studiuar": 7087,
  "RL": 7088,
  "\u2581Alright": 7089,
  "\u2581Prind\u00ebrit": 7090,
  "\u2581Spanish": 7091,
  "\u2581kafsh\u00ebve": 7092,
  "\u2581kushtuar": 7093,
  "\u2581vesh\u00ebt": 7094,
  "\u2581\u00c7a": 7095,
  "\u2581Juglindore": 7096,
  "\u2581Karl": 7097,
  "\u2581clay": 7098,
  "\u2581favorite": 7099,
  "\u2581issued": 7100,
  "\u2581largua": 7101,
  "\u2581tipi": 7102,
  "nat": 7103,
  "\u2581Bri": 7104,
  "\u2581Secili": 7105,
  "\u2581asshole": 7106,
  "\u2581mbesin": 7107,
  "\u2581missionary": 7108,
  "\u2581Being": 7109,
  "\u2581Family": 7110,
  "\u2581abundance": 7111,
  "\u2581achieve": 7112,
  "\u2581biznes": 7113,
  "\u2581map": 7114,
  "their": 7115,
  "\u2581Jork": 7116,
  "\u2581Sho": 7117,
  "\u2581kopshte": 7118,
  "\u2581providing": 7119,
  "\u2581revelation": 7120,
  "\u2581thelb\u00ebsore": 7121,
  "jic": 7122,
  "pra": 7123,
  "\u2581Sad": 7124,
  "\u2581adhuruar": 7125,
  "\u2581affair": 7126,
  "\u2581personalisht": 7127,
  "rave": 7128,
  "\u2581Bullgari": 7129,
  "\u2581Chris": 7130,
  "\u2581En": 7131,
  "\u2581Prisni": 7132,
  "\u2581an\u00ebtar\u00ebsimi": 7133,
  "\u2581shkoja": 7134,
  "\u2581tund": 7135,
  "\u2581Besides": 7136,
  "\u2581Ex": 7137,
  "\u2581Kom": 7138,
  "\u2581globale": 7139,
  "01/": 7140,
  "rim": 7141,
  "\u2581aspekt": 7142,
  "\u2581besnik\u00ebri": 7143,
  "\u2581cash": 7144,
  "\u2581sh\u00ebrb\u00ebtor": 7145,
  "\u2581traffic": 7146,
  "ists": 7147,
  "k\u00ebt": 7148,
  "\u2581Deputy": 7149,
  "\u2581band": 7150,
  "\u2581prish": 7151,
  "ist\u00ebt": 7152,
  "\u2581Djalli": 7153,
  "\u2581Ia": 7154,
  "\u2581kufi": 7155,
  "\u2581vast": 7156,
  "AT": 7157,
  "tina": 7158,
  "\u00cb": 7159,
  "\u2581Gjej": 7160,
  "\u2581Is": 7161,
  "\u2581Pjesa": 7162,
  "\u2581Rri": 7163,
  "\u2581bless": 7164,
  "\u2581kongregacioni": 7165,
  "\u2581marr\u00ebveshjes": 7166,
  "\u2581ringjalljes": 7167,
  "\u2581tempullit": 7168,
  "\u2581Nuhu": 7169,
  "\u2581Rr": 7170,
  "\u2581ekzistojn\u00eb": 7171,
  "\u2581m\u00ebkate": 7172,
  "\u2581opportunities": 7173,
  "\u2581sharing": 7174,
  "ical": 7175,
  "\u258131.": 7176,
  "\u2581Institute": 7177,
  "\u2581profesor": 7178,
  "\u2581programi": 7179,
  "\u2581owe": 7180,
  "\u2581qesharake": 7181,
  "hor": 7182,
  "\u2581Austria": 7183,
  "\u2581Chi": 7184,
  "\u2581abroad": 7185,
  "\u2581differ": 7186,
  "\u2581kiss": 7187,
  "\u2581martes\u00ebn": 7188,
  "mu": 7189,
  "\u2581Britain": 7190,
  "\u2581definitely": 7191,
  "\u2581dreams": 7192,
  "\u2581qeshur": 7193,
  "\u2581tribulation": 7194,
  "aku": 7195,
  "gg": 7196,
  "\u2581Lam": 7197,
  "\u2581Var": 7198,
  "\u2581Xhorxh": 7199,
  "\u2581d\u00ebgjova": 7200,
  "\u2581famsh\u00ebm": 7201,
  "\u2581k\u00ebng\u00eb": 7202,
  "\u2581libra": 7203,
  "\u2581shef": 7204,
  "\u2581studimit": 7205,
  "lum": 7206,
  "\u2581pursue": 7207,
  "\u2581resolve": 7208,
  "\u2581vra": 7209,
  "pres": 7210,
  "tre": 7211,
  "\u2581dyert": 7212,
  "\u2581headed": 7213,
  "\u2581milk": 7214,
  "\u2581ndihen": 7215,
  "\u2581otherwise": 7216,
  "\u2581prap": 7217,
  "dal": 7218,
  "\u2581Muslim": 7219,
  "\u2581acceptable": 7220,
  "\u2581mass": 7221,
  "\u2581Dukesh": 7222,
  "\u2581defend": 7223,
  "\u2581ngroht\u00eb": 7224,
  "\u2581vijues": 7225,
  "mail": 7226,
  "\u2581Cypriot": 7227,
  "\u2581hoping": 7228,
  "\u2581unity": 7229,
  "kri": 7230,
  "\u2581Adem": 7231,
  "\u2581deserve": 7232,
  "\u2581fool": 7233,
  "\u2581refuse": 7234,
  "T\u00cb": 7235,
  "\u2581democratic": 7236,
  "\u2581mundemi": 7237,
  "\u2581plani": 7238,
  "\u2581stressed": 7239,
  "\u2581Doja": 7240,
  "\u2581Set": 7241,
  "\u2581interesat": 7242,
  "\u2581udh\u00eb": 7243,
  "\u2581Sigurimit": 7244,
  "\u2581alarm": 7245,
  "\u2581ani": 7246,
  "\u2581companion": 7247,
  "\u2581decree": 7248,
  "\u2581shkonin": 7249,
  "\u2581ushtar": 7250,
  "Je": 7251,
  "\u2581accused": 7252,
  "\u2581advance": 7253,
  "\u2581Athin\u00eb": 7254,
  "\u2581enjoin": 7255,
  "\u2581fucked": 7256,
  "\u2581tende": 7257,
  "-1": 7258,
  "\u2581apartment": 7259,
  "\u2581counterpart": 7260,
  "\u2581m\u00ebkatar\u00eb": 7261,
  "\u2581shtet": 7262,
  "\u2581th\u00ebrrasin": 7263,
  "bat": 7264,
  "ep": 7265,
  "zu": 7266,
  "\u2581Bur": 7267,
  "\u2581fuel": 7268,
  "\u2581implementation": 7269,
  "\u2581sub": 7270,
  "\u2581urta": 7271,
  "umi": 7272,
  "\u2581miratuar": 7273,
  "\u2581nj": 7274,
  "\u2581testimony": 7275,
  "\u2581Kim": 7276,
  "\u2581jashte": 7277,
  "\u2581require": 7278,
  "\u2581television": 7279,
  "heni": 7280,
  "\u2581N\u00ebna": 7281,
  "\u2581krijimit": 7282,
  "\u2581problemin": 7283,
  "\u2581traditional": 7284,
  "\u2581Gilead": 7285,
  "\u2581Said": 7286,
  "\u2581association": 7287,
  "\u2581breath": 7288,
  "\u2581faithless": 7289,
  "\u2581helper": 7290,
  "\u2581struggle": 7291,
  "br": 7292,
  "\u2581Radovan": 7293,
  "\u2581essential": 7294,
  "\u2581estimated": 7295,
  "\u2581grupit": 7296,
  "dhur": 7297,
  "\u2581Gjermani": 7298,
  "onit": 7299,
  "\u2581F\u00ebmij\u00ebt": 7300,
  "\u2581forgotten": 7301,
  "\u2581konferenc\u00eb": 7302,
  "\u2581mendim": 7303,
  "\u2581sihariq": 7304,
  "rov": 7305,
  "\u2581gjasa": 7306,
  "\u2581gjykat\u00ebn": 7307,
  "\u2581keys": 7308,
  "\u2581p\u00ebrmbledhje": 7309,
  "\u2581Abrahamit": 7310,
  "\u2581Pri": 7311,
  "\u2581emergency": 7312,
  "\u2581ndjenj\u00eb": 7313,
  "\u2581treated": 7314,
  "NS": 7315,
  "\u2581funeral": 7316,
  "ET": 7317,
  "ls": 7318,
  "\u2581conclusion": 7319,
  "\u2581earn": 7320,
  "\u2581glass": 7321,
  "\u2581p\u00ebrher\u00eb": 7322,
  "\u2581vun\u00eb": 7323,
  "\u2581zbuloi": 7324,
  "ara": 7325,
  "\u2581Professor": 7326,
  "\u2581Wi": 7327,
  "\u2581grief": 7328,
  "\u2581receiving": 7329,
  "\u2581sacrifices": 7330,
  "\u2581systems": 7331,
  "\u2581vazhduar": 7332,
  "\u2581ya": 7333,
  "dua": 7334,
  "\u2581P\u00ebrdor": 7335,
  "\u2581describe": 7336,
  "\u2581hatred": 7337,
  "\u2581kartel\u00ebs": 7338,
  "\u2581kund\u00ebrshtim": 7339,
  "\u2581labor": 7340,
  "\u2581synon": 7341,
  "\u2581thuaju": 7342,
  "\u2581Inc": 7343,
  "\u2581Super": 7344,
  "\u2581afford": 7345,
  "\u2581armed": 7346,
  "\u2581contain": 7347,
  "\u2581cup": 7348,
  "\u2581M\u00ebshir": 7349,
  "\u2581faj": 7350,
  "\u2581length": 7351,
  "\u2581mendonte": 7352,
  "\u2581z\u00ebvend\u00ebs": 7353,
  "is\u00eb": 7354,
  "lja": 7355,
  "\u2581Four": 7356,
  "\u2581invite": 7357,
  "\u2581mir\u00ebsia": 7358,
  "\u2581nivelit": 7359,
  "\u2581sigurimit": 7360,
  "\u2581Down": 7361,
  "\u2581PAGE": 7362,
  "\u2581increasing": 7363,
  "\u2581jail": 7364,
  "\u2581rajonin": 7365,
  "\u2581clouds": 7366,
  "\u2581parave": 7367,
  "\u2581sh\u00ebndetin": 7368,
  "ping": 7369,
  "\u2581dollar": 7370,
  "\u2581guns": 7371,
  "\u2581loose": 7372,
  "\u2581pluhur": 7373,
  "\u2581union": 7374,
  "shte": 7375,
  "udit": 7376,
  "\u258175": 7377,
  "\u2581Gjonit": 7378,
  "\u2581Top": 7379,
  "\u2581hasten": 7380,
  "\u2581pyetur": 7381,
  "\u2581shqiptar": 7382,
  "ology": 7383,
  "\u2581Yugoslav": 7384,
  "\u2581d\u00ebrgon": 7385,
  "\u2581informuar": 7386,
  "\u2581jetonin": 7387,
  "\u2581luftoni": 7388,
  "\u2581stuck": 7389,
  "\u2581\u00e7oj\u00eb": 7390,
  "will": 7391,
  "\u25811996": 7392,
  "\u2581Afrik\u00eb": 7393,
  "\u2581Create": 7394,
  "\u2581p\u00ebrfundon": 7395,
  "\u2581Elijah": 7396,
  "\u2581borxh": 7397,
  "\u2581compassion": 7398,
  "\u2581gates": 7399,
  "\u2581thuani": 7400,
  "\u2581dhembje": 7401,
  "\u2581dh\u00ebnave": 7402,
  "\u2581gaz": 7403,
  "\u2581recall": 7404,
  "\u2581rid": 7405,
  "\u2581Bobby": 7406,
  "\u2581Isa": 7407,
  "\u2581dilni": 7408,
  "\u2581familiar": 7409,
  "\u2581fuqia": 7410,
  "\u2581interview": 7411,
  "\u2581k\u00ebrkuan": 7412,
  "\u2581m\u00ebsosh": 7413,
  "\u2581Mmm": 7414,
  "\u2581koh\u00ebsh": 7415,
  "\u2581mir": 7416,
  "\u2581numerous": 7417,
  "\u2581outcome": 7418,
  "rie": 7419,
  "\u2581dark\u00eb": 7420,
  "\u2581loyalty": 7421,
  "\u2581mbulon": 7422,
  "\u2581priority": 7423,
  "ror": 7424,
  "\u2581Festival": 7425,
  "\u2581Looks": 7426,
  "\u2581block": 7427,
  "\u2581liar": 7428,
  "\u2581mere": 7429,
  "\u2581lasting": 7430,
  "\u2581ndalon": 7431,
  "\u2581p\u00ebrpoq": 7432,
  "\u2581Eva": 7433,
  "\u2581mendosh": 7434,
  "\u2581takoj": 7435,
  "\u2581bullgar": 7436,
  "\u2581celebrate": 7437,
  "\u2581hej": 7438,
  "\u2581pasardh\u00ebs": 7439,
  "\u2581quan": 7440,
  "\u2581schools": 7441,
  "\u2581vitesh": 7442,
  "rt": 7443,
  "\u2581duksh\u00ebm": 7444,
  "\u2581ftuar": 7445,
  "\u2581furnizim": 7446,
  "\u2581pasuris\u00eb": 7447,
  "\u2581replace": 7448,
  "\u2581\u00e7ojn\u00eb": 7449,
  "Nj\u00eb": 7450,
  "\u2581Danny": 7451,
  "\u2581conducted": 7452,
  "\u2581covering": 7453,
  "\u2581hapja": 7454,
  "\u2581mungesa": 7455,
  "\u2581sillni": 7456,
  "Are": 7457,
  "knowing": 7458,
  "\u2581GNOME": 7459,
  "\u2581Truly": 7460,
  "\u2581practices": 7461,
  "vje\u00e7ar": 7462,
  "\u2581Ever": 7463,
  "\u2581Guardian": 7464,
  "\u2581Mer": 7465,
  "\u2581fajin": 7466,
  "\u2581jepnin": 7467,
  "\u2581mur": 7468,
  "ug": 7469,
  "\u2581Too": 7470,
  "\u2581b\u00ebheshin": 7471,
  "\u2581criminals": 7472,
  "\u2581form\u00ebn": 7473,
  "\u2581rescue": 7474,
  "\u2581ska": 7475,
  "\u2581worlds": 7476,
  "\u2581Copy": 7477,
  "\u2581leg": 7478,
  "\u2581zbriti": 7479,
  "arit": 7480,
  "fill": 7481,
  "\u2581120": 7482,
  "\u25819]": 7483,
  "\u2581GDP": 7484,
  "\u2581alcohol": 7485,
  "\u2581civile": 7486,
  "\u2581privatiz": 7487,
  "Come": 7488,
  "netit": 7489,
  "\u2581Profetin": 7490,
  "\u2581besimtare": 7491,
  "\u2581braktisur": 7492,
  "\u2581komb": 7493,
  "\u2581lart\u00ebsuar": 7494,
  "\u2581mess": 7495,
  "\u2581prer\u00eb": 7496,
  "\u2581p\u00ebrgjigjur": 7497,
  "\u2581survey": 7498,
  "\u2581\u00e7oj": 7499,
  "\u2581Business": 7500,
  "\u2581Milo": 7501,
  "\u2581bullshit": 7502,
  "\u2581gjuaj": 7503,
  "\u2581multi": 7504,
  "\u2581threw": 7505,
  "zit": 7506,
  "\u2581launched": 7507,
  "\u2581shikosh": 7508,
  "\u2581ushtrin\u00eb": 7509,
  "\u2581Agreement": 7510,
  "\u2581Bukuresht": 7511,
  "\u2581bigger": 7512,
  "ass": 7513,
  "m\u00ebs": 7514,
  "over": 7515,
  "\u2581Djali": 7516,
  "\u2581disaster": 7517,
  "\u2581fuckin": 7518,
  "\u2581user": 7519,
  "\u2581Bruksel": 7520,
  "\u2581Los": 7521,
  "\u2581gabimet": 7522,
  "\u2581mbajti": 7523,
  "\u2581mbron": 7524,
  "\u2581policin\u00eb": 7525,
  "\u2581profeti": 7526,
  "\u2581roof": 7527,
  "not": 7528,
  "\u258106": 7529,
  "\u2581Follow": 7530,
  "\u2581Ska": 7531,
  "\u2581mashtruar": 7532,
  "\u2581parti": 7533,
  "\u2581performed": 7534,
  "\u2581qeshura": 7535,
  "\u2581rebel": 7536,
  "\u2581sport": 7537,
  "\u2581wood": 7538,
  "ning": 7539,
  "\u2581Europ\u00eb": 7540,
  "\u2581Jozefi": 7541,
  "\u2581b\u00ebheni": 7542,
  "\u2581fields": 7543,
  "\u2581kontrolluar": 7544,
  "\u2581merciful": 7545,
  "\u2581projektin": 7546,
  "\u2581skills": 7547,
  "\u2581unseen": 7548,
  "\u2581zell": 7549,
  "\u2581zgjodhi": 7550,
  "\u2581Fer": 7551,
  "\u2581kujdessh\u00ebm": 7552,
  "\u2581legs": 7553,
  "\u2581option": 7554,
  "\u2581pastruar": 7555,
  "\u2581preferuar": 7556,
  "\u2581p\u00ebrvoja": 7557,
  "\u2581shkel": 7558,
  "\u2581Easy": 7559,
  "\u2581auto": 7560,
  "\u2581ceremony": 7561,
  "\u2581photo": 7562,
  "\u2581vet\u00ebdijsh\u00ebm": 7563,
  "\u2581younger": 7564,
  "\u2581P\u00ebrfaq\u00ebsuesi": 7565,
  "\u2581devil": 7566,
  "\u2581encouragement": 7567,
  "\u2581fakte": 7568,
  "\u2581iku": 7569,
  "\u2581viewed": 7570,
  "this": 7571,
  "\u25812012": 7572,
  "\u2581developing": 7573,
  "\u2581hip": 7574,
  "\u2581steadfast": 7575,
  "\u2581uritur": 7576,
  "\u2581winter": 7577,
  "far": 7578,
  "rra": 7579,
  "stri": 7580,
  "\u2581Ephesians": 7581,
  "\u2581Gaz": 7582,
  "\u2581harvest": 7583,
  "\u2581jump": 7584,
  "\u2581naught": 7585,
  "\u2581ought": 7586,
  "\u2581premtoi": 7587,
  "\u2581quajti": 7588,
  "\u2581th\u00ebrras": 7589,
  "\u2581Montenegrin": 7590,
  "\u2581captain": 7591,
  "\u2581d\u00ebrguarin": 7592,
  "\u2581extent": 7593,
  "\u2581laugh": 7594,
  "\u2581translation": 7595,
  "&": 7596,
  "\u258108": 7597,
  "\u2581kryen": 7598,
  "\u2581lajmit": 7599,
  "\u2581udh\u00ebheq\u00ebsit": 7600,
  "\u2581aimed": 7601,
  "\u2581ik": 7602,
  "\u2581kat\u00ebrt": 7603,
  "\u2581listed": 7604,
  "\u2581ndikon": 7605,
  "Where": 7606,
  "\u2581Egjipt": 7607,
  "\u2581GDM": 7608,
  "\u2581corner": 7609,
  "\u2581experiences": 7610,
  "\u2581horses": 7611,
  "\u2581urdh\u00ebrin": 7612,
  "17": 7613,
  "SH": 7614,
  "osur": 7615,
  "\u25812003": 7616,
  "\u2581Canada": 7617,
  "\u2581Programi": 7618,
  "\u2581peaceful": 7619,
  "\u2581rrem\u00eb": 7620,
  "\u2581shihnin": 7621,
  "\u2581shikuar": 7622,
  "\u2581udh\u00ebrr\u00ebfyes": 7623,
  "\u2581Development": 7624,
  "\u2581aj\u00ebr": 7625,
  "\u2581changing": 7626,
  "\u2581dhuruar": 7627,
  "\u2581nis\u00ebn": 7628,
  "\u2581penges\u00eb": 7629,
  "\u2581suit": 7630,
  "RE": 7631,
  "\u2581climate": 7632,
  "\u2581cloud": 7633,
  "\u2581girlfriend": 7634,
  "\u2581qenka": 7635,
  "\u2581zh": 7636,
  "ally": 7637,
  "\u2581Clearly": 7638,
  "\u2581confident": 7639,
  "\u2581holl\u00ebsi": 7640,
  "gri": 7641,
  "\u2581Vajza": 7642,
  "\u2581doctors": 7643,
  "\u2581inherit": 7644,
  "\u2581integrimi": 7645,
  "njt\u00eb": 7646,
  "\u2581Kate": 7647,
  "\u2581dashura": 7648,
  "\u2581d\u00ebshtuar": 7649,
  "Ajo": 7650,
  "SD": 7651,
  "azh": 7652,
  "g\u00eb": 7653,
  "\u2581Isn": 7654,
  "\u2581djallit": 7655,
  "\u2581focused": 7656,
  "\u2581lejen": 7657,
  "\u2581mbanin": 7658,
  "\u2581weekend": 7659,
  "\u2581zyra": 7660,
  "log": 7661,
  "pat": 7662,
  "tis": 7663,
  "\u2581Shkrimeve": 7664,
  "\u2581bomb": 7665,
  "\u2581pregnant": 7666,
  "\u2581superior": 7667,
  "\u2581Mercy": 7668,
  "\u2581Rumani": 7669,
  "\u2581absolutely": 7670,
  "\u2581concluded": 7671,
  "\u2581krah\u00ebt": 7672,
  "\u2581luten": 7673,
  "\u2581shitur": 7674,
  "\u2581veprime": 7675,
  "\u2581vret": 7676,
  "l\u00ebs": 7677,
  "ye": 7678,
  "\u2581Ed": 7679,
  "\u2581Send": 7680,
  "\u2581g\u00ebnjesht\u00ebr": 7681,
  "\u2581rrall\u00eb": 7682,
  "\u2581suppose": 7683,
  "\u2581burrave": 7684,
  "\u2581editor": 7685,
  "\u2581rrethanat": 7686,
  "\u2581shtyr\u00eb": 7687,
  "\u2581vrasjen": 7688,
  "\u2581wilderness": 7689,
  "rus": 7690,
  "\u2581Himself": 7691,
  "\u2581Pet": 7692,
  "\u2581mjet": 7693,
  "\u2581ngrihet": 7694,
  "\u2581penguar": 7695,
  "\u2581sjellim": 7696,
  "\u2581Special": 7697,
  "\u2581k\u00ebshill\u00ebn": 7698,
  "\u2581possibly": 7699,
  "\u2581presidency": 7700,
  "\u2581visitors": 7701,
  "dha": 7702,
  "ino": 7703,
  "\u2581dropped": 7704,
  "\u2581obligim": 7705,
  "\u2581pleases": 7706,
  "\u2581professional": 7707,
  "\u2581vendas": 7708,
  "\u258144": 7709,
  "\u2581ecim": 7710,
  "\u2581factors": 7711,
  "\u2581fetar\u00eb": 7712,
  "\u2581stake": 7713,
  "qar\u00ebt": 7714,
  "\u2581armiq\u00ebsi": 7715,
  "\u2581attending": 7716,
  "\u2581tub": 7717,
  "\u2581victim": 7718,
  "mba": 7719,
  "\u2581d\u00ebshmojn\u00eb": 7720,
  "\u2581fshehin": 7721,
  "\u2581liars": 7722,
  "\u2581pajisje": 7723,
  "cho": 7724,
  "\u2581Dreqi": 7725,
  "\u2581konsideruar": 7726,
  "\u2581lift": 7727,
  "\u2581sinqerisht": 7728,
  "stan": 7729,
  "\u2581Instituti": 7730,
  "\u2581equipment": 7731,
  "\u2581p\u00ebrparimin": 7732,
  "\u2581recited": 7733,
  "\u2581shikojn\u00eb": 7734,
  "\u2581vdes\u00eb": 7735,
  "\u2581vije": 7736,
  "HR": 7737,
  "tel": 7738,
  "zan": 7739,
  "\u2581B\u00ebje": 7740,
  "\u2581bearing": 7741,
  "\u2581college": 7742,
  "\u2581dialogue": 7743,
  "\u2581pengojn\u00eb": 7744,
  "\u2581tok\u00ebsore": 7745,
  "\u2581Papa": 7746,
  "\u2581brendsh\u00ebm": 7747,
  "\u2581electricity": 7748,
  "\u2581jet\u00ebsore": 7749,
  "\u2581jug": 7750,
  "\u2581restore": 7751,
  "\u2581visible": 7752,
  "\u2581wage": 7753,
  "\u258107": 7754,
  "\u2581Cal": 7755,
  "\u2581Kos": 7756,
  "\u2581Ndrysho": 7757,
  "\u2581dera": 7758,
  "\u2581lidhjen": 7759,
  "\u2581perish": 7760,
  "\u2581zez\u00eb": 7761,
  "\u2581Col": 7762,
  "\u2581k\u00ebrkim": 7763,
  "\u2581lejoj": 7764,
  "\u2581marked": 7765,
  "\u2581mendo": 7766,
  "\u2581pendimin": 7767,
  "\u2581suggested": 7768,
  "\u2581towns": 7769,
  "\u2581verse": 7770,
  "r\u00ebt": 7771,
  "tori": 7772,
  "\u2581Baby": 7773,
  "\u2581comments": 7774,
  "\u2581individ\u00eb": 7775,
  "\u2581involves": 7776,
  "\u2581k\u00ebshillat": 7777,
  "\u2581sta": 7778,
  "\u2581talent": 7779,
  "ball": 7780,
  "\u258126.": 7781,
  "\u2581d\u00ebgjoj\u00eb": 7782,
  "\u2581evident": 7783,
  "\u2581p\u00ebrpiqem": 7784,
  "\u2581rising": 7785,
  "\u2581bashk\u00ebbesimtar\u00eb": 7786,
  "\u2581sinjal": 7787,
  "BR": 7788,
  "cia": 7789,
  "\u2581Berlin": 7790,
  "\u2581apostujt": 7791,
  "\u2581healthy": 7792,
  "\u2581occur": 7793,
  "\u2581pjes\u00ebt": 7794,
  "\u2581p\u00ebrmendet": 7795,
  "\u258121,": 7796,
  "\u2581drew": 7797,
  "\u2581management": 7798,
  "\u2581m\u00ebkatar\u00ebt": 7799,
  "\u2581requirements": 7800,
  "\u2581shoqe": 7801,
  "\u2581stands": 7802,
  "\u2581tourism": 7803,
  "\u2581transfer": 7804,
  "ised": 7805,
  "\u2581Plugin": 7806,
  "\u2581fantastike": 7807,
  "\u2581proposed": 7808,
  "\u2581sekond\u00eb": 7809,
  "\u2581vuajtjet": 7810,
  "\u2581Folder": 7811,
  "\u2581Mes": 7812,
  "\u2581Richard": 7813,
  "\u2581V\u00eb": 7814,
  "\u2581associates": 7815,
  "\u2581buried": 7816,
  "\u2581err\u00ebsir\u00eb": 7817,
  "\u2581ndjej": 7818,
  "\u2581structure": 7819,
  "\u2581Bak": 7820,
  "\u2581Grupi": 7821,
  "\u2581commander": 7822,
  "\u2581praktik\u00eb": 7823,
  "\u2581pranojm\u00eb": 7824,
  "\u2581sakt\u00ebsisht": 7825,
  "Por": 7826,
  "head": 7827,
  "\u2581Azia": 7828,
  "\u2581Sim": 7829,
  "\u2581bejme": 7830,
  "\u2581differences": 7831,
  "\u2581lidhet": 7832,
  "\u2581shumic\u00eb": 7833,
  "\u2581threatened": 7834,
  "ero": 7835,
  "ksi": 7836,
  "oo": 7837,
  "\u258127.": 7838,
  "\u2581Hol": 7839,
  "\u2581aim": 7840,
  "\u2581bari": 7841,
  "\u2581strehim": 7842,
  "keni": 7843,
  "\u2581Nd\u00ebrkaq": 7844,
  "\u2581babain": 7845,
  "\u2581bridge": 7846,
  "\u2581dawn": 7847,
  "\u2581jetes\u00ebs": 7848,
  "\u2581mendime": 7849,
  "\u2581merre": 7850,
  "\u2581njohim": 7851,
  "\u2581sand": 7852,
  "\u2581settled": 7853,
  "ahu": 7854,
  "\u2581closely": 7855,
  "\u2581detyr\u00ebn": 7856,
  "\u2581njohurin\u00eb": 7857,
  "\u2581NJ\u00cb": 7858,
  "\u2581Trupi": 7859,
  "\u2581senior": 7860,
  "\u2581vdiste": 7861,
  "part": 7862,
  "\u258118]": 7863,
  "\u2581Stamboll": 7864,
  "\u2581blu": 7865,
  "\u2581commitment": 7866,
  "\u2581drunk": 7867,
  "\u2581d\u00ebshiroj": 7868,
  "\u2581pjese": 7869,
  "\u2581zem\u00ebruar": 7870,
  "toni": 7871,
  "vil": 7872,
  "\u2581##": 7873,
  "\u2581Luft\u00ebs": 7874,
  "\u2581falling": 7875,
  "\u2581kaluara": 7876,
  "ities": 7877,
  "pos": 7878,
  "\u258128:": 7879,
  "\u2581Bir": 7880,
  "\u2581Slovenia": 7881,
  "\u2581kish\u00ebs": 7882,
  "\u2581lutur": 7883,
  "\u2581pap\u00ebrsosur": 7884,
  "Sikur": 7885,
  "maz": 7886,
  "\u2581koka": 7887,
  "\u2581merrja": 7888,
  "\u2581motherfucker": 7889,
  "\u2581procesi": 7890,
  "\u2581qendrore": 7891,
  "\u2581Kevin": 7892,
  "\u2581besosh": 7893,
  "\u2581commandments": 7894,
  "\u2581fshat": 7895,
  "\u2581mendore": 7896,
  "\u2581valley": 7897,
  "\u2581Fucking": 7898,
  "\u2581Izrael": 7899,
  "\u2581Jezus": 7900,
  "\u2581Vazhdoni": 7901,
  "\u2581bashk\u00ebpunimit": 7902,
  "\u2581beloved": 7903,
  "\u2581dedication": 7904,
  "\u2581intended": 7905,
  "\u2581p\u00ebrderisa": 7906,
  "row": 7907,
  "\u02b9": 7908,
  "\u2581Charles": 7909,
  "\u2581ask\u00eb": 7910,
  "\u2581besimtar": 7911,
  "\u2581regret": 7912,
  "\u2581Carl": 7913,
  "\u2581Fal\u00eb": 7914,
  "\u2581demon": 7915,
  "\u2581lidhen": 7916,
  "\u2581package": 7917,
  "\u2581publication": 7918,
  "\u2581views": 7919,
  "ging": 7920,
  "\u2581deshi": 7921,
  "\u2581mesazheve": 7922,
  "\u2581shihet": 7923,
  "\u2581ski": 7924,
  "\u2581Djema": 7925,
  "\u2581Trans": 7926,
  "\u2581levels": 7927,
  "dent": 7928,
  "ture": 7929,
  "\u2581knoweth": 7930,
  "\u2581van": 7931,
  "p\u00eb": 7932,
  "term": 7933,
  "vol": 7934,
  "\u258110]": 7935,
  "\u2581Egjiptit": 7936,
  "\u2581Zot\u00ebris\u00eb": 7937,
  "\u2581ndyr\u00eb": 7938,
  "\u2581nd\u00ebrtimit": 7939,
  "\u2581saving": 7940,
  "\u2581sekret": 7941,
  "\u2581v\u00ebllain": 7942,
  "\u2581zonat": 7943,
  "\u2581Ber": 7944,
  "\u2581K\u00ebshilli": 7945,
  "\u2581Pun\u00eb": 7946,
  "\u2581Ruth": 7947,
  "\u2581cares": 7948,
  "\u2581driven": 7949,
  "\u2581etnik": 7950,
  "\u2581extremely": 7951,
  "\u2581needy": 7952,
  "\u2581yesterday": 7953,
  "\u2581Filip": 7954,
  "\u2581klas\u00ebs": 7955,
  "\u2581sesi": 7956,
  "\u2581useful": 7957,
  "forgiving": 7958,
  "tje": 7959,
  "\u2581jetoj\u00eb": 7960,
  "\u2581ngut": 7961,
  "\u2581Min": 7962,
  "\u2581Similarly": 7963,
  "\u2581applied": 7964,
  "\u2581extreme": 7965,
  "\u2581mase": 7966,
  "\u2581adhuroj": 7967,
  "\u2581atit": 7968,
  "\u2581character": 7969,
  "\u2581gjysm\u00ebn": 7970,
  "\u2581hyn": 7971,
  "\u2581manager": 7972,
  "\u2581m\u00ebkatit": 7973,
  "\u2581prisni": 7974,
  "\u2581shpresojn\u00eb": 7975,
  "\u2581sh\u00ebrb\u00ebtor\u00ebve": 7976,
  "\u2581ushqimit": 7977,
  "ure": 7978,
  "\u2581Shk": 7979,
  "\u2581arrestuar": 7980,
  "\u2581besohet": 7981,
  "\u2581bio": 7982,
  "\u2581historike": 7983,
  "\u2581infrastructure": 7984,
  "\u2581kishit": 7985,
  "\u2581p\u00ebrkrah": 7986,
  "\u2581thote": 7987,
  "\u2581Garden": 7988,
  "\u2581Gospel": 7989,
  "\u2581directed": 7990,
  "\u2581finds": 7991,
  "\u2581v\u00ebren": 7992,
  "\u2581contrary": 7993,
  "\u2581padyshim": 7994,
  "\u2581predikuar": 7995,
  "\u2581p\u00ebrshtatsh\u00ebm": 7996,
  "\u2581storm": 7997,
  "\u2581zgjat": 7998,
  "eti": 7999,
  "\u2581Somebody": 8000,
  "\u2581goja": 8001,
  "\u2581gri": 8002,
  "\u2581homologu": 8003,
  "\u2581punojm\u00eb": 8004,
  "\u2581p\u00ebrdor\u00eb": 8005,
  "\u2581settle": 8006,
  "\u2581shtrir\u00eb": 8007,
  "\u2581snow": 8008,
  "las": 8009,
  "rian": 8010,
  "\u2581Danieli": 8011,
  "\u2581armies": 8012,
  "\u2581connect": 8013,
  "\u2581corrupt": 8014,
  "\u2581design": 8015,
  "\u2581determine": 8016,
  "\u2581flee": 8017,
  "\u2581lindje": 8018,
  "\u2581mbijetuar": 8019,
  "\u2581nj\u00ebrin": 8020,
  "\u2581sets": 8021,
  "jve": 8022,
  "rac": 8023,
  "rdh": 8024,
  "\u2581Again": 8025,
  "\u2581Republika": 8026,
  "\u2581Solana": 8027,
  "\u2581dokumentet": 8028,
  "\u2581roll": 8029,
  "\u2581tempull": 8030,
  "\u2581vdiq\u00ebn": 8031,
  "ably": 8032,
  "zim": 8033,
  "\u2581contribute": 8034,
  "\u2581h\u00eb": 8035,
  "\u2581lock": 8036,
  "\u2581reminded": 8037,
  "\u2581deed": 8038,
  "\u2581druri": 8039,
  "\u2581impressed": 8040,
  "\u2581m\u00ebsime": 8041,
  "\u2581studied": 8042,
  "\u2581Mendoja": 8043,
  "\u2581ark": 8044,
  "\u2581eternal": 8045,
  "\u2581g\u00ebnjeshtar\u00eb": 8046,
  "\u2581kuptoi": 8047,
  "\u2581priste": 8048,
  "LE": 8049,
  "TE": 8050,
  "izmit": 8051,
  "\u2581Bank\u00eb": 8052,
  "\u2581Contact": 8053,
  "\u2581disk": 8054,
  "\u2581imi": 8055,
  "\u2581imperfect": 8056,
  "\u2581prind": 8057,
  "\u2581problemeve": 8058,
  "car": 8059,
  "\u2581brengos": 8060,
  "\u2581integrimit": 8061,
  "\u2581tight": 8062,
  "sisht": 8063,
  "\u2581Efesian\u00ebve": 8064,
  "\u2581Europ\u00ebs": 8065,
  "\u2581kalojm\u00eb": 8066,
  "\u2581njoftuar": 8067,
  "\u2581p\u00ebrfundimi": 8068,
  "\u2581shape": 8069,
  "\u2581shfaqet": 8070,
  "\u2581thankful": 8071,
  "\u2581vras\u00eb": 8072,
  "\u2581Kuz": 8073,
  "\u2581Ram": 8074,
  "\u2581Start": 8075,
  "\u2581documents": 8076,
  "\u2581existing": 8077,
  "\u2581ik\u00ebn": 8078,
  "\u2581mor\u00ebm": 8079,
  "\u2581organisation": 8080,
  "\u2581partit\u00eb": 8081,
  "\u2581serb\u00ebt": 8082,
  "vit": 8083,
  "\u2581adres\u00ebn": 8084,
  "\u2581awesome": 8085,
  "\u2581ekonomis\u00eb": 8086,
  "\u2581figurat": 8087,
  "\u2581glorify": 8088,
  "\u2581nd\u00ebshkim": 8089,
  "\u2581pini": 8090,
  "Shih": 8091,
  "sto": 8092,
  "\u2581P\u00ebrpara": 8093,
  "\u2581noticed": 8094,
  "\u2581pozitiv": 8095,
  "\u2581proposal": 8096,
  "\u2581strengthened": 8097,
  "\u2581extend": 8098,
  "\u2581shkat\u00ebrrimin": 8099,
  "Di": 8100,
  "\u25811993": 8101,
  "\u2581Bush": 8102,
  "\u2581K\u00ebrko": 8103,
  "\u2581claims": 8104,
  "\u2581deti": 8105,
  "\u2581detyra": 8106,
  "\u2581exalted": 8107,
  "\u2581fan": 8108,
  "\u2581troubled": 8109,
  "\u2581zbulon": 8110,
  "EN": 8111,
  "\u2581Turqin\u00eb": 8112,
  "\u2581passing": 8113,
  "\u2581square": 8114,
  "\u2581upset": 8115,
  "ola": 8116,
  "\u2581beast": 8117,
  "\u2581gjykoj\u00eb": 8118,
  "\u2581pata": 8119,
  "\u2581p\u00ebrfaq\u00ebsuesi": 8120,
  "Ko": 8121,
  "\u2581Antonio": 8122,
  "\u2581End": 8123,
  "\u2581Lista": 8124,
  "\u2581NGA": 8125,
  "\u2581bised\u00eb": 8126,
  "\u2581buildings": 8127,
  "\u2581dele": 8128,
  "\u2581drog\u00ebs": 8129,
  "\u2581gjuh\u00ebs": 8130,
  "\u2581rose": 8131,
  "\u2581submitted": 8132,
  "\u2581vuajn\u00eb": 8133,
  "\u258151": 8134,
  "\u2581Rom\u00eb": 8135,
  "\u2581banor\u00ebve": 8136,
  "\u2581indicated": 8137,
  "\u2581rumun": 8138,
  "\u2581tallesh": 8139,
  "\u2581Jane": 8140,
  "\u2581Keshtu": 8141,
  "\u2581Vol": 8142,
  "\u2581Znj": 8143,
  "\u2581ecur": 8144,
  "\u2581faljen": 8145,
  "\u2581hurry": 8146,
  "\u2581ktheni": 8147,
  "\u2581lu": 8148,
  "\u2581l\u00ebr\u00eb": 8149,
  "\u2581offers": 8150,
  "\u2581pozit\u00eb": 8151,
  "\u2581prices": 8152,
  "\u2581rasti": 8153,
  "\u2581reply": 8154,
  "\u2581situations": 8155,
  "\u2581causing": 8156,
  "\u2581degree": 8157,
  "\u2581martes\u00ebs": 8158,
  "\u2581solid": 8159,
  "\u2581staying": 8160,
  "\u2581var": 8161,
  "ahut": 8162,
  "iz\u00ebm": 8163,
  "\u2581Gju": 8164,
  "\u2581Grand": 8165,
  "\u2581Hor": 8166,
  "\u2581Service": 8167,
  "\u2581ankth": 8168,
  "\u2581ndihet": 8169,
  "\u2581referred": 8170,
  "\u2581shoq\u00ebrin\u00eb": 8171,
  "\u2581zakonsh\u00ebm": 8172,
  "\u2581brethren": 8173,
  "\u2581driver": 8174,
  "\u2581megjith\u00ebse": 8175,
  "\u2581purposes": 8176,
  "\u00a9": 8177,
  "\u2581Her\u00eb": 8178,
  "\u2581Neither": 8179,
  "\u2581p\u00ebrfundoj\u00eb": 8180,
  "\u2581thella": 8181,
  "\u2581vendos\u00ebn": 8182,
  "\u2581veriut": 8183,
  "ris\u00eb": 8184,
  "\u2581Ready": 8185,
  "\u2581haply": 8186,
  "\u2581ladies": 8187,
  "\u2581politik\u00ebs": 8188,
  "\u2581sentence": 8189,
  "\u2581womb": 8190,
  "\u2581Anything": 8191,
  "\u2581Fear": 8192,
  "\u2581G\u00ebzohem": 8193,
  "\u2581identify": 8194,
  "\u2581pah": 8195,
  "\u2581secular": 8196,
  "eta": 8197,
  "z\u00ebn": 8198,
  "\u2581(_": 8199,
  "\u2581Project": 8200,
  "\u2581copa": 8201,
  "\u2581faktet": 8202,
  "\u2581mb\u00ebshteten": 8203,
  "\u2581pengon": 8204,
  "\u2581shkova": 8205,
  "\u2581solve": 8206,
  "\u2581Komb\u00ebtare": 8207,
  "\u2581Public": 8208,
  "\u2581begins": 8209,
  "\u2581mishi": 8210,
  "\u2581njihni": 8211,
  "Mir\u00eb": 8212,
  "imeve": 8213,
  "raxhi": 8214,
  "rimi": 8215,
  "\u2581Milosevic": 8216,
  "\u2581fjetur": 8217,
  "\u2581formuar": 8218,
  "\u2581politika": 8219,
  "\u2581primary": 8220,
  "\u2581q\u00ebndruesh\u00ebm": 8221,
  "\u2581rritjes": 8222,
  "LA": 8223,
  "b\u00ebn": 8224,
  "ee": 8225,
  "\u2581Henri": 8226,
  "\u2581commands": 8227,
  "\u2581guardian": 8228,
  "\u2581sleeping": 8229,
  "\u2581Hag\u00eb": 8230,
  "\u2581Traj": 8231,
  "\u2581gjumi": 8232,
  "\u2581kontrollit": 8233,
  "\u2581miq\u00ebsi": 8234,
  "\u2581planin": 8235,
  "\u2581pranuan": 8236,
  "DI": 8237,
  "\u2581djall": 8238,
  "\u2581picked": 8239,
  "\u2581vendos\u00eb": 8240,
  "who": 8241,
  "\u2581Mil": 8242,
  "\u2581attain": 8243,
  "\u2581autoritet": 8244,
  "\u2581dies": 8245,
  "\u2581pendohen": 8246,
  "\u2581polemiz": 8247,
  "\u2581q\u00ebndroni": 8248,
  "May": 8249,
  "oli": 8250,
  "roj": 8251,
  "\u2581Kill": 8252,
  "\u2581bllokuar": 8253,
  "\u2581forcave": 8254,
  "\u2581weather": 8255,
  "an\u00ebt": 8256,
  "\u2581Didn": 8257,
  "\u2581Ger": 8258,
  "\u2581Madhe": 8259,
  "\u2581cil\u00ebsit\u00eb": 8260,
  "\u2581creating": 8261,
  "\u2581forum": 8262,
  "\u2581historia": 8263,
  "\u2581locked": 8264,
  "\u2581ngriti": 8265,
  "ight": 8266,
  "\u2581arsyeshme": 8267,
  "\u2581located": 8268,
  "\u2581peng": 8269,
  "\u2581resolution": 8270,
  "\u2581west": 8271,
  "cak": 8272,
  "\u2581Commissioner": 8273,
  "\u2581Gra": 8274,
  "\u2581Med": 8275,
  "\u2581Oliver": 8276,
  "\u2581Shoqat\u00ebs": 8277,
  "\u2581grupet": 8278,
  "\u2581hiq": 8279,
  "\u2581ngjarjet": 8280,
  "\u2581pattern": 8281,
  "\u2581teknologji": 8282,
  "ll\u00ebn": 8283,
  "m\u00ebn": 8284,
  "\u2581flying": 8285,
  "\u2581kick": 8286,
  "\u2581represent": 8287,
  "\u2581takimi": 8288,
  "\u258135.": 8289,
  "\u2581Answer": 8290,
  "\u2581ngjyra": 8291,
  "\u2581scale": 8292,
  "\u2581shp\u00ebtojn\u00eb": 8293,
  "\u2581History": 8294,
  "\u2581Jim": 8295,
  "\u2581Nj\u00ebri": 8296,
  "\u2581familjar": 8297,
  "\u2581kushton": 8298,
  "\u2581questioned": 8299,
  "\u2581tour": 8300,
  "\u2581uj\u00ebrat": 8301,
  "roi": 8302,
  "ruan": 8303,
  "\u2581erdha": 8304,
  "\u2581nj\u00ebzet": 8305,
  "\u2581patients": 8306,
  "\u2581p\u00ebrgjegj\u00ebsin\u00eb": 8307,
  "ela": 8308,
  "\u2581Ab": 8309,
  "\u2581Mag": 8310,
  "\u2581Solomoni": 8311,
  "\u2581Sy": 8312,
  "\u2581visa": 8313,
  "\u2581\u00a9": 8314,
  "\u2581begati": 8315,
  "\u2581club": 8316,
  "\u2581jetonte": 8317,
  "\u2581jetosh": 8318,
  "\u2581wilt": 8319,
  "det": 8320,
  "\u2581Address": 8321,
  "\u2581Exalted": 8322,
  "\u2581bond": 8323,
  "\u2581krimeve": 8324,
  "\u2581merituar": 8325,
  "\u2581njerez": 8326,
  "\u2581terror": 8327,
  "\u2581ungrateful": 8328,
  "ngo": 8329,
  "rin\u00eb": 8330,
  "\u2581constant": 8331,
  "\u2581drejtave": 8332,
  "\u2581listened": 8333,
  "\u2581rely": 8334,
  "\u2581shooting": 8335,
  "\u2581zjarrt\u00eb": 8336,
  "ND": 8337,
  "jt\u00eb": 8338,
  "prit": 8339,
  "\u2581Milloshevi": 8340,
  "\u2581Ray": 8341,
  "\u2581burned": 8342,
  "\u2581creature": 8343,
  "\u2581g\u00ebzimin": 8344,
  "\u2581identified": 8345,
  "\u2581q\u00ebndroj": 8346,
  "\u2581statusit": 8347,
  "work": 8348,
  "\u2581Den": 8349,
  "\u2581Kulla": 8350,
  "\u2581Malin": 8351,
  "\u2581banks": 8352,
  "\u2581hardly": 8353,
  "\u2581nj\u00eblloj": 8354,
  "\u2581seksi": 8355,
  "\u2581shans": 8356,
  "\u2581vazhdoni": 8357,
  "\u2581veproni": 8358,
  "\u2581penduar": 8359,
  "\u2581sektorin": 8360,
  "\u2581tribes": 8361,
  "\u2581Dude": 8362,
  "\u2581Guys": 8363,
  "\u2581Tomi": 8364,
  "\u2581adopt": 8365,
  "\u2581mizor": 8366,
  "\u2581pash": 8367,
  "\u2581pavar\u00ebsin\u00eb": 8368,
  "\u2581soll\u00ebn": 8369,
  "\u2581vendosin": 8370,
  "\u2581ve\u00e7anta": 8371,
  "JA": 8372,
  "Le": 8373,
  "\u2581Boy": 8374,
  "\u2581Marku": 8375,
  "\u2581bloc": 8376,
  "\u2581cito": 8377,
  "\u2581grumbull": 8378,
  "\u2581allows": 8379,
  "\u2581grain": 8380,
  "\u2581m\u00ebsoj\u00eb": 8381,
  "\u2581per\u00ebndi": 8382,
  "\u2581premtimet": 8383,
  "\u2581ver\u00ebs": 8384,
  "\u2581Mail": 8385,
  "\u2581Nd": 8386,
  "\u2581flok\u00ebt": 8387,
  "\u2581items": 8388,
  "\u2581lejoj\u00eb": 8389,
  "\u2581link": 8390,
  "nor": 8391,
  "ries": 8392,
  "your": 8393,
  "\u2581Exchange": 8394,
  "\u2581Woe": 8395,
  "\u2581coast": 8396,
  "\u2581dhun\u00eb": 8397,
  "\u2581emocionale": 8398,
  "\u2581enjoyment": 8399,
  "\u2581fu": 8400,
  "\u2581hapat": 8401,
  "\u2581testify": 8402,
  "\u2581thash": 8403,
  "mal": 8404,
  "\u2581Ende": 8405,
  "\u2581Vetem": 8406,
  "\u2581hap\u00ebt": 8407,
  "\u2581presidenc\u00eb": 8408,
  "\u2581prirje": 8409,
  "\u2581q\u00ebndrimi": 8410,
  "\u2581rreziksh\u00ebm": 8411,
  "\u2581starts": 8412,
  "\u2581\u00e7mim": 8413,
  "Co": 8414,
  "cion": 8415,
  "\u258128,": 8416,
  "\u2581ngjall\u00eb": 8417,
  "\u2581shoes": 8418,
  "10": 8419,
  "bon": 8420,
  "pje": 8421,
  "\u2581Fol": 8422,
  "\u2581Paj": 8423,
  "\u2581Per\u00ebndimor": 8424,
  "\u2581Wa": 8425,
  "\u2581consideration": 8426,
  "\u2581fled": 8427,
  "\u2581visiting": 8428,
  "\u2581Dit\u00ebs": 8429,
  "\u2581gjata": 8430,
  "\u2581plenty": 8431,
  "Your": 8432,
  "\u2581elektrike": 8433,
  "\u2581ndihm\u00ebtar": 8434,
  "gon": 8435,
  "\u2581Smith": 8436,
  "\u2581capable": 8437,
  "\u2581modest": 8438,
  "\u2581mutual": 8439,
  "\u2581paku": 8440,
  "\u2581p\u00ebrg\u00ebnjeshtron": 8441,
  "\u2581sh\u00ebrbente": 8442,
  "\u2581teeth": 8443,
  "pit": 8444,
  "\u2581Thy": 8445,
  "\u2581barr\u00eb": 8446,
  "\u2581p\u00ebrshkroi": 8447,
  "\u2581tempullin": 8448,
  "\u2581tregtis\u00eb": 8449,
  "\u2581twenty": 8450,
  "Did": 8451,
  "\u2581Sh\u00ebn": 8452,
  "\u2581armiq": 8453,
  "\u2581ndikojn\u00eb": 8454,
  "\u2581sillen": 8455,
  "sis\u00eb": 8456,
  "\u2581Committee": 8457,
  "\u2581Hand": 8458,
  "\u2581Komb\u00ebtar": 8459,
  "\u2581Mesazhi": 8460,
  "gor": 8461,
  "ious": 8462,
  "king": 8463,
  "\u2581bashkohen": 8464,
  "\u2581lajmi": 8465,
  "\u2581munges\u00eb": 8466,
  "\u2581pointed": 8467,
  "\u2581secilit": 8468,
  "\u2581select": 8469,
  "\u266b": 8470,
  "\u2581Aware": 8471,
  "\u2581Gjykata": 8472,
  "\u2581Jude": 8473,
  "\u2581Science": 8474,
  "\u2581Wall": 8475,
  "\u2581abandoned": 8476,
  "\u2581constitution": 8477,
  "\u2581depends": 8478,
  "\u2581publications": 8479,
  "\u2581shikoje": 8480,
  "pu": 8481,
  "tani": 8482,
  "\u2581Kra": 8483,
  "\u2581device": 8484,
  "\u2581mbretin": 8485,
  "\u2581opposite": 8486,
  "\u2581sociale": 8487,
  "\u2581vu": 8488,
  ">": 8489,
  "evski": 8490,
  "\u2581Cil\u00ebt": 8491,
  "\u2581Republik": 8492,
  "\u2581argjendi": 8493,
  "\u2581assured": 8494,
  "\u2581constantly": 8495,
  "\u2581engage": 8496,
  "\u2581mistakes": 8497,
  "\u2581paraqet": 8498,
  "\u2581thrown": 8499,
  "JE": 8500,
  "ole": 8501,
  "rate": 8502,
  "\u25812,000": 8503,
  "\u2581Olli": 8504,
  "\u2581dumb": 8505,
  "\u2581mision": 8506,
  "\u2581muajsh": 8507,
  "\u2581virus": 8508,
  "\u2581worshipped": 8509,
  "hat": 8510,
  "\u2581Ballkan": 8511,
  "\u2581Tan": 8512,
  "\u2581breaking": 8513,
  "\u2581dhuntin\u00eb": 8514,
  "\u2581hipokrit\u00ebt": 8515,
  "\u2581mishit": 8516,
  "\u2581profeci": 8517,
  "\u2581pu": 8518,
  "etet": 8519,
  "\u2581lig": 8520,
  "\u2581oath": 8521,
  "\u2581shtet\u00ebror": 8522,
  "\u2581vler\u00ebn": 8523,
  "kujt": 8524,
  "\u2581Enter": 8525,
  "\u2581encouraging": 8526,
  "\u2581m\u00ebsoj": 8527,
  "\u2581statusin": 8528,
  "\u2581v\u00ebshtrim": 8529,
  "ec": 8530,
  "nic": 8531,
  "\u2581African": 8532,
  "\u2581Island": 8533,
  "\u2581ec": 8534,
  "\u2581rrethana": 8535,
  "5/": 8536,
  "\u2581bashkohet": 8537,
  "\u2581mir\u00ebsin\u00eb": 8538,
  "\u2581participate": 8539,
  "\u2581pionier\u00eb": 8540,
  "\u2581zyrtarisht": 8541,
  "3/": 8542,
  "\u2581Bas": 8543,
  "\u2581Kan": 8544,
  "\u2581Second": 8545,
  "\u2581Tommy": 8546,
  "\u2581costs": 8547,
  "\u2581crying": 8548,
  "\u2581falls": 8549,
  "\u2581lexojn\u00eb": 8550,
  "\u2581lumit": 8551,
  "\u2581marr\u00ebdh\u00ebnien": 8552,
  "\u2581mir\u00ebt": 8553,
  "\u2581m\u00ebkati": 8554,
  "\u2581password": 8555,
  "\u2581prosecutor": 8556,
  "\u2581serioz": 8557,
[...]
