{
  "</s>": 0,
  "<unk>": 1,
  ".": 2,
  ",": 3,
  "\u2581the": 4,
  "\u2581\"": 5,
  "\u2581to": 6,
  "\u2581of": 7,
  "\u2581and": 8,
  ":": 9,
  "\u2581-": 10,
  "?": 11,
  "\u2581": 12,
  "\u2581a": 13,
  "\u2581in": 14,
  "\u2581that": 15,
  "\u2581kutsi": 16,
  "s": 17,
  "\u2581is": 18,
  "\u2581we": 19,
  "'": 20,
  "a": 21,
  "\u2581Jehovah": 22,
  "\u2581for": 23,
  "\u2581I": 24,
  "\u2581na": 25,
  "\u2581(": 26,
  "\u2581God": 27,
  "\u2581you": 28,
  "\u2581ku": 29,
  "\u2581wa": 30,
  "\u2581his": 31,
  "\u2581futsi": 32,
  "\u2581be": 33,
  "\u2581he": 34,
  "\u2581not": 35,
  "\u2581with": 36,
  "\u2581was": 37,
  ";": 38,
  "\u2581'": 39,
  "\u2581will": 40,
  "e": 41,
  "\u2581have": 42,
  "\u2581as": 43,
  "\u2581are": 44,
  "ing": 45,
  "\u2581it": 46,
  ")": 47,
  "\u2581our": 48,
  "\u2581us": 49,
  "\u2581on": 50,
  "\u2581ya": 51,
  "\u2581Jesus": 52,
  "\u2581Jehova": 53,
  "\u2581him": 54,
  "\u2581they": 55,
  "\u2581si": 56,
  "\u2581u": 57,
  "\u2581ba": 58,
  "\u2581who": 59,
  "\u2581from": 60,
  "\u2581can": 61,
  "\u2581kwa": 62,
  "\u2581by": 63,
  "\u2581The": 64,
  "\u2581Ng": 65,
  "\u2581do": 66,
  "\u25811": 67,
  "\u2581bantfu": 68,
  "\u2581them": 69,
  "\u2581what": 70,
  "\u2581their": 71,
  "\u2581What": 72,
  "\u2581all": 73,
  "\u2581kanye": 74,
  "\u2581Bible": 75,
  "!": 76,
  "\u2581this": 77,
  "\u2581or": 78,
  "\u2581your": 79,
  "\u2581kute": 80,
  "ni": 81,
  "\u2581had": 82,
  "\u2581la": 83,
  "\u2581kakhulu": 84,
  "\u2581were": 85,
  "\u2581when": 86,
  "\u2581yini": 87,
  "\u2581njani": 88,
  "\u2581about": 89,
  "\u2581people": 90,
  "\u2581one": 91,
  "\u2581ng": 92,
  "\u2581le": 93,
  "\u2581Ku": 94,
  "\u2581Jesu": 95,
  "\u2581Nkulunkulu": 96,
  "\u2581lo": 97,
  "\u2581at": 98,
  "\u2581How": 99,
  "\u2581did": 100,
  "\u2581And": 101,
  "\u2581i": 102,
  "\u2581my": 103,
  "\u2581nobe": 104,
  "\u2581an": 105,
  "\u2581but": 106,
  "\u2581would": 107,
  "\u2581laba": 108,
  "\u2581me": 109,
  "ed": 110,
  "\u2581U": 111,
  "\u25812": 112,
  "\u2581has": 113,
  "\u2581ni": 114,
  "\u2581In": 115,
  "\u2581loko": 116,
  "\u2581time": 117,
  "\u2581may": 118,
  "\u2581ngayo": 119,
  "\u2581A": 120,
  "\u2581so": 121,
  "\u2581ne": 122,
  "\u2581life": 123,
  "\u2581how": 124,
  "\u2581those": 125,
  "\u2581help": 126,
  "\u2581also": 127,
  "\u2581He": 128,
  "\u2581which": 129,
  "\u2581lesi": 130,
  "\u2581things": 131,
  "\u2581We": 132,
  "\u2581Mungu": 133,
  "\u2581But": 134,
  "\u2581Yini": 135,
  "\u2581said": 136,
  "\u2581abe": 137,
  "\u25813": 138,
  "\u2581For": 139,
  "\u2581kodvwa": 140,
  "b": 141,
  "\u2581if": 142,
  "\u2581love": 143,
  "\u2581out": 144,
  "\u2581her": 145,
  "\u2581kufanele": 146,
  "\u2581more": 147,
  "\u2581should": 148,
  "\u2581good": 149,
  "\u2581sikhatsi": 150,
  "\u2581ye": 151,
  "\u2581leti": 152,
  "\u2581loku": 153,
  "wa": 154,
  "\u2581make": 155,
  "\u2581ngekutsi": 156,
  "\u2581man": 157,
  "\u2581nga": 158,
  "eni": 159,
  "\u2581some": 160,
  "\u2581up": 161,
  "\u25814": 162,
  "\u2581many": 163,
  "\u2581[": 164,
  "\u2581unto": 165,
  "\u2581been": 166,
  "phindze": 167,
  "\u2581tintfo": 168,
  "\u2581way": 169,
  "\u2581Paul": 170,
  "i": 171,
  "\u2581Christ": 172,
  "\u2581there": 173,
  "\u2581S": 174,
  "\u2581ti": 175,
  "\u2581no": 176,
  "\u2581watsi": 177,
  "ko": 178,
  "\u258115": 179,
  "\u25815": 180,
  "ly": 181,
  "\u2581into": 182,
  "\u2581does": 183,
  "\u2581work": 184,
  "\u2581ngi": 185,
  "\u2581When": 186,
  "\u2581labanye": 187,
  "\u2581faith": 188,
  "\u2581world": 189,
  "\u2581indlela": 190,
  "\u2581could": 191,
  "]": 192,
  "isho": 193,
  "\u2581even": 194,
  "\u2581spirit": 195,
  "\u2581Why": 196,
  "\u2581It": 197,
  "\u2581m": 198,
  "\u2581yakhe": 199,
  "\u2581such": 200,
  "\u2581need": 201,
  "nangabe": 202,
  "\u2581li": 203,
  "\u2581day": 204,
  "\u2581kunjalo": 205,
  "\u2581others": 206,
  "\u2581wakhe": 207,
  "\u2581earth": 208,
  "\u2581know": 209,
  "funa": 210,
  "\u2581first": 211,
  "\u2581other": 212,
  "o": 213,
  "\u2581naye": 214,
  "\u2581she": 215,
  "\u2581because": 216,
  "\u2581these": 217,
  "na": 218,
  "\u2581bakhe": 219,
  "\u2581come": 220,
  "Nangabe": 221,
  "\u2581kahle": 222,
  "\u2581nje": 223,
  "\u2581example": 224,
  "\u2581liBhayibheli": 225,
  "\u2581Kodvwa": 226,
  "\u2581ngobe": 227,
  "\u2581watu": 228,
  "\u2581made": 229,
  "\u2581e": 230,
  "t": 231,
  "\u2581Kingdom": 232,
  "\u2581ke": 233,
  "\u2581nge": 234,
  "\u2581Wa": 235,
  "\u2581Ngako": 236,
  "\u2581Pawula": 237,
  "\u2581If": 238,
  "\u2581kuba": 239,
  "\u2581ngesikhatsi": 240,
  "\u2581umuntfu": 241,
  "\u2581see": 242,
  "\u2581than": 243,
  "\u258111": 244,
  "\u2581khona": 245,
  "\u2581L": 246,
  "\u2581Yesu": 247,
  "\u2581congregation": 248,
  "le": 249,
  "d": 250,
  "\u2581katika": 251,
  "\u25817": 252,
  "\u2581They": 253,
  "la": 254,
  "\u2581E": 255,
  "\u2581Christians": 256,
  "\u2581shall": 257,
  "\u2581family": 258,
  "\u2581must": 259,
  "\u2581years": 260,
  "\u2581might": 261,
  "\u2581sa": 262,
  "\u2581being": 263,
  ".\"": 264,
  "\u2581As": 265,
  "\u2581Si": 266,
  "\u2581njengob": 267,
  "\u2581kuze": 268,
  "\u258110": 269,
  "\u2581This": 270,
  "\u258114": 271,
  "\u2581children": 272,
  "\u2581then": 273,
  "\u258113": 274,
  "\u2581brothers": 275,
  "\u2581*": 276,
  "\u2581Christian": 277,
  "\u2581Kungani": 278,
  "\u2581before": 279,
  "\u2581says": 280,
  "\u2581emhlabeni": 281,
  "\u2581like": 282,
  "\u2581kube": 283,
  "\u2581men": 284,
  "\u2581umsebenti": 285,
  "\u2581Njengobe": 286,
  "\u2581kama": 287,
  "\u2581Israyeli": 288,
  "\u2581beba": 289,
  "\u2581beka": 290,
  "\u2581/": 291,
  "\u25811,": 292,
  "\u2581T": 293,
  "\u2581take": 294,
  "\u2581give": 295,
  "\u2581say": 296,
  "\u25819": 297,
  "\u2581ngendlela": 298,
  "\u2581heart": 299,
  "the": 300,
  "Fundza": 301,
  "\u2581own": 302,
  "\"": 303,
  "\u2581only": 304,
  "khombisa": 305,
  "\u2581Lord": 306,
  "\u2581spiritual": 307,
  "\u2581You": 308,
  "\u2581after": 309,
  "\u2581name": 310,
  "\u2581labanyenti": 311,
  "\u25816:": 312,
  "\u2581now": 313,
  "\u2581keep": 314,
  "\u2581over": 315,
  "n": 316,
  "\u2581That": 317,
  "\u2581another": 318,
  "\u2581kuJehova": 319,
  "\u258116": 320,
  "\u2581yake": 321,
  "\u2581se": 322,
  "\u2581sibonelo": 323,
  "\u2581ngu": 324,
  "\u2581nabo": 325,
  "\u2581true": 326,
  "\u2581Witnesses": 327,
  "\u2581konkhe": 328,
  "\u2581waNkulunkulu": 329,
  "\u2581become": 330,
  "\u258117": 331,
  "\u2581any": 332,
  "\u2581labo": 333,
  "\u2581So": 334,
  "\u2581Satan": 335,
  "\u2581Nanobe": 336,
  "\u258112": 337,
  "\u2581kuphila": 338,
  "\u2581words": 339,
  "emuva": 340,
  "\u2581leli": 341,
  "\u2581Le": 342,
  "si": 343,
  "\u2581ngeku": 344,
  "\u2581n": 345,
  "\u2581bonkhe": 346,
  "\u2581death": 347,
  "\u2581kwenta": 348,
  "\u2581kwe": 349,
  "I": 350,
  "\u2581wetfu": 351,
  "\u2581live": 352,
  "E": 353,
  "\u2581Nga": 354,
  "\u2581came": 355,
  "\u2581feel": 356,
  "\u2581truth": 357,
  "\u2581utsi": 358,
  "\u2581well": 359,
  "\u2581great": 360,
  "\u2581through": 361,
  "ke": 362,
  "\u2581mtu": 363,
  "\u2581kwamba": 364,
  "\u2581njalo": 365,
  "\u2581neku": 366,
  "\u2581Father": 367,
  "\u2581learn": 368,
  "\u2581ema": 369,
  "\u2581let": 370,
  "\u2581tonkhe": 371,
  "\u2581lapho": 372,
  "\u2581show": 373,
  "esikhatsi": 374,
  "\u2581John": 375,
  "\u2581much": 376,
  "\u2581wake": 377,
  "hlale": 378,
  "\u2022": 379,
  "\u2581kuwa": 380,
  "\u2581new": 381,
  "\u2581Ba": 382,
  "\u2581kwakhe": 383,
  "\u2581am": 384,
  "\u2581David": 385,
  "\u2581Nasi": 386,
  "hlala": 387,
  "\u2581laNkulunkulu": 388,
  "\u2581aka": 389,
  "\u2581just": 390,
  "\u25816": 391,
  "\u258118": 392,
  "\u2581M": 393,
  "\u2581kuphela": 394,
  "\u2581kwaloko": 395,
  "\u2581two": 396,
  "\u2581Loku": 397,
  "\u2581takhe": 398,
  "Read": 399,
  "\u2581letinyenti": 400,
  "\u2581where": 401,
  "\u258119": 402,
  "\u2581kuNkulunkulu": 403,
  "cabanga": 404,
  "y": 405,
  "\u2581why": 406,
  "\u258124": 407,
  "tsi": 408,
  "\u2581himself": 409,
  "\u2581seku": 410,
  "\u25818": 411,
  "...": 412,
  "\u2581person": 413,
  "\u2581ones": 414,
  "\u2581very": 415,
  "khuluma": 416,
  "\u2581Kristo": 417,
  "\u2581times": 418,
  "\u2581kuye": 419,
  "\u2581against": 420,
  ".)": 421,
  "\u2581C": 422,
  "\u2581beku": 423,
  "\u258120": 424,
  "\u2581kwetfu": 425,
  "\u2581important": 426,
  "m": 427,
  "\u2581use": 428,
  "\u2581holy": 429,
  "\u2581faithful": 430,
  "\u2581To": 431,
  "\u2581emaKhristu": 432,
  "\u2581Fundza": 433,
  "sebentisa": 434,
  "\u2581Word": 435,
  "\u2581wonkhe": 436,
  "\u2581nekutsi": 437,
  "\u2581LiBhayibheli": 438,
  "\u2581same": 439,
  "\u2581right": 440,
  "\u2581part": 441,
  "\u2581whom": 442,
  "\u2581end": 443,
  "\u2581Lakini": 444,
  "\u2581lokufanele": 445,
  "\u2581find": 446,
  "\u2581Basi": 447,
  "\u2581every": 448,
  "\u2581go": 449,
  "li": 450,
  "\u2581Do": 451,
  "\u2581disciples": 452,
  "\u2581found": 453,
  "ne": 454,
  "we": 455,
  "\u2581Kwa": 456,
  "\u2581Peter": 457,
  "\u2581gave": 458,
  "\u2581yetfu": 459,
  "\u2581today": 460,
  "\u2581want": 461,
  "\u2581heaven": 462,
  "\u2581sekutsi": 463,
  "\u2581parents": 464,
  "ze": 465,
  "\u2581Lo": 466,
  "\u2581ministry": 467,
  "\u2581wekushumayela": 468,
  "\u2581wife": 469,
  "\u2581away": 470,
  "\u2581babe": 471,
  "\u2581Then": 472,
  "\u2581each": 473,
  "se": 474,
  "\u2581tu": 475,
  "\u2581serve": 476,
  "\u2581consider": 477,
  "\u2581put": 478,
  "ndlela": 479,
  "\u2581Bantfu": 480,
  "\u2581lengu": 481,
  "\u2581Bwana": 482,
  "\u2581though": 483,
  "\u2581young": 484,
  "\u2581ta": 485,
  "\u2581Kute": 486,
  "\u2581word": 487,
  "\u258122": 488,
  "\u2581Na": 489,
  "weni": 490,
  "\u258121": 491,
  "\u2581given": 492,
  "\u2581apostle": 493,
  "khonta": 494,
  "\u2581betfu": 495,
  "\u2581brother": 496,
  "\u2581sibe": 497,
  "\u2581told": 498,
  "\u2581yeku": 499,
  "\u2581BaJehova": 500,
  "\u2581read": 501,
  "\u2581Nobe": 502,
  "\u2581Son": 503,
  "\u2581Loko": 504,
  "\u2581N": 505,
  "\u2581worship": 506,
  "\u2581sonkhe": 507,
  "\u2581bese": 508,
  "\u2581never": 509,
  "\u2581means": 510,
  "\u2581bantfwana": 511,
  "\u2581place": 512,
  "\u2581saying": 513,
  "\u2581most": 514,
  "\u2581Israel": 515,
  "\u2581mind": 516,
  "\u2581down": 517,
  "\u2581One": 518,
  "tiva": 519,
  "\u2581labe": 520,
  "\u2581sin": 521,
  "\u2581ekhatsi": 522,
  "\u2581lakhe": 523,
  "\u2581However": 524,
  "ku": 525,
  "\u25818.": 526,
  "\u2581among": 527,
  "kwenta": 528,
  "\u2581peace": 529,
  "\u2581singa": 530,
  "\u2581study": 531,
  "\u2581article": 532,
  "\u2581sakhe": 533,
  "\u2581longcwele": 534,
  "\u2581days": 535,
  "te": 536,
  "\u2581power": 537,
  "\u2581preaching": 538,
  "\u2581tetfu": 539,
  "\u2581After": 540,
  "\u2581babo": 541,
  "\u2581wrote": 542,
  "\u2581long": 543,
  "\u2581ngemuva": 544,
  "\u2581bazalwane": 545,
  "\u258112.": 546,
  "\u2581yonkhe": 547,
  "\u2581elders": 548,
  "\u2581news": 549,
  "\u2581juu": 550,
  "u": 551,
  "\u2581ekuphileni": 552,
  "\u2581its": 553,
  "\u2581ngako": 554,
  "\u2581lamuhla": 555,
  "\u25812.": 556,
  "\u2581called": 557,
  "\u2581wote": 558,
  "\u2581set": 559,
  "\u2581umoya": 560,
  "\u2581tikhatsi": 561,
  "\u2581Read": 562,
  "\u2581get": 563,
  "\u2581service": 564,
  "\u2581son": 565,
  "\u2581Kufanele": 566,
  "\u2581hope": 567,
  "\u2581servants": 568,
  "\u2581think": 569,
  "\u2581Moses": 570,
  "\u2581naNkulunkulu": 571,
  "\u25819.": 572,
  "\u2581aba": 573,
  "\u2581doing": 574,
  "\u2581ngaloko": 575,
  "\u2581maana": 576,
  "\u2581went": 577,
  "\u2581onkhe": 578,
  "\u2581thou": 579,
  "\u2581ngenc": 580,
  "ti": 581,
  "\u2581emandla": 582,
  "esizatfu": 583,
  "ka": 584,
  "\u258117.": 585,
  "\u2581used": 586,
  "\u2581ninyi": 587,
  "\u2581No": 588,
  "\u2581lakini": 589,
  "\u2581anointed": 590,
  "\u2581ili": 591,
  "\u258113.": 592,
  "\u258110.": 593,
  "\u2581ebandleni": 594,
  "\u2581view": 595,
  "\u2581Khristu": 596,
  "\u2581together": 597,
  "\u2581Singa": 598,
  "\u2581noma": 599,
  "\u2581lutsandvo": 600,
  "\u2581wakho": 601,
  "\u258123": 602,
  "\u2581became": 603,
  "fundza": 604,
  "\u2581Some": 605,
  "\u2581house": 606,
  "\u2581course": 607,
  "\u2581cha": 608,
  "\u2581wale": 609,
  "\u2581under": 610,
  "chubeka": 611,
  "\u25814.": 612,
  "\u2581saw": 613,
  "\u2581ways": 614,
  "\u2581human": 615,
  "\u2581nome": 616,
  "\u2581marriage": 617,
  "khona": 618,
  "\u2581too": 619,
  "\u2581Let": 620,
  "\u2581kuya": 621,
  "\u2581yaNkulunkulu": 622,
  "\u25815.": 623,
  "\u2581kukholwa": 624,
  "\u2581upon": 625,
  "\u2581King": 626,
  "\u2581hand": 627,
  "\u2581Scriptures": 628,
  "\u2581emsebentini": 629,
  "\u2581waba": 630,
  "\u2581began": 631,
  "\u2581without": 632,
  "\u2581Davide": 633,
  "\u2581ask": 634,
  "\u2581te": 635,
  "S": 636,
  "\u25817.": 637,
  "\u2581living": 638,
  "\u2581Abraham": 639,
  "\u2581always": 640,
  "\u2581Sathane": 641,
  "\u258125": 642,
  "\u2581able": 643,
  "lo": 644,
  "cela": 645,
  "\u2581helped": 646,
  "\u2581law": 647,
  "\u2581having": 648,
  "nga": 649,
  "\u2581yenu": 650,
  "cala": 651,
  "\u2581uya": 652,
  "See": 653,
  "\u2581At": 654,
  "\u2581themselves": 655,
  "ndleni": 656,
  "ba": 657,
  "\u2581hiyo": 658,
  "\u2581again": 659,
  "\u2581bring": 660,
  "\u2581during": 661,
  "\u2581mayelana": 662,
  "\u2581later": 663,
  "\u2581By": 664,
  "\u2581tindzaba": 665,
  "\u258128": 666,
  "\u2581joy": 667,
  "\u2581three": 668,
  "\u2581home": 669,
  "\u2581iminyaka": 670,
  "\u2581B": 671,
  "\u2581father": 672,
  "\u2581often": 673,
  "\u2581She": 674,
  "\u2581mmoja": 675,
  "\u2581back": 676,
  "\u258116.": 677,
  "aletinye": 678,
  "etulu": 679,
  "\u2581still": 680,
  "\u2581utawu": 681,
  "\u2581kabi": 682,
  "\u2581understand": 683,
  "\u2581took": 684,
  "vela": 685,
  "\u2581nebantfu": 686,
  "\u258111.": 687,
  "\u2581support": 688,
  "\u258114.": 689,
  "\u2581kweku": 690,
  "baluleke": 691,
  "niketa": 692,
  "sa": 693,
  "\u258115.": 694,
  "\u25816.": 695,
  "\u2581sure": 696,
  "\u2581za": 697,
  "\u2581kutoka": 698,
  "\u2581tell": 699,
  "kila": 700,
  "\u2581With": 701,
  "ambo": 702,
  "\u2581fellow": 703,
  "\u2581prayer": 704,
  "\u2581future": 705,
  "\u2581Labanye": 706,
  "\u2581done": 707,
  "\u2581something": 708,
  "\u25813,": 709,
  "\u2581humans": 710,
  "\u2581pamoja": 711,
  "\u2581both": 712,
  "\u2581wami": 713,
  "ya": 714,
  "\u2581heard": 715,
  "\u2581liciniso": 716,
  "mayelana": 717,
  "\u2581yabo": 718,
  "\u2581Cabanga": 719,
  "\u2581Kungenteka": 720,
  "\u2581speak": 721,
  "\u2581year": 722,
  "\u258130": 723,
  "\u2581ali": 724,
  "sukela": 725,
  "\u2581Our": 726,
  "\u2581husband": 727,
  "\u2581ourselves": 728,
  "tsatsa": 729,
  "\u2581w": 730,
  "ye": 731,
  "\u2581questions": 732,
  "\u2581anga": 733,
  "\u2581lusito": 734,
  "\u2581receive": 735,
  "\u2581serving": 736,
  "\u2581book": 737,
  "\u2581shengatsi": 738,
  "sho": 739,
  "\u2581old": 740,
  "\u2581lomunye": 741,
  "\u2581making": 742,
  "eminyaka": 743,
  "\u2581sababu": 744,
  "\u2581Ti": 745,
  "A": 746,
  "\u2581needed": 747,
  "\u2581Ngutiphi": 748,
  "\u2581asked": 749,
  "ngetulu": 750,
  "\u2581Is": 751,
  "\u2581Matthew": 752,
  "\u2581Israelites": 753,
  "\u2581Jerusalem": 754,
  "\u2581Phetro": 755,
  "\u2581bafundzi": 756,
  "\u258118.": 757,
  "\u2581emavi": 758,
  "\u2581full": 759,
  "\u2581while": 760,
  "\u2581baptized": 761,
  "th": 762,
  "\u2581kwesikhatsi": 763,
  "\u2581batali": 764,
  "\u2581Be": 765,
  "\u2581His": 766,
  "\u25815,": 767,
  "\u2581Psalm": 768,
  "\u2581angeke": 769,
  "\u2581benefit": 770,
  "ther": 771,
  "\u2581Abrahama": 772,
  "\u2581felt": 773,
  "\u2581woman": 774,
  "\u2581hivyo": 775,
  "\u2581litsi": 776,
  "\u2581loving": 777,
  "\u2581nasi": 778,
  "ta": 779,
  "\u2581Even": 780,
  "\u2581kuyo": 781,
  "\u2581lebeba": 782,
  "\u2581yet": 783,
  "\u2581ever": 784,
  "\u2581labeba": 785,
  "\u2581purpose": 786,
  "\u2581There": 787,
  "\u2581lowa": 788,
  "\u25813.": 789,
  "\u2581close": 790,
  "\u2581lilanga": 791,
  "\u2581Yes": 792,
  "\u2581bengi": 793,
  "\u2581knew": 794,
  "ngeke": 795,
  "\u25818:": 796,
  "\u2581hu": 797,
  "\u2581kwabo": 798,
  "\u2581njenge": 799,
  "\u2581baNkulunkulu": 800,
  "\u2581counsel": 801,
  "\u2581last": 802,
  "\u2581meetings": 803,
  "\u2581yaJehova": 804,
  "U": 805,
  "al": 806,
  "ki": 807,
  "\u2581dead": 808,
  "\u2581really": 809,
  "\u2581believe": 810,
  "\u2581reason": 811,
  "\u2581someone": 812,
  "\u2581yami": 813,
  "\u2581personal": 814,
  "\u2581learned": 815,
  "\u2581look": 816,
  "\u2581eBhayibhelini": 817,
  "\u2581yakho": 818,
  "\u2581best": 819,
  "\u2581hath": 820,
  "\u2581knowledge": 821,
  "\u2581mother": 822,
  "\u2581result": 823,
  "\u2581face": 824,
  "\u2581kungani": 825,
  "\u2581Many": 826,
  "\u2581sent": 827,
  "\u2581ezulwini": 828,
  "\u2581Johane": 829,
  "\u2581akhe": 830,
  "\u2581continue": 831,
  "\u2581leku": 832,
  "\u2581yena": 833,
  "\u2581Jews": 834,
  "\u2581desire": 835,
  "\u2581letinhle": 836,
  "\u2581nalabanye": 837,
  "\u2581Adamu": 838,
  "\u2581order": 839,
  "\u2581century": 840,
  "\u2581wabo": 841,
  "\u2581child": 842,
  "\u2581city": 843,
  "\u2581page": 844,
  "\u2581toward": 845,
  "ri": 846,
  "zange": 847,
  "\u2581ngato": 848,
  "\u2581tabo": 849,
  "\u2581letimnandzi": 850,
  "\u2581saloko": 851,
  "\u2581sisters": 852,
  "tjela": 853,
  "\u2581Adam": 854,
  "\u2581ngeke": 855,
  "\u2581possible": 856,
  "\u2581naJehova": 857,
  "jili": 858,
  "\u2581nyalo": 859,
  "er": 860,
  "tinceku": 861,
  "\u2581Now": 862,
  "\u2581buhlobo": 863,
  "\u2581esikhatsini": 864,
  "The": 865,
  "uphi": 866,
  "\u2581Who": 867,
  "\u2581beyi": 868,
  "\u2581Yet": 869,
  "\u2581received": 870,
  "\u2581simo": 871,
  "\u2581therefore": 872,
  "suka": 873,
  "\u2581baya": 874,
  "\u2581besi": 875,
  "\u2581care": 876,
  "\u2581fact": 877,
  "mphostoli": 878,
  "\u2581lesikhulu": 879,
  "\u2581Because": 880,
  "\u2581akazange": 881,
  "\u2581body": 882,
  "\u2581glory": 883,
  "\u2581hata": 884,
  "\u2581kwekutsi": 885,
  "\u25aa": 886,
  "\u2581naka": 887,
  "\u2581s": 888,
  "\u2581atsi": 889,
  "\u2581relationship": 890,
  "\u2581siku": 891,
  "C": 892,
  "\u2581gift": 893,
  "\u2581wenta": 894,
  "\u258131": 895,
  "\u2581Maana": 896,
  "\u2581happy": 897,
  "\u2581lobeka": 898,
  "\u2581mimi": 899,
  "\u258119.": 900,
  "\u2581On": 901,
  "\u2581eyes": 902,
  "\u2581Ngi": 903,
  "\u2581cannot": 904,
  "\u2581sono": 905,
  "\u258126": 906,
  "\u2581kungenteka": 907,
  "\u2581message": 908,
  "sebenta": 909,
  "khetsa": 910,
  "\u2581experience": 911,
  "\u2581kusho": 912,
  "\u2581imisebenti": 913,
  "\u2581leya": 914,
  "\u2581basi": 915,
  "\u2581nor": 916,
  "\u2581friends": 917,
  "\u2581taNkulunkulu": 918,
  "\u2581wisdom": 919,
  "\u2581language": 920,
  "Hla": 921,
  "\u258127": 922,
  "\u2581lebeyi": 923,
  "\u2581lu": 924,
  "phila": 925,
  "veta": 926,
  "\u2581known": 927,
  "\u2581yao": 928,
  "\u2581huyo": 929,
  "\u2581nguNkulunkulu": 930,
  "\u2581share": 931,
  "\u2581avoid": 932,
  "\u2581wicked": 933,
  "\u2581hard": 934,
  "\u2581nami": 935,
  "\u2581letinye": 936,
  "\u2581open": 937,
  "\u2581sente": 938,
  "\u2581strong": 939,
  "\u2581certain": 940,
  "\u2581free": 941,
  "\u2581lengi": 942,
  "\u2581Kuliciniso": 943,
  "\u2581thee": 944,
  "\u2581pia": 945,
  "\u2581preach": 946,
  "\u2581All": 947,
  "\u2581naku": 948,
  "\u2581ube": 949,
  "\u2581yote": 950,
  "\u2581baba": 951,
  "\u258112,": 952,
  "sita": 953,
  "tfolakala": 954,
  "yi": 955,
  "\u2581My": 956,
  "\u2581asi": 957,
  "\u2581nini": 958,
  "\u2581lomkhulu": 959,
  "\u2581sisi": 960,
  "\u2581different": 961,
  "\u2581libito": 962,
  "\u2581mean": 963,
  "\u2581buhlungu": 964,
  "\u2581left": 965,
  "\u2581mine": 966,
  "\u2581aliye": 967,
  "\u2581taJehova": 968,
  "\u2581imitate": 969,
  "\u2581kukhonta": 970,
  "\u2581lamanyenti": 971,
  "\u2581lead": 972,
  "\u2581Joseph": 973,
  "\u258133": 974,
  "\u2581intfo": 975,
  "\u2581wanted": 976,
  "\u25814,": 977,
  "\u2581flesh": 978,
  "\u2581mankind": 979,
  "\u2581matter": 980,
  "\u2581t": 981,
  "\u2581teliBhayibheli": 982,
  "\u258132": 983,
  "\u2581Consider": 984,
  "\u2581lekucala": 985,
  "\u2581pray": 986,
  "\u2581tindlela": 987,
  "\u2581emkhatsini": 988,
  "\u2581yekutsi": 989,
  "Taga": 990,
  "\u2581These": 991,
  "\u2581better": 992,
  "\u2581righteousness": 993,
  "\u2581answer": 994,
  "\u2581enjoy": 995,
  "\u2581kufundza": 996,
  "\u2581weku": 997,
  "fika": 998,
  "\u2581kucala": 999,
  "\u2581works": 1000,
  "hamba": 1001,
  "lwa": 1002,
  "\u2581indvodza": 1003,
  "\u2581langu": 1004,
  "\u2581bad": 1005,
  "\u2581sister": 1006,
  "\u2581Ase": 1007,
  "\u2581phakadze": 1008,
  "\u2581yi": 1009,
  "\u2581heavenly": 1010,
  "\u2581sizatfu": 1011,
  "\u258129": 1012,
  "\u2581Isaya": 1013,
  "\u2581brought": 1014,
  "\u2581kubantfu": 1015,
  "\u2581whe": 1016,
  "\u2581banga": 1017,
  "\u2581temple": 1018,
  "ngi": 1019,
  "seBhayibhelini": 1020,
  "\u2581unga": 1021,
  "\u2581king": 1022,
  "\u2581kubo": 1023,
  "\u2581lives": 1024,
  "\u2581tena": 1025,
  "bangela": 1026,
  "\u2581few": 1027,
  "\u2581wakati": 1028,
  "\u2581written": 1029,
  "\u2581Mosi": 1030,
  "\u2581however": 1031,
  "\u2581married": 1032,
  "\u2581next": 1033,
  "elikhulu": 1034,
  "to": 1035,
  "\u2581New": 1036,
  "\u2581organization": 1037,
  "kati": 1038,
  "\u2581Tihlabelelo": 1039,
  "\u2581leminyenti": 1040,
  "\u2581seluleko": 1041,
  "\u2581endzaweni": 1042,
  "\u2581yule": 1043,
  "\u2581lolu": 1044,
  "\u2581natsi": 1045,
  "\u2581wise": 1046,
  "ma": 1047,
  "\u2581ambaye": 1048,
  "\u2581between": 1049,
  "\u2581giving": 1050,
  "\u2581kwaba": 1051,
  "\u2581waka": 1052,
  "\u2581apostles": 1053,
  "\u2581respect": 1054,
  "\u2581remain": 1055,
  "\u2581BoFakazi": 1056,
  "\u2581kingdom": 1057,
  "\u2581thinking": 1058,
  "SI": 1059,
  "\u2581bali": 1060,
  "\u2581imani": 1061,
  "\u2581situation": 1062,
  "\u2581trust": 1063,
  "lu": 1064,
  "\u2581Lomunye": 1065,
  "\u2581eku": 1066,
  "\u2581follow": 1067,
  "\u2581wenu": 1068,
  "po": 1069,
  "\u2581Matewu": 1070,
  "\u2581kwakho": 1071,
  "\u2581lokukhulu": 1072,
  "\u2581tincwadzi": 1073,
  "\u2581ngaso": 1074,
  "\u2581teach": 1075,
  "\u2581loved": 1076,
  "\u2581difficult": 1077,
  "\u2581ngetintfo": 1078,
  "\u258120.": 1079,
  "\u2581little": 1080,
  "\u2581tinkinga": 1081,
  "\u2581yourself": 1082,
  "\u2581alikuwa": 1083,
  "\u2581died": 1084,
  "\u2581hear": 1085,
  "\u2581wase": 1086,
  "\u2581righteous": 1087,
  "\u2581wala": 1088,
  "yo": 1089,
  "\u2581needs": 1090,
  "\u2581nothing": 1091,
  "\u2581present": 1092,
  "\u2581tincumo": 1093,
  "\u25812,": 1094,
  "\u2581labadzala": 1095,
  "\u2581members": 1096,
  "\u258110,": 1097,
  "\u2581thought": 1098,
  "\u2581hayo": 1099,
  "\u2581Roho": 1100,
  "\u2581lesihle": 1101,
  "\u2581near": 1102,
  "\u2581moved": 1103,
  "\u2581waJehova": 1104,
  "\u2581From": 1105,
  "\u2581Taga": 1106,
  "\u2581cause": 1107,
  "\u2581sheep": 1108,
  "Ku": 1109,
  "\u2581Ecinisweni": 1110,
  "\u2581Isaiah": 1111,
  "\u2581siya": 1112,
  "\u2581thing": 1113,
  "\u2581yangu": 1114,
  "\u2581bo": 1115,
  "\u2581problems": 1116,
  "\u2581wrong": 1117,
  "\u2581kulo": 1118,
  "\u2581loyal": 1119,
  "\u2581nalo": 1120,
  "\u2581sins": 1121,
  "\u2581according": 1122,
  "\u2581bakho": 1123,
  "\u2581wabhala": 1124,
  "\u2581walio": 1125,
  "\u2581dhambi": 1126,
  "\u2581ngani": 1127,
  "\u2581teku": 1128,
  "\u2581willing": 1129,
  "M": 1130,
  "\u2581kind": 1131,
  "be": 1132,
  "\u2581un": 1133,
  "\u2581until": 1134,
  "\u2581stay": 1135,
  "\u2581whole": 1136,
  "ngenta": 1137,
  "\u2581Of": 1138,
  "\u2581promise": 1139,
  "\u2581Your": 1140,
  "\u2581following": 1141,
  "\u2581nations": 1142,
  "\u2581resurrection": 1143,
  "\u2581Daniel": 1144,
  "\u2581perfect": 1145,
  "hose": 1146,
  "\u2581Timothy": 1147,
  "\u2581liV": 1148,
  "\u2581prophet": 1149,
  "\u2581sasa": 1150,
  "\u2581bami": 1151,
  "\u2581honor": 1152,
  "\u2581lebesi": 1153,
  "\u2581thy": 1154,
  "\u2581Job": 1155,
  "\u2581coming": 1156,
  "\u2581teaching": 1157,
  "\u2581au": 1158,
  "\u2581kindness": 1159,
  "bitwa": 1160,
  "\u2581feelings": 1161,
  "\u2581sacrifice": 1162,
  "\u258137": 1163,
  "\u2581baJehova": 1164,
  "\u2581conduct": 1165,
  "\u2581lebeka": 1166,
  "nge": 1167,
  "\u2581lobuhle": 1168,
  "\u2581off": 1169,
  "\u2581Sibonelo": 1170,
  "\u2581indzawo": 1171,
  "timisele": 1172,
  "\u2581account": 1173,
  "\u2581awa": 1174,
  "\u2581wali": 1175,
  "\u258121.": 1176,
  "\u2581abo": 1177,
  "\u2581imibuto": 1178,
  "\u2581past": 1179,
  "\u2581real": 1180,
  "\u2581taught": 1181,
  "bonakala": 1182,
  "\u2581angels": 1183,
  "\u2581mbamba": 1184,
  "\u2581try": 1185,
  "\u258140": 1186,
  "\u2581Ni": 1187,
  "\u2581allow": 1188,
  "\u2581wao": 1189,
  "\u2581Luke": 1190,
  "\u2581nato": 1191,
  "\u2581neither": 1192,
  "\u2581'?": 1193,
  "\u2581tebantfu": 1194,
  "\u2581zaidi": 1195,
  "\u2581Ngeku": 1196,
  "\u2581kufa": 1197,
  "\u2581ngekushesha": 1198,
  "\u2581Unga": 1199,
  "\u2581obey": 1200,
  "\u2581change": 1201,
  "\u2581food": 1202,
  "\u2581injabulo": 1203,
  "\u2581mbele": 1204,
  "\u2581question": 1205,
  "\u2581nawe": 1206,
  "\u2581ngaloku": 1207,
  "\u2581setfu": 1208,
  "\u2581La": 1209,
  "\u2581latsi": 1210,
  "\u2581nation": 1211,
  "\u2581self": 1212,
  "\u2581special": 1213,
  "khombise": 1214,
  "\u2581TINGOMA": 1215,
  "\u2581greater": 1216,
  "\u2581lesitsi": 1217,
  "beka": 1218,
  "\u2581batsi": 1219,
  "\u2581kitsi": 1220,
  "\u2581kitu": 1221,
  "\u2581lelitsi": 1222,
  "\u2581nayo": 1223,
  "\u2581ndugu": 1224,
  "\u2581qualities": 1225,
  "\u2581seen": 1226,
  "\u2581umhlaba": 1227,
  "\u2581witness": 1228,
  "kwati": 1229,
  "\u2581especially": 1230,
  "\u2581forever": 1231,
  "\u2581number": 1232,
  "\u2581remember": 1233,
  "\u2581soon": 1234,
  "\u2581taking": 1235,
  "jw": 1236,
  "likuwa": 1237,
  "\u2581Acts": 1238,
  "\u2581blood": 1239,
  "\u2581budzala": 1240,
  "\u2581fear": 1241,
  "\u2581gives": 1242,
  "?\"": 1243,
  "lthough": 1244,
  "\u2581inhlitiyo": 1245,
  "\u2581yeye": 1246,
  "\u2581Therefore": 1247,
  "\u2581letsite": 1248,
  "\u2581followers": 1249,
  "\u2581likely": 1250,
  "icongosekulindza": 1251,
  "\u2581Spirit": 1252,
  "\u2581ekhasini": 1253,
  "\u2581Noah": 1254,
  "\u2581decisions": 1255,
  "\u2581point": 1256,
  "\u2581Abe": 1257,
  "\u2581emihlanganweni": 1258,
  "usiphi": 1259,
  "\u2581far": 1260,
  "\u2581lwe": 1261,
  "\u2581kungaba": 1262,
  "\u2581pioneer": 1263,
  "\u2581ransom": 1264,
  "\u2581system": 1265,
  "\u2581ente": 1266,
  "\u2581letsi": 1267,
  "\u2581ngabe": 1268,
  "\u2581ngalo": 1269,
  "balandzeli": 1270,
  "\u2581mwenyewe": 1271,
  "\u2581prayers": 1272,
  "\u2581rule": 1273,
  "\u2581small": 1274,
  "\u2581O": 1275,
  "\u2581World": 1276,
  "\u2581act": 1277,
  "\u2581examples": 1278,
  "\u2581false": 1279,
  "\u2581fine": 1280,
  "\u2581four": 1281,
  "\u2581ndani": 1282,
  "ciniseka": 1283,
  "\u2581Watch": 1284,
  "eth": 1285,
  "nobe": 1286,
  "\u2581Does": 1287,
  "\u2581ati": 1288,
  "\u2581attitude": 1289,
  "\u2581imali": 1290,
  "\u2581kudla": 1291,
  "\u2581talk": 1292,
  "!\"": 1293,
  "\u2581comfort": 1294,
  "\u2581women": 1295,
  "\u2581concern": 1296,
  "\u2581incwadzi": 1297,
  "\u2581land": 1298,
  "\u2581wants": 1299,
  "bese": 1300,
  "\u2581kwami": 1301,
  "\u2581ndzawonye": 1302,
  "\u2581ngaye": 1303,
  "\u2581sons": 1304,
  "\u2581spiritually": 1305,
  "\u2581kuthula": 1306,
  "\u2581second": 1307,
  "\u2581money": 1308,
  "\u2581sense": 1309,
  "\u2581thus": 1310,
  "\u2581wena": 1311,
  "\u2581Law": 1312,
  "\u2581Simakadze": 1313,
  "\u2581THE": 1314,
  "\u2581draw": 1315,
  "\u2581kona": 1316,
  "\u2581principles": 1317,
  "ncwadzi": 1318,
  "org": 1319,
  "\u2581Rom": 1320,
  "\u2581libandla": 1321,
  "\u2581lokubi": 1322,
  "\u2581night": 1323,
  "kholelwa": 1324,
  "\u2581comes": 1325,
  "\u2581provide": 1326,
  "\u2581turn": 1327,
  "gcina": 1328,
  "\u2581kuto": 1329,
  "\u2581lenkhulu": 1330,
  "\u2581yako": 1331,
  "Buka": 1332,
  "N": 1333,
  "\u2581Are": 1334,
  "\u2581fully": 1335,
  "\u2581hhayi": 1336,
  "\u2581Tower": 1337,
  "\u2581kutsini": 1338,
  "\u2581slave": 1339,
  "\u2581Watchtower": 1340,
  "\u2581clear": 1341,
  "\u2581everlasting": 1342,
  "\u2581similar": 1343,
  "l": 1344,
  "va": 1345,
  "\u2581Baba": 1346,
  "\u2581hao": 1347,
  "\u2581kubona": 1348,
  "\u2581l": 1349,
  "\u2581prophecy": 1350,
  "\u2581Ngum": 1351,
  "\u2581case": 1352,
  "\u2581hands": 1353,
  "\u2581kwati": 1354,
  "\u2581Eva": 1355,
  "\u2581ana": 1356,
  "\u2581lase": 1357,
  "\u2581strengthen": 1358,
  "\u2581LIKHA": 1359,
  "\u2581answered": 1360,
  "\u2581beti": 1361,
  "\u2581shows": 1362,
  "mane": 1363,
  "\u2581James": 1364,
  "\u2581Naka": 1365,
  "\u2581Sheria": 1366,
  "\u2581Thus": 1367,
  "\u2581kunga": 1368,
  "\u2581ufuna": 1369,
  "\u2581Kisha": 1370,
  "\u2581forth": 1371,
  "\u2581going": 1372,
  "\u2581light": 1373,
  "\u2581makes": 1374,
  "\u2581hearts": 1375,
  "ebuhlobo": 1376,
  "\u2581Corinthians": 1377,
  "\u2581eat": 1378,
  "bu": 1379,
  "vele": 1380,
  "\u2581Babe": 1381,
  "\u2581Instead": 1382,
  "\u2581umndeni": 1383,
  "me": 1384,
  "\u2581Beku": 1385,
  "\u2581Mary": 1386,
  "\u2581anyone": 1387,
  "\u2581etfu": 1388,
  "on": 1389,
  "\u2581privilege": 1390,
  "Gen": 1391,
  "dzinga": 1392,
  "ela": 1393,
  "sekelwe": 1394,
  "\u258115,": 1395,
  "\u258134": 1396,
  "\u2581SONGS": 1397,
  "\u2581reading": 1398,
  "so": 1399,
  "\u258112:": 1400,
  "\u2581Mat": 1401,
  "\u2581voice": 1402,
  "\u2581water": 1403,
  "\u2581information": 1404,
  "\u2581kwenu": 1405,
  "\u2581lebeti": 1406,
  "less": 1407,
  "\u2581kept": 1408,
  "\u2581timo": 1409,
  "\u2581ngaJehova": 1410,
  "\u2581um": 1411,
  "\u2581uta": 1412,
  "\u2581circumstances": 1413,
  "\u2581iNkhosi": 1414,
  "\u2581kubalulekile": 1415,
  "\u2581mbinguni": 1416,
  "\u2581truly": 1417,
  "etindlela": 1418,
  "\u2581Thimothi": 1419,
  "\u2581age": 1420,
  "\u2581nani": 1421,
  "\u2581nawo": 1422,
  "mbono": 1423,
  "\u2581evil": 1424,
  "\u2581high": 1425,
  "\u2581laJehova": 1426,
  "\u2581Hla": 1427,
  "\u2581decision": 1428,
  "\u2581war": 1429,
  "\u2581Romans": 1430,
  "\u2581ngalesikhatsi": 1431,
  "\u2581saba": 1432,
  "\u2581wetu": 1433,
  "\u258124.": 1434,
  "\u2581bekufanele": 1435,
  "\u2581emave": 1436,
  "\u2581got": 1437,
  "\u2581lesidze": 1438,
  "lingisa": 1439,
  "\u2581000": 1440,
  "\u2581angel": 1441,
  "\u2581lotsite": 1442,
  "\u2581nako": 1443,
  "\u2581wengine": 1444,
  "\u2581bu": 1445,
  "\u2581elder": 1446,
  "\u2581endleleni": 1447,
  "\u2581letimbi": 1448,
  "r": 1449,
  "\u2581matters": 1450,
  "\u2581uMbuso": 1451,
  "\u2581umzalwane": 1452,
  "\u258123.": 1453,
  "\u2581Ngaleso": 1454,
  "\u2581accept": 1455,
  "\u2581seem": 1456,
  "\u2581since": 1457,
  "wu": 1458,
  "\u2581Li": 1459,
  "\u2581control": 1460,
  "\u2581promises": 1461,
  "kanye": 1462,
  "lwe": 1463,
  "\u2581Eve": 1464,
  "\u2581early": 1465,
  "\u2581nguye": 1466,
  "\u2581wangu": 1467,
  "\u2581around": 1468,
  "\u2581covenant": 1469,
  "\u2581mentioned": 1470,
  "\u2581timiso": 1471,
  "\u2581visit": 1472,
  "c": 1473,
  "ra": 1474,
  "\u2581Ye": 1475,
  "\u2581bewu": 1476,
  "\u2581prove": 1477,
  "Khorinte": 1478,
  "\u2581Heb": 1479,
  "\u2581Solomon": 1480,
  "ona": 1481,
  "\u2581country": 1482,
  "\u2581kweli": 1483,
  "\u2581labeka": 1484,
  "\u2581litsemba": 1485,
  "\u2581ngaNkulunkulu": 1486,
  "gcine": 1487,
  "\u2581attention": 1488,
  "\u2581ekhaya": 1489,
  "\u2581understanding": 1490,
  "intsandvo": 1491,
  "\u2581kwaJesu": 1492,
  "\u2581tsine": 1493,
  "ngena": 1494,
  "\u2581lobu": 1495,
  "\u2581nguJehova": 1496,
  "\u2581rather": 1497,
  "\u2581taken": 1498,
  "\u2581yetu": 1499,
  "\u2581courage": 1500,
  "\u2581ensimini": 1501,
  "\u2581friend": 1502,
  "\u2581lesitako": 1503,
  "\u2581mi": 1504,
  "\u2581saith": 1505,
  "\u2581stand": 1506,
  "\u2581ancient": 1507,
  "\u2581njia": 1508,
  "\u2581once": 1509,
  "\u2581opportunity": 1510,
  "\u2581sive": 1511,
  "\u2581strength": 1512,
  "\u2581wona": 1513,
  "h": 1514,
  "sikia": 1515,
  "\u2581bente": 1516,
  "\u2581eveni": 1517,
  "\u2581head": 1518,
  "\u2581rest": 1519,
  "\u2581ekucaleni": 1520,
  "\u2581moja": 1521,
  "\u2581move": 1522,
  "\u2581nalabo": 1523,
  "\u2581senta": 1524,
  "bi": 1525,
  "\u2581blessing": 1526,
  "\u2581nabodzadze": 1527,
  "\u2581sitawu": 1528,
  "sikhatsi": 1529,
  "\u2581ambao": 1530,
  "\u2581enhlitiyweni": 1531,
  "\u2581Esikhu": 1532,
  "\u2581Ngekuhamb": 1533,
  "\u2581See": 1534,
  "\u2581boFakazi": 1535,
  "\u2581field": 1536,
  "\u2581here": 1537,
  "\u2581lelikhulu": 1538,
  "\u2581maintain": 1539,
  "\u2581serious": 1540,
  "\u2581helps": 1541,
  "\u2581huo": 1542,
  "\u2581ibe": 1543,
  "nika": 1544,
  "\u2581blessings": 1545,
  "\u2581everything": 1546,
  "\u2581nao": 1547,
  "\u2581please": 1548,
  "\u2581sincumo": 1549,
  "O": 1550,
  "\u2581F": 1551,
  "\u2581apply": 1552,
  "\u2581inspired": 1553,
  "\u2581lokusema": 1554,
  "\u2581naloko": 1555,
  "\u2581using": 1556,
  "\u2581D": 1557,
  "\u2581anything": 1558,
  "\u2581ngaphandle": 1559,
  "es": 1560,
  "\u2581kukhuluma": 1561,
  "\u2581named": 1562,
  "\u2581yona": 1563,
  "fanana": 1564,
  "sandza": 1565,
  "umphostoli": 1566,
  "yintfo": 1567,
  "\u2581Can": 1568,
  "\u2581Rather": 1569,
  "\u2581along": 1570,
  "\u2581kantsi": 1571,
  "\u2581nguvu": 1572,
  "solo": 1573,
  "\u2581Holy": 1574,
  "\u2581baptism": 1575,
  "\u2581injongo": 1576,
  "\u2581kuwo": 1577,
  "\u2581promised": 1578,
  "\u2581seba": 1579,
  "\u2581suffering": 1580,
  "\u2581Did": 1581,
  "\u2581born": 1582,
  "\u2581leyenta": 1583,
  "\u2581lokwenteka": 1584,
  "T": 1585,
  "You": 1586,
  "\u2581emadvodza": 1587,
  "\u2581lebengi": 1588,
  "\u2581started": 1589,
  "in": 1590,
  "khumbula": 1591,
  "\u2581umfati": 1592,
  "\u2581yeyote": 1593,
  "\u25811914": 1594,
  "\u2581determined": 1595,
  "\u2581die": 1596,
  "\u2581else": 1597,
  "\u2581lokushiwo": 1598,
  "\u2581reflect": 1599,
  "\u2581religious": 1600,
  "\u2581servant": 1601,
  "st": 1602,
  "\u2581kancane": 1603,
  "\u2581leave": 1604,
  "\u2581malaika": 1605,
  "\u2581waJesu": 1606,
  "uyiphi": 1607,
  "\u2581K": 1608,
  "\u2581Paulo": 1609,
  "\u2581focus": 1610,
  "\u2581provided": 1611,
  "\u2581seven": 1612,
  "\u2581umusa": 1613,
  "\u2581couple": 1614,
  "\u2581judgment": 1615,
  "\u2581munye": 1616,
  "\u2581sifundvo": 1617,
  "sifiso": 1618,
  "\u2581Not": 1619,
  "\u2581Watsi": 1620,
  "\u2581already": 1621,
  "\u2581direction": 1622,
  "\u2581ile": 1623,
  "\u2581kwendlula": 1624,
  "\u2581letimbili": 1625,
  "\u2581seek": 1626,
  "\u2581umlayeto": 1627,
  "\u2581wako": 1628,
  "enca": 1629,
  "endlela": 1630,
  "\u2581Like": 1631,
  "\u2581affect": 1632,
  "\u2581raised": 1633,
  "\u2581school": 1634,
  "nikela": 1635,
  "\u2581Utsi": 1636,
  "\u2581Will": 1637,
  "\u2581Would": 1638,
  "\u2581confidence": 1639,
  "\u2581kutfola": 1640,
  "\u2581tribulation": 1641,
  "Y": 1642,
  "sha": 1643,
  "\u2581aphindze": 1644,
  "\u2581freedom": 1645,
  "\u2581imphilo": 1646,
  "\u2581kule": 1647,
  "\u2581lona": 1648,
  "\u2581sewu": 1649,
  "\u2581sibili": 1650,
  "kutfola": 1651,
  "misebenti": 1652,
  "ngu": 1653,
  "\u2581Today": 1654,
  "\u2581bangani": 1655,
  "\u2581individuals": 1656,
  "\u2581ngaleso": 1657,
  "\u2581return": 1658,
  "\u2581showed": 1659,
  "\u2581Bengi": 1660,
  "\u2581Je": 1661,
  "\u2581appointed": 1662,
  "\u2581conscience": 1663,
  "\u2581involved": 1664,
  "\u2581lokuhle": 1665,
  "\u2581meaning": 1666,
  "-": 1667,
  "\u2581Matt": 1668,
  "\u2581Picture": 1669,
  "\u2581deep": 1670,
  "\u2581gain": 1671,
  "\u2581mwili": 1672,
  "\u2581naba": 1673,
  "\u2581nase": 1674,
  "mi": 1675,
  "\u2581lefanako": 1676,
  "\u2581lomsebenti": 1677,
  "buyela": 1678,
  "yincenye": 1679,
  "\u2581(2": 1680,
  "\u2581Jobe": 1681,
  "\u2581Lamuhla": 1682,
  "\u2581lenye": 1683,
  "\u2581meeting": 1684,
  "B": 1685,
  "khutsata": 1686,
  "\u2581Society": 1687,
  "\u2581kangakanani": 1688,
  "\u2581litfuba": 1689,
  "\u2581melula": 1690,
  "loyo": 1691,
  "\u2581Ema": 1692,
  "\u2581Revelation": 1693,
  "\u2581appreciate": 1694,
  "\u2581authority": 1695,
  "\u2581start": 1696,
  "\u2581wente": 1697,
  "menta": 1698,
  "\u2581aku": 1699,
  "\u2581ata": 1700,
  "\u2581call": 1701,
  "\u2581lost": 1702,
  "\u2581ngubani": 1703,
  "jabula": 1704,
  "\u2581ekugcina": 1705,
  "\u2581emaciniso": 1706,
  "\u2581happened": 1707,
  "\u2581material": 1708,
  "\u2581older": 1709,
  "Ng": 1710,
  "\u2581ame": 1711,
  "\u2581bufakazi": 1712,
  "\u2581effort": 1713,
  "\u2581enta": 1714,
  "\u2581lokutsite": 1715,
  "\u2581tibusiso": 1716,
  "\u2581vile": 1717,
  "\u2581walk": 1718,
  "nekutsi": 1719,
  "\u2581Jakobe": 1720,
  "\u2581Noma": 1721,
  "\u2581endure": 1722,
  "\u2581nesibindzi": 1723,
  "\u2581Creator": 1724,
  "\u2581beli": 1725,
  "\u2581mpaka": 1726,
  "ness": 1727,
  "\u2581(1": 1728,
  "\u2581Devil": 1729,
  "\u2581Josefa": 1730,
  "\u2581PAGE": 1731,
  "\u2581While": 1732,
  "\u2581kudzingeka": 1733,
  "\u2581kwebantfu": 1734,
  "\u2581lesa": 1735,
  "\u2581lived": 1736,
  "\u2581standards": 1737,
  "zi": 1738,
  "\u2581Ps": 1739,
  "\u2581effect": 1740,
  "\u2581events": 1741,
  "\u2581kazi": 1742,
  "\u2581nawu": 1743,
  "\u2581unity": 1744,
  "\u2581wewe": 1745,
  "siniketa": 1746,
  "\u2581Emavi": 1747,
  "\u2581enter": 1748,
  "\u2581nange": 1749,
  "Nkulunkulu": 1750,
  "alelinye": 1751,
  "\u2581Dur": 1752,
  "\u2581Or": 1753,
  "\u2581Proverbs": 1754,
  "\u2581alone": 1755,
  "\u2581doubt": 1756,
  "\u2581leminyaka": 1757,
  "\u2581mate": 1758,
  "\u2581ngatsi": 1759,
  "\u2581thoughts": 1760,
  "Jehova": 1761,
  "bila": 1762,
  "\u2581congregations": 1763,
  "\u2581hold": 1764,
  "\u2581kuloko": 1765,
  "\u2581listen": 1766,
  "\u2581vi": 1767,
  "\u2581Bethel": 1768,
  "\u2581fire": 1769,
  "\u2581ngaphambi": 1770,
  "\u2581Labo": 1771,
  "\u2581precious": 1772,
  "\u2581states": 1773,
  "\u2581lokuphakadze": 1774,
  "\u2581wenye": 1775,
  "fanya": 1776,
  "\u2581Wayahudi": 1777,
  "\u2581heavens": 1778,
  "\u2581kusema": 1779,
  "\u2581letter": 1780,
  "\u2581ngalokuphelele": 1781,
  "\u2581perhaps": 1782,
  "\u2581working": 1783,
  "gcwele": 1784,
  "shade": 1785,
  "ve": 1786,
  "\u2581anaye": 1787,
  "\u2581interest": 1788,
  "\u2581lesinga": 1789,
  "\u2581group": 1790,
  "\u2581yale": 1791,
  "yini": 1792,
  "\u2581Cha": 1793,
  "\u2581including": 1794,
  "\u2581longer": 1795,
  "\u2581offer": 1796,
  "\u2581reach": 1797,
  "\u2581saJehova": 1798,
  "\u2581y": 1799,
  "\u258122.": 1800,
  "\u2581Naku": 1801,
  "\u2581P": 1802,
  "\u2581appreciation": 1803,
  "\u2581ligama": 1804,
  "\u2581ngamunye": 1805,
  "\u2581picture": 1806,
  "\u2581yase": 1807,
  "uch": 1808,
  "\u258120,": 1809,
  "\u2581EmaKhristu": 1810,
  "\u2581May": 1811,
  "\u2581health": 1812,
  "\u2581jambo": 1813,
  "\u2581saNkulunkulu": 1814,
  "\u2581wayo": 1815,
  "\u2581Scriptural": 1816,
  "\u2581advice": 1817,
  "\u2581build": 1818,
  "\u2581helping": 1819,
  "\u2581nekukholwa": 1820,
  "\u2581regard": 1821,
  "\u2581speaking": 1822,
  "\u2581spoke": 1823,
  "mbhalo": 1824,
  "\u2581Sam": 1825,
  "\u2581changed": 1826,
  "\u2581Greek": 1827,
  "\u2581Sa": 1828,
  "\u2581Since": 1829,
  "\u2581ase": 1830,
  "\u2581created": 1831,
  "\u2581deal": 1832,
  "\u2581kusita": 1833,
  "\u2581labangu": 1834,
  "\u2581loyo": 1835,
  "\u2581lwakhe": 1836,
  "\u2581meet": 1837,
  "\u2581religion": 1838,
  "ng": 1839,
  "\u2581Umuntfu": 1840,
  "\u2581carry": 1841,
  "\u2581don": 1842,
  "\u2581encouragement": 1843,
  "\u2581large": 1844,
  "\u2581lekutsi": 1845,
  "\u2581lokunyenti": 1846,
  "\u2581milele": 1847,
  "\u2581sitfombe": 1848,
  "fundzisa": 1849,
  "sisita": 1850,
  "\u2581W": 1851,
  "\u2581benta": 1852,
  "\u2581lulwimi": 1853,
  "hlela": 1854,
  "iphi": 1855,
  "tsintsa": 1856,
  "\u2581kanjalo": 1857,
  "\u2581knowing": 1858,
  "\u2581led": 1859,
  "\u2581ngawo": 1860,
  "\u25819,": 1861,
  "\u2581Hebrew": 1862,
  "\u2581Nyalo": 1863,
  "\u2581certainly": 1864,
  "\u2581choose": 1865,
  "\u2581clearly": 1866,
  "\u2581evidence": 1867,
  "\u2581fulfilled": 1868,
  "\u2581influence": 1869,
  "\u2581issue": 1870,
  "\u2581kusebentisa": 1871,
  "\u2581nanyi": 1872,
  "\u2581sigaba": 1873,
  "ngako": 1874,
  "\u258114,": 1875,
  "\u2581Just": 1876,
  "\u2581Still": 1877,
  "\u2581esi": 1878,
  "\u2581powerful": 1879,
  "\u2581tive": 1880,
  "\u2581wonderful": 1881,
  "tifundvo": 1882,
  "utfole": 1883,
  "\u2581activities": 1884,
  "\u2581emaJuda": 1885,
  "\u2581huko": 1886,
  "\u2581imiBhalo": 1887,
  "\u2581worshippers": 1888,
  "able": 1889,
  "hambisana": 1890,
  "hlangana": 1891,
  "\u2581efforts": 1892,
  "\u2581forgive": 1893,
  "\u2581regarding": 1894,
  "\u2581respond": 1895,
  "\u2581revealed": 1896,
  "\u2581Beba": 1897,
  "\u2581desires": 1898,
  "\u2581experienced": 1899,
  "\u2581ready": 1900,
  "sebentise": 1901,
  "\u2581Beka": 1902,
  "\u2581Egypt": 1903,
  "\u2581Kuba": 1904,
  "\u2581assignment": 1905,
  "\u2581discuss": 1906,
  "\u2581kuhlakanipha": 1907,
  "\u2581lamabili": 1908,
  "\u2581served": 1909,
  "\u2581yourselves": 1910,
  "bhekan": 1911,
  "ca": 1912,
  "\u25816,": 1913,
  "\u2581hawa": 1914,
  "\u2581kulelive": 1915,
  "\u2581leso": 1916,
  "\u2581ngekuvumelana": 1917,
  "\u2581sana": 1918,
  "\u25812012": 1919,
  "\u2581Brother": 1920,
  "\u2581batawu": 1921,
  "\u2581goal": 1922,
  "\u2581haya": 1923,
  "\u2581humble": 1924,
  "\u2581kepha": 1925,
  "\u2581longa": 1926,
  "\u2581priest": 1927,
  "\u2581sibone": 1928,
  "\u2581wakhuluma": 1929,
  "\u2581zao": 1930,
  "itfombe": 1931,
  "\u2581Isa": 1932,
  "\u2581Uya": 1933,
  "\u2581akawaambia": 1934,
  "\u2581based": 1935,
  "\u2581langa": 1936,
  "\u2581lihlahlandlela": 1937,
  "\u2581mercy": 1938,
  "\u2581myself": 1939,
  "\u2581seliBhayibheli": 1940,
  "\u2581Have": 1941,
  "\u2581akukafaneli": 1942,
  "\u2581bear": 1943,
  "\u2581chapter": 1944,
  "\u2581easy": 1945,
  "\u2581letfu": 1946,
  "\u2581lwa": 1947,
  "\u2581salvation": 1948,
  "\u2581form": 1949,
  "\u2581indvodzana": 1950,
  "\u2581nebantfwana": 1951,
  "\u2581ngum": 1952,
  "\u2581sauti": 1953,
  "\u2581sesi": 1954,
  "phendvula": 1955,
  "\u258125.": 1956,
  "\u2581akamwambia": 1957,
  "\u2581encourage": 1958,
  "\u2581foretold": 1959,
  "\u2581fruit": 1960,
  "\u2581kubwa": 1961,
  "busa": 1962,
  "tikhonti": 1963,
  "\u258111)": 1964,
  "\u2581Pennsylvania": 1965,
  "\u2581actions": 1966,
  "\u2581hour": 1967,
  "\u2581imperfect": 1968,
  "\u2581knows": 1969,
  "\u2581kwalesihloko": 1970,
  "\u2581kwenteka": 1971,
  "\u2581lomusha": 1972,
  "\u2581ngemandla": 1973,
  "\u2581offered": 1974,
  "\u2581wabona": 1975,
  "bona": 1976,
  "chaza": 1977,
  "\u2581believers": 1978,
  "\u2581blessed": 1979,
  "\u2581continued": 1980,
  "\u2581kutawu": 1981,
  "\u2581kwaNkulunkulu": 1982,
  "\u2581lamanye": 1983,
  "\u2581sexual": 1984,
  "\u2581ujumbe": 1985,
  "bekela": 1986,
  "ngakhona": 1987,
  "\u2581Jeremiah": 1988,
  "\u2581Un": 1989,
  "\u2581available": 1990,
  "\u2581branch": 1991,
  "\u2581church": 1992,
  "\u2581earthly": 1993,
  "\u2581kuwe": 1994,
  "\u2581pages": 1995,
  "\u2581saJesu": 1996,
  "\u2581sifiso": 1997,
  "\u2581umphumela": 1998,
  "senta": 1999,
  "weza": 2000,
  "\u2581common": 2001,
  "\u2581grow": 2002,
  "\u2581simply": 2003,
  "\u2581tono": 2004,
  "\u258145": 2005,
  "\u2581Nawu": 2006,
  "\u2581matima": 2007,
  "\u2581responsibility": 2008,
  "\u2581spoken": 2009,
  "\u2581ten": 2010,
  "\u2581wana": 2011,
  "\u2581zake": 2012,
  "coca": 2013,
  "dla": 2014,
  "dzingeka": 2015,
  "pate": 2016,
  "\u2581Genesis": 2017,
  "\u2581People": 2018,
  "\u2581emalanga": 2019,
  "\u2581explained": 2020,
  "\u2581happen": 2021,
  "\u2581kum": 2022,
  "ever": 2023,
  "hla": 2024,
  "\u2581everyone": 2025,
  "\u2581kimi": 2026,
  "\u2581timvu": 2027,
  "Ngi": 2028,
  "ga": 2029,
  "tiphatsa": 2030,
  "ww": 2031,
  "\u25818,": 2032,
  "\u2581bona": 2033,
  "\u2581daughter": 2034,
  "\u2581jina": 2035,
  "\u2581kangangeku": 2036,
  "\u2581ki": 2037,
  "\u2581send": 2038,
  "\u2581tree": 2039,
  "bhalwe": 2040,
  "k": 2041,
  "\u2581Also": 2042,
  "\u2581answers": 2043,
  "\u2581dzadze": 2044,
  "\u2581hilo": 2045,
  "\u2581illustration": 2046,
  "\u2581lutfo": 2047,
  "\u2581phansi": 2048,
  "\u2581Mwana": 2049,
  "\u2581maneno": 2050,
  "\u2581priests": 2051,
  "\u2581sea": 2052,
  "\u2581within": 2053,
  ",\"": 2054,
  "Jehovah": 2055,
  "shumayela": 2056,
  "za": 2057,
  "\u2581Lukha": 2058,
  "\u2581Their": 2059,
  "\u2581belibandla": 2060,
  "\u2581bete": 2061,
  "\u2581labasha": 2062,
  "\u2581nemndeni": 2063,
  "\u2581praise": 2064,
  "\u2581realize": 2065,
  "\u2581sikhone": 2066,
  "\u2581ulimwengu": 2067,
  "\u2581umbono": 2068,
  "\u2581write": 2069,
  "fisa": 2070,
  "phatfwa": 2071,
  "sichubeke": 2072,
  "\u2581accepted": 2073,
  "\u2581car": 2074,
  "\u2581emaphutsa": 2075,
  "\u2581imagine": 2076,
  "\u2581titfombe": 2077,
  "\u2581umntfwana": 2078,
  "\u2581wenyewe": 2079,
  "),": 2080,
  "God": 2081,
  "\u2581Jacob": 2082,
  "\u2581complete": 2083,
  "\u2581kw": 2084,
  "\u2581ngabo": 2085,
  "\u2581ngekwetsembeka": 2086,
  "\u2581ngemoya": 2087,
  "\u2581preached": 2088,
  "\u2581regularly": 2089,
  "\u2581sabo": 2090,
  "\u2581sona": 2091,
  "\u2581tried": 2092,
  "\u25819)": 2093,
  "\u2581Batali": 2094,
  "\u2581Indeed": 2095,
  "\u2581Khor": 2096,
  "\u2581ability": 2097,
  "\u2581baJesu": 2098,
  "\u2581cast": 2099,
  "\u2581join": 2100,
  "\u2581kune": 2101,
  "\u2581ludvumo": 2102,
  "\u2581naJesu": 2103,
  "\u2581subject": 2104,
  "\u2581ucabange": 2105,
  "NI": 2106,
  "\u00a9": 2107,
  "\u2581Asa": 2108,
  "\u2581etindzaw": 2109,
  "\u2581poor": 2110,
  "\u2581wanafunzi": 2111,
  "phuma": 2112,
  "re": 2113,
  "tawucoca": 2114,
  "\u2581Cor": 2115,
  "\u2581Kama": 2116,
  "\u2581Later": 2117,
  "\u2581Mark": 2118,
  "\u2581Mtu": 2119,
  "\u2581Sarah": 2120,
  "\u2581aki": 2121,
  "\u2581bekati": 2122,
  "\u2581discipline": 2123,
  "\u2581emalunga": 2124,
  "\u2581greatest": 2125,
  "\u2581ngemusa": 2126,
  "\u2581Elisha": 2127,
  "\u2581Laba": 2128,
  "\u2581Messiah": 2129,
  "\u2581above": 2130,
  "\u2581force": 2131,
  "\u2581fundza": 2132,
  "\u2581malanga": 2133,
  "\u2581prayed": 2134,
  "\u2581published": 2135,
  "\u2581sicondziso": 2136,
  "sitfole": 2137,
  "zalwane": 2138,
  "\u2581angi": 2139,
  "\u2581beginning": 2140,
  "\u2581leta": 2141,
  "\u2581lokukhulunyw": 2142,
  "\u2581stated": 2143,
  "\u2581teMbuso": 2144,
  "\u2581wanao": 2145,
  "\u2581First": 2146,
  "\u2581Maandiko": 2147,
  "\u2581Nowa": 2148,
  "\u2581bread": 2149,
  "\u2581changes": 2150,
  "\u2581creation": 2151,
  "\u2581daily": 2152,
  "\u2581indeed": 2153,
  "\u2581lagcotjiwe": 2154,
  "\u2581leni": 2155,
  "\u2581lesisekucaleni": 2156,
  "\u2581role": 2157,
  "\u2581worldwide": 2158,
  "tiwa": 2159,
  "wenta": 2160,
  "\u25816)": 2161,
  "\u25817,": 2162,
  "\u2581Kuyacaca": 2163,
  "\u2581Lesi": 2164,
  "\u2581decided": 2165,
  "\u2581hapo": 2166,
  "\u2581humility": 2167,
  "\u2581livi": 2168,
  "\u2581ndi": 2169,
  "\u2581pass": 2170,
  "Tihlabelelo": 2171,
  "cedza": 2172,
  "ndzawo": 2173,
  "tasisita": 2174,
  "\u258128.": 2175,
  "\u2581Hebrews": 2176,
  "\u2581Roman": 2177,
  "\u2581brethren": 2178,
  "\u2581enemies": 2179,
  "\u2581itsi": 2180,
  "\u2581kwanza": 2181,
  "\u2581mataifa": 2182,
  "\u2581njenga": 2183,
  "\u2581suffer": 2184,
  "\u2581trials": 2185,
  "cishe": 2186,
  "ji": 2187,
  "\u2581Roma": 2188,
  "\u2581amba": 2189,
  "\u2581believed": 2190,
  "\u2581lesilandzelako": 2191,
  "\u2581naletinye": 2192,
  "\u2581practical": 2193,
  "\u2581sengcondvo": 2194,
  "\u2581solo": 2195,
  "\u2581vital": 2196,
  "tfumela": 2197,
  "\u2581clean": 2198,
  "\u2581divine": 2199,
  "\u2581encouraged": 2200,
  "\u2581examine": 2201,
  "\u2581goals": 2202,
  "\u2581ikakhulu": 2203,
  "\u2581mara": 2204,
  "\u2581ndiye": 2205,
  "\u2581physical": 2206,
  "\u2581sakho": 2207,
  "\u2581stop": 2208,
  "\u2581ule": 2209,
  "\u2581wengi": 2210,
  "D": 2211,
  "fu": 2212,
  "ja": 2213,
  "kujabulela": 2214,
  "pha": 2215,
  "\u2581Saul": 2216,
  "\u2581base": 2217,
  "\u2581buntfu": 2218,
  "\u2581five": 2219,
  "\u2581kings": 2220,
  "\u2581recorded": 2221,
  "\u2581tiya": 2222,
  "\u2581training": 2223,
  "\u2581watoto": 2224,
  "Isa": 2225,
  "est": 2226,
  "fa": 2227,
  "kha": 2228,
  "\u2581image": 2229,
  "\u2581languages": 2230,
  "\u2581lesendlulile": 2231,
  "\u2581turned": 2232,
  "lilungelo": 2233,
  "\u258111,": 2234,
  "\u2581Lenye": 2235,
  "\u2581Umoya": 2236,
  "\u2581Watu": 2237,
  "\u2581lomuhle": 2238,
  "\u2581sacrifices": 2239,
  "\u2581uba": 2240,
  "L": 2241,
  "\u2581Solomoni": 2242,
  "\u2581government": 2243,
  "\u2581hapa": 2244,
  "\u2581kuna": 2245,
  "\u2581prepare": 2246,
  "\u2581tuna": 2247,
  "mate": 2248,
  "\u2581chosen": 2249,
  "\u2581closer": 2250,
  "\u2581lebalulekile": 2251,
  "\u2581letibalulekile": 2252,
  "\u2581patience": 2253,
  "\u2581quickly": 2254,
  "\u2581takho": 2255,
  "\u2581Haba": 2256,
  "\u2581Joh": 2257,
  "\u2581allowed": 2258,
  "\u2581considered": 2259,
  "\u2581ekukhonteni": 2260,
  "\u2581lebeli": 2261,
  "\u2581local": 2262,
  "\u2581mwenye": 2263,
  "\u2581ngekuba": 2264,
  "\u2581showing": 2265,
  "\u2581value": 2266,
  "\u2581yelibandla": 2267,
  "citsa": 2268,
  "tjele": 2269,
  "\u258116,": 2270,
  "\u2581alive": 2271,
  "\u2581followed": 2272,
  "\u2581kamatima": 2273,
  "\u2581ma": 2274,
  "\u2581seeking": 2275,
  "phi": 2276,
  "tu": 2277,
  "\u258138": 2278,
  "\u2581Kunaloko": 2279,
  "\u2581Petro": 2280,
  "\u2581emakhasi": 2281,
  "\u2581eminyak": 2282,
  "\u2581happiness": 2283,
  "\u2581lamavi": 2284,
  "\u2581regular": 2285,
  "\u2581seed": 2286,
  "\u2581walikuwa": 2287,
  "jabulela": 2288,
  "\u2581ayi": 2289,
  "\u2581imetamo": 2290,
  "\u2581kuhlupheka": 2291,
  "\u2581labagcotjiwe": 2292,
  "\u2581lemihle": 2293,
  "\u2581lenga": 2294,
  "\u2581reasons": 2295,
  "\u2581umKhristu": 2296,
  "\u2581umshado": 2297,
  "\u2581wait": 2298,
  "\u2581yebuKhristu": 2299,
  "ce": 2300,
  "khundleni": 2301,
  "\u258110)": 2302,
  "\u2581command": 2303,
  "\u2581express": 2304,
  "\u2581inkhululeko": 2305,
  "\u2581kuliko": 2306,
  "\u2581lake": 2307,
  "\u2581lebuKhristu": 2308,
  "\u2581months": 2309,
  "\u2581position": 2310,
  "\u2581reward": 2311,
  "alesinye": 2312,
  "buya": 2313,
  "\u2581Gen": 2314,
  "\u2581drink": 2315,
  "\u2581feet": 2316,
  "\u2581harmony": 2317,
  "\u2581lese": 2318,
  "\u2581letimatima": 2319,
  "\u2581letintsatfu": 2320,
  "\u2581protect": 2321,
  ",...": 2322,
  "batfole": 2323,
  "ngesikhatsi": 2324,
  "\u25812013": 2325,
  "\u258130.": 2326,
  "\u2581Internet": 2327,
  "\u2581filled": 2328,
  "\u2581lababili": 2329,
  "\u2581letingu": 2330,
  "\u2581problem": 2331,
  "\u2581prophets": 2332,
  "\u2581ticondziso": 2333,
  "holela": 2334,
  "\u258150": 2335,
  "\u2581Mimi": 2336,
  "\u2581NW": 2337,
  "\u2581explains": 2338,
  "\u2581personality": 2339,
  "\u2581rich": 2340,
  "\u2581sitsi": 2341,
  "nelitsemba": 2342,
  "\u2581Naye": 2343,
  "\u2581bati": 2344,
  "\u2581imitsetfo": 2345,
  "\u2581sick": 2346,
  "bo": 2347,
  "ndzaba": 2348,
  "\u2581Ngekushesha": 2349,
  "\u2581emanga": 2350,
  "\u2581iNdvodzana": 2351,
  "\u2581laws": 2352,
  "\u2581mahali": 2353,
  "\u2581proved": 2354,
  "\u2581sati": 2355,
  "\u2581sekuba": 2356,
  "\u2581side": 2357,
  "\u2581speech": 2358,
  "\u2581umtsetfo": 2359,
  "Hebheru": 2360,
  "\u25815)": 2361,
  "\u25817)": 2362,
  "\u2581Sembulo": 2363,
  "\u2581embili": 2364,
  "\u2581kushumayela": 2365,
  "\u2581lesson": 2366,
  "\u2581opened": 2367,
  "\u2581public": 2368,
  "\u2581sehluko": 2369,
  "niketwa": 2370,
  "\u258115)": 2371,
  "\u2581Danyela": 2372,
  "\u2581eJerusalema": 2373,
  "\u2581kati": 2374,
  "\u2581lose": 2375,
  "\u2581warning": 2376,
  "kholwa": 2377,
  "suke": 2378,
  "\u2581Moreover": 2379,
  "\u2581Njema": 2380,
  "\u2581Translation": 2381,
  "\u2581York": 2382,
  "\u2581beloved": 2383,
  "\u2581forward": 2384,
  "\u2581kweminyaka": 2385,
  "\u2581mwingine": 2386,
  "\u2581ngelutsandvo": 2387,
  "\u2581single": 2388,
  "\u2581sipho": 2389,
  "\u2581ukweli": 2390,
  "bhekene": 2391,
  "condze": 2392,
  "etama": 2393,
  "fanele": 2394,
  "\u2581behalf": 2395,
  "\u2581bekutsi": 2396,
  "\u2581benefits": 2397,
  "\u2581contain": 2398,
  "\u2581fell": 2399,
  "\u2581nemandla": 2400,
  "\u2581wachubeka": 2401,
  "Genesisi": 2402,
  "jua": 2403,
  "vu": 2404,
  "\u258113)": 2405,
  "\u2581Efesu": 2406,
  "\u2581Make": 2407,
  "\u2581ahead": 2408,
  "\u2581expect": 2409,
  "\u2581kulabanye": 2410,
  "\u2581lenhle": 2411,
  "\u2581mji": 2412,
  "\u2581nale": 2413,
  "\u2581pain": 2414,
  "\u2581pioneers": 2415,
  "\u2581publications": 2416,
  "\u2581teachings": 2417,
  "\u2581awu": 2418,
  "\u2581described": 2419,
  "\u2581lobewu": 2420,
  "\u2581lwati": 2421,
  "\u2581paragraph": 2422,
  "\u2581behind": 2423,
  "\u2581develop": 2424,
  "\u2581door": 2425,
  "\u2581kumatima": 2426,
  "\u2581nekuthula": 2427,
  "\u2581nguSathane": 2428,
  "\u2581save": 2429,
  "\u2581worked": 2430,
  "\u2581Where": 2431,
  "\u2581ambayo": 2432,
  "\u2581fulfillment": 2433,
  "\u2581godly": 2434,
  "\u2581kutawuba": 2435,
  "\u2581met": 2436,
  "\u2581utukufu": 2437,
  "buswa": 2438,
  "\u258118)": 2439,
  "\u258129.": 2440,
  "\u2581Babylon": 2441,
  "\u2581Lutsandvo": 2442,
  "\u2581action": 2443,
  "\u2581immediately": 2444,
  "\u2581kukwenta": 2445,
  "\u2581line": 2446,
  "\u2581loves": 2447,
  "\u2581occasion": 2448,
  "\u2581sound": 2449,
  "bantfu": 2450,
  "ncuma": 2451,
  "\u2581Before": 2452,
  "\u2581Jewish": 2453,
  "\u2581Samuel": 2454,
  "\u2581begin": 2455,
  "\u2581fight": 2456,
  "\u2581further": 2457,
  "\u2581kabisa": 2458,
  "\u2581kulabo": 2459,
  "\u2581kwatiswa": 2460,
  "\u2581learning": 2461,
  "\u2581saved": 2462,
  "\u2581several": 2463,
  "\u2581sometime": 2464,
  "bita": 2465,
  "khumbule": 2466,
  "\u258113,": 2467,
  "\u258133.": 2468,
  "\u2581Prov": 2469,
  "\u2581labetsembekile": 2470,
  "\u2581looking": 2471,
  "\u2581meditate": 2472,
  "\u2581mkuu": 2473,
  "\u2581naso": 2474,
  "\u2581neema": 2475,
  "\u2581ngalendzaba": 2476,
  "\u2581office": 2477,
  "\u2581soul": 2478,
  "....": 2479,
  "H": 2480,
  "takuwa": 2481,
  "tihlanganisa": 2482,
  "\u2581Khumbula": 2483,
  "\u2581convention": 2484,
  "\u2581enough": 2485,
  "\u2581eti": 2486,
  "\u2581hii": 2487,
  "\u2581history": 2488,
  "\u2581instance": 2489,
  "\u2581lobeku": 2490,
  "\u2581moyo": 2491,
  "\u2581nema": 2492,
  "\u2581ngebantfu": 2493,
  "\u2581parable": 2494,
  "\u2581prison": 2495,
  "\u2581tindzawo": 2496,
  "\u2581umbhalo": 2497,
  "khulisa": 2498,
  "\u258114)": 2499,
  "\u258117)": 2500,
  "\u258141": 2501,
  "\u2581Samuweli": 2502,
  "\u2581United": 2503,
  "\u2581include": 2504,
  "\u2581kumi": 2505,
  "\u2581lotsi": 2506,
  "\u2581lushintjo": 2507,
  "\u2581throughout": 2508,
  "\u2581tona": 2509,
  "\u2581wives": 2510,
  "husu": 2511,
  "kwe": 2512,
  "vi": 2513,
  "\u2581100": 2514,
  "\u2581119": 2515,
  "\u2581BIBLE": 2516,
  "\u2581Kepha": 2517,
  "\u2581Most": 2518,
  "\u2581beyond": 2519,
  "\u2581challenges": 2520,
  "\u2581chini": 2521,
  "\u2581chochote": 2522,
  "\u2581choice": 2523,
  "\u2581enjoyed": 2524,
  "\u2581imiphumela": 2525,
  "\u2581lot": 2526,
  "\u2581ngumuntfu": 2527,
  "\u2581sami": 2528,
  "condzisa": 2529,
  "\u25814)": 2530,
  "\u2581An": 2531,
  "\u2581Mhlawumbe": 2532,
  "\u2581articles": 2533,
  "\u2581books": 2534,
  "\u2581cultivate": 2535,
  "\u2581grace": 2536,
  "\u2581nalaba": 2537,
  "\u2581shepherd": 2538,
  "\u2581treat": 2539,
  "\u2581vele": 2540,
  "\u2581wonder": 2541,
  "labangemaKhristu": 2542,
  "\u2581Really": 2543,
  "\u2581lemibi": 2544,
  "\u2581modern": 2545,
  "\u2581overcome": 2546,
  "\u2581upendo": 2547,
  "ach": 2548,
  "kwa": 2549,
  "or": 2550,
  "\u2581Remember": 2551,
  "\u2581akusi": 2552,
  "\u2581becoming": 2553,
  "\u2581eliciniso": 2554,
  "\u2581encwadzini": 2555,
  "\u2581grateful": 2556,
  "\u2581integrity": 2557,
  "\u2581lekuphila": 2558,
  "\u2581mouth": 2559,
  "\u2581overseer": 2560,
  "\u2581psalmist": 2561,
  "\u2581returned": 2562,
  "\u2581third": 2563,
  "balulekile": 2564,
  "lalela": 2565,
  "\u2581Hall": 2566,
  "\u2581Kutsiwani": 2567,
  "\u2581kwayo": 2568,
  "\u2581lokwa": 2569,
  "\u2581namna": 2570,
  "\u2581steps": 2571,
  "\u2581tinhlitiyo": 2572,
  "buka": 2573,
  "sekela": 2574,
  "tinikela": 2575,
  "\u25813)": 2576,
  "\u2581arrangement": 2577,
  "\u2581duniani": 2578,
  "\u2581judge": 2579,
  "\u2581kuhlala": 2580,
  "\u2581seeing": 2581,
  "an": 2582,
  "ngekuhamba": 2583,
  "pata": 2584,
  "sikhatsini": 2585,
  "tenda": 2586,
  "\u2581Elijah": 2587,
  "\u2581Hence": 2588,
  "\u2581Perhaps": 2589,
  "\u2581guidance": 2590,
  "\u2581invited": 2591,
  "\u2581kwake": 2592,
  "\u2581kweliciniso": 2593,
  "\u2581lomdzala": 2594,
  "\u2581takes": 2595,
  "napaswa": 2596,
  "\u258127.": 2597,
  "\u258135": 2598,
  "\u2581Bo": 2599,
  "\u2581Nom": 2600,
  "\u2581area": 2601,
  "\u2581exercise": 2602,
  "\u2581ila": 2603,
  "\u2581mama": 2604,
  "\u2581nelutsandvo": 2605,
  "\u2581nemusa": 2606,
  "\u2581passed": 2607,
  "\u2581short": 2608,
  "\u2581tidzingo": 2609,
  "benta": 2610,
  "hlawumbe": 2611,
  "us": 2612,
  "yekela": 2613,
  "\u258117,": 2614,
  "\u2581baphostoli": 2615,
  "\u2581chief": 2616,
  "\u2581lelive": 2617,
  "\u2581lesinyenti": 2618,
  "\u2581letetsembekile": 2619,
  "\u2581positive": 2620,
  "\u2581publishers": 2621,
  "\u2581sign": 2622,
  "\u2581sovereignty": 2623,
  "\u2581wasezulwini": 2624,
  "\u2581yekucala": 2625,
  "Si": 2626,
  "khipha": 2627,
  "\u2581Imis": 2628,
  "\u2581assigned": 2629,
  "\u2581beautiful": 2630,
  "\u2581circuit": 2631,
  "\u2581commanded": 2632,
  "\u2581destruction": 2633,
  "\u2581killed": 2634,
  "\u2581leyendlulile": 2635,
  "\u2581sengi": 2636,
  "\u2581uzima": 2637,
  "\u2581wam": 2638,
  "\u2581wata": 2639,
  "\u25818)": 2640,
  "\u2581Nge": 2641,
  "\u2581Njenge": 2642,
  "\u2581ago": 2643,
  "\u2581nebangani": 2644,
  "\u2581nine": 2645,
  "\u2581obedient": 2646,
  "\u2581resurrected": 2647,
  "\u2581siba": 2648,
  "\u2581sidzingo": 2649,
  "\u2581wame": 2650,
  "luhlobo": 2651,
  "tsandza": 2652,
  "\u2581Hapo": 2653,
  "\u2581Isaka": 2654,
  "\u2581Ma": 2655,
  "\u2581Nguba": 2656,
  "\u2581States": 2657,
  "\u2581convinced": 2658,
  "\u2581interests": 2659,
  "\u2581iya": 2660,
  "\u2581kangaka": 2661,
  "\u2581kanjani": 2662,
  "\u2581kukhona": 2663,
  "\u2581maji": 2664,
  "\u2581neighbor": 2665,
  "\u2581nemuntfu": 2666,
  "\u2581original": 2667,
  "\u2581paradise": 2668,
  "\u2581pressure": 2669,
  "\u2581umgomo": 2670,
  "iVi": 2671,
  "mu": 2672,
  "\u2581Another": 2673,
  "\u2581Isaac": 2674,
  "\u2581earlier": 2675,
  "\u2581kutiphatsa": 2676,
  "\u2581mna": 2677,
  "\u2581provides": 2678,
  "\u2581throne": 2679,
  "\u2581tinga": 2680,
  "dala": 2681,
  "en": 2682,
  "ngabona": 2683,
  "\u25812011": 2684,
  "\u2581COVER": 2685,
  "\u2581South": 2686,
  "\u2581Think": 2687,
  "\u2581Yohane": 2688,
  "\u2581explain": 2689,
  "\u2581flock": 2690,
  "\u2581kulalela": 2691,
  "\u2581letitsite": 2692,
  "\u2581lilungelo": 2693,
  "\u2581ngenhlitiyo": 2694,
  "\u2581nguJesu": 2695,
  "\u2581personally": 2696,
  "\u2581strive": 2697,
  "\u2581wacala": 2698,
  "\u2581wawili": 2699,
  "co": 2700,
  "ha": 2701,
  "\u2581G": 2702,
  "\u2581Gentiles": 2703,
  "\u2581building": 2704,
  "\u2581carefully": 2705,
  "\u2581emndeni": 2706,
  "\u2581friendship": 2707,
  "\u2581getting": 2708,
  "\u2581imigomo": 2709,
  "\u2581tibe": 2710,
  "\u2581wekutsi": 2711,
  "\u2581whatever": 2712,
  "\u2581yekuphila": 2713,
  "Khos": 2714,
  "R": 2715,
  "jabulisa": 2716,
  "tfo": 2717,
  "zo": 2718,
  "\u2581(1)": 2719,
  "\u2581Elija": 2720,
  "\u2581English": 2721,
  "\u2581Kwent": 2722,
  "\u2581Ya": 2723,
  "\u2581deeply": 2724,
  "\u2581destroy": 2725,
  "\u2581emhlanganweni": 2726,
  "\u2581kuJesu": 2727,
  "\u2581kuso": 2728,
  "\u2581lesenta": 2729,
  "\u2581lesetsembekile": 2730,
  "\u2581less": 2731,
  "\u2581member": 2732,
  "\u2581nekuba": 2733,
  "\u2581play": 2734,
  "\u2581realized": 2735,
  "\u2581sat": 2736,
  "\u2581uyati": 2737,
  "faka": 2738,
  "tawuba": 2739,
  "tfutfukisa": 2740,
  "\u2581Others": 2741,
  "\u2581True": 2742,
  "\u2581compassion": 2743,
  "\u2581destroyed": 2744,
  "\u2581entered": 2745,
  "\u2581hai": 2746,
  "\u2581labafile": 2747,
  "\u2581period": 2748,
  "\u2581rejoice": 2749,
  "\u2581sifundza": 2750,
  "\u2581teaches": 2751,
  "\u2581trying": 2752,
  "\u2581usi": 2753,
  "\u2581utawuba": 2754,
  "letsa": 2755,
  "mphumela": 2756,
  "\u2581Kungob": 2757,
  "\u2581Memorial": 2758,
  "\u2581addition": 2759,
  "\u2581attend": 2760,
  "\u2581behold": 2761,
  "\u2581kuphindze": 2762,
  "\u2581moto": 2763,
  "\u2581ngalendlela": 2764,
  "\u2581ngelilanga": 2765,
  "\u2581situations": 2766,
  "p": 2767,
  "\u2581Give": 2768,
  "\u2581added": 2769,
  "\u2581kufanya": 2770,
  "\u2581maisha": 2771,
  "\u2581sifundze": 2772,
  "phe": 2773,
  "tfola": 2774,
  "\u2581Keep": 2775,
  "\u2581Life": 2776,
  "\u2581actually": 2777,
  "\u2581faced": 2778,
  "\u2581kucondza": 2779,
  "\u2581kuhamba": 2780,
  "\u2581lakho": 2781,
  "\u2581nemfati": 2782,
  "\u2581ngumoya": 2783,
  "\u2581prepared": 2784,
  "\u2581proper": 2785,
  "\u2581shown": 2786,
  "\u2581sight": 2787,
  "\u2581various": 2788,
  "hlola": 2789,
  "mzalwane": 2790,
  "setjentiswa": 2791,
  "\u258112)": 2792,
  "\u2581huu": 2793,
  "\u2581job": 2794,
  "\u2581kubusa": 2795,
  "\u2581kwako": 2796,
  "\u2581lelisha": 2797,
  "\u2581literature": 2798,
  "\u2581lokulungile": 2799,
  "\u2581millions": 2800,
  "\u2581negative": 2801,
  "\u2581ngiya": 2802,
  "\u2581studying": 2803,
  "\u2581tibonelo": 2804,
  "\u2581umcebo": 2805,
  "anza": 2806,
  "emahlahlandlela": 2807,
  "hlanganyela": 2808,
  "shiwo": 2809,
  "vyo": 2810,
  "\u258118,": 2811,
  "\u2581beast": 2812,
  "\u2581challenge": 2813,
  "\u2581delivered": 2814,
  "\u2581expression": 2815,
  "\u2581genuine": 2816,
  "\u2581held": 2817,
  "\u2581individual": 2818,
  "\u2581kungase": 2819,
  "\u2581labashadene": 2820,
  "\u2581quality": 2821,
  "\u2581results": 2822,
  "\u2581standing": 2823,
  "\u2581umvuzo": 2824,
  "\u2581watch": 2825,
  "Jobe": 2826,
  "lomunye": 2827,
  "mo": 2828,
  "\u2581H": 2829,
  "\u2581Yebo": 2830,
  "\u2581accounts": 2831,
  "\u2581akasema": 2832,
  "\u2581asa": 2833,
  "\u2581asho": 2834,
  "\u2581dedicated": 2835,
  "\u2581emagama": 2836,
  "\u2581fall": 2837,
  "\u2581favor": 2838,
  "\u2581jin": 2839,
  "\u2581lelihle": 2840,
  "\u2581looked": 2841,
  "\u2581nebazalwane": 2842,
  "\u2581necessary": 2843,
  "\u2581netinkinga": 2844,
  "\u2581relatives": 2845,
  "\u2581undeserved": 2846,
  "esihlokw": 2847,
  "\u258119,": 2848,
  "\u2581Yey": 2849,
  "\u2581anger": 2850,
  "\u2581eBethel": 2851,
  "\u2581ha": 2852,
  "\u2581lababi": 2853,
  "\u2581lonkhe": 2854,
  "\u2581lwetfu": 2855,
  "\u2581muntfu": 2856,
  "\u2581natural": 2857,
  "\u2581six": 2858,
  "\u2581spend": 2859,
  "\u2581wasi": 2860,
  "\u2581wema": 2861,
  "Na": 2862,
  "abadzala": 2863,
  "bhalwa": 2864,
  "talwa": 2865,
  "\u2581Siya": 2866,
  "\u2581Though": 2867,
  "\u2581Tim": 2868,
  "\u2581caused": 2869,
  "\u2581ematfuba": 2870,
  "\u2581evening": 2871,
  "\u2581kwaku": 2872,
  "\u2581letintfo": 2873,
  "\u2581lon": 2874,
  "\u2581progress": 2875,
  "\u2581record": 2876,
  "\u2581sicabange": 2877,
  "\u2581sikhombisa": 2878,
  "\u2581stood": 2879,
  "\u2581traveling": 2880,
  "\u2581uhlale": 2881,
  "\u2581understood": 2882,
  "\u2581week": 2883,
  "Ni": 2884,
  "hlangabetan": 2885,
  "taka": 2886,
  "\u25812)": 2887,
  "\u258160": 2888,
  "\u258170": 2889,
  "\u2581Love": 2890,
  "\u2581aya": 2891,
  "\u2581dedication": 2892,
  "\u2581forgiveness": 2893,
  "\u2581interested": 2894,
  "\u2581lesitsite": 2895,
  "\u2581ndlela": 2896,
  "\u2581praying": 2897,
  "\u2581sikwati": 2898,
  "\u2581thousand": 2899,
  "\u2581yatsi": 2900,
  "\u2581yawo": 2901,
  "kungenteka": 2902,
  "thantaza": 2903,
  "\u2581asking": 2904,
  "\u2581crowd": 2905,
  "\u2581itself": 2906,
  "\u2581kifo": 2907,
  "\u2581kukhombisa": 2908,
  "\u2581lengasisita": 2909,
  "\u2581lokufaka": 2910,
  "\u2581longu": 2911,
  "\u2581vya": 2912,
  "\u2581webantfu": 2913,
  "Eks": 2914,
  "basita": 2915,
  "nakekela": 2916,
  "sema": 2917,
  "sicoce": 2918,
  "tawenta": 2919,
  "\u258155": 2920,
  "\u2581assist": 2921,
  "\u2581bado": 2922,
  "\u2581entire": 2923,
  "\u2581eternal": 2924,
  "\u2581firm": 2925,
  "\u2581imihlangano": 2926,
  "\u2581kuu": 2927,
  "\u2581lami": 2928,
  "\u2581seems": 2929,
  "\u2581welibandla": 2930,
  "dvumisa": 2931,
  "go": 2932,
  "kufanele": 2933,
  "like": 2934,
  "tindzaba": 2935,
  "\u2581J": 2936,
  "\u2581completely": 2937,
  "\u2581household": 2938,
  "\u2581leaders": 2939,
  "\u2581muda": 2940,
  "\u2581students": 2941,
  "\u2581suffered": 2942,
  "\u2581truths": 2943,
  "\u2581wine": 2944,
  "ngakwati": 2945,
  "phela": 2946,
  "tawuchubeka": 2947,
  "vuma": 2948,
  "\u2581Africa": 2949,
  "\u2581Clearly": 2950,
  "\u2581ang": 2951,
  "\u2581bato": 2952,
  "\u2581kuphi": 2953,
  "\u2581manner": 2954,
  "\u2581nchi": 2955,
  "\u2581offering": 2956,
  "\u2581resist": 2957,
  "\u2581spent": 2958,
  "as": 2959,
  "bonisa": 2960,
  "incenye": 2961,
  "lele": 2962,
  "singabati": 2963,
  "\u2581Lesibusako": 2964,
  "\u2581Ngalesikhatsi": 2965,
  "\u2581Witness": 2966,
  "\u2581angase": 2967,
  "\u2581emndenini": 2968,
  "\u2581inga": 2969,
  "\u2581kwawo": 2970,
  "\u2581lefananako": 2971,
  "\u2581netintfo": 2972,
  "\u2581ngibe": 2973,
  "\u2581ngukuphi": 2974,
  "\u2581remind": 2975,
  "\u2581sibindzi": 2976,
  "\u2581tami": 2977,
  "\u2581wekucala": 2978,
  "hengatsi": 2979,
  "ngoba": 2980,
  "\u2581Body": 2981,
  "\u2581Genesisi": 2982,
  "\u2581Govern": 2983,
  "\u2581Great": 2984,
  "\u2581Kwekucala": 2985,
  "\u2581basis": 2986,
  "\u2581beliBhayibheli": 2987,
  "\u2581conversation": 2988,
  "\u2581endzabeni": 2989,
  "\u2581kuchubeka": 2990,
  "\u2581ngemnyaka": 2991,
  "\u2581ngesiZulu": 2992,
  "\u2581race": 2993,
  "\u2581sema": 2994,
  "\u2581sinyatselo": 2995,
  "\u2581specific": 2996,
  "da": 2997,
  "nikete": 2998,
  "zuza": 2999,
  "\u258143": 3000,
  "\u2581Besi": 3001,
  "\u2581Bonkhe": 3002,
  "\u2581deliver": 3003,
  "\u2581kuhle": 3004,
  "\u2581kulunga": 3005,
  "\u2581kuti": 3006,
  "\u2581least": 3007,
  "\u2581lesibalulekile": 3008,
  "\u2581react": 3009,
  "\u2581saloku": 3010,
  "\u2581source": 3011,
  "\u2581test": 3012,
  "\u2581titselo": 3013,
  "f": 3014,
  "hle": 3015,
  "hloko": 3016,
  "mikhuba": 3017,
  "ngafuni": 3018,
  "pa": 3019,
  "soever": 3020,
  "\u2581Yerusalemu": 3021,
  "\u2581afraid": 3022,
  "\u2581arrived": 3023,
  "\u2581awe": 3024,
  "\u2581birth": 3025,
  "\u2581break": 3026,
  "\u2581despite": 3027,
  "\u2581eminyaka": 3028,
  "\u2581families": 3029,
  "\u2581kulesihloko": 3030,
  "\u2581labasebasha": 3031,
  "\u2581lesisha": 3032,
  "\u2581leyo": 3033,
  "\u2581lokutsiw": 3034,
  "\u2581nika": 3035,
  "\u2581ought": 3036,
  "no": 3037,
  "nyenti": 3038,
  "\u258148": 3039,
  "\u2581Ask": 3040,
  "\u2581hakun": 3041,
  "\u2581importance": 3042,
  "\u2581lapha": 3043,
  "\u2581lie": 3044,
  "\u2581loyalty": 3045,
  "\u2581nebunye": 3046,
  "\u2581nesimo": 3047,
  "\u2581ngalokucacile": 3048,
  "\u2581ngembikweku": 3049,
  "\u2581pepo": 3050,
  "\u2581town": 3051,
  "\u2581valuable": 3052,
  "\u2581vyote": 3053,
  "\u2581walking": 3054,
  "\u2581washo": 3055,
  "cinisa": 3056,
  "ishi": 3057,
  "shiya": 3058,
  "vusa": 3059,
  "wetama": 3060,
  "\u258136": 3061,
  "\u258165": 3062,
  "\u2581April": 3063,
  "\u2581Australia": 3064,
  "\u2581Good": 3065,
  "\u2581Matakatifu": 3066,
  "\u2581Phet": 3067,
  "\u2581gifts": 3068,
  "\u2581lekahle": 3069,
  "\u2581lendzaba": 3070,
  "\u2581morning": 3071,
  "\u2581pay": 3072,
  "\u2581waliokuwa": 3073,
  "5:": 3074,
  "ise": 3075,
  "ngacala": 3076,
  "\u2581Develi": 3077,
  "\u2581Imagine": 3078,
  "\u2581Jeremiya": 3079,
  "\u2581Mariya": 3080,
  "\u2581agree": 3081,
  "\u2581associate": 3082,
  "\u2581huyu": 3083,
  "\u2581key": 3084,
  "\u2581kwenteke": 3085,
  "\u2581mwana": 3086,
  "3)": 3087,
  "If": 3088,
  "ile": 3089,
  "melana": 3090,
  "sisuke": 3091,
  "\u258126.": 3092,
  "\u2581Ephesians": 3093,
  "\u2581Similarly": 3094,
  "\u2581affection": 3095,
  "\u2581battle": 3096,
  "\u2581foreign": 3097,
  "\u2581hali": 3098,
  "\u2581inkhulumo": 3099,
  "\u2581lack": 3100,
  "\u2581longentansi": 3101,
  "\u2581reveal": 3102,
  "\u2581simple": 3103,
  "\u2581verse": 3104,
  "lipokuwa": 3105,
  "tfu": 3106,
  "tfutfukise": 3107,
  "vumeli": 3108,
  "w": 3109,
  "\u2581Bazalwane": 3110,
  "\u2581IN": 3111,
  "\u2581Khr": 3112,
  "\u2581Umsebenti": 3113,
  "\u2581appropriate": 3114,
  "\u2581baye": 3115,
  "\u2581contrast": 3116,
  "\u2581expressed": 3117,
  "\u2581immorality": 3118,
  "\u2581kubaluleka": 3119,
  "\u2581nalapho": 3120,
  "\u2581ngeliBhayibheli": 3121,
  "\u2581offspring": 3122,
  "\u2581protection": 3123,
  "\u2581putt": 3124,
  "\u2581sake": 3125,
  "\u2581seka": 3126,
  "\u2581siyente": 3127,
  "\u2581temptation": 3128,
  "\u2581train": 3129,
  "\u2581umyalo": 3130,
  "\u2581weliciniso": 3131,
  "It": 3132,
  "condziswa": 3133,
  "lahlekelwa": 3134,
  "njongo": 3135,
  "sekelwa": 3136,
  "titfunywa": 3137,
  "\u25812010": 3138,
  "\u2581Kube": 3139,
  "\u2581Pet": 3140,
  "\u2581approach": 3141,
  "\u2581bangase": 3142,
  "\u2581centuries": 3143,
  "\u2581confident": 3144,
  "\u2581disciple": 3145,
  "\u2581feeling": 3146,
  "\u2581final": 3147,
  "\u2581pleased": 3148,
  "\u2581recognize": 3149,
  "\u2581success": 3150,
  "\u2581territory": 3151,
  "\u2581vision": 3152,
  "\u2581wafu": 3153,
  "buntfu": 3154,
  "caphela": 3155,
  "mati": 3156,
  "out": 3157,
  "phetse": 3158,
  "tsembela": 3159,
  "\u2581Chaza": 3160,
  "\u2581Kuphila": 3161,
  "\u2581Mtakatifu": 3162,
  "\u2581Soon": 3163,
  "\u2581aNkulunkulu": 3164,
  "\u2581amani": 3165,
  "\u2581b": 3166,
  "\u2581bless": 3167,
  "\u2581esikolweni": 3168,
  "\u2581kile": 3169,
  "\u2581kubaluleke": 3170,
  "\u2581kufaka": 3171,
  "\u2581lelibi": 3172,
  "\u2581places": 3173,
  "\u2581setsembiso": 3174,
  "\u2581tongue": 3175,
  "bhalela": 3176,
  "enwe": 3177,
  "lizinga": 3178,
  "zindla": 3179,
  "\u2581About": 3180,
  "\u2581Footnote": 3181,
  "\u2581Joshua": 3182,
  "\u2581Pharisees": 3183,
  "\u2581acceptable": 3184,
  "\u2581countries": 3185,
  "\u2581damu": 3186,
  "\u2581endlini": 3187,
  "\u2581former": 3188,
  "\u2581hast": 3189,
  "\u2581hili": 3190,
  "\u2581kulelinye": 3191,
  "\u2581matendo": 3192,
  "\u2581sharing": 3193,
  "\u2581umbuso": 3194,
  "bekufanele": 3195,
  "ia": 3196,
  "vakashela": 3197,
  "\u2581Luk": 3198,
  "\u2581Njenga": 3199,
  "\u2581condition": 3200,
  "\u2581display": 3201,
  "\u2581eGibhithe": 3202,
  "\u2581edolobheni": 3203,
  "\u2581garden": 3204,
  "\u2581kini": 3205,
  "\u2581kufika": 3206,
  "\u2581late": 3207,
  "\u2581lesifanele": 3208,
  "\u2581ngeMbuso": 3209,
  "\u2581ngelibito": 3210,
  "\u2581presence": 3211,
  "\u2581sihloko": 3212,
  "\u2581sita": 3213,
  "\u2581site": 3214,
  "\u2581timfundziso": 3215,
  "\u2581ukhona": 3216,
  "\u2581zangu": 3217,
  "\u2581zeal": 3218,
  "buta": 3219,
  "ngasenta": 3220,
  "one": 3221,
  "\u258116)": 3222,
  "\u258131.": 3223,
  "\u258135.": 3224,
  "\u2581Natsi": 3225,
  "\u2581Teach": 3226,
  "\u2581Was": 3227,
  "\u2581acts": 3228,
  "\u2581claim": 3229,
  "\u2581gone": 3230,
  "\u2581guide": 3231,
  "\u2581habari": 3232,
  "\u2581ka": 3233,
  "\u2581kula": 3234,
  "\u2581lesiphila": 3235,
  "\u2581lessons": 3236,
  "\u2581naleti": 3237,
  "\u2581ngaba": 3238,
  "\u2581ngemsebenti": 3239,
  "\u2581practice": 3240,
  "\u2581pride": 3241,
  "\u2581prospect": 3242,
  "\u2581pure": 3243,
  "Babe": 3244,
  "Simakadze": 3245,
  "cho": 3246,
  "igungu": 3247,
  "kho": 3248,
  "landzisa": 3249,
  "lene": 3250,
  "londvolota": 3251,
  "\u2581Lesihloko": 3252,
  "\u2581approval": 3253,
  "\u2581bukhosi": 3254,
  "\u2581chose": 3255,
  "\u2581daima": 3256,
  "\u2581emanti": 3257,
  "\u2581kusebenta": 3258,
  "\u2581laku": 3259,
  "\u2581likewise": 3260,
  "\u2581liya": 3261,
  "\u2581none": 3262,
  "\u2581paragraphs": 3263,
  "\u2581riches": 3264,
  "\u2581text": 3265,
  "\u2581tinyatselo": 3266,
  "\u2581zote": 3267,
  "G": 3268,
  "bekwa": 3269,
  "gcwaliseka": 3270,
  "hlanganisa": 3271,
  "thandaza": 3272,
  "\u2581Ngiya": 3273,
  "\u2581Siku": 3274,
  "\u2581chakula": 3275,
  "\u2581contact": 3276,
  "\u2581demonstrate": 3277,
  "\u2581effective": 3278,
  "\u2581emshadweni": 3279,
  "\u2581kwani": 3280,
  "\u2581mtoto": 3281,
  "\u2581ngemavi": 3282,
  "\u2581united": 3283,
  "\u2581weak": 3284,
  "Do": 3285,
  "he": 3286,
  "ho": 3287,
  "kubona": 3288,
  "kuphela": 3289,
  "phatsa": 3290,
  "\u2581Eden": 3291,
  "\u2581Edeni": 3292,
  "\u2581Ha": 3293,
  "\u2581Sawula": 3294,
  "\u2581School": 3295,
  "\u2581Through": 3296,
  "\u2581committed": 3297,
  "\u2581danger": 3298,
  "\u2581encouraging": 3299,
  "\u2581haku": 3300,
  "\u2581hurt": 3301,
  "\u2581indzaba": 3302,
  "\u2581invitation": 3303,
  "\u2581kucoca": 3304,
  "\u2581mengine": 3305,
  "\u2581nature": 3306,
  "\u2581nemoya": 3307,
  "\u2581observe": 3308,
  "\u2581parent": 3309,
  "\u2581patient": 3310,
  "\u2581raise": 3311,
  "\u2581sort": 3312,
  "\u2581tingilosi": 3313,
  "\u2581violence": 3314,
  "bonga": 3315,
  "mba": 3316,
  "ngakwenta": 3317,
  "ngati": 3318,
  "tangu": 3319,
  "ungana": 3320,
  "\u2581Paradise": 3321,
  "\u2581Rome": 3322,
  "\u2581Sonkhe": 3323,
  "\u2581appear": 3324,
  "\u2581appeared": 3325,
  "\u2581enemy": 3326,
  "\u2581event": 3327,
  "\u2581experiences": 3328,
  "\u2581eye": 3329,
  "\u2581justice": 3330,
  "\u2581lay": 3331,
  "\u2581lisho": 3332,
  "\u2581lonelutsandvo": 3333,
  "\u2581sun": 3334,
  "\u2581universe": 3335,
  "\u2581urged": 3336,
  "\u2581wachaza": 3337,
  "Nga": 3338,
  "We": 3339,
  "hola": 3340,
  "tse": 3341,
  "tsela": 3342,
  "\u2581According": 3343,
  "\u2581activity": 3344,
  "\u2581careful": 3345,
  "\u2581imi": 3346,
  "\u2581inkhosi": 3347,
  "\u2581labanga": 3348,
  "\u2581mema": 3349,
  "\u2581ngekuphila": 3350,
  "\u2581related": 3351,
  "\u2581spake": 3352,
  "\u2581uM": 3353,
  "\u2581uses": 3354,
  "naka": 3355,
  "\u258139": 3356,
  "\u2581Kusho": 3357,
  "\u2581Lamavi": 3358,
  "\u2581akusho": 3359,
  "\u2581darkness": 3360,
  "\u2581mwa": 3361,
  "\u2581scriptures": 3362,
  "\u2581tenu": 3363,
  "\u2581ume": 3364,
  "\u2581wanga": 3365,
  "\u2581wawu": 3366,
  "\u2581zetu": 3367,
  "IHLOKO": 3368,
  "do": 3369,
  "ge": 3370,
  "lesihlakaniphile": 3371,
  "sibonelo": 3372,
  "tsatse": 3373,
  "uther": 3374,
  "yindlela": 3375,
  "\u2581Gal": 3376,
  "\u2581Hata": 3377,
  "\u2581Labanyenti": 3378,
  "\u2581aJesu": 3379,
  "\u2581bunye": 3380,
  "\u2581eventually": 3381,
  "\u2581involves": 3382,
  "\u2581kanisa": 3383,
  "\u2581manifest": 3384,
  "\u2581neno": 3385,
  "\u2581rely": 3386,
  "\u2581sinners": 3387,
  "K": 3388,
  "Matewu": 3389,
  "cabangisisa": 3390,
  "kubalekela": 3391,
  "\u258132.": 3392,
  "\u2581Ndugu": 3393,
  "\u2581Nevertheless": 3394,
  "\u2581WHAT": 3395,
  "\u2581attack": 3396,
  "\u2581attended": 3397,
  "\u2581brings": 3398,
  "\u2581enable": 3399,
  "\u2581fulfill": 3400,
  "\u2581improve": 3401,
  "\u2581kwemndeni": 3402,
  "\u2581labenta": 3403,
  "\u2581leto": 3404,
  "\u2581ngiyo": 3405,
  "\u2581persecution": 3406,
  "\u2581sisebenti": 3407,
  "\u2581sitawucoca": 3408,
  "\u2581tato": 3409,
  "\u2581timphendvulo": 3410,
  "\u2581worthy": 3411,
  "bone": 3412,
  "memetela": 3413,
  "nye": 3414,
  "sindzisa": 3415,
  "tsa": 3416,
  "vuswa": 3417,
  "\u2581Deut": 3418,
  "\u2581Thim": 3419,
  "\u2581bawo": 3420,
  "\u2581beliefs": 3421,
  "\u2581conditions": 3422,
  "\u2581easier": 3423,
  "\u2581emabandla": 3424,
  "\u2581lamakhulu": 3425,
  "\u2581lawo": 3426,
  "\u2581lokusho": 3427,
  "\u2581lowentiwa": 3428,
  "\u2581mikono": 3429,
  "\u2581moral": 3430,
  "\u2581netimo": 3431,
  "\u2581ngetulu": 3432,
  "\u2581thousands": 3433,
  "\u2581vitu": 3434,
  "\u2581warned": 3435,
  "\u2581wati": 3436,
  "\u2581weMbuso": 3437,
  "\u2581wrath": 3438,
  "Je": 3439,
  "bulala": 3440,
  "lenye": 3441,
  "sheshe": 3442,
  "vumelana": 3443,
  "\u2581R": 3444,
  "\u2581abenga": 3445,
  "\u2581cut": 3446,
  "\u2581forget": 3447,
  "\u2581kubhajatiswa": 3448,
  "\u2581kwekucala": 3449,
  "\u2581tifiso": 3450,
  "\u2581uwezo": 3451,
  "\u2581zealous": 3452,
  "kile": 3453,
  "letinye": 3454,
  "ncwadzini": 3455,
  "\u2581Drama": 3456,
  "\u2581Kukholwa": 3457,
  "\u2581art": 3458,
  "\u2581atfole": 3459,
  "\u2581aware": 3460,
  "\u2581class": 3461,
  "\u2581education": 3462,
  "\u2581entertainment": 3463,
  "\u2581inkholo": 3464,
  "\u2581laSathane": 3465,
  "\u2581licembu": 3466,
  "\u2581lokucinile": 3467,
  "\u2581meant": 3468,
  "\u2581measure": 3469,
  "\u2581minds": 3470,
  "\u2581missionary": 3471,
  "\u2581month": 3472,
  "\u2581nemsebenti": 3473,
  "\u2581nime": 3474,
  "\u2581political": 3475,
  "\u2581reject": 3476,
  "\u2581temoya": 3477,
  "\u2581tizatfu": 3478,
  "hlasela": 3479,
  "khonte": 3480,
  "libutfo": 3481,
  "lungiselela": 3482,
  "lwela": 3483,
  "mBhalo": 3484,
  "nakekele": 3485,
  "\u2581Asia": 3486,
  "\u2581Ekucaleni": 3487,
  "\u2581Mose": 3488,
  "\u2581OF": 3489,
  "\u2581October": 3490,
  "\u2581Semb": 3491,
  "\u2581Tintfo": 3492,
  "\u2581accomplish": 3493,
  "\u2581alipo": 3494,
  "\u2581army": 3495,
  "\u2581bafati": 3496,
  "\u2581bubi": 3497,
  "\u2581ground": 3498,
  "\u2581lefanele": 3499,
  "\u2581mistakes": 3500,
  "\u2581p": 3501,
  "\u2581sandla": 3502,
  "\u2581sincere": 3503,
  "\u2581siphila": 3504,
  "\u2581zenu": 3505,
  "g": 3506,
  "\u2581Judah": 3507,
  "\u2581Ngob": 3508,
  "\u2581areas": 3509,
  "\u2581fill": 3510,
  "\u2581haki": 3511,
  "\u2581immoral": 3512,
  "\u2581included": 3513,
  "\u2581instead": 3514,
  "\u2581kill": 3515,
  "\u2581kuta": 3516,
  "\u2581kuyenta": 3517,
  "\u2581lazima": 3518,
  "\u2581mtumishi": 3519,
  "\u2581nesikhatsi": 3520,
  "\u2581ngema": 3521,
  "\u2581nyumbani": 3522,
  "\u2581remained": 3523,
  "\u2581required": 3524,
  "\u2581response": 3525,
  "\u2581witnesses": 3526,
  "When": 3527,
  "ci": 3528,
  "umngani": 3529,
  "\u2581Konkhe": 3530,
  "\u2581Kutsi": 3531,
  "\u2581Sara": 3532,
  "\u2581Young": 3533,
  "\u2581alivyo": 3534,
  "\u2581aspects": 3535,
  "\u2581attending": 3536,
  "\u2581consequences": 3537,
  "\u2581cope": 3538,
  "\u2581either": 3539,
  "\u2581focused": 3540,
  "\u2581hekima": 3541,
  "\u2581inhlangano": 3542,
  "\u2581kubonga": 3543,
  "\u2581lokahle": 3544,
  "\u2581mention": 3545,
  "\u2581nalomunye": 3546,
  "\u2581prophecies": 3547,
  "F": 3548,
  "ngaciniseka": 3549,
  "ngatfola": 3550,
  "onomi": 3551,
  "responsibilities": 3552,
  "semkhatsini": 3553,
  "shi": 3554,
  "tincenye": 3555,
  "\u258142": 3556,
  "\u2581Bafundzi": 3557,
  "\u2581Mine": 3558,
  "\u2581akawa": 3559,
  "\u2581akho": 3560,
  "\u2581built": 3561,
  "\u2581decide": 3562,
  "\u2581fail": 3563,
  "\u2581grew": 3564,
  "\u2581hours": 3565,
  "\u2581imibono": 3566,
  "\u2581leMbuso": 3567,
  "\u2581lemibili": 3568,
  "\u2581lesinye": 3569,
  "\u2581lobalulekile": 3570,
  "\u2581luhlangotsi": 3571,
  "\u2581mamlaka": 3572,
  "\u2581master": 3573,
  "\u2581nemiphumela": 3574,
  "\u2581pleasure": 3575,
  "\u2581sacred": 3576,
  "\u2581sine": 3577,
  "\u2581waya": 3578,
  "Let": 3579,
  "buyele": 3580,
  "fundziswa": 3581,
  "khatsini": 3582,
  "kwadzingeka": 3583,
  "pe": 3584,
  "referred": 3585,
  "visa": 3586,
  "\u2581Asi": 3587,
  "\u2581Indvodza": 3588,
  "\u2581Mak": 3589,
  "\u2581akhuluma": 3590,
  "\u2581calls": 3591,
  "\u2581devotion": 3592,
  "\u2581emehlweni": 3593,
  "\u2581kulamanye": 3594,
  "\u2581lwaNkulunkulu": 3595,
  "\u2581mwisho": 3596,
  "\u2581notice": 3597,
  "\u2581opportunities": 3598,
  "\u2581parts": 3599,
  "\u2581privileges": 3600,
  "\u2581reasonable": 3601,
  "\u2581sabelo": 3602,
  "\u2581sex": 3603,
  "\u2581tawo": 3604,
  "\u2581une": 3605,
  "\u2581uongo": 3606,
  "\u2581yayo": 3607,
  "dlala": 3608,
  "khala": 3609,
  "mbi": 3610,
  "sitwa": 3611,
  "\u2581Abrahamu": 3612,
  "\u2581Amagedoni": 3613,
  "\u2581Explain": 3614,
  "\u2581Lamb": 3615,
  "\u2581Maria": 3616,
  "\u2581bacabanga": 3617,
  "\u2581kungcola": 3618,
  "\u2581kwaJehova": 3619,
  "\u2581mioyo": 3620,
  "\u2581mwanamke": 3621,
  "\u2581nangi": 3622,
  "\u2581obedience": 3623,
  "\u2581rejected": 3624,
  "\u2581umbuto": 3625,
  "\u2581usebentisa": 3626,
  "\u2581uyawu": 3627,
  "\u2581yenta": 3628,
  "Kwa": 3629,
  "lweni": 3630,
  "ngisita": 3631,
  "ro": 3632,
  "\u2581Armageddon": 3633,
  "\u2581Letinye": 3634,
  "\u2581Se": 3635,
  "\u2581Take": 3636,
  "\u2581UM": 3637,
  "\u2581affected": 3638,
  "\u2581commandment": 3639,
  "\u2581inkinga": 3640,
  "\u2581laid": 3641,
  "\u2581lakusho": 3642,
  "\u2581lambalwa": 3643,
  "\u2581nekufa": 3644,
  "\u2581rise": 3645,
  "\u2581sinful": 3646,
  "\u2581wazee": 3647,
  "landzela": 3648,
  "moya": 3649,
  "mshumayeli": 3650,
  "sicumbi": 3651,
  "tenta": 3652,
  "\u2581Eminyak": 3653,
  "\u2581Lamanye": 3654,
  "\u2581Njani": 3655,
  "\u2581cometh": 3656,
  "\u2581failed": 3657,
  "\u2581general": 3658,
  "\u2581half": 3659,
  "\u2581kubonakala": 3660,
  "\u2581names": 3661,
  "\u2581ngemaKhristu": 3662,
  "\u2581ngusiphi": 3663,
  "\u2581nyumba": 3664,
  "\u2581step": 3665,
  "\u2581stone": 3666,
  "\u2581tigidzi": 3667,
  "\u2581younger": 3668,
  "toa": 3669,
  "uliphi": 3670,
  "\u2581August": 3671,
  "\u2581Kila": 3672,
  "\u2581Trac": 3673,
  "\u2581assembly": 3674,
  "\u2581bayo": 3675,
  "\u2581bond": 3676,
  "\u2581concerned": 3677,
  "\u2581dunia": 3678,
  "\u2581letine": 3679,
  "\u2581lote": 3680,
  "\u2581mbali": 3681,
  "\u2581ngesibindzi": 3682,
  "\u2581note": 3683,
  "\u2581prevent": 3684,
  "\u2581security": 3685,
  "\u2581sword": 3686,
  "\u2581uye": 3687,
  "\u2581wakuu": 3688,
  "\u2581workers": 3689,
  "--": 3690,
  "gcizelela": 3691,
  "hlu": 3692,
  "lowo": 3693,
  "melela": 3694,
  "ngabasita": 3695,
  "\u258134.": 3696,
  "\u2581Hezekiah": 3697,
  "\u2581Master": 3698,
  "\u2581Pharaoh": 3699,
  "\u2581Russell": 3700,
  "\u2581amri": 3701,
  "\u2581conclusion": 3702,
  "\u2581eceleni": 3703,
  "\u2581eliBhayibheli": 3704,
  "\u2581emiBhalweni": 3705,
  "\u2581hivi": 3706,
  "\u2581lands": 3707,
  "\u2581ngekutimisela": 3708,
  "\u2581refers": 3709,
  "\u2581refuge": 3710,
  "\u2581telivangeli": 3711,
  "\u2581white": 3712,
  "bakhutsata": 3713,
  "etihloko": 3714,
  "ngasho": 3715,
  "phu": 3716,
  "\u2581Aka": 3717,
  "\u2581Despi": 3718,
  "\u2581Ninyi": 3719,
  "\u2581aye": 3720,
  "\u2581creatures": 3721,
  "\u2581cried": 3722,
  "\u2581eVi": 3723,
  "\u2581ebu": 3724,
  "\u2581freely": 3725,
  "\u2581hearing": 3726,
  "\u2581inheritance": 3727,
  "\u2581lwaJehova": 3728,
  "\u2581marry": 3729,
  "\u2581nakatsi": 3730,
  "\u2581ndzawo": 3731,
  "\u2581nelitsemba": 3732,
  "\u2581netimiso": 3733,
  "\u2581ngenjabulo": 3734,
  "\u2581ngibo": 3735,
  "\u2581ngutiphi": 3736,
  "\u2581outside": 3737,
  "\u2581sebantfu": 3738,
  "\u2581sought": 3739,
  "\u2581talking": 3740,
  "\u2581waiting": 3741,
  "\u2581worse": 3742,
  "Jesu": 3743,
  "bufakazi": 3744,
  "cele": 3745,
  "dalwa": 3746,
  "ould": 3747,
  "\u2581Ezekiel": 3748,
  "\u2581Jehu": 3749,
  "\u2581Over": 3750,
  "\u2581STUD": 3751,
  "\u2581contribute": 3752,
  "\u2581discussed": 3753,
  "\u2581enhlanganweni": 3754,
  "\u2581existence": 3755,
  "\u2581fruitage": 3756,
  "\u2581gathered": 3757,
  "\u2581indzima": 3758,
  "\u2581kidogo": 3759,
  "\u2581lesibi": 3760,
  "\u2581mfano": 3761,
  "\u2581naKhristu": 3762,
  "\u2581nemadvodza": 3763,
  "\u2581pornography": 3764,
  "\u2581scripture": 3765,
  "\u2581slaves": 3766,
  "\u2581tento": 3767,
  "\u2581titsa": 3768,
  "\u2581type": 3769,
  "condza": 3770,
  "hemu": 3771,
  "ract": 3772,
  "timisela": 3773,
  "\u258144": 3774,
  "\u2581ami": 3775,
  "\u2581cities": 3776,
  "\u2581ecasini": 3777,
  "\u2581eight": 3778,
  "\u2581emakhaya": 3779,
  "\u2581exactly": 3780,
  "\u2581gani": 3781,
  "\u2581idea": 3782,
  "\u2581includes": 3783,
  "\u2581kutfobeka": 3784,
  "\u2581letifaka": 3785,
  "\u2581lifa": 3786,
  "\u2581lile": 3787,
  "\u2581ngaleyo": 3788,
  "\u2581singaba": 3789,
  "\u2581state": 3790,
  "\u2581translation": 3791,
  "\u2581uMtsetfo": 3792,
  "SE": 3793,
  "ember": 3794,
  "fi": 3795,
  "labo": 3796,
  "mlayeto": 3797,
  "nguye": 3798,
  "\u2581Asewucabange": 3799,
  "\u2581Hivyo": 3800,
  "\u2581River": 3801,
  "\u2581Sitawu": 3802,
  "\u2581bam": 3803,
  "\u2581bungani": 3804,
  "\u2581busy": 3805,
  "\u2581declared": 3806,
  "\u2581endurance": 3807,
  "\u2581engcondvweni": 3808,
  "\u2581greatly": 3809,
  "\u2581harvest": 3810,
  "\u2581heed": 3811,
  "\u2581kungasisita": 3812,
  "\u2581lamatsatfu": 3813,
  "\u2581letinkhulu": 3814,
  "\u2581meal": 3815,
  "\u2581mighty": 3816,
  "\u2581pursue": 3817,
  "\u2581relates": 3818,
  "\u2581roho": 3819,
  "\u2581sekucala": 3820,
  "\u2581sitimisele": 3821,
  "\u2581strengthened": 3822,
  "\u2581survive": 3823,
  "\u2581tati": 3824,
  "\u2581twelve": 3825,
  "je": 3826,
  "mbo": 3827,
  "mekuwa": 3828,
  "ngakhoni": 3829,
  "shada": 3830,
  "sidzinga": 3831,
  "\u2581Lu": 3832,
  "\u2581Ngulo": 3833,
  "\u2581association": 3834,
  "\u2581guard": 3835,
  "\u2581kuko": 3836,
  "\u2581lasebakhulile": 3837,
  "\u2581leligatja": 3838,
  "\u2581lenjalo": 3839,
  "\u2581lokungu": 3840,
  "\u2581manabii": 3841,
  "\u2581nekuphila": 3842,
  "\u2581ngekuhlakanipha": 3843,
  "\u2581saints": 3844,
  "\u2581sase": 3845,
  "\u2581ukhone": 3846,
  "\u2581waMosi": 3847,
  "\u2581warm": 3848,
  "ayelana": 3849,
  "cale": 3850,
  "khumbuta": 3851,
  "lusito": 3852,
  "ous": 3853,
  "tibona": 3854,
  "weka": 3855,
  "\u2581Knorr": 3856,
  "\u2581Leti": 3857,
  "\u2581Makho": 3858,
  "\u2581Question": 3859,
  "\u2581Students": 3860,
  "\u2581ayo": 3861,
  "\u2581blind": 3862,
  "\u2581commit": 3863,
  "\u2581discreet": 3864,
  "\u2581dwell": 3865,
  "\u2581etintf": 3866,
  "\u2581insight": 3867,
  "\u2581issues": 3868,
  "\u2581likusasa": 3869,
  "\u2581lwabo": 3870,
  "\u2581refused": 3871,
  "\u2581report": 3872,
  "\u2581sleep": 3873,
  "\u2581successful": 3874,
  "\u2581una": 3875,
  "\u2581visited": 3876,
  "\u2581weliBhayibheli": 3877,
  "This": 3878,
  "chukua": 3879,
  "lala": 3880,
  "limata": 3881,
  "onyesha": 3882,
  "sitjela": 3883,
  "\u2581Aaron": 3884,
  "\u2581Baada": 3885,
  "\u2581Bu": 3886,
  "\u2581July": 3887,
  "\u2581More": 3888,
  "\u2581Rev": 3889,
  "\u2581Simon": 3890,
  "\u2581basebentisa": 3891,
  "\u2581boy": 3892,
  "\u2581direct": 3893,
  "\u2581faithfully": 3894,
  "\u2581fedha": 3895,
  "\u2581hawaku": 3896,
  "\u2581imindeni": 3897,
  "\u2581indicated": 3898,
  "\u2581indlu": 3899,
  "\u2581kwetsembeka": 3900,
  "\u2581leminye": 3901,
  "\u2581mountain": 3902,
  "\u2581studies": 3903,
  "\u2581teachers": 3904,
  "\u2581uli": 3905,
  "\u2581wato": 3906,
  "ngaba": 3907,
  "ongoni": 3908,
  "\u2581Philippians": 3909,
  "\u2581basic": 3910,
  "\u2581benu": 3911,
  "\u2581courageous": 3912,
  "\u2581deeds": 3913,
  "\u2581ekwent": 3914,
  "\u2581emuva": 3915,
  "\u2581energy": 3916,
  "\u2581imithantazo": 3917,
  "\u2581k": 3918,
  "\u2581karibu": 3919,
  "\u2581lesikahle": 3920,
  "\u2581letters": 3921,
  "\u2581nencenye": 3922,
  "\u2581neti": 3923,
  "\u2581shal": 3924,
  "\u2581thank": 3925,
  "\u2581treasure": 3926,
  "\u2581usuke": 3927,
  "\u2581waki": 3928,
  "He": 3929,
  "akhone": 3930,
  "fana": 3931,
  "kiti": 3932,
  "letehlukahlukene": 3933,
  "sele": 3934,
  "\u2581Hav": 3935,
  "\u2581Which": 3936,
  "\u2581adultery": 3937,
  "\u2581almost": 3938,
  "\u2581amount": 3939,
  "\u2581anxiety": 3940,
  "\u2581baada": 3941,
  "\u2581bafundze": 3942,
  "\u2581fathers": 3943,
  "\u2581forgiving": 3944,
  "\u2581husbands": 3945,
  "\u2581kulomunye": 3946,
  "\u2581kusenta": 3947,
  "\u2581kwemhlaba": 3948,
  "\u2581labantfu": 3949,
  "\u2581leading": 3950,
  "\u2581legal": 3951,
  "\u2581lesingayifundza": 3952,
  "\u2581lolukhulu": 3953,
  "\u2581magazine": 3954,
  "\u2581multitude": 3955,
  "\u2581nalamuhla": 3956,
  "\u2581ngelulwimi": 3957,
  "\u2581nguFakazi": 3958,
  "\u2581opposition": 3959,
  "\u2581sicoce": 3960,
  "\u2581siyalo": 3961,
  "\u2581succeed": 3962,
  "\u2581thanks": 3963,
  "\u2581wickedness": 3964,
  "\u2581youth": 3965,
  "adhi": 3966,
  "ana": 3967,
  "chazwa": 3968,
  "fundze": 3969,
  "kuncoba": 3970,
  "ngaleso": 3971,
  "titsandza": 3972,
  "vumela": 3973,
  "\u2581Ngaphambi": 3974,
  "\u2581Robert": 3975,
  "\u2581Thou": 3976,
  "\u2581akiwa": 3977,
  "\u2581harm": 3978,
  "\u2581huruma": 3979,
  "\u2581imicabango": 3980,
  "\u2581ingawa": 3981,
  "\u2581ini": 3982,
  "\u2581kuva": 3983,
  "\u2581lebantfu": 3984,
  "\u2581lebe": 3985,
  "\u2581letinga": 3986,
  "\u2581lilunga": 3987,
  "\u2581losezulwini": 3988,
  "\u2581loss": 3989,
  "\u2581mature": 3990,
  "\u2581nala": 3991,
  "\u2581nendvodza": 3992,
  "\u2581ngaJesu": 3993,
  "\u2581practices": 3994,
  "\u2581soldiers": 3995,
  "\u2581term": 3996,
  "\u2581tinhlobo": 3997,
  "\u2581tinzuzo": 3998,
  "\u2581umphrofethi": 3999,
  "\u2581wawa": 4000,
  "\u2581waze": 4001,
  "bambambamba": 4002,
  "inceku": 4003,
  "leni": 4004,
  "mtsandza": 4005,
  "nesihloko": 4006,
  "wezi": 4007,
  "\u25812014": 4008,
  "\u258146": 4009,
  "\u2581Behold": 4010,
  "\u2581Bobani": 4011,
  "\u2581Go": 4012,
  "\u2581Her": 4013,
  "\u2581Kuya": 4014,
  "\u2581Lesiny": 4015,
  "\u2581Nathan": 4016,
  "\u2581Tena": 4017,
  "\u2581footnote": 4018,
  "\u2581gold": 4019,
  "\u2581heartfelt": 4020,
  "\u2581instructions": 4021,
  "\u2581listening": 4022,
  "\u2581million": 4023,
  "\u2581mka": 4024,
  "\u2581mkono": 4025,
  "\u2581nguloko": 4026,
  "\u2581tamaa": 4027,
  "\u2581tisebenti": 4028,
  "\u2581trained": 4029,
  "\u2581ungu": 4030,
  "\u2581walipo": 4031,
  "\u2581wish": 4032,
  "\u2581yaJesu": 4033,
  "\u2581yekukhonta": 4034,
  "In": 4035,
  "hlabela": 4036,
  "ic": 4037,
  "ifundzisani": 4038,
  "ndza": 4039,
  "phumelela": 4040,
  "tjelwa": 4041,
  "vula": 4042,
  "\u2581Likewise": 4043,
  "\u2581angry": 4044,
  "\u2581aside": 4045,
  "\u2581belong": 4046,
  "\u2581binadamu": 4047,
  "\u2581box": 4048,
  "\u2581comments": 4049,
  "\u2581communication": 4050,
  "\u2581elderly": 4051,
  "\u2581enzi": 4052,
  "\u2581honest": 4053,
  "\u2581imphi": 4054,
  "\u2581kulendzaba": 4055,
  "\u2581kuvela": 4056,
  "\u2581kwakha": 4057,
  "\u2581lesingayenta": 4058,
  "\u2581limited": 4059,
  "\u2581liphutsa": 4060,
  "\u2581lithempeli": 4061,
  "\u2581losemusha": 4062,
  "\u2581nangeku": 4063,
  "\u2581ngetindzaba": 4064,
  "\u2581room": 4065,
  "\u2581sit": 4066,
  "\u2581sivumelwane": 4067,
  "\u2581tayari": 4068,
  "\u2581utiva": 4069,
  "\u2581wheat": 4070,
  "\u2581widow": 4071,
  "\u2581yaani": 4072,
  "gcoka": 4073,
  "nake": 4074,
  "ngaphansi": 4075,
  "\u258144.": 4076,
  "\u2581Learn": 4077,
  "\u2581assured": 4078,
  "\u2581betam": 4079,
  "\u2581commandments": 4080,
  "\u2581eMelika": 4081,
  "\u2581increase": 4082,
  "\u2581kuku": 4083,
  "\u2581lelo": 4084,
  "\u2581lesikhombisa": 4085,
  "\u2581mwanga": 4086,
  "\u2581patiently": 4087,
  "\u2581pioneering": 4088,
  "\u2581proud": 4089,
  "\u2581secular": 4090,
  "\u2581sikwente": 4091,
  "\u2581sinned": 4092,
  "\u2581tatu": 4093,
  "\u2581tihlobo": 4094,
  "\u2581walked": 4095,
  "\u2581yaba": 4096,
  "\u2581yato": 4097,
  "\u2581yebantfu": 4098,
  "\u2581yemanga": 4099,
  "elusito": 4100,
  "kukhombisa": 4101,
  "leto": 4102,
  "mibono": 4103,
  "nelikhono": 4104,
  "\u2581Am": 4105,
  "\u2581Ef": 4106,
  "\u2581Family": 4107,
  "\u2581Israeli": 4108,
  "\u2581Only": 4109,
  "\u2581TIHLOKO": 4110,
  "\u2581bakhone": 4111,
  "\u2581emphini": 4112,
  "\u2581helpful": 4113,
  "\u2581identify": 4114,
  "\u2581kwesikhashana": 4115,
  "\u2581lativa": 4116,
  "\u2581letimbalwa": 4117,
  "\u2581licala": 4118,
  "\u2581mwenu": 4119,
  "\u2581nalamanye": 4120,
  "\u2581ngale": 4121,
  "\u2581promote": 4122,
  "\u2581siyati": 4123,
  "\u2581stopped": 4124,
  "\u2581telling": 4125,
  "\u2581testimony": 4126,
  "\u2581touched": 4127,
  "\u2581yekutfomba": 4128,
  "bantfwana": 4129,
  "bhajatiswa": 4130,
  "catsanisa": 4131,
  "di": 4132,
  "lolunye": 4133,
  "mema": 4134,
  "ntsandvo": 4135,
  "sifundzisa": 4136,
  "sihlole": 4137,
  "ulapho": 4138,
  "\u2581Amen": 4139,
  "\u2581Ekugcineni": 4140,
  "\u2581INkhosi": 4141,
  "\u2581accurate": 4142,
  "\u2581bachubeka": 4143,
  "\u2581bucotfo": 4144,
  "\u2581correct": 4145,
  "\u2581count": 4146,
  "\u2581difference": 4147,
  "\u2581ingcondvo": 4148,
  "\u2581kusi": 4149,
  "\u2581kwenye": 4150,
  "\u2581letinjalo": 4151,
  "\u2581lowo": 4152,
  "\u2581miles": 4153,
  "\u2581nyingi": 4154,
  "\u2581receiving": 4155,
  "\u2581sifun": 4156,
  "\u2581upande": 4157,
  "\u2581willingly": 4158,
  "My": 4159,
  "],": 4160,
  "beketelela": 4161,
  "mbe": 4162,
  "ndzima": 4163,
  "ngafundza": 4164,
  "ngahle": 4165,
  "ngasisita": 4166,
  "su": 4167,
  "tfole": 4168,
  "ually": 4169,
  "ulomunye": 4170,
  "\u25811919": 4171,
  "\u2581Mu": 4172,
  "\u2581Regard": 4173,
  "\u2581War": 4174,
  "\u2581baholi": 4175,
  "\u2581choices": 4176,
  "\u2581company": 4177,
  "\u2581determine": 4178,
  "\u2581ethempelini": 4179,
  "\u2581generation": 4180,
  "\u2581imininingwane": 4181,
  "\u2581kab": 4182,
  "\u2581kufuata": 4183,
  "\u2581kuletinye": 4184,
  "\u2581kuloku": 4185,
  "\u2581kusisita": 4186,
  "\u2581kwekuba": 4187,
  "\u2581lweku": 4188,
  "\u2581mafundisho": 4189,
  "\u2581naseku": 4190,
  "\u2581nebafati": 4191,
  "\u2581nili": 4192,
  "\u2581overseers": 4193,
  "\u2581recreation": 4194,
  "\u2581relief": 4195,
  "\u2581setam": 4196,
  "\u2581sitfola": 4197,
  "\u2581yaloko": 4198,
  "bhala": 4199,
  "ekwenta": 4200,
  "hlaselwa": 4201,
  "hlolisisa": 4202,
  "munye": 4203,
  "nemandla": 4204,
  "phetsa": 4205,
  "thantazela": 4206,
  "\u2581High": 4207,
  "\u2581Ki": 4208,
  "\u2581Know": 4209,
  "\u2581YOU": 4210,
  "\u2581arise": 4211,
  "\u2581bearing": 4212,
  "\u2581bekucala": 4213,
  "\u2581describes": 4214,
  "\u2581due": 4215,
  "\u2581governments": 4216,
  "\u2581lies": 4217,
  "\u2581motivate": 4218,
  "\u2581msi": 4219,
  "\u2581ngalokugcwele": 4220,
  "\u2581nita": 4221,
  "\u2581pale": 4222,
  "\u2581rulership": 4223,
  "\u2581sees": 4224,
  "\u2581sichubeka": 4225,
  "\u2581sitibute": 4226,
  "\u2581spread": 4227,
  "\u2581story": 4228,
  "\u2581tempted": 4229,
  "\u2581ungase": 4230,
  "\u2581verses": 4231,
  "\u2581yekutikhetsela": 4232,
  "\u2581yes": 4233,
  "P": 4234,
  "WA": 4235,
  "funga": 4236,
  "kwemukela": 4237,
  "laba": 4238,
  "lindzele": 4239,
  "ngo": 4240,
  "penda": 4241,
  "phelelw": 4242,
  "tintfo": 4243,
  "yenta": 4244,
  "\u2581Ali": 4245,
  "\u2581Bantfwana": 4246,
  "\u2581Galilee": 4247,
  "\u2581await": 4248,
  "\u2581batfola": 4249,
  "\u2581becomes": 4250,
  "\u2581demons": 4251,
  "\u2581front": 4252,
  "\u2581healed": 4253,
  "\u2581ikiwa": 4254,
  "\u2581invite": 4255,
  "\u2581kindly": 4256,
  "\u2581kuyi": 4257,
  "\u2581lelincane": 4258,
  "\u2581lest": 4259,
  "\u2581pa": 4260,
  "\u2581produce": 4261,
  "\u2581ruling": 4262,
  "\u2581setsembekile": 4263,
  "\u2581singase": 4264,
  "\u2581siye": 4265,
  "\u2581viewed": 4266,
  "bha": 4267,
  "bukela": 4268,
  "chuba": 4269,
  "de": 4270,
  "ingia": 4271,
  "khu": 4272,
  "libhokisi": 4273,
  "matima": 4274,
  "minikelo": 4275,
  "nikwa": 4276,
  "sondzela": 4277,
  "\u2581Nangi": 4278,
  "\u2581News": 4279,
  "\u2581Us": 4280,
  "\u2581Well": 4281,
  "\u2581active": 4282,
  "\u2581akaenda": 4283,
  "\u2581ark": 4284,
  "\u2581cares": 4285,
  "\u2581cases": 4286,
  "\u2581dear": 4287,
  "\u2581delight": 4288,
  "\u2581feels": 4289,
  "\u2581iliyo": 4290,
  "\u2581kunaloko": 4291,
  "\u2581kunesidzingo": 4292,
  "\u2581kwalelive": 4293,
  "\u2581labashadile": 4294,
  "\u2581libe": 4295,
  "\u2581miracles": 4296,
  "\u2581trial": 4297,
  "\u2581umtimba": 4298,
  "\u2581watfola": 4299,
  "\u2581wekuphila": 4300,
  "boFakazi": 4301,
  "gcini": 4302,
  "itwa": 4303,
  "khula": 4304,
  "khulula": 4305,
  "lawo": 4306,
  "letihlakaniphile": 4307,
  "melula": 4308,
  "mpate": 4309,
  "mphrofethi": 4310,
  "pewa": 4311,
  "shaya": 4312,
  "tawu": 4313,
  "ubone": 4314,
  "\u2581\"[": 4315,
  "\u258151": 4316,
  "\u2581Gilead": 4317,
  "\u2581Lomkhulu": 4318,
  "\u2581Sasa": 4319,
  "\u2581Um": 4320,
  "\u2581Whe": 4321,
  "\u2581acala": 4322,
  "\u2581animals": 4323,
  "\u2581discern": 4324,
  "\u2581ekugcineni": 4325,
  "\u2581ekuseni": 4326,
  "\u2581emehlo": 4327,
  "\u2581engotini": 4328,
  "\u2581established": 4329,
  "\u2581etinhlitiyweni": 4330,
  "\u2581gospel": 4331,
  "\u2581labane": 4332,
  "\u2581lekuba": 4333,
  "\u2581linye": 4334,
  "\u2581neMbuso": 4335,
  "\u2581ngetimiso": 4336,
  "\u2581rebellion": 4337,
  "\u2581satisfaction": 4338,
  "\u2581seyi": 4339,
  "\u2581ship": 4340,
  "\u2581sinake": 4341,
  "\u2581tetsembiso": 4342,
  "\u2581translated": 4343,
  "\u2581umfanekiso": 4344,
  "\u2581wawo": 4345,
  "Wa": 4346,
  "ful": 4347,
  "gucula": 4348,
  "kiwa": 4349,
  "letehlukehlukene": 4350,
  "loku": 4351,
  "mtjela": 4352,
  "sento": 4353,
  "tsenga": 4354,
  "\u2581Akukafanel": 4355,
  "\u2581Aroni": 4356,
  "\u2581Don": 4357,
  "\u2581Emakhosi": 4358,
  "\u2581Judas": 4359,
  "\u2581Wena": 4360,
  "\u2581Worship": 4361,
  "\u2581abesa": 4362,
  "\u2581adds": 4363,
  "\u2581alipokuwa": 4364,
  "\u2581bane": 4365,
  "\u2581continues": 4366,
  "\u2581directed": 4367,
  "\u2581endeavor": 4368,
  "\u2581je": 4369,
  "\u2581kwalo": 4370,
  "\u2581labalungile": 4371,
  "\u2581lencono": 4372,
  "\u2581mbaya": 4373,
  "\u2581ngiko": 4374,
  "\u2581proof": 4375,
  "\u2581recent": 4376,
  "\u2581studied": 4377,
  "\u2581tigaba": 4378,
  "\u2581tribe": 4379,
  "\u2581umnyaka": 4380,
  "\u2581views": 4381,
  "\u2581witnessing": 4382,
  "Ba": 4383,
  "gula": 4384,
  "lati": 4385,
  "live": 4386,
  "ment": 4387,
  "nesidzingo": 4388,
  "ngekho": 4389,
  "tawuhlala": 4390,
  "tsandze": 4391,
  "\u258120)": 4392,
  "\u25814.)": 4393,
  "\u258173": 4394,
  "\u2581Contents": 4395,
  "\u2581Every": 4396,
  "\u2581LIBHAYIBHELI": 4397,
  "\u2581Parents": 4398,
  "\u2581Table": 4399,
  "\u2581beseka": 4400,
  "\u2581declare": 4401,
  "\u2581distress": 4402,
  "\u2581furaha": 4403,
  "\u2581imiyalo": 4404,
  "\u2581judged": 4405,
  "\u2581km": 4406,
  "\u2581kudzingek": 4407,
  "\u2581kuji": 4408,
  "\u2581kuona": 4409,
  "\u2581kuveta": 4410,
  "\u2581labatsandza": 4411,
  "\u2581lokufanako": 4412,
  "\u2581lowenta": 4413,
  "\u2581luhlelo": 4414,
  "\u2581mali": 4415,
  "\u2581music": 4416,
  "\u2581organized": 4417,
  "\u2581subjects": 4418,
  "\u2581uMdali": 4419,
  "\u2581ufundze": 4420,
  "\u2581ute": 4421,
  "Isaya": 4422,
  "ies": 4423,
  "kutsandza": 4424,
  "magazini": 4425,
  "nawo": 4426,
  "ncono": 4427,
  "nyakeni": 4428,
  "tsengisa": 4429,
  "\u2581Angeke": 4430,
  "\u2581Cain": 4431,
  "\u2581Jer": 4432,
  "\u2581LESI": 4433,
  "\u2581Pilate": 4434,
  "\u2581Should": 4435,
  "\u2581Titus": 4436,
  "\u2581aJehova": 4437,
  "\u2581abefuna": 4438,
  "\u2581awake": 4439,
  "\u2581carried": 4440,
  "\u2581cishe": 4441,
  "\u2581contrary": 4442,
  "\u2581design": 4443,
  "\u2581discouraged": 4444,
  "\u2581ejele": 4445,
  "\u2581esonweni": 4446,
  "\u2581evident": 4447,
  "\u2581evidently": 4448,
  "\u2581fleshly": 4449,
  "\u2581illustrate": 4450,
  "\u2581imibhalo": 4451,
  "\u2581imiva": 4452,
  "\u2581injustice": 4453,
  "\u2581journey": 4454,
  "\u2581kabanti": 4455,
  "\u2581kwangu": 4456,
  "\u2581lasting": 4457,
  "\u2581lendvodza": 4458,
  "\u2581lomubi": 4459,
  "\u2581nawaambieni": 4460,
  "\u2581ngase": 4461,
  "\u2581separate": 4462,
  "\u2581spirits": 4463,
  "\u2581tekuphila": 4464,
  "\u2581waloko": 4465,
  "\u2581weeks": 4466,
  "\u2581yemuntfu": 4467,
  "\u2581yinkhosi": 4468,
  "Dut": 4469,
  "amini": 4470,
  "bangele": 4471,
  "kusho": 4472,
  "lesinye": 4473,
  "lungele": 4474,
  "quite": 4475,
  "susa": 4476,
  "vikela": 4477,
  "\u2581KU": 4478,
  "\u2581Ka": 4479,
  "\u2581Sad": 4480,
  "\u2581assure": 4481,
  "\u2581bachubeke": 4482,
  "\u2581butsakatsaka": 4483,
  "\u2581closely": 4484,
  "\u2581conclude": 4485,
  "\u2581descendants": 4486,
  "\u2581doctrine": 4487,
  "\u2581eager": 4488,
  "\u2581homes": 4489,
  "\u2581ime": 4490,
  "\u2581kuli": 4491,
  "\u2581layi": 4492,
  "\u2581lela": 4493,
  "\u2581mme": 4494,
  "\u2581nalesi": 4495,
  "\u2581ngesibonelo": 4496,
  "\u2581points": 4497,
  "\u2581represent": 4498,
  "\u2581sasi": 4499,
  "\u2581sikhundla": 4500,
  "\u2581sinesono": 4501,
  "W": 4502,
  "khululwa": 4503,
  "mhlabeli": 4504,
  "mitsetfo": 4505,
  "ndvodzakati": 4506,
  "nkhosi": 4507,
  "piga": 4508,
  "zuzisa": 4509,
  "\u2581Dec": 4510,
  "\u2581Faith": 4511,
  "\u2581Kan": 4512,
  "\u2581Mkuu": 4513,
  "\u2581Once": 4514,
  "\u2581Pentecost": 4515,
  "\u2581akwati": 4516,
  "\u2581applying": 4517,
  "\u2581companions": 4518,
  "\u2581divided": 4519,
  "\u2581drawn": 4520,
  "\u2581ete": 4521,
  "\u2581extent": 4522,
  "\u2581gods": 4523,
  "\u2581groups": 4524,
  "\u2581kutibamba": 4525,
  "\u2581lamadzala": 4526,
  "\u2581lemitsatfu": 4527,
  "\u2581linyenti": 4528,
  "\u2581midst": 4529,
  "\u2581mnyama": 4530,
  "\u2581normal": 4531,
  "\u2581re": 4532,
  "\u2581request": 4533,
  "\u2581run": 4534,
  "\u2581setsembel": 4535,
  "\u2581sibusiso": 4536,
  "\u2581tjwala": 4537,
  "\u2581umati": 4538,
  "\u2581uyi": 4539,
  "\u2581walo": 4540,
  "\u2581zi": 4541,
  "Jesus": 4542,
  "and": 4543,
  "ch": 4544,
  "fakazela": 4545,
  "fike": 4546,
  "hlobene": 4547,
  "leta": 4548,
  "malunga": 4549,
  "mbuso": 4550,
  "melane": 4551,
  "mibhalo": 4552,
  "natsa": 4553,
  "nebantfu": 4554,
  "okungekhatsi": 4555,
  "tsatfwa": 4556,
  "wini": 4557,
  "\u258122,": 4558,
  "\u2581Ghost": 4559,
  "\u2581Kwe": 4560,
  "\u2581Liciniso": 4561,
  "\u2581Mesiya": 4562,
  "\u2581Readers": 4563,
  "\u2581September": 4564,
  "\u2581alim": 4565,
  "\u2581big": 4566,
  "\u2581calling": 4567,
  "\u2581corrupt": 4568,
  "\u2581easily": 4569,
  "\u2581emakhono": 4570,
  "\u2581engage": 4571,
  "\u2581kuma": 4572,
  "\u2581kwekufa": 4573,
  "\u2581labanesono": 4574,
  "\u2581len": 4575,
  "\u2581lesifanako": 4576,
  "\u2581lesiku": 4577,
  "\u2581lokunye": 4578,
  "\u2581lokwentiwa": 4579,
  "\u2581moving": 4580,
  "\u2581perform": 4581,
  "\u2581principle": 4582,
  "\u2581statement": 4583,
  "\u2581wakawa": 4584,
  "\u2581wilderness": 4585,
  "Jer": 4586,
  "Keep": 4587,
  "all": 4588,
  "etilwimi": 4589,
  "gukuphi": 4590,
  "litfuba": 4591,
  "lungisa": 4592,
  "malanga": 4593,
  "mbhali": 4594,
  "mgomo": 4595,
  "micabango": 4596,
  "ngatsandza": 4597,
  "nya": 4598,
  "onekana": 4599,
  "tsembisa": 4600,
  "umbe": 4601,
  "\u258172": 4602,
  "\u2581Eph": 4603,
  "\u2581Huy": 4604,
  "\u2581Note": 4605,
  "\u2581Ufalme": 4606,
  "\u2581Z": 4607,
  "\u2581abetawu": 4608,
  "\u2581abroad": 4609,
  "\u2581busuku": 4610,
  "\u2581divorce": 4611,
  "\u2581emotions": 4612,
  "\u2581imphendvulo": 4613,
  "\u2581ingilosi": 4614,
  "\u2581lete": 4615,
  "\u2581minister": 4616,
  "\u2581refer": 4617,
  "\u2581siciniseke": 4618,
  "\u2581spirituality": 4619,
  "\u2581student": 4620,
  "\u2581tenyama": 4621,
  "\u2581tivakashi": 4622,
  "\u2581unique": 4623,
  "\u2581wild": 4624,
  "\u2581worth": 4625,
  "ciniseke": 4626,
  "iketa": 4627,
  "kutsatsa": 4628,
  "libito": 4629,
  "tati": 4630,
  "vuka": 4631,
  "\u258180": 4632,
  "\u2581Ahab": 4633,
  "\u2581Jephthah": 4634,
  "\u2581Kulesihloko": 4635,
  "\u2581LOKU": 4636,
  "\u2581Nasent": 4637,
  "\u2581Onkhe": 4638,
  "\u2581Passover": 4639,
  "\u2581Second": 4640,
  "\u2581YINI": 4641,
  "\u2581accomplished": 4642,
  "\u2581akwente": 4643,
  "\u2581applied": 4644,
  "\u2581asiye": 4645,
  "\u2581churches": 4646,
  "\u2581conventions": 4647,
  "\u2581drinking": 4648,
  "\u2581emotional": 4649,
  "\u2581expected": 4650,
  "\u2581faida": 4651,
  "\u2581girl": 4652,
  "\u2581kutsandza": 4653,
  "\u2581labazalwane": 4654,
  "\u2581layenta": 4655,
  "\u2581lencane": 4656,
  "\u2581letiphatse": 4657,
  "\u2581lifestyle": 4658,
  "\u2581longayenta": 4659,
  "\u2581mbili": 4660,
  "\u2581nebatali": 4661,
  "\u2581ngelikusasa": 4662,
  "\u2581ngitsi": 4663,
  "\u2581resolve": 4664,
  "\u2581reveals": 4665,
  "\u2581siphile": 4666,
  "\u2581struggle": 4667,
  "\u2581taba": 4668,
  "\u2581timphi": 4669,
  "\u2581tuli": 4670,
  "\u2581ungodly": 4671,
  "basite": 4672,
  "elilanga": 4673,
  "gcwalisa": 4674,
  "hlotjeni": 4675,
  "iyajabula": 4676,
  "jabulele": 4677,
  "lapho": 4678,
  "mcondvo": 4679,
  "njani": 4680,
  "toka": 4681,
  "vukela": 4682,
  "wi": 4683,
  "\u258119)": 4684,
  "\u258123)": 4685,
  "\u2581Finally": 4686,
  "\u2581Germany": 4687,
  "\u2581Martha": 4688,
  "\u2581Messianic": 4689,
  "\u2581Two": 4690,
  "\u2581Y": 4691,
  "\u2581Zechariah": 4692,
  "\u2581address": 4693,
  "\u2581arose": 4694,
  "\u2581bound": 4695,
  "\u2581daughters": 4696,
  "\u2581eMbuso": 4697,
  "\u2581eating": 4698,
  "\u2581essential": 4699,
  "\u2581etindzabeni": 4700,
  "\u2581gratitude": 4701,
  "\u2581kabusha": 4702,
  "\u2581linani": 4703,
  "\u2581lombuto": 4704,
  "\u2581macho": 4705,
  "\u2581nekukhonta": 4706,
  "\u2581root": 4707,
  "\u2581ruler": 4708,
  "\u2581season": 4709,
  "\u2581seriously": 4710,
  "\u2581speaks": 4711,
  "\u2581teacher": 4712,
  "\u2581timphahla": 4713,
  "\u2581trouble": 4714,
  "\u2581umhlambi": 4715,
  "\u2581video": 4716,
  "etimfundziso": 4717,
  "finyelele": 4718,
  "nako": 4719,
  "nendzaba": 4720,
  "osaic": 4721,
  "semukela": 4722,
  "she": 4723,
  "takwenta": 4724,
  "\u258122)": 4725,
  "\u258149": 4726,
  "\u2581Ahabi": 4727,
  "\u2581Enoch": 4728,
  "\u2581Land": 4729,
  "\u2581Sikhatsi": 4730,
  "\u2581Sometimes": 4731,
  "\u2581THIS": 4732,
  "\u2581advantage": 4733,
  "\u2581although": 4734,
  "\u2581aspect": 4735,
  "\u2581bebanga": 4736,
  "\u2581bebantfu": 4737,
  "\u2581bekutawu": 4738,
  "\u2581benefited": 4739,
  "\u2581challenging": 4740,
  "\u2581concerns": 4741,
  "\u2581differ": 4742,
  "\u2581expressions": 4743,
  "\u2581iminikelo": 4744,
  "\u2581kukhatsateka": 4745,
  "\u2581kutinikela": 4746,
  "\u2581kwesaba": 4747,
  "\u2581letivela": 4748,
  "\u2581powers": 4749,
  "\u2581saPawula": 4750,
  "\u2581selfish": 4751,
  "\u2581setting": 4752,
  "\u2581shepherds": 4753,
  "\u2581treated": 4754,
  "\u2581uchubeka": 4755,
  "\u2581umehluko": 4756,
  "\u2581vain": 4757,
  "\u2581yiNkhosi": 4758,
  "Kute": 4759,
  "LO": 4760,
  "Lo": 4761,
  "bukeka": 4762,
  "cindzetelekile": 4763,
  "ncenga": 4764,
  "ngayiphi": 4765,
  "rely": 4766,
  "ubuphi": 4767,
  "\u2581Here": 4768,
  "\u2581Under": 4769,
  "\u2581Wherefore": 4770,
  "\u2581acted": 4771,
  "\u2581begotten": 4772,
  "\u2581considering": 4773,
  "\u2581departed": 4774,
  "\u2581ekufeni": 4775,
  "\u2581except": 4776,
  "\u2581facts": 4777,
  "\u2581finally": 4778,
  "\u2581grief": 4779,
  "\u2581hundred": 4780,
  "\u2581ilikuwa": 4781,
  "\u2581kancono": 4782,
  "\u2581kubeketela": 4783,
  "\u2581kugcwaliseka": 4784,
  "\u2581kunaka": 4785,
  "\u2581letilishumi": 4786,
  "\u2581lokunga": 4787,
  "\u2581mitume": 4788,
  "\u2581occur": 4789,
  "\u2581occurred": 4790,
  "\u2581otherwise": 4791,
  "\u2581outstanding": 4792,
  "\u2581remains": 4793,
  "\u2581road": 4794,
  "\u2581titsi": 4795,
  "\u2581ucabanga": 4796,
  "\u2581values": 4797,
  "\u2581violent": 4798,
  "\u2581wesigodzi": 4799,
  "andika": 4800,
  "busisa": 4801,
  "ers": 4802,
  "ive": 4803,
  "kaa": 4804,
  "kutjela": 4805,
  "nalo": 4806,
  "ndze": 4807,
  "ngaka": 4808,
  "saba": 4809,
  "takusita": 4810,
  "\u258114.)": 4811,
  "\u258138.": 4812,
  "\u2581Him": 4813,
  "\u2581Joshuwa": 4814,
  "\u2581Ngalokwehlukile": 4815,
  "\u2581Utawu": 4816,
  "\u2581afe": 4817,
  "\u2581aliyekuwa": 4818,
  "\u2581allows": 4819,
  "\u2581baKhristu": 4820,
  "\u2581babona": 4821,
  "\u2581bayawu": 4822,
  "\u2581cabanga": 4823,
  "\u2581elibandla": 4824,
  "\u2581fast": 4825,
  "\u2581kulenye": 4826,
  "\u2581kwenda": 4827,
  "\u2581lebeku": 4828,
  "\u2581lelitsite": 4829,
  "\u2581letitfolakala": 4830,
  "\u2581linga": 4831,
  "\u2581listened": 4832,
  "\u2581muwe": 4833,
  "\u2581naloku": 4834,
  "\u2581ngekuthula": 4835,
  "\u2581primary": 4836,
  "\u2581sang": 4837,
  "\u2581search": 4838,
  "\u2581sing": 4839,
  "\u2581stronger": 4840,
  "\u2581ulio": 4841,
  "\u2581walimu": 4842,
  "\u2581yaka": 4843,
  "\u2581yesibili": 4844,
  "khe": 4845,
  "kucondza": 4846,
  "mong": 4847,
  "nda": 4848,
  "ngenela": 4849,
  "thi": 4850,
  "\u2581Almighty": 4851,
  "\u2581Hezekiya": 4852,
  "\u2581Re": 4853,
  "\u2581Ruth": 4854,
  "\u2581Tonkhe": 4855,
  "\u2581Version": 4856,
  "\u2581anxious": 4857,
  "\u2581decades": 4858,
  "\u2581exert": 4859,
  "\u2581growing": 4860,
  "\u2581heads": 4861,
  "\u2581indvudvuto": 4862,
  "\u2581joyful": 4863,
  "\u2581kuSimakadze": 4864,
  "\u2581kulendzawo": 4865,
  "\u2581kulomsebenti": 4866,
  "\u2581kunikela": 4867,
  "\u2581kushintja": 4868,
  "\u2581lenyenti": 4869,
  "\u2581likhaya": 4870,
  "\u2581lokwashiwo": 4871,
  "\u2581main": 4872,
  "\u2581nginga": 4873,
  "\u2581ngulabo": 4874,
  "\u2581probabl": 4875,
  "\u2581provision": 4876,
  "\u2581provisions": 4877,
  "\u2581saka": 4878,
  "Le": 4879,
  "Shu": 4880,
  "bonile": 4881,
  "isa": 4882,
  "jenga": 4883,
  "landzele": 4884,
  "naso": 4885,
  "ncenye": 4886,
  "ronomy": 4887,
  "sekele": 4888,
  "sikhombisa": 4889,
  "sikhutsata": 4890,
  "sondzelene": 4891,
  "titfoba": 4892,
  "yati": 4893,
  "yinhloko": 4894,
  "\u2581\"!": 4895,
  "\u2581Canada": 4896,
  "\u2581Eti": 4897,
  "\u2581Filiphi": 4898,
  "\u2581Herod": 4899,
  "\u2581Imibuto": 4900,
  "\u2581Kungaba": 4901,
  "\u2581LE": 4902,
  "\u2581angaba": 4903,
  "\u2581behavior": 4904,
  "\u2581communicate": 4905,
  "\u2581dwelling": 4906,
  "\u2581egameni": 4907,
  "\u2581formed": 4908,
  "\u2581glorify": 4909,
  "\u2581grasp": 4910,
  "\u2581heal": 4911,
  "\u2581hukumu": 4912,
  "\u2581ingati": 4913,
  "\u2581kuishi": 4914,
  "\u2581kuliciniso": 4915,
  "\u2581kushada": 4916,
  "\u2581lotawu": 4917,
  "\u2581makuhani": 4918,
  "\u2581particular": 4919,
  "\u2581reign": 4920,
  "\u2581relative": 4921,
  "\u2581repentance": 4922,
  "\u2581requires": 4923,
  "\u2581responded": 4924,
  "\u2581sale": 4925,
  "\u2581sikhulume": 4926,
  "\u2581sikhutsato": 4927,
  "\u2581theocratic": 4928,
  "\u2581travel": 4929,
  "\u2581trusted": 4930,
  "\u2581waters": 4931,
  "\u2581watumishi": 4932,
  "2)": 4933,
  "For": 4934,
  "baki": 4935,
  "banika": 4936,
  "disfellowshipped": 4937,
  "drew": 4938,
  "esitfombe": 4939,
  "furahi": 4940,
  "great": 4941,
  "hleti": 4942,
  "lela": 4943,
  "mtfombo": 4944,
  "ngamlingisa": 4945,
  "panda": 4946,
  "pokea": 4947,
  "sente": 4948,
  "shintja": 4949,
  "sipho": 4950,
  "sisebenti": 4951,
  "sondzelana": 4952,
  "swa": 4953,
  "tibekele": 4954,
  "z": 4955,
  "\u2581Enoki": 4956,
  "\u2581Ex": 4957,
  "\u2581Leli": 4958,
  "\u2581Live": 4959,
  "\u2581Mafarisayo": 4960,
  "\u2581Name": 4961,
  "\u2581adjust": 4962,
  "\u2581difficulties": 4963,
  "\u2581ears": 4964,
  "\u2581emabandleni": 4965,
  "\u2581emadvodzana": 4966,
  "\u2581foundation": 4967,
  "\u2581impossible": 4968,
  "\u2581kufike": 4969,
  "\u2581kumaKhristu": 4970,
  "\u2581kwentiwe": 4971,
  "\u2581lakwenta": 4972,
  "\u2581leaving": 4973,
  "\u2581lesimatima": 4974,
  "\u2581ligunya": 4975,
  "\u2581lisitjela": 4976,
  "\u2581mountains": 4977,
  "\u2581nebumatima": 4978,
  "\u2581represented": 4979,
  "\u2581sanamu": 4980,
  "\u2581sijabule": 4981,
  "\u2581sikhashana": 4982,
  "\u2581siphrofetho": 4983,
  "\u2581win": 4984,
  "\u2581yayi": 4985,
  "babone": 4986,
  "cocela": 4987,
  "is": 4988,
  "lisebentisa": 4989,
  "nkha": 4990,
  "sinikete": 4991,
  "tia": 4992,
  "\u2581Abel": 4993,
  "\u2581Illustrate": 4994,
  "\u2581March": 4995,
  "\u2581Sisi": 4996,
  "\u2581TO": 4997,
  "\u2581Waka": 4998,
  "\u2581abuse": 4999,
  "\u2581assistance": 5000,
  "\u2581buy": 5001,
  "\u2581cross": 5002,
  "\u2581details": 5003,
  "\u2581etim": 5004,
  "\u2581glad": 5005,
  "\u2581god": 5006,
  "\u2581heshima": 5007,
  "\u2581ill": 5008,
  "\u2581imithandazo": 5009,
  "\u2581indicate": 5010,
  "\u2581involve": 5011,
  "\u2581kufundzisa": 5012,
  "\u2581kupata": 5013,
  "\u2581letehlukene": 5014,
  "\u2581likhasi": 5015,
  "\u2581lomncane": 5016,
  "\u2581mateso": 5017,
  "\u2581miguu": 5018,
  "\u2581moment": 5019,
  "\u2581ndiyo": 5020,
  "\u2581noted": 5021,
  "\u2581quoted": 5022,
  "\u2581reality": 5023,
  "\u2581sikhuluma": 5024,
  "\u2581tears": 5025,
  "\u2581yindvodza": 5026,
  "All": 5027,
  "dvumise": 5028,
  "khandza": 5029,
  "liciniso": 5030,
  "lilungiselelo": 5031,
  "mshukuru": 5032,
  "sisebentisa": 5033,
  "tama": 5034,
  "tfolwa": 5035,
  "tsandvwa": 5036,
  "vamile": 5037,
  "ver": 5038,
  "vimbela": 5039,
  "yakwati": 5040,
  "\u258154": 5041,
  "\u2581Emadvodza": 5042,
  "\u2581Europe": 5043,
  "\u2581France": 5044,
  "\u2581Help": 5045,
  "\u2581Jonathan": 5046,
  "\u2581Nalamuhla": 5047,
  "\u2581Phil": 5048,
  "\u2581Promised": 5049,
  "\u2581Scripture": 5050,
  "\u2581Thessalonians": 5051,
  "\u2581abone": 5052,
  "\u2581akisema": 5053,
  "\u2581asleep": 5054,
  "\u2581bacabange": 5055,
  "\u2581compared": 5056,
  "\u2581consideration": 5057,
  "\u2581dangerous": 5058,
  "\u2581hizo": 5059,
  "\u2581inside": 5060,
  "\u2581kamwe": 5061,
  "\u2581kuleyo": 5062,
  "\u2581lite": 5063,
  "\u2581masinyane": 5064,
  "\u2581missionaries": 5065,
  "\u2581mta": 5066,
  "\u2581presented": 5067,
  "\u2581publication": 5068,
  "\u2581scribes": 5069,
  "\u2581sisebentise": 5070,
  "\u2581stars": 5071,
  "\u2581stick": 5072,
  "\u2581subjection": 5073,
  "\u2581superior": 5074,
  "\u2581unclean": 5075,
  "\u2581viewpoint": 5076,
  "\u2581wawe": 5077,
  "\u2581wekuba": 5078,
  "\u2581wesifundza": 5079,
  "\u2581yinye": 5080,
  "What": 5081,
  "citse": 5082,
  "endelea": 5083,
  "fananis": 5084,
  "hlanyela": 5085,
  "lamanye": 5086,
  "matasatasa": 5087,
  "mbona": 5088,
  "nikwe": 5089,
  "njenge": 5090,
  "pho": 5091,
  "tawufika": 5092,
  "\u258137.": 5093,
  "\u2581Come": 5094,
  "\u2581Draw": 5095,
  "\u2581Furthermore": 5096,
  "\u2581Gospel": 5097,
  "\u2581Kwesibili": 5098,
  "\u2581Lesetsembiso": 5099,
  "\u2581Levites": 5100,
  "\u2581Lokunye": 5101,
  "\u2581Mar": 5102,
  "\u2581Njengob": 5103,
  "\u2581Pictures": 5104,
  "\u2581Waba": 5105,
  "\u2581akhulume": 5106,
  "\u2581appears": 5107,
  "\u2581assemblies": 5108,
  "\u2581assurance": 5109,
  "\u2581bang": 5110,
  "\u2581benkholo": 5111,
  "\u2581ham": 5112,
  "\u2581handle": 5113,
  "\u2581hate": 5114,
  "\u2581hospitality": 5115,
  "\u2581huku": 5116,
  "\u2581kuja": 5117,
  "\u2581lembi": 5118,
  "\u2581lengcwele": 5119,
  "\u2581likhono": 5120,
  "\u2581lizinga": 5121,
  "\u2581nang": 5122,
  "\u2581ncono": 5123,
  "\u2581ngulabanye": 5124,
  "\u2581non": 5125,
  "\u2581nyingine": 5126,
  "\u2581seventh": 5127,
  "\u2581tase": 5128,
  "\u2581teenager": 5129,
  "\u2581tilwimi": 5130,
  "\u2581tingucuko": 5131,
  "\u2581wazi": 5132,
  "esibonel": 5133,
  "keni": 5134,
  "mbonga": 5135,
  "najua": 5136,
  "ngabi": 5137,
  "sendzaweni": 5138,
  "silingise": 5139,
  "tijabulisa": 5140,
  "wela": 5141,
  "\u258153": 5142,
  "\u2581Afrika": 5143,
  "\u2581Imphendvulo": 5144,
  "\u2581Israelite": 5145,
  "\u2581June": 5146,
  "\u2581achubeke": 5147,
  "\u2581baku": 5148,
  "\u2581clothing": 5149,
  "\u2581ebantfu": 5150,
  "\u2581ekutsi": 5151,
  "\u2581foolish": 5152,
  "\u2581generous": 5153,
  "\u2581grown": 5154,
  "\u2581im": 5155,
  "\u2581ita": 5156,
  "\u2581kumuntfu": 5157,
  "\u2581kusudi": 5158,
  "\u2581nati": 5159,
  "\u2581nayi": 5160,
  "\u2581nenjabulo": 5161,
  "\u2581obtain": 5162,
  "\u2581signs": 5163,
  "\u2581suggestions": 5164,
  "\u2581tax": 5165,
  "\u2581tayo": 5166,
  "\u2581temporary": 5167,
  "\u2581unbelieving": 5168,
  "\u2581wakwenta": 5169,
  "\u2581yalo": 5170,
  "bhubhisa": 5171,
  "imfundziso": 5172,
  "ion": 5173,
  "muva": 5174,
  "nesikhatsi": 5175,
  "ngekutitsandzela": 5176,
  "sati": 5177,
  "tsetselela": 5178,
  "\u2581NGA": 5179,
  "\u2581alcohol": 5180,
  "\u2581apart": 5181,
  "\u2581bobani": 5182,
  "\u2581bumatima": 5183,
  "\u2581comforted": 5184,
  "\u2581determination": 5185,
  "\u2581ebusuku": 5186,
  "\u2581etsembekile": 5187,
  "\u2581extreme": 5188,
  "\u2581fallen": 5189,
  "\u2581ideas": 5190,
  "\u2581kwato": 5191,
  "\u2581lamane": 5192,
  "\u2581lekwenta": 5193,
  "\u2581lencwadzi": 5194,
  "\u2581lesentiw": 5195,
  "\u2581letenteka": 5196,
  "\u2581loud": 5197,
  "\u2581military": 5198,
  "\u2581ngekukhululeka": 5199,
  "\u2581ngente": 5200,
  "\u2581repent": 5201,
  "\u2581sitawube": 5202,
  "\u2581sold": 5203,
  "\u2581surprise": 5204,
  "\u2581tilingo": 5205,
  "\u2581village": 5206,
  "\u2581yintfo": 5207,
  "Bwana": 5208,
  "bamba": 5209,
  "dle": 5210,
  "du": 5211,
  "lamalanga": 5212,
  "lelo": 5213,
  "ligugu": 5214,
  "ll": 5215,
  "ngakusita": 5216,
  "wemukela": 5217,
  "\u258121)": 5218,
  "\u258139.": 5219,
  "\u2581500": 5220,
  "\u2581Catholic": 5221,
  "\u2581Children": 5222,
  "\u2581Eksodusi": 5223,
  "\u2581Eric": 5224,
  "\u2581Esau": 5225,
  "\u2581Futsi": 5226,
  "\u2581Ligama": 5227,
  "\u2581Simoni": 5228,
  "\u2581Sovereign": 5229,
  "\u2581bekanga": 5230,
  "\u2581bohulumende": 5231,
  "\u2581business": 5232,
  "\u2581career": 5233,
  "\u2581chake": 5234,
  "\u2581donations": 5235,
  "\u2581em": 5236,
  "\u2581emtini": 5237,
  "\u2581forces": 5238,
  "\u2581hicho": 5239,
  "\u2581impressed": 5240,
  "\u2581instruction": 5241,
  "\u2581kulelo": 5242,
  "\u2581kulia": 5243,
  "\u2581kuneku": 5244,
  "\u2581lemikhulu": 5245,
  "\u2581lomfanekiso": 5246,
  "\u2581ministeri": 5247,
  "\u2581nanga": 5248,
  "\u2581ngephansi": 5249,
  "\u2581pattern": 5250,
  "\u2581pleasing": 5251,
  "\u2581refuse": 5252,
  "\u2581responsible": 5253,
  "\u2581saa": 5254,
  "\u2581shared": 5255,
  "\u2581silindzele": 5256,
  "\u2581talelive": 5257,
  "\u2581talo": 5258,
  "\u2581tandla": 5259,
  "\u2581ukhombisa": 5260,
  "\u2581writings": 5261,
  "How": 5262,
  "V": 5263,
  "ation": 5264,
  "balekela": 5265,
  "buke": 5266,
  "dvudvuta": 5267,
  "khulwini": 5268,
  "kulawula": 5269,
  "kunakekela": 5270,
  "kuveta": 5271,
  "lahla": 5272,
  "metamo": 5273,
  "msita": 5274,
  "nd": 5275,
  "netizatfu": 5276,
  "siphrofetho": 5277,
  "tumia": 5278,
  "wati": 5279,
  "\u2581Abela": 5280,
  "\u2581Akazange": 5281,
  "\u2581Bani": 5282,
  "\u2581Exodus": 5283,
  "\u2581Fil": 5284,
  "\u2581Kubalulekile": 5285,
  "\u2581Look": 5286,
  "\u2581Mount": 5287,
  "\u2581accord": 5288,
  "\u2581bakhona": 5289,
  "\u2581baphile": 5290,
  "\u2581chapters": 5291,
  "\u2581couples": 5292,
  "\u2581dealings": 5293,
  "\u2581describe": 5294,
  "\u2581developed": 5295,
  "\u2581devil": 5296,
  "\u2581ekukholweni": 5297,
  "\u2581glorious": 5298,
  "\u2581hau": 5299,
  "\u2581hiki": 5300,
  "\u2581kiasi": 5301,
  "\u2581kwemukela": 5302,
  "\u2581lebuhlungu": 5303,
  "\u2581letawu": 5304,
  "\u2581lugha": 5305,
  "\u2581nakabona": 5306,
  "\u2581placed": 5307,
  "\u2581poverty": 5308,
  "\u2581reached": 5309,
  "\u2581recall": 5310,
  "\u2581recognized": 5311,
  "\u2581shew": 5312,
  "\u2581songs": 5313,
  "\u2581touch": 5314,
  "\u2581uku": 5315,
  "\u2581ukwati": 5316,
  "\u2581vow": 5317,
  "\u2581wangi": 5318,
  "\u2581wear": 5319,
  "\u2581worshipped": 5320,
  "\u2581writing": 5321,
  ">": 5322,
  "acha": 5323,
  "butsakatsaka": 5324,
  "celwa": 5325,
  "day": 5326,
  "ili": 5327,
  "kubeketelela": 5328,
  "lingani": 5329,
  "mele": 5330,
  "mkhuba": 5331,
  "ngabata": 5332,
  "nguNkulunkulu": 5333,
  "nkhulumo": 5334,
  "phandle": 5335,
  "shu": 5336,
  "with": 5337,
  "\u2581Angi": 5338,
  "\u2581Both": 5339,
  "\u2581ImiBhalo": 5340,
  "\u2581Nao": 5341,
  "\u2581TV": 5342,
  "\u2581bakhuluma": 5343,
  "\u2581bakwati": 5344,
  "\u2581compare": 5345,
  "\u2581cover": 5346,
  "\u2581cup": 5347,
  "\u2581date": 5348,
  "\u2581elfu": 5349,
  "\u2581gather": 5350,
  "\u2581guided": 5351,
  "\u2581imfundvo": 5352,
  "\u2581influenced": 5353,
  "\u2581invisible": 5354,
  "\u2581labete": 5355,
  "\u2581lomuntfu": 5356,
  "\u2581mengi": 5357,
  "\u2581nenjongo": 5358,
  "\u2581netifiso": 5359,
  "\u2581nibe": 5360,
  "\u2581oil": 5361,
  "\u2581path": 5362,
  "\u2581peaceful": 5363,
  "\u2581peke": 5364,
  "\u2581region": 5365,
  "\u2581review": 5366,
  "\u2581satisfying": 5367,
  "\u2581secure": 5368,
  "\u2581tabernacle": 5369,
  "\u2581tender": 5370,
  "\u2581thine": 5371,
  "\u2581titawu": 5372,
  "\u2581waBoFakazi": 5373,
  "\u2581wars": 5374,
  "\u2581yekuhlala": 5375,
  "J": 5376,
  "ally": 5377,
  "hani": 5378,
  "khohlwa": 5379,
  "lihlahlandlela": 5380,
  "maviki": 5381,
  "misa": 5382,
  "pi": 5383,
  "sicinisekisa": 5384,
  "swe": 5385,
  "\u25812015": 5386,
  "\u2581Ecclesiast": 5387,
  "\u2581SUBJECT": 5388,
  "\u2581Yakobo": 5389,
  "\u2581appeal": 5390,
  "\u2581appearance": 5391,
  "\u2581beMbuso": 5392,
  "\u2581bodies": 5393,
  "\u2581bride": 5394,
  "\u2581connection": 5395,
  "\u2581dealing": 5396,
  "\u2581ended": 5397,
  "\u2581endured": 5398,
  "\u2581exist": 5399,
  "\u2581ingoti": 5400,
  "\u2581kanyenti": 5401,
  "\u2581kitabu": 5402,
  "\u2581kutijabulisa": 5403,
  "\u2581labatsatfu": 5404,
  "\u2581lelisetulu": 5405,
  "\u2581lesinalo": 5406,
  "\u2581lokuncono": 5407,
  "\u2581meat": 5408,
  "\u2581mere": 5409,
  "\u2581motivated": 5410,
  "\u2581mwanzo": 5411,
  "\u2581nam": 5412,
  "\u2581ngalabo": 5413,
  "\u2581ngalinye": 5414,
  "\u2581ngalokucondzile": 5415,
  "\u2581ngebucotfo": 5416,
  "\u2581ngulo": 5417,
  "\u2581nyote": 5418,
  "\u2581process": 5419,
  "\u2581reaching": 5420,
  "\u2581requirements": 5421,
  "\u2581secret": 5422,
  "\u2581seli": 5423,
  "\u2581social": 5424,
  "\u2581successfully": 5425,
  "\u2581tiphrofetho": 5426,
  "\u2581uka": 5427,
  "\u2581wondered": 5428,
  "\u2581yeliBhayibheli": 5429,
  "Look": 5430,
  "Ndvodzana": 5431,
  "Who": 5432,
  "beni": 5433,
  "iphrofetho": 5434,
  "khanya": 5435,
  "mkhonta": 5436,
  "nekuthula": 5437,
  "ngete": 5438,
  "sali": 5439,
  "sive": 5440,
  "tfuma": 5441,
  "ur": 5442,
  "\u2581Awake": 5443,
  "\u2581GOD": 5444,
  "\u2581Hekaluni": 5445,
  "\u2581Lenkhulu": 5446,
  "\u2581Nehemiah": 5447,
  "\u2581Ngeke": 5448,
  "\u2581Te": 5449,
  "\u2581abona": 5450,
  "\u2581abundance": 5451,
  "\u2581asisite": 5452,
  "\u2581awo": 5453,
  "\u2581broken": 5454,
  "\u2581court": 5455,
  "\u2581cry": 5456,
  "\u2581culture": 5457,
  "\u2581dangers": 5458,
  "\u2581discussion": 5459,
  "\u2581dress": 5460,
  "\u2581emalungelo": 5461,
  "\u2581emoyeni": 5462,
  "\u2581forgiven": 5463,
  "\u2581glorified": 5464,
  "\u2581granted": 5465,
  "\u2581higher": 5466,
  "\u2581indalo": 5467,
  "\u2581instructed": 5468,
  "\u2581kweliBhayibheli": 5469,
  "\u2581kwente": 5470,
  "\u2581leligama": 5471,
  "\u2581leseluleko": 5472,
  "\u2581neighbors": 5473,
  "\u2581ngetikhatsi": 5474,
  "\u2581pili": 5475,
  "\u2581preced": 5476,
  "\u2581recalls": 5477,
  "\u2581research": 5478,
  "\u2581river": 5479,
  "\u2581sekukhonta": 5480,
  "\u2581tinyanga": 5481,
  "\u2581turning": 5482,
  "\u2581umfundzi": 5483,
  "\u2581wind": 5484,
  "Bengi": 5485,
  "Vi": 5486,
  "cecesha": 5487,
  "cha": 5488,
  "cinisekisa": 5489,
  "jaribu": 5490,
  "mekwisha": 5491,
  "ngendlela": 5492,
  "sacala": 5493,
  "tawuphila": 5494,
  "tibuta": 5495,
  "wo": 5496,
  "yibona": 5497,
  "\u25812016": 5498,
  "\u258166": 5499,
  "\u258183": 5500,
  "\u2581Corinth": 5501,
  "\u2581Follow": 5502,
  "\u2581Has": 5503,
  "\u2581Lazarus": 5504,
  "\u2581Loyo": 5505,
  "\u2581Ngayo": 5506,
  "\u2581Recall": 5507,
  "\u2581Seku": 5508,
  "\u2581Shan": 5509,
  "\u2581Thesalonika": 5510,
  "\u2581Titfombe": 5511,
  "\u2581abilities": 5512,
  "\u2581advance": 5513,
  "\u2581alu": 5514,
  "\u2581asite": 5515,
  "\u2581assignments": 5516,
  "\u2581bahlala": 5517,
  "\u2581eBhabhulona": 5518,
  "\u2581exercis": 5519,
  "\u2581finish": 5520,
  "\u2581forms": 5521,
  "\u2581highlight": 5522,
  "\u2581highly": 5523,
  "\u2581increasing": 5524,
  "\u2581kisha": 5525,
  "\u2581kwaKhristu": 5526,
  "\u2581lelishumi": 5527,
  "\u2581lemndeni": 5528,
  "\u2581lenta": 5529,
  "\u2581limit": 5530,
  "\u2581major": 5531,
  "\u2581miaka": 5532,
  "\u2581modest": 5533,
  "\u2581nasema": 5534,
  "\u2581nem": 5535,
  "\u2581nemhlaba": 5536,
  "\u2581observed": 5537,
  "\u2581occasions": 5538,
  "\u2581performed": 5539,
  "\u2581poured": 5540,
  "\u2581regret": 5541,
  "\u2581repentant": 5542,
  "\u2581rewarded": 5543,
  "\u2581series": 5544,
  "\u2581serves": 5545,
  "\u2581seti": 5546,
  "\u2581silalele": 5547,
  "\u2581siti": 5548,
  "\u2581tume": 5549,
  "\u2581umcondvo": 5550,
  "\u2581umhlatjelo": 5551,
  "\u2581usiku": 5552,
  "\u2581uyasitsandza": 5553,
  "\u2581waKhristu": 5554,
  "\u2581walelive": 5555,
  "\u2581yaliyo": 5556,
  "\u2581yesiHebheru": 5557,
  "5": 5558,
  "Kholose": 5559,
  "Mtsetfo": 5560,
  "bekwe": 5561,
  "cedze": 5562,
  "emakhilomitha": 5563,
  "gibele": 5564,
  "hlele": 5565,
  "kula": 5566,
  "mbita": 5567,
  "vetwa": 5568,
  "\u25811914.": 5569,
  "\u25812009": 5570,
  "\u2581Lona": 5571,
  "\u2581Philip": 5572,
  "\u2581ahadi": 5573,
  "\u2581akamjibu": 5574,
  "\u2581atakaye": 5575,
  "\u2581baphila": 5576,
  "\u2581barua": 5577,
  "\u2581budlova": 5578,
  "\u2581calm": 5579,
  "\u2581clothes": 5580,
  "\u2581comforting": 5581,
  "\u2581content": 5582,
  "\u2581damage": 5583,
  "\u2581defend": 5584,
  "\u2581dhaifu": 5585,
  "\u2581directly": 5586,
  "\u2581emakhosi": 5587,
  "\u2581emalangeni": 5588,
  "\u2581establish": 5589,
  "\u2581goes": 5590,
  "\u2581hair": 5591,
  "\u2581heavy": 5592,
  "\u2581illness": 5593,
  "\u2581increased": 5594,
  "\u2581indvodzakati": 5595,
  "\u2581jiwe": 5596,
  "\u2581kwentiwa": 5597,
  "\u2581lena": 5598,
  "\u2581lensha": 5599,
  "\u2581lesasi": 5600,
  "\u2581letsembekile": 5601,
  "\u2581losemi": 5602,
  "\u2581mistake": 5603,
  "\u2581nabii": 5604,
  "\u2581ngumngani": 5605,
  "\u2581offers": 5606,
  "\u2581persecuted": 5607,
  "\u2581prejudice": 5608,
  "\u2581program": 5609,
  "\u2581quick": 5610,
  "\u2581rescue": 5611,
  "\u2581selivangeli": 5612,
  "\u2581significant": 5613,
  "\u2581straight": 5614,
  "\u2581thankful": 5615,
  "\u2581wafa": 5616,
  "\u2581website": 5617,
  "\u2581yema": 5618,
  "\u2581youths": 5619,
  "2": 5620,
  "beva": 5621,
  "for": 5622,
  "gidzigidzi": 5623,
  "hu": 5624,
  "keti": 5625,
  "khatsateka": 5626,
  "khulunywa": 5627,
  "kulungele": 5628,
  "kwentela": 5629,
  "shisa": 5630,
  "site": 5631,
  "siyo": 5632,
  "tambua": 5633,
  "\u2581144": 5634,
  "\u2581Dan": 5635,
  "\u2581Hu": 5636,
  "\u2581LEKUCALA": 5637,
  "\u2581Naam": 5638,
  "\u2581Notice": 5639,
  "\u2581Work": 5640,
  "\u2581abandon": 5641,
  "\u2581acabange": 5642,
  "\u2581aliwa": 5643,
  "\u2581causes": 5644,
  "\u2581constantly": 5645,
  "\u2581create": 5646,
  "\u2581dhahabu": 5647,
  "\u2581esifundvweni": 5648,
  "\u2581fulani": 5649,
  "\u2581goodness": 5650,
  "\u2581governing": 5651,
  "\u2581inhabited": 5652,
  "\u2581khashane": 5653,
  "\u2581kwelilanga": 5654,
  "\u2581list": 5655,
  "\u2581lokunjalo": 5656,
  "\u2581low": 5657,
  "\u2581mental": 5658,
  "\u2581nangekutsi": 5659,
  "\u2581ngami": 5660,
  "\u2581obtained": 5661,
  "\u2581preparing": 5662,
  "\u2581qualified": 5663,
  "\u2581reminded": 5664,
  "\u2581remove": 5665,
  "\u2581safi": 5666,
  "\u2581strangers": 5667,
  "\u2581umlandvo": 5668,
  "\u2581utawutfola": 5669,
  "\u2581voluntary": 5670,
  "\u2581weeds": 5671,
  "\u2581writer": 5672,
  "4": 5673,
  "LA": 5674,
  "babe": 5675,
  "chamuka": 5676,
  "fuata": 5677,
  "ligama": 5678,
  "mihlangano": 5679,
  "mshado": 5680,
  "ngekuwa": 5681,
  "ngitjela": 5682,
  "nhloko": 5683,
  "oni": 5684,
  "paid": 5685,
  "sandla": 5686,
  "tadisha": 5687,
  "tinika": 5688,
  "ty": 5689,
  "\u258121,": 5690,
  "\u258128,": 5691,
  "\u25813;": 5692,
  "\u258163": 5693,
  "\u2581Barnabas": 5694,
  "\u2581Christendom": 5695,
  "\u2581Christianity": 5696,
  "\u2581City": 5697,
  "\u2581Jak": 5698,
  "\u2581Kubafundzi": 5699,
  "\u2581Mara": 5700,
  "\u2581Nov": 5701,
  "\u2581Tuna": 5702,
  "\u2581Up": 5703,
  "\u2581acknowledge": 5704,
  "\u2581akili": 5705,
  "\u2581ato": 5706,
  "\u2581attempt": 5707,
  "\u2581aweza": 5708,
  "\u2581background": 5709,
  "\u2581bata": 5710,
  "\u2581beseba": 5711,
  "\u2581ecinisweni": 5712,
  "\u2581environment": 5713,
  "\u2581escape": 5714,
  "\u2581extend": 5715,
  "\u2581growth": 5716,
  "\u2581herself": 5717,
  "\u2581humbly": 5718,
  "\u2581huwa": 5719,
  "\u2581ina": 5720,
  "\u2581ishara": 5721,
  "\u2581kipaji": 5722,
  "\u2581lemibuto": 5723,
  "\u2581lengaba": 5724,
  "\u2581lesimo": 5725,
  "\u2581luphawu": 5726,
  "\u2581meditating": 5727,
  "\u2581nas": 5728,
  "\u2581nembeza": 5729,
  "\u2581ngangi": 5730,
  "\u2581ngephandle": 5731,
  "\u2581nina": 5732,
  "\u2581plan": 5733,
  "\u2581provid": 5734,
  "\u2581rules": 5735,
  "\u2581singing": 5736,
  "\u2581souls": 5737,
  "\u2581traveled": 5738,
  "\u2581ubona": 5739,
  "\u2581unguNkulunkulu": 5740,
  "Danyela": 5741,
  "Num": 5742,
  "There": 5743,
  "baholi": 5744,
  "divyo": 5745,
  "dzabukisa": 5746,
  "emalunga": 5747,
  "hlushwa": 5748,
  "khasini": 5749,
  "lilunga": 5750,
  "ncoba": 5751,
  "ngeva": 5752,
  "tinikele": 5753,
  "vuna": 5754,
  "yitfola": 5755,
  "\u02b9": 5756,
  "\u2581Aku": 5757,
  "\u2581IS": 5758,
  "\u2581JEHOVAH": 5759,
  "\u2581LESINGUMGOGODLA": 5760,
  "\u2581Mwanakondoo": 5761,
  "\u2581Nami": 5762,
  "\u2581Sati": 5763,
  "\u2581Study": 5764,
  "\u2581alisema": 5765,
  "\u2581arrangements": 5766,
  "\u2581baphristi": 5767,
  "\u2581choos": 5768,
  "\u2581eNkhosini": 5769,
  "\u2581exciting": 5770,
  "\u2581factors": 5771,
  "\u2581gradually": 5772,
  "\u2581indicates": 5773,
  "\u2581inner": 5774,
  "\u2581itawu": 5775,
  "\u2581kujua": 5776,
  "\u2581kungu": 5777,
  "\u2581kwemuntfu": 5778,
  "\u2581labanjalo": 5779,
  "\u2581letinsha": 5780,
  "\u2581leyentiwa": 5781,
  "\u2581lover": 5782,
  "\u2581merciful": 5783,
  "\u2581nekwenta": 5784,
  "\u2581ngesimo": 5785,
  "\u2581plans": 5786,
  "\u2581protected": 5787,
  "\u2581release": 5788,
  "\u2581remarkable": 5789,
  "\u2581sitsatse": 5790,
  "\u2581talents": 5791,
  "\u2581timfanelo": 5792,
  "\u2581tinkhulumo": 5793,
  "\u2581tipho": 5794,
  "\u2581twa": 5795,
  "6": 5796,
  "Dan": 5797,
  "bambisana": 5798,
  "bati": 5799,
  "eli": 5800,
  "fake": 5801,
  "hlonipha": 5802,
  "hlupheka": 5803,
  "landzeli": 5804,
  "phatamisa": 5805,
  "sebentela": 5806,
  "semsebentini": 5807,
  "sh": 5808,
  "tala": 5809,
  "tawube": 5810,
  "tive": 5811,
  "\u2581Colossians": 5812,
  "\u2581Daudi": 5813,
  "\u2581EBhayibhelini": 5814,
  "\u2581Hi": 5815,
  "\u2581Karen": 5816,
  "\u2581Simo": 5817,
  "\u2581Tikhronike": 5818,
  "\u2581WE": 5819,
  "\u2581Yenta": 5820,
  "\u2581abandoned": 5821,
  "\u2581admonition": 5822,
  "\u2581air": 5823,
  "\u2581ate": 5824,
  "\u2581attitudes": 5825,
  "\u2581authorities": 5826,
  "\u2581bamemeteli": 5827,
  "\u2581believing": 5828,
  "\u2581bontsanga": 5829,
  "\u2581cold": 5830,
  "\u2581disobedience": 5831,
  "\u2581eHholweni": 5832,
  "\u2581etiveni": 5833,
  "\u2581excellent": 5834,
  "\u2581exists": 5835,
  "\u2581firmly": 5836,
  "\u2581fornication": 5837,
  "\u2581hatu": 5838,
  "\u2581ika": 5839,
  "\u2581imitfwalo": 5840,
  "\u2581kwase": 5841,
  "\u2581kwetu": 5842,
  "\u2581lababa": 5843,
  "\u2581lembalwa": 5844,
  "\u2581lowetsembekile": 5845,
  "\u2581mwaminifu": 5846,
  "\u2581prophetic": 5847,
  "\u2581released": 5848,
  "\u2581spouse": 5849,
  "\u2581surprised": 5850,
  "\u2581taJesu": 5851,
  "\u2581tiba": 5852,
  "\u2581till": 5853,
  "\u2581tumaini": 5854,
  "\u2581umkhumbi": 5855,
  "\u2581wahamba": 5856,
  "Bantfu": 5857,
  "BoFakazi": 5858,
  "bute": 5859,
  "cu": 5860,
  "kholelwe": 5861,
  "kuta": 5862,
  "lahlekelwe": 5863,
  "lia": 5864,
  "ngephansi": 5865,
  "setjentiswe": 5866,
  "sikhumbuta": 5867,
  "simo": 5868,
  "stahili": 5869,
  "\u25811950": 5870,
  "\u2581Eks": 5871,
  "\u2581Esawu": 5872,
  "\u2581February": 5873,
  "\u2581Flood": 5874,
  "\u2581Friend": 5875,
  "\u2581Mi": 5876,
  "\u2581Nawe": 5877,
  "\u2581Ngul": 5878,
  "\u2581Other": 5879,
  "\u2581Out": 5880,
  "\u2581Pilato": 5881,
  "\u2581Surely": 5882,
  "\u2581UMbuso": 5883,
  "\u2581Ucabanga": 5884,
  "\u2581Umndeni": 5885,
  "\u2581adjustments": 5886,
  "\u2581appreciated": 5887,
  "\u2581approved": 5888,
  "\u2581arrang": 5889,
  "\u2581badzinga": 5890,
  "\u2581bakholelwa": 5891,
  "\u2581bekudzingek": 5892,
  "\u2581beneficial": 5893,
  "\u2581budlelwane": 5894,
  "\u2581dhabihu": 5895,
  "\u2581disease": 5896,
  "\u2581finished": 5897,
  "\u2581hulumende": 5898,
  "\u2581kukhanya": 5899,
  "\u2581kungevani": 5900,
  "\u2581kwao": 5901,
  "\u2581lamadvodza": 5902,
  "\u2581lelikushoko": 5903,
  "\u2581lom": 5904,
  "\u2581lonjalo": 5905,
  "\u2581lwakho": 5906,
  "\u2581mates": 5907,
  "\u2581mavazi": 5908,
  "\u2581mwema": 5909,
  "\u2581nabodzadzewetfu": 5910,
  "\u2581ngekwe": 5911,
  "\u2581portion": 5912,
  "\u2581purposes": 5913,
  "\u2581relations": 5914,
  "\u2581serpent": 5915,
  "\u2581sisite": 5916,
  "\u2581slavery": 5917,
  "\u2581timangaliso": 5918,
  "\u2581tinkhulungwane": 5919,
  "\u2581umculo": 5920,
  "\u2581umtfwalo": 5921,
  "\u2581wafundza": 5922,
  "\u2581wakasema": 5923,
  "\u2581yindlela": 5924,
  "\u2581yuko": 5925,
  "\u2581zawadi": 5926,
  "\u2581zile": 5927,
  "ani": 5928,
  "cabangisise": 5929,
  "el": 5930,
  "funi": 5931,
  "hitaji": 5932,
  "ity": 5933,
  "kutsi": 5934,
  "letsela": 5935,
  "lihhovisi": 5936,
  "lwele": 5937,
  "magama": 5938,
  "nemoya": 5939,
  "ngacabangi": 5940,
  "ngelwa": 5941,
  "ngoma": 5942,
  "ngumuntfu": 5943,
  "sedvute": 5944,
  "sen": 5945,
  "tela": 5946,
  "tsintseka": 5947,
  "vumelani": 5948,
  "\u2581103": 5949,
  "\u258142.": 5950,
  "\u2581Galilaya": 5951,
  "\u2581Grace": 5952,
  "\u2581Halls": 5953,
  "\u2581Ireland": 5954,
  "\u2581Libito": 5955,
  "\u2581Ruler": 5956,
  "\u2581Sipho": 5957,
  "\u2581Siyati": 5958,
  "\u2581Ungase": 5959,
  "\u2581Wali": 5960,
  "\u2581Web": 5961,
  "\u2581abesolo": 5962,
  "\u2581abhale": 5963,
  "\u2581altar": 5964,
  "\u2581asks": 5965,
  "\u2581avumele": 5966,
  "\u2581bashumayela": 5967,
  "\u2581bekungu": 5968,
  "\u2581bidii": 5969,
  "\u2581camp": 5970,
  "\u2581caught": 5971,
  "\u2581conviction": 5972,
  "\u2581desired": 5973,
  "\u2581discovered": 5974,
  "\u2581drawing": 5975,
  "\u2581edition": 5976,
  "\u2581happens": 5977,
  "\u2581inherit": 5978,
  "\u2581intended": 5979,
  "\u2581kilicho": 5980,
  "\u2581kimoja": 5981,
  "\u2581kwetinyanga": 5982,
  "\u2581lelandzelako": 5983,
  "\u2581lobukhulu": 5984,
  "\u2581maskini": 5985,
  "\u2581mawe": 5986,
  "\u2581nafasi": 5987,
  "\u2581ngekwakamoya": 5988,
  "\u2581painful": 5989,
  "\u2581particularly": 5990,
  "\u2581partner": 5991,
  "\u2581reaction": 5992,
  "\u2581sabbath": 5993,
  "\u2581sad": 5994,
  "\u2581sayo": 5995,
  "\u2581shed": 5996,
  "\u2581sinkhwa": 5997,
  "\u2581sishumayele": 5998,
  "\u2581slow": 5999,
  "\u2581stake": 6000,
  "\u2581tebuKhristu": 6001,
  "\u2581trees": 6002,
  "\u2581unemandla": 6003,
  "\u2581useful": 6004,
  "\u2581wakisema": 6005,
  "\u2581wakitsi": 6006,
  "\u2581wedding": 6007,
  "\u2581yasema": 6008,
  "\u2581yeMbuso": 6009,
  "4:": 6010,
  "Li": 6011,
  "ROM": 6012,
  "TI": 6013,
  "Ti": 6014,
  "bakhonte": 6015,
  "batsandza": 6016,
  "bonakale": 6017,
  "eka": 6018,
  "hubiri": 6019,
  "kufa": 6020,
  "meni": 6021,
  "mphilo": 6022,
  "ngatiphi": 6023,
  "ngemuva": 6024,
  "tha": 6025,
  "tsatfu": 6026,
  "umkhuba": 6027,
  "veni": 6028,
  "zaa": 6029,
  "\u2581120": 6030,
  "\u258136.": 6031,
  "\u258140.": 6032,
  "\u2581Akusi": 6033,
  "\u2581Caesar": 6034,
  "\u2581Close": 6035,
  "\u2581Doing": 6036,
  "\u2581Hezekeli": 6037,
  "\u2581MAT": 6038,
  "\u2581Macedonia": 6039,
  "\u2581Peace": 6040,
  "\u2581Umfati": 6041,
  "\u2581Wale": 6042,
  "\u2581abundant": 6043,
  "\u2581agreed": 6044,
  "\u2581associates": 6045,
  "\u2581baadaye": 6046,
  "\u2581boldness": 6047,
  "\u2581bomakhelwane": 6048,
  "\u2581clay": 6049,
  "\u2581corruption": 6050,
  "\u2581de": 6051,
  "\u2581dream": 6052,
  "\u2581earnest": 6053,
  "\u2581ekucala": 6054,
  "\u2581entrust": 6055,
  "\u2581figurative": 6056,
  "\u2581global": 6057,
  "\u2581hakika": 6058,
  "\u2581holding": 6059,
  "\u2581hundreds": 6060,
  "\u2581inayo": 6061,
  "\u2581lakhetsekile": 6062,
  "\u2581lasiniketa": 6063,
  "\u2581latsite": 6064,
  "\u2581lesingakwenta": 6065,
  "\u2581leyayi": 6066,
  "\u2581lokufananako": 6067,
  "\u2581magazines": 6068,
  "\u2581makanisa": 6069,
  "\u2581miracle": 6070,
  "\u2581nemphilo": 6071,
  "\u2581netilingo": 6072,
  "\u2581ngemuntfu": 6073,
  "\u2581obeyed": 6074,
  "\u2581pre": 6075,
  "\u2581prize": 6076,
  "\u2581property": 6077,
  "\u2581quiet": 6078,
  "\u2581require": 6079,
  "\u2581restore": 6080,
  "\u2581rights": 6081,
  "\u2581rulers": 6082,
  "\u2581safe": 6083,
  "\u2581sanctified": 6084,
  "\u2581satsi": 6085,
  "\u2581secwayiso": 6086,
  "\u2581sibalekele": 6087,
  "\u2581sifungo": 6088,
  "\u2581sikhonta": 6089,
  "\u2581sitsandze": 6090,
  "\u2581sitting": 6091,
  "\u2581sustain": 6092,
  "\u2581synagogue": 6093,
  "\u2581tepolitiki": 6094,
  "\u2581tingcondvo": 6095,
  "\u2581writers": 6096,
  "\u25cf": 6097,
  "9": 6098,
  "Galathiya": 6099,
  "Photo": 6100,
  "bafundzisa": 6101,
  "kudla": 6102,
  "lisa": 6103,
  "luhlangotsi": 6104,
  "mnika": 6105,
  "mthantazo": 6106,
  "njalo": 6107,
  "ry": 6108,
  "shunyayelwa": 6109,
  "shwa": 6110,
  "tawutfola": 6111,
  "titfole": 6112,
  "will": 6113,
  "\u2581000.": 6114,
  "\u258125)": 6115,
  "\u2581Ana": 6116,
  "\u2581Arthur": 6117,
  "\u2581Ephesus": 6118,
  "\u2581Gospels": 6119,
  "\u2581HOW": 6120,
  "\u2581Hol": 6121,
  "\u2581LaNkulunkulu": 6122,
  "\u2581MATT": 6123,
  "\u2581Micah": 6124,
  "\u2581Pa": 6125,
  "\u2581Uyati": 6126,
  "\u2581Verily": 6127,
  "\u2581aitwa": 6128,
  "\u2581bebatawu": 6129,
  "\u2581bed": 6130,
  "\u2581besengi": 6131,
  "\u2581bobabili": 6132,
  "\u2581bonkulunkulu": 6133,
  "\u2581brotherhood": 6134,
  "\u2581confront": 6135,
  "\u2581distance": 6136,
  "\u2581emahlahlandlela": 6137,
  "\u2581enu": 6138,
  "\u2581error": 6139,
  "\u2581financial": 6140,
  "\u2581firstborn": 6141,
  "\u2581healthy": 6142,
  "\u2581illustrations": 6143,
  "\u2581inherited": 6144,
  "\u2581kabuhlungu": 6145,
  "\u2581kidunia": 6146,
  "\u2581kugula": 6147,
  "\u2581leshicilelw": 6148,
  "\u2581lesincane": 6149,
  "\u2581lesinjalo": 6150,
  "\u2581levamile": 6151,
  "\u2581leyenteka": 6152,
  "\u2581lovingly": 6153,
  "\u2581nakakhuluma": 6154,
  "\u2581nemkakhe": 6155,
  "\u2581netinceku": 6156,
  "\u2581ngekucophelela": 6157,
  "\u2581ngikhone": 6158,
  "\u2581potential": 6159,
  "\u2581reference": 6160,
  "\u2581replied": 6161,
  "\u2581residents": 6162,
  "\u2581resulted": 6163,
  "\u2581sekuhlupheka": 6164,
  "\u2581sekuphila": 6165,
  "\u2581singakhona": 6166,
  "\u2581sinye": 6167,
  "\u2581song": 6168,
  "\u2581strengthening": 6169,
  "\u2581tinkholo": 6170,
  "\u2581tribes": 6171,
  "\u2581wabuta": 6172,
  "\u2581wakiwa": 6173,
  "\u2581waseRoma": 6174,
  "\u2581weaknesses": 6175,
  "\u2581wetsembisa": 6176,
  "\u2581wide": 6177,
  "akulokunye": 6178,
  "bhali": 6179,
  "holwa": 6180,
  "khashane": 6181,
  "langatelela": 6182,
  "lingise": 6183,
  "luphi": 6184,
  "minyaka": 6185,
  "mlalela": 6186,
  "mpa": 6187,
  "nesifo": 6188,
  "ns": 6189,
  "rs": 6190,
  "sitsandza": 6191,
  "tfutsele": 6192,
  "thrown": 6193,
  "tikhatsi": 6194,
  "x": 6195,
  "yajabulisa": 6196,
  "\u25812008": 6197,
  "\u258145.": 6198,
  "\u258190": 6199,
  "\u2581BE": 6200,
  "\u2581Galatians": 6201,
  "\u2581Juda": 6202,
  "\u2581Nani": 6203,
  "\u2581Ngaso": 6204,
  "\u2581Ngembikweku": 6205,
  "\u2581Sea": 6206,
  "\u2581TI": 6207,
  "\u2581approached": 6208,
  "\u2581atsatse": 6209,
  "\u2581bahamba": 6210,
  "\u2581bangaba": 6211,
  "\u2581bangi": 6212,
  "\u2581bashumayele": 6213,
  "\u2581bayi": 6214,
  "\u2581burn": 6215,
  "\u2581cared": 6216,
  "\u2581citizens": 6217,
  "\u2581compassionate": 6218,
  "\u2581eV": 6219,
  "\u2581emakholwa": 6220,
  "\u2581etincwadzini": 6221,
  "\u2581expects": 6222,
  "\u2581finding": 6223,
  "\u2581householder": 6224,
  "\u2581imara": 6225,
  "\u2581international": 6226,
  "\u2581kujabulisa": 6227,
  "\u2581lali": 6228,
  "\u2581lemelula": 6229,
  "\u2581letenta": 6230,
  "\u2581lolungile": 6231,
  "\u2581lweliciniso": 6232,
  "\u2581meaningful": 6233,
  "\u2581mildness": 6234,
  "\u2581mke": 6235,
  "\u2581nelibandla": 6236,
  "\u2581nemaKhristu": 6237,
  "\u2581ngekukholwa": 6238,
  "\u2581ngenjongo": 6239,
  "\u2581ninga": 6240,
  "\u2581official": 6241,
  "\u2581produced": 6242,
  "\u2581repeatedly": 6243,
  "\u2581represents": 6244,
  "\u2581silver": 6245,
  "\u2581stones": 6246,
  "\u2581stress": 6247,
  "\u2581suddenly": 6248,
  "\u2581surround": 6249,
  "\u2581temhlaba": 6250,
  "\u2581troubled": 6251,
  "\u2581watchful": 6252,
  "\u2581wealth": 6253,
  "\u2581wecwayisa": 6254,
  "\u2581weigh": 6255,
  "\u2581worry": 6256,
  "KHONA": 6257,
  "Sa": 6258,
  "bonise": 6259,
  "dzi": 6260,
  "gijima": 6261,
  "gu": 6262,
  "jama": 6263,
  "kuwa": 6264,
  "letfwa": 6265,
  "mhlatjelo": 6266,
  "mngani": 6267,
  "not": 6268,
  "taba": 6269,
  "tangaza": 6270,
  "titsa": 6271,
  "wekwa": 6272,
  "yitsandza": 6273,
  "\u258124,": 6274,
  "\u2581Again": 6275,
  "\u2581Blessed": 6276,
  "\u2581Blu": 6277,
  "\u2581Brooklyn": 6278,
  "\u2581Elders": 6279,
  "\u2581Hannah": 6280,
  "\u2581Intfo": 6281,
  "\u2581Jas": 6282,
  "\u2581Lelive": 6283,
  "\u2581Michael": 6284,
  "\u2581Neither": 6285,
  "\u2581Never": 6286,
  "\u2581abengeke": 6287,
  "\u2581afterward": 6288,
  "\u2581bemanga": 6289,
  "\u2581circumcision": 6290,
  "\u2581conflict": 6291,
  "\u2581cost": 6292,
  "\u2581disaster": 6293,
  "\u2581effects": 6294,
  "\u2581ekwenta": 6295,
  "\u2581gathering": 6296,
  "\u2581inchazelo": 6297,
  "\u2581iwe": 6298,
  "\u2581kadhalika": 6299,
  "\u2581kutu": 6300,
  "\u2581labakhuluma": 6301,
  "\u2581labaphila": 6302,
  "\u2581lamasha": 6303,
  "\u2581lesipho": 6304,
  "\u2581lidolobha": 6305,
  "\u2581lipharadisi": 6306,
  "\u2581mli": 6307,
  "\u2581mno": 6308,
  "\u2581mwake": 6309,
  "\u2581ngalabanye": 6310,
  "\u2581ngekulunga": 6311,
  "\u2581olive": 6312,
  "\u2581pointed": 6313,
  "\u2581qualify": 6314,
  "\u2581relate": 6315,
  "\u2581reports": 6316,
  "\u2581sentence": 6317,
  "\u2581sitawufundza": 6318,
  "\u2581society": 6319,
  "\u2581talks": 6320,
  "\u2581throw": 6321,
  "\u2581tilwane": 6322,
  "\u2581visits": 6323,
  "\u2581wekutiphilisa": 6324,
  "\u2581weva": 6325,
  "\u2581yekuba": 6326,
  "\u2581yelive": 6327,
  "\u2581yoke": 6328,
  "Jeremiya": 6329,
  "Mine": 6330,
  "bazalwane": 6331,
  "bhe": 6332,
  "elwa": 6333,
  "esifundvo": 6334,
  "gubha": 6335,
  "hlolisise": 6336,
  "khulumisana": 6337,
  "kuva": 6338,
  "ncoma": 6339,
  "netintfo": 6340,
  "ngakanani": 6341,
  "ngifundzisa": 6342,
  "ny": 6343,
  "rb": 6344,
  "shuka": 6345,
  "sibona": 6346,
  "sicitsa": 6347,
  "tibonelo": 6348,
  "tinkholelo": 6349,
  "yakujabulela": 6350,
  "yinceku": 6351,
  "\u00b7": 6352,
  "\u2581200": 6353,
  "\u258161": 6354,
  "\u2581BANTFU": 6355,
  "\u2581George": 6356,
  "\u2581LETIFUNDVWAKO": 6357,
  "\u2581Rutherford": 6358,
  "\u2581Tincwadzi": 6359,
  "\u2581Wetfu": 6360,
  "\u2581Yuda": 6361,
  "\u2581attendance": 6362,
  "\u2581bakhombisa": 6363,
  "\u2581bekune": 6364,
  "\u2581bomnakabo": 6365,
  "\u2581cooperate": 6366,
  "\u2581copies": 6367,
  "\u2581cruel": 6368,
  "\u2581dhamiri": 6369,
  "\u2581emi": 6370,
  "\u2581feed": 6371,
  "\u2581fit": 6372,
  "\u2581fitting": 6373,
  "\u2581habits": 6374,
  "\u2581inclined": 6375,
  "\u2581kungakafaneli": 6376,
  "\u2581kuyekela": 6377,
  "\u2581latfolakala": 6378,
  "\u2581lelivamile": 6379,
  "\u2581lendlela": 6380,
  "\u2581levela": 6381,
  "\u2581marvelous": 6382,
  "\u2581mchana": 6383,
  "\u2581mfalme": 6384,
  "\u2581mki": 6385,
  "\u2581nekulunga": 6386,
  "\u2581ngakamoya": 6387,
  "\u2581ngitawu": 6388,
  "\u2581phone": 6389,
  "\u2581quit": 6390,
  "\u2581remaining": 6391,
  "\u2581reserved": 6392,
  "\u2581resources": 6393,
  "\u2581ruin": 6394,
  "\u2581sebukhosi": 6395,
  "\u2581sell": 6396,
  "\u2581ufundza": 6397,
  "\u2581ungaba": 6398,
  "\u2581waumini": 6399,
  "\u2581welcome": 6400,
  "\u2581wemhlaba": 6401,
  "\u2581yasemavyo": 6402,
  "\u2581yedvwa": 6403,
  "\u2581yemhlaba": 6404,
  "8": 6405,
  "Be": 6406,
  "batjela": 6407,
  "bebete": 6408,
  "cabangela": 6409,
  "chutjw": 6410,
  "esifiso": 6411,
  "hambisa": 6412,
  "hlelwe": 6413,
  "lifanya": 6414,
  "lindzela": 6415,
  "phumela": 6416,
  "semihlanganweni": 6417,
  "shicilelwa": 6418,
  "sitfola": 6419,
  "vakala": 6420,
  "zuze": 6421,
  "\u2581Charles": 6422,
  "\u2581Chubeka": 6423,
  "\u2581Japan": 6424,
  "\u2581KuNkulunkulu": 6425,
  "\u2581Kwati": 6426,
  "\u2581Ministry": 6427,
  "\u2581Nawufun": 6428,
  "\u2581Nazareth": 6429,
  "\u2581Person": 6430,
  "\u2581Whom": 6431,
  "\u2581aPawula": 6432,
  "\u2581agcine": 6433,
  "\u2581attacks": 6434,
  "\u2581babonisi": 6435,
  "\u2581bavam": 6436,
  "\u2581bus": 6437,
  "\u2581computer": 6438,
  "\u2581critical": 6439,
  "\u2581custom": 6440,
  "\u2581eMbusweni": 6441,
  "\u2581ekupheleni": 6442,
  "\u2581ekutsen": 6443,
  "\u2581encourages": 6444,
  "\u2581faithfulness": 6445,
  "\u2581flee": 6446,
  "\u2581grave": 6447,
  "\u2581hatred": 6448,
  "\u2581houses": 6449,
  "\u2581imperfection": 6450,
  "\u2581inhloko": 6451,
  "\u2581isipoku": 6452,
  "\u2581kuBabe": 6453,
  "\u2581kucindzeteleka": 6454,
  "\u2581kulandzela": 6455,
  "\u2581lati": 6456,
  "\u2581lelinye": 6457,
  "\u2581literal": 6458,
  "\u2581lokubanti": 6459,
  "\u2581methods": 6460,
  "\u2581mkate": 6461,
  "\u2581naJohane": 6462,
  "\u2581nesono": 6463,
  "\u2581ngeminyaka": 6464,
  "\u2581ngemuti": 6465,
  "\u2581ngin": 6466,
  "\u2581noticed": 6467,
  "\u2581ran": 6468,
  "\u2581reasoning": 6469,
  "\u2581referring": 6470,
  "\u2581semoya": 6471,
  "\u2581sencwadzi": 6472,
  "\u2581shine": 6473,
  "\u2581sorrow": 6474,
  "\u2581store": 6475,
  "\u2581struck": 6476,
  "\u2581thereafter": 6477,
  "\u2581thinks": 6478,
  "\u2581tiyawu": 6479,
  "\u2581umphefumulo": 6480,
  "\u2581wacabanga": 6481,
  "\u2581wekufundzisa": 6482,
  "\u2581whatsoever": 6483,
  "\u2581wipe": 6484,
  "\u2581wrongdoing": 6485,
  "As": 6486,
  "Ngako": 6487,
  "butwa": 6488,
  "eliPhentekhoste": 6489,
  "inyenti": 6490,
  "keep": 6491,
  "khulela": 6492,
  "lengu": 6493,
  "lichaza": 6494,
  "livi": 6495,
  "man": 6496,
  "mfati": 6497,
  "nesizatfu": 6498,
  "ngwa": 6499,
  "nome": 6500,
  "sachubeka": 6501,
  "siwe": 6502,
  "tfukutsela": 6503,
  "tisola": 6504,
  "twa": 6505,
  "\u258197": 6506,
  "\u2581Austria": 6507,
  "\u2581Batsi": 6508,
  "\u2581Hekalu": 6509,
  "\u2581Jan": 6510,
  "\u2581Jon": 6511,
  "\u2581Khol": 6512,
  "\u2581LO": 6513,
  "\u2581Lot": 6514,
  "\u2581Ndiyo": 6515,
  "\u2581Ngaleyo": 6516,
  "\u2581References": 6517,
  "\u2581Tu": 6518,
  "\u2581accepting": 6519,
  "\u2581add": 6520,
  "\u2581alert": 6521,
  "\u2581atewu": 6522,
  "\u2581awali": 6523,
  "\u2581brief": 6524,
  "\u2581condemned": 6525,
  "\u2581d": 6526,
  "\u2581depend": 6527,
  "\u2581disappointed": 6528,
  "\u2581en": 6529,
  "\u2581feast": 6530,
  "\u2581gained": 6531,
  "\u2581justified": 6532,
  "\u2581kingdoms": 6533,
  "\u2581kuzi": 6534,
  "\u2581labatawu": 6535,
  "\u2581lelilandzelako": 6536,
  "\u2581lemangalisako": 6537,
  "\u2581lesitawu": 6538,
  "\u2581letati": 6539,
  "\u2581letisihlanu": 6540,
  "\u2581letitawu": 6541,
  "\u2581leyabangel": 6542,
  "\u2581listeners": 6543,
  "\u2581lokwenta": 6544,
  "\u2581lomzalwane": 6545,
  "\u2581mia": 6546,
  "\u2581naBoFakazi": 6547,
  "\u2581nali": 6548,
  "\u2581netincwadzi": 6549,
  "\u2581outcome": 6550,
  "\u2581perish": 6551,
  "\u2581persons": 6552,
  "\u2581preserve": 6553,
  "\u2581priesthood": 6554,
  "\u2581royal": 6555,
  "\u2581sekufundza": 6556,
  "\u2581sesibili": 6557,
  "\u2581severe": 6558,
  "\u2581sheria": 6559,
  "\u2581sibona": 6560,
  "\u2581siyamtsandza": 6561,
  "\u2581siyo": 6562,
  "\u2581tendency": 6563,
  "\u2581tuka": 6564,
  "\u2581uovu": 6565,
  "\u2581waphendvula": 6566,
  "\u2581won": 6567,
  "\u2581yekubusa": 6568,
  "\u2581yingoti": 6569,
  "\u2581yoyote": 6570,
  "Ngob": 6571,
  "bika": 6572,
  "buhlungu": 6573,
  "cashunw": 6574,
  "dukisa": 6575,
  "dvu": 6576,
  "emhlaba": 6577,
  "etibonelo": 6578,
  "gi": 6579,
  "jaa": 6580,
  "kahle": 6581,
  "kele": 6582,
  "khulu": 6583,
  "kufeza": 6584,
  "litsandza": 6585,
  "lutsandvo": 6586,
  "mfundziso": 6587,
  "mindeni": 6588,
  "muntfu": 6589,
  "nato": 6590,
  "ndvodzana": 6591,
  "ngabe": 6592,
  "ngijabulisa": 6593,
  "our": 6594,
  "pita": 6595,
  "satfola": 6596,
  "shayela": 6597,
  "sihlokw": 6598,
  "umaphi": 6599,
  "\u2581Committee": 6600,
  "\u2581DO": 6601,
  "\u2581Kufa": 6602,
  "\u2581Kwaku": 6603,
  "\u2581Mwenye": 6604,
  "\u2581Naba": 6605,
  "\u2581UMLANDVO": 6606,
  "\u2581UmKhristu": 6607,
  "\u2581Vi": 6608,
  "\u2581Yetama": 6609,
  "\u2581Yonkhe": 6610,
  "\u2581admit": 6611,
  "\u2581afune": 6612,
  "\u2581akuzange": 6613,
  "\u2581amazing": 6614,
  "\u2581belongs": 6615,
  "\u2581charge": 6616,
  "\u2581covered": 6617,
  "\u2581deceive": 6618,
  "\u2581donation": 6619,
  "\u2581ehhovisini": 6620,
  "\u2581expand": 6621,
  "\u2581facing": 6622,
  "\u2581foot": 6623,
  "\u2581garment": 6624,
  "\u2581goats": 6625,
  "\u2581imibuso": 6626,
  "\u2581kiroho": 6627,
  "\u2581kuingia": 6628,
  "\u2581kulabadzala": 6629,
  "\u2581kuncono": 6630,
  "\u2581kungakusita": 6631,
  "\u2581leads": 6632,
  "\u2581lelise": 6633,
  "\u2581letisikhombisa": 6634,
  "\u2581loba": 6635,
  "\u2581lying": 6636,
  "\u2581medical": 6637,
  "\u2581mid": 6638,
  "\u2581mwadilifu": 6639,
  "\u2581mwao": 6640,
  "\u2581naphakadze": 6641,
  "\u2581ngawe": 6642,
  "\u2581ngendzaba": 6643,
  "\u2581ngiye": 6644,
  "\u2581njengemuntfu": 6645,
  "\u2581numerous": 6646,
  "\u2581plant": 6647,
  "\u2581sifo": 6648,
  "\u2581siyi": 6649,
  "\u2581teluleko": 6650,
  "\u2581terrible": 6651,
  "\u2581victory": 6652,
  "\u2581wanawake": 6653,
  "\u2581wapi": 6654,
  "\u2581warnings": 6655,
  "Johane": 6656,
  "fakaza": 6657,
  "fakwa": 6658,
  "hambe": 6659,
  "khohlwe": 6660,
  "kubhujiswa": 6661,
  "kusite": 6662,
  "lapha": 6663,
  "lawule": 6664,
  "mnyaka": 6665,
  "mtsetfo": 6666,
  "ndlu": 6667,
  "neni": 6668,
  "nkinga": 6669,
  "sababisha": 6670,
  "sezulwini": 6671,
  "tsandzana": 6672,
  "wasita": 6673,
  "wekea": 6674,
  "\u2581133": 6675,
  "\u258186": 6676,
  "\u2581Aba": 6677,
  "\u2581Brazil": 6678,
  "\u2581Col": 6679,
  "\u2581Levela": 6680,
  "\u2581Man": 6681,
  "\u2581Ngaku": 6682,
  "\u2581Ngangi": 6683,
  "\u2581Shetani": 6684,
  "\u2581Shu": 6685,
  "\u2581akawajibu": 6686,
  "\u2581anaweza": 6687,
  "\u2581balanced": 6688,
  "\u2581bewa": 6689,
  "\u2581burden": 6690,
  "\u2581burned": 6691,
  "\u2581bwana": 6692,
  "\u2581commission": 6693,
  "\u2581concluded": 6694,
  "\u2581deny": 6695,
  "\u2581ear": 6696,
  "\u2581eliminate": 6697,
  "\u2581emahlandla": 6698,
  "\u2581emalungiselelo": 6699,
  "\u2581emasiko": 6700,
  "\u2581hated": 6701,
  "\u2581hidden": 6702,
  "\u2581kinds": 6703,
  "\u2581kumelula": 6704,
  "\u2581kungabi": 6705,
  "\u2581kutsiwani": 6706,
  "\u2581kwale": 6707,
  "\u2581layo": 6708,
  "\u2581lemphi": 6709,
  "\u2581lesinato": 6710,
  "\u2581leyengcile": 6711,
  "\u2581mabaya": 6712,
  "\u2581ministers": 6713,
  "\u2581mkubwa": 6714,
  "\u2581motives": 6715,
  "\u2581msingi": 6716,
  "\u2581nekwe": 6717,
  "\u2581nemali": 6718,
  "\u2581nendvodzana": 6719,
  "\u2581ngemalanga": 6720,
  "\u2581ngilo": 6721,
  "\u2581passing": 6722,
  "\u2581reported": 6723,
  "\u2581restored": 6724,
  "\u2581ruled": 6725,
  "\u2581safari": 6726,
  "\u2581schedule": 6727,
  "\u2581sicelo": 6728,
  "\u2581simemo": 6729,
  "\u2581smoke": 6730,
  "\u2581spending": 6731,
  "\u2581street": 6732,
  "\u2581stumbling": 6733,
  "\u2581symbolic": 6734,
  "\u2581talked": 6735,
  "\u2581union": 6736,
  "\u2581uvumilivu": 6737,
  "\u2581uwa": 6738,
  "\u2581vast": 6739,
  "\u2581verily": 6740,
  "ING": 6741,
  "Njengobe": 6742,
  "YA": 6743,
  "amua": 6744,
  "chumana": 6745,
  "etidzingo": 6746,
  "hl": 6747,
  "izatfu": 6748,
  "khi": 6749,
  "kutsintsa": 6750,
  "ncane": 6751,
  "ngakabaluleki": 6752,
  "ngatibuta": 6753,
  "ngcwele": 6754,
  "ngibona": 6755,
  "nt": 6756,
  "nti": 6757,
  "other": 6758,
  "sitselo": 6759,
  "sola": 6760,
  "tente": 6761,
  "uhlobo": 6762,
  "wutsandza": 6763,
  "\u2581Anna": 6764,
  "\u2581Asiriya": 6765,
  "\u2581Britain": 6766,
  "\u2581EMAKHASI": 6767,
  "\u2581Emhlabeni": 6768,
  "\u2581Hakuna": 6769,
  "\u2581Jude": 6770,
  "\u2581Kanye": 6771,
  "\u2581Lazaro": 6772,
  "\u2581Mexico": 6773,
  "\u2581OUR": 6774,
  "\u2581Sabato": 6775,
  "\u2581Sekuphel": 6776,
  "\u2581Septuagint": 6777,
  "\u2581Sisera": 6778,
  "\u2581Stephen": 6779,
  "\u2581Try": 6780,
  "\u2581Wonkhe": 6781,
  "\u2581aibu": 6782,
  "\u2581akamwuliza": 6783,
  "\u2581ani": 6784,
  "\u2581animal": 6785,
  "\u2581asema": 6786,
  "\u2581audience": 6787,
  "\u2581ayente": 6788,
  "\u2581belief": 6789,
  "\u2581betsembekile": 6790,
  "\u2581construction": 6791,
  "\u2581depart": 6792,
  "\u2581employment": 6793,
  "\u2581enduring": 6794,
  "\u2581fearing": 6795,
  "\u2581fourth": 6796,
  "\u2581gentle": 6797,
  "\u2581guilty": 6798,
  "\u2581hates": 6799,
  "\u2581kusente": 6800,
  "\u2581kusondzela": 6801,
  "\u2581lenkinga": 6802,
  "\u2581limitations": 6803,
  "\u2581lokuvela": 6804,
  "\u2581los": 6805,
  "\u2581lowawu": 6806,
  "\u2581matunda": 6807,
  "\u2581mbingu": 6808,
  "\u2581model": 6809,
  "\u2581modesty": 6810,
  "\u2581murder": 6811,
  "\u2581neNdvodzana": 6812,
  "\u2581nemi": 6813,
  "\u2581newe": 6814,
  "\u2581ngiyawu": 6815,
  "\u2581offended": 6816,
  "\u2581possess": 6817,
  "\u2581preserved": 6818,
  "\u2581reap": 6819,
  "\u2581render": 6820,
  "\u2581risk": 6821,
  "\u2581rock": 6822,
  "\u2581sifa": 6823,
  "\u2581siri": 6824,
  "\u2581supply": 6825,
  "\u2581tenta": 6826,
  "\u2581tinyembeti": 6827,
  "\u2581treasures": 6828,
  "\u2581treatment": 6829,
  "\u2581uchubeke": 6830,
  "\u2581usho": 6831,
  "\u2581wajabula": 6832,
  "\u2581warfare": 6833,
  "\u2581welive": 6834,
  "07": 6835,
  "1": 6836,
  "Kodvwa": 6837,
  "They": 6838,
  "baphatsa": 6839,
  "cinisela": 6840,
  "cocwa": 6841,
  "khetse": 6842,
  "kusita": 6843,
  "mhlangano": 6844,
  "nafanya": 6845,
  "namatsele": 6846,
  "ndzi": 6847,
  "ngisite": 6848,
  "nhloso": 6849,
  "nkholo": 6850,
  "rudi": 6851,
  "seminyak": 6852,
  "shintjiwe": 6853,
  "shumayeli": 6854,
  "tsele": 6855,
  "ua": 6856,
  "wapenda": 6857,
  "yicondza": 6858,
  "\u258127)": 6859,
  "\u258152": 6860,
  "\u2581Answer": 6861,
  "\u2581Fakazi": 6862,
  "\u2581German": 6863,
  "\u2581Herode": 6864,
  "\u2581Injongo": 6865,
  "\u2581Linda": 6866,
  "\u2581Longcwele": 6867,
  "\u2581Michelle": 6868,
  "\u2581Prayer": 6869,
  "\u2581Shortly": 6870,
  "\u2581WaNkulunkulu": 6871,
  "\u2581acquire": 6872,
  "\u2581across": 6873,
  "\u2581aid": 6874,
  "\u2581akhonta": 6875,
  "\u2581anake": 6876,
  "\u2581ane": 6877,
  "\u2581ashamed": 6878,
  "\u2581atawu": 6879,
  "\u2581ative": 6880,
  "\u2581bafune": 6881,
  "\u2581balance": 6882,
  "\u2581begins": 6883,
  "\u2581betive": 6884,
  "\u2581bought": 6885,
  "\u2581detail": 6886,
  "\u2581devoted": 6887,
  "\u2581familiar": 6888,
  "\u2581garments": 6889,
  "\u2581giza": 6890,
  "\u2581headquarters": 6891,
  "\u2581intalo": 6892,
  "\u2581isolated": 6893,
  "\u2581judges": 6894,
  "\u2581kabili": 6895,
  "\u2581kukhumbula": 6896,
  "\u2581kuleso": 6897,
  "\u2581kuse": 6898,
  "\u2581kutenta": 6899,
  "\u2581kuthantaza": 6900,
  "\u2581kwacac": 6901,
  "\u2581labasemhlabeni": 6902,
  "\u2581lesiGriki": 6903,
  "\u2581longumKhristu": 6904,
  "\u2581lukhuni": 6905,
  "\u2581minded": 6906,
  "\u2581naBabe": 6907,
  "\u2581naseti": 6908,
  "\u2581nekutiphatsa": 6909,
  "\u2581nemavi": 6910,
  "\u2581neutral": 6911,
  "\u2581newly": 6912,
  "\u2581ngayinye": 6913,
  "\u2581ngekwelicasi": 6914,
  "\u2581ngenta": 6915,
  "\u2581ngule": 6916,
  "\u2581pagan": 6917,
  "\u2581rejoicing": 6918,
  "\u2581religions": 6919,
  "\u2581removed": 6920,
  "\u2581sala": 6921,
  "\u2581satisfied": 6922,
  "\u2581scholars": 6923,
  "\u2581sickness": 6924,
  "\u2581sisho": 6925,
  "\u2581solid": 6926,
  "\u2581tired": 6927,
  "\u2581trusting": 6928,
  "\u2581umthantazo": 6929,
  "\u2581unrighteous": 6930,
  "\u2581urgency": 6931,
  "\u2581uyabatsandza": 6932,
  "\u2581vizuri": 6933,
  "\u2581waboFakazi": 6934,
  "\u2581wavuma": 6935,
  "\u2581wemshado": 6936,
  "\u2581zako": 6937,
  "KU": 6938,
  "Mimi": 6939,
  "Roma": 6940,
  "SO": 6941,
  "To": 6942,
  "afeze": 6943,
  "akhetse": 6944,
  "bala": 6945,
  "balekele": 6946,
  "calis": 6947,
  "endo": 6948,
  "fanye": 6949,
  "fela": 6950,
  "kumbuka": 6951,
  "kusibo": 6952,
  "kutana": 6953,
  "kwakha": 6954,
  "lani": 6955,
  "lawula": 6956,
  "lifundza": 6957,
  "lima": 6958,
  "lindza": 6959,
  "nayo": 6960,
  "nkhanuko": 6961,
  "phetfwe": 6962,
  "sabelo": 6963,
  "sakata": 6964,
  "ting": 6965,
  "tiphatse": 6966,
  "tsetse": 6967,
  "wutfola": 6968,
  "\u258156": 6969,
  "\u258191": 6970,
  "\u2581ARTICLES": 6971,
  "\u2581Dut": 6972,
  "\u2581Ho": 6973,
  "\u2581Ibilisi": 6974,
  "\u2581Khayini": 6975,
  "\u2581Ngu": 6976,
  "\u2581Pray": 6977,
  "\u2581SI": 6978,
  "\u2581Service": 6979,
  "\u2581Yena": 6980,
  "\u2581affairs": 6981,
  "\u2581akhona": 6982,
  "\u2581bani": 6983,
  "\u2581basebenta": 6984,
  "\u2581brochure": 6985,
  "\u2581broke": 6986,
  "\u2581deepen": 6987,
  "\u2581depth": 6988,
  "\u2581differences": 6989,
  "\u2581disobedient": 6990,
  "\u2581district": 6991,
  "\u2581eSikhumbutweni": 6992,
  "\u2581eagerly": 6993,
  "\u2581earnestly": 6994,
  "\u2581enjoying": 6995,
  "\u2581esontfweni": 6996,
  "\u2581fled": 6997,
  "\u2581grand": 6998,
  "\u2581greet": 6999,
  "\u2581hesitate": 7000,
  "\u2581huzuni": 7001,
  "\u2581innocent": 7002,
  "\u2581intfukutselo": 7003,
  "\u2581iron": 7004,
  "\u2581kondoo": 7005,
  "\u2581kuhlanganyela": 7006,
  "\u2581kulelidolobha": 7007,
  "\u2581kunywa": 7008,
  "\u2581kwemvelo": 7009,
  "\u2581lanalo": 7010,
  "\u2581leader": 7011,
  "\u2581lefaka": 7012,
  "\u2581leo": 7013,
  "\u2581lett": 7014,
  "\u2581lobusedvute": 7015,
  "\u2581lokudzingeka": 7016,
  "\u2581lomfati": 7017,
  "\u2581lord": 7018,
  "\u2581loyally": 7019,
  "\u2581marital": 7020,
  "\u2581mark": 7021,
  "\u2581mkhulu": 7022,
  "\u2581nekuhlakanipha": 7023,
  "\u2581ngca": 7024,
  "\u2581ngekusebentisa": 7025,
  "\u2581ngemali": 7026,
  "\u2581ngumsebenti": 7027,
  "\u2581oath": 7028,
  "\u2581permanent": 7029,
  "\u2581properly": 7030,
  "\u2581relationships": 7031,
  "\u2581shame": 7032,
  "\u2581shortly": 7033,
  "\u2581singati": 7034,
  "\u2581sitive": 7035,
  "\u2581taste": 7036,
  "\u2581tekutiphatsa": 7037,
  "\u2581temptations": 7038,
  "\u2581understands": 7039,
  "\u2581uti": 7040,
  "\u2581uwe": 7041,
  "\u2581virgins": 7042,
  "\u2581wetsembekile": 7043,
  "\u2581yekutitsandzela": 7044,
  "\u2581yield": 7045,
  "eNdvodzana": 7046,
  "ele": 7047,
  "elewa": 7048,
  "kadiri": 7049,
  "khulise": 7050,
  "kisa": 7051,
  "kufinyelela": 7052,
  "kwenteka": 7053,
  "lenta": 7054,
  "lula": 7055,
  "lungiselele": 7056,
  "netinkinga": 7057,
  "ngayi": 7058,
  "ngenis": 7059,
  "semhlabeni": 7060,
  "set": 7061,
  "sigaba": 7062,
  "sikhonti": 7063,
  "sivikela": 7064,
  "timba": 7065,
  "titfola": 7066,
  "vam": 7067,
  "vumele": 7068,
  "zaliwa": 7069,
  "\u2581144,000": 7070,
  "\u258129,": 7071,
  "\u2581Asesitsi": 7072,
  "\u2581Bethlehem": 7073,
  "\u2581Beyi": 7074,
  "\u2581Gideon": 7075,
  "\u2581II": 7076,
  "\u2581Jew": 7077,
  "\u2581Judea": 7078,
  "\u2581Nase": 7079,
  "\u2581Time": 7080,
  "\u2581Umlandvo": 7081,
  "\u2581acabanga": 7082,
  "\u2581acting": 7083,
  "\u2581answering": 7084,
  "\u2581baby": 7085,
  "\u2581baraka": 7086,
  "\u2581batawuba": 7087,
  "\u2581bayati": 7088,
  "\u2581captivity": 7089,
  "\u2581copy": 7090,
  "\u2581demonstrated": 7091,
  "\u2581emisebentini": 7092,
  "\u2581empower": 7093,
  "\u2581golden": 7094,
  "\u2581hoped": 7095,
  "\u2581huduma": 7096,
  "\u2581instruct": 7097,
  "\u2581kubhema": 7098,
  "\u2581kukhetsa": 7099,
  "\u2581kwema": 7100,
  "\u2581kwemalanga": 7101,
  "\u2581lako": 7102,
  "\u2581lenkhosi": 7103,
  "\u2581letibuhlungu": 7104,
  "\u2581lota": 7105,
  "\u2581mashua": 7106,
  "\u2581mild": 7107,
  "\u2581miss": 7108,
  "\u2581mourning": 7109,
  "\u2581mystery": 7110,
  "\u2581nalokubi": 7111,
  "\u2581nalokunye": 7112,
  "\u2581nanyalo": 7113,
  "\u2581nasishumayela": 7114,
  "\u2581ngakhona": 7115,
  "\u2581ngekhatsi": 7116,
  "\u2581pictures": 7117,
  "\u2581pleasant": 7118,
  "\u2581private": 7119,
  "\u2581promotes": 7120,
  "\u2581rain": 7121,
  "\u2581recently": 7122,
  "\u2581reminders": 7123,
  "\u2581sacrificing": 7124,
  "\u2581sebamemeteli": 7125,
  "\u2581sides": 7126,
  "\u2581silindzile": 7127,
  "\u2581sorry": 7128,
  "\u2581team": 7129,
  "\u2581tekutijabulisa": 7130,
  "\u2581tradition": 7131,
  "\u2581ulindzele": 7132,
  "\u2581umlilo": 7133,
  "\u2581upset": 7134,
  "\u2581usite": 7135,
  "\u2581wabhajatiswa": 7136,
  "\u2581wakamwambia": 7137,
  "\u2581wokovu": 7138,
  "Ph": 7139,
  "TRY": 7140,
  "bafundzi": 7141,
  "bele": 7142,
  "busisiwe": 7143,
  "dditional": 7144,
  "emacembu": 7145,
  "fihla": 7146,
  "good": 7147,
  "hlubuka": 7148,
  "ilanga": 7149,
  "khutsatwa": 7150,
  "kulindzele": 7151,
  "luhlelo": 7152,
  "mbangela": 7153,
  "mfula": 7154,
  "mjabulisa": 7155,
  "most": 7156,
  "nesimo": 7157,
  "ngilosi": 7158,
  "niketw": 7159,
  "nta": 7160,
  "ombe": 7161,
  "suye": 7162,
  "tfutfuka": 7163,
  "timiza": 7164,
  "tinhlelo": 7165,
  "tondza": 7166,
  "uary": 7167,
  "yisa": 7168,
  "\u25815.)": 7169,
  "\u2581Chron": 7170,
  "\u2581Malachi": 7171,
  "\u2581Nehemiya": 7172,
  "\u2581Sophia": 7173,
  "\u2581Thousand": 7174,
  "\u2581Umhlaba": 7175,
  "\u2581Usakhumbula": 7176,
  "\u2581Uta": 7177,
  "\u2581Zakhariya": 7178,
  "\u2581abati": 7179,
  "\u2581acale": 7180,
  "\u2581acknowledged": 7181,
  "\u2581adui": 7182,
  "\u2581ahambe": 7183,
  "\u2581armies": 7184,
  "\u2581asendvulo": 7185,
  "\u2581attain": 7186,
  "\u2581aveta": 7187,
  "\u2581ayekele": 7188,
  "\u2581babu": 7189,
  "\u2581bahari": 7190,
  "\u2581bakwente": 7191,
  "\u2581ban": 7192,
  "\u2581bative": 7193,
  "\u2581bomagazini": 7194,
  "\u2581campaign": 7195,
  "\u2581comforts": 7196,
  "\u2581continually": 7197,
  "\u2581distan": 7198,
  "\u2581ekuphila": 7199,
  "\u2581enkhol": 7200,
  "\u2581feared": 7201,
  "\u2581idols": 7202,
  "\u2581inhabitants": 7203,
  "\u2581kuletsa": 7204,
  "\u2581labambalwa": 7205,
  "\u2581lekhetsekile": 7206,
  "\u2581lion": 7207,
  "\u2581lolutsite": 7208,
  "\u2581lophansi": 7209,
  "\u2581lowatsi": 7210,
  "\u2581lowly": 7211,
  "\u2581maintaining": 7212,
  "\u2581mbegu": 7213,
  "\u2581mjini": 7214,
  "\u2581moves": 7215,
  "\u2581nendzawo": 7216,
  "\u2581ngekuya": 7217,
  "\u2581ngemthantazo": 7218,
  "\u2581ngenkhutsalo": 7219,
  "\u2581nguBabe": 7220,
  "\u2581njengaloku": 7221,
  "\u2581nyota": 7222,
  "\u2581objective": 7223,
  "\u2581overwhelmed": 7224,
  "\u2581physically": 7225,
  "\u2581possessions": 7226,
  "\u2581printed": 7227,
  "\u2581raising": 7228,
  "\u2581resurrect": 7229,
  "\u2581salo": 7230,
  "\u2581sekwati": 7231,
  "\u2581sinner": 7232,
  "\u2581smoking": 7233,
  "\u2581solve": 7234,
  "\u2581taabu": 7235,
  "\u2581tests": 7236,
  "\u2581traits": 7237,
  "\u2581unexpected": 7238,
  "\u2581unrighteousness": 7239,
  "\u2581utive": 7240,
  "\u2581uyise": 7241,
  "\u2581variety": 7242,
  "\u2581waadilifu": 7243,
  "\u2581worshipp": 7244,
  "\u2581zealously": 7245,
  "Hholwa": 7246,
  "Lev": 7247,
  "No": 7248,
  "ard": 7249,
  "ateki": 7250,
  "ck": 7251,
  "jalo": 7252,
  "kafuni": 7253,
  "kuba": 7254,
  "kucinisa": 7255,
  "lihumusho": 7256,
  "lingwa": 7257,
  "londvolote": 7258,
  "make": 7259,
  "melwe": 7260,
  "mtsintsa": 7261,
  "nani": 7262,
  "ngamsita": 7263,
  "nywa": 7264,
  "nywe": 7265,
  "sindza": 7266,
  "tawusita": 7267,
  "tende": 7268,
  "vimba": 7269,
  "wusebentisa": 7270,
  "yisebentisa": 7271,
  "\u25811879": 7272,
  "\u2581BAMEMETELI": 7273,
  "\u2581Bekati": 7274,
  "\u2581Earth": 7275,
  "\u2581Eventually": 7276,
  "\u2581Judge": 7277,
  "\u2581Kwenteka": 7278,
  "\u2581Lapho": 7279,
  "\u2581Mahlalela": 7280,
  "\u2581Mfalme": 7281,
  "\u2581Ngemnyaka": 7282,
  "\u2581Saying": 7283,
  "\u2581Things": 7284,
  "\u2581Wewe": 7285,
  "\u2581abide": 7286,
  "\u2581agano": 7287,
  "\u2581aphile": 7288,
  "\u2581bawa": 7289,
  "\u2581bebafuna": 7290,
  "\u2581bebati": 7291,
  "\u2581bekutawuba": 7292,
  "\u2581beseku": 7293,
  "\u2581blesse": 7294,
  "\u2581boast": 7295,
  "\u2581bondage": 7296,
  "\u2581c": 7297,
  "\u2581cloud": 7298,
  "\u2581commend": 7299,
  "\u2581confess": 7300,
  "\u2581creature": 7301,
  "\u2581current": 7302,
  "\u2581deceived": 7303,
  "\u2581divai": 7304,
  "\u2581emaHholw": 7305,
  "\u2581emavesi": 7306,
  "\u2581fundamental": 7307,
  "\u2581haja": 7308,
  "\u2581hofu": 7309,
  "\u2581honour": 7310,
  "\u2581huru": 7311,
  "\u2581iveta": 7312,
  "\u2581kubantfwana": 7313,
  "\u2581kubhujiswa": 7314,
  "\u2581kubuka": 7315,
  "\u2581kungalungi": 7316,
  "\u2581kuphendvula": 7317,
  "\u2581letifanana": 7318,
  "\u2581letingaba": 7319,
  "\u2581load": 7320,
  "\u2581lohlakaniphile": 7321,
  "\u2581lokuhlang": 7322,
  "\u2581lomntfwana": 7323,
  "\u2581lotiva": 7324,
  "\u2581naboFakazi": 7325,
  "\u2581nalabadzala": 7326,
  "\u2581nasenta": 7327,
  "\u2581nemadimoni": 7328,
  "\u2581ngelivi": 7329,
  "\u2581njengale": 7330,
  "\u2581njengebantfu": 7331,
  "\u2581opinions": 7332,
  "\u2581pursuing": 7333,
  "\u2581readily": 7334,
  "\u2581sihamba": 7335,
  "\u2581sishumayela": 7336,
  "\u2581sitawuba": 7337,
  "\u2581standard": 7338,
  "\u2581tasendvulo": 7339,
  "\u2581thyself": 7340,
  "\u2581trip": 7341,
  "\u2581ukwente": 7342,
  "\u2581uyajabula": 7343,
  "\u2581wall": 7344,
  "\u2581waso": 7345,
  "\u2581wayi": 7346,
  "\u2581weakness": 7347,
  "\u2581wetsembel": 7348,
  "EmaJuda": 7349,
  "LE": 7350,
  "bhujiswa": 7351,
  "buyisela": 7352,
  "dadisha": 7353,
  "gadze": 7354,
  "his": 7355,
  "hlobana": 7356,
  "hulumende": 7357,
  "khulume": 7358,
  "kukhutsata": 7359,
  "kutamatama": 7360,
  "lalele": 7361,
  "lidolobha": 7362,
  "menywa": 7363,
  "netinhlitiyo": 7364,
  "ngakhulumi": 7365,
  "phakamisa": 7366,
  "seVi": 7367,
  "shahidi": 7368,
  "tfunyelwa": 7369,
  "yise": 7370,
  "yitsatsa": 7371,
  "\u258110.)": 7372,
  "\u258111.)": 7373,
  "\u25812017": 7374,
  "\u258131,": 7375,
  "\u25817]": 7376,
  "\u2581AND": 7377,
  "\u2581Absalom": 7378,
  "\u2581Akungab": 7379,
  "\u2581Biblical": 7380,
  "\u2581Brothers": 7381,
  "\u2581Calisile": 7382,
  "\u2581Easter": 7383,
  "\u2581Gary": 7384,
  "\u2581January": 7385,
  "\u2581Knowing": 7386,
  "\u2581Kutfobeka": 7387,
  "\u2581Msi": 7388,
  "\u2581Num": 7389,
  "\u2581Seluleko": 7390,
  "\u2581Trust": 7391,
  "\u2581Use": 7392,
  "\u2581V": 7393,
  "\u2581Wenta": 7394,
  "\u2581Wot": 7395,
  "\u2581Year": 7396,
  "\u2581approaching": 7397,
  "\u2581ashumayela": 7398,
  "\u2581askari": 7399,
  "\u2581baphrofethi": 7400,
  "\u2581basebente": 7401,
  "\u2581bawu": 7402,
  "\u2581believer": 7403,
  "\u2581buhle": 7404,
  "\u2581crown": 7405,
  "\u2581degree": 7406,
  "\u2581devils": 7407,
  "\u2581eSikolw": 7408,
  "\u2581educational": 7409,
  "\u2581existed": 7410,
  "\u2581farasi": 7411,
  "\u2581fields": 7412,
  "\u2581fikir": 7413,
  "\u2581impart": 7414,
  "\u2581influences": 7415,
  "\u2581kadzeni": 7416,
  "\u2581kina": 7417,
  "\u2581kucedza": 7418,
  "\u2581kucinisa": 7419,
  "\u2581kundi": 7420,
  "\u2581lakubo": 7421,
  "\u2581lengasenta": 7422,
  "\u2581lesinemandla": 7423,
  "\u2581letincane": 7424,
  "\u2581leyehlukile": 7425,
  "\u2581lolunye": 7426,
  "\u2581lonemandla": 7427,
  "\u2581loyinhloko": 7428,
  "\u2581male": 7429,
  "\u2581mpya": 7430,
  "\u2581nekuhlupheka": 7431,
  "\u2581ngaKhristu": 7432,
  "\u2581ngem": 7433,
  "\u2581ngenhlonipho": 7434,
  "\u2581perfection": 7435,
  "\u2581perfectly": 7436,
  "\u2581prominent": 7437,
  "\u2581reliable": 7438,
  "\u2581rendered": 7439,
  "\u2581rightly": 7440,
  "\u2581sehlulelo": 7441,
  "\u2581siphumelele": 7442,
  "\u2581sisebente": 7443,
  "\u2581soldier": 7444,
  "\u2581takamoya": 7445,
  "\u2581talemibuto": 7446,
  "\u2581tekutsi": 7447,
  "\u2581tend": 7448,
  "\u2581tindlu": 7449,
  "\u2581tingoma": 7450,
  "\u2581tools": 7451,
  "\u2581universal": 7452,
  "\u2581urge": 7453,
  "\u2581walabo": 7454,
  "\u2581waseBethel": 7455,
  "\u2581watching": 7456,
  "\u2581weTihlabelelo": 7457,
  "\u2581wekwakha": 7458,
  "\u2581yemndeni": 7459,
  "\u2581yetama": 7460,
  "3": 7461,
  "anga": 7462,
  "batsintsa": 7463,
  "bete": 7464,
  "buye": 7465,
  "chazela": 7466,
  "etame": 7467,
  "etetsembiso": 7468,
  "finyelela": 7469,
  "gcwal": 7470,
  "gibela": 7471,
  "hambela": 7472,
  "hi": 7473,
  "hlelwa": 7474,
  "humusha": 7475,
  "ikolwa": 7476,
  "isweni": 7477,
  "kukholelwa": 7478,
  "lwati": 7479,
  "mcela": 7480,
  "mitate": 7481,
  "msulwa": 7482,
  "ngenti": 7483,
  "nhlangano": 7484,
  "nsimu": 7485,
  "omba": 7486,
  "os": 7487,
  "pp": 7488,
  "usinikete": 7489,
  "wafanya": 7490,
  "wapeni": 7491,
  "yawu": 7492,
  "\u25811918": 7493,
  "\u258126,": 7494,
  "\u258127,": 7495,
  "\u258157": 7496,
  "\u258171": 7497,
  "\u258175": 7498,
  "\u2581AL": 7499,
  "\u2581Absalomu": 7500,
  "\u2581Egyptian": 7501,
  "\u2581Goliath": 7502,
  "\u2581LABA": 7503,
  "\u2581LIFE": 7504,
  "\u2581Mikha": 7505,
  "\u2581Nakwentek": 7506,
  "\u2581Ngatsi": 7507,
  "\u2581PUBLISHERS": 7508,
  "\u2581ROM": 7509,
  "\u2581Rebekah": 7510,
  "\u2581Show": 7511,
  "\u2581Somandla": 7512,
  "\u2581Takhona": 7513,
  "\u2581WHEN": 7514,
  "\u2581WaJehova": 7515,
  "\u2581Wabhala": 7516,
  "\u2581accompany": 7517,
  "\u2581accused": 7518,
  "\u2581adopt": 7519,
  "\u2581alalele": 7520,
  "\u2581applies": 7521,
  "\u2581appoint": 7522,
  "\u2581atfola": 7523,
  "\u2581bajabula": 7524,
  "\u2581bekute": 7525,
  "\u2581burning": 7526,
  "\u2581cherish": 7527,
  "\u2581comment": 7528,
  "\u2581convince": 7529,
  "\u2581counted": 7530,
  "\u2581courageously": 7531,
  "\u2581eNew": 7532,
  "\u2581emlandvweni": 7533,
  "\u2581eva": 7534,
  "\u2581extended": 7535,
  "\u2581features": 7536,
  "\u2581grain": 7537,
  "\u2581headship": 7538,
  "\u2581identified": 7539,
  "\u2581ignore": 7540,
  "\u2581impact": 7541,
  "\u2581isuke": 7542,
  "\u2581kamili": 7543,
  "\u2581kanganani": 7544,
  "\u2581kuhlangana": 7545,
  "\u2581kumkhonta": 7546,
  "\u2581kunalabanye": 7547,
  "\u2581kung": 7548,
  "\u2581kutsetselela": 7549,
  "\u2581kuyawu": 7550,
  "\u2581kwekugcina": 7551,
  "\u2581labagulako": 7552,
  "\u2581labakahle": 7553,
  "\u2581lawlessness": 7554,
  "\u2581lesebentako": 7555,
  "\u2581lesikhulum": 7556,
  "\u2581lesikufundzako": 7557,
  "\u2581lesisitfola": 7558,
  "\u2581lesive": 7559,
  "\u2581letikahle": 7560,
  "\u2581liwayini": 7561,
  "\u2581lofanele": 7562,
  "\u2581maagizo": 7563,
  "\u2581maka": 7564,
  "\u2581naSathane": 7565,
  "\u2581ngekutfobeka": 7566,
  "\u2581ngeliso": 7567,
  "\u2581ngeti": 7568,
  "\u2581ngulomdzala": 7569,
  "\u2581nguo": 7570,
  "\u2581obvious": 7571,
  "\u2581officials": 7572,
  "\u2581prophesied": 7573,
  "\u2581routine": 7574,
  "\u2581scholar": 7575,
  "\u2581sekuphela": 7576,
  "\u2581shamba": 7577,
  "\u2581shut": 7578,
  "\u2581sifuba": 7579,
  "\u2581significance": 7580,
  "\u2581silandzele": 7581,
  "\u2581sivumele": 7582,
  "\u2581skills": 7583,
  "\u2581sky": 7584,
  "\u2581star": 7585,
  "\u2581steal": 7586,
  "\u2581stumble": 7587,
  "\u2581tongues": 7588,
  "\u2581total": 7589,
  "\u2581ulimwenguni": 7590,
  "\u2581umnikelo": 7591,
  "\u2581umtali": 7592,
  "\u2581urgent": 7593,
  "\u2581ut": 7594,
  "\u2581uzinzi": 7595,
  "\u2581wetive": 7596,
  "\u2581yeliciniso": 7597,
  "\u2581ziwa": 7598,
  "Come": 7599,
  "La": 7600,
  "asi": 7601,
  "bho": 7602,
  "bonisana": 7603,
  "bulawa": 7604,
  "chu": 7605,
  "condzise": 7606,
  "emsebenti": 7607,
  "eticondziso": 7608,
  "etizatfu": 7609,
  "fanane": 7610,
  "file": 7611,
  "fundisha": 7612,
  "khetfwe": 7613,
  "kucondze": 7614,
  "kuyo": 7615,
  "linye": 7616,
  "mise": 7617,
  "nganasi": 7618,
  "ngapheli": 7619,
  "sedolobheni": 7620,
  "seki": 7621,
  "sipha": 7622,
  "suse": 7623,
  "tawukwenta": 7624,
  "tfukutsele": 7625,
  "tupa": 7626,
  "yawuba": 7627,
  "zidi": 7628,
  "\u2581106": 7629,
  "\u2581147": 7630,
  "\u2581600": 7631,
  "\u2581America": 7632,
  "\u2581Andrew": 7633,
  "\u2581Book": 7634,
  "\u2581Granted": 7635,
  "\u2581HLA": 7636,
  "\u2581ISA": 7637,
  "\u2581Jordan": 7638,
  "\u2581Kakhulu": 7639,
  "\u2581Kati": 7640,
  "\u2581LATAL": 7641,
  "\u2581Mata": 7642,
  "\u2581Philippi": 7643,
  "\u2581Republic": 7644,
  "\u2581Ruthe": 7645,
  "\u2581Samaria": 7646,
  "\u2581ahamba": 7647,
  "\u2581akusite": 7648,
  "\u2581anaishi": 7649,
  "\u2581apparently": 7650,
  "\u2581baka": 7651,
  "\u2581birds": 7652,
  "\u2581bugovu": 7653,
  "\u2581crime": 7654,
  "\u2581dedicate": 7655,
  "\u2581developing": 7656,
  "\u2581diligent": 7657,
  "\u2581discussing": 7658,
  "\u2581dust": 7659,
  "\u2581edvute": 7660,
  "\u2581emabito": 7661,
  "\u2581emtsetfweni": 7662,
  "\u2581eta": 7663,
  "\u2581fighting": 7664,
  "\u2581habit": 7665,
  "\u2581hardships": 7666,
  "\u2581hatia": 7667,
  "\u2581hawezi": 7668,
  "\u2581initial": 7669,
  "\u2581kubonakale": 7670,
  "\u2581kuphumelela": 7671,
  "\u2581lasenta": 7672,
  "\u2581lasi": 7673,
  "\u2581letisebentako": 7674,
  "\u2581lifted": 7675,
  "\u2581lokhetsekile": 7676,
  "\u2581lokwengetiwe": 7677,
  "\u2581looks": 7678,
  "\u2581moon": 7679,
  "\u2581mwanamume": 7680,
  "\u2581nemcebo": 7681,
  "\u2581nemiva": 7682,
  "\u2581nemona": 7683,
  "\u2581ngemehlo": 7684,
  "\u2581ngemhlaba": 7685,
  "\u2581ngemisebenti": 7686,
  "\u2581ngiba": 7687,
  "\u2581nguPawula": 7688,
  "\u2581njengalo": 7689,
  "\u2581notes": 7690,
  "\u2581oppression": 7691,
  "\u2581participate": 7692,
  "\u2581peer": 7693,
  "\u2581persuaded": 7694,
  "\u2581pursuits": 7695,
  "\u2581round": 7696,
  "\u2581sayings": 7697,
  "\u2581sekufa": 7698,
  "\u2581sekugcina": 7699,
  "\u2581selutsandvo": 7700,
  "\u2581sina": 7701,
  "\u2581sise": 7702,
  "\u2581sorts": 7703,
  "\u2581stories": 7704,
  "\u2581temanga": 7705,
  "\u2581tent": 7706,
  "\u2581tente": 7707,
  "\u2581testify": 7708,
  "\u2581threatened": 7709,
  "\u2581thrilling": 7710,
  "\u2581tidalwa": 7711,
  "\u2581tikhona": 7712,
  "\u2581tuta": 7713,
  "\u2581umhlangano": 7714,
  "\u2581umonakalo": 7715,
  "\u2581upbuilding": 7716,
  "\u2581uphold": 7717,
  "\u2581utawenta": 7718,
  "\u2581wasendvulo": 7719,
  "\u2581worried": 7720,
  "KA": 7721,
  "Libhokisi": 7722,
  "Ndivyo": 7723,
  "Umuntfu": 7724,
  "abudu": 7725,
  "at": 7726,
  "bangani": 7727,
  "bonge": 7728,
  "by": 7729,
  "cacile": 7730,
  "caphuna": 7731,
  "ebusuku": 7732,
  "entiwe": 7733,
  "feza": 7734,
  "hleli": 7735,
  "hukumiwa": 7736,
  "ita": 7737,
  "kuthula": 7738,
  "labahlakaniphile": 7739,
  "lawulwa": 7740,
  "mbu": 7741,
  "migomo": 7742,
  "mnandzi": 7743,
  "much": 7744,
  "nabo": 7745,
  "nataka": 7746,
  "nemsebenti": 7747,
  "ngene": 7748,
  "nini": 7749,
  "nja": 7750,
  "of": 7751,
  "phikisa": 7752,
  "sala": 7753,
  "shadile": 7754,
  "shiriki": 7755,
  "sijabulisa": 7756,
  "sizindle": 7757,
  "tawala": 7758,
  "ter": 7759,
  "twe": 7760,
  "ucele": 7761,
  "vumelane": 7762,
  "wentela": 7763,
  "\u2581300": 7764,
  "\u258162": 7765,
  "\u2581El": 7766,
  "\u2581Faithful": 7767,
  "\u2581Leader": 7768,
  "\u2581Lendvodza": 7769,
  "\u2581Ndwandwe": 7770,
  "\u2581Ones": 7771,
  "\u2581Sent": 7772,
  "\u2581Wase": 7773,
  "\u2581Yi": 7774,
  "\u2581abhala": 7775,
  "\u2581abuka": 7776,
  "\u2581admits": 7777,
  "\u2581ajabule": 7778,
  "\u2581amazed": 7779,
  "\u2581ange": 7780,
  "\u2581bafundisi": 7781,
  "\u2581bajabule": 7782,
  "\u2581balalele": 7783,
  "\u2581bativa": 7784,
  "\u2581bitter": 7785,
  "\u2581boat": 7786,
  "\u2581comfortable": 7787,
  "\u2581commands": 7788,
  "\u2581continuing": 7789,
  "\u2581credit": 7790,
  "\u2581dying": 7791,
  "\u2581entitled": 7792,
  "\u2581guilt": 7793,
  "\u2581hid": 7794,
  "\u2581hide": 7795,
  "\u2581horse": 7796,
  "\u2581huge": 7797,
  "\u2581imoto": 7798,
  "\u2581indefinite": 7799,
  "\u2581involv": 7800,
  "\u2581kamuva": 7801,
  "\u2581kichwa": 7802,
  "\u2581kuleminyaka": 7803,
  "\u2581kulomfanekiso": 7804,
  "\u2581kweMbuso": 7805,
  "\u2581kwemnyaka": 7806,
  "\u2581labakhulu": 7807,
  "\u2581labancane": 7808,
  "\u2581labangaba": 7809,
  "\u2581latawu": 7810,
  "\u2581lelikhetsekile": 7811,
  "\u2581lephakeme": 7812,
  "\u2581letincwadzi": 7813,
  "\u2581likened": 7814,
  "\u2581lokwaku": 7815,
  "\u2581lomhlaba": 7816,
  "\u2581luhambo": 7817,
  "\u2581mail": 7818,
  "\u2581mikate": 7819,
  "\u2581mu": 7820,
  "\u2581mwen": 7821,
  "\u2581nebafundzi": 7822,
  "\u2581nekucindzetelwa": 7823,
  "\u2581ngalelo": 7824,
  "\u2581ngeliviki": 7825,
  "\u2581ngemabomu": 7826,
  "\u2581nyakati": 7827,
  "\u2581opinion": 7828,
  "\u2581oppose": 7829,
  "\u2581planet": 7830,
  "\u2581remembered": 7831,
  "\u2581rent": 7832,
  "\u2581resolved": 7833,
  "\u2581sawo": 7834,
  "\u2581sicaphele": 7835,
  "\u2581sicinise": 7836,
  "\u2581silalela": 7837,
  "\u2581siphephelo": 7838,
  "\u2581sitfunywa": 7839,
  "\u2581sober": 7840,
  "\u2581submit": 7841,
  "\u2581tabelo": 7842,
  "\u2581tidzakamiva": 7843,
  "\u2581umnikati": 7844,
  "\u2581ungene": 7845,
  "\u2581victim": 7846,
  "\u2581wakamwuliza": 7847,
  "\u2581wakhona": 7848,
  "\u2581wakubo": 7849,
  "\u2581waphila": 7850,
  "\u2581wasio": 7851,
  "\u2581wisely": 7852,
  "Eksodusi": 7853,
  "November": 7854,
  "Wewe": 7855,
  "alokusimangaliso": 7856,
  "amuru": 7857,
  "bafati": 7858,
  "batali": 7859,
  "beke": 7860,
  "beketela": 7861,
  "catsaniswa": 7862,
  "ceceshwa": 7863,
  "cina": 7864,
  "cinise": 7865,
  "dhani": 7866,
  "fundzela": 7867,
  "gogo": 7868,
  "kela": 7869,
  "kisi": 7870,
  "kudzinga": 7871,
  "kwente": 7872,
  "kwentiwa": 7873,
  "lalelisisa": 7874,
  "lilanga": 7875,
  "lungile": 7876,
  "lwisan": 7877,
  "metsemba": 7878,
  "mnikati": 7879,
  "myalo": 7880,
  "nati": 7881,
  "nengcondvo": 7882,
  "ngatenta": 7883,
  "nk": 7884,
  "phambene": 7885,
  "phile": 7886,
  "sekuphele": 7887,
  "sije": 7888,
  "sitsatsa": 7889,
  "tasenta": 7890,
  "tele": 7891,
  "tidzela": 7892,
  "tigcabha": 7893,
  "vala": 7894,
  "\u258141.": 7895,
  "\u2581Antonio": 7896,
  "\u2581Cameron": 7897,
  "\u2581Death": 7898,
  "\u2581Eli": 7899,
  "\u2581Esther": 7900,
  "\u2581Kanjani": 7901,
  "\u2581Kunga": 7902,
  "\u2581Naboth": 7903,
  "\u2581Ngacala": 7904,
  "\u2581PS": 7905,
  "\u2581Sin": 7906,
  "\u2581Spiritual": 7907,
  "\u2581Yul": 7908,
  "\u2581abecabanga": 7909,
  "\u2581addressed": 7910,
  "\u2581basa": 7911,
  "\u2581batewu": 7912,
  "\u2581bones": 7913,
  "\u2581bow": 7914,
  "\u2581branches": 7915,
  "\u2581condemn": 7916,
  "\u2581crucified": 7917,
  "\u2581doctor": 7918,
  "\u2581ePharadisi": 7919,
  "\u2581encounter": 7920,
  "\u2581engag": 7921,
  "\u2581ghadhabu": 7922,
  "\u2581governor": 7923,
  "\u2581humankind": 7924,
  "\u2581impression": 7925,
  "\u2581inyanga": 7926,
  "\u2581island": 7927,
  "\u2581kubi": 7928,
  "\u2581kun": 7929,
  "\u2581kungi": 7930,
  "\u2581kutfutfukisa": 7931,
  "\u2581labangamkhonti": 7932,
  "\u2581labor": 7933,
  "\u2581leS": 7934,
  "\u2581lengakusita": 7935,
  "\u2581lengentansi": 7936,
  "\u2581lesifananako": 7937,
  "\u2581lesihlanu": 7938,
  "\u2581lesiphrofetho": 7939,
  "\u2581lesiyifundzako": 7940,
  "\u2581letitsi": 7941,
  "\u2581lodzadze": 7942,
  "\u2581lokumatima": 7943,
  "\u2581lokutawu": 7944,
  "\u2581lomkhuba": 7945,
  "\u2581lomsikati": 7946,
  "\u2581lulaka": 7947,
  "\u2581lwebuzalwane": 7948,
  "\u2581lwesi": 7949,
  "\u2581maintained": 7950,
  "\u2581majority": 7951,
  "\u2581moyoni": 7952,
  "\u2581mtume": 7953,
  "\u2581nemisebenti": 7954,
  "\u2581nemkami": 7955,
  "\u2581ngcwele": 7956,
  "\u2581ngeliV": 7957,
  "\u2581ngentfo": 7958,
  "\u2581ngetento": 7959,
  "\u2581ngihlale": 7960,
  "\u2581ngiti": 7961,
  "\u2581ngumKhristu": 7962,
  "\u2581offend": 7963,
  "\u2581plague": 7964,
  "\u2581planning": 7965,
  "\u2581pleasures": 7966,
  "\u2581priority": 7967,
  "\u2581project": 7968,
  "\u2581realm": 7969,
  "\u2581repented": 7970,
  "\u2581reserve": 7971,
  "\u2581senses": 7972,
  "\u2581senteni": 7973,
  "\u2581shepherding": 7974,
  "\u2581sicoca": 7975,
  "\u2581silwisan": 7976,
  "\u2581task": 7977,
  "\u2581tekucala": 7978,
  "\u2581transform": 7979,
  "\u2581umnakabo": 7980,
  "\u2581vazi": 7981,
  "\u2581viongozi": 7982,
  "\u2581virgin": 7983,
  "\u2581vita": 7984,
  "\u2581wafalme": 7985,
  "\u2581wamtjela": 7986,
  "\u2581warns": 7987,
  "\u2581yana": 7988,
  "\u2581yanayo": 7989,
  "\u2581yekutiphatsa": 7990,
  "4)": 7991,
  "Angi": 7992,
  "ES": 7993,
  "Nani": 7994,
  "New": 7995,
  "Phaphama": 7996,
  "bhema": 7997,
  "bobani": 7998,
  "caphele": 7999,
  "chi": 8000,
  "esikhashana": 8001,
  "hlanganiswa": 8002,
  "ine": 8003,
  "kelwa": 8004,
  "khetfwa": 8005,
  "khule": 8006,
  "khulile": 8007,
  "lisiko": 8008,
  "lulwimi": 8009,
  "mabito": 8010,
  "mchazela": 8011,
  "mdzala": 8012,
  "mfu": 8013,
  "mkhatsini": 8014,
  "mtsatsa": 8015,
  "mwamini": 8016,
  "ngakujabulela": 8017,
  "ngaloko": 8018,
  "ngoti": 8019,
  "ngubani": 8020,
  "ngumngani": 8021,
  "nyanga": 8022,
  "semi": 8023,
  "sentela": 8024,
  "sesim": 8025,
  "shintje": 8026,
  "sidvudvuta": 8027,
  "silalela": 8028,
  "silondvolote": 8029,
  "simama": 8030,
  "situkulwane": 8031,
  "ted": 8032,
  "tichube": 8033,
  "ton": 8034,
  "tsini": 8035,
  "umba": 8036,
  "wasebentisa": 8037,
  "\u2581110": 8038,
  "\u25812004": 8039,
  "\u2581Deborah": 8040,
  "\u2581Empire": 8041,
  "\u2581Hlala": 8042,
  "\u2581Injabulo": 8043,
  "\u2581JEHOVA": 8044,
  "\u2581Kwaba": 8045,
  "\u2581Letitsi": 8046,
  "\u2581Lokubuhlungu": 8047,
  "\u2581Mal": 8048,
  "\u2581Marriage": 8049,
  "\u2581Nathani": 8050,
  "\u2581Ngaloku": 8051,
  "\u2581Ngalokuvamile": 8052,
  "\u2581achieve": 8053,
  "\u2581arms": 8054,
  "\u2581associating": 8055,
  "\u2581bakhulume": 8056,
  "\u2581batsatsa": 8057,
  "\u2581bekete": 8058,
  "\u2581bonembeza": 8059,
  "\u2581cancer": 8060,
  "\u2581commendation": 8061,
  "\u2581deliverance": 8062,
  "\u2581directions": 8063,
  "\u2581embrace": 8064,
  "\u2581envy": 8065,
  "\u2581finds": 8066,
  "\u2581generosity": 8067,
  "\u2581hamu": 8068,
  "\u2581helper": 8069,
  "\u2581humo": 8070,
  "\u2581imperfections": 8071,
  "\u2581kuchaza": 8072,
  "\u2581kuhani": 8073,
  "\u2581kuhlasela": 8074,
  "\u2581kunebantfu": 8075,
  "\u2581kusali": 8076,
  "\u2581kwatsi": 8077,
  "\u2581labalalelako": 8078,
  "\u2581lama": 8079,
  "\u2581leba": 8080,
  "\u2581lema": 8081,
  "\u2581lesinawo": 8082,
  "\u2581lili": 8083,
  "\u2581lomlayeto": 8084,
  "\u2581lowaba": 8085,
  "\u2581lubandlululo": 8086,
  "\u2581lusts": 8087,
  "\u2581meli": 8088,
  "\u2581memory": 8089,
  "\u2581naleso": 8090,
  "\u2581namake": 8091,
  "\u2581nekudla": 8092,
  "\u2581neli": 8093,
  "\u2581nesa": 8094,
  "\u2581nese": 8095,
  "\u2581ngekwelicansi": 8096,
  "\u2581ngeliciniso": 8097,
  "\u2581ngemiphumela": 8098,
  "\u2581njema": 8099,
  "\u2581nne": 8100,
  "\u2581north": 8101,
  "\u2581openly": 8102,
  "\u2581opposite": 8103,
  "\u2581possession": 8104,
  "\u2581pressures": 8105,
  "\u2581punishment": 8106,
  "\u2581reasoned": 8107,
  "\u2581remote": 8108,
  "\u2581replaced": 8109,
  "\u2581rose": 8110,
  "\u2581sealed": 8111,
  "\u2581shoulder": 8112,
  "\u2581sihlengo": 8113,
  "\u2581sikolwa": 8114,
  "\u2581singleness": 8115,
  "\u2581siphi": 8116,
  "\u2581sitsa": 8117,
  "\u2581sixth": 8118,
  "\u2581sufficient": 8119,
  "\u2581tema": 8120,
  "\u2581tuki": 8121,
  "\u2581tuzo": 8122,
  "\u2581twice": 8123,
  "\u2581ukhetse": 8124,
  "\u2581umtselo": 8125,
  "\u2581unake": 8126,
  "\u2581utawube": 8127,
  "\u2581utawucedz": 8128,
  "\u2581visions": 8129,
  "\u2581wavele": 8130,
  "\u2581wayala": 8131,
  "\u2581weep": 8132,
  "\u2581wesifazane": 8133,
  "\u2581yekugcina": 8134,
  "\u2581yemaKhristu": 8135,
  "ELWA": 8136,
  "NDLELA": 8137,
  "atakwa": 8138,
  "cashi": 8139,
  "catulula": 8140,
  "felwa": 8141,
  "fikiri": 8142,
  "gat": 8143,
  "gcwalise": 8144,
  "geza": 8145,
  "hlalo": 8146,
  "ifundvo": 8147,
  "khululeka": 8148,
  "khutsele": 8149,
  "labadzala": 8150,
  "luphawu": 8151,
  "mabutfo": 8152,
  "makoti": 8153,
  "meleli": 8154,
  "memetele": 8155,
  "mwona": 8156,
  "nakekelwa": 8157,
  "nchazelo": 8158,
  "ncusa": 8159,
  "nele": 8160,
  "ngafani": 8161,
  "ngakhatsali": 8162,
  "ngenteka": 8163,
  "phelele": 8164,
  "phula": 8165,
  "sensimini": 8166,
  "shauri": 8167,
  "shika": 8168,
  "tfobekile": 8169,
  "tinakekela": 8170,
  "umbonisi": 8171,
  "vakashele": 8172,
  "wesitsatfu": 8173,
  "yekeliswa": 8174,
  "\u2581130": 8175,
  "\u2581139": 8176,
  "\u25811995": 8177,
  "\u258147": 8178,
  "\u2581Alex": 8179,
  "\u2581Barak": 8180,
  "\u2581COR": 8181,
  "\u2581Italy": 8182,
  "\u2581Jehoshaphat": 8183,
  "\u2581Jonathani": 8184,
  "\u2581KuJehova": 8185,
  "\u2581Kuleminyaka": 8186,
  "\u2581Kwemndeni": 8187,
  "\u2581Kwetsembeka": 8188,
  "\u2581Leviticus": 8189,
  "\u2581Nine": 8190,
  "\u2581Nisan": 8191,
  "\u2581Nkhosi": 8192,
  "\u2581Rose": 8193,
  "\u2581Says": 8194,
  "\u2581Tsine": 8195,
  "\u2581Yeku": 8196,
  "\u2581Yosefu": 8197,
  "\u2581agreement": 8198,
  "\u2581anikele": 8199,
  "\u2581application": 8200,
  "\u2581asemhlabeni": 8201,
  "\u2581ayizange": 8202,
  "\u2581batawube": 8203,
  "\u2581beauty": 8204,
  "\u2581behave": 8205,
  "\u2581belu": 8206,
  "\u2581bora": 8207,
  "\u2581delighted": 8208,
  "\u2581earthquake": 8209,
  "\u2581elements": 8210,
  "\u2581emadolobha": 8211,
  "\u2581emasotja": 8212,
  "\u2581emazulu": 8213,
  "\u2581esihla": 8214,
  "\u2581etulu": 8215,
  "\u2581faces": 8216,
  "\u2581fish": 8217,
  "\u2581flow": 8218,
  "\u2581freed": 8219,
  "\u2581grant": 8220,
  "\u2581identity": 8221,
  "\u2581idolatry": 8222,
  "\u2581ignorant": 8223,
  "\u2581imifanekiso": 8224,
  "\u2581imimoya": 8225,
  "\u2581initiative": 8226,
  "\u2581jealous": 8227,
  "\u2581joyfully": 8228,
  "\u2581kulungisa": 8229,
  "\u2581kumbe": 8230,
  "\u2581kusaba": 8231,
  "\u2581kusetjentiswa": 8232,
  "\u2581kutfukutsela": 8233,
  "\u2581kutoa": 8234,
  "\u2581kwakamoya": 8235,
  "\u2581kwemandla": 8236,
  "\u2581lekubusa": 8237,
  "\u2581lemhlaba": 8238,
  "\u2581length": 8239,
  "\u2581lesetjentiswa": 8240,
  "\u2581lesicinile": 8241,
  "\u2581lesikholwa": 8242,
  "\u2581letikhona": 8243,
  "\u2581letisitfupha": 8244,
  "\u2581lokutawenteka": 8245,
  "\u2581lokuyi": 8246,
  "\u2581lomphrofethi": 8247,
  "\u2581lusizi": 8248,
  "\u2581makhelwane": 8249,
  "\u2581manje": 8250,
  "\u2581mold": 8251,
  "\u2581msaada": 8252,
  "\u2581mtumwa": 8253,
  "\u2581nearby": 8254,
  "\u2581neye": 8255,
  "\u2581ngenkhani": 8256,
  "\u2581ngesandla": 8257,
  "\u2581ngise": 8258,
  "\u2581ngumbonisi": 8259,
  "\u2581njaa": 8260,
  "\u2581privileged": 8261,
  "\u2581publisher": 8262,
  "\u2581rafiki": 8263,
  "\u2581remembrance": 8264,
  "\u2581reply": 8265,
  "\u2581respected": 8266,
  "\u2581running": 8267,
  "\u2581scene": 8268,
  "\u2581searching": 8269,
  "\u2581sharp": 8270,
  "\u2581sikhatsateke": 8271,
  "\u2581simiso": 8272,
  "\u2581sincerely": 8273,
  "\u2581sivikelo": 8274,
  "\u2581siwa": 8275,
  "\u2581steadfast": 8276,
  "\u2581tear": 8277,
  "\u2581tempt": 8278,
  "\u2581tenkholo": 8279,
  "\u2581ticelo": 8280,
  "\u2581tigcili": 8281,
  "\u2581uhai": 8282,
  "\u2581uke": 8283,
  "\u2581umona": 8284,
  "\u2581uphumelele": 8285,
  "\u2581valley": 8286,
  "\u2581vineyard": 8287,
  "\u2581wabiketela": 8288,
  "\u2581wakha": 8289,
  "\u2581walivyo": 8290,
  "\u2581wemaRoma": 8291,
  "\u2581widows": 8292,
  "\u2581wivu": 8293,
  "\u2581wood": 8294,
  "\u2581yemfati": 8295,
  "By": 8296,
  "ED": 8297,
  "Hali": 8298,
  "Hez": 8299,
  "Numeri": 8300,
  "apenzi": 8301,
  "bhadala": 8302,
  "bhekisel": 8303,
  "body": 8304,
  "fun": 8305,
  "gucuka": 8306,
  "hlupha": 8307,
  "kheli": 8308,
  "khutsateka": 8309,
  "lamaKhristu": 8310,
  "leso": 8311,
  "makhosi": 8312,
  "mbonisi": 8313,
  "melelwa": 8314,
  "ondoa": 8315,
  "phansi": 8316,
  "proving": 8317,
  "sebandleni": 8318,
  "siletsela": 8319,
  "sitfunywa": 8320,
  "son": 8321,
  "tafuta": 8322,
  "tfunjwa": 8323,
  "tokea": 8324,
  "ung": 8325,
  "vile": 8326,
  "vumilia": 8327,
  "yijabulela": 8328,
  "\u2581104": 8329,
  "\u25812006": 8330,
  "\u2581400": 8331,
  "\u2581Chronicles": 8332,
  "\u2581Dam": 8333,
  "\u2581Emandla": 8334,
  "\u2581Faro": 8335,
  "\u2581HEB": 8336,
  "\u2581Hans": 8337,
  "\u2581Judaea": 8338,
  "\u2581Kamuva": 8339,
  "\u2581Neh": 8340,
  "\u2581North": 8341,
  "\u2581Richard": 8342,
  "\u2581Rule": 8343,
  "\u2581TebuKhristu": 8344,
  "\u2581Tibute": 8345,
  "\u2581Umusa": 8346,
  "\u2581Yudea": 8347,
  "\u2581adopted": 8348,
  "\u2581afa": 8349,
  "\u2581afundze": 8350,
  "\u2581aliyo": 8351,
  "\u2581analyze": 8352,
  "\u2581angene": 8353,
  "\u2581avikele": 8354,
  "\u2581bakhetsa": 8355,
  "\u2581banake": 8356,
  "\u2581bare": 8357,
  "\u2581beasts": 8358,
  "\u2581believeth": 8359,
  "\u2581belongings": 8360,
  "\u2581bereaved": 8361,
  "\u2581bewunga": 8362,
  "\u2581blame": 8363,
  "\u2581description": 8364,
  "\u2581destination": 8365,
  "\u2581diligently": 8366,
  "\u2581eJalimane": 8367,
  "\u2581effectively": 8368,
  "\u2581ematje": 8369,
  "\u2581emukele": 8370,
  "\u2581exposed": 8371,
  "\u2581extra": 8372,
  "\u2581greed": 8373,
  "\u2581grieving": 8374,
  "\u2581h": 8375,
  "\u2581hatuku": 8376,
  "\u2581hell": 8377,
  "\u2581hungry": 8378,
  "\u2581images": 8379,
  "\u2581imitat": 8380,
  "\u2581inshisekelo": 8381,
  "\u2581kubulala": 8382,
  "\u2581kudzi": 8383,
  "\u2581kuhubiri": 8384,
  "\u2581kujabula": 8385,
  "\u2581kukhulunywa": 8386,
  "\u2581kukuhlakanipha": 8387,
  "\u2581kunatsa": 8388,
  "\u2581kunyenti": 8389,
  "\u2581kutimisela": 8390,
  "\u2581kwalabafile": 8391,
  "\u2581labacotfo": 8392,
  "\u2581langaba": 8393,
  "\u2581lasentel": 8394,
  "\u2581leliBhayibheli": 8395,
  "\u2581lelungile": 8396,
  "\u2581lengcondvo": 8397,
  "\u2581lesibusako": 8398,
  "\u2581letifana": 8399,
  "\u2581lokhona": 8400,
  "\u2581lokhuluma": 8401,
  "\u2581longentasi": 8402,
  "\u2581luhla": 8403,
  "\u2581maovu": 8404,
  "\u2581miraculously": 8405,
  "\u2581miujiza": 8406,
  "\u2581movie": 8407,
  "\u2581nangetulu": 8408,
  "\u2581ngemphumelelo": 8409,
  "\u2581ngesiNgisi": 8410,
  "\u2581priorities": 8411,
  "\u2581reads": 8412,
  "\u2581reproach": 8413,
  "\u2581returning": 8414,
  "\u2581ride": 8415,
  "\u2581sanctify": 8416,
  "\u2581sawa": 8417,
  "\u2581sengiya": 8418,
  "\u2581shadow": 8419,
  "\u2581sibi": 8420,
  "\u2581sinekukholwa": 8421,
  "\u2581singakwenta": 8422,
  "\u2581siveta": 8423,
  "\u2581speaker": 8424,
  "\u2581survived": 8425,
  "\u2581tested": 8426,
  "\u2581thamani": 8427,
  "\u2581tibute": 8428,
  "\u2581tici": 8429,
  "\u2581tilaleli": 8430,
  "\u2581tunayo": 8431,
  "\u2581types": 8432,
  "\u2581unfaithful": 8433,
  "\u2581usebenta": 8434,
  "\u2581visible": 8435,
  "\u2581wasita": 8436,
  "\u2581watumwa": 8437,
  "7": 8438,
  "BA": 8439,
  "IES": 8440,
  "Josh": 8441,
  "Khristu": 8442,
  "Komidi": 8443,
  "ational": 8444,
  "bhu": 8445,
  "bukele": 8446,
  "but": 8447,
  "cashuniwe": 8448,
  "catulule": 8449,
  "dza": 8450,
  "eNkhosi": 8451,
  "fufuliwa": 8452,
  "gave": 8453,
  "hlangene": 8454,
  "idi": 8455,
  "ight": 8456,
  "iwe": 8457,
  "khiwa": 8458,
  "kubaluleka": 8459,
  "liyokuwa": 8460,
  "mbusi": 8461,
  "mbuto": 8462,
  "memeta": 8463,
  "nafunzi": 8464,
  "ngakwenti": 8465,
  "ngase": 8466,
  "ngasiwo": 8467,
  "ngemphilo": 8468,
  "phikisana": 8469,
  "phocelela": 8470,
  "qu": 8471,
  "setjentiselw": 8472,
  "shiye": 8473,
  "silandzela": 8474,
  "sivikelo": 8475,
  "tfombo": 8476,
  "tfululela": 8477,
  "tihlanganise": 8478,
  "tinkhulungwane": 8479,
  "ts": 8480,
  "vivinya": 8481,
  "\u2581American": 8482,
  "\u2581Amina": 8483,
  "\u2581Bill": 8484,
  "\u2581England": 8485,
  "\u2581ISSUE": 8486,
  "\u2581KHOR": 8487,
  "\u2581Kune": 8488,
  "\u2581Kweli": 8489,
  "\u2581Libandla": 8490,
  "\u2581Truth": 8491,
  "\u2581abound": 8492,
  "\u2581alicho": 8493,
  "\u2581alungise": 8494,
  "\u2581amekwisha": 8495,
  "\u2581angakhona": 8496,
  "\u2581anymore": 8497,
  "\u2581appointment": 8498,
  "\u2581ashumayele": 8499,
  "\u2581assume": 8500,
  "\u2581avoided": 8501,
  "\u2581caus": 8502,
  "\u2581center": 8503,
  "\u2581comparison": 8504,
  "\u2581conversations": 8505,
  "\u2581debt": 8506,
  "\u2581doeth": 8507,
  "\u2581elimu": 8508,
  "\u2581emakhilomitha": 8509,
  "\u2581emakhulu": 8510,
  "\u2581emaviki": 8511,
  "\u2581embikwa": 8512,
  "\u2581emphasize": 8513,
  "\u2581entity": 8514,
  "\u2581executed": 8515,
  "\u2581explaining": 8516,
  "\u2581fed": 8517,
  "\u2581friendships": 8518,
  "\u2581ft": 8519,
  "\u2581gerezani": 8520,
  "\u2581harsh": 8521,
  "\u2581imbala": 8522,
  "\u2581inhlawulo": 8523,
  "\u2581inkhanuko": 8524,
  "\u2581inkhatimulo": 8525,
  "\u2581intense": 8526,
  "\u2581intentions": 8527,
  "\u2581interesting": 8528,
  "\u2581jealousy": 8529,
  "\u2581khumbula": 8530,
  "\u2581kiu": 8531,
  "\u2581kubafundzi": 8532,
  "\u2581kuceceshwa": 8533,
  "\u2581kut": 8534,
  "\u2581kwemukel": 8535,
  "\u2581labati": 8536,
  "\u2581labatsite": 8537,
  "\u2581lakushoko": 8538,
  "\u2581leNkhosi": 8539,
  "\u2581leaves": 8540,
  "\u2581lesinabo": 8541,
  "\u2581letiligugu": 8542,
  "\u2581logulako": 8543,
  "\u2581lokubalulekile": 8544,
  "\u2581losibonelo": 8545,
  "\u2581lovutsiwe": 8546,
  "\u2581lw": 8547,
  "\u2581madhabahu": 8548,
  "\u2581marked": 8549,
  "\u2581masikio": 8550,
  "\u2581mkali": 8551,
  "\u2581mlango": 8552,
  "\u2581movies": 8553,
  "\u2581nababe": 8554,
  "\u2581nebudlelwan": 8555,
  "\u2581nekucondza": 8556,
  "\u2581nelwati": 8557,
  "\u2581nenkholo": 8558,
  "\u2581nenkhululeko": 8559,
  "\u2581netento": 8560,
  "\u2581ngalabovu": 8561,
  "\u2581ngalokuvamile": 8562,
  "\u2581nganaku": 8563,
  "\u2581ngicabanga": 8564,
  "\u2581nigh": 8565,
  "\u2581norther": 8566,
  "\u2581observes": 8567,
  "\u2581pour": 8568,
  "\u2581profound": 8569,
  "\u2581remnant": 8570,
  "\u2581salama": 8571,
  "\u2581saseGileyadi": 8572,
  "\u2581settle": 8573,
  "\u2581silungise": 8574,
  "\u2581sisa": 8575,
  "\u2581siyacinisek": 8576,
  "\u2581siyekele": 8577,
  "\u2581strike": 8578,
  "\u2581takhamuti": 8579,
  "\u2581tecwayiso": 8580,
  "\u2581terms": 8581,
  "\u2581translations": 8582,
  "\u2581uadilifu": 8583,
  "\u2581ukulungele": 8584,
  "\u2581unselfish": 8585,
  "\u2581voices": 8586,
  "\u2581weNkhosi": 8587,
  "\u2581weta": 8588,
  "\u2581yemaJuda": 8589,
  "\u2581yemoya": 8590,
  "Joshuwa": 8591,
  "MIBUTO": 8592,
  "Mtu": 8593,
  "Z": 8594,
  "cindzetela": 8595,
  "divosa": 8596,
  "dokotela": 8597,
  "dzingi": 8598,
  "elitsemba": 8599,
  "etincwadzi": 8600,
  "fundziswe": 8601,
  "io": 8602,
  "ishe": 8603,
  "jabule": 8604,
  "kataa": 8605,
  "khishwa": 8606,
  "kubali": 8607,
  "kuletinye": 8608,
  "labantfu": 8609,
  "labanye": 8610,
  "leka": 8611,
  "libhubesi": 8612,
  "linani": 8613,
  "livesi": 8614,
  "lukhuni": 8615,
  "mbuta": 8616,
  "mfanya": 8617,
  "mhlabeleli": 8618,
  "mtimba": 8619,
  "ncobe": 8620,
  "ndle": 8621,
  "nemusa": 8622,
  "ngaketsembeki": 8623,
  "ngali": 8624,
  "ngasiyo": 8625,
  "ngayenta": 8626,
  "ngitfole": 8627,
  "paji": 8628,
  "paswa": 8629,
  "pinga": 8630,
  "sicinisa": 8631,
  "tadishe": 8632,
  "tazama": 8633,
  "tetsemba": 8634,
  "tidalwa": 8635,
  "tilalela": 8636,
  "tiveta": 8637,
  "vivinywa": 8638,
  "ward": 8639,
  "yacaca": 8640,
  "\u25811940": 8641,
  "\u25811949": 8642,
  "\u25813.)": 8643,
  "\u258146.": 8644,
  "\u258169": 8645,
  "\u2581Anaye": 8646,
  "\u2581BA": 8647,
  "\u2581Bangani": 8648,
  "\u2581Box": 8649,
  "\u2581Church": 8650,
  "\u2581Dzadze": 8651,
  "\u2581Egyptians": 8652,
  "\u2581End": 8653,
  "\u2581Find": 8654,
  "\u2581Gold": 8655,
  "\u2581Hear": 8656,
  "\u2581Jeftha": 8657,
  "\u2581Malakhi": 8658,
  "\u2581Mwanae": 8659,
  "\u2581Ohio": 8660,
  "\u2581Priest": 8661,
  "\u2581Rachel": 8662,
  "\u2581Silas": 8663,
  "\u2581Thomas": 8664,
  "\u2581Timotheo": 8665,
  "\u2581Wao": 8666,
  "\u2581Way": 8667,
  "\u2581access": 8668,
  "\u2581aged": 8669,
  "\u2581akajibu": 8670,
  "\u2581akam": 8671,
  "\u2581arrive": 8672,
  "\u2581asente": 8673,
  "\u2581badly": 8674,
  "\u2581believes": 8675,
  "\u2581buphuya": 8676,
  "\u2581chance": 8677,
  "\u2581cleansed": 8678,
  "\u2581conducted": 8679,
  "\u2581conscious": 8680,
  "\u2581curse": 8681,
  "\u2581deed": 8682,
  "\u2581depict": 8683,
  "\u2581devour": 8684,
  "\u2581discussions": 8685,
  "\u2581distracted": 8686,
  "\u2581earn": 8687,
  "\u2581economic": 8688,
  "\u2581embikwe": 8689,
  "\u2581empty": 8690,
  "\u2581emtimbeni": 8691,
  "\u2581esime": 8692,
  "\u2581evolution": 8693,
  "\u2581falling": 8694,
  "\u2581fault": 8695,
  "\u2581fears": 8696,
  "\u2581iba": 8697,
  "\u2581ikhombisa": 8698,
  "\u2581ingase": 8699,
  "\u2581intelligent": 8700,
  "\u2581ite": 8701,
  "\u2581kibinadamu": 8702,
  "\u2581kikombe": 8703,
  "\u2581knoweth": 8704,
  "\u2581kusekela": 8705,
  "\u2581kuvuswa": 8706,
  "\u2581labasikati": 8707,
  "\u2581labatsi": 8708,
  "\u2581lamahle": 8709,
  "\u2581lawa": 8710,
  "\u2581lesihamba": 8711,
  "\u2581lesikwentako": 8712,
  "\u2581lesine": 8713,
  "\u2581lesisebenti": 8714,
  "\u2581letingcolile": 8715,
  "\u2581letisemhlabeni": 8716,
  "\u2581leyalandzela": 8717,
  "\u2581limits": 8718,
  "\u2581liyi": 8719,
  "\u2581lobusha": 8720,
  "\u2581lokholwa": 8721,
  "\u2581lokukhona": 8722,
  "\u2581lokute": 8723,
  "\u2581lucingo": 8724,
  "\u2581madvutane": 8725,
  "\u2581mahhala": 8726,
  "\u2581mlio": 8727,
  "\u2581nelikusasa": 8728,
  "\u2581nemindeni": 8729,
  "\u2581netihlobo": 8730,
  "\u2581netingilosi": 8731,
  "\u2581object": 8732,
  "\u2581parables": 8733,
  "\u2581paying": 8734,
  "\u2581peers": 8735,
  "\u2581perceived": 8736,
  "\u2581quotations": 8737,
  "\u2581radio": 8738,
  "\u2581recognition": 8739,
  "\u2581reputation": 8740,
  "\u2581reside": 8741,
  "\u2581rewards": 8742,
  "\u2581saMosi": 8743,
  "\u2581sadaka": 8744,
  "\u2581sekukholwa": 8745,
  "\u2581sihambe": 8746,
  "\u2581smile": 8747,
  "\u2581space": 8748,
  "\u2581strange": 8749,
  "\u2581supplication": 8750,
  "\u2581table": 8751,
  "\u2581taxes": 8752,
[...]
