{
  "</s>": 0,
  "<unk>": 1,
  ",": 2,
  ".": 3,
  "\u2581the": 4,
  "\u2581\"": 5,
  "\u2581of": 6,
  "\u2581to": 7,
  "\u2581and": 8,
  "\u2581kuti": 9,
  "\u2581a": 10,
  "\u2581in": 11,
  "\u2581-": 12,
  "?": 13,
  ":": 14,
  "\u2581that": 15,
  "s": 16,
  "\u2581is": 17,
  "\u2581uye": 18,
  "'": 19,
  "\u2581": 20,
  "\u2581for": 21,
  ";": 22,
  "\u2581his": 23,
  "\u2581be": 24,
  "\u2581with": 25,
  "\u2581God": 26,
  "\u2581was": 27,
  "\u2581we": 28,
  "\u2581I": 29,
  "\u2581you": 30,
  "\u2581not": 31,
  "\u2581Jehovah": 32,
  "\u2581he": 33,
  "\u2581as": 34,
  "\u2581kana": 35,
  "\u2581on": 36,
  "\u2581are": 37,
  "\u2581it": 38,
  "\u2581have": 39,
  "\u2581will": 40,
  "\u2581The": 41,
  "\u2581ku": 42,
  "\u2581they": 43,
  "\u2581by": 44,
  "\u2581from": 45,
  "\u2581'": 46,
  "\u2581their": 47,
  "!": 48,
  "\u2581Jehovha": 49,
  "\u2581who": 50,
  "\u2581[": 51,
  "\u2581(": 52,
  "\u2581this": 53,
  "\u2581all": 54,
  "\u2581or": 55,
  "\u2581Jesus": 56,
  "\u2581Bible": 57,
  "\u2581our": 58,
  "\u2581can": 59,
  "\u2581them": 60,
  "i": 61,
  "\u2581Mwari": 62,
  "\u2581were": 63,
  "\u2581him": 64,
  "\u2581your": 65,
  "\u2581mu": 66,
  ")": 67,
  "\u2581us": 68,
  "\u2581vanhu": 69,
  "\u2581one": 70,
  "\u2581had": 71,
  "\u2581at": 72,
  "ing": 73,
  "\u2581do": 74,
  "\u2581what": 75,
  "wo": 76,
  "\u2581ne": 77,
  "a": 78,
  "\u2581my": 79,
  "\u2581an": 80,
  "\u2581people": 81,
  "\u2581What": 82,
  "\u25811": 83,
  "\u2581In": 84,
  "\u2581sei": 85,
  "\u2581has": 86,
  "\u2581pa": 87,
  "\u2581Jesu": 88,
  "\u2581here": 89,
  "\u2581kuva": 90,
  "\u2581asi": 91,
  "\u2581when": 92,
  "\u2581me": 93,
  "]": 94,
  "\u2581but": 95,
  "\u2581would": 96,
  "\u2581about": 97,
  "\u2581va": 98,
  "\u2581may": 99,
  "\u2581so": 100,
  "\u2581zvikuru": 101,
  "\u2581time": 102,
  "\u2581did": 103,
  "\u2581munhu": 104,
  "\u2581Asi": 105,
  "\u2581ye": 106,
  "\u2581life": 107,
  "\u2581no": 108,
  "\u2581out": 109,
  "\u2581A": 110,
  "\u2581zvinhu": 111,
  "\u2581nguva": 112,
  "\u2581He": 113,
  "\u2581kuita": 114,
  "\u2581How": 115,
  "\u2581And": 116,
  "\u2581said": 117,
  "\u2581mumwe": 118,
  "\u2581zvino": 119,
  "\u2581her": 120,
  "\u2581also": 121,
  "\u2581those": 122,
  "\u2581ari": 123,
  "\u2581up": 124,
  "\u2581more": 125,
  "\u2581aka": 126,
  "\u2581akanga": 127,
  "\u2581which": 128,
  "\u2581there": 129,
  "\u2581ano": 130,
  "\u2581some": 131,
  "\u2581kuna": 132,
  "\u2581been": 133,
  "\u2581nokuti": 134,
  "t": 135,
  "\u2581Ku": 136,
  "\u2581man": 137,
  "\u2581Bhaibheri": 138,
  "\u2581iri": 139,
  "\u2581It": 140,
  "\u2581pamusoro": 141,
  "\u2581many": 142,
  "\u2581such": 143,
  "\u2581vake": 144,
  "\u2581ino": 145,
  "\u2581noku": 146,
  "\u2581But": 147,
  "\u2581vamwe": 148,
  "\u2581into": 149,
  "\u2581nokuda": 150,
  "\u2581chete": 151,
  "\u2581wake": 152,
  "\u2581good": 153,
  "\u2581Kana": 154,
  "\u2581mashoko": 155,
  "\u2581if": 156,
  "\u2581things": 157,
  "b": 158,
  "\u2581vaka": 159,
  "\u2581Witnesses": 160,
  "\u2581even": 161,
  "\u2581shall": 162,
  "\u2581how": 163,
  "\u2581day": 164,
  "\u2581should": 165,
  "\u2581vari": 166,
  "\u2581world": 167,
  "\u2581way": 168,
  "\u2581these": 169,
  "\u2581kwe": 170,
  "\u2581other": 171,
  "\u2581basa": 172,
  "\u2581vano": 173,
  "\u2581akati": 174,
  "\u2581For": 175,
  "\u2581/": 176,
  "\u2581than": 177,
  "\u2581make": 178,
  "\u2581We": 179,
  "\u2581children": 180,
  "\u2581work": 181,
  "\u2581help": 182,
  "\u2581Paul": 183,
  "\u2581does": 184,
  "\u2581iye": 185,
  "\u2581ya": 186,
  "\u2581love": 187,
  "\u2581They": 188,
  "\u2581earth": 189,
  "\u2581years": 190,
  "\u2581uri": 191,
  "\u2581pasi": 192,
  "\u2581ane": 193,
  "\u2581she": 194,
  "\"": 195,
  "\u2581vose": 196,
  "\u2581Christian": 197,
  "\u2581Christ": 198,
  "ed": 199,
  "\u2581could": 200,
  "\u2581When": 201,
  "\u25812": 202,
  "\u2581because": 203,
  "\u2581re": 204,
  "\u2581This": 205,
  "\u2581zvose": 206,
  "\u2581na": 207,
  "\u2581se": 208,
  "\u2581page": 209,
  "e": 210,
  "\u2581vakanga": 211,
  "\u2581made": 212,
  "\u2581first": 213,
  "\u2581muna": 214,
  "\u2581e": 215,
  "\u2581wa": 216,
  "E": 217,
  "\u2581vana": 218,
  "\u2581Mu": 219,
  "\u2581yake": 220,
  "\u2581over": 221,
  "\u2581says": 222,
  "\u2581pane": 223,
  "\u2581Zvino": 224,
  "\u2581Why": 225,
  "\u2581Kingdom": 226,
  "\u2581come": 227,
  "\u2581chinhu": 228,
  "\u2581Christians": 229,
  "\u2581zvaJehovha": 230,
  "\u2581yoku": 231,
  "\u2581papeji": 232,
  "\u2581kunyange": 233,
  "\u2581Pauro": 234,
  "\u2581only": 235,
  "...": 236,
  "\u2581before": 237,
  "\u2581like": 238,
  "\u2581others": 239,
  "\u2581being": 240,
  "\u2581zvakanaka": 241,
  "\u2581If": 242,
  "\u2581then": 243,
  "\u2581men": 244,
  "\u2581yacho": 245,
  "\u258115": 246,
  "\u2581kwazvo": 247,
  "ly": 248,
  "\u2581pakati": 249,
  "\u2581As": 250,
  "\u2581avo": 251,
  "\u2581uno": 252,
  "\u2581family": 253,
  "ri": 254,
  "\u2581Kunyange": 255,
  "\u2581spirit": 256,
  "\u2581dzose": 257,
  "\u2581imwe": 258,
  "\u25813:": 259,
  "\u2581vane": 260,
  "\u2581must": 261,
  "\u2581yaka": 262,
  "\u2581know": 263,
  "\u2581faith": 264,
  "re": 265,
  "\u2581Israel": 266,
  "ti": 267,
  "\u2581see": 268,
  "\u2581zviri": 269,
  "the": 270,
  "\u2581You": 271,
  "nge": 272,
  "\u2581achi": 273,
  "\u2581its": 274,
  "\u2581need": 275,
  "n": 276,
  "\u2581ra": 277,
  "\u2581yose": 278,
  "ku": 279,
  "na": 280,
  "\u2581simba": 281,
  "\u2581apo": 282,
  "\u2581pe": 283,
  "\u2581take": 284,
  "\u2581munyika": 285,
  "\u2581after": 286,
  "\u2581mwoyo": 287,
  "\u25812:": 288,
  "\u2581example": 289,
  "\u2581own": 290,
  "\u2581iyi": 291,
  "\u2581C": 292,
  "\u2581upenyu": 293,
  "\u2581vachi": 294,
  "\u2581Zvisinei": 295,
  "\u2581rake": 296,
  "\u2581now": 297,
  "\u2581*": 298,
  "\u2581heart": 299,
  "\u2581naMwari": 300,
  "\u2581any": 301,
  "\u2581kune": 302,
  "\u2581well": 303,
  "\u2581Saka": 304,
  "\u2581words": 305,
  "\u2581against": 306,
  "\u2581nyika": 307,
  "d": 308,
  "\u2581izvi": 309,
  "\u2581kwa": 310,
  "\u2581vakawanda": 311,
  "\u25815": 312,
  "\u2581So": 313,
  "\u2581two": 314,
  "\u2581congregation": 315,
  "\u2581just": 316,
  "\u2581ma": 317,
  "\u2581chaizvo": 318,
  "\u25814:": 319,
  "\u2581death": 320,
  "\u2581name": 321,
  "\u2581came": 322,
  "zve": 323,
  "\u2581waka": 324,
  "\u2581unto": 325,
  "\u2581spiritual": 326,
  "I": 327,
  "\u2581true": 328,
  "\u2581nenzira": 329,
  "\u2581ava": 330,
  "\u2581wacho": 331,
  "\u2581become": 332,
  "\u2581new": 333,
  "\u25816": 334,
  "\u2581nezve": 335,
  "\u2581ose": 336,
  "\u25811:": 337,
  "\u2581give": 338,
  "\u2581upon": 339,
  "\u2581raMwari": 340,
  "pa": 341,
  "\u2581nzira": 342,
  "\u2581great": 343,
  "\u2581naJehovha": 344,
  "\u2581another": 345,
  "mu": 346,
  "\u2581che": 347,
  "\u2581through": 348,
  "o": 349,
  "\u2581zvaka": 350,
  "\u2581pamwe": 351,
  "\u2581vai": 352,
  "\u2581wangu": 353,
  "\u2581kwake": 354,
  "\u2581say": 355,
  "\u2581house": 356,
  "\u2581ones": 357,
  "\u2581David": 358,
  "\u2581Kristu": 359,
  "\u2581vavo": 360,
  "ita": 361,
  "\u2581John": 362,
  "\u2581kupfuura": 363,
  "\u2581kuno": 364,
  "S": 365,
  "\u2581parents": 366,
  "\u2581bedzi": 367,
  "\u2581very": 368,
  "\u2581ndoku": 369,
  "\u2581Zvapupu": 370,
  "\u2581much": 371,
  "\u2581Uye": 372,
  "\u2581dze": 373,
  "\u2581chimwe": 374,
  "\u2581kutaura": 375,
  "\u2581might": 376,
  "\u2581rino": 377,
  "\u2581zvazvo": 378,
  "\u2581go": 379,
  "va": 380,
  "\u2581kubva": 381,
  "\u2581where": 382,
  "\u2581ichi": 383,
  "\u2581Mufananidzo": 384,
  "\u2581makore": 385,
  "\u2581pano": 386,
  "\u2581dzino": 387,
  "\u25811,": 388,
  "\u2581ve": 389,
  "\u2581kusvikira": 390,
  "\u2581most": 391,
  "\u2581son": 392,
  "\u2581truth": 393,
  "\u2581king": 394,
  "\u2581naye": 395,
  "\u2581down": 396,
  "\u2581times": 397,
  "\u2581That": 398,
  "\u2581zve": 399,
  "\u2581ai": 400,
  "\u2581zva": 401,
  "\u2581poku": 402,
  "\u2581paku": 403,
  "\u2581kudaro": 404,
  "\u2581aiva": 405,
  "\u2581mukuru": 406,
  "\u2581put": 407,
  "\u2581uyo": 408,
  "\u2581yavo": 409,
  "ro": 410,
  "\u2581zvimwe": 411,
  "\u2581today": 412,
  "\u2581every": 413,
  "\u2581yokuti": 414,
  "\u2581person": 415,
  "\u2581himself": 416,
  "\u2581nomumwe": 417,
  "\u2581yedu": 418,
  "\u2581found": 419,
  "\u2581Pa": 420,
  "\u2581Picture": 421,
  "\u2581Nei": 422,
  "ra": 423,
  "\u258111": 424,
  "\u2581ndaka": 425,
  "\u2581year": 426,
  "\u2581\u25a1": 427,
  "\u2581young": 428,
  "\u2581place": 429,
  "ne": 430,
  "\u2581Kuti": 431,
  "\u2581among": 432,
  "\u2581rimwe": 433,
  "\u2581Chii": 434,
  "\u2581let": 435,
  "\u2022": 436,
  "\u2581study": 437,
  "\u2581One": 438,
  "\u2581iyoyo": 439,
  "\u2581i": 440,
  "\u2581wose": 441,
  "\u2581part": 442,
  "\u2581away": 443,
  "\u2581dzaka": 444,
  "\u2581To": 445,
  "\u2581woku": 446,
  "\u2581nemhaka": 447,
  "\u2581panguva": 448,
  "\u2581akanaka": 449,
  "\u2581days": 450,
  "\u2581dzimwe": 451,
  "\u2581raka": 452,
  "\u2581book": 453,
  "\u2581Then": 454,
  "\u2581find": 455,
  "\u2581zvakawanda": 456,
  "\u2581word": 457,
  "\u2581zvakadaro": 458,
  "\u2581pamberi": 459,
  "\u2581home": 460,
  "\u2581human": 461,
  "\u2581riri": 462,
  "\u2581mune": 463,
  "\u2581hand": 464,
  "\u2581New": 465,
  "\u2581same": 466,
  "\u2581LORD": 467,
  "\u2581brothers": 468,
  "\u2581Mashoko": 469,
  "\u2581zuva": 470,
  "\u2581chino": 471,
  "\u2581kuda": 472,
  "A": 473,
  "\u2581wedu": 474,
  "da": 475,
  "\u2581B": 476,
  "\u2581acha": 477,
  "\u2581each": 478,
  "\u2581Word": 479,
  "\u2581feel": 480,
  "C": 481,
  "\u2581called": 482,
  "\u2581Iye": 483,
  "\u2581murume": 484,
  "\u2581keep": 485,
  "\u2581Do": 486,
  "\u2581cha": 487,
  "\u2581under": 488,
  "\u2581Naizvozvo": 489,
  "\u2581apostle": 490,
  "\u2581Peter": 491,
  "\u25813": 492,
  "\u2581long": 493,
  "\u2581end": 494,
  "\u2581wako": 495,
  "\u2581hama": 496,
  "\u2581chokwadi": 497,
  "\u2581vaKristu": 498,
  "\u258114": 499,
  "\u2581though": 500,
  "\u2581am": 501,
  "\u2581yakanga": 502,
  "\u2581iyo": 503,
  "\u2581Vanhu": 504,
  "\u2581right": 505,
  "\u2581However": 506,
  "\u2581Vamwe": 507,
  "u": 508,
  "\u2581never": 509,
  "\u2581use": 510,
  "\u2581nzvimbo": 511,
  "\u2581rudo": 512,
  "\u2581Aka": 513,
  "\u2581kupfurikidza": 514,
  "\u2581means": 515,
  "y": 516,
  "\u2581pedyo": 517,
  "\u258120": 518,
  "\u2581get": 519,
  "\u2581anoti": 520,
  "\u2581vangu": 521,
  "\u2581Satan": 522,
  "\u2581No": 523,
  "\u2581land": 524,
  "\u2581chaka": 525,
  "\u258113": 526,
  "no": 527,
  "\u2581Nokuti": 528,
  "\u2581Some": 529,
  "\u2581why": 530,
  "\u2581navo": 531,
  "\u2581father": 532,
  "\u2581wrote": 533,
  "\u2581often": 534,
  "\u2581hwake": 535,
  "\u2581pachena": 536,
  "\u2581wife": 537,
  "\u2581ine": 538,
  "\u2581Somuenzaniso": 539,
  "\u2581became": 540,
  "\u25819": 541,
  "\u2581At": 542,
  "\u2581back": 543,
  "\u2581too": 544,
  "\u2581kwaari": 545,
  "\u2581set": 546,
  "\u2581given": 547,
  "\u2581kwavo": 548,
  "\u2581Father": 549,
  "\u2581asina": 550,
  "\u2581shoko": 551,
  "\u2581choku": 552,
  "\u2581used": 553,
  "\u2581went": 554,
  "\u2581kuri": 555,
  "\u2581pashure": 556,
  "\u2581racho": 557,
  "\u2581roku": 558,
  "\u2581vaiva": 559,
  "\u2581gare": 560,
  "\u25818": 561,
  "\u2581themselves": 562,
  "\u2581Jerusalem": 563,
  "\u2581dza": 564,
  "\u2581ake": 565,
  "\u2581Izvi": 566,
  "\u2581hope": 567,
  "ko": 568,
  "\u2581kwaka": 569,
  "\u2581kwete": 570,
  "\u2581mari": 571,
  "\u2581Is": 572,
  "\u2581show": 573,
  "\u2581kutenda": 574,
  "\u2581nayo": 575,
  "\u2581peace": 576,
  "\u2581kuona": 577,
  "\u2581old": 578,
  "sa": 579,
  "\u2581zita": 580,
  "\u2581vasina": 581,
  "\u2581chiri": 582,
  "\u2581three": 583,
  "\u2581course": 584,
  "\u2581haana": 585,
  "\u2581pana": 586,
  "\u2581pfungwa": 587,
  "\u2581nhasi": 588,
  "\u2581worship": 589,
  "\u2581holy": 590,
  "th": 591,
  "\u2581Yahweh": 592,
  "\u2581saying": 593,
  "\u2581whom": 594,
  "to": 595,
  "\u2581Ipapo": 596,
  "\u2581After": 597,
  "\u2581M": 598,
  "\u2581zvi": 599,
  "The": 600,
  "\u2581There": 601,
  "\u2581told": 602,
  "\u2581mwanakomana": 603,
  "\u2581muku": 604,
  "\u2581vacha": 605,
  "\u2581live": 606,
  "\u2581u": 607,
  "\u2581Dhavhidhi": 608,
  "ndi": 609,
  "te": 610,
  "\u2581city": 611,
  "\u2581tichi": 612,
  "\u2581learn": 613,
  "\u2581Va": 614,
  "\u2581izvozvo": 615,
  "\u2581without": 616,
  "bva": 617,
  "\u2581gave": 618,
  "\u2581want": 619,
  "\u2581news": 620,
  "\u2581nevanhu": 621,
  "\u2581uyu": 622,
  "ona": 623,
  "\u2581kwoku": 624,
  "\u2581took": 625,
  "\u2581waMwari": 626,
  "\u2581akaita": 627,
  "\u2581zvoku": 628,
  "\u2581Lord": 629,
  "\u2581child": 630,
  "\u2581Here": 631,
  "zo": 632,
  "\u2581read": 633,
  "\u2581knowledge": 634,
  "\u2581wavo": 635,
  "\u2581Matthew": 636,
  "\u2581still": 637,
  "\u2581kuziva": 638,
  "\u2581began": 639,
  "\u2581dzake": 640,
  "\u2581Ma": 641,
  "\u2581Mumwe": 642,
  "\u2581vakuru": 643,
  "ve": 644,
  "\u2581century": 645,
  "\u2581mind": 646,
  "\u2581important": 647,
  "\u2581during": 648,
  "\u2581faithful": 649,
  "\u2581Petro": 650,
  "\u2581ndiye": 651,
  "ka": 652,
  "m": 653,
  "\u2581power": 654,
  "\u2581mambo": 655,
  "\u2581Chokwadi": 656,
  "\u2581She": 657,
  "\u2581By": 658,
  "\u2581service": 659,
  "\u2581kuramba": 660,
  "\u2581chose": 661,
  "al": 662,
  "er": 663,
  "\u2581living": 664,
  "\u2581later": 665,
  "\u2581U": 666,
  "\u2581kazhinji": 667,
  "\u2581kwedu": 668,
  "\u2581ivo": 669,
  "\u2581both": 670,
  "\u2581thou": 671,
  "\u258112:": 672,
  "\u2581view": 673,
  "\u2581uchi": 674,
  "\u2581disciples": 675,
  "\u258121": 676,
  "\u2581P": 677,
  "\u258117": 678,
  "\u2581Pane": 679,
  "\u2581vabereki": 680,
  "anenge": 681,
  "\u2581nyore": 682,
  "po": 683,
  "),": 684,
  "\u2581nyaya": 685,
  "\u2581nei": 686,
  "\u2581ndi": 687,
  "\u2581nesimba": 688,
  "\u2581kudzidza": 689,
  "\u2581serve": 690,
  "\u2581ministry": 691,
  "\u258112": 692,
  "\u2581ezvinhu": 693,
  "\u2581Shoko": 694,
  "\u2581chokuti": 695,
  "\u2581able": 696,
  "\u2581taka": 697,
  "\u2581preaching": 698,
  "\u2581bring": 699,
  "\u2581servants": 700,
  "\u2581ucha": 701,
  "si": 702,
  "\u2581rwe": 703,
  "\u258119": 704,
  "\u2581vaya": 705,
  "\u2581chi": 706,
  "\u2581vanofanira": 707,
  "\u25814.": 708,
  "\u2581while": 709,
  "\u2581mberi": 710,
  "\u2581His": 711,
  "\u2581On": 712,
  "r": 713,
  "\u2581dzoku": 714,
  "\u2581doing": 715,
  "\u2581zvakaipa": 716,
  "\u2581Psalm": 717,
  "\u2581vo": 718,
  "\u2581dziri": 719,
  "\u2581With": 720,
  "\u2581however": 721,
  "\u2581zvokudya": 722,
  "\u25814": 723,
  "\u2581mukati": 724,
  "\u2581ti": 725,
  "\u2581raJehovha": 726,
  "\u2581Moses": 727,
  "nzwa": 728,
  "\u2581achiti": 729,
  "\u2581mother": 730,
  "\u2581tinofanira": 731,
  "\u25812.": 732,
  "\u2581again": 733,
  "\u2581dzavo": 734,
  "\u2581zvokuti": 735,
  "\u2581Yes": 736,
  "ramba": 737,
  "\u2581together": 738,
  "\u2581full": 739,
  "\u2581zvisina": 740,
  "\u2581nor": 741,
  "\u2581Scriptures": 742,
  "\u2581ways": 743,
  "\u2581kuwana": 744,
  "\u2581woman": 745,
  "\u2581kusvika": 746,
  "\u2581hwaMwari": 747,
  "wana": 748,
  "\u25817": 749,
  "\u2581huru": 750,
  "taura": 751,
  "\u2581guru": 752,
  "\u2581oku": 753,
  "\u2581anofanira": 754,
  "\u258110": 755,
  "\u2581hwe": 756,
  "\u258110:": 757,
  "\u258116": 758,
  "\u2581thy": 759,
  "zvi": 760,
  "\u2581yai": 761,
  "\u2581yaMwari": 762,
  "\u2581done": 763,
  "\u2581o": 764,
  "\u2581Son": 765,
  "ni": 766,
  "\u2581asked": 767,
  "\u2581tino": 768,
  "\u2581between": 769,
  "\u2581toward": 770,
  "\u2581mwana": 771,
  "\u2581muupenyu": 772,
  "\u2581fact": 773,
  "\u2581Yet": 774,
  "\u2581Baba": 775,
  "\u2581pasina": 776,
  "\u2581vadzidzi": 777,
  "\u2581wo": 778,
  "\u2581rose": 779,
  "\u2581brought": 780,
  "\u2581having": 781,
  "\u2581yangu": 782,
  "\u2581off": 783,
  "\u2581mabasa": 784,
  "\u2581sin": 785,
  "\u2581O": 786,
  "\u2581religious": 787,
  "\u2581heaven": 788,
  "\u2581akataura": 789,
  "\u2581making": 790,
  "ratidza": 791,
  "\u2581King": 792,
  "\u2581nevamwe": 793,
  "\u2581nations": 794,
  "\u2581blood": 795,
  "\u2581mamwe": 796,
  "\u2581mankind": 797,
  "\u2581always": 798,
  "\u2581States": 799,
  "gara": 800,
  "\u2581maviri": 801,
  "\u2581Ne": 802,
  "\u2581tiri": 803,
  "\u2581kushandisa": 804,
  "\u2581panyika": 805,
  "\u2581mazuva": 806,
  "\u2581izvo": 807,
  "\u25815:": 808,
  "\u25817:": 809,
  "\u2581Many": 810,
  "\u2581ipapo": 811,
  "\u258110.": 812,
  "\u258125": 813,
  "....": 814,
  "\u2581My": 815,
  "ta": 816,
  "\u2581brother": 817,
  "\u2581loving": 818,
  "\u2581little": 819,
  "\u2581ndizvo": 820,
  "mbo": 821,
  "\u2581chii": 822,
  "\u2581zano": 823,
  "\u2581akanyora": 824,
  "\u2581law": 825,
  "\u258114.": 826,
  "\u2581Even": 827,
  "\u2581mhuri": 828,
  "\u2581Vaka": 829,
  "\u2581anogona": 830,
  "in": 831,
  "\u2581reason": 832,
  "se": 833,
  "\u2581water": 834,
  "\u2581left": 835,
  "l": 836,
  "\u2581rinonzi": 837,
  "\u2581varume": 838,
  "ngo": 839,
  "\u2581sons": 840,
  "\u2581order": 841,
  "\u2581fear": 842,
  "\u2581Ndaka": 843,
  "\u2581Our": 844,
  "\u2581Isaiah": 845,
  "\u2581N": 846,
  "\u2581aya": 847,
  "ma": 848,
  "\u2581eyes": 849,
  "\u258124": 850,
  "\u2581S": 851,
  "\u2581really": 852,
  "\u2581face": 853,
  "\u2581something": 854,
  "\u258115,": 855,
  "\u2581number": 856,
  "\u2581joy": 857,
  "\u2581result": 858,
  "\u25815.": 859,
  "\u2581marriage": 860,
  "\u258118": 861,
  "\u25816:": 862,
  "\u2581Pashure": 863,
  "\u2581Pisarema": 864,
  "\u2581oga": 865,
  "\u25818.": 866,
  "\u2581akawanda": 867,
  "\u2581women": 868,
  "\u2581World": 869,
  "\u2581think": 870,
  "\u2581kwenguva": 871,
  "\u2581ave": 872,
  "\u2581sezvo": 873,
  "\u2581humans": 874,
  "\u2581purpose": 875,
  "\u2581Thus": 876,
  "\u258111.": 877,
  "\u258112.": 878,
  "\u2581chake": 879,
  "\u2581zvakanga": 880,
  "\u2581yet": 881,
  "\u2581All": 882,
  "\u2581muBhaibheri": 883,
  "\u2581food": 884,
  "\u2581These": 885,
  "\u2581Ano": 886,
  "\u2581yako": 887,
  "\u258113.": 888,
  "nzi": 889,
  "\u2581husband": 890,
  "\u2581ndichi": 891,
  "isa": 892,
  "\u25817.": 893,
  "\u2581kuenda": 894,
  "\u2581vaMwari": 895,
  "\u2581imi": 896,
  "\u2581kwakanga": 897,
  "\u2581hapana": 898,
  "\u2581From": 899,
  "rwa": 900,
  "\u2581fellow": 901,
  "\u2581ever": 902,
  "\u2581wicked": 903,
  "\u2581consider": 904,
  "\u2581munguva": 905,
  "\u2581Society": 906,
  "\u2581Let": 907,
  "\u2581vaviri": 908,
  "\u2581few": 909,
  "\u2581personal": 910,
  "\u2581000": 911,
  "\u2581Sezvo": 912,
  "\u2581nomu": 913,
  "\u2581thee": 914,
  "\u2581mukadzi": 915,
  "\u2581sent": 916,
  "\u2581zvavo": 917,
  "wa": 918,
  "\u2581siyana": 919,
  "\u2581elders": 920,
  "\u25819.": 921,
  "\u2581dzakawanda": 922,
  "\u2581look": 923,
  "\u2581zvine": 924,
  "\u2581future": 925,
  "\u2581zvake": 926,
  "\u2581Apo": 927,
  "\u2581itsva": 928,
  "\u2581problems": 929,
  "\u2581saw": 930,
  "\u2581lives": 931,
  "\u258130": 932,
  "\u2581until": 933,
  "\u2581prayer": 934,
  "\u2581since": 935,
  "nga": 936,
  "\u2581soku": 937,
  "c": 938,
  "\u2581iwe": 939,
  "\u2581known": 940,
  "\u2581muenzaniso": 941,
  "\u2581wisdom": 942,
  "\u2581free": 943,
  "\u258117.": 944,
  "\u2581yo": 945,
  "\u2581speak": 946,
  "\u2581someone": 947,
  "\u2581panzvimbo": 948,
  "\u2581shamwari": 949,
  "\u2581care": 950,
  "\u25813.": 951,
  "\u2581vazhinji": 952,
  "\u258116.": 953,
  "\u2581according": 954,
  "\u2581rudzi": 955,
  "shandisa": 956,
  "\u258123": 957,
  "funga": 958,
  "\u2581therefore": 959,
  "\u2581Satani": 960,
  "\u2581vave": 961,
  "\u2581rokuti": 962,
  "\u2581wakanga": 963,
  "nyanya": 964,
  "\u258115.": 965,
  "\u2581kunzwisisa": 966,
  "\u2581inoti": 967,
  "\u2581better": 968,
  "\u2581high": 969,
  "\u2581counsel": 970,
  "\u2581war": 971,
  "-": 972,
  "\u2581religion": 973,
  "\u2581righteous": 974,
  "\u2581zvichi": 975,
  "\u2581huno": 976,
  "\u25816.": 977,
  "\u2581bhuku": 978,
  "\u2581akava": 979,
  "\u258122": 980,
  "\u2581nda": 981,
  "\u2581last": 982,
  "\u2581vako": 983,
  "\u2581hwa": 984,
  "\u2581vedu": 985,
  "\u2581Muna": 986,
  "\u2581heard": 987,
  "\u2581yaiva": 988,
  "\u2581rinoti": 989,
  "\u2581experience": 990,
  "\u2581vakati": 991,
  "\u2581Now": 992,
  "\u2581questions": 993,
  "\u2581naJesu": 994,
  "\u2581kudenga": 995,
  "\u2581enyika": 996,
  "\u2581mvura": 997,
  "\u2581E": 998,
  "\u2581Munhu": 999,
  "\u2581muungano": 1000,
  "fanira": 1001,
  "\u2581cause": 1002,
  "\u2581dead": 1003,
  "enda": 1004,
  "\u2581ini": 1005,
  "\u2581Jews": 1006,
  "\u2581Proverbs": 1007,
  "\u2581article": 1008,
  "\u2581rwa": 1009,
  "mi": 1010,
  "\u2581sa": 1011,
  "\u2581cannot": 1012,
  "\u2581mutsvene": 1013,
  "\u2581thus": 1014,
  "ziva": 1015,
  "\u2581Vano": 1016,
  "\u2581far": 1017,
  "\u2581meetings": 1018,
  "\u2581aizo": 1019,
  "\u2581body": 1020,
  "\u2581following": 1021,
  "\u2581anga": 1022,
  "mo": 1023,
  "\u2581Who": 1024,
  "\u25813,": 1025,
  "\u2581Umambo": 1026,
  "ki": 1027,
  "\u2581needed": 1028,
  "\u25818:": 1029,
  "\u2581yeBhaibheri": 1030,
  "pinda": 1031,
  "\u2581thing": 1032,
  "\u2581nechokwadi": 1033,
  "\u2581learned": 1034,
  "\u2581Ko": 1035,
  "\u2581different": 1036,
  "\u2581baba": 1037,
  "\u2581believe": 1038,
  "\u2581yakati": 1039,
  "\u2581matter": 1040,
  "\u2581fine": 1041,
  "\u2581kupa": 1042,
  "\u2581tariro": 1043,
  "\u2581yourself": 1044,
  "\u25818,": 1045,
  "\u2581dzine": 1046,
  "\u2581Isaya": 1047,
  "\u2581rutivi": 1048,
  "\u2581dzedu": 1049,
  "\u2581yakawanda": 1050,
  "makumi": 1051,
  "\u2581kwo": 1052,
  "\u2581teaching": 1053,
  "\u2581happy": 1054,
  "\u2581money": 1055,
  "\u2581tsika": 1056,
  "\u2581yechiKristu": 1057,
  "\u2581hard": 1058,
  "\u2581Your": 1059,
  "\u2581possible": 1060,
  "\u2581self": 1061,
  "\u2581heavenly": 1062,
  "\u2581anointed": 1063,
  "\u2581answer": 1064,
  "\u2581nani": 1065,
  "\u2581conduct": 1066,
  "\u2581muzana": 1067,
  "\u2581thought": 1068,
  "\u2581zvai": 1069,
  "\u2581school": 1070,
  "\u2581felt": 1071,
  "\u2581chaizvoizvo": 1072,
  "\u2581early": 1073,
  "\u2581system": 1074,
  "edza": 1075,
  "\u2581Abraham": 1076,
  "\u2581Corinthians": 1077,
  "\u2581chikonzero": 1078,
  "\u2581forth": 1079,
  "\u2581friends": 1080,
  "\u2581Because": 1081,
  "\u2581Watchtower": 1082,
  "\u2581nokusingaperi": 1083,
  "\u2581kuitira": 1084,
  "tanga": 1085,
  "\u2581helped": 1086,
  "\u2581around": 1087,
  "\u2581kwose": 1088,
  "\u2581certain": 1089,
  "\u2581kufunga": 1090,
  "\u2581language": 1091,
  "\u2581ask": 1092,
  "\u2581whole": 1093,
  "\u2581light": 1094,
  "\u2581present": 1095,
  "\u2581best": 1096,
  "\u2581kunoita": 1097,
  "pi": 1098,
  "\u2581havana": 1099,
  "\u2581York": 1100,
  "\u2581soul": 1101,
  "\u2581tinogona": 1102,
  "\u2581ungano": 1103,
  "\u2581T": 1104,
  "\u2581Greek": 1105,
  "\u2581Mwanakomana": 1106,
  "\u2581ikoko": 1107,
  "\u2581zvakaita": 1108,
  "\u2581members": 1109,
  "\u2581Israelites": 1110,
  "\u2581hwedu": 1111,
  "\u2581vaIsraeri": 1112,
  "vaka": 1113,
  "\u2581Zvirevo": 1114,
  "\u25aa": 1115,
  "\u2581chacho": 1116,
  "\u2581Mambo": 1117,
  "\u2581bad": 1118,
  "\u2581share": 1119,
  "\u2581ikoku": 1120,
  "\u2581ndicha": 1121,
  "\u258118.": 1122,
  "dzi": 1123,
  "\u2581amene": 1124,
  "\u2581taken": 1125,
  "\u2581desire": 1126,
  "\u2581relationship": 1127,
  "\u2581age": 1128,
  "\u2581Nokudaro": 1129,
  "\u2581ancient": 1130,
  "\u2581continue": 1131,
  "piwa": 1132,
  "\u2581akadaro": 1133,
  "\u2581kunogona": 1134,
  "\u2581turn": 1135,
  "\u2581going": 1136,
  "\u2581next": 1137,
  "\u2581rakanga": 1138,
  "\u2581Timothy": 1139,
  "shanda": 1140,
  "\u2581kushanda": 1141,
  "\u2581Be": 1142,
  "\u2581isina": 1143,
  "\u2581close": 1144,
  "\u2581four": 1145,
  "\u2581kukuru": 1146,
  "\u2581mbiri": 1147,
  "\u2581mufaro": 1148,
  "\u2581kunzwa": 1149,
  "\u2581situation": 1150,
  "\u2581Of": 1151,
  "\u2581received": 1152,
  "\u2581mean": 1153,
  "\u2581kupinda": 1154,
  "\u2581wise": 1155,
  "\u2581iwayo": 1156,
  "\u2581kwakaita": 1157,
  "\u2581message": 1158,
  "\u2581wenyu": 1159,
  "gamuchira": 1160,
  "dzidza": 1161,
  "\u2581vanoda": 1162,
  "\u2581kwavari": 1163,
  "\u2581Tower": 1164,
  "\u2581kare": 1165,
  "pedza": 1166,
  "\u25819,": 1167,
  "\u2581ndino": 1168,
  "\u2581kingdom": 1169,
  "\u2581uka": 1170,
  "\u2581mubasa": 1171,
  "\u2581died": 1172,
  "\u2581baptized": 1173,
  "\u2581Luke": 1174,
  "\u2581nazvo": 1175,
  "\u2581ndiri": 1176,
  "\u2581runo": 1177,
  "\u2581munzvimbo": 1178,
  "\u2581understand": 1179,
  "fa": 1180,
  "\u2581support": 1181,
  "\u2581righteousness": 1182,
  "\u2581kuitwa": 1183,
  "\u2581temple": 1184,
  "\u2581night": 1185,
  "\u2581vava": 1186,
  "\u2581imba": 1187,
  "\u2581NW": 1188,
  "gona": 1189,
  "\u2581giving": 1190,
  "uya": 1191,
  "ke": 1192,
  "\u2581musoro": 1193,
  "\u2581along": 1194,
  "\u2581nothing": 1195,
  "\u2581iro": 1196,
  "\u2581une": 1197,
  "\u2581nenguva": 1198,
  "\u2581kuchi": 1199,
  "\u2581Revelation": 1200,
  "\u2581chokuita": 1201,
  "\u2581case": 1202,
  "\u2581yaJehovha": 1203,
  "\u2581seen": 1204,
  "\u2581vanogona": 1205,
  "\u2581kwaMwari": 1206,
  "\u2581small": 1207,
  "svika": 1208,
  "\u2581enjoy": 1209,
  "\u2581mweya": 1210,
  "\u2581nezva": 1211,
  "\u2581redu": 1212,
  "\u2581rugare": 1213,
  "\u2581United": 1214,
  "\u2581ndakanga": 1215,
  "\u2581nezuva": 1216,
  "chi": 1217,
  "ya": 1218,
  "\u2581Can": 1219,
  "\u2581maererano": 1220,
  "\u2581Judah": 1221,
  "le": 1222,
  "\u2581mudzimu": 1223,
  "\u2581talk": 1224,
  "\u2581vanenge": 1225,
  "\u25815,": 1226,
  "\u2581prophet": 1227,
  "Ku": 1228,
  "bata": 1229,
  "\u2581kind": 1230,
  "\u2581especially": 1231,
  "M": 1232,
  "\u2581vaJehovha": 1233,
  "\u2581ropa": 1234,
  "\u2581edu": 1235,
  "\u2581duku": 1236,
  "\u2581ourselves": 1237,
  "\u2581nation": 1238,
  "\u2581respect": 1239,
  "\u2581works": 1240,
  "\u2581James": 1241,
  "\u2581neither": 1242,
  "itwa": 1243,
  "ru": 1244,
  "\u2581kurarama": 1245,
  "\u2581tell": 1246,
  "\u2581strong": 1247,
  "\u2581attention": 1248,
  "\u2581munzira": 1249,
  "\u2581kwandiri": 1250,
  "\u25816,": 1251,
  ".\"": 1252,
  "\u2581soon": 1253,
  "\u2581paaka": 1254,
  "\u2581Job": 1255,
  "\u2581Since": 1256,
  "\u258119.": 1257,
  "\u2581hwavo": 1258,
  "\u25814,": 1259,
  "\u2581feelings": 1260,
  "\u2581kuteerera": 1261,
  "\u2581kunze": 1262,
  "\u2581mabhuku": 1263,
  "\u2581Ruka": 1264,
  "\u2581rwake": 1265,
  "\u2581sense": 1266,
  "\u2581muduku": 1267,
  "\u2581ipi": 1268,
  "\u2581iroro": 1269,
  "\u2581kure": 1270,
  "\u2581receive": 1271,
  "\u2581ramakore": 1272,
  "Those": 1273,
  "\u2581health": 1274,
  "\u2581Hungu": 1275,
  "\u2581unogona": 1276,
  "\u2581kuzo": 1277,
  "\u2581boka": 1278,
  "\u2581kwangu": 1279,
  "\u2581yakanaka": 1280,
  "\u2581avoid": 1281,
  "\u2581gumi": 1282,
  "\u2581real": 1283,
  "\u2581Adam": 1284,
  "\u2581anoda": 1285,
  "\u2581rine": 1286,
  "\u2581Solomon": 1287,
  "\u2581needs": 1288,
  "\u2581anoita": 1289,
  "\u2581lead": 1290,
  "\u2581Acts": 1291,
  "\u2581rangu": 1292,
  "\u2581rwaka": 1293,
  "\u2581muchi": 1294,
  "\u2581knew": 1295,
  "\u2581point": 1296,
  "\u2581ta": 1297,
  "\u2581Johani": 1298,
  "\u2581richi": 1299,
  "\u2581states": 1300,
  "\u2581rokutanga": 1301,
  "\u2581yenyu": 1302,
  "\u2581Law": 1303,
  "\u2581nomwoyo": 1304,
  "\u2581question": 1305,
  "\u2581difficult": 1306,
  "\u2581wrong": 1307,
  "\u2581zvikurusa": 1308,
  "\u2581kindness": 1309,
  "an": 1310,
  "V": 1311,
  "\u2581account": 1312,
  "\u2581follow": 1313,
  "\u2581icha": 1314,
  "\u2581trust": 1315,
  "\u258120.": 1316,
  "\u2581dzi": 1317,
  "\u2581vacho": 1318,
  "aka": 1319,
  "\u2581hands": 1320,
  "\u2581divine": 1321,
  "famba": 1322,
  "\u2581kururama": 1323,
  "\u2581makes": 1324,
  "\u2581benefit": 1325,
  "\u2581change": 1326,
  "\u2581false": 1327,
  "\u2581whether": 1328,
  "\u2581Not": 1329,
  "\u2581neni": 1330,
  "\u2581hanya": 1331,
  "\u2581moved": 1332,
  "\u2581Although": 1333,
  "\u2581near": 1334,
  "\u2581s": 1335,
  "batsira": 1336,
  "\u2581country": 1337,
  "\u2581Nenzira": 1338,
  "\u2581naizvozvo": 1339,
  "tora": 1340,
  "st": 1341,
  "\u2581matatu": 1342,
  "\u258114,": 1343,
  "\u2581akapa": 1344,
  "\u2581serving": 1345,
  "\u2581special": 1346,
  "\u2581control": 1347,
  "\u2581Are": 1348,
  "\u2581suffering": 1349,
  "\u2581acho": 1350,
  "\u2581ri": 1351,
  "N": 1352,
  "\u2581including": 1353,
  "\u2581Consider": 1354,
  "\u2581hwaka": 1355,
  "\u2581taught": 1356,
  "\u2581Ishe": 1357,
  "\u2581Mabasa": 1358,
  "\u2581sacrifice": 1359,
  "kwanisa": 1360,
  "\u2581glory": 1361,
  "\u2581yakarurama": 1362,
  "\u2581hear": 1363,
  "\u2581mubvunzo": 1364,
  "\u2581tika": 1365,
  "\u2581Mosesi": 1366,
  "vo": 1367,
  "\u2581F": 1368,
  "\u2581idzi": 1369,
  "\u2581Creator": 1370,
  "\u2581While": 1371,
  "\u2581asati": 1372,
  "\u2581saizvozvo": 1373,
  "\u2581return": 1374,
  "\u2581Romans": 1375,
  "\u2581venyu": 1376,
  "\u2581Such": 1377,
  "T": 1378,
  "\u2581po": 1379,
  "\u2581pray": 1380,
  "\u2581Omuzasi": 1381,
  "\u2581zvikurukuru": 1382,
  "\u2581Jakobho": 1383,
  "\u2581nhau": 1384,
  "\u2581evil": 1385,
  "\u2581sure": 1386,
  "\u2581rufu": 1387,
  "sarudza": 1388,
  "\u2581hakuna": 1389,
  "\u2581Egypt": 1390,
  "\u2581nokukurumidza": 1391,
  "\u2581coming": 1392,
  "\u2581stand": 1393,
  "\u2581written": 1394,
  "\u2581Footnote": 1395,
  "\u258127": 1396,
  "\u2581Uyezve": 1397,
  "\u2581certainly": 1398,
  "\u2581kugara": 1399,
  "\u2581comes": 1400,
  "\u258126": 1401,
  "\u2581principles": 1402,
  "vi": 1403,
  "\u2581sokuti": 1404,
  "\u2581form": 1405,
  "\u2581eat": 1406,
  "rega": 1407,
  "\u2581information": 1408,
  "es": 1409,
  "\u2581nezvoku": 1410,
  "\u2581vanga": 1411,
  "\u2581Uno": 1412,
  "\u2581provide": 1413,
  "\u2581muapostora": 1414,
  "\u2581second": 1415,
  "\u2581taking": 1416,
  "\u2581Ikoku": 1417,
  "\u2581call": 1418,
  "\u2581die": 1419,
  "\u2581mudzimai": 1420,
  "\u2581pasine": 1421,
  "\u2581zvechokwadi": 1422,
  "\u2581Johane": 1423,
  "\u2581zvinokosha": 1424,
  "\u2581gore": 1425,
  "\u2581group": 1426,
  "\u258118:": 1427,
  "\u2581waJehovha": 1428,
  "\u2581kuku": 1429,
  "\u2581reading": 1430,
  "\u2581neZvapupu": 1431,
  "\u2581likely": 1432,
  "\u2581wanted": 1433,
  "\u2581neku": 1434,
  "\u2581zvicha": 1435,
  "\u2581attitude": 1436,
  "\u2581kuratidza": 1437,
  "\u00b7": 1438,
  "\u2581involved": 1439,
  "U": 1440,
  "\u2581D": 1441,
  "\u2581J": 1442,
  "\u2581everlasting": 1443,
  "\u2581pfupi": 1444,
  "\u2581sheep": 1445,
  "\u2581Today": 1446,
  "\u2581Hapana": 1447,
  "chengeta": 1448,
  "\u2581An": 1449,
  "\u2581thinking": 1450,
  "\u2581chinangwa": 1451,
  "\u2581kubatsira": 1452,
  "\u2581kwako": 1453,
  "\u2581simply": 1454,
  "\u2581vaduku": 1455,
  "\u258128": 1456,
  "\u2581Imwe": 1457,
  "\u2581teach": 1458,
  "\u2581Joshua": 1459,
  "\u2581Nguva": 1460,
  "\u2581Therefore": 1461,
  "\u2581happiness": 1462,
  "\u2581remakore": 1463,
  "\u2581Does": 1464,
  "\u2581Re": 1465,
  "\u2581try": 1466,
  "\u2581zvinoita": 1467,
  "\u2581Muapostora": 1468,
  "\u2581hondo": 1469,
  "\u258111,": 1470,
  "\u2581perfect": 1471,
  "\u2581Neiko": 1472,
  "\u2581chakanga": 1473,
  "\u2581Africa": 1474,
  "\u2581unga": 1475,
  "B": 1476,
  "\u2581kusa": 1477,
  "\u2581matters": 1478,
  "\u2581Vana": 1479,
  "\u2581vaJudha": 1480,
  "\u2581Zvakazarurwa": 1481,
  "\u25812,": 1482,
  "D": 1483,
  "\u2581once": 1484,
  "\u2581icho": 1485,
  "\u2581kuchinja": 1486,
  "\u2581dzai": 1487,
  "\u2581five": 1488,
  "\u258121.": 1489,
  "\u2581strength": 1490,
  "\u2581navanhu": 1491,
  "\u2581zvedu": 1492,
  "\u2581act": 1493,
  "\u2581followers": 1494,
  "\u2581married": 1495,
  "\u2581further": 1496,
  "\u25817,": 1497,
  "G": 1498,
  "\u2581Daniel": 1499,
  "\u2581akatanga": 1500,
  "\u2581problem": 1501,
  "pe": 1502,
  "\u2581chero": 1503,
  "\u2581nezvinhu": 1504,
  "\u2581Mateu": 1505,
  "\u2581flesh": 1506,
  "\u2581kunaka": 1507,
  "buda": 1508,
  "\u258140": 1509,
  "\u2581muviri": 1510,
  "or": 1511,
  "paradza": 1512,
  "O": 1513,
  "\u2581Panguva": 1514,
  "Mwari": 1515,
  "nenge": 1516,
  "di": 1517,
  "\u2581zvinogona": 1518,
  "\u2581Joseph": 1519,
  "\u2581Kutaura": 1520,
  "\u2581kutanga": 1521,
  "\u2581large": 1522,
  "\u2581resurrection": 1523,
  "\u258110,": 1524,
  "\u2581Hebrew": 1525,
  "\u2581ravo": 1526,
  "tarisira": 1527,
  "\u2581apostles": 1528,
  "\u2581ka": 1529,
  "\u258131": 1530,
  "\u2581leave": 1531,
  "P": 1532,
  "\u2581Their": 1533,
  "\u2581remain": 1534,
  "\u258112,": 1535,
  "\u2581head": 1536,
  "\u2581haa": 1537,
  "\u2581rai": 1538,
  "\u2581ndai": 1539,
  "teerera": 1540,
  "\u2581gives": 1541,
  "dzidzisa": 1542,
  "\u2581mibvunzo": 1543,
  "\u2581uko": 1544,
  "\u2581judgment": 1545,
  "\u2581Zva": 1546,
  "\u2581uku": 1547,
  "tevera": 1548,
  "\u2581chipi": 1549,
  "\u2581loved": 1550,
  "\u2581Hama": 1551,
  "\u2581Magwaro": 1552,
  "\u2581kept": 1553,
  "\u2581similar": 1554,
  "\u2581upi": 1555,
  "\u2581akaratidza": 1556,
  "\u2581mhosva": 1557,
  "\u2581past": 1558,
  "\u2581within": 1559,
  "\u258116,": 1560,
  "\u2581pose": 1561,
  "\u2581dzangu": 1562,
  "\u2581vakaita": 1563,
  "\u2581anyone": 1564,
  "You": 1565,
  "tungamirira": 1566,
  "\u2581ago": 1567,
  "\u2581allow": 1568,
  "\u2581whose": 1569,
  "\u2581forever": 1570,
  "\u2581understanding": 1571,
  "\u2581Jewish": 1572,
  "dya": 1573,
  "\u2581Zviri": 1574,
  "\u2581authority": 1575,
  "\u2581zvakadini": 1576,
  "\u2581dzichi": 1577,
  "\u2581yakazara": 1578,
  "R": 1579,
  "nyatso": 1580,
  "\u2581don": 1581,
  "\u2581organization": 1582,
  "\u2581born": 1583,
  "\u2581zvishoma": 1584,
  "en": 1585,
  "\u2581alone": 1586,
  "\u2581heavens": 1587,
  "\u2581dzeBhaibheri": 1588,
  "\u2581According": 1589,
  "\u2581kunamata": 1590,
  "\u2581Nemhaka": 1591,
  "\u2581fire": 1592,
  "\u2581Dur": 1593,
  "\u2581Watch": 1594,
  "\u2581vakatendeka": 1595,
  "\u2581shows": 1596,
  "us": 1597,
  "\u2581yava": 1598,
  "\u2581material": 1599,
  "zi": 1600,
  "g": 1601,
  "\u2581hath": 1602,
  "\u2581tsitsi": 1603,
  "\u2581evidence": 1604,
  "\u2581isu": 1605,
  "\u2581already": 1606,
  "\u2581field": 1607,
  "\u2581spoke": 1608,
  "\u2581rather": 1609,
  "\u2581Taka": 1610,
  "\u2581Will": 1611,
  "\u258111:": 1612,
  "United": 1613,
  "\u2581kwamuri": 1614,
  "\u2581lived": 1615,
  "\u2581misangano": 1616,
  "\u2581zvakadai": 1617,
  "\u2581marudzi": 1618,
  "chinja": 1619,
  "\u2581Sei": 1620,
  "\u2581interest": 1621,
  "\u2581hwoku": 1622,
  "\u2581Mateo": 1623,
  "\u258150": 1624,
  "\u2581ukama": 1625,
  "\u2581vakadzi": 1626,
  "udza": 1627,
  "\u2581hearts": 1628,
  "\u2581saka": 1629,
  "\u2581vaizo": 1630,
  "\u2581Zvinhu": 1631,
  "\u2581individuals": 1632,
  "\u2581THE": 1633,
  "Shoko": 1634,
  "\u2581kunge": 1635,
  "siya": 1636,
  "\u2581chikuru": 1637,
  "kura": 1638,
  "\u2581clear": 1639,
  "\u2581kufamba": 1640,
  "\u2581voice": 1641,
  "\u2581Rather": 1642,
  "\u2581maka": 1643,
  "\u2581masimba": 1644,
  "\u2581rwomunhu": 1645,
  "\u2581longer": 1646,
  "\u2581history": 1647,
  "\u2581truly": 1648,
  "\u2581neBhaibheri": 1649,
  "\u2581People": 1650,
  "\u2581witness": 1651,
  "\u2581Achi": 1652,
  "\u2581prophecy": 1653,
  "go": 1654,
  "\u2581W": 1655,
  "\u2581wakati": 1656,
  "\u2581rule": 1657,
  "\u2581spiritually": 1658,
  "sangana": 1659,
  "\u2581physical": 1660,
  "reva": 1661,
  "\u2581based": 1662,
  "Nharireyomurindi": 1663,
  "tsvaka": 1664,
  "\u2581servant": 1665,
  "\u258113,": 1666,
  "\u2581countries": 1667,
  "\u2581mentioned": 1668,
  "\u2581started": 1669,
  "mira": 1670,
  "\u2581refu": 1671,
  "\u2581kwakadaro": 1672,
  "\u2581greater": 1673,
  "\u2581nhaka": 1674,
  "pera": 1675,
  "\u2581Would": 1676,
  "\u2581zvirokwazvo": 1677,
  "\u2581yakadaro": 1678,
  "itira": 1679,
  "me": 1680,
  "\u2581Dr": 1681,
  "\u2581showed": 1682,
  "\u2581covenant": 1683,
  "\u2581kuvanhu": 1684,
  "\u2581Genesis": 1685,
  "rangarira": 1686,
  "\u2581Ona": 1687,
  "\u2581sister": 1688,
  "\u2581unofanira": 1689,
  "\u2581public": 1690,
  "we": 1691,
  "\u2581hold": 1692,
  "\u2581Hebrews": 1693,
  "\u2581anodaro": 1694,
  "\u2581mutemo": 1695,
  "\u2581local": 1696,
  "\u2581ayo": 1697,
  "taurwa": 1698,
  "\u2581rest": 1699,
  "\u2581side": 1700,
  "\u2581zvinetso": 1701,
  "\u2581seek": 1702,
  "\u2581nemakore": 1703,
  "\u2581chinokosha": 1704,
  "\u2581mitemo": 1705,
  ",...": 1706,
  "\u2581chivi": 1707,
  "\u2581lost": 1708,
  "\u2581muno": 1709,
  "\u258137": 1710,
  "\u2581kwenyu": 1711,
  "\u2581nerimwe": 1712,
  "\u2581seven": 1713,
  "kurumidza": 1714,
  "\u2581husingaperi": 1715,
  "\u2581nomunhu": 1716,
  "\u2581vakafa": 1717,
  "verenga": 1718,
  "\u2581cho": 1719,
  "\u2581months": 1720,
  "\u02b9": 1721,
  "\u2581Zvaka": 1722,
  "\u2581church": 1723,
  "\u2581priest": 1724,
  "\u258113:": 1725,
  "\u2581poor": 1726,
  "\u2581ndiko": 1727,
  "\u2581Zvi": 1728,
  "\u2581friend": 1729,
  "simbisa": 1730,
  "wedzera": 1731,
  "v": 1732,
  "\u2581happened": 1733,
  "\u2581itself": 1734,
  "\u2581ro": 1735,
  "\u2581Tinofanira": 1736,
  "\u2581Saul": 1737,
  "\u2581vanoita": 1738,
  "\u2581perhaps": 1739,
  "\u2581speaking": 1740,
  "\u2581anonzi": 1741,
  "Mu": 1742,
  "pfuura": 1743,
  "\u2581Babylon": 1744,
  "\u2581Roman": 1745,
  "\u2581accept": 1746,
  "\u2581Devil": 1747,
  "\u2581hwangu": 1748,
  "\u2581unhu": 1749,
  "\u2581rechi": 1750,
  "\u2581slave": 1751,
  "ga": 1752,
  "\u2581Pictures": 1753,
  "\u2581Witness": 1754,
  "\u2581uyewo": 1755,
  "\u2581Chi": 1756,
  "\u2581Dzimwe": 1757,
  "\u2581zivo": 1758,
  "\u2581above": 1759,
  "\u258122.": 1760,
  "\u2581inspired": 1761,
  "\u2581ngozi": 1762,
  "\u2581walk": 1763,
  "\u2581mamiriro": 1764,
  "\u2581mutsa": 1765,
  "\u2581meaning": 1766,
  "hu": 1767,
  "\u2581common": 1768,
  "\u2581kumba": 1769,
  "\u2581anything": 1770,
  "\u2581Tino": 1771,
  "\u2581VaRoma": 1772,
  "\u2581promise": 1773,
  "\u2581ako": 1774,
  "\u2581offer": 1775,
  "\u2581priests": 1776,
  "\u2581kufanira": 1777,
  "\u2581Mifananidzo": 1778,
  "\u2581deal": 1779,
  "\u2581provided": 1780,
  "\u2581ten": 1781,
  "\u2581muushumiri": 1782,
  "\u2581nemhuri": 1783,
  "\u2581dzidziso": 1784,
  "\u2581Life": 1785,
  "\u2581kwaJehovha": 1786,
  "\u2581mhinduro": 1787,
  "\u2581sisters": 1788,
  "\u2581umo": 1789,
  "\u2581gift": 1790,
  "\u2581ndivo": 1791,
  "tarira": 1792,
  "\u2581ticha": 1793,
  "\u258123.": 1794,
  "\u2581wonderful": 1795,
  "\u2581serious": 1796,
  "\u2581families": 1797,
  "\u2581qualities": 1798,
  "de": 1799,
  "\u2581Noku": 1800,
  "\u2581anger": 1801,
  "\u2581circumstances": 1802,
  "\u2581congregations": 1803,
  "\u2581fully": 1804,
  "\u2581honor": 1805,
  "\u2581Catholic": 1806,
  "\u2581gain": 1807,
  "\u2581pioneer": 1808,
  "\u2581zvacho": 1809,
  "K": 1810,
  "\u2581Mary": 1811,
  "\u2581daughter": 1812,
  "\u2581zvakaitika": 1813,
  "vimba": 1814,
  "\u2581Jobho": 1815,
  "\u2581guta": 1816,
  "\u2581pakutanga": 1817,
  "\u2581angu": 1818,
  "\u258117,": 1819,
  "\u2581effort": 1820,
  "\u2581held": 1821,
  "\u2581deep": 1822,
  "\u2581usina": 1823,
  "\u258119,": 1824,
  "\u2581mumwoyo": 1825,
  "\u2581Jeremiah": 1826,
  "\u2581May": 1827,
  "\u2581meeting": 1828,
  "\u2581yakaipa": 1829,
  "ho": 1830,
  "\u258133": 1831,
  "daro": 1832,
  "\u2581True": 1833,
  "\u2581akatendeka": 1834,
  "\u2581remember": 1835,
  "\u2581huri": 1836,
  "\u2581sins": 1837,
  "\u2581muKristu": 1838,
  "\u2581chai": 1839,
  "\u2581sea": 1840,
  "\u2581yakafanana": 1841,
  "\u2581G": 1842,
  "\u2581Soromoni": 1843,
  "\u2581hava": 1844,
  "\u2581wai": 1845,
  "\u2581womunhu": 1846,
  "\u2581K": 1847,
  "rwe": 1848,
  "\u2581yemberi": 1849,
  "\u258132": 1850,
  "yo": 1851,
  "\u2581mana": 1852,
  "nzwisisa": 1853,
  "\u2581Akati": 1854,
  "\u2581kungo": 1855,
  "\u2581nyanzvi": 1856,
  "\u2581uchenjeri": 1857,
  "\u2581using": 1858,
  "\u2581amai": 1859,
  "\u2581inogona": 1860,
  "\u2581kubata": 1861,
  "\u2581zvakarurama": 1862,
  "\u2581million": 1863,
  "\u2581godly": 1864,
  "\u2581turned": 1865,
  "\u2581got": 1866,
  "\u2581please": 1867,
  "tsigira": 1868,
  "h": 1869,
  "\u2581answered": 1870,
  "\u2581six": 1871,
  "\u2581blessing": 1872,
  "\u2581continued": 1873,
  "bvisa": 1874,
  "\u2581hwose": 1875,
  "\u2581kuuya": 1876,
  "\u2581government": 1877,
  "\u2581effect": 1878,
  "\u2581vamene": 1879,
  "\u2581led": 1880,
  "shi": 1881,
  "\u2581Indeed": 1882,
  "\u2581comfort": 1883,
  "\u2581hwakanaka": 1884,
  "\u2581build": 1885,
  "\u2581musi": 1886,
  "eth": 1887,
  "kumbira": 1888,
  "\u2581yenyika": 1889,
  "\u2581Nyaya": 1890,
  "kunda": 1891,
  "\u2581zviviri": 1892,
  "on": 1893,
  "\u2581open": 1894,
  "Jehovha": 1895,
  "\u2581Ivo": 1896,
  "\u2581aida": 1897,
  "\u2581nawo": 1898,
  "\u2581nemi": 1899,
  "\u2581wakanaka": 1900,
  "k": 1901,
  "\u2581explained": 1902,
  "Kana": 1903,
  "\u2581Credit": 1904,
  "\u2581angels": 1905,
  "\u2581vachiti": 1906,
  "\u2581kuitika": 1907,
  "\u2581vakazodzwa": 1908,
  "cha": 1909,
  "\u258124.": 1910,
  "\u2581letter": 1911,
  "\u2581hanzvadzi": 1912,
  "\u2581percent": 1913,
  "itirwa": 1914,
  "\u2581Ino": 1915,
  "\u2581kurega": 1916,
  "\u2581regarding": 1917,
  "so": 1918,
  "\u2581named": 1919,
  "\u2581efforts": 1920,
  "\u2581served": 1921,
  "\u2581prayers": 1922,
  "H": 1923,
  "\u2581listen": 1924,
  "\u2581raiva": 1925,
  "aererano": 1926,
  "\u2581Mark": 1927,
  "\u2581Like": 1928,
  "\u2581nomudzimu": 1929,
  "\u2581Na": 1930,
  "mazuva": 1931,
  "akanga": 1932,
  "f": 1933,
  "\u2581anotaura": 1934,
  "farira": 1935,
  "\u2581Noah": 1936,
  "bvuma": 1937,
  "\u2581muri": 1938,
  "\u2581VaKristu": 1939,
  "he": 1940,
  "\u2581explains": 1941,
  "\u2581powerful": 1942,
  "\u2581okuti": 1943,
  "\u2581tine": 1944,
  "\u2581thousand": 1945,
  "\u2581doubt": 1946,
  "\u2581appointed": 1947,
  "\u2581draw": 1948,
  "\u2581Did": 1949,
  "\u2581everything": 1950,
  "\u2581nadzo": 1951,
  "\u2581move": 1952,
  "sati": 1953,
  "\u2581modern": 1954,
  "\u2581kutsvaka": 1955,
  "\u2581mumudzimu": 1956,
  "ers": 1957,
  "rarama": 1958,
  "\u2581ndika": 1959,
  "\u2581pass": 1960,
  "\u2581vanoti": 1961,
  "\u2581asinga": 1962,
  "\u2581kubvira": 1963,
  "\u2581pain": 1964,
  "\u2581confidence": 1965,
  "\u2581Pasinei": 1966,
  "\u2581ndiyo": 1967,
  "\u2581akaramba": 1968,
  "\u2581clean": 1969,
  "\u2581kwemakore": 1970,
  "\u2581R": 1971,
  "\u2581nenyika": 1972,
  "fara": 1973,
  "\u2581Se": 1974,
  "\u2581places": 1975,
  "\u2581tai": 1976,
  "\u2581navana": 1977,
  "\u2581hwako": 1978,
  "\u2581older": 1979,
  "\u2581yeku": 1980,
  "\u2581dzako": 1981,
  "\u2581freedom": 1982,
  "\u2581violence": 1983,
  "\u258170": 1984,
  "\u2581praise": 1985,
  "\u2581salvation": 1986,
  "\u2581kusina": 1987,
  "\u2581chine": 1988,
  "\u2581cities": 1989,
  "\u2581indeed": 1990,
  "\u2581rumwe": 1991,
  "\u2581zviuru": 1992,
  "\u2581wechokwadi": 1993,
  "\u2581Vabereki": 1994,
  "\u2581mumba": 1995,
  "\u2581kumu": 1996,
  "\u2581rokuparidza": 1997,
  "\u2581feet": 1998,
  "shandiswa": 1999,
  "\u2581Nhasi": 2000,
  "\u2581Zvechokwadi": 2001,
  "\u2581inonzi": 2002,
  "\u2581kupi": 2003,
  "\u2581pages": 2004,
  "\u2581area": 2005,
  "\u2581mamiriyoni": 2006,
  "\u2581promises": 2007,
  "\u2581yokutanga": 2008,
  "\u2581seem": 2009,
  "\u2581Panzvimbo": 2010,
  "\u2581mhaka": 2011,
  "\u2581visit": 2012,
  "\u2581destruction": 2013,
  "\u2581millions": 2014,
  "\u2581offering": 2015,
  "\u2581uchida": 2016,
  "\u2581period": 2017,
  "\u2581aigona": 2018,
  "\u2581makwai": 2019,
  "\u2581Scriptural": 2020,
  "\u2581dzakanga": 2021,
  "\u2581vakava": 2022,
  "\u2581neimwe": 2023,
  "\u2581events": 2024,
  "\u2581stated": 2025,
  "\u2581issue": 2026,
  "\u2581opportunity": 2027,
  "\u2581value": 2028,
  "\u2581Or": 2029,
  "\u2581kunyanya": 2030,
  "is": 2031,
  "\u2581Samuel": 2032,
  "\u2581newe": 2033,
  "\u2581Mukuru": 2034,
  "\u2581Tinogona": 2035,
  "\u2581standards": 2036,
  "\u2581zvichida": 2037,
  "\u2581prove": 2038,
  "\u2581zvakaoma": 2039,
  "\u2581less": 2040,
  "\u2581everyone": 2041,
  "\u2581Hence": 2042,
  "\u2581zvivi": 2043,
  "\u2581ndechokuti": 2044,
  "\u2581Most": 2045,
  "\u2581meet": 2046,
  "\u2581paka": 2047,
  "\u258118,": 2048,
  "\u2581vanakomana": 2049,
  "\u2581yoUmambo": 2050,
  "\u2581zvisinei": 2051,
  "\u2581returned": 2052,
  "\u2581various": 2053,
  "muka": 2054,
  "\u2581ndima": 2055,
  "\u2581accepted": 2056,
  "\u2581enough": 2057,
  "\u2581kwai": 2058,
  "ora": 2059,
  "\u2581Ndino": 2060,
  "\u2581apply": 2061,
  "\u2581myself": 2062,
  "bvira": 2063,
  "\u2581moral": 2064,
  "\u2581morning": 2065,
  "\u2581nomufaro": 2066,
  "\u2581zhinji": 2067,
  "\u2581hundred": 2068,
  "la": 2069,
  "\u2581H": 2070,
  "\u2581lands": 2071,
  "\u2581privilege": 2072,
  "kurudzira": 2073,
  "\u2581II": 2074,
  "\u2581zvo": 2075,
  "\u2581class": 2076,
  "\u2581examples": 2077,
  "\u2581ndiwo": 2078,
  "dhi": 2079,
  "\u2581VaHebheru": 2080,
  "\u258122,": 2081,
  "\u2581kucha": 2082,
  "\u2581offered": 2083,
  "\u2581kuedza": 2084,
  "\u2581voku": 2085,
  "Z": 2086,
  "\u2581magazine": 2087,
  "gadzirira": 2088,
  "zivisa": 2089,
  "\u2581munyori": 2090,
  "\u2581working": 2091,
  "\u2581birth": 2092,
  "\u2581Instead": 2093,
  "\u2581V": 2094,
  "\u2581considered": 2095,
  "\u2581youths": 2096,
  "govera": 2097,
  "\u2581mouth": 2098,
  "ic": 2099,
  "\u2581changed": 2100,
  "\u2581pakupedzisira": 2101,
  "\u2581vital": 2102,
  "ha": 2103,
  "\u2581munyaya": 2104,
  "\u2581willing": 2105,
  "\u2581Bhokisi": 2106,
  "\u2581pake": 2107,
  "\u2581ushe": 2108,
  "God": 2109,
  "\u2581kushandiswa": 2110,
  "\u2581mubhuku": 2111,
  "dzo": 2112,
  "\u2581inga": 2113,
  "\u2581navamwe": 2114,
  "\u2581neshamwari": 2115,
  "dzivisa": 2116,
  "\u2581penyu": 2117,
  "bvunza": 2118,
  "\u2581Jacob": 2119,
  "\u2581influence": 2120,
  "\u2581branch": 2121,
  "\u2581Zvirokwazvo": 2122,
  "\u2581thoughts": 2123,
  "\u2581carry": 2124,
  "nyora": 2125,
  "\u2581kings": 2126,
  "\u2581nokuva": 2127,
  "\u2581blessings": 2128,
  "\u2581dzo": 2129,
  "\u2581throughout": 2130,
  "\u2581tose": 2131,
  "\u2581iwoyo": 2132,
  "dzokera": 2133,
  "\u2581sexual": 2134,
  "\u2581helps": 2135,
  "\u2581available": 2136,
  "\u2581mukana": 2137,
  "\u2581kukosha": 2138,
  "\u2581kamwe": 2139,
  "\u2581Moreover": 2140,
  "\u2581zvinodiwa": 2141,
  "\u2581thousands": 2142,
  "\u2581preach": 2143,
  "\u2581proved": 2144,
  "\u2581Box": 2145,
  "\u2581nehanzvadzi": 2146,
  "Jehovah": 2147,
  "\u2581students": 2148,
  "\u2581door": 2149,
  "\u2581Bethel": 2150,
  "\u2581vashumiri": 2151,
  "\u2581Bhuku": 2152,
  "\u2581vateveri": 2153,
  "ronga": 2154,
  "\u2581affect": 2155,
  "\u2581activity": 2156,
  "\u2581easy": 2157,
  "\u2581else": 2158,
  "tu": 2159,
  "mba": 2160,
  "\u2581write": 2161,
  "iswa": 2162,
  "\u258125.": 2163,
  "\u2581tried": 2164,
  "\u2581apa": 2165,
  "\u2581zvakakwana": 2166,
  "\u2581Line": 2167,
  "\u258124:": 2168,
  "\u2581couple": 2169,
  "\u2581former": 2170,
  "\u2581kwatiri": 2171,
  "ba": 2172,
  "\u2581published": 2173,
  "\u2581ransom": 2174,
  "\u2581worldwide": 2175,
  "\u258120,": 2176,
  "\u2581apfuura": 2177,
  "\u2581inotevera": 2178,
  "\u2581kwechokwadi": 2179,
  "nguva": 2180,
  "\u2581commanded": 2181,
  "\u2581See": 2182,
  "\u2581cut": 2183,
  "\u2581pakunamata": 2184,
  "\u2581role": 2185,
  "\u2581several": 2186,
  "\u2581achiri": 2187,
  "\u2581usiku": 2188,
  "bvumira": 2189,
  "el": 2190,
  "\u2581shal": 2191,
  "\u2581promised": 2192,
  "\u2581Chimwe": 2193,
  "\u2581Hall": 2194,
  "\u2581kuchengeta": 2195,
  "\u2581mashanu": 2196,
  "\u2581nesu": 2197,
  "\u2581Nokuda": 2198,
  "\u2581decision": 2199,
  "\u2581kudzivisa": 2200,
  "shanyira": 2201,
  "tadza": 2202,
  "\u2581Still": 2203,
  "\u2581enemies": 2204,
  "\u2581maintain": 2205,
  "\u2581tree": 2206,
  "\u2581English": 2207,
  "\u2581Yaka": 2208,
  "\u2581akaona": 2209,
  "\u2581inokosha": 2210,
  "\u2581vasinga": 2211,
  "tonga": 2212,
  "\u2581loyal": 2213,
  "\u2581Kuno": 2214,
  "\u2581tinga": 2215,
  "\u2581chipo": 2216,
  "\u2581kwacho": 2217,
  "pfuurira": 2218,
  "sha": 2219,
  "\u2581Another": 2220,
  "\u2581ngirozi": 2221,
  "\u2581described": 2222,
  "\u2581met": 2223,
  "\u2581responsibility": 2224,
  "\u2581clearly": 2225,
  "tenda": 2226,
  "\u2581nevana": 2227,
  "\u2581zvokwadi": 2228,
  "\u2581kunyika": 2229,
  "\u2581yomu": 2230,
  "unenge": 2231,
  "kurukura": 2232,
  "nwa": 2233,
  "\u2581panyaya": 2234,
  "za": 2235,
  "\u2581books": 2236,
  "\u2581instance": 2237,
  "\u2581akaudza": 2238,
  "\u2581mutauro": 2239,
  "\u25819:": 2240,
  "\u2581laws": 2241,
  "ratidzwa": 2242,
  "\u2581tive": 2243,
  "\u2581vechiKristu": 2244,
  "\u2581advice": 2245,
  "\u2581Musiki": 2246,
  "\u2581foretold": 2247,
  "\u2581actually": 2248,
  "\u2581force": 2249,
  "\u2581rwoku": 2250,
  "\u2581activities": 2251,
  "\u2581raised": 2252,
  "ngova": 2253,
  "\u2581chapter": 2254,
  "\u2581learning": 2255,
  "\u2581position": 2256,
  "\u2581kuwedzera": 2257,
  "tya": 2258,
  "\u2581month": 2259,
  "\u2581single": 2260,
  "\u2581source": 2261,
  "\u2581caused": 2262,
  "\u2581rako": 2263,
  "\u2581vechokwadi": 2264,
  "ness": 2265,
  "\u2581muguta": 2266,
  "\u2581nehama": 2267,
  "fi": 2268,
  "\u2581VaKorinte": 2269,
  "\u2581zvachose": 2270,
  "\u2581Basa": 2271,
  "\u2581believers": 2272,
  "\u2581kudai": 2273,
  "\u2581First": 2274,
  "\u2581created": 2275,
  "bhabhatidzwa": 2276,
  "\u2581earthly": 2277,
  "\u2581natural": 2278,
  "\u2581kwauri": 2279,
  "\u2581half": 2280,
  "\u2581makuru": 2281,
  "\u2581regard": 2282,
  "budirira": 2283,
  "budisa": 2284,
  "\u2581fall": 2285,
  "\u2581teachings": 2286,
  "\u258160": 2287,
  "\u2581kureva": 2288,
  "\u2581usa": 2289,
  "batira": 2290,
  "\u2581zvokunamata": 2291,
  "\u2581appropriate": 2292,
  "\u2581bread": 2293,
  "\u2581justice": 2294,
  "\u2581nava": 2295,
  "\u2581muranda": 2296,
  "\u2581noupenyu": 2297,
  "kanganisa": 2298,
  "\u2581ability": 2299,
  "\u2581mafungiro": 2300,
  "p": 2301,
  "\u2581pavo": 2302,
  "\u2581Church": 2303,
  "\u2581Kuva": 2304,
  "\u2581appreciation": 2305,
  "pindura": 2306,
  "\u2581crowd": 2307,
  "\u2581ndava": 2308,
  "\u2581vaIsiraeri": 2309,
  "\u2581accurate": 2310,
  "\u2581kumbo": 2311,
  "\u2581zvinga": 2312,
  "\u2581Izvozvo": 2313,
  "\u2581conscience": 2314,
  "\u258134": 2315,
  "\u2581answers": 2316,
  "\u2581prison": 2317,
  "\u2581baptism": 2318,
  "man": 2319,
  "\u2581kwaiva": 2320,
  "\u2581Have": 2321,
  "\u2581Unogona": 2322,
  "\u2581blessed": 2323,
  "\u2581mupfungwa": 2324,
  "unza": 2325,
  "\u2581Chapupu": 2326,
  "\u2581bear": 2327,
  "\u2581nemashoko": 2328,
  "\u2581yourselves": 2329,
  "\u2581Just": 2330,
  "do": 2331,
  "\u2581Bva": 2332,
  "\u2581War": 2333,
  "\u2581de": 2334,
  "\u2581harmony": 2335,
  "fadza": 2336,
  "\u2581Though": 2337,
  "Read": 2338,
  "\u2581least": 2339,
  "\u2581office": 2340,
  "Ma": 2341,
  "\u25817]": 2342,
  "\u2581Timoti": 2343,
  "\u2581pave": 2344,
  "\u2581recorded": 2345,
  "\u2581shure": 2346,
  "\u2581spoken": 2347,
  "z": 2348,
  "\u2581Christendom": 2349,
  "\u2581Nyika": 2350,
  "batwa": 2351,
  "\u2581Zvimwe": 2352,
  "\u2581mercy": 2353,
  "\u2581followed": 2354,
  "\u2581precious": 2355,
  "\u2581vaJesu": 2356,
  "mutsa": 2357,
  "nda": 2358,
  "\u2581Vakawanda": 2359,
  "\u2581behind": 2360,
  "\u2581experienced": 2361,
  "\u2581mwedzi": 2362,
  "\u2581regular": 2363,
  "\u2581takes": 2364,
  "\u2581Europe": 2365,
  "mirira": 2366,
  "\u2581Awake": 2367,
  "\u2581imitate": 2368,
  "\u2581pfuma": 2369,
  "\u2581Nevertheless": 2370,
  "\u2581beginning": 2371,
  "as": 2372,
  "\u2581Read": 2373,
  "\u2581akaipa": 2374,
  "\u2581drink": 2375,
  "\u2581Gilead": 2376,
  "\u2581rinotaura": 2377,
  "\u2581ushumiri": 2378,
  "\u2581kutya": 2379,
  "zvinenge": 2380,
  "\u2581ika": 2381,
  "\u2581mate": 2382,
  "uraya": 2383,
  "\u2581chakanaka": 2384,
  "\u2581dzacho": 2385,
  "\u2581job": 2386,
  "\u2581zvakasimba": 2387,
  "\u2581direction": 2388,
  "\u2581wokuti": 2389,
  "\u2581built": 2390,
  "\u2581concern": 2391,
  "\u2581kukwana": 2392,
  "\u2581magazini": 2393,
  "\u2581zvapo": 2394,
  "Verenga": 2395,
  "ai": 2396,
  "\u2581convention": 2397,
  "\u2581filled": 2398,
  "\u2581occasion": 2399,
  "\u2581rich": 2400,
  "\u2581entire": 2401,
  "\u2581zvakare": 2402,
  "\u2581building": 2403,
  "\u2581Eve": 2404,
  "\u2581Sauro": 2405,
  "\u2581chaMwari": 2406,
  "\u2581subject": 2407,
  "\u2581nokutenda": 2408,
  "\u2581hours": 2409,
  "\u2581daily": 2410,
  "\u2581education": 2411,
  "\u2581enyu": 2412,
  "\u2581nokudaro": 2413,
  "\u2581mapeji": 2414,
  "\u2581sight": 2415,
  "kuwirirana": 2416,
  "\u2581mazana": 2417,
  "\u2581zvaiva": 2418,
  "\u2581Uyewo": 2419,
  "\u2581elder": 2420,
  "\u2581idzo": 2421,
  "\u2581reasons": 2422,
  "\u2581anoratidza": 2423,
  "\u2581cheBhaibheri": 2424,
  "\u2581determined": 2425,
  "\u2581reach": 2426,
  "\u2581zvomudzimu": 2427,
  "\u2581Ai": 2428,
  "\u2581fulfillment": 2429,
  "\u2581kwevanhu": 2430,
  "\u2581presence": 2431,
  "\u2581Holy": 2432,
  "\u2581Later": 2433,
  "\u2581complete": 2434,
  "\u2581hu": 2435,
  "\u2581youpenyu": 2436,
  "F": 2437,
  "\u2581sword": 2438,
  "\u2581matambudziko": 2439,
  "\u2581pavanhu": 2440,
  "\u2581sign": 2441,
  "ongorora": 2442,
  "ndo": 2443,
  "\u2581practical": 2444,
  "ll": 2445,
  "He": 2446,
  "\u2581attend": 2447,
  "\u2581fruit": 2448,
  "\u2581psalmist": 2449,
  "\u2581angel": 2450,
  "\u2581political": 2451,
  "tarisana": 2452,
  "\u2581proper": 2453,
  "\u2581Great": 2454,
  "\u2581Rimwe": 2455,
  "\u2581Usa": 2456,
  "\u2581suffer": 2457,
  "\u2581Ye": 2458,
  "\u2581disease": 2459,
  "\u2581nhema": 2460,
  "\u2581zvakasiyana": 2461,
  "ratidzika": 2462,
  "\u2581renyu": 2463,
  "\u2581grow": 2464,
  "\u258129": 2465,
  "\u2581kunga": 2466,
  "betsera": 2467,
  "diwa": 2468,
  "batanidzwa": 2469,
  "\u2581gold": 2470,
  "\u2581ground": 2471,
  "\u2581tsamba": 2472,
  "\u2581Upenyu": 2473,
  "\u2581earlier": 2474,
  "ry": 2475,
  "\u2581integrity": 2476,
  "\u2581leaders": 2477,
  "\u2581pay": 2478,
  "\u2581decisions": 2479,
  "\u2581hazvi": 2480,
  "\u2581stay": 2481,
  "\u2581centuries": 2482,
  "rava": 2483,
  "\u2581zvinoratidza": 2484,
  "dzivirira": 2485,
  "\u2581nebasa": 2486,
  "\u2581Germany": 2487,
  "\u2581anopfuura": 2488,
  "\u2581noupi": 2489,
  "\u2581sun": 2490,
  "\u2581fathers": 2491,
  "\u2581ona": 2492,
  "\u2581text": 2493,
  "\u2581kugamuchira": 2494,
  "\u2581speech": 2495,
  "zuva": 2496,
  "\u2581beyond": 2497,
  "\u2581seems": 2498,
  "\u2581zvako": 2499,
  "onekwa": 2500,
  "\u2581parts": 2501,
  "bereka": 2502,
  "\u2581kuzvi": 2503,
  "\u2581evanhu": 2504,
  "\u2581short": 2505,
  "\u2581utano": 2506,
  "\u2581youth": 2507,
  "\u2581mutoro": 2508,
  "\u2581pazuva": 2509,
  "\u2581report": 2510,
  "\u2581basis": 2511,
  "\u2581norudo": 2512,
  "\u2581chiratidzo": 2513,
  "\u2581norugare": 2514,
  "\u2581results": 2515,
  "\u2581third": 2516,
  "\u2581Mutemo": 2517,
  "\u2581chinetso": 2518,
  "dzoka": 2519,
  "\u2581start": 2520,
  "\u2581training": 2521,
  "guma": 2522,
  "\u2581action": 2523,
  "\u2581akabva": 2524,
  "\u2581creation": 2525,
  "\u2581individual": 2526,
  "\u2581100": 2527,
  "\u2581shown": 2528,
  "\u258117:": 2529,
  "\u2581\"\"": 2530,
  "\u2581richa": 2531,
  "muzana": 2532,
  "\u2581pachake": 2533,
  "\u2581vakadaro": 2534,
  "\u2581zvinofanira": 2535,
  "\u2581hurumende": 2536,
  "\u2581passed": 2537,
  "\u2581animals": 2538,
  "\u2581kwaJesu": 2539,
  "\u2581Unga": 2540,
  "\u2581added": 2541,
  "\u2581zvakajeka": 2542,
  "\u2581gods": 2543,
  "\u2581Kune": 2544,
  "\u2581akasiyana": 2545,
  "\u2581decided": 2546,
  "\u2581mwero": 2547,
  "\u2581necessary": 2548,
  "\u2581rusununguko": 2549,
  "\u2581wenyika": 2550,
  "ine": 2551,
  "\u2581obey": 2552,
  "\u2581betsero": 2553,
  "\u2581aifanira": 2554,
  "\u2581appreciate": 2555,
  "\u2581develop": 2556,
  "\u2581discipline": 2557,
  "\u2581exercise": 2558,
  "\u2581kutarisira": 2559,
  "\u2581getting": 2560,
  "We": 2561,
  "lo": 2562,
  "\u2581Paku": 2563,
  "\u2581inzwi": 2564,
  "\u2581kudya": 2565,
  "\u2581vaifanira": 2566,
  "\u2581dzakanaka": 2567,
  "\u2581miles": 2568,
  "nyengetera": 2569,
  "\u2581Where": 2570,
  "\u2581happen": 2571,
  "\u2581hazvina": 2572,
  "\u2581helping": 2573,
  "\u2581knows": 2574,
  "\u2581akapindura": 2575,
  "\u2581practice": 2576,
  "\u2581unoti": 2577,
  "\u2581VaKorinde": 2578,
  "\u2581paradise": 2579,
  "\u2581stop": 2580,
  "simba": 2581,
  "\u2581fulfilled": 2582,
  "\u2581mufungo": 2583,
  "\u2581lack": 2584,
  "vapo": 2585,
  "\u2581waJesu": 2586,
  "\u2581School": 2587,
  "\u2581destroyed": 2588,
  "\u2581killed": 2589,
  "\u2581somunhu": 2590,
  "\u2581Verenga": 2591,
  "\u2581literature": 2592,
  "\u2581okupedzisira": 2593,
  "\u2581sound": 2594,
  "\u2581murayiro": 2595,
  "tangira": 2596,
  "\u2581chichi": 2597,
  "\u2581nema": 2598,
  "\u2581Brother": 2599,
  "If": 2600,
  "\u2581missionary": 2601,
  "\u2581wants": 2602,
  "\u2581almost": 2603,
  "tongo": 2604,
  "\u2581changes": 2605,
  "\u2581concerning": 2606,
  "\u2581achishandisa": 2607,
  "\u2581Mukati": 2608,
  "\u2581mufananidzo": 2609,
  "\u2581wokutanga": 2610,
  "\u2581Pakupedzisira": 2611,
  "\u2581chaiyo": 2612,
  "\u2581wonder": 2613,
  "paradzwa": 2614,
  "tinenge": 2615,
  "\u258135": 2616,
  "\u2581Mazuva": 2617,
  "\u2581alive": 2618,
  "\u2581ivavo": 2619,
  "\u2581kutonga": 2620,
  "wi": 2621,
  "yeuka": 2622,
  "\u2581state": 2623,
  "iti": 2624,
  "rwi": 2625,
  "ye": 2626,
  "\u2581assignment": 2627,
  "\u2581Munguva": 2628,
  "\u2581Samueri": 2629,
  "\u2581nomudzimai": 2630,
  "\u2581behold": 2631,
  "\u2581dambudziko": 2632,
  "\u2581interested": 2633,
  "\u2581respond": 2634,
  "\u2581regularly": 2635,
  "\u2581Murume": 2636,
  "zviita": 2637,
  "\u2581ichocho": 2638,
  "\u2581ngoni": 2639,
  "\u2581Ndi": 2640,
  "\u2581allowed": 2641,
  "\u2581maKristu": 2642,
  "\u2581program": 2643,
  "\u2581uchapupu": 2644,
  "davira": 2645,
  "\u2581pavano": 2646,
  "\u2581prophets": 2647,
  "ratidzira": 2648,
  "\u2581Sa": 2649,
  "\u2581Ndicha": 2650,
  "\u2581nechipi": 2651,
  "\u2581seed": 2652,
  "\u2581acts": 2653,
  "\u2581mhuka": 2654,
  "\u2581kudzidzisa": 2655,
  "\u2581kutambura": 2656,
  "\u2581mazano": 2657,
  "li": 2658,
  "\u2581kufanana": 2659,
  "\u2581wives": 2660,
  "\u2581chaiva": 2661,
  "\u2581Funga": 2662,
  "\u2581ruoko": 2663,
  "\u2581sometimes": 2664,
  "\u2581weZvapupu": 2665,
  "\u2581vakatanga": 2666,
  "\u2581Waka": 2667,
  "\u2581week": 2668,
  "tambura": 2669,
  "una": 2670,
  "\u2581mano": 2671,
  "\u2581nemwoyo": 2672,
  "yi": 2673,
  "nde": 2674,
  "\u2581Ta": 2675,
  "It": 2676,
  "\u2581Before": 2677,
  "\u2581tells": 2678,
  "\u258129.": 2679,
  "\u2581Kuita": 2680,
  "rara": 2681,
  "\u2581Messiah": 2682,
  "\u2581nezvo": 2683,
  "\u2581sezva": 2684,
  "dza": 2685,
  "\u2581Ro": 2686,
  "\u2581kuverenga": 2687,
  "\u2581vachiri": 2688,
  "\u2581becoming": 2689,
  "tsanangura": 2690,
  "\u2581Ephesians": 2691,
  "\u2581akaenda": 2692,
  "\u2581kubatanidza": 2693,
  "L": 2694,
  "\u2581strengthen": 2695,
  "\u2581kufa": 2696,
  "\u2581mumhuri": 2697,
  "\u2581kusanganisira": 2698,
  "\u2581realize": 2699,
  "dzidziswa": 2700,
  "tenga": 2701,
  "wanikwa": 2702,
  "\u2581Others": 2703,
  "\u2581encouraged": 2704,
  "\u2581seeking": 2705,
  "\u2581rwo": 2706,
  "\u2581prayed": 2707,
  "\u2581rejoice": 2708,
  "\u2581vaite": 2709,
  "\u2581ndiani": 2710,
  "\u2581waiva": 2711,
  "\u2581rakanaka": 2712,
  "\u2581vakaramba": 2713,
  "\u2581choose": 2714,
  "\u2581greatest": 2715,
  "\u2581addition": 2716,
  "\u2581ready": 2717,
  "\u2581Josefa": 2718,
  "\u2581either": 2719,
  "\u2581personality": 2720,
  "ce": 2721,
  "\u2581pazvinhu": 2722,
  "\u2581chimiro": 2723,
  "\u2581inenge": 2724,
  "\u2581kutsungirira": 2725,
  "\u2581quickly": 2726,
  "\u2581usually": 2727,
  "\u2581endure": 2728,
  "w": 2729,
  "\u2581America": 2730,
  "\u2581save": 2731,
  "\u2581prepared": 2732,
  "\u2581kuvimba": 2733,
  "\u2581nokuita": 2734,
  "\u2581parent": 2735,
  "\u2581kwenyika": 2736,
  "\u2581patino": 2737,
  "\u258121,": 2738,
  "\u2581zvibereko": 2739,
  "\u2581zvinotaura": 2740,
  "\u2581aine": 2741,
  "it": 2742,
  "\u2581Tinga": 2743,
  "\u2581eBhaibheri": 2744,
  "\u2581languages": 2745,
  "\u2581dzakasiyana": 2746,
  "\u2581looking": 2747,
  "\u2581nepfungwa": 2748,
  "gi": 2749,
  "\u2581asiri": 2750,
  "\u2581pavaka": 2751,
  "\u2581command": 2752,
  "\u2581expression": 2753,
  "\u2581girl": 2754,
  "\u2581invited": 2755,
  "\u2581somu": 2756,
  "\u2581feeling": 2757,
  "\u2581nechivimbo": 2758,
  "\u2581Dhanieri": 2759,
  "\u2581akafa": 2760,
  "\u2581April": 2761,
  "zivikanwa": 2762,
  "berekwa": 2763,
  "kwira": 2764,
  "\u2581challenge": 2765,
  "\u2581mumakore": 2766,
  "shumira": 2767,
  "\u2581social": 2768,
  "tevedzera": 2769,
  "\u258124,": 2770,
  "\u2581condition": 2771,
  "\u2581flock": 2772,
  "\u2581positive": 2773,
  "kwa": 2774,
  "\u2581sick": 2775,
  "\u2581established": 2776,
  "\u2581kubatsirwa": 2777,
  "\u2581worked": 2778,
  "batsirwa": 2779,
  "wira": 2780,
  "\u2581showing": 2781,
  "\u2581Rudo": 2782,
  "\u2581kusarudza": 2783,
  "\u2581tribulation": 2784,
  "\u2581vasati": 2785,
  "\u2581walking": 2786,
  "hi": 2787,
  "\u2581'?": 2788,
  "\u2581pressure": 2789,
  "\u2581record": 2790,
  "\u2581actions": 2791,
  "\u2581ru": 2792,
  "\u2581guidance": 2793,
  "\u2581kakawanda": 2794,
  "\u2581member": 2795,
  "\u2581chivimbo": 2796,
  "\u2581Wa": 2797,
  "ano": 2798,
  "\u2581kufara": 2799,
  "1": 2800,
  "zova": 2801,
  "\u2581conditions": 2802,
  "onga": 2803,
  "\u2581St": 2804,
  "\u2581whatever": 2805,
  "\u2581Israeri": 2806,
  "\u2581naKristu": 2807,
  "\u2581provides": 2808,
  "\u2581zvakafanana": 2809,
  "est": 2810,
  "paridza": 2811,
  "\u2581gadziriro": 2812,
  "\u2581murefu": 2813,
  "\u2581nhamba": 2814,
  "\u2581noted": 2815,
  "\u2581devotion": 2816,
  "\u2581line": 2817,
  "\u2581nhengo": 2818,
  "\u2581Christianity": 2819,
  "\u2581dzaiva": 2820,
  "\u2581rwaMwari": 2821,
  "\u2581akamu": 2822,
  "\u2581revealed": 2823,
  "\u2581nheyo": 2824,
  "\u2581rukuru": 2825,
  "\u2581saith": 2826,
  "\u2581expect": 2827,
  "\u2581Kupfurikidza": 2828,
  "ar": 2829,
  "\u2581include": 2830,
  "\u2581yevanhu": 2831,
  "\u2581South": 2832,
  "\u2581fell": 2833,
  "\u2581chosen": 2834,
  "\u2581inofanira": 2835,
  "\u2581outside": 2836,
  "\u2581un": 2837,
  "bha": 2838,
  "\u2581achida": 2839,
  "\u2581interests": 2840,
  "\u2581wine": 2841,
  "\u2581ushamwari": 2842,
  "\u2581akashandisa": 2843,
  "\u2581Perhaps": 2844,
  "\u2581kukura": 2845,
  "\u2581music": 2846,
  "\u2581yomudzimu": 2847,
  "\u2581warning": 2848,
  "\u258128.": 2849,
  "Do": 2850,
  "\u2581Kubva": 2851,
  "\u2581Love": 2852,
  "\u2581anopa": 2853,
  "\u2581Remember": 2854,
  "\u2581enjoyed": 2855,
  "\u2581pezvo": 2856,
  "oni": 2857,
  "\u2581paJehovha": 2858,
  "less": 2859,
  "\u2581Ndai": 2860,
  "\u2581humble": 2861,
  "\u2581persons": 2862,
  "rasikirwa": 2863,
  "\u2581favor": 2864,
  "\u2581unyanzvi": 2865,
  "\u2581wava": 2866,
  "sara": 2867,
  "\u2581Akanga": 2868,
  "\u2581carried": 2869,
  "2": 2870,
  "\u2581varanda": 2871,
  "batanidza": 2872,
  "\u2581hurukuro": 2873,
  "\u2581traveling": 2874,
  "\u2581Zuva": 2875,
  "\u2581cases": 2876,
  "\u2581sex": 2877,
  "\u2581standing": 2878,
  "\u258116:": 2879,
  "ge": 2880,
  "\u2581lot": 2881,
  "\u2581mimwe": 2882,
  "\u2581trying": 2883,
  "\u2581spent": 2884,
  "\u2581Timotio": 2885,
  "\u2581begin": 2886,
  "\u2581sacred": 2887,
  "rwo": 2888,
  "\u2581Makore": 2889,
  "\u2581km": 2890,
  "\u2581midst": 2891,
  "\u2581spread": 2892,
  "\u2581ati": 2893,
  "\u2581beautiful": 2894,
  "\u2581knowing": 2895,
  "\u2581protect": 2896,
  "\u2581Similarly": 2897,
  "\u2581judge": 2898,
  "\u2581mupenyu": 2899,
  "\u2581chisarudzo": 2900,
  "\u2581Me": 2901,
  "\u2581studying": 2902,
  "\u2581nyama": 2903,
  "\u2581nacho": 2904,
  "\u2581nomutoo": 2905,
  "\u2581security": 2906,
  "\u2581dzisina": 2907,
  "\u2581society": 2908,
  "\u258145": 2909,
  "\u2581emotional": 2910,
  "\u2581kushumira": 2911,
  "\u2581mai": 2912,
  "\u2581vasa": 2913,
  "\u2581increase": 2914,
  "\u2581arrived": 2915,
  "\u2581sangano": 2916,
  "itika": 2917,
  "\u2581related": 2918,
  "\u2581Keep": 2919,
  "\u2581Mune": 2920,
  "\u2581More": 2921,
  "\u2581ndiro": 2922,
  "\u2581yakakodzera": 2923,
  "takura": 2924,
  "\u258131.": 2925,
  "\u2581completely": 2926,
  "\u2581L": 2927,
  "\u2581waters": 2928,
  "\u2581Soon": 2929,
  "\u2581Ka": 2930,
  "\u2581benefits": 2931,
  "\u2581ngwariro": 2932,
  "\u2581hai": 2933,
  "\u2581opened": 2934,
  "vakanga": 2935,
  "\u2581imperfect": 2936,
  "\u2581Iyi": 2937,
  "\u2581asiwo": 2938,
  "\u2581hwo": 2939,
  "\u2581mental": 2940,
  "\u2581Vai": 2941,
  "\u2581dedicated": 2942,
  "\u2581firm": 2943,
  "\u2581eventually": 2944,
  "\u2581surely": 2945,
  "be": 2946,
  "\u2581About": 2947,
  "\u2581destroy": 2948,
  "\u2581test": 2949,
  "nyaya": 2950,
  "\u2581gone": 2951,
  "\u2581napa": 2952,
  "\u2581quality": 2953,
  "Pa": 2954,
  "\u2581delivered": 2955,
  "\u2581fight": 2956,
  "\u2581medical": 2957,
  "\u2581neipi": 2958,
  "\u2581anoziva": 2959,
  "\u2581household": 2960,
  "\u2581achiita": 2961,
  "\u2581zvakaitwa": 2962,
  "co": 2963,
  "\u258120:": 2964,
  "\u2581aite": 2965,
  "\u258126.": 2966,
  "\u2581enter": 2967,
  "\u2581calls": 2968,
  "\u2581paai": 2969,
  "\u2581trials": 2970,
  "\u2581Children": 2971,
  "\u2581aiziva": 2972,
  "\u2581stood": 2973,
  "\u2581business": 2974,
  "\u2581dzicha": 2975,
  "\u2581progress": 2976,
  "\u2581umambo": 2977,
  "ngadai": 2978,
  "\u2581Mibvunzo": 2979,
  "\u2581nature": 2980,
  "\u2581peji": 2981,
  "\u2581wechiKristu": 2982,
  "\u25819]": 2983,
  "\u2581beliefs": 2984,
  "\u2581dzakadaro": 2985,
  "\u2581final": 2986,
  "\u2581hour": 2987,
  "\u2581Dhiyabhorosi": 2988,
  "\u2581courage": 2989,
  "\u2581lie": 2990,
  "\u2581mighty": 2991,
  "\u2581muMagwaro": 2992,
  "\u2581chiedza": 2993,
  "\u258136": 2994,
  "\u2581expressed": 2995,
  "\u2581gathered": 2996,
  "\u2581vaida": 2997,
  "\u2581womu": 2998,
  "\u2581yezvinhu": 2999,
  "\u2581ropafadzo": 3000,
  "\u2581manner": 3001,
  "\u2581miviri": 3002,
  "\u2581ndo": 3003,
  "\u2581original": 3004,
  "\u2581Rome": 3005,
  "\u2581army": 3006,
  "\u2581cast": 3007,
  "\u2581mapoka": 3008,
  "\u2581neva": 3009,
  "x": 3010,
  "\u2581mubayiro": 3011,
  "rera": 3012,
  "vanhu": 3013,
  "\u2581Ndiani": 3014,
  "\u2581areas": 3015,
  "\u2581deliver": 3016,
  "\u2581kutaurwa": 3017,
  "\u2581yomunhu": 3018,
  "parira": 3019,
  "\u2581dwell": 3020,
  "\u2581success": 3021,
  "\u2581tongue": 3022,
  "\u2581\"[": 3023,
  "gu": 3024,
  "\u2581kunzvimbo": 3025,
  "\u2581nhamo": 3026,
  "\u2581sleep": 3027,
  "\u2581Elijah": 3028,
  "\u2581Jerusarema": 3029,
  "\u2581choice": 3030,
  "\u2581fundo": 3031,
  "\u2581keeping": 3032,
  "vanakomana": 3033,
  "\u2581Paradise": 3034,
  "\u2581pure": 3035,
  "\u2581recent": 3036,
  "\u2581sacrifices": 3037,
  "\u2581brings": 3038,
  "\u2581negore": 3039,
  "\u2581simple": 3040,
  "\u2581encouragement": 3041,
  "\u2581chaJehovha": 3042,
  "\u2581desires": 3043,
  "rumbidza": 3044,
  "\u2581VaEfeso": 3045,
  "\u2581Vakuru": 3046,
  "\u2581Young": 3047,
  "\u258128,": 3048,
  "\u2581Genesi": 3049,
  "\u2581vomu": 3050,
  "oneka": 3051,
  "\u2581maoko": 3052,
  "\u2581meant": 3053,
  "\u2581\u25cf": 3054,
  "\u2581assigned": 3055,
  "\u2581general": 3056,
  "\u2581chavo": 3057,
  "\u2581ngati": 3058,
  "Let": 3059,
  "\u2581American": 3060,
  "\u2581express": 3061,
  "\u2581chicha": 3062,
  "\u2581looked": 3063,
  "\u2581manomwe": 3064,
  "\u2581Also": 3065,
  "\u2581required": 3066,
  "In": 3067,
  "\u2581akarurama": 3068,
  "\u2581December": 3069,
  "\u258123]": 3070,
  "\u2581afa": 3071,
  "\u2581neighbor": 3072,
  "vamba": 3073,
  "\u2581aJesu": 3074,
  "\u2581studies": 3075,
  "4": 3076,
  "ch": 3077,
  "\u2581chikamu": 3078,
  "\u2581missionaries": 3079,
  "\u2581zvayo": 3080,
  "\u2581ahead": 3081,
  "\u2581zvinotaurwa": 3082,
  "\u2581Ra": 3083,
  "\u2581encourage": 3084,
  "\u2581groups": 3085,
  "\u2581nezvimwe": 3086,
  "\u2581Vose": 3087,
  "\u2581yemhuri": 3088,
  "\u2581declared": 3089,
  "\u2581kuchikoro": 3090,
  "\u2581sezvino": 3091,
  "\u2581steps": 3092,
  "\u2581vision": 3093,
  "\u2581zana": 3094,
  "\u2581mangwanani": 3095,
  "tova": 3096,
  "\u2581believed": 3097,
  "able": 3098,
  "\u2581netsika": 3099,
  "\u2581workers": 3100,
  "\u2581zvizhinji": 3101,
  "tsiva": 3102,
  "\u2581emakore": 3103,
  "fu": 3104,
  "shandira": 3105,
  "\u2581Ini": 3106,
  "5": 3107,
  "\u2581nezveku": 3108,
  "fe": 3109,
  "\u2581enable": 3110,
  "\u2581kuvapo": 3111,
  "\u2581Amai": 3112,
  "\u2581abuse": 3113,
  "\u2581Munyika": 3114,
  "\u2581homes": 3115,
  "tsi": 3116,
  "\u2581chief": 3117,
  "\u2581maonero": 3118,
  "\u2581term": 3119,
  "\u2581vakaipa": 3120,
  "\u2581neimba": 3121,
  "\u2581spend": 3122,
  "See": 3123,
  "ation": 3124,
  "su": 3125,
  "\u2581battle": 3126,
  "\u2581chakaipa": 3127,
  "\u2581idi": 3128,
  "\u2581minister": 3129,
  "\u2581vachiita": 3130,
  "\u2581kwava": 3131,
  "\u25814;": 3132,
  "\u2581Mamwe": 3133,
  "\u2581haku": 3134,
  "\u2581musha": 3135,
  "\u2581vokudenga": 3136,
  "\u2581contact": 3137,
  "kurira": 3138,
  "\u2581idea": 3139,
  "mamwe": 3140,
  "\u2581Pasina": 3141,
  "\u2581persecution": 3142,
  "il": 3143,
  "\u2581matanhatu": 3144,
  "\u2581mienzaniso": 3145,
  "\u2581ngaa": 3146,
  "\u2581vanotaura": 3147,
  "\u2581deeply": 3148,
  "\u2581major": 3149,
  "\u2581overseer": 3150,
  "\u2581room": 3151,
  "\u2581vaine": 3152,
  "pu": 3153,
  "\u2581pwere": 3154,
  "\u2581uve": 3155,
  "\u2581wehondo": 3156,
  "\u2581minyengetero": 3157,
  "\u2581Anoti": 3158,
  "\u2581Ask": 3159,
  "\u2581tisa": 3160,
  "\u2581dedication": 3161,
  "\u2581ainge": 3162,
  "\u2581goal": 3163,
  "\u2581rava": 3164,
  "\u2581vatatu": 3165,
  "\u2581Encyclopedia": 3166,
  "\u2581Through": 3167,
  "\u2581behalf": 3168,
  "\u2581developed": 3169,
  "munhu": 3170,
  "bhi": 3171,
  "\u258110]": 3172,
  "\u2581vechiduku": 3173,
  "\u2581September": 3174,
  "\u2581Adhamu": 3175,
  "\u2581reported": 3176,
  "\u00e9": 3177,
  "\u2581explain": 3178,
  "\u2581goes": 3179,
  "ina": 3180,
  "\u2581Good": 3181,
  "\u2581akapfuura": 3182,
  "\u2581mazhinji": 3183,
  "\u2581rinokosha": 3184,
  "\u2581vaapostora": 3185,
  "imba": 3186,
  "\u2581image": 3187,
  "\u2581moyo": 3188,
  "chema": 3189,
  "\u2581daughters": 3190,
  "\u2581kunyengetera": 3191,
  "\u2581reports": 3192,
  "\u2581behavior": 3193,
  "\u2581forward": 3194,
  "\u2581silver": 3195,
  "\u2581pakanga": 3196,
  "\u2581publishers": 3197,
  "\u2581Well": 3198,
  "\u2581takanga": 3199,
  "\u2581vachava": 3200,
  "\u2581zvinoitika": 3201,
  "sina": 3202,
  "\u258127.": 3203,
  "mashoko": 3204,
  "\u2581inhabitants": 3205,
  "\u2581tsvene": 3206,
  "\u2581zvizere": 3207,
  "\u2581Tarirai": 3208,
  "\u2581immediately": 3209,
  "\u2581kubvuma": 3210,
  "ton": 3211,
  "umba": 3212,
  "\u2581Ikoko": 3213,
  "\u2581chedu": 3214,
  "\u2581veBhaibheri": 3215,
  "zvino": 3216,
  "\u2581anotsanangura": 3217,
  "\u2581saved": 3218,
  "\u2581address": 3219,
  "\u2581affection": 3220,
  "\u2581nama": 3221,
  "\u2581protection": 3222,
  "\u2581umene": 3223,
  "namata": 3224,
  "\u2581none": 3225,
  "\u2581observed": 3226,
  "koshesa": 3227,
  "udzwa": 3228,
  "\u2581boy": 3229,
  "\u2581musangano": 3230,
  "\u2581Despi": 3231,
  "\u2581Her": 3232,
  "\u2581Kazhinji": 3233,
  "\u2581Spirit": 3234,
  "\u2581nepo": 3235,
  "\u2581nezita": 3236,
  "\u2581town": 3237,
  "\u2581unity": 3238,
  "wanzo": 3239,
  "\u2581Ezekiel": 3240,
  "\u2581darkness": 3241,
  "\u2581break": 3242,
  "kundikana": 3243,
  "\u2581kwakaitwa": 3244,
  "\u2581Kufanana": 3245,
  "\u2581zvomu": 3246,
  "\u258130.": 3247,
  "\u2581court": 3248,
  "\u2581treatment": 3249,
  "\u2581w": 3250,
  "rondedzera": 3251,
  "\u2581August": 3252,
  "\u2581mucha": 3253,
  "\u2581netariro": 3254,
  "nya": 3255,
  "one": 3256,
  "\u2581iyeyo": 3257,
  "\u2581kubudirira": 3258,
  "\u2581kunofanira": 3259,
  "\u2581resurrected": 3260,
  "\u2581urwu": 3261,
  "\u2581vanoziva": 3262,
  "\u2581La": 3263,
  "\u2581afraid": 3264,
  "\u2581kuisa": 3265,
  "\u2581mine": 3266,
  "\u2581AIDS": 3267,
  "\u2581mountain": 3268,
  "\u2581oUmambo": 3269,
  "Y": 3270,
  "mazana": 3271,
  "\u2581kill": 3272,
  "\u2581teachers": 3273,
  "vano": 3274,
  "\u2581importance": 3275,
  "\u2581seeing": 3276,
  "zviisa": 3277,
  "\u2581genuine": 3278,
  "\u2581musikana": 3279,
  "\u2581naro": 3280,
  "\u2581pabasa": 3281,
  "\u2581akafanana": 3282,
  "\u2581reBhaibheri": 3283,
  "\u2581Zvichida": 3284,
  "\u2581aMwari": 3285,
  "\u2581nedzimwe": 3286,
  "\u2581contrast": 3287,
  "\u2581inoratidza": 3288,
  "\u2581send": 3289,
  "\u2581sort": 3290,
  "\u2581suffered": 3291,
  "\u2581zvipi": 3292,
  "\u258165": 3293,
  "\u2581Clearly": 3294,
  "\u2581teacher": 3295,
  "ite": 3296,
  "zvo": 3297,
  "\u2581Go": 3298,
  "\u2581eye": 3299,
  "\u2581kurangarira": 3300,
  "dana": 3301,
  "ze": 3302,
  "\u2581chirwere": 3303,
  "\u2581munharaunda": 3304,
  "\u2581roga": 3305,
  "\u2581seemed": 3306,
  "\u2581zvaaka": 3307,
  "\u258114;": 3308,
  "\u2581muJerusarema": 3309,
  "\u2581oil": 3310,
  "\u2581yechokwadi": 3311,
  "\u2581Behold": 3312,
  "\u2581altar": 3313,
  "\u2581paMwari": 3314,
  "kwe": 3315,
  "\u258122:": 3316,
  "\u2581forget": 3317,
  "\u2581mo": 3318,
  "\u2581yakareba": 3319,
  "\u2581zvenyika": 3320,
  "\u2581avanhu": 3321,
  "\u2581zvinoreva": 3322,
  "nyorwa": 3323,
  "\u2581Ndizvo": 3324,
  "\u2581although": 3325,
  "\u2581chinogona": 3326,
  "\u2581handina": 3327,
  "\u2581ruzivo": 3328,
  "\u2581approach": 3329,
  "\u2581dzechiKristu": 3330,
  "ur": 3331,
  "\u2581Abrahamu": 3332,
  "\u2581Aiwa": 3333,
  "\u2581guard": 3334,
  "\u2581lay": 3335,
  "\u2581pamba": 3336,
  "rayira": 3337,
  "\u2581Rino": 3338,
  "\u2581akawana": 3339,
  "\u2581included": 3340,
  "\u2581realized": 3341,
  "\u2581Vaya": 3342,
  "\u2581tinoda": 3343,
  "\u2581experiences": 3344,
  "\u2581key": 3345,
  "\u2581relief": 3346,
  "\u2581rwavo": 3347,
  "\u2581wilderness": 3348,
  "\u2581hasha": 3349,
  "tsungirira": 3350,
  "\u2581mazita": 3351,
  "\u2581publications": 3352,
  "bviswa": 3353,
  "\u2581ani": 3354,
  "\u2581existence": 3355,
  "\u2581finally": 3356,
  "\u2581izvozvi": 3357,
  "\u2581kundo": 3358,
  "\u2581pamusana": 3359,
  "\u2581yekare": 3360,
  "\u2581City": 3361,
  "Va": 3362,
  "\u2581authorities": 3363,
  "\u2581History": 3364,
  "\u2581chinga": 3365,
  "Ona": 3366,
  "\u2581Gare": 3367,
  "\u2581KU": 3368,
  "\u2581evening": 3369,
  "\u2581kutevedzera": 3370,
  "\u2581yakafanira": 3371,
  "and": 3372,
  "ca": 3373,
  "cho": 3374,
  "\u2581France": 3375,
  "\u2581October": 3376,
  "\u2581loss": 3377,
  "\u2581mumamiriro": 3378,
  "\u2581reflect": 3379,
  "\u2581vanopfuura": 3380,
  "kudza": 3381,
  "raira": 3382,
  "\u2581faced": 3383,
  "\u2581fail": 3384,
  "\u2581kumwe": 3385,
  "gumisa": 3386,
  "\u2581hast": 3387,
  "\u2581munhau": 3388,
  "\u2581visited": 3389,
  "\u2581Iwe": 3390,
  "\u2581March": 3391,
  "\u2581Us": 3392,
  "\u2581cope": 3393,
  "\u2581quite": 3394,
  "nyaradza": 3395,
  "\u2581kupedza": 3396,
  "\u2581Each": 3397,
  "\u2581Mount": 3398,
  "\u2581m": 3399,
  "\u2581observe": 3400,
  "\u2581pioneers": 3401,
  "\u2581Chino": 3402,
  "\u2581dzenyu": 3403,
  "\u2581illustration": 3404,
  "\u2581mitezo": 3405,
  "\u2581wait": 3406,
  "ng": 3407,
  "rwisa": 3408,
  "\u2581instead": 3409,
  "\u2581mujeri": 3410,
  "\u2581basic": 3411,
  "\u2581kutora": 3412,
  "\u2581ndicho": 3413,
  "dzora": 3414,
  "\u2581Only": 3415,
  "\u2581aware": 3416,
  "\u2581involves": 3417,
  "son": 3418,
  "\u2581Kutenda": 3419,
  "ari": 3420,
  "ting": 3421,
  "\u2581active": 3422,
  "\u2581despite": 3423,
  "\u2581names": 3424,
  "\u2581rwose": 3425,
  "\u2581zvikonzero": 3426,
  "\u2581Kwe": 3427,
  "nyika": 3428,
  "\u2581gifts": 3429,
  "\u2581eternal": 3430,
  "\u2581hune": 3431,
  "\u2581zvisarudzo": 3432,
  "\u2581chiito": 3433,
  "\u2581inobva": 3434,
  "fungisisa": 3435,
  "\u2581chechi": 3436,
  "\u2581greatly": 3437,
  "\u2581play": 3438,
  "\u2581prevent": 3439,
  "\u2581recognize": 3440,
  "\u2581voga": 3441,
  "7": 3442,
  "\u2581kuparidza": 3443,
  "\u2581nekuti": 3444,
  "\u2581watch": 3445,
  "pinza": 3446,
  "\u2581Nzira": 3447,
  "\u2581ana": 3448,
  "\u2581carefully": 3449,
  "\u2581treat": 3450,
  "\u2581yakajeka": 3451,
  "\u2581rinoreva": 3452,
  "This": 3453,
  "mudzimu": 3454,
  "\u2581zvipo": 3455,
  "she": 3456,
  "\u2581chitendero": 3457,
  "\u2581preached": 3458,
  "\u2581chisina": 3459,
  "\u2581practices": 3460,
  "\u2581sungano": 3461,
  "\u2581\u25c6": 3462,
  "9": 3463,
  "\u258126]": 3464,
  "\u2581vasiri": 3465,
  "ponesa": 3466,
  "\u2581appear": 3467,
  "\u2581tichifanira": 3468,
  "\u2581urged": 3469,
  "pupurira": 3470,
  "um": 3471,
  "\u2581Philippians": 3472,
  "\u2581articles": 3473,
  "\u2581vavengi": 3474,
  "che": 3475,
  "fungidzira": 3476,
  "\u2581Man": 3477,
  "\u2581Should": 3478,
  "\u2581arrangement": 3479,
  "\u2581hwokuti": 3480,
  "\u2581kutsamwa": 3481,
  "\u2581opposition": 3482,
  "\u2581risk": 3483,
  "\u2581June": 3484,
  "\u2581Translation": 3485,
  "\u2581hati": 3486,
  "\u2581laid": 3487,
  "\u2581Times": 3488,
  "\u2581Testament": 3489,
  "\u2581nyasha": 3490,
  "\u2581patient": 3491,
  "\u2581race": 3492,
  "\u2581yokuva": 3493,
  "gadzira": 3494,
  "\u2581Kwazvakatorwa": 3495,
  "torwa": 3496,
  "\u258123,": 3497,
  "\u2581weBhaibheri": 3498,
  "\u2581achibva": 3499,
  "\u2581High": 3500,
  "rwara": 3501,
  "tungamirirwa": 3502,
  "\u2581Japan": 3503,
  "\u2581delight": 3504,
  "mitauro": 3505,
  "\u258133.": 3506,
  "\u2581cultivate": 3507,
  "\u2581danger": 3508,
  "\u2581kutevera": 3509,
  "\u2581venyika": 3510,
  "\u2581July": 3511,
  "\u2581Muenzaniso": 3512,
  "batana": 3513,
  "\u258135.": 3514,
  "\u2581particularly": 3515,
  "\u2581warned": 3516,
  "\u2581aita": 3517,
  "\u2581attended": 3518,
  "\u2581Noa": 3519,
  "\u2581Inc": 3520,
  "\u2581drugs": 3521,
  "\u2581kunokosha": 3522,
  "\u2581nechimwe": 3523,
  "\u2581produce": 3524,
  "\u258110;": 3525,
  "\u2581isati": 3526,
  "\u2581January": 3527,
  "\u2581refused": 3528,
  "\u2581shepherd": 3529,
  "For": 3530,
  "pisa": 3531,
  "\u2581commandments": 3532,
  "\u2581throne": 3533,
  "\u2581chido": 3534,
  "\u2581kwayo": 3535,
  "\u2581mumazuva": 3536,
  "\u258115]": 3537,
  "\u2581achava": 3538,
  "\u2581cry": 3539,
  "\u2581muitiro": 3540,
  "\u2581paano": 3541,
  "vimbisa": 3542,
  "\u2581Maria": 3543,
  "\u2581kutsigira": 3544,
  "\u2581Hondo": 3545,
  "\u2581inofadza": 3546,
  "\u2581reward": 3547,
  "rira": 3548,
  "kosha": 3549,
  "ment": 3550,
  "uno": 3551,
  "\u258116;": 3552,
  "\u2581concerned": 3553,
  "\u2581mifananidzo": 3554,
  "\u2581yavanhu": 3555,
  "\u2581association": 3556,
  "\u2581camp": 3557,
  "\u2581car": 3558,
  "\u2581hana": 3559,
  "\u2581mudzidzi": 3560,
  "\u2581principle": 3561,
  "tarisirwa": 3562,
  "6": 3563,
  "What": 3564,
  "roora": 3565,
  "\u2581generation": 3566,
  "\u2581translation": 3567,
  "\u2581hucha": 3568,
  "\u2581nde": 3569,
  "\u2581yenguva": 3570,
  "\u2581Mhuri": 3571,
  "\u2581viewed": 3572,
  "\u2581kuonga": 3573,
  "\u2581nezvishoma": 3574,
  "\u2581asking": 3575,
  "\u2581loyalty": 3576,
  "\u2581road": 3577,
  "\u2581Pharaoh": 3578,
  "\u2581personally": 3579,
  "\u2581vokutanga": 3580,
  "bvumikisa": 3581,
  "\u2581kuitei": 3582,
  "\u2581muka": 3583,
  "\u2581remained": 3584,
  "\u2581Take": 3585,
  "\u2581claim": 3586,
  "\u2581kuyeuka": 3587,
  "\u2581late": 3588,
  "\u2581religions": 3589,
  "\u2581accounts": 3590,
  "\u2581due": 3591,
  "\u2581eating": 3592,
  "\u2581paimba": 3593,
  "\u2581verse": 3594,
  "unganidza": 3595,
  "\u2581Varume": 3596,
  "\u2581akabvunza": 3597,
  "\u2581mugariro": 3598,
  "\u2581trees": 3599,
  "\u2581yeZvapupu": 3600,
  "\u2581zvakakomba": 3601,
  "dze": 3602,
  "fambira": 3603,
  "\u2581Kwete": 3604,
  "\u2581Ucha": 3605,
  "\u2581consequences": 3606,
  "\u2581continues": 3607,
  "\u2581dzimba": 3608,
  "\u2581mountains": 3609,
  "\u2581vanogara": 3610,
  "\u2581run": 3611,
  "\u2581zvisinga": 3612,
  "\u2581MU": 3613,
  "\u2581chinoita": 3614,
  "\u2581conclusion": 3615,
  "\u2581measure": 3616,
  "\u2581mugumo": 3617,
  "\u2581truths": 3618,
  "mbe": 3619,
  "\u2581Book": 3620,
  "\u2581Isaac": 3621,
  "\u2581Vachi": 3622,
  "\u2581anokosha": 3623,
  "\u2581chaiwo": 3624,
  "\u2581kuparadza": 3625,
  "swedera": 3626,
  "\u2581manzwiro": 3627,
  "\u2581naPauro": 3628,
  "\u2581yayo": 3629,
  "\u2581muropa": 3630,
  "EJI": 3631,
  "\u2581Kutanga": 3632,
  "\u2581inotaura": 3633,
  "\u2581step": 3634,
  "Zvino": 3635,
  "budiswa": 3636,
  "siyana": 3637,
  "\u2581Yoku": 3638,
  "\u2581kubvisa": 3639,
  "\u2581kurutivi": 3640,
  "\u2581kuto": 3641,
  "\u2581naEvha": 3642,
  "\u2581Munyori": 3643,
  "\u2581Version": 3644,
  "\u2581easily": 3645,
  "\u2581goals": 3646,
  "\u2581kubetsera": 3647,
  "\u2581responsible": 3648,
  "\u2581zvinodikanwa": 3649,
  "\u2581obedient": 3650,
  "\u2581anobva": 3651,
  "\u2581humility": 3652,
  "\u2581urombo": 3653,
  "\u2581kudarika": 3654,
  "\u2581military": 3655,
  "\u2581mose": 3656,
  "\u2581woga": 3657,
  "ever": 3658,
  "\u2581PAGE": 3659,
  "\u2581attending": 3660,
  "\u2581display": 3661,
  "\u2581forgive": 3662,
  "\u2581ive": 3663,
  "\u2581richiti": 3664,
  "\u2581zvinoshamisa": 3665,
  "\u2581ainzi": 3666,
  "\u2581kunoreva": 3667,
  "\u2581lose": 3668,
  "\u2581prepare": 3669,
  "\u2581maari": 3670,
  "\u2581murangariro": 3671,
  "ther": 3672,
  "\u2581Pharisees": 3673,
  "\u2581examine": 3674,
  "\u2581obedience": 3675,
  "\u2581vachida": 3676,
  "iri": 3677,
  "\u2581Ecclesiastes": 3678,
  "\u2581akabvuma": 3679,
  "\u2581picture": 3680,
  "\u2581reasonable": 3681,
  "\u2581vashandi": 3682,
  "tumira": 3683,
  "\u2581god": 3684,
  "\u2581500": 3685,
  "\u2581asa": 3686,
  "nzvera": 3687,
  "\u2581Saizvozvowo": 3688,
  "\u2581agree": 3689,
  "\u2581raJesu": 3690,
  "\u2581appeared": 3691,
  "tuma": 3692,
  "\u2581sharing": 3693,
  "\u2581timene": 3694,
  "\u2581zvinobva": 3695,
  "3": 3696,
  "gadzirisa": 3697,
  "kuita": 3698,
  "\u2581Muku": 3699,
  "\u2581hosha": 3700,
  "fanana": 3701,
  "\u2581cheteyo": 3702,
  "\u2581leading": 3703,
  "\u258112;": 3704,
  "\u2581Was": 3705,
  "\u2581chakaita": 3706,
  "\u2581crime": 3707,
  "\u2581relatives": 3708,
  "\u2581event": 3709,
  "\u2581failed": 3710,
  "\u2581mudenga": 3711,
  "\u2581points": 3712,
  "\u2581zviratidzo": 3713,
  "\u2581compassion": 3714,
  "\u2581growing": 3715,
  "\u2581panzira": 3716,
  "\u2581putt": 3717,
  "\u2581weeks": 3718,
  "\u2581200": 3719,
  "\u2581eight": 3720,
  "\u2581zvisiri": 3721,
  "shaya": 3722,
  "\u258138": 3723,
  "\u2581Ti": 3724,
  "\u2581Vadzidzi": 3725,
  "\u2581hwaJehovha": 3726,
  "\u2581limited": 3727,
  "Ndaka": 3728,
  "\u2581Pano": 3729,
  "nyevera": 3730,
  "remekedza": 3731,
  "\u2581IN": 3732,
  "\u2581hearing": 3733,
  "\u2581reZvapupu": 3734,
  "\u2581Yeuka": 3735,
  "\u2581api": 3736,
  "\u2581overcome": 3737,
  "\u2581search": 3738,
  "\u2581Kwaka": 3739,
  "\u2581Nokukurumidza": 3740,
  "\u2581amakore": 3741,
  "\u2581imagine": 3742,
  "kanganwira": 3743,
  "\u2581changu": 3744,
  "\u2581kunoitwa": 3745,
  "kanganwa": 3746,
  "\u2581Mhinduro": 3747,
  "\u2581achitaura": 3748,
  "\u2581discuss": 3749,
  "\u2581rwangu": 3750,
  "\u2581causes": 3751,
  "\u2581dzaMwari": 3752,
  "\u2581nomurume": 3753,
  "konzera": 3754,
  "\u00a9": 3755,
  "\u2581disciple": 3756,
  "\u2581haina": 3757,
  "\u2581varombo": 3758,
  "\u2581kumusha": 3759,
  "\u2581requires": 3760,
  "tongwa": 3761,
  "\u2581lesson": 3762,
  "\u2581pako": 3763,
  "\u2581writing": 3764,
  "\u2581aJehovha": 3765,
  "\u2581akazo": 3766,
  "\u2581haasi": 3767,
  "\u2581inheritance": 3768,
  "\u2581kuve": 3769,
  "\u2581uchava": 3770,
  "\u2581universe": 3771,
  "\u2581secret": 3772,
  "\u2581elderly": 3773,
  "\u2581enemy": 3774,
  "\u2581negative": 3775,
  "\u2581chiremba": 3776,
  "\u2581muma": 3777,
  "rangarirwa": 3778,
  "\u2581Pakati": 3779,
  "\u2581Sea": 3780,
  "\u2581endurance": 3781,
  "\u2581thereof": 3782,
  "\u2581yaizo": 3783,
  "gadzirwa": 3784,
  "\u2581Over": 3785,
  "\u2581entered": 3786,
  "\u2581Nations": 3787,
  "\u2581Time": 3788,
  "\u2581front": 3789,
  "\u2581stress": 3790,
  "ion": 3791,
  "\u2581Ve": 3792,
  "\u2581closer": 3793,
  "\u2581notes": 3794,
  "\u2581zvazviri": 3795,
  "dha": 3796,
  "nakidzwa": 3797,
  "\u2581effective": 3798,
  "\u2581kukunda": 3799,
  "\u2581thine": 3800,
  "\u2581Ya": 3801,
  "\u2581economic": 3802,
  "\u2581reached": 3803,
  "Munhu": 3804,
  "\u2581Brooklyn": 3805,
  "\u2581Cha": 3806,
  "\u2581Ichokwadi": 3807,
  "\u2581becomes": 3808,
  "\u2581inoita": 3809,
  "\u2581Body": 3810,
  "\u2581Mi": 3811,
  "\u2581nezvinetso": 3812,
  "\u2581uhwu": 3813,
  "uri": 3814,
  "\u2581pavai": 3815,
  "\u2581vaigona": 3816,
  "\u2581yakaisvonaka": 3817,
  "When": 3818,
  "\u2581De": 3819,
  "\u2581grew": 3820,
  "\u2581nziyo": 3821,
  "\u2581tava": 3822,
  "\u2581note": 3823,
  "\u2581zvakananga": 3824,
  "There": 3825,
  "venga": 3826,
  "\u2581akasvika": 3827,
  "\u2581ark": 3828,
  "\u2581handi": 3829,
  "paridzira": 3830,
  "\u2581Among": 3831,
  "\u2581merely": 3832,
  "\u2581nearly": 3833,
  "\u2581Nepo": 3834,
  "\u2581rudzidziso": 3835,
  "sika": 3836,
  "\u2581Zvadaro": 3837,
  "\u2581chako": 3838,
  "\u2581lies": 3839,
  "19": 3840,
  "pedzisira": 3841,
  "\u258142": 3842,
  "\u258180": 3843,
  "\u2581bringing": 3844,
  "\u2581kurava": 3845,
  "\u2581police": 3846,
  "mupa": 3847,
  "simbiswa": 3848,
  "\u2581belief": 3849,
  "\u2581nemari": 3850,
  "\u2581nemumwe": 3851,
  "\u2581troubled": 3852,
  "\u2581East": 3853,
  "\u2581Family": 3854,
  "\u2581animal": 3855,
  "\u2581nhoroondo": 3856,
  "\u258155": 3857,
  "\u2581Kuda": 3858,
  "\u2581convinced": 3859,
  "\u2581response": 3860,
  "\u2581writer": 3861,
  "\u2581yakaoma": 3862,
  "tengesa": 3863,
  "\u2581committed": 3864,
  "\u2581zvaMwari": 3865,
  "\u2581kwomunhu": 3866,
  "\u2581rise": 3867,
  "\u2581risina": 3868,
  "\u2581vakamu": 3869,
  "ja": 3870,
  "rova": 3871,
  "\u2581nhungamiro": 3872,
  "\u2581air": 3873,
  "\u2581tirambe": 3874,
  "\u258118]": 3875,
  "\u258125]": 3876,
  "\u2581aro": 3877,
  "\u2581wars": 3878,
  "\u2581wenguva": 3879,
  "eri": 3880,
  "\u2581acceptable": 3881,
  "\u2581adds": 3882,
  "ism": 3883,
  "tarisa": 3884,
  "\u2581foreign": 3885,
  "\u2581likewise": 3886,
  "W": 3887,
  "zvinhu": 3888,
  "\u2581Muparidzi": 3889,
  "\u2581attack": 3890,
  "naka": 3891,
  "\u2581kodzero": 3892,
  "\u2581rinogona": 3893,
  "wanda": 3894,
  "\u2581includes": 3895,
  "\u2581ruler": 3896,
  "\u2581vatungamiriri": 3897,
  "\u2581worth": 3898,
  "org": 3899,
  "rei": 3900,
  "\u2581situations": 3901,
  "\u2581wepisarema": 3902,
  "\u2581isinga": 3903,
  "\u2581kubasa": 3904,
  "\u2581Ru": 3905,
  "\u2581ndisina": 3906,
  "\u2581nezvi": 3907,
  "\u2581pleasure": 3908,
  "\u2581motokari": 3909,
  "ive": 3910,
  "sava": 3911,
  "\u2581Two": 3912,
  "\u2581akadai": 3913,
  "ungana": 3914,
  "\u2581Chokwadika": 3915,
  "\u2581akachenjera": 3916,
  "\u2581particular": 3917,
  "\u2581presented": 3918,
  "\u2581vanofunga": 3919,
  "rwisana": 3920,
  "\u2581Finally": 3921,
  "\u2581Kudai": 3922,
  "\u2581chinoitika": 3923,
  "\u2581dzomu": 3924,
  "\u2581naBaba": 3925,
  "\u2581pamwoyo": 3926,
  "\u2581zvakakodzera": 3927,
  "\u2581VaFiripi": 3928,
  "\u25815]": 3929,
  "\u2581fill": 3930,
  "\u2581kupiwa": 3931,
  "kurudzirwa": 3932,
  "\u2581communication": 3933,
  "\u2581drinking": 3934,
  "\u2581nzara": 3935,
  "pfeka": 3936,
  "\u2581bless": 3937,
  "\u2581kwavanhu": 3938,
  "ci": 3939,
  "\u2581harm": 3940,
  "\u2581sit": 3941,
  "zvidza": 3942,
  "\u2581Exodus": 3943,
  "\u2581baby": 3944,
  "\u2581makiromita": 3945,
  "\u2581purposes": 3946,
  "Enzanisa": 3947,
  "Ndino": 3948,
  "at": 3949,
  "dzika": 3950,
  "tambudza": 3951,
  "tiza": 3952,
  "\u2581minds": 3953,
  "\u2581rain": 3954,
  "\u2581reality": 3955,
  "\u2581ripi": 3956,
  "\u2581yakaita": 3957,
  "\u2581kudzora": 3958,
  "\u2581riches": 3959,
  "\u2581talking": 3960,
  "kwana": 3961,
  "\u2581Itsva": 3962,
  "\u2581nehanya": 3963,
  "\u2581stone": 3964,
  "\u2581voUmambo": 3965,
  "Compare": 3966,
  "\u2581aside": 3967,
  "\u2581focus": 3968,
  "\u2581napo": 3969,
  "\u2581ndine": 3970,
  "\u2581yoga": 3971,
  "\u2581Ichi": 3972,
  "\u2581heavy": 3973,
  "\u2581kukurukura": 3974,
  "\u2581kutongo": 3975,
  "\u2581peoples": 3976,
  "\u258190": 3977,
  "\u2581Pana": 3978,
  "\u2581garden": 3979,
  "\u2581master": 3980,
  "\u2581placed": 3981,
  "\u2581wickedness": 3982,
  "\u2581zvokuita": 3983,
  "8": 3984,
  "\u2581chinofanira": 3985,
  "\u2581demons": 3986,
  "\u2581global": 3987,
  "karira": 3988,
  "\u2581African": 3989,
  "\u2581international": 3990,
  "\u2581kwokuti": 3991,
  "\u2581prospect": 3992,
  "\u2581rwuri": 3993,
  "\u2581village": 3994,
  "mwe": 3995,
  "\u2581kurwa": 3996,
  "\u2581rakanyorwa": 3997,
  "\u2581kui": 3998,
  "\u2581ndipo": 3999,
  "\u2581prophecies": 4000,
  "avo": 4001,
  "\u2581affected": 4002,
  "\u2581nevabereki": 4003,
  "\u2581occur": 4004,
  "\u2581vaparidzi": 4005,
  "\u2581chiremera": 4006,
  "\u2581kufunda": 4007,
  "\u2581vakabva": 4008,
  "\u2581worshipers": 4009,
  "\u2581Deuteronomy": 4010,
  "\u2581Kwa": 4011,
  "\u2581divorce": 4012,
  "\u2581relative": 4013,
  "\u2581vakaona": 4014,
  "\u2581zvava": 4015,
  "\u2581Tichi": 4016,
  "\u2581Uri": 4017,
  "\u2581Zita": 4018,
  "\u2581discussion": 4019,
  "\u2581zvinoitwa": 4020,
  "\u2581issues": 4021,
  "\u2581overseers": 4022,
  "\u2581Robert": 4023,
  "\u2581State": 4024,
  "\u2581kusava": 4025,
  "\u2581nezvake": 4026,
  "\u2581sovereignty": 4027,
  "\u2581yakapfuura": 4028,
  "\u2581specific": 4029,
  "J": 4030,
  "\u2581maturo": 4031,
  "\u2581norufu": 4032,
  "\u2581trouble": 4033,
  "im": 4034,
  "nzwira": 4035,
  "\u2581Biblical": 4036,
  "\u2581akasarudza": 4037,
  "\u2581beloved": 4038,
  "\u2581creatures": 4039,
  "\u2581doctor": 4040,
  "\u2581kurwadziwa": 4041,
  "\u2581sought": 4042,
  "parara": 4043,
  "\u2581Mudzimu": 4044,
  "\u2581November": 4045,
  "changobva": 4046,
  "rege": 4047,
  "\u2581dzinogona": 4048,
  "\u2581secular": 4049,
  "\u2581vakavimbika": 4050,
  "\u2581vanoramba": 4051,
  "\u2581Govern": 4052,
  "\u2581akakurudzira": 4053,
  "\u2581big": 4054,
  "\u2581challenges": 4055,
  "\u2581kumusoro": 4056,
  "\u2581miti": 4057,
  "\u2581poverty": 4058,
  "\u2581probably": 4059,
  "\u2581forgiveness": 4060,
  "\u2581ndokuva": 4061,
  "\u2581nhamburiko": 4062,
  "farikanya": 4063,
  "\u2581extent": 4064,
  "\u2581kungava": 4065,
  "\u2581values": 4066,
  "\u2581welcome": 4067,
  "os": 4068,
  "\u2581Really": 4069,
  "\u2581mumaoko": 4070,
  "\u2581rucha": 4071,
  "ck": 4072,
  "\u2581consideration": 4073,
  "\u2581escape": 4074,
  "\u2581mwanasikana": 4075,
  "nye": 4076,
  "\u2581England": 4077,
  "\u2581describes": 4078,
  "\u2581henyu": 4079,
  "\u2581listening": 4080,
  "\u2581munyengetero": 4081,
  "\u2581violent": 4082,
  "\u2581wall": 4083,
  ",\"": 4084,
  "\u2581direct": 4085,
  "\u2581kubuda": 4086,
  "\u2581mere": 4087,
  "\u2581vakaenda": 4088,
  "\u2581vaverengi": 4089,
  "\u258141": 4090,
  "\u2581inside": 4091,
  "\u2581kubatira": 4092,
  "chengetedza": 4093,
  "\u2581company": 4094,
  "\u2581instruction": 4095,
  "\u2581powers": 4096,
  "\u2581sincere": 4097,
  "\u2581wayo": 4098,
  "nyengera": 4099,
  "\u2581increased": 4100,
  "\u2581kukwanisa": 4101,
  "\u2581tiine": 4102,
  "kana": 4103,
  "kuvadza": 4104,
  "\u2581Galatians": 4105,
  "\u2581hakusi": 4106,
  "mutswa": 4107,
  "\u258117]": 4108,
  "\u2581Pasi": 4109,
  "\u2581cover": 4110,
  "\u2581nemvura": 4111,
  "\u2581strive": 4112,
  "rai": 4113,
  "\u2581Being": 4114,
  "\u2581Don": 4115,
  "\u2581Once": 4116,
  "\u2581Pamusoro": 4117,
  "\u2581kuparadzwa": 4118,
  "\u2581wakaipa": 4119,
  "deredza": 4120,
  "\u2581Colossians": 4121,
  "\u2581chinoshamisa": 4122,
  "\u2581mugove": 4123,
  "gadza": 4124,
  "\u2581Le": 4125,
  "\u2581student": 4126,
  "kuti": 4127,
  "gamuchirwa": 4128,
  "\u2581Furthermore": 4129,
  "\u2581blind": 4130,
  "\u2581pamwechete": 4131,
  "\u2581quoted": 4132,
  "\u2581utsinye": 4133,
  "\u2581zvina": 4134,
  "\u2581tears": 4135,
  "\u2581understood": 4136,
  "\u2581Ndakanga": 4137,
  "\u2581distress": 4138,
  "\u2581kwakanaka": 4139,
  "\u2581Acha": 4140,
  "\u2581Ho": 4141,
  "\u2581extreme": 4142,
  "\u2581rini": 4143,
  "rwadziwa": 4144,
  "zadza": 4145,
  "\u2581broken": 4146,
  "\u2581hundreds": 4147,
  "\u25811914": 4148,
  "\u2581Faith": 4149,
  "\u2581huchi": 4150,
  "\u2581mubereki": 4151,
  "\u2581muhondo": 4152,
  "\u2581tisina": 4153,
  "ratidzirwa": 4154,
  "rima": 4155,
  "\u2581Uyu": 4156,
  "\u2581Zvakadini": 4157,
  "\u2581akatsanangura": 4158,
  "\u2581haanga": 4159,
  "\u2581younger": 4160,
  "\u2581Under": 4161,
  "\u2581mavara": 4162,
  "\u2581reveal": 4163,
  "\u2581kuupenyu": 4164,
  "\u2581mi": 4165,
  "ah": 4166,
  "\u2581echiKristu": 4167,
  "\u2581immorality": 4168,
  "\u2581ndangariro": 4169,
  "\u2581vakarurama": 4170,
  "\u2581zvaizo": 4171,
  "mamiriro": 4172,
  "\u2581careful": 4173,
  "\u2581illness": 4174,
  "\u2581magwaro": 4175,
  "\u2581rinoratidza": 4176,
  "\u2581romu": 4177,
  "\u2581wrath": 4178,
  "\u2581zvakanyanya": 4179,
  "mwana": 4180,
  "un": 4181,
  "\u2581comments": 4182,
  "\u2581pursue": 4183,
  "\u2581referred": 4184,
  "\u2581successful": 4185,
  "\u2581valuable": 4186,
  "\u2581zvinopfuura": 4187,
  "ura": 4188,
  "\u2581kukodzera": 4189,
  "\u2581vafundisi": 4190,
  "\u2581yokuita": 4191,
  "\u2581zvikomborero": 4192,
  "\u25816]": 4193,
  "\u2581uprofita": 4194,
  "\u2581Chaizvoizvo": 4195,
  "\u2581cost": 4196,
  "\u2581idzodzo": 4197,
  "\u2581manifest": 4198,
  "\u2581territory": 4199,
  "\u2581Avo": 4200,
  "\u2581assembly": 4201,
  "\u2581kwezvinhu": 4202,
  "\u2581vhiki": 4203,
  "\u2581Vakatipa": 4204,
  "\u2581mirangariro": 4205,
  "\u2581muti": 4206,
  "\u2581publication": 4207,
  "\u2581vagari": 4208,
  "My": 4209,
  "\u258125,": 4210,
  "\u258132.": 4211,
  "\u2581Other": 4212,
  "\u2581expected": 4213,
  "\u2581grateful": 4214,
  "\u2581kunyora": 4215,
  "\u2581kuzvipira": 4216,
  "\u2581legal": 4217,
  "\u2581chikoro": 4218,
  "\u2581mirayiro": 4219,
  "\u2581pacho": 4220,
  "\u2581patience": 4221,
  "\u2581zvangu": 4222,
  "edzwa": 4223,
  "\u2581Questions": 4224,
  "\u2581Ruth": 4225,
  "\u2581goodness": 4226,
  "\u2581hurt": 4227,
  "\u2581ihwohwo": 4228,
  "\u2581paiva": 4229,
  "\u2581unique": 4230,
  "du": 4231,
  "\u2581busy": 4232,
  "\u2581dangerous": 4233,
  "\u2581improve": 4234,
  "\u2581kukumbira": 4235,
  "\u2581okukura": 4236,
  "iyi": 4237,
  "\u2581Chinhu": 4238,
  "\u2581letters": 4239,
  "\u2581sezvakaita": 4240,
  "\u2581vawane": 4241,
  "\u2581amount": 4242,
  "\u2581echiHebheru": 4243,
  "ngu": 4244,
  "\u2581exist": 4245,
  "\u2581harvest": 4246,
  "\u2581normal": 4247,
  "\u2581warm": 4248,
  "\u2581kufarira": 4249,
  "\u2581mukomana": 4250,
  "\u2581mumusha": 4251,
  "\u2581nomutsa": 4252,
  "\u2581somuenzaniso": 4253,
  "\u2581white": 4254,
  "\u2581Health": 4255,
  "nzvimbo": 4256,
  "\u2581Mari": 4257,
  "\u2581hwakanga": 4258,
  "\u2581idzva": 4259,
  "\u2581inoshamisa": 4260,
  "\u2581nenzvimbo": 4261,
  "\u2581hate": 4262,
  "\u2581waMosesi": 4263,
  "chengetwa": 4264,
  "\u2581circuit": 4265,
  "\u2581factors": 4266,
  "\u2581Australia": 4267,
  "\u2581Gore": 4268,
  "\u2581Make": 4269,
  "\u2581listed": 4270,
  "\u2581nhambo": 4271,
  "\u2581sake": 4272,
  "ridza": 4273,
  "zadzika": 4274,
  "\u2581kuchema": 4275,
  "\u2581International": 4276,
  "\u2581friendship": 4277,
  "\u2581yapfuura": 4278,
  "\u2581community": 4279,
  "\u2581evident": 4280,
  "\u2581madikanwa": 4281,
  "\u2581mutariri": 4282,
  "\u2581vakataura": 4283,
  "\u2581art": 4284,
  "\u2581caring": 4285,
  "\u2581dzakadai": 4286,
  "\u2581nezvino": 4287,
  "\u2581rejected": 4288,
  "\u2581zvakanyorwa": 4289,
  "mhanya": 4290,
  "\u258143": 4291,
  "\u2581growth": 4292,
  "\u2581kusiya": 4293,
  "\u2581pakuti": 4294,
  "oma": 4295,
  "sarudzwa": 4296,
  "\u2581Memorial": 4297,
  "\u2581anova": 4298,
  "\u2581kunoratidza": 4299,
  "\u2581kunzi": 4300,
  "\u2581produced": 4301,
  "tambudzwa": 4302,
  "tsva": 4303,
  "\u2581chakaitika": 4304,
  "\u2581encouraging": 4305,
  "\u2581neungano": 4306,
  "\u2581wind": 4307,
  "\u2581anxiety": 4308,
  "\u2581environment": 4309,
  "\u2581tribe": 4310,
  "\u2581heed": 4311,
  "\u2581kuora": 4312,
  "\u2581nomukadzi": 4313,
  "\u2581Ari": 4314,
  "\u2581Parents": 4315,
  "\u2581joined": 4316,
  "\u2581translated": 4317,
  "\u2581zeal": 4318,
  "fukidza": 4319,
  "nyengeterera": 4320,
  "\u2581Mother": 4321,
  "\u2581discreet": 4322,
  "\u2581kutungamirira": 4323,
  "\u2581rune": 4324,
  "responsibilities": 4325,
  "\u2581advantage": 4326,
  "\u2581hako": 4327,
  "\u2581helpful": 4328,
  "\u2581mundima": 4329,
  "\u2581non": 4330,
  "nyanyo": 4331,
  "zvarwa": 4332,
  "\u2581Its": 4333,
  "\u2581chikomborero": 4334,
  "\u2581offspring": 4335,
  "\u2581Ezekieri": 4336,
  "nyu": 4337,
  "\u2581Aaron": 4338,
  "\u2581maguta": 4339,
  "\u2581wealth": 4340,
  "\u2581churches": 4341,
  "\u2581dzenyika": 4342,
  "\u2581immoral": 4343,
  "\u2581victims": 4344,
  "\u2581yakakura": 4345,
  "\u2581misodzi": 4346,
  "\u2581statement": 4347,
  "\u2581kuongorora": 4348,
  "\u2581namashoko": 4349,
  "\u2581reign": 4350,
  "\u2581roUmambo": 4351,
  "\u2581vakawana": 4352,
  "\u2581Ndiri": 4353,
  "\u2581confident": 4354,
  "\u2581type": 4355,
  "\u2581(1)": 4356,
  "\u2581appearance": 4357,
  "\u2581kwakasimba": 4358,
  "\u2581nokutaura": 4359,
  "\u2581praying": 4360,
  "\u2581struck": 4361,
  "\u2581weku": 4362,
  "nunura": 4363,
  "\u2581Mako": 4364,
  "\u2581alcohol": 4365,
  "\u2581correct": 4366,
  "\u2581indicate": 4367,
  "\u2581naSatani": 4368,
  "\u2581speaks": 4369,
  "\u2581yes": 4370,
  "\u2581zvirwere": 4371,
  "\u2581hau": 4372,
  "\u2581popular": 4373,
  "\u2581Dzino": 4374,
  "\u2581Pfungwa": 4375,
  "\u2581Without": 4376,
  "\u2581date": 4377,
  "\u2581dzvene": 4378,
  "\u2581mararamiro": 4379,
  "\u258148": 4380,
  "\u2581Ha": 4381,
  "\u2581accomplish": 4382,
  "\u2581akazivisa": 4383,
  "\u2581conversation": 4384,
  "\u2581dzinga": 4385,
  "\u2581forces": 4386,
  "\u2581rwakanga": 4387,
  "\u2581wish": 4388,
  "\u2581witnessing": 4389,
  "zviona": 4390,
  "\u2581Day": 4391,
  "\u2581drug": 4392,
  "\u2581German": 4393,
  "\u2581c": 4394,
  "\u2581process": 4395,
  "\u2581rwacho": 4396,
  "boka": 4397,
  "sunungurwa": 4398,
  "\u2581Unofanira": 4399,
  "\u2581magazines": 4400,
  "\u2581mushumiri": 4401,
  "\u2581noukama": 4402,
  "\u2581remains": 4403,
  "\u2581shanduro": 4404,
  "\u25811990": 4405,
  "\u2581aiita": 4406,
  "\u2581joyful": 4407,
  "\u2581mako": 4408,
  "\u2581mukurumbira": 4409,
  "\u2581walked": 4410,
  "ity": 4411,
  "ty": 4412,
  "\u2581(2)": 4413,
  "\u2581Blur": 4414,
  "\u2581Surely": 4415,
  "\u2581applied": 4416,
  "\u2581dzidzo": 4417,
  "\u2581muprofita": 4418,
  "\u2581pakutenda": 4419,
  "\u2581react": 4420,
  "\u2581renguva": 4421,
  "\u2581fulfill": 4422,
  "\u2581vakasvika": 4423,
  "\u2581wide": 4424,
  "shuva": 4425,
  "\u2581Jeremiya": 4426,
  "\u2581Land": 4427,
  "\u2581appears": 4428,
  "\u2581request": 4429,
  "\u2581Ane": 4430,
  "\u2581husbands": 4431,
  "\u2581rwako": 4432,
  "\u2581story": 4433,
  "\u2581discussed": 4434,
  "\u2581forms": 4435,
  "\u2581moto": 4436,
  "\u2581raise": 4437,
  "\u2581remnant": 4438,
  "tombo": 4439,
  "\u2581houses": 4440,
  "\u2581kugadzirisa": 4441,
  "\u2581tu": 4442,
  "bo": 4443,
  "\u2581north": 4444,
  "\u2581opening": 4445,
  "\u2581rakabudiswa": 4446,
  "nzira": 4447,
  "ph": 4448,
  "\u2581Tract": 4449,
  "\u2581akanyorwa": 4450,
  "\u2581buy": 4451,
  "\u2581contrary": 4452,
  "\u2581kuyaruka": 4453,
  "\u2581mutsva": 4454,
  "\u2581nguvo": 4455,
  "dikanwa": 4456,
  "\u2581Vacha": 4457,
  "\u2581hatred": 4458,
  "\u2581nemamwe": 4459,
  "\u2581nepa": 4460,
  "faniri": 4461,
  "okukwezva": 4462,
  "\u2581Dheuteronomio": 4463,
  "\u2581February": 4464,
  "\u2581Pennsylvania": 4465,
  "\u2581nechinangwa": 4466,
  "\u2581teaches": 4467,
  "Mwanakomana": 4468,
  "umbwa": 4469,
  "\u2581akanzwa": 4470,
  "\u2581masikati": 4471,
  "\u2581mativi": 4472,
  "\u2581neighbors": 4473,
  "\u2581p": 4474,
  "\u2581zvaitika": 4475,
  "RA": 4476,
  "\u2581evidently": 4477,
  "\u2581fast": 4478,
  "\u2581formed": 4479,
  "\u2581nezvazvo": 4480,
  "\u2581vekare": 4481,
  "20": 4482,
  "shandura": 4483,
  "\u2581Mesiya": 4484,
  "\u2581miedzo": 4485,
  "ndipa": 4486,
  "tsunga": 4487,
  "\u2581Trac": 4488,
  "\u2581anogara": 4489,
  "\u2581chingwa": 4490,
  "\u2581maawa": 4491,
  "nyorera": 4492,
  "\u2581island": 4493,
  "\u2581nevaya": 4494,
  "shamisa": 4495,
  "sungwa": 4496,
  "wanwa": 4497,
  "\u2581guide": 4498,
  "\u2581haasati": 4499,
  "\u2581vanova": 4500,
  "\u25811991": 4501,
  "\u2581demonstrate": 4502,
  "\u2581gate": 4503,
  "\u2581kwamakore": 4504,
  "\u2581low": 4505,
  "\u2581mudzidzisi": 4506,
  "\u2581Mat": 4507,
  "\u2581akauya": 4508,
  "\u2581arege": 4509,
  "\u2581yechi": 4510,
  "\u2581zvitendero": 4511,
  "all": 4512,
  "cherechedza": 4513,
  "netseka": 4514,
  "\u2581Maka": 4515,
  "\u2581higher": 4516,
  "\u2581mumutauro": 4517,
  "\u2581population": 4518,
  "\u2581vanobva": 4519,
  "\u2581zvatino": 4520,
  ":\"": 4521,
  "mumwe": 4522,
  "\u2581Zvose": 4523,
  "\u2581abundance": 4524,
  "\u2581drawn": 4525,
  "\u2581unclean": 4526,
  "\u2581usinga": 4527,
  "\u2581Imi": 4528,
  "\u2581approval": 4529,
  "\u2581hari": 4530,
  "\u2581pangu": 4531,
  "\u2581recently": 4532,
  "\u2581Je": 4533,
  "\u2581Pamwe": 4534,
  "\u2581Patino": 4535,
  "\u2581effects": 4536,
  "\u2581hatifaniri": 4537,
  "\u2581pachigaro": 4538,
  "\u2581pride": 4539,
  "\u2581rwuno": 4540,
  "\u2581vapenyu": 4541,
  "\u2581zvaakanga": 4542,
  "\u2581main": 4543,
  "\u2581souls": 4544,
  "\u2581vaigara": 4545,
  "\u2581Gospel": 4546,
  "funda": 4547,
  "nzwi": 4548,
  "\u2581Un": 4549,
  "\u2581energy": 4550,
  "\u2581isiri": 4551,
  "\u2581writes": 4552,
  "?\"": 4553,
  "\u258126,": 4554,
  "\u2581akandi": 4555,
  "\u2581anoona": 4556,
  "\u2581kuronga": 4557,
  "\u2581muimba": 4558,
  "\u2581train": 4559,
  "iko": 4560,
  "swa": 4561,
  "\u2581kuzivisa": 4562,
  "\u2581mhepo": 4563,
  "\u2581mumuviri": 4564,
  "\u2581noushingi": 4565,
  "\u2581vachibva": 4566,
  "\u2581zvichiita": 4567,
  "\u2581Give": 4568,
  "\u2581aid": 4569,
  "\u2581fruitage": 4570,
  "\u2581Help": 4571,
  "\u2581chendangariro": 4572,
  "\u2581emotions": 4573,
  "\u2581kutozosvikira": 4574,
  "\u2581unobva": 4575,
  "\u2581unoda": 4576,
  "NW": 4577,
  "\u2581research": 4578,
  "\u2581uses": 4579,
  "nt": 4580,
  "\u2581associated": 4581,
  "\u2581join": 4582,
  "\u2581organized": 4583,
  "\u2581rulers": 4584,
  "\u2581rwedu": 4585,
  "\u2581hwai": 4586,
  "\u2581responded": 4587,
  "\u2581Adhama": 4588,
  "\u2581dzika": 4589,
  "\u2581kudzokera": 4590,
  "\u2581kuroora": 4591,
  "\u2581mafuta": 4592,
  "\u2581vakaroorana": 4593,
  "\u2581essential": 4594,
  "\u2581kwatinoita": 4595,
  "\u2581tichida": 4596,
  "\u2581Eksodho": 4597,
  "\u2581dealing": 4598,
  "\u2581decades": 4599,
  "\u2581trained": 4600,
  "odzwa": 4601,
  "rehwa": 4602,
  "sanganisira": 4603,
  "\u2581imomo": 4604,
  "\u2581seriously": 4605,
  "paradzira": 4606,
  "\u2581Levites": 4607,
  "\u2581kuuraya": 4608,
  "\u2581penguva": 4609,
  "\u2581telling": 4610,
  "am": 4611,
  "chena": 4612,
  "\u2581Ngati": 4613,
  "\u2581inodaro": 4614,
  "\u2581kuvimbika": 4615,
  "\u2581vavariro": 4616,
  "\u2581yeungano": 4617,
  "\u2581aizova": 4618,
  "\u2581dzipi": 4619,
  "\u2581kubatwa": 4620,
  "\u2581superior": 4621,
  "\u2581Madzimambo": 4622,
  "\u2581Mwoyo": 4623,
  "\u2581mugore": 4624,
  "\u2581offerings": 4625,
  "\u2581Mumakore": 4626,
  "\u2581dzevanhu": 4627,
  "\u2581hadzi": 4628,
  "\u2581kupindura": 4629,
  "\u2581satisfaction": 4630,
  "\u2581sinful": 4631,
  "netsa": 4632,
  "singa": 4633,
  "\u2581Canada": 4634,
  "\u2581sezviri": 4635,
  "siri": 4636,
  "\u2581Che": 4637,
  "\u2581indicates": 4638,
  "\u2581pamuviri": 4639,
  "\u2581promote": 4640,
  "tema": 4641,
  "\u2581Russell": 4642,
  "\u2581Vechiduku": 4643,
  "cheka": 4644,
  "kodzera": 4645,
  "simudzira": 4646,
  "\u2581Compare": 4647,
  "\u2581copy": 4648,
  "\u2581count": 4649,
  "\u2581occurred": 4650,
  "roorana": 4651,
  "\u2581akagara": 4652,
  "\u2581vanowanzo": 4653,
  "Chi": 4654,
  "gadzwa": 4655,
  "mamita": 4656,
  "\u2581Abrahama": 4657,
  "\u2581Peace": 4658,
  "\u2581hatina": 4659,
  "ndakanga": 4660,
  "wirirana": 4661,
  "zoita": 4662,
  "\u2581ipapoka": 4663,
  "ul": 4664,
  "\u2581kuroorwa": 4665,
  "\u2581multitude": 4666,
  "\u2581sat": 4667,
  "\u2581survive": 4668,
  "\u2581omu": 4669,
  "\u2581slaves": 4670,
  "\u2581treated": 4671,
  "\u2581wood": 4672,
  "\u2581zvidhori": 4673,
  "nd": 4674,
  "\u2581meal": 4675,
  "\u2581paine": 4676,
  "\u2581yaJesu": 4677,
  "kudzwa": 4678,
  "like": 4679,
  "vhiringidza": 4680,
  "\u2581Iri": 4681,
  "\u2581kupfuurira": 4682,
  "\u2581yakasiyana": 4683,
  "\u2581Ava": 4684,
  "\u2581Sometimes": 4685,
  "\u2581aripo": 4686,
  "\u2581yaro": 4687,
  "\u2581governments": 4688,
  "\u2581healthy": 4689,
  "\u2581mufambiro": 4690,
  "shora": 4691,
  "\u25811919": 4692,
  "\u2581Simba": 4693,
  "\u2581denga": 4694,
  "\u2581havasi": 4695,
  "\u2581setting": 4696,
  "\u2581tiite": 4697,
  "\u2581zviitiko": 4698,
  "goverana": 4699,
  "\u2581Enzanisa": 4700,
  "\u2581India": 4701,
  "\u2581hake": 4702,
  "\u2581trial": 4703,
  "\u2581vorudzidziso": 4704,
  "tamba": 4705,
  "zana": 4706,
  "\u2581Eastern": 4707,
  "\u2581financial": 4708,
  "\u2581loves": 4709,
  "\u2581neshoko": 4710,
  "\u2581zvipenyu": 4711,
  "bi": 4712,
  "\u2581Jeremia": 4713,
  "\u2581Tim": 4714,
  "\u2581glorious": 4715,
  "\u2581soldiers": 4716,
  "\u2581Pe": 4717,
  "\u2581nematambudziko": 4718,
  "\u2581worse": 4719,
  "\u2581assured": 4720,
  "\u2581beneficial": 4721,
  "\u2581mitambo": 4722,
  "\u2581pakuita": 4723,
  "\u2581views": 4724,
  "\u25811993": 4725,
  "\u2581Hav": 4726,
  "\u2581ideas": 4727,
  "\u2581lying": 4728,
  "\u2581meso": 4729,
  "\u2581Hakuna": 4730,
  "\u2581Muno": 4731,
  "\u2581foot": 4732,
  "\u2581outstanding": 4733,
  "\u2581separate": 4734,
  "\u258113]": 4735,
  "\u258146": 4736,
  "\u2581developing": 4737,
  "\u2581murenje": 4738,
  "\u2581nhatu": 4739,
  "\u2581vabatiri": 4740,
  "Jesu": 4741,
  "\u2581Michael": 4742,
  "\u2581chibayiro": 4743,
  "\u2581recognized": 4744,
  "\u2581sinned": 4745,
  "\u2581waIsiraeri": 4746,
  "pfu": 4747,
  "\u2581VaKorose": 4748,
  "\u2581invitation": 4749,
  "\u2581mashomanene": 4750,
  "\u2581rika": 4751,
  "\u2581siana": 4752,
  "\u2581vakura": 4753,
  "\u2581zvinodhaka": 4754,
  "kadzi": 4755,
  "masimba": 4756,
  "rondedzerwa": 4757,
  "\u2581bodies": 4758,
  "\u2581dai": 4759,
  "\u2581kunobva": 4760,
  "\u2581nababa": 4761,
  "\u2581pama": 4762,
  "\u2581v": 4763,
  "enderera": 4764,
  "zvakanga": 4765,
  "\u2581bed": 4766,
  "\u2581declare": 4767,
  "\u2581musa": 4768,
  "\u2581navose": 4769,
  "\u2581tsoka": 4770,
  "pukunyuka": 4771,
  "ranga": 4772,
  "\u2581assist": 4773,
  "\u2581ears": 4774,
  "\u2581fish": 4775,
  "\u2581mature": 4776,
  "\u2581refers": 4777,
  "\u2581upright": 4778,
  "ani": 4779,
  "dzimwe": 4780,
  "\u2581calling": 4781,
  "\u2581severe": 4782,
  "\u25818]": 4783,
  "\u2581Paaka": 4784,
  "\u2581muzvinhu": 4785,
  "\u2581studied": 4786,
  "\u2581Every": 4787,
  "\u2581Tai": 4788,
  "\u2581Vakanga": 4789,
  "\u2581armies": 4790,
  "\u2581box": 4791,
  "\u2581kutibatsira": 4792,
  "\u2581vasingadi": 4793,
  "\u2581impressed": 4794,
  "\u2581kundi": 4795,
  "\u2581ndakatanga": 4796,
  "\u2581pattern": 4797,
  "\u2581Mo": 4798,
  "\u2581National": 4799,
  "\u2581bearing": 4800,
  "\u2581doctrine": 4801,
  "\u2581iripo": 4802,
  "\u2581possess": 4803,
  "\u2581ruin": 4804,
  "swe": 4805,
  "\u258129,": 4806,
  "\u2581Genesisi": 4807,
  "\u2581contains": 4808,
  "\u2581namambo": 4809,
  "ngoita": 4810,
  "\u2581University": 4811,
  "\u2581kunyatso": 4812,
  "tani": 4813,
  "tsika": 4814,
  "\u2581Jordan": 4815,
  "\u2581entertainment": 4816,
  "\u2581rwechokwadi": 4817,
  "\u2581Earth": 4818,
  "\u2581conclude": 4819,
  "\u2581hwaJesu": 4820,
  "\u2581kuvaka": 4821,
  "\u2581ministers": 4822,
  "\u2581nechi": 4823,
  "mabasa": 4824,
  "zvamazvirokwazvo": 4825,
  "\u25811995": 4826,
  "\u2581Note": 4827,
  "\u2581refuge": 4828,
  "\u2581shoma": 4829,
  "\u2581tabernacle": 4830,
  "\u2581vanamati": 4831,
  "mwoyo": 4832,
  "waka": 4833,
  "\u2581Religion": 4834,
  "\u2581burnt": 4835,
  "\u2581muzita": 4836,
  "\u2581song": 4837,
  "\u2581zealous": 4838,
  "bhadhara": 4839,
  "chiKristudhomu": 4840,
  "\u2581chomudzimu": 4841,
  "\u2581closely": 4842,
  "\u2581river": 4843,
  "\u2581total": 4844,
  "\u2581usati": 4845,
  "\u2581waiting": 4846,
  "\u2581dzoUmambo": 4847,
  "\u2581facts": 4848,
  "\u2581newspaper": 4849,
  "\u2581ushingi": 4850,
  "bvumirana": 4851,
  "\u2581Both": 4852,
  "\u2581kukanganisa": 4853,
  "\u2581njodzi": 4854,
  "\u2581wakarurama": 4855,
  "\u2581wild": 4856,
  "\u2581yakasimba": 4857,
  "\u2581zvitatu": 4858,
  "\u258139": 4859,
  "\u2581dust": 4860,
  "\u2581vakwegura": 4861,
  "\u2581witnesses": 4862,
  "\u2581yaaka": 4863,
  "ld": 4864,
  "\u2581Sarah": 4865,
  "itei": 4866,
  "\u2581depression": 4867,
  "\u2581ha": 4868,
  "\u2581lasting": 4869,
  "\u2581notice": 4870,
  "\u2581rechiGiriki": 4871,
  "\u2581varege": 4872,
  "\u2581angry": 4873,
  "\u2581connection": 4874,
  "\u2581mungozi": 4875,
  "\u2581subjects": 4876,
  "rapa": 4877,
  "\u2581Pakutanga": 4878,
  "\u2581hazvo": 4879,
  "\u2581iyeye": 4880,
  "\u2581kwoupenyu": 4881,
  "\u2581resist": 4882,
  "\u2581rugwaro": 4883,
  "\u2581rwendo": 4884,
  "\u2581vast": 4885,
  "enzanisa": 4886,
  "\u2581kwaKristu": 4887,
  "\u2581yaSatani": 4888,
  "\u2581Cor": 4889,
  "\u2581akatuma": 4890,
  "\u2581leaving": 4891,
  "\u2581yakakwana": 4892,
  "\u2581zvidzidzo": 4893,
  "\u2581zvombo": 4894,
  "shingaira": 4895,
  "\u2581commandment": 4896,
  "\u2581muporofita": 4897,
  "\u2581navakuru": 4898,
  "\u2581nokururama": 4899,
  "endesa": 4900,
  "\u2581Nda": 4901,
  "\u2581directed": 4902,
  "\u2581honest": 4903,
  "\u2581prophetic": 4904,
  "\u2581shared": 4905,
  "\u2581wakaita": 4906,
  "upenyu": 4907,
  "\u2581chitsauko": 4908,
  "\u2581receiving": 4909,
  "nyara": 4910,
  "zivi": 4911,
  "\u2581300": 4912,
  "\u2581Kings": 4913,
  "\u2581akaberekwa": 4914,
  "\u2581kuchenjera": 4915,
  "\u2581ndini": 4916,
  "\u2581perform": 4917,
  "Baba": 4918,
  "\u2581clergy": 4919,
  "\u2581hospital": 4920,
  "komborerwa": 4921,
  "zvipira": 4922,
  "\u2581decide": 4923,
  "\u2581difference": 4924,
  "\u2581gather": 4925,
  "\u2581herself": 4926,
  "\u2581kunyanguvezvo": 4927,
  "ngoti": 4928,
  "\u2581chidzidzo": 4929,
  "\u2581kusimbisa": 4930,
  "\u2581moving": 4931,
  "ad": 4932,
  "\u2581Britain": 4933,
  "\u2581apart": 4934,
  "\u2581covered": 4935,
  "\u2581pedu": 4936,
  "mbu": 4937,
  "\u2581akavimbika": 4938,
  "\u2581concluded": 4939,
  "\u2581obtain": 4940,
  "muranda": 4941,
  "\u2581Philistines": 4942,
  "\u2581akakumbira": 4943,
  "\u2581granted": 4944,
  "\u2581impossible": 4945,
  "\u2581mangu": 4946,
  "\u2581pamusha": 4947,
  "\u2581rakati": 4948,
  "\u2581stopped": 4949,
  "\u2581tribes": 4950,
  "\u2581weak": 4951,
  "\u2581widow": 4952,
  "All": 4953,
  "\u2581expressions": 4954,
  "\u2581fearing": 4955,
  "\u2581mutorongo": 4956,
  "\u2581revanhu": 4957,
  "tsigirwa": 4958,
  "\u2581119": 4959,
  "\u2581akatora": 4960,
  "\u2581humwe": 4961,
  "\u2581national": 4962,
  "\u2581worthy": 4963,
  "\u2581zvavano": 4964,
  "\u2581Christmas": 4965,
  "\u2581Iva": 4966,
  "\u2581Union": 4967,
  "\u2581grown": 4968,
  "dzorera": 4969,
  "nyanyisa": 4970,
  "sh": 4971,
  "\u2581Soviet": 4972,
  "\u2581across": 4973,
  "\u2581chiso": 4974,
  "\u2581tender": 4975,
  "pfuma": 4976,
  "\u2581insight": 4977,
  "\u2581kuzvidzora": 4978,
  "\u2581vanoona": 4979,
  "\u2581zvenyu": 4980,
  "\u2581zvokunyama": 4981,
  "tion": 4982,
  "\u2581chakati": 4983,
  "\u2581discovered": 4984,
  "\u2581kuratidzira": 4985,
  "\u2581princes": 4986,
  "\u2581unoita": 4987,
  "\u2581chinoti": 4988,
  "\u2581hwokudenga": 4989,
  "\u25811992": 4990,
  "\u2581aspects": 4991,
  "\u2581easier": 4992,
  "\u2581kuguma": 4993,
  "\u2581madzimambo": 4994,
  "\u2581providing": 4995,
  "\u2581George": 4996,
  "\u2581pagan": 4997,
  "moyo": 4998,
  "ol": 4999,
  "rambe": 5000,
  "rd": 5001,
  "\u2581News": 5002,
  "\u2581Yenyika": 5003,
  "chera": 5004,
  "\u2581Regard": 5005,
  "\u2581TV": 5006,
  "\u2581center": 5007,
  "\u2581faithfully": 5008,
  "\u2581girls": 5009,
  "\u2581majority": 5010,
  "\u2581mutungamiriri": 5011,
  "\u2581muzuva": 5012,
  "\u2581tarirai": 5013,
  "\u2581undeserved": 5014,
  "bvumirwa": 5015,
  "vabatsira": 5016,
  "\u2581attendance": 5017,
  "\u2581balanced": 5018,
  "\u2581brain": 5019,
  "\u2581constantly": 5020,
  "\u2581hwacho": 5021,
  "\u2581kunwa": 5022,
  "\u2581pointed": 5023,
  "mukira": 5024,
  "\u2581Israelite": 5025,
  "\u2581kwezuva": 5026,
  "\u258133:": 5027,
  "\u2581Guru": 5028,
  "\u2581top": 5029,
  "namatira": 5030,
  "\u2581Chimbofunga": 5031,
  "\u2581El": 5032,
  "\u2581NYAYA": 5033,
  "\u2581ill": 5034,
  "\u2581vatsvene": 5035,
  "lu": 5036,
  "\u2581performed": 5037,
  "horoondo": 5038,
  "sagona": 5039,
  "\u2581bound": 5040,
  "\u2581companions": 5041,
  "\u2581inhabited": 5042,
  "\u2581kuimba": 5043,
  "\u2581kwakaoma": 5044,
  "\u2581leads": 5045,
  "\u2581opportunities": 5046,
  "\u2581pamutemo": 5047,
  "\u2581rules": 5048,
  "\u2581yapasi": 5049,
  "\u2581zvekare": 5050,
  "\u2581anoshandisa": 5051,
  "\u2581clothing": 5052,
  "\u2581donzo": 5053,
  "\u2581journey": 5054,
  "\u2581mumvura": 5055,
  "\u2581require": 5056,
  "\u2581series": 5057,
  "\u2581slow": 5058,
  "\u2581south": 5059,
  "\u2581wakaisvonaka": 5060,
  "tyisa": 5061,
  "vashumiri": 5062,
  "\u2581TO": 5063,
  "\u2581kwoumwari": 5064,
  "\u2581neboka": 5065,
  "rambidzwa": 5066,
  "\u2581Baal": 5067,
  "\u2581Hezekiah": 5068,
  "\u2581sees": 5069,
  "\u2581strengthened": 5070,
  "\u2581waini": 5071,
  "Ha": 5072,
  "\u2581Has": 5073,
  "\u2581kuudza": 5074,
  "\u2581pakuziva": 5075,
  "\u2581vakapinda": 5076,
  "\u2581zvinofadza": 5077,
  "bhe": 5078,
  "et": 5079,
  "\u2581Kuziva": 5080,
  "\u2581rock": 5081,
  "\u2581safe": 5082,
  "fungidzirwa": 5083,
  "\u2581Almighty": 5084,
  "\u2581anoshanda": 5085,
  "\u2581freely": 5086,
  "\u2581ought": 5087,
  "\u2581surprise": 5088,
  "rambi": 5089,
  "\u2581Imagine": 5090,
  "\u2581adults": 5091,
  "\u2581dealings": 5092,
  "out": 5093,
  "vabatiri": 5094,
  "\u2581Chinangwa": 5095,
  "\u2581Hu": 5096,
  "\u2581Vazhinji": 5097,
  "\u2581anoramba": 5098,
  "\u2581dzaJehovha": 5099,
  "\u2581forced": 5100,
  "\u2581kubatana": 5101,
  "\u2581united": 5102,
  "komborera": 5103,
  "\u2581Mweya": 5104,
  "\u2581arise": 5105,
  "\u2581diseases": 5106,
  "\u2581ended": 5107,
  "\u2581kunetseka": 5108,
  "\u2581meat": 5109,
  "\u2581nehasha": 5110,
  "\u2581relates": 5111,
  "miririra": 5112,
  "mweya": 5113,
  "\u2581Jonathan": 5114,
  "\u2581cried": 5115,
  "\u2581deeds": 5116,
  "\u2581nemamiriro": 5117,
  "\u2581pavanenge": 5118,
  "\u2581sickness": 5119,
  "ter": 5120,
  "\u2581&": 5121,
  "\u258128:": 5122,
  "\u2581mishonga": 5123,
  "\u2581paakanga": 5124,
  "\u2581vagere": 5125,
  "\u2581Shamwari": 5126,
  "\u2581Work": 5127,
  "\u2581capital": 5128,
  "\u2581create": 5129,
  "\u2581critical": 5130,
  "\u2581nomusoro": 5131,
  "\u2581replied": 5132,
  "kubatsira": 5133,
  "ndibatsira": 5134,
  "tambudzika": 5135,
  "\u2581kurara": 5136,
  "\u2581pleased": 5137,
  "\u2581released": 5138,
  "\u2581venhema": 5139,
  "ji": 5140,
  "\u2581William": 5141,
  "\u2581directly": 5142,
  "\u2581urongwa": 5143,
  "hwo": 5144,
  "\u2581carrying": 5145,
  "\u2581mbeu": 5146,
  "\u2581temptation": 5147,
  "\u2581unable": 5148,
  "\u2581vechiJudha": 5149,
  "Nokuti": 5150,
  "derera": 5151,
  "ver": 5152,
  "\u2581Am": 5153,
  "\u2581Rangarira": 5154,
  "\u2581Spain": 5155,
  "\u2581glad": 5156,
  "\u2581habits": 5157,
  "\u2581wechi": 5158,
  "\u2581yetsika": 5159,
  "\u2581Eden": 5160,
  "\u2581UN": 5161,
  "\u2581achiva": 5162,
  "\u2581amu": 5163,
  "\u2581doro": 5164,
  "\u2581indicated": 5165,
  "\u2581nokushandisa": 5166,
  "\u2581sezvinoita": 5167,
  "\u2581vanofara": 5168,
  "Zvamazvirokwazvo": 5169,
  "ori": 5170,
  "\u2581Asia": 5171,
  "\u2581achaita": 5172,
  "\u2581list": 5173,
  "\u2581paid": 5174,
  "goni": 5175,
  "shamiswa": 5176,
  "\u258119;": 5177,
  "\u2581endeavor": 5178,
  "\u2581mutambo": 5179,
  "\u2581reveals": 5180,
  "\u2581succeed": 5181,
  "\u258134.": 5182,
  "\u2581Sunday": 5183,
  "\u2581akapinda": 5184,
  "\u2581burden": 5185,
  "\u2581inopfuura": 5186,
  "\u2581ko": 5187,
  "\u2581yeRoma": 5188,
  "\u2581zvinoda": 5189,
  "\u2581Mwana": 5190,
  "\u2581echiGiriki": 5191,
  "\u2581kungwarira": 5192,
  "\u2581navano": 5193,
  "\u2581vemo": 5194,
  "zvitsaurira": 5195,
  "\u2581Ndivanaani": 5196,
  "\u2581OF": 5197,
  "\u2581stick": 5198,
  "\u2581Could": 5199,
  "\u2581Likewise": 5200,
  "\u2581chaJesu": 5201,
  "\u2581kufungidzira": 5202,
  "\u2581verses": 5203,
  "tic": 5204,
  "wanika": 5205,
  "\u258124;": 5206,
  "\u2581Dictionary": 5207,
  "\u2581pakarepo": 5208,
  "que": 5209,
  "sano": 5210,
  "\u2581conventions": 5211,
  "No": 5212,
  "nyama": 5213,
  "\u2581BIBLE": 5214,
  "\u2581Nyanzvi": 5215,
  "\u2581beauty": 5216,
  "\u2581details": 5217,
  "\u2581purogiramu": 5218,
  "shayiwa": 5219,
  "\u2581VaIsraeri": 5220,
  "\u2581chakadaro": 5221,
  "\u2581hwenguva": 5222,
  "dzinga": 5223,
  "ian": 5224,
  "sikwa": 5225,
  "vakwa": 5226,
  "\u2581hwenyika": 5227,
  "\u2581terms": 5228,
  "\u2581worshippers": 5229,
  "WA": 5230,
  "\u25811997": 5231,
  "\u2581Bhabhironi": 5232,
  "\u2581fariro": 5233,
  "\u2581listened": 5234,
  "\u2581miitiro": 5235,
  "\u2581pamisangano": 5236,
  "\u2581recalls": 5237,
  "rs": 5238,
  "\u258116]": 5239,
  "\u2581Matt": 5240,
  "\u2581accomplished": 5241,
  "\u2581apparently": 5242,
  "\u2581kufambira": 5243,
  "\u2581marvelous": 5244,
  "\u2581pre": 5245,
  "\u2581revo": 5246,
  "\u2581style": 5247,
  "\u2581tichiita": 5248,
  "\u2581travel": 5249,
  "\u2581weight": 5250,
  "mbova": 5251,
  "\u2581Ministry": 5252,
  "\u2581Mosaic": 5253,
  "\u2581neropa": 5254,
  "\u2581stars": 5255,
  "\u2581yokudenga": 5256,
  "ig": 5257,
  "\u2581Look": 5258,
  "\u2581Te": 5259,
  "\u2581handle": 5260,
  "\u2581vakanaka": 5261,
  "\u2581yechipiri": 5262,
  "\u2581(3)": 5263,
  "\u25811914,": 5264,
  "\u2581Raka": 5265,
  "\u2581clothes": 5266,
  "\u2581kuzvininipisa": 5267,
  "\u2581rwenyika": 5268,
  "\u2581struggle": 5269,
  "\u2581zvauno": 5270,
  "tofanira": 5271,
  "\u2581Russia": 5272,
  "\u2581describe": 5273,
  "\u2581moment": 5274,
  "\u2581nine": 5275,
  "\u2581nzeve": 5276,
  "\u2581pai": 5277,
  "\u2581pakuva": 5278,
  "\u2581stones": 5279,
  "\u2581zvakasikwa": 5280,
  "rwira": 5281,
  "seka": 5282,
  "\u2581Ri": 5283,
  "\u2581Think": 5284,
  "\u2581applying": 5285,
  "\u2581chinoratidza": 5286,
  "\u2581identify": 5287,
  "\u2581vadzidzisi": 5288,
  "\u2581varambe": 5289,
  "tama": 5290,
  "\u2581Students": 5291,
  "\u2581Ticha": 5292,
  "\u2581funga": 5293,
  "\u2581heads": 5294,
  "\u2581naani": 5295,
  "\u2581straight": 5296,
  "\u2581yeNyika": 5297,
  "\u2581zvive": 5298,
  "To": 5299,
  "ir": 5300,
  "ira": 5301,
  "rudzi": 5302,
  "\u2581chiuru": 5303,
  "\u2581conflict": 5304,
  "\u2581innocent": 5305,
  "\u2581kuma": 5306,
  "\u2581mamirioni": 5307,
  "\u2581pauno": 5308,
  "\u2581vanoteerera": 5309,
  "ngwarira": 5310,
  "vabereki": 5311,
  "\u2581French": 5312,
  "\u2581ina": 5313,
  "\u2581vakauya": 5314,
  "aya": 5315,
  "\u25811950": 5316,
  "\u258130,": 5317,
  "\u2581Mariya": 5318,
  "\u2581kumabvazuva": 5319,
  "\u2581matsva": 5320,
  "\u2581ndaiva": 5321,
  "\u2581zvawo": 5322,
  "\u2581zvinoti": 5323,
  "\u2581akangwara": 5324,
  "\u2581akaoma": 5325,
  "\u2581foundation": 5326,
  "\u2581kindly": 5327,
  "\u2581kurwisa": 5328,
  "\u2581kwaizo": 5329,
  "\u2581pava": 5330,
  "\u2581supply": 5331,
  "\u2581vanoshandisa": 5332,
  "\u2581zvinangwa": 5333,
  "\u2581Mexico": 5334,
  "\u2581akabata": 5335,
  "\u2581akarayira": 5336,
  "\u2581male": 5337,
  "\u2581nokunamata": 5338,
  "They": 5339,
  "\u2581European": 5340,
  "\u2581Kuna": 5341,
  "\u2581Thessalonians": 5342,
  "\u2581reference": 5343,
  "\u2581yakaitwa": 5344,
  "asi": 5345,
  "ziviswa": 5346,
  "\u258127,": 5347,
  "\u2581Armageddon": 5348,
  "\u2581kuchena": 5349,
  "\u2581rinodaro": 5350,
  "\u2581zvingava": 5351,
  "pararira": 5352,
  "\u2581Kudzidza": 5353,
  "\u2581akatevera": 5354,
  "\u2581hwechiKristu": 5355,
  "\u2581resulted": 5356,
  "\u2581shepherds": 5357,
  "\u2581street": 5358,
  "for": 5359,
  "sunungura": 5360,
  "\u2581designed": 5361,
  "\u2581rubatsiro": 5362,
  "\u2581treasure": 5363,
  "\u2581wechiduku": 5364,
  "guta": 5365,
  "shaiwa": 5366,
  "\u2581Haiwa": 5367,
  "\u2581Tiri": 5368,
  "\u2581chairo": 5369,
  "\u2581wakadaro": 5370,
  "darika": 5371,
  "kanda": 5372,
  "zvininipisa": 5373,
  "\u2581rwai": 5374,
  "\u2581unzenza": 5375,
  "\u2581uya": 5376,
  "\u2581yawo": 5377,
  "naya": 5378,
  "\u2581Ga": 5379,
  "\u2581awa": 5380,
  "\u2581construction": 5381,
  "\u2581marry": 5382,
  "\u2581zvika": 5383,
  "rambidza": 5384,
  "zvikudza": 5385,
  "\u2581Mar": 5386,
  "\u2581chishuvo": 5387,
  "\u2581feels": 5388,
  "\u2581naamai": 5389,
  "\u2581paradhiso": 5390,
  "\u2581zvaanoda": 5391,
  "ngoerekana": 5392,
  "urikidza": 5393,
  "\u258121]": 5394,
  "\u2581Samaria": 5395,
  "\u2581husina": 5396,
  "\u2581neiko": 5397,
  "\u2581nyevero": 5398,
  "ise": 5399,
  "zva": 5400,
  "\u2581beast": 5401,
  "\u2581causing": 5402,
  "\u2581chiduku": 5403,
  "\u2581highly": 5404,
  "\u2581illustrate": 5405,
  "\u2581kuremekedza": 5406,
  "\u2581peaceful": 5407,
  "\u2581yakava": 5408,
  "\u2581Greece": 5409,
  "\u2581Jonah": 5410,
  "\u2581Pet": 5411,
  "\u2581arose": 5412,
  "\u2581chiitiko": 5413,
  "\u2581entitled": 5414,
  "\u2581mwari": 5415,
  "\u2581vamwari": 5416,
  "\u2581yakatanga": 5417,
  "\u258129]": 5418,
  "\u2581finding": 5419,
  "\u2581haisi": 5420,
  "\u2581kacho": 5421,
  "\u2581zvakataurwa": 5422,
  "\u2581zvaro": 5423,
  "rovedza": 5424,
  "\u2581Ezra": 5425,
  "\u2581Isa": 5426,
  "\u2581belong": 5427,
  "\u2581bond": 5428,
  "\u2581fled": 5429,
  "\u2581iwo": 5430,
  "\u2581nouchenjeri": 5431,
  "\u2581zvaano": 5432,
  "baya": 5433,
  "denga": 5434,
  "idza": 5435,
  "tai": 5436,
  "\u2581Come": 5437,
  "\u2581nevakadzi": 5438,
  "\u2581rakaoma": 5439,
  "\u2581scriptures": 5440,
  "\u2581zviripo": 5441,
  "\u2581Human": 5442,
  "\u2581Isaka": 5443,
  "\u2581balance": 5444,
  "\u2581navakadzi": 5445,
  "\u2581privileges": 5446,
  "\u2581signs": 5447,
  "\u2581vanonzwa": 5448,
  "As": 5449,
  "our": 5450,
  "\u2581Nzvimbo": 5451,
  "\u2581background": 5452,
  "\u2581grief": 5453,
  "\u2581keeps": 5454,
  "\u2581kurwara": 5455,
  "\u2581lips": 5456,
  "\u2581provision": 5457,
  "bu": 5458,
  "pesana": 5459,
  "rinda": 5460,
  "\u2581Evhangeri": 5461,
  "\u2581compare": 5462,
  "\u2581render": 5463,
  "\u2581renyika": 5464,
  "\u2581yakadai": 5465,
  "ana": 5466,
  "ny": 5467,
  "vanenge": 5468,
  "\u2581chaiye": 5469,
  "\u2581hwenyu": 5470,
  "\u2581nharo": 5471,
  "\u2581twenty": 5472,
  "mboita": 5473,
  "rayirwa": 5474,
  "tumwa": 5475,
  "\u25811994": 5476,
  "\u2581Never": 5477,
  "\u2581chiverengero": 5478,
  "\u2581contribute": 5479,
  "\u2581hakusati": 5480,
  "\u2581kupera": 5481,
  "\u2581kurwisana": 5482,
  "\u2581kwakafanana": 5483,
  "\u2581rights": 5484,
  "\u2581science": 5485,
  "\u2581tax": 5486,
  "murume": 5487,
  "\u2581Italy": 5488,
  "\u2581Zion": 5489,
  "\u2581kworudzi": 5490,
  "\u2581nezvaJehovha": 5491,
  "\u2581region": 5492,
  "gen": 5493,
  "rongwa": 5494,
  "\u25811989": 5495,
  "\u2581Columbia": 5496,
  "\u2581hwomunhu": 5497,
  "\u2581irworwo": 5498,
  "\u2581ndokuti": 5499,
  "\u2581seiko": 5500,
  "\u2581munofanira": 5501,
  "\u2581nehondo": 5502,
  "\u2581nezvakaipa": 5503,
  "\u2581nhume": 5504,
  "\u2581rwaJehovha": 5505,
  "\u2581tapota": 5506,
  "\u2581thanks": 5507,
  "tiri": 5508,
  "\u2581000.": 5509,
  "\u2581Chaka": 5510,
  "\u2581Micah": 5511,
  "\u2581Thou": 5512,
  "\u2581adultery": 5513,
  "\u2581cancer": 5514,
  "\u2581east": 5515,
  "\u2581kukurumidza": 5516,
  "\u2581satisfying": 5517,
  "\u2581waizo": 5518,
  "rairwa": 5519,
  "\u2581kuchamhembe": 5520,
  "\u2581kukubatsira": 5521,
  "\u2581mikana": 5522,
  "\u2581nemiedzo": 5523,
  "\u2581removed": 5524,
  "\u2581requirements": 5525,
  "\u2581round": 5526,
  "\u2581significant": 5527,
  "\u2581thank": 5528,
  "\u2581ufakazi": 5529,
  "\u2581development": 5530,
  "\u2581involve": 5531,
  "\u2581provisions": 5532,
  "\u2581root": 5533,
  "\u2581won": 5534,
  "jw": 5535,
  "rumbidzwa": 5536,
  "tibatsira": 5537,
  "\u2581Kusiyana": 5538,
  "\u2581West": 5539,
  "\u2581dream": 5540,
  "\u2581lessons": 5541,
  "\u2581occasions": 5542,
  "\u2581sold": 5543,
  "\u2581spake": 5544,
  "tuka": 5545,
  "\u2581Brazil": 5546,
  "\u2581identified": 5547,
  "\u2581proof": 5548,
  "\u2581yazvo": 5549,
  "\u2581zvandaka": 5550,
  "batsiri": 5551,
  "odza": 5552,
  "tsamba": 5553,
  "\u258122;": 5554,
  "\u2581anoyeuka": 5555,
  "\u2581dear": 5556,
  "\u2581dzava": 5557,
  "\u2581kumunhu": 5558,
  "bhu": 5559,
  "kupa": 5560,
  "tsauka": 5561,
  "vimbika": 5562,
  "\u2581Study": 5563,
  "\u2581Ungano": 5564,
  "\u2581arambe": 5565,
  "\u2581culture": 5566,
  "\u2581doctors": 5567,
  "\u2581fornication": 5568,
  "\u2581hachi": 5569,
  "\u2581punishment": 5570,
  "\u2581vachagara": 5571,
  "makore": 5572,
  "nonoka": 5573,
  "\u2581akakwana": 5574,
  "\u2581akato": 5575,
  "\u2581angava": 5576,
  "\u2581assistance": 5577,
  "\u2581boys": 5578,
  "\u2581inner": 5579,
  "\u2581mutongi": 5580,
  "\u2581stake": 5581,
  "\u2581vanoshanda": 5582,
  "ies": 5583,
  "\u2581Kunze": 5584,
  "\u2581cold": 5585,
  "\u2581masere": 5586,
  "\u2581nenzara": 5587,
  "\u2581restored": 5588,
  "\u2581makanga": 5589,
  "\u2581nezvose": 5590,
  "\u2581physically": 5591,
  "\u2581worudo": 5592,
  "dzorerwa": 5593,
  "ichangobva": 5594,
  "muenzaniso": 5595,
  "\u2581Whe": 5596,
  "\u2581solution": 5597,
  "\u2581touched": 5598,
  "\u2581charge": 5599,
  "\u2581nemitemo": 5600,
  "\u2581zvikamu": 5601,
  "ipa": 5602,
  "\u25812000": 5603,
  "\u2581Vari": 5604,
  "\u2581chaipo": 5605,
  "\u2581determination": 5606,
  "\u2581kub": 5607,
  "\u2581miracles": 5608,
  "\u2581official": 5609,
  "Pisarema": 5610,
  "endeswa": 5611,
  "nhambo": 5612,
  "\u258112]": 5613,
  "\u2581River": 5614,
  "\u2581Service": 5615,
  "\u2581Titus": 5616,
  "\u2581chokutanga": 5617,
  "\u2581dwelling": 5618,
  "\u2581kugovera": 5619,
  "\u2581kumira": 5620,
  "\u2581reject": 5621,
  "\u2581ruchi": 5622,
  "\u2581sinners": 5623,
  "\u2581weapons": 5624,
  "tapura": 5625,
  "tende": 5626,
  "\u2581Tine": 5627,
  "\u2581Uku": 5628,
  "\u2581kuwanwa": 5629,
  "\u2581mushonga": 5630,
  "neta": 5631,
  "\u2581Readers": 5632,
  "\u2581except": 5633,
  "\u2581flee": 5634,
  "\u2581kufungisisa": 5635,
  "\u2581kumarudzi": 5636,
  "\u2581kuzivikanwa": 5637,
  "\u2581lord": 5638,
  "\u2581muruoko": 5639,
  "\u2581ndichiri": 5640,
  "\u2581plant": 5641,
  "\u2581table": 5642,
  "\u2581temberi": 5643,
  "\u2581vavanhu": 5644,
  "\u2581yakachena": 5645,
  "danwa": 5646,
  "ff": 5647,
  "\u2581exists": 5648,
  "\u2581muParadhiso": 5649,
  "\u2581victim": 5650,
  "\u2581wedding": 5651,
  "vana": 5652,
  "\u25813]": 5653,
  "\u2581Al": 5654,
  "\u2581Chechi": 5655,
  "\u2581Hitler": 5656,
  "\u2581Teach": 5657,
  "\u2581muedzo": 5658,
  "\u2581muve": 5659,
  "\u2581rulership": 5660,
  "\u2581scholars": 5661,
  "\u2581skills": 5662,
  "\u2581unyoro": 5663,
  "Imba": 5664,
  "\u2581Out": 5665,
  "\u2581brethren": 5666,
  "\u2581couples": 5667,
  "\u2581injustice": 5668,
  "\u2581kuipa": 5669,
  "\u2581kurasikirwa": 5670,
  "\u2581yokupedzisira": 5671,
  "gutsikana": 5672,
  "pindwa": 5673,
  "\u258151": 5674,
  "\u2581Britannica": 5675,
  "\u2581Musa": 5676,
  "\u2581chinonzi": 5677,
  "\u2581constant": 5678,
  "\u2581heartfelt": 5679,
  "\u2581kukurira": 5680,
  "\u2581vatariri": 5681,
  "\u2581Ndiye": 5682,
  "\u2581hair": 5683,
  "\u2581hweBhaibheri": 5684,
  "\u2581mumashoko": 5685,
  "\u2581neShoko": 5686,
  "\u2581nearby": 5687,
  "\u2581pieces": 5688,
  "\u2581refer": 5689,
  "\u2581refuse": 5690,
  "\u2581writings": 5691,
  "\u2581zveku": 5692,
  "gutsa": 5693,
  "\u258144.": 5694,
  "\u2581affairs": 5695,
  "\u2581copies": 5696,
  "\u2581engage": 5697,
  "\u2581mairi": 5698,
  "\u2581remaining": 5699,
  "\u2581resolve": 5700,
  "\u2581y": 5701,
  "\u2581zvinoenderana": 5702,
  "danidzira": 5703,
  "\u2581kudzivirira": 5704,
  "\u2581labor": 5705,
  "\u2581mutsika": 5706,
  "\u2581price": 5707,
  "\u2581sad": 5708,
  "\u2581vaiti": 5709,
  "poresa": 5710,
  "vamwe": 5711,
  "vhu": 5712,
  "\u2581Organization": 5713,
  "\u2581firmly": 5714,
  "\u2581murairo": 5715,
  "\u2581paakati": 5716,
  "\u2581potential": 5717,
  "\u2581turning": 5718,
  "\u2581worldly": 5719,
  "dhe": 5720,
  "dzwa": 5721,
  "\u2581Zvai": 5722,
  "\u2581path": 5723,
  "les": 5724,
  "nongedzera": 5725,
  "revi": 5726,
  "umbi": 5727,
  "varume": 5728,
  "\u2581Zvinoita": 5729,
  "\u2581exactly": 5730,
  "\u2581kufadza": 5731,
  "\u2581remove": 5732,
  "\u2581varwi": 5733,
  "\u2581zvitsva": 5734,
  "MA": 5735,
  "disa": 5736,
  "urawa": 5737,
  "\u2581Li": 5738,
  "\u2581caught": 5739,
  "\u2581iron": 5740,
  "\u2581ramangwana": 5741,
  "\u2581vakafanana": 5742,
  "payona": 5743,
  "\u258134,": 5744,
  "\u2581British": 5745,
  "\u2581Encyclop\u00e6dia": 5746,
  "\u2581Mutsvene": 5747,
  "\u2581afterward": 5748,
  "\u2581agreed": 5749,
  "\u2581broke": 5750,
  "\u2581burned": 5751,
  "\u2581chirikadzi": 5752,
  "\u2581fourth": 5753,
  "\u2581kubhabhatidzwa": 5754,
  "\u2581zviito": 5755,
  "deya": 5756,
  "yeuchidza": 5757,
  "\u2581Lot": 5758,
  "\u2581chirango": 5759,
  "\u2581hauna": 5760,
  "\u2581hwaro": 5761,
  "\u2581instructions": 5762,
  "\u2581kusiyana": 5763,
  "\u2581n": 5764,
  "\u2581ndakava": 5765,
  "\u2581ngava": 5766,
  "\u2581rebellion": 5767,
  "\u2581tarira": 5768,
  "\u2581touch": 5769,
  "\u2581utachiona": 5770,
  "\u2581vanyori": 5771,
  "dzokorora": 5772,
  "mari": 5773,
  "rohwa": 5774,
  "\u25814]": 5775,
  "\u258166": 5776,
  "\u2581fallen": 5777,
  "men": 5778,
  "ruramisa": 5779,
  "\u2581Republic": 5780,
  "\u2581chinyorwa": 5781,
  "\u2581ganhuro": 5782,
  "\u2581namakore": 5783,
  "\u2581nokusa": 5784,
  "\u2581paaiva": 5785,
  "\u2581zvinyorwa": 5786,
  "Ne": 5787,
  "\u258131,": 5788,
  "\u258147": 5789,
  "\u2581Trinity": 5790,
  "\u2581Z": 5791,
  "\u2581cares": 5792,
  "\u2581customs": 5793,
  "\u2581lovers": 5794,
  "\u2581mildness": 5795,
  "\u2581ship": 5796,
  "\u2581successfully": 5797,
  "je": 5798,
  "\u2581Gentiles": 5799,
  "\u2581abundant": 5800,
  "\u2581rendered": 5801,
  "Jesus": 5802,
  "bhuku": 5803,
  "kandira": 5804,
  "ndu": 5805,
  "\u2581Asa": 5806,
  "\u2581Mozisi": 5807,
  "\u2581Often": 5808,
  "\u2581Ps": 5809,
  "\u2581achangobva": 5810,
  "\u2581arranged": 5811,
  "\u2581awo": 5812,
  "\u2581familiar": 5813,
  "tsa": 5814,
  "ww": 5815,
  "\u2581akapiwa": 5816,
  "\u2581failure": 5817,
  "\u2581hwevanhu": 5818,
  "\u2581images": 5819,
  "\u2581pleasant": 5820,
  "ist": 5821,
  "pamba": 5822,
  "reiko": 5823,
  "\u2581Haana": 5824,
  "\u2581determine": 5825,
  "\u2581kaviri": 5826,
  "\u2581manheru": 5827,
  "\u2581ndeyoku": 5828,
  "\u2581panikiro": 5829,
  "\u2581remarkable": 5830,
  "\u2581serves": 5831,
  "\u2581suddenly": 5832,
  "\u2581uine": 5833,
  "ia": 5834,
  "tyisidzira": 5835,
  "\u2581hafu": 5836,
  "\u2581indefinite": 5837,
  "\u2581mention": 5838,
  "\u2581rokuita": 5839,
  "\u2581vachitaura": 5840,
  "\u2581divided": 5841,
  "\u2581kwaizova": 5842,
  "\u2581mashomanana": 5843,
  "\u2581naA": 5844,
  "\u2581parable": 5845,
  "\u2581vakagamuchira": 5846,
  "manikidza": 5847,
  "\u2581Boka": 5848,
  "\u2581considering": 5849,
  "\u2581dzakaipa": 5850,
  "\u2581hazvisi": 5851,
  "\u2581nezvaMwari": 5852,
  "\u2581vashoma": 5853,
  "\u2581yakanyorwa": 5854,
  "cherekedza": 5855,
  "tinofanira": 5856,
  "vuya": 5857,
  "\u2581YOU": 5858,
  "\u2581chinjo": 5859,
  "\u2581mistakes": 5860,
  "\u2581ndaizo": 5861,
  "\u2581ndichava": 5862,
  "id": 5863,
  "ropafadzwa": 5864,
  "\u2581possession": 5865,
  "great": 5866,
  "land": 5867,
  "pomerwa": 5868,
  "\u2581ataura": 5869,
  "\u2581primary": 5870,
  "\u2581Judha": 5871,
  "\u2581border": 5872,
  "\u2581chaicho": 5873,
  "\u2581conscious": 5874,
  "\u2581dzakati": 5875,
  "\u2581happens": 5876,
  "\u2581kukoshesa": 5877,
  "\u2581kunoda": 5878,
  "\u2581kusiri": 5879,
  "\u2581mashoma": 5880,
  "\u2581nezivo": 5881,
  "\u2581ringa": 5882,
  "\u2581tisinga": 5883,
  "\u2581zvakafanira": 5884,
  "\u2581zvisikwa": 5885,
  "rugare": 5886,
  "zorodza": 5887,
  "\u2581Dare": 5888,
  "\u2581healing": 5889,
  "\u2581kudavira": 5890,
  "\u2581nehafu": 5891,
  "\u2581relationships": 5892,
  "\u2581secure": 5893,
  "\u2581shed": 5894,
  "\u2581tinenge": 5895,
  "\u2581yorudo": 5896,
  "by": 5897,
  "\u2581Zvakanaka": 5898,
  "\u2581hamu": 5899,
  "\u2581shiri": 5900,
  "fungi": 5901,
  "pedzwa": 5902,
  "ster": 5903,
  "sununguka": 5904,
  "\u2581Answer": 5905,
  "\u2581Caesar": 5906,
  "\u2581additional": 5907,
  "\u2581anokwanisa": 5908,
  "\u2581anxious": 5909,
  "\u2581chinobva": 5910,
  "\u2581dry": 5911,
  "\u2581okutanga": 5912,
  "\u2581peku": 5913,
  "\u2581selfish": 5914,
  "\u2581trip": 5915,
  "imwe": 5916,
  "ruka": 5917,
  "\u25811999": 5918,
  "\u2581Court": 5919,
  "\u2581Imba": 5920,
  "\u2581NZIYO": 5921,
  "\u2581Tarira": 5922,
  "\u2581Zechariah": 5923,
  "\u2581kuderedza": 5924,
  "\u2581kurapa": 5925,
  "\u2581vatsva": 5926,
  "vashandi": 5927,
  "\u2581Vanobvunza": 5928,
  "\u2581commit": 5929,
  "\u2581rwaJesu": 5930,
  "munguva": 5931,
  "tori": 5932,
  "\u2581Jerusaremu": 5933,
  "\u2581Paka": 5934,
  "\u2581aigara": 5935,
  "\u2581ichava": 5936,
  "\u2581level": 5937,
  "\u2581nesangano": 5938,
  "\u2581release": 5939,
  "\u2581rurimi": 5940,
  "\u2581sezvatino": 5941,
  "\u2581uwane": 5942,
  "\u2581vatongi": 5943,
  "\u2581SONGS": 5944,
  "\u2581discern": 5945,
  "\u2581pokuti": 5946,
  "\u2581television": 5947,
  "\u2581zvaai": 5948,
  "sta": 5949,
  "\u2581Elisha": 5950,
  "\u2581Handina": 5951,
  "\u2581akaisa": 5952,
  "\u2581average": 5953,
  "\u2581begotten": 5954,
  "\u2581ear": 5955,
  "\u2581increasing": 5956,
  "\u2581nechido": 5957,
  "\u2581pachavo": 5958,
  "\u2581pakuvamba": 5959,
  "\u2581rinobva": 5960,
  "\u2581tinoziva": 5961,
  "\u2581waKristu": 5962,
  "fadzwa": 5963,
  "\u2581GOD": 5964,
  "\u2581Pis": 5965,
  "\u2581burning": 5966,
  "\u2581kuchava": 5967,
  "\u2581kuzviita": 5968,
  "\u2581relations": 5969,
  "\u2581wenhau": 5970,
  "\u2581yatino": 5971,
  "Hondo": 5972,
  "RO": 5973,
  "\u2581Handi": 5974,
  "\u2581commission": 5975,
  "\u2581generally": 5976,
  "\u2581rinopa": 5977,
  "\u2581vamu": 5978,
  "\u2581visiting": 5979,
  "vaya": 5980,
  "\u2581London": 5981,
  "\u2581Mufaro": 5982,
  "\u2581Truth": 5983,
  "\u2581VaTesaronika": 5984,
  "\u2581Zvii": 5985,
  "\u2581anonyora": 5986,
  "\u2581chive": 5987,
  "\u2581district": 5988,
  "\u2581kugadzira": 5989,
  "\u2581oupenyu": 5990,
  "nu": 5991,
  "\u2581Mukadzi": 5992,
  "\u2581Vane": 5993,
  "\u2581kwebasa": 5994,
  "\u2581season": 5995,
  "\u2581surprised": 5996,
  "\u2581valley": 5997,
  "vha": 5998,
  "\u2581Latin": 5999,
  "\u2581Somugumisiro": 6000,
  "\u2581aspect": 6001,
  "\u2581pachi": 6002,
  "\u2581traveled": 6003,
  "\u2581vanachiremba": 6004,
  "\u2581zvakati": 6005,
  "How": 6006,
  "\u258144": 6007,
  "\u2581Galilee": 6008,
  "\u2581Visit": 6009,
  "\u2581abandoned": 6010,
  "\u2581akanyevera": 6011,
  "\u2581compared": 6012,
  "\u2581establish": 6013,
  "\u2581grave": 6014,
  "\u2581misha": 6015,
  "\u2581ndinoti": 6016,
  "\u2581poured": 6017,
  "\u2581wakafanana": 6018,
  "rudo": 6019,
  "\u2581difficulties": 6020,
  "\u2581dignity": 6021,
  "\u2581mundangariro": 6022,
  "\u2581nemunhu": 6023,
  "\u2581portion": 6024,
  "dudzwa": 6025,
  "poneswa": 6026,
  "\u2581Center": 6027,
  "\u2581Nokufamba": 6028,
  "\u2581chiKristu": 6029,
  "\u2581discernment": 6030,
  "\u2581marwadzo": 6031,
  "\u2581muUmambo": 6032,
  "\u2581nharaunda": 6033,
  "\u2581reminded": 6034,
  "\u2581spirituality": 6035,
  "\u2581subjection": 6036,
  "\u2581vanofarira": 6037,
  "maoko": 6038,
  "penya": 6039,
  "shanya": 6040,
  "\u2581Further": 6041,
  "\u2581Jehu": 6042,
  "\u2581Nehemiah": 6043,
  "\u2581Uchi": 6044,
  "\u2581advance": 6045,
  "\u2581damage": 6046,
  "\u2581dark": 6047,
  "\u2581factor": 6048,
  "\u2581mild": 6049,
  "\u2581ruri": 6050,
  "\u2581scientists": 6051,
  "\u2581task": 6052,
  "\u2581uhwo": 6053,
  "fira": 6054,
  "tamira": 6055,
  "\u2581akaziva": 6056,
  "\u2581appreciated": 6057,
  "\u2581claimed": 6058,
  "\u2581corrupt": 6059,
  "\u2581muromo": 6060,
  "\u2581Charles": 6061,
  "\u2581Kwakanga": 6062,
  "\u2581Passover": 6063,
  "\u2581drew": 6064,
  "\u2581invisible": 6065,
  "\u2581paBheteri": 6066,
  "\u2581spouse": 6067,
  "\u2581threat": 6068,
  "\u2581ukoshi": 6069,
  "\u2581yave": 6070,
  "Ta": 6071,
  "vagari": 6072,
  "\u2581Magazini": 6073,
  "\u2581kwaro": 6074,
  "\u2581moon": 6075,
  "\u2581ndiMwari": 6076,
  "\u2581upombwe": 6077,
  "\u2581vazhinjisa": 6078,
  "Umambo": 6079,
  "shoko": 6080,
  "uchenjeri": 6081,
  "\u2581400": 6082,
  "\u2581Hana": 6083,
  "\u2581chechokwadi": 6084,
  "\u2581forest": 6085,
  "fundo": 6086,
  "tumirwa": 6087,
  "zviwana": 6088,
  "\u2581Flood": 6089,
  "\u2581Isu": 6090,
  "\u2581Mudzimai": 6091,
  "\u2581Rutherford": 6092,
  "\u2581chakasimba": 6093,
  "\u2581kugadzirira": 6094,
  "\u2581kurukurirano": 6095,
  "\u2581kutendeka": 6096,
  "\u2581migumisiro": 6097,
  "\u2581wipe": 6098,
  "goverwa": 6099,
  "\u2581Learn": 6100,
  "\u2581Lo": 6101,
  "\u2581chaiyoiyo": 6102,
  "\u2581kutadza": 6103,
  "\u2581kutambudzika": 6104,
  "\u2581mirayiridzo": 6105,
  "\u2581ran": 6106,
  "\u2581rive": 6107,
  "\u2581vazive": 6108,
  "marudzi": 6109,
  "\u2581Chikonzero": 6110,
  "\u2581Rugare": 6111,
  "\u2581akasimba": 6112,
  "\u2581audience": 6113,
  "\u2581billion": 6114,
  "\u2581kwave": 6115,
  "\u2581nemafungiro": 6116,
  "Look": 6117,
  "\u2581Vakati": 6118,
  "\u2581brochure": 6119,
  "\u2581differ": 6120,
  "\u2581kuzadzika": 6121,
  "\u2581theme": 6122,
  "\u2581walls": 6123,
  "\u2581zvavai": 6124,
  "mwa": 6125,
  "\u258149": 6126,
  "\u2581Kuwedzera": 6127,
  "\u2581Says": 6128,
  "\u2581VaK": 6129,
  "\u2581Zimbabwe": 6130,
  "\u2581havasati": 6131,
  "\u2581private": 6132,
  "\u2581seventh": 6133,
  "\u2581yekuti": 6134,
  "komba": 6135,
  "putsa": 6136,
  "\u2581Farao": 6137,
  "\u2581adult": 6138,
  "\u2581corruption": 6139,
  "\u2581demonstrated": 6140,
  "\u2581qualified": 6141,
  "ner": 6142,
  "shivirira": 6143,
  "\u2581Pilate": 6144,
  "\u2581akaedza": 6145,
  "\u2581nedzidziso": 6146,
  "\u2581observes": 6147,
  "\u2581stayed": 6148,
  "nakidza": 6149,
  "ngwa": 6150,
  "tsamwa": 6151,
  "\u2581Spanish": 6152,
  "\u2581WHAT": 6153,
  "\u2581akawedzera": 6154,
  "\u2581angave": 6155,
  "\u2581bhokisi": 6156,
  "\u2581fleshly": 6157,
  "\u2581pandaka": 6158,
  "bvunzwa": 6159,
  "muti": 6160,
  "\u258172": 6161,
  "\u2581Esther": 6162,
  "\u2581fit": 6163,
  "\u2581muparadhiso": 6164,
  "\u2581rechipiri": 6165,
  "\u2581speaker": 6166,
  "\u2581zveBhaibheri": 6167,
  "\u2581zvisati": 6168,
  "\u258129:": 6169,
  "\u2581Bo": 6170,
  "\u2581Naomi": 6171,
  "\u2581Recall": 6172,
  "\u2581kubvunza": 6173,
  "\u2581ndakaona": 6174,
  "\u2581paya": 6175,
  "VA": 6176,
  "pandukira": 6177,
  "\u258128]": 6178,
  "\u2581Marudzi": 6179,
  "\u2581anymore": 6180,
  "\u2581fields": 6181,
  "\u2581finished": 6182,
  "\u2581mitatu": 6183,
  "\u2581munzanga": 6184,
  "\u2581uipi": 6185,
  "\u2581willingly": 6186,
  "\u2581zvakazara": 6187,
  "\u2581zvishomanene": 6188,
  "dzwe": 6189,
  "ence": 6190,
  "sango": 6191,
  "svitsa": 6192,
  "umambo": 6193,
  "\u2581Tose": 6194,
  "\u2581areka": 6195,
  "\u2581huge": 6196,
  "\u2581inherit": 6197,
  "\u2581kwakaitika": 6198,
  "\u2581yadzo": 6199,
  "\u2581zvibayiro": 6200,
  "New": 6201,
  "\u2581Di": 6202,
  "\u2581deliverance": 6203,
  "\u2581nomweya": 6204,
  "\u2581numerous": 6205,
  "\u2581pasuo": 6206,
  "\u2581site": 6207,
  "\u2581testimony": 6208,
  "\u2581vaiita": 6209,
  "\u2581zvavaka": 6210,
  "Vanhu": 6211,
  "kasvika": 6212,
  "wani": 6213,
  "yera": 6214,
  "\u2581Akaita": 6215,
  "\u2581attitudes": 6216,
  "\u2581iyoyi": 6217,
  "\u2581merciful": 6218,
  "\u2581mumunyengetero": 6219,
  "\u2581nokufamba": 6220,
  "\u2581sezvaka": 6221,
  "\u2581urwo": 6222,
  "\u2581vanoedza": 6223,
  "\u2581Eventually": 6224,
  "\u2581Jona": 6225,
  "\u2581Tariro": 6226,
  "\u2581akagamuchira": 6227,
  "\u2581asks": 6228,
  "\u2581kuvana": 6229,
  "\u2581meditate": 6230,
  "\u2581raizo": 6231,
  "\u2581rokuparidzira": 6232,
  "\u2581vakaratidza": 6233,
  "\u2581womudzimu": 6234,
  "kwanisi": 6235,
  "sunda": 6236,
  "\u2581Ndokusaka": 6237,
  "\u2581chekuti": 6238,
  "\u2581communicate": 6239,
  "\u2581kumugumo": 6240,
  "\u2581nyorera": 6241,
  "\u2581reaching": 6242,
  "\u2581useful": 6243,
  "itisa": 6244,
  "konzerwa": 6245,
  "kundwa": 6246,
  "rwadza": 6247,
  "\u2581Dzaka": 6248,
  "\u2581Pedyo": 6249,
  "\u2581Po": 6250,
  "\u2581Sovereign": 6251,
  "\u2581grand": 6252,
  "\u2581mauto": 6253,
  "\u2581pagore": 6254,
  "\u2581udyire": 6255,
  "urayiwa": 6256,
  "\u2581chitsva": 6257,
  "\u2581mumugwagwa": 6258,
  "\u2581noushamwari": 6259,
  "\u2581shame": 6260,
  "\u2581vakachenjera": 6261,
  "50": 6262,
  "bati": 6263,
  "\u2581degree": 6264,
  "\u2581exposed": 6265,
  "\u2581kumativi": 6266,
  "\u2581kutenga": 6267,
  "\u2581leaves": 6268,
  "\u2581opposite": 6269,
  "\u2581president": 6270,
  "\u2581skin": 6271,
  "\u2581zviduku": 6272,
  "gwa": 6273,
  "kurukurwa": 6274,
  "misa": 6275,
  "uye": 6276,
  "\u2581acted": 6277,
  "\u2581disaster": 6278,
  "\u2581gathering": 6279,
  "\u2581kwaiita": 6280,
  "chengeterwa": 6281,
  "panduka": 6282,
  "pikira": 6283,
  "porofita": 6284,
  "\u2581Heights": 6285,
  "\u2581Messianic": 6286,
  "\u2581Pentecost": 6287,
  "\u2581Taura": 6288,
  "\u2581excellent": 6289,
  "\u2581influenced": 6290,
  "\u2581motivated": 6291,
  "\u2581pevanhu": 6292,
  "\u2581zvinobatsira": 6293,
  "UN": 6294,
  "kuvadzwa": 6295,
  "muudza": 6296,
  "\u2581Ba": 6297,
  "\u2581Fear": 6298,
  "\u2581Promised": 6299,
  "\u2581Sezva": 6300,
  "\u2581Sezvaka": 6301,
  "\u2581birds": 6302,
  "\u2581kwomudzimu": 6303,
  "\u2581mupasi": 6304,
  "\u2581played": 6305,
  "\u2581Nezve": 6306,
  "\u2581Nhau": 6307,
  "\u2581biyake": 6308,
  "\u2581content": 6309,
  "\u2581famine": 6310,
  "\u2581holding": 6311,
  "\u2581kunobatsira": 6312,
  "\u2581methods": 6313,
  "\u2581nevaKristu": 6314,
  "\u2581papi": 6315,
  "\u2581repentance": 6316,
  "\u2581rinofanira": 6317,
  "\u2581rworudyi": 6318,
  "\u2581scholar": 6319,
  "\u2581spirits": 6320,
  "\u2581wezvinhu": 6321,
  "em": 6322,
  "lt": 6323,
  "vavarira": 6324,
  "\u25811996": 6325,
  "\u2581Knorr": 6326,
  "\u2581Ngirozi": 6327,
  "\u2581Upon": 6328,
  "\u2581chapters": 6329,
  "\u2581dare": 6330,
  "\u2581error": 6331,
  "\u2581harmful": 6332,
  "\u2581kwakava": 6333,
  "\u2581mourning": 6334,
  "\u2581ndihwo": 6335,
  "\u2581offers": 6336,
  "\u2581piyona": 6337,
  "\u2581store": 6338,
  "17": 6339,
  "danana": 6340,
  "\u2581Philip": 6341,
  "\u2581calm": 6342,
  "\u2581guilty": 6343,
  "\u2581hardly": 6344,
  "\u2581ichiti": 6345,
  "\u2581jaya": 6346,
  "\u2581mothers": 6347,
  "\u2581terrible": 6348,
  "fananidzira": 6349,
  "omerera": 6350,
  "pfidza": 6351,
  "\u2581Sadly": 6352,
  "\u2581chipikirwa": 6353,
  "\u2581kukurudzira": 6354,
  "\u2581mutoo": 6355,
  "\u2581nezvokudya": 6356,
  "\u2581nokuziva": 6357,
  "\u2581per": 6358,
  "\u2581yebasa": 6359,
  "Watchtower": 6360,
  "dzvinyirira": 6361,
  "gari": 6362,
  "vaudza": 6363,
  "\u2581Nathan": 6364,
  "\u2581anobatsira": 6365,
  "\u2581arms": 6366,
  "\u2581kumisangano": 6367,
  "\u2581lifted": 6368,
  "\u2581scene": 6369,
  "\u2581union": 6370,
  "nhengo": 6371,
  "\u2581Dad": 6372,
  "\u2581Orthodox": 6373,
  "\u2581properly": 6374,
  "\u2581standard": 6375,
  "\u2581tent": 6376,
  "\u2581variety": 6377,
  "\u2581vayo": 6378,
  "\u2581yebazi": 6379,
  "Uno": 6380,
  "but": 6381,
  "uro": 6382,
  "\u2581Kusa": 6383,
  "\u2581Ramba": 6384,
  "\u2581anofara": 6385,
  "\u2581dzinopfuura": 6386,
  "\u2581eager": 6387,
  "\u2581empty": 6388,
  "\u2581endured": 6389,
  "\u2581feed": 6390,
  "\u2581kudiwa": 6391,
  "\u2581muvakidzani": 6392,
  "\u2581plans": 6393,
  "\u2581possessions": 6394,
  "\u2581vanodavira": 6395,
  "AL": 6396,
  "Kristu": 6397,
  "RI": 6398,
  "enderana": 6399,
  "nyatsoziva": 6400,
  "vakadzi": 6401,
  "zara": 6402,
  "\u2581add": 6403,
  "\u2581companion": 6404,
  "\u2581dzakaoma": 6405,
  "\u2581kugoverana": 6406,
  "\u2581ngwavaira": 6407,
  "\u2581reasoning": 6408,
  "\u2581recall": 6409,
  "\u2581writers": 6410,
  "\u2581zvichaita": 6411,
  "idzi": 6412,
  "mubatsira": 6413,
  "ndima": 6414,
  "\u2581Tinoziva": 6415,
  "\u2581chorudzikinuro": 6416,
  "\u2581dzinokosha": 6417,
  "\u2581faithfulness": 6418,
  "\u2581judges": 6419,
  "\u2581kumirira": 6420,
  "\u2581kuroorana": 6421,
  "\u2581kusimba": 6422,
  "\u2581restore": 6423,
  "\u2581thereafter": 6424,
  "\u2581vain": 6425,
  "gere": 6426,
  "musoro": 6427,
  "zvokwadi": 6428,
  "\u2581Ndezvipi": 6429,
  "\u2581North": 6430,
  "\u2581approached": 6431,
  "\u2581historian": 6432,
  "\u2581host": 6433,
  "\u2581kuka": 6434,
  "\u2581munyoro": 6435,
  "\u2581muvengi": 6436,
  "manikidzwa": 6437,
  "\u2581Death": 6438,
  "\u2581chava": 6439,
  "\u2581conducted": 6440,
  "\u2581literally": 6441,
  "\u2581nevarume": 6442,
  "\u2581services": 6443,
  "\u2581sezvingabvira": 6444,
  "nzwika": 6445,
  "\u2581Roku": 6446,
  "\u2581kusati": 6447,
  "\u2581mangwana": 6448,
  "\u2581nenhamo": 6449,
  "\u2581quit": 6450,
  "\u2581vachienda": 6451,
  "DZI": 6452,
  "my": 6453,
  "ronda": 6454,
  "\u2581Mutongi": 6455,
  "\u2581Soku": 6456,
  "\u2581Thomas": 6457,
  "\u2581exercising": 6458,
  "\u2581matanho": 6459,
  "\u2581mitauro": 6460,
  "\u2581reaction": 6461,
  "\u2581ruling": 6462,
  "\u2581scientific": 6463,
  "\u2581Cain": 6464,
  "\u2581arrested": 6465,
  "\u2581associate": 6466,
  "\u2581azere": 6467,
  "\u2581custom": 6468,
  "\u2581kutsanangura": 6469,
  "\u2581mark": 6470,
  "\u2581memory": 6471,
  "\u2581middle": 6472,
  "\u2581nenzwi": 6473,
  "\u2581sitting": 6474,
  "\u2581uporofita": 6475,
  "\u2581Him": 6476,
  "\u2581akadzidzisa": 6477,
  "\u2581faces": 6478,
  "\u2581kukanganwira": 6479,
  "\u2581officials": 6480,
  "\u2581pangozi": 6481,
  "\u2581represent": 6482,
  "\u2581rinotsanangura": 6483,
  "\u2581streets": 6484,
  "Zvi": 6485,
  "kwegura": 6486,
  "zviitiko": 6487,
  "\u2581Musi": 6488,
  "\u2581comforting": 6489,
  "\u2581kumaodzanyemba": 6490,
  "\u2581lion": 6491,
  "\u2581minutes": 6492,
  "\u2581moku": 6493,
  "\u2581otherwise": 6494,
  "\u2581passing": 6495,
  "\u2581yasvika": 6496,
  "Keep": 6497,
  "kwi": 6498,
  "rapwa": 6499,
  "vaapostora": 6500,
  "\u2581Ita": 6501,
  "\u2581Kwemakore": 6502,
  "\u2581nezano": 6503,
  "au": 6504,
  "\u2581Mukai": 6505,
  "\u2581involving": 6506,
  "\u2581ndive": 6507,
  "\u2581njere": 6508,
  "\u2581vakadai": 6509,
  "\u2581visits": 6510,
  "\u2581zvematongerw": 6511,
  "bate": 6512,
  "ill": 6513,
  "\u2581belongs": 6514,
  "\u2581dangers": 6515,
  "\u2581idols": 6516,
  "\u2581medu": 6517,
  "\u2581pamwero": 6518,
  "\u2581proud": 6519,
  "\u2581victory": 6520,
  "mwanakomana": 6521,
  "rema": 6522,
  "shandurwa": 6523,
  "shanyirwa": 6524,
  "simuka": 6525,
  "tsamira": 6526,
  "\u2581Vanakomana": 6527,
  "\u2581concerns": 6528,
  "\u2581iniquity": 6529,
  "\u2581perish": 6530,
  "\u2581represented": 6531,
  "\u2581running": 6532,
  "koka": 6533,
  "nyandura": 6534,
  "\u25811945": 6535,
  "\u2581Benjamin": 6536,
  "\u2581Men": 6537,
  "\u2581assignments": 6538,
  "\u2581grain": 6539,
  "\u2581hidden": 6540,
  "\u2581mufarwa": 6541,
  "\u2581rakaita": 6542,
  "\u2581rakatevera": 6543,
  "Bhabhironi": 6544,
  "piswa": 6545,
  "siyiwa": 6546,
  "\u25811998": 6547,
  "\u2581Aiva": 6548,
  "\u2581Yakapikirwa": 6549,
  "\u2581accord": 6550,
  "\u2581mavo": 6551,
  "\u2581ndichaku": 6552,
  "\u2581planet": 6553,
  "\u2581vanotya": 6554,
  "dyara": 6555,
  "\u258120]": 6556,
  "\u2581Corinth": 6557,
  "\u2581Museum": 6558,
  "\u2581Zvinokosha": 6559,
  "\u2581akabereka": 6560,
  "\u2581attempt": 6561,
  "\u2581dzavanhu": 6562,
  "\u2581hukuru": 6563,
  "\u2581mushumo": 6564,
  "\u2581nechirwere": 6565,
  "\u2581tend": 6566,
  "\u2581unless": 6567,
  "\u2581wakakwana": 6568,
  "\u2581zv": 6569,
  "makiromita": 6570,
  "ngoda": 6571,
  "saziva": 6572,
  "shamwaridzana": 6573,
  "\u2581Evha": 6574,
  "\u2581akadzidza": 6575,
  "\u2581chibharo": 6576,
  "\u2581feast": 6577,
  "\u2581firstborn": 6578,
  "\u2581kuJerusarema": 6579,
  "\u2581ministeri": 6580,
  "\u2581torture": 6581,
  "bwe": 6582,
  "ish": 6583,
  "tadzira": 6584,
  "\u2581Ben": 6585,
  "\u2581Halls": 6586,
  "\u2581akanyengetera": 6587,
  "\u2581mudzimba": 6588,
  "\u2581mumagazini": 6589,
  "\u2581nemhuka": 6590,
  "\u2581pressures": 6591,
  "\u2581quick": 6592,
  "\u2581sky": 6593,
  "fudza": 6594,
  "yaka": 6595,
  "\u258152": 6596,
  "\u2581Concern": 6597,
  "\u2581Second": 6598,
  "\u2581Zano": 6599,
  "\u2581awake": 6600,
  "\u2581kuonekwa": 6601,
  "\u2581theocratic": 6602,
  "\u2581Ndima": 6603,
  "\u2581Shortly": 6604,
  "\u2581anoshamisa": 6605,
  "\u2581maziso": 6606,
  "\u2581nezvokwadi": 6607,
  "basa": 6608,
  "garo": 6609,
  "unga": 6610,
  "\u258139.": 6611,
  "\u2581Mukuwedzera": 6612,
  "\u2581Si": 6613,
  "\u2581arrangements": 6614,
  "\u2581foolish": 6615,
  "\u2581matongo": 6616,
  "\u2581mifungo": 6617,
  "\u2581prominent": 6618,
  "\u2581reflected": 6619,
  "\u2581zvakashata": 6620,
  "Ishe": 6621,
  "dambudziko": 6622,
  "tenderera": 6623,
  "\u2581Lazarus": 6624,
  "\u2581kokorodzano": 6625,
  "\u2581nokushingaira": 6626,
  "\u2581reap": 6627,
  "\u2581vakasarudza": 6628,
  "\u2581zvaakaita": 6629,
  "Go": 6630,
  "\u2581Get": 6631,
  "\u2581acting": 6632,
  "\u2581courageous": 6633,
  "\u2581dress": 6634,
  "\u2581hove": 6635,
  "\u2581nokupi": 6636,
  "\u2581persecuted": 6637,
  "\u2581photo": 6638,
  "\u2581reproach": 6639,
  "\u2581satisfied": 6640,
  "\u2581yorudzidziso": 6641,
  "chiitiko": 6642,
  "ure": 6643,
  "\u25811914.": 6644,
  "\u2581Early": 6645,
  "\u2581kusangana": 6646,
  "\u2581kwezita": 6647,
  "\u2581nenyaya": 6648,
  "\u2581vanoshumira": 6649,
  "\u2581zvakanakisisa": 6650,
  "kanganiswa": 6651,
  "lin": 6652,
  "maguta": 6653,
  "\u2581Vakadzi": 6654,
  "\u2581career": 6655,
  "\u2581chakakomba": 6656,
  "\u2581condemned": 6657,
  "\u2581ndimene": 6658,
  "\u2581quiet": 6659,
  "\u2581surface": 6660,
  "\u2581vangava": 6661,
  "\u2581vanowana": 6662,
  "\u2581vasingazivi": 6663,
  "vateveri": 6664,
  "\u2581Regai": 6665,
  "\u2581Scripture": 6666,
  "\u2581mukutenda": 6667,
  "\u2581nehurumende": 6668,
  "\u2581seizvo": 6669,
  "\u2581tradition": 6670,
  "\u2581vessels": 6671,
  "\u2581wondered": 6672,
  "70": 6673,
  "poteredza": 6674,
  "unganidzwa": 6675,
  "\u258137.": 6676,
  "\u2581Chero": 6677,
  "\u2581gratitude": 6678,
  "\u2581repeatedly": 6679,
  "\u2581royal": 6680,
  "33": 6681,
  "Be": 6682,
  "miri": 6683,
  "\u2581Again": 6684,
  "\u2581Pandaka": 6685,
  "\u2581Sezviri": 6686,
  "\u2581kunenge": 6687,
  "\u2581painful": 6688,
  "\u2581tiwane": 6689,
  "\u2581zvatinoita": 6690,
  "\u2581zvichaitika": 6691,
  "tsanangurwa": 6692,
  "tsausa": 6693,
  "zita": 6694,
  "zorora": 6695,
  "zvidya": 6696,
  "\u258100": 6697,
  "\u2581Dan": 6698,
  "\u2581Explain": 6699,
  "\u2581Marko": 6700,
  "\u2581akafuridzirwa": 6701,
  "\u2581anonzwa": 6702,
  "\u2581differences": 6703,
  "\u2581instructed": 6704,
  "\u2581outcome": 6705,
  "\u2581possibly": 6706,
  "\u2581safety": 6707,
  "\u2581vakanzwa": 6708,
  "\u2581wakachena": 6709,
  "ber": 6710,
  "gadziri": 6711,
  "\u2581chance": 6712,
  "\u2581gradually": 6713,
  "\u2581misoro": 6714,
  "\u2581mufudzi": 6715,
  "\u2581rate": 6716,
  "\u2581yazvino": 6717,
  "\u2581Rudzi": 6718,
  "\u2581accompany": 6719,
  "\u2581bones": 6720,
  "\u2581kuzviisa": 6721,
  "\u2581ndezvokuti": 6722,
  "\u2581rinoita": 6723,
  "\u2581suggestions": 6724,
  "\u2581wemhuri": 6725,
  "\u2581zvingaita": 6726,
  "mai": 6727,
  "toita": 6728,
  "\u2581Joh": 6729,
  "\u2581fat": 6730,
  "\u2581kuparidzira": 6731,
  "\u2581property": 6732,
  "\u2581suggest": 6733,
  "\u2581yoke": 6734,
  "chenesa": 6735,
  "ling": 6736,
  "rasika": 6737,
  "\u2581Alexander": 6738,
  "\u2581anorondedzera": 6739,
  "\u2581ashamed": 6740,
  "\u2581healed": 6741,
  "\u2581rightly": 6742,
  "\u2581vafa": 6743,
  "\u2581yakanakisisa": 6744,
  "tera": 6745,
  "zarura": 6746,
  "\u2581JEHOVAH": 6747,
  "\u2581Mubhuku": 6748,
  "\u2581anoverengeka": 6749,
  "\u2581hot": 6750,
  "\u2581kero": 6751,
  "\u2581kukudzwa": 6752,
  "\u2581mufundisi": 6753,
  "\u2581pari": 6754,
  "\u2581reputation": 6755,
  "\u2581rwokuzviwanira": 6756,
  "\u2581yakakwirira": 6757,
  "18": 6758,
  "RE": 6759,
  "\u258111]": 6760,
  "\u2581Dai": 6761,
  "\u2581Rute": 6762,
  "\u2581grasp": 6763,
  "\u2581neizvi": 6764,
  "\u2581paying": 6765,
  "\u2581resources": 6766,
  "\u2581zvatinoda": 6767,
  "pasi": 6768,
  "sundwa": 6769,
  "\u2581acknowledge": 6770,
  "\u2581anobvuma": 6771,
  "\u2581below": 6772,
  "\u2581brief": 6773,
  "\u2581completed": 6774,
  "\u2581kuchaita": 6775,
  "\u2581wisely": 6776,
  "madzimambo": 6777,
  "mera": 6778,
  "ngi": 6779,
  "pupura": 6780,
  "\u25812001": 6781,
  "\u2581akasika": 6782,
  "\u2581cloud": 6783,
  "\u2581doors": 6784,
  "\u2581kubwinya": 6785,
  "\u2581naDhavhidhi": 6786,
  "\u2581nokuchenjera": 6787,
  "\u2581obligation": 6788,
  "Israeri": 6789,
  "pika": 6790,
  "\u2581Inobva": 6791,
  "\u2581Kuramba": 6792,
  "\u2581Mika": 6793,
  "\u2581Ungada": 6794,
  "\u2581VaJudha": 6795,
  "\u2581kutambudzwa": 6796,
  "\u2581length": 6797,
  "\u2581nzwisiso": 6798,
  "\u2581suicide": 6799,
  "\u2581vachishandisa": 6800,
  "Why": 6801,
  "buruka": 6802,
  "rudzidziso": 6803,
  "\u2581150": 6804,
  "\u2581dzinoti": 6805,
  "\u2581equal": 6806,
  "\u2581mukuita": 6807,
  "\u2581mumunda": 6808,
  "\u2581nemabasa": 6809,
  "\u2581noticed": 6810,
  "paradzirwa": 6811,
  "\u2581Eria": 6812,
  "\u2581Eriya": 6813,
  "\u2581Fungidzira": 6814,
  "\u2581Moab": 6815,
  "\u2581Simon": 6816,
  "\u2581akavamba": 6817,
  "\u2581displayed": 6818,
  "\u2581mupirisiti": 6819,
  "\u2581nevakuru": 6820,
  "\u2581principal": 6821,
  "\u2581songs": 6822,
  "Asi": 6823,
  "muita": 6824,
  "not": 6825,
  "sangano": 6826,
  "\u25811988": 6827,
  "\u258119]": 6828,
  "\u25815;": 6829,
  "\u2581Pirato": 6830,
  "\u2581Sara": 6831,
  "\u2581abilities": 6832,
  "\u2581allows": 6833,
  "\u2581cross": 6834,
  "\u2581devoted": 6835,
  "\u2581drive": 6836,
  "\u2581havafaniri": 6837,
  "\u2581pioneering": 6838,
  "\u2581readily": 6839,
  "\u2581rwenhema": 6840,
  "\u2581supported": 6841,
  "\u2581varo": 6842,
  "nyura": 6843,
  "vakuru": 6844,
  "vhi": 6845,
  "will": 6846,
  "\u258153": 6847,
  "\u25818;": 6848,
  "\u2581admits": 6849,
  "\u2581chezvinhu": 6850,
  "\u2581finish": 6851,
  "\u2581havo": 6852,
  "\u2581literal": 6853,
  "\u2581mhiko": 6854,
  "\u2581muIjipiti": 6855,
  "\u2581referring": 6856,
  "\u2581rely": 6857,
  "\u2581t": 6858,
  "shu": 6859,
  "\u2581600": 6860,
  "\u2581Kunyanguvezvo": 6861,
  "\u2581calamity": 6862,
  "\u2581chibereko": 6863,
  "\u2581plan": 6864,
  "\u2581repentant": 6865,
  "\u2581viewpoint": 6866,
  "\u2581woupenyu": 6867,
  "rasa": 6868,
  "tauri": 6869,
  "\u2581Happy": 6870,
  "\u2581asingadi": 6871,
  "\u2581chipiriso": 6872,
  "\u2581kunoshamisa": 6873,
  "\u2581kutamba": 6874,
  "\u2581pezvinhu": 6875,
  "\u2581trusted": 6876,
  "ance": 6877,
  "mp": 6878,
  "nyarara": 6879,
  "ungano": 6880,
  "\u2581607": 6881,
  "\u2581Which": 6882,
  "\u2581appeal": 6883,
  "\u2581inclined": 6884,
  "\u2581kwawo": 6885,
  "\u2581rakakura": 6886,
  "\u2581risati": 6887,
  "\u2581spite": 6888,
  "\u2581twelve": 6889,
  "\u2581unokosha": 6890,
  "\u2581zvipfeko": 6891,
  "dzingwa": 6892,
  "vaJudha": 6893,
  "\u2581begins": 6894,
  "\u2581intense": 6895,
  "\u2581murege": 6896,
  "\u2581nehana": 6897,
  "\u2581vanoratidza": 6898,
  "dzidziso": 6899,
  "op": 6900,
  "tadzisa": 6901,
  "\u2581Chronicles": 6902,
  "\u2581Doing": 6903,
  "\u2581Egyptian": 6904,
  "\u2581Know": 6905,
  "\u2581Yo": 6906,
  "\u2581cup": 6907,
  "\u2581dzisinga": 6908,
  "\u2581ekare": 6909,
  "\u2581ends": 6910,
  "\u2581fruits": 6911,
  "\u2581nuclear": 6912,
  "\u2581rwenyu": 6913,
  "\u2581accepting": 6914,
  "\u2581aku": 6915,
  "\u2581ch": 6916,
  "\u2581distance": 6917,
  "\u2581dzayo": 6918,
  "\u2581motivate": 6919,
  "\u2581murombo": 6920,
  "\u2581nako": 6921,
  "\u2581nemu": 6922,
  "\u2581patients": 6923,
  "\u2581sing": 6924,
  "\u2581trade": 6925,
  "\u2581warns": 6926,
  "enzana": 6927,
  "furatira": 6928,
  "gadzirirwa": 6929,
  "mufaro": 6930,
  "\u258175": 6931,
  "\u2581Unoyeuka": 6932,
  "\u2581brotherhood": 6933,
  "\u2581rakafuridzirwa": 6934,
  "\u2581routine": 6935,
  "\u2581vati": 6936,
  "\u2581wechipiri": 6937,
  "mutauro": 6938,
  "\u2581120": 6939,
  "\u258138.": 6940,
  "\u258140.": 6941,
  "\u2581Bill": 6942,
  "\u2581captivity": 6943,
  "\u2581choumambo": 6944,
  "\u2581deaf": 6945,
  "\u2581fighting": 6946,
  "\u2581kutungamirirwa": 6947,
  "\u2581marked": 6948,
  "\u2581model": 6949,
  "\u2581munondo": 6950,
  "\u2581remembered": 6951,
  "\u2581ruvengo": 6952,
  "\u2581singing": 6953,
  "\u2581yavano": 6954,
  "\u2581zvishamiso": 6955,
  "chokwadi": 6956,
  "kero": 6957,
  "kohwa": 6958,
  "mutemo": 6959,
  "ore": 6960,
  "\u25819;": 6961,
  "\u2581Abel": 6962,
  "\u2581Babylonian": 6963,
  "\u2581Gen": 6964,
  "\u2581Report": 6965,
  "\u2581cells": 6966,
  "\u2581kuoma": 6967,
  "\u2581kwechiKristu": 6968,
  "\u2581narwo": 6969,
  "\u2581nokutendeka": 6970,
  "\u2581vaone": 6971,
  "\u2581vatendi": 6972,
  "io": 6973,
  "swi": 6974,
  "\u2581admonition": 6975,
  "\u2581hwemhuri": 6976,
  "\u2581idolatry": 6977,
  "\u2581mutezo": 6978,
  "\u2581noUmambo": 6979,
  "\u2581nomoyo": 6980,
  "\u2581permanent": 6981,
  "\u2581porufu": 6982,
  "\u2581vemarudzi": 6983,
  "Mutemo": 6984,
  "\u258111201": 6985,
  "\u258136.": 6986,
  "\u25813;": 6987,
  "\u2581Following": 6988,
  "\u2581parutivi": 6989,
  "\u2581razvino": 6990,
  "\u2581youmwari": 6991,
  "vandudza": 6992,
  "\u258154": 6993,
  "\u2581Gu": 6994,
  "\u2581Ja": 6995,
  "\u2581approved": 6996,
  "\u2581encourages": 6997,
  "\u2581gates": 6998,
  "\u2581invite": 6999,
  "\u2581kubereka": 7000,
  "\u2581size": 7001,
  "\u2581tear": 7002,
  "\u2581vaizova": 7003,
  "\u2581waro": 7004,
  "betserwa": 7005,
  "dzai": 7006,
  "rutivi": 7007,
  "vanamati": 7008,
  "vona": 7009,
  "zadzisa": 7010,
  "zvaka": 7011,
  "\u25811939": 7012,
  "\u2581Hope": 7013,
  "\u2581Uprofita": 7014,
  "\u2581Way": 7015,
  "\u2581depressed": 7016,
  "\u2581estimated": 7017,
  "\u2581kwakaipa": 7018,
  "\u2581located": 7019,
  "\u2581nemudzimai": 7020,
  "\u2581pamarudzi": 7021,
  "\u2581rejoicing": 7022,
  "\u2581temporary": 7023,
  "tengeswa": 7024,
  "\u258117;": 7025,
  "\u2581Besides": 7026,
  "\u2581En": 7027,
  "\u2581Erisha": 7028,
  "\u2581Vanga": 7029,
  "\u2581complex": 7030,
  "\u2581echokwadi": 7031,
  "\u2581ethnic": 7032,
  "\u2581gets": 7033,
  "\u2581kutarira": 7034,
  "\u2581rakadaro": 7035,
  "\u2581shut": 7036,
  "vhura": 7037,
  "\u2581Munyengetero": 7038,
  "\u2581awane": 7039,
  "\u2581continually": 7040,
  "\u2581generations": 7041,
  "\u2581hwakadaro": 7042,
  "\u2581namabasa": 7043,
  "\u2581numbers": 7044,
  "\u2581pamazuva": 7045,
  "\u2581zvemari": 7046,
  "\u2581zvoupenyu": 7047,
  "kuva": 7048,
  "ler": 7049,
  "muviri": 7050,
  "ud": 7051,
  "zu": 7052,
  "\u2581Achitaura": 7053,
  "\u2581Muzana": 7054,
  "\u2581Sabbath": 7055,
  "\u2581akasimbisa": 7056,
  "\u2581greed": 7057,
  "\u2581kurudyi": 7058,
  "\u2581kwemwedzi": 7059,
  "\u2581nemhepo": 7060,
  "\u2581yakakomba": 7061,
  "berekerwa": 7062,
  "rerwa": 7063,
  "\u2581Ahab": 7064,
  "\u2581Ephesus": 7065,
  "\u2581Judea": 7066,
  "\u2581bitter": 7067,
  "\u2581gained": 7068,
  "\u2581hell": 7069,
  "\u2581initiative": 7070,
  "\u2581kupayona": 7071,
  "\u2581nomwanakomana": 7072,
  "\u2581nzanga": 7073,
  "\u2581rinotiudza": 7074,
  "\u2581serpent": 7075,
  "\u2581wholesome": 7076,
  "10": 7077,
  "30": 7078,
  "dzorwa": 7079,
  "\u2581Russian": 7080,
  "\u2581anotevera": 7081,
  "\u2581assures": 7082,
  "\u2581mugungwa": 7083,
  "\u2581nevakawanda": 7084,
  "\u2581ngarava": 7085,
  "\u2581norudzi": 7086,
  "\u2581waste": 7087,
  "\u2581wave": 7088,
  "\u2581wear": 7089,
  "Musa": 7090,
  "\u2581Assyria": 7091,
  "\u2581discouraged": 7092,
  "\u2581fought": 7093,
  "\u2581frequently": 7094,
  "\u2581goats": 7095,
  "\u2581kukudza": 7096,
  "\u2581kumuka": 7097,
  "\u2581naavo": 7098,
  "\u2581pursuing": 7099,
  "\u2581runako": 7100,
  "\u2581throw": 7101,
  "\u2581vaisa": 7102,
  "\u2581vakadzidza": 7103,
  "\u2581vanotenda": 7104,
  "\u2581widely": 7105,
  "\u2581zvakava": 7106,
  "Magwaro": 7107,
  "hama": 7108,
  "\u2581Year": 7109,
  "\u2581kwemvura": 7110,
  "\u2581miraculous": 7111,
  "\u2581obtained": 7112,
  "\u2581remind": 7113,
  "\u2581rudzikinuro": 7114,
  "\u2581scribes": 7115,
  "\u2581sustain": 7116,
  "\u2581varipo": 7117,
  "\u2581zvanzi": 7118,
  "dzwi": 7119,
  "per": 7120,
  "\u2581Joel": 7121,
  "\u2581atmosphere": 7122,
  "\u2581descendants": 7123,
  "\u2581garments": 7124,
  "\u2581guilt": 7125,
  "\u2581humbly": 7126,
  "\u2581ignore": 7127,
  "\u2581kunzvera": 7128,
  "\u2581meaningful": 7129,
  "\u2581officer": 7130,
  "\u2581threatened": 7131,
  "\u2581zvapupu": 7132,
  "ent": 7133,
  "fambiro": 7134,
  "gadziriro": 7135,
  "shamisika": 7136,
  "\u2581Malachi": 7137,
  "\u2581Welcome": 7138,
  "\u2581chaiko": 7139,
  "\u2581chisimba": 7140,
  "\u2581noruoko": 7141,
  "\u2581smoking": 7142,
  "\u2581welfare": 7143,
  "Who": 7144,
  "karakadza": 7145,
  "miti": 7146,
  "wirwa": 7147,
  "\u2581NY": 7148,
  "\u2581Zvakadiniko": 7149,
  "\u2581inoshanda": 7150,
  "\u2581kungaita": 7151,
  "\u2581neropafadzo": 7152,
  "\u2581yorudzi": 7153,
  "ING": 7154,
  "nhi": 7155,
  "pp": 7156,
  "zvinosanganisira": 7157,
  "\u2581Chirangaridzo": 7158,
  "\u2581Please": 7159,
  "\u2581WE": 7160,
  "\u2581achienda": 7161,
  "\u2581alert": 7162,
  "\u2581commands": 7163,
  "\u2581contain": 7164,
  "\u2581ndoga": 7165,
  "\u2581rinenge": 7166,
  "\u2581yakapiwa": 7167,
  "SI": 7168,
  "ary": 7169,
  "cy": 7170,
  "kwo": 7171,
  "\u2581Kare": 7172,
  "\u2581Manasseh": 7173,
  "\u2581everywhere": 7174,
  "\u2581famous": 7175,
  "\u2581mapurisa": 7176,
  "\u2581murima": 7177,
  "\u2581ndaifanira": 7178,
  "\u2581printed": 7179,
  "\u2581prisoners": 7180,
  "\u2581summer": 7181,
  "\u2581vakato": 7182,
  "ley": 7183,
  "ngirozi": 7184,
  "zadzwa": 7185,
  "\u2581dzinoratidza": 7186,
  "\u2581neye": 7187,
  "\u2581reliable": 7188,
  "\u2581ruponeso": 7189,
  "\u2581spoil": 7190,
  "\u2581stories": 7191,
  "Nyika": 7192,
  "Russia": 7193,
  "unofanira": 7194,
  "\u2581Source": 7195,
  "\u2581Une": 7196,
  "\u2581afflicted": 7197,
  "\u2581akakura": 7198,
  "\u2581executed": 7199,
  "\u2581existed": 7200,
  "\u2581focused": 7201,
  "\u2581kutakura": 7202,
  "\u2581modest": 7203,
  "\u2581plague": 7204,
  "\u2581reku": 7205,
  "\u2581shortly": 7206,
  "\u2581thrown": 7207,
  "\u2581vanyoro": 7208,
  "kumbanira": 7209,
  "muona": 7210,
  "paradzana": 7211,
  "\u2581Canaan": 7212,
  "\u2581Josephus": 7213,
  "\u2581Rinodzora": 7214,
  "\u2581Three": 7215,
  "\u2581agreement": 7216,
  "\u2581akararama": 7217,
  "\u2581muRoma": 7218,
  "\u2581neiyi": 7219,
  "\u2581nyeredzi": 7220,
  "\u2581waIsraeri": 7221,
  "\u2581yei": 7222,
  "garwa": 7223,
  "ized": 7224,
  "lia": 7225,
  "\u2581Lamb": 7226,
  "\u2581beat": 7227,
  "\u2581dzinofanira": 7228,
  "\u2581facing": 7229,
  "\u2581figurative": 7230,
  "\u2581glorify": 7231,
  "\u2581judgments": 7232,
  "\u2581munda": 7233,
  "\u2581pavana": 7234,
  "\u2581sang": 7235,
  "\u2581scripture": 7236,
  "\u2581smoke": 7237,
  "\u2581unoziva": 7238,
  "AN": 7239,
  "parirwa": 7240,
  "pomera": 7241,
  "shanduka": 7242,
  "\u2581Old": 7243,
  "\u2581Western": 7244,
  "\u2581Within": 7245,
  "\u2581annual": 7246,
  "\u2581assurance": 7247,
  "\u2581headquarters": 7248,
  "\u2581incense": 7249,
  "\u2581lower": 7250,
  "\u2581makomo": 7251,
  "\u2581r": 7252,
  "con": 7253,
  "fambisa": 7254,
  "ire": 7255,
  "sis": 7256,
  "\u2581akafunga": 7257,
  "\u2581context": 7258,
  "\u2581distant": 7259,
  "\u2581dying": 7260,
  "\u2581enjoying": 7261,
  "\u2581jealousy": 7262,
  "\u2581mirairo": 7263,
  "\u2581ndisati": 7264,
  "\u2581origin": 7265,
  "\u2581unoratidza": 7266,
  "chinhu": 7267,
  "rufu": 7268,
  "tendera": 7269,
  "\u2581Con": 7270,
  "\u2581Makoronike": 7271,
  "\u2581Master": 7272,
  "\u2581Show": 7273,
  "\u2581Up": 7274,
  "\u2581aisa": 7275,
  "\u2581anotaurwa": 7276,
  "\u2581anowedzera": 7277,
  "\u2581female": 7278,
  "\u2581hated": 7279,
  "\u2581mabhiriyoni": 7280,
  "\u2581musimba": 7281,
  "\u2581opinion": 7282,
  "\u2581ordered": 7283,
  "\u2581project": 7284,
  "\u2581tests": 7285,
  "\u2581yakabva": 7286,
  "\u2581zvave": 7287,
  "ini": 7288,
  "venguva": 7289,
  "\u2581Congregation": 7290,
  "\u2581Kupfuura": 7291,
  "\u2581Minor": 7292,
  "\u2581camps": 7293,
  "\u2581drawing": 7294,
  "\u2581interesting": 7295,
  "\u2581kuhama": 7296,
  "\u2581pandai": 7297,
  "\u2581species": 7298,
  "\u2581vateereri": 7299,
  "Ko": 7300,
  "hwa": 7301,
  "hwe": 7302,
  "kumbirwa": 7303,
  "pindira": 7304,
  "\u2581144": 7305,
  "\u2581finds": 7306,
  "\u2581kwavana": 7307,
  "\u2581mukurwisana": 7308,
  "\u2581newly": 7309,
  "\u2581tempted": 7310,
  "\u2581texts": 7311,
  "ichi": 7312,
  "mapoka": 7313,
  "tse": 7314,
  "\u2581Esau": 7315,
  "\u2581Granted": 7316,
  "\u2581civil": 7317,
  "\u2581cruel": 7318,
  "\u2581habit": 7319,
  "\u2581lowly": 7320,
  "\u2581mitoro": 7321,
  "\u2581weBhabhironi": 7322,
  "IN": 7323,
  "bhururuka": 7324,
  "kare": 7325,
  "mitezo": 7326,
  "tsinhira": 7327,
  "with": 7328,
  "\u2581blame": 7329,
  "\u2581chatino": 7330,
  "\u2581forgiving": 7331,
  "\u2581hutsva": 7332,
  "\u2581kudikanwa": 7333,
  "\u2581raShe": 7334,
  "\u2581sorts": 7335,
  "\u2581vavakidzani": 7336,
  "\u2581wekare": 7337,
  "\u2581zvichiitika": 7338,
  "maka": 7339,
  "vimbiswa": 7340,
  "\u25816;": 7341,
  "\u2581Hava": 7342,
  "\u2581Red": 7343,
  "\u2581cared": 7344,
  "\u2581cheku": 7345,
  "\u2581claims": 7346,
  "\u2581employment": 7347,
  "\u2581extended": 7348,
  "\u2581features": 7349,
  "\u2581godo": 7350,
  "\u2581hide": 7351,
  "\u2581murder": 7352,
  "\u2581nengirozi": 7353,
  "\u2581nomunondo": 7354,
  "\u2581sezvaaka": 7355,
  "\u2581translations": 7356,
  "\u2581treasures": 7357,
  "\u2581vangave": 7358,
  "\u2581vimbiso": 7359,
  "\u2581yokurarama": 7360,
  "bvise": 7361,
  "mer": 7362,
  "\u2581Aya": 7363,
  "\u2581HIV": 7364,
  "\u2581Judhasi": 7365,
  "\u2581Professor": 7366,
  "\u2581chaizo": 7367,
  "\u2581kupfeka": 7368,
  "\u2581neche": 7369,
  "\u2581northern": 7370,
  "\u2581tsvina": 7371,
  "\u2581vakaedza": 7372,
  "ava": 7373,
  "bho": 7374,
  "denha": 7375,
  "iro": 7376,
  "nyatsonzwisisa": 7377,
  "simudza": 7378,
  "\u2581adopted": 7379,
  "\u2581akagadzwa": 7380,
  "\u2581famba": 7381,
  "\u2581historical": 7382,
  "\u2581nezvezvinhu": 7383,
  "\u2581rayo": 7384,
  "\u2581uchiita": 7385,
  "\u2581vaita": 7386,
  "16": 7387,
  "ten": 7388,
  "\u2581Kushandisa": 7389,
  "\u2581aged": 7390,
  "\u2581black": 7391,
  "\u2581proverb": 7392,
  "\u2581red": 7393,
  "\u2581zvaiita": 7394,
  "muapostora": 7395,
  "pamusoro": 7396,
  "\u2581Tito": 7397,
  "\u2581harina": 7398,
  "\u2581kwemhuri": 7399,
  "\u2581mapiyona": 7400,
  "\u2581masangano": 7401,
  "\u2581nguo": 7402,
  "\u2581philosophy": 7403,
  "\u2581primarily": 7404,
  "\u2581vaRevhi": 7405,
  "\u2581yandaka": 7406,
  "\u2581zvavanoda": 7407,
  "Europe": 7408,
  "Ndicha": 7409,
  "mabhuku": 7410,
  "nyaradzwa": 7411,
  "of": 7412,
  "pakati": 7413,
  "\u2581Child": 7414,
  "\u2581Herod": 7415,
  "\u2581Tsika": 7416,
  "\u2581believing": 7417,
  "\u2581bow": 7418,
  "\u2581mushandi": 7419,
  "\u2581ndimi": 7420,
  "\u2581nomwe": 7421,
  "\u2581prophesied": 7422,
  "\u2581roorano": 7423,
  "\u2581survey": 7424,
  "\u2581vanokwanisa": 7425,
  "bhapatidzwa": 7426,
  "gumi": 7427,
  "ukama": 7428,
  "\u25812002": 7429,
  "\u2581Est": 7430,
  "\u2581Ex": 7431,
  "\u2581Ndianiko": 7432,
  "\u2581creature": 7433,
  "\u2581kuratidzwa": 7434,
  "\u2581kwaakaita": 7435,
  "\u2581maitiro": 7436,
  "\u2581medicine": 7437,
  "\u2581moves": 7438,
  "\u2581ndokuita": 7439,
  "\u2581nomuapostora": 7440,
  "\u2581rechiHebheru": 7441,
  "\u2581soil": 7442,
  "\u2581vakasununguka": 7443,
  "\u2581wavanhu": 7444,
  "om": 7445,
  "pere": 7446,
  "wedzerwa": 7447,
  "\u25812;": 7448,
  "\u2581Ephraim": 7449,
  "\u2581contained": 7450,
  "\u2581hadzina": 7451,
  "\u2581hazvirevi": 7452,
  "\u2581nechinhu": 7453,
  "\u2581rwaIsraeri": 7454,
  "\u2581strangers": 7455,
  "\u2581surrounded": 7456,
  "\u2581talks": 7457,
  "kwezva": 7458,
  "\u2581associates": 7459,
  "\u2581coast": 7460,
  "\u2581hwakasimba": 7461,
  "\u2581inherited": 7462,
  "\u2581maintaining": 7463,
  "\u2581nedambudziko": 7464,
  "\u2581sekuti": 7465,
  "\u2581ungodly": 7466,
  "\u2581vakandi": 7467,
  "\u2581yeMagwaro": 7468,
  "\u2581hunger": 7469,
  "\u2581isolated": 7470,
  "\u2581lift": 7471,
  "\u2581nomutemo": 7472,
  "\u2581zvikanganiso": 7473,
  "Ndi": 7474,
  "tsoropodza": 7475,
  "uyu": 7476,
  "\u2581Zve": 7477,
  "\u2581achati": 7478,
  "\u2581boat": 7479,
  "\u2581chinodikanwa": 7480,
  "\u2581depends": 7481,
  "\u2581kuguta": 7482,
  "\u2581lawlessness": 7483,
  "\u2581limit": 7484,
  "\u2581preparing": 7485,
  "\u2581strange": 7486,
  "\u2581yakarongwa": 7487,
  "Imi": 7488,
  "nzanga": 7489,
  "\u25811970": 7490,
  "\u2581Institute": 7491,
  "\u2581achizo": 7492,
  "\u2581anodiwa": 7493,
  "\u2581fears": 7494,
  "\u2581items": 7495,
  "\u2581kwaiitwa": 7496,
  "\u2581looks": 7497,
  "\u2581nemaonero": 7498,
  "\u2581suggests": 7499,
  "\u2581vaiziva": 7500,
  "\u2581vakagara": 7501,
  "nakira": 7502,
  "ted": 7503,
  "\u2581Martha": 7504,
  "\u2581Name": 7505,
  "\u2581akambo": 7506,
  "\u2581buried": 7507,
  "\u2581departed": 7508,
  "\u2581hangu": 7509,
  "\u2581kutsunga": 7510,
  "\u2581previous": 7511,
  "\u2581returning": 7512,
  "\u2581ukuru": 7513,
  "\u2581universal": 7514,
  "\u2581unrighteous": 7515,
  "\u2581wrongdoing": 7516,
  "\u2581zvichikosha": 7517,
  "\u2581zvokutanga": 7518,
  "duku": 7519,
  "musha": 7520,
  "pf": 7521,
  "tapwa": 7522,
  "vaKristu": 7523,
  "\u00e1": 7524,
  "\u2581Wo": 7525,
  "\u2581haagoni": 7526,
  "\u2581holds": 7527,
  "\u2581katatu": 7528,
  "\u2581kwomu": 7529,
  "\u2581lovingly": 7530,
  "\u2581manyuko": 7531,
  "\u2581nounyoro": 7532,
  "\u2581reply": 7533,
  "\u2581risinga": 7534,
  "dudza": 7535,
  "mvura": 7536,
  "pfungwa": 7537,
  "\u2581burn": 7538,
  "\u2581dzinoita": 7539,
  "\u2581dzokunyama": 7540,
  "\u2581emotionally": 7541,
  "\u2581muzivo": 7542,
  "\u2581reduce": 7543,
  "\u2581replaced": 7544,
  "\u2581turns": 7545,
  "baba": 7546,
  "der": 7547,
  "kurirwa": 7548,
  "\u2581cease": 7549,
  "\u2581co": 7550,
  "\u2581dies": 7551,
  "\u2581migariro": 7552,
  "\u2581mupristi": 7553,
  "\u2581ndisinga": 7554,
  "\u2581preserve": 7555,
  "\u2581traditional": 7556,
  "\u2581vanosvika": 7557,
  "\u2581weaknesses": 7558,
  "\u2581whereas": 7559,
  "12": 7560,
  "AR": 7561,
  "farirwa": 7562,
  "ical": 7563,
  "rurama": 7564,
  "\u2581Isiraeri": 7565,
  "\u2581MuKristu": 7566,
  "\u2581Mvura": 7567,
  "\u2581Ndine": 7568,
  "\u2581Truly": 7569,
  "\u2581akadana": 7570,
  "\u2581asvika": 7571,
  "\u2581elements": 7572,
  "\u2581experts": 7573,
  "\u2581kunyorwa": 7574,
  "\u2581leader": 7575,
  "\u2581ndirwo": 7576,
  "\u2581nokungwarira": 7577,
  "\u2581nounyanzvi": 7578,
  "\u2581oppression": 7579,
  "\u2581perfection": 7580,
  "\u2581preced": 7581,
  "\u2581prejudice": 7582,
  "\u2581schools": 7583,
  "\u2581vasungwa": 7584,
  "ndino": 7585,
  "perera": 7586,
  "shamwari": 7587,
  "\u25811940": 7588,
  "\u2581abandon": 7589,
  "\u2581campaign": 7590,
  "\u2581inobudirira": 7591,
  "\u2581kwakachena": 7592,
  "\u2581madzibaba": 7593,
  "\u2581pleasing": 7594,
  "\u2581review": 7595,
  "\u2581scale": 7596,
  "\u2581zvatinogona": 7597,
  "Ijipiti": 7598,
  "mwari": 7599,
  "\u2581Egyptians": 7600,
  "\u2581Vashumiri": 7601,
  "\u2581akanyorera": 7602,
  "\u2581covering": 7603,
  "\u2581hupi": 7604,
  "\u2581imperfection": 7605,
  "\u2581kuparira": 7606,
  "\u2581proceeded": 7607,
  "\u2581strike": 7608,
  "\u2581waJudha": 7609,
  "\u2581weRoma": 7610,
  "\u2581zvenhema": 7611,
  "Gungwa": 7612,
  "that": 7613,
  "yerera": 7614,
  "\u2581Nenguva": 7615,
  "\u2581haazo": 7616,
  "\u2581judged": 7617,
  "\u2581muNew": 7618,
  "\u2581reads": 7619,
  "\u2581solid": 7620,
  "\u2581vachiva": 7621,
  "ous": 7622,
  "ruzivo": 7623,
  "\u2581Henry": 7624,
  "\u2581childhood": 7625,
  "\u2581choupenyu": 7626,
  "\u2581maduku": 7627,
  "\u2581namamwe": 7628,
  "\u2581nendarama": 7629,
  "\u2581panhau": 7630,
  "Bhaibheri": 7631,
  "India": 7632,
  "makomo": 7633,
  "ron": 7634,
  "tan": 7635,
  "zivo": 7636,
  "\u258156": 7637,
  "\u258161": 7638,
  "\u2581Josiah": 7639,
  "\u2581Nebuchadnezzar": 7640,
  "\u2581aone": 7641,
  "\u2581chakafanana": 7642,
  "\u2581challenging": 7643,
  "\u2581chokuva": 7644,
  "\u2581fundamental": 7645,
  "\u2581haisati": 7646,
  "\u2581hunogona": 7647,
  "\u2581illustrations": 7648,
  "\u2581kurumbidza": 7649,
  "\u2581mikuru": 7650,
  "\u2581regai": 7651,
  "\u2581sorrow": 7652,
  "\u2581talked": 7653,
  "\u2581uchangamire": 7654,
  "15": 7655,
  "mbi": 7656,
  "rus": 7657,
  "zvidzivirira": 7658,
  "\u2581Akataura": 7659,
  "\u2581Chokutanga": 7660,
  "\u2581admitted": 7661,
  "\u2581dzeZvapupu": 7662,
  "\u2581kingdoms": 7663,
  "\u2581kushingaira": 7664,
  "\u2581plain": 7665,
  "\u2581uite": 7666,
  "\u2581zvichibva": 7667,
  "\u2581zvinovaka": 7668,
  "!\"": 7669,
  "zadzikwa": 7670,
  "zvipa": 7671,
  "\u2581Empire": 7672,
  "\u2581Kutya": 7673,
  "\u2581Zvoku": 7674,
  "\u2581chaihwo": 7675,
  "\u2581diet": 7676,
  "\u2581extend": 7677,
  "\u2581iva": 7678,
  "\u2581kinds": 7679,
  "\u2581kuungano": 7680,
  "\u2581kwokutanga": 7681,
  "\u2581mumuromo": 7682,
  "\u2581panenge": 7683,
  "\u2581raising": 7684,
  "\u2581symbolic": 7685,
  "\u2581traits": 7686,
  "\u2581vanamwari": 7687,
  "\u2581yapera": 7688,
  "\u2581zvomenemene": 7689,
  "Chikoro": 7690,
  "dzidzira": 7691,
  "dzino": 7692,
  "fari": 7693,
  "madzinza": 7694,
  "nyi": 7695,
  "pererwa": 7696,
  "ran": 7697,
  "ss": 7698,
  "\u2581Mienzaniso": 7699,
  "\u2581Ndichi": 7700,
  "\u2581Ndinga": 7701,
  "\u2581cell": 7702,
  "\u2581credit": 7703,
  "\u2581haunga": 7704,
  "\u2581kudzi": 7705,
  "\u2581kurapwa": 7706,
  "\u2581mass": 7707,
  "\u2581nepakati": 7708,
  "\u2581rewarded": 7709,
  "\u2581slavery": 7710,
  "\u2581upbuilding": 7711,
  "hondo": 7712,
  "msoro": 7713,
  "rusununguko": 7714,
  "\u2581akataurwa": 7715,
  "\u2581attacks": 7716,
  "\u2581kudzidziswa": 7717,
  "\u2581nahwo": 7718,
  "\u2581necessarily": 7719,
  "\u2581saMambo": 7720,
  "\u2581traditions": 7721,
  "pota": 7722,
  "\u2581145": 7723,
  "\u2581Hati": 7724,
  "\u2581Kakawanda": 7725,
  "\u2581afternoon": 7726,
  "\u2581feature": 7727,
  "\u2581haafaniri": 7728,
  "\u2581hwakakwana": 7729,
  "\u2581limitations": 7730,
  "\u2581ndivanaani": 7731,
  "\u2581object": 7732,
  "\u2581padzimwe": 7733,
  "\u2581pictures": 7734,
  "\u2581readers": 7735,
  "\u2581realm": 7736,
  "\u2581strengthening": 7737,
  "\u2581villages": 7738,
  "\u2581watching": 7739,
  "\u2581womb": 7740,
  "\u2581zvandai": 7741,
  "Dare": 7742,
  "bvi": 7743,
  "enzaniswa": 7744,
  "ut": 7745,
  "\u2581Co": 7746,
  "\u2581Pose": 7747,
  "\u2581acknowledged": 7748,
  "\u2581inoda": 7749,
  "\u2581kweku": 7750,
  "\u2581parufu": 7751,
  "\u2581thankful": 7752,
  "\u2581therein": 7753,
  "ger": 7754,
  "sunga": 7755,
  "svi": 7756,
  "\u2581Marriage": 7757,
  "\u2581Richard": 7758,
  "\u2581abroad": 7759,
  "\u2581accompanied": 7760,
  "\u2581aitaura": 7761,
  "\u2581nyaradzo": 7762,
  "\u2581visible": 7763,
  "chengeteka": 7764,
  "iye": 7765,
  "shandi": 7766,
  "siyira": 7767,
  "ushumiri": 7768,
  "\u2581Worship": 7769,
  "\u2581Zvakaitika": 7770,
  "\u2581compassionate": 7771,
  "\u2581gungano": 7772,
  "\u2581heat": 7773,
  "\u2581resulting": 7774,
  "\u2581uti": 7775,
  "\u2581vakaungana": 7776,
  "\u2581yakataura": 7777,
  "\u2581zvevanhu": 7778,
  "chinji": 7779,
  "shorwa": 7780,
  "\u2581Mwedzi": 7781,
  "\u2581Neither": 7782,
  "\u2581Stephen": 7783,
  "\u2581Uchenjeri": 7784,
  "\u2581check": 7785,
  "\u2581citizens": 7786,
  "\u2581introduced": 7787,
  "\u2581kushandira": 7788,
  "\u2581pazera": 7789,
  "\u2581sevanhu": 7790,
  "\u2581space": 7791,
  "\u2581sweet": 7792,
  "\u2581widespread": 7793,
  "\u2581zvakaisvonaka": 7794,
  "Judha": 7795,
  "era": 7796,
  "han": 7797,
  "kurukurirana": 7798,
  "zviziva": 7799,
  "\u2581BY": 7800,
  "\u2581Chaizvo": 7801,
  "\u2581Gospels": 7802,
  "\u2581attain": 7803,
  "\u2581chitarisiko": 7804,
  "\u2581desired": 7805,
  "\u2581hamuna": 7806,
  "\u2581loud": 7807,
  "\u2581milk": 7808,
  "\u2581noise": 7809,
  "\u2581raaka": 7810,
  "\u2581zvichava": 7811,
  "KO": 7812,
  "bayira": 7813,
  "zvipo": 7814,
  "\u2581Lu": 7815,
  "\u2581Y": 7816,
  "\u2581description": 7817,
  "\u2581dzomudzimu": 7818,
  "\u2581losing": 7819,
  "\u2581mamishinari": 7820,
  "\u2581paari": 7821,
  "\u2581urege": 7822,
  "\u2581win": 7823,
  "chimwe": 7824,
  "hy": 7825,
  "ome": 7826,
  "\u2581Akanyora": 7827,
  "\u2581Nazi": 7828,
  "\u2581Sha": 7829,
  "\u2581bride": 7830,
  "\u2581generous": 7831,
  "\u2581hwaiva": 7832,
  "\u2581motives": 7833,
  "\u2581nokudzidza": 7834,
  "\u2581professor": 7835,
  "\u2581vakapa": 7836,
  "\u2581vakasimba": 7837,
  "\u2581wheat": 7838,
  "rwendo": 7839,
  "\u2581Grand": 7840,
  "\u2581Notice": 7841,
  "\u2581Sodom": 7842,
  "\u2581VA": 7843,
  "\u2581access": 7844,
  "\u2581branches": 7845,
  "\u2581kwoUmambo": 7846,
  "\u2581nokudzidzisa": 7847,
  "\u2581repeated": 7848,
  "\u2581richava": 7849,
  "\u2581spending": 7850,
  "itiro": 7851,
  "mon": 7852,
  "vadzidzi": 7853,
  "vafundisi": 7854,
  "\u2581Chikoro": 7855,
  "\u2581achiziva": 7856,
  "\u2581addressed": 7857,
  "\u2581akaronga": 7858,
  "\u2581choices": 7859,
  "\u2581impact": 7860,
  "\u2581pokugara": 7861,
  "\u2581ruremekedzo": 7862,
  "\u2581sets": 7863,
  "\u2581significance": 7864,
  "\u2581warfare": 7865,
  "Zva": 7866,
  "\u2581Photo": 7867,
  "\u2581akakwanisa": 7868,
  "\u2581anokurudzira": 7869,
  "\u2581author": 7870,
  "\u2581capable": 7871,
  "\u2581chomu": 7872,
  "\u2581contributed": 7873,
  "\u2581conviction": 7874,
  "\u2581dzaJesu": 7875,
  "\u2581dzakaita": 7876,
  "\u2581humankind": 7877,
  "\u2581immortal": 7878,
  "\u2581ke": 7879,
  "\u2581scattered": 7880,
  "\u2581silent": 7881,
  "\u2581urges": 7882,
  "ac": 7883,
  "gumbura": 7884,
  "kutanga": 7885,
  "siana": 7886,
  "singafaniri": 7887,
  "viga": 7888,
  "wanzova": 7889,
  "\u25811943": 7890,
  "\u25817;": 7891,
  "\u2581Vanofanira": 7892,
  "\u2581azvi": 7893,
  "\u2581dzekare": 7894,
  "\u2581kubhadhara": 7895,
  "\u2581kuchechi": 7896,
  "\u2581movement": 7897,
  "\u2581pamabasa": 7898,
  "\u2581pemakore": 7899,
  "\u2581repent": 7900,
  "\u2581till": 7901,
  "\u2581weungano": 7902,
  "\u2581worker": 7903,
  "KU": 7904,
  "tz": 7905,
  "\u25811980": 7906,
  "\u2581Choku": 7907,
  "\u2581Protestant": 7908,
  "\u2581VaGaratia": 7909,
  "\u2581Zephaniah": 7910,
  "\u2581chatinofanira": 7911,
  "\u2581ingava": 7912,
  "\u2581kuzvidya": 7913,
  "\u2581mumabhuku": 7914,
  "\u2581mumaguta": 7915,
  "\u2581opposed": 7916,
  "\u2581previously": 7917,
  "\u2581products": 7918,
  "\u2581prosperity": 7919,
  "\u2581sanctuary": 7920,
  "\u2581staff": 7921,
  "\u2581tendency": 7922,
  "\u2581unusual": 7923,
  "\u2581visitors": 7924,
  "\u2581zvataka": 7925,
  "\u2581zvavanhu": 7926,
  "EN": 7927,
  "chikoro": 7928,
  "makwai": 7929,
  "teverwa": 7930,
  "\u258124]": 7931,
  "\u2581akura": 7932,
  "\u2581chirevo": 7933,
  "\u2581comment": 7934,
  "\u2581dzichiri": 7935,
  "\u2581hungry": 7936,
  "\u2581islands": 7937,
  "\u2581latter": 7938,
  "\u2581miracle": 7939,
  "\u2581opposers": 7940,
  "\u2581patiently": 7941,
  "\u2581ruregerero": 7942,
  "\u2581sentence": 7943,
  "\u2581sezvinobvira": 7944,
  "\u2581team": 7945,
  "\u2581wakava": 7946,
  "\u2581zvaari": 7947,
  "\u2581zvivako": 7948,
  "Sa": 7949,
  "\u2581conflicts": 7950,
  "\u2581delighted": 7951,
  "\u2581dzemhuri": 7952,
  "\u2581heal": 7953,
  "\u2581hunoratidza": 7954,
  "\u2581kubatanidzwa": 7955,
  "\u2581load": 7956,
  "\u2581meek": 7957,
  "\u2581rondedzero": 7958,
  "\u2581rwakadaro": 7959,
  "\u2581semhuri": 7960,
  "\u2581zvepabonde": 7961,
  "\u2581zvese": 7962,
  "chengete": 7963,
  "muno": 7964,
  "svuta": 7965,
  "\u25812009": 7966,
  "\u2581Committee": 7967,
  "\u2581aPauro": 7968,
  "\u2581akaratidzira": 7969,
  "\u2581chakarurama": 7970,
  "\u2581chenyika": 7971,
  "\u2581eku": 7972,
  "\u2581fifth": 7973,
  "\u2581harsh": 7974,
  "\u2581hosts": 7975,
  "\u2581kubvumira": 7976,
  "\u2581kukwira": 7977,
  "\u2581metal": 7978,
  "\u2581neMagwaro": 7979,
  "\u2581nhumbi": 7980,
  "\u2581recreation": 7981,
  "\u2581ruled": 7982,
  "dy": 7983,
  "kazosvika": 7984,
  "mukadzi": 7985,
  "res": 7986,
  "urofesa": 7987,
  "\u2581Kuchinja": 7988,
  "\u2581cubits": 7989,
  "\u2581nomwana": 7990,
  "\u2581wokudenga": 7991,
  "Japan": 7992,
  "ate": 7993,
  "fanirwa": 7994,
  "matenga": 7995,
  "nyadzisa": 7996,
  "\u2581Hatifaniri": 7997,
  "\u2581Jo": 7998,
  "\u2581Zvinofadza": 7999,
  "\u2581kwakadziv": 8000,
  "\u2581media": 8001,
  "\u2581muAfrica": 8002,
  "\u2581tongues": 8003,
  "%": 8004,
  "ee": 8005,
  "fungira": 8006,
  "pwere": 8007,
  "\u25811987": 8008,
  "\u25812011": 8009,
  "\u2581Next": 8010,
  "\u2581Spiritual": 8011,
  "\u2581akarega": 8012,
  "\u2581engaged": 8013,
  "\u2581kano": 8014,
  "\u2581namarudzi": 8015,
  "\u2581similarly": 8016,
  "\u2581sufficient": 8017,
  "\u2581tired": 8018,
  "\u2581yaIsiraeri": 8019,
  "\u2581zvataurwa": 8020,
  "nze": 8021,
  "\u2581Nde": 8022,
  "\u2581San": 8023,
  "\u2581accident": 8024,
  "\u2581akapfuurira": 8025,
  "\u2581benefited": 8026,
  "\u2581eliminate": 8027,
  "\u2581floor": 8028,
  "\u2581kukonzera": 8029,
  "\u2581kusinga": 8030,
  "\u2581kuu": 8031,
  "\u2581listeners": 8032,
  "\u2581mariri": 8033,
  "\u2581mukamuri": 8034,
  "\u2581pamakore": 8035,
  "\u2581vakapiwa": 8036,
  "\u2581zororo": 8037,
  "ak": 8038,
  "chenjera": 8039,
  "kuwana": 8040,
  "pfura": 8041,
  "\u25811918": 8042,
  "\u2581Eya": 8043,
  "\u2581Har": 8044,
  "\u2581Luther": 8045,
  "\u2581kuvamwe": 8046,
  "\u2581marital": 8047,
  "\u2581ndaida": 8048,
  "\u2581ndinoziva": 8049,
  "\u2581nengozi": 8050,
  "\u2581nokutya": 8051,
  "\u2581ruzha": 8052,
  "\u2581searching": 8053,
  "\u2581weakness": 8054,
  "kudziridza": 8055,
  "paradzanisa": 8056,
  "zviuraya": 8057,
  "\u2581akagadza": 8058,
  "\u2581bought": 8059,
  "\u2581current": 8060,
  "\u2581intended": 8061,
  "\u2581noMwanakomana": 8062,
  "\u2581nousiku": 8063,
  "\u2581raPauro": 8064,
  "\u2581suggested": 8065,
  "\u2581vuye": 8066,
  "\u2581zvaiitwa": 8067,
  "\u2581zvamuno": 8068,
  "com": 8069,
  "tibetsera": 8070,
  "vengwa": 8071,
  "\u00e3o": 8072,
  "\u25811930": 8073,
  "\u2581akaisvonaka": 8074,
  "\u2581apakuvamba": 8075,
  "\u2581fitting": 8076,
  "\u2581g": 8077,
  "\u2581kushanyira": 8078,
  "\u2581partner": 8079,
  "\u2581protected": 8080,
  "\u2581sports": 8081,
  "\u2581survived": 8082,
  "\u2581vakasiyana": 8083,
  "483,": 8084,
  "Your": 8085,
  "ard": 8086,
  "magazini": 8087,
  "ndaka": 8088,
  "qui": 8089,
  "\u2581Runo": 8090,
  "\u2581execution": 8091,
  "\u2581happening": 8092,
  "\u2581kudzoka": 8093,
  "\u2581navabereki": 8094,
  "\u2581ndinoda": 8095,
  "\u2581netsitsi": 8096,
  "\u2581shine": 8097,
  "\u2581spring": 8098,
  "\u2581supplies": 8099,
  "\u2581vechi": 8100,
  "\u2581wevanhu": 8101,
  "firwa": 8102,
  "nyatsoratidza": 8103,
  "tenderwa": 8104,
  "\u2581Hanzvadzi": 8105,
  "\u2581Huno": 8106,
  "\u2581Mabhuku": 8107,
  "\u2581Nhamba": 8108,
  "\u2581acquire": 8109,
  "\u2581approaching": 8110,
  "\u2581computer": 8111,
  "\u2581concentration": 8112,
  "\u2581hunokosha": 8113,
  "\u2581midzi": 8114,
  "\u2581misi": 8115,
  "\u2581publicly": 8116,
  "\u2581reigned": 8117,
  "\u2581tione": 8118,
  "chinjwa": 8119,
  "kutenda": 8120,
  "tangwa": 8121,
  "taurira": 8122,
  "tumidza": 8123,
  "zvibata": 8124,
  "\u2581Judas": 8125,
  "\u2581Living": 8126,
  "\u2581NE": 8127,
  "\u2581akaraira": 8128,
  "\u2581difficulty": 8129,
  "\u2581dz": 8130,
  "\u2581income": 8131,
  "\u2581mumisha": 8132,
  "\u2581satisfy": 8133,
  "\u2581symptoms": 8134,
  "\u2581tide": 8135,
  "\u2581tikwanise": 8136,
  "ag": 8137,
  "dzivirirwa": 8138,
  "dzvinyirirwa": 8139,
  "ius": 8140,
  "revei": 8141,
  "unzwa": 8142,
  "varanda": 8143,
  "\u2581Journal": 8144,
  "\u2581Much": 8145,
  "\u2581empire": 8146,
  "\u2581explanation": 8147,
  "\u2581fun": 8148,
  "\u2581kubviswa": 8149,
  "\u2581obeying": 8150,
  "\u2581paruoko": 8151,
  "\u2581taizo": 8152,
  "\u2581vasikana": 8153,
  "burukira": 8154,
  "vira": 8155,
  "\u2581Kuwana": 8156,
  "\u2581Ndeipi": 8157,
  "\u2581Women": 8158,
  "\u2581chiono": 8159,
  "\u2581fresh": 8160,
  "\u2581garment": 8161,
  "\u2581guided": 8162,
  "\u2581hwepedyo": 8163,
  "\u2581kudanana": 8164,
  "\u2581lest": 8165,
  "\u2581napamusoro": 8166,
  "\u2581rakawanda": 8167,
  "\u2581relate": 8168,
  "\u2581rewarding": 8169,
  "\u2581rima": 8170,
  "\u2581rwiyo": 8171,
  "\u2581sending": 8172,
  "\u2581storm": 8173,
  "May": 8174,
  "nai": 8175,
  "tsvakurudza": 8176,
  "\u25811986": 8177,
  "\u2581Absalom": 8178,
  "\u2581Akava": 8179,
  "\u2581Barnabas": 8180,
  "\u2581Certainly": 8181,
  "\u2581choushe": 8182,
  "\u2581earnestly": 8183,
  "\u2581hwava": 8184,
  "\u2581inoshandiswa": 8185,
  "\u2581ivava": 8186,
  "\u2581muparidzi": 8187,
  "\u2581pakutaura": 8188,
  "\u2581shoulder": 8189,
  "chizvarwa": 8190,
  "ino": 8191,
  "\u2581Association": 8192,
  "\u2581Enoch": 8193,
  "\u2581Medical": 8194,
  "\u2581Prayer": 8195,
  "\u2581accused": 8196,
  "\u2581arm": 8197,
  "\u2581debt": 8198,
  "\u2581fuma": 8199,
  "\u2581iya": 8200,
  "\u2581jobs": 8201,
  "\u2581kworudo": 8202,
  "\u2581location": 8203,
  "\u2581mhiri": 8204,
  "\u2581muuyo": 8205,
  "\u2581naMosesi": 8206,
  "\u2581nehosha": 8207,
  "\u2581playing": 8208,
  "\u2581rebellious": 8209,
  "\u2581yeuka": 8210,
  "By": 8211,
  "shumo": 8212,
  "zviti": 8213,
  "\u2581VaGaratiya": 8214,
  "\u2581WHO": 8215,
  "\u2581atinoita": 8216,
  "\u2581eternity": 8217,
  "\u2581pachishandiswa": 8218,
  "\u2581pick": 8219,
  "\u2581reminds": 8220,
  "\u2581sacrificing": 8221,
  "\u2581solve": 8222,
  "\u2581twice": 8223,
  "\u2581vanopa": 8224,
  "\u2581vanorwara": 8225,
  "\u2581vanotsvaka": 8226,
  "\u2581vaporofita": 8227,
  "Asia": 8228,
  "Mukai": 8229,
  "hana": 8230,
  "\u25811985": 8231,
  "\u2581Andrew": 8232,
  "\u2581Archive": 8233,
  "\u2581Internet": 8234,
  "\u2581MA": 8235,
  "\u2581Paris": 8236,
  "\u2581Sezvino": 8237,
  "\u2581ariko": 8238,
  "\u2581havanga": 8239,
  "\u2581horses": 8240,
  "\u2581kubudisa": 8241,
  "\u2581kutiza": 8242,
  "\u2581mapfumbamwe": 8243,
  "\u2581mashura": 8244,
  "\u2581possibility": 8245,
  "\u2581rega": 8246,
  "Near": 8247,
  "TE": 8248,
  "geza": 8249,
  "\u2581Fa": 8250,
  "\u2581Ireland": 8251,
  "\u2581MaKristu": 8252,
  "\u2581Things": 8253,
  "\u2581Tinoda": 8254,
  "\u2581akabuda": 8255,
  "\u2581akaitwa": 8256,
  "\u2581akazodzwa": 8257,
  "\u2581educational": 8258,
  "\u2581kunotibatsira": 8259,
  "\u2581miromo": 8260,
  "\u2581mistake": 8261,
  "\u2581muIsraeri": 8262,
  "\u2581nomoto": 8263,
  "\u2581taiva": 8264,
  "\u2581ungada": 8265,
  "\u2581wash": 8266,
  "14": 8267,
  "ES": 8268,
  "ane": 8269,
  "nhu": 8270,
  "ps": 8271,
  "teterera": 8272,
  "verengwa": 8273,
  "\u2581Hurumende": 8274,
  "\u2581Prov": 8275,
  "\u2581declaring": 8276,
  "\u2581identity": 8277,
  "\u2581kaka": 8278,
  "\u2581kuiswa": 8279,
  "\u2581kunobatanidza": 8280,
  "\u2581kuoneka": 8281,
  "\u2581kuunza": 8282,
  "\u2581method": 8283,
  "\u2581mukoma": 8284,
  "\u2581pagomo": 8285,
  "\u2581stands": 8286,
  "\u2581tenzi": 8287,
  "\u2581zvomunhu": 8288,
  "Ini": 8289,
  "chitendero": 8290,
  "tarisiri": 8291,
  "\u2581Muprofita": 8292,
  "\u2581Shanduro": 8293,
  "\u2581application": 8294,
  "\u2581begun": 8295,
  "\u2581bva": 8296,
  "\u2581color": 8297,
  "\u2581consist": 8298,
  "\u2581crisis": 8299,
  "\u2581denho": 8300,
  "\u2581kuungana": 8301,
  "\u2581nyoro": 8302,
  "\u2581pepanhau": 8303,
  "\u2581pregnant": 8304,
  "\u2581yeBheteri": 8305,
  "chinyorwa": 8306,
  "uyo": 8307,
  "zvimwe": 8308,
  "\u258115;": 8309,
  "\u25812008": 8310,
  "\u2581Bethlehem": 8311,
  "\u2581Munyaya": 8312,
  "\u2581chishamiso": 8313,
  "\u2581elsewhere": 8314,
  "\u2581grass": 8315,
  "\u2581kukuvadza": 8316,
  "\u2581kuswedera": 8317,
  "\u2581kwezvokudya": 8318,
  "\u2581makaro": 8319,
  "\u2581muchechi": 8320,
  "\u2581sources": 8321,
  "\u2581southern": 8322,
  "\u2581tested": 8323,
  "\u2581vatadzi": 8324,
  "mauto": 8325,
  "nyunyuta": 8326,
  "paradhiso": 8327,
  "temwa": 8328,
  "\u2581Catholics": 8329,
  "\u2581Jonatani": 8330,
  "\u2581Kunzwisisa": 8331,
  "\u2581Leviticus": 8332,
  "\u2581Su": 8333,
  "\u2581games": 8334,
  "\u2581haru": 8335,
  "\u2581kwakawanda": 8336,
  "\u2581maiva": 8337,
  "\u2581mid": 8338,
  "\u2581nezvaka": 8339,
  "\u2581nokuonga": 8340,
  "\u2581operation": 8341,
  "\u2581pornography": 8342,
  "\u2581separated": 8343,
  "\u2581sexually": 8344,
  "\u2581stronger": 8345,
  "\u2581tisati": 8346,
  "\u2581zvichienda": 8347,
  "Naizvozvo": 8348,
  "fungwa": 8349,
  "his": 8350,
  "mangwanani": 8351,
  "shatisa": 8352,
  "shiri": 8353,
  "tsu": 8354,
  "vakirwa": 8355,
  "\u2581Anna": 8356,
  "\u2581Back": 8357,
  "\u2581disobedience": 8358,
  "\u2581kuvaKristu": 8359,
  "\u2581paper": 8360,
  "\u2581politics": 8361,
  "\u2581proclaimers": 8362,
  "\u2581refreshing": 8363,
  "\u2581romumunda": 8364,
  "\u2581sayings": 8365,
  "\u2581shungu": 8366,
  "\u2581utsotsi": 8367,
  "\u2581witnessed": 8368,
  "\u2581yakashata": 8369,
  "age": 8370,
  "bwinya": 8371,
  "if": 8372,
  "nangana": 8373,
  "tt": 8374,
  "\u25811960": 8375,
  "\u2581Japanese": 8376,
  "\u2581applies": 8377,
  "\u2581crowds": 8378,
  "\u2581demands": 8379,
  "\u2581kugona": 8380,
  "\u2581kuwanikwa": 8381,
  "\u2581mutsinhirano": 8382,
  "\u2581nemimwe": 8383,
  "\u2581programs": 8384,
  "\u2581rakasvika": 8385,
  "\u2581ruramisiro": 8386,
  "\u2581slain": 8387,
  "\u2581yeKaturike": 8388,
  "ou": 8389,
  "ruwa": 8390,
  "\u2581Millions": 8391,
  "\u2581entrusted": 8392,
  "\u2581hospitality": 8393,
  "\u2581journal": 8394,
  "\u2581judicial": 8395,
  "\u2581mudumbu": 8396,
  "\u2581nevano": 8397,
  "\u2581outlook": 8398,
  "\u2581vafudzi": 8399,
  "\u2581vaibva": 8400,
  "ful": 8401,
  "unhu": 8402,
  "\u25812010": 8403,
  "\u2581Hosea": 8404,
  "\u2581Interestingly": 8405,
  "\u2581anofadza": 8406,
  "\u2581kwaShe": 8407,
  "\u2581mipimo": 8408,
  "\u2581muEurope": 8409,
  "\u2581muJudha": 8410,
  "\u2581muboka": 8411,
  "\u2581norusununguko": 8412,
  "\u2581trusting": 8413,
  "Germany": 8414,
  "Iye": 8415,
  "moto": 8416,
  "mufananidzo": 8417,
  "nwe": 8418,
  "peri": 8419,
  "suo": 8420,
  "tambira": 8421,
  "tsaura": 8422,
  "\u2581144,000": 8423,
  "\u25811935": 8424,
  "\u2581Albert": 8425,
  "\u2581Hannah": 8426,
  "\u2581Jude": 8427,
  "\u2581Mamiriro": 8428,
  "\u2581Paai": 8429,
  "\u2581cattle": 8430,
  "\u2581mitanhatu": 8431,
  "\u2581nezviito": 8432,
  "\u2581stumble": 8433,
  "\u2581yokunamata": 8434,
  "\u2581zvinotevera": 8435,
  "Wa": 8436,
  "nanga": 8437,
  "ngano": 8438,
  "\u2581Achishandisa": 8439,
  "\u2581Cherechedza": 8440,
  "\u2581Evidently": 8441,
  "\u2581Horo": 8442,
  "\u2581Pauno": 8443,
  "\u2581Wisdom": 8444,
  "\u2581akada": 8445,
  "\u2581capacity": 8446,
  "\u2581hwakawanda": 8447,
  "\u2581nezvimwewo": 8448,
  "\u2581nokunzwa": 8449,
  "\u2581nomusi": 8450,
  "\u2581profound": 8451,
  "\u2581vakashandisa": 8452,
  "\u2581wedunhu": 8453,
  "\u2581wokupedzisira": 8454,
  "ally": 8455,
  "ndangariro": 8456,
  "red": 8457,
  "toda": 8458,
  "torera": 8459,
  "uyisa": 8460,
  "zosvika": 8461,
  "\u2581Akabva": 8462,
  "\u2581Unodzora": 8463,
  "\u2581akwegura": 8464,
  "\u2581changing": 8465,
  "\u2581discussions": 8466,
  "\u2581dzenhema": 8467,
  "\u2581figure": 8468,
  "\u2581informed": 8469,
  "\u2581muchato": 8470,
  "\u2581mukunamata": 8471,
  "\u2581mukunda": 8472,
  "\u2581murutivi": 8473,
  "\u2581respected": 8474,
  "\u2581veungano": 8475,
  "\u2581yehondo": 8476,
  "mugariro": 8477,
  "\u2581Assembly": 8478,
  "\u2581Pope": 8479,
  "\u2581Syria": 8480,
  "\u2581Unlike": 8481,
  "\u2581chaaka": 8482,
  "\u2581extra": 8483,
  "\u2581feared": 8484,
  "\u2581kunamatwa": 8485,
  "\u2581naShe": 8486,
  "\u2581navarume": 8487,
  "\u2581nengoni": 8488,
  "\u2581paths": 8489,
  "\u2581peers": 8490,
  "\u2581telephone": 8491,
  "\u2581undo": 8492,
  "Nazi": 8493,
  "maonero": 8494,
  "ndiudza": 8495,
  "nhoroondo": 8496,
  "nyatsoongorora": 8497,
  "\u2581AS": 8498,
  "\u2581Roma": 8499,
  "\u2581lines": 8500,
  "\u2581measures": 8501,
  "\u2581ndarama": 8502,
  "\u2581nokupa": 8503,
  "\u2581shadow": 8504,
  "\u2581title": 8505,
  "\u2581vapristi": 8506,
  "Ru": 8507,
  "idzwa": 8508,
  "kuru": 8509,
  "now": 8510,
  "regi": 8511,
  "ub": 8512,
  "\u258118;": 8513,
  "\u2581Island": 8514,
  "\u2581Jah": 8515,
  "\u2581Ungapindura": 8516,
  "\u2581View": 8517,
  "\u2581admit": 8518,
  "\u2581crown": 8519,
  "\u2581flood": 8520,
  "\u2581munun": 8521,
  "\u2581pachako": 8522,
  "\u2581regardless": 8523,
  "\u2581symbol": 8524,
  "\u2581vachifanira": 8525,
  "\u2581zvakadzama": 8526,
  "\u2581zvandino": 8527,
  "usiku": 8528,
  "vakira": 8529,
  "\u25812012": 8530,
  "\u2581Jew": 8531,
  "\u2581Mai": 8532,
  "\u2581Ndinoda": 8533,
  "\u2581achieve": 8534,
  "\u2581akasiana": 8535,
  "\u2581nhano": 8536,
  "\u2581plants": 8537,
  "\u2581plenty": 8538,
  "\u2581reside": 8539,
  "\u2581surgery": 8540,
  "\u2581vakakwana": 8541,
  "\u2581zvatinofanira": 8542,
  "kirasi": 8543,
  "pesvedzera": 8544,
  "taurirana": 8545,
  "\u2581Unoda": 8546,
  "\u2581cure": 8547,
  "\u2581examination": 8548,
  "\u2581inzira": 8549,
  "\u2581ishe": 8550,
  "\u2581kungofanana": 8551,
  "\u2581rivers": 8552,
  "\u2581vechitendero": 8553,
  "\u2581yemari": 8554,
  "Kunyange": 8555,
  "fuma": 8556,
  "miswa": 8557,
  "panguva": 8558,
  "zvisikwa": 8559,
  "\u2581Ann": 8560,
  "\u2581Mubvunzo": 8561,
  "\u2581Pictorial": 8562,
  "\u2581Were": 8563,
  "\u2581Woku": 8564,
  "\u2581anosvika": 8565,
  "\u2581ataure": 8566,
  "\u2581central": 8567,
  "\u2581disasters": 8568,
  "\u2581double": 8569,
  "\u2581exert": 8570,
  "\u2581hachisi": 8571,
  "\u2581kutarisana": 8572,
  "\u2581matenga": 8573,
  "\u2581menyu": 8574,
  "\u2581naMambo": 8575,
  "\u2581rage": 8576,
  "\u2581ufare": 8577,
  "\u2581yechiJudha": 8578,
  "\u2581yokutenda": 8579,
  "TI": 8580,
  "mhanyira": 8581,
  "sho": 8582,
  "tonyanya": 8583,
  "\u258142.": 8584,
  "\u2581Any": 8585,
  "\u2581Car": 8586,
  "\u2581FOR": 8587,
  "\u2581Ndakatanga": 8588,
  "\u2581Sam": 8589,
  "\u2581Semuenzaniso": 8590,
  "\u2581Zvikuru": 8591,
  "\u2581dzaro": 8592,
  "\u2581equipped": 8593,
  "\u2581expectation": 8594,
  "\u2581havagoni": 8595,
  "\u2581hedu": 8596,
  "\u2581kariro": 8597,
  "\u2581kwadzo": 8598,
  "\u2581nechivi": 8599,
  "\u2581nezvenguva": 8600,
  "\u2581obeyed": 8601,
  "\u2581rukudzo": 8602,
  "\u2581rwaKristu": 8603,
  "\u2581shomanene": 8604,
  "\u2581yavana": 8605,
  "An": 8606,
  "chino": 8607,
  "maziso": 8608,
  "ngwe": 8609,
  "tukwa": 8610,
  "zvibvunza": 8611,
  "\u258114]": 8612,
  "\u2581Gideon": 8613,
  "\u2581Years": 8614,
  "\u2581akarondedzera": 8615,
  "\u2581chigaro": 8616,
  "\u2581hungu": 8617,
  "\u2581killing": 8618,
  "\u2581ndinga": 8619,
  "\u2581openly": 8620,
  "\u2581preserved": 8621,
  "\u2581privileged": 8622,
  "\u2581schedule": 8623,
  "\u2581sell": 8624,
  "\u2581tichifunga": 8625,
  "\u2581waaka": 8626,
  "\u2581yokufananidzira": 8627,
  "Hapana": 8628,
  "Now": 8629,
  "chiratidzo": 8630,
  "karirwa": 8631,
  "sungirwa": 8632,
  "\u2581BE": 8633,
  "\u2581akagadzirira": 8634,
  "\u2581akasangana": 8635,
  "\u2581dzinobva": 8636,
  "\u2581grant": 8637,
  "\u2581kushamwaridzana": 8638,
  "\u2581linked": 8639,
  "\u2581minda": 8640,
  "\u2581naiye": 8641,
  "\u2581sanctified": 8642,
  "\u2581vakazvitsaurira": 8643,
  "\u2581vazvi": 8644,
  "munyika": 8645,
  "pinzwa": 8646,
  "\u2581Ar": 8647,
  "\u2581Art": 8648,
  "\u2581Matsvene": 8649,
  "\u2581agere": 8650,
  "\u2581akakodzera": 8651,
  "\u2581anofarira": 8652,
  "\u2581glorified": 8653,
  "\u2581kugutsikana": 8654,
  "\u2581kuzvibvunza": 8655,
  "\u2581kuzviuraya": 8656,
  "\u2581ndirege": 8657,
  "\u2581piece": 8658,
  "\u2581printing": 8659,
  "\u2581stranger": 8660,
  "\u2581systems": 8661,
  "\u2581virtue": 8662,
  "\u2581wakapiwa": 8663,
  "\u2581woUmambo": 8664,
  "Ho": 8665,
  "aiva": 8666,
  "anga": 8667,
  "raka": 8668,
  "ubati": 8669,
  "\u2581Bag": 8670,
  "\u2581Bar": 8671,
  "\u2581COVER": 8672,
  "\u2581Hamu": 8673,
  "\u2581Martin": 8674,
  "\u2581Ose": 8675,
  "\u2581[\"": 8676,
  "\u2581akai": 8677,
  "\u2581akatipa": 8678,
  "\u2581auya": 8679,
  "\u2581bright": 8680,
  "\u2581chakaitwa": 8681,
  "\u2581curse": 8682,
  "\u2581hoped": 8683,
  "\u2581ibasa": 8684,
  "\u2581nomufananidzo": 8685,
  "\u2581pachine": 8686,
  "\u2581salt": 8687,
  "\u2581volunteers": 8688,
  "\u2581waiti": 8689,
  "dhakwa": 8690,
  "zari": 8691,
  "\u2581$1": 8692,
  "\u2581Draw": 8693,
  "\u2581Ijipiti": 8694,
  "\u2581forgotten": 8695,
  "\u2581likened": 8696,
  "\u2581morally": 8697,
  "\u2581munzirai": 8698,
  "\u2581ndechoku": 8699,
  "\u2581ndiine": 8700,
  "\u2581nenheyo": 8701,
[...]
