{
  "</s>": 0,
  "<unk>": 1,
  ".": 2,
  ",": 3,
  "'": 4,
  "\u2581\"": 5,
  "\u2581the": 6,
  "\u2581to": 7,
  "\u2581of": 8,
  "\u2581mu": 9,
  "?": 10,
  "\u2581and": 11,
  ":": 12,
  "\u2581ku": 13,
  "\u2581-": 14,
  "\u2581in": 15,
  "\u2581n": 16,
  "\u2581a": 17,
  "\u2581": 18,
  "\u2581nti": 19,
  "\u2581that": 20,
  "s": 21,
  "\u2581nga": 22,
  "\u2581era": 23,
  "\u2581we": 24,
  "\u2581is": 25,
  "\u2581Yakuwa": 26,
  "\u2581Jehovah": 27,
  "\u2581be": 28,
  "\u2581Katonda": 29,
  "\u2581for": 30,
  "\u2581God": 31,
  "\u2581ne": 32,
  "\u2581his": 33,
  "\u2581bwe": 34,
  "\u2581ng": 35,
  "\u2581by": 36,
  "\u2581'": 37,
  "\u2581with": 38,
  "\u2581you": 39,
  "\u2581not": 40,
  "\u2581was": 41,
  "\u2581ba": 42,
  "\u2581will": 43,
  "\u2581(": 44,
  "\u2581as": 45,
  "\u2581he": 46,
  "\u2581have": 47,
  "\u2581on": 48,
  "\u2581are": 49,
  "\u2581I": 50,
  "\u2581Yesu": 51,
  "\u2581our": 52,
  ")": 53,
  "\u2581Jesus": 54,
  "\u2581it": 55,
  "a": 56,
  ";": 57,
  "\u2581us": 58,
  "\u2581The": 59,
  "\u2581ki": 60,
  "\u2581can": 61,
  "ing": 62,
  "\u2581from": 63,
  "\u2581kye": 64,
  "\u2581yali": 65,
  "\u2581abantu": 66,
  "\u2581nnyo": 67,
  "\u2581who": 68,
  "\u2581What": 69,
  "\u2581their": 70,
  "\u25811": 71,
  "\u2581what": 72,
  "\u2581they": 73,
  "!": 74,
  "\u2581bye": 75,
  "\u2581Mu": 76,
  "\u2581Bible": 77,
  "\u2581do": 78,
  "\u2581or": 79,
  "\u2581bw": 80,
  "\u2581gye": 81,
  "e": 82,
  "\u2581okuba": 83,
  "\u2581this": 84,
  "\u2581kya": 85,
  "\u2581all": 86,
  "\u2581your": 87,
  "\u2581him": 88,
  "nga": 89,
  "\u2581ekyo": 90,
  "\u2581[": 91,
  "\u2581ky": 92,
  "\u2581How": 93,
  "\u2581eby": 94,
  "\u2581oba": 95,
  "\u2581them": 96,
  "\u2581one": 97,
  "\u2581people": 98,
  "\u2581had": 99,
  "\u2581y": 100,
  "\u2581at": 101,
  "\u2581were": 102,
  "\u2581ngeri": 103,
  "\u2581wa": 104,
  "\u2581did": 105,
  "\u2581In": 106,
  "\u2581about": 107,
  "\u2581ey": 108,
  "\u2581ab": 109,
  "\u2581an": 110,
  "\u2581eri": 111,
  "omu": 112,
  "\u2581olw": 113,
  "\u2581when": 114,
  "\u2581A": 115,
  "\u2581would": 116,
  "\u2581naye": 117,
  "\u2581ya": 118,
  "\u2581has": 119,
  "\u2581so": 120,
  "mu": 121,
  "\u2581may": 122,
  "\u2581nsi": 123,
  "\u2581Bwe": 124,
  "\u2581O": 125,
  "]": 126,
  "\u2581those": 127,
  "\u2581eky": 128,
  "\u2581life": 129,
  "\u2581time": 130,
  "\u2581my": 131,
  "b": 132,
  "\u2581N": 133,
  "\u2581ye": 134,
  "\u2581abo": 135,
  "\u2581ebyo": 136,
  "\u2581but": 137,
  "\u2581Bayibuli": 138,
  "\u2581buli": 139,
  "yinza": 140,
  "\u2581oku": 141,
  "\u2581E": 142,
  "\u2581ebintu": 143,
  "\u2581help": 144,
  "\u2581how": 145,
  "\u2581bwa": 146,
  "\u2581He": 147,
  "\u2581okukola": 148,
  "\u2581Baibuli": 149,
  "\u2581We": 150,
  "\u2581ow": 151,
  "\u2581love": 152,
  "\u2581baali": 153,
  "\u2581gw": 154,
  "\u2581Paul": 155,
  "\u2581yagamba": 156,
  "\u2581Pawulo": 157,
  "\u2581e": 158,
  "\u2581me": 159,
  "\u2581Ng": 160,
  "\u2581kiseera": 161,
  "\u2581Naye": 162,
  "\u2581good": 163,
  "\u2581some": 164,
  "\u2581ddala": 165,
  "\u2581should": 166,
  "\u2581aba": 167,
  "\u2581out": 168,
  "\u2581also": 169,
  "omwoyo": 170,
  "\u2022": 171,
  "\u2581w": 172,
  "\u2581her": 173,
  "ed": 174,
  "\u2581more": 175,
  "\u2581omu": 176,
  "\u2581does": 177,
  "\u2581kwe": 178,
  "\u2581omuntu": 179,
  "\u2581such": 180,
  "\u2581gy": 181,
  "\u2581things": 182,
  "\u2581Why": 183,
  "ko": 184,
  "\u2581ga": 185,
  "\u2581way": 186,
  "\u2581abalala": 187,
  "\u2581Lwaki": 188,
  "okuba": 189,
  "\u2581been": 190,
  "\u2581gwe": 191,
  "\u2581up": 192,
  "\u2581make": 193,
  "\u2581work": 194,
  "\u2581if": 195,
  "\u2581b": 196,
  "\u2581many": 197,
  "\u2581Christians": 198,
  "\u2581spirit": 199,
  "ly": 200,
  "\u2581It": 201,
  "\u2581Christian": 202,
  "\u25812": 203,
  "\u2581Kiki": 204,
  "abantu": 205,
  "\u2581no": 206,
  "\u2581bya": 207,
  "\u2581lw": 208,
  "\u2581world": 209,
  "\u2581ennyo": 210,
  "\u2581Christ": 211,
  "\u2581said": 212,
  "\u2581Kristo": 213,
  "\u2581engeri": 214,
  "\u2581When": 215,
  "o": 216,
  "\u2581Abakristaayo": 217,
  "\"": 218,
  "\u2581could": 219,
  "\u25813:": 220,
  "\u2581okuva": 221,
  "\u2581others": 222,
  "\u2581even": 223,
  "\u2581Kyokka": 224,
  "\u2581other": 225,
  "\u2581Kingdom": 226,
  "\u2581day": 227,
  "\u2581need": 228,
  "\u2581faith": 229,
  "\u2581kubanga": 230,
  "\u2581man": 231,
  "\u2581eyo": 232,
  "\u2581obw": 233,
  "\u2581earth": 234,
  "\u2581there": 235,
  "\u2581Wadd": 236,
  "\u25812:": 237,
  "sobola": 238,
  "oluganda": 239,
  "the": 240,
  "\u2581amaanyi": 241,
  "\u2581obulungi": 242,
  "\u2581example": 243,
  "\u2581bulungi": 244,
  "\u2581byonna": 245,
  "\u2581first": 246,
  "\u2581si": 247,
  "\u2581congregation": 248,
  "E": 249,
  "\u2581than": 250,
  "\u2581spiritual": 251,
  "\u2581For": 252,
  "\u2581Nga": 253,
  "\u2581these": 254,
  "\u25815": 255,
  "\u2581into": 256,
  "\u2581bonna": 257,
  "\u25814": 258,
  "\u258110": 259,
  "\u2581must": 260,
  "\u2581kino": 261,
  "\u2581oyo": 262,
  "\u2581But": 263,
  "\u2581They": 264,
  "\u2581kibiina": 265,
  "\u2581Ate": 266,
  "\u2581As": 267,
  "\u2581bangi": 268,
  "\u2581because": 269,
  "\u2581which": 270,
  "\u2581she": 271,
  "\u2581Witnesses": 272,
  "\u2581okufuna": 273,
  "\u2581kityo": 274,
  "\u2581years": 275,
  "olwekyo": 276,
  "\u2581If": 277,
  "amaanyi": 278,
  "\u2581being": 279,
  "\u2581maaso": 280,
  "\u25816": 281,
  "\u2581ez": 282,
  "\u2581kiba": 283,
  "\u2581This": 284,
  "\u2581tulina": 285,
  "\u2581eki": 286,
  "\u2581label": 287,
  "\u2581awamu": 288,
  "\u2581lya": 289,
  "\u2581see": 290,
  "\u2581Oku": 291,
  "\u2581made": 292,
  "\u2581family": 293,
  "\u2581heart": 294,
  "\u2581B": 295,
  "\u2581gwa": 296,
  "\u2581know": 297,
  "\u2581Tu": 298,
  "\u2581You": 299,
  "\u25817": 300,
  "\u2581Ekyo": 301,
  "\u2581tu": 302,
  "\u2581okw": 303,
  "\u2581Era": 304,
  "\u2581children": 305,
  "\u2581*": 306,
  "\u2581okwagala": 307,
  "\u2581says": 308,
  "\u25811,": 309,
  "\u2581kyali": 310,
  "\u2581ones": 311,
  "\u2581ebiri": 312,
  "\u2581name": 313,
  "\u2581abaana": 314,
  "\u2581only": 315,
  "\u2581words": 316,
  "\u2581okusobola": 317,
  "\u2581obulamu": 318,
  "\u2581true": 319,
  "\u2581kwa": 320,
  "\u2581like": 321,
  "\u2581come": 322,
  "\u2581take": 323,
  "\u2581bintu": 324,
  "\u2581ogw": 325,
  "\u2581ka": 326,
  "\u2581bantu": 327,
  "\u2581tuba": 328,
  "\u2581lwaki": 329,
  "\u258113": 330,
  "oku": 331,
  "\u25818": 332,
  "\u2581lwa": 333,
  "\u2581ge": 334,
  "\u2581ebi": 335,
  "\u2581kiri": 336,
  "\u2581Mukama": 337,
  "\u2581David": 338,
  "\u2581page": 339,
  "\u258115": 340,
  "\u2581z": 341,
  "\u2581tuli": 342,
  "\u2581become": 343,
  "\u2581over": 344,
  "\u2581kuba": 345,
  "\u2581then": 346,
  "\u2581ggulu": 347,
  "\u2581Satan": 348,
  "\u2581omulimu": 349,
  "\u2581emyaka": 350,
  "\u2581Word": 351,
  "...": 352,
  "\u2581own": 353,
  "\u2581might": 354,
  "\u2581Dawudi": 355,
  "\u2581kw": 356,
  "\u2581abaali": 357,
  "\u2581omwoyo": 358,
  "\u2581kifo": 359,
  "d": 360,
  "\u2581lupapula": 361,
  "\u2581give": 362,
  "\u2581bulamu": 363,
  "\u2581well": 364,
  "\u2581o": 365,
  "\u2581singa": 366,
  "\u2581abamu": 367,
  "\u2581before": 368,
  "\u2581na": 369,
  "\u2581balina": 370,
  "\u2581kyonna": 371,
  "\u2581death": 372,
  "\u2581tuyinza": 373,
  "\u2581John": 374,
  "\u2581That": 375,
  "\u2581truth": 376,
  "eby": 377,
  "\u25819": 378,
  "\u2581And": 379,
  "\u2581eyali": 380,
  "\u2581eno": 381,
  "\u2581lwe": 382,
  "\u2581T": 383,
  "\u2581men": 384,
  "ekyokulabirako": 385,
  "\u2581ze": 386,
  "\u2581To": 387,
  "\u2581maka": 388,
  "\u2581today": 389,
  "\u2581leero": 390,
  "\u2581keep": 391,
  "\u2581brothers": 392,
  "\u2581okumanya": 393,
  "\u2581just": 394,
  "\u2581kitundu": 395,
  "\u2581Do": 396,
  "\u2581ekiri": 397,
  "n": 398,
  "\u2581bingi": 399,
  "\u2581now": 400,
  "\u2581okulaba": 401,
  "\u2581atya": 402,
  "\u2581Abantu": 403,
  "\u2581show": 404,
  "\u2581apostle": 405,
  "\u2581/": 406,
  "\u2581new": 407,
  "\u2581ajja": 408,
  "\u2581Oluvannyuma": 409,
  "\u2581go": 410,
  "\u2581ekitiibwa": 411,
  "\u2581after": 412,
  "\u2581g": 413,
  "\u2581ensi": 414,
  "\u2581person": 415,
  "\u2581mulimu": 416,
  "\u2581times": 417,
  "\u2581ebigambo": 418,
  "\u2581another": 419,
  "\u2581its": 420,
  "\u2581through": 421,
  "\u2581tutya": 422,
  "\u2581any": 423,
  "\u2581faithful": 424,
  "\u2581oluvannyuma": 425,
  "\u2581okukkiriza": 426,
  "\u2581nsonga": 427,
  "er": 428,
  "\u2581learn": 429,
  "\u2581muntu": 430,
  "\u2581Israel": 431,
  "\u2581baabwe": 432,
  "\u25813": 433,
  "\u2581Zabbuli": 434,
  "\u2581why": 435,
  "\u2581great": 436,
  "t": 437,
  "\u2581yonna": 438,
  "\u2581waliwo": 439,
  "\u2581olwo": 440,
  "\u2581ayagala": 441,
  "\u258116": 442,
  "\u2581two": 443,
  "\u2581agamba": 444,
  "\u2581study": 445,
  "\u2581ekiseera": 446,
  "\u2581essanyu": 447,
  "\u2581against": 448,
  "\u2581ebikwata": 449,
  "\u2581much": 450,
  "\u2581Peter": 451,
  "abo": 452,
  "\u2581feel": 453,
  "\u2581parents": 454,
  "aba": 455,
  "\u2581okuyamba": 456,
  "\u2581ministry": 457,
  "\u2581tusaanidde": 458,
  "\u2581find": 459,
  "\u2581okuweereza": 460,
  "\u2581bo": 461,
  "\u2581okubeera": 462,
  "\u2581himself": 463,
  "\u2581part": 464,
  "\u2581Ku": 465,
  "I": 466,
  "ayagala": 467,
  "\u2581bwaffe": 468,
  "\u2581ery": 469,
  "\u2581very": 470,
  "\u2581okutegeera": 471,
  "amazima": 472,
  "\u2581bayinza": 473,
  "\u2581alina": 474,
  "\u2581biseera": 475,
  "Obwakabaka": 476,
  "\u258117": 477,
  "\u2581ekintu": 478,
  "\u2581kiyinza": 479,
  "\u2581Abajulirwa": 480,
  "\u2581nabo": 481,
  "\u2581Peetero": 482,
  "/": 483,
  "\u2581ennungi": 484,
  "\u2581put": 485,
  "\u2581Father": 486,
  "\u2581holy": 487,
  "\u2581However": 488,
  "ali": 489,
  "ayinza": 490,
  "\u2581Olw": 491,
  "\u2581means": 492,
  "\u2581C": 493,
  "\u258120": 494,
  "\u2581wrote": 495,
  "\u2581Ba": 496,
  "\u2581worship": 497,
  "\u2581young": 498,
  "\u2581ag": 499,
  "\u2581baba": 500,
  "\u2581use": 501,
  "\u258112": 502,
  "\u2581mbeera": 503,
  "\u2581say": 504,
  "\u25812.": 505,
  "\u2581news": 506,
  "\u2581important": 507,
  "\u2581emirembe": 508,
  "\u2581endala": 509,
  "\u2581ensonga": 510,
  "\u2581consider": 511,
  "\u2581S": 512,
  "\u2581waffe": 513,
  "\u2581bi": 514,
  "\u258112:": 515,
  "\u2581each": 516,
  "\u2581wamu": 517,
  "yo": 518,
  "\u2581za": 519,
  "\u258110.": 520,
  "\u2581So": 521,
  "\u2581human": 522,
  "ensi": 523,
  "\u2581bino": 524,
  "\u2581end": 525,
  "\u2581mind": 526,
  "okubuulira": 527,
  "\u2581word": 528,
  "\u2581disciples": 529,
  "\u2581let": 530,
  "\u2581wadde": 531,
  "\u2581course": 532,
  "\u2581found": 533,
  "\u258118": 534,
  "\u2581right": 535,
  "wo": 536,
  "\u2581yalina": 537,
  "\u2581Yokaana": 538,
  "\u2581preaching": 539,
  "\u2581bajja": 540,
  "\u2581lye": 541,
  "\u2581Bw": 542,
  "ab": 543,
  "\u2581nnali": 544,
  "\u2581though": 545,
  "size": 546,
  "omuntu": 547,
  "\u25814.": 548,
  "\u2581ebizibu": 549,
  "\u2581ways": 550,
  "\u25814:": 551,
  "\u2581ate": 552,
  "\u2581endowooza": 553,
  "\u2581long": 554,
  "\u2581gya": 555,
  "\u2581where": 556,
  "\u2581One": 557,
  "alina": 558,
  "\u2581Ekigambo": 559,
  "\u2581upon": 560,
  "\u2581hope": 561,
  "\u2581amafuta": 562,
  "\u2581never": 563,
  "\u258121": 564,
  "\u2581most": 565,
  "\u2581kimu": 566,
  "\u2581view": 567,
  "\u2581Musa": 568,
  "\u2581amalungi": 569,
  "\u2581bu": 570,
  "\u2581okuyiga": 571,
  "\u2581yakola": 572,
  "\u2581kukola": 573,
  "\u258111": 574,
  "\u2581teba": 575,
  "\u258112.": 576,
  "\u2581maanyi": 577,
  "\u2581same": 578,
  "ebyo": 579,
  "\u2581place": 580,
  "\u25811:": 581,
  "\u2581servants": 582,
  "\u2581Ka": 583,
  "\u2581kijja": 584,
  "\u258119": 585,
  "\u2581service": 586,
  "\u2581serve": 587,
  "\u2581size": 588,
  "\u258113.": 589,
  "\u2581read": 590,
  "\u2581want": 591,
  "\u258111:": 592,
  "\u258114.": 593,
  "\u2581By": 594,
  "\u2581Kino": 595,
  "\u2581amazima": 596,
  "\u2581wife": 597,
  "\u2581lunaku": 598,
  "\u2581paper": 599,
  "\u2581bwabwe": 600,
  "\u2581bali": 601,
  "\u2581okubuulira": 602,
  "\u2581doing": 603,
  "\u2581tusobola": 604,
  "\u2581too": 605,
  "\u2581under": 606,
  "\u258115.": 607,
  "\u2581told": 608,
  "\u25818.": 609,
  "\u2581Picture": 610,
  "\u2581Sitaani": 611,
  "\u2581bakkiriza": 612,
  "\u2581Is": 613,
  "\u2581kati": 614,
  "\u258111.": 615,
  "\u25819.": 616,
  "\u2581every": 617,
  "\u2581Psalm": 618,
  "\u258116.": 619,
  "ebintu": 620,
  "\u2581days": 621,
  "\u2581Scriptures": 622,
  "\u2581wansi": 623,
  "\u25815:": 624,
  "\u2581Isiraeri": 625,
  "\u2581loving": 626,
  "\u2581abali": 627,
  "\u2581given": 628,
  "\u25815.": 629,
  "\u2581anointed": 630,
  "\u2581mingi": 631,
  "\u258122": 632,
  "\u2581wange": 633,
  "\u2581fellow": 634,
  "\u258115,": 635,
  "saanidde": 636,
  "\u2581among": 637,
  "\u2581awo": 638,
  "\u258117.": 639,
  "\u2581used": 640,
  "\u2581ekyokulabirako": 641,
  "\u2581book": 642,
  "\u25817.": 643,
  "\u2581At": 644,
  "\u2581Some": 645,
  "\u2581After": 646,
  "teekwa": 647,
  "\u2581became": 648,
  "\u2581batya": 649,
  "\u2581omutukuvu": 650,
  "\u2581ly": 651,
  "\u2581power": 652,
  "\u2581live": 653,
  "\u2581asobola": 654,
  "\u2581away": 655,
  "\u2581peace": 656,
  "\u25816.": 657,
  "\u2581Kati": 658,
  "\u2581whom": 659,
  "\u2581set": 660,
  "\u25816:": 661,
  "\u2581yayogera": 662,
  "\u2581Ekifaananyi": 663,
  "y": 664,
  "\u2581back": 665,
  "amagezi": 666,
  "\u2581Kabaka": 667,
  "\u2581article": 668,
  "ekyo": 669,
  "\u2581often": 670,
  "\u2581making": 671,
  "\u2581home": 672,
  "Omuntu": 673,
  "\u2581King": 674,
  "\u2581am": 675,
  "\u2581butuufu": 676,
  "O": 677,
  "\u2581Setaani": 678,
  "\u2581With": 679,
  "\u2581down": 680,
  "\u2581abayigirizwa": 681,
  "\u2581mwe": 682,
  "\u2581ali": 683,
  "\u2581during": 684,
  "\u2581gave": 685,
  "\u2581amawulire": 686,
  "\u2581came": 687,
  "\u2581kikulu": 688,
  "\u2581Moses": 689,
  "\u2581abaweereza": 690,
  "obulamu": 691,
  "\u2581Our": 692,
  "\u2581Kya": 693,
  "\u2581get": 694,
  "\u2581No": 695,
  "\u2581marriage": 696,
  "\u2581okusaba": 697,
  "A": 698,
  "\u2581bring": 699,
  "\u2581prayer": 700,
  "\u2581ffe": 701,
  "\u2581Abaisiraeri": 702,
  "\u258124": 703,
  "\u2581knowledge": 704,
  "emu": 705,
  "\u2581okutuyamba": 706,
  "\u2581later": 707,
  "Read": 708,
  "enjawulo": 709,
  "\u2581kintu": 710,
  "\u2581okwewala": 711,
  "\u2581humans": 712,
  "\u2581personal": 713,
  "Soma": 714,
  "oba": 715,
  "\u2581buweereza": 716,
  "\u2581Ki": 717,
  "\u2581Matthew": 718,
  "\u2581His": 719,
  "\u2581Son": 720,
  "\u2581Yes": 721,
  "\u2581themselves": 722,
  "\u2581Matayo": 723,
  "\u2581living": 724,
  "\u2581reason": 725,
  "\u2581basobola": 726,
  "\u2581joy": 727,
  "\u2581omwana": 728,
  "\u2581ebibi": 729,
  "\u2581nku\u014b\u014baana": 730,
  "\u25813.": 731,
  "jja": 732,
  "\u258114": 733,
  "\u2581ebirungi": 734,
  "\u2581okumala": 735,
  "\u2581egamba": 736,
  "\u2581On": 737,
  "\u2581year": 738,
  "\u2581Israelites": 739,
  "\u2581byaffe": 740,
  "\u2581W": 741,
  "\u2581began": 742,
  "\u2581able": 743,
  "\u2581ebirala": 744,
  "\u2581elders": 745,
  "\u2581erinnya": 746,
  "\u2581M": 747,
  "\u2581kitya": 748,
  "\u2581okulaga": 749,
  "\u2581myaka": 750,
  "\u2581always": 751,
  "\u2581baagala": 752,
  "\u2581questions": 753,
  "\u2581Okuva": 754,
  "\u2581order": 755,
  "\u2581egy": 756,
  "\u2581century": 757,
  "\u2581counsel": 758,
  "\u2581result": 759,
  "\u2581still": 760,
  "\u2581hand": 761,
  "\u2581obwo": 762,
  "\u2581toward": 763,
  "\u258118.": 764,
  "\u258125": 765,
  "\u2581ebiseera": 766,
  "\u2581okwogera": 767,
  "amu": 768,
  "\u2581okutuuka": 769,
  "\u2581old": 770,
  "ganda": 771,
  "\u2581fact": 772,
  "\u2581brother": 773,
  "\u2581sin": 774,
  "\u2581ebimu": 775,
  "\u2581kiki": 776,
  "\u2581magezi": 777,
  "\u2581kiraga": 778,
  "\u2581abeesigwa": 779,
  "\u2581full": 780,
  "\u2581house": 781,
  "\u2581okugenda": 782,
  "\u25813,": 783,
  "\u2581bulijjo": 784,
  "\u2581ourselves": 785,
  "\u2581think": 786,
  "\u2581heaven": 787,
  "\u2581wicked": 788,
  "\u2581without": 789,
  "edda": 790,
  "\u2581Jerusalem": 791,
  "\u2581purpose": 792,
  "\u2581ssente": 793,
  "\u2581okukozesa": 794,
  "\u2581three": 795,
  "\u2581waggulu": 796,
  "\u2581son": 797,
  "\u2581future": 798,
  "\u2581amagezi": 799,
  "\u2581ekibiina": 800,
  "\u2581however": 801,
  "tujja": 802,
  "\u2581embeera": 803,
  "\u2581She": 804,
  "\u2581father": 805,
  "\u2581Yet": 806,
  "\u2581ago": 807,
  "\u25815,": 808,
  "\u2581something": 809,
  "abalala": 810,
  "\u2581heavenly": 811,
  "\u2581Yerusaalemi": 812,
  "al": 813,
  "\u2581enkolagana": 814,
  "\u2581mankind": 815,
  "\u2581face": 816,
  "\u2581Let": 817,
  "\u2581Ibulayimu": 818,
  "\u2581relationship": 819,
  "\u2581Abraham": 820,
  "\u2581close": 821,
  "\u2581ndi": 822,
  "\u2581ezo": 823,
  "\u2581obukulu": 824,
  "\u258115:": 825,
  "\u2581Lowooza": 826,
  "\u2581both": 827,
  "\u25819,": 828,
  "\u2581called": 829,
  "\u2581okusigala": 830,
  "\u2581husband": 831,
  "\u2581obungi": 832,
  "\u2581meetings": 833,
  "\u2581Then": 834,
  "engeri": 835,
  "\u2581okusinga": 836,
  "\u2581There": 837,
  "The": 838,
  "\u2581support": 839,
  "\u258114,": 840,
  "\u2581mutima": 841,
  "\u2581benefit": 842,
  "\u2581experience": 843,
  "zzaamu": 844,
  "\u2581helped": 845,
  "\u2581ask": 846,
  "\u2581child": 847,
  "\u2581kyasa": 848,
  "\u2581share": 849,
  "ekibiina": 850,
  "\u2581Obwakabaka": 851,
  "\u2581message": 852,
  "\u2581needed": 853,
  "\u2581took": 854,
  "\u2581together": 855,
  "\u2581having": 856,
  "\u2581bakola": 857,
  "\u2581obuli": 858,
  "\u2581Isaaya": 859,
  "\u2581Many": 860,
  "\u2581baalina": 861,
  "S": 862,
  "\u2581emu": 863,
  "\u25816,": 864,
  "\u2581Singa": 865,
  "\u2581look": 866,
  "\u2581yenna": 867,
  "\u2581Isaiah": 868,
  "ther": 869,
  "\u258119.": 870,
  "pap": 871,
  "\u2581wo": 872,
  "\u2581zi": 873,
  "\u2581Job": 874,
  "okwagala": 875,
  "\u2581really": 876,
  "\u2581wabula": 877,
  "\u2581kindness": 878,
  "\u2581abaafukibwako": 879,
  "\u2581felt": 880,
  "\u2581obulagirizi": 881,
  "\u2581yawandiika": 882,
  "\u2581ogwo": 883,
  "\u2581Even": 884,
  "\u2581wisdom": 885,
  "\u2581ezi": 886,
  "\u2581while": 887,
  "\u2581New": 888,
  "\u2581asked": 889,
  "agamba": 890,
  "\u258114:": 891,
  "\u2581gu": 892,
  "\u2581teaching": 893,
  "\u2581'?": 894,
  "\u2581nze": 895,
  "atyo": 896,
  "\u2581avoid": 897,
  "\u2581ayitibwa": 898,
  "\u2581Yobu": 899,
  "\u2581continue": 900,
  "\u25818,": 901,
  "obuvunaanyizibwa": 902,
  "\u2581baffe": 903,
  "\u2581naffe": 904,
  "\u2581wakati": 905,
  "\u2581Ebigambo": 906,
  "\u2581eyes": 907,
  "\u2581Yakobo": 908,
  "\u2581desire": 909,
  "\u2581ennaku": 910,
  "\u2581nations": 911,
  "\u258123": 912,
  "\u2581possible": 913,
  "\u2581righteous": 914,
  "\u2581understand": 915,
  "\u2581okusoma": 916,
  "\u2581attitude": 917,
  "\u2581Soma": 918,
  "\u2581mukyala": 919,
  "\u2581ekirungi": 920,
  "\u2581someone": 921,
  "\u2581done": 922,
  "\u2581between": 923,
  "\u2581omusajja": 924,
  "\u2581learned": 925,
  "\u258133": 926,
  "\u2581Watchtower": 927,
  "\u2581fear": 928,
  "\u2581Consider": 929,
  "\u2581Read": 930,
  "\u25814,": 931,
  "\u2581tell": 932,
  "\u2581conduct": 933,
  "\u2581okweyongera": 934,
  "\u2581Timoseewo": 935,
  "\u2581yawa": 936,
  "\u2581Buli": 937,
  "\u2581nna": 938,
  "\u2581fine": 939,
  "\u2581okuyitira": 940,
  "\u2581serving": 941,
  "\u2581woman": 942,
  "\u25817,": 943,
  "\u2581matter": 944,
  "\u258130": 945,
  "\u2581Ab": 946,
  "ngeri": 947,
  "\u2581Abo": 948,
  "\u2581care": 949,
  "\u2581yaffe": 950,
  "\u2581Yee": 951,
  "\u2581Timothy": 952,
  "\u2581obu": 953,
  "\u2581language": 954,
  "\u258128": 955,
  "\u2581best": 956,
  "\u2581happy": 957,
  "\u2581kitegeeza": 958,
  "\u2581ever": 959,
  "\u2581bigambo": 960,
  "\u2581gamba": 961,
  "hose": 962,
  "\u2581From": 963,
  "\u2581bwonna": 964,
  "\u2581byabwe": 965,
  "\u2581nnyumba": 966,
  "\u2581answer": 967,
  "\u2581Lord": 968,
  "\u2581tetu": 969,
  "\u258112,": 970,
  "obulimba": 971,
  "Stock": 972,
  "\u2581bad": 973,
  "\u2581mean": 974,
  "\u258111,": 975,
  "\u2581giving": 976,
  "\u2581gyonna": 977,
  "abaana": 978,
  "\u2581hard": 979,
  "emirundi": 980,
  "\u2581kwaffe": 981,
  "i": 982,
  "\u2581last": 983,
  "\u2581okulowooza": 984,
  "\u2581system": 985,
  "\u2581bazadde": 986,
  "\u2581Law": 987,
  "\u2581again": 988,
  "watali": 989,
  "\u2581Luke": 990,
  "\u2581mother": 991,
  "\u2581food": 992,
  "C": 993,
  "\u2581lives": 994,
  "\u2581Byawandiikibwa": 995,
  "\u2581lwatu": 996,
  "\u2581receive": 997,
  "\u2581enjoy": 998,
  "\u2581okukolera": 999,
  "\u2581following": 1000,
  "\u2581twagala": 1001,
  "\u2581All": 1002,
  "\u2581present": 1003,
  "\u2581ekyasooka": 1004,
  "\u2581prophet": 1005,
  "\u2581tewali": 1006,
  "\u2581respect": 1007,
  "tera": 1008,
  "\u2581abakadde": 1009,
  "\u2581cannot": 1010,
  "ekiseera": 1011,
  "\u258120.": 1012,
  "\u2581ebirowoozo": 1013,
  "\u2581emikisa": 1014,
  "\u2581ekigambo": 1015,
  "\u2581Omutume": 1016,
  "\u2581These": 1017,
  "\u2581Because": 1018,
  "\u2581lead": 1019,
  "ayogera": 1020,
  "\u2581biraga": 1021,
  "\u2581kibuga": 1022,
  "\u2581self": 1023,
  "\u2581slave": 1024,
  "\u2581sure": 1025,
  "\u2581Adamu": 1026,
  "\u2581mwaka": 1027,
  "\u2581abalina": 1028,
  "\u2581speak": 1029,
  "\u2581sense": 1030,
  "\u2581bufumbo": 1031,
  "\u2581omwesigwa": 1032,
  "\u2581situation": 1033,
  "\u2581baptized": 1034,
  "\u2581ekisa": 1035,
  "\u2581bannaffe": 1036,
  "\u2581certain": 1037,
  "\u2581okufa": 1038,
  "\u2581account": 1039,
  "\u2581act": 1040,
  "\u2581attention": 1041,
  "\u2581trust": 1042,
  "\u2581wise": 1043,
  "\u258116,": 1044,
  "\u2581Acts": 1045,
  "\u2581K": 1046,
  "\u2581follow": 1047,
  "\u2581ssaddaaka": 1048,
  "\u2581Joseph": 1049,
  "\u2581sheep": 1050,
  "\u2581moved": 1051,
  "\u2581gwaffe": 1052,
  "\u2581law": 1053,
  "\u2581Adam": 1054,
  "\u2581kituufu": 1055,
  "\u2581remain": 1056,
  "\u2581p": 1057,
  "\u2581twetaaga": 1058,
  "\u258110,": 1059,
  "\u2581eya": 1060,
  "\u2581king": 1061,
  "\u2581Y": 1062,
  "\u2581pray": 1063,
  "\u2581mw": 1064,
  "\u2581Kigambo": 1065,
  "\u2581t": 1066,
  "\u2581yet": 1067,
  "\u2581essuubi": 1068,
  "\u2581members": 1069,
  "\u2581followers": 1070,
  "\u2581Ebyawandiikibwa": 1071,
  "\u2581Waliwo": 1072,
  "\u2581gonna": 1073,
  "\u2581yourself": 1074,
  "\u258121.": 1075,
  "\u2581Yusufu": 1076,
  "\u2581kind": 1077,
  "\u2581Omwana": 1078,
  "\u2581nnaku": 1079,
  "\u25812,": 1080,
  "\u2581few": 1081,
  "\u2581yalaga": 1082,
  "\u2581city": 1083,
  "\u2581needs": 1084,
  "\u2581_": 1085,
  "\u2581obuta": 1086,
  "\u2581Of": 1087,
  "\u2581Your": 1088,
  "\u2581suffering": 1089,
  "\u2581emmere": 1090,
  "\u2581obanga": 1091,
  "\u2581yekka": 1092,
  "\u2581imitate": 1093,
  "\u2581ekibi": 1094,
  "\u2581Who": 1095,
  "\u2581bitundu": 1096,
  "\u2581different": 1097,
  "\u2581okuwa": 1098,
  "\u2581apostles": 1099,
  "\u2581okutuusa": 1100,
  "\u2581tukola": 1101,
  "\u2581problems": 1102,
  "\u2581omutume": 1103,
  "m": 1104,
  "\u2581aka": 1105,
  "\u2581left": 1106,
  "\u2581qualities": 1107,
  "viirako": 1108,
  "\u2581empya": 1109,
  "tabani": 1110,
  "\u2581sacrifice": 1111,
  "\u2581saying": 1112,
  "\u2581spiritually": 1113,
  "\u2581knew": 1114,
  "\u2581saw": 1115,
  "\u2581far": 1116,
  "\u258113,": 1117,
  "\u2581feelings": 1118,
  "\u2581went": 1119,
  "singayo": 1120,
  "\u2581thinking": 1121,
  "\u2581Abaruumi": 1122,
  "\u2581Jews": 1123,
  "\u2581case": 1124,
  "\u2581zonna": 1125,
  "\u2581gaabwe": 1126,
  "\u2581kabaka": 1127,
  "\u2581wrong": 1128,
  "\u2581better": 1129,
  "gezaako": 1130,
  "\u2581amateeka": 1131,
  "\u2581nnyingi": 1132,
  "\u2581principles": 1133,
  "\u2581question": 1134,
  "\u2581religious": 1135,
  "\u2581kwagala": 1136,
  "\u2581likely": 1137,
  "\u2581Daniel": 1138,
  "\u2581thus": 1139,
  "\u2581Be": 1140,
  "\u2581off": 1141,
  "\u2581okusalawo": 1142,
  "\u2581resurrection": 1143,
  "\u2581Omukristaayo": 1144,
  "\u2581nor": 1145,
  "\u2581ebikolwa": 1146,
  "\u2581okufuba": 1147,
  "\u2581bikwata": 1148,
  "\u2581okutuukiriza": 1149,
  "\u2581Corinthians": 1150,
  "\u2581land": 1151,
  "akola": 1152,
  "\u2581Romans": 1153,
  "\u2581kyokka": 1154,
  "\u2581next": 1155,
  "\u2581obubaka": 1156,
  "\u2581yeekaalu": 1157,
  "\u2581Devil": 1158,
  "\u2581individuals": 1159,
  "\u2581nation": 1160,
  "\u2581Ne": 1161,
  "\u2581allow": 1162,
  "\u2581free": 1163,
  "\u2581strong": 1164,
  "\u2581teach": 1165,
  "\u2581amanyi": 1166,
  "\u258127": 1167,
  "\u2581especially": 1168,
  "\u2581friends": 1169,
  "\u2581matters": 1170,
  "\u2581k": 1171,
  "\u2581Thus": 1172,
  "\u2581temple": 1173,
  "\u2581Abakkolinso": 1174,
  "\u2581early": 1175,
  "\u2581righteousness": 1176,
  "emirembe": 1177,
  "\u2581Abayudaaya": 1178,
  "\u2581NW": 1179,
  "\u2581ekya": 1180,
  "emyaka": 1181,
  "\u2581My": 1182,
  "\u2581kukkiriza": 1183,
  "\u2581Can": 1184,
  "Abajulirwa": 1185,
  "\u2581kirungi": 1186,
  "\u2581point": 1187,
  "\u2581received": 1188,
  "\u2581turn": 1189,
  "\u2581reading": 1190,
  "\u2581yaabwe": 1191,
  "\u2581okubaawo": 1192,
  "\u2581everlasting": 1193,
  "\u2581little": 1194,
  "\u2581omutima": 1195,
  "\u2581Proverbs": 1196,
  "\u2581sisters": 1197,
  "kufaananako": 1198,
  "\u2581Although": 1199,
  "\u2581difficult": 1200,
  "\u2581number": 1201,
  "\u2581believe": 1202,
  "\u2581byali": 1203,
  "\u2581works": 1204,
  "\u2581false": 1205,
  "\u2581near": 1206,
  "\u2581age": 1207,
  "\u2581light": 1208,
  "\u2581whe": 1209,
  "\u258131": 1210,
  "\u2581munne": 1211,
  "\u2581cause": 1212,
  "\u2581provide": 1213,
  "\u2581ebitabo": 1214,
  "\u2581known": 1215,
  "\u2581real": 1216,
  "\u2581zaabwe": 1217,
  "\u2581ebibuuzo": 1218,
  "N": 1219,
  "\u2581Engero": 1220,
  "\u258123.": 1221,
  "\u2581brought": 1222,
  "\u2581omukisa": 1223,
  "\u2581since": 1224,
  "\u2581Yagamba": 1225,
  "\u2581whole": 1226,
  "okukola": 1227,
  "\u2581Abamu": 1228,
  "\u2581Does": 1229,
  "\u2581bwo": 1230,
  "\u2581thought": 1231,
  "ku": 1232,
  "\u2581okwoleka": 1233,
  "\u258117,": 1234,
  "\u258119,": 1235,
  "\u258126": 1236,
  "\u2581ebitali": 1237,
  "\u2581James": 1238,
  "\u2581Eky": 1239,
  "\u2581Omu": 1240,
  "\u2581obubi": 1241,
  "\u2581kubuusabuusa": 1242,
  "\u2581Revelation": 1243,
  "\u2581ancient": 1244,
  "\u2581ekirala": 1245,
  "\u2581gift": 1246,
  "\u2581sons": 1247,
  "\u258140": 1248,
  "\u2581Rather": 1249,
  "\u2581body": 1250,
  "\u2581mazima": 1251,
  "\u2581oyinza": 1252,
  "\u2581Nuuwa": 1253,
  "\u2581perfect": 1254,
  "ati": 1255,
  "\u2581omulala": 1256,
  "\u2581prayers": 1257,
  "\u2581otya": 1258,
  "\u2581nnabbi": 1259,
  "\u2581okusinza": 1260,
  "oli": 1261,
  "\u2581bimu": 1262,
  "okukkiriza": 1263,
  "uch": 1264,
  "\u2581until": 1265,
  "\u2581okukwata": 1266,
  "okubiri": 1267,
  "\u2581Scriptural": 1268,
  "\u2581gives": 1269,
  "\u2581prophecy": 1270,
  "\u2581examples": 1271,
  "\u2581kutuyamba": 1272,
  "\u2581makes": 1273,
  "eri": 1274,
  "\u2581kabi": 1275,
  "\u2581married": 1276,
  "\u2581taking": 1277,
  "\u2581banne": 1278,
  "\u2581ekyali": 1279,
  "\u2581enteekateeka": 1280,
  "\u2581key": 1281,
  "\u2581okuwulira": 1282,
  "\u2581shows": 1283,
  "\u2581abazadde": 1284,
  "\u2581twali": 1285,
  "ako": 1286,
  "\u2581kingdom": 1287,
  "Mu": 1288,
  "\u2581kyangu": 1289,
  "tindo": 1290,
  "\u2581More": 1291,
  "\u2581Yuda": 1292,
  "\u2581blood": 1293,
  "\u2581ekimu": 1294,
  "\u2581D": 1295,
  "eyo": 1296,
  "\u2581Ya": 1297,
  "\u2581taught": 1298,
  "\u2581Ebyo": 1299,
  "\u2581okwo": 1300,
  "\u2581ggwe": 1301,
  "omunda": 1302,
  "\u2581bange": 1303,
  "\u2581mikwano": 1304,
  "\u2581inspired": 1305,
  "\u2581women": 1306,
  "\u258129": 1307,
  "\u2581comes": 1308,
  "\u2581ayogera": 1309,
  "\u2581bannaabwe": 1310,
  "\u2581circumstances": 1311,
  "\u2581draw": 1312,
  "\u2581emirimu": 1313,
  "\u2581similar": 1314,
  "\u2581okwongera": 1315,
  "\u2581states": 1316,
  "baawo": 1317,
  "\u2581dead": 1318,
  "\u2581loved": 1319,
  "\u258118,": 1320,
  "\u258132": 1321,
  "\u2581Noah": 1322,
  "\u2581ekinene": 1323,
  "\u2581ndowooza": 1324,
  "\u2581strength": 1325,
  "\u2581zaffe": 1326,
  "\u2581Ow": 1327,
  "\u2581Lukka": 1328,
  "\u2581balala": 1329,
  "\u2581divine": 1330,
  "\u2581material": 1331,
  "\u2581blessings": 1332,
  "omutima": 1333,
  "\u2581Yali": 1334,
  "\u2581okubaako": 1335,
  "\u25aa": 1336,
  "\u2581kitabo": 1337,
  "kusinziira": 1338,
  "\u2581Ebikolwa": 1339,
  "\u2581baa": 1340,
  "\u2581obutaggwaawo": 1341,
  "\u2581wanted": 1342,
  "\u2581Are": 1343,
  "\u2581bokka": 1344,
  "\u2581heard": 1345,
  "\u2581honor": 1346,
  "\u2581abagoberezi": 1347,
  "genda": 1348,
  "\u2581comfort": 1349,
  "\u2581involved": 1350,
  "\u2581Solomon": 1351,
  "\u2581going": 1352,
  "ULA": 1353,
  "\u2581bagamba": 1354,
  "\u2581truly": 1355,
  "\u2581certainly": 1356,
  "\u2581change": 1357,
  "\u2581loyal": 1358,
  "omubiri": 1359,
  "\u2581abasajja": 1360,
  "\u2581sister": 1361,
  "\u2581around": 1362,
  "\u2581Stock": 1363,
  "\u2581bubi": 1364,
  "\u2581kyaffe": 1365,
  "Laba": 1366,
  "\u2581abasinga": 1367,
  "\u2581mmwe": 1368,
  "\u2581prove": 1369,
  "\u2581provided": 1370,
  "st": 1371,
  "\u2581died": 1372,
  "\u2581li": 1373,
  "\u2581aga": 1374,
  "\u2581ekituufu": 1375,
  "\u2581fully": 1376,
  "oard": 1377,
  "\u258124.": 1378,
  "\u2581muli": 1379,
  "\u2581mentioned": 1380,
  "\u2581muwendo": 1381,
  "\u2581privilege": 1382,
  "\u2581soon": 1383,
  "\u2581waabwe": 1384,
  "\u2581glory": 1385,
  "\u2581understanding": 1386,
  "eddiini": 1387,
  "oyo": 1388,
  "\u2581Bakristaayo": 1389,
  "\u2581control": 1390,
  "\u2581witness": 1391,
  "\u2581Not": 1392,
  "\u2581ffenna": 1393,
  "\u2581including": 1394,
  "\u258122.": 1395,
  "\u2581World": 1396,
  "\u2581ekikulu": 1397,
  "\u2581Danyeri": 1398,
  "\u2581Since": 1399,
  "\u2581clear": 1400,
  "\u2581decisions": 1401,
  "\u2581njawulo": 1402,
  "\u2581OLU": 1403,
  "\u2581high": 1404,
  "\u2581Like": 1405,
  "\u2581Okuba": 1406,
  "\u2581believers": 1407,
  "\u2581kufuna": 1408,
  "\u2581sent": 1409,
  "Ekikristaayo": 1410,
  "hile": 1411,
  "\u2581Sulemaani": 1412,
  "\u2581THE": 1413,
  "\u2581bamalayika": 1414,
  "\u2581eraga": 1415,
  "\u2581regard": 1416,
  "\u2581try": 1417,
  "\u2581Ebintu": 1418,
  "\u2581Today": 1419,
  "\u2581organization": 1420,
  "\u2581along": 1421,
  "ekitalo": 1422,
  "za": 1423,
  "\u2581coming": 1424,
  "\u2581gwo": 1425,
  "\u2581Would": 1426,
  "\u2581bikolwa": 1427,
  "\u2581mwoyo": 1428,
  "\u2581okukoppa": 1429,
  "\u2581Kubanga": 1430,
  "\u2581Leero": 1431,
  "\u2581ta": 1432,
  "\u2581enkizo": 1433,
  "\u2581maintain": 1434,
  "\u2581thing": 1435,
  "espite": 1436,
  "\u2581eryo": 1437,
  "\u2581happiness": 1438,
  "\u2581Okwagala": 1439,
  "\u2581accept": 1440,
  "obugagga": 1441,
  "\u2581baweereza": 1442,
  "\u2581ebyali": 1443,
  "\u2581special": 1444,
  "ekisa": 1445,
  "\u2581basaanidde": 1446,
  "na": 1447,
  "\u2581confidence": 1448,
  "\u2581Mazima": 1449,
  "obutuukirivu": 1450,
  "\u2581Creator": 1451,
  "\u2581nnamaddala": 1452,
  "\u2581forever": 1453,
  "PAP": 1454,
  "wa": 1455,
  "\u2581blessing": 1456,
  "\u2581preach": 1457,
  "\u2581Masiya": 1458,
  "less": 1459,
  "\u2581Okubikkulirwa": 1460,
  "\u2581apply": 1461,
  "\u2581seen": 1462,
  "Abakristaayo": 1463,
  "\u2581oluusi": 1464,
  "\u2581rule": 1465,
  "\u2581evidence": 1466,
  "\u2581information": 1467,
  "\u2581strengthen": 1468,
  "\u2581stand": 1469,
  "omuwendo": 1470,
  "\u2581PAGE": 1471,
  "\u2581enkyukakyuka": 1472,
  "\u2581money": 1473,
  "\u2581Kitaawe": 1474,
  "\u2581integrity": 1475,
  "\u2581okugamba": 1476,
  "\u2581talk": 1477,
  "\u258137": 1478,
  "\u2581return": 1479,
  "\u2581promise": 1480,
  "\u2581effect": 1481,
  "\u2581showed": 1482,
  "\u2581standards": 1483,
  "See": 1484,
  "endiga": 1485,
  "\u2581doubt": 1486,
  "\u2581effort": 1487,
  "\u2581nothing": 1488,
  "\u2581powerful": 1489,
  "\u2581Hebrews": 1490,
  "\u2581anyone": 1491,
  "\u2581regarding": 1492,
  "\u2581opportunity": 1493,
  "\u2581ekizibu": 1494,
  "\u2581hearts": 1495,
  "\u2581night": 1496,
  "\u2581tugenda": 1497,
  "aliwo": 1498,
  "\u2581Mark": 1499,
  "\u2581vital": 1500,
  "\u2581greater": 1501,
  "\u2581omukazi": 1502,
  "\u2581move": 1503,
  "You": 1504,
  "\u2581gwonna": 1505,
  "\u2581interest": 1506,
  "\u2581teya": 1507,
  "\u2581past": 1508,
  "\u2581shall": 1509,
  "\u2581war": 1510,
  "\u2581authority": 1511,
  "\u2581Watch": 1512,
  "\u2581gavumenti": 1513,
  "\u2581Still": 1514,
  "\u2581judgment": 1515,
  "\u2581mukwano": 1516,
  "\u2581kept": 1517,
  "\u2581wonderful": 1518,
  "Jehovah": 1519,
  "\u2581Tewali": 1520,
  "\u2581nkola": 1521,
  "\u2581appointed": 1522,
  "\u2581school": 1523,
  "akozesa": 1524,
  "\u2581okwebuuza": 1525,
  "\u2581therefore": 1526,
  "....": 1527,
  "\u2581efforts": 1528,
  "\u2581meaning": 1529,
  "\u2581okukuuma": 1530,
  "\u2581ransom": 1531,
  "\u2581angels": 1532,
  "\u2581biyinza": 1533,
  "\u2581direction": 1534,
  "\u2581maama": 1535,
  "\u2581second": 1536,
  "\u2581Ddala": 1537,
  "\u2581ekigendererwa": 1538,
  "\u2581un": 1539,
  "aper": 1540,
  "\u2581zino": 1541,
  "\u2581Kitaffe": 1542,
  "\u2581guno": 1543,
  "\u2581kyetaagisa": 1544,
  "\u2581teki": 1545,
  "essanyu": 1546,
  "\u2581Will": 1547,
  "\u2581kugamba": 1548,
  "\u2581m": 1549,
  "\u2581promises": 1550,
  "endowooza": 1551,
  "\u2581beetaaga": 1552,
  "\u2581deep": 1553,
  "\u2581psalmist": 1554,
  "\u2581willing": 1555,
  "sobozesa": 1556,
  "\u2581Kaawa": 1557,
  "\u2581helps": 1558,
  "ensonga": 1559,
  "\u2581flesh": 1560,
  "\u258120,": 1561,
  "\u2581Instead": 1562,
  "\u2581taken": 1563,
  "\u2581Yeremiya": 1564,
  "\u2581serious": 1565,
  "\u2581heavens": 1566,
  "\u2581embi": 1567,
  "\u2581Agamba": 1568,
  "\u2581written": 1569,
  "godly": 1570,
  "\u2581water": 1571,
  "\u2581deal": 1572,
  "\u2581okuyigiriza": 1573,
  "\u2581tufuna": 1574,
  "\u2581abaagala": 1575,
  "\u2581appreciation": 1576,
  "\u2581beesigwa": 1577,
  "\u2581kulaba": 1578,
  "\u2581once": 1579,
  "\u2581s": 1580,
  "\u2581small": 1581,
  "\u2581speaking": 1582,
  "\u2581basanyufu": 1583,
  "\u2581based": 1584,
  "lowooza": 1585,
  "\u2581Jeremiah": 1586,
  "mirundi": 1587,
  "\u2581religion": 1588,
  "\u2581yatandika": 1589,
  "\u2581Greek": 1590,
  "\u2581bano": 1591,
  "\u2581basobole": 1592,
  "\u2581appreciate": 1593,
  "\u2581listen": 1594,
  "\u2581naawe": 1595,
  "\u2581okufuuka": 1596,
  "\u2581Misiri": 1597,
  "\u2581bwange": 1598,
  "\u2581earthly": 1599,
  "\u2581value": 1600,
  "essuula": 1601,
  "\u2581omusango": 1602,
  "\u258125.": 1603,
  "\u2581obuyambi": 1604,
  "\u2581physical": 1605,
  "\u2581yo": 1606,
  "\u2581Tower": 1607,
  "in": 1608,
  "over": 1609,
  "\u2581Bwakabaka": 1610,
  "\u2581G": 1611,
  "\u2581congregations": 1612,
  "\u2581lost": 1613,
  "\u2581using": 1614,
  "\u2581determined": 1615,
  "\u2581health": 1616,
  "\u2581obumu": 1617,
  "\u2581Biki": 1618,
  "\u2581obufumbo": 1619,
  "amawanga": 1620,
  "\u2581spoke": 1621,
  "\u2581yakozesa": 1622,
  "\u2581agenda": 1623,
  "\u2581group": 1624,
  "\u2581Ekikristaayo": 1625,
  "\u2581kituyamba": 1626,
  "\u2581balowooza": 1627,
  "\u2581respond": 1628,
  "\u2581older": 1629,
  "\u2581already": 1630,
  "_": 1631,
  "\u2581affect": 1632,
  "\u2581kubeera": 1633,
  "\u2581payoniya": 1634,
  "\u2581meeting": 1635,
  "\u2581recorded": 1636,
  "sukka": 1637,
  "\u2581Did": 1638,
  "\u2581according": 1639,
  "\u2581praise": 1640,
  "r": 1641,
  "\u2581ogwa": 1642,
  "\u2581okwenyigira": 1643,
  "\u2581covenant": 1644,
  "\u2581remember": 1645,
  "oyinza": 1646,
  "\u2581bagenda": 1647,
  "\u2581tusoma": 1648,
  "okuddamu": 1649,
  "\u2581hold": 1650,
  "\u2581okuddamu": 1651,
  "\u2581kwabwe": 1652,
  "\u2581nange": 1653,
  "amaka": 1654,
  "\u2581Dur": 1655,
  "\u2581decision": 1656,
  "\u2581baptism": 1657,
  "\u2581perhaps": 1658,
  "\u2581courage": 1659,
  "\u2581ekiraga": 1660,
  "sa": 1661,
  "\u2581leave": 1662,
  "\u2581Indeed": 1663,
  "\u2581obuyinza": 1664,
  "\u2581Hebrew": 1665,
  "\u2581offer": 1666,
  "Katonda": 1667,
  "\u2581awa": 1668,
  "Ekitundu": 1669,
  "ba": 1670,
  "\u2581bujjuvu": 1671,
  "\u2581four": 1672,
  "\u2581kutya": 1673,
  "\u2581seek": 1674,
  "God": 1675,
  "ebigambo": 1676,
  "\u2581foretold": 1677,
  "\u2581gumu": 1678,
  "\u2581Sawulo": 1679,
  "\u2581here": 1680,
  "\u2581linnya": 1681,
  "\u2581thoughts": 1682,
  "\u2581activities": 1683,
  "\u2581couple": 1684,
  "\u2581pioneer": 1685,
  "\u2581rather": 1686,
  "\u2581Hence": 1687,
  "\u2581omukulu": 1688,
  "T": 1689,
  "\u2581Genesis": 1690,
  "\u2581ekitundu": 1691,
  "\u2581field": 1692,
  "\u2581role": 1693,
  "\u2581experienced": 1694,
  "\u2581chapter": 1695,
  "\u2581large": 1696,
  "\u2581naddala": 1697,
  "\u2581lived": 1698,
  "\u2581olulimi": 1699,
  "\u2581Color": 1700,
  "\u2581Eve": 1701,
  "\u2581mirembe": 1702,
  "\u2581simply": 1703,
  "e\u014b\u014banda": 1704,
  "kyusa": 1705,
  "\u2581events": 1706,
  "\u2581wants": 1707,
  "\u2581Nedda": 1708,
  "\u2581ebifaananyi": 1709,
  "\u2581everything": 1710,
  "\u2581friend": 1711,
  "\u2581Their": 1712,
  "\u2581People": 1713,
  "\u2581Samuel": 1714,
  "\u2581gyaffe": 1715,
  "\u2581illustration": 1716,
  "\u2581please": 1717,
  "\u2581sins": 1718,
  "bugambo": 1719,
  "\u258134": 1720,
  "k": 1721,
  "\u2581kumpi": 1722,
  "\u2581Omulyolyomi": 1723,
  "\u2581Tim": 1724,
  "\u2581luku\u014b\u014baana": 1725,
  "\u2581yafuna": 1726,
  "to": 1727,
  "\u2581ebibiina": 1728,
  "\u2581kusaba": 1729,
  "\u2581Wa": 1730,
  "\u2581walk": 1731,
  "\u2581omutwe": 1732,
  "\u2581stated": 1733,
  "agenda": 1734,
  "\u2581hear": 1735,
  "\u2581Aba": 1736,
  "\u2581instance": 1737,
  "\u2581lu": 1738,
  "\u2581omulungi": 1739,
  "ra": 1740,
  "\u2581Mary": 1741,
  "\u2581conscience": 1742,
  "\u2581yeeyongera": 1743,
  "\u2581Now": 1744,
  "\u2581Saul": 1745,
  "\u2581anything": 1746,
  "\u2581issue": 1747,
  "\u2581precious": 1748,
  "\u2581promised": 1749,
  "\u2581May": 1750,
  "okufa": 1751,
  "\u2581endure": 1752,
  "th": 1753,
  "\u2581emabega": 1754,
  "\u2581gaffe": 1755,
  "\u2581public": 1756,
  "\u2581clean": 1757,
  "\u2581omwami": 1758,
  "\u2581trials": 1759,
  "ting": 1760,
  "\u2581Ekitabo": 1761,
  "fuula": 1762,
  "x": 1763,
  "\u2581buyinza": 1764,
  "\u2581gain": 1765,
  "okubeera": 1766,
  "\u2581Therefore": 1767,
  "\u2581amaaso": 1768,
  "\u2581complete": 1769,
  "\u2581considered": 1770,
  "\u2581reasons": 1771,
  "\u2581agali": 1772,
  "\u2581eggwanga": 1773,
  "\u2581hands": 1774,
  "\u2581responsibility": 1775,
  "\u2581served": 1776,
  "\u2581Footnote": 1777,
  "\u2581available": 1778,
  "\u2581baakola": 1779,
  "\u2581guidance": 1780,
  "\u258124:": 1781,
  "\u2581Si": 1782,
  "\u2581obwa": 1783,
  "\u2581olunaku": 1784,
  "\u2581te": 1785,
  "\u2581within": 1786,
  "eyogera": 1787,
  "\u2581Ebifaananyi": 1788,
  "\u2581Pictures": 1789,
  "\u2581akimanyi": 1790,
  "\u2581happened": 1791,
  "\u2581amawanga": 1792,
  "\u2581bijja": 1793,
  "\u2581harmony": 1794,
  "\u2581imperfect": 1795,
  "\u2581obey": 1796,
  "embeera": 1797,
  "\u2581head": 1798,
  "\u2581ebya": 1799,
  "\u2581kusinza": 1800,
  "\u2581nkomerero": 1801,
  "\u2581MU": 1802,
  "\u2581obufuzi": 1803,
  "\u2581further": 1804,
  "\u2581kibi": 1805,
  "\u2581salvation": 1806,
  "\u2581Judah": 1807,
  "\u2581Mat": 1808,
  "\u2581clearly": 1809,
  "\u2581okukuyamba": 1810,
  "org": 1811,
  "\u2581Amateeka": 1812,
  "\u2581First": 1813,
  "\u2581akola": 1814,
  "\u2581fulfillment": 1815,
  "\u2581gi": 1816,
  "\u2581helping": 1817,
  "\u2581longer": 1818,
  "\u2581ono": 1819,
  "ebizibu": 1820,
  "re": 1821,
  "\u2581form": 1822,
  "\u2581gwange": 1823,
  "\u2581okumu": 1824,
  "\u2581soul": 1825,
  "\u2581born": 1826,
  "\u2581mate": 1827,
  "\u2581meet": 1828,
  "\u2581ENNYIMBA": 1829,
  "\u2581SONGS": 1830,
  "\u2581abatume": 1831,
  "\u2581alone": 1832,
  "\u2581build": 1833,
  "\u2581emi": 1834,
  "\u2581ojja": 1835,
  "Omwana": 1836,
  "oluvannyuma": 1837,
  "\u2581abaaliwo": 1838,
  "\u2581actions": 1839,
  "\u2581okunyweza": 1840,
  "\u2581tubuulira": 1841,
  "\u2581twa": 1842,
  "ya": 1843,
  "\u2581Babulooni": 1844,
  "\u2581concern": 1845,
  "\u2581okugoberera": 1846,
  "obugwenyufu": 1847,
  "\u2581continued": 1848,
  "\u2581obunnabbi": 1849,
  "\u2581mwesigwa": 1850,
  "enkolagana": 1851,
  "le": 1852,
  "\u2581Society": 1853,
  "\u2581magazini": 1854,
  "\u2581Laba": 1855,
  "\u2581call": 1856,
  "\u2581else": 1857,
  "\u2581ggwanga": 1858,
  "\u2581Jewish": 1859,
  "\u2581Samwiri": 1860,
  "\u2581butuukirivu": 1861,
  "obufuzi": 1862,
  "\u2581Egypt": 1863,
  "\u2581bafuna": 1864,
  "\u2581ability": 1865,
  "\u2581influence": 1866,
  "ewakubadde": 1867,
  "\u2581boogera": 1868,
  "\u2581kizibu": 1869,
  "\u2581express": 1870,
  "\u2581practical": 1871,
  "\u2581start": 1872,
  "\u2581Olubereberye": 1873,
  "\u2581display": 1874,
  "\u2581kennyini": 1875,
  "\u2581tulabe": 1876,
  "zi": 1877,
  "\u2581Matt": 1878,
  "\u2581ezimu": 1879,
  "\u2581reach": 1880,
  "\u2581bumu": 1881,
  "\u2581elder": 1882,
  "\u2581forth": 1883,
  "\u2581njagala": 1884,
  "\u2581changed": 1885,
  "\u2581got": 1886,
  "\u2581gyabwe": 1887,
  "\u2581local": 1888,
  "\u2581named": 1889,
  "\u2581showing": 1890,
  "\u2581teachings": 1891,
  ",...": 1892,
  "olina": 1893,
  "si": 1894,
  "\u2581baana": 1895,
  "\u2581ekifo": 1896,
  "\u2581oli": 1897,
  "\u2581proved": 1898,
  "\u2581yalaba": 1899,
  "la": 1900,
  "\u2581Omwoyo": 1901,
  "\u2581ababi": 1902,
  "\u2581led": 1903,
  "jw": 1904,
  "\u2581olupapula": 1905,
  "\u2581position": 1906,
  "\u2581yange": 1907,
  "\u2581muganda": 1908,
  "\u2581obuweereza": 1909,
  "\u2581omuddu": 1910,
  "\u2581reflect": 1911,
  "\u2581\"[": 1912,
  "dde": 1913,
  "\u2581abato": 1914,
  "\u2581ani": 1915,
  "\u2581enzibu": 1916,
  "\u2581particular": 1917,
  "otwalidde": 1918,
  "\u2581True": 1919,
  "\u2581accepted": 1920,
  "\u2581letter": 1921,
  "\u2581focus": 1922,
  "\u2581wiiki": 1923,
  "\u2581worldwide": 1924,
  "\u2581bakakafu": 1925,
  "\u2581ensobi": 1926,
  "\u2581ogu": 1927,
  "\u2581started": 1928,
  "\u2581Have": 1929,
  "\u2581ekiyitibwa": 1930,
  "\u2581desires": 1931,
  "\u2581expression": 1932,
  "empisa": 1933,
  "\u2581advice": 1934,
  "\u2581offered": 1935,
  "yitibwa": 1936,
  "\u2581Love": 1937,
  "\u2581country": 1938,
  "\u2581ssanyu": 1939,
  "\u2581Abaana": 1940,
  "\u2581Okumanya": 1941,
  "\u2581Ps": 1942,
  "\u2581raised": 1943,
  "\u2581Just": 1944,
  "\u2581Lumu": 1945,
  "\u2581abeera": 1946,
  "\u2581okujja": 1947,
  "\u258122,": 1948,
  "\u2581mateeka": 1949,
  "\u2581obusobozi": 1950,
  "\u2581proper": 1951,
  "\u2581ssomero": 1952,
  "\u2581An": 1953,
  "\u2581explained": 1954,
  "\u2581humility": 1955,
  "ennaku": 1956,
  "\u2581bizibu": 1957,
  "\u2581byo": 1958,
  "\u2581kwogera": 1959,
  "ka": 1960,
  "l": 1961,
  "\u2581Abazadde": 1962,
  "\u2581daily": 1963,
  "\u2581tribulation": 1964,
  "key": 1965,
  "\u2581action": 1966,
  "\u2581common": 1967,
  "\u2581ebisingawo": 1968,
  "\u2581whose": 1969,
  "\u2581Osobola": 1970,
  "\u2581mere": 1971,
  "\u2581Baali": 1972,
  "\u2581Ekiseera": 1973,
  "\u2581eddembe": 1974,
  "\u2581osobola": 1975,
  "\u2581Jacob": 1976,
  "\u2581P": 1977,
  "\u2581die": 1978,
  "\u2581mi": 1979,
  "\u2581regular": 1980,
  "\u25811914": 1981,
  "\u2581Bangi": 1982,
  "\u2581described": 1983,
  "\u2581provides": 1984,
  "\u2581tufuba": 1985,
  "\u2581zimu": 1986,
  "olw": 1987,
  "us": 1988,
  "\u2581Kyo": 1989,
  "\u2581ak": 1990,
  "\u2581develop": 1991,
  "\u2581pages": 1992,
  "ga": 1993,
  "\u2581Zab": 1994,
  "\u2581answers": 1995,
  "\u2581crowd": 1996,
  "\u2581training": 1997,
  "\u2581Bajulirwa": 1998,
  "\u2581enemies": 1999,
  "\u2581ezitali": 2000,
  "\u2581kufa": 2001,
  "\u2581oboolyawo": 2002,
  "\u2581Messiah": 2003,
  "\u2581ekiddako": 2004,
  "\u2581modern": 2005,
  "\u2581okufuga": 2006,
  "\u2581seeking": 2007,
  "Bwe": 2008,
  "\u2581Bethel": 2009,
  "\u2581amakulu": 2010,
  "\u2581servant": 2011,
  "\u2581stay": 2012,
  "\u2581Tusobola": 2013,
  "\u2581abavubuka": 2014,
  "\u2581choose": 2015,
  "\u2581grow": 2016,
  "\u2581published": 2017,
  "\u2581Beseri": 2018,
  "\u2581carry": 2019,
  "\u2581open": 2020,
  "\u2581unity": 2021,
  "\u2581Amerika": 2022,
  "\u2581bwenkanya": 2023,
  "\u2581occasion": 2024,
  "\u2581regularly": 2025,
  "\u2581humble": 2026,
  "\u2581interests": 2027,
  "\u2581kkubo": 2028,
  "\u2581knows": 2029,
  "\u2581single": 2030,
  "\u2581creation": 2031,
  "\u2581takes": 2032,
  "Oku": 2033,
  "kiiko": 2034,
  "\u2581class": 2035,
  "\u2581cultivate": 2036,
  "\u2581d": 2037,
  "\u2581history": 2038,
  "\u2581mercy": 2039,
  "c": 2040,
  "ggyeko": 2041,
  "\u258129.": 2042,
  "\u2581Roman": 2043,
  "\u2581bamu": 2044,
  "\u2581olulala": 2045,
  "\u2581subject": 2046,
  "\u2581created": 2047,
  "\u2581laws": 2048,
  "\u2581moral": 2049,
  "\u2581mubiri": 2050,
  "\u2581okutandika": 2051,
  "\u2581worshippers": 2052,
  "\u258128.": 2053,
  "\u2581According": 2054,
  "\u2581bulagirizi": 2055,
  "\u2581bifo": 2056,
  "\u2581ebibala": 2057,
  "\u2581fulfilled": 2058,
  "\u2581kitiibwa": 2059,
  "\u2581taata": 2060,
  "ki": 2061,
  "\u2581Later": 2062,
  "\u2581assignment": 2063,
  "\u2581kigamba": 2064,
  "\u2581blessed": 2065,
  "\u2581voice": 2066,
  "\u2581warning": 2067,
  "\u2581Or": 2068,
  "\u2581See": 2069,
  "\u2581problem": 2070,
  "enkomerero": 2071,
  "leetera": 2072,
  "\u2581Bintu": 2073,
  "\u2581Bye": 2074,
  "\u2581kusooka": 2075,
  "\u2581mukazi": 2076,
  "\u2581rest": 2077,
  "\u2581wala": 2078,
  "\u2581prayed": 2079,
  "\u2581kigambo": 2080,
  "\u2581mwetegefu": 2081,
  "\u2581owa": 2082,
  "\u2581various": 2083,
  "\u2581actually": 2084,
  "\u2581indeed": 2085,
  "mulundi": 2086,
  "\u258131.": 2087,
  "\u2581enable": 2088,
  "\u2581bear": 2089,
  "\u2581benefits": 2090,
  "\u2581ebyawandiikibwa": 2091,
  "\u2581edda": 2092,
  "\u2581knowing": 2093,
  "\u2581nabyo": 2094,
  "\u2581asobole": 2095,
  "\u2581bapayoniya": 2096,
  "\u2581behalf": 2097,
  "\u2581destruction": 2098,
  "\u2581positive": 2099,
  "\u2581quality": 2100,
  "\u2581tebalina": 2101,
  "obuyinza": 2102,
  "\u2581Joshua": 2103,
  "\u2581sacrifices": 2104,
  "omwana": 2105,
  "\u2581kubuulira": 2106,
  "\u2581lusegere": 2107,
  "\u2581obulwadde": 2108,
  "\u2581okubayamba": 2109,
  "\u2581okunoonya": 2110,
  "\u2581wayise": 2111,
  "\u2581challenge": 2112,
  "\u2581earlier": 2113,
  "\u2581easy": 2114,
  "\u2581evil": 2115,
  "\u2581kumanya": 2116,
  "\u2581kweyongera": 2117,
  "\u2581omubiri": 2118,
  "\u2581visit": 2119,
  "\u2581working": 2120,
  "\u2581Abakadde": 2121,
  "\u2581Life": 2122,
  "\u2581Makko": 2123,
  "\u2581encouragement": 2124,
  "\u2581kwonna": 2125,
  "\u2581mangu": 2126,
  "\u2581Naffe": 2127,
  "\u2581source": 2128,
  "\u2581yakiraga": 2129,
  "\u2581gwabwe": 2130,
  "\u2581enkulu": 2131,
  "\u2581mba": 2132,
  "\u2581neither": 2133,
  "\u2581sacred": 2134,
  "okuleetera": 2135,
  "\u2581Rooma": 2136,
  "\u2581abaasooka": 2137,
  "\u2581explains": 2138,
  "\u2581kubaawo": 2139,
  "\u2581lesson": 2140,
  "ddamu": 2141,
  "\u2581Tulina": 2142,
  "\u2581attend": 2143,
  "\u2581command": 2144,
  "\u2581olu": 2145,
  "\u2581pain": 2146,
  "\u2581encourage": 2147,
  "\u2581ke": 2148,
  "\u2581okusooka": 2149,
  "\u2581okuwaayo": 2150,
  "\u258124,": 2151,
  "\u2581bwali": 2152,
  "\u2581include": 2153,
  "\u2581kujja": 2154,
  "\u2581munno": 2155,
  "\u2581nteekateeka": 2156,
  "\u2581okukikola": 2157,
  "\u2581faced": 2158,
  "\u2581itself": 2159,
  "\u2581kitono": 2160,
  "\u2581walking": 2161,
  "\u2581Similarly": 2162,
  "\u2581Weetegereze": 2163,
  "\u2581goal": 2164,
  "\u2581government": 2165,
  "\u2581period": 2166,
  "\u2581results": 2167,
  "obunyiikivu": 2168,
  "\u2581Oba": 2169,
  "\u2581ennyumba": 2170,
  "\u2581justice": 2171,
  "\u2581okuyingira": 2172,
  "\u2581seem": 2173,
  "\u2581Babylon": 2174,
  "\u2581genuine": 2175,
  "\u2581BIBLE": 2176,
  "\u2581Ensonga": 2177,
  "\u2581birth": 2178,
  "\u2581kituuka": 2179,
  "\u2581yamala": 2180,
  "\u2581activity": 2181,
  "\u2581ako": 2182,
  "\u2581freedom": 2183,
  "\u2581sovereignty": 2184,
  "\u2581speech": 2185,
  "\u2581tasobola": 2186,
  "Omukuumi": 2187,
  "\u2581addition": 2188,
  "\u2581amaze": 2189,
  "\u2581join": 2190,
  "\u2581protect": 2191,
  "\u2581Eriya": 2192,
  "\u2581bitya": 2193,
  "\u2581ekitabo": 2194,
  "\u2581everyone": 2195,
  "\u2581obwetaavu": 2196,
  "okufuna": 2197,
  "\u2581examine": 2198,
  "\u2581personality": 2199,
  "\u2581basis": 2200,
  "\u2581changes": 2201,
  "\u2581ekifaananyi": 2202,
  "\u2581goals": 2203,
  "\u2581stop": 2204,
  "\u2581devotion": 2205,
  "\u2581lingi": 2206,
  "\u2581okubonaabona": 2207,
  "\u2581tried": 2208,
  "\u2581tusobole": 2209,
  "\u2581Us": 2210,
  "\u2581empisa": 2211,
  "\u2581individual": 2212,
  "abaweereza": 2213,
  "\u2581abatali": 2214,
  "\u2581bamanyi": 2215,
  "\u2581expect": 2216,
  "\u2581kisa": 2217,
  "\u258121,": 2218,
  "\u2581becoming": 2219,
  "\u2581enjigiriza": 2220,
  "\u2581laba": 2221,
  "\u2581obutayosa": 2222,
  "\u2581okukiraba": 2223,
  "\u2581okwegomba": 2224,
  "\u2581tutyo": 2225,
  "afuba": 2226,
  "\u2581Un": 2227,
  "\u2581bakabaka": 2228,
  "\u2581force": 2229,
  "\u2581kwo": 2230,
  "\u2581musanyufu": 2231,
  "4": 2232,
  "\u2581Yoswa": 2233,
  "\u2581amaka": 2234,
  "\u2581greatest": 2235,
  "\u2581okutu": 2236,
  "\u2581shown": 2237,
  "ezo": 2238,
  "like": 2239,
  "\u2581F": 2240,
  "\u2581kyo": 2241,
  "\u2581obuvumu": 2242,
  "\u2581okutya": 2243,
  "en": 2244,
  "\u2581Awake": 2245,
  "\u2581alive": 2246,
  "\u2581bitabo": 2247,
  "\u2581entire": 2248,
  "\u2581persecution": 2249,
  "\u2581Pennsylvania": 2250,
  "\u2581happen": 2251,
  "ekitiibwa": 2252,
  "es": 2253,
  "\u258130.": 2254,
  "\u2581Witness": 2255,
  "\u2581abafumbo": 2256,
  "\u2581brings": 2257,
  "\u2581bungi": 2258,
  "\u2581endiga": 2259,
  "\u2581poor": 2260,
  "\u2581realize": 2261,
  "\u2581yourselves": 2262,
  "\u2581Keep": 2263,
  "\u2581Most": 2264,
  "\u2581shepherd": 2265,
  "\u2581ababa": 2266,
  "\u2581abalabe": 2267,
  "\u2581ahead": 2268,
  "\u2581anger": 2269,
  "\u2581challenges": 2270,
  "\u2581mukakafu": 2271,
  "\u2581obujulirwa": 2272,
  "\u2581wano": 2273,
  "ever": 2274,
  "p": 2275,
  "\u2581allowed": 2276,
  "\u2581firm": 2277,
  "\u2581yasalawo": 2278,
  "akabonero": 2279,
  "ate": 2280,
  "u": 2281,
  "\u2581Great": 2282,
  "\u2581behind": 2283,
  "\u2581ddi": 2284,
  "\u2581approach": 2285,
  "\u2581kuweereza": 2286,
  "\u2581learning": 2287,
  "\u2581steps": 2288,
  "\u2581wives": 2289,
  "\u258133.": 2290,
  "\u2581encouraged": 2291,
  "\u2581seven": 2292,
  "\u2581ssuubi": 2293,
  "\u2581wonder": 2294,
  "\u2581Ephesians": 2295,
  "\u2581acts": 2296,
  "\u2581daughter": 2297,
  "\u2581mitima": 2298,
  "\u2581paradise": 2299,
  "\u2581yasaba": 2300,
  "\u2581Eyo": 2301,
  "\u2581York": 2302,
  "\u2581bakabona": 2303,
  "\u2581beyond": 2304,
  "\u2581mawanga": 2305,
  "\u2581myself": 2306,
  "\u2581Hall": 2307,
  "\u2581Though": 2308,
  "\u2581okusinziira": 2309,
  "\u2581throughout": 2310,
  "\u2581disciple": 2311,
  "\u2581flock": 2312,
  "\u2581millions": 2313,
  "\u2581obwakabaka": 2314,
  "\u2581rich": 2315,
  "\u2581strive": 2316,
  "\u2581arrangement": 2317,
  "\u2581okumpi": 2318,
  "\u2581ready": 2319,
  "\u2581United": 2320,
  "\u2581ebikulu": 2321,
  "\u2581personally": 2322,
  "tu": 2323,
  "\u2581Before": 2324,
  "\u2581lumu": 2325,
  "Abaebbulaniya": 2326,
  "enfunda": 2327,
  "\u2581angel": 2328,
  "\u2581exercise": 2329,
  "\u2581favor": 2330,
  "\u2581languages": 2331,
  "\u2581leaders": 2332,
  "gondera": 2333,
  "\u258170": 2334,
  "\u2581Nna": 2335,
  "\u2581above": 2336,
  "\u2581keyboard": 2337,
  "\u2581truths": 2338,
  "amateeka": 2339,
  "tusobozesa": 2340,
  "\u2581expressed": 2341,
  "\u2581record": 2342,
  "\u2581revealed": 2343,
  "myaka": 2344,
  "\u2581bafuba": 2345,
  "\u2581batyo": 2346,
  "\u2581held": 2347,
  "\u2581kitaawe": 2348,
  "\u2581Kye": 2349,
  "\u2581gwali": 2350,
  "\u2581kings": 2351,
  "\u2581luuyi": 2352,
  "\u2581ten": 2353,
  "bisobola": 2354,
  "ng": 2355,
  "\u2581dedication": 2356,
  "\u2581discipline": 2357,
  "\u2581enough": 2358,
  "\u2581misingi": 2359,
  "\u2581talina": 2360,
  "\u2581turned": 2361,
  "\u2581demonstrate": 2362,
  "\u2581eat": 2363,
  "\u2581ekirabo": 2364,
  "\u2581met": 2365,
  "atuwa": 2366,
  "\u2581birungi": 2367,
  "\u2581contribute": 2368,
  "\u2581deeply": 2369,
  "\u2581ebyokulabirako": 2370,
  "\u2581loyalty": 2371,
  "\u2581okusiima": 2372,
  "\u2581Cor": 2373,
  "\u2581branch": 2374,
  "\u2581ekkubo": 2375,
  "\u2581priests": 2376,
  "\u2581suffer": 2377,
  "\u2581tebi": 2378,
  "\u258127.": 2379,
  "\u258136": 2380,
  "\u2581Others": 2381,
  "\u2581Perhaps": 2382,
  "\u2581Remember": 2383,
  "\u2581importance": 2384,
  "se": 2385,
  "\u2581ebitundu": 2386,
  "\u2581lulimi": 2387,
  "\u2581okugondera": 2388,
  "\u2581publications": 2389,
  "\u2581sign": 2390,
  "\u258160": 2391,
  "\u2581Kirabika": 2392,
  "\u2581door": 2393,
  "\u2581Omusajja": 2394,
  "\u2581baatandika": 2395,
  "\u2581caused": 2396,
  "\u2581discuss": 2397,
  "\u2581months": 2398,
  "\u2581okufumiitiriza": 2399,
  "\u2581practice": 2400,
  "\u2581progress": 2401,
  "\u2581yayoleka": 2402,
  "kwata": 2403,
  "\u2581Abaebbulaniya": 2404,
  "\u2581birowoozo": 2405,
  "\u2581discreet": 2406,
  "\u2581studying": 2407,
  "kintu": 2408,
  "okuyigiriza": 2409,
  "\u2581Holy": 2410,
  "\u2581less": 2411,
  "\u2581protection": 2412,
  "\u2581sexual": 2413,
  "\u2581treat": 2414,
  "ekibi": 2415,
  "ne": 2416,
  "\u2581Oluusi": 2417,
  "\u2581several": 2418,
  "Y": 2419,
  "\u2581choice": 2420,
  "\u2581keeping": 2421,
  "\u2581bakozesa": 2422,
  "\u2581whatever": 2423,
  "ekitundu": 2424,
  "\u2581agakwata": 2425,
  "\u2581resurrected": 2426,
  "asobola": 2427,
  "muwandiisi": 2428,
  "\u2581Another": 2429,
  "\u2581necessary": 2430,
  "\u2581okugumira": 2431,
  "an": 2432,
  "yamba": 2433,
  "\u2581Ebibuuzo": 2434,
  "\u2581Oboolyawo": 2435,
  "\u2581accounts": 2436,
  "\u2581dedicated": 2437,
  "\u2581involves": 2438,
  "\u2581nate": 2439,
  "If": 2440,
  "\u258123,": 2441,
  "\u2581Kol": 2442,
  "\u2581abakulu": 2443,
  "\u2581ebbanga": 2444,
  "\u2581ebisinga": 2445,
  "\u2581recognize": 2446,
  "\u2581119": 2447,
  "\u2581amalala": 2448,
  "\u2581asaanidde": 2449,
  "\u2581babiri": 2450,
  "\u2581olina": 2451,
  "\u2581presence": 2452,
  "\u2581Elijah": 2453,
  "\u2581area": 2454,
  "\u2581buno": 2455,
  "\u2581okubatizibwa": 2456,
  "kitwala": 2457,
  "\u2581condition": 2458,
  "\u2581ejja": 2459,
  "\u2581eza": 2460,
  "\u2581forward": 2461,
  "\u2581okwesiga": 2462,
  "\u2581Through": 2463,
  "\u2581ludda": 2464,
  "\u2581Abalala": 2465,
  "\u2581mirimu": 2466,
  "\u2581mpisa": 2467,
  "\u2581obedience": 2468,
  "\u2581quickly": 2469,
  "\u2581related": 2470,
  "\u2581wagamba": 2471,
  "\u2581zo": 2472,
  "\u2581awaka": 2473,
  "\u2581bukadde": 2474,
  "\u2581yakubiriza": 2475,
  "Do": 2476,
  "ve": 2477,
  "\u2581appropriate": 2478,
  "\u2581nnimi": 2479,
  "\u2581prepare": 2480,
  "\u2581urged": 2481,
  "amawulire": 2482,
  "\u258150": 2483,
  "\u2581Clearly": 2484,
  "\u2581added": 2485,
  "\u2581lugero": 2486,
  "\u2581okutwala": 2487,
  "\u2581rejoice": 2488,
  "\u2581yafa": 2489,
  "ebikolwa": 2490,
  "enteekateeka": 2491,
  "\u2581abakazi": 2492,
  "\u2581closer": 2493,
  "\u2581decided": 2494,
  "\u2581ebyaliwo": 2495,
  "\u2581ekibuuzo": 2496,
  "\u2581five": 2497,
  "\u2581lusuku": 2498,
  "\u2581obulaga": 2499,
  "tya": 2500,
  "\u2581asking": 2501,
  "\u2581bibuuzo": 2502,
  "\u2581lands": 2503,
  "\u2581okukimanya": 2504,
  "kozesa": 2505,
  "yiseewo": 2506,
  "\u2581ddiini": 2507,
  "\u2581observe": 2508,
  "\u2581neighbor": 2509,
  "\u2581omukyala": 2510,
  "obwakabaka": 2511,
  "\u2581Omutonzi": 2512,
  "\u2581contrast": 2513,
  "\u2581line": 2514,
  "\u2581natural": 2515,
  "\u2581okulya": 2516,
  "\u2581okussa": 2517,
  "\u2581omusaayi": 2518,
  "\u2581sort": 2519,
  "alaba": 2520,
  "ekintu": 2521,
  "out": 2522,
  "\u2581Further": 2523,
  "\u2581aware": 2524,
  "\u2581books": 2525,
  "\u2581general": 2526,
  "\u2581mugaso": 2527,
  "\u2581obutuukirivu": 2528,
  "\u258126.": 2529,
  "\u2581biri": 2530,
  "\u2581obutaba": 2531,
  "omukazi": 2532,
  "\u2581Brother": 2533,
  "\u2581interested": 2534,
  "\u2581obedient": 2535,
  "\u2581omuwandiisi": 2536,
  "\u2581opposition": 2537,
  "obwesigwa": 2538,
  "\u2581Yok": 2539,
  "\u2581affection": 2540,
  "\u2581families": 2541,
  "\u2581kano": 2542,
  "\u2581looking": 2543,
  "\u2581students": 2544,
  "Oluyonaani": 2545,
  "ic": 2546,
  "\u2581okukyusa": 2547,
  "\u2581test": 2548,
  "\u2581tube": 2549,
  "weesa": 2550,
  "\u2581biba": 2551,
  "\u2581explain": 2552,
  "\u2581obutali": 2553,
  "\u2581okuli": 2554,
  "\u2581text": 2555,
  "h": 2556,
  "ww": 2557,
  "\u2581elderly": 2558,
  "reetera": 2559,
  "\u2581seed": 2560,
  "fuuka": 2561,
  "\u2581erimu": 2562,
  "\u2581kusobola": 2563,
  "\u2581manifest": 2564,
  "\u2581yamugamba": 2565,
  "twalibwa": 2566,
  "\u258145": 2567,
  "\u2581assigned": 2568,
  "\u2581carefully": 2569,
  "\u2581convention": 2570,
  "\u2581enjoyed": 2571,
  "\u2581fruit": 2572,
  "\u2581okukakasa": 2573,
  "\u2581success": 2574,
  "\u2581yawulira": 2575,
  "awa": 2576,
  "fuba": 2577,
  "te": 2578,
  "\u2581bujja": 2579,
  "\u2581completely": 2580,
  "\u2581egyo": 2581,
  "\u2581kirabika": 2582,
  "\u2581resist": 2583,
  "\u2581worked": 2584,
  "\u2581Omunaala": 2585,
  "\u2581accurate": 2586,
  "\u2581endurance": 2587,
  "\u2581ofiisi": 2588,
  "\u2581building": 2589,
  "\u2581Memorial": 2590,
  "\u2581TO": 2591,
  "\u2581beginning": 2592,
  "\u2581egi": 2593,
  "\u2581sharing": 2594,
  "\u2581yaddamu": 2595,
  "kakasa": 2596,
  "ndowooza": 2597,
  "twetaagisa": 2598,
  "\u2581fall": 2599,
  "\u2581final": 2600,
  "\u2581kisoboka": 2601,
  "\u2581makulu": 2602,
  "\u2581mukono": 2603,
  "\u2581okukijjukira": 2604,
  "leetawo": 2605,
  "\u2581Govern": 2606,
  "\u2581Oyo": 2607,
  "\u2581Waay": 2608,
  "\u2581kirina": 2609,
  "\u2581nkizo": 2610,
  "\u2581opening": 2611,
  "\u2581pressure": 2612,
  "\u2581returned": 2613,
  "\u2581sound": 2614,
  "\u2581Ensi": 2615,
  "\u2581getting": 2616,
  "\u2581image": 2617,
  "\u2581nammwe": 2618,
  "\u2581Abebbulaniya": 2619,
  "\u2581katono": 2620,
  "\u2581kyokulabirako": 2621,
  "\u2581parent": 2622,
  "\u2581short": 2623,
  "faananako": 2624,
  "\u2581lack": 2625,
  "\u258135.": 2626,
  "\u258138": 2627,
  "\u2581Okukkiriza": 2628,
  "\u2581beeyongera": 2629,
  "\u2581emboozi": 2630,
  "\u2581invited": 2631,
  "ggyako": 2632,
  "\u2581akakisa": 2633,
  "\u2581effective": 2634,
  "\u2581eventually": 2635,
  "\u2581fight": 2636,
  "\u2581reveal": 2637,
  "\u2581reward": 2638,
  "\u2581surely": 2639,
  "\u2581followed": 2640,
  "\u2581kkomera": 2641,
  "\u2581spoken": 2642,
  "\u2581thousands": 2643,
  "\u2581yandi": 2644,
  "\u2581yayigiriza": 2645,
  "ach": 2646,
  "evertheless": 2647,
  "twala": 2648,
  "\u00a9": 2649,
  "\u2581States": 2650,
  "\u2581filled": 2651,
  "\u2581fruitage": 2652,
  "\u2581malayika": 2653,
  "\u2581sometimes": 2654,
  "sobole": 2655,
  "\u2581Eby": 2656,
  "\u2581J": 2657,
  "\u2581articles": 2658,
  "\u2581awali": 2659,
  "\u2581bread": 2660,
  "\u2581muwala": 2661,
  "\u2581office": 2662,
  "\u2581response": 2663,
  "okwo": 2664,
  "\u2581Really": 2665,
  "\u2581ennene": 2666,
  "\u2581mwannyinaffe": 2667,
  "\u2581obukwata": 2668,
  "\u2581six": 2669,
  "\u2581yeetaaga": 2670,
  "ngako": 2671,
  "\u2581okwa": 2672,
  "\u2581react": 2673,
  "\u2581situations": 2674,
  "ze": 2675,
  "\u2581centuries": 2676,
  "\u2581kibe": 2677,
  "\u2581okutuleetera": 2678,
  "\u2581places": 2679,
  "\u2581specific": 2680,
  "3": 2681,
  "Let": 2682,
  "or": 2683,
  "we": 2684,
  "\u2581Nnali": 2685,
  "\u2581association": 2686,
  "\u2581feeling": 2687,
  "\u2581offering": 2688,
  "\u2581okubuulirira": 2689,
  "\u2581side": 2690,
  "ness": 2691,
  "\u2581(1": 2692,
  "\u2581Omulimu": 2693,
  "\u2581Questions": 2694,
  "\u2581begin": 2695,
  "\u2581lyo": 2696,
  "\u2581patience": 2697,
  "Olwebbulaniya": 2698,
  "\u2581Sarah": 2699,
  "\u2581amangu": 2700,
  "\u2581guard": 2701,
  "\u2581seems": 2702,
  "\u2581yagenda": 2703,
  "zzeemu": 2704,
  "\u2581Asa": 2705,
  "\u2581Ekyokulabirako": 2706,
  "\u2581Obulamu": 2707,
  "\u2581emisingi": 2708,
  "\u2581okuwagira": 2709,
  "\u2581tusaba": 2710,
  "5": 2711,
  "\u2581kigendererwa": 2712,
  "\u2581mangi": 2713,
  "\u2581tree": 2714,
  "\u2581English": 2715,
  "\u2581compassion": 2716,
  "\u2581ennu\u014b\u014bamu": 2717,
  "\u2581gaali": 2718,
  "\u2581pure": 2719,
  "\u2581standing": 2720,
  "2": 2721,
  "\u2581Mateeka": 2722,
  "\u2581akoze": 2723,
  "\u2581akozesa": 2724,
  "\u2581confident": 2725,
  "\u2581ebiraga": 2726,
  "\u2581forgiveness": 2727,
  "\u2581okubi": 2728,
  "\u2581okuwuliriza": 2729,
  "\u2581trying": 2730,
  "\u2581zabbuli": 2731,
  "abakadde": 2732,
  "go": 2733,
  "\u25814;": 2734,
  "\u2581En": 2735,
  "\u2581Tetu": 2736,
  "\u2581bibiina": 2737,
  "\u2581chosen": 2738,
  "\u2581ekibuga": 2739,
  "\u2581included": 2740,
  "\u2581pay": 2741,
  "\u2581realized": 2742,
  "\u2581vision": 2743,
  "Yakuwa": 2744,
  "\u258128,": 2745,
  "\u2581akali": 2746,
  "\u2581conditions": 2747,
  "\u2581okuziyiza": 2748,
  "\u2581priest": 2749,
  "\u2581yakkiriza": 2750,
  "otyo": 2751,
  "\u2581aweereza": 2752,
  "on": 2753,
  "\u2581kugenda": 2754,
  "\u2581okujjukira": 2755,
  "\u2581picture": 2756,
  "M": 2757,
  "ayitira": 2758,
  "ira": 2759,
  "\u2581Bu": 2760,
  "\u2581amazzi": 2761,
  "\u2581delight": 2762,
  "\u2581tebasobola": 2763,
  "\u2581verse": 2764,
  "\u2581watch": 2765,
  "ani": 2766,
  "\u2581Maliyamu": 2767,
  "\u2581beliefs": 2768,
  "\u2581muto": 2769,
  "\u2581pursue": 2770,
  "\u2581Akafuzi": 2771,
  "\u2581Young": 2772,
  "\u2581declared": 2773,
  "\u2581friendship": 2774,
  "\u2581nnina": 2775,
  "\u2581note": 2776,
  "\u2581omwenge": 2777,
  "\u2581traveling": 2778,
  "\u2581warned": 2779,
  "keyboard": 2780,
  "okusinza": 2781,
  "\u2581consequences": 2782,
  "\u2581ebiragiro": 2783,
  "\u2581imagine": 2784,
  "\u2581okuzimba": 2785,
  "\u2581zeal": 2786,
  "\u2581job": 2787,
  "\u2581kuyinza": 2788,
  "\u2581prepared": 2789,
  "\u2581violence": 2790,
  "kuyitira": 2791,
  "okumanya": 2792,
  "\u2581Body": 2793,
  "\u2581church": 2794,
  "\u2581kuno": 2795,
  "\u2581lose": 2796,
  "\u2581okukulaakulana": 2797,
  "abakazi": 2798,
  "ebitabo": 2799,
  "\u2581Ky": 2800,
  "\u2581[\"": 2801,
  "\u2581cope": 2802,
  "\u2581experiences": 2803,
  "\u2581kulaga": 2804,
  "\u2581kutegeera": 2805,
  "\u2581oyagala": 2806,
  "We": 2807,
  "\u2581fire": 2808,
  "\u2581former": 2809,
  "\u2581requires": 2810,
  "\u2581yalagira": 2811,
  "\u2581Where": 2812,
  "\u2581nakyo": 2813,
  "\u2581okuweebwa": 2814,
  "\u2581valuable": 2815,
  "\u2581yabanga": 2816,
  "Buli": 2817,
  "Mukama": 2818,
  "\u2581dda": 2819,
  "\u2581least": 2820,
  "\u2581meant": 2821,
  "\u2581publishers": 2822,
  "\u2581spent": 2823,
  "\u2581tekitegeeza": 2824,
  "ajja": 2825,
  "oyagala": 2826,
  "\u2581babeera": 2827,
  "\u2581bammwe": 2828,
  "\u2581okulabirira": 2829,
  "\u2581overseers": 2830,
  "ma": 2831,
  "\u2581Explain": 2832,
  "\u2581School": 2833,
  "\u2581assist": 2834,
  "\u2581destroy": 2835,
  "\u2581manner": 2836,
  "\u2581ekisoboka": 2837,
  "\u2581mukama": 2838,
  "\u2581week": 2839,
  "ri": 2840,
  "\u2581ababiri": 2841,
  "\u2581akatabo": 2842,
  "\u2581bandibadde": 2843,
  "\u2581bbanga": 2844,
  "\u2581overcome": 2845,
  "\u2581(2)": 2846,
  "\u2581Eri": 2847,
  "\u2581Regard": 2848,
  "\u2581mulundi": 2849,
  "\u2581musajja": 2850,
  "\u2581simple": 2851,
  "He": 2852,
  "omuddu": 2853,
  "\u2581fulfill": 2854,
  "\u2581member": 2855,
  "\u2581okuganyulwa": 2856,
  "\u2581okugumiikiriza": 2857,
  "\u2581student": 2858,
  "\u2581universe": 2859,
  "okutegeera": 2860,
  "omukyala": 2861,
  "\u2581100": 2862,
  "\u258165": 2863,
  "\u2581arrived": 2864,
  "\u2581bbiri": 2865,
  "\u2581evening": 2866,
  "\u2581preached": 2867,
  "\u2581remind": 2868,
  "\u2581term": 2869,
  "responsibilities": 2870,
  "\u2581Study": 2871,
  "\u2581forgive": 2872,
  "\u2581grateful": 2873,
  "\u2581literature": 2874,
  "\u2581prospect": 2875,
  "\u2581state": 2876,
  "obukadde": 2877,
  "obunnabbi": 2878,
  "\u00b7": 2879,
  "\u2581Ye": 2880,
  "\u2581calls": 2881,
  "\u2581kwali": 2882,
  "\u2581required": 2883,
  "ssaayo": 2884,
  "\u2581Obunnabbi": 2885,
  "\u2581luno": 2886,
  "\u2581tw": 2887,
  "\u2581yasuubiza": 2888,
  "Abaefeso": 2889,
  "geraageranya": 2890,
  "tuyamba": 2891,
  "\u2581Paradise": 2892,
  "\u2581essaala": 2893,
  "\u2581passed": 2894,
  "\u2581prevent": 2895,
  "okusatu": 2896,
  "\u2581areas": 2897,
  "\u2581aspects": 2898,
  "\u2581basic": 2899,
  "\u2581byange": 2900,
  "\u2581destroyed": 2901,
  "\u2581household": 2902,
  "\u2581yandibadde": 2903,
  "lina": 2904,
  "tegeeza": 2905,
  "\u2581approval": 2906,
  "\u2581beautiful": 2907,
  "\u2581bunnabbi": 2908,
  "\u2581etya": 2909,
  "\u2581eyitibwa": 2910,
  "\u2581fail": 2911,
  "\u2581negative": 2912,
  "\u2581original": 2913,
  "\u2581tongue": 2914,
  "\u2581tweyongera": 2915,
  "obuvumu": 2916,
  "wulira": 2917,
  "\u2581About": 2918,
  "\u2581Also": 2919,
  "\u2581enkomerero": 2920,
  "\u2581okwekenneenya": 2921,
  "\u2581overseer": 2922,
  "\u2581prophets": 2923,
  "\u2581relatives": 2924,
  "tuusa": 2925,
  "\u2581Ruth": 2926,
  "\u2581Wandi": 2927,
  "\u2581eddoboozi": 2928,
  "\u2581kinnoomu": 2929,
  "\u2581practices": 2930,
  "\u2581principle": 2931,
  "In": 2932,
  "est": 2933,
  "\u2581acceptable": 2934,
  "\u2581babe": 2935,
  "\u2581babuulira": 2936,
  "\u2581energy": 2937,
  "\u2581failed": 2938,
  "\u2581guide": 2939,
  "\u2581offspring": 2940,
  "\u2581temptation": 2941,
  "okola": 2942,
  "\u2581conclusion": 2943,
  "\u2581morning": 2944,
  "\u2581nkolagana": 2945,
  "\u2581nnungi": 2946,
  "\u2581seeing": 2947,
  "\u2581sincere": 2948,
  "It": 2949,
  "z": 2950,
  "\u2581Ani": 2951,
  "\u2581Bar": 2952,
  "\u2581H": 2953,
  "\u2581batera": 2954,
  "\u2581ekitangaala": 2955,
  "\u2581mwana": 2956,
  "\u2581nature": 2957,
  "\u2581write": 2958,
  "beera": 2959,
  "omusajja": 2960,
  "\u2581BAYIBULI": 2961,
  "\u2581accomplish": 2962,
  "\u2581bamaze": 2963,
  "\u2581ddyo": 2964,
  "\u2581egimu": 2965,
  "\u2581gifts": 2966,
  "\u2581includes": 2967,
  "\u2581mental": 2968,
  "\u2581okutambulira": 2969,
  "\u2581praying": 2970,
  "\u2581step": 2971,
  "\u2581Naawe": 2972,
  "\u2581education": 2973,
  "\u2581kyabwe": 2974,
  "\u2581obugumiikiriza": 2975,
  "\u2581pioneers": 2976,
  "\u2581teachers": 2977,
  "\u2581tuyigir": 2978,
  "\u2581uses": 2979,
  "eky": 2980,
  "\u2581Ebiseera": 2981,
  "\u2581Falaawo": 2982,
  "\u2581Soon": 2983,
  "\u2581commanded": 2984,
  "\u2581esatu": 2985,
  "\u2581missionary": 2986,
  "kkiriza": 2987,
  "wannyinaffe": 2988,
  "\u2581Prov": 2989,
  "\u2581de": 2990,
  "\u2581gange": 2991,
  "\u2581loves": 2992,
  "\u2581workers": 2993,
  "sigala": 2994,
  "\u2581answered": 2995,
  "\u2581either": 2996,
  "\u2581kyennyini": 2997,
  "\u2581okukulaakulanya": 2998,
  "\u2581olwa": 2999,
  "\u2581omuto": 3000,
  "\u2581prophecies": 3001,
  "\u2581undeserved": 3002,
  "\u2581zealous": 3003,
  "-": 3004,
  "\u25812012": 3005,
  "\u2581Philippians": 3006,
  "\u2581Rome": 3007,
  "\u2581bannabbi": 3008,
  "\u2581forget": 3009,
  "\u2581request": 3010,
  "\u2581Teach": 3011,
  "\u2581consideration": 3012,
  "\u2581convinced": 3013,
  "\u2581ntandikwa": 3014,
  "\u2581understood": 3015,
  "essuubi": 3016,
  "lusuku": 3017,
  "\u2581Byonna": 3018,
  "\u2581bless": 3019,
  "\u2581lessons": 3020,
  "\u2581obusungu": 3021,
  "\u2581play": 3022,
  "\u2581territory": 3023,
  "6": 3024,
  "more": 3025,
  "okuyigganyizibwa": 3026,
  "\u2581Ask": 3027,
  "\u2581Nge": 3028,
  "\u2581Nze": 3029,
  "\u2581Was": 3030,
  "\u2581afaayo": 3031,
  "\u2581discussed": 3032,
  "\u2581evident": 3033,
  "\u2581hours": 3034,
  "\u2581okwonoona": 3035,
  "\u2581security": 3036,
  "\u2581teaches": 3037,
  "\u2581empeera": 3038,
  "\u2581erya": 3039,
  "\u2581fill": 3040,
  "\u2581listening": 3041,
  "\u2581mukolo": 3042,
  "\u2581okunywerera": 3043,
  "\u2581prison": 3044,
  "Ensi": 3045,
  "able": 3046,
  "okuyiga": 3047,
  "\u258132.": 3048,
  "\u2581asinga": 3049,
  "\u2581commandments": 3050,
  "\u2581katabo": 3051,
  "\u2581lyaffe": 3052,
  "\u2581okwetooloola": 3053,
  "\u2581omukadde": 3054,
  "\u25812013": 3055,
  "\u2581Otya": 3056,
  "\u2581Translation": 3057,
  "\u2581abakulembeze": 3058,
  "\u2581encouraging": 3059,
  "\u2581eziri": 3060,
  "okulya": 3061,
  "ta": 3062,
  "\u2581Isaac": 3063,
  "\u2581break": 3064,
  "\u2581endagaano": 3065,
  "\u2581essaawa": 3066,
  "\u2581reasonable": 3067,
  "\u2581spend": 3068,
  "\u2581tey": 3069,
  "\u2581twogera": 3070,
  "\u2581yabagamba": 3071,
  "\u2581yatonda": 3072,
  "\u2581Beb": 3073,
  "\u2581ekiragiro": 3074,
  "tayinza": 3075,
  "zingiramu": 3076,
  "\u2581Abafiripi": 3077,
  "\u2581Wabula": 3078,
  "\u2581birina": 3079,
  "\u2581enku\u014b\u014baana": 3080,
  "\u2581immorality": 3081,
  "\u2581kuyamba": 3082,
  "\u2581obwesige": 3083,
  "bitundu": 3084,
  "esigamiziddwa": 3085,
  "\u2581%": 3086,
  "\u25812010": 3087,
  "\u25812011": 3088,
  "\u2581Note": 3089,
  "\u2581caring": 3090,
  "\u2581ekikwata": 3091,
  "\u2581enkyamu": 3092,
  "\u2581hour": 3093,
  "\u2581master": 3094,
  "\u2581tukozesa": 3095,
  "\u2581L": 3096,
  "\u2581abakakafu": 3097,
  "\u2581existence": 3098,
  "\u2581loss": 3099,
  "alaga": 3100,
  "be": 3101,
  "\u2581Kyandiba": 3102,
  "\u2581Nsi": 3103,
  "\u2581Omwami": 3104,
  "\u2581assured": 3105,
  "\u2581bufuzi": 3106,
  "\u2581danger": 3107,
  "\u2581deeds": 3108,
  "\u2581eyasooka": 3109,
  "\u2581faithfully": 3110,
  "\u2581heartfelt": 3111,
  "\u2581noted": 3112,
  "\u2581okumuyamba": 3113,
  "\u2581parts": 3114,
  "\u2581points": 3115,
  "\u2581satisfaction": 3116,
  "\u2581wait": 3117,
  "\u2581Heb": 3118,
  "\u2581agree": 3119,
  "\u2581concerned": 3120,
  "\u2581concerning": 3121,
  "\u2581enter": 3122,
  "\u2581yayogerako": 3123,
  "g": 3124,
  "\u258135": 3125,
  "\u258141": 3126,
  "\u2581Bik": 3127,
  "\u2581Give": 3128,
  "\u2581Should": 3129,
  "\u2581abata": 3130,
  "\u2581awulira": 3131,
  "\u2581egiri": 3132,
  "\u2581event": 3133,
  "\u2581foreign": 3134,
  "\u2581lunyiriri": 3135,
  "\u2581nnalina": 3136,
  "\u2581opportunities": 3137,
  "\u2581seemed": 3138,
  "\u2581subjects": 3139,
  "ngamu": 3140,
  "\u2581bwesimbu": 3141,
  "\u2581outside": 3142,
  "\u2581tumanyi": 3143,
  "Abaweereza": 3144,
  "yi": 3145,
  "\u2581Africa": 3146,
  "\u2581Ebimu": 3147,
  "\u2581R": 3148,
  "\u2581bearing": 3149,
  "\u2581bibiri": 3150,
  "\u2581opened": 3151,
  "\u2581raise": 3152,
  "\u2581viewed": 3153,
  "\u2581youth": 3154,
  "baleetera": 3155,
  "byetaago": 3156,
  "ebiseera": 3157,
  "\u2581Mount": 3158,
  "\u2581insight": 3159,
  "\u2581kukozesa": 3160,
  "\u2581kuzuukira": 3161,
  "\u2581obukakafu": 3162,
  "\u2581riches": 3163,
  "\u2581yawandiikira": 3164,
  "amugamba": 3165,
  "\u2581II": 3166,
  "\u2581Mikka": 3167,
  "\u2581active": 3168,
  "\u2581bakimanyi": 3169,
  "\u2581extent": 3170,
  "\u2581omuli": 3171,
  "\u2581tulaba": 3172,
  "abasajja": 3173,
  "bu": 3174,
  "ekigendererwa": 3175,
  "okufuula": 3176,
  "talo": 3177,
  "\u2581Colossians": 3178,
  "\u2581Rom": 3179,
  "\u2581akaseera": 3180,
  "\u2581attending": 3181,
  "\u2581ekitali": 3182,
  "\u2581emitima": 3183,
  "\u2581obukulembeze": 3184,
  "9": 3185,
  "ava": 3186,
  "\u2581Abakkolosaayi": 3187,
  "\u2581Isaaka": 3188,
  "\u2581emikwano": 3189,
  "\u2581kizingiramu": 3190,
  "\u2581kuddamu": 3191,
  "\u2581studies": 3192,
  "\u2581suffered": 3193,
  "eggwanga": 3194,
  "omutume": 3195,
  "\u2581abakola": 3196,
  "\u2581amu": 3197,
  "\u2581balaba": 3198,
  "\u2581mukaaga": 3199,
  "\u2581njigiriza": 3200,
  "\u2581reject": 3201,
  "\u2581sea": 3202,
  "\u2581tayagala": 3203,
  "ettabi": 3204,
  "\u2581Learn": 3205,
  "\u2581bituufu": 3206,
  "\u2581girl": 3207,
  "\u2581okuviira": 3208,
  "\u2581teacher": 3209,
  "sangibwa": 3210,
  "yoleka": 3211,
  "\u02b9": 3212,
  "\u25811919": 3213,
  "\u2581baani": 3214,
  "\u2581beetegefu": 3215,
  "\u2581established": 3216,
  "\u2581immediately": 3217,
  "\u2581kinene": 3218,
  "This": 3219,
  "\u258155": 3220,
  "\u2581Embeera": 3221,
  "\u2581ategeeza": 3222,
  "\u2581bwakabaka": 3223,
  "\u2581ground": 3224,
  "\u2581lie": 3225,
  "\u2581secular": 3226,
  "\u2581sight": 3227,
  "\u2581town": 3228,
  "\u2581twolekagan": 3229,
  "gi": 3230,
  "\u2581Recall": 3231,
  "\u2581assure": 3232,
  "\u2581boy": 3233,
  "\u2581direct": 3234,
  "\u2581illustrate": 3235,
  "\u2581kuwa": 3236,
  "\u2581observed": 3237,
  "\u2581relief": 3238,
  "\u2581third": 3239,
  "atandika": 3240,
  "ually": 3241,
  "\u2581Being": 3242,
  "\u2581bakoze": 3243,
  "\u2581distress": 3244,
  "\u2581save": 3245,
  "\u2581tulowooza": 3246,
  "7": 3247,
  "omwami": 3248,
  "\u2581Over": 3249,
  "\u2581harvest": 3250,
  "\u2581helpful": 3251,
  "\u2581refers": 3252,
  "ayamba": 3253,
  "okusoma": 3254,
  "okuzimba": 3255,
  "\u2581Her": 3256,
  "\u2581Luk": 3257,
  "\u2581Micah": 3258,
  "\u2581Saala": 3259,
  "\u2581becomes": 3260,
  "\u2581goodness": 3261,
  "\u2581limited": 3262,
  "\u2581measure": 3263,
  "\u2581referred": 3264,
  "laga": 3265,
  "lyoke": 3266,
  "\u2581Good": 3267,
  "\u2581Pharaoh": 3268,
  "\u2581affected": 3269,
  "\u2581attended": 3270,
  "\u2581lot": 3271,
  "\u2581yayagala": 3272,
  "Abaisiraeri": 3273,
  "akabi": 3274,
  "jeemera": 3275,
  "\u2581Australia": 3276,
  "\u2581Faith": 3277,
  "\u2581Think": 3278,
  "\u2581ababuulizi": 3279,
  "\u2581anxiety": 3280,
  "\u2581beloved": 3281,
  "\u2581ebiruubirirwa": 3282,
  "\u2581eyaliwo": 3283,
  "\u2581eye": 3284,
  "\u2581lyonna": 3285,
  "\u2581minds": 3286,
  "\u2581okufaayo": 3287,
  "\u2581tuyiga": 3288,
  "tuukana": 3289,
  "\u2581Omujulirwa": 3290,
  "\u2581Well": 3291,
  "\u2581akabi": 3292,
  "\u2581batwala": 3293,
  "\u2581creatures": 3294,
  "\u2581ebbaluwa": 3295,
  "\u2581feet": 3296,
  "\u2581instead": 3297,
  "\u2581kikyamu": 3298,
  "\u2581kukuyamba": 3299,
  "\u2581kyange": 3300,
  "\u2581obugolokofu": 3301,
  "\u2581wine": 3302,
  "asalawo": 3303,
  "aweereza": 3304,
  "li": 3305,
  "\u2581BE": 3306,
  "\u2581Canada": 3307,
  "\u2581Ebi": 3308,
  "\u2581Kikulu": 3309,
  "\u2581Only": 3310,
  "\u2581akatundu": 3311,
  "\u2581claim": 3312,
  "\u2581ekwata": 3313,
  "\u2581emotional": 3314,
  "\u2581kkumi": 3315,
  "\u2581obukuumi": 3316,
  "When": 3317,
  "okusaba": 3318,
  "\u258126,": 3319,
  "\u2581U": 3320,
  "\u2581companions": 3321,
  "\u2581enemy": 3322,
  "\u2581expressions": 3323,
  "\u2581invitation": 3324,
  "\u2581operation": 3325,
  "\u2581statement": 3326,
  "\u2581teyali": 3327,
  "\u2581wali": 3328,
  "obuweereza": 3329,
  "okwesanyusaamu": 3330,
  "\u2581Ezekiel": 3331,
  "\u2581Nekkemiya": 3332,
  "\u2581Tuli": 3333,
  "\u2581omubi": 3334,
  "\u2581political": 3335,
  "kibonyoobonyo": 3336,
  "\u2581Imagine": 3337,
  "\u2581late": 3338,
  "\u2581okwe": 3339,
  "\u2581prophetic": 3340,
  "\u2581remained": 3341,
  "\u2581sick": 3342,
  "\u2581Eki": 3343,
  "\u2581High": 3344,
  "\u2581battle": 3345,
  "\u2581greatly": 3346,
  "\u2581lutalo": 3347,
  "\u2581pleasure": 3348,
  "\u2581yasooka": 3349,
  "\u2581Kitange": 3350,
  "\u2581Nehemiah": 3351,
  "\u2581bbaluwa": 3352,
  "\u2581circuit": 3353,
  "\u2581okudda": 3354,
  "\u2581okutambula": 3355,
  "\u2581olutalo": 3356,
  "abatume": 3357,
  "faayo": 3358,
  "\u2581Answer": 3359,
  "\u2581Awo": 3360,
  "\u2581Ezeekyeri": 3361,
  "\u2581KU": 3362,
  "\u2581bakatonda": 3363,
  "\u2581conversation": 3364,
  "\u2581ebingi": 3365,
  "\u2581en": 3366,
  "\u2581judge": 3367,
  "\u2581killed": 3368,
  "\u2581okwa\u014b\u014banga": 3369,
  "\u2581pride": 3370,
  "\u2581sinful": 3371,
  "\u2581yayamba": 3372,
  "Omu": 3373,
  "afuuka": 3374,
  "ggwaamu": 3375,
  "omwaka": 3376,
  "tuleetera": 3377,
  "\u2581Abaefeso": 3378,
  "\u2581War": 3379,
  "\u2581careful": 3380,
  "\u2581closely": 3381,
  "\u2581kyandibadde": 3382,
  "\u2581pattern": 3383,
  "\u2581tulabye": 3384,
  "\u2581yakiraba": 3385,
  "tegeera": 3386,
  "\u258115]": 3387,
  "\u2581Maama": 3388,
  "\u2581attack": 3389,
  "\u2581built": 3390,
  "\u2581eba": 3391,
  "\u2581etteeka": 3392,
  "\u2581husbands": 3393,
  "\u2581month": 3394,
  "\u2581musanvu": 3395,
  "\u2581produce": 3396,
  "Abayudaaya": 3397,
  "\u2581(3)": 3398,
  "\u2581Bungereza": 3399,
  "\u2581dealings": 3400,
  "\u2581ekyaliwo": 3401,
  "\u2581emibi": 3402,
  "\u2581nayo": 3403,
  "\u2581olunene": 3404,
  "\u2581omukwano": 3405,
  "erinnya": 3406,
  "lo": 3407,
  "obukambwe": 3408,
  "\u258129,": 3409,
  "\u258142": 3410,
  "\u2581butya": 3411,
  "\u2581eight": 3412,
  "\u2581idea": 3413,
  "\u2581increase": 3414,
  "\u2581mouth": 3415,
  "\u2581musaayi": 3416,
  "\u2581nsobi": 3417,
  "\u2581okuyita": 3418,
  "okutya": 3419,
  "\u25812008": 3420,
  "\u258148": 3421,
  "\u2581IN": 3422,
  "\u2581almo": 3423,
  "\u2581bwangu": 3424,
  "\u2581mildness": 3425,
  "\u2581mulamu": 3426,
  "\u2581nzikiriza": 3427,
  "\u2581report": 3428,
  "\u2581tetusobola": 3429,
  "Ebintu": 3430,
  "lu": 3431,
  "\u2581144,000": 3432,
  "\u2581OF": 3433,
  "\u2581bawulira": 3434,
  "\u2581don": 3435,
  "\u2581issues": 3436,
  "\u2581miles": 3437,
  "\u2581nnatandika": 3438,
  "\u2581Bi": 3439,
  "\u2581Lu": 3440,
  "\u2581Make": 3441,
  "\u2581Okugatt": 3442,
  "\u2581Okumala": 3443,
  "\u2581communication": 3444,
  "\u2581contact": 3445,
  "\u2581harm": 3446,
  "\u2581okugwa": 3447,
  "\u2581train": 3448,
  "amaze": 3449,
  "obwo": 3450,
  "\u2581army": 3451,
  "\u2581baafuna": 3452,
  "\u2581bandi": 3453,
  "\u2581countries": 3454,
  "\u2581drawn": 3455,
  "\u2581ekinaatuyamba": 3456,
  "\u2581outstanding": 3457,
  "\u2581provisions": 3458,
  "\u2581responsible": 3459,
  "\u2581slaves": 3460,
  "\u2581tekyali": 3461,
  "\u2581chose": 3462,
  "\u2581contains": 3463,
  "\u2581darkness": 3464,
  "\u2581identify": 3465,
  "ana": 3466,
  "\u2581Gye": 3467,
  "\u2581Land": 3468,
  "\u2581Luusi": 3469,
  "\u2581deliver": 3470,
  "\u2581essira": 3471,
  "\u2581million": 3472,
  "\u2581omuwendo": 3473,
  "\u2581patient": 3474,
  "\u2581relates": 3475,
  "\u2581successful": 3476,
  "ssaamu": 3477,
  "\u2581abafu": 3478,
  "\u2581improve": 3479,
  "\u2581indicated": 3480,
  "\u2581sun": 3481,
  "B": 3482,
  "\u2581Robert": 3483,
  "\u2581Twa": 3484,
  "\u2581although": 3485,
  "\u2581anaater": 3486,
  "\u2581byokka": 3487,
  "\u2581comments": 3488,
  "\u2581easily": 3489,
  "\u2581leading": 3490,
  "\u2581looked": 3491,
  "\u2581music": 3492,
  "\u2581okusanyusa": 3493,
  "\u2581purposes": 3494,
  "\u2581strengthened": 3495,
  "\u2581succeed": 3496,
  "\u2581youths": 3497,
  "amaaso": 3498,
  "awaayo": 3499,
  "okulaba": 3500,
  "\u2581correct": 3501,
  "\u2581half": 3502,
  "\u2581promote": 3503,
  "\u2581spread": 3504,
  "\u2581tetulina": 3505,
  "\u2581tubeera": 3506,
  "\u2581twandi": 3507,
  "kozesebwa": 3508,
  "nyweza": 3509,
  "\u25812009": 3510,
  "\u2581Could": 3511,
  "\u2581Sam": 3512,
  "\u2581animals": 3513,
  "\u2581appear": 3514,
  "\u2581continues": 3515,
  "\u2581gano": 3516,
  "\u2581immoral": 3517,
  "\u2581mukkiriza": 3518,
  "\u2581okufaananako": 3519,
  "\u2581okukula": 3520,
  "\u2581okuwandiika": 3521,
  "\u2581recent": 3522,
  "\u2581unique": 3523,
  "\u2581yabuuza": 3524,
  "\u2581yee": 3525,
  "ensusso": 3526,
  "kolera": 3527,
  "\u2581Kiba": 3528,
  "\u2581Lutti": 3529,
  "\u2581Okukola": 3530,
  "\u2581Pet": 3531,
  "\u2581South": 3532,
  "\u2581endeavor": 3533,
  "\u2581essential": 3534,
  "\u2581grew": 3535,
  "\u2581growth": 3536,
  "\u2581kusoma": 3537,
  "\u2581okwewaayo": 3538,
  "\u2581privileges": 3539,
  "\u2581relative": 3540,
  "\u2581responded": 3541,
  "\u2581waiting": 3542,
  "Abantu": 3543,
  "all": 3544,
  "\u2581cases": 3545,
  "\u2581mazzi": 3546,
  "\u2581obunafu": 3547,
  "\u2581presented": 3548,
  "\u2581reality": 3549,
  "\u2581sees": 3550,
  "ababuulizi": 3551,
  "and": 3552,
  "bi": 3553,
  "nyumirwa": 3554,
  "\u2581Help": 3555,
  "\u2581byawandiikibwa": 3556,
  "\u2581lwaffe": 3557,
  "\u2581notice": 3558,
  "\u2581obwetoowaze": 3559,
  "\u2581omuweereza": 3560,
  "\u258123]": 3561,
  "\u2581Action": 3562,
  "\u2581Ekibiina": 3563,
  "\u2581Spirit": 3564,
  "\u2581abadde": 3565,
  "\u2581buvunaanyizibwa": 3566,
  "\u2581ekkumi": 3567,
  "\u2581hearing": 3568,
  "\u2581kutuukiriza": 3569,
  "\u2581kuyiga": 3570,
  "\u2581lasting": 3571,
  "\u2581minister": 3572,
  "\u2581translated": 3573,
  "\u2581widow": 3574,
  "Mosaic": 3575,
  "\u258134.": 3576,
  "\u2581eddiini": 3577,
  "\u2581emiganyulo": 3578,
  "\u2581engage": 3579,
  "\u2581evidently": 3580,
  "\u2581likewise": 3581,
  "\u2581nnamwandu": 3582,
  "\u2581okumuweereza": 3583,
  "\u2581okutuwa": 3584,
  "\u2581olwali": 3585,
  "amadiini": 3586,
  "ata": 3587,
  "vu": 3588,
  "yingira": 3589,
  "\u2581aside": 3590,
  "\u2581bond": 3591,
  "\u2581conclude": 3592,
  "\u2581heed": 3593,
  "\u2581trained": 3594,
  "\u2581yafuuka": 3595,
  "enfuna": 3596,
  "goberera": 3597,
  "\u2581Peet": 3598,
  "\u2581alaba": 3599,
  "\u2581carried": 3600,
  "\u2581directed": 3601,
  "\u2581groups": 3602,
  "\u2581inside": 3603,
  "\u2581search": 3604,
  "\u2581warm": 3605,
  "\u2581zaali": 3606,
  "Ekijjukizo": 3607,
  "\u2581Amagezi": 3608,
  "\u2581Russia": 3609,
  "\u2581bamalirivu": 3610,
  "\u2581butonde": 3611,
  "\u2581contrary": 3612,
  "\u2581ekiro": 3613,
  "\u2581entertainment": 3614,
  "\u2581kulowooza": 3615,
  "\u2581kuzikirizibwa": 3616,
  "\u2581meditate": 3617,
  "\u2581obukadde": 3618,
  "\u2581okutegeeza": 3619,
  "\u2581receiving": 3620,
  "\u2581rejected": 3621,
  "\u2581tusalawo": 3622,
  "1": 3623,
  "K": 3624,
  "kya": 3625,
  "lunaku": 3626,
  "ow": 3627,
  "\u258125,": 3628,
  "\u2581Essanyu": 3629,
  "\u2581Family": 3630,
  "\u2581abatatuukiridde": 3631,
  "\u2581advantage": 3632,
  "\u2581anaa": 3633,
  "\u2581atali": 3634,
  "\u2581bata": 3635,
  "\u2581bayigiriza": 3636,
  "\u2581drink": 3637,
  "\u2581meal": 3638,
  "\u2581race": 3639,
  "\u2581resolve": 3640,
  "\u2581witnessing": 3641,
  "abamu": 3642,
  "\u258144": 3643,
  "\u2581Abavubuka": 3644,
  "\u2581Baani": 3645,
  "\u2581Japan": 3646,
  "\u2581applied": 3647,
  "\u2581bannyinaffe": 3648,
  "\u2581busy": 3649,
  "\u2581due": 3650,
  "\u2581lies": 3651,
  "afa": 3652,
  "egamba": 3653,
  "manya": 3654,
  "\u258118]": 3655,
  "\u2581Take": 3656,
  "\u2581bibi": 3657,
  "\u2581homes": 3658,
  "\u2581indicate": 3659,
  "\u2581okulabika": 3660,
  "\u2581okuleka": 3661,
  "\u2581refused": 3662,
  "\u2581send": 3663,
  "\u2581tekiba": 3664,
  "\u2581trial": 3665,
  "\u2581Gospel": 3666,
  "\u2581Lot": 3667,
  "\u2581acted": 3668,
  "\u2581demons": 3669,
  "\u2581ekyawandiikibwa": 3670,
  "\u2581legal": 3671,
  "\u2581musango": 3672,
  "\u2581okulekera": 3673,
  "\u2581Okusaba": 3674,
  "\u2581amount": 3675,
  "\u2581bigere": 3676,
  "\u2581determination": 3677,
  "\u2581kwange": 3678,
  "\u2581main": 3679,
  "\u2581obuzibu": 3680,
  "\u2581pass": 3681,
  "\u2581saved": 3682,
  "amazzi": 3683,
  "atuuka": 3684,
  "lemesa": 3685,
  "omulimu": 3686,
  "\u2581Mukristaayo": 3687,
  "\u2581abayizi": 3688,
  "\u2581adds": 3689,
  "\u2581aspect": 3690,
  "\u2581atuwa": 3691,
  "\u2581biki": 3692,
  "\u2581ddungu": 3693,
  "\u2581egisukk": 3694,
  "quite": 3695,
  "\u2581Brazil": 3696,
  "\u2581box": 3697,
  "\u2581describes": 3698,
  "\u2581discern": 3699,
  "\u2581emyezi": 3700,
  "\u2581endwadde": 3701,
  "\u2581finally": 3702,
  "\u2581goes": 3703,
  "\u2581kutuukirizibwa": 3704,
  "\u2581langi": 3705,
  "\u2581thank": 3706,
  "\u2581verses": 3707,
  "\u2581younger": 3708,
  "Ekigambo": 3709,
  "okuzuukira": 3710,
  "\u2581Bulaaya": 3711,
  "\u2581Ffenna": 3712,
  "\u2581Omubuulizi": 3713,
  "\u2581Under": 3714,
  "\u2581afraid": 3715,
  "\u2581applying": 3716,
  "\u2581ebisaanyizo": 3717,
  "\u2581esobola": 3718,
  "\u2581gyange": 3719,
  "\u2581instruction": 3720,
  "\u2581okwefuga": 3721,
  "\u2581rulership": 3722,
  "\u2581tender": 3723,
  "Ebyawandiikibwa": 3724,
  "nda": 3725,
  "\u2581Bugirimaani": 3726,
  "\u2581COVER": 3727,
  "\u2581Christendom": 3728,
  "\u2581mmere": 3729,
  "\u2581nedda": 3730,
  "\u2581okubeerawo": 3731,
  "\u2581ruler": 3732,
  "\u2581visited": 3733,
  "What": 3734,
  "teeka": 3735,
  "vaamu": 3736,
  "\u2581Deuteronomy": 3737,
  "\u2581Israelite": 3738,
  "\u2581Mwana": 3739,
  "\u2581Nn": 3740,
  "\u2581amakubo": 3741,
  "\u2581bwetaavu": 3742,
  "\u2581connection": 3743,
  "\u2581constantly": 3744,
  "\u2581obuggya": 3745,
  "\u2581omuvubuka": 3746,
  "\u2581tebaagala": 3747,
  "\u2581tulaga": 3748,
  "\u2581worth": 3749,
  "My": 3750,
  "\u2581Ecclesiastes": 3751,
  "\u2581Hav": 3752,
  "\u2581Kristendomu": 3753,
  "\u2581alaga": 3754,
  "\u2581babadde": 3755,
  "\u2581grasp": 3756,
  "\u2581honest": 3757,
  "\u2581kuva": 3758,
  "\u2581mature": 3759,
  "\u2581requirements": 3760,
  "\u2581reveals": 3761,
  "\u2581sex": 3762,
  "\u2581views": 3763,
  "\u2581weema": 3764,
  "\u2581willingly": 3765,
  "\u25815]": 3766,
  "\u2581Ekyamateeka": 3767,
  "\u2581Internet": 3768,
  "\u2581Likewise": 3769,
  "\u2581Messianic": 3770,
  "\u2581banaa": 3771,
  "\u2581kutuuka": 3772,
  "\u2581okugonjoola": 3773,
  "bwe": 3774,
  "okuyamba": 3775,
  "\u258127,": 3776,
  "\u2581Kub": 3777,
  "\u2581boolekagana": 3778,
  "\u2581cut": 3779,
  "\u2581involve": 3780,
  "\u2581kyeyagalire": 3781,
  "\u2581mawulire": 3782,
  "\u2581okukolebwa": 3783,
  "\u2581omwaka": 3784,
  "\u2581scriptures": 3785,
  "\u2581tanna": 3786,
  "ekigambo": 3787,
  "va": 3788,
  "\u2581Aaron": 3789,
  "\u2581Abayisirayiri": 3790,
  "\u2581Armageddon": 3791,
  "\u2581bombi": 3792,
  "\u2581commission": 3793,
  "\u2581decide": 3794,
  "\u2581eternal": 3795,
  "\u2581expected": 3796,
  "\u2581joyful": 3797,
  "\u2581kiyamba": 3798,
  "\u2581mulungi": 3799,
  "\u2581program": 3800,
  "\u2581room": 3801,
  "\u2581translation": 3802,
  "\u2581tusiima": 3803,
  "\u2581type": 3804,
  "ama": 3805,
  "beetaagisa": 3806,
  "\u2581Mexico": 3807,
  "\u2581balamu": 3808,
  "\u2581basalawo": 3809,
  "\u2581eating": 3810,
  "\u2581hurt": 3811,
  "\u2581lyabwe": 3812,
  "\u2581mikisa": 3813,
  "\u2581obusaasizi": 3814,
  "\u2581occur": 3815,
  "\u2581road": 3816,
  "\u2581setting": 3817,
  "akatono": 3818,
  "kuuma": 3819,
  "ye": 3820,
  "\u2581Nnabbi": 3821,
  "\u2581business": 3822,
  "\u2581lwabwe": 3823,
  "\u2581mpulira": 3824,
  "\u2581munda": 3825,
  "\u2581okweraliikirira": 3826,
  "\u2581primary": 3827,
  "\u2581spirituality": 3828,
  "\u2581telling": 3829,
  "Okusoma": 3830,
  "abatalina": 3831,
  "okuwa": 3832,
  "okwogera": 3833,
  "\u258110]": 3834,
  "\u2581Abasajja": 3835,
  "\u2581appeared": 3836,
  "\u2581bannamukadde": 3837,
  "\u2581decades": 3838,
  "\u2581discussion": 3839,
  "\u2581front": 3840,
  "\u2581kukikola": 3841,
  "\u2581weak": 3842,
  "\u2581wickedness": 3843,
  "abayigirizwa": 3844,
  "ekyavaamu": 3845,
  "mong": 3846,
  "ni": 3847,
  "\u2581Galatians": 3848,
  "\u2581batandika": 3849,
  "\u2581cares": 3850,
  "\u2581dealing": 3851,
  "\u2581developed": 3852,
  "\u2581garden": 3853,
  "\u2581magazine": 3854,
  "\u2581major": 3855,
  "\u2581okweyisa": 3856,
  "\u2581omukono": 3857,
  "\u2581omuliro": 3858,
  "\u2581speaks": 3859,
  "\u2581wedding": 3860,
  "ey": 3861,
  "eya": 3862,
  "ke": 3863,
  "\u2581akafaananyi": 3864,
  "\u2581bakazi": 3865,
  "\u2581entalo": 3866,
  "\u2581entered": 3867,
  "\u2581inheritance": 3868,
  "\u2581kabona": 3869,
  "\u2581makya": 3870,
  "\u2581refer": 3871,
  "\u2581yajja": 3872,
  "D": 3873,
  "one": 3874,
  "\u258143": 3875,
  "\u2581Lusozi": 3876,
  "\u2581Two": 3877,
  "\u2581considering": 3878,
  "\u2581entuufu": 3879,
  "\u2581instructions": 3880,
  "\u2581kirabo": 3881,
  "\u2581kiro": 3882,
  "\u2581lyali": 3883,
  "\u2581powers": 3884,
  "\u2581wish": 3885,
  "\u2581yasobola": 3886,
  "Nze": 3887,
  "afuna": 3888,
  "ekinunulo": 3889,
  "kola": 3890,
  "kutu": 3891,
  "\u2581Abaggalatiya": 3892,
  "\u2581baagamba": 3893,
  "\u2581bakolera": 3894,
  "\u2581daughters": 3895,
  "\u2581kindly": 3896,
  "\u2581kituleetera": 3897,
  "\u2581okukolagana": 3898,
  "\u2581parable": 3899,
  "\u2581refuge": 3900,
  "\u2581yamuwa": 3901,
  "Keep": 3902,
  "\u2581Taata": 3903,
  "\u2581Trac": 3904,
  "\u2581abalamu": 3905,
  "\u2581dangerous": 3906,
  "\u2581fearing": 3907,
  "\u2581kigenda": 3908,
  "\u2581okusonyiwa": 3909,
  "\u2581superior": 3910,
  "\u2581values": 3911,
  "Jesus": 3912,
  "P": 3913,
  "ract": 3914,
  "\u25817]": 3915,
  "\u2581Children": 3916,
  "\u2581Gilead": 3917,
  "\u2581Promised": 3918,
  "\u2581Rev": 3919,
  "\u2581Whe": 3920,
  "\u2581abawombeefu": 3921,
  "\u2581byafaayo": 3922,
  "\u2581missionaries": 3923,
  "L": 3924,
  "amala": 3925,
  "osoma": 3926,
  "\u2581Eden": 3927,
  "\u2581Pentecost": 3928,
  "\u2581agamu": 3929,
  "\u2581ayogerwako": 3930,
  "\u2581beneficial": 3931,
  "\u2581declare": 3932,
  "\u2581okuku": 3933,
  "\u2581treasure": 3934,
  "\u2581waali": 3935,
  "\u258130,": 3936,
  "\u258139": 3937,
  "\u2581basinza": 3938,
  "\u2581challenging": 3939,
  "\u2581dear": 3940,
  "\u2581difference": 3941,
  "\u2581enjala": 3942,
  "\u2581factors": 3943,
  "\u2581faithfulness": 3944,
  "\u2581gods": 3945,
  "\u2581kubuulirira": 3946,
  "\u2581obulumi": 3947,
  "\u2581okwetegereza": 3948,
  "\u2581separate": 3949,
  "\u2581seriously": 3950,
  "\u2581sword": 3951,
  "\u2581tears": 3952,
  "mi": 3953,
  "\u2581abatuukirivu": 3954,
  "\u2581abeetoowaze": 3955,
  "\u2581arise": 3956,
  "\u2581await": 3957,
  "\u2581cities": 3958,
  "\u2581gratitude": 3959,
  "\u2581obwannamunigina": 3960,
  "\u2581process": 3961,
  "\u2581recognized": 3962,
  "\u2581tajja": 3963,
  "\u2581united": 3964,
  "ddwa": 3965,
  "fugibwa": 3966,
  "gambibwa": 3967,
  "sooka": 3968,
  "\u2581Christianity": 3969,
  "\u2581Empya": 3970,
  "\u2581Ssema": 3971,
  "\u2581akyali": 3972,
  "\u2581ark": 3973,
  "\u2581big": 3974,
  "\u2581courageous": 3975,
  "\u2581differ": 3976,
  "\u2581ennyimba": 3977,
  "\u2581okuyigira": 3978,
  "as": 3979,
  "olunaku": 3980,
  "ssa": 3981,
  "\u2581Zechariah": 3982,
  "\u2581Zekkaliya": 3983,
  "\u2581associated": 3984,
  "\u2581baabanga": 3985,
  "\u2581believed": 3986,
  "\u2581ebitonde": 3987,
  "\u2581firimu": 3988,
  "\u2581gyali": 3989,
  "\u2581illness": 3990,
  "\u2581mighty": 3991,
  "\u2581muganyulo": 3992,
  "\u2581neighbors": 3993,
  "\u2581pleased": 3994,
  "\u2581rebellion": 3995,
  "\u2581tukolera": 3996,
  "\u258144.": 3997,
  "\u2581Alooni": 3998,
  "\u2581abakaddiye": 3999,
  "\u2581deliverance": 4000,
  "\u2581focused": 4001,
  "\u2581names": 4002,
  "\u2581studied": 4003,
  "\u2581yes": 4004,
  "Amateeka": 4005,
  "asaba": 4006,
  "gwa": 4007,
  "ibuuzo": 4008,
  "okuweereza": 4009,
  "\u2581Bonna": 4010,
  "\u2581Catholic": 4011,
  "\u2581Second": 4012,
  "\u2581Sovereign": 4013,
  "\u2581Work": 4014,
  "\u2581bagoberera": 4015,
  "\u2581determine": 4016,
  "\u2581kaakano": 4017,
  "\u2581mistakes": 4018,
  "\u2581mountain": 4019,
  "\u2581shepherds": 4020,
  "\u2581survive": 4021,
  "\u2581talking": 4022,
  "\u2581yalagula": 4023,
  "0": 4024,
  "G": 4025,
  "era": 4026,
  "okulwanyisa": 4027,
  "\u2581bakyali": 4028,
  "\u2581delivered": 4029,
  "\u2581injustice": 4030,
  "\u2581muba": 4031,
  "\u2581muti": 4032,
  "\u2581okutuukirira": 4033,
  "\u2581placed": 4034,
  "\u2581social": 4035,
  "\u2581ssatu": 4036,
  "\u2581twetegereze": 4037,
  "\u2581yokka": 4038,
  "All": 4039,
  "abuulira": 4040,
  "day": 4041,
  "\u2581Ekimu": 4042,
  "\u2581Enoka": 4043,
  "\u2581Once": 4044,
  "\u2581Parents": 4045,
  "\u2581baasalawo": 4046,
  "\u2581kwolesebwa": 4047,
  "\u2581lino": 4048,
  "\u2581listened": 4049,
  "\u2581mutwe": 4050,
  "\u2581okunywa": 4051,
  "\u2581osobole": 4052,
  "Look": 4053,
  "ensolo": 4054,
  "is": 4055,
  "kuleetera": 4056,
  "nnyambye": 4057,
  "tuuka": 4058,
  "zzaawo": 4059,
  "\u258149": 4060,
  "\u2581Am": 4061,
  "\u2581Ndi": 4062,
  "\u2581authorities": 4063,
  "\u2581bikulu": 4064,
  "\u2581emirungi": 4065,
  "\u2581escape": 4066,
  "\u2581fell": 4067,
  "\u2581gathered": 4068,
  "\u2581makubo": 4069,
  "\u2581providing": 4070,
  "\u2581treated": 4071,
  "Olowooza": 4072,
  "obugumiikiriza": 4073,
  "\u2581Omukyala": 4074,
  "\u2581assistance": 4075,
  "\u2581committed": 4076,
  "\u2581ezaali": 4077,
  "\u2581ezikwata": 4078,
  "\u2581facts": 4079,
  "\u2581mbaga": 4080,
  "\u2581motivate": 4081,
  "\u2581okwolekagana": 4082,
  "\u2581omuwala": 4083,
  "\u2581performed": 4084,
  "\u2581provision": 4085,
  "\u2581society": 4086,
  "\u2581wealth": 4087,
  "Omwoyo": 4088,
  "ef": 4089,
  "omusaayi": 4090,
  "\u2581Kaabakuuku": 4091,
  "\u2581USED": 4092,
  "\u2581batono": 4093,
  "\u2581bayigirizwa": 4094,
  "\u2581comforting": 4095,
  "\u2581drinking": 4096,
  "\u2581enneewulira": 4097,
  "\u2581feels": 4098,
  "\u2581gali": 4099,
  "\u2581granted": 4100,
  "\u2581km": 4101,
  "\u2581lujjudde": 4102,
  "\u2581lyange": 4103,
  "\u2581nno": 4104,
  "\u2581obwesigwa": 4105,
  "\u2581reports": 4106,
  "\u2581selfish": 4107,
  "\u2581wilderness": 4108,
  "akiraga": 4109,
  "amalala": 4110,
  "bagoberezi": 4111,
  "lunyiriri": 4112,
  "ru": 4113,
  "siima": 4114,
  "wagira": 4115,
  "\u2581EBI": 4116,
  "\u2581EZINAA": 4117,
  "\u2581Exodus": 4118,
  "\u2581Kalumagedoni": 4119,
  "\u2581Ma": 4120,
  "\u2581ama": 4121,
  "\u2581buwanguzi": 4122,
  "\u2581cover": 4123,
  "\u2581freely": 4124,
  "\u2581lay": 4125,
  "\u2581lwali": 4126,
  "\u2581mumalirivu": 4127,
  "\u2581ruling": 4128,
  "Eyigiriza": 4129,
  "To": 4130,
  "\u25812000": 4131,
  "\u258139.": 4132,
  "\u2581Cain": 4133,
  "\u2581aid": 4134,
  "\u2581appearance": 4135,
  "\u2581discouraged": 4136,
  "\u2581gone": 4137,
  "\u2581normal": 4138,
  "\u2581okukulembeza": 4139,
  "\u2581opposers": 4140,
  "\u2581strengthening": 4141,
  "\u2581tetw": 4142,
  "\u2581yateekawo": 4143,
  "akyali": 4144,
  "di": 4145,
  "ebi": 4146,
  "ekibuga": 4147,
  "obuta": 4148,
  "\u258117]": 4149,
  "\u2581Ensuubize": 4150,
  "\u2581abajja": 4151,
  "\u2581chief": 4152,
  "\u2581corrupt": 4153,
  "\u2581egya": 4154,
  "\u2581ensigo": 4155,
  "\u2581handle": 4156,
  "\u2581katonda": 4157,
  "\u2581mwezi": 4158,
  "\u2581paragraph": 4159,
  "\u2581remains": 4160,
  "\u2581reminders": 4161,
  "\u2581struggle": 4162,
  "\u2581temu": 4163,
  "\u2581\u014b\u014benda": 4164,
  "great": 4165,
  "me": 4166,
  "mwetaagisa": 4167,
  "okugenda": 4168,
  "okukozesa": 4169,
  "\u2581Enoch": 4170,
  "\u2581Habakkuk": 4171,
  "\u2581Sad": 4172,
  "\u2581aboogerwako": 4173,
  "\u2581details": 4174,
  "\u2581ekisinga": 4175,
  "\u2581indicates": 4176,
  "\u2581mayiro": 4177,
  "\u2581ntya": 4178,
  "\u2581yennyini": 4179,
  "\u258134,": 4180,
  "\u2581Abasessaloniika": 4181,
  "\u2581Ekigendererwa": 4182,
  "\u2581Intaneeti": 4183,
  "\u2581ddembe": 4184,
  "\u2581gyo": 4185,
  "\u2581inhabitants": 4186,
  "\u2581nn": 4187,
  "\u2581obulokozi": 4188,
  "\u2581obumanyirivu": 4189,
  "\u2581okutuufu": 4190,
  "\u2581reached": 4191,
  "\u2581represent": 4192,
  "\u2581shared": 4193,
  "eba": 4194,
  "ive": 4195,
  "\u2581Amos": 4196,
  "\u2581Beera": 4197,
  "\u2581akabonero": 4198,
  "\u2581bakiggala": 4199,
  "\u2581buddu": 4200,
  "\u2581concerns": 4201,
  "\u2581conventions": 4202,
  "\u2581erina": 4203,
  "\u2581forces": 4204,
  "\u2581okulongoosa": 4205,
  "\u2581rely": 4206,
  "\u2581remarkable": 4207,
  "\u2581reminded": 4208,
  "\u2581story": 4209,
  "There": 4210,
  "eggye": 4211,
  "he": 4212,
  "\u2581Ebikwata": 4213,
  "\u2581Erinnya": 4214,
  "\u2581Kayini": 4215,
  "\u2581accomplished": 4216,
  "\u2581easier": 4217,
  "\u2581grief": 4218,
  "\u2581growing": 4219,
  "\u2581nnimiro": 4220,
  "\u2581okulwanyisa": 4221,
  "\u2581okuzikiriza": 4222,
  "\u2581olugendo": 4223,
  "\u2581perform": 4224,
  "\u2581quoted": 4225,
  "\u2581secret": 4226,
  "\u2581stick": 4227,
  "U": 4228,
  "weebwa": 4229,
  "\u2581Germany": 4230,
  "\u2581Ssomero": 4231,
  "\u2581WHAT": 4232,
  "\u2581assurance": 4233,
  "\u2581cry": 4234,
  "\u2581invisible": 4235,
  "\u2581obusingako": 4236,
  "\u2581okusiimibwa": 4237,
  "\u2581publication": 4238,
  "ennyumba": 4239,
  "gu": 4240,
  "osobola": 4241,
  "\u258138.": 4242,
  "\u2581Keezeekiya": 4243,
  "\u2581amadiini": 4244,
  "\u2581awake": 4245,
  "\u2581eager": 4246,
  "\u2581illustrations": 4247,
  "\u2581kiwanvu": 4248,
  "\u2581kuyigiriza": 4249,
  "\u2581occurred": 4250,
  "\u2581okutendeka": 4251,
  "\u2581okutunuulira": 4252,
  "\u2581okutuukira": 4253,
  "\u2581persecuted": 4254,
  "\u2581song": 4255,
  "\u2581thousand": 4256,
  "\u2581tuwulira": 4257,
  "\u2581viewpoint": 4258,
  "\u2581weeks": 4259,
  "baako": 4260,
  "\u258131,": 4261,
  "\u258166": 4262,
  "\u2581Finally": 4263,
  "\u2581Here": 4264,
  "\u2581Russell": 4265,
  "\u2581describe": 4266,
  "\u2581exist": 4267,
  "\u2581letters": 4268,
  "\u2581obulala": 4269,
  "\u2581okuvaamu": 4270,
  "\u2581reaction": 4271,
  "bwa": 4272,
  "ro": 4273,
  "\u258180": 4274,
  "\u2581Akasanduuko": 4275,
  "\u2581Amosi": 4276,
  "\u2581Has": 4277,
  "\u2581Na": 4278,
  "\u2581Omukulu": 4279,
  "\u2581Students": 4280,
  "\u2581allows": 4281,
  "\u2581basajja": 4282,
  "\u2581butereevu": 4283,
  "\u2581etali": 4284,
  "\u2581extend": 4285,
  "\u2581nneewulira": 4286,
  "\u2581occasions": 4287,
  "\u2581okukuba": 4288,
  "\u2581okunnyonnyola": 4289,
  "\u2581qualified": 4290,
  "\u2581tuweereza": 4291,
  "\u2581wammanga": 4292,
  "\u2581writing": 4293,
  "ought": 4294,
  "\u2581Erisa": 4295,
  "\u2581Isa": 4296,
  "\u2581Never": 4297,
  "\u2581abanyiikivu": 4298,
  "\u2581belong": 4299,
  "\u2581car": 4300,
  "\u2581description": 4301,
  "\u2581ebiba": 4302,
  "\u2581figurative": 4303,
  "\u2581grown": 4304,
  "\u2581kibuuzo": 4305,
  "\u2581lugamba": 4306,
  "\u2581stake": 4307,
  "\u2581throne": 4308,
  "Obuweereza": 4309,
  "andyagadde": 4310,
  "emi": 4311,
  "fu": 4312,
  "okulowooza": 4313,
  "\u2581Bino": 4314,
  "\u2581Book": 4315,
  "\u2581Him": 4316,
  "\u2581Martha": 4317,
  "\u2581adultery": 4318,
  "\u2581calling": 4319,
  "\u2581emirala": 4320,
  "\u2581ennimi": 4321,
  "\u2581impressed": 4322,
  "\u2581ndagaano": 4323,
  "enkumi": 4324,
  "ge": 4325,
  "mala": 4326,
  "obukulu": 4327,
  "sanyusa": 4328,
  "\u25819]": 4329,
  "\u2581Hezekiah": 4330,
  "\u2581Look": 4331,
  "\u2581carrying": 4332,
  "\u2581compared": 4333,
  "\u2581critical": 4334,
  "\u2581egiyise": 4335,
  "\u2581exert": 4336,
  "\u2581glorious": 4337,
  "\u2581habits": 4338,
  "\u2581ntono": 4339,
  "\u2581okuwangula": 4340,
  "\u2581reference": 4341,
  "\u2581touched": 4342,
  "\u2581worshipers": 4343,
  "\u2581yalabula": 4344,
  "leka": 4345,
  "ndi": 4346,
  "zza": 4347,
  "\u2581Both": 4348,
  "\u2581Ebizibu": 4349,
  "\u2581Ensibuko": 4350,
  "\u2581Worship": 4351,
  "\u2581abaafa": 4352,
  "\u2581abangi": 4353,
  "\u2581abasinza": 4354,
  "\u2581booleka": 4355,
  "\u2581company": 4356,
  "\u2581ebirabo": 4357,
  "\u2581mbi": 4358,
  "\u2581preced": 4359,
  "\u2581probab": 4360,
  "\u2581remaining": 4361,
  "\u2581sinners": 4362,
  "\u2581tetutuukiridde": 4363,
  "\u2581witnesses": 4364,
  "Oyo": 4365,
  "abagamba": 4366,
  "ion": 4367,
  "okusinga": 4368,
  "\u2581Abel": 4369,
  "\u2581Eno": 4370,
  "\u2581Uganda": 4371,
  "\u2581blind": 4372,
  "\u2581brief": 4373,
  "\u2581conflict": 4374,
  "\u2581designed": 4375,
  "\u2581ebibiri": 4376,
  "\u2581eggye": 4377,
  "\u2581ekirina": 4378,
  "\u2581emotions": 4379,
  "\u2581god": 4380,
  "\u2581okuddayo": 4381,
  "\u2581sought": 4382,
  "8": 4383,
  "baafukibwako": 4384,
  "ebibi": 4385,
  "mba": 4386,
  "\u2581Kitegeez": 4387,
  "\u2581atu": 4388,
  "\u2581demonstrated": 4389,
  "\u2581ebifo": 4390,
  "\u2581fleshly": 4391,
  "\u2581global": 4392,
  "\u2581kituyigiriza": 4393,
  "\u2581kutuwa": 4394,
  "\u2581okuzikirizibwa": 4395,
  "\u2581okuzuukira": 4396,
  "\u2581supported": 4397,
  "\u2581ttaka": 4398,
  "\u2581tulimu": 4399,
  "\u2581walked": 4400,
  "Box": 4401,
  "ennimiro": 4402,
  "kubiriza": 4403,
  "omuwandiisi": 4404,
  "\u2581Ggwe": 4405,
  "\u2581Pharisees": 4406,
  "\u2581STUDY": 4407,
  "\u2581Show": 4408,
  "\u2581Surely": 4409,
  "\u2581abasatu": 4410,
  "\u2581appreciated": 4411,
  "\u2581bwereere": 4412,
  "\u2581chapters": 4413,
  "\u2581communicate": 4414,
  "\u2581count": 4415,
  "\u2581ebiva": 4416,
  "\u2581omukolo": 4417,
  "\u2581ssaala": 4418,
  "ebirala": 4419,
  "teerawo": 4420,
  "teranga": 4421,
  "\u258190": 4422,
  "\u2581Bayudaaya": 4423,
  "\u2581abaddu": 4424,
  "\u2581background": 4425,
  "\u2581bazzukulu": 4426,
  "\u2581descendants": 4427,
  "\u2581formed": 4428,
  "\u2581ideas": 4429,
  "\u2581kyawandiikibwa": 4430,
  "\u2581okutta": 4431,
  "\u2581okuvvuunuka": 4432,
  "\u2581satisfying": 4433,
  "\u2581writer": 4434,
  "pad": 4435,
  "tukubiriza": 4436,
  "\u2581abundance": 4437,
  "\u2581agaali": 4438,
  "\u2581baddamu": 4439,
  "\u2581begotten": 4440,
  "\u2581bubaka": 4441,
  "\u2581choices": 4442,
  "\u2581ebis": 4443,
  "\u2581kwoleka": 4444,
  "\u2581leads": 4445,
  "\u2581obutaggwawo": 4446,
  "\u2581pleas": 4447,
  "\u2581proud": 4448,
  "\u2581reflected": 4449,
  "\u2581render": 4450,
  "\u2581rise": 4451,
  "\u2581slow": 4452,
  "\u2581tribe": 4453,
  "\u2581wide": 4454,
  "\u2581worthy": 4455,
  "Bw": 4456,
  "aka": 4457,
  "ennyanja": 4458,
  "\u25811914.": 4459,
  "\u2581Other": 4460,
  "\u2581acknowledge": 4461,
  "\u2581address": 4462,
  "\u2581appears": 4463,
  "\u2581asiima": 4464,
  "\u2581behavior": 4465,
  "\u2581egisinga": 4466,
  "\u2581ekisooka": 4467,
  "\u2581eriwo": 4468,
  "\u2581kigero": 4469,
  "\u2581marry": 4470,
  "\u2581okubawa": 4471,
  "\u2581pursuing": 4472,
  "\u2581yalonda": 4473,
  "ekiro": 4474,
  "ekisinga": 4475,
  "maze": 4476,
  "olubeerera": 4477,
  "olunyiriri": 4478,
  "\u2581Flood": 4479,
  "\u2581Malaki": 4480,
  "\u2581YOU": 4481,
  "\u2581admonition": 4482,
  "\u2581atwala": 4483,
  "\u2581ebyasa": 4484,
  "\u2581governments": 4485,
  "\u2581indefinite": 4486,
  "\u2581kabonero": 4487,
  "\u2581mild": 4488,
  "\u2581moving": 4489,
  "\u2581obudde": 4490,
  "\u2581path": 4491,
  "\u2581produced": 4492,
  "\u2581sang": 4493,
  "\u2581sleep": 4494,
  "\u2581theocratic": 4495,
  "akoze": 4496,
  "emmere": 4497,
  "gamba": 4498,
  "okufumiitiriza": 4499,
  "su": 4500,
  "teekateeka": 4501,
  "\u2581Go": 4502,
  "\u2581Kings": 4503,
  "\u2581Malachi": 4504,
  "\u2581Source": 4505,
  "\u2581abalungi": 4506,
  "\u2581court": 4507,
  "\u2581environment": 4508,
  "\u2581inner": 4509,
  "\u2581leaving": 4510,
  "\u2581okug": 4511,
  "\u2581okukiraga": 4512,
  "\u2581okutereeza": 4513,
  "\u2581omusanvu": 4514,
  "\u2581reasoning": 4515,
  "\u2581significant": 4516,
  "\u2581violent": 4517,
  "Obufuzi": 4518,
  "muleetera": 4519,
  "okutuusa": 4520,
  "zikiriza": 4521,
  "\u2581Elisha": 4522,
  "\u2581Ministry": 4523,
  "\u2581Thessalonians": 4524,
  "\u2581abagenyi": 4525,
  "\u2581balaga": 4526,
  "\u2581conviction": 4527,
  "\u2581enjawulo": 4528,
  "\u2581ewala": 4529,
  "\u2581hatred": 4530,
  "\u2581kompyuta": 4531,
  "\u2581kyogera": 4532,
  "\u2581review": 4533,
  "\u2581sinned": 4534,
  "\u2581vast": 4535,
  "\u2581yatuwa": 4536,
  "For": 4537,
  "ebika": 4538,
  "kka": 4539,
  "okwegomba": 4540,
  "\u2581attempt": 4541,
  "\u2581divorce": 4542,
  "\u2581exactly": 4543,
  "\u2581gold": 4544,
  "\u2581kikumi": 4545,
  "\u2581luli": 4546,
  "\u2581meaningful": 4547,
  "\u2581okutendereza": 4548,
  "\u2581omwagalwa": 4549,
  "\u2581pointed": 4550,
  "\u2581repentant": 4551,
  "\u2581secure": 4552,
  "\u2581serves": 4553,
  "\u2581stopped": 4554,
  "\u2581tufumiitiriza": 4555,
  "\u2581tukimanyi": 4556,
  "\u2581weetaaga": 4557,
  "\u2581yabawa": 4558,
  "\u2581yatuuka": 4559,
  "gabo": 4560,
  "obufumbo": 4561,
  "\u2581Sea": 4562,
  "\u2581acting": 4563,
  "\u2581appeal": 4564,
  "\u2581buba": 4565,
  "\u2581directly": 4566,
  "\u2581eggulu": 4567,
  "\u2581endured": 4568,
  "\u2581humbly": 4569,
  "\u2581kkono": 4570,
  "\u2581listeners": 4571,
  "\u2581merciful": 4572,
  "\u2581muddu": 4573,
  "\u2581organized": 4574,
  "\u2581sake": 4575,
  "\u2581yagaana": 4576,
  "eki": 4577,
  "\u258146": 4578,
  "\u2581Abayizi": 4579,
  "\u2581Name": 4580,
  "\u2581abawulize": 4581,
  "\u2581abundant": 4582,
  "\u2581bba": 4583,
  "\u2581ebisuubizo": 4584,
  "\u2581forms": 4585,
  "\u2581moment": 4586,
  "\u2581reaching": 4587,
  "\u2581risk": 4588,
  "Enjiri": 4589,
  "akolawo": 4590,
  "amakulu": 4591,
  "ayigiriza": 4592,
  "omukadde": 4593,
  "sinza": 4594,
  "\u258153": 4595,
  "\u2581Brooklyn": 4596,
  "\u2581Kituufu": 4597,
  "\u2581approached": 4598,
  "\u2581buwambe": 4599,
  "\u2581couples": 4600,
  "\u2581generation": 4601,
  "\u2581ill": 4602,
  "\u2581medical": 4603,
  "\u2581ntebe": 4604,
  "\u2581okukkiririza": 4605,
  "\u2581okutuukirizibwa": 4606,
  "\u2581recall": 4607,
  "\u2581run": 4608,
  "\u2581severe": 4609,
  "\u2581teb": 4610,
  "\u2581trouble": 4611,
  "\u2581zange": 4612,
  "\u258137.": 4613,
  "\u2581JEHOVAH": 4614,
  "\u2581abalwadde": 4615,
  "\u2581bafunye": 4616,
  "\u2581banno": 4617,
  "\u2581basaba": 4618,
  "\u2581belongs": 4619,
  "\u2581effects": 4620,
  "\u2581lovingly": 4621,
  "\u2581marvelous": 4622,
  "\u2581okugi": 4623,
  "\u2581okwesomesa": 4624,
  "\u2581treatment": 4625,
  "aweebwa": 4626,
  "fuuse": 4627,
  "obeera": 4628,
  "obutategeeragana": 4629,
  "tuleetedde": 4630,
  "ty": 4631,
  "\u00fc": 4632,
  "\u2581Almighty": 4633,
  "\u2581Ojjukira": 4634,
  "\u2581abandon": 4635,
  "\u2581akkiriza": 4636,
  "\u2581anxious": 4637,
  "\u2581bafumbo": 4638,
  "\u2581bakyewaggula": 4639,
  "\u2581highly": 4640,
  "\u2581kaseera": 4641,
  "\u2581kiyitawo": 4642,
  "\u2581mention": 4643,
  "\u2581military": 4644,
  "\u2581moves": 4645,
  "\u2581mukutu": 4646,
  "\u2581okunoonyereza": 4647,
  "\u2581patiently": 4648,
  "\u2581peaceful": 4649,
  "\u2581rendered": 4650,
  "\u2581require": 4651,
  "fuga": 4652,
  "kikolwa": 4653,
  "okunywa": 4654,
  "olowooza": 4655,
  "\u2581Amazima": 4656,
  "\u2581Kijjukire": 4657,
  "\u2581ban": 4658,
  "\u2581dignity": 4659,
  "\u2581enkola": 4660,
  "\u2581financial": 4661,
  "\u2581firmly": 4662,
  "\u2581inhabited": 4663,
  "\u2581lying": 4664,
  "\u2581media": 4665,
  "\u2581okunywera": 4666,
  "\u2581tebu": 4667,
  "\u2581yawaayo": 4668,
  "abawa": 4669,
  "ekitabo": 4670,
  "eraageranyizibwa": 4671,
  "twale": 4672,
  "\u2581Maliza": 4673,
  "\u2581Readers": 4674,
  "\u2581attendance": 4675,
  "\u2581busobozi": 4676,
  "\u2581disease": 4677,
  "\u2581exercising": 4678,
  "\u2581forgiving": 4679,
  "\u2581kirimu": 4680,
  "\u2581lowly": 4681,
  "\u2581motivated": 4682,
  "\u2581nkumi": 4683,
  "\u2581obutonde": 4684,
  "\u2581okuttibwa": 4685,
  "\u2581okwemalira": 4686,
  "\u2581refuse": 4687,
  "\u2581spouse": 4688,
  "\u2581worse": 4689,
  "Abaleevi": 4690,
  "Okuyitako": 4691,
  "bisuubizo": 4692,
  "byokulabirako": 4693,
  "ch": 4694,
  "it": 4695,
  "ous": 4696,
  "\u258126]": 4697,
  "\u2581Adeni": 4698,
  "\u2581Answered": 4699,
  "\u2581Koseya": 4700,
  "\u2581Notice": 4701,
  "\u2581Version": 4702,
  "\u2581abaalina": 4703,
  "\u2581alowooza": 4704,
  "\u2581arrangements": 4705,
  "\u2581bisatu": 4706,
  "\u2581bukulu": 4707,
  "\u2581contain": 4708,
  "\u2581displayed": 4709,
  "\u2581dwelling": 4710,
  "\u2581journey": 4711,
  "\u2581ministers": 4712,
  "\u2581nsobola": 4713,
  "\u2581physically": 4714,
  "\u2581tezi": 4715,
  "\u2581upright": 4716,
  "\u2581yasigala": 4717,
  "at": 4718,
  "da": 4719,
  "obu": 4720,
  "\u2581Efeso": 4721,
  "\u2581France": 4722,
  "\u2581abaavu": 4723,
  "\u2581aboogera": 4724,
  "\u2581bawala": 4725,
  "\u2581facing": 4726,
  "\u2581konna": 4727,
  "\u2581nja": 4728,
  "\u2581okutwalira": 4729,
  "\u2581relations": 4730,
  "\u2581successfully": 4731,
  "\u2581temporary": 4732,
  "f": 4733,
  "nywerera": 4734,
  "okwesalirawo": 4735,
  "\u258136.": 4736,
  "\u2581Akakiik": 4737,
  "\u2581Ekisooka": 4738,
  "\u2581advance": 4739,
  "\u2581animal": 4740,
  "\u2581apart": 4741,
  "\u2581bayiga": 4742,
  "\u2581brotherhood": 4743,
  "\u2581causes": 4744,
  "\u2581ebyogerwako": 4745,
  "\u2581eyagamba": 4746,
  "\u2581kill": 4747,
  "\u2581kwerabira": 4748,
  "\u2581kyandi": 4749,
  "\u2581nnyanja": 4750,
  "\u2581obwali": 4751,
  "\u2581omulamu": 4752,
  "\u2581repentance": 4753,
  "\u2581union": 4754,
  "R": 4755,
  "de": 4756,
  "lulyo": 4757,
  "ndeetera": 4758,
  "\u258116]": 4759,
  "\u258140.": 4760,
  "\u2581Man": 4761,
  "\u2581bava": 4762,
  "\u2581bayizi": 4763,
  "\u2581ekiruubirirwa": 4764,
  "\u2581ensolo": 4765,
  "\u2581kifaananyi": 4766,
  "\u2581modest": 4767,
  "awulira": 4768,
  "eko": 4769,
  "onoo": 4770,
  "\u2581145": 4771,
  "\u2581Ekinene": 4772,
  "\u2581Passover": 4773,
  "\u2581benefited": 4774,
  "\u2581embaga": 4775,
  "\u2581emmotoka": 4776,
  "\u2581kuwulira": 4777,
  "\u2581methods": 4778,
  "\u2581none": 4779,
  "\u2581oguli": 4780,
  "\u2581rulers": 4781,
  "\u2581stress": 4782,
  "\u2581task": 4783,
  "\u2581tebamanyi": 4784,
  "\u2581unclean": 4785,
  ">": 4786,
  "amuwa": 4787,
  "azadde": 4788,
  "ce": 4789,
  "keep": 4790,
  "manyiddwa": 4791,
  "will": 4792,
  "\u2581Bufalansa": 4793,
  "\u2581dwell": 4794,
  "\u2581exists": 4795,
  "\u2581influenced": 4796,
  "\u2581shed": 4797,
  "\u2581tempted": 4798,
  "\u2581yava": 4799,
  "eyigiriza": 4800,
  "omusango": 4801,
  "tendeka": 4802,
  "\u25816]": 4803,
  "\u2581alcohol": 4804,
  "\u2581extreme": 4805,
  "\u2581liri": 4806,
  "\u2581obtain": 4807,
  "\u2581recreation": 4808,
  "\u2581research": 4809,
  "\u2581sit": 4810,
  "\u2581turning": 4811,
  "Endagaano": 4812,
  "katabo": 4813,
  "ll": 4814,
  "nna": 4815,
  "okubonaabona": 4816,
  "oleka": 4817,
  "\u2581EBY": 4818,
  "\u2581Kale": 4819,
  "\u2581Kizimb": 4820,
  "\u2581Okusoma": 4821,
  "\u2581atwagala": 4822,
  "\u2581commit": 4823,
  "\u2581difficulties": 4824,
  "\u2581ebigendererwa": 4825,
  "\u2581ewa": 4826,
  "\u2581finding": 4827,
  "\u2581invite": 4828,
  "\u2581kusalawo": 4829,
  "\u2581kyatuuka": 4830,
  "\u2581ministeri": 4831,
  "\u2581nakwo": 4832,
  "\u2581outcome": 4833,
  "\u2581remnant": 4834,
  "\u2581suggestions": 4835,
  "\u2581twe": 4836,
  "man": 4837,
  "mbi": 4838,
  "\u258151": 4839,
  "\u2581Hosea": 4840,
  "\u2581Kkolinso": 4841,
  "\u2581afudde": 4842,
  "\u2581akakwate": 4843,
  "\u2581armies": 4844,
  "\u2581baby": 4845,
  "\u2581bato": 4846,
  "\u2581bayamba": 4847,
  "\u2581beenyigira": 4848,
  "\u2581ddene": 4849,
  "\u2581disaster": 4850,
  "\u2581ebigere": 4851,
  "\u2581fast": 4852,
  "\u2581fitting": 4853,
  "\u2581guided": 4854,
  "\u2581increased": 4855,
  "\u2581midst": 4856,
  "\u2581model": 4857,
  "\u2581nju": 4858,
  "\u2581oluku\u014b\u014baana": 4859,
  "\u2581standard": 4860,
  "\u2581wekka": 4861,
  "\u2581yakolanga": 4862,
  "bonyaabonyezebwa": 4863,
  "okubeerawo": 4864,
  "\u2581Bulijjo": 4865,
  "\u2581Ekitiibwa": 4866,
  "\u2581abuse": 4867,
  "\u2581altar": 4868,
  "\u2581baalaba": 4869,
  "\u2581bitegeeza": 4870,
  "\u2581bituyamba": 4871,
  "\u2581familiar": 4872,
  "\u2581gathering": 4873,
  "\u2581generous": 4874,
  "\u2581inclined": 4875,
  "\u2581international": 4876,
  "\u2581non": 4877,
  "\u2581offers": 4878,
  "\u2581olugero": 4879,
  "\u2581reported": 4880,
  "\u2581status": 4881,
  "OKUSOMA": 4882,
  "Omukazi": 4883,
  "funa": 4884,
  "ngawo": 4885,
  "no": 4886,
  "other": 4887,
  "\u2581607": 4888,
  "\u2581Contents": 4889,
  "\u2581Europe": 4890,
  "\u2581Kuba": 4891,
  "\u2581Table": 4892,
  "\u2581abandoned": 4893,
  "\u2581abilities": 4894,
  "\u2581balanced": 4895,
  "\u2581byammwe": 4896,
  "\u2581confront": 4897,
  "\u2581glorify": 4898,
  "\u2581healthy": 4899,
  "\u2581kiruubirirwa": 4900,
  "\u2581maintaining": 4901,
  "\u2581okufiirwa": 4902,
  "\u2581okwekebera": 4903,
  "\u2581pressures": 4904,
  "\u2581referring": 4905,
  "\u2581rightly": 4906,
  "\u2581root": 4907,
  "\u2581unable": 4908,
  "\u2581yatuma": 4909,
  "addamu": 4910,
  "nnyamba": 4911,
  "omuliro": 4912,
  "\u2581(1)": 4913,
  "\u2581Kyali": 4914,
  "\u2581Sometimes": 4915,
  "\u2581THIS": 4916,
  "\u2581career": 4917,
  "\u2581compare": 4918,
  "\u2581cost": 4919,
  "\u2581dress": 4920,
  "\u2581ekisibo": 4921,
  "\u2581encourages": 4922,
  "\u2581limitations": 4923,
  "\u2581motives": 4924,
  "\u2581obeying": 4925,
  "\u2581recalls": 4926,
  "\u2581remove": 4927,
  "\u2581ssaawa": 4928,
  "\u2581tebaali": 4929,
  "\u2581tegu": 4930,
  "akamu": 4931,
  "buulirira": 4932,
  "kwetaagisa": 4933,
  "lwa": 4934,
  "tta": 4935,
  "\u2581April": 4936,
  "\u2581Essuubi": 4937,
  "\u2581Nnyonnyola": 4938,
  "\u2581Oli": 4939,
  "\u2581Titus": 4940,
  "\u2581abakkiriza": 4941,
  "\u2581apparently": 4942,
  "\u2581baliraanwa": 4943,
  "\u2581batuukirivu": 4944,
  "\u2581bwammwe": 4945,
  "\u2581engoye": 4946,
  "\u2581entrusted": 4947,
  "\u2581happens": 4948,
  "\u2581heavy": 4949,
  "\u2581kutu": 4950,
  "\u2581mulala": 4951,
  "\u2581okwegendereza": 4952,
  "\u2581sad": 4953,
  "\u2581white": 4954,
  "\u2581yabuulira": 4955,
  "Ab": 4956,
  "As": 4957,
  "ebirowoozo": 4958,
  "omukwano": 4959,
  "some": 4960,
  "\u2581Anna": 4961,
  "\u2581Bassekabaka": 4962,
  "\u2581Gen": 4963,
  "\u2581Illustrate": 4964,
  "\u2581approved": 4965,
  "\u2581associate": 4966,
  "\u2581atuukiridde": 4967,
  "\u2581ejjudde": 4968,
  "\u2581kutuleetera": 4969,
  "\u2581limit": 4970,
  "\u2581munaana": 4971,
  "\u2581proof": 4972,
  "\u2581tribes": 4973,
  "emitima": 4974,
  "ezzadde": 4975,
  "kwatirwa": 4976,
  "obutali": 4977,
  "our": 4978,
  "sobodde": 4979,
  "tuukirira": 4980,
  "\u2581Lub": 4981,
  "\u2581Maria": 4982,
  "\u2581Master": 4983,
  "\u2581Spain": 4984,
  "\u2581abatwala": 4985,
  "\u2581babi": 4986,
  "\u2581bulindaala": 4987,
  "\u2581eka": 4988,
  "\u2581emisango": 4989,
  "\u2581gradually": 4990,
  "\u2581okulwana": 4991,
  "\u2581okuteeka": 4992,
  "\u2581okwesalirawo": 4993,
  "\u2581pioneering": 4994,
  "\u2581resulted": 4995,
  "\u2581ssuula": 4996,
  "\u2581tamanyi": 4997,
  "\u2581teku": 4998,
  "\u2581travel": 4999,
  "\u2581tweyongere": 5000,
  "\u2581waters": 5001,
  "\u2581ya\u014b\u014bamba": 5002,
  "ange": 5003,
  "beerera": 5004,
  "kiikirira": 5005,
  "kuba": 5006,
  "sobozesezza": 5007,
  "\u258135:": 5008,
  "\u2581Abram": 5009,
  "\u2581Amaanyi": 5010,
  "\u2581Church": 5011,
  "\u2581Day": 5012,
  "\u2581Eph": 5013,
  "\u2581Ireland": 5014,
  "\u2581Jjukira": 5015,
  "\u2581July": 5016,
  "\u2581Kaana": 5017,
  "\u2581Kintu": 5018,
  "\u2581Nathan": 5019,
  "\u2581abataali": 5020,
  "\u2581aleme": 5021,
  "\u2581fornication": 5022,
  "\u2581hate": 5023,
  "\u2581identity": 5024,
  "\u2581involv": 5025,
  "\u2581kuzikiriza": 5026,
  "\u2581otherwise": 5027,
  "\u2581straight": 5028,
  "\u2581takya": 5029,
  "\u2581tekyewuunyisa": 5030,
  "\u2581terms": 5031,
  "\u2581thereafter": 5032,
  "\u2581weetegereze": 5033,
  "\u2581yannyonnyola": 5034,
  "How": 5035,
  "eggulu": 5036,
  "kwasa": 5037,
  "\u258172": 5038,
  "\u2581Abayigirizwa": 5039,
  "\u2581Abeefeso": 5040,
  "\u2581Ddi": 5041,
  "\u2581Knorr": 5042,
  "\u2581Obu": 5043,
  "\u2581Okufumiitiriza": 5044,
  "\u2581Scripture": 5045,
  "\u2581YAKUWA": 5046,
  "\u2581ai": 5047,
  "\u2581baamala": 5048,
  "\u2581banywevu": 5049,
  "\u2581belief": 5050,
  "\u2581bulimba": 5051,
  "\u2581create": 5052,
  "\u2581ekisuubizo": 5053,
  "\u2581gyammwe": 5054,
  "\u2581hundreds": 5055,
  "\u2581kika": 5056,
  "\u2581lifestyle": 5057,
  "\u2581luganda": 5058,
  "\u2581meek": 5059,
  "\u2581olukwe": 5060,
  "\u2581possession": 5061,
  "\u2581properly": 5062,
  "\u2581relate": 5063,
  "\u2581relationships": 5064,
  "\u2581repeatedly": 5065,
  "\u2581ruin": 5066,
  "\u2581souls": 5067,
  "\u2581tega": 5068,
  "\u2581teri": 5069,
  "\u2581ttivi": 5070,
  "\u2581yayiga": 5071,
  "atera": 5072,
  "buli": 5073,
  "emabega": 5074,
  "ity": 5075,
  "mawulire": 5076,
  "\u25811950": 5077,
  "\u258142.": 5078,
  "\u258183": 5079,
  "\u2581Ana": 5080,
  "\u2581Every": 5081,
  "\u2581Happy": 5082,
  "\u2581akaakubibwa": 5083,
  "\u2581badayimooni": 5084,
  "\u2581bibala": 5085,
  "\u2581biruubirirwa": 5086,
  "\u2581buy": 5087,
  "\u2581impossible": 5088,
  "\u2581kibadde": 5089,
  "\u2581kikwata": 5090,
  "\u2581kkooti": 5091,
  "\u2581lubuto": 5092,
  "\u2581meditating": 5093,
  "\u2581mountains": 5094,
  "\u2581muweereza": 5095,
  "\u2581numerous": 5096,
  "\u2581okwenenya": 5097,
  "\u2581persons": 5098,
  "\u2581pornography": 5099,
  "\u2581pre": 5100,
  "\u2581tubeere": 5101,
  "\u2581wonna": 5102,
  "\u2581writings": 5103,
  "\u2581yassaawo": 5104,
  "Amerika": 5105,
  "asinziira": 5106,
  "okubatizibwa": 5107,
  "\u2581Akabu": 5108,
  "\u2581Hannah": 5109,
  "\u2581Ibulaamu": 5110,
  "\u2581abasanyufu": 5111,
  "\u2581advancement": 5112,
  "\u2581bafuuka": 5113,
  "\u2581bulaga": 5114,
  "\u2581concluded": 5115,
  "\u2581ebiriwo": 5116,
  "\u2581higher": 5117,
  "\u2581okuleeta": 5118,
  "\u2581okusingira": 5119,
  "\u2581owulira": 5120,
  "\u2581royal": 5121,
  "\u2581sickness": 5122,
  "\u2581tugoberera": 5123,
  "\u2581twewala": 5124,
  "\u2581ungodly": 5125,
  "\u2581unrighteous": 5126,
  "\u2581wheat": 5127,
  "Ekiyudaaya": 5128,
  "abeera": 5129,
  "ngu": 5130,
  "okozesa": 5131,
  "suubira": 5132,
  "tulaga": 5133,
  "\u015f": 5134,
  "\u2581Biblical": 5135,
  "\u2581abalabirizi": 5136,
  "\u2581additional": 5137,
  "\u2581beast": 5138,
  "\u2581bukakafu": 5139,
  "\u2581community": 5140,
  "\u2581eriggya": 5141,
  "\u2581identified": 5142,
  "\u2581kizikiza": 5143,
  "\u2581kyalaga": 5144,
  "\u2581literal": 5145,
  "\u2581mutuukirivu": 5146,
  "\u2581ndaba": 5147,
  "\u2581released": 5148,
  "\u2581restored": 5149,
  "\u2581sacrificing": 5150,
  "\u2581vow": 5151,
  "They": 5152,
  "ngayo": 5153,
  "rb": 5154,
  "so": 5155,
  "\u2581bawa": 5156,
  "\u2581bigenda": 5157,
  "\u2581bir": 5158,
  "\u2581buto": 5159,
  "\u2581construction": 5160,
  "\u2581ebyavaamu": 5161,
  "\u2581enkumi": 5162,
  "\u2581fit": 5163,
  "\u2581genda": 5164,
  "\u2581gino": 5165,
  "\u2581obwenzi": 5166,
  "\u2581official": 5167,
  "\u2581olumu": 5168,
  "\u2581omuyizi": 5169,
  "\u2581potential": 5170,
  "Abaruumi": 5171,
  "sanga": 5172,
  "wakanya": 5173,
  "with": 5174,
  "\u2581Apuli": 5175,
  "\u2581Ebirimu": 5176,
  "\u2581Joel": 5177,
  "\u2581Okutegeera": 5178,
  "\u2581Ssente": 5179,
  "\u2581asks": 5180,
  "\u2581attitudes": 5181,
  "\u2581baamu": 5182,
  "\u2581causing": 5183,
  "\u2581gyokka": 5184,
  "\u2581imperfection": 5185,
  "\u2581kutuukirira": 5186,
  "\u2581kwammwe": 5187,
  "\u2581mukulu": 5188,
  "\u2581noticed": 5189,
  "\u2581possessions": 5190,
  "\u2581represented": 5191,
  "\u2581treasures": 5192,
  "\u2581yamu": 5193,
  "ayo": 5194,
  "son": 5195,
  "soose": 5196,
  "\u25812014": 5197,
  "\u2581ABA": 5198,
  "\u2581Jonathan": 5199,
  "\u2581Jordan": 5200,
  "\u2581Upon": 5201,
  "\u2581abatukuvu": 5202,
  "\u2581angry": 5203,
  "\u2581bodies": 5204,
  "\u2581corruption": 5205,
  "\u2581deaf": 5206,
  "\u2581dream": 5207,
  "\u2581kyakulabirako": 5208,
  "\u2581meditation": 5209,
  "\u2581muliro": 5210,
  "\u2581muvubuka": 5211,
  "\u2581private": 5212,
  "\u2581series": 5213,
  "\u2581surprise": 5214,
  "\u2581trusted": 5215,
  "\u2581tuta": 5216,
  "\u2581upbuilding": 5217,
  "\u2581weaknesses": 5218,
  "\u2581wondered": 5219,
  "\u2581yoke": 5220,
  "Ba": 5221,
  "abatizibwa": 5222,
  "noonya": 5223,
  "obubi": 5224,
  "\u2581Ahab": 5225,
  "\u2581Bamalayika": 5226,
  "\u2581Blu": 5227,
  "\u2581Bo": 5228,
  "\u2581IS": 5229,
  "\u2581KUNGULU": 5230,
  "\u2581affairs": 5231,
  "\u2581baawulira": 5232,
  "\u2581balance": 5233,
  "\u2581bina": 5234,
  "\u2581bukya": 5235,
  "\u2581ekiba": 5236,
  "\u2581ekinunulo": 5237,
  "\u2581eryali": 5238,
  "\u2581harmful": 5239,
  "\u2581holding": 5240,
  "\u2581instructed": 5241,
  "\u2581maturity": 5242,
  "\u2581replied": 5243,
  "Ndowooza": 5244,
  "abazadde": 5245,
  "kiraga": 5246,
  "\u25812,000": 5247,
  "\u2581Ephesus": 5248,
  "\u2581Lusu": 5249,
  "\u2581Michael": 5250,
  "\u2581associates": 5251,
  "\u2581awagamba": 5252,
  "\u2581baagenda": 5253,
  "\u2581baava": 5254,
  "\u2581bennyini": 5255,
  "\u2581conversations": 5256,
  "\u2581ebikozesebwa": 5257,
  "\u2581employment": 5258,
  "\u2581enneeyisa": 5259,
  "\u2581error": 5260,
  "\u2581failure": 5261,
  "\u2581kubonaabona": 5262,
  "\u2581kuli": 5263,
  "\u2581madiini": 5264,
  "\u2581mwalimu": 5265,
  "\u2581oil": 5266,
  "\u2581okukaaba": 5267,
  "\u2581okulabula": 5268,
  "\u2581poured": 5269,
  "\u2581recently": 5270,
  "\u2581stood": 5271,
  "\u2581wammwe": 5272,
  "ekifaananyi": 5273,
  "okulabirira": 5274,
  "okumu": 5275,
  "\u2581Chronicles": 5276,
  "\u2581Granted": 5277,
  "\u2581Gu": 5278,
  "\u2581KATONDA": 5279,
  "\u2581afuga": 5280,
  "\u2581alert": 5281,
  "\u2581amannya": 5282,
  "\u2581bizineesi": 5283,
  "\u2581excellent": 5284,
  "\u2581hospitality": 5285,
  "\u2581kamwa": 5286,
  "\u2581kwewala": 5287,
  "\u2581majority": 5288,
  "\u2581okumuwa": 5289,
  "\u2581omutuukirivu": 5290,
  "\u2581paying": 5291,
  "\u2581safe": 5292,
  "\u2581season": 5293,
  "\u2581traits": 5294,
  "\u2581tukkiriza": 5295,
  "\u2581tutegeera": 5296,
  "\u2581useful": 5297,
  "fubye": 5298,
  "obwegendereza": 5299,
  "\u2581Me": 5300,
  "\u2581Okubeera": 5301,
  "\u2581accord": 5302,
  "\u2581bee": 5303,
  "\u2581differences": 5304,
  "\u2581kaati": 5305,
  "\u2581mpolampola": 5306,
  "\u2581quick": 5307,
  "\u2581reign": 5308,
  "\u2581supply": 5309,
  "\u2581sustain": 5310,
  "\u2581tests": 5311,
  "Ayagala": 5312,
  "ED": 5313,
  "ekyamagero": 5314,
  "jjula": 5315,
  "kwatibwako": 5316,
  "lu\u014b\u014bamya": 5317,
  "omuganyulo": 5318,
  "um": 5319,
  "wetaaga": 5320,
  "yita": 5321,
  "\u2581August": 5322,
  "\u2581October": 5323,
  "\u2581abagumiikiriza": 5324,
  "\u2581abavumu": 5325,
  "\u2581assembly": 5326,
  "\u2581assignments": 5327,
  "\u2581bitono": 5328,
  "\u2581camp": 5329,
  "\u2581ffekka": 5330,
  "\u2581gutya": 5331,
  "\u2581mwami": 5332,
  "\u2581national": 5333,
  "\u2581obwenkanya": 5334,
  "\u2581okudduka": 5335,
  "\u2581omusumba": 5336,
  "\u2581variety": 5337,
  "\u2581welcome": 5338,
  "\u2581yeesiga": 5339,
  "afuga": 5340,
  "ayiga": 5341,
  "gulumiza": 5342,
  "nya": 5343,
  "\u2581BA": 5344,
  "\u2581Credit": 5345,
  "\u2581Olu": 5346,
  "\u2581September": 5347,
  "\u2581boldness": 5348,
  "\u2581date": 5349,
  "\u2581ears": 5350,
  "\u2581emmeeme": 5351,
  "\u2581eyazaalibwa": 5352,
  "\u2581guli": 5353,
  "\u2581kisinga": 5354,
  "\u2581kulabula": 5355,
  "\u2581kunoonya": 5356,
  "\u2581mitono": 5357,
  "\u2581omusingi": 5358,
  "\u2581omwali": 5359,
  "\u2581rain": 5360,
  "\u2581surprised": 5361,
  "\u2581tendency": 5362,
  "\u2581tulindirira": 5363,
  "\u2581tunaa": 5364,
  "\u2581wisely": 5365,
  "\u2581wrongdoing": 5366,
  "eno": 5367,
  "for": 5368,
  "kwataganyizibwa": 5369,
  "maliridde": 5370,
  "nnyonnyola": 5371,
  "nywa": 5372,
  "obwenkanya": 5373,
  "okuwaayo": 5374,
  "vumirira": 5375,
  "weddemu": 5376,
  "\u2581Know": 5377,
  "\u2581arranged": 5378,
  "\u2581audience": 5379,
  "\u2581bazze": 5380,
  "\u2581drawing": 5381,
  "\u2581eryato": 5382,
  "\u2581herself": 5383,
  "\u2581kinunulo": 5384,
  "\u2581kyayamba": 5385,
  "\u2581lusozi": 5386,
  "\u2581nnafuna": 5387,
  "\u2581okumukoppa": 5388,
  "\u2581preserve": 5389,
  "\u2581re": 5390,
  "\u2581rules": 5391,
  "\u2581silver": 5392,
  "\u2581wajja": 5393,
  "\u2581writes": 5394,
  "abalabe": 5395,
  "awulawo": 5396,
  "ekkumi": 5397,
  "fa": 5398,
  "imbuddwa": 5399,
  "okwe": 5400,
  "okwefiiriza": 5401,
  "rwa": 5402,
  "tuukagana": 5403,
  "\u258120]": 5404,
  "\u2581Draw": 5405,
  "\u2581Lamb": 5406,
  "\u2581Li": 5407,
  "\u2581Magazini": 5408,
  "\u2581Olina": 5409,
  "\u2581SUBJECT": 5410,
  "\u2581Testament": 5411,
  "\u2581abeetegefu": 5412,
  "\u2581applies": 5413,
  "\u2581bwesigwa": 5414,
  "\u2581choosing": 5415,
  "\u2581ebita": 5416,
  "\u2581ekijja": 5417,
  "\u2581ekitono": 5418,
  "\u2581essimu": 5419,
  "\u2581kulya": 5420,
  "\u2581ndiga": 5421,
  "\u2581ogwali": 5422,
  "\u2581okulangirira": 5423,
  "\u2581okumwagala": 5424,
  "\u2581okuwonawo": 5425,
  "\u2581percent": 5426,
  "\u2581religions": 5427,
  "\u2581routine": 5428,
  "\u2581twalina": 5429,
  "\u2581victory": 5430,
  "\u2581yalowooza": 5431,
  "\u2581yayita": 5432,
  "alowooza": 5433,
  "endagaano": 5434,
  "kkiririza": 5435,
  "naabanga": 5436,
  "singa": 5437,
  "ziyiza": 5438,
  "\u2581Abbeeri": 5439,
  "\u2581Okitobba": 5440,
  "\u2581Stephen": 5441,
  "\u2581accepting": 5442,
  "\u2581air": 5443,
  "\u2581beauty": 5444,
  "\u2581buvuddeko": 5445,
  "\u2581emitawaana": 5446,
  "\u2581foundation": 5447,
  "\u2581mulina": 5448,
  "\u2581obulindaala": 5449,
  "\u2581okubaamu": 5450,
  "\u2581okubala": 5451,
  "\u2581okugula": 5452,
  "\u2581okwegatta": 5453,
  "\u2581okwogerako": 5454,
  "\u2581olowooza": 5455,
  "\u2581omulabe": 5456,
  "\u2581resources": 5457,
  "\u2581scripture": 5458,
  "\u2581spirits": 5459,
  "\u2581twekenneenye": 5460,
  "\u2581wrath": 5461,
  "\u2581yaweebwa": 5462,
  "Ebyokulabirako": 5463,
  "Ndi": 5464,
  "atalina": 5465,
  "ekika": 5466,
  "ofuba": 5467,
  "okwewala": 5468,
  "\u2581120": 5469,
  "\u258145.": 5470,
  "\u2581Afirika": 5471,
  "\u2581Buyudaaya": 5472,
  "\u2581FOR": 5473,
  "\u2581Jjulaayi": 5474,
  "\u2581atuwadde": 5475,
  "\u2581bakozi": 5476,
  "\u2581bibuga": 5477,
  "\u2581commands": 5478,
  "\u2581content": 5479,
  "\u2581ennyingi": 5480,
  "\u2581fish": 5481,
  "\u2581gather": 5482,
  "\u2581glad": 5483,
  "\u2581kale": 5484,
  "\u2581kwenkana": 5485,
  "\u2581load": 5486,
  "\u2581mutukuvu": 5487,
  "\u2581nabwo": 5488,
  "\u2581omuzadde": 5489,
  "\u2581region": 5490,
  "\u2581stone": 5491,
  "akkiriza": 5492,
  "atu": 5493,
  "bakubiriza": 5494,
  "eddembe": 5495,
  "nye": 5496,
  "okufuba": 5497,
  "\u2581Levites": 5498,
  "\u2581Out": 5499,
  "\u2581Ssebutemba": 5500,
  "\u2581ZAB": 5501,
  "\u2581abakozi": 5502,
  "\u2581akasanduuko": 5503,
  "\u2581begins": 5504,
  "\u2581biruwa": 5505,
  "\u2581degree": 5506,
  "\u2581ended": 5507,
  "\u2581fuba": 5508,
  "\u2581kukwata": 5509,
  "\u2581kyaleetera": 5510,
  "\u2581nkyukakyuka": 5511,
  "\u2581nnawulira": 5512,
  "\u2581notes": 5513,
  "\u2581ntalo": 5514,
  "\u2581okuki": 5515,
  "\u2581olubuto": 5516,
  "\u2581popular": 5517,
  "\u2581programu": 5518,
  "\u2581welfare": 5519,
  "\u2581wild": 5520,
  "\u2581yakolera": 5521,
  "Kale": 5522,
  "abagoberezi": 5523,
  "agava": 5524,
  "andibadde": 5525,
  "ayita": 5526,
  "ful": 5527,
  "gaana": 5528,
  "omulabirizi": 5529,
  "tumbula": 5530,
  "\u2581Asiya": 5531,
  "\u2581Dan": 5532,
  "\u2581December": 5533,
  "\u2581Emirembe": 5534,
  "\u2581Its": 5535,
  "\u2581abamalirivu": 5536,
  "\u2581adjustments": 5537,
  "\u2581baakolanga": 5538,
  "\u2581bafu": 5539,
  "\u2581bigamba": 5540,
  "\u2581bugenderevu": 5541,
  "\u2581conscious": 5542,
  "\u2581discernment": 5543,
  "\u2581emingi": 5544,
  "\u2581firstborn": 5545,
  "\u2581ignore": 5546,
  "\u2581inherited": 5547,
  "\u2581nine": 5548,
  "\u2581okwogerwako": 5549,
  "\u2581plans": 5550,
  "\u2581resolved": 5551,
  "\u2581restore": 5552,
  "\u2581yabatizibwa": 5553,
  "kizuula": 5554,
  "kweka": 5555,
  "okuva": 5556,
  "ur": 5557,
  "\u258161": 5558,
  "\u2581Agusito": 5559,
  "\u2581Bak": 5560,
  "\u2581Ebizimbe": 5561,
  "\u2581KY": 5562,
  "\u2581Lazarus": 5563,
  "\u2581baleme": 5564,
  "\u2581commandment": 5565,
  "\u2581dangers": 5566,
  "\u2581economic": 5567,
  "\u2581extended": 5568,
  "\u2581kivaamu": 5569,
  "\u2581mikono": 5570,
  "\u2581mwekka": 5571,
  "\u2581okubudaabuda": 5572,
  "\u2581okununula": 5573,
  "\u2581okwambala": 5574,
  "\u2581paragraphs": 5575,
  "\u2581release": 5576,
  "\u2581songs": 5577,
  "\u2581struck": 5578,
  "\u2581total": 5579,
  "\u2581tuleme": 5580,
  "\u2581win": 5581,
  "\u2581wipe": 5582,
  "ment": 5583,
  "obutonde": 5584,
  "reetedde": 5585,
  "tuukiriza": 5586,
  "yambye": 5587,
  "\u2581Amangu": 5588,
  "\u2581Earth": 5589,
  "\u2581Italy": 5590,
  "\u2581Jonah": 5591,
  "\u2581Lessons": 5592,
  "\u2581Obulungi": 5593,
  "\u2581Okusooka": 5594,
  "\u2581Time": 5595,
  "\u2581atufaako": 5596,
  "\u2581baafuuka": 5597,
  "\u2581batuuka": 5598,
  "\u2581idolatry": 5599,
  "\u2581intense": 5600,
  "\u2581list": 5601,
  "\u2581mates": 5602,
  "\u2581okukozesebwa": 5603,
  "\u2581omuze": 5604,
  "\u2581significance": 5605,
  "\u2581soldiers": 5606,
  "\u2581subjection": 5607,
  "\u2581wars": 5608,
  "Be": 5609,
  "aga": 5610,
  "akatabo": 5611,
  "ar": 5612,
  "empuliziganya": 5613,
  "eti": 5614,
  "fube": 5615,
  "obulungi": 5616,
  "ti": 5617,
  "\u25812003": 5618,
  "\u2581Baisiraeri": 5619,
  "\u2581Balina": 5620,
  "\u2581Prayer": 5621,
  "\u2581Teba": 5622,
  "\u2581Zephaniah": 5623,
  "\u2581attacks": 5624,
  "\u2581bakadde": 5625,
  "\u2581bituyigiriza": 5626,
  "\u2581buyambi": 5627,
  "\u2581constant": 5628,
  "\u2581copy": 5629,
  "\u2581empapula": 5630,
  "\u2581establish": 5631,
  "\u2581guba": 5632,
  "\u2581kikolwa": 5633,
  "\u2581kirala": 5634,
  "\u2581kukuuma": 5635,
  "\u2581okufuula": 5636,
  "\u2581okusemberera": 5637,
  "\u2581okutwalirizibwa": 5638,
  "\u2581okwonooneka": 5639,
  "\u2581passing": 5640,
  "\u2581peaceable": 5641,
  "\u2581tax": 5642,
  "\u2581throw": 5643,
  "\u2581trusting": 5644,
  "\u2581tufube": 5645,
  "\u2581yalimu": 5646,
  "\u2581ziba": 5647,
  "KWATAGAN": 5648,
  "Si": 5649,
  "Tewali": 5650,
  "abaafukibwako": 5651,
  "amanyi": 5652,
  "emikwano": 5653,
  "ermon": 5654,
  "ganyulwa": 5655,
  "okukolera": 5656,
  "okwetaba": 5657,
  "omusanvu": 5658,
  "\u258147": 5659,
  "\u2581Ebiva": 5660,
  "\u2581Peace": 5661,
  "\u2581Service": 5662,
  "\u2581Zeffaniya": 5663,
  "\u2581attain": 5664,
  "\u2581clothing": 5665,
  "\u2581customs": 5666,
  "\u2581ddoboozi": 5667,
  "\u2581features": 5668,
  "\u2581grand": 5669,
  "\u2581inherit": 5670,
  "\u2581magazines": 5671,
  "\u2581mwali": 5672,
  "\u2581paid": 5673,
  "\u2581painful": 5674,
  "\u2581perfection": 5675,
  "\u2581print": 5676,
  "\u2581promotes": 5677,
  "\u2581readily": 5678,
  "\u2581removed": 5679,
  "\u2581stars": 5680,
  "\u2581symbolic": 5681,
  "\u2581tebakya": 5682,
  "\u2581troubled": 5683,
  "\u2581twesiga": 5684,
  "\u2581urgency": 5685,
  "\u2581visits": 5686,
  "\u2581wind": 5687,
  "Omufuzi": 5688,
  "Tu": 5689,
  "bubaka": 5690,
  "jjukira": 5691,
  "koma": 5692,
  "kyala": 5693,
  "zimba": 5694,
  "\u25818.)": 5695,
  "\u2581Concern": 5696,
  "\u2581Corinth": 5697,
  "\u2581Ebyomumirembe": 5698,
  "\u2581Halls": 5699,
  "\u2581OKU": 5700,
  "\u2581Okuweereza": 5701,
  "\u2581Yonasaani": 5702,
  "\u2581Zion": 5703,
  "\u2581aku": 5704,
  "\u2581baagaana": 5705,
  "\u2581bafa": 5706,
  "\u2581byogera": 5707,
  "\u2581emmunyeenye": 5708,
  "\u2581enduring": 5709,
  "\u2581fundamental": 5710,
  "\u2581governing": 5711,
  "\u2581gusobola": 5712,
  "\u2581initiative": 5713,
  "\u2581okuyitibwa": 5714,
  "\u2581protected": 5715,
  "\u2581shine": 5716,
  "\u2581solid": 5717,
  "\u2581twolekaganye": 5718,
  "el": 5719,
  "ers": 5720,
  "funye": 5721,
  "kozesaamu": 5722,
  "nokolayo": 5723,
  "obulagirizi": 5724,
  "sookera": 5725,
  "wu": 5726,
  "\u2581Bbaas": 5727,
  "\u2581George": 5728,
  "\u2581Gireyaadi": 5729,
  "\u2581Maayi": 5730,
  "\u2581Obutafaanana": 5731,
  "\u2581Shortly": 5732,
  "\u2581acquire": 5733,
  "\u2581bulina": 5734,
  "\u2581companion": 5735,
  "\u2581discovered": 5736,
  "\u2581ebimukwatako": 5737,
  "\u2581ebweru": 5738,
  "\u2581ekikyamu": 5739,
  "\u2581enjoying": 5740,
  "\u2581kutukubiriza": 5741,
  "\u2581laid": 5742,
  "\u2581lovers": 5743,
  "\u2581nazo": 5744,
  "\u2581nnyina": 5745,
  "\u2581obuwombeefu": 5746,
  "\u2581okutulemesa": 5747,
  "\u2581pagan": 5748,
  "\u2581plan": 5749,
  "\u2581rewarded": 5750,
  "\u2581sorts": 5751,
  "\u2581strangers": 5752,
  "\u2581visiting": 5753,
  "\u2581wandyagadde": 5754,
  "\u2581yaba": 5755,
  "\u2581zaabu": 5756,
  "awo": 5757,
  "buulira": 5758,
  "ggya": 5759,
  "kisanga": 5760,
  "kulabirako": 5761,
  "owulira": 5762,
  "tandika": 5763,
  "weereddwa": 5764,
  "\u2581Following": 5765,
  "\u2581Fuba": 5766,
  "\u2581Lakabu": 5767,
  "\u2581Okwawukana": 5768,
  "\u2581Yona": 5769,
  "\u2581abaa": 5770,
  "\u2581abagenda": 5771,
  "\u2581adjust": 5772,
  "\u2581basatu": 5773,
  "\u2581biro": 5774,
  "\u2581calamity": 5775,
  "\u2581calm": 5776,
  "\u2581eddene": 5777,
  "\u2581egenda": 5778,
  "\u2581emikono": 5779,
  "\u2581footnote": 5780,
  "\u2581kubayamba": 5781,
  "\u2581ma": 5782,
  "\u2581nkyali": 5783,
  "\u2581nneeyisa": 5784,
  "\u2581obweyamo": 5785,
  "\u2581okuggya": 5786,
  "\u2581olukulu": 5787,
  "\u2581permanent": 5788,
  "\u2581preparing": 5789,
  "\u2581residents": 5790,
  "\u2581safeguard": 5791,
  "\u2581scholar": 5792,
  "\u2581serpent": 5793,
  "\u2581traveled": 5794,
  "\u2581zealously": 5795,
  "WA": 5796,
  "ekikyamu": 5797,
  "obusamize": 5798,
  "okuwulira": 5799,
  "\u2581Ekisa": 5800,
  "\u2581Ggaliraaya": 5801,
  "\u2581JB": 5802,
  "\u2581Jjanwali": 5803,
  "\u2581Judea": 5804,
  "\u2581Re": 5805,
  "\u2581abawa": 5806,
  "\u2581abayigiriza": 5807,
  "\u2581across": 5808,
  "\u2581baayogera": 5809,
  "\u2581bannange": 5810,
  "\u2581eagerly": 5811,
  "\u2581ena": 5812,
  "\u2581enkuba": 5813,
  "\u2581expand": 5814,
  "\u2581ezzadde": 5815,
  "\u2581flee": 5816,
  "\u2581grain": 5817,
  "\u2581intended": 5818,
  "\u2581modesty": 5819,
  "\u2581mulembe": 5820,
  "\u2581ogukolebwa": 5821,
  "\u2581olukwata": 5822,
  "\u2581omulwadde": 5823,
  "\u2581possess": 5824,
  "\u2581property": 5825,
  "\u2581pursuits": 5826,
  "\u2581reliable": 5827,
  "\u2581tali": 5828,
  "\u2581temptations": 5829,
  "\u2581voluntary": 5830,
  "\u2581writers": 5831,
  "alagira": 5832,
  "drew": 5833,
  "obw": 5834,
  "okwenyigira": 5835,
  "ssaako": 5836,
  "vi": 5837,
  "wi": 5838,
  "wuliriza": 5839,
  "\u25811999": 5840,
  "\u258119]": 5841,
  "\u2581Ali": 5842,
  "\u2581Baal": 5843,
  "\u2581Ddesemba": 5844,
  "\u2581Okufuna": 5845,
  "\u2581Philippines": 5846,
  "\u2581Things": 5847,
  "\u2581William": 5848,
  "\u2581Yoludaani": 5849,
  "\u2581ata": 5850,
  "\u2581basuubira": 5851,
  "\u2581culture": 5852,
  "\u2581depth": 5853,
  "\u2581devoted": 5854,
  "\u2581divided": 5855,
  "\u2581ekisingawo": 5856,
  "\u2581eriri": 5857,
  "\u2581kituuse": 5858,
  "\u2581malungi": 5859,
  "\u2581miracles": 5860,
  "\u2581okukyalira": 5861,
  "\u2581senses": 5862,
  "\u2581store": 5863,
  "\u2581trip": 5864,
  "\u2581tufunye": 5865,
  "\u2581urges": 5866,
  "\u2581village": 5867,
  "\u2581yayolekagana": 5868,
  "emirimu": 5869,
  "his": 5870,
  "kyukakyuka": 5871,
  "sanyuka": 5872,
  "sikira": 5873,
  "\u258156": 5874,
  "\u2581American": 5875,
  "\u2581Mak": 5876,
  "\u2581QUESTIONS": 5877,
  "\u2581Tuyigamu": 5878,
  "\u2581abakuze": 5879,
  "\u2581amaziga": 5880,
  "\u2581basoma": 5881,
  "\u2581belongings": 5882,
  "\u2581burden": 5883,
  "\u2581disasters": 5884,
  "\u2581distance": 5885,
  "\u2581egiwerako": 5886,
  "\u2581ekyetaagisa": 5887,
  "\u2581eziwerako": 5888,
  "\u2581kufuba": 5889,
  "\u2581motive": 5890,
  "\u2581okufumbirwa": 5891,
  "\u2581okukitegeera": 5892,
  "\u2581punishment": 5893,
  "\u2581refreshing": 5894,
  "\u2581tusuubira": 5895,
  "\u2581wall": 5896,
  "\u2581worldly": 5897,
  "4:": 5898,
  "abe": 5899,
  "gga": 5900,
  "manyi": 5901,
  "obulokozi": 5902,
  "\u258173": 5903,
  "\u2581Bas": 5904,
  "\u2581Maaki": 5905,
  "\u2581Obukulu": 5906,
  "\u2581Waffe": 5907,
  "\u2581ategeera": 5908,
  "\u2581bamala": 5909,
  "\u2581bana": 5910,
  "\u2581bikolebwa": 5911,
  "\u2581bulumi": 5912,
  "\u2581c": 5913,
  "\u2581compassionate": 5914,
  "\u2581depends": 5915,
  "\u2581earnestly": 5916,
  "\u2581ekisukkiridde": 5917,
  "\u2581entitled": 5918,
  "\u2581householder": 5919,
  "\u2581influences": 5920,
  "\u2581judges": 5921,
  "\u2581literally": 5922,
  "\u2581nkambi": 5923,
  "\u2581partner": 5924,
  "\u2581repent": 5925,
  "\u2581represents": 5926,
  "\u2581thankful": 5927,
  "\u2581tumaze": 5928,
  "\u2581universal": 5929,
  "\u2581warfare": 5930,
  "\u2581weakness": 5931,
  "EBWA": 5932,
  "Naye": 5933,
  "Okubikkulirwa": 5934,
  "abakulu": 5935,
  "ation": 5936,
  "atwala": 5937,
  "emisingi": 5938,
  "olubereberye": 5939,
  "saanira": 5940,
  "tendereza": 5941,
  "wadde": 5942,
  "\u258114)": 5943,
  "\u2581Ai": 5944,
  "\u2581Ebitabo": 5945,
  "\u2581Esau": 5946,
  "\u2581Ex": 5947,
  "\u2581January": 5948,
  "\u2581Kanani": 5949,
  "\u2581Line": 5950,
  "\u2581March": 5951,
  "\u2581adopt": 5952,
  "\u2581balabe": 5953,
  "\u2581brochure": 5954,
  "\u2581depend": 5955,
  "\u2581detail": 5956,
  "\u2581earnest": 5957,
  "\u2581execution": 5958,
  "\u2581kisenge": 5959,
  "\u2581kufuuka": 5960,
  "\u2581lugendo": 5961,
  "\u2581morally": 5962,
  "\u2581omuggya": 5963,
  "\u2581satisfied": 5964,
  "\u2581signs": 5965,
  "\u2581worker": 5966,
  "\u2581yasiima": 5967,
  "EBIRI": 5968,
  "etyo": 5969,
  "kyalina": 5970,
  "mbe": 5971,
  "nn": 5972,
  "okulaga": 5973,
  "omutwe": 5974,
  "rimarily": 5975,
  "\u2581ABANTU": 5976,
  "\u2581ARTICLES": 5977,
  "\u2581EBIRALA": 5978,
  "\u2581Galilee": 5979,
  "\u2581London": 5980,
  "\u2581Sodom": 5981,
  "\u2581Weeyongere": 5982,
  "\u2581Yak": 5983,
  "\u2581afuna": 5984,
  "\u2581asaba": 5985,
  "\u2581ayigiriza": 5986,
  "\u2581baayoleka": 5987,
  "\u2581district": 5988,
  "\u2581encounter": 5989,
  "\u2581gammwe": 5990,
  "\u2581kuleeta": 5991,
  "\u2581marked": 5992,
  "\u2581nnasalawo": 5993,
  "\u2581observ": 5994,
  "\u2581okubuusabuusa": 5995,
  "\u2581okukubiriza": 5996,
  "\u2581opposite": 5997,
  "\u2581prominent": 5998,
  "\u2581sat": 5999,
  "\u2581seventh": 6000,
  "\u2581submit": 6001,
  "\u2581tend": 6002,
  "\u2581touch": 6003,
  "\u2581uphold": 6004,
  "W": 6005,
  "Yesu": 6006,
  "afukibwako": 6007,
  "akaseera": 6008,
  "atuwadde": 6009,
  "ebigendererwa": 6010,
  "gitwala": 6011,
  "ingness": 6012,
  "kakisa": 6013,
  "ogerwako": 6014,
  "okusalawo": 6015,
  "olulimi": 6016,
  "yiwa": 6017,
  "\u258157": 6018,
  "\u2581Eric": 6019,
  "\u2581Grand": 6020,
  "\u2581Judas": 6021,
  "\u2581Nsonga": 6022,
  "\u2581Phil": 6023,
  "\u2581Rahab": 6024,
  "\u2581Right": 6025,
  "\u2581ababeera": 6026,
  "\u2581balya": 6027,
  "\u2581disobedience": 6028,
  "\u2581donations": 6029,
  "\u2581existed": 6030,
  "\u2581forced": 6031,
  "\u2581gajja": 6032,
  "\u2581kampuni": 6033,
  "\u2581kifuba": 6034,
  "\u2581kingdoms": 6035,
  "\u2581leader": 6036,
  "\u2581mark": 6037,
  "\u2581nnyinza": 6038,
  "\u2581obutuufu": 6039,
  "\u2581offerings": 6040,
  "\u2581okubuuza": 6041,
  "\u2581okukendeeza": 6042,
  "\u2581omusawo": 6043,
  "\u2581regret": 6044,
  "\u2581reproach": 6045,
  "\u2581rights": 6046,
  "\u2581skills": 6047,
  "\u2581tannaba": 6048,
  "\u2581twoleka": 6049,
  "\u2581warns": 6050,
  "\u2581yakitegeera": 6051,
  "Aba": 6052,
  "H": 6053,
  "abaminsani": 6054,
  "agi": 6055,
  "ary": 6056,
  "asiima": 6057,
  "av": 6058,
  "gulina": 6059,
  "kumi": 6060,
  "okuna": 6061,
  "oluusi": 6062,
  "onookola": 6063,
  "twalirizibwa": 6064,
  "\u2581'%": 6065,
  "\u2581Abaleevi": 6066,
  "\u2581Nnyo": 6067,
  "\u2581Omutima": 6068,
  "\u2581Rose": 6069,
  "\u2581Yefusa": 6070,
  "\u2581abatuukiridde": 6071,
  "\u2581abroad": 6072,
  "\u2581atuyamba": 6073,
  "\u2581bow": 6074,
  "\u2581buzibu": 6075,
  "\u2581developing": 6076,
  "\u2581hardships": 6077,
  "\u2581houses": 6078,
  "\u2581joyfully": 6079,
  "\u2581kabuga": 6080,
  "\u2581kibayamba": 6081,
  "\u2581likened": 6082,
  "\u2581low": 6083,
  "\u2581obusika": 6084,
  "\u2581omusanyufu": 6085,
  "\u2581raising": 6086,
  "\u2581scene": 6087,
  "\u2581slavery": 6088,
  "\u2581tebali": 6089,
  "\u2581tewa": 6090,
  "\u2581thanks": 6091,
  "\u2581tteeka": 6092,
  "\u2581unbeliev": 6093,
  "\u2581utmost": 6094,
  "\u2581yatwala": 6095,
  "By": 6096,
  "Essomero": 6097,
  "awaka": 6098,
  "kontana": 6099,
  "obuseegu": 6100,
  "v": 6101,
  "ver": 6102,
  "waayo": 6103,
  "\u25817.)": 6104,
  "\u2581Amanny": 6105,
  "\u2581Esawu": 6106,
  "\u2581Eventually": 6107,
  "\u2581GOD": 6108,
  "\u2581HOW": 6109,
  "\u2581Leviticus": 6110,
  "\u2581Philip": 6111,
  "\u2581abaminsani": 6112,
  "\u2581bayigganyizibwa": 6113,
  "\u2581bed": 6114,
  "\u2581beeyisa": 6115,
  "\u2581entukuvu": 6116,
  "\u2581finds": 6117,
  "\u2581mass": 6118,
  "\u2581mistake": 6119,
  "\u2581nearby": 6120,
  "\u2581observes": 6121,
  "\u2581okulonda": 6122,
  "\u2581okuzaalibwa": 6123,
  "\u2581suggest": 6124,
  "\u2581teyalina": 6125,
  "\u2581threatened": 6126,
  "\u2581yazaalibwa": 6127,
  "bala": 6128,
  "embaga": 6129,
  "eteekerateekera": 6130,
  "gudde": 6131,
  "kiraba": 6132,
  "kwano": 6133,
  "yisa": 6134,
  "zaala": 6135,
  "\u258117.)": 6136,
  "\u258132,": 6137,
  "\u2581500": 6138,
  "\u2581Ffe": 6139,
  "\u2581Nawomi": 6140,
  "\u2581Tito": 6141,
  "\u2581Weewal": 6142,
  "\u2581bawagira": 6143,
  "\u2581cared": 6144,
  "\u2581convey": 6145,
  "\u2581grant": 6146,
  "\u2581hidden": 6147,
  "\u2581hundred": 6148,
  "\u2581kubaako": 6149,
  "\u2581kubeerawo": 6150,
  "\u2581privileged": 6151,
  "\u2581singing": 6152,
  "\u2581yakikola": 6153,
  "\u2581yinci": 6154,
  "Omuwendo": 6155,
  "agwanidde": 6156,
  "disfellowshipped": 6157,
  "enjuba": 6158,
  "nkolagana": 6159,
  "omuweereza": 6160,
  "tunuulira": 6161,
  "ula": 6162,
  "\u2581Baf": 6163,
  "\u2581Ke": 6164,
  "\u2581Making": 6165,
  "\u2581Piraato": 6166,
  "\u2581Truth": 6167,
  "\u2581broke": 6168,
  "\u2581campaign": 6169,
  "\u2581color": 6170,
  "\u2581damage": 6171,
  "\u2581empty": 6172,
  "\u2581etaano": 6173,
  "\u2581habit": 6174,
  "\u2581impact": 6175,
  "\u2581loyally": 6176,
  "\u2581lup": 6177,
  "\u2581miss": 6178,
  "\u2581mourning": 6179,
  "\u2581mpeereza": 6180,
  "\u2581nnyiriri": 6181,
  "\u2581okulowoozaako": 6182,
  "\u2581possibly": 6183,
  "\u2581poverty": 6184,
  "\u2581prize": 6185,
  "\u2581publicly": 6186,
  "\u2581qualify": 6187,
  "\u2581sa": 6188,
  "\u2581ssigala": 6189,
  "\u2581tekya": 6190,
  "\u2581top": 6191,
  "\u2581torture": 6192,
  "\u2581zokka": 6193,
  "Eby": 6194,
  "aleetera": 6195,
  "asaanidde": 6196,
  "by": 6197,
  "ensigalira": 6198,
  "siimibwa": 6199,
  "\u2581Basomi": 6200,
  "\u2581Biddibwamu": 6201,
  "\u2581Drama": 6202,
  "\u2581Ennaku": 6203,
  "\u2581German": 6204,
  "\u2581Isirayiri": 6205,
  "\u2581Okubuulira": 6206,
  "\u2581Olwo": 6207,
  "\u2581St": 6208,
  "\u2581Up": 6209,
  "\u2581balimu": 6210,
  "\u2581bategeera": 6211,
  "\u2581broken": 6212,
  "\u2581custom": 6213,
  "\u2581declaring": 6214,
  "\u2581desirable": 6215,
  "\u2581ebikyamu": 6216,
  "\u2581ekyaleetera": 6217,
  "\u2581expectation": 6218,
  "\u2581innocent": 6219,
  "\u2581lubege": 6220,
  "\u2581marital": 6221,
  "\u2581newly": 6222,
  "\u2581objective": 6223,
  "\u2581rescue": 6224,
  "\u2581rewarding": 6225,
  "agoberera": 6226,
  "ekifo": 6227,
  "enku\u014b\u014baana": 6228,
  "kula": 6229,
  "\u2581History": 6230,
  "\u2581Leader": 6231,
  "\u2581Malayika": 6232,
  "\u2581Naomi": 6233,
  "\u2581Sophia": 6234,
  "\u2581Teya": 6235,
  "\u2581abana": 6236,
  "\u2581absorb": 6237,
  "\u2581banyiikivu": 6238,
  "\u2581believing": 6239,
  "\u2581bwenzi": 6240,
  "\u2581center": 6241,
  "\u2581ebiwandiiko": 6242,
  "\u2581emisana": 6243,
  "\u2581esinga": 6244,
  "\u2581essatu": 6245,
  "\u2581impart": 6246,
  "\u2581method": 6247,
  "\u2581officials": 6248,
  "\u2581okuwasa": 6249,
  "\u2581okuyigirizibwa": 6250,
  "\u2581sirina": 6251,
  "\u2581stronger": 6252,
  "\u2581surrounded": 6253,
  "\u2581yatuteerawo": 6254,
  "akubibwa": 6255,
  "ies": 6256,
  "obujeemu": 6257,
  "obusungu": 6258,
  "tambula": 6259,
  "wera": 6260,
  "\u258115)": 6261,
  "\u25811930": 6262,
  "\u2581Alina": 6263,
  "\u2581Asia": 6264,
  "\u2581Babylonian": 6265,
  "\u2581Come": 6266,
  "\u2581Heart": 6267,
  "\u2581June": 6268,
  "\u2581Kabona": 6269,
  "\u2581Malyamu": 6270,
  "\u2581aboonoonyi": 6271,
  "\u2581atuwe": 6272,
  "\u2581bawaayo": 6273,
  "\u2581burn": 6274,
  "\u2581courageously": 6275,
  "\u2581dark": 6276,
  "\u2581ekyatuuka": 6277,
  "\u2581expects": 6278,
  "\u2581gamu": 6279,
  "\u2581grave": 6280,
  "\u2581miracle": 6281,
  "\u2581miraculous": 6282,
  "\u2581nfuna": 6283,
  "\u2581okubeerako": 6284,
  "\u2581reply": 6285,
  "\u2581soil": 6286,
  "\u2581sold": 6287,
  "\u2581suddenly": 6288,
  "\u2581tabernacle": 6289,
  "\u2581urge": 6290,
  "6:": 6291,
  "Kubanga": 6292,
  "NGA": 6293,
  "ern": 6294,
  "ganyula": 6295,
  "kifuula": 6296,
  "kutte": 6297,
  "not": 6298,
  "obulwadde": 6299,
  "wala": 6300,
  "\u25811918": 6301,
  "\u2581Col": 6302,
  "\u2581Committee": 6303,
  "\u2581Pentekooti": 6304,
  "\u2581Rutherford": 6305,
  "\u2581acknowledged": 6306,
  "\u2581anxieties": 6307,
  "\u2581comment": 6308,
  "\u2581delighted": 6309,
  "\u2581empower": 6310,
  "\u2581enzikiriza": 6311,
  "\u2581exposed": 6312,
  "\u2581ffeeza": 6313,
  "\u2581kukolera": 6314,
  "\u2581male": 6315,
  "\u2581miraculously": 6316,
  "\u2581obutukuvu": 6317,
  "\u2581tired": 6318,
  "\u2581tukoma": 6319,
  "\u2581tukoze": 6320,
  "\u2581vidiyo": 6321,
  "F": 6322,
  "KOZES": 6323,
  "No": 6324,
  "Your": 6325,
  "akiikirira": 6326,
  "atonda": 6327,
  "ggyeeko": 6328,
  "goba": 6329,
  "obuwumbi": 6330,
  "omuti": 6331,
  "raba": 6332,
  "siba": 6333,
  "yayogerwa": 6334,
  "\u2581Abakulembez": 6335,
  "\u2581Back": 6336,
  "\u2581Congregation": 6337,
  "\u2581Ebiri": 6338,
  "\u2581Egyptian": 6339,
  "\u2581Find": 6340,
  "\u2581Gideon": 6341,
  "\u2581Gospels": 6342,
  "\u2581Jas": 6343,
  "\u2581KA": 6344,
  "\u2581Ruler": 6345,
  "\u2581Way": 6346,
  "\u2581abaami": 6347,
  "\u2581amagye": 6348,
  "\u2581approaching": 6349,
  "\u2581baddu": 6350,
  "\u2581butaka": 6351,
  "\u2581crowds": 6352,
  "\u2581ddwaliro": 6353,
  "\u2581distant": 6354,
  "\u2581explanation": 6355,
  "\u2581eyayogeddwako": 6356,
  "\u2581mmanyi": 6357,
  "\u2581muliraanwa": 6358,
  "\u2581muno": 6359,
  "\u2581ntuufu": 6360,
  "\u2581obuweerero": 6361,
  "\u2581okukulembera": 6362,
  "\u2581okukuza": 6363,
  "\u2581okweyimirizaawo": 6364,
  "\u2581opposed": 6365,
  "\u2581plague": 6366,
  "\u2581pleasant": 6367,
  "\u2581prais": 6368,
  "\u2581priorities": 6369,
  "\u2581returning": 6370,
  "\u2581scholars": 6371,
  "\u2581shortly": 6372,
  "\u2581tebaalina": 6373,
  "\u2581warnings": 6374,
  "\u2581ziraga": 6375,
  "Go": 6376,
  "abafu": 6377,
  "agaana": 6378,
  "asinga": 6379,
  "ebitundu": 6380,
  "enjigiriza": 6381,
  "kiika": 6382,
  "obusobozi": 6383,
  "okugoberera": 6384,
  "okusingawo": 6385,
  "udio": 6386,
  "\u2581Abafumbo": 6387,
  "\u2581Aka": 6388,
  "\u2581Bajja": 6389,
  "\u2581Charles": 6390,
  "\u2581Close": 6391,
  "\u2581Olukumi": 6392,
  "\u2581Omuddu": 6393,
  "\u2581agreed": 6394,
  "\u2581awe": 6395,
  "\u2581basiima": 6396,
  "\u2581churches": 6397,
  "\u2581current": 6398,
  "\u2581doctor": 6399,
  "\u2581eliminate": 6400,
  "\u2581etukubiriza": 6401,
  "\u2581faces": 6402,
  "\u2581factor": 6403,
  "\u2581famine": 6404,
  "\u2581heal": 6405,
  "\u2581kumala": 6406,
  "\u2581lyato": 6407,
  "\u2581mutyo": 6408,
  "\u2581nsozi": 6409,
  "\u2581obulimba": 6410,
  "\u2581okuddirira": 6411,
  "\u2581okusonyiyibwa": 6412,
  "\u2581okusunguwala": 6413,
  "\u2581okwefiiriza": 6414,
  "\u2581printed": 6415,
  "\u2581priority": 6416,
  "\u2581reflects": 6417,
  "\u2581schedule": 6418,
  "\u2581sets": 6419,
  "Amawanga": 6420,
  "Nna": 6421,
  "alabirira": 6422,
  "ally": 6423,
  "asanyukira": 6424,
  "lisikira": 6425,
  "okusigala": 6426,
  "okwoleka": 6427,
  "tego": 6428,
  "yigganya": 6429,
  "\u25813.)": 6430,
  "\u2581300": 6431,
  "\u2581Encyclopedia": 6432,
  "\u2581Enjiri": 6433,
  "\u2581Imitate": 6434,
  "\u2581Lebbeeka": 6435,
  "\u2581Nisan": 6436,
  "\u2581Wali": 6437,
  "\u2581Yabagamba": 6438,
  "\u2581addamu": 6439,
  "\u2581akaddiye": 6440,
  "\u2581application": 6441,
  "\u2581baddayo": 6442,
  "\u2581bamuwuliriza": 6443,
  "\u2581beewala": 6444,
  "\u2581cast": 6445,
  "\u2581caught": 6446,
  "\u2581completed": 6447,
  "\u2581contained": 6448,
  "\u2581cultivating": 6449,
  "\u2581emotionally": 6450,
  "\u2581exciting": 6451,
  "\u2581fallen": 6452,
  "\u2581feature": 6453,
  "\u2581guilty": 6454,
  "\u2581gujja": 6455,
  "\u2581humankind": 6456,
  "\u2581kisibo": 6457,
  "\u2581kituukirawo": 6458,
  "\u2581minded": 6459,
  "\u2581mwetoowaze": 6460,
  "\u2581obstacles": 6461,
  "\u2581okubudaabudibwa": 6462,
  "\u2581okukubaganya": 6463,
  "\u2581proclaimers": 6464,
  "\u2581steadfast": 6465,
  "\u2581tebakkiriza": 6466,
  "\u2581trees": 6467,
  "\u2581tuwagira": 6468,
  "\u2581wholesome": 6469,
  "asoma": 6470,
  "ire": 6471,
  "koppa": 6472,
  "kulembeza": 6473,
  "obwa": 6474,
  "olutalo": 6475,
  "w": 6476,
  "\u25818]": 6477,
  "\u2581Biri": 6478,
  "\u2581Faithful": 6479,
  "\u2581November": 6480,
  "\u2581Okutya": 6481,
  "\u2581Yawandiika": 6482,
  "\u2581Yeeku": 6483,
  "\u2581addressed": 6484,
  "\u2581amangi": 6485,
  "\u2581baatuuka": 6486,
  "\u2581babatizibwa": 6487,
  "\u2581beebuuza": 6488,
  "\u2581burning": 6489,
  "\u2581continually": 6490,
  "\u2581covered": 6491,
  "\u2581cup": 6492,
  "\u2581ekitegeeza": 6493,
  "\u2581engag": 6494,
  "\u2581kiragibwa": 6495,
  "\u2581kubatizibwa": 6496,
  "\u2581kusigala": 6497,
  "\u2581kwenyigira": 6498,
  "\u2581kyaliwo": 6499,
  "\u2581kyannyamba": 6500,
  "\u2581listed": 6501,
  "\u2581looks": 6502,
  "\u2581mukozi": 6503,
  "\u2581nnayiga": 6504,
  "\u2581okuzi": 6505,
  "\u2581profound": 6506,
  "\u2581reap": 6507,
  "\u2581reflecting": 6508,
  "\u2581rejoicing": 6509,
  "\u2581sayings": 6510,
  "\u2581teenager": 6511,
  "\u2581texts": 6512,
  "\u2581tumu": 6513,
  "\u2581yagattako": 6514,
  "\u2581yasanyuka": 6515,
  "emikisa": 6516,
  "emmunyeenye": 6517,
  "kulemberwa": 6518,
  "lugero": 6519,
  "nu": 6520,
  "nyiiza": 6521,
  "obutaba": 6522,
  "yambe": 6523,
  "\u2581BW": 6524,
  "\u2581Koola": 6525,
  "\u2581Lungereza": 6526,
  "\u2581Next": 6527,
  "\u2581Reflect": 6528,
  "\u2581Times": 6529,
  "\u2581aged": 6530,
  "\u2581amayinja": 6531,
  "\u2581atuyambe": 6532,
  "\u2581budde": 6533,
  "\u2581bugolokofu": 6534,
  "\u2581bukyali": 6535,
  "\u2581conducted": 6536,
  "\u2581cruel": 6537,
  "\u2581deceived": 6538,
  "\u2581diligent": 6539,
  "\u2581except": 6540,
  "\u2581kutandika": 6541,
  "\u2581length": 6542,
  "\u2581lg": 6543,
  "\u2581memory": 6544,
  "\u2581nnagenda": 6545,
  "\u2581obugagga": 6546,
  "\u2581okugezesebwa": 6547,
  "\u2581okweteerawo": 6548,
  "\u2581principal": 6549,
  "\u2581reserved": 6550,
  "\u2581rewards": 6551,
  "\u2581siri": 6552,
  "\u2581tussa": 6553,
  "amasanyu": 6554,
  "asuubiza": 6555,
  "baamu": 6556,
  "but": 6557,
  "ebula": 6558,
  "eewaayo": 6559,
  "songa": 6560,
  "\u258112)": 6561,
  "\u25812004": 6562,
  "\u2581Balunabba": 6563,
  "\u2581Ge": 6564,
  "\u2581Mutonzi": 6565,
  "\u2581Okufa": 6566,
  "\u2581Tw": 6567,
  "\u2581add": 6568,
  "\u2581akya": 6569,
  "\u2581bassa": 6570,
  "\u2581believer": 6571,
  "\u2581bukiika": 6572,
  "\u2581cold": 6573,
  "\u2581declaration": 6574,
  "\u2581deeper": 6575,
  "\u2581ebisatu": 6576,
  "\u2581educational": 6577,
  "\u2581ekiva": 6578,
  "\u2581ensonyi": 6579,
  "\u2581hated": 6580,
  "\u2581highlights": 6581,
  "\u2581kamu": 6582,
  "\u2581kungi": 6583,
  "\u2581manifested": 6584,
  "\u2581mmu": 6585,
  "\u2581nkulu": 6586,
  "\u2581nnya": 6587,
  "\u2581prejudice": 6588,
  "\u2581proclaim": 6589,
  "\u2581psalm": 6590,
  "\u2581quit": 6591,
  "\u2581searching": 6592,
  "\u2581stories": 6593,
  "\u2581surface": 6594,
  "\u2581temper": 6595,
  "abakulembeze": 6596,
  "alabika": 6597,
  "alekera": 6598,
  "il": 6599,
  "omubi": 6600,
  "put": 6601,
  "sala": 6602,
  "ton": 6603,
  "\u25812002": 6604,
  "\u25812015": 6605,
  "\u2581Jjuuni": 6606,
  "\u2581Marriage": 6607,
  "\u2581Mujulirwa": 6608,
  "\u2581Nations": 6609,
  "\u2581Omwak": 6610,
  "\u2581Pilate": 6611,
  "\u2581Purpose": 6612,
  "\u2581appealing": 6613,
  "\u2581babeere": 6614,
  "\u2581bitter": 6615,
  "\u2581east": 6616,
  "\u2581ebyetaago": 6617,
  "\u2581friendships": 6618,
  "\u2581hates": 6619,
  "\u2581heads": 6620,
  "\u2581healed": 6621,
  "\u2581kitalo": 6622,
  "\u2581kuwaayo": 6623,
  "\u2581lips": 6624,
  "\u2581mwenge": 6625,
  "\u2581okuluubirira": 6626,
  "\u2581okungi": 6627,
  "\u2581omulabirizi": 6628,
  "\u2581pictures": 6629,
  "\u2581plant": 6630,
  "\u2581proceeded": 6631,
  "\u2581reputation": 6632,
  "\u2581rock": 6633,
  "\u2581thrown": 6634,
  "\u2581tutunula": 6635,
  "\u2581watching": 6636,
  "\u2581yaleetera": 6637,
  "\u2581yamuddamu": 6638,
  "37": 6639,
  "Koppa": 6640,
  "azi": 6641,
  "bye": 6642,
  "kiwandiiko": 6643,
  "nyi": 6644,
  "ogenda": 6645,
  "ry": 6646,
  "ward": 6647,
  "\u25813,000": 6648,
  "\u2581Fear": 6649,
  "\u2581Jephthah": 6650,
  "\u2581News": 6651,
  "\u2581Poland": 6652,
  "\u2581Sodomu": 6653,
  "\u2581Spiritual": 6654,
  "\u2581Yearbook": 6655,
  "\u2581abaagalwa": 6656,
  "\u2581anymore": 6657,
  "\u2581aw": 6658,
  "\u2581bayita": 6659,
  "\u2581clergy": 6660,
  "\u2581ebitaliimu": 6661,
  "\u2581ekiwanvu": 6662,
  "\u2581gained": 6663,
  "\u2581gakyusiddwa": 6664,
  "\u2581harsh": 6665,
  "\u2581images": 6666,
  "\u2581imitating": 6667,
  "\u2581kireeta": 6668,
  "\u2581labor": 6669,
  "\u2581lion": 6670,
  "\u2581malala": 6671,
  "\u2581mine": 6672,
  "\u2581obligation": 6673,
  "\u2581obuva": 6674,
  "\u2581okusaasira": 6675,
  "\u2581okwolesebwa": 6676,
  "\u2581omubuulizi": 6677,
  "\u2581played": 6678,
  "\u2581priesthood": 6679,
  "\u2581reads": 6680,
  "\u2581tear": 6681,
  "\u2581tebasaanidde": 6682,
  "\u2581tebatuukiridde": 6683,
  "\u2581threat": 6684,
  "\u2581weeds": 6685,
  "\u2581yalu\u014b\u014bamizibwa": 6686,
  "\u2581yatandikawo": 6687,
  "%": 6688,
  "Nga": 6689,
  "ard": 6690,
  "obulenzi": 6691,
  "okumala": 6692,
  "okw": 6693,
  "omugaso": 6694,
  "ssaawo": 6695,
  "weza": 6696,
  "\u25811,000": 6697,
  "\u2581103": 6698,
  "\u2581Korea": 6699,
  "\u2581Maintain": 6700,
  "\u2581Nineeve": 6701,
  "\u2581Okusingir": 6702,
  "\u2581Pray": 6703,
  "\u2581admits": 6704,
  "\u2581agatali": 6705,
  "\u2581akubiriza": 6706,
  "\u2581asleep": 6707,
  "\u2581assemblies": 6708,
  "\u2581bound": 6709,
  "\u2581bukuumi": 6710,
  "\u2581capable": 6711,
  "\u2581defend": 6712,
  "\u2581dust": 6713,
  "\u2581finish": 6714,
  "\u2581foot": 6715,
  "\u2581judgments": 6716,
  "\u2581kitangaala": 6717,
  "\u2581kufuga": 6718,
  "\u2581kumalawo": 6719,
  "\u2581ngalo": 6720,
  "\u2581nkimanyi": 6721,
  "\u2581okutali": 6722,
  "\u2581okuwonya": 6723,
  "\u2581okuzuula": 6724,
  "\u2581patriarch": 6725,
  "\u2581shoulder": 6726,
  "\u2581stumble": 6727,
  "\u2581tested": 6728,
  "\u2581thrilling": 6729,
  "\u2581tukoppa": 6730,
  "\u2581tusanga": 6731,
  "\u2581tuwa": 6732,
  "\u2581watya": 6733,
  "\u2581widows": 6734,
  "ababi": 6735,
  "ekikulu": 6736,
  "e\u014b\u014baano": 6737,
  "fuulibwa": 6738,
  "kirabye": 6739,
  "malira": 6740,
  "okugezesebwa": 6741,
  "okwambala": 6742,
  "oto": 6743,
  "that": 6744,
  "\u2581Bwasuli": 6745,
  "\u2581IT": 6746,
  "\u2581Kit": 6747,
  "\u2581Muli": 6748,
  "\u2581Noovemba": 6749,
  "\u2581Often": 6750,
  "\u2581Okusinza": 6751,
  "\u2581View": 6752,
  "\u2581ayamba": 6753,
  "\u2581basinga": 6754,
  "\u2581batu": 6755,
  "\u2581boys": 6756,
  "\u2581bwokka": 6757,
  "\u2581copies": 6758,
  "\u2581credit": 6759,
  "\u2581crime": 6760,
  "\u2581ebisolo": 6761,
  "\u2581effectively": 6762,
  "\u2581kibonyoobonyo": 6763,
  "\u2581kwekenneenya": 6764,
  "\u2581nneetaaga": 6765,
  "\u2581obeyed": 6766,
  "\u2581okun": 6767,
  "\u2581okuzaala": 6768,
  "\u2581pursuit": 6769,
  "\u2581repeated": 6770,
  "\u2581talks": 6771,
  "\u2581tempered": 6772,
  "\u2581twandibadde": 6773,
  "\u2581valid": 6774,
  "Happy": 6775,
  "TABO": 6776,
  "Who": 6777,
  "aki": 6778,
  "am": 6779,
  "enjiri": 6780,
  "ler": 6781,
  "nenya": 6782,
  "weereza": 6783,
  "\u258152": 6784,
  "\u258162": 6785,
  "\u2581Arthur": 6786,
  "\u2581EBITUNDU": 6787,
  "\u2581Ekituufu": 6788,
  "\u2581Ekyawandiikibwa": 6789,
  "\u2581Herod": 6790,
  "\u2581Josiah": 6791,
  "\u2581Okwogera": 6792,
  "\u2581Priest": 6793,
  "\u2581Says": 6794,
  "\u2581Spanish": 6795,
  "\u2581abakyali": 6796,
  "\u2581abuulira": 6797,
  "\u2581arose": 6798,
  "\u2581baasobola": 6799,
  "\u2581bannamwandu": 6800,
  "\u2581basazeewo": 6801,
  "\u2581bugagga": 6802,
  "\u2581examination": 6803,
  "\u2581foolish": 6804,
  "\u2581forgiven": 6805,
  "\u2581inspiring": 6806,
  "\u2581kuzimba": 6807,
  "\u2581kyalo": 6808,
  "\u2581kyandiba": 6809,
  "\u2581mulwadde": 6810,
  "\u2581okufumbiriganwa": 6811,
  "\u2581okukangavvula": 6812,
  "\u2581tetumanyi": 6813,
  "\u2581tools": 6814,
  "\u2581ve": 6815,
  "\u2581victim": 6816,
  "\u2581visible": 6817,
  "\u2581whereas": 6818,
  "\u2581witnessed": 6819,
  "\u2581zzadde": 6820,
  "Etteeka": 6821,
  "abadde": 6822,
  "emikono": 6823,
  "kukubiriza": 6824,
  "kuumira": 6825,
  "lumba": 6826,
  "saba": 6827,
  "sendasenda": 6828,
  "\u0131": 6829,
  "\u2581'!": 6830,
  "\u2581Above": 6831,
  "\u2581Ey": 6832,
  "\u2581Jude": 6833,
  "\u2581Nasani": 6834,
  "\u2581Teacher": 6835,
  "\u2581Yosiya": 6836,
  "\u2581abagamba": 6837,
  "\u2581akayitibwa": 6838,
  "\u2581associations": 6839,
  "\u2581awadde": 6840,
  "\u2581bumanyirivu": 6841,
  "\u2581chance": 6842,
  "\u2581cherish": 6843,
  "\u2581context": 6844,
  "\u2581discussing": 6845,
  "\u2581fulfilling": 6846,
  "\u2581greed": 6847,
  "\u2581hesitate": 6848,
  "\u2581kuweebwa": 6849,
  "\u2581obut": 6850,
  "\u2581okunyumirwa": 6851,
  "\u2581okweggyamu": 6852,
  "\u2581sorrow": 6853,
  "\u2581terrible": 6854,
  "\u2581tubadde": 6855,
  "\u2581unexpected": 6856,
  "\u2581waka": 6857,
  "\u2581weebuuze": 6858,
  "\u2581won": 6859,
  "\u2581yaleka": 6860,
  "Amaka": 6861,
  "Oluku\u014b\u014baana": 6862,
  "ebibuga": 6863,
  "ebyalu\u014b\u014bamizibwa": 6864,
  "edia": 6865,
  "egyo": 6866,
  "eruwa": 6867,
  "good": 6868,
  "kulembera": 6869,
  "kwatagana": 6870,
  "mwekenneenya": 6871,
  "omukka": 6872,
  "saanyaawo": 6873,
  "sigira": 6874,
  "\u258128]": 6875,
  "\u25813]": 6876,
  "\u258154": 6877,
  "\u2581Abakazi": 6878,
  "\u2581Abusaalomu": 6879,
  "\u2581Bag": 6880,
  "\u2581Besides": 6881,
  "\u2581East": 6882,
  "\u2581Elders": 6883,
  "\u2581Gal": 6884,
  "\u2581Kerode": 6885,
  "\u2581Mother": 6886,
  "\u2581Njiri": 6887,
  "\u2581Obufumbo": 6888,
  "\u2581Were": 6889,
  "\u2581abagagga": 6890,
  "\u2581abasumba": 6891,
  "\u2581abawala": 6892,
  "\u2581abeere": 6893,
  "\u2581accompany": 6894,
  "\u2581avoided": 6895,
  "\u2581backing": 6896,
  "\u2581bakubirizibwa": 6897,
  "\u2581birds": 6898,
  "\u2581bride": 6899,
  "\u2581captivity": 6900,
  "\u2581debt": 6901,
  "\u2581depression": 6902,
  "\u2581doubts": 6903,
  "\u2581ekyavvuunulwa": 6904,
  "\u2581ends": 6905,
  "\u2581enjawukana": 6906,
  "\u2581eternity": 6907,
  "\u2581frequently": 6908,
  "\u2581kibala": 6909,
  "\u2581ogutazikira": 6910,
  "\u2581okutendekebwa": 6911,
  "\u2581opinion": 6912,
  "\u2581passage": 6913,
  "\u2581preserved": 6914,
  "\u2581requirement": 6915,
  "\u2581respects": 6916,
  "\u2581sitting": 6917,
  "\u2581tent": 6918,
  "\u2581victims": 6919,
  "Nnali": 6920,
  "akolera": 6921,
  "ekyewuunyisa": 6922,
  "enguzi": 6923,
  "\u011f": 6924,
  "\u258133,": 6925,
  "\u258141.": 6926,
  "\u2581Bakkiriza": 6927,
  "\u2581Jehu": 6928,
  "\u2581Judge": 6929,
  "\u2581River": 6930,
  "\u2581Thousand": 6931,
  "\u2581Three": 6932,
  "\u2581accused": 6933,
  "\u2581adopted": 6934,
  "\u2581amazing": 6935,
  "\u2581armor": 6936,
  "\u2581babonaabona": 6937,
  "\u2581charge": 6938,
  "\u2581claimed": 6939,
  "\u2581condemned": 6940,
  "\u2581continuing": 6941,
  "\u2581hell": 6942,
  "\u2581highlight": 6943,
  "\u2581huge": 6944,
  "\u2581increasing": 6945,
  "\u2581kisuubizo": 6946,
  "\u2581kugezesebwa": 6947,
  "\u2581kuggyawo": 6948,
  "\u2581lacking": 6949,
  "\u2581munnaffe": 6950,
  "\u2581nneeyongera": 6951,
  "\u2581obutakkaanya": 6952,
  "\u2581okugaziya": 6953,
  "\u2581okusisinkana": 6954,
  "\u2581okutabagana": 6955,
  "\u2581omuti": 6956,
  "\u2581peer": 6957,
  "\u2581planning": 6958,
  "\u2581portion": 6959,
  "\u2581reasoned": 6960,
  "\u2581rendering": 6961,
  "\u2581sincerely": 6962,
  "\u2581stat": 6963,
  "\u2581wholeheartedly": 6964,
  "\u2581yunivasite": 6965,
  "\u2581ziri": 6966,
  "ING": 6967,
  "Olw": 6968,
  "ago": 6969,
  "alyoka": 6970,
  "entiisa": 6971,
  "enyigira": 6972,
  "okugamba": 6973,
  "olaba": 6974,
  "pa": 6975,
  "tusanyusa": 6976,
  "\u2581150": 6977,
  "\u25812001": 6978,
  "\u258121.)": 6979,
  "\u2581Again": 6980,
  "\u2581Cameron": 6981,
  "\u2581City": 6982,
  "\u2581February": 6983,
  "\u2581Gi": 6984,
  "\u2581Jehoshaphat": 6985,
  "\u2581Kiri": 6986,
  "\u2581Korah": 6987,
  "\u2581Mulimu": 6988,
  "\u2581abajeemu": 6989,
  "\u2581apostates": 6990,
  "\u2581bakyala": 6991,
  "\u2581bitonde": 6992,
  "\u2581capital": 6993,
  "\u2581comfortable": 6994,
  "\u2581deserve": 6995,
  "\u2581development": 6996,
  "\u2581ebitukuvu": 6997,
  "\u2581ebyatuuka": 6998,
  "\u2581ebyogera": 6999,
  "\u2581eddagala": 7000,
  "\u2581everywhere": 7001,
  "\u2581eyandi": 7002,
  "\u2581generosity": 7003,
  "\u2581gweyongera": 7004,
  "\u2581healing": 7005,
  "\u2581object": 7006,
  "\u2581oppose": 7007,
  "\u2581quiet": 7008,
  "\u2581resurrect": 7009,
  "\u2581running": 7010,
  "\u2581shield": 7011,
  "\u2581solution": 7012,
  "\u2581stayed": 7013,
  "\u2581street": 7014,
  "\u2581widely": 7015,
  "\u2581zzaabu": 7016,
  "Omulimu": 7017,
  "angelic": 7018,
  "ayogerwako": 7019,
  "ensibuko": 7020,
  "langirira": 7021,
  "oyogera": 7022,
  "yigiriza": 7023,
  "\u258110)": 7024,
  "\u258113)": 7025,
  "\u25812006": 7026,
  "\u258197": 7027,
  "\u2581Abatume": 7028,
  "\u2581Barnabas": 7029,
  "\u2581England": 7030,
  "\u2581Gold": 7031,
  "\u2581Temu": 7032,
  "\u2581Walk": 7033,
  "\u2581Which": 7034,
  "\u2581arms": 7035,
  "\u2581baalaga": 7036,
  "\u2581brain": 7037,
  "\u2581butali": 7038,
  "\u2581comforted": 7039,
  "\u2581crushed": 7040,
  "\u2581ebiwerako": 7041,
  "\u2581ekibinja": 7042,
  "\u2581executed": 7043,
  "\u2581gaining": 7044,
  "\u2581gimu": 7045,
  "\u2581headship": 7046,
  "\u2581hoped": 7047,
  "\u2581losing": 7048,
  "\u2581musingi": 7049,
  "\u2581obulombolombo": 7050,
  "\u2581obusosoze": 7051,
  "\u2581okuggyawo": 7052,
  "\u2581omuyigirizwa": 7053,
  "\u2581omwetoowaze": 7054,
  "\u2581practicing": 7055,
  "\u2581table": 7056,
  "\u2581twabanga": 7057,
  "\u2581understands": 7058,
  ",\"": 7059,
  "ES": 7060,
  "baddewo": 7061,
  "etuyamba": 7062,
  "gatta": 7063,
  "gezesa": 7064,
  "kulaakulana": 7065,
  "oluku\u014b\u014baana": 7066,
  "zirina": 7067,
  "\u258111]": 7068,
  "\u25811940": 7069,
  "\u2581Absalom": 7070,
  "\u2581Bethlehem": 7071,
  "\u2581Canaan": 7072,
  "\u2581Dictionary": 7073,
  "\u2581Ebyafaayo": 7074,
  "\u2581Sisera": 7075,
  "\u2581Use": 7076,
  "\u2581abasawo": 7077,
  "\u2581adults": 7078,
  "\u2581akafuzi": 7079,
  "\u2581appointment": 7080,
  "\u2581asazeewo": 7081,
  "\u2581brocuwa": 7082,
  "\u2581conform": 7083,
  "\u2581ekiweebwayo": 7084,
  "\u2581experiencing": 7085,
  "\u2581fears": 7086,
  "\u2581haughty": 7087,
  "\u2581immediate": 7088,
  "\u2581instruct": 7089,
  "\u2581kuku": 7090,
  "\u2581kyeyolekera": 7091,
  "\u2581leadership": 7092,
  "\u2581nsibuko": 7093,
  "\u2581nsolo": 7094,
  "\u2581obujulizi": 7095,
  "\u2581okwali": 7096,
  "\u2581omwonoonyi": 7097,
  "\u2581phone": 7098,
  "\u2581prophesied": 7099,
  "\u2581selected": 7100,
  "\u2581spending": 7101,
  "\u2581translations": 7102,
  "\u2581wabaddewo": 7103,
  "\u2581wear": 7104,
  "Ai": 7105,
  "J": 7106,
  "Okwagala": 7107,
  "Ow": 7108,
  "akuwe": 7109,
  "atayagala": 7110,
  "kye": 7111,
  "langa": 7112,
  "mmaze": 7113,
  "noonyereza": 7114,
  "obe": 7115,
  "obudde": 7116,
  "okulabirako": 7117,
  "omukungu": 7118,
  "sinziira": 7119,
  "\u25812016": 7120,
  "\u258191": 7121,
  "\u2581AND": 7122,
  "\u2581DO": 7123,
  "\u2581EBYAFAAYO": 7124,
  "\u2581Enku\u014b\u014baana": 7125,
  "\u2581Evidently": 7126,
  "\u2581International": 7127,
  "\u2581Kitammwe": 7128,
  "\u2581Kuv": 7129,
  "\u2581Rebekah": 7130,
  "\u2581Seed": 7131,
  "\u2581WHEN": 7132,
  "\u2581bavudde": 7133,
  "\u2581biva": 7134,
  "\u2581capacity": 7135,
  "\u2581commended": 7136,
  "\u2581discussions": 7137,
  "\u2581egiva": 7138,
  "\u2581feed": 7139,
  "\u2581fields": 7140,
  "\u2581hair": 7141,
  "\u2581kingship": 7142,
  "\u2581kiragiro": 7143,
  "\u2581kiva": 7144,
  "\u2581kugumiikiriza": 7145,
  "\u2581limu": 7146,
  "\u2581lwange": 7147,
  "\u2581ogumu": 7148,
  "\u2581okusanga": 7149,
  "\u2581olabe": 7150,
  "\u2581omukka": 7151,
  "\u2581omwezi": 7152,
  "\u2581overwhelmed": 7153,
  "\u2581satisfy": 7154,
  "\u2581similarly": 7155,
  "\u2581trustworthy": 7156,
  "\u2581tuyigiriza": 7157,
  "\u2581twalaba": 7158,
  "\u2581urgent": 7159,
  "Ani": 7160,
  "Essaala": 7161,
  "bo": 7162,
  "dda": 7163,
  "ekitangaala": 7164,
  "eraga": 7165,
  "ettemu": 7166,
  "gwanidde": 7167,
  "malamu": 7168,
  "sasula": 7169,
  "somera": 7170,
  "\u258117)": 7171,
  "\u258137,": 7172,
  "\u2581Bill": 7173,
  "\u2581Ezra": 7174,
  "\u2581Firipi": 7175,
  "\u2581Hope": 7176,
  "\u2581Human": 7177,
  "\u2581Index": 7178,
  "\u2581Karen": 7179,
  "\u2581Okunnyonnyola": 7180,
  "\u2581Theocratic": 7181,
  "\u2581University": 7182,
  "\u2581V": 7183,
  "\u2581akaali": 7184,
  "\u2581akawungeezi": 7185,
  "\u2581bakiraba": 7186,
  "\u2581deepen": 7187,
  "\u2581disappointed": 7188,
  "\u2581ebika": 7189,
  "\u2581finished": 7190,
  "\u2581gracious": 7191,
  "\u2581happening": 7192,
  "\u2581historical": 7193,
  "\u2581imperfections": 7194,
  "\u2581kukoma": 7195,
  "\u2581kwonoona": 7196,
  "\u2581mukola": 7197,
  "\u2581northern": 7198,
  "\u2581obuseera": 7199,
  "\u2581okugu": 7200,
  "\u2581okunywevu": 7201,
  "\u2581okwesanga": 7202,
  "\u2581omusomesa": 7203,
  "\u2581ordered": 7204,
  "\u2581origin": 7205,
  "\u2581previously": 7206,
  "\u2581ruled": 7207,
  "\u2581undergo": 7208,
  "Endiga": 7209,
  "IMBIBWA": 7210,
  "Why": 7211,
  "ala": 7212,
  "ennimi": 7213,
  "kosa": 7214,
  "malawo": 7215,
  "mpa": 7216,
  "ngo": 7217,
  "nzizaamu": 7218,
  "zze": 7219,
  "\u25812005": 7220,
  "\u2581Ebitukuvu": 7221,
  "\u2581End": 7222,
  "\u2581Omukadde": 7223,
  "\u2581Pentekoote": 7224,
  "\u2581TEACHINGS": 7225,
  "\u2581Trinity": 7226,
  "\u2581Trust": 7227,
  "\u2581Twali": 7228,
  "\u2581acquainted": 7229,
  "\u2581admit": 7230,
  "\u2581alabika": 7231,
  "\u2581badness": 7232,
  "\u2581bagondera": 7233,
  "\u2581bakkiririza": 7234,
  "\u2581commendation": 7235,
  "\u2581computer": 7236,
  "\u2581discouragement": 7237,
  "\u2581ebinaabaawo": 7238,
  "\u2581eyogerwako": 7239,
  "\u2581fled": 7240,
  "\u2581fourth": 7241,
  "\u2581gets": 7242,
  "\u2581kiruwa": 7243,
  "\u2581level": 7244,
  "\u2581measures": 7245,
  "\u2581minutes": 7246,
  "\u2581njogera": 7247,
  "\u2581pick": 7248,
  "\u2581project": 7249,
  "\u2581publisher": 7250,
  "\u2581realm": 7251,
  "\u2581refrain": 7252,
  "\u2581refreshment": 7253,
  "\u2581restoration": 7254,
  "\u2581safety": 7255,
  "\u2581taba": 7256,
  "\u2581types": 7257,
  "\u2581weigh": 7258,
  "\u2581yakozesanga": 7259,
  "\u2581yeebuuza": 7260,
  "\u2581yeewaayo": 7261,
  "Omuweereza": 7262,
  "TRY": 7263,
  "abangawo": 7264,
  "ag": 7265,
  "atuukiriza": 7266,
  "atwalibwa": 7267,
  "ca": 7268,
  "enkizo": 7269,
  "neeyongera": 7270,
  "ofuna": 7271,
  "zaalibwa": 7272,
  "\u2581200": 7273,
  "\u258175": 7274,
  "\u2581Albert": 7275,
  "\u2581Any": 7276,
  "\u2581Christmas": 7277,
  "\u2581El": 7278,
  "\u2581Ezi": 7279,
  "\u2581Highlight": 7280,
  "\u2581Kaggayi": 7281,
  "\u2581MAT": 7282,
  "\u2581akuyambe": 7283,
  "\u2581apostate": 7284,
  "\u2581bagaana": 7285,
  "\u2581bubonero": 7286,
  "\u2581cooperate": 7287,
  "\u2581creature": 7288,
  "\u2581depict": 7289,
  "\u2581ebyava": 7290,
  "\u2581equal": 7291,
  "\u2581favorably": 7292,
  "\u2581fed": 7293,
  "\u2581hide": 7294,
  "\u2581holds": 7295,
  "\u2581honesty": 7296,
  "\u2581hospital": 7297,
  "\u2581initial": 7298,
  "\u2581kibinja": 7299,
  "\u2581kitukubiriza": 7300,
  "\u2581kukuwa": 7301,
  "\u2581kyabanga": 7302,
  "\u2581kyandeetera": 7303,
  "\u2581lubeerera": 7304,
  "\u2581murder": 7305,
  "\u2581musumba": 7306,
  "\u2581mwannyina": 7307,
  "\u2581namely": 7308,
  "\u2581ndala": 7309,
  "\u2581nnee": 7310,
  "\u2581prompt": 7311,
  "\u2581select": 7312,
  "\u2581sending": 7313,
  "\u2581shame": 7314,
  "\u2581silent": 7315,
  "\u2581striving": 7316,
  "\u2581totally": 7317,
  "\u2581tugamba": 7318,
  "\u2581zitya": 7319,
  "Ekiro": 7320,
  "abatali": 7321,
  "abatuuze": 7322,
  "bulyi": 7323,
  "ebiruubirirwa": 7324,
  "ganya": 7325,
  "kolagana": 7326,
  "okukwata": 7327,
  "uuti": 7328,
  "yiga": 7329,
  "\u258111)": 7330,
  "\u258130:": 7331,
  "\u258138,": 7332,
  "\u258146.": 7333,
  "\u258147.": 7334,
  "\u2581Additional": 7335,
  "\u2581Besirekemu": 7336,
  "\u2581EKI": 7337,
  "\u2581Ennyo": 7338,
  "\u2581Esther": 7339,
  "\u2581OMU": 7340,
  "\u2581Red": 7341,
  "\u2581Ssaddaaka": 7342,
  "\u2581Try": 7343,
  "\u2581Wano": 7344,
  "\u2581abapya": 7345,
  "\u2581abawerako": 7346,
  "\u2581afterward": 7347,
  "\u2581atmosphere": 7348,
  "\u2581dies": 7349,
  "\u2581drugs": 7350,
  "\u2581dying": 7351,
  "\u2581ebbiri": 7352,
  "\u2581edition": 7353,
  "\u2581evolution": 7354,
  "\u2581gaba": 7355,
  "\u2581intimate": 7356,
  "\u2581iron": 7357,
  "\u2581judged": 7358,
  "\u2581kwongera": 7359,
  "\u2581maintained": 7360,
  "\u2581obtained": 7361,
  "\u2581obunyiikivu": 7362,
  "\u2581obuyigirize": 7363,
  "\u2581okukuumira": 7364,
  "\u2581omugabi": 7365,
  "\u2581omungi": 7366,
  "\u2581participate": 7367,
  "\u2581perfectly": 7368,
  "\u2581tumala": 7369,
  "\u2581tuyamba": 7370,
  "\u2581yamanya": 7371,
  "Abo": 7372,
  "NW": 7373,
  "akimanyi": 7374,
  "bonereza": 7375,
  "igation": 7376,
  "jjudde": 7377,
  "ling": 7378,
  "omanyi": 7379,
  "omukono": 7380,
  "sikiriza": 7381,
  "ut": 7382,
  "\u2581ENGER": 7383,
  "\u2581Goliyaasi": 7384,
  "\u2581Mean": 7385,
  "\u2581Saba": 7386,
  "\u2581Speaking": 7387,
  "\u2581Te": 7388,
  "\u2581akalaga": 7389,
  "\u2581apostasy": 7390,
  "\u2581bakoppa": 7391,
  "\u2581bakulu": 7392,
  "\u2581baliba": 7393,
  "\u2581beera": 7394,
  "\u2581biwandiiko": 7395,
  "\u2581clothes": 7396,
  "\u2581commissioned": 7397,
  "\u2581desired": 7398,
  "\u2581eddungi": 7399,
  "\u2581embalaasi": 7400,
  "\u2581emibiri": 7401,
  "\u2581errors": 7402,
  "\u2581garments": 7403,
  "\u2581handling": 7404,
  "\u2581mbadde": 7405,
  "\u2581missing": 7406,
  "\u2581mwenda": 7407,
  "\u2581okugaana": 7408,
  "\u2581partake": 7409,
  "\u2581planet": 7410,
  "\u2581prov": 7411,
  "\u2581receives": 7412,
  "\u2581sanctified": 7413,
  "\u2581specifically": 7414,
  "\u2581stumbling": 7415,
  "\u2581talents": 7416,
  "\u2581tebanna": 7417,
  "\u2581tek": 7418,
  "\u2581tolina": 7419,
  "\u2581tukirag": 7420,
  "\u2581turns": 7421,
  "\u2581unbelievers": 7422,
  "\u2581unfaithful": 7423,
  "\u2581unusual": 7424,
  "MU": 7425,
  "aweza": 7426,
  "ez": 7427,
  "ggwaawo": 7428,
  "ikisa": 7429,
  "kireetawo": 7430,
  "obukuumi": 7431,
  "reeta": 7432,
  "ssaza": 7433,
  "tandikira": 7434,
  "\u2581...": 7435,
  "\u25812007": 7436,
  "\u2581De": 7437,
  "\u2581Death": 7438,
  "\u2581Haggai": 7439,
  "\u2581Near": 7440,
  "\u2581Okubala": 7441,
  "\u2581Omuvubuka": 7442,
  "\u2581abaabanga": 7443,
  "\u2581adhere": 7444,
  "\u2581afflicted": 7445,
  "\u2581akatono": 7446,
  "\u2581amuyambe": 7447,
  "\u2581baavu": 7448,
  "\u2581bunaa": 7449,
  "\u2581bunafu": 7450,
  "\u2581conceal": 7451,
  "\u2581empewo": 7452,
  "\u2581ethnic": 7453,
  "\u2581extraordinary": 7454,
  "\u2581e\u014b\u014baano": 7455,
  "\u2581foremost": 7456,
  "\u2581hungry": 7457,
  "\u2581kituzzaa": 7458,
  "\u2581kunoonyereza": 7459,
  "\u2581nnakiraba": 7460,
  "\u2581nsoma": 7461,
  "\u2581okuganyula": 7462,
  "\u2581omuddo": 7463,
  "\u2581oppression": 7464,
  "\u2581outlook": 7465,
  "\u2581ran": 7466,
  "\u2581rebellious": 7467,
  "\u2581remembered": 7468,
  "\u2581testimony": 7469,
  "\u2581tewaali": 7470,
  "\u2581vain": 7471,
  "\u2581vivid": 7472,
  "\u2581yakwata": 7473,
  "\u2581yandikoze": 7474,
  "Abafalisaayo": 7475,
  "abayamba": 7476,
  "abu": 7477,
  "etaaga": 7478,
  "fiirwa": 7479,
  "kkirizibwa": 7480,
  "men": 7481,
  "miganyulo": 7482,
  "okufiirwa": 7483,
  "saasira": 7484,
  "tuukiridde": 7485,
  "tuwa": 7486,
  "zuula": 7487,
  "\u258163": 7488,
  "\u2581Andrew": 7489,
  "\u2581Become": 7490,
  "\u2581Christlike": 7491,
  "\u2581EKY": 7492,
  "\u2581Febwali": 7493,
  "\u2581Omuwala": 7494,
  "\u2581Ponti": 7495,
  "\u2581Samaliya": 7496,
  "\u2581Samaria": 7497,
  "\u2581Year": 7498,
  "\u2581abakyala": 7499,
  "\u2581abawandiisi": 7500,
  "\u2581associating": 7501,
  "\u2581assume": 7502,
  "\u2581bavubuka": 7503,
  "\u2581check": 7504,
  "\u2581depressed": 7505,
  "\u2581distinguish": 7506,
  "\u2581emyoyo": 7507,
  "\u2581enjuba": 7508,
  "\u2581eriva": 7509,
  "\u2581ettaka": 7510,
  "\u2581exercised": 7511,
  "\u2581exile": 7512,
  "\u2581kawee": 7513,
  "\u2581kukemebwa": 7514,
  "\u2581linked": 7515,
  "\u2581luvannyuma": 7516,
  "\u2581musisi": 7517,
  "\u2581okunyiikirira": 7518,
  "\u2581okusanyuka": 7519,
  "\u2581omugaati": 7520,
  "\u2581pity": 7521,
  "\u2581prosperity": 7522,
  "\u2581ridicule": 7523,
  "\u2581settle": 7524,
  "\u2581trap": 7525,
  "\u2581yaweereza": 7526,
  "Nn": 7527,
  "Wadd": 7528,
  "abaddu": 7529,
  "abatuukirivu": 7530,
  "anaaba": 7531,
  "buuza": 7532,
  "bya": 7533,
  "ebiri": 7534,
  "ebirungi": 7535,
  "gula": 7536,
  "nunula": 7537,
  "okukuuma": 7538,
  "okwesomesa": 7539,
  "soomooza": 7540,
  "tegeerera": 7541,
  "un": 7542,
  "\u2581110": 7543,
  "\u258113]": 7544,
  "\u258121]": 7545,
  "\u2581Abafalisaayo": 7546,
  "\u2581Baluki": 7547,
  "\u2581Britain": 7548,
  "\u2581Empire": 7549,
  "\u2581Kyeyolek": 7550,
  "\u2581Le": 7551,
  "\u2581Shepherd": 7552,
  "\u2581Teki": 7553,
  "\u2581Within": 7554,
  "\u2581Wo": 7555,
  "\u2581abamanyi": 7556,
  "\u2581accompanie": 7557,
  "\u2581achieve": 7558,
  "\u2581agreement": 7559,
  "\u2581blame": 7560,
  "\u2581bones": 7561,
  "\u2581comparison": 7562,
  "\u2581covering": 7563,
  "\u2581distressing": 7564,
  "\u2581doctrine": 7565,
  "\u2581duties": 7566,
  "\u2581ear": 7567,
  "\u2581emizannyo": 7568,
  "\u2581examining": 7569,
  "\u2581exchange": 7570,
  "\u2581expose": 7571,
  "\u2581fighting": 7572,
  "\u2581improper": 7573,
  "\u2581isolated": 7574,
  "\u2581judging": 7575,
  "\u2581lulwe": 7576,
  "\u2581lwonna": 7577,
  "\u2581mmotoka": 7578,
  "\u2581mubi": 7579,
  "\u2581mujja": 7580,
  "\u2581necessarily": 7581,
  "\u2581ogugamba": 7582,
  "\u2581omubereberye": 7583,
  "\u2581omukulembeze": 7584,
  "\u2581ongoing": 7585,
  "\u2581scientists": 7586,
  "\u2581seeming": 7587,
  "\u2581services": 7588,
  "\u2581site": 7589,
  "\u2581soldier": 7590,
  "\u2581soma": 7591,
  "\u2581team": 7592,
  "\u2581walaga": 7593,
  "\u2581yalekera": 7594,
  "\u25cf": 7595,
  "Enteekateeka": 7596,
  "Singa": 7597,
  "ZI": 7598,
  "ebitonde": 7599,
  "ekirabo": 7600,
  "ekyasa": 7601,
  "ewo": 7602,
  "fi": 7603,
  "ganyuddwa": 7604,
  "kubirizibwa": 7605,
  "leeta": 7606,
  "ngi": 7607,
  "okufuuka": 7608,
  "pe": 7609,
  "twetegereza": 7610,
  "viira": 7611,
  "vuga": 7612,
  "\u2581(2": 7613,
  "\u25811995": 7614,
  "\u2581Bantu": 7615,
  "\u2581Bulamu": 7616,
  "\u2581Ear": 7617,
  "\u2581Firipo": 7618,
  "\u2581French": 7619,
  "\u2581LIFE": 7620,
  "\u2581Much": 7621,
  "\u2581National": 7622,
  "\u2581Nebukadduneeza": 7623,
  "\u2581Omutukuvu": 7624,
  "\u2581Ones": 7625,
  "\u2581State": 7626,
  "\u2581Truly": 7627,
  "\u2581Z": 7628,
  "\u2581Zi": 7629,
  "\u2581abiri": 7630,
  "\u2581arrival": 7631,
  "\u2581asuubira": 7632,
  "\u2581asuubiza": 7633,
  "\u2581basobodde": 7634,
  "\u2581consult": 7635,
  "\u2581disposition": 7636,
  "\u2581ebinnyonnyol": 7637,
  "\u2581ebivaamu": 7638,
  "\u2581ebyambalo": 7639,
  "\u2581ekibala": 7640,
  "\u2581ekigereke": 7641,
  "\u2581ennyiriri": 7642,
  "\u2581execute": 7643,
  "\u2581extra": 7644,
  "\u2581fathers": 7645,
  "\u2581highlighted": 7646,
  "\u2581hunger": 7647,
  "\u2581illustrated": 7648,
  "\u2581illustrates": 7649,
  "\u2581interesting": 7650,
  "\u2581judicial": 7651,
  "\u2581kisanyusa": 7652,
  "\u2581kkanisa": 7653,
  "\u2581kugoberera": 7654,
  "\u2581kulekera": 7655,
  "\u2581messages": 7656,
  "\u2581muzadde": 7657,
  "\u2581obunene": 7658,
  "\u2581obuwulize": 7659,
  "\u2581okuku\u014b\u014baana": 7660,
  "\u2581okununulibwa": 7661,
  "\u2581omufuzi": 7662,
  "\u2581omukaaga": 7663,
  "\u2581positions": 7664,
  "\u2581river": 7665,
  "\u2581standpoint": 7666,
  "\u2581statements": 7667,
  "\u2581sufficient": 7668,
  "\u2581yategeeza": 7669,
  "\u2581yield": 7670,
  "Oli": 7671,
  "ROM": 7672,
  "amakungula": 7673,
  "asi": 7674,
  "atambulira": 7675,
  "ayoleka": 7676,
  "azikiriza": 7677,
  "fudde": 7678,
  "ish": 7679,
  "suulibwa": 7680,
  "tadde": 7681,
  "yisaamu": 7682,
  "yongera": 7683,
  "\u2581130": 7684,
  "\u2581Amataba": 7685,
  "\u2581Baruch": 7686,
  "\u2581Bassek": 7687,
  "\u2581Byom": 7688,
  "\u2581Consequently": 7689,
  "\u2581Don": 7690,
  "\u2581Ennungi": 7691,
  "\u2581Josephus": 7692,
  "\u2581Likely": 7693,
  "\u2581Malawi": 7694,
  "\u2581Meal": 7695,
  "\u2581Person": 7696,
  "\u2581Republic": 7697,
  "\u2581Thomas": 7698,
  "\u2581Yalina": 7699,
  "\u2581alongside": 7700,
  "\u2581amabaluwa": 7701,
  "\u2581atukubiriza": 7702,
  "\u2581atunuulira": 7703,
  "\u2581centered": 7704,
  "\u2581complex": 7705,
  "\u2581conflicts": 7706,
  "\u2581conquered": 7707,
  "\u2581correction": 7708,
  "\u2581disitulikiti": 7709,
  "\u2581ebirina": 7710,
  "\u2581ebyamagero": 7711,
  "\u2581emphasized": 7712,
  "\u2581ensure": 7713,
  "\u2581eriyo": 7714,
  "\u2581exhortation": 7715,
  "\u2581glorified": 7716,
  "\u2581guilt": 7717,
  "\u2581intelligent": 7718,
  "\u2581kikozesebwa": 7719,
  "\u2581kukyusa": 7720,
  "\u2581mulimba": 7721,
  "\u2581ntaana": 7722,
  "\u2581nzekka": 7723,
  "\u2581omwavu": 7724,
  "\u2581readers": 7725,
  "\u2581sinner": 7726,
  "\u2581sisobola": 7727,
  "\u2581submission": 7728,
  "\u2581survived": 7729,
  "\u2581tekyandi": 7730,
  "\u2581television": 7731,
  "\u2581thorough": 7732,
  "\u2581timely": 7733,
  "\u2581ttono": 7734,
  "\u2581tukyali": 7735,
  "\u2581yategeera": 7736,
  "Omutonzi": 7737,
  "abavubuka": 7738,
  "abeeranga": 7739,
  "anoonya": 7740,
  "doubtedly": 7741,
  "eka": 7742,
  "et": 7743,
  "ggwamu": 7744,
  "j": 7745,
  "kyaliwo": 7746,
  "maliriza": 7747,
  "menya": 7748,
  "mwe": 7749,
  "nyiigira": 7750,
  "okugumiikiriza": 7751,
  "pp": 7752,
  "ssuula": 7753,
  "\u2581133": 7754,
  "\u258129]": 7755,
  "\u2581Baalina": 7756,
  "\u2581Continue": 7757,
  "\u2581Emikisa": 7758,
  "\u2581Evening": 7759,
  "\u2581Ezera": 7760,
  "\u2581Ga": 7761,
  "\u2581Insight": 7762,
  "\u2581Kwe": 7763,
  "\u2581Latin": 7764,
  "\u2581Obulagirizi": 7765,
  "\u2581Okulaga": 7766,
  "\u2581Okunoonyereza": 7767,
  "\u2581Please": 7768,
  "\u2581Reign": 7769,
  "\u2581admonished": 7770,
  "\u2581arrive": 7771,
  "\u2581baalimu": 7772,
  "\u2581belonging": 7773,
  "\u2581bit": 7774,
  "\u2581dedicate": 7775,
  "\u2581ebikolebwa": 7776,
  "\u2581ekitala": 7777,
  "\u2581elsewhere": 7778,
  "\u2581greatness": 7779,
  "\u2581helper": 7780,
  "\u2581host": 7781,
  "\u2581injury": 7782,
  "\u2581kunyweza": 7783,
  "\u2581kweraliikirira": 7784,
  "\u2581mentions": 7785,
  "\u2581mid": 7786,
  "\u2581munyiikivu": 7787,
  "\u2581nguudo": 7788,
  "\u2581obubonero": 7789,
  "\u2581okulokolebwa": 7790,
  "\u2581openly": 7791,
  "\u2581opinions": 7792,
  "\u2581price": 7793,
  "\u2581replaced": 7794,
  "\u2581science": 7795,
  "\u2581sole": 7796,
  "\u2581stones": 7797,
  "\u2581struggling": 7798,
  "\u2581tutandika": 7799,
  "\u2581yandisobodde": 7800,
  "\u2581zzaala": 7801,
  "Omutima": 7802,
  "andisobodde": 7803,
  "anga": 7804,
  "awandiika": 7805,
  "ekyalu\u014b\u014bamizibwa": 7806,
  "enga": 7807,
  "lya": 7808,
  "muzingo": 7809,
  "nzi": 7810,
  "okusiima": 7811,
  "okusula": 7812,
  "taliiko": 7813,
  "\u258118)": 7814,
  "\u2581Chron": 7815,
  "\u2581Egyptians": 7816,
  "\u2581Ekizimb": 7817,
  "\u2581Knowing": 7818,
  "\u2581Okuyiga": 7819,
  "\u2581abaava": 7820,
  "\u2581banoonya": 7821,
  "\u2581bbugwe": 7822,
  "\u2581byaliwo": 7823,
  "\u2581cancer": 7824,
  "\u2581cried": 7825,
  "\u2581cross": 7826,
  "\u2581disappointment": 7827,
  "\u2581ebijja": 7828,
  "\u2581emblems": 7829,
  "\u2581enhance": 7830,
  "\u2581exemplary": 7831,
  "\u2581fresh": 7832,
  "\u2581kituganyula": 7833,
  "\u2581lwo": 7834,
  "\u2581mukisa": 7835,
  "\u2581mulabe": 7836,
  "\u2581obutono": 7837,
  "\u2581obutyabaga": 7838,
  "\u2581obvious": 7839,
  "\u2581okugezaako": 7840,
  "\u2581okulumba": 7841,
  "\u2581okwagalana": 7842,
  "\u2581omuvumu": 7843,
  "\u2581playing": 7844,
  "\u2581police": 7845,
  "\u2581prospects": 7846,
  "\u2581respected": 7847,
  "\u2581sing": 7848,
  "\u2581strike": 7849,
  "\u2581suggested": 7850,
  "\u2581suitable": 7851,
  "\u2581toli": 7852,
  "\u2581tufaayo": 7853,
  "\u2581video": 7854,
  "\u2581viewing": 7855,
  "\u2581worry": 7856,
  "\u2581yaaka": 7857,
  "Ku": 7858,
  "aleeta": 7859,
  "ance": 7860,
  "baleetedde": 7861,
  "ekyama": 7862,
  "fulumya": 7863,
  "funira": 7864,
  "kira": 7865,
  "kkiriziganya": 7866,
  "kolebwa": 7867,
  "kubibwa": 7868,
  "mukkiririzaamu": 7869,
  "obuvubuka": 7870,
  "os": 7871,
  "vudde": 7872,
  "wangula": 7873,
  "\u2581139": 7874,
  "\u258148.": 7875,
  "\u2581Accordingly": 7876,
  "\u2581Alex": 7877,
  "\u2581Brian": 7878,
  "\u2581Byakulabirako": 7879,
  "\u2581Ekirabo": 7880,
  "\u2581Happiness": 7881,
  "\u2581La": 7882,
  "\u2581Maker": 7883,
  "\u2581Numbers": 7884,
  "\u2581Psalms": 7885,
  "\u2581Put": 7886,
  "\u2581Sa": 7887,
  "\u2581Years": 7888,
  "\u2581bag": 7889,
  "\u2581buggya": 7890,
  "\u2581citizens": 7891,
  "\u2581confirm": 7892,
  "\u2581egitali": 7893,
  "\u2581ekibonerezo": 7894,
  "\u2581ekkulu": 7895,
  "\u2581empire": 7896,
  "\u2581fortify": 7897,
  "\u2581grieving": 7898,
  "\u2581kitusanyusa": 7899,
  "\u2581kyammwe": 7900,
  "\u2581lawlessness": 7901,
  "\u2581limits": 7902,
  "\u2581menu": 7903,
  "\u2581obukyayi": 7904,
  "\u2581officer": 7905,
  "\u2581okuyisa": 7906,
  "\u2581okwemulugunya": 7907,
  "\u2581omulenzi": 7908,
  "\u2581poliisi": 7909,
  "\u2581possibility": 7910,
  "\u2581reside": 7911,
  "\u2581sell": 7912,
  "\u2581solve": 7913,
  "\u2581tongues": 7914,
  "\u2581tukolagana": 7915,
  "\u2581tulakiti": 7916,
  "\u2581unwise": 7917,
  "\u2581wealthy": 7918,
  ",000": 7919,
  "abayigiriza": 7920,
  "akiri": 7921,
  "akolaganamu": 7922,
  "atandikawo": 7923,
  "butwala": 7924,
  "eyongerayongera": 7925,
  "kebera": 7926,
  "kyoleka": 7927,
  "lumirirwa": 7928,
  "omuwala": 7929,
  "ozesa": 7930,
  "\u258171": 7931,
  "\u2581Avoid": 7932,
  "\u2581Ghana": 7933,
  "\u2581Living": 7934,
  "\u2581Loving": 7935,
  "\u2581Madagascar": 7936,
  "\u2581Sayuuni": 7937,
  "\u2581abaliwo": 7938,
  "\u2581accident": 7939,
  "\u2581agasinga": 7940,
  "\u2581ashamed": 7941,
  "\u2581bawuliriza": 7942,
  "\u2581bbaasi": 7943,
  "\u2581birimu": 7944,
  "\u2581bitu": 7945,
  "\u2581bus": 7946,
  "\u2581byombi": 7947,
  "\u2581catch": 7948,
  "\u2581cloud": 7949,
  "\u2581dayimooni": 7950,
  "\u2581deception": 7951,
  "\u2581deceptive": 7952,
  "\u2581defense": 7953,
  "\u2581disposed": 7954,
  "\u2581earn": 7955,
  "\u2581ebiweebwayo": 7956,
  "\u2581ebyafaayo": 7957,
  "\u2581ebyetaagisa": 7958,
  "\u2581embiro": 7959,
  "\u2581emphasis": 7960,
  "\u2581eziba": 7961,
  "\u2581favorable": 7962,
  "\u2581goats": 7963,
  "\u2581gutuyamba": 7964,
  "\u2581historian": 7965,
  "\u2581items": 7966,
  "\u2581kasit": 7967,
  "\u2581leaves": 7968,
  "\u2581lulaga": 7969,
  "\u2581materially": 7970,
  "\u2581moon": 7971,
  "\u2581mufumbo": 7972,
  "\u2581mwagala": 7973,
  "\u2581neutrality": 7974,
  "\u2581nsonyi": 7975,
  "\u2581okuteekateeka": 7976,
  "\u2581okuyambibwa": 7977,
  "\u2581omuwombeefu": 7978,
  "\u2581projects": 7979,
  "\u2581pulaani": 7980,
  "\u2581rob": 7981,
  "\u2581suggests": 7982,
  "\u2581supplies": 7983,
  "\u2581tebya": 7984,
  "\u2581telephone": 7985,
  "\u2581twice": 7986,
  "Ki": 7987,
  "Oluganda": 7988,
  "Omugga": 7989,
  "ak": 7990,
  "akyawa": 7991,
  "esigamye": 7992,
  "im": 7993,
  "ku\u014b\u014baanyizibwa": 7994,
  "obuulira": 7995,
  "obuwombeefu": 7996,
  "om": 7997,
  "tandise": 7998,
  "\u258112]": 7999,
  "\u2581ANSWERED": 8000,
  "\u2581Asinga": 8001,
  "\u2581BY": 8002,
  "\u2581Buyonaani": 8003,
  "\u2581Jericho": 8004,
  "\u2581Myanmar": 8005,
  "\u2581Need": 8006,
  "\u2581Okuviira": 8007,
  "\u2581Thereafter": 8008,
  "\u2581akkiririza": 8009,
  "\u2581alyoke": 8010,
  "\u2581atalabika": 8011,
  "\u2581bayonjo": 8012,
  "\u2581byoleka": 8013,
  "\u2581channel": 8014,
  "\u2581civil": 8015,
  "\u2581compromise": 8016,
  "\u2581delay": 8017,
  "\u2581ekiruyi": 8018,
  "\u2581ekiwuubaalo": 8019,
  "\u2581ekyasembayo": 8020,
  "\u2581equipped": 8021,
  "\u2581exact": 8022,
  "\u2581eyava": 8023,
  "\u2581girls": 8024,
  "\u2581gwammwe": 8025,
  "\u2581handed": 8026,
  "\u2581happily": 8027,
  "\u2581heirs": 8028,
  "\u2581impression": 8029,
  "\u2581incident": 8030,
  "\u2581independence": 8031,
  "\u2581island": 8032,
  "\u2581kijjukire": 8033,
  "\u2581kikola": 8034,
  "\u2581kubi": 8035,
  "\u2581kugaba": 8036,
  "\u2581ntikko": 8037,
  "\u2581okuyimba": 8038,
  "\u2581originate": 8039,
  "\u2581pour": 8040,
  "\u2581red": 8041,
  "\u2581scale": 8042,
  "\u2581shepherding": 8043,
  "\u2581station": 8044,
  "\u2581synagogue": 8045,
  "\u2581tragic": 8046,
  "\u2581tunaakola": 8047,
  "\u2581warn": 8048,
  "\u2581weaken": 8049,
  "\u2581weapons": 8050,
  "\u2581zijja": 8051,
  "Olutalo": 8052,
  "abanga": 8053,
  "ably": 8054,
  "alabikira": 8055,
  "alindirira": 8056,
  "anaater": 8057,
  "du": 8058,
  "ebibiina": 8059,
  "ekitongole": 8060,
  "em": 8061,
  "fuluma": 8062,
  "iganyulo": 8063,
  "kaka": 8064,
  "ku\u014b\u014baanya": 8065,
  "lar": 8066,
  "lwawo": 8067,
  "noonyi": 8068,
  "okugondera": 8069,
  "okukungula": 8070,
  "rina": 8071,
  "\u258135,": 8072,
  "\u2581Amaka": 8073,
  "\u2581Articles": 8074,
  "\u2581Basuseba": 8075,
  "\u2581Emi": 8076,
  "\u2581Friend": 8077,
  "\u2581ISSUE": 8078,
  "\u2581Maka": 8079,
  "\u2581Nebuchadnezzar": 8080,
  "\u2581Nineveh": 8081,
  "\u2581ana": 8082,
  "\u2581bright": 8083,
  "\u2581bwengula": 8084,
  "\u2581chaste": 8085,
  "\u2581contemplate": 8086,
  "\u2581convince": 8087,
  "\u2581ekita": 8088,
  "\u2581ekitukuvu": 8089,
  "\u2581ekivvuunulwa": 8090,
  "\u2581enee": 8091,
  "\u2581entandikwa": 8092,
  "\u2581eyabanga": 8093,
  "\u2581falling": 8094,
  "\u2581fier": 8095,
  "\u2581homeland": 8096,
  "\u2581hopes": 8097,
  "\u2581hypocrisy": 8098,
  "\u2581kuzingiramu": 8099,
  "\u2581lifetime": 8100,
  "\u2581mbuulira": 8101,
  "\u2581muka": 8102,
  "\u2581mwokka": 8103,
  "\u2581myezi": 8104,
  "\u2581nnalaba": 8105,
  "\u2581ntyo": 8106,
  "\u2581okusasula": 8107,
  "\u2581omugagga": 8108,
  "\u2581pleasures": 8109,
  "\u2581protects": 8110,
  "\u2581respectful": 8111,
  "\u2581spite": 8112,
  "\u2581submissive": 8113,
  "\u2581theme": 8114,
  "\u2581tragedy": 8115,
  "\u2581tumanya": 8116,
  "\u2581tuyize": 8117,
  "\u2581twafuna": 8118,
  "\u2581yasanga": 8119,
  "\u2581yatta": 8120,
  "Okuva": 8121,
  "abafumbo": 8122,
  "dicating": 8123,
  "do": 8124,
  "ebyawandiikibwa": 8125,
  "ensobi": 8126,
  "ewala": 8127,
  "gave": 8128,
  "ir": 8129,
  "kikola": 8130,
  "new": 8131,
  "okubudaabuda": 8132,
  "olu": 8133,
  "they": 8134,
  "waliriza": 8135,
  "\u25811990": 8136,
  "\u2581Ababuulizi": 8137,
  "\u2581Certainly": 8138,
  "\u2581Funa": 8139,
  "\u2581Giving": 8140,
  "\u2581KANO": 8141,
  "\u2581Kiseera": 8142,
  "\u2581Long": 8143,
  "\u2581Mangu": 8144,
  "\u2581Michelle": 8145,
  "\u2581Omanyi": 8146,
  "\u2581Samaritan": 8147,
  "\u2581Waggulu": 8148,
  "\u2581Wise": 8149,
  "\u2581abafuzi": 8150,
  "\u2581advanced": 8151,
  "\u2581akuze": 8152,
  "\u2581announced": 8153,
  "\u2581baasanyuka": 8154,
  "\u2581baganyulwa": 8155,
  "\u2581bagi": 8156,
  "\u2581baku": 8157,
  "\u2581bannaddiini": 8158,
  "\u2581bifaananyi": 8159,
  "\u2581boonoonyi": 8160,
  "\u2581bukoma": 8161,
  "\u2581composed": 8162,
  "\u2581dry": 8163,
  "\u2581ebirabika": 8164,
  "\u2581explaining": 8165,
  "\u2581feast": 8166,
  "\u2581guests": 8167,
  "\u2581imprisoned": 8168,
  "\u2581jjajja": 8169,
  "\u2581kaali": 8170,
  "\u2581kutwala": 8171,
  "\u2581kyama": 8172,
  "\u2581kyoleka": 8173,
  "\u2581lukya": 8174,
  "\u2581marriages": 8175,
  "\u2581mugaati": 8176,
  "\u2581mugumiikiriza": 8177,
  "\u2581nnabanga": 8178,
  "\u2581okubu": 8179,
  "\u2581okwetikka": 8180,
  "\u2581omunyiikivu": 8181,
  "\u2581passages": 8182,
  "\u2581phrase": 8183,
  "\u2581prayerful": 8184,
  "\u2581precise": 8185,
  "\u2581produces": 8186,
  "\u2581reminder": 8187,
  "\u2581saving": 8188,
  "\u2581settled": 8189,
  "\u2581stands": 8190,
  "\u2581succumb": 8191,
  "\u2581symbol": 8192,
  "\u2581thoroughly": 8193,
  "\u2581weekly": 8194,
  "\u2581yayitamu": 8195,
  "Amazima": 8196,
  "agwa": 8197,
  "akomawo": 8198,
  "alondebwa": 8199,
  "buna": 8200,
  "empologoma": 8201,
  "faanana": 8202,
  "gana": 8203,
  "ism": 8204,
  "kkirizza": 8205,
  "kubira": 8206,
  "kugira": 8207,
  "kusobozesa": 8208,
  "kyuka": 8209,
  "okutaano": 8210,
  "prin": 8211,
  "salira": 8212,
  "siga": 8213,
  "uke": 8214,
  "\u258141,": 8215,
  "\u2581Bwaffe": 8216,
  "\u2581EBIRI": 8217,
  "\u2581Emabegako": 8218,
  "\u2581Emu": 8219,
  "\u2581Goliath": 8220,
  "\u2581KI": 8221,
  "\u2581Kindness": 8222,
  "\u2581Kwagala": 8223,
  "\u2581Omukulembeze": 8224,
  "\u2581Reading": 8225,
  "\u2581Ro": 8226,
  "\u2581Serving": 8227,
  "\u2581Tokkiriza": 8228,
  "\u2581Weebuuze": 8229,
  "\u2581access": 8230,
  "\u2581adapt": 8231,
  "\u2581ajjukira": 8232,
  "\u2581asingayo": 8233,
  "\u2581atambula": 8234,
  "\u2581batume": 8235,
  "\u2581bikiikirira": 8236,
  "\u2581confirmed": 8237,
  "\u2581deserves": 8238,
  "\u2581detailed": 8239,
  "\u2581diligently": 8240,
  "\u2581diseases": 8241,
  "\u2581ebizimbe": 8242,
  "\u2581eggaali": 8243,
  "\u2581elements": 8244,
  "\u2581endless": 8245,
  "\u2581exclusive": 8246,
  "\u2581gross": 8247,
  "\u2581headquarters": 8248,
  "\u2581hears": 8249,
  "\u2581heartwarming": 8250,
  "\u2581heritage": 8251,
  "\u2581honesthearted": 8252,
  "\u2581intentions": 8253,
  "\u2581kwetegereza": 8254,
  "\u2581location": 8255,
  "\u2581middle": 8256,
  "\u2581nsaba": 8257,
  "\u2581nzi": 8258,
  "\u2581obugambo": 8259,
  "\u2581obutuukiridde": 8260,
  "\u2581okulindirira": 8261,
  "\u2581okumuleetera": 8262,
  "\u2581okuweerereza": 8263,
  "\u2581okwakolebwa": 8264,
  "\u2581okwetegekera": 8265,
  "\u2581outcry": 8266,
  "\u2581perceive": 8267,
  "\u2581proclaimed": 8268,
  "\u2581repay": 8269,
  "\u2581replace": 8270,
  "\u2581schools": 8271,
  "\u2581sheba": 8272,
  "\u2581steal": 8273,
  "\u2581territories": 8274,
  "\u2581tukulembeza": 8275,
  "\u2581twenyigira": 8276,
  "\u2581typical": 8277,
  "\u2581yaliwo": 8278,
  "\u2581zombi": 8279,
  "Abatume": 8280,
  "Amataba": 8281,
  "Okulaba": 8282,
  "Temu": 8283,
  "addayo": 8284,
  "ajjudde": 8285,
  "ennyimba": 8286,
  "entalo": 8287,
  "malirira": 8288,
  "obuntu": 8289,
  "specially": 8290,
  "there": 8291,
  "tukuuma": 8292,
  "tuukanya": 8293,
  "tuyigiriza": 8294,
  "ul": 8295,
  "yisibwa": 8296,
  "zaako": 8297,
  "\u258129;": 8298,
  "\u258184": 8299,
  "\u2581America": 8300,
  "\u2581Buperusi": 8301,
  "\u2581Busuuli": 8302,
  "\u2581Ekibuuzo": 8303,
  "\u2581Ezzadde": 8304,
  "\u2581Millions": 8305,
  "\u2581Nabal": 8306,
  "\u2581Okukolera": 8307,
  "\u2581Ssekukkulu": 8308,
  "\u2581aliba": 8309,
  "\u2581annual": 8310,
  "\u2581arrested": 8311,
  "\u2581arrives": 8312,
  "\u2581blesses": 8313,
  "\u2581bwakyo": 8314,
  "\u2581cells": 8315,
  "\u2581consist": 8316,
  "\u2581devote": 8317,
  "\u2581drive": 8318,
  "\u2581ekipya": 8319,
  "\u2581entebe": 8320,
  "\u2581expectations": 8321,
  "\u2581grows": 8322,
  "\u2581imitation": 8323,
  "\u2581indication": 8324,
  "\u2581kinaater": 8325,
  "\u2581kuddibwamu": 8326,
  "\u2581kunywa": 8327,
  "\u2581lean": 8328,
  "\u2581lijja": 8329,
  "\u2581mukambwe": 8330,
  "\u2581neglect": 8331,
  "\u2581nnamala": 8332,
  "\u2581north": 8333,
  "\u2581occurs": 8334,
  "\u2581offended": 8335,
  "\u2581okunyumya": 8336,
  "\u2581okuzzibwa": 8337,
  "\u2581okwesanyusaamu": 8338,
  "\u2581overwhelming": 8339,
  "\u2581peers": 8340,
  "\u2581pieces": 8341,
  "\u2581practiced": 8342,
  "\u2581presentation": 8343,
  "\u2581respecting": 8344,
  "\u2581shadow": 8345,
  "\u2581souled": 8346,
  "\u2581speaker": 8347,
  "\u2581storm": 8348,
  "\u2581strongly": 8349,
  "\u2581tweyisaamu": 8350,
  "\u2581visitors": 8351,
  "\u2581weight": 8352,
  "\u2581welcomed": 8353,
  "\u2581yannyamba": 8354,
  "\u2581yeenenya": 8355,
  "abi": 8356,
  "ebisolo": 8357,
  "eraageranya": 8358,
  "gasa": 8359,
  "gumira": 8360,
  "kitonde": 8361,
  "nakuwaza": 8362,
  "obusaasizi": 8363,
  "ono": 8364,
  "simba": 8365,
  "\u2581COR": 8366,
  "\u2581Caesar": 8367,
  "\u2581Describe": 8368,
  "\u2581Dr": 8369,
  "\u2581Eli": 8370,
  "\u2581Genda": 8371,
  "\u2581Kayisaali": 8372,
  "\u2581Lazaalo": 8373,
  "\u2581Nothing": 8374,
  "\u2581Omuyudaaya": 8375,
  "\u2581Page": 8376,
  "\u2581Ten": 8377,
  "\u2581baafa": 8378,
  "\u2581baasaba": 8379,
  "\u2581bakya": 8380,
  "\u2581bamativu": 8381,
  "\u2581baweebwa": 8382,
  "\u2581billions": 8383,
  "\u2581bujje": 8384,
  "\u2581burned": 8385,
  "\u2581comforts": 8386,
  "\u2581conquer": 8387,
  "\u2581counted": 8388,
  "\u2581cultures": 8389,
  "\u2581donation": 8390,
  "\u2581ebina": 8391,
  "\u2581ebisanyusa": 8392,
  "\u2581ebituufu": 8393,
  "\u2581eneeter": 8394,
  "\u2581ettendo": 8395,
  "\u2581friendly": 8396,
  "\u2581garment": 8397,
  "\u2581handled": 8398,
  "\u2581hinder": 8399,
  "\u2581implies": 8400,
  "\u2581initially": 8401,
  "\u2581inspiration": 8402,
  "\u2581kyayo": 8403,
  "\u2581located": 8404,
  "\u2581mboozi": 8405,
  "\u2581newspaper": 8406,
  "\u2581nfuba": 8407,
  "\u2581okubayigiriza": 8408,
  "\u2581okukemebwa": 8409,
  "\u2581okwaka": 8410,
  "\u2581okwebaza": 8411,
  "\u2581omwetegefu": 8412,
  "\u2581outset": 8413,
  "\u2581preachers": 8414,
  "\u2581productive": 8415,
  "\u2581representatives": 8416,
  "\u2581skin": 8417,
  "\u2581smoking": 8418,
  "\u2581ttalanta": 8419,
  "\u2581tukolawo": 8420,
  "\u2581tusinziira": 8421,
  "\u2581weebuuza": 8422,
  "\u2581yafuba": 8423,
  "BULI": 8424,
  "Omukristaayo": 8425,
  "age": 8426,
  "aku": 8427,
  "amuyamba": 8428,
  "bitweraliikiriza": 8429,
  "ddirira": 8430,
  "ina": 8431,
  "iri": 8432,
  "nja": 8433,
  "of": 8434,
  "ok": 8435,
  "omusumba": 8436,
  "semberera": 8437,
  "sika": 8438,
  "those": 8439,
  "tukakasa": 8440,
  "tuukira": 8441,
  "zzukulu": 8442,
  "\u25812017": 8443,
  "\u258125]": 8444,
  "\u2581400": 8445,
  "\u2581Baa": 8446,
  "\u2581Brothers": 8447,
  "\u2581Bwo": 8448,
  "\u2581Gentiles": 8449,
  "\u2581Gidiyoni": 8450,
  "\u2581Had": 8451,
  "\u2581Jer": 8452,
  "\u2581OKUV": 8453,
  "\u2581Old": 8454,
  "\u2581Philippi": 8455,
  "\u2581Power": 8456,
  "\u2581Rule": 8457,
  "\u2581Sandra": 8458,
  "\u2581abayitibwa": 8459,
  "\u2581afford": 8460,
  "\u2581ages": 8461,
  "\u2581analyze": 8462,
  "\u2581annyambe": 8463,
  "\u2581annyonnyola": 8464,
  "\u2581baakozesa": 8465,
  "\u2581baaliwo": 8466,
  "\u2581backgrounds": 8467,
  "\u2581bbaawe": 8468,
  "\u2581beesunga": 8469,
  "\u2581boolekaganye": 8470,
  "\u2581bore": 8471,
  "\u2581busungu": 8472,
  "\u2581buwa\u014b\u014banguse": 8473,
  "\u2581counseled": 8474,
  "\u2581ejjinja": 8475,
  "\u2581ekirimu": 8476,
  "\u2581engaged": 8477,
  "\u2581enjoyable": 8478,
  "\u2581enjoyment": 8479,
  "\u2581entering": 8480,
  "\u2581famous": 8481,
  "\u2581gatherings": 8482,
  "\u2581holiness": 8483,
  "\u2581hoping": 8484,
  "\u2581inclination": 8485,
  "\u2581kigo": 8486,
  "\u2581kuyingira": 8487,
  "\u2581kuzuukizibwa": 8488,
  "\u2581memories": 8489,
  "\u2581mothers": 8490,
  "\u2581mutuufu": 8491,
  "\u2581okufugira": 8492,
  "\u2581okuyimirira": 8493,
  "\u2581originally": 8494,
  "\u2581outright": 8495,
  "\u2581previous": 8496,
  "\u2581prior": 8497,
  "\u2581proclaiming": 8498,
  "\u2581programs": 8499,
  "\u2581rebel": 8500,
  "\u2581recognition": 8501,
  "\u2581sides": 8502,
  "\u2581sipiidi": 8503,
  "\u2581smile": 8504,
  "\u2581stage": 8505,
  "\u2581submitt": 8506,
  "\u2581tekiri": 8507,
  "\u2581thereby": 8508,
  "\u2581truthfulness": 8509,
  "\u2581tugambe": 8510,
  "\u2581tusooke": 8511,
  "\u2581unrepentant": 8512,
  "\u2581weewaawo": 8513,
  "\u2581yaki": 8514,
  "\u2581yakimanya": 8515,
  "\u2581yalangirira": 8516,
  "\u2581yazuukiza": 8517,
  "\u2581yeeyisa": 8518,
  "\u2581zammwe": 8519,
  "ER": 8520,
  "amuleetera": 8521,
  "basobozesa": 8522,
  "gwanira": 8523,
  "love": 8524,
  "mera": 8525,
  "nnyiriri": 8526,
  "ntu": 8527,
  "okussa": 8528,
  "omuminsani": 8529,
  "yitira": 8530,
  "\u2581Amakristaayo": 8531,
  "\u2581Benjamin": 8532,
  "\u2581Ekifo": 8533,
  "\u2581Get": 8534,
  "\u2581Joy": 8535,
  "\u2581Judges": 8536,
  "\u2581Mi": 8537,
  "\u2581Nnatandik": 8538,
  "\u2581Sa\u00fal": 8539,
  "\u2581Ukraine": 8540,
  "\u2581Yeriko": 8541,
  "\u2581abanaa": 8542,
  "\u2581abatatya": 8543,
  "\u2581aim": 8544,
  "\u2581akwata": 8545,
  "\u2581alipoota": 8546,
  "\u2581ava": 8547,
  "\u2581average": 8548,
  "\u2581awaali": 8549,
  "\u2581baakozesanga": 8550,
  "\u2581baayolekagana": 8551,
  "\u2581bought": 8552,
  "\u2581busika": 8553,
  "\u2581characteristics": 8554,
  "\u2581cleanness": 8555,
  "\u2581commercial": 8556,
  "\u2581developments": 8557,
  "\u2581drift": 8558,
  "\u2581egikwata": 8559,
  "\u2581ennyangu": 8560,
  "\u2581etuukiridde": 8561,
  "\u2581forefathers": 8562,
  "\u2581keen": 8563,
  "\u2581kizimbe": 8564,
  "\u2581liba": 8565,
  "\u2581lujja": 8566,
  "\u2581mwannyinaze": 8567,
  "\u2581okugaba": 8568,
  "\u2581okukyawa": 8569,
  "\u2581okumenya": 8570,
  "\u2581okwetaba": 8571,
  "\u2581omusana": 8572,
  "\u2581omwo": 8573,
  "\u2581opens": 8574,
  "\u2581prayerfully": 8575,
  "\u2581reassuring": 8576,
  "\u2581snare": 8577,
  "\u2581sowing": 8578,
  "\u2581surprising": 8579,
  "\u2581surrounding": 8580,
  "\u2581tasosola": 8581,
  "\u2581thrilled": 8582,
  "\u2581tradition": 8583,
  "\u2581tukole": 8584,
  "\u2581tumwagala": 8585,
  "\u2581twasikira": 8586,
  "\u2581unscriptural": 8587,
[...]
