{
  "</s>": 0,
  "<unk>": 1,
  "\u2581na": 2,
  ".": 3,
  ",": 4,
  "\u2581ni": 5,
  "\u2581\"": 6,
  "\u2581e": 7,
  "\u2581the": 8,
  "\u2581to": 9,
  "\u2581ena": 10,
  "\u2581of": 11,
  "\u2581a": 12,
  "\u2581and": 13,
  "\u2581o": 14,
  "\u2581-": 15,
  "?": 16,
  "\u2581me": 17,
  "\u2581ga": 18,
  ":": 19,
  "\u2581in": 20,
  "\u2581kina": 21,
  "\u2581E": 22,
  "\u2581that": 23,
  "s": 24,
  "\u2581kei": 25,
  "\u2581ira": 26,
  "\u2581sa": 27,
  "\u2581ka": 28,
  "\u2581sega": 29,
  "\u2581dua": 30,
  "\u2581era": 31,
  "'": 32,
  "\u2581tale": 33,
  "\u2581is": 34,
  "\u2581nona": 35,
  "\u2581qai": 36,
  "\u2581tiko": 37,
  "\u2581vei": 38,
  "\u2581for": 39,
  "\u2581Jiova": 40,
  "\u2581Jehovah": 41,
  "\u2581mai": 42,
  "\u2581Na": 43,
  "\u2581": 44,
  "\u2581Kalou": 45,
  "\u2581i": 46,
  "\u2581God": 47,
  "\u2581dau": 48,
  "\u2581his": 49,
  "\u2581we": 50,
  "\u2581with": 51,
  "\u2581was": 52,
  "\u2581se": 53,
  "\u2581you": 54,
  "\u2581be": 55,
  "\u2581rawa": 56,
  "\u2581nodra": 57,
  "\u2581I": 58,
  "\u2581koya": 59,
  "\u2581not": 60,
  "\u2581gauna": 61,
  "\u2581sara": 62,
  "\u2581on": 63,
  "\u2581as": 64,
  "\u2581he": 65,
  "\u2581have": 66,
  "\u2581are": 67,
  "\u2581The": 68,
  "\u2581will": 69,
  "\u2581so": 70,
  "\u2581vaka": 71,
  "\u2581vinaka": 72,
  "\u2581tu": 73,
  "\u2581cava": 74,
  "\u2581mera": 75,
  "\u2581it": 76,
  "\u2581A": 77,
  "\u2581'": 78,
  "\u2581bula": 79,
  "\u2581kena": 80,
  "\u2581noda": 81,
  "\u2581au": 82,
  ";": 83,
  "\u2581Ena": 84,
  "\u2581(": 85,
  "\u2581by": 86,
  "\u2581meda": 87,
  "\u2581our": 88,
  "\u2581from": 89,
  "\u2581dina": 90,
  "\u2581oqo": 91,
  "\u2581levu": 92,
  "\u2581Bible": 93,
  "\u2581Jisu": 94,
  "\u2581Jesus": 95,
  "ing": 96,
  "\u2581can": 97,
  "!": 98,
  "\u25811": 99,
  "\u2581their": 100,
  "\u2581[": 101,
  "\u2581iVolatabu": 102,
  "\u2581who": 103,
  "\u2581us": 104,
  "\u2581cakava": 105,
  "\u2581they": 106,
  "a": 107,
  "\u2581kaya": 108,
  "\u2581or": 109,
  "\u2581keda": 110,
  "\u2581kila": 111,
  ")": 112,
  "\u2581eda": 113,
  "\u2581tamata": 114,
  "\u2581qori": 115,
  "\u2581ia": 116,
  "\u2581Ia": 117,
  "\u2581this": 118,
  "\u2581what": 119,
  "\u2581O": 120,
  "\u2581What": 121,
  "\u2581do": 122,
  "\u2581were": 123,
  "\u2581your": 124,
  "\u2581vosa": 125,
  "i": 126,
  "\u2581ra": 127,
  "\u2581vua": 128,
  "\u2581cakacaka": 129,
  "\u2581had": 130,
  "\u2581all": 131,
  "\u2581at": 132,
  "\u2581one": 133,
  "\u2581veika": 134,
  "\u2581lotu": 135,
  "\u2581him": 136,
  "\u2581Ni": 137,
  "\u2581kece": 138,
  "\u2581Era": 139,
  "\u2581tukuna": 140,
  "\u2581nira": 141,
  "\u2581people": 142,
  "\u2581oya": 143,
  "\u2581them": 144,
  "\u2581vuravura": 145,
  "\u2581an": 146,
  "\u2581vakacava": 147,
  "\u2581In": 148,
  "\u2581about": 149,
  "\u2581my": 150,
  "\u2581mada": 151,
  "\u2581baleta": 152,
  "\u2581would": 153,
  "\u2581ca": 154,
  "\u2581when": 155,
  "\u2581yaco": 156,
  "\u2581has": 157,
  "\u2581qo": 158,
  "\u2581ke": 159,
  "\u2581mo": 160,
  "\u2581How": 161,
  "\u2581noqu": 162,
  "\u2581did": 163,
  "\u2581time": 164,
  "]": 165,
  "\u2581vanua": 166,
  "\u2581rau": 167,
  "\u2581life": 168,
  "\u2581raica": 169,
  "\u2581may": 170,
  "\u2581but": 171,
  "\u2581nomu": 172,
  "\u2581those": 173,
  "\u2581oti": 174,
  "\u2581yabaki": 175,
  "\u2581vakabauta": 176,
  "\u2581mate": 177,
  "\u2581vata": 178,
  "\u2581ina": 179,
  "\u2581Me": 180,
  "\u2581Au": 181,
  "\u2581He": 182,
  "\u2581nida": 183,
  "\u2581ko": 184,
  "\u2581vakalevu": 185,
  "\u2581more": 186,
  "\u2581her": 187,
  "\u2581bibi": 188,
  "\u2581some": 189,
  "\u2581dodonu": 190,
  "\u2581Sa": 191,
  "\u2581also": 192,
  "\u2581gona": 193,
  "\u2581how": 194,
  "\u2581help": 195,
  "\u2581out": 196,
  "\u2581ivakaraitaki": 197,
  "\u2581ivola": 198,
  "\u2581been": 199,
  "\u2581good": 200,
  "\u2581Witnesses": 201,
  "\u2581tabana": 202,
  "\u2581Eda": 203,
  "\u2581such": 204,
  "\u2581vuku": 205,
  "\u2581vakaraitaka": 206,
  "\u2581We": 207,
  "\u2581kua": 208,
  "\"": 209,
  "\u2581yaga": 210,
  "\u2581eso": 211,
  "\u2581It": 212,
  "\u2581nanuma": 213,
  "\u2581iVakadinadina": 214,
  "\u2581many": 215,
  "\u2581lai": 216,
  "\u2581love": 217,
  "\u2581up": 218,
  "\u2581da": 219,
  "\u2581itukutuku": 220,
  "\u2581vakayalo": 221,
  "\u2581sala": 222,
  "\u2581Paul": 223,
  "\u2581vukei": 224,
  "\u2581via": 225,
  "\u2581iko": 226,
  "\u2581way": 227,
  "\u2581things": 228,
  "\u2581no": 229,
  "\u2581if": 230,
  "\u2581work": 231,
  "\u2581meu": 232,
  "\u2581Paula": 233,
  "\u2581does": 234,
  "\u2581should": 235,
  "\u2581vulica": 236,
  "\u25815": 237,
  "ed": 238,
  "\u2581vakayagataka": 239,
  "\u2581vinakata": 240,
  "\u2581other": 241,
  "\u2581there": 242,
  "b": 243,
  "\u2581said": 244,
  "\u2581Ke": 245,
  "\u258115": 246,
  "\u2581keirau": 247,
  "\u2581could": 248,
  "\u2581make": 249,
  "\u2581Kingdom": 250,
  "ly": 251,
  "\u2581ivavakoso": 252,
  "\u25812": 253,
  "\u2581When": 254,
  "\u2581Christian": 255,
  "\u2581world": 256,
  "\u2581even": 257,
  "\u2581than": 258,
  "\u2581beka": 259,
  "\u2581ratou": 260,
  "\u2581man": 261,
  "\u2581day": 262,
  "\u2581gone": 263,
  "\u2581Why": 264,
  "\u2581page": 265,
  "\u2581ituvaki": 266,
  "\u2581years": 267,
  "\u2581Vakarisito": 268,
  "\u2581into": 269,
  "\u2581she": 270,
  "\u2581others": 271,
  "\u2022": 272,
  "\u2581mani": 273,
  "\u2581Christians": 274,
  "\u2581which": 275,
  "\u2581itovo": 276,
  "\u2581earth": 277,
  "\u2581first": 278,
  "\u2581lako": 279,
  "\u2581ivalavala": 280,
  "\u2581rai": 281,
  "E": 282,
  "\u2581Christ": 283,
  "\u2581For": 284,
  "\u2581these": 285,
  "\u2581Karisito": 286,
  "\u2581But": 287,
  "\u2581vuli": 288,
  "\u2581vica": 289,
  "\u25813:": 290,
  "\u2581spirit": 291,
  "\u2581vale": 292,
  "\u2581oqori": 293,
  "\u2581rairai": 294,
  "\u2581marau": 295,
  "\u2581They": 296,
  "\u2581muria": 297,
  "\u2581need": 298,
  "\u2581dredre": 299,
  "\u2581leqa": 300,
  "\u2581says": 301,
  "\u2581uqeti": 302,
  "\u2581yalodina": 303,
  "\u2581family": 304,
  "\u2581siga": 305,
  "\u2581This": 306,
  "\u25814": 307,
  "\u2581Vosa": 308,
  "...": 309,
  "\u2581example": 310,
  "\u2581caka": 311,
  "\u2581kaukaua": 312,
  "\u2581sotava": 313,
  "\u2581faith": 314,
  "\u2581kilai": 315,
  "\u2581As": 316,
  "\u2581If": 317,
  "\u2581Kena": 318,
  "\u2581*": 319,
  "\u2581children": 320,
  "the": 321,
  "\u2581only": 322,
  "\u2581yalo": 323,
  "\u2581Isireli": 324,
  "\u2581made": 325,
  "\u2581because": 326,
  "\u2581yani": 327,
  "\u2581yalewa": 328,
  "\u2581tukuni": 329,
  "\u25812:": 330,
  "\u2581You": 331,
  "u": 332,
  "\u2581vola": 333,
  "\u2581ivakarau": 334,
  "\u2581spiritual": 335,
  "\u2581bera": 336,
  "\u2581cake": 337,
  "\u2581see": 338,
  "\u258111": 339,
  "\u2581being": 340,
  "\u2581congregation": 341,
  "\u2581must": 342,
  "\u2581solia": 343,
  "\u2581lewe": 344,
  "\u2581saga": 345,
  "\u2581Matanitu": 346,
  "\u2581like": 347,
  "\u2581vaKarisito": 348,
  "\u2581over": 349,
  "\u2581know": 350,
  "\u2581duadua": 351,
  "\u2581lomani": 352,
  "\u2581heart": 353,
  "\u2581vuna": 354,
  "\u25817": 355,
  "\u2581imatai": 356,
  "\u2581then": 357,
  "\u2581tekivu": 358,
  "\u2581So": 359,
  "\u2581qaravi": 360,
  "\u2581itubutubu": 361,
  "\u2581tagane": 362,
  "\u2581true": 363,
  "\u2581tani": 364,
  "\u2581iYaloyalo": 365,
  "\u2581well": 366,
  "\u2581vakasamataka": 367,
  "\u2581niu": 368,
  "\u2581take": 369,
  "\u2581come": 370,
  "\u2581matanitu": 371,
  "\u2581ivakavuvuli": 372,
  "\u2581loloma": 373,
  "\u2581words": 374,
  "\u25816:": 375,
  "\u2581vakavuna": 376,
  "\u2581/": 377,
  "\u2581become": 378,
  "\u2581masu": 379,
  "\u25818": 380,
  "\u2581ibalebale": 381,
  "\u2581nikua": 382,
  "\u2581veiqaravi": 383,
  "t": 384,
  "\u2581its": 385,
  "\u2581just": 386,
  "\u2581death": 387,
  "\u2581own": 388,
  "\u2581veiliutaki": 389,
  "\u2581ones": 390,
  "\u2581cala": 391,
  "\u2581vakasama": 392,
  "\u2581vuvale": 393,
  "\u2581itavi": 394,
  "\u2581before": 395,
  "\u2581nodrau": 396,
  "\u2581qase": 397,
  "\u2581vakataki": 398,
  "\u2581wale": 399,
  "\u2581yapositolo": 400,
  "\u2581loma": 401,
  "\u2581That": 402,
  "\u2581rua": 403,
  "\u2581vakamacalataka": 404,
  "\u2581John": 405,
  "\u258114": 406,
  "\u2581two": 407,
  "\u2581toka": 408,
  "\u2581rarawa": 409,
  "\u2581tabu": 410,
  "\u2581after": 411,
  "\u2581voleka": 412,
  "\u2581keitou": 413,
  "\u2581might": 414,
  "\u2581soli": 415,
  "\u2581Dua": 416,
  "\u2581Sega": 417,
  "\u2581itokani": 418,
  "\u2581baleti": 419,
  "\u2581now": 420,
  "/": 421,
  "\u2581And": 422,
  "\u2581vakaivolatabu": 423,
  "\u2581marautaka": 424,
  "\u2581give": 425,
  "\u2581Word": 426,
  "\u2581vunau": 427,
  "\u2581person": 428,
  "\u2581inaki": 429,
  "\u2581vu": 430,
  "\u2581David": 431,
  "\u2581men": 432,
  "\u2581new": 433,
  "\u2581any": 434,
  "\u2581laurai": 435,
  "\u2581rogoca": 436,
  "\u2581Picture": 437,
  "\u2581another": 438,
  "\u2581Meda": 439,
  "\u2581truth": 440,
  "\u2581vou": 441,
  "\u25811,": 442,
  "\u2581lewa": 443,
  "\u2581parents": 444,
  "\u2581vakawati": 445,
  "\u2581name": 446,
  "\u2581study": 447,
  "d": 448,
  "\u2581much": 449,
  "\u2581very": 450,
  "\u258120": 451,
  "\u2581Setani": 452,
  "\u2581vakayagataki": 453,
  "\u2581through": 454,
  "\u2581times": 455,
  "\u2581ulutaga": 456,
  "\u2581va": 457,
  "\u2581makawa": 458,
  "na": 459,
  "\u2581lomalagi": 460,
  "\u2581taleitaka": 461,
  "\u2581Satan": 462,
  "\u2581wilika": 463,
  "I": 464,
  "\u2581vinakati": 465,
  "\u2581To": 466,
  "\u2581lesu": 467,
  "\u2581today": 468,
  "\u258116": 469,
  "\u2581muri": 470,
  "e": 471,
  "\u258117": 472,
  "\u2581feel": 473,
  "\u2581found": 474,
  "\u2581brothers": 475,
  "\u2581vakavulici": 476,
  "\u2581find": 477,
  "\u2581voli": 478,
  "\u2581Tevita": 479,
  "\u2581kecega": 480,
  "\u2581lomana": 481,
  "\u2581bau": 482,
  "\u2581put": 483,
  "\u2581tacida": 484,
  "\u2581vakila": 485,
  "\u2581apostle": 486,
  "\u2581rawata": 487,
  "\u2581use": 488,
  "\u2581part": 489,
  "\u2581where": 490,
  "\u2581young": 491,
  "\u2581dou": 492,
  "\u2581veivuke": 493,
  "\u25813": 494,
  "\u2581great": 495,
  "\u2581erau": 496,
  "\u2581most": 497,
  "\u2581Joni": 498,
  "\u2581Do": 499,
  "\u2581One": 500,
  "S": 501,
  "\u2581himself": 502,
  "\u2581say": 503,
  "\u2581learn": 504,
  "\u2581dei": 505,
  "\u2581Vakacava": 506,
  "\u2581keep": 507,
  "\u2581against": 508,
  "\u2581However": 509,
  "\u2581okati": 510,
  "\u2581lailai": 511,
  "\u2581Israel": 512,
  "\u2581each": 513,
  "\u2581vakadeitaka": 514,
  "\u2581ivakasala": 515,
  "\u2581ya": 516,
  "\u2581same": 517,
  "\u2581home": 518,
  "\u2581turaga": 519,
  "\u2581Same": 520,
  "\u2581Io": 521,
  "\u258112": 522,
  "\u2581kemuni": 523,
  "\u258113": 524,
  "\u2581human": 525,
  "\u2581rauta": 526,
  "\u2581vakayacori": 527,
  "\u2581show": 528,
  "\u2581kedra": 529,
  "\u2581taucoko": 530,
  "\u2581wrote": 531,
  "\u2581means": 532,
  "\u2581Levu": 533,
  "\u2581soqoni": 534,
  "\u2581why": 535,
  "\u2581Nid": 536,
  "\u2581Father": 537,
  "\u2581book": 538,
  "\u2581Luke": 539,
  "\u2581liu": 540,
  "\u2581volai": 541,
  "\u2581right": 542,
  "\u2581worship": 543,
  "\u2581long": 544,
  "\u2581duidui": 545,
  "\u2581Pita": 546,
  "\u2581Some": 547,
  "\u2581never": 548,
  "\u2581faithful": 549,
  "\u2581though": 550,
  "\u2581kai": 551,
  "\u2581yaca": 552,
  "\u2581Peter": 553,
  "\u2581end": 554,
  "\u2581ministry": 555,
  "\u2581year": 556,
  "\u2581important": 557,
  "\u2581veisau": 558,
  "\u2581vosota": 559,
  "\u2581dauveiqaravi": 560,
  "\u2581B": 561,
  "\u2581Roma": 562,
  "\u2581course": 563,
  "\u2581place": 564,
  "\u2581After": 565,
  "\u2581yacova": 566,
  "\u2581used": 567,
  "\u2581At": 568,
  "\u2581Maciu": 569,
  "\u2581tikina": 570,
  "\u2581vakarautaka": 571,
  "\u2581wife": 572,
  "\u2581rawarawa": 573,
  "\u2581became": 574,
  "\u2581read": 575,
  "\u2581S": 576,
  "\u258121": 577,
  "\u258112:": 578,
  "A": 579,
  "\u2581tisaipeli": 580,
  "\u2581C": 581,
  "\u2581veisiga": 582,
  "\u2581word": 583,
  "\u2581upon": 584,
  "\u2581news": 585,
  "\u2581every": 586,
  "\u25812.": 587,
  "\u2581came": 588,
  "\u2581under": 589,
  "\u2581too": 590,
  "\u2581soqo": 591,
  "\u2581go": 592,
  "\u258119": 593,
  "\u2581often": 594,
  "\u2581mind": 595,
  "\u2581senitiuri": 596,
  "\u2581get": 597,
  "\u2581uasivi": 598,
  "\u2581want": 599,
  "\u2581let": 600,
  "\u25816": 601,
  "\u2581ilavo": 602,
  "\u2581preaching": 603,
  "\u2581Is": 604,
  "\u25814.": 605,
  "\u25814:": 606,
  "\u2581qarava": 607,
  "\u2581told": 608,
  "\u2581vakayacora": 609,
  "n": 610,
  "\u2581dikeva": 611,
  "),": 612,
  "\u2581hope": 613,
  "\u258122": 614,
  "\u2581holy": 615,
  "\u2581back": 616,
  "\u2581view": 617,
  "\u2581days": 618,
  "\u2581gadrevi": 619,
  "\u2581taro": 620,
  "\u2581Cava": 621,
  "\u2581serve": 622,
  "\u2581nomuni": 623,
  "\u2581vakatulewa": 624,
  "\u2581away": 625,
  "\u2581keimami": 626,
  "\u2581began": 627,
  "\u2581among": 628,
  "\u2581later": 629,
  "\u2581down": 630,
  "\u2581Scriptures": 631,
  "\u2581service": 632,
  "\u2581cei": 633,
  "\u258110.": 634,
  "\u2581knowledge": 635,
  "\u2581live": 636,
  "\u2581By": 637,
  "\u2581during": 638,
  "\u2581Psalm": 639,
  "\u2581tawamudu": 640,
  "\u2581De": 641,
  "\u2581consider": 642,
  "\u2581tui": 643,
  "\u2581taura": 644,
  "\u2581sokalou": 645,
  "\u258110:": 646,
  "\u2581disciples": 647,
  "\u2581tara": 648,
  "\u258110": 649,
  "\u2581papitaiso": 650,
  "\u2581ways": 651,
  "\u2581am": 652,
  "\u2581kakana": 653,
  "Au": 654,
  "\u2581called": 655,
  "\u2581eratou": 656,
  "\u2581New": 657,
  "\u2581given": 658,
  "\u25817.": 659,
  "\u2581raici": 660,
  "\u25818.": 661,
  "\u2581power": 662,
  "\u2581vakarau": 663,
  "\u2581Dina": 664,
  "\u2581still": 665,
  "\u2581doing": 666,
  "\u2581kau": 667,
  "Sa": 668,
  "\u2581yalomalumalumu": 669,
  "\u2581Matthew": 670,
  "vaka": 671,
  "\u2581vakadua": 672,
  "\u2581vakabulai": 673,
  "\u2581duavata": 674,
  "\u258112.": 675,
  "\u2581lesi": 676,
  "\u2581luvena": 677,
  "\u2581three": 678,
  "\u2581savasava": 679,
  "\u2581dokai": 680,
  "\u2581With": 681,
  "\u2581manumanu": 682,
  "\u2581kawatamata": 683,
  "\u2581Mo": 684,
  "\u2581On": 685,
  "\u2581set": 686,
  "\u2581Our": 687,
  "\u2581kauaitaka": 688,
  "\u25819": 689,
  "\u2581vakaitavi": 690,
  "\u2581NA": 691,
  "\u25819.": 692,
  "\u2581gave": 693,
  "\u258114.": 694,
  "\u2581making": 695,
  "\u2581Jiu": 696,
  "\u2581sivia": 697,
  "\u2581sauma": 698,
  "\u2581able": 699,
  "\u2581themselves": 700,
  "\u2581Tui": 701,
  "\u2581old": 702,
  "\u258111.": 703,
  "\u2581His": 704,
  "\u2581ki": 705,
  "\u2581living": 706,
  "\u2581toso": 707,
  "\u2581however": 708,
  "\u2581century": 709,
  "\u2581totoka": 710,
  "\u258113.": 711,
  "\u2581loving": 712,
  "\u2581vakavunau": 713,
  "\u2581No": 714,
  "\u2581sasaga": 715,
  "\u2581She": 716,
  "\u2581watina": 717,
  "K": 718,
  "\u25815.": 719,
  "\u2581kemudou": 720,
  "\u2581peace": 721,
  "\u2581itabagone": 722,
  "\u2581tubu": 723,
  "\u2581nodratou": 724,
  "\u258125": 725,
  "\u2581King": 726,
  "\u2581biuta": 727,
  "\u2581bring": 728,
  "\u2581kauta": 729,
  "\u2581buli": 730,
  "\u2581father": 731,
  "\u2581le": 732,
  "\u2581There": 733,
  "\u2581servants": 734,
  "\u2581lawa": 735,
  "\u2581neirau": 736,
  "\u2581Yes": 737,
  "\u2581whom": 738,
  "\u258116.": 739,
  "The": 740,
  "\u2581fact": 741,
  "\u258123": 742,
  "\u2581ciqoma": 743,
  "\u2581humans": 744,
  "\u2581always": 745,
  "\u2581Mosese": 746,
  "\u2581took": 747,
  "\u2581fellow": 748,
  "\u2581marriage": 749,
  "\u2581without": 750,
  "\u2581Ka": 751,
  "\u2581vakatokai": 752,
  "\u258117.": 753,
  "\u2581result": 754,
  "\u2581tini": 755,
  "\u25816.": 756,
  "\u2581vakaitalatala": 757,
  "\u2581house": 758,
  "\u2581valavala": 759,
  "\u2581asked": 760,
  "\u2581both": 761,
  "\u2581talairawarawa": 762,
  "\u2581full": 763,
  "\u2581iratou": 764,
  "\u2581hand": 765,
  "\u2581tolu": 766,
  "\u258115.": 767,
  "\u2581gole": 768,
  "\u2581think": 769,
  "\u2581reason": 770,
  "\u2581while": 771,
  "\u2581personal": 772,
  "\u2581article": 773,
  "\u2581son": 774,
  "\u2581lomada": 775,
  "\u2581purpose": 776,
  "\u2581Many": 777,
  "Na": 778,
  "\u2581Even": 779,
  "\u2581Then": 780,
  "\u2581Turaga": 781,
  "\u2581mankind": 782,
  "\u2581prayer": 783,
  "\u2581questions": 784,
  "y": 785,
  "\u2581Yet": 786,
  "\u2581child": 787,
  "al": 788,
  "\u2581wai": 789,
  "\u2581order": 790,
  "\u2581vakacegu": 791,
  "\u2581really": 792,
  "\u2581From": 793,
  "\u2581tarava": 794,
  "\u2581Hall": 795,
  "\u2581sucu": 796,
  "\u2581nuitaki": 797,
  "\u2581Aisea": 798,
  "\u2581vakamacalataki": 799,
  "\u2581something": 800,
  "\u2581Qori": 801,
  "\u2581lumuti": 802,
  "\u2581nanumi": 803,
  "\u2581gadreva": 804,
  "taki": 805,
  "\u2581taumada": 806,
  "\u25813.": 807,
  "\u2581taroga": 808,
  "O": 809,
  "\u2581joy": 810,
  "\u2581My": 811,
  "\u2581husband": 812,
  "\u2581toward": 813,
  "\u2581vo": 814,
  "\u2581Son": 815,
  "\u2581veiwekani": 816,
  "\u2581mother": 817,
  "\u2581learned": 818,
  "\u2581woman": 819,
  "\u2581Keirau": 820,
  "\u2581lewenivanua": 821,
  "\u2581ivakamacala": 822,
  "\u2581someone": 823,
  "\u2581having": 824,
  "\u2581meetings": 825,
  "\u2581brother": 826,
  "\u2581future": 827,
  "\u2581yalododonu": 828,
  "\u2581oni": 829,
  "\u2581between": 830,
  "\u2581helped": 831,
  "\u2581felt": 832,
  "\u2581kauaitaki": 833,
  "\u2581isoqosoqo": 834,
  "\u2581de": 835,
  "\u2581together": 836,
  "\u258115,": 837,
  "\u2581mata": 838,
  "\u2581ivakatagedegede": 839,
  "\u258118": 840,
  "\u2581Nira": 841,
  "\u2581lasu": 842,
  "\u2581experience": 843,
  "\u2581Jerusalem": 844,
  "\u2581kerea": 845,
  "\u258118.": 846,
  "\u2581look": 847,
  "\u2581wicked": 848,
  "\u2581religious": 849,
  "\u2581sin": 850,
  "\u2581face": 851,
  "\u2581yalayala": 852,
  "Ni": 853,
  "\u2581tauvimate": 854,
  "\u2581hard": 855,
  "\u258128": 856,
  "\u2581vula": 857,
  "\u2581kea": 858,
  "\u2581Se": 859,
  "\u2581nei": 860,
  "\u2581Moses": 861,
  "\u2581dede": 862,
  "\u2581language": 863,
  "\u25813,": 864,
  "\u2581veivosaki": 865,
  "\u2581Vakaibalebale": 866,
  "\u2581heaven": 867,
  "\u2581dra": 868,
  "\u2581Eparama": 869,
  "\u2581wisdom": 870,
  "\u2581Isaiah": 871,
  "\u2581World": 872,
  "\u2581anointed": 873,
  "\u2581W": 874,
  "\u2581relationship": 875,
  "\u2581needed": 876,
  "\u2581nuitaka": 877,
  "\u2581close": 878,
  "\u2581Proverbs": 879,
  "\u2581Jerusalemi": 880,
  "\u2581food": 881,
  "\u2581yalololoma": 882,
  "\u2581number": 883,
  "\u2581happy": 884,
  "\u2581totolo": 885,
  "\u2581following": 886,
  "\u2581Cakacaka": 887,
  "\u2581Niu": 888,
  "\u258130": 889,
  "\u2581eyes": 890,
  "\u2581yadua": 891,
  "\u2581share": 892,
  "\u2581iliuliu": 893,
  "\u2581taqomaki": 894,
  "\u2581conduct": 895,
  "\u2581counsel": 896,
  "\u2581few": 897,
  "\u2581left": 898,
  "\u2581Israelites": 899,
  "\u2581koro": 900,
  "\u2581wili": 901,
  "\u2581Let": 902,
  "\u2581drau": 903,
  "\u2581vakaturi": 904,
  "\u2581dusia": 905,
  "\u2581friends": 906,
  "\u2581care": 907,
  "\u2581Abraham": 908,
  "\u2581little": 909,
  "\u2581ask": 910,
  "\u2581cavuti": 911,
  "\u2581best": 912,
  "\u2581tautauvata": 913,
  "\u2581city": 914,
  "\u2581again": 915,
  "\u2581lives": 916,
  "\u2581cavuta": 917,
  "\u2581kakua": 918,
  "\u2581All": 919,
  "\u2581agilosi": 920,
  "\u2581possible": 921,
  "\u2581veiganiti": 922,
  "\u2581parofisai": 923,
  "\u2581better": 924,
  "\u25819,": 925,
  "\u2581message": 926,
  "\u2581free": 927,
  "\u2581vakacegui": 928,
  "\u2581veisautaka": 929,
  "\u2581blood": 930,
  "\u2581done": 931,
  "\u2581veimaliwai": 932,
  "\u2581Job": 933,
  "\u2581Oqo": 934,
  "\u2581benefit": 935,
  "\u2581parofita": 936,
  "\u2581kune": 937,
  "\u2581avoid": 938,
  "\u25815,": 939,
  "\u2581vakamatei": 940,
  "\u2581Consider": 941,
  "\u2581Koya": 942,
  "\u2581matter": 943,
  "\u2581ourselves": 944,
  "\u2581painia": 945,
  "\u2581vakalougatataki": 946,
  "\u2581bad": 947,
  "\u2581desire": 948,
  "\u2581ever": 949,
  "\u2581Korinica": 950,
  "\u2581Watchtower": 951,
  "\u2581Vei": 952,
  "\u2581heavenly": 953,
  "\u2581saumi": 954,
  "\u25816,": 955,
  "\u2581veivakavulici": 956,
  "\u2581teaching": 957,
  "\u2581yalataka": 958,
  "\u2581understand": 959,
  "\u2581continue": 960,
  "\u2581elders": 961,
  "\u2581cannot": 962,
  "\u2581last": 963,
  "\u2581Your": 964,
  "\u2581fine": 965,
  "\u2581support": 966,
  "\u2581went": 967,
  "\u2581Jope": 968,
  "\u25819:": 969,
  "\u2581answer": 970,
  "\u2581king": 971,
  "\u2581These": 972,
  "\u2581yourself": 973,
  "ther": 974,
  "\u2581different": 975,
  "\u2581known": 976,
  "\u2581kunea": 977,
  "\u2581vuqa": 978,
  "\u2581veivanua": 979,
  "\u2581near": 980,
  "\u2581problems": 981,
  "\u2581vakayago": 982,
  "\u258119.": 983,
  "\u2581Timoci": 984,
  "\u2581dui": 985,
  "\u2581vakatabakidua": 986,
  "\u2581Timothy": 987,
  "\u2581inuinui": 988,
  "\u2581iyaya": 989,
  "\u2581vakarorogo": 990,
  "\u2581baptized": 991,
  "\u2581vakarautaki": 992,
  "\u2581wise": 993,
  "\u2581malumalumu": 994,
  "\u2581ika": 995,
  "\u2581Vakasamataka": 996,
  "\u2581Dau": 997,
  "\u2581giving": 998,
  "\u2581self": 999,
  "\u2581Brother": 1000,
  "\u2581believe": 1001,
  "\u2581righteous": 1002,
  "\u258124:": 1003,
  "\u2581fear": 1004,
  "\u2581off": 1005,
  "\u2581present": 1006,
  "\u2581ivalu": 1007,
  "\u2581D": 1008,
  "\u2581thought": 1009,
  "\u2581Mai": 1010,
  "\u2581serving": 1011,
  "\u2581nations": 1012,
  "\u2581enjoy": 1013,
  "\u2581received": 1014,
  "\u2581talega": 1015,
  "\u2581Erau": 1016,
  "\u2581respect": 1017,
  "\u25818,": 1018,
  "\u2581vakalou": 1019,
  "\u2581vakatauvatani": 1020,
  "\u2581salavata": 1021,
  "\u2581sense": 1022,
  "\u2581ancient": 1023,
  "\u2581talei": 1024,
  "\u2581macala": 1025,
  "\u2581members": 1026,
  "\u2581Tiko": 1027,
  "\u2581age": 1028,
  "\u2581certain": 1029,
  "\u2581irairai": 1030,
  "\u2581situation": 1031,
  "\u2581iyau": 1032,
  "\u2581money": 1033,
  "\u2581early": 1034,
  "\u2581Because": 1035,
  "\u2581account": 1036,
  "\u2581women": 1037,
  "\u2581system": 1038,
  "\u2581Although": 1039,
  "\u2581far": 1040,
  "\u2581vakarisito": 1041,
  "taka": 1042,
  "\u2581feelings": 1043,
  "\u2581moved": 1044,
  "\u2581matata": 1045,
  "\u2581vakabibi": 1046,
  "\u2581saw": 1047,
  "\u2581veiwatini": 1048,
  "\u2581tomana": 1049,
  "\u2581tikinivolatabu": 1050,
  "er": 1051,
  "Wilika": 1052,
  "\u2581itikotiko": 1053,
  "\u2581donu": 1054,
  "\u2581states": 1055,
  "\u2581Adam": 1056,
  "\u2581lewai": 1057,
  "\u2581nor": 1058,
  "\u2581mataveitacini": 1059,
  "\u2581Acts": 1060,
  "Read": 1061,
  "o": 1062,
  "\u2581bulia": 1063,
  "\u2581kindness": 1064,
  "\u258129": 1065,
  "\u2581knew": 1066,
  "\u2581Who": 1067,
  "\u2581luvedra": 1068,
  "\u258114,": 1069,
  "\u2581since": 1070,
  "\u2581speak": 1071,
  "\u2581kind": 1072,
  "\u2581Eso": 1073,
  "\u2581high": 1074,
  "\u2581imuri": 1075,
  "\u258133": 1076,
  "\u2581neitou": 1077,
  "\u2581Those": 1078,
  "\u2581veidusimaki": 1079,
  "vakadinadinataka": 1080,
  "\u2581ilawalawa": 1081,
  "\u25814,": 1082,
  "\u2581marama": 1083,
  "\u2581veimatanitu": 1084,
  "C": 1085,
  "\u2581Kina": 1086,
  "\u2581next": 1087,
  "\u2581Can": 1088,
  "\u2581Credit": 1089,
  "\u2581mean": 1090,
  "\u2581attitude": 1091,
  "\u2581cudru": 1092,
  "vakayaloqaqataki": 1093,
  "\u2581sure": 1094,
  "\u2581law": 1095,
  "\u258140": 1096,
  "\u2581thus": 1097,
  "\u2581Lord": 1098,
  "\u2581water": 1099,
  "\u2581attention": 1100,
  "\u2581iwiliwili": 1101,
  "\u258120.": 1102,
  "\u2581trust": 1103,
  "\u2581Nona": 1104,
  "Kevaka": 1105,
  "\u2581principles": 1106,
  "\u2581receive": 1107,
  "\u2581rogo": 1108,
  "\u2581Law": 1109,
  "\u2581especially": 1110,
  "\u2581needs": 1111,
  "\u2581likely": 1112,
  "\u2581N": 1113,
  "\u2581yet": 1114,
  "\u2581ivakatawa": 1115,
  "\u2581veigauna": 1116,
  "\u258126": 1117,
  "\u2581Qo": 1118,
  "\u2581suffering": 1119,
  "\u2581tabaki": 1120,
  "\u2581saying": 1121,
  "\u2581talk": 1122,
  "\u2581bogi": 1123,
  "\u2581difficult": 1124,
  "\u258124": 1125,
  "\u2581body": 1126,
  "\u2581until": 1127,
  "\u2581sipi": 1128,
  "\u2581THE": 1129,
  "\u2581Greek": 1130,
  "\u2581ikuri": 1131,
  "\u2581lomadra": 1132,
  "\u2581matua": 1133,
  "\u2581point": 1134,
  "\u2581turn": 1135,
  "\u2581Corinthians": 1136,
  "\u2581yasana": 1137,
  "\u2581follow": 1138,
  "\u2581act": 1139,
  "\u2581land": 1140,
  "\u2581lead": 1141,
  "\u2581Atama": 1142,
  "\u2581meca": 1143,
  "\u2581Thus": 1144,
  "\u2581cause": 1145,
  "\u2581brought": 1146,
  "\u2581Of": 1147,
  "\u2581More": 1148,
  "\u2581Wilika": 1149,
  "\u2581Does": 1150,
  "\u2581lalai": 1151,
  "\u2581question": 1152,
  "\u2581school": 1153,
  "\u2581vakadonuya": 1154,
  "\u2581luvemu": 1155,
  "\u2581rawati": 1156,
  "\u2581Bula": 1157,
  "\u2581goneyalewa": 1158,
  "\u2581reading": 1159,
  "\u2581along": 1160,
  "\u2581case": 1161,
  "\u2581around": 1162,
  "\u258110,": 1163,
  "\u2581James": 1164,
  "\u2581real": 1165,
  "\u2581whole": 1166,
  "\u2581tarogi": 1167,
  "\u2581vunautaka": 1168,
  "\u2581yavutaki": 1169,
  "\u2581Jews": 1170,
  "\u2581followers": 1171,
  "\u2581including": 1172,
  "\u2581Rau": 1173,
  "\u2581lewena": 1174,
  "\u2581died": 1175,
  "\u2581prophet": 1176,
  "\u2581wrong": 1177,
  "\u2581ivakaro": 1178,
  "\u2581Raica": 1179,
  "\u2581yago": 1180,
  "\u2581light": 1181,
  "\u2581valenisoro": 1182,
  "\u2581soon": 1183,
  "\u2581remain": 1184,
  "\u2581Oti": 1185,
  "\u2581basika": 1186,
  "\u2581curu": 1187,
  "\u2581happiness": 1188,
  "\u2581iVakamacala": 1189,
  "\u2581health": 1190,
  "\u2581Read": 1191,
  "\u2581gagadre": 1192,
  "\u2581Vale": 1193,
  "\u258127": 1194,
  "\u2581married": 1195,
  "\u2581mataqali": 1196,
  "\u2581information": 1197,
  "\u2581thinking": 1198,
  "\u2581veivosakitaka": 1199,
  "\u2581wanted": 1200,
  "\u2581provide": 1201,
  "\u2581Line": 1202,
  "th": 1203,
  "\u2581tokona": 1204,
  "\u2581NW": 1205,
  "\u2581makes": 1206,
  "\u2581Ra": 1207,
  "\u2581waqa": 1208,
  "\u25817,": 1209,
  "\u2581change": 1210,
  "\u2581Are": 1211,
  "\u258111,": 1212,
  "\u2581balavu": 1213,
  "\u2581vakadonui": 1214,
  "\u2581vakatulewataka": 1215,
  "\u2581Since": 1216,
  "\u2581vakarusai": 1217,
  "\u2581pray": 1218,
  "\u2581galala": 1219,
  "\u2581strong": 1220,
  "\u2581allow": 1221,
  "\u2581Joseph": 1222,
  "\u2581wase": 1223,
  "\u2581tokoni": 1224,
  "\u2581kana": 1225,
  "\u2581Vakatakila": 1226,
  "\u2581dead": 1227,
  "\u2581going": 1228,
  "\u2581ikarua": 1229,
  "\u2581milioni": 1230,
  "\u2581teach": 1231,
  "\u258112,": 1232,
  "\u2581Solomoni": 1233,
  "\u2581taught": 1234,
  "\u2581vakalomalagi": 1235,
  "\u2581religion": 1236,
  "m": 1237,
  "\u2581iotioti": 1238,
  "\u258121.": 1239,
  "\u2581individuals": 1240,
  "\u2581qara": 1241,
  "\u2581special": 1242,
  "\u2581qualities": 1243,
  "\u2581Lawa": 1244,
  "\u2581Revelation": 1245,
  "\u2581Such": 1246,
  "\u2581Be": 1247,
  "\u2581Solomon": 1248,
  "\u2581VV": 1249,
  "\u2581bete": 1250,
  "\u2581Romans": 1251,
  "....": 1252,
  "\u2581isau": 1253,
  "\u25812,": 1254,
  "\u2581qele": 1255,
  "\u2581small": 1256,
  "ratou": 1257,
  "vakalougatataki": 1258,
  "\u2581vakamau": 1259,
  "\u2581veiyabaki": 1260,
  "\u2581Creator": 1261,
  "st": 1262,
  "\u2581vakacaca": 1263,
  "\u2581Devil": 1264,
  "\u2581sons": 1265,
  "\u2581isoro": 1266,
  "\u2581T": 1267,
  "\u2581matters": 1268,
  "\u2581sent": 1269,
  "\u2581nation": 1270,
  "\u2581dusimaki": 1271,
  "\u2581vakaukauataki": 1272,
  "\u2581ituvatuva": 1273,
  "hile": 1274,
  "\u2581taking": 1275,
  "\u2581toki": 1276,
  "\u2581works": 1277,
  "\u2581iyaloyalo": 1278,
  "\u2581whe": 1279,
  "\u2581spiritually": 1280,
  "\u2581resurrection": 1281,
  "\u2581Rather": 1282,
  "\u2581temple": 1283,
  "\u2581dravudravua": 1284,
  "\u2581rerevaki": 1285,
  "\u2581vakatau": 1286,
  "\u2581everlasting": 1287,
  "\u2581vakadodonu": 1288,
  "\u2581control": 1289,
  "\u2581vakabauti": 1290,
  "\u2581group": 1291,
  "\u2581mentioned": 1292,
  "\u258123.": 1293,
  "\u2581war": 1294,
  "\u2581nuidei": 1295,
  "\u258116,": 1296,
  "\u2581sisters": 1297,
  "\u2581Footnote": 1298,
  "\u2581gives": 1299,
  "\u2581marautaki": 1300,
  "and": 1301,
  "\u2581sureti": 1302,
  "\u2581try": 1303,
  "\u2581Daniel": 1304,
  "\u2581heard": 1305,
  "\u2581nothing": 1306,
  "\u2581perfect": 1307,
  "\u2581yalomatua": 1308,
  "\u2581raraba": 1309,
  "\u2581four": 1310,
  "\u2581material": 1311,
  "\u2581comes": 1312,
  "\u2581kingdom": 1313,
  "\u2581Not": 1314,
  "\u2581koronivuli": 1315,
  "\u2581luve": 1316,
  "\u2581cecere": 1317,
  "\u2581tarai": 1318,
  "\u2581night": 1319,
  "\u2581vakavuvale": 1320,
  "\u2581sacrifice": 1321,
  "uti": 1322,
  "\u2581similar": 1323,
  "\u2581Today": 1324,
  "\u2581strength": 1325,
  "\u2581divine": 1326,
  "\u2581involved": 1327,
  "\u2581Would": 1328,
  "\u2581vauca": 1329,
  "\u2581veivakacegui": 1330,
  "\u2581kania": 1331,
  "\u2581apostles": 1332,
  "\u2581large": 1333,
  "\u2581loved": 1334,
  "\u258113,": 1335,
  "\u2581NI": 1336,
  "\u2581rogoci": 1337,
  "espite": 1338,
  "\u258118:": 1339,
  "\u2581Iperiu": 1340,
  "\u2581People": 1341,
  "\u2581certainly": 1342,
  "\u2581slave": 1343,
  "\u2581false": 1344,
  "\u2581shows": 1345,
  "\u2581Kua": 1346,
  "\u2581based": 1347,
  "\u2581vakavinavinaka": 1348,
  "\u2581righteousness": 1349,
  "\u2581Pictures": 1350,
  "\u2581inspired": 1351,
  "\u258113:": 1352,
  "\u2581lelevu": 1353,
  "\u2581kawa": 1354,
  "\u2581thing": 1355,
  "\u2581vakacacani": 1356,
  "\u2581clear": 1357,
  "\u2581fully": 1358,
  "\u2581truly": 1359,
  "\u2581gumatua": 1360,
  "\u2581cata": 1361,
  "\u2581taken": 1362,
  "\u2581Luvena": 1363,
  "\u2581vakavinaka": 1364,
  "\u2581Dur": 1365,
  "\u2581Rawa": 1366,
  "\u2581sister": 1367,
  "\u2581veiyacovi": 1368,
  "\u2581provided": 1369,
  "\u2581laivi": 1370,
  "\u2581wonderful": 1371,
  "\u2581sheep": 1372,
  "\u2581soti": 1373,
  "\u2581gift": 1374,
  "\u2581\u25aa": 1375,
  "\u2581mataivalu": 1376,
  "\u2581imitate": 1377,
  "\u2581interest": 1378,
  "\u2581physical": 1379,
  "\u2581vakaleqai": 1380,
  "\u2581past": 1381,
  "\u2581s": 1382,
  "\u2581started": 1383,
  "\u2581Watch": 1384,
  "\u2581yacana": 1385,
  "\u2581circumstances": 1386,
  "\u2581lomavakacegu": 1387,
  "\u2581accept": 1388,
  "\u2581effort": 1389,
  "\u2581seen": 1390,
  "\u2581Genesis": 1391,
  "\u2581biut": 1392,
  "\u2581veilomani": 1393,
  "\u2581evidence": 1394,
  "\u2581ivakadinadina": 1395,
  "\u2581meaning": 1396,
  "\u2581vakararawataki": 1397,
  "\u2581prayers": 1398,
  "\u2581vakaukaua": 1399,
  "\u2581yalolailai": 1400,
  "Ena": 1401,
  "\u2581Ijipita": 1402,
  "\u2581taukena": 1403,
  "\u2581understanding": 1404,
  "\u2581anyone": 1405,
  "\u258132": 1406,
  "\u2581once": 1407,
  "\u2581return": 1408,
  "\u2581Vakatekivu": 1409,
  "\u2581Tevoro": 1410,
  "\u2581vakaleqa": 1411,
  "\u2581using": 1412,
  "\u2581Efeso": 1413,
  "\u2581second": 1414,
  "\u2581Josefa": 1415,
  "\u2581Dauveibuli": 1416,
  "\u258117,": 1417,
  "\u2581Scriptural": 1418,
  "\u2581friend": 1419,
  "\u258137": 1420,
  "\u2581local": 1421,
  "\u2581showed": 1422,
  "\u2581namaka": 1423,
  "\u2581Noa": 1424,
  "\u2581forever": 1425,
  "\u2581Will": 1426,
  "\u2581bulabula": 1427,
  "\u258124.": 1428,
  "\u2581ilesilesi": 1429,
  "\u2581country": 1430,
  "\u2581regard": 1431,
  "\u2581simply": 1432,
  "Raica": 1433,
  "sa": 1434,
  "\u2581draw": 1435,
  "\u2581cauravou": 1436,
  "\u258122.": 1437,
  "\u2581vakaitikotiko": 1438,
  "\u2581sereki": 1439,
  "in": 1440,
  "\u2581according": 1441,
  "\u2581lived": 1442,
  "\u2581tell": 1443,
  "\u2581vakalailai": 1444,
  "\u2581vakavulica": 1445,
  "\u2581Like": 1446,
  "\u2581please": 1447,
  "\u2581pioneer": 1448,
  "\u2581congregations": 1449,
  "\u2581Noda": 1450,
  "\u2581coming": 1451,
  "\u2581gain": 1452,
  "\u2581comfort": 1453,
  "\u2581leave": 1454,
  "\u2581examples": 1455,
  "\u2581stand": 1456,
  "\u2581Did": 1457,
  "\u2581Noah": 1458,
  "\u2581Hebrew": 1459,
  "\u2581vakasalataki": 1460,
  "\u2581blessings": 1461,
  "\u2581rarama": 1462,
  "\u2581wasoma": 1463,
  "\u2581further": 1464,
  "\u2581kept": 1465,
  "\u2581vakaroti": 1466,
  "\u2581Ira": 1467,
  "\u258119,": 1468,
  "\u2581form": 1469,
  "\u2581talaidredre": 1470,
  "\u2581Vinaka": 1471,
  "\u2581born": 1472,
  "\u2581prophecy": 1473,
  "\u2581Hebrews": 1474,
  "\u2581already": 1475,
  "\u2581rather": 1476,
  "\u2581Now": 1477,
  "\u2581rule": 1478,
  "\u2581meeting": 1479,
  "\u2581qaqa": 1480,
  "\u2581vakatovolei": 1481,
  "\u2581written": 1482,
  "You": 1483,
  "\u2581greater": 1484,
  "\u2581standards": 1485,
  "\u2581witness": 1486,
  "\u2581F": 1487,
  "\u2581Society": 1488,
  "\u2581loyal": 1489,
  "\u2581promise": 1490,
  "\u2581deep": 1491,
  "\u2581therefore": 1492,
  "\u2581here": 1493,
  "\u2581lost": 1494,
  "\u2581An": 1495,
  "\u2581Life": 1496,
  "\u2581Their": 1497,
  "\u2581value": 1498,
  "\u2581volavola": 1499,
  "\u2581Still": 1500,
  "\u2581Tower": 1501,
  "\u2581United": 1502,
  "\u2581efforts": 1503,
  "\u2581vakatautauvata": 1504,
  "\u2581authority": 1505,
  "\u2581moce": 1506,
  "\u2581blessing": 1507,
  "\u2581powerful": 1508,
  "\u2581gonevuli": 1509,
  "\u2581within": 1510,
  "\u2581Taniela": 1511,
  "\u2581opportunity": 1512,
  "\u2581yavu": 1513,
  "\u2581vutuniyau": 1514,
  "ni": 1515,
  "\u2581speaking": 1516,
  ",...": 1517,
  "\u2581decisions": 1518,
  "\u2581privilege": 1519,
  "Mo": 1520,
  "\u2581anything": 1521,
  "\u2581move": 1522,
  "\u2581serious": 1523,
  "\u2581soul": 1524,
  "vinavinakataka": 1525,
  "\u2581confidence": 1526,
  "\u2581gunu": 1527,
  "c": 1528,
  "\u2581Gauna": 1529,
  "\u2581Jeremaia": 1530,
  "\u2581deal": 1531,
  "\u2581valeniveivesu": 1532,
  "\u258131": 1533,
  "\u2581Nodra": 1534,
  "\u2581vakatotomuria": 1535,
  "\u2581call": 1536,
  "\u2581doubt": 1537,
  "\u2581effect": 1538,
  "\u2581public": 1539,
  "\u258118,": 1540,
  "\u2581Samuel": 1541,
  "\u2581organization": 1542,
  "\u2581Instead": 1543,
  "\u2581vakasakiti": 1544,
  "\u25aa": 1545,
  "\u2581maintain": 1546,
  "\u2581shall": 1547,
  "Me": 1548,
  "\u2581vakasisila": 1549,
  "\u2581helps": 1550,
  "\u2581Vakatawa": 1551,
  "\u2581regarding": 1552,
  "\u2581believers": 1553,
  "\u2581vakacaucautaki": 1554,
  "\u2581Keitou": 1555,
  "\u2581rere": 1556,
  "\u2581promises": 1557,
  "\u2581veitokani": 1558,
  "\u2581heavens": 1559,
  "\u258150": 1560,
  "\u2581isolisoli": 1561,
  "\u2581months": 1562,
  "\u2581decision": 1563,
  "Dou": 1564,
  "\u2581longer": 1565,
  "\u2581perhaps": 1566,
  "\u2581served": 1567,
  "\u2581continued": 1568,
  "\u2581qasenivuli": 1569,
  "\u2581tabaka": 1570,
  "\u2581vakilai": 1571,
  "\u2581older": 1572,
  "Jehovah": 1573,
  "\u2581honor": 1574,
  "\u2581mudu": 1575,
  "\u2581vital": 1576,
  "\u2581named": 1577,
  "\u2581vuniwai": 1578,
  "\u2581Jemesa": 1579,
  "\u2581hearts": 1580,
  "\u2581uqeta": 1581,
  "\u2581veiyasa": 1582,
  "\u2581Hence": 1583,
  "\u2581Papiloni": 1584,
  "\u2581got": 1585,
  "\u2581pages": 1586,
  "\u2581preach": 1587,
  "\u2581prove": 1588,
  "\u2581spoke": 1589,
  "\u2581tauvi": 1590,
  "\u2581According": 1591,
  "\u2581Jewish": 1592,
  "\u2581changed": 1593,
  "\u2581glory": 1594,
  "\u2581Jeremiah": 1595,
  "\u2581apply": 1596,
  "\u2581Witness": 1597,
  "\u2581common": 1598,
  "\u2581activities": 1599,
  "\u2581hold": 1600,
  "\u2581lewaeloma": 1601,
  "\u2581angels": 1602,
  "\u2581biu": 1603,
  "ting": 1604,
  "\u2581J": 1605,
  "\u2581hands": 1606,
  "\u2581sobu": 1607,
  "\u2581Indeed": 1608,
  "ka": 1609,
  "\u2581stated": 1610,
  "\u2581vakararavi": 1611,
  "\u2581udolu": 1612,
  "\u2581veikauaitaki": 1613,
  "\u2581vulagi": 1614,
  "\u2581die": 1615,
  "\u2581doka": 1616,
  "\u2581guilecava": 1617,
  "\u2581willing": 1618,
  "\u2581couple": 1619,
  "\u2581explained": 1620,
  "\u2581instance": 1621,
  "\u2581everything": 1622,
  "\u2581italanoa": 1623,
  "\u2581rui": 1624,
  "\u2581thoughts": 1625,
  "\u2581vakaliuca": 1626,
  "God": 1627,
  "\u2581Mark": 1628,
  "\u2581hear": 1629,
  "\u2581veivosoti": 1630,
  "\u2581Mary": 1631,
  "\u2581Peceli": 1632,
  "\u2581kalou": 1633,
  "\u2581start": 1634,
  "\u2581Mera": 1635,
  "\u2581beitaki": 1636,
  "\u2581listen": 1637,
  "\u2581events": 1638,
  "\u2581held": 1639,
  "\u2581watiqu": 1640,
  "\u2581direction": 1641,
  "\u2581integrity": 1642,
  "\u2581published": 1643,
  "\u2581Juta": 1644,
  "\u2581remember": 1645,
  "\u258125.": 1646,
  "\u2581Eve": 1647,
  "\u2581history": 1648,
  "\u2581considered": 1649,
  "\u2581vaqara": 1650,
  "\u2581\u25cf": 1651,
  "\u2581digia": 1652,
  "\u2581determined": 1653,
  "\u2581yaloqaqa": 1654,
  "\u2581Ivi": 1655,
  "\u2581problem": 1656,
  "\u2581Box": 1657,
  "\u2581field": 1658,
  "\u2581tagi": 1659,
  "\u2581'?": 1660,
  "\u2581Tamana": 1661,
  "\u2581offer": 1662,
  "\u2581vakadidike": 1663,
  "\u2581wainimate": 1664,
  "\u2581Roman": 1665,
  "\u2581issue": 1666,
  "less": 1667,
  "\u2581alone": 1668,
  "\u2581isausau": 1669,
  "\u2581tiki": 1670,
  "\u2581teachings": 1671,
  "\u2581answers": 1672,
  "\u2581advice": 1673,
  "\u2581macawa": 1674,
  "\u2581taleitaki": 1675,
  "\u2581isulu": 1676,
  "\u2581available": 1677,
  "\u2581led": 1678,
  "\u2581tarova": 1679,
  "\u2581First": 1680,
  "ibalebaletaka": 1681,
  "over": 1682,
  "\u2581Samuela": 1683,
  "\u2581branch": 1684,
  "\u2581ability": 1685,
  "\u2581visit": 1686,
  "\u2581duatani": 1687,
  "\u2581Bethel": 1688,
  "\u2581influence": 1689,
  "\u2581liutaka": 1690,
  "\u2581daukaulotu": 1691,
  "\u2581daunisame": 1692,
  "\u2581vakaraitaki": 1693,
  "\u2581vesu": 1694,
  "\u2581True": 1695,
  "\u2581head": 1696,
  "\u2581appointed": 1697,
  "\u2581Kaya": 1698,
  "\u2581accepted": 1699,
  "\u2581vakarota": 1700,
  "\u2581various": 1701,
  "\u2581judgment": 1702,
  "\u2581yadra": 1703,
  "\u2581church": 1704,
  "\u2581conscience": 1705,
  "\u2581strengthen": 1706,
  "\u2581government": 1707,
  "\u2581iwalewale": 1708,
  "\u2581ilakolako": 1709,
  "\u2581psalmist": 1710,
  "\u2581qarauna": 1711,
  "\u2581recorded": 1712,
  "\u2581affect": 1713,
  "\u2581area": 1714,
  "\u2581vakailavo": 1715,
  "\u2581valenivolavola": 1716,
  "\u2581role": 1717,
  "\u2581vakatakila": 1718,
  "\u2581vakabibitaka": 1719,
  "\u2581kerei": 1720,
  "\u2581vakatotomuri": 1721,
  "\u2581veiyalayalati": 1722,
  "\u2581kauai": 1723,
  "\u2581letter": 1724,
  "\u2581neimami": 1725,
  "\u2581build": 1726,
  "\u2581complete": 1727,
  "\u2581P": 1728,
  "\u2581appreciate": 1729,
  "\u2581seek": 1730,
  "\u2581yali": 1731,
  "\u2581godly": 1732,
  "\u2581experienced": 1733,
  "\u2581li": 1734,
  "\u2581vakasivia": 1735,
  "\u2581class": 1736,
  "\u2581students": 1737,
  "\u2581vakatamata": 1738,
  "\u2581veivosakitaki": 1739,
  "\u2581veiyaloni": 1740,
  "r": 1741,
  "\u2581Dikeva": 1742,
  "\u2581Saul": 1743,
  "\u2581moral": 1744,
  "\u2581digitaki": 1745,
  "\u2581itutu": 1746,
  "\u2581katakata": 1747,
  "\u2581offered": 1748,
  "\u2581May": 1749,
  "\u2581Mereke": 1750,
  "\u2581appreciation": 1751,
  "\u2581flesh": 1752,
  "\u2581period": 1753,
  "\u2581sotavi": 1754,
  "\u2581ago": 1755,
  "\u2581happened": 1756,
  "vakararawataki": 1757,
  "\u2581Saula": 1758,
  "\u2581Oya": 1759,
  "\u2581Mesaia": 1760,
  "\u2581takali": 1761,
  "\u2581walk": 1762,
  "\u2581vakatitobu": 1763,
  "\u2581daughter": 1764,
  "\u2581yalataki": 1765,
  "\u2581wants": 1766,
  "\u2581PAGE": 1767,
  "\u2581practical": 1768,
  "\u2581else": 1769,
  "\u2581open": 1770,
  "\u2581moni": 1771,
  "\u2581proved": 1772,
  "\u2581Nomu": 1773,
  "\u2581earlier": 1774,
  "\u2581forth": 1775,
  "\u2581clean": 1776,
  "\u2581clearly": 1777,
  "\u2581tuberi": 1778,
  "\u2581ransom": 1779,
  "\u2581ruarua": 1780,
  "\u2581whose": 1781,
  "\u2581text": 1782,
  "\u2581yacovi": 1783,
  "\u258120,": 1784,
  "\u2581source": 1785,
  "\u2581bulataka": 1786,
  "\u2581aua": 1787,
  "\u2581baptism": 1788,
  "\u2581chapter": 1789,
  "\u2581described": 1790,
  "\u2581ivakatakilakila": 1791,
  "\u2581tama": 1792,
  "\u2581vakadewataki": 1793,
  "\u2581kaukauwa": 1794,
  "\u2581walia": 1795,
  "\u2581harmony": 1796,
  "\u2581TABANA": 1797,
  "\u2581Tabu": 1798,
  "\u2581helping": 1799,
  "\u2581assignment": 1800,
  "\u2581less": 1801,
  "\u2581vosoti": 1802,
  "\u258170": 1803,
  "\u2581several": 1804,
  "\u2581vakamarautaki": 1805,
  "\u2581Have": 1806,
  "\u2581Nanuma": 1807,
  "\u2581Nikua": 1808,
  "\u2581attend": 1809,
  "\u2581worldwide": 1810,
  "me": 1811,
  "\u2581Just": 1812,
  "\u2581sins": 1813,
  "\u2581express": 1814,
  "\u2581reach": 1815,
  "\u2581seem": 1816,
  "\u2581veivutuni": 1817,
  "se": 1818,
  "ic": 1819,
  "\u2581five": 1820,
  "\u2581bobula": 1821,
  "\u2581vakaotia": 1822,
  "tomani": 1823,
  "\u2581covenant": 1824,
  "\u2581easy": 1825,
  "\u2581tried": 1826,
  "\u2581precious": 1827,
  "org": 1828,
  "\u2581guidance": 1829,
  "\u2581meet": 1830,
  "\u2581praise": 1831,
  "\u2581Later": 1832,
  "\u2581pain": 1833,
  "\u2581respond": 1834,
  "\u2581veitokoni": 1835,
  "\u258134": 1836,
  "\u2581activity": 1837,
  "\u2581foretold": 1838,
  "\u2581lekaleka": 1839,
  "\u2581created": 1840,
  "\u2581met": 1841,
  "\u2581Most": 1842,
  "\u2581office": 1843,
  "\u2581vakananuma": 1844,
  "\u2581itself": 1845,
  "\u2581poor": 1846,
  "\u2581responsibility": 1847,
  "\u2581English": 1848,
  "\u2581lima": 1849,
  "\u258160": 1850,
  "\u2581concern": 1851,
  "\u2581reasons": 1852,
  "\u2581above": 1853,
  "\u2581develop": 1854,
  "\u2581promised": 1855,
  "\u2581position": 1856,
  "\u2581vorata": 1857,
  "\u2581Therefore": 1858,
  "\u2581courage": 1859,
  "\u2581donuya": 1860,
  "\u2581stay": 1861,
  "\u2581earthly": 1862,
  "\u2581regular": 1863,
  "\u2581training": 1864,
  "\u2581Egypt": 1865,
  "\u2581suka": 1866,
  "\u2581States": 1867,
  "\u2581nakita": 1868,
  "\u2581rerevaka": 1869,
  "\u2581tudei": 1870,
  "es": 1871,
  "\u2581actions": 1872,
  "\u2581violence": 1873,
  "\u2581yalovinaka": 1874,
  "\u2581Vuravura": 1875,
  "\u2581books": 1876,
  "\u2581modern": 1877,
  "\u2581working": 1878,
  "\u2581dro": 1879,
  "\u2581sere": 1880,
  "\u2581cegu": 1881,
  "\u2581explains": 1882,
  "\u2581myself": 1883,
  "\u2581evil": 1884,
  "\u2581qito": 1885,
  "\u2581doudou": 1886,
  "\u2581languages": 1887,
  "\u2581maroroi": 1888,
  "\u2581obey": 1889,
  "\u2581tawa": 1890,
  "\u2581enough": 1891,
  "\u2581Internet": 1892,
  "\u2581[\"": 1893,
  "\u2581accurate": 1894,
  "\u2581learning": 1895,
  "\u2581Jacob": 1896,
  "\u2581raised": 1897,
  "\u2581rawai": 1898,
  "\u2581M": 1899,
  "\u2581single": 1900,
  "See": 1901,
  "re": 1902,
  "\u2581rest": 1903,
  "\u258129.": 1904,
  "\u2581vakavinakataka": 1905,
  "\u2581knows": 1906,
  "\u2581regularly": 1907,
  "\u2581convention": 1908,
  "\u2581grow": 1909,
  "\u2581vukea": 1910,
  "\u2581yalona": 1911,
  "\u2581veiveisau": 1912,
  "\u2581choose": 1913,
  "\u2581neither": 1914,
  "\u2581vatu": 1915,
  "l": 1916,
  "\u2581birth": 1917,
  "\u2581provides": 1918,
  "\u2581six": 1919,
  "\u2581carry": 1920,
  "\u2581everyone": 1921,
  "\u2581action": 1922,
  "\u258123,": 1923,
  "\u2581R": 1924,
  "\u2581actually": 1925,
  "\u2581sikovi": 1926,
  "\u2581decided": 1927,
  "\u2581vakayalololoma": 1928,
  "\u2581gugumatua": 1929,
  "\u2581write": 1930,
  "\u2581occasion": 1931,
  "\u2581trials": 1932,
  "Era": 1933,
  "\u2581vauci": 1934,
  "\u2581BIBLE": 1935,
  "\u2581Kato": 1936,
  "\u2581laws": 1937,
  "vakadinadinataki": 1938,
  "\u2581indeed": 1939,
  "\u2581vakayalomatua": 1940,
  "\u2581Baleta": 1941,
  "\u2581\"[": 1942,
  "\u2581butobuto": 1943,
  "\u2581ibulibuli": 1944,
  "\u2581speech": 1945,
  "\u2581veiuqeti": 1946,
  "\u2581Tamada": 1947,
  "\u2581daily": 1948,
  "\u2581dikevi": 1949,
  "\u2581encouraged": 1950,
  "\u2581natural": 1951,
  "\u00a9": 1952,
  "\u2581appropriate": 1953,
  "\u2581positive": 1954,
  "\u2581results": 1955,
  "\u2581matau": 1956,
  "\u2581Yalo": 1957,
  "\u2581eat": 1958,
  "\u258131.": 1959,
  "\u2581takes": 1960,
  "\u2581gaunisala": 1961,
  "\u2581parataisi": 1962,
  "\u2581creation": 1963,
  "to": 1964,
  "\u2581Meri": 1965,
  "\u2581Judah": 1966,
  "\u2581vakalotu": 1967,
  "\u2581kenadau": 1968,
  "\u258128.": 1969,
  "\u2581Or": 1970,
  "\u2581See": 1971,
  "\u2581yawa": 1972,
  "\u2581kato": 1973,
  "\u2581interests": 1974,
  "\u2581servant": 1975,
  "\u2581vunautaki": 1976,
  "\u2581Katolika": 1977,
  "\u2581invited": 1978,
  "\u2581literature": 1979,
  "\u2581nomudou": 1980,
  "\u2581tacina": 1981,
  "\u2581tamana": 1982,
  "\u2581Great": 1983,
  "\u2581reflect": 1984,
  "\u2581entire": 1985,
  "\u2581expression": 1986,
  "\u2581vakatara": 1987,
  "\u2581Others": 1988,
  "\u2581U": 1989,
  "\u2581addition": 1990,
  "\u2581tree": 1991,
  "\u2581vodo": 1992,
  "\u2581Holy": 1993,
  "ness": 1994,
  "\u2581ENA": 1995,
  "\u2581June": 1996,
  "\u2581Love": 1997,
  "\u2581changes": 1998,
  "\u2581returned": 1999,
  "\u2581sotia": 2000,
  "\u2581studying": 2001,
  "\u2581luvequ": 2002,
  "\u2581missionary": 2003,
  "\u2581voravora": 2004,
  "\u2581general": 2005,
  "\u2581imperfect": 2006,
  "\u2581sexual": 2007,
  "\u2581subject": 2008,
  "\u2581vakadewa": 2009,
  "\u2581itekitekivu": 2010,
  "\u2581ten": 2011,
  "\u2581un": 2012,
  "\u2581veikilai": 2013,
  "\u2581dautukutuku": 2014,
  "\u2581discipline": 2015,
  "\u2581job": 2016,
  "\u2581millions": 2017,
  "\u2581showing": 2018,
  "\u2581100": 2019,
  "\u2581countries": 2020,
  "\u2581elder": 2021,
  "\u2581Another": 2022,
  "\u2581prayed": 2023,
  "\u2581vakatabui": 2024,
  "ra": 2025,
  "\u2581individual": 2026,
  "\u2581behind": 2027,
  "\u2581force": 2028,
  "\u2581prison": 2029,
  "\u2581salvation": 2030,
  "\u2581turned": 2031,
  "\u2581kacivaka": 2032,
  "\u2581wasea": 2033,
  "\u2581yalomalua": 2034,
  "\u258122,": 2035,
  "\u2581families": 2036,
  "\u2581rich": 2037,
  "\u2581challenge": 2038,
  "\u2581desires": 2039,
  "\u2581freedom": 2040,
  "\u2581veivakaturi": 2041,
  "\u2581fulfillment": 2042,
  "\u2581ilala": 2043,
  "\u2581realize": 2044,
  "\u2581Messiah": 2045,
  "\u2581d": 2046,
  "\u2581lands": 2047,
  "\u2581seven": 2048,
  "\u2581throughout": 2049,
  "\u2581lomaocaoca": 2050,
  "\u2581Before": 2051,
  "\u2581Marika": 2052,
  "\u2581ono": 2053,
  "\u2581stop": 2054,
  "\u2581veivolekati": 2055,
  "\u2581allowed": 2056,
  "\u2581vakavuravura": 2057,
  "\u2581yalorawarawa": 2058,
  "\u2581Jekope": 2059,
  "\u2581Vaka": 2060,
  "\u2581include": 2061,
  "\u2581endure": 2062,
  "\u2581paradise": 2063,
  "\u2581vakavuniwai": 2064,
  "\u2581places": 2065,
  "\u2581seeking": 2066,
  "\u2581anger": 2067,
  "\u2581proper": 2068,
  "\u2581caused": 2069,
  "\u2581tamaqu": 2070,
  "\u2581tauca": 2071,
  "\u2581Ask": 2072,
  "\u2581display": 2073,
  "\u2581door": 2074,
  "\u2581beci": 2075,
  "\u2581bucina": 2076,
  "\u2581humble": 2077,
  "\u2581matakau": 2078,
  "\u2581soro": 2079,
  "\u2581centuries": 2080,
  "\u2581interested": 2081,
  "\u2581Catholic": 2082,
  "\u2581goal": 2083,
  "\u2581toro": 2084,
  "\u2581becoming": 2085,
  "\u2581enemies": 2086,
  "\u2581shown": 2087,
  "\u2581ivunau": 2088,
  "\u2581pressure": 2089,
  "\u2581Us": 2090,
  "\u2581enjoyed": 2091,
  "\u2581maliwa": 2092,
  "\u2581thousands": 2093,
  "\u2581tau": 2094,
  "\u2581italatala": 2095,
  "\u2581practice": 2096,
  "\u2581suffer": 2097,
  "\u2581voice": 2098,
  "\u2581kalougata": 2099,
  "\u2581worked": 2100,
  "\u2581yau": 2101,
  "\u2581acts": 2102,
  "\u2581benefits": 2103,
  "\u2581hours": 2104,
  "\u2581success": 2105,
  "vinavinakataki": 2106,
  "\u2581Yaco": 2107,
  "\u2581knowing": 2108,
  "\u2581seems": 2109,
  "\u2581vitu": 2110,
  "\u2581Though": 2111,
  "\u2581protect": 2112,
  "\u2581sign": 2113,
  "\u2581vakadinata": 2114,
  "\u2581Pennsylvania": 2115,
  "\u2581genuine": 2116,
  "\u2581Translation": 2117,
  "\u2581lomaqu": 2118,
  "\u2581miles": 2119,
  "\u2581justice": 2120,
  "\u2581short": 2121,
  "\u2581blessed": 2122,
  "\u2581building": 2123,
  "\u2581kilaka": 2124,
  "\u2581quality": 2125,
  "\u2581bear": 2126,
  "\u2581vagumatua": 2127,
  "\u2581masuta": 2128,
  "\u2581vuni": 2129,
  "\u2581basis": 2130,
  "\u2581tells": 2131,
  "\u2581destruction": 2132,
  "\u2581walking": 2133,
  "\u2581enable": 2134,
  "\u2581encourage": 2135,
  "\u2581personality": 2136,
  "\u2581veitaratara": 2137,
  "\u2581School": 2138,
  "\u2581vakabekataki": 2139,
  "\u2581veimataqali": 2140,
  "jw": 2141,
  "\u2581favor": 2142,
  "\u2581gaga": 2143,
  "\u2581Jamani": 2144,
  "\u2581sota": 2145,
  "\u2581volekata": 2146,
  "\u2581Ephesians": 2147,
  "\u2581Sala": 2148,
  "\u2581kere": 2149,
  "\u2581least": 2150,
  "\u2581happen": 2151,
  "\u2581exercise": 2152,
  "\u2581Gilead": 2153,
  "\u2581Keep": 2154,
  "\u2581assigned": 2155,
  "\u2581deeply": 2156,
  "\u2581illustration": 2157,
  "\u2581morning": 2158,
  "\u2581beliefs": 2159,
  "\u2581faced": 2160,
  "\u2581mercy": 2161,
  "\u2581sometimes": 2162,
  "\u2581condition": 2163,
  "\u2581feet": 2164,
  "\u2581quickly": 2165,
  "\u2581dauloloma": 2166,
  "\u2581don": 2167,
  "\u2581Aferika": 2168,
  "\u2581arrived": 2169,
  "\u2581looking": 2170,
  "\u2581talai": 2171,
  "\u2581lagilagi": 2172,
  "\u2581former": 2173,
  "\u2581icavacava": 2174,
  "\u2581veivakabulai": 2175,
  "\u2581dabe": 2176,
  "\u2581encouragement": 2177,
  "\u2581veivakatovolei": 2178,
  "\u2581waini": 2179,
  "\u2581G": 2180,
  "\u2581Lako": 2181,
  "\u2581Ruth": 2182,
  "\u2581kilomita": 2183,
  "\u2581vakapolitiki": 2184,
  "\u2581Josua": 2185,
  "\u2581Luve": 2186,
  "\u2581Questions": 2187,
  "\u2581beyond": 2188,
  "malumalumutaki": 2189,
  "us": 2190,
  "\u2581education": 2191,
  "\u2581tinaqu": 2192,
  "],": 2193,
  "sega": 2194,
  "\u2581Perhaps": 2195,
  "\u2581iloloma": 2196,
  "\u2581warning": 2197,
  "\u2581Vuli": 2198,
  "\u2581cultivate": 2199,
  "If": 2200,
  "\u2581alive": 2201,
  "\u2581expect": 2202,
  "\u2581liutaki": 2203,
  "\u2581sound": 2204,
  "\u2581week": 2205,
  "\u2581wonder": 2206,
  "\u2581Brooklyn": 2207,
  "\u2581added": 2208,
  "\u2581leaders": 2209,
  "\u2581lomamu": 2210,
  "\u2581record": 2211,
  "\u2581tina": 2212,
  "\u2581vulici": 2213,
  "\u2581crowd": 2214,
  "\u2581ready": 2215,
  "\u258124,": 2216,
  "\u2581spent": 2217,
  "\u2581Vunau": 2218,
  "\u258121,": 2219,
  "\u2581choice": 2220,
  "\u2581member": 2221,
  "\u2581sacred": 2222,
  "\u2581taqomaka": 2223,
  "\u2581Joshua": 2224,
  "\u2581porokaramu": 2225,
  "\u2581related": 2226,
  "\u2581traveling": 2227,
  "\u2581eventually": 2228,
  "\u2581volia": 2229,
  "\u25817]": 2230,
  "\u2581ahead": 2231,
  "\u2581greatest": 2232,
  "\u2581line": 2233,
  "\u2581Merika": 2234,
  "\u2581sokaloutaki": 2235,
  "\u2581valuta": 2236,
  "\u2581Babylon": 2237,
  "\u2581behalf": 2238,
  "\u2581brings": 2239,
  "\u2581lutu": 2240,
  "\u2581necessary": 2241,
  "\u2581publications": 2242,
  "\u2581beginning": 2243,
  "\u2581biubiu": 2244,
  "\u2581vakalaiva": 2245,
  "\u2581Kosipeli": 2246,
  "\u2581principle": 2247,
  "\u2581vakailesilesi": 2248,
  "\u2581unity": 2249,
  "\u2581yalava": 2250,
  "\u2581revealed": 2251,
  "\u2581spend": 2252,
  "volekati": 2253,
  "\u2581L": 2254,
  "\u2581Soon": 2255,
  "\u2581focus": 2256,
  "\u2581madrai": 2257,
  "\u2581Similarly": 2258,
  "\u2581firm": 2259,
  "\u2581pasede": 2260,
  "\u2581Mani": 2261,
  "Do": 2262,
  "\u2581Vanua": 2263,
  "\u2581York": 2264,
  "\u2581cagi": 2265,
  "\u2581getting": 2266,
  "\u2581humility": 2267,
  "vakaduiduitaki": 2268,
  "\u2581rusa": 2269,
  "an": 2270,
  "\u2581Dou": 2271,
  "\u2581completely": 2272,
  "\u2581Young": 2273,
  "\u2581beautiful": 2274,
  "\u2581goals": 2275,
  "\u2581lack": 2276,
  "\u2581million": 2277,
  "\u2581vala": 2278,
  "\u2581waraka": 2279,
  "mata": 2280,
  "\u2581Further": 2281,
  "\u2581challenges": 2282,
  "\u2581igu": 2283,
  "\u2581motoka": 2284,
  "\u2581parent": 2285,
  "\u2581usually": 2286,
  "evertheless": 2287,
  "\u258135": 2288,
  "\u2581Filipai": 2289,
  "\u2581magazine": 2290,
  "\u2581angel": 2291,
  "\u2581month": 2292,
  "\u2581sacrifices": 2293,
  "\u2581tauri": 2294,
  "\u2581V": 2295,
  "\u2581approach": 2296,
  "\u2581tauyavutaka": 2297,
  "\u2581tinana": 2298,
  "\u258127.": 2299,
  "\u2581priest": 2300,
  "\u2581test": 2301,
  "\u2581veitalanoa": 2302,
  "\u2581Church": 2303,
  "\u2581lesson": 2304,
  "\u2581original": 2305,
  "\u2581ilavelave": 2306,
  "\u2581simple": 2307,
  "\u2581vakaca": 2308,
  "\u2581followed": 2309,
  "\u2581vakacalai": 2310,
  "niti": 2311,
  "\u2581kerekere": 2312,
  "\u2581percent": 2313,
  "\u2581trying": 2314,
  "\u2581explain": 2315,
  "\u2581truths": 2316,
  "\u2581whatever": 2317,
  "\u2581Mexico": 2318,
  "\u2581fulfilled": 2319,
  "\u2581vakaoti": 2320,
  "\u2581fruit": 2321,
  "\u2581progress": 2322,
  "\u2581H": 2323,
  "\u2581cau": 2324,
  "\u2581examine": 2325,
  "\u2581expressed": 2326,
  "\u2581side": 2327,
  "\u2581vakaloloma": 2328,
  "\u2581included": 2329,
  "\u2581steps": 2330,
  "\u2581tribulation": 2331,
  "\u2581vakatui": 2332,
  "\u2581accounts": 2333,
  "\u2581Clearly": 2334,
  "\u2581Vakamacalataka": 2335,
  "\u2581iwasewase": 2336,
  "We": 2337,
  "\u2581K": 2338,
  "\u2581either": 2339,
  "\u2581feeling": 2340,
  "\u2581mataka": 2341,
  "\u2581persecution": 2342,
  "\u2581veinanumi": 2343,
  "\u2581Awake": 2344,
  "\u2581Sara": 2345,
  "\u2581War": 2346,
  "\u2581girl": 2347,
  "\u2581priests": 2348,
  "\u258126.": 2349,
  "ve": 2350,
  "\u2581Where": 2351,
  "\u2581cati": 2352,
  "\u2581importance": 2353,
  "\u2581resurrected": 2354,
  "\u2581Ilaija": 2355,
  "\u2581yasayasa": 2356,
  "\u2581yourselves": 2357,
  "\u2581nature": 2358,
  "\u2581political": 2359,
  "\u2581protection": 2360,
  "\u25811914": 2361,
  "\u2581final": 2362,
  "\u2581recognize": 2363,
  "\u2581state": 2364,
  "\u2581studies": 2365,
  "\u2581veivoli": 2366,
  "\u2581Bibi": 2367,
  "\u2581Tim": 2368,
  "\u2581vakauasivi": 2369,
  "\u2581veisureti": 2370,
  "ever": 2371,
  "\u2581filled": 2372,
  "ti": 2373,
  "\u2581About": 2374,
  "\u2581Assembly": 2375,
  "\u258133.": 2376,
  "\u2581aware": 2377,
  "\u2581masulaka": 2378,
  "\u2581tabacakacaka": 2379,
  "\u2581wives": 2380,
  "\u2581Beka": 2381,
  "\u2581closer": 2382,
  "\u2581contact": 2383,
  "\u2581keba": 2384,
  "\u2581meant": 2385,
  "\u2581yanuyanu": 2386,
  "\u2581worshippers": 2387,
  "\u258135.": 2388,
  "\u2581Elijah": 2389,
  "\u2581report": 2390,
  "\u2581Was": 2391,
  "\u2581devotion": 2392,
  "\u2581keeping": 2393,
  "\u2581treat": 2394,
  "\u2581conditions": 2395,
  "\u2581involves": 2396,
  "\u2581yavala": 2397,
  "\u00b7": 2398,
  "\u2581arrangement": 2399,
  "\u2581lo": 2400,
  "\u2581realized": 2401,
  "\u2581wiliki": 2402,
  "\u2581Remember": 2403,
  "\u2581command": 2404,
  "\u2581pay": 2405,
  "\u2581personally": 2406,
  "\u2581km": 2407,
  "\u2581matadra": 2408,
  "\u2581social": 2409,
  "\u2581Keimami": 2410,
  "\u2581Qai": 2411,
  "\u2581Through": 2412,
  "\u2581almo": 2413,
  "\u2581cope": 2414,
  "\u2581translation": 2415,
  "est": 2416,
  "\u2581July": 2417,
  "\u2581Taro": 2418,
  "\u2581address": 2419,
  "\u2581dedicated": 2420,
  "\u2581term": 2421,
  "\u2581dedication": 2422,
  "\u2581prepared": 2423,
  "\u2581Matt": 2424,
  "\u2581veidokai": 2425,
  "\u2581areas": 2426,
  "\u2581loyalty": 2427,
  "\u2581parts": 2428,
  "\u2581titobu": 2429,
  "ibalebaletaki": 2430,
  "\u2581Lotu": 2431,
  "\u2581half": 2432,
  "\u2581matana": 2433,
  "\u2581sovereignty": 2434,
  "\u25819]": 2435,
  "\u2581fire": 2436,
  "\u2581koto": 2437,
  "\u2581site": 2438,
  "\u2581vakamalua": 2439,
  "\u2581kings": 2440,
  "\u2581urged": 2441,
  "\u2581votu": 2442,
  "\u2581contrast": 2443,
  "\u2581siti": 2444,
  "\u2581sivi": 2445,
  "\u02b9": 2446,
  "\u2581Really": 2447,
  "\u2581mental": 2448,
  "\u2581neighbor": 2449,
  "\u2581sea": 2450,
  "\u2581II": 2451,
  "\u2581carefully": 2452,
  "\u2581fall": 2453,
  "or": 2454,
  "\u2581missionaries": 2455,
  ".)": 2456,
  "\u258115]": 2457,
  "\u2581Good": 2458,
  "\u2581Oni": 2459,
  "\u2581prepare": 2460,
  "\u2581Tikina": 2461,
  "\u2581Tukuna": 2462,
  "\u2581strive": 2463,
  "].": 2464,
  "\u258130.": 2465,
  "\u2581SERE": 2466,
  "\u2581digitaka": 2467,
  "\u2581watimu": 2468,
  "It": 2469,
  "en": 2470,
  "\u2581SONGS": 2471,
  "\u2581opposition": 2472,
  "\u2581program": 2473,
  "\u2581IN": 2474,
  "\u2581dokadoka": 2475,
  "\u2581ulu": 2476,
  "\u258128,": 2477,
  "\u2581Rome": 2478,
  "\u2581fight": 2479,
  "\u2581noted": 2480,
  "\u2581asking": 2481,
  "\u2581ikatolu": 2482,
  "\u2581South": 2483,
  "\u2581begin": 2484,
  "\u2581lesia": 2485,
  "\u2581passed": 2486,
  "\u2581Kirisi": 2487,
  "\u2581town": 2488,
  "\u2581idea": 2489,
  "\u2581kacivi": 2490,
  "\u2581tarovi": 2491,
  "\u2581vakadede": 2492,
  "h": 2493,
  "\u2581pioneers": 2494,
  "\u2581send": 2495,
  "\u2581vukudra": 2496,
  "\u2581Brazil": 2497,
  "\u2581beca": 2498,
  "\u2581shepherd": 2499,
  "\u2581veisiko": 2500,
  "\u2581veivakasalataki": 2501,
  "\u2581presence": 2502,
  "\u2581relief": 2503,
  "\u2581seemed": 2504,
  "\u2581vakuai": 2505,
  "veivakamarautaki": 2506,
  "\u2581experiences": 2507,
  "\u2581lewenivuvale": 2508,
  "\u2581observe": 2509,
  "\u2581sharing": 2510,
  "Let": 2511,
  "\u2581Ruci": 2512,
  "\u2581discuss": 2513,
  "\u2581ground": 2514,
  "\u2581w": 2515,
  "\u258110]": 2516,
  "\u2581ovisa": 2517,
  "\u2581image": 2518,
  "\u2581prevent": 2519,
  "\u2581affection": 2520,
  "\u2581calls": 2521,
  "\u2581vakavalagi": 2522,
  "\u2581animals": 2523,
  "\u2581spoken": 2524,
  "\u2581sarava": 2525,
  "\u2581articles": 2526,
  "\u2581overseer": 2527,
  "\u2581yada": 2528,
  "\u258118]": 2529,
  "\u2581itabaqase": 2530,
  "\u2581Paradise": 2531,
  "\u2581Urope": 2532,
  "\u2581disciple": 2533,
  "\u2581rumu": 2534,
  "\u2581emotional": 2535,
  "\u2581flock": 2536,
  "\u2581forward": 2537,
  "ena": 2538,
  "\u2581verse": 2539,
  "\u2581volitaki": 2540,
  "\u2581ULUTAGA": 2541,
  "\u2581liga": 2542,
  "\u2581lot": 2543,
  "\u2581remained": 2544,
  "\u2581third": 2545,
  "\u2581vakaIperiu": 2546,
  "\u2581boy": 2547,
  "\u2581tawadodonu": 2548,
  "\u2581destroyed": 2549,
  "\u2581key": 2550,
  "\u2581negative": 2551,
  "\u2581rejoice": 2552,
  "\u2581Christianity": 2553,
  "\u2581St": 2554,
  "\u2581obedience": 2555,
  "\u2581security": 2556,
  "\u2581specific": 2557,
  "\u2581ciqomi": 2558,
  "\u2581consequences": 2559,
  "\u2581convinced": 2560,
  "\u2581idusidusi": 2561,
  "\u2581kuria": 2562,
  "\u2581outside": 2563,
  "\u2581attending": 2564,
  "\u2581parofisaitaka": 2565,
  "\u2581vakainaki": 2566,
  "\u258136": 2567,
  "\u2581Africa": 2568,
  "\u2581existence": 2569,
  "\u2581mosi": 2570,
  "\u2581vakana": 2571,
  "\u2581Memorial": 2572,
  "\u2581ruku": 2573,
  "\u2581standing": 2574,
  "\u2581lomabibi": 2575,
  "\u2581sun": 2576,
  "\u2581visited": 2577,
  "\u258126]": 2578,
  "\u2581ivakadewa": 2579,
  "\u2581tongue": 2580,
  "\u2581attended": 2581,
  "\u2581kitaka": 2582,
  "\u2581leqataka": 2583,
  "\u2581practices": 2584,
  "veivakurabuitaki": 2585,
  "\u2581temaki": 2586,
  "\u2581vakamatatataka": 2587,
  "\u258138": 2588,
  "\u2581Kolosa": 2589,
  "\u2581luvei": 2590,
  "\u2581observed": 2591,
  "\u2581rarawataka": 2592,
  "\u2581TO": 2593,
  "\u2581obedient": 2594,
  "\u2581publishers": 2595,
  "\u2581vaKirisi": 2596,
  "\u2581veivale": 2597,
  "\u2581limited": 2598,
  "\u2581minister": 2599,
  "\u2581Ps": 2600,
  "\u2581built": 2601,
  "\u2581edaidai": 2602,
  "\u2581universe": 2603,
  "In": 2604,
  "\u2581Also": 2605,
  "\u2581imagine": 2606,
  "\u258145": 2607,
  "\u2581Varanise": 2608,
  "\u2581bread": 2609,
  "\u2581watch": 2610,
  "\u2581youths": 2611,
  "\u2581chosen": 2612,
  "\u2581ivakatagi": 2613,
  "\u2581kunei": 2614,
  "\u2581Each": 2615,
  "\u2581ivakatakarakara": 2616,
  "\u2581produce": 2617,
  "\u2581Ana": 2618,
  "\u2581Noqu": 2619,
  "\u2581veilecayaki": 2620,
  "\u2581association": 2621,
  "\u2581friendship": 2622,
  "\u2581reki": 2623,
  "\u2581reasonable": 2624,
  "\u2581required": 2625,
  "\u2581wali": 2626,
  "\u2581agree": 2627,
  "\u2581homes": 2628,
  "\u2581recent": 2629,
  "\u258165": 2630,
  "\u2581teacher": 2631,
  "\u2581demonstrate": 2632,
  "\u2581groups": 2633,
  "\u2581medical": 2634,
  "\u2581offering": 2635,
  "\u2581sick": 2636,
  "\u2581suffered": 2637,
  "\u2581hour": 2638,
  "\u2581surely": 2639,
  "\u2581vuka": 2640,
  "\u2581\u25a1": 2641,
  "\u2581cudruvi": 2642,
  "\u2581immediately": 2643,
  "\u2581picture": 2644,
  "\u2581situations": 2645,
  "Ko": 2646,
  "\u2581Should": 2647,
  "\u2581effective": 2648,
  "\u2581forget": 2649,
  "\u2581iValu": 2650,
  "\u2581opening": 2651,
  "\u2581step": 2652,
  "He": 2653,
  "\u2581Philippians": 2654,
  "\u2581declared": 2655,
  "\u2581energy": 2656,
  "\u2581uciwai": 2657,
  "\u2581Yadra": 2658,
  "\u2581evening": 2659,
  "\u2581seed": 2660,
  "\u2581sincere": 2661,
  "\u2581vision": 2662,
  "\u2581elderly": 2663,
  "\u2581pure": 2664,
  "\u2581response": 2665,
  "\u2581sex": 2666,
  "\u2581ta": 2667,
  "\u2581vakasaqara": 2668,
  "\u2581youth": 2669,
  "\u2581Body": 2670,
  "\u2581honest": 2671,
  "\u2581Yaga": 2672,
  "\u2581continues": 2673,
  "\u2581valuable": 2674,
  "\u2581destroy": 2675,
  "\u2581established": 2676,
  "\u2581grateful": 2677,
  "\u2581lavotaki": 2678,
  "\u2581listening": 2679,
  "\u2581Children": 2680,
  "\u2581reveal": 2681,
  "\u2581vakanuinui": 2682,
  "\u2581vakau": 2683,
  "\u2581vakaveiwatini": 2684,
  "ers": 2685,
  "\u2581although": 2686,
  "\u2581confident": 2687,
  "\u2581eye": 2688,
  "\u2581itaukei": 2689,
  "\u2581veivakauqeti": 2690,
  "\u2581vakalekaleka": 2691,
  "\u2581vaqaqacotaka": 2692,
  "\u2581Kila": 2693,
  "\u2581delight": 2694,
  "\u2581developed": 2695,
  "\u2581foreign": 2696,
  "\u2581guard": 2697,
  "\u2581iwase": 2698,
  "\u2581refused": 2699,
  "\u2581tovolea": 2700,
  "\u2581vovou": 2701,
  "\u2581Over": 2702,
  "\u2581compassion": 2703,
  "\u2581concerned": 2704,
  "\u2581conclusion": 2705,
  "\u2581resist": 2706,
  "\u2581tuvanaka": 2707,
  "\u2581vakavanua": 2708,
  "\u2581yadudua": 2709,
  "\u2581Dauvunau": 2710,
  "\u2581vakaitamera": 2711,
  "w": 2712,
  "\u2581answered": 2713,
  "\u2581includes": 2714,
  "\u2581lose": 2715,
  "\u2581maqosa": 2716,
  "\u2581overcome": 2717,
  "\u2581talaucaka": 2718,
  "\u2581vakatawa": 2719,
  "\u2581fail": 2720,
  "\u2581gifts": 2721,
  "\u2581lialia": 2722,
  "\u2581mosimosi": 2723,
  "\u2581request": 2724,
  "\u2581requires": 2725,
  "\u2581room": 2726,
  "\u2581viewed": 2727,
  "mong": 2728,
  "\u2581oca": 2729,
  "\u2581draki": 2730,
  "\u2581household": 2731,
  "\u2581note": 2732,
  "\u2581points": 2733,
  "\u2581torosobu": 2734,
  "\u2581vakasauri": 2735,
  "\u2581veivakacacani": 2736,
  "p": 2737,
  "\u2581pursue": 2738,
  "\u2581rawaka": 2739,
  "\u2581teaches": 2740,
  "\u2581vakalagilagi": 2741,
  "ki": 2742,
  "\u2581(1)": 2743,
  "\u2581Kiliati": 2744,
  "\u2581grew": 2745,
  "\u2581manner": 2746,
  "\u2581seeing": 2747,
  "\u2581susugi": 2748,
  "\u2581workers": 2749,
  "\u2581brochure": 2750,
  "\u2581territory": 2751,
  "\u2581believed": 2752,
  "\u2581hearing": 2753,
  "\u2581iLawalawa": 2754,
  "\u2581relatives": 2755,
  "\u2581zeal": 2756,
  "\u2581disease": 2757,
  "\u2581vakavotuya": 2758,
  "\u2581Well": 2759,
  "\u2581becomes": 2760,
  "\u2581failed": 2761,
  "\u2581kurabui": 2762,
  "\u2581luvedrau": 2763,
  "\u2581opened": 2764,
  "\u2581play": 2765,
  "\u2581sort": 2766,
  "more": 2767,
  "\u2581(2)": 2768,
  "\u2581Make": 2769,
  "\u2581wine": 2770,
  "\u2581co": 2771,
  "\u2581contribute": 2772,
  "\u2581finally": 2773,
  "\u2581loss": 2774,
  "\u2581referred": 2775,
  "\u2581teachers": 2776,
  "\u2581Teach": 2777,
  "\u2581cakamana": 2778,
  "\u2581front": 2779,
  "\u258132.": 2780,
  "\u2581Ecclesiastes": 2781,
  "\u2581Family": 2782,
  "\u2581io": 2783,
  "\u2581vakasamataki": 2784,
  "\u2581veimama": 2785,
  "is": 2786,
  "\u2581Center": 2787,
  "\u2581Macala": 2788,
  "\u2581cases": 2789,
  "\u2581danger": 2790,
  "\u2581iwali": 2791,
  "\u2581katuba": 2792,
  "\u2581mouth": 2793,
  "\u2581warned": 2794,
  "\u2581Kuria": 2795,
  "\u2581Only": 2796,
  "\u2581save": 2797,
  "\u2581vakatakilai": 2798,
  "\u2581Govern": 2799,
  "\u2581acceptable": 2800,
  "\u2581discreet": 2801,
  "\u2581major": 2802,
  "\u2581student": 2803,
  "\u2581totogitaki": 2804,
  "\u2581vakadeitaki": 2805,
  "able": 2806,
  "\u2581late": 2807,
  "\u2581mamarau": 2808,
  "\u2581music": 2809,
  "\u2581takalevu": 2810,
  "\u2581ulunivanua": 2811,
  "\u2581Parataisi": 2812,
  "\u2581improve": 2813,
  "\u2581ivoli": 2814,
  "\u2581kemu": 2815,
  "\u2581preached": 2816,
  "\u2581Dauvakatulewa": 2817,
  "\u2581dukadukali": 2818,
  "\u2581instead": 2819,
  "\u2581tala": 2820,
  "\u2581yakavi": 2821,
  "\u2581encouraging": 2822,
  "\u2581iVakananumi": 2823,
  "\u2581responsible": 2824,
  "\u2581reward": 2825,
  "\u2581vakadodonutaki": 2826,
  "\u2581wawa": 2827,
  "on": 2828,
  "qori": 2829,
  "\u2581Cor": 2830,
  "\u2581understood": 2831,
  "Ia": 2832,
  "\u2581119": 2833,
  "\u25815]": 2834,
  "\u2581army": 2835,
  "\u2581endurance": 2836,
  "\u2581invitation": 2837,
  "\u2581issues": 2838,
  "\u2581vakavuvuli": 2839,
  "\u2581vukitani": 2840,
  "\u2581Her": 2841,
  "\u2581affected": 2842,
  "\u2581guide": 2843,
  "\u2581lakova": 2844,
  "\u2581vakavuku": 2845,
  "\u2581veibasai": 2846,
  "\u2581approval": 2847,
  "\u2581sleep": 2848,
  "\u2581timoni": 2849,
  "\u2581Isaac": 2850,
  "\u2581High": 2851,
  "\u2581sight": 2852,
  "as": 2853,
  "\u2581Help": 2854,
  "\u2581concerning": 2855,
  "\u2581forgiveness": 2856,
  "\u2581killed": 2857,
  "\u2581prospect": 2858,
  "When": 2859,
  "\u2581active": 2860,
  "\u2581appear": 2861,
  "\u2581commanded": 2862,
  "\u2581event": 2863,
  "\u2581Ga": 2864,
  "\u2581m": 2865,
  "\u2581vakaluveni": 2866,
  "\u2581Duadua": 2867,
  "\u2581Faith": 2868,
  "\u2581lie": 2869,
  "\u2581treatment": 2870,
  "ia": 2871,
  "\u2581Samaria": 2872,
  "\u2581conversation": 2873,
  "\u2581manifest": 2874,
  "\u2581presented": 2875,
  "\u2581spread": 2876,
  "\u2581vakamatata": 2877,
  "\u2581wait": 2878,
  "\u2581dela": 2879,
  "\u2581discussed": 2880,
  "\u2581society": 2881,
  "\u2581taciqu": 2882,
  "\u2581KA": 2883,
  "\u2581Mount": 2884,
  "\u2581Sea": 2885,
  "\u2581accomplish": 2886,
  "\u2581circuit": 2887,
  "\u2581particularly": 2888,
  "ri": 2889,
  "\u2581cabora": 2890,
  "\u2581consideration": 2891,
  "\u2581fruitage": 2892,
  "\u2581military": 2893,
  "\u2581welcome": 2894,
  "\u2581qaqarauni": 2895,
  "\u2581raivotu": 2896,
  "drau": 2897,
  "\u2581amount": 2898,
  "\u2581business": 2899,
  "\u2581car": 2900,
  "\u2581describes": 2901,
  "\u2581patient": 2902,
  "\u2581riches": 2903,
  "\u2581uses": 2904,
  "\u2581Rai": 2905,
  "\u2581Tamaqu": 2906,
  "\u2581maroroya": 2907,
  "This": 2908,
  "all": 2909,
  "\u258155": 2910,
  "\u2581cut": 2911,
  "\u2581easily": 2912,
  "\u2581remind": 2913,
  "Ke": 2914,
  "\u2581Colossians": 2915,
  "\u2581Sarah": 2916,
  "\u2581comments": 2917,
  "\u2581tawayaga": 2918,
  "\u2581Work": 2919,
  "\u2581basic": 2920,
  "\u2581caring": 2921,
  "\u2581prophecies": 2922,
  "\u2581vakadewataka": 2923,
  "\u2581values": 2924,
  "quite": 2925,
  "\u258141": 2926,
  "\u2581assured": 2927,
  "\u2581claim": 2928,
  "\u2581increase": 2929,
  "\u2581statement": 2930,
  "\u2581careful": 2931,
  "\u2581forgive": 2932,
  "\u2581korolevu": 2933,
  "\u2581tinia": 2934,
  "\u2581vakaibalebale": 2935,
  "\u2581mavoa": 2936,
  "\u2581overseers": 2937,
  "\u2581particular": 2938,
  "\u2581refers": 2939,
  "\u2581vakavu": 2940,
  "\u2581Being": 2941,
  "\u2581Germany": 2942,
  "\u2581enter": 2943,
  "\u2581react": 2944,
  "\u2581vakabula": 2945,
  "\u2581inside": 2946,
  "\u2581itotogi": 2947,
  "\u2581praying": 2948,
  "\u2581satisfaction": 2949,
  "\u2581Keda": 2950,
  "\u2581Veika": 2951,
  "\u2581Vulica": 2952,
  "\u2581names": 2953,
  "\u2581vakatarai": 2954,
  "\u2581watidra": 2955,
  "\u2581adua": 2956,
  "\u2581duri": 2957,
  "\u2581eight": 2958,
  "\u2581ivotavota": 2959,
  "\u2581loves": 2960,
  "\u2581measure": 2961,
  "\u2581misini": 2962,
  "\u2581vakalawa": 2963,
  "va": 2964,
  "\u2581August": 2965,
  "\u2581Europe": 2966,
  "\u2581anxiety": 2967,
  "\u2581aspects": 2968,
  "\u2581road": 2969,
  "\u2581weeks": 2970,
  "\u2581yavusa": 2971,
  "\u2581Cesalonaika": 2972,
  "\u2581Moni": 2973,
  "\u2581battle": 2974,
  "\u2581busy": 2975,
  "\u2581greatly": 2976,
  "\u2581isa": 2977,
  "\u2581offspring": 2978,
  "\u2581secular": 2979,
  "\u2581train": 2980,
  "\u2581veivosa": 2981,
  "\u2581Vakarua": 2982,
  "\u2581stress": 2983,
  "\u25812011": 2984,
  "\u2581direct": 2985,
  "\u2581koula": 2986,
  "\u2581vakamuai": 2987,
  "\u2581Finally": 2988,
  "\u2581Note": 2989,
  "\u2581Toso": 2990,
  "\u2581evident": 2991,
  "\u2581ivolatukutuku": 2992,
  "\u2581iyaragi": 2993,
  "\u2581temptation": 2994,
  "\u2581veilewai": 2995,
  "V": 2996,
  "\u2581insight": 2997,
  "\u2581master": 2998,
  "\u2581muduka": 2999,
  "\u2581saqata": 3000,
  "\u2581search": 3001,
  "\u2581walu": 3002,
  "\u2581warm": 3003,
  "\u2581Caka": 3004,
  "\u2581Sera": 3005,
  "\u2581harm": 3006,
  "\u2581successful": 3007,
  "\u2581vakamacala": 3008,
  "responsibilities": 3009,
  "\u2581Cecere": 3010,
  "\u2581creatures": 3011,
  "\u2581illness": 3012,
  "\u2581break": 3013,
  "\u2581chose": 3014,
  "\u2581gods": 3015,
  "\u2581lewadodonu": 3016,
  "\u2581vosataka": 3017,
  "\u2581yagona": 3018,
  "\u2581zealous": 3019,
  "\u2581looked": 3020,
  "\u2581publication": 3021,
  "\u2581taba": 3022,
  "What": 3023,
  "\u258125]": 3024,
  "For": 3025,
  "\u2581Once": 3026,
  "\u2581assist": 3027,
  "\u2581fulfill": 3028,
  "\u2581madua": 3029,
  "\u2581adds": 3030,
  "\u2581behavior": 3031,
  "\u2581patience": 3032,
  "\u2581vakamalumalumu": 3033,
  "\u2581Tale": 3034,
  "\u2581extent": 3035,
  "\u2581join": 3036,
  "\u2581ligana": 3037,
  "\u2581mere": 3038,
  "\u2581merely": 3039,
  "\u2581susu": 3040,
  "\u2581vakabibitaki": 3041,
  "\u258113]": 3042,
  "\u258117]": 3043,
  "\u258126,": 3044,
  "\u2581bubului": 3045,
  "\u2581matanalevu": 3046,
  "\u2581pleasure": 3047,
  "\u2581reality": 3048,
  "\u2581vakalevutaka": 3049,
  "\u2581vakamarautaka": 3050,
  "ya": 3051,
  "\u2581Two": 3052,
  "\u2581Under": 3053,
  "\u2581appeared": 3054,
  "\u2581eliu": 3055,
  "\u2581gata": 3056,
  "\u2581helpful": 3057,
  "\u2581subjects": 3058,
  "\u2581vakatoka": 3059,
  "\u2581waiwai": 3060,
  "le": 3061,
  "\u2581contains": 3062,
  "\u2581gonetagane": 3063,
  "\u2581itabataba": 3064,
  "\u2581vakarusa": 3065,
  "\u2581Gospel": 3066,
  "\u2581Mother": 3067,
  "\u2581big": 3068,
  "\u2581growth": 3069,
  "\u2581immoral": 3070,
  "\u2581talking": 3071,
  "\u2581Deuteronomy": 3072,
  "\u2581Version": 3073,
  "\u2581type": 3074,
  "\u2581violent": 3075,
  "\u2581Kalatia": 3076,
  "\u2581OF": 3077,
  "\u2581kalokalo": 3078,
  "\u2581malumu": 3079,
  "\u2581relative": 3080,
  "\u2581wasawasa": 3081,
  "\u2581wati": 3082,
  "vakatubuqoroqoro": 3083,
  "\u2581Rusia": 3084,
  "\u2581University": 3085,
  "\u2581Yani": 3086,
  "\u2581commandments": 3087,
  "\u2581enemy": 3088,
  "\u2581kalasi": 3089,
  "\u2581unique": 3090,
  "\u2581Look": 3091,
  "\u2581identify": 3092,
  "\u2581itinitini": 3093,
  "\u2581reached": 3094,
  "\u2581torovi": 3095,
  "\u2581vakamareqeta": 3096,
  "\u2581vakatavako": 3097,
  "\u2581veivakaleqai": 3098,
  "nai": 3099,
  "vakarokorokotaki": 3100,
  "\u2581dauvakadidike": 3101,
  "\u2581distress": 3102,
  "\u2581purposes": 3103,
  "\u2581tears": 3104,
  "\u2581worth": 3105,
  "\u2581Mada": 3106,
  "\u2581Vua": 3107,
  "\u2581YOU": 3108,
  "\u2581carried": 3109,
  "\u2581discussion": 3110,
  "\u2581fill": 3111,
  "\u2581goes": 3112,
  "\u2581reports": 3113,
  "\u2581story": 3114,
  "like": 3115,
  "\u2581Take": 3116,
  "\u2581Think": 3117,
  "\u2581Voleka": 3118,
  "\u2581island": 3119,
  "\u2581opportunities": 3120,
  "\u2581vakaidina": 3121,
  "\u2581vakauqeti": 3122,
  "\u2581vakirisi": 3123,
  "\u2581veibutakoci": 3124,
  "\u2581wekana": 3125,
  "\u2581yasa": 3126,
  "\u2581Tamata": 3127,
  "\u2581prophets": 3128,
  "\u2581(3)": 3129,
  "\u2581France": 3130,
  "\u2581garden": 3131,
  "\u2581process": 3132,
  "ta": 3133,
  "\u2581Exodus": 3134,
  "\u2581aside": 3135,
  "\u2581communication": 3136,
  "\u2581vakauta": 3137,
  "\u2581younger": 3138,
  "\u2581Book": 3139,
  "\u2581daughters": 3140,
  "\u2581drink": 3141,
  "\u2581gade": 3142,
  "\u2581matanisiga": 3143,
  "\u2581tauni": 3144,
  "\u2581trained": 3145,
  "\u2581veivutunitaka": 3146,
  "\u2581wealth": 3147,
  "\u2581writer": 3148,
  "\u2581Dr": 3149,
  "\u2581Kor": 3150,
  "\u2581Tiseba": 3151,
  "\u2581attack": 3152,
  "\u2581demons": 3153,
  "\u2581eating": 3154,
  "\u2581lessons": 3155,
  "\u2581lomaleqa": 3156,
  "\u2581Aisake": 3157,
  "\u2581American": 3158,
  "\u2581conclude": 3159,
  "\u2581isaunitaro": 3160,
  "\u2581receiving": 3161,
  "\u2581Vakabauta": 3162,
  "\u2581camp": 3163,
  "\u2581endeavor": 3164,
  "\u2581immorality": 3165,
  "\u2581judge": 3166,
  "\u2581kequ": 3167,
  "\u2581studied": 3168,
  "ar": 3169,
  "\u2581factors": 3170,
  "\u2581translated": 3171,
  "\u2581waiting": 3172,
  "\u258142": 3173,
  "\u2581Imagine": 3174,
  "\u2581Sipeni": 3175,
  "\u2581leading": 3176,
  "\u2581risk": 3177,
  "\u2581veicati": 3178,
  "\u2581essential": 3179,
  "\u2581itaba": 3180,
  "\u2581lies": 3181,
  "\u2581phone": 3182,
  "\u2581saenitisi": 3183,
  "\u2581vakasaurarataki": 3184,
  "vakasavasavataki": 3185,
  "\u258148": 3186,
  "\u2581associated": 3187,
  "\u2581bale": 3188,
  "\u2581box": 3189,
  "\u2581produced": 3190,
  "\u2581WHAT": 3191,
  "\u2581advantage": 3192,
  "\u2581Study": 3193,
  "\u2581heartfelt": 3194,
  "\u2581minds": 3195,
  "\u2581placed": 3196,
  "D": 3197,
  "\u258180": 3198,
  "\u2581assure": 3199,
  "\u2581cities": 3200,
  "\u2581reported": 3201,
  "\u2581tete": 3202,
  "\u258131]": 3203,
  "\u2581closely": 3204,
  "\u2581evidently": 3205,
  "\u2581impressed": 3206,
  "\u2581listed": 3207,
  "\u2581responded": 3208,
  "\u2581undeserved": 3209,
  "My": 3210,
  "\u2581Rato": 3211,
  "\u2581mana": 3212,
  "\u2581relates": 3213,
  "vakadodonutaki": 3214,
  "\u2581Epereli": 3215,
  "\u2581drawn": 3216,
  "\u2581valenibula": 3217,
  "\u25816]": 3218,
  "\u258190": 3219,
  "kata": 3220,
  "\u2581deeds": 3221,
  "\u2581vakacudrui": 3222,
  "\u2581Readers": 3223,
  "\u2581Vou": 3224,
  "\u2581bearing": 3225,
  "\u2581bless": 3226,
  "\u2581eternal": 3227,
  "\u2581faithfully": 3228,
  "\u2581fell": 3229,
  "\u2581growing": 3230,
  "\u2581illustrate": 3231,
  "\u2581notice": 3232,
  "\u2581secret": 3233,
  "\u2581shared": 3234,
  "\u2581vualiku": 3235,
  "\u258134.": 3236,
  "\u2581Explain": 3237,
  "\u2581Maika": 3238,
  "\u2581Robert": 3239,
  "\u2581liaca": 3240,
  "\u2581lolosi": 3241,
  "\u2581quoted": 3242,
  "\u2581rarawataki": 3243,
  "vakarawarawataka": 3244,
  "\u2581Galatians": 3245,
  "\u2581Spirit": 3246,
  "\u2581views": 3247,
  "There": 3248,
  "\u2581ME": 3249,
  "\u2581authorities": 3250,
  "\u2581cover": 3251,
  "\u2581harvest": 3252,
  "\u2581indicate": 3253,
  "\u2581kilikili": 3254,
  "\u2581ruler": 3255,
  "\u2581tauyavu": 3256,
  "\u2581tusaqati": 3257,
  "\u2581Encyclopedia": 3258,
  "\u2581Ezekiel": 3259,
  "\u2581Regard": 3260,
  "\u2581pass": 3261,
  "\u2581race": 3262,
  "\u2581vakaiyalayala": 3263,
  "\u2581Canada": 3264,
  "\u2581Give": 3265,
  "\u2581Land": 3266,
  "\u2581Tekivu": 3267,
  "\u2581community": 3268,
  "\u2581dolava": 3269,
  "\u2581kompiuta": 3270,
  "\u2581legal": 3271,
  "he": 3272,
  "\u258129,": 3273,
  "\u2581Julai": 3274,
  "\u2581correct": 3275,
  "\u2581vakanananu": 3276,
  "\u2581Biblical": 3277,
  "\u2581mountain": 3278,
  "\u2581sautu": 3279,
  "\u2581troubled": 3280,
  "\u2581Answer": 3281,
  "\u2581beloved": 3282,
  "\u2581court": 3283,
  "\u2581hurt": 3284,
  "\u2581vakasaenisi": 3285,
  "\u2581vosovoso": 3286,
  "\u2581Okotova": 3287,
  "\u2581animal": 3288,
  "\u2581maliwai": 3289,
  "\u2581mataveilewai": 3290,
  "\u2581reference": 3291,
  "\u2581trial": 3292,
  "\u2581uabula": 3293,
  "\u2581veisautaki": 3294,
  "\u2581Without": 3295,
  "\u2581contrary": 3296,
  "\u2581goodness": 3297,
  "\u2581kocokoco": 3298,
  "\u2581mature": 3299,
  "\u2581succeed": 3300,
  "\u2581thank": 3301,
  "\u2581verses": 3302,
  "yalolailaitaki": 3303,
  "\u2581Okosita": 3304,
  "\u2581applied": 3305,
  "\u2581cici": 3306,
  "\u2581ivakatautauvata": 3307,
  "\u2581vakavica": 3308,
  "\u2581Ositerelia": 3309,
  "\u2581appears": 3310,
  "\u2581constantly": 3311,
  "\u2581decades": 3312,
  "\u2581pride": 3313,
  "\u2581speaks": 3314,
  "\u2581t": 3315,
  "\u2581taubale": 3316,
  "\u2581vakacala": 3317,
  "\u2581Here": 3318,
  "\u2581aid": 3319,
  "\u2581company": 3320,
  "\u2581matavosa": 3321,
  "\u2581meal": 3322,
  "\u2581sela": 3323,
  "\u25812012": 3324,
  "\u258125,": 3325,
  "\u2581Testament": 3326,
  "\u2581companions": 3327,
  "\u2581darkness": 3328,
  "\u2581entertainment": 3329,
  "\u2581expressions": 3330,
  "\u2581gunuva": 3331,
  "\u2581ivolavivigi": 3332,
  "\u2581pattern": 3333,
  "\u2581promote": 3334,
  "\u2581strengthened": 3335,
  "ll": 3336,
  "\u2581Hav": 3337,
  "\u2581Other": 3338,
  "\u2581Yoka": 3339,
  "\u2581causes": 3340,
  "\u2581financial": 3341,
  "\u2581instruction": 3342,
  "\u2581kadua": 3343,
  "\u2581vakatotolo": 3344,
  "\u2581vakatura": 3345,
  "\u2581wedding": 3346,
  "\u25812000": 3347,
  "\u2581Blur": 3348,
  "\u2581Ko": 3349,
  "\u2581committed": 3350,
  "\u2581directed": 3351,
  "\u2581spouse": 3352,
  "\u2581tuvanaki": 3353,
  "\u2581Could": 3354,
  "\u2581Micah": 3355,
  "\u2581dealings": 3356,
  "\u2581expected": 3357,
  "\u2581occur": 3358,
  "\u2581thousand": 3359,
  "\u2581veileti": 3360,
  "\u2581veivakaisini": 3361,
  "N": 3362,
  "\u2581decide": 3363,
  "\u2581probab": 3364,
  "\u2581IVOLATABU": 3365,
  "\u2581Isikeli": 3366,
  "\u2581alcohol": 3367,
  "\u2581designed": 3368,
  "\u2581kabani": 3369,
  "\u2581sees": 3370,
  "\u2581Dodonu": 3371,
  "\u2581deliver": 3372,
  "\u2581performed": 3373,
  "\u2581saved": 3374,
  "\u2581sinful": 3375,
  "\u2581yalodra": 3376,
  "\u2581Parents": 3377,
  "\u2581setting": 3378,
  "\u2581village": 3379,
  "era": 3380,
  "\u2581dealing": 3381,
  "\u2581dinau": 3382,
  "\u2581drinking": 3383,
  "\u2581easier": 3384,
  "\u2581letters": 3385,
  "\u2581research": 3386,
  "\u2581uca": 3387,
  "\u2581vakavakarau": 3388,
  "\u2581wide": 3389,
  "\u2581wish": 3390,
  "\u2581Maria": 3391,
  "\u2581effects": 3392,
  "\u2581kedrau": 3393,
  "\u2581rejected": 3394,
  "\u258124]": 3395,
  "\u2581Israelite": 3396,
  "\u2581Ta": 3397,
  "\u2581Un": 3398,
  "\u2581kindly": 3399,
  "\u2581matatamata": 3400,
  "\u2581oil": 3401,
  "\u2581reveals": 3402,
  "\u2581writing": 3403,
  "no": 3404,
  "\u2581bose": 3405,
  "\u2581dauveilakoyaki": 3406,
  "\u2581draiva": 3407,
  "\u2581joined": 3408,
  "\u2581seriously": 3409,
  "\u2581wekada": 3410,
  "G": 3411,
  "Ka": 3412,
  "vakatauvatana": 3413,
  "\u2581History": 3414,
  "\u2581dangerous": 3415,
  "\u2581kabula": 3416,
  "\u2581raise": 3417,
  "\u2581refer": 3418,
  "\u2581tauyavutaki": 3419,
  "\u2581vakatarogi": 3420,
  "\u2581valenilotu": 3421,
  "ke": 3422,
  "\u2581Christendom": 3423,
  "\u2581Pharaoh": 3424,
  "\u2581habits": 3425,
  "\u2581main": 3426,
  "\u2581Russell": 3427,
  "\u2581blind": 3428,
  "\u2581emotions": 3429,
  "\u2581entered": 3430,
  "\u2581iKarua": 3431,
  "\u2581lay": 3432,
  "\u2581outstanding": 3433,
  "\u2581taudua": 3434,
  "\u2581vakavinakataki": 3435,
  "\u25812001": 3436,
  "\u2581date": 3437,
  "\u2581likewise": 3438,
  "\u2581masuti": 3439,
  "\u2581April": 3440,
  "\u2581George": 3441,
  "\u2581Iteni": 3442,
  "\u2581bisinisi": 3443,
  "\u2581powers": 3444,
  "\u2581tacidra": 3445,
  "\u2581veitusaqati": 3446,
  "\u2581Both": 3447,
  "\u2581COVER": 3448,
  "\u2581Fero": 3449,
  "\u2581global": 3450,
  "\u2581leqataki": 3451,
  "\u2581scriptures": 3452,
  "\u258112]": 3453,
  "\u2581Siga": 3454,
  "\u2581colata": 3455,
  "\u2581poverty": 3456,
  "\u2581resolve": 3457,
  "\u2581slaves": 3458,
  "\u2581upright": 3459,
  "M": 3460,
  "\u2581Australia": 3461,
  "\u2581baby": 3462,
  "\u2581environment": 3463,
  "\u2581iTaba": 3464,
  "\u2581religions": 3465,
  "\u2581satisfying": 3466,
  "\u2581tadra": 3467,
  "\u2581talevoni": 3468,
  "\u2581vakatevoro": 3469,
  "\u2581vuavuaivinaka": 3470,
  "T": 3471,
  "\u2581Day": 3472,
  "\u2581Farisi": 3473,
  "\u2581Learn": 3474,
  "\u2581afraid": 3475,
  "\u2581beneficial": 3476,
  "\u2581cares": 3477,
  "\u2581extreme": 3478,
  "\u2581formed": 3479,
  "\u2581telling": 3480,
  "\u2581Likewise": 3481,
  "\u2581hundreds": 3482,
  "\u2581husbands": 3483,
  "\u2581lagata": 3484,
  "\u2581parakaravu": 3485,
  "\u2581rokovi": 3486,
  "\u2581rulership": 3487,
  "\u2581Mate": 3488,
  "\u2581details": 3489,
  "\u2581fish": 3490,
  "\u2581ivurevure": 3491,
  "\u2581normal": 3492,
  "\u258144": 3493,
  "\u2581abuse": 3494,
  "\u2581copy": 3495,
  "\u2581injustice": 3496,
  "\u2581mona": 3497,
  "\u2581remains": 3498,
  "\u2581sikova": 3499,
  "\u2581survive": 3500,
  "\u2581treated": 3501,
  "\u2581witnessing": 3502,
  "\u2581Kaukaua": 3503,
  "\u2581Kings": 3504,
  "\u2581daunitukutuku": 3505,
  "\u2581engage": 3506,
  "\u2581exist": 3507,
  "\u2581lasting": 3508,
  "\u2581prophetic": 3509,
  "\u2581vakalougatataka": 3510,
  "All": 3511,
  "\u2581belief": 3512,
  "\u2581forces": 3513,
  "\u2581freely": 3514,
  "\u2581kama": 3515,
  "\u2581sagai": 3516,
  "\u2581vakaukauataka": 3517,
  "baci": 3518,
  "f": 3519,
  "\u2581LEVU": 3520,
  "\u2581September": 3521,
  "\u2581Time": 3522,
  "\u2581due": 3523,
  "\u2581kurabuitaka": 3524,
  "\u2581perform": 3525,
  "\u2581provisions": 3526,
  "\u2581vakavotui": 3527,
  "\u2581wiliwili": 3528,
  "Look": 3529,
  "\u2581dear": 3530,
  "\u2581indicated": 3531,
  "\u2581indicates": 3532,
  "\u2581inhabitants": 3533,
  "\u2581listened": 3534,
  "\u2581Dauwiliwili": 3535,
  "\u2581Eden": 3536,
  "\u2581Peritania": 3537,
  "\u2581determine": 3538,
  "\u2581keri": 3539,
  "\u2581organized": 3540,
  "\u2581vakadodonutaka": 3541,
  "\u2581viavialevu": 3542,
  "\u2581widow": 3543,
  "Y": 3544,
  "dau": 3545,
  "\u258127,": 3546,
  "\u2581Esther": 3547,
  "\u2581Sauma": 3548,
  "\u2581assistance": 3549,
  "\u2581cakayaco": 3550,
  "\u2581difference": 3551,
  "\u2581facts": 3552,
  "\u2581forms": 3553,
  "\u2581lomasoli": 3554,
  "\u2581matada": 3555,
  "\u2581primary": 3556,
  "\u2581united": 3557,
  "\u2581Man": 3558,
  "\u2581applying": 3559,
  "\u2581cavutu": 3560,
  "\u2581qelenisipi": 3561,
  "\u2581recognized": 3562,
  "\u2581struggle": 3563,
  "\u2581vakani": 3564,
  "be": 3565,
  "\u2581bond": 3566,
  "\u2581stopped": 3567,
  "\u2581vakapainia": 3568,
  "\u2581wickedness": 3569,
  "\u2581willingly": 3570,
  "Mosaic": 3571,
  "\u2581Its": 3572,
  "\u2581conventions": 3573,
  "\u2581feels": 3574,
  "\u2581mekesini": 3575,
  "\u2581popular": 3576,
  "\u2581qoroya": 3577,
  "\u25812008": 3578,
  "\u2581air": 3579,
  "\u2581cell": 3580,
  "\u2581connection": 3581,
  "\u2581galu": 3582,
  "\u2581gathered": 3583,
  "\u2581hatred": 3584,
  "\u2581heavy": 3585,
  "\u2581impossible": 3586,
  "\u2581ivoladraudrau": 3587,
  "\u2581sau": 3588,
  "\u2581superior": 3589,
  "\u2581sword": 3590,
  "\u25812010": 3591,
  "\u2581delivered": 3592,
  "\u2581gold": 3593,
  "\u2581stick": 3594,
  "\u2581vakacalaka": 3595,
  "\u2581vakaturaga": 3596,
  "P": 3597,
  "ted": 3598,
  "\u2581December": 3599,
  "\u2581curuma": 3600,
  "itayaloyalotaka": 3601,
  "lomatarotarotaka": 3602,
  "\u2581Trac": 3603,
  "\u2581appearance": 3604,
  "\u2581vakakina": 3605,
  "\u2581veimacawa": 3606,
  "\u2581BE": 3607,
  "\u2581Lewe": 3608,
  "\u2581State": 3609,
  "\u2581concluded": 3610,
  "\u2581ideas": 3611,
  "\u2581kaivesu": 3612,
  "\u2581non": 3613,
  "\u2581taudaku": 3614,
  "\u2581vakailasu": 3615,
  "\u2581veisere": 3616,
  "\u2581background": 3617,
  "\u2581bolebole": 3618,
  "\u2581fearing": 3619,
  "\u2581involve": 3620,
  "\u2581neighbors": 3621,
  ">": 3622,
  "\u258143": 3623,
  "\u2581Japani": 3624,
  "\u2581Sad": 3625,
  "\u2581providing": 3626,
  "\u2581requirements": 3627,
  "\u2581surprise": 3628,
  "\u2581vakalewa": 3629,
  "\u2581Ca": 3630,
  "\u2581Nehemiah": 3631,
  "\u2581Tract": 3632,
  "\u2581cells": 3633,
  "\u2581count": 3634,
  "\u2581god": 3635,
  "\u2581leaving": 3636,
  "\u2581sought": 3637,
  "\u2581tukutuku": 3638,
  "\u2581vast": 3639,
  "\u2581veiba": 3640,
  "\u258116]": 3641,
  "\u2581Janueri": 3642,
  "\u2581Nathan": 3643,
  "\u2581Sometimes": 3644,
  "\u2581icolacola": 3645,
  "\u2581tender": 3646,
  "\u2581veitemaki": 3647,
  "\u2581yagodra": 3648,
  "it": 3649,
  "\u2581Soviet": 3650,
  "\u2581ark": 3651,
  "\u2581discovered": 3652,
  "\u2581doctor": 3653,
  "\u2581grasp": 3654,
  "\u2581heed": 3655,
  "\u2581international": 3656,
  "\u2581joyful": 3657,
  "\u2581kill": 3658,
  "\u2581moment": 3659,
  "\u2581occurred": 3660,
  "\u2581veivakamuai": 3661,
  "\u2581yes": 3662,
  "\u2581144,000": 3663,
  "\u2581Iko": 3664,
  "\u2581abundance": 3665,
  "\u2581acted": 3666,
  "\u2581buy": 3667,
  "\u2581kumuni": 3668,
  "\u2581laiva": 3669,
  "\u2581list": 3670,
  "\u2581meditate": 3671,
  "\u2581notes": 3672,
  "\u2581yaloda": 3673,
  "Jesus": 3674,
  "\u2581Spanish": 3675,
  "\u2581considering": 3676,
  "\u2581increased": 3677,
  "\u2581separate": 3678,
  "ion": 3679,
  "\u25811999": 3680,
  "\u2581conflict": 3681,
  "\u2581determination": 3682,
  "\u2581mita": 3683,
  "\u2581released": 3684,
  "\u2581vakaceguya": 3685,
  "\u2581vesuki": 3686,
  "\u2581Prov": 3687,
  "\u2581granted": 3688,
  "\u2581white": 3689,
  "vakalolomataki": 3690,
  "\u258134,": 3691,
  "\u2581Li": 3692,
  "\u2581Niemaia": 3693,
  "\u2581Students": 3694,
  "\u2581domo": 3695,
  "\u2581leads": 3696,
  "\u2581mistakes": 3697,
  "\u2581run": 3698,
  "ation": 3699,
  "\u2581Igiladi": 3700,
  "\u2581escape": 3701,
  "\u2581saqati": 3702,
  "\u2581veivakacalai": 3703,
  "\u2581German": 3704,
  "\u2581mighty": 3705,
  "\u2581reject": 3706,
  "\u2581spirituality": 3707,
  "\u2581vidio": 3708,
  "\u25818]": 3709,
  "\u2581Esia": 3710,
  "\u2581Has": 3711,
  "\u2581Meu": 3712,
  "\u2581Orthodox": 3713,
  "\u2581Soqoni": 3714,
  "\u2581Tani": 3715,
  "\u2581commission": 3716,
  "\u2581construction": 3717,
  "\u2581icaba": 3718,
  "\u2581moving": 3719,
  "\u2581serves": 3720,
  "\u2581touched": 3721,
  "\u2581uneune": 3722,
  "\u2581Jonathan": 3723,
  "\u2581discern": 3724,
  "\u2581droini": 3725,
  "\u2581iMatai": 3726,
  "\u2581iVakavuvuli": 3727,
  "\u2581walked": 3728,
  "\u2581waraki": 3729,
  "\u2581300": 3730,
  "\u2581City": 3731,
  "\u2581obtain": 3732,
  "man": 3733,
  "\u25812009": 3734,
  "\u2581Cakava": 3735,
  "\u2581Recall": 3736,
  "\u2581galili": 3737,
  "\u2581lying": 3738,
  "\u2581occasions": 3739,
  "\u2581persons": 3740,
  "\u2581vanuatani": 3741,
  "\u2581Amaketoni": 3742,
  "\u2581carrying": 3743,
  "\u2581drugs": 3744,
  "\u2581ibulubulu": 3745,
  "\u2581journey": 3746,
  "\u2581nuiqawaqawa": 3747,
  "\u2581remarkable": 3748,
  "\u2581trees": 3749,
  "\u2581vakacacana": 3750,
  "\u2581Vka": 3751,
  "\u2581eli": 3752,
  "\u2581privileges": 3753,
  "\u2581reminded": 3754,
  "\u2581replied": 3755,
  "\u258144.": 3756,
  "\u2581Kenani": 3757,
  "\u2581across": 3758,
  "\u2581highly": 3759,
  "\u2581inheritance": 3760,
  "\u2581parofisaitaki": 3761,
  "\u2581pleased": 3762,
  "\u2581treasure": 3763,
  "\u2581veitaravi": 3764,
  "\u258139": 3765,
  "\u2581Christmas": 3766,
  "\u2581Hannah": 3767,
  "\u2581appreciated": 3768,
  "\u2581attendance": 3769,
  "\u2581bai": 3770,
  "\u2581describe": 3771,
  "\u2581guilecavi": 3772,
  "\u2581rebellion": 3773,
  "\u2581stake": 3774,
  "\u2581vakadomobula": 3775,
  "ww": 3776,
  "\u25812013": 3777,
  "\u2581Second": 3778,
  "\u2581bilioni": 3779,
  "\u2581concerns": 3780,
  "\u2581iTabataba": 3781,
  "\u2581talanoataka": 3782,
  "\u2581vakalialia": 3783,
  "\u2581vakavuvulitaka": 3784,
  "\u2581waters": 3785,
  "takarakarataka": 3786,
  "\u2581October": 3787,
  "\u2581Rom": 3788,
  "\u2581deaf": 3789,
  "\u2581kisi": 3790,
  "\u2581mildness": 3791,
  "\u2581rise": 3792,
  "\u2581significant": 3793,
  "\u2581task": 3794,
  "\u2581vakawasoma": 3795,
  "\u2581veisaqasaqa": 3796,
  "\u25811919": 3797,
  "\u2581Gonevuli": 3798,
  "\u2581Name": 3799,
  "\u2581ceva": 3800,
  "\u2581cost": 3801,
  "\u2581ill": 3802,
  "\u2581miracles": 3803,
  "\u2581severe": 3804,
  "\u2581sit": 3805,
  "vei": 3806,
  "\u2581Earth": 3807,
  "\u2581Veivanua": 3808,
  "\u2581Whe": 3809,
  "\u2581calling": 3810,
  "\u2581instructions": 3811,
  "\u2581lesoni": 3812,
  "\u2581veitacini": 3813,
  "\u2581Heb": 3814,
  "\u2581Knorr": 3815,
  "\u2581Maji": 3816,
  "\u2581balanced": 3817,
  "\u2581ministers": 3818,
  "\u2581namaki": 3819,
  "\u2581refuge": 3820,
  "\u2581scholars": 3821,
  "\u2581throne": 3822,
  "\u2581valu": 3823,
  "\u2581veitalia": 3824,
  "\u2581Armageddon": 3825,
  "\u2581Koronivuli": 3826,
  "\u2581Michael": 3827,
  "\u2581icovi": 3828,
  "\u2581inner": 3829,
  "\u2581pointed": 3830,
  "\u2581seavu": 3831,
  "\u2581series": 3832,
  "\u2581trouble": 3833,
  "\u2581tubukoso": 3834,
  "\u2581England": 3835,
  "\u2581Kirisimasi": 3836,
  "\u2581SA": 3837,
  "\u2581batabata": 3838,
  "\u2581grown": 3839,
  "\u2581iTukutuku": 3840,
  "\u2581irogorogo": 3841,
  "\u2581matai": 3842,
  "\u2581taqana": 3843,
  "\u2581vakavesu": 3844,
  "ity": 3845,
  "\u2581Saga": 3846,
  "\u2581Visit": 3847,
  "\u2581cabori": 3848,
  "\u2581create": 3849,
  "\u2581directly": 3850,
  "\u2581entitled": 3851,
  "\u2581maliwalala": 3852,
  "\u2581vakamatea": 3853,
  "How": 3854,
  "\u2581aspect": 3855,
  "\u2581comforting": 3856,
  "\u2581extend": 3857,
  "\u2581influenced": 3858,
  "\u2581mataboko": 3859,
  "\u2581mountains": 3860,
  "\u2581peaceful": 3861,
  "\u2581rorogo": 3862,
  "\u2581wilivola": 3863,
  "\u2581Rauta": 3864,
  "\u2581career": 3865,
  "\u2581digidigi": 3866,
  "\u2581handle": 3867,
  "\u2581path": 3868,
  "\u2581recently": 3869,
  "\u2581vakacakamana": 3870,
  "\u2581weak": 3871,
  "\u2581writings": 3872,
  "\u2581Livai": 3873,
  "\u2581allows": 3874,
  "\u2581copies": 3875,
  "\u2581cry": 3876,
  "\u2581economic": 3877,
  "\u2581higher": 3878,
  "\u2581meaningful": 3879,
  "\u2581niusiveva": 3880,
  "\u2581police": 3881,
  "\u2581shepherds": 3882,
  "\u2581worshipers": 3883,
  "\u258123]": 3884,
  "\u2581Iper": 3885,
  "\u2581Itali": 3886,
  "\u2581Penitiko": 3887,
  "\u2581Sauca": 3888,
  "\u2581Yalataki": 3889,
  "\u2581healthy": 3890,
  "\u2581iVola": 3891,
  "\u2581ose": 3892,
  "\u2581cina": 3893,
  "\u2581guta": 3894,
  "\u2581roka": 3895,
  "\u2581ruin": 3896,
  "\u2581usutu": 3897,
  "\u2581vakalewai": 3898,
  "\u2581vakalialiai": 3899,
  "\u2581vunikau": 3900,
  "\u2581ww": 3901,
  "\u2581assembly": 3902,
  "\u2581center": 3903,
  "\u2581challenging": 3904,
  "\u2581eager": 3905,
  "\u2581grief": 3906,
  "\u2581keeps": 3907,
  "\u2581vakadikeva": 3908,
  "\u2581vaqaqa": 3909,
  "\u2581veitaqomaki": 3910,
  "\u2581veivala": 3911,
  "\u2581volitaka": 3912,
  "\u258130:": 3913,
  "\u2581Sepiteba": 3914,
  "\u2581compared": 3915,
  "\u2581firmly": 3916,
  "\u2581matailalai": 3917,
  "\u2581osooso": 3918,
  "\u2581rendered": 3919,
  "\u2581secure": 3920,
  "\u2581siliva": 3921,
  "\u2581Marau": 3922,
  "\u2581critical": 3923,
  "\u2581dawai": 3924,
  "\u2581ended": 3925,
  "\u2581hate": 3926,
  "\u2581magazines": 3927,
  "\u2581vakayalia": 3928,
  "\u2581vukuda": 3929,
  "\u2581\u25c6": 3930,
  "ga": 3931,
  "\u2581belong": 3932,
  "\u2581iTabagone": 3933,
  "\u2581itaukeinivale": 3934,
  "\u2581marry": 3935,
  "\u2581numerous": 3936,
  "\u2581retioyaloyalo": 3937,
  "\u2581silver": 3938,
  "\u2581veivakadonui": 3939,
  "\u258146": 3940,
  "\u2581Ilaisa": 3941,
  "\u2581Kei": 3942,
  "\u2581Tu": 3943,
  "\u2581Voli": 3944,
  "\u2581adultery": 3945,
  "\u2581gu": 3946,
  "\u2581ivakacavacava": 3947,
  "\u2581physically": 3948,
  "\u2581vakarawarawa": 3949,
  "\u2581BULA": 3950,
  "\u2581Every": 3951,
  "\u2581apart": 3952,
  "\u2581noticed": 3953,
  "\u2581re": 3954,
  "\u2581straight": 3955,
  "\u2581successfully": 3956,
  "\u2581tawarairai": 3957,
  "\u2581Charles": 3958,
  "\u2581bukawaqa": 3959,
  "\u2581declare": 3960,
  "\u2581relationships": 3961,
  "\u2581Elisha": 3962,
  "\u2581Never": 3963,
  "\u2581anxious": 3964,
  "\u2581fit": 3965,
  "\u2581scholar": 3966,
  "\u2581unable": 3967,
  "\u2581vakaevei": 3968,
  "\u2581Go": 3969,
  "\u2581Pentecost": 3970,
  "\u2581Vakaivolatabu": 3971,
  "\u2581William": 3972,
  "\u2581accomplished": 3973,
  "\u2581berabera": 3974,
  "\u2581chief": 3975,
  "\u2581lakolako": 3976,
  "\u2581qarauni": 3977,
  "\u2581visiting": 3978,
  "\u2581Loma": 3979,
  "\u2581exert": 3980,
  "\u2581gusu": 3981,
  "\u2581iLiuliu": 3982,
  "\u2581motivated": 3983,
  "\u2581remaining": 3984,
  "\u2581selfish": 3985,
  "\u2581vakadredretaka": 3986,
  "\u2581veidinadinati": 3987,
  "Keep": 3988,
  "yavutaka": 3989,
  "\u2581January": 3990,
  "\u2581Sam": 3991,
  "\u2581beauty": 3992,
  "\u2581reaction": 3993,
  "\u2581safe": 3994,
  "\u2581veidauci": 3995,
  "\u2581worse": 3996,
  "\u2581divorce": 3997,
  "\u2581exists": 3998,
  "\u2581gratitude": 3999,
  "\u2581kaburaka": 4000,
  "\u2581motivate": 4001,
  "\u2581provision": 4002,
  "\u25812,000": 4003,
  "\u2581Thessalonians": 4004,
  "\u2581approached": 4005,
  "\u2581couples": 4006,
  "\u2581modest": 4007,
  "\u2581national": 4008,
  "\u2581rely": 4009,
  "\u2581terms": 4010,
  "\u2581vakalolomataki": 4011,
  "\u258131,": 4012,
  "\u2581arise": 4013,
  "\u2581differ": 4014,
  "\u2581dream": 4015,
  "\u2581finding": 4016,
  "\u2581focused": 4017,
  "\u2581herself": 4018,
  "\u2581masulaki": 4019,
  "\u2581slow": 4020,
  "\u2581stone": 4021,
  "\u2581tataleitaki": 4022,
  "\u2581thereafter": 4023,
  "\u2581torocake": 4024,
  "\u2581variety": 4025,
  "\u2581wind": 4026,
  "\u2581yagoda": 4027,
  "\u2581Flood": 4028,
  "\u2581Lot": 4029,
  "\u2581assignments": 4030,
  "\u2581familiar": 4031,
  "\u2581indefinite": 4032,
  "\u2581lala": 4033,
  "\u2581qualified": 4034,
  "\u2581region": 4035,
  "\u2581soqosoqo": 4036,
  "\u2581yalosavasava": 4037,
  "\u258139.": 4038,
  "\u2581French": 4039,
  "\u2581Messianic": 4040,
  "\u2581Pharisees": 4041,
  "\u2581Promised": 4042,
  "\u2581Veigauna": 4043,
  "\u2581daudina": 4044,
  "\u2581excellent": 4045,
  "\u2581sinned": 4046,
  "\u2581travel": 4047,
  "\u2581writes": 4048,
  "\u258127]": 4049,
  "\u2581bala": 4050,
  "\u2581root": 4051,
  "\u2581supported": 4052,
  "\u2581wilderness": 4053,
  "la": 4054,
  "te": 4055,
  "volatukutukutaki": 4056,
  "\u25813]": 4057,
  "\u2581Bau": 4058,
  "\u2581Luther": 4059,
  "\u2581bodies": 4060,
  "\u2581depression": 4061,
  "\u2581faithfulness": 4062,
  "\u2581identified": 4063,
  "\u2581traveled": 4064,
  "\u2581vakavo": 4065,
  "\u2581veitikina": 4066,
  "\u2581KENA": 4067,
  "\u2581March": 4068,
  "\u2581additional": 4069,
  "\u2581chapters": 4070,
  "\u2581proof": 4071,
  "\u2581represent": 4072,
  "\u2581require": 4073,
  "\u2581rules": 4074,
  "out": 4075,
  "\u2581International": 4076,
  "\u2581Service": 4077,
  "\u2581fornication": 4078,
  "\u2581happens": 4079,
  "\u2581methods": 4080,
  "\u2581taledi": 4081,
  "\u258130,": 4082,
  "\u2581Asia": 4083,
  "\u2581agreed": 4084,
  "\u2581demonstrated": 4085,
  "\u2581reasoning": 4086,
  "\u2581rulers": 4087,
  "\u2581vakamatau": 4088,
  "\u2581vakatutu": 4089,
  "\u2581veivakarusai": 4090,
  "\u25814]": 4091,
  "\u2581culture": 4092,
  "\u2581dwell": 4093,
  "\u2581inhabited": 4094,
  "\u2581offers": 4095,
  "\u2581official": 4096,
  "\u2581vakekeli": 4097,
  "\u2581wars": 4098,
  "\u2581wekadra": 4099,
  "\u2581Him": 4100,
  "\u2581Masu": 4101,
  "\u2581Ministry": 4102,
  "\u2581Sovereign": 4103,
  "\u2581c": 4104,
  "\u2581reaching": 4105,
  "\u2581sui": 4106,
  "akatisaipelitaki": 4107,
  "\u2581Inoki": 4108,
  "\u2581Loti": 4109,
  "\u2581Republic": 4110,
  "\u2581Surely": 4111,
  "\u2581arranged": 4112,
  "\u2581nine": 4113,
  "\u2581resulted": 4114,
  "\u2581turning": 4115,
  "\u2581Russia": 4116,
  "\u2581Spain": 4117,
  "\u2581Table": 4118,
  "\u2581apparently": 4119,
  "\u2581associate": 4120,
  "\u2581crime": 4121,
  "\u2581low": 4122,
  "\u2581potential": 4123,
  "\u2581recalls": 4124,
  "\u2581remove": 4125,
  "\u2581stood": 4126,
  "\u2581vakarurugi": 4127,
  "\u2581viewpoint": 4128,
  "\u2581vuki": 4129,
  "ne": 4130,
  "\u2581Latin": 4131,
  "\u2581Upon": 4132,
  "\u2581Waluvu": 4133,
  "\u2581Web": 4134,
  "\u2581figurative": 4135,
  "\u2581kuri": 4136,
  "\u2581marvelous": 4137,
  "\u2581relations": 4138,
  "\u2581sang": 4139,
  "\u2581soldiers": 4140,
  "\u2581total": 4141,
  "\u2581Halls": 4142,
  "\u2581Times": 4143,
  "\u2581Vola": 4144,
  "\u2581altar": 4145,
  "\u2581cold": 4146,
  "\u2581damage": 4147,
  "\u2581dewa": 4148,
  "\u2581discouraged": 4149,
  "\u2581nearby": 4150,
  "\u2581skills": 4151,
  "\u2581veibeitaki": 4152,
  "\u2581veirauti": 4153,
  "\u25812002": 4154,
  "\u258166": 4155,
  "\u2581dauvolaivola": 4156,
  "\u2581drodro": 4157,
  "\u2581gradually": 4158,
  "\u2581ought": 4159,
  "\u2581veitalanoataka": 4160,
  "\u2581ERA": 4161,
  "\u2581abundant": 4162,
  "\u2581difficulties": 4163,
  "\u2581dwelling": 4164,
  "\u2581none": 4165,
  "\u2581ruling": 4166,
  "\u2581somidi": 4167,
  "\u2581turaganilewa": 4168,
  "day": 4169,
  "\u2581Almighty": 4170,
  "\u2581admonition": 4171,
  "\u2581assurance": 4172,
  "\u2581courageous": 4173,
  "\u2581duaduaga": 4174,
  "\u2581exactly": 4175,
  "\u2581kacivaki": 4176,
  "\u2581season": 4177,
  "\u2581union": 4178,
  "As": 4179,
  "\u2581East": 4180,
  "\u2581Nazi": 4181,
  "\u2581Neomai": 4182,
  "\u2581capital": 4183,
  "\u2581companion": 4184,
  "\u2581fast": 4185,
  "\u2581governments": 4186,
  "\u2581invisible": 4187,
  "\u2581paid": 4188,
  "\u2581reflected": 4189,
  "\u2581release": 4190,
  "\u2581sickness": 4191,
  "\u2581vereverea": 4192,
  "ive": 4193,
  "\u2581200": 4194,
  "\u2581Contents": 4195,
  "\u2581Enoch": 4196,
  "\u2581Japan": 4197,
  "\u2581Jutia": 4198,
  "\u2581Pet": 4199,
  "\u2581Sakaraia": 4200,
  "\u2581Zechariah": 4201,
  "\u2581choices": 4202,
  "\u2581davo": 4203,
  "\u2581hair": 4204,
  "\u2581hospital": 4205,
  "\u2581p": 4206,
  "\u2581surprised": 4207,
  "\u2581North": 4208,
  "\u2581Show": 4209,
  "\u2581adults": 4210,
  "\u2581domona": 4211,
  "\u2581render": 4212,
  "\u2581sad": 4213,
  "\u2581standard": 4214,
  "Kalou": 4215,
  "but": 4216,
  "\u2581500": 4217,
  "\u2581Cei": 4218,
  "\u2581baravi": 4219,
  "\u2581bilo": 4220,
  "\u2581causing": 4221,
  "\u2581content": 4222,
  "\u2581lecava": 4223,
  "\u2581mild": 4224,
  "\u2581possessions": 4225,
  "\u2581referring": 4226,
  "\u2581tatamusuki": 4227,
  "will": 4228,
  "\u258149": 4229,
  "\u2581Health": 4230,
  "\u2581NY": 4231,
  "\u2581Scripture": 4232,
  "\u2581Ulunivanua": 4233,
  "\u2581koso": 4234,
  "\u2581mention": 4235,
  "\u2581ogaoga": 4236,
  "\u2581persecuted": 4237,
  "\u2581pursuing": 4238,
  "\u2581sasagataka": 4239,
  "\u2581veidabui": 4240,
  "\u258119]": 4241,
  "\u2581CAVA": 4242,
  "\u2581Eroni": 4243,
  "\u2581Korea": 4244,
  "\u2581Naomi": 4245,
  "\u2581angry": 4246,
  "\u2581brotherhood": 4247,
  "\u2581idabedabe": 4248,
  "\u2581otherwise": 4249,
  "\u2581stars": 4250,
  "\u2581tawasei": 4251,
  "great": 4252,
  "li": 4253,
  "\u2581Kece": 4254,
  "\u2581bulumakau": 4255,
  "\u2581compare": 4256,
  "\u2581evolution": 4257,
  "\u2581ile": 4258,
  "\u2581iyalayala": 4259,
  "\u2581livaliva": 4260,
  "\u2581pioneering": 4261,
  "\u2581recall": 4262,
  "\u2581vakasaqarai": 4263,
  "\u2581witnesses": 4264,
  "\u2581worthy": 4265,
  "\u25811950": 4266,
  "\u2581DAU": 4267,
  "\u2581Lekutu": 4268,
  "\u2581Loloma": 4269,
  "\u2581Shortly": 4270,
  "\u2581abilities": 4271,
  "\u2581acknowledge": 4272,
  "\u2581advance": 4273,
  "\u2581asks": 4274,
  "\u2581brain": 4275,
  "\u2581buka": 4276,
  "\u2581forced": 4277,
  "\u2581harmful": 4278,
  "\u2581ivakataotioti": 4279,
  "\u2581matanivola": 4280,
  "\u2581plan": 4281,
  "\u2581red": 4282,
  "\u2581refuse": 4283,
  "\u2581tuba": 4284,
  "\u2581vakaivakatawa": 4285,
  "\u2581veikau": 4286,
  "\u2581veivakadreti": 4287,
  "\u2581wondered": 4288,
  "vakacaucautaki": 4289,
  "\u258111]": 4290,
  "\u2581Know": 4291,
  "\u2581abandoned": 4292,
  "\u2581encourages": 4293,
  "\u2581miniti": 4294,
  "\u2581model": 4295,
  "\u2581preced": 4296,
  "\u2581vakamatanitu": 4297,
  "\u2581vulavula": 4298,
  "\u2581wasei": 4299,
  "for": 4300,
  "\u2581Eventually": 4301,
  "\u2581Lasarusa": 4302,
  "\u2581Taleitaka": 4303,
  "\u2581butako": 4304,
  "\u2581churches": 4305,
  "\u2581diva": 4306,
  "\u2581majority": 4307,
  "\u2581represented": 4308,
  "\u2581sake": 4309,
  "\u2581veivakamatei": 4310,
  "\u2581Cain": 4311,
  "\u2581FOR": 4312,
  "\u2581glorious": 4313,
  "\u2581population": 4314,
  "\u2581private": 4315,
  "\u2581struck": 4316,
  "\u2581valuti": 4317,
  "\u2581veivukei": 4318,
  "\u2581wild": 4319,
  "They": 4320,
  "\u2581Lakosivia": 4321,
  "\u2581Martha": 4322,
  "\u2581arrangements": 4323,
  "\u2581balance": 4324,
  "\u2581bi": 4325,
  "\u2581boys": 4326,
  "\u2581degree": 4327,
  "\u2581dusi": 4328,
  "\u2581fleshly": 4329,
  "\u2581humbly": 4330,
  "\u2581listeners": 4331,
  "\u2581lowly": 4332,
  "\u2581printed": 4333,
  "\u2581properly": 4334,
  "\u2581tawana": 4335,
  "\u2581tribe": 4336,
  "\u2581vakalailaitaka": 4337,
  "\u2581vakarerevaki": 4338,
  "\u2581vakarua": 4339,
  "\u2581veiv": 4340,
  "\u2581Chronicles": 4341,
  "\u2581Columbia": 4342,
  "\u2581commit": 4343,
  "\u2581descendants": 4344,
  "\u2581facing": 4345,
  "\u2581generation": 4346,
  "\u2581limitations": 4347,
  "\u2581literal": 4348,
  "\u2581pagan": 4349,
  "\u2581readily": 4350,
  "\u2581vakasuka": 4351,
  "\u2581veivaluvaluti": 4352,
  "\u2581vuvu": 4353,
  "\u2581Am": 4354,
  "\u2581Vakayalo": 4355,
  "\u2581Worship": 4356,
  "\u2581hundred": 4357,
  "\u2581images": 4358,
  "\u2581invite": 4359,
  "\u2581ma": 4360,
  "\u2581maivei": 4361,
  "\u2581ministeri": 4362,
  "\u2581moves": 4363,
  "\u2581plans": 4364,
  "\u2581shed": 4365,
  "\u2581strengthening": 4366,
  "ca": 4367,
  "\u2581Doing": 4368,
  "\u2581Keni": 4369,
  "\u2581TV": 4370,
  "\u2581Union": 4371,
  "\u2581armies": 4372,
  "\u2581bole": 4373,
  "\u2581customs": 4374,
  "\u2581deliverance": 4375,
  "\u2581developing": 4376,
  "\u2581ganequ": 4377,
  "\u2581girls": 4378,
  "\u2581ivukevuke": 4379,
  "\u2581outcome": 4380,
  "\u2581pre": 4381,
  "\u2581song": 4382,
  "\u2581vakatusa": 4383,
  "\u2581Abel": 4384,
  "\u2581Noveba": 4385,
  "\u2581Out": 4386,
  "\u2581Taumada": 4387,
  "\u2581Vuvale": 4388,
  "\u2581begotten": 4389,
  "\u2581lovingly": 4390,
  "\u2581opposers": 4391,
  "\u2581reputation": 4392,
  "\u2581resources": 4393,
  "\u2581tevoro": 4394,
  "\u2581Don": 4395,
  "\u2581Hezekiah": 4396,
  "\u2581acting": 4397,
  "\u2581conviction": 4398,
  "\u2581dignity": 4399,
  "\u2581involv": 4400,
  "\u2581parable": 4401,
  "\u2581vakaiperiu": 4402,
  "\u2581veiulunivanua": 4403,
  "\u2581vunivola": 4404,
  "\u2581Itala": 4405,
  "\u2581JEHOVAH": 4406,
  "\u2581Malakai": 4407,
  "\u2581Rutherford": 4408,
  "\u2581Tabana": 4409,
  "\u2581awake": 4410,
  "\u2581bed": 4411,
  "\u2581dangers": 4412,
  "\u2581displayed": 4413,
  "\u2581exercising": 4414,
  "\u2581forgiving": 4415,
  "\u2581imatau": 4416,
  "\u2581temporary": 4417,
  "\u2581useful": 4418,
  "\u2581vakacakacaka": 4419,
  "\u2581vakatabuya": 4420,
  "\u2581visits": 4421,
  "da": 4422,
  "ver": 4423,
  "\u25812003": 4424,
  "\u258137.": 4425,
  "\u258138.": 4426,
  "\u2581Notice": 4427,
  "\u2581Vukei": 4428,
  "\u2581affairs": 4429,
  "\u2581corruption": 4430,
  "\u2581disaster": 4431,
  "\u2581district": 4432,
  "\u2581dola": 4433,
  "\u2581ivau": 4434,
  "\u2581suggestions": 4435,
  "\u2581tokalau": 4436,
  "\u2581vakamareqeti": 4437,
  "ty": 4438,
  "\u2581AIDS": 4439,
  "\u2581Aaron": 4440,
  "\u2581Bill": 4441,
  "\u2581Esiteri": 4442,
  "\u2581brief": 4443,
  "\u2581clothing": 4444,
  "\u2581credit": 4445,
  "\u2581drug": 4446,
  "\u2581kurabuitaki": 4447,
  "\u2581punishment": 4448,
  "\u2581ravuravu": 4449,
  "\u2581repeatedly": 4450,
  "\u2581science": 4451,
  "\u2581signs": 4452,
  "\u2581touch": 4453,
  "\u2581AU": 4454,
  "\u2581Jona": 4455,
  "\u2581Malachi": 4456,
  "\u2581Passover": 4457,
  "\u2581ciwa": 4458,
  "\u2581constant": 4459,
  "\u2581failure": 4460,
  "\u2581rain": 4461,
  "\u2581restored": 4462,
  "\u2581sinners": 4463,
  "\u2581speaker": 4464,
  "\u2581taci": 4465,
  "\u2581traits": 4466,
  "\u2581trip": 4467,
  "\u2581ulumatua": 4468,
  "\u2581veivinakati": 4469,
  "\u2581walega": 4470,
  "20": 4471,
  "\u258110;": 4472,
  "\u258172": 4473,
  "\u2581Donu": 4474,
  "\u2581Nations": 4475,
  "\u2581Rev": 4476,
  "\u2581Stephen": 4477,
  "\u2581attitudes": 4478,
  "\u2581dausokalou": 4479,
  "\u2581dauteitei": 4480,
  "\u2581employment": 4481,
  "\u2581solution": 4482,
  "\u2581tawaveitovaki": 4483,
  "\u2581yacadra": 4484,
  "el": 4485,
  "ivakatakarakara": 4486,
  "\u258136.": 4487,
  "\u2581African": 4488,
  "\u2581Granted": 4489,
  "\u2581Vuna": 4490,
  "\u2581broke": 4491,
  "\u2581guided": 4492,
  "\u2581holding": 4493,
  "\u2581icabocabonisoro": 4494,
  "\u2581instructed": 4495,
  "\u2581olive": 4496,
  "\u2581repentant": 4497,
  "\u2581sosomitaki": 4498,
  "\u2581uto": 4499,
  "\u2581vakavoleka": 4500,
  "2": 4501,
  "3": 4502,
  "dua": 4503,
  "\u258151": 4504,
  "\u2581Gone": 4505,
  "\u2581News": 4506,
  "\u2581audience": 4507,
  "\u2581officials": 4508,
  "\u2581rightly": 4509,
  "\u2581sustain": 4510,
  "\u2581yaloqu": 4511,
  "\u2581Isa": 4512,
  "\u2581benefited": 4513,
  "\u2581bese": 4514,
  "\u2581bolea": 4515,
  "\u2581completed": 4516,
  "\u2581conscious": 4517,
  "\u2581eke": 4518,
  "\u2581load": 4519,
  "\u2581merciful": 4520,
  "\u2581qarai": 4521,
  "\u2581unclean": 4522,
  "\u2581vakatani": 4523,
  "\u2581vukuna": 4524,
  "\u2581writers": 4525,
  "\u2581yalani": 4526,
  "with": 4527,
  "\u2581Esekaia": 4528,
  "\u2581Makawa": 4529,
  "\u2581bound": 4530,
  "\u2581communicate": 4531,
  "\u2581didivara": 4532,
  "\u2581iVunau": 4533,
  "\u2581matavuvale": 4534,
  "\u2581reminders": 4535,
  "\u2581spirits": 4536,
  "\u2581tei": 4537,
  "\u2581vakaliuci": 4538,
  "ful": 4539,
  "\u258153": 4540,
  "\u2581Concern": 4541,
  "\u2581Source": 4542,
  "\u2581cakacakataka": 4543,
  "\u2581glad": 4544,
  "\u2581inclined": 4545,
  "\u2581leqaleqa": 4546,
  "\u2581souls": 4547,
  "\u2581victory": 4548,
  "ary": 4549,
  "\u2581European": 4550,
  "\u2581Gospels": 4551,
  "\u2581Often": 4552,
  "\u2581conducted": 4553,
  "\u2581corrupt": 4554,
  "\u2581ears": 4555,
  "\u2581foot": 4556,
  "\u2581kumuna": 4557,
  "\u2581limit": 4558,
  "\u2581male": 4559,
  "\u2581pleasant": 4560,
  "\u2581review": 4561,
  "\u2581Emosi": 4562,
  "\u2581Ephesus": 4563,
  "\u2581Lazarus": 4564,
  "\u2581THIS": 4565,
  "\u2581appeal": 4566,
  "\u2581begins": 4567,
  "\u2581ganita": 4568,
  "\u2581scientists": 4569,
  "\u2581scripture": 4570,
  "7": 4571,
  "k": 4572,
  "\u25811990": 4573,
  "\u2581KINA": 4574,
  "\u2581basulawa": 4575,
  "\u2581depend": 4576,
  "\u2581factor": 4577,
  "\u2581gathering": 4578,
  "\u2581lori": 4579,
  "\u2581maintaining": 4580,
  "\u2581played": 4581,
  "\u2581repentance": 4582,
  "\u2581royal": 4583,
  "\u2581spending": 4584,
  "\u2581vakaidewadewa": 4585,
  "\u2581veisemati": 4586,
  "\u2581waqavuka": 4587,
  "5": 4588,
  "\u2581Amos": 4589,
  "\u2581Pailato": 4590,
  "\u2581Peali": 4591,
  "\u2581caught": 4592,
  "\u2581gather": 4593,
  "\u2581lifestyle": 4594,
  "\u2581midst": 4595,
  "\u2581quick": 4596,
  "\u2581sila": 4597,
  "\u2581tend": 4598,
  "\u2581ubia": 4599,
  "\u2581veitikivi": 4600,
  "\u2581vuataka": 4601,
  "\u2581wisely": 4602,
  "one": 4603,
  "\u2581associates": 4604,
  "\u2581defend": 4605,
  "\u2581historian": 4606,
  "\u2581identity": 4607,
  "\u2581itataqomaki": 4608,
  "\u2581la": 4609,
  "\u2581opposite": 4610,
  "\u2581paragraph": 4611,
  "\u2581proud": 4612,
  "\u2581sacrificing": 4613,
  "\u2581satisfied": 4614,
  "\u2581supply": 4615,
  "\u2581television": 4616,
  "\u2581vakamamada": 4617,
  "\u2581vakatitiqataka": 4618,
  "\u2581Babylonian": 4619,
  "\u2581Dictionary": 4620,
  "\u2581Soro": 4621,
  "\u2581Truth": 4622,
  "\u2581cross": 4623,
  "\u2581distance": 4624,
  "\u2581endured": 4625,
  "\u2581finish": 4626,
  "\u2581pictures": 4627,
  "\u2581possession": 4628,
  "\u2581reign": 4629,
  "\u2581skin": 4630,
  "\u2581store": 4631,
  "\u2581suggest": 4632,
  "\u2581top": 4633,
  "\u2581trusted": 4634,
  "\u2581tutu": 4635,
  "\u2581vakatubura": 4636,
  "\u2581veisoliyaki": 4637,
  "\u2581victims": 4638,
  "\u2581vunitaki": 4639,
  "Be": 4640,
  "vakabulabulataki": 4641,
  "\u2581Drama": 4642,
  "\u2581Peace": 4643,
  "\u2581attempt": 4644,
  "\u2581belongs": 4645,
  "\u2581foundation": 4646,
  "\u2581generous": 4647,
  "\u2581habit": 4648,
  "\u2581illustrations": 4649,
  "\u2581recreation": 4650,
  "\u2581stayed": 4651,
  "\u2581stories": 4652,
  "\u2581taurivaki": 4653,
  "\u2581ungodly": 4654,
  "\u2581vakarokoroko": 4655,
  "\u2581video": 4656,
  "\u2581volaitukutuku": 4657,
  "L": 4658,
  "go": 4659,
  "\u2581Epeli": 4660,
  "\u2581Prayer": 4661,
  "\u2581Rairai": 4662,
  "\u2581idre": 4663,
  "\u2581ignore": 4664,
  "\u2581isulusulu": 4665,
  "\u2581removed": 4666,
  "\u2581tavuki": 4667,
  "\u2581tempted": 4668,
  "\u2581texts": 4669,
  "\u2581translations": 4670,
  "\u2581vakamatailalai": 4671,
  "\u2581Following": 4672,
  "\u2581Jonacani": 4673,
  "\u2581Welcome": 4674,
  "\u2581accompany": 4675,
  "\u2581accord": 4676,
  "\u2581depends": 4677,
  "\u2581fundamental": 4678,
  "\u2581games": 4679,
  "\u2581imperfection": 4680,
  "\u2581lagasere": 4681,
  "\u2581reliable": 4682,
  "\u2581rights": 4683,
  "\u2581routine": 4684,
  "\u2581tutaka": 4685,
  "vakaogai": 4686,
  "\u2581Baal": 4687,
  "\u2581Committee": 4688,
  "\u2581Sunday": 4689,
  "\u2581Vkt": 4690,
  "\u2581computer": 4691,
  "\u2581enjoying": 4692,
  "\u2581motives": 4693,
  "\u2581obvious": 4694,
  "\u2581qaqaco": 4695,
  "\u2581sinai": 4696,
  "\u2581tests": 4697,
  "\u2581vakamatatataki": 4698,
  "\u2581vakanadakuya": 4699,
  "\u2581wekamu": 4700,
  "H": 4701,
  "U": 4702,
  "\u25815;": 4703,
  "\u2581covered": 4704,
  "\u2581dark": 4705,
  "\u2581finished": 4706,
  "\u2581houses": 4707,
  "\u2581labor": 4708,
  "\u2581lovers": 4709,
  "\u2581muduki": 4710,
  "\u2581yavana": 4711,
  "drew": 4712,
  "g": 4713,
  "ies": 4714,
  "tamata": 4715,
  "\u2581Draw": 4716,
  "\u2581Find": 4717,
  "\u2581Septuagint": 4718,
  "\u2581accepting": 4719,
  "\u2581add": 4720,
  "\u2581calata": 4721,
  "\u2581chance": 4722,
  "\u2581differences": 4723,
  "\u2581discernment": 4724,
  "\u2581huge": 4725,
  "\u2581isosomi": 4726,
  "\u2581observes": 4727,
  "\u2581vakasivoi": 4728,
  "\u2581veiraurau": 4729,
  "\u2581Heights": 4730,
  "\u2581Vakayagataka": 4731,
  "\u2581abandon": 4732,
  "\u2581approved": 4733,
  "\u2581cere": 4734,
  "\u2581east": 4735,
  "\u2581lewenilotu": 4736,
  "\u2581painful": 4737,
  "\u2581passing": 4738,
  "\u2581permanent": 4739,
  "\u2581pleasing": 4740,
  "\u2581relate": 4741,
  "\u2581tax": 4742,
  "\u2581vakaisulu": 4743,
  "do": 4744,
  "keep": 4745,
  "\u2581Apakuki": 4746,
  "\u2581confront": 4747,
  "\u2581drama": 4748,
  "\u2581intense": 4749,
  "\u2581possess": 4750,
  "\u2581quit": 4751,
  "\u2581surface": 4752,
  "\u2581theocratic": 4753,
  "\u2581wipe": 4754,
  "Niu": 4755,
  "raici": 4756,
  "\u25811940": 4757,
  "\u25813;": 4758,
  "\u2581River": 4759,
  "\u2581charge": 4760,
  "\u2581lalawataka": 4761,
  "\u2581lawaki": 4762,
  "\u2581newspaper": 4763,
  "\u2581plant": 4764,
  "\u2581ravuti": 4765,
  "\u2581scene": 4766,
  "\u2581serpent": 4767,
  "\u2581solevu": 4768,
  "\u2581tucake": 4769,
  "\u2581veilakoyaki": 4770,
  "\u2581weaknesses": 4771,
  "\u2581witi": 4772,
  "\u2581yacamuni": 4773,
  "our": 4774,
  "\u2581Habakkuk": 4775,
  "\u2581Human": 4776,
  "\u2581India": 4777,
  "\u2581Tawamudu": 4778,
  "\u2581applies": 4779,
  "\u2581conversations": 4780,
  "\u2581dress": 4781,
  "\u2581error": 4782,
  "\u2581grain": 4783,
  "\u2581kolotak": 4784,
  "\u2581koroturaga": 4785,
  "\u2581preparing": 4786,
  "\u2581taoni": 4787,
  "\u2581vakaduiduitaka": 4788,
  "dauveiqaravi": 4789,
  "\u25811997": 4790,
  "\u2581Filisitia": 4791,
  "\u2581Happy": 4792,
  "\u2581Pilate": 4793,
  "\u2581Sigatabu": 4794,
  "\u2581Suva": 4795,
  "\u2581campaign": 4796,
  "\u2581divided": 4797,
  "\u2581drawing": 4798,
  "\u2581establish": 4799,
  "\u2581lomaleqataka": 4800,
  "\u2581tikoga": 4801,
  "\u2581waluvu": 4802,
  "ED": 4803,
  "ish": 4804,
  "\u25811914.": 4805,
  "\u25813,000": 4806,
  "\u2581HOW": 4807,
  "\u2581Sokalou": 4808,
  "\u2581Titus": 4809,
  "\u2581below": 4810,
  "\u2581cared": 4811,
  "\u2581daubutako": 4812,
  "\u2581ligadra": 4813,
  "\u2581newly": 4814,
  "\u2581siqema": 4815,
  "\u2581talks": 4816,
  "\u2581tea": 4817,
  "\u2581vakacaboisoro": 4818,
  "\u2581vakamai": 4819,
  "\u2581vakayawa": 4820,
  "\u2581vorati": 4821,
  "\u2581wall": 4822,
  "\u2581watching": 4823,
  "201": 4824,
  "ce": 4825,
  "ling": 4826,
  "yawaki": 4827,
  "\u258156": 4828,
  "\u2581London": 4829,
  "\u2581SUBJECT": 4830,
  "\u2581Vuku": 4831,
  "\u2581arrested": 4832,
  "\u2581cudrucudru": 4833,
  "\u2581dust": 4834,
  "\u2581foolish": 4835,
  "\u2581meditation": 4836,
  "\u2581primarily": 4837,
  "\u2581restore": 4838,
  "\u2581vakalagilagia": 4839,
  "\u2581vakayalovinaka": 4840,
  "\u2581warns": 4841,
  "ma": 4842,
  "\u2581120": 4843,
  "\u2581Arena": 4844,
  "\u2581Close": 4845,
  "\u2581IS": 4846,
  "\u2581Italy": 4847,
  "\u2581November": 4848,
  "\u2581Perisia": 4849,
  "\u2581Unlike": 4850,
  "\u2581Way": 4851,
  "\u2581attacks": 4852,
  "\u2581complex": 4853,
  "\u2581intended": 4854,
  "\u2581located": 4855,
  "\u2581minutes": 4856,
  "\u2581miraculous": 4857,
  "\u2581sorts": 4858,
  "\u2581taurivaka": 4859,
  "\u2581tawayalodina": 4860,
  "\u2581theme": 4861,
  "\u2581vakarerei": 4862,
  "\u2581vakatolu": 4863,
  "ch": 4864,
  "\u2581Sikovi": 4865,
  "\u2581Veiqaravi": 4866,
  "\u2581healing": 4867,
  "\u2581historical": 4868,
  "\u2581laid": 4869,
  "\u2581lalaga": 4870,
  "\u2581level": 4871,
  "\u2581memory": 4872,
  "\u2581perfection": 4873,
  "\u2581pressures": 4874,
  "\u2581refreshing": 4875,
  "\u2581volunteers": 4876,
  "\u2581Idia": 4877,
  "\u2581Komi": 4878,
  "\u2581Leqa": 4879,
  "\u2581Tawase": 4880,
  "\u2581Things": 4881,
  "\u2581alert": 4882,
  "\u2581dauveitusaqati": 4883,
  "\u2581empty": 4884,
  "\u2581exposed": 4885,
  "\u2581glorify": 4886,
  "\u2581mua": 4887,
  "\u2581patiently": 4888,
  "\u2581paying": 4889,
  "\u2581Tama": 4890,
  "\u2581commands": 4891,
  "\u2581contain": 4892,
  "\u2581grave": 4893,
  "\u2581soil": 4894,
  "\u2581teenager": 4895,
  "\u2581tribes": 4896,
  "\u2581vakaraica": 4897,
  "ING": 4898,
  "\u2581Asiria": 4899,
  "\u2581Early": 4900,
  "\u2581Joel": 4901,
  "\u2581Martin": 4902,
  "\u2581Saumi": 4903,
  "\u2581USED": 4904,
  "\u2581Ukraine": 4905,
  "\u2581acquire": 4906,
  "\u2581contained": 4907,
  "\u2581duabau": 4908,
  "\u2581innocent": 4909,
  "\u2581itei": 4910,
  "\u2581ivosavosa": 4911,
  "\u2581kaukamea": 4912,
  "\u2581lasa": 4913,
  "\u2581lomalomarua": 4914,
  "\u2581meek": 4915,
  "\u2581planet": 4916,
  "\u2581principal": 4917,
  "\u2581unrighteous": 4918,
  "\u2581vakawabokotaki": 4919,
  "\u2581wheat": 4920,
  "rogoci": 4921,
  "\u2581Convention": 4922,
  "\u2581Greece": 4923,
  "\u2581Henry": 4924,
  "\u2581Josaia": 4925,
  "\u2581calm": 4926,
  "\u2581choosing": 4927,
  "\u2581claimed": 4928,
  "\u2581format": 4929,
  "\u2581northern": 4930,
  "\u2581opinion": 4931,
  "\u2581peteriaki": 4932,
  "\u2581project": 4933,
  "\u2581suddenly": 4934,
  "\u2581threatened": 4935,
  "483,": 4936,
  "\u2581Besides": 4937,
  "\u2581Josiah": 4938,
  "\u2581Kenada": 4939,
  "\u2581broken": 4940,
  "\u2581check": 4941,
  "\u2581custom": 4942,
  "\u2581ikava": 4943,
  "\u2581inherited": 4944,
  "\u2581kidavaki": 4945,
  "\u2581lips": 4946,
  "\u2581mine": 4947,
  "\u2581moon": 4948,
  "\u2581sarasara": 4949,
  "\u2581significance": 4950,
  "\u2581street": 4951,
  "\u2581thankful": 4952,
  "\u2581vakatataro": 4953,
  "\u2581veimauilavo": 4954,
  "\u2581welfare": 4955,
  "\u2581win": 4956,
  "4": 4957,
  "at": 4958,
  "\u2581Three": 4959,
  "\u2581attain": 4960,
  "\u2581birds": 4961,
  "\u2581bokoca": 4962,
  "\u2581duanaudolu": 4963,
  "\u2581lolovira": 4964,
  "\u2581soko": 4965,
  "\u2581tacimu": 4966,
  "\u2581tekivuna": 4967,
  "\u2581threat": 4968,
  "\u2581vakadreti": 4969,
  "\u2581won": 4970,
  "B": 4971,
  "\u258154": 4972,
  "\u2581Anna": 4973,
  "\u2581Trinity": 4974,
  "\u2581features": 4975,
  "\u2581isolated": 4976,
  "\u2581loaloa": 4977,
  "\u2581prominent": 4978,
  "\u2581solid": 4979,
  "\u2581uluna": 4980,
  "\u2581upbuilding": 4981,
  "\u2581vakacolat": 4982,
  "\u2581vakatalai": 4983,
  "\u2581veisaututaki": 4984,
  "\u2581veitosoyaki": 4985,
  "we": 4986,
  "\u2581Answered": 4987,
  "\u2581DUA": 4988,
  "\u2581La": 4989,
  "\u2581Marica": 4990,
  "\u2581Philip": 4991,
  "\u2581burden": 4992,
  "\u2581literally": 4993,
  "\u2581ordered": 4994,
  "\u2581partner": 4995,
  "\u2581pornography": 4996,
  "\u2581possibly": 4997,
  "\u2581rewarding": 4998,
  "\u2581sosomitaka": 4999,
  "\u2581suicide": 5000,
  "\u2581tabernacle": 5001,
  "\u2581vakananumi": 5002,
  "\u2581yalomu": 5003,
  "de": 5004,
  "hearted": 5005,
  "ry": 5006,
  "tiko": 5007,
  "ur": 5008,
  "vakamasuti": 5009,
  "\u25811,000": 5010,
  "\u2581150": 5011,
  "\u25811998": 5012,
  "\u2581AND": 5013,
  "\u2581Heart": 5014,
  "\u2581IT": 5015,
  "\u2581SEGA": 5016,
  "\u2581Up": 5017,
  "\u2581average": 5018,
  "\u2581compassionate": 5019,
  "\u2581emuri": 5020,
  "\u2581increasing": 5021,
  "\u2581lomamuni": 5022,
  "\u2581marked": 5023,
  "\u2581obeying": 5024,
  "\u2581sets": 5025,
  "\u2581tear": 5026,
  "\u2581trusting": 5027,
  "\u2581vakacaucautak": 5028,
  "\u2581vakatale": 5029,
  "\u2581weight": 5030,
  "\u2581145": 5031,
  "\u2581February": 5032,
  "\u2581Photo": 5033,
  "\u2581acknowledged": 5034,
  "\u2581adopt": 5035,
  "\u2581cast": 5036,
  "\u2581clothes": 5037,
  "\u2581comment": 5038,
  "\u2581context": 5039,
  "\u2581finds": 5040,
  "\u2581lokuci": 5041,
  "\u2581photo": 5042,
  "\u2581property": 5043,
  "\u2581raising": 5044,
  "\u2581saravi": 5045,
  "vosa": 5046,
  "\u258142.": 5047,
  "\u2581Britain": 5048,
  "\u2581Soli": 5049,
  "\u2581Within": 5050,
  "\u2581anymore": 5051,
  "\u2581atmosphere": 5052,
  "\u2581clergy": 5053,
  "\u2581distant": 5054,
  "\u2581duru": 5055,
  "\u2581entrusted": 5056,
  "\u2581iVakaraitaki": 5057,
  "\u2581initiative": 5058,
  "\u2581lolo": 5059,
  "\u2581sitoa": 5060,
  "\u2581smoking": 5061,
  "\u2581torture": 5062,
  "\u2581wholesome": 5063,
  "\u2581Congregation": 5064,
  "\u2581adjust": 5065,
  "\u2581aged": 5066,
  "\u2581debt": 5067,
  "\u2581development": 5068,
  "\u2581dromu": 5069,
  "\u2581extended": 5070,
  "\u2581iTovo": 5071,
  "\u2581impact": 5072,
  "\u2581mark": 5073,
  "\u2581morally": 5074,
  "\u2581officer": 5075,
  "\u2581origin": 5076,
  "\u2581qiqi": 5077,
  "\u2581sema": 5078,
  "\u2581songs": 5079,
  "\u2581unless": 5080,
  "\u2581widely": 5081,
  "6": 5082,
  "ern": 5083,
  "\u258114]": 5084,
  "\u2581Hope": 5085,
  "\u2581Spiritual": 5086,
  "\u2581Toro": 5087,
  "\u2581boi": 5088,
  "\u2581capable": 5089,
  "\u2581hidden": 5090,
  "\u2581leader": 5091,
  "\u2581mataqu": 5092,
  "\u2581miracle": 5093,
  "\u2581preserve": 5094,
  "\u2581style": 5095,
  "\u2581vagalu": 5096,
  "\u2581vakaitovotaka": 5097,
  "\u2581vakaveitalia": 5098,
  "\u2581veicalati": 5099,
  "malumalumutaka": 5100,
  "not": 5101,
  "\u258131:": 5102,
  "\u258183": 5103,
  "\u2581Kalili": 5104,
  "\u2581amazing": 5105,
  "\u2581calamity": 5106,
  "\u2581contributed": 5107,
  "\u2581gained": 5108,
  "\u2581mourning": 5109,
  "\u2581safeguard": 5110,
  "\u2581sitimanivanua": 5111,
  "\u2581tawakilikili": 5112,
  "\u2581vakasigalevu": 5113,
  "\u2581vakavure": 5114,
  "Kemuni": 5115,
  "ous": 5116,
  "\u2581Jordan": 5117,
  "\u2581Library": 5118,
  "\u2581daucaka": 5119,
  "\u2581kacabote": 5120,
  "\u2581leaves": 5121,
  "\u2581likened": 5122,
  "\u2581mateni": 5123,
  "\u2581protected": 5124,
  "\u2581ran": 5125,
  "\u2581shortly": 5126,
  "\u2581tuvai": 5127,
  "\u2581vakacabecabe": 5128,
  "\u2581veisoliyaka": 5129,
  "\u2581volivoli": 5130,
  "To": 5131,
  "kabiti": 5132,
  "\u2581Feperueri": 5133,
  "\u2581Richard": 5134,
  "\u2581burning": 5135,
  "\u2581devoted": 5136,
  "\u2581famous": 5137,
  "\u2581looks": 5138,
  "\u2581miss": 5139,
  "\u2581reap": 5140,
  "\u2581services": 5141,
  "\u2581sold": 5142,
  "\u2581symbolic": 5143,
  "\u2581table": 5144,
  "\u2581treasures": 5145,
  "\u2581urges": 5146,
  "\u2581valenitabana": 5147,
  "\u2581yaqona": 5148,
  "Moni": 5149,
  "il": 5150,
  "un": 5151,
  "\u2581Corinth": 5152,
  "\u2581STUDY": 5153,
  "\u2581Tokalau": 5154,
  "\u2581hospitality": 5155,
  "\u2581lavetaki": 5156,
  "\u2581per": 5157,
  "\u2581tendency": 5158,
  "\u2581yavavala": 5159,
  "BY": 5160,
  "Keirau": 5161,
  "\u2581Court": 5162,
  "\u2581Kemuni": 5163,
  "\u2581Mari": 5164,
  "\u2581afterward": 5165,
  "\u2581cakacala": 5166,
  "\u2581disasters": 5167,
  "\u2581luvemuni": 5168,
  "\u2581rewarded": 5169,
  "\u2581sauva": 5170,
  "\u2581vagolei": 5171,
  "\u2581victim": 5172,
  "\u2581warfare": 5173,
  "\u2581wrath": 5174,
  "vata": 5175,
  "\u2581Caesar": 5176,
  "\u2581Gideon": 5177,
  "\u2581Jonah": 5178,
  "\u2581Master": 5179,
  "\u2581Says": 5180,
  "\u2581Wasa": 5181,
  "\u2581adjustments": 5182,
  "\u2581bati": 5183,
  "\u2581bulu": 5184,
  "\u2581eliminate": 5185,
  "\u2581hell": 5186,
  "\u2581inherit": 5187,
  "\u2581thanks": 5188,
  "\u2581vakacerecerei": 5189,
  "\u2581vakalevutaki": 5190,
  "\u2581worker": 5191,
  "ian": 5192,
  "\u2581Austria": 5193,
  "\u2581Empire": 5194,
  "\u2581KEI": 5195,
  "\u2581Osea": 5196,
  "\u2581fitting": 5197,
  "\u2581idolatry": 5198,
  "\u2581items": 5199,
  "\u2581karoni": 5200,
  "\u2581obtained": 5201,
  "\u2581resolved": 5202,
  "\u2581team": 5203,
  "\u2581tent": 5204,
  "\u2581tokara": 5205,
  "\u2581vakalesu": 5206,
  "tovolea": 5207,
  "vi": 5208,
  "wacava": 5209,
  "\u258140.": 5210,
  "\u2581America": 5211,
  "\u2581Marriage": 5212,
  "\u2581Museum": 5213,
  "\u2581Please": 5214,
  "\u2581existed": 5215,
  "\u2581headquarters": 5216,
  "\u2581iTalanoa": 5217,
  "\u2581iron": 5218,
  "\u2581kenisa": 5219,
  "\u2581middle": 5220,
  "\u2581parofesa": 5221,
  "\u2581silent": 5222,
  "\u2581wa": 5223,
  "9": 5224,
  "daru": 5225,
  "\u25811930": 5226,
  "\u2581El": 5227,
  "\u2581Religion": 5228,
  "\u2581art": 5229,
  "\u2581beast": 5230,
  "\u2581bitter": 5231,
  "\u2581desirable": 5232,
  "\u2581doctors": 5233,
  "\u2581everywhere": 5234,
  "\u2581executed": 5235,
  "\u2581feature": 5236,
  "\u2581friendships": 5237,
  "\u2581meditating": 5238,
  "\u2581north": 5239,
  "\u2581reply": 5240,
  "\u2581running": 5241,
  "\u2581searching": 5242,
  "\u2581surrounded": 5243,
  "\u2581vakadaukaulotu": 5244,
  "\u2581weakness": 5245,
  "\u2581yaloka": 5246,
  "\u25811945": 5247,
  "\u2581Muria": 5248,
  "\u2581Siria": 5249,
  "\u2581Try": 5250,
  "\u2581Use": 5251,
  "\u2581access": 5252,
  "\u2581arms": 5253,
  "\u2581believing": 5254,
  "\u2581cakitaka": 5255,
  "\u2581dakai": 5256,
  "\u2581doctrine": 5257,
  "\u2581guilty": 5258,
  "\u2581mamaca": 5259,
  "\u2581mobile": 5260,
  "\u2581promotes": 5261,
  "\u2581ripote": 5262,
  "\u2581safety": 5263,
  "\u2581suggests": 5264,
  "\u2581taqaya": 5265,
  "um": 5266,
  "\u2581Dad": 5267,
  "\u2581Leviticus": 5268,
  "\u2581Sermon": 5269,
  "\u2581bukete": 5270,
  "\u2581card": 5271,
  "\u2581civil": 5272,
  "\u2581delighted": 5273,
  "\u2581description": 5274,
  "\u2581duka": 5275,
  "\u2581fields": 5276,
  "\u2581flee": 5277,
  "\u2581gets": 5278,
  "\u2581opposed": 5279,
  "\u2581poured": 5280,
  "\u2581profound": 5281,
  "\u2581univesiti": 5282,
  "\u2581vakailala": 5283,
  "\u2581vosataki": 5284,
  "No": 5285,
  "rabailevutaka": 5286,
  "tayaloyalotaka": 5287,
  "\u2581Russian": 5288,
  "\u2581basoga": 5289,
  "\u2581cruel": 5290,
  "\u2581dauvola": 5291,
  "\u2581depth": 5292,
  "\u2581earnestly": 5293,
  "\u2581grand": 5294,
  "\u2581guce": 5295,
  "\u2581ivakatawanisipi": 5296,
  "\u2581outlook": 5297,
  "\u2581seleiwau": 5298,
  "\u2581sitting": 5299,
  "\u2581size": 5300,
  "\u2581sulu": 5301,
  "\u2581vaini": 5302,
  "\u2581veisele": 5303,
  "\u2581vow": 5304,
  "other": 5305,
  "\u2581400": 5306,
  "\u2581Kilai": 5307,
  "\u2581Lailai": 5308,
  "\u2581Le": 5309,
  "\u2581Taito": 5310,
  "\u2581Uqet": 5311,
  "\u2581creature": 5312,
  "\u2581obligation": 5313,
  "\u2581prisoners": 5314,
  "\u2581residents": 5315,
  "\u2581stronger": 5316,
  "\u2581vakaduavatataki": 5317,
  "\u2581vakavuqa": 5318,
  "tu": 5319,
  "\u2581Grand": 5320,
  "\u2581Kitioni": 5321,
  "\u2581SE": 5322,
  "\u2581addressed": 5323,
  "\u2581eagerly": 5324,
  "\u2581maturity": 5325,
  "\u2581object": 5326,
  "\u2581patriarch": 5327,
  "\u2581seventh": 5328,
  "\u2581vakai": 5329,
  "\u2581waitui": 5330,
  "\u2581weka": 5331,
  "Keitou": 5332,
  "his": 5333,
  "os": 5334,
  "\u25811995": 5335,
  "\u25812006": 5336,
  "\u258129]": 5337,
  "\u2581Judea": 5338,
  "\u2581billion": 5339,
  "\u2581examination": 5340,
  "\u2581execution": 5341,
  "\u2581islands": 5342,
  "\u2581observing": 5343,
  "\u2581pursuit": 5344,
  "\u2581rakorako": 5345,
  "\u2581tautauvimate": 5346,
  "\u2581tikotiko": 5347,
  "\u2581vakawalena": 5348,
  "\u2581veivaka": 5349,
  "\u2581visitors": 5350,
  "ism": 5351,
  "pe": 5352,
  "\u2581(4)": 5353,
  "\u2581Abram": 5354,
  "\u2581Esa": 5355,
  "\u2581Veiyalayalati": 5356,
  "\u2581Vica": 5357,
  "\u2581basikeli": 5358,
  "\u2581bulibuli": 5359,
  "\u2581buturara": 5360,
  "\u2581commandment": 5361,
  "\u2581dara": 5362,
  "\u2581dauveivoli": 5363,
  "\u2581empara": 5364,
  "\u2581faces": 5365,
  "\u2581modesty": 5366,
  "\u2581reads": 5367,
  "\u2581returning": 5368,
  "\u2581sore": 5369,
  "\u2581subjection": 5370,
  "\u2581vakamamasu": 5371,
  "\u2581veileqaleqati": 5372,
  "au": 5373,
  "ko": 5374,
  "\u25811960": 5375,
  "\u258173": 5376,
  "\u2581VULI": 5377,
  "\u2581adopted": 5378,
  "\u2581advancement": 5379,
  "\u2581buca": 5380,
  "\u2581dauveivakaisini": 5381,
  "\u2581explanation": 5382,
  "\u2581firstborn": 5383,
  "\u2581judges": 5384,
  "\u2581length": 5385,
  "\u2581media": 5386,
  "\u2581mistake": 5387,
  "\u2581peaceable": 5388,
  "\u2581privileged": 5389,
  "\u2581remnant": 5390,
  "\u2581scale": 5391,
  "\u2581tabaivola": 5392,
  "\u2581terrible": 5393,
  "\u2581vakairogorogo": 5394,
  "\u2581whereas": 5395,
  "mai": 5396,
  "ro": 5397,
  "\u25812004": 5398,
  "\u2581Galilee": 5399,
  "\u2581Ohio": 5400,
  "\u2581Organization": 5401,
  "\u2581QUESTIONS": 5402,
  "\u2581View": 5403,
  "\u2581condemned": 5404,
  "\u2581playing": 5405,
  "\u2581proceeded": 5406,
  "\u2581tested": 5407,
  "\u2581vakayabaki": 5408,
  "Your": 5409,
  "\u2581Albert": 5410,
  "\u2581Yalodina": 5411,
  "\u2581enduring": 5412,
  "\u2581fallen": 5413,
  "\u2581matenisuka": 5414,
  "\u2581preserved": 5415,
  "\u2581senses": 5416,
  "\u2581symbol": 5417,
  "\u2581tovo": 5418,
  "\u2581valeniveitavaki": 5419,
  "vakabulabulataka": 5420,
  "\u25812014": 5421,
  "\u2581Gold": 5422,
  "\u2581Luvemu": 5423,
  "\u2581approaching": 5424,
  "\u2581blame": 5425,
  "\u2581emotionally": 5426,
  "\u2581harsh": 5427,
  "\u2581hot": 5428,
  "\u2581ikalawa": 5429,
  "\u2581itekivu": 5430,
  "\u2581kotora": 5431,
  "\u2581mail": 5432,
  "\u2581peer": 5433,
  "\u2581tradition": 5434,
  "\u2581vakalutu": 5435,
  "\u2581vakatetea": 5436,
  "ci": 5437,
  "\u2581Hosea": 5438,
  "\u2581Letoluvakalou": 5439,
  "\u2581Were": 5440,
  "\u2581burn": 5441,
  "\u2581design": 5442,
  "\u2581imprisoned": 5443,
  "\u2581location": 5444,
  "\u2581objective": 5445,
  "\u2581plague": 5446,
  "\u2581ship": 5447,
  "\u2581strangers": 5448,
  "\u2581vakaduiduitaki": 5449,
  "Why": 5450,
  "\u25811939": 5451,
  "\u2581Ahab": 5452,
  "\u2581Old": 5453,
  "\u2581Re": 5454,
  "\u2581VEI": 5455,
  "\u2581boat": 5456,
  "\u2581comfortable": 5457,
  "\u2581ear": 5458,
  "\u2581encounter": 5459,
  "\u2581frequently": 5460,
  "\u2581influences": 5461,
  "\u2581iteitei": 5462,
  "\u2581lomadina": 5463,
  "\u2581method": 5464,
  "\u2581saulevu": 5465,
  "\u2581sokaloutaka": 5466,
  "\u2581suggested": 5467,
  "\u2581title": 5468,
  "\u2581veinanuyaka": 5469,
  "\u2581wear": 5470,
  "\u2581wrongdoing": 5471,
  "By": 5472,
  "z": 5473,
  "\u2581Death": 5474,
  "\u2581Egyptian": 5475,
  "\u2581Jephthah": 5476,
  "\u2581Karen": 5477,
  "\u2581Lewa": 5478,
  "\u2581Long": 5479,
  "\u2581Making": 5480,
  "\u2581admits": 5481,
  "\u2581baqe": 5482,
  "\u2581cancer": 5483,
  "\u2581capacity": 5484,
  "\u2581engaged": 5485,
  "\u2581guilt": 5486,
  "\u2581iseleiwau": 5487,
  "\u2581itabagauna": 5488,
  "\u2581laukana": 5489,
  "\u2581oppose": 5490,
  "\u2581rock": 5491,
  "\u2581scientific": 5492,
  "\u2581summer": 5493,
  "\u2581supporting": 5494,
  "\u2581unusual": 5495,
  "\u2581vanualiwa": 5496,
  "F": 5497,
  "vakasaurarataki": 5498,
  "\u2581HIV": 5499,
  "\u2581Jaina": 5500,
  "\u2581Joritani": 5501,
  "\u2581Need": 5502,
  "\u2581Next": 5503,
  "\u2581Sefanaia": 5504,
  "\u2581VAKA": 5505,
  "\u2581Which": 5506,
  "\u2581anxieties": 5507,
  "\u2581bokoci": 5508,
  "\u2581camps": 5509,
  "\u2581deeper": 5510,
  "\u2581detail": 5511,
  "\u2581feed": 5512,
  "\u2581fresh": 5513,
  "\u2581greed": 5514,
  "\u2581kainaki": 5515,
  "\u2581motive": 5516,
  "\u2581prejudice": 5517,
  "\u2581quiet": 5518,
  "\u2581temper": 5519,
  "\u2581throw": 5520,
  "\u2581urge": 5521,
  "\u2581vakasinait": 5522,
  "\u2581vakatakarakara": 5523,
  "\u2581visible": 5524,
  "\u2581willingness": 5525,
  "Jiova": 5526,
  "\u25812005": 5527,
  "\u258132]": 5528,
  "\u258152": 5529,
  "\u2581Al": 5530,
  "\u2581Eph": 5531,
  "\u2581Much": 5532,
  "\u2581Poasa": 5533,
  "\u2581Zephaniah": 5534,
  "\u2581accident": 5535,
  "\u2581black": 5536,
  "\u2581covering": 5537,
  "\u2581discussions": 5538,
  "\u2581disobedience": 5539,
  "\u2581drive": 5540,
  "\u2581ganena": 5541,
  "\u2581holds": 5542,
  "\u2581honesty": 5543,
  "\u2581imawi": 5544,
  "\u2581intelligent": 5545,
  "\u2581lomanibai": 5546,
  "\u2581mates": 5547,
  "\u2581medicine": 5548,
  "\u2581repeated": 5549,
  "\u2581replaced": 5550,
  "\u2581spite": 5551,
  "\u2581tamusuka": 5552,
  "\u2581ua": 5553,
  "\u2581vakatauc": 5554,
  "\u2581Asa": 5555,
  "\u2581basi": 5556,
  "\u2581color": 5557,
  "\u2581diseases": 5558,
  "\u2581engaging": 5559,
  "\u2581grant": 5560,
  "\u2581ivovo": 5561,
  "\u2581losing": 5562,
  "\u2581offerings": 5563,
  "\u2581practiced": 5564,
  "\u2581remembered": 5565,
  "\u2581slavery": 5566,
  "\u2581yava": 5567,
  "\u25811970": 5568,
  "\u258147": 5569,
  "\u2581Taroga": 5570,
  "\u2581Vakaitalatala": 5571,
  "\u2581Vakalevu": 5572,
  "\u2581admit": 5573,
  "\u2581childhood": 5574,
  "\u2581convey": 5575,
  "\u2581courageously": 5576,
  "\u2581declaring": 5577,
  "\u2581depressed": 5578,
  "\u2581except": 5579,
  "\u2581exciting": 5580,
  "\u2581footnote": 5581,
  "\u2581itukuni": 5582,
  "\u2581kuvu": 5583,
  "\u2581laba": 5584,
  "\u2581previously": 5585,
  "\u2581rescue": 5586,
  "\u2581sincerely": 5587,
  "\u2581station": 5588,
  "\u2581tavako": 5589,
  "\u2581vakauitukutuku": 5590,
  "\u2581vakaukauayago": 5591,
  "io": 5592,
  "\u2581103": 5593,
  "\u2581Britannica": 5594,
  "\u2581British": 5595,
  "\u2581Eapi": 5596,
  "\u2581Encyclop\u00e6dia": 5597,
  "\u2581Living": 5598,
  "\u2581Poladi": 5599,
  "\u2581Red": 5600,
  "\u2581annual": 5601,
  "\u2581citizens": 5602,
  "\u2581equal": 5603,
  "\u2581fears": 5604,
  "\u2581happening": 5605,
  "\u2581matamata": 5606,
  "\u2581qiqo": 5607,
  "\u2581reside": 5608,
  "\u2581smoke": 5609,
  "\u2581talanoataki": 5610,
  "\u2581tawanamaki": 5611,
  "\u2581vakataotioti": 5612,
  "\u2581zealously": 5613,
  "\u258121]": 5614,
  "\u2581Fear": 5615,
  "\u2581Gen": 5616,
  "\u2581Get": 5617,
  "\u2581Iso": 5618,
  "\u2581Vata": 5619,
  "\u2581Year": 5620,
  "\u2581accused": 5621,
  "\u2581burned": 5622,
  "\u2581educational": 5623,
  "\u2581impression": 5624,
  "\u2581laulau": 5625,
  "\u2581ligaqu": 5626,
  "\u2581messages": 5627,
  "\u2581minded": 5628,
  "\u2581rewards": 5629,
  "\u2581sentence": 5630,
  "\u2581totally": 5631,
  "\u2581vakama": 5632,
  "\u2581witnessed": 5633,
  "lo": 5634,
  "\u25811946": 5635,
  "\u2581AS": 5636,
  "\u2581Avoid": 5637,
  "\u2581Dauveilewai": 5638,
  "\u2581Evidently": 5639,
  "\u2581Jefica": 5640,
  "\u2581Ruler": 5641,
  "\u2581curumi": 5642,
  "\u2581ethnic": 5643,
  "\u2581interesting": 5644,
  "\u2581mass": 5645,
  "\u2581necessarily": 5646,
  "\u2581papa": 5647,
  "\u2581participate": 5648,
  "\u2581ruled": 5649,
  "\u2581shine": 5650,
  "\u2581tired": 5651,
  "gauna": 5652,
  "ist": 5653,
  "\u2581Esau": 5654,
  "\u2581Near": 5655,
  "\u2581Yatu": 5656,
  "\u2581Years": 5657,
  "\u2581accompanie": 5658,
  "\u2581acquainted": 5659,
  "\u2581coriti": 5660,
  "\u2581doubts": 5661,
  "\u2581friendly": 5662,
  "\u2581gambling": 5663,
  "\u2581hates": 5664,
  "\u2581ikavitu": 5665,
  "\u2581kaloko": 5666,
  "\u2581patients": 5667,
  "\u2581rabailevu": 5668,
  "\u2581rate": 5669,
  "\u2581sayings": 5670,
  "\u2581vakaruru": 5671,
  "\u2581vakayacani": 5672,
  "\u258145.": 5673,
  "\u2581Ave": 5674,
  "\u2581Back": 5675,
  "\u2581Dead": 5676,
  "\u2581Dredre": 5677,
  "\u2581Judges": 5678,
  "\u2581Ki": 5679,
  "\u2581Lamb": 5680,
  "\u2581Rebekah": 5681,
  "\u2581Trust": 5682,
  "\u2581bolecakacaka": 5683,
  "\u2581cultivating": 5684,
  "\u2581daucakacaka": 5685,
  "\u2581desired": 5686,
  "\u2581domodomoiyau": 5687,
  "\u2581ends": 5688,
  "\u2581exchange": 5689,
  "\u2581fourth": 5690,
  "\u2581householder": 5691,
  "\u2581kidava": 5692,
  "\u2581marital": 5693,
  "\u2581matamu": 5694,
  "\u2581priorities": 5695,
  "\u2581priority": 5696,
  "\u2581pursuits": 5697,
  "\u2581represents": 5698,
  "\u2581river": 5699,
  "\u2581submit": 5700,
  "\u2581turns": 5701,
  "\u2581vakaitutu": 5702,
  "\u2581vakaoqo": 5703,
  "\u2581vaqase": 5704,
  "\u2581walls": 5705,
  "\u25811941": 5706,
  "\u2581Any": 5707,
  "\u2581Come": 5708,
  "\u2581Inc": 5709,
  "\u2581Matabose": 5710,
  "\u2581Moscow": 5711,
  "\u2581WAS": 5712,
  "\u2581Wisdom": 5713,
  "\u2581achieve": 5714,
  "\u2581asleep": 5715,
  "\u2581commendation": 5716,
  "\u2581earnest": 5717,
  "\u2581heal": 5718,
  "\u2581planning": 5719,
  "\u2581price": 5720,
  "\u2581publicly": 5721,
  "\u2581rara": 5722,
  "\u2581realm": 5723,
  "\u2581reduce": 5724,
  "\u2581reflects": 5725,
  "\u2581researchers": 5726,
  "\u2581sat": 5727,
  "\u2581satisfy": 5728,
  "\u2581telephone": 5729,
  "\u2581vakasavuya": 5730,
  "\u2581vakasucuma": 5731,
  "nodra": 5732,
  "\u258157": 5733,
  "\u258162": 5734,
  "\u2581Above": 5735,
  "\u2581Alexander": 5736,
  "\u2581DO": 5737,
  "\u2581Frank": 5738,
  "\u2581Levites": 5739,
  "\u2581MA": 5740,
  "\u2581Thomas": 5741,
  "\u2581Veiliutaki": 5742,
  "\u2581Vosota": 5743,
  "\u2581Zion": 5744,
  "\u2581adult": 5745,
  "\u2581concentration": 5746,
  "\u2581dies": 5747,
  "\u2581diligent": 5748,
  "\u2581discussing": 5749,
  "\u2581extra": 5750,
  "\u2581female": 5751,
  "\u2581handed": 5752,
  "\u2581hoped": 5753,
  "\u2581humankind": 5754,
  "\u2581passage": 5755,
  "\u2581thrown": 5756,
  "\u2581tuakana": 5757,
  "\u2581tubucake": 5758,
  "\u2581vakalecalecava": 5759,
  "\u2581vakatitiqataki": 5760,
  "\u2581vukica": 5761,
  "\u2581vunauci": 5762,
  "Go": 5763,
  "good": 5764,
  "\u25811996": 5765,
  "\u2581Creation": 5766,
  "\u2581Faithful": 5767,
  "\u2581Lessons": 5768,
  "\u2581Moapi": 5769,
  "\u2581Repeka": 5770,
  "\u2581Right": 5771,
  "\u2581Vakaraitak": 5772,
  "\u2581WHEN": 5773,
  "\u2581agreement": 5774,
  "\u2581cokovata": 5775,
  "\u2581donations": 5776,
  "\u2581equipped": 5777,
  "\u2581gonelalai": 5778,
  "\u2581hated": 5779,
  "\u2581hide": 5780,
  "\u2581introduced": 5781,
  "\u2581mid": 5782,
  "\u2581oppression": 5783,
  "\u2581roro": 5784,
  "\u2581statements": 5785,
  "\u2581trade": 5786,
  "\u2581types": 5787,
  "\u2581veivula": 5788,
  "\u2581weapons": 5789,
  "\u2581worry": 5790,
  "iotioti": 5791,
  "\u25811943": 5792,
  "\u25812007": 5793,
  "\u258133,": 5794,
  "\u258175": 5795,
  "\u2581HAVE": 5796,
  "\u2581Nisan": 5797,
  "\u2581Qarauna": 5798,
  "\u2581Tata": 5799,
  "\u2581Veisau": 5800,
  "\u2581bow": 5801,
  "\u2581heads": 5802,
  "\u2581immediate": 5803,
  "\u2581income": 5804,
  "\u2581loyally": 5805,
  "\u2581miraculously": 5806,
  "\u2581politics": 5807,
  "\u2581printing": 5808,
  "\u2581prize": 5809,
  "\u2581regret": 5810,
  "\u2581schedule": 5811,
  "\u2581serau": 5812,
  "\u2581south": 5813,
  "\u2581stones": 5814,
  "\u2581universal": 5815,
  "\u2581veikoro": 5816,
  "\u2581voluntary": 5817,
  "\u2581vunitaka": 5818,
  "1": 5819,
  "ally": 5820,
  "\u2581Again": 5821,
  "\u2581Department": 5822,
  "\u2581Judas": 5823,
  "\u2581Lami": 5824,
  "\u2581Naisani": 5825,
  "\u2581Paris": 5826,
  "\u2581Soqo": 5827,
  "\u2581appealing": 5828,
  "\u2581cup": 5829,
  "\u2581deceived": 5830,
  "\u2581kovana": 5831,
  "\u2581reasoned": 5832,
  "\u2581rekitaka": 5833,
  "\u2581sell": 5834,
  "\u2581veidomoni": 5835,
  "\u2581velavela": 5836,
  "\u2581yoke": 5837,
  "ine": 5838,
  "lele": 5839,
  "that": 5840,
  "vakaukauataki": 5841,
  "\u2581Boaz": 5842,
  "\u2581Eli": 5843,
  "\u2581Illustrate": 5844,
  "\u2581Josephus": 5845,
  "\u2581Peruki": 5846,
  "\u2581coast": 5847,
  "\u2581dying": 5848,
  "\u2581floor": 5849,
  "\u2581gaining": 5850,
  "\u2581governing": 5851,
  "\u2581manuscripts": 5852,
  "\u2581proclaimers": 5853,
  "\u2581prosperity": 5854,
  "\u2581respected": 5855,
  "\u2581testimony": 5856,
  "\u2581tools": 5857,
  "\u2581volatukutukutak": 5858,
  "&": 5859,
  "bula": 5860,
  "vicasagavulu": 5861,
  "\u2581Jean": 5862,
  "\u2581Mediterranean": 5863,
  "\u2581Millions": 5864,
  "\u2581Milton": 5865,
  "\u2581SAM": 5866,
  "\u2581assemblies": 5867,
  "\u2581hardships": 5868,
  "\u2581linked": 5869,
  "\u2581movement": 5870,
  "\u2581singing": 5871,
  "\u2581vakalatilati": 5872,
  "\u2581veitaucici": 5873,
  "\u2581vuanikau": 5874,
  "\u2581yacaqu": 5875,
  "Happy": 5876,
  "Who": 5877,
  "di": 5878,
  "kaya": 5879,
  "\u00e9": 5880,
  "\u2581Additionally": 5881,
  "\u2581Baruch": 5882,
  "\u2581Bl": 5883,
  "\u2581Knowing": 5884,
  "\u2581Laurai": 5885,
  "\u2581Leader": 5886,
  "\u2581arrival": 5887,
  "\u2581belongings": 5888,
  "\u2581edition": 5889,
  "\u2581effectively": 5890,
  "\u2581exile": 5891,
  "\u2581experiencing": 5892,
  "\u2581hunger": 5893,
  "\u2581pick": 5894,
  "\u2581portion": 5895,
  "\u2581qiri": 5896,
  "\u2581ramusu": 5897,
  "\u2581schools": 5898,
  "\u2581similarly": 5899,
  "\u2581status": 5900,
  "\u2581sufficient": 5901,
  "\u2581tawamate": 5902,
  "\u2581technology": 5903,
  "\u2581typical": 5904,
  "\u2581uphold": 5905,
  "\u2581wealthy": 5906,
  "R": 5907,
  "angelic": 5908,
  "moceri": 5909,
  "\u258128]": 5910,
  "\u2581CA": 5911,
  "\u2581Published": 5912,
  "\u2581Vu": 5913,
  "\u2581abroad": 5914,
  "\u2581arose": 5915,
  "\u2581bought": 5916,
  "\u2581deserve": 5917,
  "\u2581fighting": 5918,
  "\u2581iVaka": 5919,
  "\u2581kingdoms": 5920,
  "\u2581numbers": 5921,
  "\u2581programs": 5922,
  "\u2581prompt": 5923,
  "\u2581reproach": 5924,
  "\u2581suitable": 5925,
  "\u2581temptations": 5926,
  "\u2581vakatekivu": 5927,
  "\u2581vakatitiqa": 5928,
  "\u2581worldly": 5929,
  "co": 5930,
  "\u258161": 5931,
  "\u2581Esera": 5932,
  "\u2581Knowledge": 5933,
  "\u2581National": 5934,
  "\u2581Rachel": 5935,
  "\u2581application": 5936,
  "\u2581assume": 5937,
  "\u2581boldness": 5938,
  "\u2581cuva": 5939,
  "\u2581dry": 5940,
  "\u2581expectation": 5941,
  "\u2581expects": 5942,
  "\u2581icavuti": 5943,
  "\u2581kaburaki": 5944,
  "\u2581komiti": 5945,
  "\u2581lacking": 5946,
  "\u2581murder": 5947,
  "\u2581opinions": 5948,
  "\u2581papitaisotaki": 5949,
  "\u2581range": 5950,
  "\u2581survived": 5951,
  "\u2581teitei": 5952,
  "\u2581tragedy": 5953,
  "\u2581uro": 5954,
  "\u2581veibeci": 5955,
  "Eda": 5956,
  "tayaloyalotaki": 5957,
  "\u2581KAYA": 5958,
  "\u2581MO": 5959,
  "\u2581Y": 5960,
  "\u2581central": 5961,
  "\u2581changing": 5962,
  "\u2581compromise": 5963,
  "\u2581correction": 5964,
  "\u2581dausiga": 5965,
  "\u2581distinguish": 5966,
  "\u2581iloilo": 5967,
  "\u2581joyfully": 5968,
  "\u2581limits": 5969,
  "\u2581objects": 5970,
  "\u2581openly": 5971,
  "\u2581outset": 5972,
  "\u2581prais": 5973,
  "\u2581settled": 5974,
  "\u2581supplies": 5975,
  "\u2581tuvaitutu": 5976,
  "\u2581unexpected": 5977,
  "\u2581vakatatabu": 5978,
  "\u2581wekaqu": 5979,
  "Vkte": 5980,
  "ate": 5981,
  "by": 5982,
  "men": 5983,
  "ncient": 5984,
  "\u25811947": 5985,
  "\u2581Aristotle": 5986,
  "\u2581Put": 5987,
  "\u2581bright": 5988,
  "\u2581cabe": 5989,
  "\u2581cried": 5990,
  "\u2581fulfilling": 5991,
  "\u2581healed": 5992,
  "\u2581highlights": 5993,
  "\u2581luluqa": 5994,
  "\u2581matalotu": 5995,
  "\u2581obstacles": 5996,
  "\u2581online": 5997,
  "\u2581readers": 5998,
  "\u2581salt": 5999,
  "\u2581shoulder": 6000,
  "\u2581trustworthy": 6001,
  "\u2581unbeliev": 6002,
  "\u2581vakarogoca": 6003,
  "\u2581vuata": 6004,
  "AL": 6005,
  "ROM": 6006,
  "ment": 6007,
  "takilakilataki": 6008,
  "\u25811955": 6009,
  "\u258132,": 6010,
  "\u2581Amerika": 6011,
  "\u2581Awa": 6012,
  "\u2581Ezra": 6013,
  "\u2581Map": 6014,
  "\u2581Sisa": 6015,
  "\u2581Tabaka": 6016,
  "\u2581Viewpoint": 6017,
  "\u2581bones": 6018,
  "\u2581fathers": 6019,
  "\u2581fled": 6020,
  "\u2581lion": 6021,
  "\u2581operation": 6022,
  "\u2581philosophy": 6023,
  "\u2581plants": 6024,
  "\u2581remote": 6025,
  "\u2581southern": 6026,
  "\u2581tekivutaka": 6027,
  "\u2581veisei": 6028,
  "\u2581warnings": 6029,
  "\u2581whenever": 6030,
  "nd": 6031,
  "of": 6032,
  "\u2581Bethlehem": 6033,
  "\u2581Happiness": 6034,
  "\u2581Jutasa": 6035,
  "\u2581Nigeria": 6036,
  "\u2581Pray": 6037,
  "\u2581badness": 6038,
  "\u2581boso": 6039,
  "\u2581conflicts": 6040,
  "\u2581considerable": 6041,
  "\u2581expectations": 6042,
  "\u2581fun": 6043,
  "\u2581gonedramidrami": 6044,
  "\u2581helper": 6045,
  "\u2581kemudrau": 6046,
  "\u2581lomaocaocataka": 6047,
  "\u2581moica": 6048,
  "\u2581paper": 6049,
  "\u2581qoroi": 6050,
  "\u2581yaloca": 6051,
  "\u2581Canaan": 6052,
  "\u2581GOD": 6053,
  "\u2581Reflect": 6054,
  "\u2581Simon": 6055,
  "\u2581afternoon": 6056,
  "\u2581bini": 6057,
  "\u2581crowds": 6058,
  "\u2581current": 6059,
  "\u2581duivosavosa": 6060,
  "\u2581dusimaka": 6061,
  "\u2581eternity": 6062,
  "\u2581kinds": 6063,
  "\u2581maintained": 6064,
  "\u2581overwhelmed": 6065,
  "\u2581professor": 6066,
  "\u2581seeming": 6067,
  "\u2581taya": 6068,
  "\u2581thoroughly": 6069,
  "\u2581vakamaqosa": 6070,
  "\u2581vakatawadodonu": 6071,
  "\u2581vakatetei": 6072,
  "\u2581widows": 6073,
  "\u2581yadrava": 6074,
  "Dua": 6075,
  "ts": 6076,
  "\u25811918": 6077,
  "\u2581Ex": 6078,
  "\u2581San": 6079,
  "\u2581Vakawati": 6080,
  "\u2581West": 6081,
  "\u2581ceuti": 6082,
  "\u2581comparison": 6083,
  "\u2581coqa": 6084,
  "\u2581cultures": 6085,
  "\u2581driving": 6086,
  "\u2581elements": 6087,
  "\u2581elsewhere": 6088,
  "\u2581errors": 6089,
  "\u2581hesitate": 6090,
  "\u2581peers": 6091,
  "\u2581qaseqase": 6092,
  "\u2581qualify": 6093,
  "\u2581repent": 6094,
  "\u2581sensitive": 6095,
  "\u2581sova": 6096,
  "\u2581stage": 6097,
  "\u2581vakacabora": 6098,
  "\u2581vakavurea": 6099,
  "\u2581yagoqu": 6100,
  "son": 6101,
  "\u2581Jude": 6102,
  "\u2581Learning": 6103,
  "\u2581Nebuchadnezzar": 6104,
  "\u2581Numbers": 6105,
  "\u2581Office": 6106,
  "\u2581believer": 6107,
  "\u2581code": 6108,
  "\u2581cula": 6109,
  "\u2581disappointed": 6110,
  "\u2581highlight": 6111,
  "\u2581illustrated": 6112,
  "\u2581lavaki": 6113,
  "\u2581milk": 6114,
  "\u2581pieces": 6115,
  "\u2581rebellious": 6116,
  "\u2581rejoicing": 6117,
  "\u2581sele": 6118,
  "\u2581sorrow": 6119,
  "\u2581taga": 6120,
  "\u2581twice": 6121,
  "\u2581vakataudeitaka": 6122,
  "\u2581vakataudeitaki": 6123,
  "\u2581valid": 6124,
  "ized": 6125,
  "\u25811980": 6126,
  "\u2581Cake": 6127,
  "\u2581Everyone": 6128,
  "\u2581Haiti": 6129,
  "\u2581Maintain": 6130,
  "\u2581Nepukanesa": 6131,
  "\u2581Polyglot": 6132,
  "\u2581Serving": 6133,
  "\u2581admonished": 6134,
  "\u2581hungry": 6135,
  "\u2581initial": 6136,
  "\u2581manifested": 6137,
  "\u2581possibility": 6138,
  "\u2581specifically": 6139,
  "\u2581steadfast": 6140,
  "\u2581taukeni": 6141,
  "\u2581veibulu": 6142,
  "\u2581vutugu": 6143,
  "\u2581wavolit": 6144,
  "tional": 6145,
  "\u25811994": 6146,
  "\u2581Dei": 6147,
  "\u2581Herod": 6148,
  "\u2581admitted": 6149,
  "\u2581afflicted": 6150,
  "\u2581arrive": 6151,
  "\u2581bus": 6152,
  "\u2581climate": 6153,
  "\u2581continually": 6154,
  "\u2581continuing": 6155,
  "\u2581deception": 6156,
  "\u2581ensure": 6157,
  "\u2581heat": 6158,
  "\u2581independence": 6159,
  "\u2581inspiring": 6160,
  "\u2581laione": 6161,
  "\u2581lomanivale": 6162,
  "\u2581memories": 6163,
  "\u2581native": 6164,
  "\u2581refreshment": 6165,
  "\u2581sole": 6166,
  "\u2581species": 6167,
  "\u2581striving": 6168,
  "\u2581vakabobulataki": 6169,
  "\u2581vakasucu": 6170,
  "\u2581vakawatitaka": 6171,
  "\u2581vuana": 6172,
  "19": 6173,
  "ge": 6174,
  "\u2581110": 6175,
  "\u25811991": 6176,
  "\u2581Calvin": 6177,
  "\u2581End": 6178,
  "\u2581Eroti": 6179,
  "\u2581Professor": 6180,
  "\u2581Speaking": 6181,
  "\u2581Walk": 6182,
  "\u2581Yabaki": 6183,
  "\u2581author": 6184,
  "\u2581characters": 6185,
  "\u2581conform": 6186,
  "\u2581empire": 6187,
  "\u2581figure": 6188,
  "\u2581g": 6189,
  "\u2581magiti": 6190,
  "\u2581positions": 6191,
  "\u2581sand": 6192,
  "\u2581selected": 6193,
  "\u2581tikidua": 6194,
  "\u2581vakailawaki": 6195,
  "\u2581vakaitabagone": 6196,
  "\u2581vakalesuya": 6197,
  "\u2581weigh": 6198,
  "mu": 6199,
  "vosavakacacataki": 6200,
  "\u25811953": 6201,
  "\u258120]": 6202,
  "\u2581Buli": 6203,
  "\u2581Centre": 6204,
  "\u2581Story": 6205,
  "\u2581dauvunau": 6206,
  "\u2581defense": 6207,
  "\u2581famine": 6208,
  "\u2581grass": 6209,
  "\u2581informed": 6210,
  "\u2581reflecting": 6211,
  "\u2581resort": 6212,
  "\u2581respects": 6213,
  "\u2581solve": 6214,
  "\u2581talked": 6215,
  "\u2581thrilled": 6216,
  "\u2581tivi": 6217,
  "\u2581utmost": 6218,
  "pp": 6219,
  "\u2581Albania": 6220,
  "\u2581Barnabas": 6221,
  "\u2581Divine": 6222,
  "\u2581Institute": 6223,
  "\u2581Meanwhile": 6224,
  "\u2581Vakirisi": 6225,
  "\u2581attracted": 6226,
  "\u2581catch": 6227,
  "\u2581disposition": 6228,
  "\u2581earn": 6229,
  "\u2581iSoqosoqo": 6230,
  "\u2581iTokani": 6231,
  "\u2581lower": 6232,
  "\u2581mentions": 6233,
  "\u2581refrain": 6234,
  "\u2581rendering": 6235,
  "\u2581shield": 6236,
  "\u2581sikalutu": 6237,
  "\u2581tamusuki": 6238,
  "\u2581urgency": 6239,
  "\u2581vakaicovitaki": 6240,
  "\u2581vakaulotu": 6241,
  "\u2581viewing": 6242,
  "ical": 6243,
  "tuburi": 6244,
  "\u2581Become": 6245,
  "\u2581Drau": 6246,
  "\u2581Moder": 6247,
  "\u2581b": 6248,
  "\u2581comforted": 6249,
  "\u2581crushed": 6250,
  "\u2581extraordinary": 6251,
  "\u2581intimate": 6252,
  "\u2581productive": 6253,
  "\u2581products": 6254,
  "\u2581receives": 6255,
  "\u2581revurevu": 6256,
  "\u2581stumble": 6257,
  "\u2581survey": 6258,
  "\u2581veituberi": 6259,
  "\u2581yield": 6260,
  "RE": 6261,
  "ite": 6262,
  "\u258143.": 6263,
  "\u2581Island": 6264,
  "\u2581Men": 6265,
  "\u2581Reapi": 6266,
  "\u2581backing": 6267,
  "\u2581bride": 6268,
  "\u2581haughty": 6269,
  "\u2581isususu": 6270,
  "\u2581jobs": 6271,
  "\u2581judged": 6272,
  "\u2581namely": 6273,
  "\u2581originally": 6274,
  "\u2581produces": 6275,
  "\u2581rage": 6276,
  "\u2581realistic": 6277,
  "\u2581tauvanua": 6278,
  "\u2581vain": 6279,
  "\u2581valataka": 6280,
  "\u2581weekly": 6281,
  "\u2581widespread": 6282,
  "tikinivolatabu": 6283,
  "\u25811957": 6284,
  "\u25811958": 6285,
  "\u25812015": 6286,
  "\u2581Bete": 6287,
  "\u2581Journal": 6288,
  "\u2581Mape": 6289,
  "\u2581Nasareci": 6290,
  "\u2581Phil": 6291,
  "\u2581TIKO": 6292,
  "\u2581VANUA": 6293,
  "\u2581avoided": 6294,
  "\u2581awe": 6295,
  "\u2581cicivaki": 6296,
  "\u2581favorable": 6297,
  "\u2581funds": 6298,
  "\u2581isenivalu": 6299,
  "\u2581ivakananumi": 6300,
  "\u2581neutral": 6301,
  "\u2581overwhelming": 6302,
  "\u2581paragraphs": 6303,
  "\u2581post": 6304,
  "\u2581producing": 6305,
  "\u2581upset": 6306,
  "\u2581vakailawalawa": 6307,
  "\u2581valelaca": 6308,
  "\u2581veitomani": 6309,
  "\u2581virtue": 6310,
  "W": 6311,
  "im": 6312,
  "ir": 6313,
  "\u2581130": 6314,
  "\u25811951": 6315,
  "\u2581Origen": 6316,
  "\u2581Samson": 6317,
  "\u2581ages": 6318,
  "\u2581begun": 6319,
  "\u2581contentment": 6320,
  "\u2581increasingly": 6321,
  "\u2581injury": 6322,
  "\u2581loud": 6323,
  "\u2581preachers": 6324,
  "\u2581pregnant": 6325,
  "\u2581presents": 6326,
  "\u2581promoted": 6327,
  "\u2581records": 6328,
  "\u2581rid": 6329,
  "\u2581robot": 6330,
  "\u2581sides": 6331,
  "\u2581sogo": 6332,
  "\u2581sources": 6333,
  "\u2581surprising": 6334,
  "\u2581tarabe": 6335,
  "\u2581tikinisiga": 6336,
  "\u2581tiny": 6337,
  "\u2581tongues": 6338,
  "\u2581unwise": 6339,
  "\u2581vakaliuliu": 6340,
  "\u2581veivakadeitaki": 6341,
  "Keimami": 6342,
  "siga": 6343,
  "there": 6344,
  "ton": 6345,
  "\u2581Ben": 6346,
  "\u2581DNA": 6347,
  "\u2581Easter": 6348,
  "\u2581Gal": 6349,
  "\u2581Imitate": 6350,
  "\u2581Jew": 6351,
  "\u2581Joy": 6352,
  "\u2581Psalms": 6353,
  "\u2581Purpose": 6354,
  "\u2581Tamamudou": 6355,
  "\u2581Truly": 6356,
  "\u2581Vakasamataki": 6357,
  "\u2581alakaolo": 6358,
  "\u2581associating": 6359,
  "\u2581character": 6360,
  "\u2581commitment": 6361,
  "\u2581commonly": 6362,
  "\u2581damudamu": 6363,
  "\u2581daulotu": 6364,
  "\u2581duties": 6365,
  "\u2581endless": 6366,
  "\u2581hit": 6367,
  "\u2581iVakatawa": 6368,
  "\u2581kabita": 6369,
  "\u2581malua": 6370,
  "\u2581meat": 6371,
  "\u2581metal": 6372,
  "\u2581obeyed": 6373,
  "\u2581prospects": 6374,
  "\u2581resurrect": 6375,
  "\u2581soldier": 6376,
  "\u2581strongly": 6377,
  "\u2581surrounding": 6378,
  "\u2581tempered": 6379,
  "\u2581traditions": 6380,
  "\u2581tuakaqu": 6381,
  "\u2581veisisivi": 6382,
  "\u2581veiyasana": 6383,
  "ha": 6384,
  "\u258163": 6385,
  "\u2581Andrew": 6386,
  "\u2581LIFE": 6387,
  "\u2581Last": 6388,
  "\u2581Little": 6389,
  "\u2581Marautaka": 6390,
  "\u2581Panapasa": 6391,
  "\u2581Peceliema": 6392,
  "\u2581Power": 6393,
  "\u2581Priest": 6394,
  "\u2581announced": 6395,
  "\u2581associations": 6396,
  "\u2581claims": 6397,
  "\u2581duikaikai": 6398,
  "\u2581examining": 6399,
  "\u2581happily": 6400,
  "\u2581highlighted": 6401,
  "\u2581ilawaki": 6402,
  "\u2581improper": 6403,
  "\u2581largest": 6404,
  "\u2581lewenikalasi": 6405,
  "\u2581priesthood": 6406,
  "\u2581proverb": 6407,
  "\u2581references": 6408,
  "\u2581requirement": 6409,
  "\u2581rokova": 6410,
  "\u2581succeeded": 6411,
  "\u2581supposed": 6412,
  "\u2581vagauna": 6413,
  "\u2581vakadinadina": 6414,
  "\u2581winter": 6415,
  "16": 6416,
  "ably": 6417,
  "disfellowshipped": 6418,
  "ucui": 6419,
  "vd": 6420,
  "\u2581104": 6421,
  "\u258146.": 6422,
  "\u2581Chinese": 6423,
  "\u2581Ghana": 6424,
  "\u2581Hitler": 6425,
  "\u2581Jos\u00e9": 6426,
  "\u2581Sitiveni": 6427,
  "\u2581Sotoma": 6428,
  "\u2581Tak": 6429,
  "\u2581Yearbook": 6430,
  "\u2581alongside": 6431,
  "\u2581billions": 6432,
  "\u2581buto": 6433,
  "\u2581cherish": 6434,
  "\u2581declaration": 6435,
  "\u2581despair": 6436,
  "\u2581explaining": 6437,
  "\u2581foremost": 6438,
  "\u2581globe": 6439,
  "\u2581handling": 6440,
  "\u2581host": 6441,
  "\u2581ivakadei": 6442,
  "\u2581measures": 6443,
  "\u2581passages": 6444,
  "\u2581periods": 6445,
  "\u2581presentation": 6446,
  "\u2581replace": 6447,
  "\u2581saumitaro": 6448,
  "\u2581seeds": 6449,
  "\u2581sports": 6450,
  "\u2581tawase": 6451,
  "\u2581ulunivuvale": 6452,
  "\u2581vakaJiu": 6453,
  "\u2581vukavuka": 6454,
  "arofesa": 6455,
  "doubtedly": 6456,
  "ira": 6457,
  "po": 6458,
  "yakavi": 6459,
  "\u258141.": 6460,
  "\u2581Ailadi": 6461,
  "\u2581Eric": 6462,
  "\u2581Kenya": 6463,
  "\u2581Likely": 6464,
  "\u2581Lodoni": 6465,
  "\u2581attractive": 6466,
  "\u2581ban": 6467,
  "\u2581bauga": 6468,
  "\u2581bears": 6469,
  "\u2581chronic": 6470,
  "\u2581deivaki": 6471,
  "\u2581estimated": 6472,
  "\u2581expand": 6473,
  "\u2581expose": 6474,
  "\u2581flow": 6475,
  "\u2581fruits": 6476,
  "\u2581graduates": 6477,
  "\u2581hurtful": 6478,
  "\u2581hypocrisy": 6479,
  "\u2581iTavi": 6480,
  "\u2581ivolavosa": 6481,
  "\u2581kedratou": 6482,
  "\u2581kuli": 6483,
  "\u2581larger": 6484,
  "\u2581luveda": 6485,
  "\u2581missing": 6486,
  "\u2581mothers": 6487,
  "\u2581musu": 6488,
  "\u2581permission": 6489,
  "\u2581practicing": 6490,
  "\u2581ririkotaki": 6491,
  "\u2581settle": 6492,
  "\u2581shame": 6493,
  "\u2581solevutaka": 6494,
  "\u2581spiritism": 6495,
  "\u2581staff": 6496,
  "\u2581takoso": 6497,
  "\u2581vakabalavu": 6498,
  "\u2581valagi": 6499,
  "\u2581waves": 6500,
  "\u2581wawale": 6501,
  "\u2581wood": 6502,
  "lar": 6503,
  "so": 6504,
  "sobuti": 6505,
  "x": 6506,
  "\u258197": 6507,
  "\u2581Absalom": 6508,
  "\u2581Iciopea": 6509,
  "\u2581Ninive": 6510,
  "\u2581Samisoni": 6511,
  "\u2581Vakavulici": 6512,
  "\u2581Western": 6513,
  "\u2581backgrounds": 6514,
  "\u2581dauvei": 6515,
  "\u2581detailed": 6516,
  "\u2581discouragement": 6517,
  "\u2581distributed": 6518,
  "\u2581farm": 6519,
  "\u2581feast": 6520,
  "\u2581flood": 6521,
  "\u2581generosity": 6522,
  "\u2581iVavakoso": 6523,
  "\u2581kauveilatai": 6524,
  "\u2581levea": 6525,
  "\u2581lokiloki": 6526,
  "\u2581materially": 6527,
  "\u2581neutrality": 6528,
  "\u2581prophesied": 6529,
  "\u2581rogorogo": 6530,
  "\u2581strike": 6531,
  "\u2581thorough": 6532,
  "\u2581tragic": 6533,
  "\u2581vakacoko": 6534,
  "\u2581veibuku": 6535,
  "\u2581version": 6536,
  "\u2581waste": 6537,
  "kawa": 6538,
  "lako": 6539,
  "rs": 6540,
  "ward": 6541,
  "\u2581Consequently": 6542,
  "\u2581Lines": 6543,
  "\u2581Malawi": 6544,
  "\u2581Qaravi": 6545,
  "\u2581Rahab": 6546,
  "\u2581Rd": 6547,
  "\u2581Sodom": 6548,
  "\u2581Vakavuvale": 6549,
  "\u2581advanced": 6550,
  "\u2581afford": 6551,
  "\u2581amazed": 6552,
  "\u2581composed": 6553,
  "\u2581demand": 6554,
  "\u2581difficulty": 6555,
  "\u2581experts": 6556,
  "\u2581fed": 6557,
  "\u2581fiery": 6558,
  "\u2581hoping": 6559,
  "\u2581icegu": 6560,
  "\u2581idols": 6561,
  "\u2581imitating": 6562,
  "\u2581incense": 6563,
  "\u2581itabatamata": 6564,
  "\u2581jealousy": 6565,
  "\u2581rebel": 6566,
  "\u2581restoration": 6567,
  "\u2581stands": 6568,
  "\u2581surgery": 6569,
  "\u2581teveli": 6570,
  "\u2581timi": 6571,
  "\u2581vakabisinisi": 6572,
  "\u2581vakavoui": 6573,
  "\u2581yalodei": 6574,
  "607": 6575,
  "tic": 6576,
  "\u2581$": 6577,
  "\u2581Col": 6578,
  "\u2581GA": 6579,
  "\u2581Mom": 6580,
  "\u2581Protestant": 6581,
  "\u2581RAICA": 6582,
  "\u2581Reading": 6583,
  "\u2581Tertullian": 6584,
  "\u2581Ulutaga": 6585,
  "\u2581appointment": 6586,
  "\u2581await": 6587,
  "\u2581confirm": 6588,
  "\u2581diabetes": 6589,
  "\u2581discover": 6590,
  "\u2581domoni": 6591,
  "\u2581iNaki": 6592,
  "\u2581keli": 6593,
  "\u2581ordinary": 6594,
  "\u2581outcry": 6595,
  "\u2581party": 6596,
  "\u2581permitted": 6597,
  "\u2581piece": 6598,
  "\u2581pity": 6599,
  "\u2581pleasures": 6600,
  "\u2581resentment": 6601,
  "\u2581reserved": 6602,
  "\u2581saving": 6603,
  "\u2581solisoli": 6604,
  "\u2581soso": 6605,
  "\u2581space": 6606,
  "\u2581struggling": 6607,
  "\u2581vakabete": 6608,
  "):": 6609,
  "Oi": 6610,
  "VV": 6611,
  "mi": 6612,
  "totaki": 6613,
  "\u258135,": 6614,
  "\u2581Benjamin": 6615,
  "\u2581Care": 6616,
  "\u2581Ireland": 6617,
  "\u2581Kelepi": 6618,
  "\u2581Money": 6619,
  "\u2581Tini": 6620,
  "\u2581Vakadewa": 6621,
  "\u2581Veisautaka": 6622,
  "\u2581bank": 6623,
  "\u2581clay": 6624,
  "\u2581facilities": 6625,
  "\u2581fought": 6626,
  "\u2581gentle": 6627,
  "\u2581goats": 6628,
  "\u2581happier": 6629,
  "\u2581homeland": 6630,
  "\u2581inakinaki": 6631,
  "\u2581madrali": 6632,
  "\u2581plenty": 6633,
  "\u2581qaciqacia": 6634,
  "\u2581raba": 6635,
  "\u2581select": 6636,
  "\u2581torova": 6637,
  "\u2581understands": 6638,
  "\u2581vakaivavakoso": 6639,
  "8": 6640,
  "gainst": 6641,
  "levu": 6642,
  "\u2581'!": 6643,
  "\u25811948": 6644,
  "\u2581ARTICLES": 6645,
  "\u2581Elders": 6646,
  "\u2581Insight": 6647,
  "\u2581Judge": 6648,
  "\u2581MY": 6649,
  "\u2581TEACHINGS": 6650,
  "\u2581base": 6651,
  "\u2581dreta": 6652,
  "\u2581falling": 6653,
  "\u2581favorably": 6654,
  "\u2581follows": 6655,
  "\u2581headship": 6656,
  "\u2581incident": 6657,
  "\u2581lines": 6658,
  "\u2581matadredredre": 6659,
  "\u2581proclaim": 6660,
  "\u2581publisher": 6661,
  "\u2581sanctified": 6662,
  "\u2581sharp": 6663,
  "\u2581somewhat": 6664,
  "\u2581tawavakabauta": 6665,
  "\u2581thrilling": 6666,
  "\u2581vakaveitacini": 6667,
  "\u2581wholeheartedly": 6668,
  "\u2581worthwhile": 6669,
  "J": 6670,
  "my": 6671,
  "they": 6672,
  "\u2581Islands": 6673,
  "\u2581Kune": 6674,
  "\u2581Language": 6675,
  "\u2581Persian": 6676,
  "\u2581Sanhedrin": 6677,
  "\u2581Stadium": 6678,
  "\u2581Volume": 6679,
  "\u2581armor": 6680,
  "\u2581chaste": 6681,
  "\u2581commented": 6682,
  "\u2581convince": 6683,
  "\u2581emphasized": 6684,
  "\u2581exact": 6685,
  "\u2581grows": 6686,
  "\u2581inclination": 6687,
  "\u2581lalawa": 6688,
  "\u2581lomasavu": 6689,
  "\u2581mokulaki": 6690,
  "\u2581owner": 6691,
  "\u2581paths": 6692,
  "\u2581perfectly": 6693,
  "\u2581senikau": 6694,
  "\u2581stumbling": 6695,
  "\u2581translators": 6696,
  "\u2581v": 6697,
  "\u2581vulaikatakata": 6698,
  "Sega": 6699,
  "now": 6700,
  "\u25811931": 6701,
  "\u258186": 6702,
  "\u2581Italian": 6703,
  "\u2581JIOVA": 6704,
  "\u2581Rogoca": 6705,
  "\u2581Theocratic": 6706,
  "\u2581adversity": 6707,
  "\u2581bore": 6708,
  "\u2581conquered": 6709,
  "\u2581disappointment": 6710,
  "\u2581ease": 6711,
  "\u2581entirely": 6712,
  "\u2581exercised": 6713,
  "\u2581garments": 6714,
  "\u2581honestly": 6715,
  "\u2581ignored": 6716,
  "\u2581koli": 6717,
  "\u2581leadership": 6718,
  "\u2581meantime": 6719,
  "\u2581politiki": 6720,
  "\u2581radio": 6721,
  "\u2581storm": 6722,
  "\u2581talatala": 6723,
  "\u2581vakawatitaki": 6724,
  "\u2581website": 6725,
  "\u2581weeds": 6726,
  "ong": 6727,
  "\u25811993": 6728,
  "\u2581Courtesy": 6729,
  "\u2581Egyptians": 6730,
  "\u2581Far": 6731,
  "\u2581Koliaci": 6732,
  "\u2581Minor": 6733,
  "\u2581Studies": 6734,
  "\u2581Vakalou": 6735,
  "\u2581Via": 6736,
  "\u2581Yaca": 6737,
  "\u2581board": 6738,
  "\u2581consult": 6739,
  "\u2581daubasulawa": 6740,
  "\u2581dedicate": 6741,
  "\u2581driver": 6742,
  "\u2581forest": 6743,
  "\u2581gunuvi": 6744,
  "\u2581immortal": 6745,
  "\u2581inspiration": 6746,
  "\u2581ito": 6747,
  "\u2581nuku": 6748,
  "\u2581psalm": 6749,
  "\u2581standpoint": 6750,
  "\u2581strange": 6751,
  "\u2581teens": 6752,
  "\u2581tukituki": 6753,
  "\u2581vakatikina": 6754,
  "\u2581veinuitaki": 6755,
  "\u2581veivakaroti": 6756,
  "\u2581veivorati": 6757,
  "\u2581yalana": 6758,
  "vakabobulataki": 6759,
  "\u00e3o": 6760,
  "\u258110.)": 6761,
  "\u258137,": 6762,
  "\u2581607": 6763,
  "\u2581Association": 6764,
  "\u2581Da": 6765,
  "\u2581Index": 6766,
  "\u2581Thessalonica": 6767,
  "\u2581Uganda": 6768,
  "\u2581abusive": 6769,
  "\u2581beat": 6770,
  "\u2581centered": 6771,
  "\u2581commend": 6772,
  "\u2581demands": 6773,
  "\u2581director": 6774,
  "\u2581earthquake": 6775,
  "\u2581extensive": 6776,
  "\u2581forgiven": 6777,
  "\u2581keen": 6778,
  "\u2581kidacala": 6779,
  "\u2581occurs": 6780,
  "\u2581press": 6781,
  "\u2581projects": 6782,
  "\u2581sentenced": 6783,
  "\u2581solika": 6784,
  "\u2581talents": 6785,
  "\u2581tremendous": 6786,
  "\u2581vakacaraka": 6787,
  "\u2581vakatikor": 6788,
  "\u2581yalogu": 6789,
  "Spanish": 6790,
  "com": 6791,
  "new": 6792,
  "\u25811935": 6793,
  "\u25811944": 6794,
  "\u2581600": 6795,
  "\u2581Eastern": 6796,
  "\u2581Friend": 6797,
  "\u2581Thereafter": 6798,
  "\u2581awaiting": 6799,
  "\u2581cultural": 6800,
  "\u2581enjoyable": 6801,
  "\u2581expensive": 6802,
  "\u2581fift": 6803,
  "\u2581gacagaca": 6804,
  "\u2581gasau": 6805,
  "\u2581gladly": 6806,
  "\u2581hopes": 6807,
  "\u2581illustrates": 6808,
  "\u2581iyatukawa": 6809,
  "\u2581permit": 6810,
  "\u2581respectful": 6811,
  "\u2581siteseni": 6812,
  "\u2581takosova": 6813,
  "\u2581tawasavasava": 6814,
  "\u2581timely": 6815,
  "\u2581unscriptural": 6816,
  "\u2581upper": 6817,
  "\u2581welcomed": 6818,
  "pai": 6819,
  "\u25811942": 6820,
  "\u258164": 6821,
  "\u2581Masitonia": 6822,
  "\u2581Rarawa": 6823,
  "\u2581Seed": 6824,
  "\u2581Shepherd": 6825,
  "\u2581adolescent": 6826,
  "\u2581concept": 6827,
  "\u2581cooperate": 6828,
  "\u2581iVurevure": 6829,
  "\u2581initially": 6830,
  "\u2581kamikamica": 6831,
  "\u2581kaunirarawa": 6832,
  "\u2581lasulasu": 6833,
  "\u2581lifetime": 6834,
  "\u2581perspective": 6835,
  "\u2581silence": 6836,
  "\u2581symptoms": 6837,
  "\u2581th": 6838,
  "\u2581vakaisini": 6839,
  "\u2581veisenitiuri": 6840,
  "\u2581veivavakoso": 6841,
  "\u2581warn": 6842,
  "\u2581weather": 6843,
  "537": 6844,
  "ng": 6845,
  "umani": 6846,
  "\u2581KALOU": 6847,
  "\u2581Kawa": 6848,
  "\u2581ON": 6849,
  "\u2581Pacific": 6850,
  "\u2581Philistines": 6851,
  "\u2581Qasenivuli": 6852,
  "\u2581Real": 6853,
  "\u2581Sanadrini": 6854,
  "\u2581UN": 6855,
  "\u2581Wise": 6856,
  "\u2581badly": 6857,
  "\u2581banned": 6858,
  "\u2581cadra": 6859,
  "\u2581classmates": 6860,
  "\u2581cloud": 6861,
  "\u2581coko": 6862,
  "\u2581confirmed": 6863,
  "\u2581daulomani": 6864,
  "\u2581forgotten": 6865,
  "\u2581guiguilecav": 6866,
  "\u2581immense": 6867,
  "\u2581imperfections": 6868,
  "\u2581implies": 6869,
  "\u2581ivukivuki": 6870,
  "\u2581judicial": 6871,
  "\u2581kele": 6872,
  "\u2581kingship": 6873,
  "\u2581needy": 6874,
  "\u2581ongoing": 6875,
  "\u2581perceive": 6876,
  "\u2581prefer": 6877,
  "\u2581previous": 6878,
  "\u2581prior": 6879,
  "\u2581prov": 6880,
  "\u2581reassuring": 6881,
  "\u2581taste": 6882,
  "\u2581thereby": 6883,
  "\u2581unfaithful": 6884,
  "\u2581vakamuria": 6885,
  "\u2581vakararawataka": 6886,
  "\u2581vakatututaka": 6887,
  "\u2581veitabagauna": 6888,
  "\u2581virtual": 6889,
  "\u2581vucesa": 6890,
  "Tiko": 6891,
  "ant": 6892,
  "ina": 6893,
  "\u258117.)": 6894,
  "\u2581Constantine": 6895,
  "\u2581Council": 6896,
  "\u2581Giving": 6897,
  "\u2581Goliath": 6898,
  "\u2581Jas": 6899,
  "\u2581Meal": 6900,
  "\u2581Rose": 6901,
  "\u2581Saipurusi": 6902,
  "\u2581aim": 6903,
  "\u2581ashamed": 6904,
  "\u2581bisovi": 6905,
  "\u2581collection": 6906,
  "\u2581contribution": 6907,
  "\u2581deceptive": 6908,
  "\u2581deepen": 6909,
  "\u2581doors": 6910,
  "\u2581du": 6911,
  "\u2581electronic": 6912,
  "\u2581fair": 6913,
  "\u2581hears": 6914,
  "\u2581intentions": 6915,
  "\u2581lomadonu": 6916,
  "\u2581loya": 6917,
  "\u2581minor": 6918,
  "\u2581neglect": 6919,
  "\u2581reminder": 6920,
  "\u2581ridicule": 6921,
  "\u2581shut": 6922,
  "\u2581smile": 6923,
  "\u2581sovarak": 6924,
  "\u2581speed": 6925,
  "\u2581sugar": 6926,
  "\u2581theory": 6927,
  "\u2581traditional": 6928,
  "\u2581university": 6929,
  "\u2581urgent": 6930,
  "\u2581vakayacoka": 6931,
  "\u2581valley": 6932,
  "ck": 6933,
  "love": 6934,
  "most": 6935,
  "\u25811938": 6936,
  "\u258138,": 6937,
  "\u2581Alex": 6938,
  "\u2581Gentiles": 6939,
  "\u2581Had": 6940,
  "\u2581Necaladi": 6941,
  "\u2581Nuitaki": 6942,
  "\u2581Seviteba": 6943,
  "\u2581Talanoatak": 6944,
  "\u2581accurately": 6945,
  "\u2581border": 6946,
  "\u2581buildings": 6947,
  "\u2581commended": 6948,
  "\u2581commercial": 6949,
  "\u2581delay": 6950,
  "\u2581desperate": 6951,
  "\u2581distressing": 6952,
  "\u2581exemplary": 6953,
  "\u2581lavetaka": 6954,
  "\u2581luveniyali": 6955,
  "\u2581marriages": 6956,
  "\u2581phrase": 6957,
  "\u2581protects": 6958,
  "\u2581repair": 6959,
  "\u2581resident": 6960,
  "\u2581rob": 6961,
  "\u2581shape": 6962,
  "\u2581transferred": 6963,
  "\u2581vakatikitiki": 6964,
  "\u2581watched": 6965,
  "\u2581yalomudou": 6966,
  "\u2581yalovosovoso": 6967,
  "from": 6968,
  "id": 6969,
  "\u25811513": 6970,
  "\u258159": 6971,
  "\u258191": 6972,
  "\u2581Filipaini": 6973,
  "\u2581Loving": 6974,
  "\u2581Middle": 6975,
  "\u2581Sandra": 6976,
  "\u2581Siberia": 6977,
  "\u2581Ten": 6978,
  "\u2581Vuniwai": 6979,
  "\u2581Washington": 6980,
  "\u2581Worldwide": 6981,
  "\u2581apostate": 6982,
  "\u2581belonging": 6983,
  "\u2581classes": 6984,
  "\u2581dai": 6985,
  "\u2581daunivakasala": 6986,
  "\u2581enhance": 6987,
  "\u2581fault": 6988,
  "\u2581gusuna": 6989,
  "\u2581isala": 6990,
  "\u2581kanavata": 6991,
  "\u2581lasutaki": 6992,
  "\u2581lecaika": 6993,
  "\u2581mamada": 6994,
  "\u2581rapidly": 6995,
  "\u2581retio": 6996,
  "\u2581separated": 6997,
  "\u2581sky": 6998,
  "\u2581spring": 6999,
  "\u2581unbelievers": 7000,
  "\u2581unknown": 7001,
  "\u2581vakamua": 7002,
  "\u2581vakarogoya": 7003,
  "ER": 7004,
  "vakavakayagataki": 7005,
  "\u2581100,000": 7006,
  "\u258130]": 7007,
  "\u2581Barr": 7008,
  "\u2581Evening": 7009,
  "\u2581Kora": 7010,
  "\u2581LUK": 7011,
  "\u2581Necani": 7012,
  "\u2581acquired": 7013,
  "\u2581actively": 7014,
  "\u2581captivity": 7015,
  "\u2581commissioned": 7016,
  "\u2581creative": 7017,
  "\u2581fuel": 7018,
  "\u2581horse": 7019,
  "\u2581internet": 7020,
  "\u2581journal": 7021,
  "\u2581kaulotu": 7022,
  "\u2581qaqi": 7023,
  "\u2581sakitaka": 7024,
  "\u2581stating": 7025,
  "\u2581succumb": 7026,
  "\u2581viakana": 7027,
  "\u2581vine": 7028,
  "15": 7029,
  "Kaku": 7030,
  "So": 7031,
  "ance": 7032,
  "nona": 7033,
  "vuku": 7034,
  "\u25811949": 7035,
  "\u25811956": 7036,
  "\u2581Antioch": 7037,
  "\u2581Certainly": 7038,
  "\u2581Ilai": 7039,
  "\u2581Interestingly": 7040,
  "\u2581Leads": 7041,
  "\u2581Manasseh": 7042,
  "\u2581Paulo": 7043,
  "\u2581Polish": 7044,
  "\u2581TALE": 7045,
  "\u2581Taiwan": 7046,
  "\u2581Waldenses": 7047,
  "\u2581arrest": 7048,
  "\u2581attempts": 7049,
  "\u2581constitute": 7050,
  "\u2581disposed": 7051,
  "\u2581drokadroka": 7052,
  "\u2581fat": 7053,
  "\u2581favorite": 7054,
  "\u2581feared": 7055,
  "\u2581forbidden": 7056,
  "\u2581founded": 7057,
  "\u2581gracious": 7058,
  "\u2581green": 7059,
  "\u2581heartwarming": 7060,
  "\u2581iValavala": 7061,
  "\u2581kainoda": 7062,
  "\u2581lean": 7063,
  "\u2581ligamu": 7064,
  "\u2581masima": 7065,
  "\u2581offended": 7066,
  "\u2581performing": 7067,
  "\u2581pour": 7068,
  "\u2581product": 7069,
  "\u2581streets": 7070,
  "\u2581tavaya": 7071,
  "\u2581territories": 7072,
  "\u2581touching": 7073,
  "\u2581tract": 7074,
  "\u2581vakaparofisai": 7075,
  "\u2581vakarauta": 7076,
  "\u2581wings": 7077,
  "\u2581wishes": 7078,
  "Kua": 7079,
  "RA": 7080,
  "dicating": 7081,
  "dra": 7082,
  "put": 7083,
  "ul": 7084,
  "\u258110,000": 7085,
  "\u258135:": 7086,
  "\u258158": 7087,
  "\u2581Arthur": 7088,
  "\u2581California": 7089,
  "\u2581Highlights": 7090,
  "\u2581Nothing": 7091,
  "\u2581Patterson": 7092,
  "\u2581Teacher": 7093,
  "\u2581attribute": 7094,
  "\u2581butakoca": 7095,
  "\u2581cavuqaqataka": 7096,
  "\u2581contributions": 7097,
  "\u2581disobey": 7098,
  "\u2581double": 7099,
  "\u2581emphasis": 7100,
  "\u2581falls": 7101,
  "\u2581guests": 7102,
  "\u2581ivadi": 7103,
  "\u2581judgments": 7104,
  "\u2581mobail": 7105,
  "\u2581oldest": 7106,
  "\u2581sing": 7107,
  "\u2581span": 7108,
  "\u2581staying": 7109,
  "\u2581suit": 7110,
  "\u2581vakacavari": 7111,
  "\u2581vakalalai": 7112,
  "\u2581vakanadakui": 7113,
  "\u2581villages": 7114,
  "\u2581waki": 7115,
  "At": 7116,
  "Come": 7117,
  "Jisu": 7118,
  "Our": 7119,
  "Photo": 7120,
  "eitou": 7121,
  "\u2581Akeai": 7122,
  "\u2581Alexandria": 7123,
  "\u2581Child": 7124,
  "\u2581Cyrus": 7125,
  "\u2581Jeme": 7126,
  "\u2581Korah": 7127,
  "\u2581Mr": 7128,
  "\u2581Ones": 7129,
  "\u2581apostasy": 7130,
  "\u2581bikai": 7131,
  "\u2581cavuraka": 7132,
  "\u2581crown": 7133,
  "\u2581diet": 7134,
  "\u2581dodok": 7135,
  "\u2581execute": 7136,
  "\u2581gatherings": 7137,
  "\u2581handled": 7138,
  "\u2581lekata": 7139,
  "\u2581lift": 7140,
  "\u2581nimataka": 7141,
  "\u2581proves": 7142,
  "\u2581richly": 7143,
  "\u2581roof": 7144,
  "\u2581seu": 7145,
  "\u2581teenagers": 7146,
  "\u2581tobacco": 7147,
  "\u2581unselfish": 7148,
  "\u2581vakalevulevui": 7149,
  "\u2581vakamatauni": 7150,
  "\u2581vakavolekati": 7151,
  "\u2581vatavatairalago": 7152,
  "\u2581volume": 7153,
  "\u2581yawaka": 7154,
  "was": 7155,
  "\u2581(1": 7156,
  "\u2581700": 7157,
  "\u2581Answers": 7158,
  "\u2581Babylonians": 7159,
  "\u2581Everlasting": 7160,
  "\u2581Gary": 7161,
  "\u2581Ma": 7162,
  "\u2581Nazareth": 7163,
  "\u2581Person": 7164,
  "\u2581Self": 7165,
  "\u2581Uasivi": 7166,
  "\u2581Ur": 7167,
  "\u2581bacani": 7168,
  "\u2581bit": 7169,
  "\u2581cudruvaka": 7170,
  "\u2581delegates": 7171,
  "\u2581diligently": 7172,
  "\u2581dulaka": 7173,
  "\u2581empathy": 7174,
  "\u2581imadrali": 7175,
  "\u2581independent": 7176,
  "\u2581lady": 7177,
  "\u2581maikina": 7178,
  "\u2581materials": 7179,
  "\u2581moments": 7180,
  "\u2581nanamaki": 7181,
  "\u2581offices": 7182,
  "\u2581overlook": 7183,
  "\u2581plain": 7184,
  "\u2581praised": 7185,
  "\u2581requests": 7186,
  "\u2581roll": 7187,
  "\u2581sites": 7188,
  "\u2581snow": 7189,
  "\u2581sogota": 7190,
  "\u2581symbolized": 7191,
  "\u2581trap": 7192,
  "\u2581vakadikevi": 7193,
  "\u2581vary": 7194,
  "\u2581womb": 7195,
  "Oni": 7196,
  "ious": 7197,
  "yalo": 7198,
  "\u25811922": 7199,
  "\u2581ABOUT": 7200,
  "\u2581Bolivia": 7201,
  "\u2581Brothers": 7202,
  "\u2581Chart": 7203,
  "\u2581Galileo": 7204,
  "\u2581Jehu": 7205,
  "\u2581Jericho": 7206,
  "\u2581Jeu": 7207,
  "\u2581Kala": 7208,
  "\u2581Madagascar": 7209,
  "\u2581Matata": 7210,
  "\u2581Reign": 7211,
  "\u2581Salvador": 7212,
  "\u2581Teaching": 7213,
  "\u2581Volu": 7214,
  "\u2581adhere": 7215,
  "\u2581apartment": 7216,
  "\u2581benu": 7217,
  "\u2581branches": 7218,
  "\u2581crying": 7219,
  "\u2581disorder": 7220,
  "\u2581duty": 7221,
  "\u2581entering": 7222,
  "\u2581exclaimed": 7223,
  "\u2581identifie": 7224,
  "\u2581labati": 7225,
  "\u2581latter": 7226,
  "\u2581magnificent": 7227,
  "\u2581memorial": 7228,
  "\u2581naturally": 7229,
  "\u2581petitions": 7230,
  "\u2581protective": 7231,
  "\u2581qali": 7232,
  "\u2581ribayawa": 7233,
  "\u2581sereka": 7234,
  "\u2581shadow": 7235,
  "\u2581synagogue": 7236,
  "\u2581tomorrow": 7237,
  "\u2581transform": 7238,
  "\u2581truthfulness": 7239,
  "\u2581ultimately": 7240,
  "\u2581vakaMesaia": 7241,
  "\u2581veimataka": 7242,
  "17": 7243,
  "can": 7244,
  "ent": 7245,
  "ial": 7246,
  "\u2581ANSWERED": 7247,
  "\u2581Central": 7248,
  "\u2581Lives": 7249,
  "\u2581Lloyd": 7250,
  "\u2581Manasa": 7251,
  "\u2581Neither": 7252,
  "\u2581Plann": 7253,
  "\u2581Regardless": 7254,
  "\u2581absolutely": 7255,
  "\u2581cila": 7256,
  "\u2581dauvakatulewa": 7257,
  "\u2581dramatic": 7258,
  "\u2581dravuisiga": 7259,
  "\u2581embrace": 7260,
  "\u2581exercises": 7261,
  "\u2581forefathers": 7262,
  "\u2581italai": 7263,
  "\u2581market": 7264,
  "\u2581multitude": 7265,
  "\u2581nakiti": 7266,
  "\u2581narrow": 7267,
  "\u2581reduced": 7268,
  "\u2581seated": 7269,
  "\u2581sowing": 7270,
  "\u2581structure": 7271,
  "\u2581systems": 7272,
  "\u2581uncleanness": 7273,
  "\u2581vakadrukai": 7274,
  "14": 7275,
  "\u25811963": 7276,
  "\u2581Belgium": 7277,
  "\u2581CAN": 7278,
  "\u2581Coliseum": 7279,
  "\u2581Poland": 7280,
  "\u2581RAI": 7281,
  "\u2581Samaritan": 7282,
  "\u2581Science": 7283,
  "\u2581Vakaevei": 7284,
  "\u2581Vakaiperiu": 7285,
  "\u2581Veitikin": 7286,
  "\u2581Women": 7287,
  "\u2581agilose": 7288,
  "\u2581arrives": 7289,
  "\u2581cakacakataki": 7290,
  "\u2581condemn": 7291,
  "\u2581developments": 7292,
  "\u2581devote": 7293,
  "\u2581drega": 7294,
  "\u2581feeding": 7295,
  "\u2581impart": 7296,
  "\u2581lamp": 7297,
  "\u2581levulevu": 7298,
  "\u2581lewenikoro": 7299,
  "\u2581lewenimanumanu": 7300,
  "\u2581lonely": 7301,
  "\u2581meals": 7302,
  "\u2581moici": 7303,
  "\u2581naba": 7304,
  "\u2581peresitedi": 7305,
  "\u2581roads": 7306,
  "\u2581romantic": 7307,
  "\u2581round": 7308,
  "\u2581sheba": 7309,
  "\u2581shepherding": 7310,
  "\u2581sounds": 7311,
  "\u2581steal": 7312,
  "\u2581tabavale": 7313,
  "\u2581tugan": 7314,
  "\u2581vakasaqa": 7315,
  "\u2581valelailai": 7316,
  "\u2581vosakudrukudru": 7317,
  "CIU": 7318,
  "ated": 7319,
  "cakacaka": 7320,
  "gave": 7321,
  "ter": 7322,
  "\u2581133": 7323,
  "\u2581139": 7324,
  "\u258122]": 7325,
  "\u2581Actually": 7326,
  "\u2581Andr\u00e9": 7327,
  "\u2581China": 7328,
  "\u2581Continue": 7329,
  "\u2581ISSUE": 7330,
  "\u2581Lomani": 7331,
  "\u2581Nomuni": 7332,
  "\u2581Part": 7333,
  "\u2581Pasifika": 7334,
  "\u2581Savasava": 7335,
  "\u2581armed": 7336,
  "\u2581ate": 7337,
  "\u2581criminal": 7338,
  "\u2581cure": 7339,
  "\u2581deny": 7340,
  "\u2581emperor": 7341,
  "\u2581employer": 7342,
  "\u2581function": 7343,
  "\u2581guarantee": 7344,
  "\u2581hardship": 7345,
  "\u2581ilutua": 7346,
  "\u2581improved": 7347,
  "\u2581isema": 7348,
  "\u2581loose": 7349,
  "\u2581oath": 7350,
  "\u2581occasionally": 7351,
  "\u2581originate": 7352,
  "\u2581sinner": 7353,
  "\u2581stressed": 7354,
  "\u2581tikitiki": 7355,
  "\u2581tool": 7356,
  "\u2581towns": 7357,
  "\u2581treacherous": 7358,
  "\u2581vakatavulici": 7359,
  "\u2581veibiu": 7360,
  "\u2581vicious": 7361,
  "\u2581vuca": 7362,
  "\u2581wearing": 7363,
  "\u2581yala": 7364,
  "ig": 7365,
  "kati": 7366,
  "ovolea": 7367,
  "vakatautauvata": 7368,
  "\u25811992": 7369,
  "\u2581Aceni": 7370,
  "\u2581Cala": 7371,
  "\u2581Catholics": 7372,
  "\u2581EDA": 7373,
  "\u2581Ocean": 7374,
  "\u2581Philippi": 7375,
  "\u2581Thousands": 7376,
  "\u2581adding": 7377,
  "\u2581batikadi": 7378,
  "\u2581beitaka": 7379,
  "\u2581breath": 7380,
  "\u2581copper": 7381,
  "\u2581dairekita": 7382,
  "\u2581dating": 7383,
  "\u2581deed": 7384,
  "\u2581delightful": 7385,
  "\u2581destination": 7386,
  "\u2581evangelizers": 7387,
  "\u2581examined": 7388,
  "\u2581foods": 7389,
  "\u2581fortify": 7390,
  "\u2581game": 7391,
  "\u2581glorified": 7392,
  "\u2581hall": 7393,
  "\u2581hinder": 7394,
  "\u2581individually": 7395,
  "\u2581ivolacebaceba": 7396,
  "\u2581katona": 7397,
  "\u2581onto": 7398,
  "\u2581outright": 7399,
  "\u2581prime": 7400,
  "\u2581safely": 7401,
  "\u2581saqa": 7402,
  "\u2581sexually": 7403,
  "\u2581spreading": 7404,
  "\u2581submission": 7405,
  "\u2581supplication": 7406,
  "\u2581tries": 7407,
  "\u2581veisereki": 7408,
  "\u2581vessel": 7409,
  "Now": 7410,
  "Sai": 7411,
  "rich": 7412,
  "\u2581(5)": 7413,
  "\u2581Accordingly": 7414,
  "\u2581Head": 7415,
  "\u2581Jersey": 7416,
  "\u2581SEE": 7417,
  "\u2581Seeing": 7418,
  "\u2581Tahiti": 7419,
  "\u2581Wessel": 7420,
  "\u2581belonged": 7421,
  "\u2581betena": 7422,
  "\u2581blesses": 7423,
  "\u2581ciba": 7424,
  "\u2581connected": 7425,
  "\u2581drotaka": 7426,
  "\u2581gross": 7427,
  "\u2581immortality": 7428,
  "\u2581indication": 7429,
  "\u2581lavo": 7430,
  "\u2581legs": 7431,
  "\u2581mamadua": 7432,
  "\u2581manumanuvuka": 7433,
  "\u2581mission": 7434,
  "\u2581partake": 7435,
  "\u2581president": 7436,
  "\u2581proclaimed": 7437,
  "\u2581representatives": 7438,
  "\u2581roots": 7439,
  "\u2581spared": 7440,
  "\u2581star": 7441,
  "\u2581taka": 7442,
  "\u2581tasks": 7443,
  "\u2581unnecessary": 7444,
  "\u2581vakadavedra": 7445,
  "\u2581veikabula": 7446,
  "\u2581veivunauci": 7447,
  "\u2581vure": 7448,
  "\u2581worst": 7449,
  "\u2581yamata": 7450,
  "\u2581yame": 7451,
  "ah": 7452,
  "dauvolaitukutuku": 7453,
  "gi": 7454,
  "ns": 7455,
  "turaga": 7456,
  "vinaka": 7457,
  "\u25813.)": 7458,
  "\u2581Ann": 7459,
  "\u2581Balet": 7460,
  "\u2581Branch": 7461,
  "\u2581Cultivat": 7462,
  "\u2581Damudamu": 7463,
  "\u2581Haggai": 7464,
  "\u2581Light": 7465,
  "\u2581Listen": 7466,
  "\u2581Louis": 7467,
  "\u2581Mozambique": 7468,
  "\u2581Parisi": 7469,
  "\u2581RAWA": 7470,
  "\u2581Sabbath": 7471,
  "\u2581Sin": 7472,
  "\u2581Sisera": 7473,
  "\u2581Veivakavulici": 7474,
  "\u2581actual": 7475,
  "\u2581apostates": 7476,
  "\u2581attached": 7477,
  "\u2581bonds": 7478,
  "\u2581bulubulu": 7479,
  "\u2581buried": 7480,
  "\u2581comforts": 7481,
  "\u2581conquest": 7482,
  "\u2581containing": 7483,
  "\u2581cooperation": 7484,
  "\u2581destructive": 7485,
  "\u2581governor": 7486,
  "\u2581headed": 7487,
  "\u2581heritage": 7488,
  "\u2581ikalima": 7489,
  "\u2581ikeli": 7490,
  "\u2581judging": 7491,
  "\u2581kivei": 7492,
  "\u2581lawlessness": 7493,
  "\u2581momona": 7494,
  "\u2581pains": 7495,
  "\u2581refugees": 7496,
  "\u2581repay": 7497,
  "\u2581sacrificial": 7498,
  "\u2581scribes": 7499,
  "\u2581survival": 7500,
  "\u2581taravale": 7501,
  "\u2581teenage": 7502,
  "\u2581vagalalataki": 7503,
  "\u2581vakasavasavatak": 7504,
  "\u2581vakatavulica": 7505,
  "\u2581valenikana": 7506,
  "\u2581vugona": 7507,
  "\u2581warmly": 7508,
  "\u2581worshipped": 7509,
  "\u2581worthless": 7510,
  "cal": 7511,
  "rew": 7512,
  "\u258141,": 7513,
  "\u2581Denmark": 7514,
  "\u2581Jan": 7515,
  "\u2581Obviously": 7516,
  "\u2581PEOPLE": 7517,
  "\u2581Park": 7518,
  "\u2581SUCU": 7519,
  "\u2581Sheol": 7520,
  "\u2581Vakatulewa": 7521,
  "\u2581Victoria": 7522,
  "\u2581Yalomalumalumu": 7523,
  "\u2581apparent": 7524,
  "\u2581buawa": 7525,
  "\u2581butakoci": 7526,
  "\u2581communities": 7527,
  "\u2581consist": 7528,
  "\u2581cutting": 7529,
  "\u2581deserves": 7530,
  "\u2581dressed": 7531,
  "\u2581fika": 7532,
  "\u2581fruitful": 7533,
  "\u2581funeral": 7534,
  "\u2581ikelekele": 7535,
  "\u2581imitation": 7536,
  "\u2581kadre": 7537,
  "\u2581mob": 7538,
  "\u2581planned": 7539,
  "\u2581purposed": 7540,
  "\u2581recommended": 7541,
  "\u2581route": 7542,
  "\u2581sivita": 7543,
  "\u2581snare": 7544,
  "\u2581sorry": 7545,
  "\u2581tekia": 7546,
  "\u2581tendencies": 7547,
  "\u2581vakadomoilevu": 7548,
  "\u2581vakaicili": 7549,
  "\u2581vakamautaki": 7550,
  "\u2581vakawelewele": 7551,
  "\u2581wash": 7552,
  "\u2581yaloyalo": 7553,
  "Koi": 7554,
  "ius": 7555,
  "op": 7556,
  "tadu": 7557,
  "\u25811961": 7558,
  "\u2581Apply": 7559,
  "\u2581Happily": 7560,
  "\u2581Jeriko": 7561,
  "\u2581Karl": 7562,
  "\u2581Saioni": 7563,
  "\u2581Suppose": 7564,
  "\u2581WHO": 7565,
  "\u2581ciri": 7566,
  "\u2581colacola": 7567,
  "\u2581crisis": 7568,
  "\u2581define": 7569,
  "\u2581deliberately": 7570,
  "\u2581disastrous": 7571,
  "\u2581dreams": 7572,
  "\u2581ekea": 7573,
  "\u2581exclusive": 7574,
  "\u2581expresse": 7575,
  "\u2581garment": 7576,
  "\u2581infant": 7577,
  "\u2581kete": 7578,
  "\u2581logical": 7579,
  "\u2581oversight": 7580,
  "\u2581prominence": 7581,
  "\u2581rebels": 7582,
  "\u2581recalled": 7583,
  "\u2581rivers": 7584,
  "\u2581scrolls": 7585,
  "\u2581strict": 7586,
  "\u2581ucacevata": 7587,
  "\u2581vakailiu": 7588,
  "\u2581vakarokorokotak": 7589,
  "\u2581vakataroga": 7590,
  "\u2581vulaililiwa": 7591,
  "\u2581wasewase": 7592,
  "\u2581yagomu": 7593,
  "24": 7594,
  "OLD": 7595,
  "Turaga": 7596,
  "cy": 7597,
  "si": 7598,
  "specially": 7599,
  "\u25811952": 7600,
  "\u25811971": 7601,
  "\u258184": 7602,
  "\u2581Barak": 7603,
  "\u2581Benin": 7604,
  "\u2581Cyprus": 7605,
  "\u2581Elizabeth": 7606,
  "\u2581Humans": 7607,
  "\u2581Point": 7608,
  "\u2581Report": 7609,
  "\u2581Third": 7610,
  "\u2581Uri": 7611,
  "\u2581Very": 7612,
  "\u2581Vinakata": 7613,
  "\u2581cleaning": 7614,
  "\u2581comply": 7615,
  "\u2581conquer": 7616,
  "\u2581curse": 7617,
  "\u2581damaged": 7618,
  "\u2581dauvakadewa": 7619,
  "\u2581doctrines": 7620,
  "\u2581enjoyment": 7621,
  "\u2581fierce": 7622,
  "\u2581flight": 7623,
  "\u2581focusing": 7624,
  "\u2581fond": 7625,
  "\u2581iTubutubu": 7626,
  "\u2581kaci": 7627,
  "\u2581killing": 7628,
  "\u2581link": 7629,
  "\u2581mape": 7630,
  "\u2581matataka": 7631,
  "\u2581match": 7632,
  "\u2581offense": 7633,
  "\u2581robota": 7634,
  "\u2581skill": 7635,
  "\u2581souled": 7636,
  "\u2581stupid": 7637,
  "\u2581submitt": 7638,
  "\u2581totogi": 7639,
  "\u2581unrepentant": 7640,
  "\u2581vaqaqara": 7641,
  "\u2581volunteer": 7642,
  "\u2581vutu": 7643,
  "Qo": 7644,
  "TALANOATAK": 7645,
  "Tukutuku": 7646,
  "age": 7647,
  "muria": 7648,
  "tikivi": 7649,
  "\u2581Apisalomi": 7650,
  "\u2581Bath": 7651,
  "\u2581Christlike": 7652,
  "\u2581Guide": 7653,
  "\u2581Helen": 7654,
  "\u2581Nineveh": 7655,
  "\u2581Philippines": 7656,
  "\u2581Rule": 7657,
  "\u2581Strong": 7658,
  "\u2581combined": 7659,
  "\u2581conclusions": 7660,
  "\u2581crucial": 7661,
  "\u2581devastating": 7662,
  "\u2581dishonor": 7663,
  "\u2581documents": 7664,
  "\u2581envy": 7665,
  "\u2581frequent": 7666,
  "\u2581greatness": 7667,
  "\u2581greedy": 7668,
  "\u2581iNuinui": 7669,
  "\u2581iTuvaki": 7670,
  "\u2581instruct": 7671,
  "\u2581katubaleka": 7672,
  "\u2581liked": 7673,
  "\u2581morality": 7674,
  "\u2581normally": 7675,
  "\u2581port": 7676,
  "\u2581progressed": 7677,
  "\u2581rare": 7678,
  "\u2581selfishness": 7679,
  "\u2581spot": 7680,
  "\u2581suasua": 7681,
  "\u2581surroundings": 7682,
  "\u2581target": 7683,
  "\u2581veilewaitaki": 7684,
  "\u2581veimurimuri": 7685,
  "\u2581veivakarerei": 7686,
  "nated": 7687,
  "tou": 7688,
  "vakatorocaketaki": 7689,
  "\u258109": 7690,
  "\u2581Changes": 7691,
  "\u2581Dauveipapitaiso": 7692,
  "\u2581Hungary": 7693,
  "\u2581Japanese": 7694,
  "\u2581Kolo": 7695,
  "\u2581Portuguese": 7696,
  "\u2581QO": 7697,
  "\u2581Say": 7698,
  "\u2581Tell": 7699,
  "\u2581Ulu": 7700,
  "\u2581absolute": 7701,
  "\u2581advantages": 7702,
  "\u2581arriving": 7703,
  "\u2581broad": 7704,
  "\u2581cease": 7705,
  "\u2581celebrate": 7706,
  "\u2581codex": 7707,
  "\u2581concludes": 7708,
  "\u2581counseled": 7709,
  "\u2581devastated": 7710,
  "\u2581earthquakes": 7711,
  "\u2581equipment": 7712,
  "\u2581foreigners": 7713,
  "\u2581ikabakaba": 7714,
  "\u2581immune": 7715,
  "\u2581managed": 7716,
  "\u2581misled": 7717,
  "\u2581pair": 7718,
  "\u2581perish": 7719,
  "\u2581proclaiming": 7720,
  "\u2581production": 7721,
  "\u2581rekitaki": 7722,
  "\u2581rivarivabitaki": 7723,
  "\u2581schoolmates": 7724,
  "\u2581seat": 7725,
  "\u2581secretary": 7726,
  "\u2581sow": 7727,
  "\u2581tautuba": 7728,
  "\u2581topics": 7729,
  "\u2581tower": 7730,
  "\u2581transfusions": 7731,
  "\u2581wages": 7732,
  "\u2581weaken": 7733,
  "\u2581worshipp": 7734,
  "18": 7735,
  "LY": 7736,
  "mo": 7737,
  "v": 7738,
  "who": 7739,
  "\u25811,500": 7740,
  "\u25812]": 7741,
  "\u258148.": 7742,
  "\u25816,000": 7743,
  "\u2581Anitioki": 7744,
  "\u2581Antonio": 7745,
  "\u2581Archives": 7746,
  "\u2581Bas": 7747,
  "\u2581Dan": 7748,
  "\u2581Pacisepa": 7749,
  "\u2581Peraki": 7750,
  "\u2581absorbed": 7751,
  "\u2581analyze": 7752,
  "\u2581complaint": 7753,
  "\u2581declares": 7754,
  "\u2581domestic": 7755,
  "\u2581exhortation": 7756,
  "\u2581festivals": 7757,
  "\u2581generations": 7758,
  "\u2581iVakasala": 7759,
  "\u2581iukuuku": 7760,
  "\u2581ivakatekivu": 7761,
  "\u2581ivua": 7762,
  "\u2581jealous": 7763,
  "\u2581ligamuni": 7764,
  "\u2581manage": 7765,
  "\u2581owe": 7766,
  "\u2581preacher": 7767,
  "\u2581renewed": 7768,
  "\u2581rose": 7769,
  "\u2581session": 7770,
  "\u2581stream": 7771,
  "\u2581tosoi": 7772,
  "\u2581vakataulewa": 7773,
  "\u2581vakatulewataki": 7774,
  "\u2581vuvutaki": 7775,
  "\u2581wage": 7776,
  "ak": 7777,
  "ee": 7778,
  "if": 7779,
  "ists": 7780,
  "\u2581Author": 7781,
  "\u2581Caleb": 7782,
  "\u2581Ecuador": 7783,
  "\u2581Ever": 7784,
  "\u2581Food": 7785,
  "\u2581Honor": 7786,
  "\u2581Jehoshaphat": 7787,
  "\u2581Lett": 7788,
  "\u2581Santa": 7789,
  "\u2581Together": 7790,
  "\u2581Vulgate": 7791,
  "\u2581YAGA": 7792,
  "\u2581boldly": 7793,
  "\u2581bulataki": 7794,
  "\u2581educated": 7795,
  "\u2581emblems": 7796,
  "\u2581festival": 7797,
  "\u2581fixed": 7798,
  "\u2581fomu": 7799,
  "\u2581harder": 7800,
  "\u2581heirs": 7801,
  "\u2581itau": 7802,
  "\u2581lifted": 7803,
  "\u2581loneliness": 7804,
  "\u2581necessities": 7805,
  "\u2581noteworthy": 7806,
  "\u2581parallel": 7807,
  "\u2581pepa": 7808,
  "\u2581prey": 7809,
  "\u2581sessions": 7810,
  "\u2581siblings": 7811,
  "\u2581solevutaki": 7812,
  "\u2581stable": 7813,
  "\u2581tarataravaki": 7814,
  "\u2581ultimate": 7815,
  "\u2581vakanomodi": 7816,
  "\u2581vakayauyau": 7817,
  "\u2581vavaku": 7818,
  "CH": 7819,
  "Christ": 7820,
  "ISH": 7821,
  "LSO": 7822,
  "et": 7823,
  "laivi": 7824,
  "let": 7825,
  "wa": 7826,
  "\u25811954": 7827,
  "\u258168": 7828,
  "\u2581Brian": 7829,
  "\u2581Dokai": 7830,
  "\u2581Ella": 7831,
  "\u2581En": 7832,
  "\u2581Estonia": 7833,
  "\u2581MAI": 7834,
  "\u2581Philo": 7835,
  "\u2581Qarava": 7836,
  "\u2581Vakacecegu": 7837,
  "\u2581Whom": 7838,
  "\u2581behold": 7839,
  "\u2581believes": 7840,
  "\u2581cautaka": 7841,
  "\u2581characteristics": 7842,
  "\u2581conscientious": 7843,
  "\u2581counted": 7844,
  "\u2581creating": 7845,
  "\u2581distressed": 7846,
  "\u2581drano": 7847,
  "\u2581element": 7848,
  "\u2581fails": 7849,
  "\u2581guards": 7850,
  "\u2581imply": 7851,
  "\u2581impress": 7852,
  "\u2581insulin": 7853,
  "\u2581kailavaka": 7854,
  "\u2581kasura": 7855,
  "\u2581luvu": 7856,
  "\u2581malaria": 7857,
  "\u2581missed": 7858,
  "\u2581participation": 7859,
  "\u2581professional": 7860,
  "\u2581promoting": 7861,
  "\u2581sleeping": 7862,
  "\u2581strife": 7863,
  "\u2581stuck": 7864,
  "\u2581veikauloa": 7865,
  "\u2581vunia": 7866,
  "From": 7867,
  "With": 7868,
  "lying": 7869,
  "semati": 7870,
  "vakacakacakataki": 7871,
  "vakasewasewani": 7872,
  "\u258121.)": 7873,
  "\u2581Afterward": 7874,
  "\u2581Apparently": 7875,
  "\u2581CHILDREN": 7876,
  "\u2581COR": 7877,
  "\u2581Co": 7878,
  "\u2581Deborah": 7879,
  "\u2581Duavata": 7880,
  "\u2581Eusebius": 7881,
  "\u2581Georgia": 7882,
  "\u2581JOHN": 7883,
  "\u2581Jesepeli": 7884,
  "\u2581Potukali": 7885,
  "\u2581Unti": 7886,
  "\u2581affliction": 7887,
  "\u2581aging": 7888,
  "\u2581breaking": 7889,
  "\u2581bucini": 7890,
  "\u2581committ": 7891,
  "\u2581dauyalewa": 7892,
  "\u2581document": 7893,
  "\u2581exalted": 7894,
  "\u2581fishing": 7895,
  "\u2581kofi": 7896,
  "\u2581kuita": 7897,
  "\u2581lacked": 7898,
  "\u2581mainly": 7899,
  "\u2581makete": 7900,
  "\u2581minute": 7901,
  "\u2581observance": 7902,
  "\u2581opens": 7903,
  "\u2581professed": 7904,
  "\u2581remembering": 7905,
  "\u2581representative": 7906,
  "\u2581scattered": 7907,
  "\u2581soqovi": 7908,
  "\u2581sustained": 7909,
  "\u2581tabili": 7910,
  "\u2581teeth": 7911,
  "\u2581till": 7912,
  "\u2581transformed": 7913,
  "\u2581turaganivalu": 7914,
  "\u2581vakaLatina": 7915,
  "\u2581vakaSipeni": 7916,
  "\u2581vakalelewa": 7917,
  "\u2581vakatagane": 7918,
  "\u2581valued": 7919,
  "\u2581veidutaitaka": 7920,
  "\u2581videos": 7921,
  "\u2581wanting": 7922,
  "\u2581window": 7923,
  "\u2581yavolita": 7924,
  "Just": 7925,
  "ad": 7926,
  "netheless": 7927,
  "ol": 7928,
  "seed": 7929,
  "those": 7930,
  "\u25811988": 7931,
  "\u25812.)": 7932,
  "\u25815,000": 7933,
  "\u2581Bera": 7934,
  "\u2581Filipi": 7935,
  "\u2581Nepali": 7936,
  "\u2581Parofisai": 7937,
  "\u2581Secret": 7938,
  "\u2581Totolo": 7939,
  "\u2581Vakadeitaka": 7940,
  "\u2581cited": 7941,
  "\u2581clouds": 7942,
  "\u2581college": 7943,
  "\u2581confusion": 7944,
  "\u2581defined": 7945,
  "\u2581directions": 7946,
  "\u2581discourse": 7947,
  "\u2581disobedient": 7948,
  "\u2581embraced": 7949,
  "\u2581esteem": 7950,
  "\u2581formerly": 7951,
  "\u2581height": 7952,
  "\u2581holiness": 7953,
  "\u2581inexperienced": 7954,
  "\u2581iulubale": 7955,
  "\u2581ivava": 7956,
  "\u2581kameli": 7957,
  "\u2581lofty": 7958,
  "\u2581mentally": 7959,
  "\u2581preparation": 7960,
  "\u2581rising": 7961,
  "\u2581scroll": 7962,
  "\u2581slowly": 7963,
  "\u2581vivid": 7964,
  "\u2581waited": 7965,
  "\u2581winds": 7966,
  ";...": 7967,
  "INGS": 7968,
  "Is": 7969,
  "are": 7970,
  "ological": 7971,
  "ors": 7972,
  "rogoca": 7973,
  "ru": 7974,
  "time": 7975,
  "tion": 7976,
  "\u25811972": 7977,
  "\u25811975": 7978,
  "\u258195": 7979,
  "\u2581Car": 7980,
  "\u2581Die": 7981,
  "\u2581Ferdinand": 7982,
  "\u2581IRA": 7983,
  "\u2581Jezebel": 7984,
  "\u2581Plato": 7985,
  "\u2581Researchers": 7986,
  "\u2581Review": 7987,
  "\u2581VAKACAVA": 7988,
  "\u2581Veivuke": 7989,
  "\u2581cemuri": 7990,
  "\u2581desert": 7991,
  "\u2581drop": 7992,
  "\u2581drukataka": 7993,
  "\u2581evangelizer": 7994,
  "\u2581exhorted": 7995,
  "\u2581fare": 7996,
  "\u2581farmer": 7997,
  "\u2581generously": 7998,
  "\u2581golden": 7999,
  "\u2581healthful": 8000,
  "\u2581icakacaka": 8001,
  "\u2581locations": 8002,
  "\u2581longing": 8003,
  "\u2581materialistic": 8004,
  "\u2581noble": 8005,
  "\u2581ruins": 8006,
  "\u2581salatu": 8007,
  "\u2581sweet": 8008,
  "\u2581taravaki": 8009,
  "\u2581unjust": 8010,
  "\u2581vakaiyaragi": 8011,
  "\u2581vakamatatamata": 8012,
  "\u2581veiqati": 8013,
  "\u2581veivakalewai": 8014,
  "\u2581viavia": 8015,
  "\u2581weighed": 8016,
  ",000,000": 8017,
  "12": 8018,
  "human": 8019,
  "mate": 8020,
  "vua": 8021,
  "\u25811978": 8022,
  "\u2581Amoni": 8023,
  "\u2581Athens": 8024,
  "\u2581Centuries": 8025,
  "\u2581Five": 8026,
  "\u2581Gabriel": 8027,
  "\u2581Jim": 8028,
  "\u2581Kindness": 8029,
  "\u2581Maker": 8030,
  "\u2581Moab": 8031,
  "\u2581NASA": 8032,
  "\u2581Pu": 8033,
  "\u2581Rejeli": 8034,
  "\u2581Sinai": 8035,
  "\u2581Suwitisiladi": 8036,
  "\u2581TEA": 8037,
  "\u2581Tarogi": 8038,
  "\u2581Thanks": 8039,
  "\u2581Understandably": 8040,
  "\u2581Vakabulai": 8041,
  "\u2581Vakavuna": 8042,
  "\u2581arrange": 8043,
  "\u2581attacked": 8044,
  "\u2581bitterness": 8045,
  "\u2581blow": 8046,
  "\u2581burial": 8047,
  "\u2581challenged": 8048,
  "\u2581constructed": 8049,
  "\u2581coping": 8050,
  "\u2581cycle": 8051,
  "\u2581dautagane": 8052,
  "\u2581dollars": 8053,
  "\u2581invites": 8054,
  "\u2581isasabai": 8055,
  "\u2581kunekunetaki": 8056,
  "\u2581portions": 8057,
  "\u2581prayerful": 8058,
  "\u2581prayerfully": 8059,
  "\u2581qiriti": 8060,
  "\u2581searched": 8061,
  "\u2581severely": 8062,
  "\u2581sili": 8063,
  "\u2581smaller": 8064,
  "\u2581striking": 8065,
  "\u2581threats": 8066,
  "\u2581traffic": 8067,
  "\u2581vakabobula": 8068,
  "\u2581vosavosa": 8069,
  "\u2581west": 8070,
  "\u2581yalowai": 8071,
  "Oqo": 8072,
  "ap": 8073,
  "con": 8074,
  "ence": 8075,
  "\u2581250": 8076,
  "\u258169": 8077,
  "\u25817,000": 8078,
  "\u258189": 8079,
  "\u258194": 8080,
  "\u258198": 8081,
  "\u2581Bad": 8082,
  "\u2581Comfort": 8083,
  "\u2581Cyril": 8084,
  "\u2581KILAI": 8085,
  "\u2581Mar": 8086,
  "\u2581OUR": 8087,
  "\u2581Rua": 8088,
  "\u2581Tolu": 8089,
  "\u2581WAQANA": 8090,
  "\u2581blue": 8091,
  "\u2581bottom": 8092,
  "\u2581contemporaries": 8093,
  "\u2581dauvakacaca": 8094,
  "\u2581defeat": 8095,
  "\u2581definitely": 8096,
  "\u2581evangelizing": 8097,
  "\u2581expelled": 8098,
  "\u2581expenses": 8099,
  "\u2581exquisite": 8100,
  "\u2581historians": 8101,
  "\u2581ideal": 8102,
  "\u2581idrodro": 8103,
  "\u2581instituted": 8104,
  "\u2581interfere": 8105,
  "\u2581katoni": 8106,
  "\u2581liwa": 8107,
  "\u2581movies": 8108,
  "\u2581perceived": 8109,
  "\u2581prisoner": 8110,
  "\u2581recommend": 8111,
  "\u2581recover": 8112,
  "\u2581regain": 8113,
  "\u2581shelter": 8114,
  "\u2581thanksgiving": 8115,
  "\u2581translate": 8116,
  "\u2581vakalivaliva": 8117,
  "\u2581veicoqacoqa": 8118,
  "\u2581veiraravui": 8119,
  "\u2581veitau": 8120,
  "\u2581vulnerable": 8121,
  "\u2581warmth": 8122,
  "\u2581worshipper": 8123,
  "Young": 8124,
  "am": 8125,
  "everal": 8126,
  "salavata": 8127,
  "working": 8128,
  "\u2581Chile": 8129,
  "\u2581Czech": 8130,
  "\u2581Lake": 8131,
  "\u2581Linda": 8132,
  "\u2581Macedonia": 8133,
  "\u2581Praise": 8134,
  "\u2581Totoka": 8135,
  "\u2581Wili": 8136,
  "\u2581bird": 8137,
  "\u2581budget": 8138,
  "\u2581bulata": 8139,
  "\u2581captive": 8140,
  "\u2581daku": 8141,
  "\u2581damaging": 8142,
  "\u2581distribution": 8143,
  "\u2581filling": 8144,
  "\u2581frustration": 8145,
  "\u2581grieving": 8146,
  "\u2581grounds": 8147,
  "\u2581homework": 8148,
  "\u2581honey": 8149,
  "\u2581iVakarau": 8150,
  "\u2581kawaboko": 8151,
  "\u2581liar": 8152,
  "\u2581lomamudou": 8153,
  "\u2581misleading": 8154,
  "\u2581misunderstand": 8155,
  "\u2581mutual": 8156,
  "\u2581neighborhood": 8157,
  "\u2581nucle": 8158,
  "\u2581oneself": 8159,
  "\u2581orders": 8160,
  "\u2581oxygen": 8161,
  "\u2581plasma": 8162,
  "\u2581plays": 8163,
  "\u2581qaqanimasu": 8164,
  "\u2581reproof": 8165,
  "\u2581section": 8166,
  "\u2581struggled": 8167,
  "\u2581submissive": 8168,
  "\u2581tomb": 8169,
  "\u2581uncertain": 8170,
  "\u2581vakaduria": 8171,
  "\u2581vakawelei": 8172,
  "\u2581wave": 8173,
  "ONA": 8174,
  "qaravi": 8175,
  "ten": 8176,
  "this": 8177,
  "veivakavulici": 8178,
  "\u258144,": 8179,
  "\u2581Age": 8180,
  "\u2581Days": 8181,
  "\u2581Hand": 8182,
  "\u2581Michelle": 8183,
  "\u2581Nabal": 8184,
  "\u2581Pay": 8185,
  "\u2581Religious": 8186,
  "\u2581Sairusi": 8187,
  "\u2581Set": 8188,
  "\u2581Storrs": 8189,
  "\u2581Vakauasivi": 8190,
  "\u2581Yourself": 8191,
  "\u2581acknowledges": 8192,
  "\u2581alcoholic": 8193,
  "\u2581attempted": 8194,
  "\u2581celebrated": 8195,
  "\u2581celebration": 8196,
  "\u2581cleansed": 8197,
  "\u2581comprehend": 8198,
  "\u2581contemplate": 8199,
  "\u2581dauniyau": 8200,
  "\u2581decree": 8201,
  "\u2581deserving": 8202,
  "\u2581duanadrau": 8203,
  "\u2581eighth": 8204,
  "\u2581emphasize": 8205,
  "\u2581enthusiasm": 8206,
  "\u2581expense": 8207,
  "\u2581flocks": 8208,
  "\u2581freed": 8209,
  "\u2581galeleta": 8210,
  "\u2581iTalatala": 8211,
  "\u2581kabi": 8212,
  "\u2581kovuta": 8213,
  "\u2581lokuca": 8214,
  "\u2581mateniuto": 8215,
  "\u2581motivation": 8216,
  "\u2581moto": 8217,
  "\u2581nasi": 8218,
  "\u2581newborn": 8219,
  "\u2581nights": 8220,
  "\u2581nuinui": 8221,
  "\u2581otioti": 8222,
  "\u2581portray": 8223,
  "\u2581requested": 8224,
  "\u2581sadness": 8225,
  "\u2581sale": 8226,
  "\u2581tawani": 8227,
  "\u2581undermine": 8228,
  "\u2581vakaitovotaki": 8229,
  "\u2581vakamataqali": 8230,
  "\u2581vakaro": 8231,
  "\u2581violate": 8232,
  "\u2581wake": 8233,
  "11": 8234,
  "kina": 8235,
  "\u2581127": 8236,
  "\u258145,": 8237,
  "\u2581Art": 8238,
  "\u2581Hans": 8239,
  "\u2581Into": 8240,
  "\u2581Place": 8241,
  "\u2581VAKAIVOLATABU": 8242,
  "\u2581Vorat": 8243,
  "\u2581adjusted": 8244,
  "\u2581advised": 8245,
  "\u2581confess": 8246,
  "\u2581confidently": 8247,
  "\u2581contend": 8248,
  "\u2581dad": 8249,
  "\u2581demanding": 8250,
  "\u2581enormous": 8251,
  "\u2581existing": 8252,
  "\u2581industry": 8253,
  "\u2581legally": 8254,
  "\u2581matamuni": 8255,
  "\u2581materialism": 8256,
  "\u2581mokot": 8257,
  "\u2581pounds": 8258,
  "\u2581priceless": 8259,
  "\u2581qoroqoro": 8260,
  "\u2581rarely": 8261,
  "\u2581rebelled": 8262,
  "\u2581reflection": 8263,
  "\u2581repented": 8264,
  "\u2581revealing": 8265,
  "\u2581samaki": 8266,
  "\u2581shaped": 8267,
  "\u2581shock": 8268,
  "\u2581sixth": 8269,
  "\u2581stranger": 8270,
  "\u2581truthful": 8271,
  "\u2581veimatalotu": 8272,
  "\u2581veitaro": 8273,
  "\u2581veiyawaki": 8274,
  "\u2581virgin": 8275,
  "\u2581visions": 8276,
  "\u2581waloloi": 8277,
  "\u2581yavalati": 8278,
  "\u2751": 8279,
  "?...": 8280,
  "Rai": 8281,
  "om": 8282,
  "thing": 8283,
  "\u25811959": 8284,
  "\u2581230": 8285,
  "\u2581Christine": 8286,
  "\u2581Common": 8287,
  "\u2581DINA": 8288,
  "\u2581Esafa": 8289,
  "\u2581Four": 8290,
  "\u2581Humility": 8291,
  "\u2581Live": 8292,
  "\u2581Moatekai": 8293,
  "\u2581Rio": 8294,
  "\u2581Standard": 8295,
  "\u2581Training": 8296,
  "\u2581aids": 8297,
  "\u2581alike": 8298,
  "\u2581alternative": 8299,
  "\u2581befall": 8300,
  "\u2581booklet": 8301,
  "\u2581cautaki": 8302,
  "\u2581cuqen": 8303,
  "\u2581dauveinanumi": 8304,
  "\u2581dignified": 8305,
  "\u2581forsake": 8306,
  "\u2581guidelines": 8307,
  "\u2581gumatuataka": 8308,
  "\u2581hellfire": 8309,
  "\u2581hiding": 8310,
  "\u2581injured": 8311,
  "\u2581instructor": 8312,
  "\u2581kubou": 8313,
  "\u2581lavaka": 8314,
  "\u2581matewale": 8315,
  "\u2581organizations": 8316,
  "\u2581planted": 8317,
  "\u2581print": 8318,
  "\u2581propaganda": 8319,
  "\u2581qisi": 8320,
  "\u2581reache": 8321,
  "\u2581recognition": 8322,
  "\u2581responding": 8323,
  "\u2581somehow": 8324,
  "\u2581topic": 8325,
  "\u2581torment": 8326,
  "\u2581vagole": 8327,
  "\u2581vakalailaitaki": 8328,
  "\u2581vakaveiwekani": 8329,
  "\u2581vakayadrati": 8330,
  "\u2581veitovaki": 8331,
  "\u2581veivakatawani": 8332,
  "\u2581veiyanuyanu": 8333,
  "\u2581146": 8334,
  "\u2581Along": 8335,
  "\u2581Asaph": 8336,
  "\u2581Daily": 8337,
  "\u2581Emperor": 8338,
  "\u2581Example": 8339,
  "\u2581Gestapo": 8340,
  "\u2581Lomana": 8341,
  "\u2581Must": 8342,
  "\u2581PSALM": 8343,
  "\u2581Research": 8344,
  "\u2581Smith": 8345,
  "\u2581Suddenly": 8346,
  "\u2581Syria": 8347,
  "\u2581Talairawarawa": 8348,
  "\u2581Tom": 8349,
  "\u2581Veisiga": 8350,
  "\u2581WE": 8351,
  "\u2581YACO": 8352,
  "\u2581adapt": 8353,
  "\u2581anguish": 8354,
  "\u2581answering": 8355,
  "\u2581collect": 8356,
  "\u2581corrected": 8357,
  "\u2581daumateni": 8358,
  "\u2581deadly": 8359,
  "\u2581delana": 8360,
  "\u2581desiring": 8361,
  "\u2581dictionary": 8362,
  "\u2581distracted": 8363,
  "\u2581disturbed": 8364,
  "\u2581excessive": 8365,
  "\u2581falsely": 8366,
  "\u2581fewer": 8367,
  "\u2581gate": 8368,
  "\u2581grandmother": 8369,
  "\u2581iBalebale": 8370,
  "\u2581iVakabula": 8371,
  "\u2581ignorance": 8372,
  "\u2581inclinations": 8373,
  "\u2581inform": 8374,
  "\u2581longtime": 8375,
  "\u2581officers": 8376,
  "\u2581positively": 8377,
  "\u2581purchase": 8378,
  "\u2581racial": 8379,
  "\u2581remembers": 8380,
  "\u2581rooted": 8381,
  "\u2581serekali": 8382,
[...]
