{
  "</s>": 0,
  "<unk>": 1,
  "\u2581le": 2,
  ",": 3,
  ".": 4,
  "\u2581o": 5,
  "\u2581e": 6,
  "\u2581i": 7,
  "\u02bb": 8,
  "\u2581\"": 9,
  "\u2581the": 10,
  "\u2581a": 11,
  "\u2581ma": 12,
  "\u2581to": 13,
  "\u2581ai": 14,
  "\u2581of": 15,
  "i": 16,
  "\u2581and": 17,
  "\u2581se": 18,
  "\u2581ona": 19,
  "\u2581-": 20,
  "\u2581na": 21,
  "\u2581ia": 22,
  ":": 23,
  "?": 24,
  "\u2581in": 25,
  "\u2581mai": 26,
  "\u2581ua": 27,
  "\u2581O": 28,
  "\u2581that": 29,
  "s": 30,
  "\u2581atu": 31,
  "\u2581E": 32,
  "\u2581te": 33,
  "\u2581l\u0113": 34,
  "\u2581tatou": 35,
  "\u2581latou": 36,
  "\u2581mea": 37,
  "'": 38,
  "\u2581tagata": 39,
  "\u2581is": 40,
  "\u2581I": 41,
  "\u2581i\u0101": 42,
  "\u2581lea": 43,
  "\u2581for": 44,
  "\u2581Ieova": 45,
  "\u2581lava": 46,
  "\u2581Jehovah": 47,
  "u": 48,
  "\u2581sa": 49,
  "\u2581Atua": 50,
  "\u2581God": 51,
  "\u2581his": 52,
  "\u2581loo": 53,
  "\u2581Na": 54,
  "\u2581we": 55,
  "\u2581with": 56,
  "\u2581was": 57,
  "\u2581you": 58,
  "\u2581be": 59,
  "\u2581faapea": 60,
  "\u2581ina": 61,
  "\u2581fo": 62,
  "\u2581faia": 63,
  "\u2581": 64,
  "\u2581not": 65,
  "\u2581lo": 66,
  "\u2581on": 67,
  "\u2581as": 68,
  "\u2581ta": 69,
  "\u2581lona": 70,
  "\u2581he": 71,
  "\u2581la": 72,
  "\u2581The": 73,
  "\u2581have": 74,
  "\u2581ou": 75,
  "\u2581are": 76,
  "\u2581will": 77,
  "\u2581ni": 78,
  "\u2581pe": 79,
  ";": 80,
  "\u2581it": 81,
  "\u2581mafai": 82,
  "\u2581Paia": 83,
  "\u2581iai": 84,
  "\u2581Tusi": 85,
  "\u2581uma": 86,
  "a": 87,
  "\u2581mo": 88,
  "\u2581lelei": 89,
  "\u2581'": 90,
  "\u2581isi": 91,
  "oa": 92,
  "\u2581taimi": 93,
  "\u2581Ua": 94,
  "\u2581by": 95,
  "\u2581from": 96,
  "\u2581Bible": 97,
  "\u2581our": 98,
  "\u2581Iesu": 99,
  "\u2581ae": 100,
  "\u2581[": 101,
  "\u2581Jesus": 102,
  "o": 103,
  "\u2581can": 104,
  "\u2581their": 105,
  "\u2581tele": 106,
  "\u25811": 107,
  "\u2581who": 108,
  "\u2581maua": 109,
  "e": 110,
  "\u2581\u0101": 111,
  "ing": 112,
  "\u2581\u02bb": 113,
  "\u2581us": 114,
  "\u2581they": 115,
  "\u2581(": 116,
  "\u2581nei": 117,
  "!": 118,
  "\u2581or": 119,
  "\u2581lenei": 120,
  "\u2581fai": 121,
  "ia": 122,
  "\u2581iloa": 123,
  "ua": 124,
  "\u2581this": 125,
  "\u2581A": 126,
  "iga": 127,
  "\u2581moni": 128,
  "\u2581manatu": 129,
  "\u2581toe": 130,
  "\u2581your": 131,
  "oga": 132,
  "\u2581what": 133,
  "\u2581len\u0101": 134,
  "\u2581do": 135,
  "\u2581Sa": 136,
  "\u2581po": 137,
  "\u2581tasi": 138,
  "\u2581were": 139,
  "\u2581had": 140,
  "\u2581all": 141,
  "\u2581at": 142,
  "\u2581one": 143,
  "\u2581What": 144,
  "\u2581him": 145,
  "\u2581aso": 146,
  "\u2581mana": 147,
  "\u2581uiga": 148,
  ")": 149,
  "\u2581them": 150,
  "\u2581sili": 151,
  "\u2581people": 152,
  "\u2581an": 153,
  "\u2581so": 154,
  "\u2581pei": 155,
  "\u2581avea": 156,
  "\u2581Pe": 157,
  "\u2581In": 158,
  "\u2581lalolagi": 159,
  "\u2581fesoasoani": 160,
  "\u2581about": 161,
  "\u2581\u0113": 162,
  "\u2581tulaga": 163,
  "\u2581my": 164,
  "\u2581oo": 165,
  "\u2581lana": 166,
  "\u2581would": 167,
  "\u2581nisi": 168,
  "\u2581auala": 169,
  "\u2581tala": 170,
  "\u2581when": 171,
  "\u2581has": 172,
  "\u2581tatau": 173,
  "]": 174,
  "\u2581matu\u0101": 175,
  "\u2581Kerisiano": 176,
  "\u25812": 177,
  "\u2581time": 178,
  "\u2581fiafia": 179,
  "\u2581Ae": 180,
  "\u2581alofa": 181,
  "\u2581life": 182,
  "\u2581How": 183,
  "\u2581pea": 184,
  "\u2581may": 185,
  "\u2581did": 186,
  "\u2581tausaga": 187,
  "\u2581but": 188,
  "\u2581tusi": 189,
  "\u2581ala": 190,
  "\u2581upu": 191,
  "\u2581ola": 192,
  "\u2581oe": 193,
  "\u2581those": 194,
  "\u2581me": 195,
  "\u2581outou": 196,
  "\u2581He": 197,
  "\u2581faaalia": 198,
  "\u2581matou": 199,
  "\u2581galuega": 200,
  "ita": 201,
  "\u2581tusa": 202,
  "\u2581faapefea": 203,
  "\u2581/": 204,
  "\u2581her": 205,
  "\u2581tupu": 206,
  "\u2581more": 207,
  "\u2581Ia": 208,
  "E": 209,
  "\u2581some": 210,
  "\u2581fanau": 211,
  "\u2581also": 212,
  "\u2581lou": 213,
  "\u2581out": 214,
  "\u2581help": 215,
  "omia": 216,
  "\u2581how": 217,
  "\u2581t\u0101ua": 218,
  "O": 219,
  "\u2581Molimau": 220,
  "\u2581such": 221,
  "\u2581aiga": 222,
  "\u2581been": 223,
  "\u2581good": 224,
  "\u2581ana": 225,
  "\u2581mataupu": 226,
  "\u2581olaga": 227,
  "\u2581We": 228,
  "\u2581leai": 229,
  "\u2581faamaoni": 230,
  "\u2581itulau": 231,
  "\u2581auauna": 232,
  "\u2581faatatau": 233,
  "\u2581It": 234,
  "\u2581su": 235,
  "\"": 236,
  "\u2581up": 237,
  "\u2581many": 238,
  "\u2581Witnesses": 239,
  "\u2581uso": 240,
  "esu": 241,
  "\u2581ui": 242,
  "\u2581Peita": 243,
  "\u2581love": 244,
  "\u2581ese": 245,
  "\u2581Ina": 246,
  "\u2581faatasi": 247,
  "atele": 248,
  "\u2581loto": 249,
  "\u2581way": 250,
  "\u2581Paul": 251,
  "\u2581Paulo": 252,
  "\u2581no": 253,
  "\u2581if": 254,
  "\u2581things": 255,
  "oina": 256,
  "\u2581afai": 257,
  "\u2581ane": 258,
  "\u2581work": 259,
  "\u2581masani": 260,
  "\u2581mafaufau": 261,
  "ed": 262,
  "\u2581there": 263,
  "\u2581other": 264,
  "\u2581should": 265,
  "\u2581said": 266,
  "\u2581does": 267,
  "\u2581faaaog\u0101": 268,
  "\u2581aog\u0101": 269,
  "\u2581tau": 270,
  "\u2581fale": 271,
  "au": 272,
  "\u2581faaa": 273,
  "\u2581could": 274,
  "\u2581make": 275,
  "\u2581vaega": 276,
  "\u2581leaga": 277,
  "\u2581even": 278,
  "\u2581When": 279,
  "\u2581man": 280,
  "\u2581page": 281,
  "\u2581than": 282,
  "\u2581malosi": 283,
  "\u2581world": 284,
  "\u2581Christian": 285,
  "\u258115": 286,
  "\u2581Ona": 287,
  "\u2581day": 288,
  "ly": 289,
  "\u2581into": 290,
  "\u2581years": 291,
  "\u2581she": 292,
  "\u2581faaleagaga": 293,
  "\u2581mulimuli": 294,
  "\u2581atoa": 295,
  "\u2581earth": 296,
  "\u2581others": 297,
  "ina": 298,
  "\u2581For": 299,
  "\u2581which": 300,
  "\u2581Kingdom": 301,
  "\u2581first": 302,
  "\u2581Why": 303,
  "\u2581these": 304,
  "\u2581.": 305,
  "\u2581faapotopotoga": 306,
  "\u2581Christ": 307,
  "\u2581But": 308,
  "\u2581tatalo": 309,
  "\u2581Christians": 310,
  "\u2581Ata": 311,
  "\u2581faatuatua": 312,
  "\u2581They": 313,
  "\u2581malamalama": 314,
  "uga": 315,
  "\u2581need": 316,
  "\u2581spirit": 317,
  "\u2581says": 318,
  "\u2581agaga": 319,
  "\u2581mautinoa": 320,
  "\u2581This": 321,
  "\u2581children": 322,
  "\u2581faamatalaga": 323,
  "\u2581fesili": 324,
  "\u2581*": 325,
  "\u2581T": 326,
  "\u2581Keriso": 327,
  "\u2581tali": 328,
  "\u2581If": 329,
  "\u2581ono": 330,
  "\u2022": 331,
  "\u25814": 332,
  "\u2581example": 333,
  "\u2581muamua": 334,
  "\u2581family": 335,
  "\u2581Malo": 336,
  "\u2581tama": 337,
  "\u2581finagalo": 338,
  "\u2581faith": 339,
  "\u2581nuu": 340,
  "\u2581only": 341,
  "\u2581As": 342,
  "\u2581made": 343,
  "\u258111": 344,
  "\u2581because": 345,
  "\u2581faiga": 346,
  "\u2581mata": 347,
  "\u2581You": 348,
  "the": 349,
  "\u25815": 350,
  "\u2581lua": 351,
  "\u2581faitau": 352,
  "\u2581faa": 353,
  "\u2581au\u0101": 354,
  "\u2581Aise\u0101": 355,
  "\u2581Isaraelu": 356,
  "\u2581see": 357,
  "...": 358,
  "\u2581amata": 359,
  "\u2581must": 360,
  "\u2581spiritual": 361,
  "\u2581being": 362,
  "\u2581faigat\u0101": 363,
  "\u2581like": 364,
  "\u25818": 365,
  "\u2581congregation": 366,
  "ai": 367,
  "\u2581over": 368,
  "\u2581know": 369,
  "\u2581tapua": 370,
  "\u2581oti": 371,
  "\u2581atunuu": 372,
  "\u2581taumafai": 373,
  "\u2581then": 374,
  "\u2581lagona": 375,
  "\u2581tane": 376,
  "\u2581soo": 377,
  "\u2581Se": 378,
  "\u2581heart": 379,
  "\u2581m\u0101tua": 380,
  "\u2581ao": 381,
  "\u2581gata": 382,
  "\u2581lotu": 383,
  "\u2581atoatoa": 384,
  "\u2581aofia": 385,
  "\u2581loa": 386,
  "I": 387,
  "\u2581true": 388,
  "\u2581ses\u0113": 389,
  "\u2581take": 390,
  "\u2581words": 391,
  "\u2581lau": 392,
  "\u2581faailoa": 393,
  "\u2581well": 394,
  "\u2581Po": 395,
  "\u25816:": 396,
  "\u2581atonu": 397,
  "\u2581come": 398,
  "\u2581auai": 399,
  "\u2581pule": 400,
  "\u2581gagana": 401,
  "\u2581own": 402,
  "\u2581alu": 403,
  "\u2581fafine": 404,
  "\u2581just": 405,
  "\u2581death": 406,
  "\u2581become": 407,
  "\u2581talavou": 408,
  "\u2581tuuina": 409,
  "\u2581fia": 410,
  "\u2581fou": 411,
  "\u2581ones": 412,
  "\u2581before": 413,
  "\u2581\u014d": 414,
  "\u2581its": 415,
  "\u258114": 416,
  "\u2581m\u0101fuaaga": 417,
  "\u2581agasala": 418,
  "\u2581faapena": 419,
  "ega": 420,
  "\u2581talitonu": 421,
  "\u2581John": 422,
  "\u2581That": 423,
  "\u2581after": 424,
  "t": 425,
  "\u2581two": 426,
  "\u2581itu": 427,
  "\u2581And": 428,
  "\u25811,": 429,
  "\u2581faaauau": 430,
  "\u2581lagi": 431,
  "\u2581name": 432,
  "\u2581might": 433,
  "\u2581fetalai": 434,
  "\u2581men": 435,
  "d": 436,
  "\u25817": 437,
  "\u2581parents": 438,
  "\u2581Picture": 439,
  "\u2581Word": 440,
  "\u2581any": 441,
  "\u2581now": 442,
  "\u2581tino": 443,
  "\u2581give": 444,
  "\u2581David": 445,
  "\u2581Le": 446,
  "\u2581person": 447,
  "\u2581new": 448,
  "\u2581another": 449,
  "\u2581truth": 450,
  "A": 451,
  "\u2581To": 452,
  "\u258120": 453,
  "\u2581tumau": 454,
  "ili": 455,
  "\u2581ulua": 456,
  "\u2581very": 457,
  "\u2581eseese": 458,
  "\u2581through": 459,
  "\u2581much": 460,
  "\u2581times": 461,
  "\u2581gaoioiga": 462,
  "\u2581Ma": 463,
  "\u2581talanoa": 464,
  "\u2581faalogona": 465,
  "\u258116": 466,
  "\u2581mavae": 467,
  "\u2581study": 468,
  "\u2581lalo": 469,
  "\u2581tuu": 470,
  "\u2581Satani": 471,
  "\u2581faata": 472,
  "\u2581Tavita": 473,
  "\u2581aai": 474,
  "\u2581foliga": 475,
  "\u2581faafitauli": 476,
  "le": 477,
  "\u2581nai": 478,
  "\u258117": 479,
  "\u2581faamatala": 480,
  "\u2581LE": 481,
  "\u2581Satan": 482,
  "\u2581av\u0101": 483,
  "\u2581feel": 484,
  "\u2581find": 485,
  "\u2581talafeagai": 486,
  "3:": 487,
  "\u2581vaai": 488,
  "\u2581paia": 489,
  "b": 490,
  "\u2581found": 491,
  "\u2581today": 492,
  "\u2581u\u014d": 493,
  "\u2581maliu": 494,
  "\u2581brothers": 495,
  "\u2581fua": 496,
  "\u2581aunoa": 497,
  "\u2581faamoemoe": 498,
  "\u2581poto": 499,
  "\u2581naunau": 500,
  "\u2581apostle": 501,
  "\u2581where": 502,
  "\u25813": 503,
  "\u2581Atonu": 504,
  "\u2581tupe": 505,
  "\u2581Do": 506,
  "\u2581most": 507,
  "\u2581put": 508,
  "\u2581talu": 509,
  "\u2581young": 510,
  "\u2581aposetolo": 511,
  "\u2581So": 512,
  "\u2581part": 513,
  "\u2581himself": 514,
  "\u2581One": 515,
  "\u2581However": 516,
  "\u2581malo": 517,
  "\u2581nofoaga": 518,
  "\u2581peita": 519,
  "\u2581use": 520,
  "\u2581uuna": 521,
  "\u2581great": 522,
  "\u2581Ioane": 523,
  "\u2581each": 524,
  "\u2581faavavau": 525,
  "\u2581learn": 526,
  "\u2581Afioga": 527,
  "\u2581faato": 528,
  "\u25819": 529,
  "\u2581say": 530,
  "\u2581tausia": 531,
  "\u2581olioli": 532,
  "\u2581Israel": 533,
  "\u258113": 534,
  "\u2581against": 535,
  "\u2581S": 536,
  "\u258112": 537,
  "\u2581keep": 538,
  "\u2581ne": 539,
  "\u2581avatu": 540,
  "\u2581human": 541,
  "\u2581atili": 542,
  "\u2581home": 543,
  "\u2581tuua": 544,
  "\u2581tam\u0101": 545,
  "\u2581wrote": 546,
  "\u2581Father": 547,
  "\u2581L\u0113": 548,
  "\u2581amio": 549,
  "\u2581book": 550,
  "\u2581Peter": 551,
  "\u2581mau": 552,
  "\u2581sauniga": 553,
  "\u2581suafa": 554,
  "\u2581means": 555,
  "\u2581same": 556,
  "\u2581ituaiga": 557,
  "\u2581Roma": 558,
  "\u2581right": 559,
  "\u2581faalogo": 560,
  "\u2581show": 561,
  "\u25813:": 562,
  "\u2581tusia": 563,
  "\u2581faaaog\u0101ina": 564,
  "Ua": 565,
  "\u2581tutupu": 566,
  "\u2581worship": 567,
  "\u2581faale": 568,
  "\u2581though": 569,
  "\u2581never": 570,
  "\u2581Some": 571,
  "\u2581why": 572,
  "\u2581aafia": 573,
  "\u2581tin\u0101": 574,
  "\u258110": 575,
  "\u2581soifua": 576,
  "\u2581umi": 577,
  "\u2581au": 578,
  "\u2581aua": 579,
  "\u2581fe": 580,
  "\u2581long": 581,
  "\u2581Tam\u0101": 582,
  "\u2581year": 583,
  "\u2581tulafono": 584,
  "\u258121": 585,
  "\u2581nonofo": 586,
  "\u2581end": 587,
  "\u2581used": 588,
  "\u2581Mai": 589,
  "\u2581At": 590,
  "\u2581mauaina": 591,
  "\u2581fautuaga": 592,
  "\u2581faithful": 593,
  "\u258119": 594,
  "\u2581luga": 595,
  "\u2581important": 596,
  "\u2581Peteru": 597,
  "\u2581place": 598,
  "\u2581faigofie": 599,
  "\u2581C": 600,
  "\u2581foa": 601,
  "\u2581wife": 602,
  "\u2581ministry": 603,
  "\u2581course": 604,
  "\u2581senituri": 605,
  "\u2581word": 606,
  "\u2581After": 607,
  "\u2581luma": 608,
  "\u2581read": 609,
  "\u2581igoa": 610,
  "\u258122": 611,
  "\u258112:": 612,
  "Ia": 613,
  "\u2581every": 614,
  "\u2581became": 615,
  "\u2581too": 616,
  "\u2581atamai": 617,
  "\u2581Iutaia": 618,
  "\u2581suia": 619,
  "\u2581vala": 620,
  "\u2581manatua": 621,
  "\u2581talia": 622,
  "\u2581go": 623,
  "\u2581news": 624,
  "\u2581often": 625,
  "\u2581upon": 626,
  "atasi": 627,
  "\u2581want": 628,
  "\u2581filemu": 629,
  "\u2581toeaina": 630,
  "\u2581came": 631,
  "\u2581under": 632,
  "\u2581faaipoipo": 633,
  "ga": 634,
  "\u2581let": 635,
  "),": 636,
  "\u2581get": 637,
  "\u25814:": 638,
  "\u2581Is": 639,
  "\u2581mind": 640,
  "\u2581mam\u0101": 641,
  "\u2581told": 642,
  "\u2581silisili": 643,
  "\u2581saunia": 644,
  "\u258118": 645,
  "\u2581back": 646,
  "\u2581away": 647,
  "itasi": 648,
  "\u2581hope": 649,
  "\u2581faamalosia": 650,
  "\u2581faaipoipoga": 651,
  "\u2581manino": 652,
  "\u2581holy": 653,
  "\u2581days": 654,
  "\u2581Salamo": 655,
  "\u25814.": 656,
  "\u2581ata": 657,
  "\u2581faai": 658,
  "\u2581amiotonu": 659,
  "\u2581among": 660,
  "\u2581Scriptures": 661,
  "\u2581matua": 662,
  "\u258110.": 663,
  "\u25812.": 664,
  "\u2581serve": 665,
  "\u2581ifo": 666,
  "5:": 667,
  "\u2581down": 668,
  "\u2581later": 669,
  "\u2581preaching": 670,
  "\u2581live": 671,
  "\u2581filifiliga": 672,
  "\u2581sui": 673,
  "\u258110:": 674,
  "\u2581knowledge": 675,
  "\u258125": 676,
  "\u2581aumaia": 677,
  "\u2581fuafuaga": 678,
  "\u2581began": 679,
  "\u2581view": 680,
  "\u2581mamafa": 681,
  "\u2581By": 682,
  "\u2581disciples": 683,
  "\u2581vave": 684,
  "\u2581called": 685,
  "\u2581tonu": 686,
  "n": 687,
  "\u2581Psalm": 688,
  "\u25816": 689,
  "\u2581auaunaga": 690,
  "y": 691,
  "\u2581service": 692,
  "\u2581am": 693,
  "\u2581Mataio": 694,
  "\u2581taumafaiga": 695,
  "\u2581consider": 696,
  "\u2581Matthew": 697,
  "\u2581taulaga": 698,
  "\u2581during": 699,
  "\u2581ways": 700,
  "S": 701,
  "\u2581Afai": 702,
  "\u2581doing": 703,
  "\u2581galulue": 704,
  "\u2581lena": 705,
  "\u2581agalelei": 706,
  "\u2581given": 707,
  "\u2581old": 708,
  "\u2581filifili": 709,
  "\u2581manana": 710,
  "\u2581Ioe": 711,
  "\u2581Ou": 712,
  "\u258114.": 713,
  "\u2581themselves": 714,
  "\u258112.": 715,
  "\u2581gave": 716,
  "\u2581power": 717,
  "\u2581still": 718,
  "\u2581On": 719,
  "\u2581three": 720,
  "\u2581taulau": 721,
  "\u2581matagofie": 722,
  "\u2581Our": 723,
  "\u2581nofo": 724,
  "\u2581No": 725,
  "\u2581fai\u0101": 726,
  "\u2581set": 727,
  "\u2581making": 728,
  "\u2581vaaia": 729,
  "\u2581however": 730,
  "\u2581century": 731,
  "\u2581lomiga": 732,
  "\u2581New": 733,
  "\u2581With": 734,
  "\u25818.": 735,
  "\u2581taua": 736,
  "\u2581His": 737,
  "\u2581mamoe": 738,
  "\u2581peace": 739,
  "\u2581living": 740,
  "\u2581She": 741,
  "\u25817.": 742,
  "\u2581faiva": 743,
  "\u2581pulea": 744,
  "\u2581loving": 745,
  "\u2581able": 746,
  "\u2581marriage": 747,
  "\u2581tamaiti": 748,
  "\u2581child": 749,
  "\u2581bring": 750,
  "\u2581King": 751,
  "\u2581father": 752,
  "iina": 753,
  "\u2581laau": 754,
  "\u2581faasino": 755,
  "\u2581lumana": 756,
  "\u258111.": 757,
  "\u2581Mose": 758,
  "\u2581totonu": 759,
  "\u0101": 760,
  "\u2581There": 761,
  "The": 762,
  "\u2581si": 763,
  "\u2581fact": 764,
  "\u2581always": 765,
  "\u2581whom": 766,
  "\u2581aga": 767,
  "\u2581Talu": 768,
  "\u2581amioga": 769,
  "\u25819.": 770,
  "\u2581Yes": 771,
  "uina": 772,
  "\u258113.": 773,
  "\u258115,": 774,
  "\u2581tolu": 775,
  "\u2581B": 776,
  "\u25815.": 777,
  "\u2581son": 778,
  "\u2581think": 779,
  "\u2581faamaonia": 780,
  "\u2581full": 781,
  "\u2581took": 782,
  "al": 783,
  "\u2581atalii": 784,
  "\u2581humans": 785,
  "\u258117.": 786,
  "\u2581avanoa": 787,
  "\u2581without": 788,
  "\u2581manuia": 789,
  "\u2581both": 790,
  "\u2581servants": 791,
  "\u2581purpose": 792,
  "\u2581fellow": 793,
  "\u2581Eperu": 794,
  "\u2581reason": 795,
  "\u2581mankind": 796,
  "\u2581in\u0101": 797,
  "\u2581Many": 798,
  "\u2581result": 799,
  "\u2581Then": 800,
  "\u2581personal": 801,
  "\u2581hand": 802,
  "\u2581asked": 803,
  "\u2581house": 804,
  "\u258116.": 805,
  "\u2581article": 806,
  "\u2581tig\u0101": 807,
  "\u2581lima": 808,
  "\u258115.": 809,
  "\u2581Even": 810,
  "\u2581faamatalaina": 811,
  "\u2581Yet": 812,
  "\u2581while": 813,
  "\u2581sosoo": 814,
  "\u2581toto": 815,
  "\u258130": 816,
  "\u2581sau": 817,
  "\u2581pa": 818,
  "\u2581faavae": 819,
  "\u2581From": 820,
  "alofia": 821,
  "\u2581prayer": 822,
  "\u2581something": 823,
  "eina": 824,
  "\u2581order": 825,
  "\u2581Son": 826,
  "\u2581iloiloina": 827,
  "\u25813.": 828,
  "\u2581really": 829,
  "\u25816.": 830,
  "\u2581husband": 831,
  "\u2581someone": 832,
  "\u2581questions": 833,
  "\u2581mother": 834,
  "alua": 835,
  "\u2581My": 836,
  "\u2581vai": 837,
  "\u2581tel\u0113": 838,
  "\u2581woman": 839,
  "\u2581ave": 840,
  "\u2581vaipanoa": 841,
  "\u2581joy": 842,
  "eu": 843,
  "\u258123": 844,
  "\u2581future": 845,
  "\u2581popole": 846,
  "\u2581s\u0113": 847,
  "\u2581taofia": 848,
  "\u2581faanaunauga": 849,
  "\u2581together": 850,
  "\u2581agelu": 851,
  "\u2581learned": 852,
  "\u2581sin": 853,
  "\u2581faataunuuina": 854,
  "\u2581toward": 855,
  "\u2581brother": 856,
  "\u2581talitonuga": 857,
  "\u2581having": 858,
  "\u2581Jerusalem": 859,
  "\u2581tofia": 860,
  "\u2581felt": 861,
  "\u2581meetings": 862,
  "\u2581aut\u016b": 863,
  "\u2581manu": 864,
  "\u2581loloto": 865,
  "\u2581Moses": 866,
  "\u2581anamua": 867,
  "\u2581paeonia": 868,
  "\u2581helped": 869,
  "\u2581Mo": 870,
  "\u2581puipuia": 871,
  "\u2581silafia": 872,
  "\u2581Alii": 873,
  "\u2581fesaga": 874,
  "\u258128": 875,
  "\u2581between": 876,
  "\u2581asiasi": 877,
  "\u2581teena": 878,
  "\u2581fesoota": 879,
  "\u2581Isaia": 880,
  "\u2581Isaiah": 881,
  "\u2581look": 882,
  "\u2581Faataoto": 883,
  "\u2581tetee": 884,
  "\u2581religious": 885,
  "\u2581heaven": 886,
  "\u2581hard": 887,
  "\u2581Eleni": 888,
  "\u2581experience": 889,
  "\u2581language": 890,
  "\u2581p\u014d": 891,
  "\u2581relationship": 892,
  "\u2581W": 893,
  "\u2581wicked": 894,
  "\u2581Proverbs": 895,
  "\u2581masina": 896,
  "\u2581tautala": 897,
  "\u2581Ierusalema": 898,
  "\u2581faamanuiaga": 899,
  "\u2581face": 900,
  "\u2581foi": 901,
  "\u2581close": 902,
  "\u2581following": 903,
  "\u2581city": 904,
  "\u2581friends": 905,
  "\u2581happy": 906,
  "\u2581alolofa": 907,
  "\u2581matutua": 908,
  "\u2581ulu": 909,
  "\u2581tomai": 910,
  "\u2581mamao": 911,
  "\u2581Let": 912,
  "\u2581wisdom": 913,
  "\u2581Israelites": 914,
  "\u2581conduct": 915,
  "\u2581little": 916,
  "\u2581faaaloalo": 917,
  "\u258118.": 918,
  "\u2581care": 919,
  "\u2581faamautinoa": 920,
  "\u2581eyes": 921,
  "\u2581few": 922,
  "\u2581left": 923,
  "\u2581ita": 924,
  "\u2581m\u0101tauina": 925,
  "\u25813,": 926,
  "\u2581needed": 927,
  "\u2581galue": 928,
  "\u2581again": 929,
  "\u2581m\u0101fua": 930,
  "\u2581Abraham": 931,
  "\u2581faanoanoa": 932,
  "\u2581mafatia": 933,
  "\u2581share": 934,
  "\u2581Aperaamo": 935,
  "\u2581perofeta": 936,
  "\u2581tutusa": 937,
  "\u2581best": 938,
  "\u2581ask": 939,
  "\u2581talosaga": 940,
  "\u2581counsel": 941,
  "\u2581leoleo": 942,
  "\u2581anointed": 943,
  "\u2581Consider": 944,
  "\u2581faapitoa": 945,
  "\u2581faaupuga": 946,
  "\u2581message": 947,
  "\u2581possible": 948,
  "\u2581number": 949,
  "\u2581Iakopo": 950,
  "\u2581free": 951,
  "\u2581All": 952,
  "\u2581talanoaina": 953,
  "\u2581food": 954,
  "\u2581iloaina": 955,
  "\u2581taunuu": 956,
  "\u2581valoaga": 957,
  "\u2581faaleleia": 958,
  "\u2581lapata": 959,
  "\u2581known": 960,
  "\u2581talisapaia": 961,
  "\u2581matter": 962,
  "\u2581Korinito": 963,
  "\u2581yourself": 964,
  "\u2581pulega": 965,
  "\u2581These": 966,
  "\u2581Mea": 967,
  "\u2581bad": 968,
  "\u2581ever": 969,
  "\u2581lives": 970,
  "\u2581desire": 971,
  "\u2581Your": 972,
  "\u2581vaaiga": 973,
  "\u2581faitauina": 974,
  "\u2581manatunatu": 975,
  "\u2581better": 976,
  "\u2581Job": 977,
  "\u2581heavenly": 978,
  "ther": 979,
  "\u2581faaleagaina": 980,
  "\u2581understand": 981,
  "\u2581continue": 982,
  "\u2581done": 983,
  "\u2581king": 984,
  "\u2581ourselves": 985,
  "\u2581avoid": 986,
  "\u2581teaching": 987,
  "\u2581Iopu": 988,
  "\u258124": 989,
  "\u2581Luke": 990,
  "hose": 991,
  "\u2581Luka": 992,
  "\u258124:": 993,
  "\u2581benefit": 994,
  "ino": 995,
  "\u2581fear": 996,
  "\u2581answer": 997,
  "\u2581t\u016b": 998,
  "\u2581different": 999,
  "\u2581last": 1000,
  "\u2581support": 1001,
  "\u2581off": 1002,
  "\u2581feagai": 1003,
  "\u2581aoao": 1004,
  "\u2581problems": 1005,
  "\u2581went": 1006,
  "\u2581cannot": 1007,
  "\u2581Timothy": 1008,
  "\u2581sini": 1009,
  "\u2581ancient": 1010,
  "\u2581sau\u0101": 1011,
  "\u2581near": 1012,
  "\u2581believe": 1013,
  "\u2581Timoteo": 1014,
  "\u2581folafolaga": 1015,
  "\u2581wise": 1016,
  "\u2581malumalu": 1017,
  "\u2581meaalofa": 1018,
  "\u2581righteous": 1019,
  "C": 1020,
  "\u2581elders": 1021,
  "\u25819,": 1022,
  "\u2581giving": 1023,
  "\u2581serving": 1024,
  "aga": 1025,
  "\u2581fine": 1026,
  "\u2581puapuaga": 1027,
  "\u2581Tupu": 1028,
  "\u2581lagolagoina": 1029,
  "\u2581baptized": 1030,
  "\u2581certain": 1031,
  "\u2581self": 1032,
  "\u258129": 1033,
  "\u25816,": 1034,
  "\u2581Faamatalaga": 1035,
  "\u2581enjoy": 1036,
  "\u2581aveesea": 1037,
  "\u2581Tatou": 1038,
  "\u258119.": 1039,
  "\u25815,": 1040,
  "\u2581faauuina": 1041,
  "\u2581account": 1042,
  "\u2581thought": 1043,
  "\u2581feelings": 1044,
  "\u2581far": 1045,
  "\u2581age": 1046,
  "\u2581folafola": 1047,
  "\u2581sense": 1048,
  "\u2581present": 1049,
  "\u2581water": 1050,
  "\u2581early": 1051,
  "\u2581gaoioi": 1052,
  "\u258140": 1053,
  "\u2581Because": 1054,
  "\u2581sao": 1055,
  "\u2581amataga": 1056,
  "\u2581faalagolago": 1057,
  "\u25818,": 1058,
  "\u2581Although": 1059,
  "\u2581suiga": 1060,
  "\u2581received": 1061,
  "\u2581valaaulia": 1062,
  "\u2581itiiti": 1063,
  "\u2581nor": 1064,
  "\u2581nations": 1065,
  "\u2581women": 1066,
  "\u2581Acts": 1067,
  "\u2581Greek": 1068,
  "\u2581Adam": 1069,
  "\u2581Can": 1070,
  "\u2581faaeaga": 1071,
  "\u2581states": 1072,
  "\u2581tu": 1073,
  "\u2581\u25aa": 1074,
  "\u258126": 1075,
  "\u2581Galuega": 1076,
  "\u2581World": 1077,
  "\u2581members": 1078,
  "\u2581since": 1079,
  "ilia": 1080,
  "\u2581moved": 1081,
  "\u2581Does": 1082,
  "\u2581blood": 1083,
  "iala": 1084,
  "\u2581system": 1085,
  "\u2581speak": 1086,
  "\u2581malaga": 1087,
  "\u2581kind": 1088,
  "\u2581money": 1089,
  "\u258133": 1090,
  "\u2581high": 1091,
  "\u2581saw": 1092,
  "M": 1093,
  "\u2581Lord": 1094,
  "\u2581mean": 1095,
  "\u2581faate": 1096,
  "\u2581tam\u0101loa": 1097,
  "Read": 1098,
  "\u2581respect": 1099,
  "\u2581Atamu": 1100,
  "\u2581va": 1101,
  "Faitau": 1102,
  "\u2581teine": 1103,
  "\u2581knew": 1104,
  "\u2581tiute": 1105,
  "\u2581next": 1106,
  "\u2581faagasolo": 1107,
  "\u2581Watchtower": 1108,
  "\u2581law": 1109,
  "\u2581molimau": 1110,
  "\u2581faaopoopo": 1111,
  "\u2581faailoga": 1112,
  "\u2581Mulimuli": 1113,
  "\u2581situation": 1114,
  "\u2581thus": 1115,
  "\u2581yet": 1116,
  "\u2581attention": 1117,
  "\u2581faaumatia": 1118,
  "\u2581kindness": 1119,
  "\u2581needs": 1120,
  "\u2581until": 1121,
  "\u2581along": 1122,
  "\u2581filifilia": 1123,
  "\u2581likely": 1124,
  "\u2581around": 1125,
  "\u2581land": 1126,
  "\u2581Tulafono": 1127,
  "\u2581tou": 1128,
  "\u2581talk": 1129,
  "\u2581difficult": 1130,
  "U": 1131,
  "\u2581Corinthians": 1132,
  "\u2581D": 1133,
  "\u2581lead": 1134,
  "\u2581sure": 1135,
  "\u2581totogi": 1136,
  "\u2581faamanatu": 1137,
  "\u2581case": 1138,
  "\u2581maelega": 1139,
  "\u2581saying": 1140,
  "\u2581school": 1141,
  "\u2581miliona": 1142,
  "\u2581Law": 1143,
  "\u2581reading": 1144,
  "\u2581Thus": 1145,
  "\u2581brought": 1146,
  "\u2581principles": 1147,
  "Na": 1148,
  "\u2581act": 1149,
  "\u2581trust": 1150,
  "\u2581Atu": 1151,
  "\u2581faigaluega": 1152,
  "\u2581maumaua": 1153,
  "\u258127": 1154,
  "\u258114,": 1155,
  "\u2581real": 1156,
  "\u2581receive": 1157,
  "utia": 1158,
  "\u2581follow": 1159,
  "\u2581maliliu": 1160,
  "\u2581Jews": 1161,
  "\u25814,": 1162,
  "\u2581poloa": 1163,
  "\u2581Tagata": 1164,
  "\u2581THE": 1165,
  "\u2581lauga": 1166,
  "\u2581cause": 1167,
  "\u2581aafiaga": 1168,
  "\u2581faatonuga": 1169,
  "\u2581faamaoniga": 1170,
  "er": 1171,
  "\u2581point": 1172,
  "\u2581Faitau": 1173,
  "\u2581attitude": 1174,
  "\u2581Alo": 1175,
  "\u2581suffering": 1176,
  "\u2581body": 1177,
  "\u2581faatalitalia": 1178,
  "\u2581question": 1179,
  "\u2581wrong": 1180,
  "\u2581Who": 1181,
  "\u2581prophet": 1182,
  "\u2581More": 1183,
  "\u2581turn": 1184,
  "\u2581Of": 1185,
  "\u2581died": 1186,
  "\u2581Solomona": 1187,
  "\u2581information": 1188,
  "uch": 1189,
  "\u258120.": 1190,
  "\u2581m\u0101fana": 1191,
  "\u2581taula": 1192,
  "\u2581tofiga": 1193,
  "\u2581ulugalii": 1194,
  "\u2581James": 1195,
  "\u2581faalapotopotoga": 1196,
  "\u2581including": 1197,
  "\u2581wanted": 1198,
  "\u2581followers": 1199,
  "\u2581thinking": 1200,
  "\u2581pito": 1201,
  "\u2581Are": 1202,
  "\u2581especially": 1203,
  "\u2581fasiotia": 1204,
  "\u2581pepelo": 1205,
  "\u2581soon": 1206,
  "\u2581leva": 1207,
  "\u2581vaitaimi": 1208,
  "\u2581happiness": 1209,
  "\u2581whole": 1210,
  "\u2581dead": 1211,
  "\u2581alii": 1212,
  "th": 1213,
  "\u2581amioleaga": 1214,
  "\u2581remain": 1215,
  "\u2581married": 1216,
  "\u2581provide": 1217,
  "\u2581paaga": 1218,
  "\u2581tuaf\u0101fine": 1219,
  "\u2581Read": 1220,
  "Ou": 1221,
  "\u2581teach": 1222,
  "....": 1223,
  "\u2581taliaina": 1224,
  "\u2581tamaitiiti": 1225,
  "\u2581lu": 1226,
  "\u2581tapulaa": 1227,
  "\u2581faamalieina": 1228,
  "\u2581Footnote": 1229,
  "\u2581allow": 1230,
  "\u2581change": 1231,
  "\u2581taught": 1232,
  "\u2581Maria": 1233,
  "\u2581going": 1234,
  "\u2581m\u0101e": 1235,
  "\u2581Solomon": 1236,
  "\u2581Joseph": 1237,
  "\u2581faasaoina": 1238,
  "\u2581small": 1239,
  "\u2581individuals": 1240,
  "\u2581makes": 1241,
  "L": 1242,
  "\u2581faasa": 1243,
  "\u2581special": 1244,
  "\u2581Since": 1245,
  "\u2581tauave": 1246,
  "\u2581Faaaliga": 1247,
  "hile": 1248,
  "\u258121.": 1249,
  "\u2581Creator": 1250,
  "\u2581Romans": 1251,
  "\u2581health": 1252,
  "\u2581faalogologo": 1253,
  "\u2581religion": 1254,
  "\u2581temple": 1255,
  "\u2581nation": 1256,
  "\u2581pray": 1257,
  "\u2581strong": 1258,
  "\u2581faalaeiauina": 1259,
  "\u2581faatau": 1260,
  "\u2581aise\u0101": 1261,
  "\u2581motu": 1262,
  "itiiti": 1263,
  "\u2581Be": 1264,
  "\u2581aemaise": 1265,
  "\u2581faamasinoga": 1266,
  "\u2581Revelation": 1267,
  "\u2581matters": 1268,
  "\u2581sent": 1269,
  "\u2581\"?": 1270,
  "\u2581everlasting": 1271,
  "\u2581sons": 1272,
  "\u2581taavale": 1273,
  "\u2581whe": 1274,
  "\u258110,": 1275,
  "m": 1276,
  "\u2581lotomaulalo": 1277,
  "\u2581malolosi": 1278,
  "\u2581Rather": 1279,
  "\u2581taking": 1280,
  "\u25817,": 1281,
  "\u2581qualities": 1282,
  "\u2581amana": 1283,
  "\u2581spiritually": 1284,
  "\u2581Would": 1285,
  "\u2581works": 1286,
  "\u25aa": 1287,
  "\u2581lomia": 1288,
  "\u2581Iosefa": 1289,
  "\u2581nothing": 1290,
  "\u2581iloilo": 1291,
  "\u2581usiusitai": 1292,
  "\u258123.": 1293,
  "\u2581group": 1294,
  "\u258111,": 1295,
  "\u2581Not": 1296,
  "\u2581perfect": 1297,
  "\u2581light": 1298,
  "\u2581Devil": 1299,
  "\u2581Hall": 1300,
  "\u2581mentioned": 1301,
  "\u2581tuafafine": 1302,
  "st": 1303,
  "\u2581feiloa": 1304,
  "\u2581gives": 1305,
  "\u2581Pictures": 1306,
  "\u2581try": 1307,
  "\u2581thing": 1308,
  "\u2581kingdom": 1309,
  "\u2581war": 1310,
  "\u258116,": 1311,
  "\u2581vaiaso": 1312,
  "\u2581comes": 1313,
  "\u2581similar": 1314,
  "\u2581papatiso": 1315,
  "\u2581loved": 1316,
  "\u2581pele": 1317,
  "\u2581divine": 1318,
  "\u2581sisters": 1319,
  "\u258112,": 1320,
  "\u2581talafaasolopito": 1321,
  "\u2581heard": 1322,
  "\u2581resurrection": 1323,
  "\u2581taga": 1324,
  "\u2581talanoaga": 1325,
  "\u2581four": 1326,
  "\u2581sacrifice": 1327,
  "\u2581ofo": 1328,
  "\u2581vaa": 1329,
  "\u016b": 1330,
  "\u2581control": 1331,
  "\u2581faaali": 1332,
  "\u2581tusitala": 1333,
  "\u2581involved": 1334,
  "\u2581Kenese": 1335,
  "\u2581atia": 1336,
  "\u2581Lalolagi": 1337,
  "\u2581lautele": 1338,
  "\u25817:": 1339,
  "\u2581Daniel": 1340,
  "\u2581Today": 1341,
  "\u2581apostles": 1342,
  "\u2581f\u0101": 1343,
  "\u2581inspired": 1344,
  "\u2581Genesis": 1345,
  "\u2581People": 1346,
  "\u2581material": 1347,
  "\u2581certainly": 1348,
  "\u2581tusitusiga": 1349,
  "\u2581night": 1350,
  "\u25812,": 1351,
  "\u2581gift": 1352,
  "ito": 1353,
  "\u258131": 1354,
  "\u2581Aikupito": 1355,
  "\u258132": 1356,
  "\u2581clear": 1357,
  "\u2581sona": 1358,
  "\u2581tauaofiaga": 1359,
  "\u2581fully": 1360,
  "espite": 1361,
  "\u2581mafatiaga": 1362,
  "\u2581second": 1363,
  "\u2581lesona": 1364,
  "\u258113:": 1365,
  "\u2581Hebrew": 1366,
  "\u2581faaletino": 1367,
  "\u2581wonderful": 1368,
  "\u2581strength": 1369,
  "\u2581malie": 1370,
  "\u2581sina": 1371,
  "\u2581fili": 1372,
  "\u2581tuaoi": 1373,
  "\u2581false": 1374,
  "\u2581truly": 1375,
  "\u2581large": 1376,
  "\u2581lavea": 1377,
  "\u2581Olomatamata": 1378,
  "\u2581autasi": 1379,
  "\u2581faalaeiau": 1380,
  "\u2581feusua": 1381,
  "\u2581righteousness": 1382,
  "\u2581Aua": 1383,
  "\u2581sister": 1384,
  "\u2581afe": 1385,
  "\u2581ofisa": 1386,
  "\u2581tula": 1387,
  "\u2581m\u0101l\u014dl\u014dina": 1388,
  "\u2581physical": 1389,
  "\u2581taken": 1390,
  "\u2581manumalo": 1391,
  "\u2581provided": 1392,
  "\u2581shows": 1393,
  "\u2581Dur": 1394,
  "\u2581circumstances": 1395,
  "\u2581Au\u0101": 1396,
  "\u2581aofa": 1397,
  "\u2581faaliliuga": 1398,
  "\u2581Ai": 1399,
  "\u2581sheep": 1400,
  "\u2581Maota": 1401,
  "\u2581started": 1402,
  "\u2581Lona": 1403,
  "\u2581slave": 1404,
  "\u2581effort": 1405,
  "\u2581Fai": 1406,
  "\u2581fea": 1407,
  "\u258122.": 1408,
  "\u2581salam\u014d": 1409,
  "\u2581based": 1410,
  "\u2581Noa": 1411,
  "\u2581meaning": 1412,
  "\u258113,": 1413,
  "\u2581faatatauina": 1414,
  "\u2581anyone": 1415,
  "\u2581lived": 1416,
  "\u2581seen": 1417,
  "\u2581foma": 1418,
  "\u2581friend": 1419,
  "\u2581once": 1420,
  "\u2581simply": 1421,
  "in": 1422,
  "\u2581fualaau": 1423,
  "\u2581tell": 1424,
  "\u2581draw": 1425,
  "\u2581local": 1426,
  "\u2581past": 1427,
  "and": 1428,
  "\u2581accept": 1429,
  "\u2581return": 1430,
  "\u2581evidence": 1431,
  "\u2581faataunuu": 1432,
  "\u2581Did": 1433,
  "\u2581s": 1434,
  "\u2581fetalaiga": 1435,
  "\u2581interest": 1436,
  "\u2581mamalu": 1437,
  "\u2581imitate": 1438,
  "\u258137": 1439,
  "\u2581vaivai": 1440,
  "\u2581written": 1441,
  "\u2581forever": 1442,
  "\u2581leave": 1443,
  "\u2581Faa": 1444,
  "\u2581N": 1445,
  "\u2581showed": 1446,
  "\u2581understanding": 1447,
  "\u258124.": 1448,
  "\u2581gain": 1449,
  "\u2581further": 1450,
  "\u2581l\u0101l\u0101": 1451,
  "\u2581pologa": 1452,
  "\u2581comfort": 1453,
  "\u2581Like": 1454,
  "\u2581stand": 1455,
  "\u2581country": 1456,
  "\u2581coming": 1457,
  "\u2581lost": 1458,
  "\u2581please": 1459,
  "\u2581Peretania": 1460,
  "\u2581prayers": 1461,
  "\u2581Will": 1462,
  "\u2581lata": 1463,
  "\u2581misionare": 1464,
  "\u2581Aso": 1465,
  "\u2581faatonuina": 1466,
  "\u2581Tiapolo": 1467,
  "You": 1468,
  "\u2581using": 1469,
  "\u2581standards": 1470,
  "\u2581Iuta": 1471,
  "\u2581pepe": 1472,
  "\u2581faalavelave": 1473,
  "\u2581according": 1474,
  "\u2581Scriptural": 1475,
  "\u2581Noah": 1476,
  "\u2581faafetai": 1477,
  "\u2581rule": 1478,
  "\u2581Moni": 1479,
  "\u2581blessings": 1480,
  "\u2581meeting": 1481,
  "\u2581regard": 1482,
  "oloto": 1483,
  "\u258119,": 1484,
  "\u2581congregations": 1485,
  "\u2581patino": 1486,
  "\u2581Mesia": 1487,
  "\u2581doubt": 1488,
  "\u2581valoia": 1489,
  "\u2581already": 1490,
  "\u2581rather": 1491,
  "\u2581sefulu": 1492,
  "\u2581Fesili": 1493,
  "\u2581pioneer": 1494,
  "\u2581Their": 1495,
  "\u2581born": 1496,
  "\u2581here": 1497,
  "na": 1498,
  "\u2581An": 1499,
  "\u2581efforts": 1500,
  "\u2581examples": 1501,
  "\u2581kept": 1502,
  "\u2581Tanielu": 1503,
  "\u2581anything": 1504,
  "\u258117,": 1505,
  "\u2581Still": 1506,
  "\u2581form": 1507,
  "\u2581speaking": 1508,
  "\u2581faatalitali": 1509,
  "\u2581maufaatuatuaina": 1510,
  "\u2581promise": 1511,
  "\u2581inu": 1512,
  "\u2581lototele": 1513,
  "\u2581prophecy": 1514,
  "\u2581savavali": 1515,
  "\u2581Life": 1516,
  "\u2581Mary": 1517,
  "\u2581blessing": 1518,
  "\u2581maualuga": 1519,
  "\u2581authority": 1520,
  "\u2581serious": 1521,
  "\u2581Now": 1522,
  "\u2581Hebrews": 1523,
  "Pe": 1524,
  "\u2581deep": 1525,
  "\u2581fanua": 1526,
  "\u2581Instead": 1527,
  "\u2581opportunity": 1528,
  "\u2581powerful": 1529,
  "\u2581mekasini": 1530,
  "\u2581therefore": 1531,
  "\u2581shall": 1532,
  "\u2581latalata": 1533,
  "\u2581tamaoaiga": 1534,
  "\u2581heavens": 1535,
  "\u2581privilege": 1536,
  "\u2581Amerika": 1537,
  "\u2581loyal": 1538,
  "\u2581greater": 1539,
  "\u2581solo": 1540,
  "\u2581longer": 1541,
  "\u2581siitia": 1542,
  "\u2581Jewish": 1543,
  "\u2581named": 1544,
  "toe": 1545,
  "\u2581call": 1546,
  "\u2581pages": 1547,
  "\u2581vavalalata": 1548,
  ",...": 1549,
  "\u2581deal": 1550,
  "\u2581move": 1551,
  "\u2581spoke": 1552,
  "\u2581pogai": 1553,
  "\u2581usiusita": 1554,
  "\u2581Ieremia": 1555,
  "\u2581witness": 1556,
  "\u2581confidence": 1557,
  "ting": 1558,
  "\u2581Eva": 1559,
  "\u2581angels": 1560,
  "\u2581faapito": 1561,
  "\u2581taa": 1562,
  "\u2581value": 1563,
  "\u2581faama": 1564,
  "\u2581hearts": 1565,
  "\u2581ofu": 1566,
  "\u2581Mark": 1567,
  "\u2581faateleina": 1568,
  "\u2581promises": 1569,
  "\u2581decisions": 1570,
  "c": 1571,
  "\u2581within": 1572,
  "\u2581Samuel": 1573,
  "\u2581faaalu": 1574,
  "\u2581perhaps": 1575,
  "\u2581Papelonia": 1576,
  "\u2581effect": 1577,
  "\u2581hands": 1578,
  "\u0112": 1579,
  "\u2581Hence": 1580,
  "\u2581months": 1581,
  "\u2581osofa": 1582,
  "\u2581served": 1583,
  "Jehovah": 1584,
  "\u2581die": 1585,
  "\u2581decision": 1586,
  "\u2581mauga": 1587,
  "\u2581organization": 1588,
  "\u2581foafoaina": 1589,
  "\u2581maintain": 1590,
  "\u2581public": 1591,
  "\u2581helps": 1592,
  "\u2581Watch": 1593,
  "\u2581Jeremiah": 1594,
  "\u2581continued": 1595,
  "\u2581willing": 1596,
  "\u2581pese": 1597,
  "\u2581fefe": 1598,
  "\u2581soul": 1599,
  "\u2581apply": 1600,
  "\u2581preach": 1601,
  "\u258125.": 1602,
  "\u2581Faaopoopo": 1603,
  "\u2581Roman": 1604,
  "\u2581taui": 1605,
  "\u2581mutimutivale": 1606,
  "God": 1607,
  "ona": 1608,
  "\u2581Ana": 1609,
  "\u2581honor": 1610,
  "\u2581United": 1611,
  "\u2581Samuelu": 1612,
  "\u2581older": 1613,
  "\u2581Society": 1614,
  "\u2581believers": 1615,
  "\u2581common": 1616,
  "\u2581According": 1617,
  "\u2581history": 1618,
  "\u2581silasila": 1619,
  "\u2581glory": 1620,
  "\u2581published": 1621,
  "\u2581visit": 1622,
  "\u2581changed": 1623,
  "\u2581soona": 1624,
  "\u2581vasega": 1625,
  "\u258150": 1626,
  "\u2581faaliliuina": 1627,
  "\u2581P": 1628,
  "\u2581stated": 1629,
  "\u2581got": 1630,
  "\u2581foafoaga": 1631,
  "\u2581hear": 1632,
  "\u2581instance": 1633,
  "\u2581mate": 1634,
  "olotoga": 1635,
  "\u2581everything": 1636,
  "\u2581Indeed": 1637,
  "\u2581remember": 1638,
  "\u2581vital": 1639,
  "\u2581activities": 1640,
  "\u2581events": 1641,
  "\u2581available": 1642,
  "\u2581listen": 1643,
  "\u2581Sili": 1644,
  "\u2581explained": 1645,
  "\u2581saogalemu": 1646,
  "\u2581couple": 1647,
  "\u2581direction": 1648,
  "\u2581thoughts": 1649,
  "\u2581Tower": 1650,
  "\u2581Muamua": 1651,
  "\u2581prove": 1652,
  "\u2581PAGE": 1653,
  "\u2581regarding": 1654,
  "\u2581tetele": 1655,
  "\u2581faamamaluina": 1656,
  "\u2581Peteli": 1657,
  "\u2581mala": 1658,
  "\u2581ovasia": 1659,
  "\u2581Eve": 1660,
  "\u2581Witness": 1661,
  "\u2581F": 1662,
  "\u2581alone": 1663,
  "\u2581hold": 1664,
  "\u2581agamalu": 1665,
  "\u2581answers": 1666,
  "\u2581faaitiitia": 1667,
  "\u2581issue": 1668,
  "\u2581J": 1669,
  "\u258118,": 1670,
  "\u2581ITULA": 1671,
  "\u2581fausia": 1672,
  "\u2581ioe": 1673,
  "\u2581togiola": 1674,
  "\u2581advice": 1675,
  "\u2581pau": 1676,
  "\u2581faataim": 1677,
  "\u2581falepuipui": 1678,
  "\u2581problem": 1679,
  "\u2581Efeso": 1680,
  "\u2581m\u0101tau": 1681,
  "\u2581aumea": 1682,
  "\u2581fatu": 1683,
  "\u2581l\u0101": 1684,
  "\u2581teachings": 1685,
  "\u2581Pule": 1686,
  "\u2581True": 1687,
  "\u2581branch": 1688,
  "\u2581considered": 1689,
  "\u2581Taga": 1690,
  "\u2581held": 1691,
  "\u2581offer": 1692,
  "\u2581Saulo": 1693,
  "\u2581judgment": 1694,
  "\u2581led": 1695,
  "\u2581text": 1696,
  "\u2581appointed": 1697,
  "\u2581May": 1698,
  "\u2581ability": 1699,
  "\u2581accepted": 1700,
  "\u2581determined": 1701,
  "\u2581lauiloa": 1702,
  "\u2581moral": 1703,
  "\u2581area": 1704,
  "\u2581faasalaga": 1705,
  "aina": 1706,
  "\u2581faatusa": 1707,
  "\u2581itula": 1708,
  "\u2581\u014dgatusa": 1709,
  "\u2581affect": 1710,
  "\u2581faafiafia": 1711,
  "\u2581students": 1712,
  "less": 1713,
  "\u2581influence": 1714,
  "\u2581afioga": 1715,
  "\u2581matamata": 1716,
  "\u2581class": 1717,
  "\u2581recorded": 1718,
  "\u2581build": 1719,
  "\u2581wants": 1720,
  "\u2581experienced": 1721,
  "\u2581faatupu": 1722,
  "\u2581field": 1723,
  "\u2581First": 1724,
  "\u2581Ta": 1725,
  "\u2581integrity": 1726,
  "\u2581pu": 1727,
  "\u2581various": 1728,
  "\u2581seek": 1729,
  "over": 1730,
  "\u2581conscience": 1731,
  "\u2581afi": 1732,
  "\u2581ago": 1733,
  "\u2581toet\u016b": 1734,
  "\u2581head": 1735,
  "\u2581letter": 1736,
  "\u2581See": 1737,
  "\u2581psalmist": 1738,
  "\u2581appreciation": 1739,
  "\u2581complete": 1740,
  "\u2581church": 1741,
  "\u2581appreciate": 1742,
  "\u2581flesh": 1743,
  "\u2581tumu": 1744,
  "to": 1745,
  "\u2581Bethel": 1746,
  "\u2581faatulagaga": 1747,
  "\u2581forth": 1748,
  "\u2581walk": 1749,
  "\u2581Saul": 1750,
  "\u2581earlier": 1751,
  "\u2581silafaga": 1752,
  "\u2581strengthen": 1753,
  "\u2581described": 1754,
  "\u2581mafaufauga": 1755,
  "\u2581proved": 1756,
  "\u2581feagaiga": 1757,
  "\u2581ransom": 1758,
  "\u2581English": 1759,
  "\u2581open": 1760,
  "\u2581role": 1761,
  "\u2581whose": 1762,
  "\u2581faafiafiaina": 1763,
  "\u2581faafuase": 1764,
  "\u2581faapogaia": 1765,
  "Aua": 1766,
  "\u2581Just": 1767,
  "\u2581mafaia": 1768,
  "\u2581clearly": 1769,
  "\u2581reach": 1770,
  "\u2581source": 1771,
  "\u2581faisalamo": 1772,
  "\u2581godly": 1773,
  "\u2581seem": 1774,
  "\u2581lamatia": 1775,
  "\u2581sins": 1776,
  "\u2581poor": 1777,
  "\u2581above": 1778,
  "\u2581sana": 1779,
  "r": 1780,
  "\u2581government": 1781,
  "\u2581onosai": 1782,
  "\u2581papatisoina": 1783,
  "\u2581else": 1784,
  "\u2581faamanuia": 1785,
  "\u2581offered": 1786,
  "es": 1787,
  "\u2581agavaa": 1788,
  "\u2581happened": 1789,
  "\u2581practical": 1790,
  "\u2581Have": 1791,
  "\u2581talafaatusa": 1792,
  "\u2581faatagaina": 1793,
  "\u2581feutaga": 1794,
  "\u2581helping": 1795,
  "\u2581tofotofoga": 1796,
  "\u2581express": 1797,
  "\u2581chapter": 1798,
  "\u2581Egypt": 1799,
  "\u2581easy": 1800,
  "\u2581several": 1801,
  "\u2581w": 1802,
  "\u2581faife": 1803,
  "\u2581fuaiupu": 1804,
  "\u2581explains": 1805,
  "\u2581faautauta": 1806,
  "\u2581foretold": 1807,
  "\u2581harmony": 1808,
  "Taga": 1809,
  "\u25819:": 1810,
  "\u2581taaloga": 1811,
  "\u2581period": 1812,
  "\u2581polokalame": 1813,
  "\u2581Therefore": 1814,
  "\u2581baptism": 1815,
  "\u2581meet": 1816,
  "\u2581met": 1817,
  "\u2581created": 1818,
  "\u2581start": 1819,
  "\u2581lotomalie": 1820,
  "\u2581promised": 1821,
  "\u2581precious": 1822,
  "\u2581pain": 1823,
  "\u2581five": 1824,
  "\u2581attend": 1825,
  "\u2581books": 1826,
  "\u2581itself": 1827,
  "\u258134": 1828,
  "\u2581faas\u0101ina": 1829,
  "\u258120,": 1830,
  "\u2581lotofaafetai": 1831,
  "mea": 1832,
  "\u2581activity": 1833,
  "\u2581clean": 1834,
  "\u2581daughter": 1835,
  "\u2581modern": 1836,
  "\u2581training": 1837,
  "\u2581Later": 1838,
  "\u258129.": 1839,
  "\u2581accurate": 1840,
  "\u2581assignment": 1841,
  "\u2581office": 1842,
  "\u2581Brother": 1843,
  "\u2581earthly": 1844,
  "\u2581faasolo": 1845,
  "\u2581sami": 1846,
  "re": 1847,
  "\u2581Credit": 1848,
  "\u2581faamata": 1849,
  "\u2581Tusitusiga": 1850,
  "\u2581matui\u0101": 1851,
  "org": 1852,
  "\u2581worldwide": 1853,
  "\u2581tausi": 1854,
  "\u2581everyone": 1855,
  "\u2581aumai": 1856,
  "\u2581birth": 1857,
  "\u25cf": 1858,
  "\u2581reasons": 1859,
  "\u258170": 1860,
  "\u2581M": 1861,
  "\u2581actions": 1862,
  "\u2581guidance": 1863,
  "\u2581myself": 1864,
  "\u2581violence": 1865,
  "\u2581Mata": 1866,
  "\u2581lafo": 1867,
  "\u2581regularly": 1868,
  "\u2581NA": 1869,
  "\u2581afio": 1870,
  "\u2581covenant": 1871,
  "\u2581enough": 1872,
  "\u2581ositaulaga": 1873,
  "\u2581p\u0101": 1874,
  "\u2581Latou": 1875,
  "\u2581praise": 1876,
  "\u2581UA": 1877,
  "\u2581fitu": 1878,
  "\u2581grow": 1879,
  "\u2581learning": 1880,
  "\u2581tautatala": 1881,
  "\u2581R": 1882,
  "\u2581Setete": 1883,
  "\u2581savali": 1884,
  "\u258131.": 1885,
  "\u2581Mareko": 1886,
  "\u2581courage": 1887,
  "\u2581fuafua": 1888,
  "\u2581regular": 1889,
  "\u2581tried": 1890,
  "\u2581tua": 1891,
  "\u2581evil": 1892,
  "\u2581Faia": 1893,
  "\u2581appropriate": 1894,
  "\u2581concern": 1895,
  "\u2581Lelei": 1896,
  "\u2581indeed": 1897,
  "\u2581neither": 1898,
  "\u2581faagaeeina": 1899,
  "\u2581position": 1900,
  "\u2581rest": 1901,
  "\u2581Most": 1902,
  "\u2581Siamani": 1903,
  "\u2581States": 1904,
  "\u2581obey": 1905,
  "\u2581respond": 1906,
  "\u00a9": 1907,
  "\u258128.": 1908,
  "\u2581develop": 1909,
  "\u2581faatulaga": 1910,
  "\u2581provides": 1911,
  "\u2581Jacob": 1912,
  "\u2581carry": 1913,
  "\u2581choose": 1914,
  "\u2581tofi": 1915,
  "\u2581raised": 1916,
  "\u2581actually": 1917,
  "\u2581write": 1918,
  "\u2581laws": 1919,
  "\u258122,": 1920,
  "\u2581mou": 1921,
  "\u2581taatele": 1922,
  "\u2581taeao": 1923,
  "\u2581working": 1924,
  "\u2581faat\u016bina": 1925,
  "\u2581km": 1926,
  "\u2581stay": 1927,
  "\u258160": 1928,
  "\u2581action": 1929,
  "See": 1930,
  "\u2581decided": 1931,
  "\u012b": 1932,
  "\u2581convention": 1933,
  "\u2581faaeteete": 1934,
  "\u2581single": 1935,
  "\u2581responsibility": 1936,
  "\u2581takes": 1937,
  "\u2581languages": 1938,
  "\u2581occasion": 1939,
  "\u2581six": 1940,
  "\u2581knows": 1941,
  "\u2581less": 1942,
  "\u2581anoanoa": 1943,
  "\u2581Box": 1944,
  "aite": 1945,
  "\u2581daily": 1946,
  "\u2581Iun": 1947,
  "\u2581taitai": 1948,
  "\u2581faamuamua": 1949,
  "\u2581faataga": 1950,
  "\u2581subject": 1951,
  "\u2581un": 1952,
  "\u2581Aferika": 1953,
  "\u2581speech": 1954,
  "\u2581faamasino": 1955,
  "\u2581liliu": 1956,
  "\u2581anger": 1957,
  "\u2581Or": 1958,
  "\u2581missionary": 1959,
  "\u2581Katoliko": 1960,
  "\u2581mataala": 1961,
  "\u2581eat": 1962,
  "\u2581faatauvaa": 1963,
  "\u2581parataiso": 1964,
  "\u2581Auala": 1965,
  "\u2581Messiah": 1966,
  "\u2581encouraged": 1967,
  "\u2581results": 1968,
  "\u2581maualuluga": 1969,
  "\u2581positive": 1970,
  "\u2581rich": 1971,
  "\u2581discipline": 1972,
  "\u2581Falani": 1973,
  "\u2581U": 1974,
  "\u2581faatonu": 1975,
  "\u2581100": 1976,
  "\u2581natural": 1977,
  "\u2581exercise": 1978,
  "\u2581maila": 1979,
  "\u2581stop": 1980,
  "\u2581trials": 1981,
  "\u2581\u0101uga": 1982,
  "\u2581expression": 1983,
  "\u2581faamagalo": 1984,
  "\u2581Pusa": 1985,
  "\u2581Agaga": 1986,
  "\u2581taumafa": 1987,
  "ta": 1988,
  "\u2581faavaeina": 1989,
  "\u2581Love": 1990,
  "\u2581Another": 1991,
  "\u2581prayed": 1992,
  "\u2581tree": 1993,
  "\u2581feteena": 1994,
  "\u2581studying": 1995,
  "ness": 1996,
  "\u2581creation": 1997,
  "\u2581d": 1998,
  "\u2581mua": 1999,
  "\u2581fafo": 2000,
  "\u2581ten": 2001,
  "\u2581Before": 2002,
  "\u2581sexual": 2003,
  "\u2581Judah": 2004,
  "\u2581changes": 2005,
  "\u2581faape": 2006,
  "\u2581lands": 2007,
  "Sa": 2008,
  "\u2581showing": 2009,
  "\u2581turned": 2010,
  "\u2581challenge": 2011,
  "\u2581entire": 2012,
  "\u2581faalauiloa": 2013,
  "\u2581faaletagata": 2014,
  "\u2581BIBLE": 2015,
  "\u2581allowed": 2016,
  "\u2581places": 2017,
  "autau": 2018,
  "\u2581invited": 2019,
  "\u2581interests": 2020,
  "\u2581kopi": 2021,
  "\u2581throughout": 2022,
  "\u2581behind": 2023,
  "\u2581addition": 2024,
  "\u2581include": 2025,
  "\u2581Holy": 2026,
  "\u2581centuries": 2027,
  "\u2581desires": 2028,
  "\u2581servant": 2029,
  "\u2581lagolagosua": 2030,
  "\u2581general": 2031,
  "\u2581individual": 2032,
  "\u2581literature": 2033,
  "\u2581lotofuatiaifo": 2034,
  "\u2581laueleele": 2035,
  "la": 2036,
  "\u2581aupito": 2037,
  "\u2581hours": 2038,
  "\u2581practice": 2039,
  "\u2581proper": 2040,
  "\u2581realize": 2041,
  "\u2581Others": 2042,
  "\u2581tells": 2043,
  "\u2581Catholic": 2044,
  "\u2581Manatu": 2045,
  "\u2581faataatia": 2046,
  "\u2581miles": 2047,
  "\u2581millions": 2048,
  "\u2581oganuu": 2049,
  "\u2581returned": 2050,
  "\u2581faasaga": 2051,
  "us": 2052,
  "\u2581job": 2053,
  "tuputupu": 2054,
  "\u2581door": 2055,
  "\u2581faal\u0113tonu": 2056,
  "\u2581paradise": 2057,
  "\u2581protect": 2058,
  "\u2581seeking": 2059,
  "\u2581tuai": 2060,
  "\u2581Great": 2061,
  "\u2581imperfect": 2062,
  "\u2581salvation": 2063,
  "ic": 2064,
  "\u2581don": 2065,
  "\u2581favor": 2066,
  "\u2581fulfillment": 2067,
  "\u2581lolo": 2068,
  "\u2581matitiva": 2069,
  "\u2581onosa": 2070,
  "\u2581seven": 2071,
  "\u2581atamamai": 2072,
  "\u2581faafo": 2073,
  "\u2581families": 2074,
  "\u2581ausia": 2075,
  "\u2581goal": 2076,
  "ava": 2077,
  "\u2581short": 2078,
  "\u2581freedom": 2079,
  "\u2581worked": 2080,
  "\u2581faalatalata": 2081,
  "\u2581shown": 2082,
  "ma": 2083,
  "\u2581endure": 2084,
  "\u2581v\u0101ai": 2085,
  "\u2581Ese": 2086,
  "\u2581faasologa": 2087,
  "\u2581display": 2088,
  "\u2581interested": 2089,
  "\u2581pepa": 2090,
  "\u2581personality": 2091,
  "\u2581totoe": 2092,
  "\u2581caused": 2093,
  "\u2581force": 2094,
  "\u2581lafoa": 2095,
  "\u2581Awake": 2096,
  "\u2581genuine": 2097,
  "\u2581knowing": 2098,
  "\u2581reflect": 2099,
  "\u2581assigned": 2100,
  "\u2581goals": 2101,
  "se": 2102,
  "\u2581Line": 2103,
  "\u2581seems": 2104,
  "\u25817]": 2105,
  "\u2581enjoyed": 2106,
  "\u2581vae": 2107,
  "\u2581destruction": 2108,
  "\u2581elder": 2109,
  "\u2581least": 2110,
  "\u2581manaia": 2111,
  "\u2581becoming": 2112,
  "\u2581voice": 2113,
  "\u2581wonder": 2114,
  "\u258124,": 2115,
  "\u2581sign": 2116,
  "\u2581Us": 2117,
  "\u2581galo": 2118,
  "\u2581oloa": 2119,
  "\u2581humble": 2120,
  "\u2581original": 2121,
  "\u2581blessed": 2122,
  "\u2581t\u0101": 2123,
  "\u2581prison": 2124,
  "\u2581soifuaga": 2125,
  "\u2581Ask": 2126,
  "\u2581suffer": 2127,
  "\u2581benefits": 2128,
  "\u2581faam\u0101fanafanaga": 2129,
  "\u2581thousands": 2130,
  "\u2581fouvale": 2131,
  "\u2581Though": 2132,
  "\u2581bear": 2133,
  "\u2581faatig\u0101": 2134,
  "\u2581fitafita": 2135,
  "\u2581popolega": 2136,
  "\u2581tatala": 2137,
  "\u2581walking": 2138,
  "\u2581week": 2139,
  "\u258126.": 2140,
  "\u2581Ala": 2141,
  "\u2581Iosua": 2142,
  "\u2581feoti": 2143,
  "\u2581quality": 2144,
  "\u2581acts": 2145,
  "\u2581aganuu": 2146,
  "\u2581countries": 2147,
  "\u2581deeply": 2148,
  "\u2581enemies": 2149,
  "\u2581Brooklyn": 2150,
  "\u2581Mafai": 2151,
  "\u2581encourage": 2152,
  "\u2581ready": 2153,
  "an": 2154,
  "\u2581tauofo": 2155,
  "\u2581added": 2156,
  "\u2581Tali": 2157,
  "\u2581uaina": 2158,
  "\u2581Keep": 2159,
  "\u2581crowd": 2160,
  "\u2581happen": 2161,
  "\u2581justice": 2162,
  "\u2581member": 2163,
  "\u2581tosina": 2164,
  "\u258127.": 2165,
  "\u2581Joshua": 2166,
  "\u2581basis": 2167,
  "\u2581condition": 2168,
  "l": 2169,
  "\u2581faatino": 2170,
  "\u2581Perhaps": 2171,
  "\u2581angel": 2172,
  "\u2581expect": 2173,
  "\u2581faatumauina": 2174,
  "\u2581greatest": 2175,
  "\u2581illustration": 2176,
  "\u2581Babylon": 2177,
  "\u2581building": 2178,
  "\u2581side": 2179,
  "If": 2180,
  "omaga": 2181,
  "\u2581Ephesians": 2182,
  "\u2581beyond": 2183,
  "\u2581pressure": 2184,
  "\u2581record": 2185,
  "\u2581\u25a1": 2186,
  "\u2581eseesega": 2187,
  "\u2581inei": 2188,
  "\u2581translation": 2189,
  "\u2581talaaga": 2190,
  "\u2581choice": 2191,
  "\u2581faafiafiaga": 2192,
  "\u2581faced": 2193,
  "\u2581former": 2194,
  "\u2581quickly": 2195,
  "\u25819]": 2196,
  "\u2581Vaega": 2197,
  "\u2581Young": 2198,
  "\u2581faamaualuga": 2199,
  "ea": 2200,
  "\u2581beliefs": 2201,
  "\u2581'?": 2202,
  "\u2581Sauniga": 2203,
  "\u2581beginning": 2204,
  "\u2581malamalamaga": 2205,
  "\u2581totino": 2206,
  "\u2581tupua": 2207,
  "jw": 2208,
  "\u2581ofoina": 2209,
  "\u2581cultivate": 2210,
  "\u2581mativa": 2211,
  "\u2581sometimes": 2212,
  "\u2581Su": 2213,
  "\u2581firm": 2214,
  "\u2581St": 2215,
  "\u2581alive": 2216,
  "\u2581arrived": 2217,
  "\u2581feet": 2218,
  "\u2581leaders": 2219,
  "\u2581necessary": 2220,
  "\u2581fire": 2221,
  "\u25811.": 2222,
  "\u2581Filipi": 2223,
  "\u2581July": 2224,
  "\u2581brings": 2225,
  "\u2581tauivi": 2226,
  "\u2581vavega": 2227,
  "\u2581Elia": 2228,
  "\u2581looking": 2229,
  "\u2581mercy": 2230,
  "\u2581parent": 2231,
  "uta": 2232,
  "\u2581education": 2233,
  "\u2581faatinoina": 2234,
  "\u2581puupuu": 2235,
  "\u2581eventually": 2236,
  "\u2581faamauina": 2237,
  "\u2581faatuatuaina": 2238,
  "\u2581gaua": 2239,
  "\u2581lipoti": 2240,
  "\u2581success": 2241,
  "\u2581ti": 2242,
  "\u2581warning": 2243,
  "\u2581viiga": 2244,
  "ole": 2245,
  "ww": 2246,
  "\u2581potu": 2247,
  "\u2581Me": 2248,
  "\u2581Soon": 2249,
  "\u2581faalelagi": 2250,
  "\u2581sound": 2251,
  "\u2581spent": 2252,
  "\u2581Clearly": 2253,
  "\u2581TUSI": 2254,
  "\u2581pusa": 2255,
  "ve": 2256,
  "\u2581Europa": 2257,
  "\u2581Pennsylvania": 2258,
  "\u2581Similarly": 2259,
  "\u2581encouragement": 2260,
  "\u2581sacred": 2261,
  "\u2581magazine": 2262,
  "\u2581traveling": 2263,
  "\u2581whatever": 2264,
  "en": 2265,
  "\u2581faatauina": 2266,
  "\u2581SE": 2267,
  "\u2581line": 2268,
  "\u2581oulua": 2269,
  "\u258115]": 2270,
  "\u2581Evagelia": 2271,
  "\u2581papatisoga": 2272,
  "\u2581saito": 2273,
  "\u258135.": 2274,
  "\u2581L": 2275,
  "\u2581million": 2276,
  "\u2581revealed": 2277,
  "\u2581sea": 2278,
  "\u2581Nuu": 2279,
  "\u2581ahead": 2280,
  "\u2581lack": 2281,
  "\u2581sacrifices": 2282,
  "\u2581About": 2283,
  "\u2581accounts": 2284,
  "\u2581fruit": 2285,
  "\u2581fulfilled": 2286,
  "evertheless": 2287,
  "\u2581address": 2288,
  "\u2581focus": 2289,
  "Do": 2290,
  "\u258121,": 2291,
  "\u2581faasolosolo": 2292,
  "\u2581priest": 2293,
  "\u2581vaavaai": 2294,
  "\u2581Lotu": 2295,
  "\u2581Ruth": 2296,
  "\u2581beautiful": 2297,
  "\u2581faat\u0101uaina": 2298,
  "\u2581morning": 2299,
  "\u2581sau\u0101ga": 2300,
  "\u2581followed": 2301,
  "\u2581steps": 2302,
  "\u2581challenges": 2303,
  "\u2581feeling": 2304,
  ").": 2305,
  "\u2581Further": 2306,
  "\u2581ati": 2307,
  "\u2581completely": 2308,
  "\u2581faitoto": 2309,
  "\u2581femalagaa": 2310,
  "\u2581fetaui": 2311,
  "\u2581behalf": 2312,
  "\u2581m\u0101l\u014dl\u014d": 2313,
  "\u2581related": 2314,
  "\u2581sex": 2315,
  "\u2581truths": 2316,
  "\u258133.": 2317,
  "\u2581Asia": 2318,
  "\u2581Really": 2319,
  "\u2581York": 2320,
  "\u2581expressed": 2321,
  "\u2581sou": 2322,
  "\u2581examine": 2323,
  "\u2581unity": 2324,
  "\u258128,": 2325,
  "\u2581eleele": 2326,
  "\u2581getting": 2327,
  "\u2581girl": 2328,
  "\u2581simple": 2329,
  "\u2581Elijah": 2330,
  "\u2581TO": 2331,
  "\u2581either": 2332,
  "\u2581laiti": 2333,
  "\u2581lanu": 2334,
  "\u2581onosaia": 2335,
  "\u2581publications": 2336,
  "\u2581worshippers": 2337,
  "\u2581explain": 2338,
  "\u2581meafaitino": 2339,
  "We": 2340,
  "\u258118:": 2341,
  "\u2581faapolotiki": 2342,
  "\u2581meaola": 2343,
  "\u2581faaata": 2344,
  "\u2581usually": 2345,
  "\u2581puna": 2346,
  "\u2581trying": 2347,
  "\u2581usita": 2348,
  "\u2581included": 2349,
  "\u2581faatusatusa": 2350,
  "\u2581lesson": 2351,
  "\u2581yourselves": 2352,
  "\u2581Where": 2353,
  "\u2581puipuiga": 2354,
  "\u2581faases\u0113ina": 2355,
  "\u2581priests": 2356,
  "\u2581solitulafono": 2357,
  "atolu": 2358,
  "\u258123]": 2359,
  "\u2581selau": 2360,
  "\u2581test": 2361,
  "\u2581ai\u0101": 2362,
  "\u2581command": 2363,
  "\u2581fesiligia": 2364,
  "\u2581lamatiaga": 2365,
  "\u2581resurrected": 2366,
  "\u2581tagi": 2367,
  "\u2581approach": 2368,
  "\u2581missionaries": 2369,
  "\u2581Atalii": 2370,
  "\u2581Kiliata": 2371,
  "\u2581tauia": 2372,
  "\u2581progress": 2373,
  "\u2581toeitiiti": 2374,
  "\u2581filled": 2375,
  "\u2581humility": 2376,
  "\u2581importance": 2377,
  "\u2581faamaumauga": 2378,
  "\u2581tribulation": 2379,
  "\u2581Silisili": 2380,
  "\u2581faalotu": 2381,
  "\u2581studies": 2382,
  "\u2581wives": 2383,
  "\u2581Translation": 2384,
  "\u2581protection": 2385,
  "\u2581final": 2386,
  "\u00b7": 2387,
  "\u2581Gilead": 2388,
  "\u2581closer": 2389,
  "\u2581contrast": 2390,
  "\u2581verse": 2391,
  "\u2581af\u0101ina": 2392,
  "\u2581aware": 2393,
  "\u2581pasene": 2394,
  "\u2581report": 2395,
  "\u2581Remember": 2396,
  "\u2581contact": 2397,
  "\u2581month": 2398,
  "\u2581state": 2399,
  "oti": 2400,
  "\u2581personally": 2401,
  "\u2581realized": 2402,
  "\u2581IN": 2403,
  "\u2581devotion": 2404,
  "\u2581sela": 2405,
  "\u2581Was": 2406,
  "\u2581half": 2407,
  "\u2581loyalty": 2408,
  "It": 2409,
  "\u2581Ruta": 2410,
  "\u2581maulalo": 2411,
  "\u2581neighbor": 2412,
  "\u2581term": 2413,
  "\u2581faasalaina": 2414,
  "\u2581principle": 2415,
  "\u258130.": 2416,
  "\u2581conditions": 2417,
  "\u2581faaoo": 2418,
  "\u2581passed": 2419,
  "\u2581pay": 2420,
  "\u258126]": 2421,
  "\u2581Fou": 2422,
  "\u2581Good": 2423,
  "\u2581School": 2424,
  "\u2581Through": 2425,
  "\u2581seemed": 2426,
  "\u2581youths": 2427,
  "\u2581fall": 2428,
  "\u2581spend": 2429,
  "faam\u0101fanafanaina": 2430,
  "\u258110]": 2431,
  "\u2581carefully": 2432,
  "\u2581AI": 2433,
  "\u2581Dr": 2434,
  "\u2581prevent": 2435,
  "on": 2436,
  "\u2581areas": 2437,
  "\u2581de": 2438,
  "\u2581recognize": 2439,
  "\u2581telefoni": 2440,
  "atiina": 2441,
  "\u2581parts": 2442,
  "\u2581prepared": 2443,
  "\u2581imagine": 2444,
  "\u2581involves": 2445,
  "\u2581kings": 2446,
  "\u2581town": 2447,
  "iliga": 2448,
  "\u2581meant": 2449,
  "\u2581sasa": 2450,
  "\u2581idea": 2451,
  "\u2581tofo": 2452,
  "\u2581dedicated": 2453,
  "\u2581keeping": 2454,
  "\u2581almo": 2455,
  "\u2581boy": 2456,
  "\u2581destroyed": 2457,
  "p": 2458,
  "\u2581lafu": 2459,
  "auuso": 2460,
  "\u2581omiga": 2461,
  "\u2581Rome": 2462,
  "\u2581arrangement": 2463,
  "\u2581calls": 2464,
  "\u2581fetu": 2465,
  "\u2581teacher": 2466,
  "utino": 2467,
  "\u2581faafaatusa": 2468,
  "\u2581Matt": 2469,
  "\u2581matata": 2470,
  "\u2581observe": 2471,
  "\u2581third": 2472,
  "\u2581lot": 2473,
  "\u2581sun": 2474,
  "\u2581dedication": 2475,
  "\u2581faaolataga": 2476,
  "\u2581persecution": 2477,
  "\u2581Maua": 2478,
  "\u2581Sepania": 2479,
  "\u2581begin": 2480,
  "\u2581discuss": 2481,
  "\u2581experiences": 2482,
  "\u2581togafitiga": 2483,
  "\u2581faamalosi": 2484,
  "\u25811914": 2485,
  "\u2581Church": 2486,
  "\u2581picture": 2487,
  "\u2581urged": 2488,
  "\u2581youth": 2489,
  "\u2581PESE": 2490,
  "\u2581animals": 2491,
  "\u2581articles": 2492,
  "\u2581faalaeiauga": 2493,
  "\u2581sii": 2494,
  "\u2581Faaa": 2495,
  "\u2581faat\u0101ua": 2496,
  "\u2581faimalaga": 2497,
  "\u2581forward": 2498,
  "\u2581matafaioi": 2499,
  "\u2581matag\u0101": 2500,
  "\u2581political": 2501,
  "],": 2502,
  "\u2581SONGS": 2503,
  "\u2581consequences": 2504,
  "\u2581emotional": 2505,
  "\u2581faaaliga": 2506,
  "\u2581faaliliu": 2507,
  "\u2581moe": 2508,
  "\u2581nature": 2509,
  "\u2581talitutusa": 2510,
  "\u2581treat": 2511,
  "or": 2512,
  "\u2581strive": 2513,
  "\u2581Taua": 2514,
  "\u2581affection": 2515,
  "\u2581ofoofogia": 2516,
  "\u2581G": 2517,
  "\u2581afafine": 2518,
  "\u2581fuafuaina": 2519,
  "\u2581program": 2520,
  "\u2581(2)": 2521,
  "\u2581aao": 2522,
  "In": 2523,
  "\u2581Tala": 2524,
  "\u2581ground": 2525,
  "\u2581percent": 2526,
  "\u2581spoken": 2527,
  "\u2581fight": 2528,
  "\u2581presence": 2529,
  "\u2581valaau": 2530,
  "Let": 2531,
  "\u02b9": 2532,
  "\u2581faam\u0101l\u014d": 2533,
  "\u2581prepare": 2534,
  "\u2581relief": 2535,
  "\u2581shepherd": 2536,
  "\u2581(1)": 2537,
  "\u2581m\u0101lie": 2538,
  "\u2581asking": 2539,
  "\u2581faamamafa": 2540,
  "\u2581Questions": 2541,
  "\u2581friendship": 2542,
  "\u2581pioneers": 2543,
  "\u2581H": 2544,
  "\u2581K": 2545,
  "\u2581claim": 2546,
  "\u2581opposition": 2547,
  "\u2581practices": 2548,
  "He": 2549,
  "afilemu": 2550,
  "\u2581Alofa": 2551,
  "\u2581required": 2552,
  "\u2581sovereignty": 2553,
  "\u2581vivii": 2554,
  "\u2581Children": 2555,
  "\u2581image": 2556,
  "\u2581mental": 2557,
  "\u2581m\u0101t\u016b": 2558,
  "\u2581sauni": 2559,
  "\u2581sauniuniga": 2560,
  "\u2581vao": 2561,
  "\u2581Christianity": 2562,
  "\u2581Naomi": 2563,
  "\u2581taumatea": 2564,
  "\u258136": 2565,
  "\u2581Ola": 2566,
  "\u2581key": 2567,
  "\u2581oso": 2568,
  "\u2581rejoice": 2569,
  "\u2581cope": 2570,
  "\u2581immediately": 2571,
  "\u2581maofa": 2572,
  "\u2581noted": 2573,
  "\u2581sharing": 2574,
  "\u2581minister": 2575,
  "\u2581overseer": 2576,
  "\u2581Africa": 2577,
  "\u2581masini": 2578,
  "\u2581outside": 2579,
  "\u2581surely": 2580,
  "\u2581Lou": 2581,
  "\u2581chosen": 2582,
  "\u2581disciple": 2583,
  "Ieova": 2584,
  "pa": 2585,
  "\u2581South": 2586,
  "\u2581established": 2587,
  "\u2581tuatusi": 2588,
  "\u258123,": 2589,
  "\u258138": 2590,
  "\u2581Paradise": 2591,
  "\u2581step": 2592,
  "\u2581attending": 2593,
  "\u2581visited": 2594,
  "\u2581Also": 2595,
  "\u2581Should": 2596,
  "\u2581War": 2597,
  "\u2581flock": 2598,
  "\u2581specific": 2599,
  "\u2581tausisi": 2600,
  "\u2581built": 2601,
  "\u2581tongue": 2602,
  "\u258165": 2603,
  "\u2581Niu": 2604,
  "\u2581fonotaga": 2605,
  "\u2581obedience": 2606,
  "\u2581observed": 2607,
  "\u2581papa": 2608,
  "\u2581sau\u0101ina": 2609,
  ".)": 2610,
  "\u2581Each": 2611,
  "\u2581existence": 2612,
  "\u2581negative": 2613,
  "\u2581remained": 2614,
  "\u2581vaitafe": 2615,
  "\u2581taofi": 2616,
  "\u2581tut\u016b": 2617,
  "\u2581faalelotu": 2618,
  "\u2581masaniga": 2619,
  "\u2581tuusa": 2620,
  "\u2581Faapefea": 2621,
  "\u2581obedient": 2622,
  "\u2581II": 2623,
  "\u2581association": 2624,
  "\u2581conclusion": 2625,
  "\u2581faaumatiaga": 2626,
  "\u2581opening": 2627,
  "\u2581Ps": 2628,
  "\u2581attended": 2629,
  "\u2581bread": 2630,
  "\u2581homes": 2631,
  "\u25815]": 2632,
  "\u2581Philippians": 2633,
  "\u2581offering": 2634,
  "\u258145": 2635,
  "\u2581faifai": 2636,
  "\u2581standing": 2637,
  "\u2581tauaiga": 2638,
  "\u2581Lava": 2639,
  "\u2581agree": 2640,
  "\u2581lose": 2641,
  "\u2581PAIA": 2642,
  "\u2581faafofoga": 2643,
  "\u2581sick": 2644,
  "ata": 2645,
  "\u258118]": 2646,
  "\u2581Take": 2647,
  "\u2581teachers": 2648,
  "\u2581Teach": 2649,
  "\u2581ipu": 2650,
  "\u2581temoni": 2651,
  "Afai": 2652,
  "\u2581Fesoasoani": 2653,
  "\u2581matagaluega": 2654,
  "\u2581sincere": 2655,
  "\u2581viia": 2656,
  "est": 2657,
  "inanauga": 2658,
  "\u2581MA": 2659,
  "ilaloina": 2660,
  "\u2581evening": 2661,
  "\u2581inosia": 2662,
  "\u258135": 2663,
  "\u2581auro": 2664,
  "\u2581convinced": 2665,
  "\u2581forget": 2666,
  "\u2581response": 2667,
  "\u2581faafouina": 2668,
  "\u2581security": 2669,
  "\u2581faaosoosoga": 2670,
  "\u2581faau\u014dga": 2671,
  "\u2581tausiga": 2672,
  "is": 2673,
  "\u2581Sala": 2674,
  "\u2581publishers": 2675,
  "ar": 2676,
  "\u2581Kolose": 2677,
  "\u2581Tele": 2678,
  "\u2581delight": 2679,
  "\u2581relatives": 2680,
  "\u2581seed": 2681,
  "\u2581destroy": 2682,
  "\u2581reasonable": 2683,
  "\u2581recent": 2684,
  "\u2581Mataupu": 2685,
  "\u2581household": 2686,
  "\u2581note": 2687,
  "\u2581seeing": 2688,
  "\u2581social": 2689,
  "\u2581groups": 2690,
  "\u2581manner": 2691,
  "\u2581points": 2692,
  "\u2581produce": 2693,
  "\u2581referred": 2694,
  "\u2581valea": 2695,
  "\u2581declared": 2696,
  "\u2581event": 2697,
  "\u2581names": 2698,
  "\u2581overcome": 2699,
  "\u2581pure": 2700,
  "\u2581Only": 2701,
  "\u2581compassion": 2702,
  "\u2581Ave": 2703,
  "\u2581limited": 2704,
  "\u2581request": 2705,
  "\u2581tuulafoa": 2706,
  "\u2581Lua": 2707,
  "\u2581T\u0101ua": 2708,
  "\u2581foreign": 2709,
  "\u2581guard": 2710,
  "\u2581teaches": 2711,
  "\u2581Uma": 2712,
  "\u2581acceptable": 2713,
  "\u2581laasaga": 2714,
  "\u2581suffered": 2715,
  "\u2581disease": 2716,
  "\u2581elderly": 2717,
  "\u2581hour": 2718,
  "\u2581I\u0101": 2719,
  "\u2581grateful": 2720,
  "\u2581lotovaivai": 2721,
  "\u2581universe": 2722,
  "\u2581vaavaaia": 2723,
  "\u2581Over": 2724,
  "\u2581pisi": 2725,
  "\u2581situations": 2726,
  "\u2581Body": 2727,
  "\u2581NW": 2728,
  "\u2581Olaga": 2729,
  "\u2581answered": 2730,
  "\u2581faamanuiaina": 2731,
  "\u2581mafuta": 2732,
  "\u2581mouth": 2733,
  "\u2581preached": 2734,
  "aitiiti": 2735,
  "\u2581Failauga": 2736,
  "\u2581cut": 2737,
  "\u2581Memorial": 2738,
  "\u2581concerned": 2739,
  "\u2581continues": 2740,
  "\u2581effective": 2741,
  "\u2581fiafiaga": 2742,
  "\u2581wine": 2743,
  "\u2581afiafi": 2744,
  "\u2581finally": 2745,
  "\u2581vevela": 2746,
  "Le": 2747,
  "\u2581LO": 2748,
  "\u2581Sea": 2749,
  "\u2581fefefe": 2750,
  "\u2581opened": 2751,
  "ers": 2752,
  "\u2581energy": 2753,
  "\u2581folafolaina": 2754,
  "\u2581listening": 2755,
  "\u2581requires": 2756,
  "\u2581save": 2757,
  "afa": 2758,
  "more": 2759,
  "\u258132.": 2760,
  "\u2581medical": 2761,
  "\u2581sort": 2762,
  "\u2581valuable": 2763,
  "\u2581watch": 2764,
  "\u2581believed": 2765,
  "\u2581faam\u0101fanafana": 2766,
  "\u2581room": 2767,
  "atagia": 2768,
  "\u2581although": 2769,
  "\u2581workers": 2770,
  "\u2581danger": 2771,
  "\u2581demonstrate": 2772,
  "\u2581faa\u0101ta": 2773,
  "\u2581Ecclesiastes": 2774,
  "\u2581Version": 2775,
  "\u2581prophecies": 2776,
  "\u2581reveal": 2777,
  "\u2581student": 2778,
  "\u2581Gospel": 2779,
  "\u2581PE": 2780,
  "\u2581Tau": 2781,
  "\u2581avega": 2782,
  "\u2581leoleoina": 2783,
  "\u2581pursue": 2784,
  "\u2581warned": 2785,
  "\u2581loss": 2786,
  "\u2581taliina": 2787,
  "\u2581August": 2788,
  "\u2581Well": 2789,
  "\u2581approval": 2790,
  "\u2581faitaulaga": 2791,
  "\u2581basic": 2792,
  "\u2581faamatilatila": 2793,
  "\u2581includes": 2794,
  "\u2581teteega": 2795,
  "imua": 2796,
  "\u2581TV": 2797,
  "\u2581instead": 2798,
  "\u2581major": 2799,
  "\u2581refused": 2800,
  "This": 2801,
  "\u2581Govern": 2802,
  "\u2581commanded": 2803,
  "\u2581faamagaloina": 2804,
  "\u2581viewed": 2805,
  "\u2581grew": 2806,
  "\u2581spread": 2807,
  "\u2581tam\u0101loloa": 2808,
  "\u2581understood": 2809,
  "T": 2810,
  "\u2581active": 2811,
  "\u2581fail": 2812,
  "\u2581lie": 2813,
  "\u2581welcome": 2814,
  "mong": 2815,
  "\u2581Family": 2816,
  "\u2581Isaac": 2817,
  "\u2581lisi": 2818,
  "\u258113]": 2819,
  "\u2581Aiga": 2820,
  "\u2581concerning": 2821,
  "\u2581late": 2822,
  "\u2581manogi": 2823,
  "\u2581music": 2824,
  "\u2581prospect": 2825,
  "opi": 2826,
  "\u2581Help": 2827,
  "\u2581forgiveness": 2828,
  "\u2581territory": 2829,
  "\u2581vision": 2830,
  "\u2581Faamanatuga": 2831,
  "\u2581becomes": 2832,
  "\u2581conversation": 2833,
  "\u2581describes": 2834,
  "\u2581reward": 2835,
  "\u2581Aog\u0101": 2836,
  "\u2581cases": 2837,
  "\u2581confident": 2838,
  "\u2581fautuaina": 2839,
  "\u2581resist": 2840,
  "\u2581front": 2841,
  "When": 2842,
  "\u2581army": 2843,
  "\u2581faavaivai": 2844,
  "\u2581fasioti": 2845,
  "\u2581responsible": 2846,
  "\u2581road": 2847,
  "able": 2848,
  "\u2581Sara": 2849,
  "\u2581business": 2850,
  "\u2581faapotopoto": 2851,
  "\u2581Make": 2852,
  "\u2581gifts": 2853,
  "\u2581improve": 2854,
  "\u2581sauniuni": 2855,
  "\u2581aloa": 2856,
  "\u2581appear": 2857,
  "\u2581easily": 2858,
  "\u2581endurance": 2859,
  "\u2581failed": 2860,
  "\u2581society": 2861,
  "\u2581Fiafia": 2862,
  "\u2581Samaria": 2863,
  "\u2581satisfaction": 2864,
  "\u2581zeal": 2865,
  "\u2581Iai": 2866,
  "\u2581car": 2867,
  "\u2581publication": 2868,
  "\u2581sight": 2869,
  "\u2581values": 2870,
  "as": 2871,
  "\u2581Her": 2872,
  "\u2581affected": 2873,
  "\u2581discreet": 2874,
  "\u2581guide": 2875,
  "\u2581invitation": 2876,
  "\u2581maota": 2877,
  "\u2581Cor": 2878,
  "\u2581wait": 2879,
  "\u2581Mount": 2880,
  "\u2581eye": 2881,
  "\u2581mama": 2882,
  "\u2581play": 2883,
  "\u2581u": 2884,
  "all": 2885,
  "\u2581Talavou": 2886,
  "\u2581behavior": 2887,
  "\u2581issues": 2888,
  "\u2581uses": 2889,
  "\u2581Blur": 2890,
  "\u2581Faith": 2891,
  "\u2581Foafoaina": 2892,
  "\u2581YOU": 2893,
  "\u2581contains": 2894,
  "\u2581faafesoota": 2895,
  "\u2581measure": 2896,
  "\u2581musika": 2897,
  "\u258117]": 2898,
  "\u258155": 2899,
  "\u2581Parataiso": 2900,
  "\u2581circuit": 2901,
  "\u2581developed": 2902,
  "\u2581matagi": 2903,
  "\u2581tofotofoina": 2904,
  "\u2581enter": 2905,
  "\u2581lotoatoa": 2906,
  "\u2581refers": 2907,
  "\u2581discussed": 2908,
  "\u2581feeseesea": 2909,
  "\u2581successful": 2910,
  "\u2581tagat\u0101nuu": 2911,
  "\u2581valu": 2912,
  "\u2581119": 2913,
  "\u2581encouraging": 2914,
  "\u2581contribute": 2915,
  "\u2581fruitage": 2916,
  "\u2581presented": 2917,
  "\u2581remind": 2918,
  "\u2581statement": 2919,
  "\u2581(3)": 2920,
  "\u2581eight": 2921,
  "\u2581hearing": 2922,
  "\u2581vaivaiga": 2923,
  "quite": 2924,
  "\u2581Note": 2925,
  "\u2581Once": 2926,
  "\u2581caring": 2927,
  "\u2581creatures": 2928,
  "\u2581killed": 2929,
  "\u2581vale": 2930,
  "\u2581Sarah": 2931,
  "\u2581Setema": 2932,
  "\u2581popoto": 2933,
  "\u2581harm": 2934,
  "\u2581patience": 2935,
  "\u2581puipui": 2936,
  "\u2581Assembly": 2937,
  "\u2581Being": 2938,
  "\u2581assured": 2939,
  "\u2581looked": 2940,
  "\u2581loves": 2941,
  "\u2581paleni": 2942,
  "po": 2943,
  "\u2581OF": 2944,
  "\u2581Two": 2945,
  "\u2581forgive": 2946,
  "responsibilities": 2947,
  "\u0113": 2948,
  "\u2581June": 2949,
  "\u2581Lau": 2950,
  "\u2581Teuteronome": 2951,
  "\u2581break": 2952,
  "\u2581drink": 2953,
  "\u2581manifest": 2954,
  "\u2581tausisia": 2955,
  "\u2581Fanau": 2956,
  "\u2581High": 2957,
  "\u2581riches": 2958,
  "\u2581Ioa": 2959,
  "\u2581busy": 2960,
  "\u2581worth": 2961,
  "u\u0101": 2962,
  "\u2581La": 2963,
  "\u2581accomplish": 2964,
  "\u2581loimata": 2965,
  "\u2581weeks": 2966,
  "For": 2967,
  "\u2581Deuteronomy": 2968,
  "\u2581Exodus": 2969,
  "\u2581direct": 2970,
  "\u2581lagolago": 2971,
  "\u2581m": 2972,
  "\u2581praying": 2973,
  "\u258141": 2974,
  "\u2581secular": 2975,
  "\u2581anxiety": 2976,
  "\u2581comments": 2977,
  "\u2581greatly": 2978,
  "\u2581mautonu": 2979,
  "\u2581particularly": 2980,
  "\u2581patient": 2981,
  "\u2581tautele": 2982,
  "\u2581type": 2983,
  "\u2581warm": 2984,
  "\u2581Aokuso": 2985,
  "\u2581Colossians": 2986,
  "\u2581discussion": 2987,
  "\u2581increase": 2988,
  "\u2581particular": 2989,
  "isia": 2990,
  "\u2581Isi": 2991,
  "\u2581faapelepele": 2992,
  "\u2581merely": 2993,
  "\u2581m\u0101m\u0101": 2994,
  "\u25816]": 2995,
  "\u2581[\"": 2996,
  "\u2581cities": 2997,
  "\u2581consideration": 2998,
  "\u2581military": 2999,
  "\u2581reports": 3000,
  "Ona": 3001,
  "\u2581Rusia": 3002,
  "\u2581adds": 3003,
  "\u2581communication": 3004,
  "\u2581insight": 3005,
  "\u2581search": 3006,
  "\u2581writing": 3007,
  "tagata": 3008,
  "\u2581date": 3009,
  "\u2581fill": 3010,
  "\u2581fofoga": 3011,
  "\u2581immoral": 3012,
  "\u2581offspring": 3013,
  "\u2581saute": 3014,
  "\u2581sologa": 3015,
  "\u2581Outou": 3016,
  "\u2581Under": 3017,
  "\u2581evident": 3018,
  "\u2581taumatau": 3019,
  "\u2581WHAT": 3020,
  "\u2581distress": 3021,
  "\u2581faavauvau": 3022,
  "\u2581join": 3023,
  "\u2581listed": 3024,
  "\u2581master": 3025,
  "\u2581Tesalonia": 3026,
  "\u2581carried": 3027,
  "\u2581faaatagia": 3028,
  "\u2581faamasani": 3029,
  "\u2581falema": 3030,
  "\u2581vateatea": 3031,
  "\u2581zealous": 3032,
  "\u2581appeared": 3033,
  "\u2581quoted": 3034,
  "].": 3035,
  "\u258142": 3036,
  "\u2581France": 3037,
  "\u2581Germany": 3038,
  "\u2581Imagine": 3039,
  "\u2581Isaako": 3040,
  "\u2581abuse": 3041,
  "\u2581faamaulalo": 3042,
  "\u2581pipii": 3043,
  "\u2581subjects": 3044,
  "\u2581gods": 3045,
  "\u2581lotomalilie": 3046,
  "\u2581talking": 3047,
  "\u2581tears": 3048,
  "\u258148": 3049,
  "\u2581apoapoa": 3050,
  "\u2581judge": 3051,
  "\u2581produced": 3052,
  "\u2581younger": 3053,
  "\u2581Manatua": 3054,
  "\u2581big": 3055,
  "\u2581chose": 3056,
  "\u2581faatali": 3057,
  "\u2581inside": 3058,
  "\u2581mere": 3059,
  "\u2581reality": 3060,
  "\u2581relative": 3061,
  "\u2581translated": 3062,
  "\u258126,": 3063,
  "\u2581aspects": 3064,
  "\u2581commandments": 3065,
  "\u2581faafetaia": 3066,
  "\u2581helpful": 3067,
  "\u2581pleasure": 3068,
  "ape": 3069,
  "aso": 3070,
  "\u2581Work": 3071,
  "\u2581assist": 3072,
  "\u2581careful": 3073,
  "\u2581fulfill": 3074,
  "\u2581overseers": 3075,
  "\u2581prophets": 3076,
  "\u2581writer": 3077,
  "like": 3078,
  "\u2581saienitisi": 3079,
  "\u2581gutu": 3080,
  "\u2581probabl": 3081,
  "\u2581spouse": 3082,
  "\u2581troubled": 3083,
  "\u2581faafeiloa": 3084,
  "\u2581train": 3085,
  "There": 3086,
  "\u2581Readers": 3087,
  "\u2581sola": 3088,
  "\u2581sulufa": 3089,
  "\u2581temptation": 3090,
  "\u2581lessons": 3091,
  "\u2581unique": 3092,
  "\u2581violent": 3093,
  "pe": 3094,
  "\u2581copy": 3095,
  "\u2581faatupuina": 3096,
  "\u2581garden": 3097,
  "\u2581goes": 3098,
  "\u2581manatuaina": 3099,
  "\u2581pagota": 3100,
  "\u2581sleep": 3101,
  "\u2581treatment": 3102,
  "\u258180": 3103,
  "\u2581Esoto": 3104,
  "\u2581Faata": 3105,
  "\u2581Finally": 3106,
  "\u2581Mother": 3107,
  "\u2581assure": 3108,
  "\u2581battle": 3109,
  "\u2581correct": 3110,
  "\u2581demons": 3111,
  "\u2581eating": 3112,
  "\u2581faataunuuga": 3113,
  "\u2581hurt": 3114,
  "\u2581Ausetalia": 3115,
  "\u2581Book": 3116,
  "\u2581faateteleina": 3117,
  "\u2581faatut\u016bina": 3118,
  "\u2581process": 3119,
  "\u2581studied": 3120,
  "\u2581trained": 3121,
  "\u2581vine": 3122,
  "My": 3123,
  "l\u0113": 3124,
  "\u2581asiasiga": 3125,
  "\u2581attack": 3126,
  "\u2581evidently": 3127,
  "\u2581extent": 3128,
  "\u2581faafoma": 3129,
  "\u2581stress": 3130,
  "\u258112]": 3131,
  "\u2581Europe": 3132,
  "\u2581bearing": 3133,
  "\u2581harvest": 3134,
  "\u2581lies": 3135,
  "\u2581reached": 3136,
  "\u2581lilo": 3137,
  "\u2581react": 3138,
  "\u2581ruler": 3139,
  "\u2581Testament": 3140,
  "\u2581Think": 3141,
  "\u2581fusi": 3142,
  "\u2581island": 3143,
  "\u2581purposes": 3144,
  "\u2581verses": 3145,
  "\u2581box": 3146,
  "\u2581iin\u0101": 3147,
  "\u2581minds": 3148,
  "\u2581placed": 3149,
  "\u2581responded": 3150,
  "\u2581tima": 3151,
  "\u2581Isa": 3152,
  "\u2581Iulai": 3153,
  "\u2581Parents": 3154,
  "\u2581Study": 3155,
  "\u2581amataina": 3156,
  "\u2581drugs": 3157,
  "\u2581opportunities": 3158,
  "\u2581sosola": 3159,
  "\u2581Kalatia": 3160,
  "\u2581appears": 3161,
  "\u2581faagaeetia": 3162,
  "\u2581fanauga": 3163,
  "\u2581receiving": 3164,
  "\u2581vailaau": 3165,
  "Ina": 3166,
  "\u2581drinking": 3167,
  "\u2581reveals": 3168,
  "\u2581succeed": 3169,
  "\u2581uig\u0101": 3170,
  "\u2581wealth": 3171,
  "\u2581Biblical": 3172,
  "\u2581Center": 3173,
  "\u2581advantage": 3174,
  "\u2581alaga": 3175,
  "\u2581authorities": 3176,
  "\u2581closely": 3177,
  "\u2581meal": 3178,
  "\u2581story": 3179,
  "\u2581Uiga": 3180,
  "\u2581essential": 3181,
  "\u2581leading": 3182,
  "\u2581notice": 3183,
  "\u2581Kori": 3184,
  "\u2581aside": 3185,
  "\u2581aufaatasi": 3186,
  "\u2581daughters": 3187,
  "\u2581endeavor": 3188,
  "\u2581enemy": 3189,
  "\u2581faavaivaia": 3190,
  "\u2581iloga": 3191,
  "\u258131]": 3192,
  "\u2581Taimi": 3193,
  "\u2581expressions": 3194,
  "\u2581pelu": 3195,
  "\u2581pisinisi": 3196,
  "\u2581saved": 3197,
  "\u2581IA": 3198,
  "\u2581nusipepa": 3199,
  "\u2581send": 3200,
  "\u2581wedding": 3201,
  "\u2581wish": 3202,
  "D": 3203,
  "\u2581Time": 3204,
  "he": 3205,
  "\u2581Loo": 3206,
  "\u2581aveina": 3207,
  "\u2581beloved": 3208,
  "\u2581momoe": 3209,
  "\u2581reported": 3210,
  "\u2581tupulaga": 3211,
  "\u2581waiting": 3212,
  "\u2581SA": 3213,
  "\u2581amount": 3214,
  "\u2581emotions": 3215,
  "\u2581nofosauni": 3216,
  "\u2581Regard": 3217,
  "\u2581Samoa": 3218,
  "\u2581court": 3219,
  "\u2581faithfully": 3220,
  "\u2581fasi": 3221,
  "\u2581religions": 3222,
  "aiga": 3223,
  "faimea": 3224,
  "\u258190": 3225,
  "\u2581bless": 3226,
  "\u2581relates": 3227,
  "\u2581speaks": 3228,
  "ll": 3229,
  "lo": 3230,
  "\u2581applied": 3231,
  "\u2581immorality": 3232,
  "ri": 3233,
  "\u2581Here": 3234,
  "\u2581conclude": 3235,
  "\u2581drawn": 3236,
  "\u2581faamam\u0101ina": 3237,
  "\u2581factors": 3238,
  "\u2581gaoi": 3239,
  "\u2581kilomita": 3240,
  "\u2581povi": 3241,
  "\u2581secret": 3242,
  "\u2581baby": 3243,
  "\u2581mature": 3244,
  "\u2581mulilua": 3245,
  "\u2581toleniga": 3246,
  "\u2581Faale": 3247,
  "\u2581Land": 3248,
  "\u2581M\u0101tau": 3249,
  "\u2581indicate": 3250,
  "\u2581race": 3251,
  "\u2581undeserved": 3252,
  "\u2581MEA": 3253,
  "\u2581matape": 3254,
  "\u2581pass": 3255,
  "\u2581vagan": 3256,
  "Po": 3257,
  "it": 3258,
  "\u2581Tesema": 3259,
  "\u2581camp": 3260,
  "\u2581gone": 3261,
  "\u2581heartfelt": 3262,
  "\u2581sees": 3263,
  "\u2581taulimaina": 3264,
  "\u2581contrary": 3265,
  "\u2581faagasologa": 3266,
  "\u2581faitaaga": 3267,
  "\u2581legal": 3268,
  "\u2581lipotia": 3269,
  "\u2581occur": 3270,
  "\u2581seman\u016b": 3271,
  "\u2581setting": 3272,
  "\u258134.": 3273,
  "\u2581Tatau": 3274,
  "\u2581Without": 3275,
  "\u2581cover": 3276,
  "\u2581deeds": 3277,
  "\u2581directed": 3278,
  "\u2581growth": 3279,
  "\u2581impressed": 3280,
  "\u2581village": 3281,
  "\u258125,": 3282,
  "\u2581Sami": 3283,
  "\u2581fata": 3284,
  "\u2581instruction": 3285,
  "\u2581scriptures": 3286,
  "\u2581shared": 3287,
  "\u2581thank": 3288,
  "\u2581Italia": 3289,
  "\u2581associated": 3290,
  "\u2581causes": 3291,
  "\u2581extreme": 3292,
  "\u2581faaigoa": 3293,
  "\u2581letters": 3294,
  "\u2581risk": 3295,
  "\u2581views": 3296,
  "\u2581Oketopa": 3297,
  "\u2581Upu": 3298,
  "\u2581fautua": 3299,
  "\u2581growing": 3300,
  "\u2581pi": 3301,
  "Aufaitau": 3302,
  "eti": 3303,
  "\u258144": 3304,
  "\u2581expected": 3305,
  "\u2581husbands": 3306,
  "\u2581minute": 3307,
  "\u2581American": 3308,
  "\u2581Both": 3309,
  "\u2581decide": 3310,
  "\u2581faas\u0101": 3311,
  "\u2581main": 3312,
  "\u2581m\u016b": 3313,
  "\u2581nofofua": 3314,
  "\u2581Ezekiel": 3315,
  "\u2581Give": 3316,
  "\u2581Saute": 3317,
  "\u2581easier": 3318,
  "\u2581pride": 3319,
  "What": 3320,
  "\u25812000": 3321,
  "\u258129,": 3322,
  "\u2581Could": 3323,
  "\u2581faataulaga": 3324,
  "\u2581honest": 3325,
  "\u2581rejected": 3326,
  "\u2581talim\u0101l\u014d": 3327,
  "\u2581trial": 3328,
  "\u2581Aperila": 3329,
  "\u2581IAI": 3330,
  "\u2581community": 3331,
  "\u2581eternal": 3332,
  "\u2581faitio": 3333,
  "\u2581fananau": 3334,
  "\u2581fell": 3335,
  "\u2581mountain": 3336,
  "\u2581Galatians": 3337,
  "\u2581Loto": 3338,
  "\u2581afraid": 3339,
  "\u2581aveese": 3340,
  "\u2581entered": 3341,
  "\u2581itumalo": 3342,
  "\u2581likewise": 3343,
  "\u2581outstanding": 3344,
  "\u2581thousand": 3345,
  "\u2581wide": 3346,
  "\u2581decades": 3347,
  "\u2581finau": 3348,
  "\u2581refer": 3349,
  "\u2581seleselega": 3350,
  "iaina": 3351,
  "\u2581Learn": 3352,
  "\u2581Mekisik\u014d": 3353,
  "\u2581alo": 3354,
  "\u2581designed": 3355,
  "\u2581entertainment": 3356,
  "\u2581faaaluina": 3357,
  "\u2581illustrate": 3358,
  "\u2581powers": 3359,
  "\u2581ulaula": 3360,
  "\u2581Australia": 3361,
  "\u2581Encyclopedia": 3362,
  "\u2581Hav": 3363,
  "\u2581Ioka": 3364,
  "\u2581committed": 3365,
  "\u2581companions": 3366,
  "\u2581constantly": 3367,
  "\u2581deliver": 3368,
  "\u2581facts": 3369,
  "\u2581finauga": 3370,
  "\u2581normal": 3371,
  "\u2581telling": 3372,
  "\u2581Answer": 3373,
  "\u2581Esekielu": 3374,
  "\u2581company": 3375,
  "\u2581faaolaina": 3376,
  "upu": 3377,
  "\u2581Hosea": 3378,
  "\u2581Kings": 3379,
  "\u2581Pea": 3380,
  "\u2581dangerous": 3381,
  "\u2581lay": 3382,
  "alo": 3383,
  "te": 3384,
  "\u2581Name": 3385,
  "\u2581Spirit": 3386,
  "\u2581cares": 3387,
  "\u2581faamam\u0101": 3388,
  "\u2581habits": 3389,
  "\u2581strengthened": 3390,
  "auaposetolo": 3391,
  "\u2581Farao": 3392,
  "\u2581Iapani": 3393,
  "\u2581Initaneti": 3394,
  "\u2581aid": 3395,
  "\u2581alcohol": 3396,
  "\u2581engage": 3397,
  "\u2581gold": 3398,
  "\u2581joined": 3399,
  "\u2581pattern": 3400,
  "\u2581promote": 3401,
  "\u2581raise": 3402,
  "\u2581satisfying": 3403,
  "\u2581viiviia": 3404,
  "\u2581Israelite": 3405,
  "\u2581Micah": 3406,
  "\u2581dealings": 3407,
  "\u2581olive": 3408,
  "usalaina": 3409,
  "\u258127,": 3410,
  "\u2581Other": 3411,
  "\u2581due": 3412,
  "\u2581lasting": 3413,
  "\u2581sinful": 3414,
  "\u2581tuugamau": 3415,
  "\u2581Mika": 3416,
  "\u2581faavavega": 3417,
  "\u2581indicates": 3418,
  "\u2581Christendom": 3419,
  "\u2581Iona": 3420,
  "\u2581Toe": 3421,
  "\u2581animal": 3422,
  "\u2581faataul\u0101itu": 3423,
  "\u2581injustice": 3424,
  "\u2581notes": 3425,
  "\u2581performed": 3426,
  "af\u0101": 3427,
  "\u2581alia": 3428,
  "\u2581financial": 3429,
  "\u2581freely": 3430,
  "\u2581reference": 3431,
  "\u2581remains": 3432,
  "amea": 3433,
  "\u2581Eden": 3434,
  "\u2581blind": 3435,
  "\u2581formed": 3436,
  "\u2581journey": 3437,
  "\u2581seriously": 3438,
  "\u2581tatalaina": 3439,
  "All": 3440,
  "\u2581MO": 3441,
  "\u2581Russell": 3442,
  "\u2581rulership": 3443,
  "\u2581se\u0101se\u0101": 3444,
  "\u2581toleniina": 3445,
  "ale": 3446,
  "\u2581April": 3447,
  "\u2581Lo": 3448,
  "\u2581applying": 3449,
  "\u2581polosiua": 3450,
  "\u2581recognized": 3451,
  "\u2581tot\u014d": 3452,
  "\u2581Un": 3453,
  "\u2581beneficial": 3454,
  "\u2581faapalepale": 3455,
  "\u2581goodness": 3456,
  "\u2581wickedness": 3457,
  "\u2581Man": 3458,
  "\u2581Mexico": 3459,
  "\u2581environment": 3460,
  "\u2581faamasinoina": 3461,
  "\u2581lagonaina": 3462,
  "\u2581stopped": 3463,
  "ation": 3464,
  "\u2581Kanana": 3465,
  "\u2581Lolo": 3466,
  "\u2581Sad": 3467,
  "\u2581areto": 3468,
  "\u2581darkness": 3469,
  "\u2581effects": 3470,
  "\u2581inhabitants": 3471,
  "\u2581widow": 3472,
  "f": 3473,
  "\u25812001": 3474,
  "\u25812012": 3475,
  "\u258139": 3476,
  "\u2581Likewise": 3477,
  "\u2581Pharaoh": 3478,
  "\u2581TE": 3479,
  "\u2581appearance": 3480,
  "\u2581ark": 3481,
  "\u2581listened": 3482,
  "\u2581l\u0101g\u0101": 3483,
  "\u2581treated": 3484,
  "\u2581Mana": 3485,
  "\u2581dealing": 3486,
  "\u2581faaletulafono": 3487,
  "\u2581poverty": 3488,
  "\u2581Etena": 3489,
  "\u2581Mosaic": 3490,
  "\u2581September": 3491,
  "\u2581belief": 3492,
  "\u2581doctor": 3493,
  "\u2581faaaloalogia": 3494,
  "\u2581feels": 3495,
  "\u2581maut\u016b": 3496,
  "\u2581vaifof\u014d": 3497,
  "auina": 3498,
  "\u2581MATAUPU": 3499,
  "\u2581indicated": 3500,
  "\u2581m\u0101": 3501,
  "\u2581ninii": 3502,
  "\u258116]": 3503,
  "\u2581Has": 3504,
  "\u2581forces": 3505,
  "\u2581illness": 3506,
  "\u2581run": 3507,
  "\u2581exist": 3508,
  "\u2581faalautele": 3509,
  "\u2581faaosoosoina": 3510,
  "\u2581faatumulia": 3511,
  "\u2581ogaoga": 3512,
  "\u2581struggle": 3513,
  "umatuaina": 3514,
  "\u2581Asa": 3515,
  "\u2581dear": 3516,
  "\u2581determine": 3517,
  "\u2581forms": 3518,
  "\u2581god": 3519,
  "\u2581hundreds": 3520,
  "\u2581neighbors": 3521,
  "\u2581resolve": 3522,
  "Y": 3523,
  "\u2581History": 3524,
  "\u2581Jonah": 3525,
  "\u2581abundance": 3526,
  "\u2581delivered": 3527,
  "\u2581gathered": 3528,
  "\u2581mistakes": 3529,
  "\u2581scholars": 3530,
  "\u2581Iloa": 3531,
  "\u2581details": 3532,
  "\u2581kindly": 3533,
  "\u2581organized": 3534,
  "\u2581perform": 3535,
  "\u2581popular": 3536,
  "\u2581upright": 3537,
  "\u2581willingly": 3538,
  "\u2581difference": 3539,
  "\u2581faasaienisi": 3540,
  "\u2581ideas": 3541,
  "\u2581manusikulipi": 3542,
  "\u2581providing": 3543,
  "\u2581survive": 3544,
  "\u2581united": 3545,
  "\u2581divorce": 3546,
  "\u2581faafaigofie": 3547,
  "\u2581research": 3548,
  "INA": 3549,
  "\u2581Explain": 3550,
  "\u2581Faamatala": 3551,
  "\u2581Faatuatua": 3552,
  "\u2581Sometimes": 3553,
  "\u2581bond": 3554,
  "\u2581fearing": 3555,
  "\u2581filig\u0101": 3556,
  "\u2581masalosalo": 3557,
  "\u2581occurred": 3558,
  "\u2581spirituality": 3559,
  "\u2581taugat\u0101": 3560,
  "\u2581trouble": 3561,
  "\u2581writings": 3562,
  "\u25818]": 3563,
  "\u2581fausiaina": 3564,
  "\u2581fish": 3565,
  "\u2581impossible": 3566,
  "\u2581taufaases\u0113": 3567,
  "\u2581touched": 3568,
  "\u2581assistance": 3569,
  "\u2581oil": 3570,
  "\u2581requirements": 3571,
  "\u2581solofanua": 3572,
  "\u2581tender": 3573,
  "ele": 3574,
  "\u2581Esau": 3575,
  "\u2581count": 3576,
  "\u2581palakalafa": 3577,
  "\u2581sisifo": 3578,
  "\u2581solia": 3579,
  "\u2581stick": 3580,
  "\u2581tautoga": 3581,
  "\u258134,": 3582,
  "\u2581Amaketo": 3583,
  "\u2581Egelani": 3584,
  "\u2581Nathan": 3585,
  "\u2581Robert": 3586,
  "\u2581faamanatuina": 3587,
  "\u2581faapaiaina": 3588,
  "\u2581primary": 3589,
  "\u2581rebellion": 3590,
  "sa": 3591,
  "\u2581concluded": 3592,
  "\u2581global": 3593,
  "\u2581laufanua": 3594,
  "\u2581magafagafa": 3595,
  "\u2581peisea": 3596,
  "\u2581witnessing": 3597,
  "\u258120]": 3598,
  "\u2581Esther": 3599,
  "\u2581German": 3600,
  "\u2581discovered": 3601,
  "\u2581taumafataga": 3602,
  "aufaigaluega": 3603,
  "\u2581Whe": 3604,
  "\u2581conventions": 3605,
  "\u2581faatasiga": 3606,
  "\u2581heavy": 3607,
  "\u2581leaving": 3608,
  "\u2581list": 3609,
  "\u2581provisions": 3610,
  "\u2581superior": 3611,
  "\u2581tafiesea": 3612,
  "\u2581waters": 3613,
  "\u25812008": 3614,
  "\u2581Faamasino": 3615,
  "\u2581Nehemiah": 3616,
  "\u2581leads": 3617,
  "\u2581sword": 3618,
  "\u2581trees": 3619,
  "Jesus": 3620,
  "\u2581air": 3621,
  "\u2581manava": 3622,
  "\u2581prophetic": 3623,
  "\u2581escape": 3624,
  "\u2581faamasinotonu": 3625,
  "\u2581series": 3626,
  "\u2581tuutoina": 3627,
  "\u2581vast": 3628,
  "no": 3629,
  "\u2581Pasili": 3630,
  "\u2581grasp": 3631,
  "\u2581handle": 3632,
  "\u2581heed": 3633,
  "\u2581slaves": 3634,
  "\u2581acted": 3635,
  "\u2581conflict": 3636,
  "\u2581connection": 3637,
  "\u2581reject": 3638,
  "\u2581separate": 3639,
  "\u2581COVER": 3640,
  "\u2581Students": 3641,
  "\u2581faalenatura": 3642,
  "\u2581grief": 3643,
  "\u2581Earth": 3644,
  "\u2581Prov": 3645,
  "\u2581V": 3646,
  "\u2581background": 3647,
  "\u2581komepiuta": 3648,
  "\u2581occasions": 3649,
  "\u2581white": 3650,
  "\u25811950": 3651,
  "\u2581Neemia": 3652,
  "\u2581construction": 3653,
  "\u2581fetuutuuna": 3654,
  "\u2581kill": 3655,
  "\u2581mountains": 3656,
  "\u2581moving": 3657,
  "\u2581non": 3658,
  "\u2581144,000": 3659,
  "\u2581200": 3660,
  "\u2581Armageddon": 3661,
  "\u2581Sasa": 3662,
  "\u2581buy": 3663,
  "\u2581describe": 3664,
  "\u2581drug": 3665,
  "\u2581logonoa": 3666,
  "\u2581mighty": 3667,
  "\u2581sought": 3668,
  "\u2581George": 3669,
  "\u2581Its": 3670,
  "\u2581faatasitasi": 3671,
  "\u2581identify": 3672,
  "\u258144.": 3673,
  "\u2581Faamaoni": 3674,
  "\u2581faatalat\u016b": 3675,
  "\u2581mafutaga": 3676,
  "\u2581moment": 3677,
  "\u2581path": 3678,
  "\u2581privileges": 3679,
  "\u2581sit": 3680,
  "P": 3681,
  "ract": 3682,
  "\u25812011": 3683,
  "\u2581Know": 3684,
  "\u2581Recall": 3685,
  "\u2581Spanish": 3686,
  "\u2581Tract": 3687,
  "\u2581faatauanau": 3688,
  "\u2581persons": 3689,
  "\u25811999": 3690,
  "\u2581discern": 3691,
  "\u2581joyful": 3692,
  "\u2581meditate": 3693,
  "\u2581ministers": 3694,
  "\u2581pleased": 3695,
  "\u2581surprise": 3696,
  "\u2581BE": 3697,
  "\u2581Mauga": 3698,
  "\u2581appreciated": 3699,
  "\u2581copies": 3700,
  "\u2581faanaunau": 3701,
  "\u2581faapaupau": 3702,
  "\u2581instructions": 3703,
  "\u2581laulaufaiva": 3704,
  "\u2581severe": 3705,
  "inanau": 3706,
  "ted": 3707,
  "\u2581300": 3708,
  "\u2581Day": 3709,
  "\u2581Second": 3710,
  "\u2581across": 3711,
  "\u2581healthy": 3712,
  "\u2581involve": 3713,
  "\u2581task": 3714,
  "ity": 3715,
  "\u2581Tim": 3716,
  "\u2581ended": 3717,
  "\u2581piliona": 3718,
  "itusi": 3719,
  "\u2581Nei": 3720,
  "\u2581belong": 3721,
  "\u2581carrying": 3722,
  "\u2581pointed": 3723,
  "\u2581remarkable": 3724,
  "\u2581rise": 3725,
  "\u2581serves": 3726,
  "\u2581December": 3727,
  "\u2581determination": 3728,
  "\u2581faaleituaiga": 3729,
  "\u2581highly": 3730,
  "\u2581inheritance": 3731,
  "\u2581international": 3732,
  "\u2581nofoa": 3733,
  "\u2581released": 3734,
  "\u2581Faresaio": 3735,
  "\u2581Knorr": 3736,
  "\u2581cry": 3737,
  "\u2581directly": 3738,
  "\u2581futu": 3739,
  "\u2581obtain": 3740,
  "\u2581physically": 3741,
  "\u2581sauniunia": 3742,
  "\u258127]": 3743,
  "\u2581aitalafu": 3744,
  "\u2581calling": 3745,
  "\u2581comforting": 3746,
  "\u2581considering": 3747,
  "\u2581keeps": 3748,
  "\u2581mailei": 3749,
  "\u2581miracles": 3750,
  "\u2581stone": 3751,
  "\u2581treasure": 3752,
  "\u2581tuana": 3753,
  "\u2581Hana": 3754,
  "\u2581fa": 3755,
  "\u2581hatred": 3756,
  "\u2581pogisa": 3757,
  "\u2581sala": 3758,
  "\u2581taulima": 3759,
  "\u2581utagia": 3760,
  "\u258111]": 3761,
  "\u25812002": 3762,
  "\u2581Tama": 3763,
  "\u2581ill": 3764,
  "\u2581rendered": 3765,
  "\u2581yes": 3766,
  "aufaauuina": 3767,
  "\u258146": 3768,
  "\u2581City": 3769,
  "\u2581granted": 3770,
  "\u2581hair": 3771,
  "\u2581pasi": 3772,
  "\u2581throne": 3773,
  "Look": 3774,
  "\u2581Hannah": 3775,
  "\u2581compared": 3776,
  "\u2581numerous": 3777,
  "\u2581su\u0101uu": 3778,
  "\u2581travel": 3779,
  "R": 3780,
  "\u2581faasalalau": 3781,
  "\u2581faataoto": 3782,
  "\u2581slow": 3783,
  "\u2581tuagane": 3784,
  "\u2581walked": 3785,
  "ion": 3786,
  "\u2581\"[": 3787,
  "\u258130,": 3788,
  "\u2581attendance": 3789,
  "\u2581concerns": 3790,
  "\u2581faatama": 3791,
  "\u2581reminded": 3792,
  "\u2581ruin": 3793,
  "\u258119]": 3794,
  "\u2581couples": 3795,
  "\u2581fiu": 3796,
  "\u2581misia": 3797,
  "\u2581replied": 3798,
  "\u2581tutumau": 3799,
  "\u2581\u0101va": 3800,
  "be": 3801,
  "\u25812,000": 3802,
  "\u2581Iuni": 3803,
  "\u2581center": 3804,
  "\u2581mafui": 3805,
  "\u2581Ianuari": 3806,
  "\u2581Mati": 3807,
  "\u2581anxious": 3808,
  "\u2581enabl": 3809,
  "\u2581faailogaina": 3810,
  "\u2581refuge": 3811,
  "\u2581secure": 3812,
  "g": 3813,
  "\u258139.": 3814,
  "\u2581Eseta": 3815,
  "\u2581Rom": 3816,
  "\u2581create": 3817,
  "\u2581eager": 3818,
  "\u2581gafa": 3819,
  "\u2581marry": 3820,
  "\u2581palapala": 3821,
  "\u2581pine": 3822,
  "\u2581site": 3823,
  "\u2581weak": 3824,
  "B": 3825,
  "\u2581October": 3826,
  "\u2581cost": 3827,
  "\u2581faamanino": 3828,
  "\u2581seoli": 3829,
  "\u25814]": 3830,
  "\u2581Look": 3831,
  "\u2581aspect": 3832,
  "\u2581commission": 3833,
  "\u2581grown": 3834,
  "\u2581lafoga": 3835,
  "\u2581lying": 3836,
  "\u2581selfish": 3837,
  "\u2581shepherds": 3838,
  "\u2581significant": 3839,
  "\u2581taum\u0101natu": 3840,
  "\u2581wind": 3841,
  "N": 3842,
  "ilalo": 3843,
  "\u2581Kanata": 3844,
  "\u2581adultery": 3845,
  "\u2581assembly": 3846,
  "\u2581auupega": 3847,
  "\u2581critical": 3848,
  "\u2581deaf": 3849,
  "\u2581iva": 3850,
  "\u2581lototetele": 3851,
  "\u2581matai": 3852,
  "\u2581challenging": 3853,
  "\u2581faamisionare": 3854,
  "\u2581increased": 3855,
  "\u2581inhabited": 3856,
  "\u2581re": 3857,
  "Au\u0101": 3858,
  "\u25813]": 3859,
  "\u2581Every": 3860,
  "\u2581allows": 3861,
  "\u2581meaningful": 3862,
  "\u2581silver": 3863,
  "\u2581togafiti": 3864,
  "\u2581usitai": 3865,
  "h": 3866,
  "\u25812010": 3867,
  "\u2581Never": 3868,
  "\u2581rules": 3869,
  "\u2581terms": 3870,
  "\u2581viti\u014d": 3871,
  "\u2581wilderness": 3872,
  "\u25812013": 3873,
  "\u2581Epe": 3874,
  "\u2581FAA": 3875,
  "\u2581Internet": 3876,
  "\u2581Tapua": 3877,
  "\u2581Visit": 3878,
  "\u2581approached": 3879,
  "\u2581balanced": 3880,
  "\u2581exactly": 3881,
  "\u2581finding": 3882,
  "\u2581herself": 3883,
  "\u2581tuufaasolo": 3884,
  "\u2581visiting": 3885,
  "\u2581writers": 3886,
  "\u2581607": 3887,
  "\u2581Flood": 3888,
  "\u2581Heb": 3889,
  "\u2581brochure": 3890,
  "\u2581chief": 3891,
  "\u2581faileagaina": 3892,
  "\u2581fetuuna": 3893,
  "\u2581malaia": 3894,
  "\u2581talosagaina": 3895,
  "How": 3896,
  "\u2581MAI": 3897,
  "\u2581faig\u0101u\u014d": 3898,
  "\u2581feavea": 3899,
  "\u2581identified": 3900,
  "\u2581police": 3901,
  "\u2581recently": 3902,
  "\u2581sootaga": 3903,
  "\u2581traveled": 3904,
  "\u2581ulumatua": 3905,
  "\u2581unable": 3906,
  "\u2581accomplished": 3907,
  "\u2581apparently": 3908,
  "\u2581bodies": 3909,
  "\u2581fast": 3910,
  "\u2581fornication": 3911,
  "\u2581gratitude": 3912,
  "\u2581motivated": 3913,
  "\u2581nearby": 3914,
  "\u2581peaceful": 3915,
  "\u2581tago": 3916,
  "\u2581tig\u0101ina": 3917,
  "\u2581worshipers": 3918,
  "\u2581Penetekoso": 3919,
  "\u2581University": 3920,
  "\u2581chapters": 3921,
  "\u2581higher": 3922,
  "\u2581inner": 3923,
  "\u2581reaching": 3924,
  "\u2581straight": 3925,
  "\u2581\u0100": 3926,
  "day": 3927,
  "tu": 3928,
  "\u2581Almighty": 3929,
  "\u2581Jonathan": 3930,
  "\u2581NY": 3931,
  "\u2581Promised": 3932,
  "\u2581beauty": 3933,
  "\u2581entitled": 3934,
  "\u2581faatusaina": 3935,
  "\u2581failauga": 3936,
  "\u2581provision": 3937,
  "\u2581require": 3938,
  "\u2581safe": 3939,
  "\u2581soldiers": 3940,
  "Keep": 3941,
  "\u25812009": 3942,
  "\u2581January": 3943,
  "\u2581additional": 3944,
  "\u2581economic": 3945,
  "\u2581familiar": 3946,
  "\u2581firmly": 3947,
  "\u2581m\u0101l\u014dl\u014dga": 3948,
  "\u2581relations": 3949,
  "\u2581stake": 3950,
  "\u2581aano": 3951,
  "\u2581differ": 3952,
  "\u2581focused": 3953,
  "\u2581indefinite": 3954,
  "\u2581lauulu": 3955,
  "\u2581nine": 3956,
  "\u2581opposite": 3957,
  "\u2581pupula": 3958,
  "\u2581writes": 3959,
  "\u258131,": 3960,
  "\u2581Draw": 3961,
  "\u2581Elisha": 3962,
  "\u2581French": 3963,
  "\u2581Gospels": 3964,
  "\u2581Michael": 3965,
  "\u2581Pag\u0101": 3966,
  "\u2581Pentecost": 3967,
  "\u2581apart": 3968,
  "\u2581autafa": 3969,
  "\u2581career": 3970,
  "\u2581declare": 3971,
  "\u2581influenced": 3972,
  "\u2581polofesa": 3973,
  "\u2581successfully": 3974,
  "\u2581thereafter": 3975,
  "apa": 3976,
  "\u2581Elisaia": 3977,
  "\u2581Go": 3978,
  "\u2581Latin": 3979,
  "\u2581State": 3980,
  "\u2581lisiina": 3981,
  "\u2581mildness": 3982,
  "\u2581m\u0101l\u016bl\u016b": 3983,
  "\u2581sinned": 3984,
  "\u2581t": 3985,
  "ive": 3986,
  "out": 3987,
  "si": 3988,
  "\u2581Nofoaiga": 3989,
  "\u2581Timo": 3990,
  "\u2581angry": 3991,
  "\u2581oge": 3992,
  "\u2581potential": 3993,
  "\u2581proof": 3994,
  "\u2581reaction": 3995,
  "\u2581recalls": 3996,
  "\u2581relationships": 3997,
  "\u2581skills": 3998,
  "\u2581uia": 3999,
  "\u2581Columbia": 4000,
  "\u2581Him": 4001,
  "\u2581International": 4002,
  "\u2581Latina": 4003,
  "\u2581Table": 4004,
  "\u2581ato": 4005,
  "\u2581causing": 4006,
  "\u2581rely": 4007,
  "\u2581taalo": 4008,
  "\u2581worse": 4009,
  "\u2581Aaron": 4010,
  "\u2581Canada": 4011,
  "\u2581Halls": 4012,
  "\u2581arranged": 4013,
  "\u2581capital": 4014,
  "\u2581manulele": 4015,
  "\u2581m\u016bm\u016b": 4016,
  "\u2581scholar": 4017,
  "\u2581stood": 4018,
  "olotoina": 4019,
  "\u258143": 4020,
  "\u2581Lot": 4021,
  "\u2581Tin\u0101": 4022,
  "\u2581offers": 4023,
  "\u2581rain": 4024,
  "\u2581talatalanoa": 4025,
  "\u2581tauaso": 4026,
  "\u2581toleni": 4027,
  "ae": 4028,
  "man": 4029,
  "\u2581Messianic": 4030,
  "\u2581Pharisees": 4031,
  "\u2581arise": 4032,
  "\u2581dwell": 4033,
  "\u2581exert": 4034,
  "\u2581iti": 4035,
  "\u2581motivate": 4036,
  "\u2581m\u0101taulia": 4037,
  "\u2581national": 4038,
  "\u2581numera": 4039,
  "\u2581release": 4040,
  "\u2581tauaveina": 4041,
  "\u2581ONA": 4042,
  "\u2581Whatever": 4043,
  "\u2581avatua": 4044,
  "\u2581demonstrated": 4045,
  "\u2581faalumaina": 4046,
  "\u2581feoa": 4047,
  "\u2581mananaia": 4048,
  "\u2581mausal\u012b": 4049,
  "\u2581noticed": 4050,
  "\u2581ruling": 4051,
  "\u2581standard": 4052,
  "\u2581supported": 4053,
  "isi": 4054,
  "\u2581AIDS": 4055,
  "\u2581Auauna": 4056,
  "\u2581East": 4057,
  "\u2581Malosi": 4058,
  "\u2581churches": 4059,
  "\u2581faig\u0101malaga": 4060,
  "\u2581gradually": 4061,
  "\u2581official": 4062,
  "\u2581p": 4063,
  "\u2581sang": 4064,
  "\u2581season": 4065,
  "\u2581Galu": 4066,
  "\u2581Mamoe": 4067,
  "\u2581Saina": 4068,
  "\u2581Sovereign": 4069,
  "\u2581THIS": 4070,
  "\u2581abundant": 4071,
  "\u2581auaufaatasi": 4072,
  "\u2581discouraged": 4073,
  "\u2581natia": 4074,
  "\u2581variety": 4075,
  "\u2581Chronicles": 4076,
  "\u2581England": 4077,
  "\u2581March": 4078,
  "\u2581finafinau": 4079,
  "\u2581paid": 4080,
  "\u2581salamo": 4081,
  "\u2581surprised": 4082,
  "\u2581wars": 4083,
  "\u2581Thessalonians": 4084,
  "\u2581content": 4085,
  "\u2581figurative": 4086,
  "\u2581modest": 4087,
  "\u2581ogatotonu": 4088,
  "\u2581region": 4089,
  "\u2581sad": 4090,
  "\u2581sickness": 4091,
  "\u258138.": 4092,
  "\u2581Surely": 4093,
  "\u2581adults": 4094,
  "\u2581agreed": 4095,
  "\u2581excellent": 4096,
  "\u2581magazines": 4097,
  "\u2581remove": 4098,
  "\u2581\u014dle": 4099,
  "As": 4100,
  "\u25811919": 4101,
  "\u258137.": 4102,
  "\u2581Arena": 4103,
  "\u2581Eli": 4104,
  "\u2581Enoka": 4105,
  "\u2581Faiva": 4106,
  "\u2581exists": 4107,
  "\u2581faavaloaga": 4108,
  "\u2581qualified": 4109,
  "\u2581Initia": 4110,
  "\u2581LENEI": 4111,
  "\u2581Lasalo": 4112,
  "\u2581altar": 4113,
  "\u2581faatuatuaga": 4114,
  "\u2581harmful": 4115,
  "\u2581pagatia": 4116,
  "\u2581stars": 4117,
  "2": 4118,
  "EGA": 4119,
  "\u2581Doing": 4120,
  "\u2581Tausaga": 4121,
  "\u2581hospital": 4122,
  "\u2581none": 4123,
  "\u2581total": 4124,
  "\u2581Lev\u012b": 4125,
  "\u2581Lota": 4126,
  "\u2581Scripture": 4127,
  "\u2581faasala": 4128,
  "\u2581faithfulness": 4129,
  "\u2581happens": 4130,
  "\u2581majority": 4131,
  "\u2581resulted": 4132,
  "\u2581turning": 4133,
  "ling": 4134,
  "\u258135:": 4135,
  "\u2581Japan": 4136,
  "\u2581Sakaria": 4137,
  "\u2581assignments": 4138,
  "\u2581courageous": 4139,
  "\u2581governments": 4140,
  "\u2581model": 4141,
  "\u2581ought": 4142,
  "\u2581500": 4143,
  "\u2581Cain": 4144,
  "\u2581Contents": 4145,
  "\u2581MANATU": 4146,
  "\u2581Pet": 4147,
  "\u2581dwelling": 4148,
  "\u2581faanatinati": 4149,
  "\u2581readily": 4150,
  "\u2581referring": 4151,
  "\u2581remaining": 4152,
  "\u2581rulers": 4153,
  "\u2581translations": 4154,
  "but": 4155,
  "\u2581Am": 4156,
  "\u2581Close": 4157,
  "\u2581Lesona": 4158,
  "\u2581Zechariah": 4159,
  "\u2581faaaofia": 4160,
  "\u2581hate": 4161,
  "\u2581invisible": 4162,
  "\u2581punishment": 4163,
  "\u2581trip": 4164,
  "\u2581tulimata": 4165,
  "el": 4166,
  "\u2581encourages": 4167,
  "\u2581faig\u0101malo": 4168,
  "\u2581forced": 4169,
  "\u2581patele": 4170,
  "\u2581recall": 4171,
  "\u2581represent": 4172,
  "\u2581root": 4173,
  "They": 4174,
  "\u2581FOR": 4175,
  "\u2581Lea": 4176,
  "\u2581Show": 4177,
  "\u2581Spain": 4178,
  "\u2581commit": 4179,
  "\u2581crime": 4180,
  "\u2581faamautinoaga": 4181,
  "\u2581fagu": 4182,
  "\u2581fetaua": 4183,
  "\u2581mention": 4184,
  "\u2581nofo\u0101lii": 4185,
  "\u2581tausamiga": 4186,
  "ment": 4187,
  "\u258149": 4188,
  "\u2581Komiti": 4189,
  "\u2581Rutherford": 4190,
  "\u2581Truth": 4191,
  "\u2581descendants": 4192,
  "\u2581faamanatuga": 4193,
  "\u2581fouvalega": 4194,
  "\u2581mild": 4195,
  "\u2581preced": 4196,
  "\u2581reasoning": 4197,
  "\u2581reflected": 4198,
  "\u2581tofu": 4199,
  "\u2581Happy": 4200,
  "\u2581Shortly": 4201,
  "\u2581fono": 4202,
  "\u2581marvelous": 4203,
  "\u2581quick": 4204,
  "\u2581taliga": 4205,
  "\u2581tauiviga": 4206,
  "\u2581viewpoint": 4207,
  "imau": 4208,
  "\u2581Arona": 4209,
  "\u2581Faamata": 4210,
  "\u2581Ionatana": 4211,
  "\u2581abandon": 4212,
  "\u2581begotten": 4213,
  "\u2581culture": 4214,
  "\u2581literal": 4215,
  "\u2581pioneering": 4216,
  "\u2581printed": 4217,
  "\u2581worthy": 4218,
  "\u2581\u25c6": 4219,
  "ne": 4220,
  "\u2581Novema": 4221,
  "\u2581associate": 4222,
  "\u2581audience": 4223,
  "\u2581difficulties": 4224,
  "\u2581exercising": 4225,
  "\u2581humbly": 4226,
  "\u2581low": 4227,
  "\u2581maotua": 4228,
  "\u2581properly": 4229,
  "\u2581proud": 4230,
  "\u2581render": 4231,
  "\u2581represented": 4232,
  "will": 4233,
  "\u25812003": 4234,
  "\u2581AUT\u016a": 4235,
  "\u2581Peace": 4236,
  "\u2581Service": 4237,
  "\u2581Tatalo": 4238,
  "\u2581Upon": 4239,
  "\u2581advance": 4240,
  "\u2581choices": 4241,
  "\u2581east": 4242,
  "\u2581faam\u0101l\u014dl\u014dina": 4243,
  "\u2581faapuapuagatia": 4244,
  "\u2581houses": 4245,
  "\u2581invite": 4246,
  "\u2581struck": 4247,
  "\u2581s\u0101": 4248,
  "\u2581tribe": 4249,
  "\u2581wondered": 4250,
  "lofa": 4251,
  "\u258136.": 4252,
  "\u2581Charles": 4253,
  "\u2581Ministry": 4254,
  "\u2581Talia": 4255,
  "\u2581abandoned": 4256,
  "\u2581asks": 4257,
  "\u2581moomoo": 4258,
  "\u2581plan": 4259,
  "\u2581plant": 4260,
  "\u2581repeatedly": 4261,
  "\u2581Kaino": 4262,
  "\u2581Septuagint": 4263,
  "\u2581Worship": 4264,
  "\u2581acting": 4265,
  "\u2581lifestyle": 4266,
  "\u2581mapusaga": 4267,
  "\u2581m\u0101fanafana": 4268,
  "\u2581otherwise": 4269,
  "\u2581useful": 4270,
  "\u2581witnesses": 4271,
  "\u2581admonition": 4272,
  "\u2581completed": 4273,
  "\u2581conscious": 4274,
  "\u2581faaesea": 4275,
  "\u2581generation": 4276,
  "\u2581meafaigaluega": 4277,
  "\u2581oofu": 4278,
  "\u2581plans": 4279,
  "\u2581refuse": 4280,
  "\u258110;": 4281,
  "\u2581Pete": 4282,
  "\u2581Times": 4283,
  "\u2581cold": 4284,
  "\u2581companion": 4285,
  "\u2581developing": 4286,
  "\u2581faamolemole": 4287,
  "\u2581failure": 4288,
  "\u2581hundred": 4289,
  "\u2581possessions": 4290,
  "\u2581private": 4291,
  "\u2581puleaina": 4292,
  "\u2581reliable": 4293,
  "\u25814;": 4294,
  "\u2581Eventually": 4295,
  "\u2581Lazarus": 4296,
  "\u2581SU": 4297,
  "\u2581Stephen": 4298,
  "\u2581broke": 4299,
  "\u2581cells": 4300,
  "\u2581damage": 4301,
  "\u2581lovingly": 4302,
  "\u2581maileia": 4303,
  "\u2581sinners": 4304,
  "\u2581solution": 4305,
  "\u2581visits": 4306,
  "ESU": 4307,
  "H": 4308,
  "\u258166": 4309,
  "\u2581Esekia": 4310,
  "\u2581Heights": 4311,
  "\u2581Hezekiah": 4312,
  "\u2581JEHOVAH": 4313,
  "\u2581Peresia": 4314,
  "\u2581faatulagaina": 4315,
  "\u2581listeners": 4316,
  "\u2581Notice": 4317,
  "\u2581acknowledge": 4318,
  "\u2581brotherhood": 4319,
  "\u2581disaster": 4320,
  "\u2581l\u0101iti": 4321,
  "\u2581paneta": 4322,
  "\u2581speaker": 4323,
  "\u2581suggestions": 4324,
  "\u2581t\u014d": 4325,
  "ty": 4326,
  "ver": 4327,
  "\u2581customs": 4328,
  "\u2581faasau\u0101": 4329,
  "\u2581generous": 4330,
  "\u2581glorious": 4331,
  "\u2581reputation": 4332,
  "\u2581solit\u016b": 4333,
  "\u2581televise": 4334,
  "\u2581union": 4335,
  ">": 4336,
  "ever": 4337,
  "for": 4338,
  "\u2581Enoch": 4339,
  "\u2581Granted": 4340,
  "\u2581William": 4341,
  "\u2581arrangements": 4342,
  "\u2581compare": 4343,
  "\u2581district": 4344,
  "\u2581lowly": 4345,
  "\u2581male": 4346,
  "\u2581methods": 4347,
  "\u2581mita": 4348,
  "\u2581sake": 4349,
  "\u2581salalau": 4350,
  "\u2581texts": 4351,
  "osi": 4352,
  "\u2581Out": 4353,
  "\u2581abilities": 4354,
  "\u2581associates": 4355,
  "\u2581faamalositino": 4356,
  "\u2581girls": 4357,
  "\u2581holding": 4358,
  "\u2581pursuing": 4359,
  "\u2581surface": 4360,
  "\u2581temporary": 4361,
  "matu\u0101": 4362,
  "one": 4363,
  "\u2581Don": 4364,
  "\u2581HOW": 4365,
  "\u2581accompany": 4366,
  "\u2581dignity": 4367,
  "\u2581faasalalauina": 4368,
  "\u2581faat\u016b": 4369,
  "\u2581facing": 4370,
  "\u2581factor": 4371,
  "\u2581fetaia": 4372,
  "\u2581fevaevaea": 4373,
  "\u2581fleshly": 4374,
  "\u2581malosiaga": 4375,
  "\u2581routine": 4376,
  "\u2581scene": 4377,
  "\u2581shed": 4378,
  "\u2581Aai": 4379,
  "\u2581Baal": 4380,
  "\u2581Korea": 4381,
  "\u2581Pilato": 4382,
  "\u2581Welcome": 4383,
  "\u2581conviction": 4384,
  "\u2581limitations": 4385,
  "\u2581midst": 4386,
  "\u2581outcome": 4387,
  "\u2581quit": 4388,
  "\u2581Malachi": 4389,
  "\u2581covered": 4390,
  "\u2581deliverance": 4391,
  "\u2581depression": 4392,
  "\u2581feita": 4393,
  "\u2581ministeri": 4394,
  "\u2581Paseka": 4395,
  "\u2581afea": 4396,
  "\u2581attitudes": 4397,
  "\u2581balance": 4398,
  "\u2581corruption": 4399,
  "\u2581faifua": 4400,
  "\u2581images": 4401,
  "\u2581rightly": 4402,
  "\u2581tug\u0101": 4403,
  "\u2581vaomatua": 4404,
  "201": 4405,
  "ary": 4406,
  "\u2581Orthodox": 4407,
  "\u2581Russia": 4408,
  "\u2581dream": 4409,
  "\u2581faasalalauga": 4410,
  "\u2581meatotino": 4411,
  "\u2581persecuted": 4412,
  "\u2581royal": 4413,
  "\u2581tax": 4414,
  "\u2581tufatufaina": 4415,
  "\u2581uumi": 4416,
  "\u2581wild": 4417,
  "tioa": 4418,
  "\u258125]": 4419,
  "\u258129]": 4420,
  "\u2581assurance": 4421,
  "\u2581bound": 4422,
  "\u2581conducted": 4423,
  "\u2581forgiving": 4424,
  "\u2581minutes": 4425,
  "\u2581mitamita": 4426,
  "\u2581moves": 4427,
  "\u2581parable": 4428,
  "\u2581puapuagatia": 4429,
  "\u2581wipe": 4430,
  "\u2581Malaki": 4431,
  "\u2581foot": 4432,
  "\u2581gather": 4433,
  "\u2581l\u016bl\u016b": 4434,
  "\u2581observes": 4435,
  "\u2581played": 4436,
  "\u2581Kalilaia": 4437,
  "\u2581Lana": 4438,
  "\u2581News": 4439,
  "\u2581Passover": 4440,
  "\u2581aug\u0101tam\u0101": 4441,
  "\u2581boys": 4442,
  "\u2581dangers": 4443,
  "\u2581differences": 4444,
  "\u2581displayed": 4445,
  "\u2581faau\u014d": 4446,
  "\u2581glad": 4447,
  "\u2581kamupani": 4448,
  "\u2581maopoopo": 4449,
  "\u2581pagan": 4450,
  "\u2581phone": 4451,
  "\u2581removed": 4452,
  "\u2581restored": 4453,
  "\u2581song": 4454,
  "\u2581strengthening": 4455,
  "ies": 4456,
  "\u2581clothing": 4457,
  "\u2581faataulagaina": 4458,
  "\u2581inclined": 4459,
  "\u2581instructed": 4460,
  "\u2581traits": 4461,
  "ur": 4462,
  "\u2581Abel": 4463,
  "\u2581Following": 4464,
  "\u2581Paala": 4465,
  "\u2581Rev": 4466,
  "\u2581armies": 4467,
  "\u2581communicate": 4468,
  "\u2581guided": 4469,
  "\u2581ignore": 4470,
  "\u2581laupapa": 4471,
  "\u2581musu": 4472,
  "\u2581store": 4473,
  "\u2581teuina": 4474,
  "\u2581touch": 4475,
  "\u2581alofagia": 4476,
  "\u2581faapa": 4477,
  "\u2581load": 4478,
  "\u2581merciful": 4479,
  "\u2581population": 4480,
  "\u2581reign": 4481,
  "\u2581tufa": 4482,
  "\u2581vaalele": 4483,
  "aua": 4484,
  "\u25811914.": 4485,
  "\u2581African": 4486,
  "\u2581Martha": 4487,
  "\u2581affairs": 4488,
  "\u2581constant": 4489,
  "\u2581falaoa": 4490,
  "\u2581fano": 4491,
  "\u2581nifo": 4492,
  "\u2581nofoaafi": 4493,
  "\u2581pleasant": 4494,
  "\u2581resources": 4495,
  "Be": 4496,
  "um": 4497,
  "\u2581alert": 4498,
  "\u2581belongs": 4499,
  "\u2581brief": 4500,
  "\u2581fana": 4501,
  "\u2581foundation": 4502,
  "\u2581goto": 4503,
  "\u2581habit": 4504,
  "\u2581lavalava": 4505,
  "\u2581motives": 4506,
  "\u2581opposers": 4507,
  "\u2581possess": 4508,
  "\u2581repentance": 4509,
  "\u2581signs": 4510,
  "\u2581sustain": 4511,
  "\u2581tend": 4512,
  "\u2581usitaia": 4513,
  "\u2581weight": 4514,
  "\u2581Christmas": 4515,
  "\u2581Source": 4516,
  "\u2581amiol\u0113tonu": 4517,
  "\u2581approved": 4518,
  "\u2581birds": 4519,
  "\u2581contain": 4520,
  "\u2581discernment": 4521,
  "\u2581employment": 4522,
  "\u2581faaonap\u014dnei": 4523,
  "\u2581identity": 4524,
  "\u2581limit": 4525,
  "\u2581pala": 4526,
  "\u2581repentant": 4527,
  "\u2581siliva": 4528,
  "\u2581tempted": 4529,
  "483,": 4530,
  "\u2581Leoleo": 4531,
  "\u2581Mareta": 4532,
  "\u2581accord": 4533,
  "\u2581degree": 4534,
  "\u2581distance": 4535,
  "\u2581imperfection": 4536,
  "\u2581innocent": 4537,
  "\u2581involving": 4538,
  "\u2581lovers": 4539,
  "\u2581miraculous": 4540,
  "\u2581nofosala": 4541,
  "\u2581pleasing": 4542,
  "\u2581sacrificing": 4543,
  "\u2581scripture": 4544,
  "\u2581wall": 4545,
  "\u25811990": 4546,
  "\u2581Thomas": 4547,
  "\u2581awake": 4548,
  "\u2581below": 4549,
  "\u2581drawing": 4550,
  "\u2581faam\u0101l\u014dl\u014d": 4551,
  "\u2581faauu": 4552,
  "\u2581grain": 4553,
  "\u2581labor": 4554,
  "\u2581malilie": 4555,
  "\u2581possession": 4556,
  "\u2581taaalo": 4557,
  "\u2581theocratic": 4558,
  "\u2581top": 4559,
  "\u2581trusted": 4560,
  "\u2581vavae": 4561,
  "\u2581victims": 4562,
  "ED": 4563,
  "G": 4564,
  "great": 4565,
  "\u258156": 4566,
  "\u2581Babylonian": 4567,
  "\u2581Brazil": 4568,
  "\u2581Ephesus": 4569,
  "\u2581Polani": 4570,
  "\u2581aoaoina": 4571,
  "\u2581ears": 4572,
  "\u2581leaves": 4573,
  "\u2581project": 4574,
  "\u2581spirits": 4575,
  "\u2581taule": 4576,
  "\u2581uila": 4577,
  "1:": 4578,
  "\u2581Prayer": 4579,
  "\u2581TAGATA": 4580,
  "\u2581appeal": 4581,
  "\u2581bed": 4582,
  "\u2581claimed": 4583,
  "\u2581endured": 4584,
  "\u2581establish": 4585,
  "\u2581faalilolilo": 4586,
  "\u2581faalua": 4587,
  "\u2581fealofani": 4588,
  "\u2581historian": 4589,
  "\u2581reminders": 4590,
  "\u2581suggest": 4591,
  "\u2581Nasi": 4592,
  "\u2581River": 4593,
  "\u2581begins": 4594,
  "\u2581benefited": 4595,
  "\u2581calm": 4596,
  "\u2581faamalamalama": 4597,
  "\u2581faamalie": 4598,
  "\u2581faatut\u016b": 4599,
  "\u2581finish": 4600,
  "\u2581lavelave": 4601,
  "\u2581pressures": 4602,
  "\u2581review": 4603,
  "\u2581taotoga": 4604,
  "Lo": 4605,
  "with": 4606,
  "\u2581Apelu": 4607,
  "\u2581Concern": 4608,
  "\u2581Pilate": 4609,
  "\u2581asia": 4610,
  "\u2581atuatuvale": 4611,
  "\u2581conversations": 4612,
  "\u2581laid": 4613,
  "\u2581officials": 4614,
  "\u2581passing": 4615,
  "\u2581pre": 4616,
  "\u2581ungodly": 4617,
  "\u2581warns": 4618,
  "ox": 4619,
  "\u2581Asuria": 4620,
  "\u2581Dictionary": 4621,
  "\u2581Italy": 4622,
  "\u2581OLAGA": 4623,
  "\u2581Often": 4624,
  "\u2581Re": 4625,
  "\u2581caught": 4626,
  "\u2581corrupt": 4627,
  "\u2581error": 4628,
  "\u2581faatosina": 4629,
  "\u2581fit": 4630,
  "\u2581healing": 4631,
  "\u2581maintaining": 4632,
  "\u2581possibly": 4633,
  "\u2581prominent": 4634,
  "\u2581street": 4635,
  "\u2581tribes": 4636,
  "\u2581unclean": 4637,
  "\u2581wisely": 4638,
  "Iesu": 4639,
  "as\u0101": 4640,
  "at": 4641,
  "ra": 4642,
  "\u25812004": 4643,
  "\u2581Fo": 4644,
  "\u2581brain": 4645,
  "\u2581contained": 4646,
  "\u2581located": 4647,
  "\u2581preparing": 4648,
  "\u2581rock": 4649,
  "\u2581solid": 4650,
  "\u2581stayed": 4651,
  "\u2581tafe": 4652,
  "\u2581victory": 4653,
  "\u25813;": 4654,
  "\u2581Britain": 4655,
  "\u2581add": 4656,
  "\u2581anymore": 4657,
  "\u2581attacks": 4658,
  "\u2581format": 4659,
  "\u2581level": 4660,
  "\u2581perfection": 4661,
  "\u2581suicide": 4662,
  "\u2581television": 4663,
  "ce": 4664,
  "\u25816;": 4665,
  "\u2581dress": 4666,
  "\u2581empty": 4667,
  "\u2581fundamental": 4668,
  "\u2581paragraph": 4669,
  "\u2581permanent": 4670,
  "\u2581planet": 4671,
  "\u2581suddenly": 4672,
  "\u2581tom\u0101natu": 4673,
  "\u2581widely": 4674,
  "\u2581Amosa": 4675,
  "\u2581Corinth": 4676,
  "\u2581Faaleagaga": 4677,
  "\u2581North": 4678,
  "\u2581Suria": 4679,
  "\u2581charge": 4680,
  "\u2581faamoemoega": 4681,
  "\u2581finished": 4682,
  "\u2581gathering": 4683,
  "\u2581huge": 4684,
  "\u2581lomifefiloi": 4685,
  "\u2581property": 4686,
  "\u2581science": 4687,
  "\u2581sorts": 4688,
  "\u2581tifaga": 4689,
  "\u2581ufitia": 4690,
  "drew": 4691,
  "laume": 4692,
  "\u2581\"!": 4693,
  "\u2581150": 4694,
  "\u2581Early": 4695,
  "\u2581Fale": 4696,
  "\u2581Leaga": 4697,
  "\u2581accepting": 4698,
  "\u2581attempt": 4699,
  "\u2581clergy": 4700,
  "\u2581context": 4701,
  "\u2581faamaopoopoina": 4702,
  "\u2581historical": 4703,
  "\u2581literally": 4704,
  "\u2581ootia": 4705,
  "\u2581partner": 4706,
  "\u2581pictures": 4707,
  "\u2581restore": 4708,
  "\u2581sasaa": 4709,
  "\u2581welfare": 4710,
  "Faauta": 4711,
  "\u25811940": 4712,
  "\u2581Faaaog\u0101": 4713,
  "\u2581Iosia": 4714,
  "\u2581Unlike": 4715,
  "\u2581c": 4716,
  "\u2581foolish": 4717,
  "\u2581meek": 4718,
  "\u2581nofoaiga": 4719,
  "\u2581serpent": 4720,
  "673": 4721,
  "\u2581Apia": 4722,
  "\u2581November": 4723,
  "\u2581aulelei": 4724,
  "\u2581dark": 4725,
  "\u2581depend": 4726,
  "\u2581distant": 4727,
  "\u2581faamagaloga": 4728,
  "\u2581faatolu": 4729,
  "\u2581intense": 4730,
  "\u2581laulau": 4731,
  "\u2581skin": 4732,
  "\u2581supply": 4733,
  "\u2581s\u0101vali": 4734,
  "\u2581tete": 4735,
  "\u2581toso": 4736,
  "\u2581wholesome": 4737,
  "In\u0101": 4738,
  "\u258154": 4739,
  "\u2581Auaunaga": 4740,
  "\u2581Tito": 4741,
  "\u2581commands": 4742,
  "\u2581development": 4743,
  "\u2581fuaina": 4744,
  "\u2581refreshing": 4745,
  "\u2581rights": 4746,
  "\u2581souls": 4747,
  "\u2581tests": 4748,
  "ro": 4749,
  "\u2581Amos": 4750,
  "\u2581Mafaufau": 4751,
  "\u2581Nations": 4752,
  "\u2581defend": 4753,
  "\u2581extended": 4754,
  "\u2581faaavanoa": 4755,
  "\u2581initiative": 4756,
  "\u2581newspaper": 4757,
  "\u2581saosao": 4758,
  "\u2581weaknesses": 4759,
  "il": 4760,
  "\u2581Greece": 4761,
  "\u2581Way": 4762,
  "\u2581cell": 4763,
  "\u2581chance": 4764,
  "\u2581illustrations": 4765,
  "\u2581patiently": 4766,
  "\u2581satisfied": 4767,
  "\u2581tautupe": 4768,
  "\u2581thankful": 4769,
  "\u2581won": 4770,
  "ful": 4771,
  "keep": 4772,
  "\u2581AND": 4773,
  "\u2581Jordan": 4774,
  "\u2581Josiah": 4775,
  "\u2581Up": 4776,
  "\u2581exposed": 4777,
  "\u2581extend": 4778,
  "\u2581faalelalolagi": 4779,
  "\u2581fefaataua": 4780,
  "\u2581intended": 4781,
  "\u2581northern": 4782,
  "\u2581painful": 4783,
  "\u2581tapaa": 4784,
  "our": 4785,
  "\u2581I\u0100": 4786,
  "\u2581afterward": 4787,
  "\u2581attain": 4788,
  "\u2581broken": 4789,
  "\u2581campaign": 4790,
  "\u2581disasters": 4791,
  "\u2581faaleaiga": 4792,
  "\u2581m\u0101siasi": 4793,
  "\u2581taufaaleaga": 4794,
  "\u2581upbuilding": 4795,
  "ch": 4796,
  "ern": 4797,
  "\u2581Republic": 4798,
  "\u2581atofaina": 4799,
  "\u2581calamity": 4800,
  "\u2581custom": 4801,
  "\u2581enjoying": 4802,
  "\u2581faal\u0113aog\u0101ina": 4803,
  "\u2581l\u016bl\u016bina": 4804,
  "\u2581pornography": 4805,
  "\u2581principal": 4806,
  "\u2581quiet": 4807,
  "\u2581raising": 4808,
  "\u2581recreation": 4809,
  "\u2581red": 4810,
  "\u2581tendency": 4811,
  "\u25811998": 4812,
  "\u25812007": 4813,
  "\u2581Galilee": 4814,
  "\u2581IS": 4815,
  "\u2581adopt": 4816,
  "\u2581arrested": 4817,
  "\u2581folau": 4818,
  "\u2581glorify": 4819,
  "\u2581inherited": 4820,
  "\u2581laina": 4821,
  "\u2581plague": 4822,
  "\u2581pope": 4823,
  "\u2581relate": 4824,
  "\u2581sat": 4825,
  "\u2581suka": 4826,
  "\u2581theme": 4827,
  "\u2581tuufaatasia": 4828,
  "\u2581win": 4829,
  "\u2581IEOVA": 4830,
  "\u2581IT": 4831,
  "\u2581Museum": 4832,
  "\u2581Please": 4833,
  "\u2581Trinity": 4834,
  "\u2581acquire": 4835,
  "\u2581ano": 4836,
  "\u2581confront": 4837,
  "\u2581depends": 4838,
  "\u2581mark": 4839,
  "\u2581mumusu": 4840,
  "\u2581scientists": 4841,
  "\u2581unrighteous": 4842,
  "\u2581volunteers": 4843,
  "\u2581120": 4844,
  "\u258142.": 4845,
  "\u2581Feagaiga": 4846,
  "\u2581Lisi": 4847,
  "\u2581Sunday": 4848,
  "\u2581Things": 4849,
  "\u2581cared": 4850,
  "\u2581choosing": 4851,
  "\u2581complex": 4852,
  "\u2581fafagaina": 4853,
  "\u2581stories": 4854,
  "BY": 4855,
  "aliali": 4856,
  "\u25813,000": 4857,
  "\u2581Habakkuk": 4858,
  "\u2581applies": 4859,
  "\u2581capable": 4860,
  "\u2581cast": 4861,
  "\u2581cross": 4862,
  "\u2581faafaigat\u0101": 4863,
  "\u2581lips": 4864,
  "\u2581olaola": 4865,
  "\u2581ordered": 4866,
  "\u2581paying": 4867,
  "\u2581spending": 4868,
  "\u2581wrath": 4869,
  "\u258140.": 4870,
  "\u2581Filisitia": 4871,
  "\u2581Spiritual": 4872,
  "\u2581burden": 4873,
  "\u2581compassionate": 4874,
  "\u2581divided": 4875,
  "\u2581enable": 4876,
  "\u2581friendships": 4877,
  "\u2581iron": 4878,
  "\u2581leotele": 4879,
  "\u2581newly": 4880,
  "\u2581primarily": 4881,
  "\u2581rewarding": 4882,
  "\u2581songs": 4883,
  "Se": 4884,
  "susulu": 4885,
  "\u258121]": 4886,
  "\u2581Besides": 4887,
  "\u2581Hope": 4888,
  "\u2581acknowledged": 4889,
  "\u2581devoted": 4890,
  "\u2581faitupe": 4891,
  "\u2581meditation": 4892,
  "\u2581memory": 4893,
  "\u2581Fear": 4894,
  "\u2581Porotesano": 4895,
  "\u2581amo": 4896,
  "\u2581computer": 4897,
  "\u2581faalelei": 4898,
  "\u2581gained": 4899,
  "\u2581opinion": 4900,
  "\u2581profound": 4901,
  "\u2581selesele": 4902,
  "\u2581significance": 4903,
  "\u2581sold": 4904,
  "\u2581toetut\u016b": 4905,
  "\u2581watching": 4906,
  "6": 4907,
  "ian": 4908,
  "\u258153": 4909,
  "\u2581Congregation": 4910,
  "\u2581Faiga": 4911,
  "\u2581Sinai": 4912,
  "\u2581USED": 4913,
  "\u2581dust": 4914,
  "\u2581faailoaina": 4915,
  "\u2581faatoese": 4916,
  "\u2581faatonutonuina": 4917,
  "\u2581faatuputeleina": 4918,
  "\u2581leader": 4919,
  "\u2581protected": 4920,
  "\u2581unless": 4921,
  "OA": 4922,
  "ous": 4923,
  "\u2581Aapo": 4924,
  "\u2581Anna": 4925,
  "\u2581Answered": 4926,
  "\u2581Marriage": 4927,
  "\u2581Matou": 4928,
  "\u2581Titus": 4929,
  "\u2581aoauli": 4930,
  "\u2581entrusted": 4931,
  "\u2581faitioina": 4932,
  "\u2581hospitality": 4933,
  "\u2581increasing": 4934,
  "\u2581muta": 4935,
  "\u2581obligation": 4936,
  "\u2581ship": 4937,
  "\u2581tabernacle": 4938,
  "\u2581tear": 4939,
  "\u2581urges": 4940,
  "\u2581(4)": 4941,
  "\u2581London": 4942,
  "\u2581QUESTIONS": 4943,
  "\u2581cruel": 4944,
  "\u2581faaaunuua": 4945,
  "\u2581faaola": 4946,
  "\u2581fulitua": 4947,
  "\u2581inherit": 4948,
  "\u2581isolated": 4949,
  "\u2581obtained": 4950,
  "\u2581reads": 4951,
  "\u2581style": 4952,
  "\u2581talks": 4953,
  "\u2581trusting": 4954,
  "\u2581tumutumu": 4955,
  "we": 4956,
  "\u2581Asiasiga": 4957,
  "\u2581Committee": 4958,
  "\u2581Dad": 4959,
  "\u2581Judea": 4960,
  "\u2581Says": 4961,
  "\u2581Tumau": 4962,
  "\u2581burning": 4963,
  "\u2581comment": 4964,
  "\u2581eliminate": 4965,
  "\u2581emotionally": 4966,
  "\u2581firstborn": 4967,
  "\u2581likened": 4968,
  "\u2581ran": 4969,
  "\u2581services": 4970,
  "\u2581size": 4971,
  "\u2581symbolic": 4972,
  "\u2581tu\u0101": 4973,
  "\u2581ufiufi": 4974,
  "ical": 4975,
  "li": 4976,
  "os": 4977,
  "\u25811943": 4978,
  "\u2581Faaalia": 4979,
  "\u2581Heart": 4980,
  "\u2581Y": 4981,
  "\u2581adult": 4982,
  "\u2581af\u0101": 4983,
  "\u2581atmosphere": 4984,
  "\u2581famous": 4985,
  "\u2581gets": 4986,
  "\u2581leiloa": 4987,
  "\u2581lofit\u016bina": 4988,
  "\u2581miracle": 4989,
  "\u2581poured": 4990,
  "\u2581teenager": 4991,
  "\u2581wheat": 4992,
  "To": 4993,
  "autala": 4994,
  "\u2581February": 4995,
  "\u2581Henry": 4996,
  "\u2581India": 4997,
  "\u2581Sapakuka": 4998,
  "\u2581doctrine": 4999,
  "\u2581enables": 5000,
  "\u2581features": 5001,
  "\u2581lomitusi": 5002,
  "\u2581manuscripts": 5003,
  "\u2581mine": 5004,
  "\u2581north": 5005,
  "\u2581obeying": 5006,
  "\u2581safety": 5007,
  "\u2581searching": 5008,
  "\u2581threat": 5009,
  "\u2581visitors": 5010,
  "\u25812;": 5011,
  "\u2581Ahab": 5012,
  "\u2581America": 5013,
  "\u2581Master": 5014,
  "\u2581Three": 5015,
  "\u2581agaalofa": 5016,
  "\u2581autasia": 5017,
  "\u2581faases\u0113": 5018,
  "\u2581idolatry": 5019,
  "\u2581iunivesite": 5020,
  "\u2581laumua": 5021,
  "\u2581mol\u012b": 5022,
  "\u2581mourning": 5023,
  "\u2581timu": 5024,
  "alofa": 5025,
  "ton": 5026,
  "\u2581alalaga": 5027,
  "\u2581average": 5028,
  "\u2581clothes": 5029,
  "\u2581contributed": 5030,
  "\u2581delighted": 5031,
  "\u2581description": 5032,
  "\u2581emeperoa": 5033,
  "\u2581miti": 5034,
  "\u2581moon": 5035,
  "\u2581morally": 5036,
  "\u2581sauatoa": 5037,
  "\u2581shortly": 5038,
  "\u2581surrounded": 5039,
  "No": 5040,
  "k": 5041,
  "\u2581Old": 5042,
  "\u2581Ukraine": 5043,
  "\u2581anaana": 5044,
  "\u2581bow": 5045,
  "\u2581faailoaga": 5046,
  "\u2581faleoloa": 5047,
  "\u2581fourth": 5048,
  "\u2581hell": 5049,
  "\u2581hidden": 5050,
  "\u2581meditating": 5051,
  "\u2581reply": 5052,
  "\u2581smoking": 5053,
  "\u2581tent": 5054,
  "\u2581threatened": 5055,
  "go": 5056,
  "\u258145.": 5057,
  "\u2581Leviticus": 5058,
  "\u2581Nu": 5059,
  "\u2581commandment": 5060,
  "\u2581existed": 5061,
  "\u2581faapenei": 5062,
  "\u2581faitino": 5063,
  "\u2581finds": 5064,
  "\u2581maligi": 5065,
  "\u2581marked": 5066,
  "\u2581mistake": 5067,
  "\u2581preserved": 5068,
  "\u2581seventh": 5069,
  "\u2581table": 5070,
  "ry": 5071,
  "\u2581Gold": 5072,
  "\u2581arms": 5073,
  "\u2581bitter": 5074,
  "\u2581diseases": 5075,
  "\u2581faapipii": 5076,
  "\u2581fit\u0101": 5077,
  "\u2581maumautut\u016b": 5078,
  "\u2581molia": 5079,
  "\u2581running": 5080,
  "\u2581team": 5081,
  "\u2581torture": 5082,
  "im": 5083,
  "not": 5084,
  "\u2581Drama": 5085,
  "\u2581Egyptian": 5086,
  "\u2581Faavavau": 5087,
  "\u2581Gideon": 5088,
  "\u2581Levitiko": 5089,
  "\u2581Religion": 5090,
  "\u2581access": 5091,
  "\u2581adjust": 5092,
  "\u2581aged": 5093,
  "\u2581eagerly": 5094,
  "\u2581faafitia": 5095,
  "\u2581faafoliga": 5096,
  "\u2581ga": 5097,
  "\u2581grave": 5098,
  "\u2581headquarters": 5099,
  "\u2581on\u0101": 5100,
  "\u2581preserve": 5101,
  "\u2581reap": 5102,
  "\u2581suggests": 5103,
  "\u2581tui": 5104,
  "\u2581AS": 5105,
  "\u2581Kitiona": 5106,
  "\u2581Sermon": 5107,
  "\u2581Within": 5108,
  "\u2581addressed": 5109,
  "\u2581doctors": 5110,
  "\u2581faafaamasinoga": 5111,
  "\u2581faagaloina": 5112,
  "\u2581faaigoaina": 5113,
  "\u2581frequently": 5114,
  "\u2581hot": 5115,
  "\u2581looks": 5116,
  "\u2581m\u0101nava": 5117,
  "\u2581resolved": 5118,
  "\u2581tauatua": 5119,
  "\u2581taut\u014d": 5120,
  "\u2581thanks": 5121,
  "\u2581treasures": 5122,
  "\u2581tuufaatasi": 5123,
  "\u2581worker": 5124,
  "ish": 5125,
  "uleleia": 5126,
  "\u25812006": 5127,
  "\u2581Caesar": 5128,
  "\u2581Death": 5129,
  "\u2581Repeka": 5130,
  "\u2581Suia": 5131,
  "\u2581afu": 5132,
  "\u2581dry": 5133,
  "\u2581executed": 5134,
  "\u2581fausaga": 5135,
  "\u2581fitting": 5136,
  "\u2581harsh": 5137,
  "\u2581promotes": 5138,
  "\u2581rewarded": 5139,
  "\u2581safeguard": 5140,
  "\u2581sets": 5141,
  "\u2581vevesi": 5142,
  "\u25811997": 5143,
  "\u2581Faaliliuga": 5144,
  "\u2581Making": 5145,
  "\u2581Use": 5146,
  "\u2581dating": 5147,
  "\u2581except": 5148,
  "\u2581faatumu": 5149,
  "\u2581matilatila": 5150,
  "\u2581origin": 5151,
  "\u2581peaceable": 5152,
  "\u2581regret": 5153,
  "\u2581soil": 5154,
  "\u2581tetel\u0113": 5155,
  "\u2581v\u0101": 5156,
  "2:": 5157,
  "do": 5158,
  "\u258124]": 5159,
  "\u2581Aumai": 5160,
  "\u2581Empire": 5161,
  "\u2581Puna": 5162,
  "\u2581Tulaga": 5163,
  "\u2581fields": 5164,
  "\u2581games": 5165,
  "\u2581heat": 5166,
  "\u2581iloiloga": 5167,
  "\u2581judges": 5168,
  "\u2581lotomafatia": 5169,
  "\u2581maturity": 5170,
  "\u2581m\u0101losi": 5171,
  "\u2581sitting": 5172,
  "\u2581stones": 5173,
  "\u2581sunako": 5174,
  "\u2581talitonuina": 5175,
  "\u2581totogia": 5176,
  "\u2581victim": 5177,
  "By": 5178,
  "IA": 5179,
  "his": 5180,
  "w": 5181,
  "\u25811,000": 5182,
  "\u2581Herod": 5183,
  "\u2581STUDY": 5184,
  "\u2581admits": 5185,
  "\u2581civil": 5186,
  "\u2581execution": 5187,
  "\u2581fuainumera": 5188,
  "\u2581limafo": 5189,
  "\u2581mates": 5190,
  "\u2581moega": 5191,
  "\u2581opposed": 5192,
  "\u2581returning": 5193,
  "\u2581stronger": 5194,
  "\u2581suggested": 5195,
  "\u2581taleni": 5196,
  "3": 5197,
  "faafalepuipuiina": 5198,
  "\u2581400": 5199,
  "\u2581Herota": 5200,
  "\u2581Human": 5201,
  "\u2581Try": 5202,
  "\u2581Were": 5203,
  "\u2581faalavelavea": 5204,
  "\u2581filosofia": 5205,
  "\u2581m\u0101l\u014d": 5206,
  "\u2581proceeded": 5207,
  "\u2581vow": 5208,
  "\u2581wear": 5209,
  "\u2581wrongdoing": 5210,
  "ING": 5211,
  "z": 5212,
  "\u2581Fepuari": 5213,
  "\u2581Iefata": 5214,
  "\u2581L\u0112": 5215,
  "\u2581Nazi": 5216,
  "\u2581Next": 5217,
  "\u2581Year": 5218,
  "\u2581boat": 5219,
  "\u2581explanation": 5220,
  "\u2581female": 5221,
  "\u2581impact": 5222,
  "\u2581location": 5223,
  "\u2581manatunatuga": 5224,
  "\u2581observing": 5225,
  "\u2581patriarch": 5226,
  "\u2581residents": 5227,
  "\u2581walls": 5228,
  "\u2581weather": 5229,
  "uleagaina": 5230,
  "\u2581Kaisara": 5231,
  "\u2581SUBJECT": 5232,
  "\u2581U\u014d": 5233,
  "\u2581art": 5234,
  "\u2581capacity": 5235,
  "\u2581depth": 5236,
  "\u2581f": 5237,
  "\u2581fau": 5238,
  "\u2581flee": 5239,
  "\u2581fuatiaifo": 5240,
  "ism": 5241,
  "\u25811939": 5242,
  "\u2581Ioritana": 5243,
  "\u2581Philip": 5244,
  "\u2581Silafia": 5245,
  "\u2581creature": 5246,
  "\u2581equal": 5247,
  "\u2581everywhere": 5248,
  "\u2581faapisinisi": 5249,
  "\u2581feed": 5250,
  "\u2581holds": 5251,
  "\u2581items": 5252,
  "\u2581kanesa": 5253,
  "\u2581tired": 5254,
  "\u2581tusitusi": 5255,
  "Your": 5256,
  "lea": 5257,
  "me": 5258,
  "\u258147": 5259,
  "\u2581HAVE": 5260,
  "\u2581advancement": 5261,
  "\u2581beast": 5262,
  "\u2581believing": 5263,
  "\u2581desirable": 5264,
  "\u2581earnestly": 5265,
  "\u2581faatagata": 5266,
  "\u2581length": 5267,
  "\u2581method": 5268,
  "\u2581modesty": 5269,
  "\u2581summer": 5270,
  "\u2581teineitiiti": 5271,
  "\u2581throw": 5272,
  "\u2581vili": 5273,
  "\u2581whereas": 5274,
  "\u258172": 5275,
  "\u2581Get": 5276,
  "\u2581Library": 5277,
  "\u2581Ruler": 5278,
  "\u2581View": 5279,
  "\u2581covering": 5280,
  "\u2581detail": 5281,
  "\u2581faaleaga": 5282,
  "\u2581islands": 5283,
  "\u2581loto\u0101": 5284,
  "\u2581malupuipuia": 5285,
  "\u2581meli": 5286,
  "\u2581middle": 5287,
  "\u2581object": 5288,
  "\u2581prisoners": 5289,
  "\u2581remnant": 5290,
  "\u2581storm": 5291,
  "\u2581subjection": 5292,
  "\u2581tausolomua": 5293,
  "\u2581tofotofo": 5294,
  "\u2581video": 5295,
  "\u25811960": 5296,
  "\u2581Bethlehem": 5297,
  "\u2581Island": 5298,
  "\u2581Living": 5299,
  "\u2581Ne": 5300,
  "\u2581Potukali": 5301,
  "\u2581Which": 5302,
  "\u2581check": 5303,
  "\u2581faapagota": 5304,
  "\u2581faaumiumi": 5305,
  "\u2581faces": 5306,
  "\u2581feature": 5307,
  "\u2581heal": 5308,
  "\u2581motive": 5309,
  "\u2581objective": 5310,
  "\u2581readers": 5311,
  "\u2581ruled": 5312,
  "\u2581satisfy": 5313,
  "\u2581siama": 5314,
  "\u2581sincerely": 5315,
  "\u2581survived": 5316,
  "\u2581taupou": 5317,
  "\u2581tradition": 5318,
  "\u2581Avoid": 5319,
  "\u2581Canaan": 5320,
  "\u2581Judges": 5321,
  "\u2581National": 5322,
  "\u2581Soifua": 5323,
  "\u2581Tasi": 5324,
  "\u2581billion": 5325,
  "\u2581disobedience": 5326,
  "\u2581eli": 5327,
  "\u2581guilty": 5328,
  "\u2581kovana": 5329,
  "\u2581pursuit": 5330,
  "\u2581warfare": 5331,
  "Why": 5332,
  "\u2581comfortable": 5333,
  "\u2581efuefu": 5334,
  "\u2581examination": 5335,
  "\u2581faailoilo": 5336,
  "\u2581faasagatau": 5337,
  "\u2581faasoa": 5338,
  "\u2581marital": 5339,
  "\u2581masei": 5340,
  "\u2581matau": 5341,
  "\u2581privileged": 5342,
  "\u2581repeated": 5343,
  "\u2581sayings": 5344,
  "\u2581silent": 5345,
  "\u2581strangers": 5346,
  "\u2581taufaa": 5347,
  "\u2581terrible": 5348,
  "ncient": 5349,
  "ulu": 5350,
  "\u2581European": 5351,
  "\u2581Faatasi": 5352,
  "\u2581Much": 5353,
  "\u2581Nineva": 5354,
  "\u2581Pulega": 5355,
  "\u2581accompanie": 5356,
  "\u2581childhood": 5357,
  "\u2581convey": 5358,
  "\u2581exciting": 5359,
  "\u2581fafaga": 5360,
  "\u2581fresh": 5361,
  "\u2581grant": 5362,
  "\u2581masima": 5363,
  "\u2581officer": 5364,
  "\u2581senses": 5365,
  "\u2581sentence": 5366,
  "\u2581sopo": 5367,
  "\u2581statements": 5368,
  "\u2581telephone": 5369,
  "\u2581timuga": 5370,
  "\u2581universal": 5371,
  "\u25811930": 5372,
  "\u2581Come": 5373,
  "\u2581Finagalo": 5374,
  "\u2581Poasa": 5375,
  "\u2581Richard": 5376,
  "\u2581credit": 5377,
  "\u2581encounter": 5378,
  "\u2581engaged": 5379,
  "\u2581laugutu": 5380,
  "\u2581losing": 5381,
  "\u2581prejudice": 5382,
  "\u2581replaced": 5383,
  "\u2581singing": 5384,
  "Aise\u0101": 5385,
  "other": 5386,
  "\u258132]": 5387,
  "\u258198": 5388,
  "\u2581Folafolaina": 5389,
  "\u2581Poto": 5390,
  "\u2581accused": 5391,
  "\u2581adjustments": 5392,
  "\u2581apa": 5393,
  "\u2581condemned": 5394,
  "\u2581debt": 5395,
  "\u2581faaauiluma": 5396,
  "\u2581faalemafaufau": 5397,
  "\u2581fallen": 5398,
  "\u2581minded": 5399,
  "\u2581printing": 5400,
  "\u2581rate": 5401,
  "\u2581realm": 5402,
  "\u2581tested": 5403,
  "\u2581toafa": 5404,
  "tala": 5405,
  "ul": 5406,
  "\u2581Eph": 5407,
  "\u2581Filemu": 5408,
  "\u2581Gen": 5409,
  "\u2581Inc": 5410,
  "\u2581Malamalama": 5411,
  "\u2581Ohio": 5412,
  "\u2581Sisifo": 5413,
  "\u2581WHEN": 5414,
  "\u2581acquainted": 5415,
  "\u2581adopted": 5416,
  "\u2581amazing": 5417,
  "\u2581annual": 5418,
  "\u2581anxieties": 5419,
  "\u2581donations": 5420,
  "\u2581faauiga": 5421,
  "\u2581fales\u0101": 5422,
  "\u2581fears": 5423,
  "\u2581feitaga": 5424,
  "\u2581interesting": 5425,
  "\u2581mat\u0101": 5426,
  "\u2581mid": 5427,
  "\u2581outlook": 5428,
  "\u2581passage": 5429,
  "\u2581prosperity": 5430,
  "\u2581remembered": 5431,
  "\u2581rescue": 5432,
  "\u2581respected": 5433,
  "\u2581soloiesea": 5434,
  "\u2581sosaiete": 5435,
  "\u2581unusual": 5436,
  "\u2581urge": 5437,
  "\u2581zealously": 5438,
  "alima": 5439,
  "auauna": 5440,
  "ni": 5441,
  "\u25812014": 5442,
  "\u258175": 5443,
  "\u2581Judas": 5444,
  "\u2581Numera": 5445,
  "\u2581Wisdom": 5446,
  "\u2581aumau": 5447,
  "\u2581declaring": 5448,
  "\u2581dies": 5449,
  "\u2581ends": 5450,
  "\u2581enduring": 5451,
  "\u2581mass": 5452,
  "\u2581nan\u0101": 5453,
  "\u2581necessarily": 5454,
  "\u2581participate": 5455,
  "\u2581priority": 5456,
  "\u2581p\u0113": 5457,
  "\u2581river": 5458,
  "\u2581southern": 5459,
  "\u2581thrown": 5460,
  "\u2581turns": 5461,
  "\u2581witnessed": 5462,
  "\u25811941": 5463,
  "\u2581Dead": 5464,
  "\u2581Evidently": 5465,
  "\u2581Health": 5466,
  "\u2581Jephthah": 5467,
  "\u2581Peteleema": 5468,
  "\u2581Rebekah": 5469,
  "\u2581aasa": 5470,
  "\u2581ava": 5471,
  "\u2581blame": 5472,
  "\u2581burned": 5473,
  "\u2581doubts": 5474,
  "\u2581dying": 5475,
  "\u2581edition": 5476,
  "\u2581ekalesia": 5477,
  "\u2581faapi": 5478,
  "\u2581faavaomalo": 5479,
  "\u2581faifaato": 5480,
  "\u2581grand": 5481,
  "\u2581hardships": 5482,
  "\u2581hated": 5483,
  "\u2581influences": 5484,
  "\u2581represents": 5485,
  "\u2581tuto": 5486,
  "Happy": 5487,
  "\u25811945": 5488,
  "\u2581Abram": 5489,
  "\u2581Lamb": 5490,
  "\u2581Lauga": 5491,
  "\u2581Levites": 5492,
  "\u2581Nofoaga": 5493,
  "\u2581approaching": 5494,
  "\u2581badness": 5495,
  "\u2581coast": 5496,
  "\u2581diligent": 5497,
  "\u2581engaging": 5498,
  "\u2581exchange": 5499,
  "\u2581faamaut\u016b": 5500,
  "\u2581fighting": 5501,
  "\u2581humankind": 5502,
  "\u2581mothers": 5503,
  "\u2581plants": 5504,
  "\u2581practiced": 5505,
  "\u2581rendering": 5506,
  "\u2581reside": 5507,
  "\u2581valaauina": 5508,
  "Go": 5509,
  "\u2581Happiness": 5510,
  "\u2581Knowing": 5511,
  "\u2581Leai": 5512,
  "\u2581TATOU": 5513,
  "\u2581Tupe": 5514,
  "\u2581accident": 5515,
  "\u2581faaauilumaina": 5516,
  "\u2581faatoga": 5517,
  "\u2581gasegase": 5518,
  "\u2581happening": 5519,
  "\u2581lotoa": 5520,
  "\u2581publicly": 5521,
  "\u2581spite": 5522,
  "\u2581talafatai": 5523,
  "\u2581title": 5524,
  "\u2581unexpected": 5525,
  "\u2581weakness": 5526,
  "\u2581willingness": 5527,
  "\u014d": 5528,
  "\u258151": 5529,
  "\u2581Grand": 5530,
  "\u2581Office": 5531,
  "\u2581Red": 5532,
  "\u2581West": 5533,
  "\u2581achieve": 5534,
  "\u2581drive": 5535,
  "\u2581equipped": 5536,
  "\u2581ethnic": 5537,
  "\u2581faauma": 5538,
  "\u2581matuitui": 5539,
  "\u2581peers": 5540,
  "\u2581reserved": 5541,
  "\u2581symbol": 5542,
  "\u2581taualoa": 5543,
  "\u2581vaevaeina": 5544,
  "\u2581visible": 5545,
  "aufaalogologo": 5546,
  "good": 5547,
  "of": 5548,
  "\u258132,": 5549,
  "\u2581Above": 5550,
  "\u2581Faamasinoga": 5551,
  "\u2581discussions": 5552,
  "\u2581introduced": 5553,
  "\u2581ivi": 5554,
  "\u2581liliuese": 5555,
  "\u2581planning": 5556,
  "\u2581portion": 5557,
  "\u2581settled": 5558,
  "\u2581slavery": 5559,
  "\u2581weigh": 5560,
  "asefulu": 5561,
  "atug\u0101": 5562,
  "ufofoga": 5563,
  "\u258197": 5564,
  "\u2581HIV": 5565,
  "\u2581Right": 5566,
  "\u2581Web": 5567,
  "\u2581arrival": 5568,
  "\u2581cultivating": 5569,
  "\u2581faaeseesega": 5570,
  "\u2581faaleu\u014d": 5571,
  "\u2581faatelega": 5572,
  "\u2581guilt": 5573,
  "\u2581hates": 5574,
  "\u2581imprisoned": 5575,
  "\u2581misa": 5576,
  "\u2581obstacles": 5577,
  "\u2581pepese": 5578,
  "\u2581previously": 5579,
  "\u2581price": 5580,
  "\u2581pursuits": 5581,
  "\u2581scale": 5582,
  "\u2581sufficient": 5583,
  "\u2581t\u0101ina": 5584,
  "\u2581usuina": 5585,
  "\u2581vanu": 5586,
  "Atua": 5587,
  "\u25811946": 5588,
  "\u25811947": 5589,
  "\u25812005": 5590,
  "\u2581Back": 5591,
  "\u2581Court": 5592,
  "\u2581Esera": 5593,
  "\u2581M\u0101tua": 5594,
  "\u2581Need": 5595,
  "\u2581PO": 5596,
  "\u2581depressed": 5597,
  "\u2581discussing": 5598,
  "\u2581fasia": 5599,
  "\u2581fun": 5600,
  "\u2581intelligent": 5601,
  "\u2581messages": 5602,
  "\u2581possibility": 5603,
  "\u2581schedule": 5604,
  "\u2581shine": 5605,
  "\u2581tausuai": 5606,
  "\u2581togafitia": 5607,
  "\u2581voluntary": 5608,
  "so": 5609,
  "\u2581Convention": 5610,
  "\u2581Joel": 5611,
  "\u2581Milton": 5612,
  "\u2581Near": 5613,
  "\u2581Zephaniah": 5614,
  "\u2581abroad": 5615,
  "\u2581as\u014d": 5616,
  "\u2581earnest": 5617,
  "\u2581elsewhere": 5618,
  "\u2581evolution": 5619,
  "\u2581faaleo": 5620,
  "\u2581healed": 5621,
  "\u2581matamuli": 5622,
  "\u2581miraculously": 5623,
  "\u2581peer": 5624,
  "\u2581rewards": 5625,
  "\u2581station": 5626,
  "\u2581suitable": 5627,
  "\u2581taoto": 5628,
  "\u2581testimony": 5629,
  "\u2581tusitusia": 5630,
  "\u2581Faamoemoe": 5631,
  "\u2581Haiti": 5632,
  "\u2581appealing": 5633,
  "\u2581color": 5634,
  "\u2581depict": 5635,
  "\u2581fled": 5636,
  "\u2581gaining": 5637,
  "\u2581hoped": 5638,
  "\u2581lalata": 5639,
  "\u2581loyally": 5640,
  "\u2581manufe": 5641,
  "\u2581miss": 5642,
  "\u2581supporting": 5643,
  "\u2581types": 5644,
  "Who": 5645,
  "olo": 5646,
  "tic": 5647,
  "\u2581Andrew": 5648,
  "\u2581British": 5649,
  "\u2581Efe": 5650,
  "\u2581El": 5651,
  "\u2581Ki": 5652,
  "\u2581Nisani": 5653,
  "\u2581arose": 5654,
  "\u2581cancer": 5655,
  "\u2581desired": 5656,
  "\u2581elements": 5657,
  "\u2581faatasitasiga": 5658,
  "\u2581gambling": 5659,
  "\u2581gaoia": 5660,
  "\u2581greed": 5661,
  "\u2581heads": 5662,
  "\u2581lomiaina": 5663,
  "\u2581malae": 5664,
  "\u2581mal\u014d": 5665,
  "\u2581matafaga": 5666,
  "\u2581media": 5667,
  "\u2581naunauta": 5668,
  "\u2581offerings": 5669,
  "\u2581overwhelmed": 5670,
  "\u2581philosophy": 5671,
  "\u2581reflects": 5672,
  "\u2581susunuina": 5673,
  "\u2581temper": 5674,
  "\u2581totally": 5675,
  "4": 5676,
  "\u2581Paris": 5677,
  "\u2581Published": 5678,
  "\u2581Soviet": 5679,
  "\u2581admit": 5680,
  "\u2581agreement": 5681,
  "\u2581correction": 5682,
  "\u2581crowds": 5683,
  "\u2581current": 5684,
  "\u2581expectations": 5685,
  "\u2581faapologaina": 5686,
  "\u2581hunger": 5687,
  "\u2581reasoned": 5688,
  "\u2581wealthy": 5689,
  "F": 5690,
  "\u2581Josephus": 5691,
  "\u2581Karen": 5692,
  "\u2581Learning": 5693,
  "\u2581Lessons": 5694,
  "\u2581Long": 5695,
  "\u2581conform": 5696,
  "\u2581errors": 5697,
  "\u2581extra": 5698,
  "\u2581footnote": 5699,
  "\u2581handed": 5700,
  "\u2581murder": 5701,
  "\u2581trade": 5702,
  "\u2581vaegaau": 5703,
  "\u2581vali": 5704,
  "\u2581worry": 5705,
  "1": 5706,
  "\u258128]": 5707,
  "\u2581Aialani": 5708,
  "\u2581Albert": 5709,
  "\u2581Centre": 5710,
  "\u2581DO": 5711,
  "\u2581Fili": 5712,
  "\u2581Last": 5713,
  "\u2581Nisan": 5714,
  "\u2581Years": 5715,
  "\u2581changing": 5716,
  "\u2581effectively": 5717,
  "\u2581faamuta": 5718,
  "\u2581faaumatiaina": 5719,
  "\u2581faisoo": 5720,
  "\u2581hide": 5721,
  "\u2581householder": 5722,
  "\u2581ki": 5723,
  "\u2581memories": 5724,
  "\u2581muimui": 5725,
  "\u2581osia": 5726,
  "\u2581outset": 5727,
  "\u2581peritomeina": 5728,
  "\u2581pick": 5729,
  "\u2581playing": 5730,
  "\u2581priorities": 5731,
  "\u2581range": 5732,
  "\u2581schools": 5733,
  "\u2581similarly": 5734,
  "\u2581tafatafa": 5735,
  "\u2581tulu": 5736,
  "\u2581typical": 5737,
  "\u2581widows": 5738,
  "Alofia": 5739,
  "GA": 5740,
  "angelic": 5741,
  "uvale": 5742,
  "\u25811970": 5743,
  "\u2581Al": 5744,
  "\u2581Ezra": 5745,
  "\u2581Luther": 5746,
  "\u2581Raava": 5747,
  "\u2581Sefanaia": 5748,
  "\u2581Zion": 5749,
  "\u2581educational": 5750,
  "\u2581governing": 5751,
  "\u2581immediate": 5752,
  "\u2581impression": 5753,
  "\u2581originally": 5754,
  "\u2581politics": 5755,
  "\u2581sell": 5756,
  "\u2581specifically": 5757,
  "\u2581supplies": 5758,
  "\u2581uphold": 5759,
  "\u2581uu": 5760,
  "\u2581vaitausaga": 5761,
  "\u2581worldly": 5762,
  "fanau": 5763,
  "imomomoina": 5764,
  "\u0101iga": 5765,
  "\u2581Additionally": 5766,
  "\u2581Any": 5767,
  "\u2581Bill": 5768,
  "\u2581Boaz": 5769,
  "\u2581Divine": 5770,
  "\u2581Ex": 5771,
  "\u2581Knowledge": 5772,
  "\u2581Lines": 5773,
  "\u2581Tolutasi": 5774,
  "\u2581anafea": 5775,
  "\u2581black": 5776,
  "\u2581climate": 5777,
  "\u2581design": 5778,
  "\u2581ensure": 5779,
  "\u2581evolusione": 5780,
  "\u2581faamanu": 5781,
  "\u2581lepela": 5782,
  "\u2581mentions": 5783,
  "\u2581missing": 5784,
  "\u2581momoli": 5785,
  "\u2581opinions": 5786,
  "\u2581repent": 5787,
  "\u2581weapons": 5788,
  "oli": 5789,
  "\u2581Again": 5790,
  "\u2581LOMIGA": 5791,
  "\u2581Tutotonu": 5792,
  "\u2581author": 5793,
  "\u2581bought": 5794,
  "\u2581cup": 5795,
  "\u2581experiencing": 5796,
  "\u2581fulfilling": 5797,
  "\u2581gataaga": 5798,
  "\u2581limits": 5799,
  "\u2581mamae": 5800,
  "\u2581openly": 5801,
  "\u2581per": 5802,
  "\u2581proclaimers": 5803,
  "\u2581qualify": 5804,
  "\u2581reduce": 5805,
  "\u2581talked": 5806,
  "\u2581tot\u014dina": 5807,
  "\u2581upega": 5808,
  "\u2581yoke": 5809,
  "iloga": 5810,
  "\u25811995": 5811,
  "\u2581Aperamo": 5812,
  "\u2581Faafanua": 5813,
  "\u2581Leader": 5814,
  "\u2581Millions": 5815,
  "\u2581Pope": 5816,
  "\u2581Reflect": 5817,
  "\u2581Sosaiete": 5818,
  "\u2581assume": 5819,
  "\u2581characters": 5820,
  "\u2581claims": 5821,
  "\u2581deceived": 5822,
  "\u2581defense": 5823,
  "\u2581faamolemolega": 5824,
  "\u2581honesty": 5825,
  "\u2581kingdoms": 5826,
  "\u2581lacking": 5827,
  "\u2581lion": 5828,
  "\u2581lower": 5829,
  "\u2581mafaatusalia": 5830,
  "\u2581milk": 5831,
  "\u2581movement": 5832,
  "\u2581obeyed": 5833,
  "\u2581pregnant": 5834,
  "\u2581siaki": 5835,
  "\u2581submit": 5836,
  "\u2581totogiina": 5837,
  "that": 5838,
  "uamiotonuina": 5839,
  "\u25811953": 5840,
  "\u25811996": 5841,
  "\u2581Britannica": 5842,
  "\u2581Find": 5843,
  "\u2581Men": 5844,
  "\u2581Moapi": 5845,
  "\u2581TALAAGA": 5846,
  "\u2581camps": 5847,
  "\u2581commendation": 5848,
  "\u2581concentration": 5849,
  "\u2581disappointed": 5850,
  "\u2581eternity": 5851,
  "\u2581expects": 5852,
  "\u2581linked": 5853,
  "\u2581nofoia": 5854,
  "\u2581prize": 5855,
  "\u2581professor": 5856,
  "\u2581sorrow": 5857,
  "\u2581twice": 5858,
  "\u2581wood": 5859,
  "\u258152": 5860,
  "\u2581Barnabas": 5861,
  "\u2581Ben": 5862,
  "\u2581Faithful": 5863,
  "\u2581Jude": 5864,
  "\u2581M\u0101fuaaga": 5865,
  "\u2581Paruka": 5866,
  "\u2581Put": 5867,
  "\u2581Tu": 5868,
  "\u2581belongings": 5869,
  "\u2581bus": 5870,
  "\u2581citizens": 5871,
  "\u2581conflicts": 5872,
  "\u2581courageously": 5873,
  "\u2581expectation": 5874,
  "\u2581famine": 5875,
  "\u2581helper": 5876,
  "\u2581intimate": 5877,
  "\u2581komiti": 5878,
  "\u2581reproach": 5879,
  "\u2581sending": 5880,
  "\u2581shoulder": 5881,
  "\u2581siva": 5882,
  "\u2581thrilled": 5883,
  "\u2581tools": 5884,
  "\u2581tusiaina": 5885,
  "\u2581tutuli": 5886,
  "\u2581warnings": 5887,
  "ate": 5888,
  "ite": 5889,
  "vi": 5890,
  "\u258133,": 5891,
  "\u2581Filipo": 5892,
  "\u2581GOD": 5893,
  "\u2581LIFE": 5894,
  "\u2581Lonetona": 5895,
  "\u2581Nigeria": 5896,
  "\u2581Numbers": 5897,
  "\u2581Olioli": 5898,
  "\u2581Panapa": 5899,
  "\u2581Photo": 5900,
  "\u2581application": 5901,
  "\u2581arrive": 5902,
  "\u2581assemblies": 5903,
  "\u2581deeper": 5904,
  "\u2581faamaufaailoga": 5905,
  "\u2581faamavae": 5906,
  "\u2581floor": 5907,
  "\u2581friendly": 5908,
  "\u2581host": 5909,
  "\u2581hungry": 5910,
  "\u2581income": 5911,
  "\u2581itup\u0101": 5912,
  "\u2581joyfully": 5913,
  "\u2581oppression": 5914,
  "\u2581programs": 5915,
  "\u2581seleseleina": 5916,
  "\u2581tamo": 5917,
  "\u2581taumafaina": 5918,
  "\u2581trustworthy": 5919,
  "ausoo": 5920,
  "aut\u016b": 5921,
  "m\u0101fanafanaloto": 5922,
  "\u258100": 5923,
  "\u25812015": 5924,
  "\u2581Aufaatasi": 5925,
  "\u2581Foa": 5926,
  "\u2581Oti": 5927,
  "\u2581Pray": 5928,
  "\u2581Purpose": 5929,
  "\u2581Rahab": 5930,
  "\u2581asleep": 5931,
  "\u2581avatuina": 5932,
  "\u2581earn": 5933,
  "\u2581faaalialia": 5934,
  "\u2581faalogoina": 5935,
  "\u2581faatagaga": 5936,
  "\u2581globe": 5937,
  "\u2581hesitate": 5938,
  "\u2581initial": 5939,
  "\u2581maintained": 5940,
  "\u2581rebellious": 5941,
  "\u2581seeming": 5942,
  "\u2581stage": 5943,
  "\u2581talileleia": 5944,
  "\u2581weekly": 5945,
  "avalu": 5946,
  "ter": 5947,
  "\u258130]": 5948,
  "\u258141.": 5949,
  "\u2581Aristotle": 5950,
  "\u2581Chinese": 5951,
  "\u2581Kerisimasi": 5952,
  "\u2581Matu\u0101": 5953,
  "\u2581Nepukanesa": 5954,
  "\u2581boldness": 5955,
  "\u2581bride": 5956,
  "\u2581bright": 5957,
  "\u2581commitment": 5958,
  "\u2581commonly": 5959,
  "\u2581compromise": 5960,
  "\u2581continually": 5961,
  "\u2581cried": 5962,
  "\u2581faanoanoaga": 5963,
  "\u2581faatumuina": 5964,
  "\u2581mu": 5965,
  "\u2581objects": 5966,
  "\u2581pieces": 5967,
  "\u2581records": 5968,
  "\u2581remote": 5969,
  "\u2581researchers": 5970,
  "\u2581susunu": 5971,
  "\u2581taste": 5972,
  "\u2581widespread": 5973,
  "by": 5974,
  "son": 5975,
  "\u25811918": 5976,
  "\u2581Martin": 5977,
  "\u2581Trust": 5978,
  "\u2581Tuu": 5979,
  "\u2581Yearbook": 5980,
  "\u2581ario": 5981,
  "\u2581begun": 5982,
  "\u2581central": 5983,
  "\u2581deception": 5984,
  "\u2581discover": 5985,
  "\u2581fathers": 5986,
  "\u2581fruits": 5987,
  "\u2581photo": 5988,
  "\u2581proverb": 5989,
  "\u2581rejoicing": 5990,
  "\u2581salt": 5991,
  "\u2581scientific": 5992,
  "\u2581teuga": 5993,
  "\u2581unbeliev": 5994,
  "aufaauu": 5995,
  "\u25815.)": 5996,
  "\u2581Creation": 5997,
  "\u2581Encyclop\u00e6dia": 5998,
  "\u2581FO": 5999,
  "\u2581MY": 6000,
  "\u2581Maintain": 6001,
  "\u2581Nasareta": 6002,
  "\u2581Speaking": 6003,
  "\u2581WAS": 6004,
  "\u2581deserve": 6005,
  "\u2581extraordinary": 6006,
  "\u2581fesuisuia": 6007,
  "\u2581highlights": 6008,
  "\u2581mamana": 6009,
  "\u2581mati": 6010,
  "\u2581molimauina": 6011,
  "\u2581solve": 6012,
  "\u2581sources": 6013,
  "\u2581stumble": 6014,
  "\u2581temptations": 6015,
  "\u2581valid": 6016,
  "\u2581whenever": 6017,
  "9": 6018,
  "W": 6019,
  "ese": 6020,
  "\u2581Become": 6021,
  "\u2581Everyone": 6022,
  "\u2581FROM": 6023,
  "\u2581Imitate": 6024,
  "\u2581In\u0101": 6025,
  "\u2581Levi": 6026,
  "\u2581Rasela": 6027,
  "\u2581Samasoni": 6028,
  "\u2581Suafa": 6029,
  "\u2581Tausia": 6030,
  "\u2581avoided": 6031,
  "\u2581character": 6032,
  "\u2581comparison": 6033,
  "\u2581distinguish": 6034,
  "\u2581fefinaua": 6035,
  "\u2581felagolagoma": 6036,
  "\u2581funds": 6037,
  "\u2581liligi": 6038,
  "\u2581meat": 6039,
  "\u2581perfectly": 6040,
  "\u2581sole": 6041,
  "id": 6042,
  "ized": 6043,
  "\u25811951": 6044,
  "\u258122]": 6045,
  "\u2581Baruch": 6046,
  "\u2581Codex": 6047,
  "\u2581End": 6048,
  "\u2581FAAMATALA": 6049,
  "\u2581Faalapotopotoga": 6050,
  "\u2581Faamolemole": 6051,
  "\u2581Kene": 6052,
  "\u2581Kenya": 6053,
  "\u2581Luteru": 6054,
  "\u2581Persian": 6055,
  "\u2581Sapati": 6056,
  "\u2581admonished": 6057,
  "\u2581afflicted": 6058,
  "\u2581code": 6059,
  "\u2581ear": 6060,
  "\u2581endless": 6061,
  "\u2581exile": 6062,
  "\u2581figure": 6063,
  "\u2581flow": 6064,
  "\u2581permission": 6065,
  "\u2581produces": 6066,
  "\u2581respects": 6067,
  "\u2581striving": 6068,
  "\u2581surrounding": 6069,
  "\u2581tafa": 6070,
  "\u2581teuteuina": 6071,
  "\u2581traditional": 6072,
  "\u2581tragedy": 6073,
  "\u2581tuli": 6074,
  "\u2581upset": 6075,
  "fulisa": 6076,
  "gani": 6077,
  "pp": 6078,
  "\u25811942": 6079,
  "\u2581Joy": 6080,
  "\u2581M\u0101t\u016b": 6081,
  "\u2581Nebuchadnezzar": 6082,
  "\u2581Papatiso": 6083,
  "\u2581associating": 6084,
  "\u2581believer": 6085,
  "\u2581catch": 6086,
  "\u2581disposition": 6087,
  "\u2581distributed": 6088,
  "\u2581eletise": 6089,
  "\u2581experts": 6090,
  "\u2581faaitu": 6091,
  "\u2581faaputuga": 6092,
  "\u2581felelei": 6093,
  "\u2581flood": 6094,
  "\u2581namely": 6095,
  "\u2581outcry": 6096,
  "\u2581plenty": 6097,
  "\u2581selected": 6098,
  "\u2581steadfast": 6099,
  "\u2581understands": 6100,
  "\u2581utmost": 6101,
  "ISH": 6102,
  "feusua": 6103,
  "ial": 6104,
  "\u2581Jean": 6105,
  "\u2581Sabbath": 6106,
  "\u2581San": 6107,
  "\u2581Walk": 6108,
  "\u2581contentment": 6109,
  "\u2581crushed": 6110,
  "\u2581cultures": 6111,
  "\u2581detailed": 6112,
  "\u2581difficulty": 6113,
  "\u2581empire": 6114,
  "\u2581malu": 6115,
  "\u2581overwhelming": 6116,
  "\u2581receives": 6117,
  "\u2581south": 6118,
  "\u2581\u0101faina": 6119,
  "\u258157": 6120,
  "\u258161": 6121,
  "\u258162": 6122,
  "\u2581Consequently": 6123,
  "\u2581Judge": 6124,
  "\u2581Likely": 6125,
  "\u2581Little": 6126,
  "\u2581Map": 6127,
  "\u2581Sotoma": 6128,
  "\u2581comforted": 6129,
  "\u2581explaining": 6130,
  "\u2581faamaualuluga": 6131,
  "\u2581faatapulaa": 6132,
  "\u2581imitating": 6133,
  "\u2581operation": 6134,
  "\u2581reflecting": 6135,
  "\u2581refrain": 6136,
  "\u2581strongly": 6137,
  "\u2581supposed": 6138,
  "\u2581thoroughly": 6139,
  "\u2581translators": 6140,
  "\u2581urgency": 6141,
  "\u2581viewing": 6142,
  "ine": 6143,
  "un": 6144,
  "\u2581110": 6145,
  "\u258137,": 6146,
  "\u2581Atenai": 6147,
  "\u2581Holani": 6148,
  "\u2581Illustrate": 6149,
  "\u2581Mafuta": 6150,
  "\u2581Meanwhile": 6151,
  "\u2581Mom": 6152,
  "\u2581Psalms": 6153,
  "\u2581Rachel": 6154,
  "\u2581Russian": 6155,
  "\u2581Sam": 6156,
  "\u2581Sila": 6157,
  "\u2581attracted": 6158,
  "\u2581backing": 6159,
  "\u2581considerable": 6160,
  "\u2581declaration": 6161,
  "\u2581faafalepuipui": 6162,
  "\u2581faatalitonuina": 6163,
  "\u2581ioeina": 6164,
  "\u2581kinds": 6165,
  "\u2581lotofaamaoni": 6166,
  "\u2581marriages": 6167,
  "\u2581obvious": 6168,
  "\u2581positions": 6169,
  "\u2581prais": 6170,
  "\u2581resurrect": 6171,
  "\u2581staff": 6172,
  "\u2581suli": 6173,
  "\u2581tone": 6174,
  "\u2581tragic": 6175,
  "fai": 6176,
  "men": 6177,
  "\u25811958": 6178,
  "\u258173": 6179,
  "\u2581FESILI": 6180,
  "\u2581Folafolaga": 6181,
  "\u2581SEE": 6182,
  "\u2581Story": 6183,
  "\u2581Truly": 6184,
  "\u2581consult": 6185,
  "\u2581examining": 6186,
  "\u2581faoa": 6187,
  "\u2581handling": 6188,
  "\u2581haughty": 6189,
  "\u2581headship": 6190,
  "\u2581incident": 6191,
  "\u2581inspiring": 6192,
  "\u2581kariota": 6193,
  "\u2581lapopo": 6194,
  "\u2581measures": 6195,
  "\u2581numbers": 6196,
  "\u2581paper": 6197,
  "\u2581proclaim": 6198,
  "\u2581prompt": 6199,
  "\u2581settle": 6200,
  "\u2581shame": 6201,
  "\u2581shield": 6202,
  "\u2581tauimasui": 6203,
  "\u2581vain": 6204,
  "\u2581version": 6205,
  "J": 6206,
  "itaga": 6207,
  "longside": 6208,
  "\u25811993": 6209,
  "\u258130:": 6210,
  "\u258143.": 6211,
  "\u258164": 6212,
  "\u2581Apikaila": 6213,
  "\u2581Real": 6214,
  "\u2581admitted": 6215,
  "\u2581centered": 6216,
  "\u2581continuing": 6217,
  "\u2581expand": 6218,
  "\u2581favorable": 6219,
  "\u2581feast": 6220,
  "\u2581fenuminumia": 6221,
  "\u2581happily": 6222,
  "\u2581highlight": 6223,
  "\u2581homeland": 6224,
  "\u2581manifested": 6225,
  "\u2581piece": 6226,
  "\u2581tunoa": 6227,
  "\u25811952": 6228,
  "\u25811994": 6229,
  "\u2581Alesana": 6230,
  "\u2581Arthur": 6231,
  "\u2581Gal": 6232,
  "\u2581Modern": 6233,
  "\u2581Simon": 6234,
  "\u2581announced": 6235,
  "\u2581backgrounds": 6236,
  "\u2581beat": 6237,
  "\u2581clay": 6238,
  "\u2581diet": 6239,
  "\u2581emepaea": 6240,
  "\u2581faal\u0113ma": 6241,
  "\u2581faataamilo": 6242,
  "\u2581farm": 6243,
  "\u2581fufulu": 6244,
  "\u2581gafatia": 6245,
  "\u2581metal": 6246,
  "\u2581minor": 6247,
  "\u2581neutral": 6248,
  "\u2581oppose": 6249,
  "\u2581susu": 6250,
  "\u2581tiapolo": 6251,
  "\u2581toega": 6252,
  "\u2581tongues": 6253,
  "\u2581unwise": 6254,
  "\u2581virtue": 6255,
  "ka": 6256,
  "\u2581104": 6257,
  "\u2581600": 6258,
  "\u2581De": 6259,
  "\u2581Sodom": 6260,
  "\u2581Tak": 6261,
  "\u2581accurately": 6262,
  "\u2581ages": 6263,
  "\u2581disappointment": 6264,
  "\u2581faamalama": 6265,
  "\u2581faievagelia": 6266,
  "\u2581fiery": 6267,
  "\u2581garments": 6268,
  "\u2581passages": 6269,
  "\u2581pipisi": 6270,
  "\u2581pleasures": 6271,
  "\u2581presents": 6272,
  "\u2581productive": 6273,
  "\u2581roof": 6274,
  "\u2581strike": 6275,
  "\u2581tutasi": 6276,
  "disfellowshipped": 6277,
  "ious": 6278,
  "tusi": 6279,
  "\u25811938": 6280,
  "\u2581Faigat\u0101": 6281,
  "\u2581Nineveh": 6282,
  "\u2581Polyglot": 6283,
  "\u2581Serving": 6284,
  "\u2581atumauga": 6285,
  "\u2581bones": 6286,
  "\u2581duties": 6287,
  "\u2581emphasized": 6288,
  "\u2581exact": 6289,
  "\u2581faitof\u0101": 6290,
  "\u2581generosity": 6291,
  "\u2581highlighted": 6292,
  "\u2581incense": 6293,
  "\u2581independence": 6294,
  "\u2581informed": 6295,
  "\u2581neutrality": 6296,
  "\u2581pauna": 6297,
  "\u2581preachers": 6298,
  "\u2581producing": 6299,
  "\u2581rid": 6300,
  "\u2581sports": 6301,
  "\u2581steal": 6302,
  "\u2581tempered": 6303,
  "\u2581um\u012b": 6304,
  "&": 6305,
  "itu": 6306,
  "there": 6307,
  "\u25811944": 6308,
  "\u25811949": 6309,
  "\u258146.": 6310,
  "\u2581Certainly": 6311,
  "\u2581Power": 6312,
  "\u2581Rd": 6313,
  "\u2581Soifuaga": 6314,
  "\u2581adversity": 6315,
  "\u2581awe": 6316,
  "\u2581extensive": 6317,
  "\u2581faafanua": 6318,
  "\u2581hoping": 6319,
  "\u2581idols": 6320,
  "\u2581paga": 6321,
  "\u2581party": 6322,
  "\u2581prospects": 6323,
  "\u2581p\u016b": 6324,
  "\u2581realistic": 6325,
  "\u2581resort": 6326,
  "\u2581status": 6327,
  "\u2581uta": 6328,
  "\u2581winter": 6329,
  "\u2581yield": 6330,
  "AL": 6331,
  "com": 6332,
  "mo": 6333,
  "usi": 6334,
  "va": 6335,
  "\u2581130": 6336,
  "\u25811957": 6337,
  "\u258186": 6338,
  "\u2581ATUA": 6339,
  "\u2581Col": 6340,
  "\u2581Faaipoipoga": 6341,
  "\u2581Lomia": 6342,
  "\u2581Origen": 6343,
  "\u2581Professor": 6344,
  "\u2581attractive": 6345,
  "\u2581entirely": 6346,
  "\u2581era": 6347,
  "\u2581faatonutonu": 6348,
  "\u2581fauina": 6349,
  "\u2581graduates": 6350,
  "\u2581maliega": 6351,
  "\u2581projects": 6352,
  "\u2581rage": 6353,
  "\u2581references": 6354,
  "\u2581restoration": 6355,
  "\u2581saili": 6356,
  "\u2581sanctified": 6357,
  "\u2581sand": 6358,
  "\u2581surprising": 6359,
  "\u2581tauemu": 6360,
  "\u2581thrilling": 6361,
  "\u2581traditions": 6362,
  "K": 6363,
  "ala": 6364,
  "doubtedly": 6365,
  "manatu": 6366,
  "\u258183": 6367,
  "\u2581ABOUT": 6368,
  "\u2581Egyptians": 6369,
  "\u2581Faafitauli": 6370,
  "\u2581Faapotopotoga": 6371,
  "\u2581Fonotaga": 6372,
  "\u2581ISSUE": 6373,
  "\u2581Matagaluega": 6374,
  "\u2581Shepherd": 6375,
  "\u2581TAGA": 6376,
  "\u2581Talaaga": 6377,
  "\u2581billions": 6378,
  "\u2581estimated": 6379,
  "\u2581faasilasila": 6380,
  "\u2581hit": 6381,
  "\u2581jobs": 6382,
  "\u2581journal": 6383,
  "\u2581judged": 6384,
  "\u2581lines": 6385,
  "\u2581moomia": 6386,
  "\u2581paragraphs": 6387,
  "\u2581periods": 6388,
  "\u2581phrase": 6389,
  "\u2581presentation": 6390,
  "\u2581select": 6391,
  "\u2581sensitive": 6392,
  "\u2581stands": 6393,
  "\u2581taofiofia": 6394,
  "co": 6395,
  "\u258159": 6396,
  "\u2581Far": 6397,
  "\u2581Georgia": 6398,
  "\u2581Islands": 6399,
  "\u2581Priest": 6400,
  "\u2581Samson": 6401,
  "\u2581Sanhedrin": 6402,
  "\u2581Science": 6403,
  "\u2581Ten": 6404,
  "\u2581Toma": 6405,
  "\u2581bears": 6406,
  "\u2581illustrated": 6407,
  "\u2581inspiration": 6408,
  "\u2581masalosaloga": 6409,
  "\u2581native": 6410,
  "\u2581online": 6411,
  "\u2581peresitene": 6412,
  "\u2581prefer": 6413,
  "\u2581priesthood": 6414,
  "\u2581prophesied": 6415,
  "\u2581ulutala": 6416,
  "Fuaiupu": 6417,
  "fa": 6418,
  "loto": 6419,
  "ward": 6420,
  "\u2581Aitiope": 6421,
  "\u2581Alexander": 6422,
  "\u2581Apisaloma": 6423,
  "\u2581FAI": 6424,
  "\u2581Gagana": 6425,
  "\u2581Interestingly": 6426,
  "\u2581Tahiti": 6427,
  "\u2581Teacher": 6428,
  "\u2581Viewpoint": 6429,
  "\u2581agaleaga": 6430,
  "\u2581faala": 6431,
  "\u2581grows": 6432,
  "\u2581hurtful": 6433,
  "\u2581hypocrisy": 6434,
  "\u2581improper": 6435,
  "\u2581lalelei": 6436,
  "\u2581lifetime": 6437,
  "\u2581materially": 6438,
  "\u2581mum\u016b": 6439,
  "\u2581ova": 6440,
  "\u2581pale": 6441,
  "\u2581perspective": 6442,
  "\u2581pity": 6443,
  "\u2581press": 6444,
  "\u2581rebel": 6445,
  "\u2581sides": 6446,
  "\u2581smile": 6447,
  "\u2581space": 6448,
  "\u2581succeeded": 6449,
  "\u2581survey": 6450,
  "\u2581teens": 6451,
  "\u2581tiny": 6452,
  "\u2581\u016b": 6453,
  "ably": 6454,
  "my": 6455,
  "proving": 6456,
  "\u00e9": 6457,
  "\u2581Friend": 6458,
  "\u2581Insight": 6459,
  "\u2581Pacific": 6460,
  "\u2581Reading": 6461,
  "\u2581TALI": 6462,
  "\u2581Thessalonica": 6463,
  "\u2581Wise": 6464,
  "\u2581ban": 6465,
  "\u2581base": 6466,
  "\u2581bore": 6467,
  "\u2581faaeaina": 6468,
  "\u2581faamalosiau": 6469,
  "\u2581faataatitia": 6470,
  "\u2581favorably": 6471,
  "\u2581ignored": 6472,
  "\u2581increasingly": 6473,
  "\u2581injury": 6474,
  "\u2581larger": 6475,
  "\u2581largest": 6476,
  "\u2581ordinary": 6477,
  "\u2581papamaa": 6478,
  "\u2581paths": 6479,
  "\u2581ponaivi": 6480,
  "\u2581psalm": 6481,
  "\u2581separated": 6482,
  "\u2581tata": 6483,
  "\u00e3o": 6484,
  "\u25811955": 6485,
  "\u25814.)": 6486,
  "\u2581Bl": 6487,
  "\u2581OU": 6488,
  "\u2581Phil": 6489,
  "\u2581abusive": 6490,
  "\u2581adolescent": 6491,
  "\u2581appointment": 6492,
  "\u2581associations": 6493,
  "\u2581conquered": 6494,
  "\u2581cooperate": 6495,
  "\u2581driving": 6496,
  "\u2581ease": 6497,
  "\u2581faafiaamiotonu": 6498,
  "\u2581faaputu": 6499,
  "\u2581facilities": 6500,
  "\u2581faufautua": 6501,
  "\u2581fetagisi": 6502,
  "\u2581fifth": 6503,
  "\u2581foremost": 6504,
  "\u2581forgiven": 6505,
  "\u2581fug\u0101laau": 6506,
  "\u2581happier": 6507,
  "\u2581liua": 6508,
  "\u2581meafaiola": 6509,
  "\u2581seeds": 6510,
  "\u2581sharp": 6511,
  "\u2581stumbling": 6512,
  "\u2581sulu": 6513,
  "\u2581tafafao": 6514,
  "\u2581valley": 6515,
  "\u2581welcomed": 6516,
  "ateleina": 6517,
  "faia": 6518,
  "taumamao": 6519,
  "was": 6520,
  "\u25811980": 6521,
  "\u2581Absalom": 6522,
  "\u2581Hitler": 6523,
  "\u2581Maketonia": 6524,
  "\u2581Nazareth": 6525,
  "\u2581await": 6526,
  "\u2581belonging": 6527,
  "\u2581board": 6528,
  "\u2581classmates": 6529,
  "\u2581commercial": 6530,
  "\u2581commissioned": 6531,
  "\u2581composed": 6532,
  "\u2581creative": 6533,
  "\u2581despair": 6534,
  "\u2581exercised": 6535,
  "\u2581faaleuso": 6536,
  "\u2581fed": 6537,
  "\u2581hears": 6538,
  "\u2581kiona": 6539,
  "\u2581meantime": 6540,
  "\u2581promoted": 6541,
  "\u2581refreshment": 6542,
  "\u2581requirement": 6543,
  "\u2581resident": 6544,
  "\u2581sentenced": 6545,
  "\u2581somewhat": 6546,
  "\u2581talitane": 6547,
  "\u2581tusiupu": 6548,
  "\u2581tuufaafeagai": 6549,
  "\u2581tuuga": 6550,
  "\u2581ulufale": 6551,
  "\u2581weeds": 6552,
  "\u2581wishes": 6553,
  "alia": 6554,
  "ally": 6555,
  "\u25811513": 6556,
  "\u25811948": 6557,
  "\u2581Elders": 6558,
  "\u2581Emepaea": 6559,
  "\u2581Faamanuiaga": 6560,
  "\u2581Faauta": 6561,
  "\u2581Italian": 6562,
  "\u2581Lenei": 6563,
  "\u2581Lu": 6564,
  "\u2581Talisua": 6565,
  "\u2581Western": 6566,
  "\u2581armor": 6567,
  "\u2581commented": 6568,
  "\u2581demands": 6569,
  "\u2581discouragement": 6570,
  "\u2581faasilisilia": 6571,
  "\u2581gaosia": 6572,
  "\u2581goats": 6573,
  "\u2581implies": 6574,
  "\u2581infant": 6575,
  "\u2581jealousy": 6576,
  "\u2581m\u0101l\u016b": 6577,
  "\u2581oneone": 6578,
  "\u2581potopoto": 6579,
  "\u2581saving": 6580,
  "\u2581soldier": 6581,
  "tonu": 6582,
  "\u25811991": 6583,
  "\u2581AUALA": 6584,
  "\u2581Eastern": 6585,
  "\u2581LF": 6586,
  "\u2581Middle": 6587,
  "\u2581Theocratic": 6588,
  "\u2581Thereafter": 6589,
  "\u2581Union": 6590,
  "\u2581amazed": 6591,
  "\u2581chaste": 6592,
  "\u2581commended": 6593,
  "\u2581faatalitonu": 6594,
  "\u2581faatusatusaga": 6595,
  "\u2581faufauga": 6596,
  "\u2581feeding": 6597,
  "\u2581green": 6598,
  "\u2581judgments": 6599,
  "\u2581judicial": 6600,
  "\u2581keen": 6601,
  "\u2581lean": 6602,
  "\u2581ongoing": 6603,
  "\u2581owner": 6604,
  "\u2581prior": 6605,
  "\u2581taufai": 6606,
  "\u2581tremendous": 6607,
  "\u2581wholeheartedly": 6608,
  "epa": 6609,
  "ig": 6610,
  "iloa": 6611,
  "they": 6612,
  "\u2581Pu": 6613,
  "\u2581Taulau": 6614,
  "\u2581bit": 6615,
  "\u2581cherish": 6616,
  "\u2581confirmed": 6617,
  "\u2581expose": 6618,
  "\u2581faamamao": 6619,
  "\u2581faamau": 6620,
  "\u2581founded": 6621,
  "\u2581g": 6622,
  "\u2581gentle": 6623,
  "\u2581occurs": 6624,
  "\u2581oldest": 6625,
  "\u2581replace": 6626,
  "\u2581respectful": 6627,
  "\u2581smoke": 6628,
  "\u2581standpoint": 6629,
  "\u2581struggling": 6630,
  "\u2581tulei": 6631,
  "\u2581uigaese": 6632,
  "\u2581upper": 6633,
  "537": 6634,
  "am": 6635,
  "new": 6636,
  "tatou": 6637,
  "tional": 6638,
  "\u25811935": 6639,
  "\u2581Child": 6640,
  "\u2581Gentiles": 6641,
  "\u2581Kuperu": 6642,
  "\u2581Listen": 6643,
  "\u2581Protestant": 6644,
  "\u2581Seed": 6645,
  "\u2581Sefulu": 6646,
  "\u2581Volume": 6647,
  "\u2581afternoon": 6648,
  "\u2581apostate": 6649,
  "\u2581aufaatasiga": 6650,
  "\u2581buildings": 6651,
  "\u2581delegates": 6652,
  "\u2581expensive": 6653,
  "\u2581faailogatagata": 6654,
  "\u2581faapopole": 6655,
  "\u2581forgotten": 6656,
  "\u2581heartwarming": 6657,
  "\u2581honesthearted": 6658,
  "\u2581l": 6659,
  "\u2581needy": 6660,
  "\u2581neglect": 6661,
  "\u2581penina": 6662,
  "\u2581repair": 6663,
  "\u2581ridicule": 6664,
  "\u2581snow": 6665,
  "\u2581stating": 6666,
  "\u2581strange": 6667,
  "\u2581synagogue": 6668,
  "\u2581technology": 6669,
  "\u2581unfaithful": 6670,
  "\u2581unknown": 6671,
  "\u2581unscriptural": 6672,
  "\u2581warn": 6673,
  "7": 6674,
  "age": 6675,
  "ist": 6676,
  "\u25811931": 6677,
  "\u25811956": 6678,
  "\u25818.)": 6679,
  "\u2581ARTICLES": 6680,
  "\u2581ENGL": 6681,
  "\u2581Faatiokarate": 6682,
  "\u2581Koliata": 6683,
  "\u2581LUK": 6684,
  "\u2581Manasseh": 6685,
  "\u2581Matai": 6686,
  "\u2581Maya": 6687,
  "\u2581Minor": 6688,
  "\u2581Napalu": 6689,
  "\u2581Papa": 6690,
  "\u2581absolutely": 6691,
  "\u2581aim": 6692,
  "\u2581badly": 6693,
  "\u2581cloud": 6694,
  "\u2581driver": 6695,
  "\u2581enhance": 6696,
  "\u2581gladly": 6697,
  "\u2581honestly": 6698,
  "\u2581immortal": 6699,
  "\u2581inclination": 6700,
  "\u2581intentions": 6701,
  "\u2581loud": 6702,
  "\u2581materials": 6703,
  "\u2581pair": 6704,
  "\u2581patients": 6705,
  "\u2581permit": 6706,
  "\u2581practicing": 6707,
  "\u2581pup\u016b": 6708,
  "\u2581roads": 6709,
  "\u2581rob": 6710,
  "\u2581sexually": 6711,
  "\u2581thorough": 6712,
  "\u2581tract": 6713,
  "\u2581urgent": 6714,
  "Our": 6715,
  "gainst": 6716,
  "\u2581Babylonians": 6717,
  "\u2581Benjamin": 6718,
  "\u2581Giving": 6719,
  "\u2581Institute": 6720,
  "\u2581Stadium": 6721,
  "\u2581Ulu": 6722,
  "\u2581Uso": 6723,
  "\u2581advanced": 6724,
  "\u2581concept": 6725,
  "\u2581confirm": 6726,
  "\u2581contribution": 6727,
  "\u2581contributions": 6728,
  "\u2581demand": 6729,
  "\u2581faagaoioia": 6730,
  "\u2581faatumau": 6731,
  "\u2581imperfections": 6732,
  "\u2581latter": 6733,
  "\u2581mutimuti": 6734,
  "\u2581reminder": 6735,
  "\u2581resentment": 6736,
  "\u2581scribes": 6737,
  "\u2581spiritism": 6738,
  "\u2581talents": 6739,
  "\u2581tanu": 6740,
  "\u2581tilotilo": 6741,
  "\u2581waves": 6742,
  "latou": 6743,
  "most": 6744,
  "now": 6745,
  "\u2581(1": 6746,
  "\u258110,000": 6747,
  "\u258196": 6748,
  "\u2581ANSWERED": 6749,
  "\u2581Had": 6750,
  "\u2581Manase": 6751,
  "\u2581Meal": 6752,
  "\u2581ON": 6753,
  "\u2581Setefano": 6754,
  "\u2581Vulgate": 6755,
  "\u2581Women": 6756,
  "\u2581cure": 6757,
  "\u2581delay": 6758,
  "\u2581empathy": 6759,
  "\u2581entering": 6760,
  "\u2581exemplary": 6761,
  "\u2581faamaopoopo": 6762,
  "\u2581faatafunaina": 6763,
  "\u2581faug\u0101fale": 6764,
  "\u2581fought": 6765,
  "\u2581guests": 6766,
  "\u2581narrow": 6767,
  "\u2581natura": 6768,
  "\u2581protective": 6769,
  "\u2581publisher": 6770,
  "\u2581span": 6771,
  "\u2581species": 6772,
  "\u2581spreading": 6773,
  "\u2581sua": 6774,
  "\u2581suamalie": 6775,
  "\u2581su\u0101susu": 6776,
  "\u2581teuteu": 6777,
  ";...": 6778,
  "from": 6779,
  "lying": 6780,
  "rs": 6781,
  "\u2581Evening": 6782,
  "\u2581Jas": 6783,
  "\u2581Malawi": 6784,
  "\u2581Natano": 6785,
  "\u2581Nothing": 6786,
  "\u2581Prophecy": 6787,
  "\u2581Ses\u0113": 6788,
  "\u2581Ulaula": 6789,
  "\u2581awaiting": 6790,
  "\u2581branches": 6791,
  "\u2581deepen": 6792,
  "\u2581faletupe": 6793,
  "\u2581feared": 6794,
  "\u2581follows": 6795,
  "\u2581gatherings": 6796,
  "\u2581hopes": 6797,
  "\u2581leadership": 6798,
  "\u2581leiti\u014d": 6799,
  "\u2581mona": 6800,
  "\u2581originate": 6801,
  "\u2581previous": 6802,
  "\u2581products": 6803,
  "\u2581radio": 6804,
  "\u2581richly": 6805,
  "\u2581suit": 6806,
  "\u2581tausiaina": 6807,
  "\u2581tobacco": 6808,
  "\u2581transform": 6809,
  "\u2581trap": 6810,
  "\u2581t\u0101t\u0101": 6811,
  "\u2581unbelievers": 6812,
  "\u2581worthwhile": 6813,
  "faamalamalamaina": 6814,
  "ho": 6815,
  "if": 6816,
  "\u2581(5)": 6817,
  "\u2581145": 6818,
  "\u258114]": 6819,
  "\u25811922": 6820,
  "\u25816.)": 6821,
  "\u2581AOG\u0100": 6822,
  "\u2581Athens": 6823,
  "\u2581Department": 6824,
  "\u2581Faaola": 6825,
  "\u2581Goliath": 6826,
  "\u2581Initineti": 6827,
  "\u2581Leads": 6828,
  "\u2581Manuia": 6829,
  "\u2581Mesopotamia": 6830,
  "\u2581Patterson": 6831,
  "\u2581Secret": 6832,
  "\u2581Taumafai": 6833,
  "\u2581arrives": 6834,
  "\u2581border": 6835,
  "\u2581card": 6836,
  "\u2581classes": 6837,
  "\u2581destination": 6838,
  "\u2581domestic": 6839,
  "\u2581faimea": 6840,
  "\u2581fair": 6841,
  "\u2581gross": 6842,
  "\u2581initially": 6843,
  "\u2581kingship": 6844,
  "\u2581moliaga": 6845,
  "\u2581ogaumu": 6846,
  "\u2581permitted": 6847,
  "\u2581shape": 6848,
  "\u2581shut": 6849,
  "\u2581siblings": 6850,
  "\u2581sus\u016b": 6851,
  "\u2581unselfish": 6852,
  "aulotu": 6853,
  "de": 6854,
  "puna": 6855,
  "tino": 6856,
  "\u2581139": 6857,
  "\u258138,": 6858,
  "\u2581Bas": 6859,
  "\u2581Ghana": 6860,
  "\u2581Moscow": 6861,
  "\u2581Nabal": 6862,
  "\u2581Park": 6863,
  "\u2581Self": 6864,
  "\u2581Ur": 6865,
  "\u2581actively": 6866,
  "\u2581ashamed": 6867,
  "\u2581asu": 6868,
  "\u2581constitute": 6869,
  "\u2581convince": 6870,
  "\u2581diligently": 6871,
  "\u2581drop": 6872,
  "\u2581faaagaga": 6873,
  "\u2581faatuai": 6874,
  "\u2581falling": 6875,
  "\u2581forbidden": 6876,
  "\u2581forest": 6877,
  "\u2581headed": 6878,
  "\u2581lem\u016b": 6879,
  "\u2581occasionally": 6880,
  "\u2581perceive": 6881,
  "\u2581rare": 6882,
  "\u2581seat": 6883,
  "\u2581sorry": 6884,
  "\u2581starting": 6885,
  "\u2581territories": 6886,
  "\u2581thereby": 6887,
  "\u2581timely": 6888,
  "\u2581tuliloaina": 6889,
  "PA": 6890,
  "ac": 6891,
  "ance": 6892,
  "ant": 6893,
  "nd": 6894,
  "ti": 6895,
  "\u25811961": 6896,
  "\u2581Galileo": 6897,
  "\u2581Loving": 6898,
  "\u2581Neither": 6899,
  "\u2581Person": 6900,
  "\u2581Polish": 6901,
  "\u2581agavale": 6902,
  "\u2581commend": 6903,
  "\u2581embrace": 6904,
  "\u2581faam\u0101l\u014dl\u014dga": 6905,
  "\u2581faipule": 6906,
  "\u2581foods": 6907,
  "\u2581galuea": 6908,
  "\u2581gracious": 6909,
  "\u2581horse": 6910,
  "\u2581jealous": 6911,
  "\u2581kuka": 6912,
  "\u2581lonely": 6913,
  "\u2581maimoa": 6914,
  "\u2581meals": 6915,
  "\u2581outright": 6916,
  "\u2581overlook": 6917,
  "\u2581protects": 6918,
  "\u2581seevae": 6919,
  "\u2581sites": 6920,
  "\u2581sm": 6921,
  "\u2581teenagers": 6922,
  "ck": 6923,
  "muia": 6924,
  "\u2581100,000": 6925,
  "\u2581Cyrus": 6926,
  "\u2581Humans": 6927,
  "\u2581Ireland": 6928,
  "\u2581Lives": 6929,
  "\u2581Money": 6930,
  "\u2581NI": 6931,
  "\u2581Organization": 6932,
  "\u2581Philistines": 6933,
  "\u2581Studies": 6934,
  "\u2581Suisilani": 6935,
  "\u2581TA": 6936,
  "\u2581Uganda": 6937,
  "\u2581arrest": 6938,
  "\u2581containing": 6939,
  "\u2581crying": 6940,
  "\u2581delightful": 6941,
  "\u2581doors": 6942,
  "\u2581dramatic": 6943,
  "\u2581illustrates": 6944,
  "\u2581independent": 6945,
  "\u2581inuina": 6946,
  "\u2581medicine": 6947,
  "\u2581memorial": 6948,
  "\u2581offended": 6949,
  "\u2581pasese": 6950,
  "\u2581plain": 6951,
  "\u2581president": 6952,
  "\u2581prime": 6953,
  "\u2581proclaimed": 6954,
  "\u2581product": 6955,
  "\u2581reassuring": 6956,
  "\u2581sing": 6957,
  "\u2581touching": 6958,
  "\u2581towns": 6959,
  "\u2581tutu": 6960,
  "\u2581wages": 6961,
  "\u2581wash": 6962,
  "\u2581womb": 6963,
  "Now": 6964,
  "ir": 6965,
  "\u2581Gary": 6966,
  "\u2581Itiiti": 6967,
  "\u2581Jehu": 6968,
  "\u2581Jericho": 6969,
  "\u2581Siata": 6970,
  "\u2581captivity": 6971,
  "\u2581copper": 6972,
  "\u2581diabetes": 6973,
  "\u2581documents": 6974,
  "\u2581faasili": 6975,
  "\u2581fat": 6976,
  "\u2581governor": 6977,
  "\u2581magnificent": 6978,
  "\u2581migao": 6979,
  "\u2581petitions": 6980,
  "\u2581pomu": 6981,
  "\u2581recognition": 6982,
  "\u2581route": 6983,
  "\u2581supplication": 6984,
  "\u2581transferred": 6985,
  "\u2581ula": 6986,
  "\u2581vary": 6987,
  "dicating": 6988,
  "ge": 6989,
  "some": 6990,
  "\u25817,000": 6991,
  "\u2581Eric": 6992,
  "\u2581Faaau": 6993,
  "\u2581Fono": 6994,
  "\u2581Ieriko": 6995,
  "\u2581Jew": 6996,
  "\u2581Kala": 6997,
  "\u2581Light": 6998,
  "\u2581MAFAI": 6999,
  "\u2581Part": 7000,
  "\u2581Pasefika": 7001,
  "\u2581Samaritan": 7002,
  "\u2581aging": 7003,
  "\u2581deceptive": 7004,
  "\u2581dedicate": 7005,
  "\u2581duty": 7006,
  "\u2581enjoyable": 7007,
  "\u2581execute": 7008,
  "\u2581faap\u0113fea": 7009,
  "\u2581faataamilosaga": 7010,
  "\u2581faatatauga": 7011,
  "\u2581fault": 7012,
  "\u2581forefathers": 7013,
  "\u2581garment": 7014,
  "\u2581grass": 7015,
  "\u2581litaea": 7016,
  "\u2581performing": 7017,
  "\u2581poloka": 7018,
  "\u2581sounds": 7019,
  "\u2581streets": 7020,
  "\u2581stressed": 7021,
  "\u2581su\u0101vai": 7022,
  "\u2581tautau": 7023,
  "\u2581teenage": 7024,
  "\u2581th": 7025,
  "\u2581tries": 7026,
  "\u2581truthfulness": 7027,
  "\u2581worshipped": 7028,
  "OLD": 7029,
  "fe": 7030,
  "vd": 7031,
  "x": 7032,
  "\u258117.)": 7033,
  "\u258158": 7034,
  "\u258199": 7035,
  "\u2581AISE\u0100": 7036,
  "\u2581ATU": 7037,
  "\u2581Antioch": 7038,
  "\u2581Ao": 7039,
  "\u2581Ca": 7040,
  "\u2581Language": 7041,
  "\u2581M\u0101l\u014dl\u014dina": 7042,
  "\u2581Ocean": 7043,
  "\u2581Teaching": 7044,
  "\u2581actual": 7045,
  "\u2581adhere": 7046,
  "\u2581clouds": 7047,
  "\u2581fu": 7048,
  "\u2581hardship": 7049,
  "\u2581lawlessness": 7050,
  "\u2581loose": 7051,
  "\u2581mail": 7052,
  "\u2581movies": 7053,
  "\u2581multitude": 7054,
  "\u2581observance": 7055,
  "\u2581proves": 7056,
  "\u2581silence": 7057,
  "\u2581spared": 7058,
  "\u2581speed": 7059,
  "\u2581tautupu": 7060,
  "\u2581tootoo": 7061,
  "\u2581waste": 7062,
  "\u2581west": 7063,
  "5": 7064,
  "afitu": 7065,
  "motu": 7066,
  "\u2581Brothers": 7067,
  "\u2581Care": 7068,
  "\u2581Coliseum": 7069,
  "\u2581DNA": 7070,
  "\u2581Iako": 7071,
  "\u2581Philippi": 7072,
  "\u2581acquired": 7073,
  "\u2581apostasy": 7074,
  "\u2581bonds": 7075,
  "\u2581connected": 7076,
  "\u2581deed": 7077,
  "\u2581director": 7078,
  "\u2581double": 7079,
  "\u2581exquisite": 7080,
  "\u2581faagalo": 7081,
  "\u2581faaletausaga": 7082,
  "\u2581generations": 7083,
  "\u2581maketi": 7084,
  "\u2581metotia": 7085,
  "\u2581moments": 7086,
  "\u2581momomo": 7087,
  "\u2581seated": 7088,
  "\u2581sinner": 7089,
  "\u2581tuutuuga": 7090,
  "\u2581vavau": 7091,
  "\u2581warmly": 7092,
  "auaiga": 7093,
  "\u25812]": 7094,
  "\u2581Answers": 7095,
  "\u2581Atunuu": 7096,
  "\u2581Catholics": 7097,
  "\u2581Changes": 7098,
  "\u2581Index": 7099,
  "\u2581Mediterranean": 7100,
  "\u2581Ones": 7101,
  "\u2581Point": 7102,
  "\u2581Suppose": 7103,
  "\u2581apparent": 7104,
  "\u2581buried": 7105,
  "\u2581combined": 7106,
  "\u2581deny": 7107,
  "\u2581doctrines": 7108,
  "\u2581document": 7109,
  "\u2581exclaimed": 7110,
  "\u2581faamalieloto": 7111,
  "\u2581fafau": 7112,
  "\u2581fierce": 7113,
  "\u2581glorified": 7114,
  "\u2581hall": 7115,
  "\u2581handled": 7116,
  "\u2581hinder": 7117,
  "\u2581immense": 7118,
  "\u2581onomea": 7119,
  "\u2581pour": 7120,
  "\u2581shadow": 7121,
  "\u2581structure": 7122,
  "\u2581submission": 7123,
  "\u2581symbolized": 7124,
  "\u2581tomorrow": 7125,
  "\u2581tool": 7126,
  "\u2581uncleanness": 7127,
  "\u2581valued": 7128,
  "\u2581vessel": 7129,
  "di": 7130,
  "gave": 7131,
  "ifau": 7132,
  "\u258163": 7133,
  "\u2581700": 7134,
  "\u2581Actually": 7135,
  "\u2581Apply": 7136,
  "\u2581Courtesy": 7137,
  "\u2581Faalogo": 7138,
  "\u2581Fe": 7139,
  "\u2581Jos\u00e9": 7140,
  "\u2581Kuresa": 7141,
  "\u2581Metitirani": 7142,
  "\u2581Myanmar": 7143,
  "\u2581Sini": 7144,
  "\u2581Syria": 7145,
  "\u2581Third": 7146,
  "\u2581Tolu": 7147,
  "\u2581Worldwide": 7148,
  "\u2581adding": 7149,
  "\u2581attached": 7150,
  "\u2581avetaavale": 7151,
  "\u2581bank": 7152,
  "\u2581blesses": 7153,
  "\u2581collection": 7154,
  "\u2581crown": 7155,
  "\u2581devastating": 7156,
  "\u2581developments": 7157,
  "\u2581devote": 7158,
  "\u2581disposed": 7159,
  "\u2581enjoyment": 7160,
  "\u2581faagaoioi": 7161,
  "\u2581faam\u0101": 7162,
  "\u2581fanauina": 7163,
  "\u2581fetafa": 7164,
  "\u2581fruitful": 7165,
  "\u2581golden": 7166,
  "\u2581ideal": 7167,
  "\u2581identifie": 7168,
  "\u2581impart": 7169,
  "\u2581mafaitaulia": 7170,
  "\u2581maso\u0101": 7171,
  "\u2581purposed": 7172,
  "\u2581sacrificial": 7173,
  "\u2581stable": 7174,
  "\u2581tagolima": 7175,
  "\u2581target": 7176,
  "\u2581weaken": 7177,
  "\u2581wearing": 7178,
  "Amu": 7179,
  "Faa": 7180,
  "ent": 7181,
  "love": 7182,
  "ng": 7183,
  "taimi": 7184,
  "\u25816,000": 7185,
  "\u258184": 7186,
  "\u2581FAIA": 7187,
  "\u2581Ioelu": 7188,
  "\u2581Iunivesite": 7189,
  "\u2581Looking": 7190,
  "\u2581L\u0101l\u0101": 7191,
  "\u2581Mankind": 7192,
  "\u2581Obviously": 7193,
  "\u2581Pa": 7194,
  "\u2581Poland": 7195,
  "\u2581Reign": 7196,
  "\u2581Victoria": 7197,
  "\u2581WHO": 7198,
  "\u2581avefe": 7199,
  "\u2581cultural": 7200,
  "\u2581deliberately": 7201,
  "\u2581desperate": 7202,
  "\u2581destructive": 7203,
  "\u2581distressing": 7204,
  "\u2581exclusive": 7205,
  "\u2581expresse": 7206,
  "\u2581falls": 7207,
  "\u2581favorite": 7208,
  "\u2581indication": 7209,
  "\u2581laugatasi": 7210,
  "\u2581logolelei": 7211,
  "\u2581offices": 7212,
  "\u2581planned": 7213,
  "\u2581praised": 7214,
  "\u2581pupuu": 7215,
  "\u2581rapidly": 7216,
  "\u2581rebels": 7217,
  "\u2581recommend": 7218,
  "\u2581recommended": 7219,
  "\u2581reduced": 7220,
  "\u2581romantic": 7221,
  "\u2581sheba": 7222,
  "\u2581shepherding": 7223,
  "\u2581skill": 7224,
  "\u2581taualuga": 7225,
  "\u2581university": 7226,
  "\u2581villages": 7227,
  "\u2581volume": 7228,
  "\u2581watched": 7229,
  "At": 7230,
  "ITA": 7231,
  "lu": 7232,
  "put": 7233,
  "time": 7234,
  "\u2581Accordingly": 7235,
  "\u2581FAITAU": 7236,
  "\u2581FESOASOANI": 7237,
  "\u2581Filipaina": 7238,
  "\u2581Journal": 7239,
  "\u2581Korah": 7240,
  "\u2581Taiwan": 7241,
  "\u2581Vaai": 7242,
  "\u2581Vaaiga": 7243,
  "\u2581Z": 7244,
  "\u2581banned": 7245,
  "\u2581cease": 7246,
  "\u2581emphasis": 7247,
  "\u2581esteem": 7248,
  "\u2581faamutaina": 7249,
  "\u2581faasusulu": 7250,
  "\u2581guarantee": 7251,
  "\u2581initaneti": 7252,
  "\u2581misled": 7253,
  "\u2581mold": 7254,
  "\u2581naturally": 7255,
  "\u2581newborn": 7256,
  "\u2581nofonofo": 7257,
  "\u2581nutimomoia": 7258,
  "\u2581offense": 7259,
  "\u2581onto": 7260,
  "\u2581representatives": 7261,
  "\u2581rivers": 7262,
  "\u2581saisaitia": 7263,
  "\u2581sasaina": 7264,
  "\u2581scrolls": 7265,
  "\u2581sleeping": 7266,
  "\u2581spring": 7267,
  "\u2581suitulaga": 7268,
  "\u2581tauaaoina": 7269,
  "\u2581unnecessary": 7270,
  "\u2581vaieli": 7271,
  "\u2581worthless": 7272,
  "que": 7273,
  "\u2581Abigail": 7274,
  "\u2581Angels": 7275,
  "\u2581FANAU": 7276,
  "\u2581Fafine": 7277,
  "\u2581Happily": 7278,
  "\u2581Lumana": 7279,
  "\u2581Mari": 7280,
  "\u2581Mauaina": 7281,
  "\u2581Seeing": 7282,
  "\u2581TAUSAGA": 7283,
  "\u2581communities": 7284,
  "\u2581crisis": 7285,
  "\u2581disobey": 7286,
  "\u2581faafefeteina": 7287,
  "\u2581faasafua": 7288,
  "\u2581faasao": 7289,
  "\u2581faasausili": 7290,
  "\u2581fishing": 7291,
  "\u2581fixed": 7292,
  "\u2581instruct": 7293,
  "\u2581kamela": 7294,
  "\u2581l\u014dia": 7295,
  "\u2581mob": 7296,
  "\u2581normally": 7297,
  "\u2581pains": 7298,
  "\u2581pulou": 7299,
  "\u2581sowing": 7300,
  "\u2581staying": 7301,
  "\u2581totoga": 7302,
  "\u2581wings": 7303,
  "\u2581worst": 7304,
  "8": 7305,
  "Come": 7306,
  "mau": 7307,
  "nated": 7308,
  "specially": 7309,
  "\u2581ATUNUU": 7310,
  "\u2581Afiafi": 7311,
  "\u2581Aga": 7312,
  "\u2581Antonio": 7313,
  "\u2581Antwerp": 7314,
  "\u2581Art": 7315,
  "\u2581Bad": 7316,
  "\u2581CA": 7317,
  "\u2581CAN": 7318,
  "\u2581Continue": 7319,
  "\u2581Cyprus": 7320,
  "\u2581Ever": 7321,
  "\u2581Filifiliga": 7322,
  "\u2581Hawaii": 7323,
  "\u2581Portuguese": 7324,
  "\u2581Praise": 7325,
  "\u2581Rule": 7326,
  "\u2581Samu": 7327,
  "\u2581Susana": 7328,
  "\u2581Vatican": 7329,
  "\u2581Very": 7330,
  "\u2581ate": 7331,
  "\u2581attempts": 7332,
  "\u2581consist": 7333,
  "\u2581cooperation": 7334,
  "\u2581curse": 7335,
  "\u2581deserves": 7336,
  "\u2581earthquake": 7337,
  "\u2581evangelizers": 7338,
  "\u2581faaosofia": 7339,
  "\u2581festival": 7340,
  "\u2581grieving": 7341,
  "\u2581imitation": 7342,
  "\u2581kofe": 7343,
  "\u2581lift": 7344,
  "\u2581loneliness": 7345,
  "\u2581managed": 7346,
  "\u2581mapu": 7347,
  "\u2581moomooga": 7348,
  "\u2581oversight": 7349,
  "\u2581post": 7350,
  "\u2581prominence": 7351,
  "\u2581repay": 7352,
  "\u2581requests": 7353,
  "\u2581scattered": 7354,
  "\u2581setete": 7355,
  "\u2581sweet": 7356,
  "\u2581t\u0101mau": 7357,
  "\u2581uafu": 7358,
  "\u2581ultimately": 7359,
  "\u2581vavaeese": 7360,
  "\u2581v\u0101lea": 7361,
  "\u2581\u014dgatasi": 7362,
  "let": 7363,
  "\u25813.)": 7364,
  "\u258148.": 7365,
  "\u2581Anetioka": 7366,
  "\u2581Faamatalaina": 7367,
  "\u2581Highlights": 7368,
  "\u2581INA": 7369,
  "\u2581Ieu": 7370,
  "\u2581Lloyd": 7371,
  "\u2581Mikaele": 7372,
  "\u2581Pale": 7373,
  "\u2581TALA": 7374,
  "\u2581Together": 7375,
  "\u2581belonged": 7376,
  "\u2581comforts": 7377,
  "\u2581condemn": 7378,
  "\u2581conquer": 7379,
  "\u2581creating": 7380,
  "\u2581equipment": 7381,
  "\u2581fefaamagaloa": 7382,
  "\u2581filling": 7383,
  "\u2581improved": 7384,
  "\u2581judging": 7385,
  "\u2581lady": 7386,
  "\u2581lafi": 7387,
  "\u2581lug\u0101": 7388,
  "\u2581mission": 7389,
  "\u2581otaota": 7390,
  "\u2581partake": 7391,
  "\u2581professional": 7392,
  "\u2581ships": 7393,
  "\u2581snare": 7394,
  "\u2581tasks": 7395,
  "\u2581tog\u0101laau": 7396,
  "\u2581transformed": 7397,
  "\u2581tupuaga": 7398,
  "\u2581winds": 7399,
  "\u2581worshipp": 7400,
  "ists": 7401,
  "land": 7402,
  "mai": 7403,
  "rew": 7404,
  "utinoga": 7405,
  "\u25811992": 7406,
  "\u258135,": 7407,
  "\u2581Barr": 7408,
  "\u2581COR": 7409,
  "\u2581Everlasting": 7410,
  "\u2581Fia": 7411,
  "\u2581Koru": 7412,
  "\u2581Regardless": 7413,
  "\u2581Saniterini": 7414,
  "\u2581Standard": 7415,
  "\u2581aisa": 7416,
  "\u2581api": 7417,
  "\u2581aveeseina": 7418,
  "\u2581comply": 7419,
  "\u2581conclusions": 7420,
  "\u2581criminal": 7421,
  "\u2581crucial": 7422,
  "\u2581damaged": 7423,
  "\u2581devastated": 7424,
  "\u2581du": 7425,
  "\u2581element": 7426,
  "\u2581emperor": 7427,
  "\u2581fola": 7428,
  "\u2581fond": 7429,
  "\u2581foreigners": 7430,
  "\u2581heritage": 7431,
  "\u2581logical": 7432,
  "\u2581market": 7433,
  "\u2581meataumafa": 7434,
  "\u2581motusia": 7435,
  "\u2581portions": 7436,
  "\u2581proclaiming": 7437,
  "\u2581progressed": 7438,
  "\u2581recover": 7439,
  "\u2581representative": 7440,
  "\u2581revealing": 7441,
  "\u2581surroundings": 7442,
  "\u2581tagofia": 7443,
  "\u2581tauagavale": 7444,
  "\u2581tauanau": 7445,
  "\u2581tof\u0101": 7446,
  "\u2581topics": 7447,
  "\u2581treacherous": 7448,
  "\u2581volunteer": 7449,
  "ca": 7450,
  "netheless": 7451,
  "tau": 7452,
  "tupu": 7453,
  "\u25811,500": 7454,
  "\u25811988": 7455,
  "\u2581Aemaise": 7456,
  "\u2581Bath": 7457,
  "\u2581Branch": 7458,
  "\u2581Maliu": 7459,
  "\u2581NASA": 7460,
  "\u2581Ositaulaga": 7461,
  "\u2581Pay": 7462,
  "\u2581afford": 7463,
  "\u2581analyze": 7464,
  "\u2581armed": 7465,
  "\u2581cycle": 7466,
  "\u2581disastrous": 7467,
  "\u2581distressed": 7468,
  "\u2581faaoso": 7469,
  "\u2581formerly": 7470,
  "\u2581frustration": 7471,
  "\u2581fuaitau": 7472,
  "\u2581greedy": 7473,
  "\u2581immortality": 7474,
  "\u2581masalomia": 7475,
  "\u2581matel\u0101ina": 7476,
  "\u2581opens": 7477,
  "\u2581perish": 7478,
  "\u2581saga": 7479,
  "\u2581strict": 7480,
  "\u2581stupid": 7481,
  "\u2581tap\u0113": 7482,
  "LSO": 7483,
  "Photo": 7484,
  "RE": 7485,
  "ah": 7486,
  "ola": 7487,
  "\u25811974": 7488,
  "\u2581Age": 7489,
  "\u2581Arapi": 7490,
  "\u2581Dan": 7491,
  "\u2581Easter": 7492,
  "\u2581Hitila": 7493,
  "\u2581Sandra": 7494,
  "\u2581Siona": 7495,
  "\u2581Te": 7496,
  "\u2581Ulua": 7497,
  "\u2581Washington": 7498,
  "\u2581declares": 7499,
  "\u2581desert": 7500,
  "\u2581examined": 7501,
  "\u2581exercises": 7502,
  "\u2581faamaumauina": 7503,
  "\u2581faanuup\u014d": 7504,
  "\u2581faauta": 7505,
  "\u2581identifying": 7506,
  "\u2581instituted": 7507,
  "\u2581mainly": 7508,
  "\u2581manage": 7509,
  "\u2581noteworthy": 7510,
  "\u2581preparation": 7511,
  "\u2581remembering": 7512,
  "\u2581safely": 7513,
  "\u2581scroll": 7514,
  "\u2581shelter": 7515,
  "\u2581tumam\u0101": 7516,
  "\u2581usu": 7517,
  "\u2581virtual": 7518,
  "ol": 7519,
  "who": 7520,
  "\u25811963": 7521,
  "\u258141,": 7522,
  "\u258168": 7523,
  "\u2581Aneterea": 7524,
  "\u2581Car": 7525,
  "\u2581Kolo": 7526,
  "\u2581Report": 7527,
  "\u2581Review": 7528,
  "\u2581SALAM": 7529,
  "\u2581Talanoa": 7530,
  "\u2581apostates": 7531,
  "\u2581characteristics": 7532,
  "\u2581chores": 7533,
  "\u2581constructed": 7534,
  "\u2581counted": 7535,
  "\u2581dad": 7536,
  "\u2581disobedient": 7537,
  "\u2581faitioga": 7538,
  "\u2581festivals": 7539,
  "\u2581focusing": 7540,
  "\u2581funeral": 7541,
  "\u2581historians": 7542,
  "\u2581morality": 7543,
  "\u2581owe": 7544,
  "\u2581paka": 7545,
  "\u2581refugees": 7546,
  "\u2581respectfully": 7547,
  "\u2581roll": 7548,
  "\u2581somehow": 7549,
  "\u2581souled": 7550,
  "\u2581strife": 7551,
  "\u2581submitt": 7552,
  "\u2581sustained": 7553,
  "\u2581systems": 7554,
  "\u2581thanksgiving": 7555,
  "\u2581ultimate": 7556,
  "\u2581uputuu": 7557,
  "Just": 7558,
  "seed": 7559,
  "this": 7560,
  "\u2581'!": 7561,
  "\u2581Afe": 7562,
  "\u2581Centuries": 7563,
  "\u2581Hans": 7564,
  "\u2581Head": 7565,
  "\u2581Iosefatu": 7566,
  "\u2581PSALM": 7567,
  "\u2581Tauaofiaga": 7568,
  "\u2581Wessel": 7569,
  "\u2581blue": 7570,
  "\u2581breaking": 7571,
  "\u2581ceremony": 7572,
  "\u2581challenged": 7573,
  "\u2581contemplate": 7574,
  "\u2581define": 7575,
  "\u2581directions": 7576,
  "\u2581exhortation": 7577,
  "\u2581faaauupegaina": 7578,
  "\u2581faavaa": 7579,
  "\u2581farmer": 7580,
  "\u2581holiness": 7581,
  "\u2581inexperienced": 7582,
  "\u2581koluse": 7583,
  "\u2581lamp": 7584,
  "\u2581link": 7585,
  "\u2581logo": 7586,
  "\u2581match": 7587,
  "\u2581orders": 7588,
  "\u2581pipili": 7589,
  "\u2581propaganda": 7590,
  "\u2581recalled": 7591,
  "\u2581rooms": 7592,
  "\u2581schoolmates": 7593,
  "\u2581severely": 7594,
  "\u2581slowly": 7595,
  "\u2581stream": 7596,
  "\u2581sudden": 7597,
  "\u2581tendencies": 7598,
  "\u2581toatele": 7599,
  "\u2581torment": 7600,
  "\u2581tufaina": 7601,
  "aono": 7602,
  "ilagi": 7603,
  "tua": 7604,
  "\u258147.": 7605,
  "\u258167": 7606,
  "\u2581Days": 7607,
  "\u2581FAATA": 7608,
  "\u2581Iesepela": 7609,
  "\u2581Komunisi": 7610,
  "\u2581Louis": 7611,
  "\u2581Maker": 7612,
  "\u2581Simona": 7613,
  "\u2581Tell": 7614,
  "\u2581anamu\u0101": 7615,
  "\u2581apartment": 7616,
  "\u2581attacked": 7617,
  "\u2581behold": 7618,
  "\u2581complaint": 7619,
  "\u2581discourse": 7620,
  "\u2581disorder": 7621,
  "\u2581failautusi": 7622,
  "\u2581fefuli": 7623,
  "\u2581fortify": 7624,
  "\u2581fuel": 7625,
  "\u2581fulufulu": 7626,
  "\u2581function": 7627,
  "\u2581gate": 7628,
  "\u2581iinei": 7629,
  "\u2581iniseti": 7630,
  "\u2581lav\u0101": 7631,
  "\u2581legs": 7632,
  "\u2581lia": 7633,
  "\u2581longing": 7634,
  "\u2581masiofo": 7635,
  "\u2581missed": 7636,
  "\u2581neighborhood": 7637,
  "\u2581rarely": 7638,
  "\u2581sky": 7639,
  "\u2581tamatama": 7640,
  "\u2581tuufaatasiga": 7641,
  "\u2581utagiaina": 7642,
  "\u2581vivid": 7643,
  "\u2581wage": 7644,
  "\u2581waited": 7645,
  "et": 7646,
  "everal": 7647,
  "galuega": 7648,
  "puapuaga": 7649,
  "\u2581(\"": 7650,
  "\u2581Agalelei": 7651,
  "\u2581Atoatoa": 7652,
  "\u2581Au": 7653,
  "\u2581Aut\u016b": 7654,
  "\u2581Barak": 7655,
  "\u2581Gabriel": 7656,
  "\u2581Honor": 7657,
  "\u2581Lett": 7658,
  "\u2581OUR": 7659,
  "\u2581Sheol": 7660,
  "\u2581Sin": 7661,
  "\u2581Training": 7662,
  "\u2581Tuai": 7663,
  "\u2581arrange": 7664,
  "\u2581blow": 7665,
  "\u2581boldly": 7666,
  "\u2581coin": 7667,
  "\u2581coins": 7668,
  "\u2581confusion": 7669,
  "\u2581corrected": 7670,
  "\u2581deadly": 7671,
  "\u2581dishonor": 7672,
  "\u2581dressed": 7673,
  "\u2581existing": 7674,
  "\u2581faafinagaloina": 7675,
  "\u2581fails": 7676,
  "\u2581flowers": 7677,
  "\u2581fu\u0101": 7678,
  "\u2581heirs": 7679,
  "\u2581lofty": 7680,
  "\u2581mentally": 7681,
  "\u2581m\u016bsika": 7682,
  "\u2581necessities": 7683,
  "\u2581pai\u0113": 7684,
  "\u2581preacher": 7685,
  "\u2581rebelled": 7686,
  "\u2581respecting": 7687,
  "\u2581rose": 7688,
  "\u2581sessions": 7689,
  "\u2581sow": 7690,
  "\u2581taxes": 7691,
  "\u2581topic": 7692,
  "\u2581virgin": 7693,
  "\u2581voices": 7694,
  "\u2581wave": 7695,
  "Is": 7696,
  "are": 7697,
  "fesaga": 7698,
  "fua": 7699,
  "ius": 7700,
  "up": 7701,
  "\u2581127": 7702,
  "\u2581230": 7703,
  "\u258195": 7704,
  "\u2581ALA": 7705,
  "\u2581Alapania": 7706,
  "\u2581Example": 7707,
  "\u2581Faatatau": 7708,
  "\u2581Haggai": 7709,
  "\u2581Karl": 7710,
  "\u2581LAVA": 7711,
  "\u2581Mare": 7712,
  "\u2581Perea": 7713,
  "\u2581Pulea": 7714,
  "\u2581Religious": 7715,
  "\u2581Water": 7716,
  "\u2581Zambia": 7717,
  "\u2581advantages": 7718,
  "\u2581advised": 7719,
  "\u2581amioa": 7720,
  "\u2581bitterness": 7721,
  "\u2581captive": 7722,
  "\u2581conscientious": 7723,
  "\u2581educated": 7724,
  "\u2581embraced": 7725,
  "\u2581faatosinaga": 7726,
  "\u2581faaupu": 7727,
  "\u2581fare": 7728,
  "\u2581feola": 7729,
  "\u2581healthful": 7730,
  "\u2581height": 7731,
  "\u2581invites": 7732,
  "\u2581kg": 7733,
  "\u2581locations": 7734,
  "\u2581melea": 7735,
  "\u2581ofutau": 7736,
  "\u2581remembers": 7737,
  "\u2581sainia": 7738,
  "\u2581secretary": 7739,
  "\u2581survival": 7740,
  "\u2581tauv\u0101": 7741,
  "\u2581tomb": 7742,
  "\u2581translate": 7743,
  "From": 7744,
  "With": 7745,
  "amo": 7746,
  "autoeaina": 7747,
  "ha": 7748,
  "ph": 7749,
  "wept": 7750,
  "\u0101p\u0101": 7751,
  "\u25811972": 7752,
  "\u2581Afterward": 7753,
  "\u2581Apparently": 7754,
  "\u2581Century": 7755,
  "\u2581Elizabeth": 7756,
  "\u2581FAAPEA": 7757,
  "\u2581JOHN": 7758,
  "\u2581Lomiga": 7759,
  "\u2581Manumalo": 7760,
  "\u2581Strong": 7761,
  "\u2581absolute": 7762,
  "\u2581alcoholic": 7763,
  "\u2581bottom": 7764,
  "\u2581broad": 7765,
  "\u2581counseled": 7766,
  "\u2581demanding": 7767,
  "\u2581earthquakes": 7768,
  "\u2581exalted": 7769,
  "\u2581faagaee": 7770,
  "\u2581faifaiva": 7771,
  "\u2581flocks": 7772,
  "\u2581harder": 7773,
  "\u2581lapo": 7774,
  "\u2581lifted": 7775,
  "\u2581misleading": 7776,
  "\u2581motivation": 7777,
  "\u2581pounds": 7778,
  "\u2581prevented": 7779,
  "\u2581promoting": 7780,
  "\u2581reflection": 7781,
  "\u2581rising": 7782,
  "\u2581sadness": 7783,
  "\u2581striking": 7784,
  "\u2581stuck": 7785,
  "\u2581tablets": 7786,
  "\u2581theory": 7787,
  "\u2581till": 7788,
  "\u2581tuliesea": 7789,
  "\u2581unrepentant": 7790,
  "\u2581vaituloto": 7791,
  "\u2581vessels": 7792,
  "\u2581wanting": 7793,
  "\u2581worshipper": 7794,
  "Christ": 7795,
  "ad": 7796,
  "can": 7797,
  "foa": 7798,
  "mi": 7799,
  "nt": 7800,
  "ong": 7801,
  "those": 7802,
  "\u25811954": 7803,
  "\u25811986": 7804,
  "\u258194": 7805,
  "\u2581Author": 7806,
  "\u2581Hakai": 7807,
  "\u2581Home": 7808,
  "\u2581Jehoshaphat": 7809,
  "\u2581Live": 7810,
  "\u2581Medic": 7811,
  "\u2581Must": 7812,
  "\u2581Parako": 7813,
  "\u2581Savior": 7814,
  "\u2581Serve": 7815,
  "\u2581Set": 7816,
  "\u2581Song": 7817,
  "\u2581Tetee": 7818,
  "\u2581agi": 7819,
  "\u2581arriving": 7820,
  "\u2581booklet": 7821,
  "\u2581coping": 7822,
  "\u2581eighth": 7823,
  "\u2581faatag\u0101fai": 7824,
  "\u2581faitele": 7825,
  "\u2581frequent": 7826,
  "\u2581grounds": 7827,
  "\u2581imply": 7828,
  "\u2581individually": 7829,
  "\u2581killing": 7830,
  "\u2581lacked": 7831,
  "\u2581liar": 7832,
  "\u2581piliki": 7833,
  "\u2581plays": 7834,
  "\u2581pon\u0101": 7835,
  "\u2581prey": 7836,
  "\u2581repented": 7837,
  "\u2581roots": 7838,
  "\u2581round": 7839,
  "\u2581struggled": 7840,
  "\u2581tufuga": 7841,
  "\u2581undermine": 7842,
  "\u2581window": 7843,
  "ER": 7844,
  "\u2581(6)": 7845,
  "\u2581148": 7846,
  "\u25811962": 7847,
  "\u2581Aof": 7848,
  "\u2581FAALE": 7849,
  "\u2581Faamalosia": 7850,
  "\u2581HISTORY": 7851,
  "\u2581Kindness": 7852,
  "\u2581Mate": 7853,
  "\u2581Philippines": 7854,
  "\u2581Seek": 7855,
  "\u2581absorbed": 7856,
  "\u2581appreciative": 7857,
  "\u2581babies": 7858,
  "\u2581bird": 7859,
  "\u2581cited": 7860,
  "\u2581collect": 7861,
  "\u2581conquest": 7862,
  "\u2581cutting": 7863,
  "\u2581deceased": 7864,
  "\u2581defined": 7865,
  "\u2581employed": 7866,
  "\u2581enthusiasm": 7867,
  "\u2581evangelizer": 7868,
  "\u2581exhorted": 7869,
  "\u2581faaopoopoga": 7870,
  "\u2581faaua": 7871,
  "\u2581faauuga": 7872,
  "\u2581faitauga": 7873,
  "\u2581fatafata": 7874,
  "\u2581figures": 7875,
  "\u2581fitoi": 7876,
  "\u2581fuga": 7877,
  "\u2581galu": 7878,
  "\u2581imagined": 7879,
  "\u2581immune": 7880,
  "\u2581liked": 7881,
  "\u2581lotoleaga": 7882,
  "\u2581mixed": 7883,
  "\u2581organizations": 7884,
  "\u2581positively": 7885,
  "\u2581ruins": 7886,
  "\u2581section": 7887,
  "\u2581su\u0101sami": 7888,
  "\u2581symptoms": 7889,
  "\u2581taupousa": 7890,
  "\u2581thinks": 7891,
  "\u2581threats": 7892,
  "\u2581troops": 7893,
  "\u2581tuiina": 7894,
  "\u2581utaga": 7895,
  "LY": 7896,
  "Lord": 7897,
  "ena": 7898,
  "ivic": 7899,
  "lways": 7900,
  "ot": 7901,
  "working": 7902,
  "\u2581Anamua": 7903,
  "\u2581Asaph": 7904,
  "\u2581Association": 7905,
  "\u2581California": 7906,
  "\u2581Daily": 7907,
  "\u2581Fea": 7908,
  "\u2581Into": 7909,
  "\u2581Jan": 7910,
  "\u2581Japanese": 7911,
  "\u2581Lavea": 7912,
  "\u2581Mind": 7913,
  "\u2581TAIMI": 7914,
  "\u2581Thousands": 7915,
  "\u2581attempted": 7916,
  "\u2581believes": 7917,
  "\u2581celebrate": 7918,
  "\u2581cleansed": 7919,
  "\u2581cured": 7920,
  "\u2581dignified": 7921,
  "\u2581dollars": 7922,
  "\u2581donation": 7923,
  "\u2581emblems": 7924,
  "\u2581excel": 7925,
  "\u2581faamoega": 7926,
  "\u2581faatagataotaua": 7927,
  "\u2581faautaga": 7928,
  "\u2581financially": 7929,
  "\u2581flight": 7930,
  "\u2581fuata": 7931,
  "\u2581generously": 7932,
  "\u2581guards": 7933,
  "\u2581mutual": 7934,
  "\u2581nights": 7935,
  "\u2581ofuina": 7936,
  "\u2581palapal\u0101": 7937,
  "\u2581participation": 7938,
  "\u2581planted": 7939,
  "\u2581print": 7940,
  "\u2581regain": 7941,
  "\u2581selling": 7942,
  "\u2581surgery": 7943,
  "\u2581teeth": 7944,
  "\u2581uli": 7945,
  "\u2581warmth": 7946,
  "\u2581weighed": 7947,
  "alu": 7948,
  "q": 7949,
  "\u258131;": 7950,
  "\u25815,000": 7951,
  "\u258169": 7952,
  "\u2581Amio": 7953,
  "\u2581Benefit": 7954,
  "\u2581Cyril": 7955,
  "\u2581Eso": 7956,
  "\u2581Jesse": 7957,
  "\u2581Jezebel": 7958,
  "\u2581Mr": 7959,
  "\u2581Naamanu": 7960,
  "\u2581Naunau": 7961,
  "\u2581Rosa": 7962,
  "\u2581Rose": 7963,
  "\u2581Understandably": 7964,
  "\u2581affliction": 7965,
  "\u2581carries": 7966,
  "\u2581confidently": 7967,
  "\u2581decree": 7968,
  "\u2581dictionary": 7969,
  "\u2581faalata": 7970,
  "\u2581faamalamalamaga": 7971,
  "\u2581faameaalofa": 7972,
  "\u2581freed": 7973,
  "\u2581grandmother": 7974,
  "\u2581impress": 7975,
  "\u2581inisi": 7976,
  "\u2581legally": 7977,
  "\u2581loka": 7978,
  "\u2581lotofiafia": 7979,
  "\u2581lotonuu": 7980,
  "\u2581noble": 7981,
  "\u2581sale": 7982,
  "\u2581saosaoa": 7983,
  "\u2581selfishness": 7984,
  "\u2581tauina": 7985,
  "\u2581western": 7986,
  "Ae": 7987,
  "nuu": 7988,
  "orial": 7989,
  "\u2581103": 7990,
  "\u2581Austria": 7991,
  "\u2581Christine": 7992,
  "\u2581Christlike": 7993,
  "\u2581Council": 7994,
  "\u2581En": 7995,
  "\u2581Est": 7996,
  "\u2581Four": 7997,
  "\u2581Full": 7998,
  "\u2581House": 7999,
  "\u2581Itulau": 8000,
  "\u2581Jersey": 8001,
  "\u2581Kerisinetoma": 8002,
  "\u2581Philo": 8003,
  "\u2581Puipuia": 8004,
  "\u2581Quebec": 8005,
  "\u2581SUIA": 8006,
  "\u2581Storrs": 8007,
  "\u2581Suffering": 8008,
  "\u2581Tepora": 8009,
  "\u2581Teu": 8010,
  "\u2581Than": 8011,
  "\u2581Whom": 8012,
  "\u2581argument": 8013,
  "\u2581befall": 8014,
  "\u2581behave": 8015,
  "\u2581cleanse": 8016,
  "\u2581confess": 8017,
  "\u2581dance": 8018,
  "\u2581disturbed": 8019,
  "\u2581employer": 8020,
  "\u2581faaopoopoina": 8021,
  "\u2581fearful": 8022,
  "\u2581film": 8023,
  "\u2581follower": 8024,
  "\u2581gray": 8025,
  "\u2581mile": 8026,
  "\u2581occupied": 8027,
  "\u2581pace": 8028,
  "\u2581prayerfully": 8029,
  "\u2581professed": 8030,
  "\u2581p\u014duliuli": 8031,
  "\u2581reache": 8032,
  "\u2581regarded": 8033,
  "\u2581responding": 8034,
  "\u2581shy": 8035,
  "\u2581stranger": 8036,
  "\u2581submissive": 8037,
  "\u2581tofiaina": 8038,
  "\u2581unjust": 8039,
  "\u2581violate": 8040,
  "\u2581washed": 8041,
  "?...": 8042,
  "L\u0113": 8043,
  "Where": 8044,
  "ana": 8045,
  "ner": 8046,
  "op": 8047,
  "per": 8048,
  "\u25812016": 8049,
  "\u258121.)": 8050,
  "\u2581AIGA": 8051,
  "\u2581Asafo": 8052,
  "\u2581Caleb": 8053,
  "\u2581Die": 8054,
  "\u2581Edition": 8055,
  "\u2581Emperor": 8056,
  "\u2581Fua": 8057,
  "\u2581Mala": 8058,
  "\u2581Moab": 8059,
  "\u2581Naaman": 8060,
  "\u2581None": 8061,
  "\u2581Page": 8062,
  "\u2581Ponti": 8063,
  "\u2581Swahili": 8064,
  "\u2581UN": 8065,
  "\u2581accusations": 8066,
  "\u2581aeto": 8067,
  "\u2581alienate": 8068,
  "\u2581alike": 8069,
  "\u2581al\u0101toto": 8070,
  "\u2581amatamataga": 8071,
  "\u2581anguish": 8072,
  "\u2581answering": 8073,
  "\u2581burial": 8074,
  "\u2581burn": 8075,
  "\u2581concludes": 8076,
  "\u2581consistent": 8077,
  "\u2581crush": 8078,
  "\u2581definitely": 8079,
  "\u2581denied": 8080,
  "\u2581deserving": 8081,
  "\u2581differently": 8082,
  "\u2581distracted": 8083,
  "\u2581expert": 8084,
  "\u2581faaluaina": 8085,
  "\u2581faamamafaina": 8086,
  "\u2581faatautaia": 8087,
  "\u2581faavaea": 8088,
  "\u2581fesuia": 8089,
  "\u2581greatness": 8090,
  "\u2581guidelines": 8091,
  "\u2581hospitable": 8092,
  "\u2581impressive": 8093,
  "\u2581keenly": 8094,
  "\u2581longtime": 8095,
  "\u2581misunderstand": 8096,
  "\u2581pesega": 8097,
  "\u2581port": 8098,
  "\u2581prayerful": 8099,
  "\u2581sixth": 8100,
  "\u2581soft": 8101,
  "\u2581tagiau\u0113": 8102,
  "\u2581t\u0101l\u0101": 8103,
  "atalii": 8104,
  "thing": 8105,
  "\u00b0": 8106,
  "\u2581Along": 8107,
  "\u2581Aoao": 8108,
  "\u2581Better": 8109,
  "\u2581Common": 8110,
  "\u2581Ferdinand": 8111,
  "\u2581Five": 8112,
  "\u2581Friends": 8113,
  "\u2581Nisi": 8114,
  "\u2581Stand": 8115,
  "\u2581Suddenly": 8116,
  "\u2581TEACHINGS": 8117,
  "\u2581Thanks": 8118,
  "\u2581Unti": 8119,
  "\u2581Valley": 8120,
  "\u2581Valoaga": 8121,
  "\u2581WHY": 8122,
  "\u2581absence": 8123,
  "\u2581atolaau": 8124,
  "\u2581cleanness": 8125,
  "\u2581conceal": 8126,
  "\u2581di": 8127,
  "\u2581dishonest": 8128,
  "\u2581earlie": 8129,
  "\u2581faalolo": 8130,
  "\u2581falsely": 8131,
  "\u2581feinu": 8132,
  "\u2581forsake": 8133,
  "\u2581gau": 8134,
  "\u2581hurled": 8135,
  "\u2581liu": 8136,
  "\u2581materialism": 8137,
  "\u2581materialistic": 8138,
  "\u2581ocean": 8139,
  "\u2581pulelaa": 8140,
  "\u2581recogniz": 8141,
  "\u2581remembrance": 8142,
  "\u2581reproof": 8143,
  "\u2581searched": 8144,
  "\u2581session": 8145,
  "\u2581spot": 8146,
  "\u2581surviving": 8147,
  "\u2581tauatane": 8148,
  "\u2581traffic": 8149,
  "\u2581umia": 8150,
  "\u2581vavalo": 8151,
  "\u2581vicious": 8152,
  "OGA": 8153,
  "lar": 8154,
  "lona": 8155,
  "ru": 8156,
  "their": 8157,
  "\u2581106": 8158,
  "\u25811966": 8159,
  "\u25811975": 8160,
  "\u2581250": 8161,
  "\u258178": 8162,
  "\u258191": 8163,
  "\u2581Anthony": 8164,
  "\u2581Anyone": 8165,
  "\u2581Atoa": 8166,
  "\u2581Central": 8167,
  "\u2581Comfort": 8168,
  "\u2581Earlier": 8169,
  "\u2581Frank": 8170,
  "\u2581Guide": 8171,
  "\u2581JUL": 8172,
  "\u2581Judaism": 8173,
  "\u2581Nicaragua": 8174,
  "\u2581Pono": 8175,
  "\u2581Saturday": 8176,
  "\u2581Writing": 8177,
  "\u2581contend": 8178,
  "\u2581describing": 8179,
  "\u2581desiring": 8180,
  "\u2581directing": 8181,
  "\u2581excessive": 8182,
  "\u2581hellfire": 8183,
  "\u2581injured": 8184,
  "\u2581instructor": 8185,
  "\u2581intellectual": 8186,
  "\u2581interfere": 8187,
  "\u2581manufelelei": 8188,
  "\u2581parallel": 8189,
  "\u2581partial": 8190,
  "\u2581partners": 8191,
  "\u2581prevail": 8192,
  "\u2581provoked": 8193,
  "\u2581racial": 8194,
  "\u2581rejecting": 8195,
  "\u2581renewed": 8196,
  "\u2581requested": 8197,
  "\u2581sasao": 8198,
  "\u2581tuliloa": 8199,
  "\u2581uncertain": 8200,
  "\u2581utterance": 8201,
  "\u2581vaaitino": 8202,
  "\u2581visions": 8203,
  ",000,000": 8204,
  "cy": 8205,
  "dmittedly": 8206,
  "ence": 8207,
  "human": 8208,
  "itau": 8209,
  "upreme": 8210,
  "\u258189": 8211,
  "\u2581China": 8212,
  "\u2581Chron": 8213,
  "\u2581Coast": 8214,
  "\u2581Con": 8215,
  "\u2581Deborah": 8216,
  "\u2581Feagai": 8217,
  "\u2581Finding": 8218,
  "\u2581Harold": 8219,
  "\u2581Jah": 8220,
  "\u2581Macedonia": 8221,
  "\u2581Moretekai": 8222,
  "\u2581Netherlands": 8223,
  "\u2581Puta": 8224,
  "\u2581Switzerland": 8225,
  "\u2581Uro": 8226,
  "\u2581Yourself": 8227,
  "\u2581addiction": 8228,
  "\u2581adjusted": 8229,
  "\u2581arguments": 8230,
  "\u2581begged": 8231,
  "\u2581celebrated": 8232,
  "\u2581committ": 8233,
  "\u2581contemporaries": 8234,
  "\u2581correctly": 8235,
  "\u2581decisive": 8236,
  "\u2581envy": 8237,
  "\u2581evangelizing": 8238,
  "\u2581faanan\u0101": 8239,
  "\u2581faipisinisi": 8240,
  "\u2581firsthand": 8241,
  "\u2581illegal": 8242,
  "\u2581kasa": 8243,
  "\u2581lafumanu": 8244,
  "\u2581map": 8245,
  "\u2581march": 8246,
  "\u2581ofi": 8247,
  "\u2581portray": 8248,
  "\u2581priceless": 8249,
  "\u2581progressively": 8250,
  "\u2581psalms": 8251,
  "\u2581pupuni": 8252,
  "\u2581qualifications": 8253,
  "\u2581reacted": 8254,
  "\u2581rightful": 8255,
  "\u2581risks": 8256,
  "\u2581rooted": 8257,
  "\u2581shocked": 8258,
  "\u2581sosolo": 8259,
  "\u2581spies": 8260,
  "\u2581talafatu": 8261,
  "\u2581talatala": 8262,
  "\u2581togi": 8263,
  "One": 8264,
  "every": 8265,
  "io": 8266,
  "ko": 8267,
  "\u0100": 8268,
  "\u25811933": 8269,
  "\u2581Assyrian": 8270,
  "\u2581Canaanite": 8271,
  "\u2581Franz": 8272,
  "\u2581Greeks": 8273,
  "\u2581JESUS": 8274,
  "\u2581Kim": 8275,
  "\u2581Mozambique": 8276,
  "\u2581NISI": 8277,
  "\u2581Oseteria": 8278,
  "\u2581Place": 8279,
  "\u2581Port": 8280,
  "\u2581Vine": 8281,
  "\u2581acknowledges": 8282,
  "\u2581adapt": 8283,
  "\u2581block": 8284,
  "\u2581bold": 8285,
  "\u2581cleaning": 8286,
  "\u2581committee": 8287,
  "\u2581curious": 8288,
  "\u2581discerned": 8289,
  "\u2581donor": 8290,
  "\u2581dozen": 8291,
  "\u2581enormous": 8292,
  "\u2581expense": 8293,
  "\u2581faagutugutulua": 8294,
  "\u2581fame": 8295,
  "\u2581formal": 8296,
  "\u2581guides": 8297,
  "\u2581hostile": 8298,
  "\u2581inclinations": 8299,
  "\u2581inform": 8300,
  "\u2581instruments": 8301,
  "\u2581joys": 8302,
  "\u2581leleiga": 8303,
  "\u2581liulotu": 8304,
  "\u2581meafai": 8305,
  "\u2581neglected": 8306,
  "\u2581oneself": 8307,
  "\u2581pregnancy": 8308,
  "\u2581production": 8309,
  "\u2581resting": 8310,
  "\u2581sacrificed": 8311,
  "\u2581savaliga": 8312,
  "\u2581shaped": 8313,
  "\u2581taofimau": 8314,
  "\u2581temporarily": 8315,
  "\u2581tour": 8316,
  "\u2581weapon": 8317,
  "\u2581\u014c": 8318,
  "Ai": 8319,
  "That": 8320,
  "V": 8321,
  "afim\u0101lie": 8322,
  "aufaaliliu": 8323,
  "aze": 8324,
  "fiafia": 8325,
  "gi": 8326,
  "ological": 8327,
  "sh": 8328,
  "\u2581Anointed": 8329,
  "\u2581Articles": 8330,
  "\u2581Assyria": 8331,
  "\u2581Bay": 8332,
  "\u2581Faafetai": 8333,
  "\u2581Fautuaga": 8334,
  "\u2581Gentile": 8335,
  "\u2581Giver": 8336,
  "\u2581Jaracz": 8337,
  "\u2581Kalepo": 8338,
  "\u2581Kirisimasi": 8339,
  "\u2581MATA": 8340,
  "\u2581Queen": 8341,
  "\u2581Santa": 8342,
  "\u2581Say": 8343,
  "\u2581Search": 8344,
  "\u2581Sign": 8345,
  "\u2581Tina": 8346,
  "\u2581Tuvalu": 8347,
  "\u2581accuracy": 8348,
  "\u2581amounts": 8349,
  "\u2581assembled": 8350,
  "\u2581burnt": 8351,
  "\u2581carpenter": 8352,
  "\u2581chooses": 8353,
  "\u2581comprehend": 8354,
  "\u2581damaging": 8355,
  "\u2581deceive": 8356,
  "\u2581defeat": 8357,
  "\u2581detestable": 8358,
  "\u2581displays": 8359,
  "\u2581distinct": 8360,
  "\u2581distribution": 8361,
  "\u2581dominated": 8362,
  "\u2581eggs": 8363,
  "\u2581elevated": 8364,
  "\u2581estate": 8365,
  "\u2581faafofogaina": 8366,
  "\u2581faaili": 8367,
  "\u2581industry": 8368,
  "\u2581joint": 8369,
  "\u2581lauolaola": 8370,
  "\u2581mataalia": 8371,
  "\u2581maumau": 8372,
  "\u2581mirror": 8373,
  "\u2581olataga": 8374,
  "\u2581packed": 8375,
  "\u2581perceived": 8376,
  "\u2581ride": 8377,
  "\u2581smaller": 8378,
  "\u2581starts": 8379,
  "\u2581tauvaga": 8380,
  "\u2581transfusions": 8381,
  "\u2581valavala": 8382,
  "\u2581wake": 8383,
  "SE": 8384,
  "oefuata": 8385,
  "ros": 8386,
  "utonuina": 8387,
  "\u25811937": 8388,
  "\u25811965": 8389,
  "\u25811985": 8390,
  "\u25813,500": 8391,
  "\u2581Amata": 8392,
  "\u2581Ann": 8393,
  "\u2581Archives": 8394,
  "\u2581Jim": 8395,
  "\u2581Madagascar": 8396,
  "\u2581Madrid": 8397,
  "\u2581Michelle": 8398,
  "\u2581PERETANIA": 8399,
  "\u2581Question": 8400,
  "\u2581Rico": 8401,
  "\u2581US": 8402,
  "\u2581appetite": 8403,
  "\u2581bicycle": 8404,
  "\u2581caution": 8405,
  "\u2581considerate": 8406,
  "\u2581controlled": 8407,
  "\u2581cool": 8408,
  "\u2581corner": 8409,
  "\u2581drove": 8410,
  "\u2581equip": 8411,
  "\u2581faaaog\u0101ses\u0113ina": 8412,
  "\u2581faaletapua": 8413,
  "\u2581faamoemoeina": 8414,
  "\u2581faasaoola": 8415,
  "\u2581fifilemu": 8416,
  "\u2581honored": 8417,
  "\u2581intention": 8418,
  "\u2581intimacy": 8419,
  "\u2581lasted": 8420,
  "\u2581loli": 8421,
  "\u2581lupe": 8422,
  "\u2581purchase": 8423,
  "\u2581questioned": 8424,
  "\u2581regulations": 8425,
  "\u2581remarks": 8426,
  "\u2581scenes": 8427,
  "\u2581teen": 8428,
[...]
